{
  "version": "1.0",
  "truncation": null,
  "padding": null,
  "added_tokens": [
    {
      "id": 0,
      "content": "<PAD>",
      "single_word": false,
      "lstrip": false,
      "rstrip": false,
      "normalized": false,
      "special": true
    },
    {
      "id": 1,
      "content": "<SOS>",
      "single_word": false,
      "lstrip": false,
      "rstrip": false,
      "normalized": false,
      "special": true
    },
    {
      "id": 2,
      "content": "<EOS>",
      "single_word": false,
      "lstrip": false,
      "rstrip": false,
      "normalized": false,
      "special": true
    },
    {
      "id": 3,
      "content": "<UNK>",
      "single_word": false,
      "lstrip": false,
      "rstrip": false,
      "normalized": false,
      "special": true
    },
    {
      "id": 4,
      "content": "<MASK>",
      "single_word": false,
      "lstrip": false,
      "rstrip": false,
      "normalized": false,
      "special": true
    }
  ],
  "normalizer": {
    "type": "Sequence",
    "normalizers": [
      {
        "type": "NFD"
      },
      {
        "type": "Lowercase"
      },
      {
        "type": "StripAccents"
      }
    ]
  },
  "pre_tokenizer": {
    "type": "ByteLevel",
    "add_prefix_space": false,
    "trim_offsets": true,
    "use_regex": true
  },
  "post_processor": {
    "type": "ByteLevel",
    "add_prefix_space": true,
    "trim_offsets": false,
    "use_regex": true
  },
  "decoder": {
    "type": "ByteLevel",
    "add_prefix_space": true,
    "trim_offsets": true,
    "use_regex": true
  },
  "model": {
    "type": "BPE",
    "dropout": null,
    "unk_token": "<UNK>",
    "continuing_subword_prefix": null,
    "end_of_word_suffix": null,
    "fuse_unk": false,
    "byte_fallback": false,
    "ignore_merges": false,
    "vocab": {
      "<PAD>": 0,
      "<SOS>": 1,
      "<EOS>": 2,
      "<UNK>": 3,
      "<MASK>": 4,
      "!": 5,
      "\"": 6,
      "#": 7,
      "$": 8,
      "%": 9,
      "&": 10,
      "'": 11,
      "(": 12,
      ")": 13,
      "*": 14,
      "+": 15,
      ",": 16,
      "-": 17,
      ".": 18,
      "/": 19,
      "0": 20,
      "1": 21,
      "2": 22,
      "3": 23,
      "4": 24,
      "5": 25,
      "6": 26,
      "7": 27,
      "8": 28,
      "9": 29,
      ":": 30,
      ";": 31,
      "<": 32,
      "=": 33,
      ">": 34,
      "?": 35,
      "@": 36,
      "A": 37,
      "B": 38,
      "C": 39,
      "D": 40,
      "E": 41,
      "F": 42,
      "G": 43,
      "H": 44,
      "I": 45,
      "J": 46,
      "K": 47,
      "L": 48,
      "M": 49,
      "N": 50,
      "O": 51,
      "P": 52,
      "Q": 53,
      "R": 54,
      "S": 55,
      "T": 56,
      "U": 57,
      "V": 58,
      "W": 59,
      "X": 60,
      "Y": 61,
      "Z": 62,
      "[": 63,
      "\\": 64,
      "]": 65,
      "^": 66,
      "_": 67,
      "`": 68,
      "a": 69,
      "b": 70,
      "c": 71,
      "d": 72,
      "e": 73,
      "f": 74,
      "g": 75,
      "h": 76,
      "i": 77,
      "j": 78,
      "k": 79,
      "l": 80,
      "m": 81,
      "n": 82,
      "o": 83,
      "p": 84,
      "q": 85,
      "r": 86,
      "s": 87,
      "t": 88,
      "u": 89,
      "v": 90,
      "w": 91,
      "x": 92,
      "y": 93,
      "z": 94,
      "{": 95,
      "|": 96,
      "}": 97,
      "~": 98,
      "¡": 99,
      "¢": 100,
      "£": 101,
      "¤": 102,
      "¥": 103,
      "¦": 104,
      "§": 105,
      "¨": 106,
      "©": 107,
      "ª": 108,
      "«": 109,
      "¬": 110,
      "®": 111,
      "¯": 112,
      "°": 113,
      "±": 114,
      "²": 115,
      "³": 116,
      "´": 117,
      "µ": 118,
      "¶": 119,
      "·": 120,
      "¸": 121,
      "¹": 122,
      "º": 123,
      "»": 124,
      "¼": 125,
      "½": 126,
      "¾": 127,
      "¿": 128,
      "À": 129,
      "Á": 130,
      "Â": 131,
      "Ã": 132,
      "Ä": 133,
      "Å": 134,
      "Æ": 135,
      "Ç": 136,
      "È": 137,
      "É": 138,
      "Ê": 139,
      "Ë": 140,
      "Ì": 141,
      "Í": 142,
      "Î": 143,
      "Ï": 144,
      "Ð": 145,
      "Ñ": 146,
      "Ò": 147,
      "Ó": 148,
      "Ô": 149,
      "Õ": 150,
      "Ö": 151,
      "×": 152,
      "Ø": 153,
      "Ù": 154,
      "Ú": 155,
      "Û": 156,
      "Ü": 157,
      "Ý": 158,
      "Þ": 159,
      "ß": 160,
      "à": 161,
      "á": 162,
      "â": 163,
      "ã": 164,
      "ä": 165,
      "å": 166,
      "æ": 167,
      "ç": 168,
      "è": 169,
      "é": 170,
      "ê": 171,
      "ë": 172,
      "ì": 173,
      "í": 174,
      "î": 175,
      "ï": 176,
      "ð": 177,
      "ñ": 178,
      "ò": 179,
      "ó": 180,
      "ô": 181,
      "õ": 182,
      "ö": 183,
      "÷": 184,
      "ø": 185,
      "ù": 186,
      "ú": 187,
      "û": 188,
      "ü": 189,
      "ý": 190,
      "þ": 191,
      "ÿ": 192,
      "Ā": 193,
      "ā": 194,
      "Ă": 195,
      "ă": 196,
      "Ą": 197,
      "ą": 198,
      "Ć": 199,
      "ć": 200,
      "Ĉ": 201,
      "ĉ": 202,
      "Ċ": 203,
      "ċ": 204,
      "Č": 205,
      "č": 206,
      "Ď": 207,
      "ď": 208,
      "Đ": 209,
      "đ": 210,
      "Ē": 211,
      "ē": 212,
      "Ĕ": 213,
      "ĕ": 214,
      "Ė": 215,
      "ė": 216,
      "Ę": 217,
      "ę": 218,
      "Ě": 219,
      "ě": 220,
      "Ĝ": 221,
      "ĝ": 222,
      "Ğ": 223,
      "ğ": 224,
      "Ġ": 225,
      "ġ": 226,
      "Ģ": 227,
      "ģ": 228,
      "Ĥ": 229,
      "ĥ": 230,
      "Ħ": 231,
      "ħ": 232,
      "Ĩ": 233,
      "ĩ": 234,
      "Ī": 235,
      "ī": 236,
      "Ĭ": 237,
      "ĭ": 238,
      "Į": 239,
      "į": 240,
      "İ": 241,
      "ı": 242,
      "Ĳ": 243,
      "ĳ": 244,
      "Ĵ": 245,
      "ĵ": 246,
      "Ķ": 247,
      "ķ": 248,
      "ĸ": 249,
      "Ĺ": 250,
      "ĺ": 251,
      "Ļ": 252,
      "ļ": 253,
      "Ľ": 254,
      "ľ": 255,
      "Ŀ": 256,
      "ŀ": 257,
      "Ł": 258,
      "ł": 259,
      "Ń": 260,
      "Ġt": 261,
      "in": 262,
      "Ġa": 263,
      "he": 264,
      "Ġs": 265,
      "re": 266,
      "on": 267,
      "at": 268,
      "er": 269,
      "Ġthe": 270,
      "en": 271,
      "Ġw": 272,
      "ing": 273,
      "Ġm": 274,
      "Ġo": 275,
      "it": 276,
      "Ġc": 277,
      "an": 278,
      "le": 279,
      "is": 280,
      "Ġb": 281,
      "or": 282,
      "Ġf": 283,
      "Ġd": 284,
      "ar": 285,
      "Ġan": 286,
      "ou": 287,
      "Ġp": 288,
      "es": 289,
      "Ġh": 290,
      "Ġin": 291,
      "al": 292,
      "ed": 293,
      "âĢ": 294,
      "Ġand": 295,
      "ion": 296,
      "Ġto": 297,
      "Ġof": 298,
      "Ġth": 299,
      "Ġn": 300,
      "ro": 301,
      "as": 302,
      "Ġl": 303,
      "ic": 304,
      "ent": 305,
      "el": 306,
      "et": 307,
      "ut": 308,
      "ct": 309,
      "Ġg": 310,
      "Ġi": 311,
      "Ġe": 312,
      "ce": 313,
      "ra": 314,
      "st": 315,
      "om": 316,
      "Ġre": 317,
      "Ġhe": 318,
      "ly": 319,
      "ation": 320,
      "ch": 321,
      "ig": 322,
      "ve": 323,
      "Ġu": 324,
      "ur": 325,
      "ow": 326,
      "im": 327,
      "Ġwh": 328,
      "il": 329,
      "ith": 330,
      "ver": 331,
      "Ġst": 332,
      "Ġle": 333,
      "the": 334,
      "Ġthat": 335,
      "Ġbe": 336,
      "ad": 337,
      "id": 338,
      "Ġit": 339,
      "Ġfor": 340,
      "Ġy": 341,
      "Ġal": 342,
      "ain": 343,
      "âĢľ": 344,
      "ab": 345,
      "ot": 346,
      "Ġis": 347,
      "Ġcon": 348,
      "Ġwith": 349,
      "Ġme": 350,
      "Ġon": 351,
      "ĠĠ": 352,
      "od": 353,
      "âĢĿ": 354,
      "ay": 355,
      "ure": 356,
      "se": 357,
      "arn": 358,
      "ter": 359,
      "Ġpro": 360,
      "Ġex": 361,
      "ol": 362,
      "iz": 363,
      "Ġde": 364,
      "Ġlearn": 365,
      "Ġyou": 366,
      "am": 367,
      "Ġcom": 368,
      "qu": 369,
      "Ġwas": 370,
      "ul": 371,
      "and": 372,
      "un": 373,
      "Ġas": 374,
      "ht": 375,
      "if": 376,
      "ag": 377,
      "âĢĻ": 378,
      "ir": 379,
      "ect": 380,
      "Ġhis": 381,
      "Ġthis": 382,
      "Ġby": 383,
      "pp": 384,
      "ld": 385,
      "pt": 386,
      "Ġwe": 387,
      "Ġlearning": 388,
      "em": 389,
      "Ġne": 390,
      "ri": 391,
      "Ġen": 392,
      "ence": 393,
      "ient": 394,
      "Ġat": 395,
      "ell": 396,
      "red": 397,
      "ss": 398,
      "Ġv": 399,
      "Ġha": 400,
      "pl": 401,
      "Ġse": 402,
      "ight": 403,
      "Ġr": 404,
      "ers": 405,
      "etw": 406,
      "ine": 407,
      "th": 408,
      "ess": 409,
      "Ġint": 410,
      "ial": 411,
      "Ġmy": 412,
      "Ġnot": 413,
      "put": 414,
      "ork": 415,
      "Ġgra": 416,
      "ity": 417,
      "ore": 418,
      "Ġsh": 419,
      "rom": 420,
      "Ġall": 421,
      "ate": 422,
      "Ġun": 423,
      "Ġbut": 424,
      "orm": 425,
      "Ġher": 426,
      "ould": 427,
      "ive": 428,
      "ke": 429,
      "iv": 430,
      "Ġso": 431,
      "Ġsu": 432,
      "oug": 433,
      "Ġfrom": 434,
      "ach": 435,
      "ck": 436,
      "Ġor": 437,
      "ant": 438,
      "Ġwhe": 439,
      "etwork": 440,
      "dient": 441,
      "Ġhad": 442,
      "Ġad": 443,
      "ang": 444,
      "Ġhave": 445,
      "ep": 446,
      "ill": 447,
      "ist": 448,
      "ions": 449,
      "Ġgradient": 450,
      "Ġnetwork": 451,
      "able": 452,
      "Ġlo": 453,
      "um": 454,
      "ple": 455,
      "Ġpar": 456,
      "Ġsp": 457,
      "ans": 458,
      "ĠĠĠĠ": 459,
      "ff": 460,
      "rain": 461,
      "de": 462,
      "Ġup": 463,
      ".âĢĿ": 464,
      "ard": 465,
      "Ġshe": 466,
      "out": 467,
      "der": 468,
      "ich": 469,
      "ough": 470,
      "ast": 471,
      "Ġcan": 472,
      "Ġsa": 473,
      "cc": 474,
      "Ġim": 475,
      "Ġhim": 476,
      "ous": 477,
      "ance": 478,
      "Ġar": 479,
      "ru": 480,
      "per": 481,
      "ther": 482,
      "ization": 483,
      "oun": 484,
      "Ġk": 485,
      "all": 486,
      "Ġsy": 487,
      "Ġexpl": 488,
      "her": 489,
      "ific": 490,
      "Ġfe": 491,
      "ire": 492,
      "form": 493,
      "ust": 494,
      "Ġus": 495,
      "Ġdat": 496,
      "Ġapp": 497,
      "very": 498,
      "est": 499,
      "ction": 500,
      "Ġmod": 501,
      "ural": 502,
      "Ġwhich": 503,
      "age": 504,
      "end": 505,
      "ale": 506,
      "Ġpre": 507,
      "wh": 508,
      "Ġdet": 509,
      "Ġno": 510,
      "Ġdo": 511,
      "Ġch": 512,
      "Ġwhen": 513,
      "Ġtrain": 514,
      "Ġmodel": 515,
      "ĠâĢľ": 516,
      "âĢĶ": 517,
      "Ġdata": 518,
      "ates": 519,
      "ature": 520,
      "ile": 521,
      "ort": 522,
      "ellig": 523,
      "Ġintellig": 524,
      "Ġfun": 525,
      "os": 526,
      "Ġare": 527,
      "Ġab": 528,
      "Ġsc": 529,
      "Ġtraining": 530,
      "ally": 531,
      "us": 532,
      "cess": 533,
      "Ġj": 534,
      "our": 535,
      "ome": 536,
      "ong": 537,
      "ak": 538,
      "rop": 539,
      "ass": 540,
      "ms": 541,
      "ble": 542,
      "Ġout": 543,
      "Ġman": 544,
      "Ġexplain": 545,
      "ap": 546,
      "gor": 547,
      "now": 548,
      "ren": 549,
      "ish": 550,
      "cept": 551,
      "Ġtr": 552,
      "gorith": 553,
      "Ġprocess": 554,
      "Ġover": 555,
      "Ġcl": 556,
      "Ġwere": 557,
      "ip": 558,
      "tain": 559,
      "Ġintelligence": 560,
      "ge": 561,
      "ener": 562,
      "Ġalgorith": 563,
      "stem": 564,
      "Ġthere": 565,
      "elf": 566,
      "ail": 567,
      "ind": 568,
      "angu": 569,
      "Ġone": 570,
      "itt": 571,
      "Ġsystem": 572,
      "ok": 573,
      "Ġlangu": 574,
      "Ġacc": 575,
      "Ġimp": 576,
      "Ġthey": 577,
      "Ġsaid": 578,
      "ces": 579,
      ",âĢĿ": 580,
      "led": 581,
      "amet": 582,
      "ies": 583,
      "Ġlay": 584,
      "art": 585,
      "ound": 586,
      "Ġgener": 587,
      "Ġfunction": 588,
      "Ġper": 589,
      "ice": 590,
      "rough": 591,
      "ict": 592,
      "but": 593,
      "ving": 594,
      "Ġ(": 595,
      "Ġnetworks": 596,
      "lu": 597,
      "Ġhow": 598,
      "Ġro": 599,
      "Ġwhat": 600,
      "Ġli": 601,
      "Ġcomput": 602,
      "Ġthrough": 603,
      "du": 604,
      "Ġqu": 605,
      "Ġwhile": 606,
      "ificial": 607,
      "Ġparamet": 608,
      "achine": 609,
      "Ġinput": 610,
      "Ġgradients": 611,
      "ack": 612,
      "Ġwho": 613,
      "Ġgo": 614,
      "one": 615,
      "self": 616,
      "reat": 617,
      "esc": 618,
      "Ġcont": 619,
      "ely": 620,
      "Ġneural": 621,
      "eth": 622,
      "ex": 623,
      "ility": 624,
      "ime": 625,
      "Ġbeen": 626,
      "Ġwhale": 627,
      "Ġmo": 628,
      "Ġadd": 629,
      "stand": 630,
      "Ġknow": 631,
      "Ġabout": 632,
      "Ġyour": 633,
      "Ġdetail": 634,
      "Ġtrans": 635,
      "Ġvery": 636,
      "ings": 637,
      "are": 638,
      "Ġthem": 639,
      "atter": 640,
      "Ġdec": 641,
      "Ġlanguage": 642,
      "what": 643,
      "Ġtheir": 644,
      "ame": 645,
      "ne": 646,
      "sh": 647,
      "Ġinto": 648,
      "pre": 649,
      "ition": 650,
      "Ġwould": 651,
      "con": 652,
      "derstand": 653,
      "Ġsome": 654,
      "cy": 655,
      "Ġweight": 656,
      "low": 657,
      "op": 658,
      "Ġam": 659,
      "Ġmr": 660,
      "Ġappro": 661,
      "Ġconcept": 662,
      "nect": 663,
      "Ġpred": 664,
      "ating": 665,
      "ful": 666,
      "Ġthen": 667,
      "ines": 668,
      "ord": 669,
      "Ġeff": 670,
      "Ġlike": 671,
      "Ġpredict": 672,
      "be": 673,
      "fe": 674,
      "hed": 675,
      "ari": 676,
      "atch": 677,
      "mm": 678,
      "Ġmore": 679,
      "Ġwill": 680,
      "Ġdist": 681,
      "lo": 682,
      "vent": 683,
      "Ġag": 684,
      "ruct": 685,
      "Ġenable": 686,
      "fore": 687,
      "Ġany": 688,
      "ment": 689,
      "Ġtime": 690,
      "Ġact": 691,
      "Ġnow": 692,
      "ax": 693,
      "Ġdis": 694,
      "ced": 695,
      "Ġres": 696,
      "ves": 697,
      "Ġif": 698,
      "Ġmeans": 699,
      "?âĢĿ": 700,
      "ens": 701,
      "Ġinc": 702,
      "Ġcould": 703,
      "Ġsm": 704,
      "ward": 705,
      "Ġits": 706,
      "ise": 707,
      "ular": 708,
      "ons": 709,
      "plex": 710,
      "ations": 711,
      "ĠĠĠĠĠĠĠĠ": 712,
      "ite": 713,
      "to": 714,
      "ability": 715,
      "Ġusing": 716,
      "ace": 717,
      "ose": 718,
      "Ġupon": 719,
      "ated": 720,
      "wn": 721,
      "ide": 722,
      "ult": 723,
      "Ġcomp": 724,
      "Ġreg": 725,
      "Ġenables": 726,
      "een": 727,
      "Ġinter": 728,
      "ie": 729,
      "Ġco": 730,
      "apt": 731,
      "alization": 732,
      "vol": 733,
      "Ġsim": 734,
      "ling": 735,
      "Ġthan": 736,
      "Ġpo": 737,
      "av": 738,
      "ather": 739,
      "ac": 740,
      "Ġmean": 741,
      "Ġpl": 742,
      "own": 743,
      "ative": 744,
      "Ġtransform": 745,
      "ern": 746,
      "Ġart": 747,
      "Ġdep": 748,
      "Ġcomplex": 749,
      "ake": 750,
      "Ġstep": 751,
      "ical": 752,
      "Ġhig": 753,
      "Ġfeature": 754,
      "ink": 755,
      "Ġprevent": 756,
      "ructure": 757,
      "ns": 758,
      "Ġstr": 759,
      "Ġother": 760,
      "sent": 761,
      "Ġnorm": 762,
      "way": 763,
      "Ġlar": 764,
      "feren": 765,
      "of": 766,
      "Ġalgorithm": 767,
      "gra": 768,
      "ious": 769,
      "ared": 770,
      "Ġdesc": 771,
      "Ġmodels": 772,
      "ize": 773,
      "etween": 774,
      "icient": 775,
      "urn": 776,
      "au": 777,
      "Ġexp": 778,
      "ven": 779,
      "Ġatt": 780,
      "Ġopt": 781,
      "Ġaf": 782,
      "Ġoptim": 783,
      "Ġsystems": 784,
      "Ġwhere": 785,
      "act": 786,
      "Ġartificial": 787,
      "erm": 788,
      "Ġonly": 789,
      "ted": 790,
      "Ġbetween": 791,
      "Ġdepend": 792,
      "su": 793,
      "Ġsuch": 794,
      "Ġlong": 795,
      "Ġbo": 796,
      "Ġclass": 797,
      "Ġmachine": 798,
      "Ġconnect": 799,
      "old": 800,
      "Ġuse": 801,
      "Ġel": 802,
      "Ġsee": 803,
      "Ġtem": 804,
      "Ġconver": 805,
      "ry": 806,
      "ross": 807,
      "Ġmain": 808,
      "Ġbefore": 809,
      "ittle": 810,
      "ience": 811,
      "Ġra": 812,
      "Ġneur": 813,
      "Ġagain": 814,
      "Ġrequ": 815,
      "ribut": 816,
      "Ġlayers": 817,
      "Ġpatter": 818,
      "Ġdeep": 819,
      "Ġback": 820,
      "Ġinit": 821,
      "uring": 822,
      "Ġthese": 823,
      "Ġspe": 824,
      "Ġinitial": 825,
      "Ġloss": 826,
      "Ġhas": 827,
      "ential": 828,
      "ages": 829,
      "ought": 830,
      "Ġdown": 831,
      "Ġvari": 832,
      "Ġactiv": 833,
      "Ġdid": 834,
      "ick": 835,
      "ures": 836,
      "Ġcomm": 837,
      "Ġunderstand": 838,
      "Ġ_": 839,
      "Ġtw": 840,
      "Ġdistribut": 841,
      "Ġinputs": 842,
      "Ġmust": 843,
      "Ġstructure": 844,
      "Ġac": 845,
      "!âĢĿ": 846,
      "we": 847,
      "ark": 848,
      "that": 849,
      "Ġpe": 850,
      "ness": 851,
      "ors": 852,
      "ically": 853,
      "Ġapproach": 854,
      "Ġmaintain": 855,
      "ask": 856,
      "ention": 857,
      "Ġalgorithms": 858,
      "Ġhand": 859,
      "Ġpart": 860,
      "Ġob": 861,
      "ath": 862,
      "mo": 863,
      "og": 864,
      "Ġshould": 865,
      "Ġdire": 866,
      "Ġlittle": 867,
      "Ġsig": 868,
      "ved": 869,
      "Ġafter": 870,
      "Ġdif": 871,
      "me": 872,
      "Ġduring": 873,
      "ree": 874,
      "ject": 875,
      "Ġparameter": 876,
      "gence": 877,
      "uch": 878,
      "irst": 879,
      "Ġlook": 880,
      "ade": 881,
      "Ġprocessing": 882,
      "Ġpreventing": 883,
      "ber": 884,
      "izes": 885,
      "Ġocc": 886,
      "Ġcre": 887,
      "Ġbatch": 888,
      "Ġrec": 889,
      "so": 890,
      "Ġdev": 891,
      "Ġeach": 892,
      "Ġsmall": 893,
      "sp": 894,
      "Ġgreat": 895,
      "Ġweights": 896,
      "lp": 897,
      "Ġye": 898,
      "Ġwell": 899,
      "Ġoff": 900,
      "Ġent": 901,
      "no": 902,
      "Ġext": 903,
      "ars": 904,
      "abeth": 905,
      "izabeth": 906,
      "not": 907,
      "ft": 908,
      "Ġimpro": 909,
      "Ġrequire": 910,
      "Ġinst": 911,
      "ud": 912,
      "Ġseem": 913,
      "mb": 914,
      "ext": 915,
      "vid": 916,
      "Ġmis": 917,
      "Ġref": 918,
      "ph": 919,
      "Ġactivation": 920,
      "Ġbi": 921,
      "oment": 922,
      "nt": 923,
      "Ġmuch": 924,
      "Ġmay": 925,
      "Ġarch": 926,
      "ried": 927,
      "Ġevery": 928,
      "Ġregular": 929,
      "less": 930,
      "atural": 931,
      "Ġoutput": 932,
      "ress": 933,
      "Ġhigh": 934,
      "Ġsay": 935,
      "Ġfi": 936,
      "ntax": 937,
      "Ġdifferen": 938,
      "Ġfirst": 939,
      "den": 940,
      "âĢĺ": 941,
      "ied": 942,
      "Ġdoes": 943,
      "Ġdisc": 944,
      "==": 945,
      "ual": 946,
      "Ġupd": 947,
      "Ġru": 948,
      "ning": 949,
      "Ġsub": 950,
      "ctions": 951,
      "mmar": 952,
      "Ġcons": 953,
      "Ġrem": 954,
      "for": 955,
      "Ġtemper": 956,
      "Ġday": 957,
      "Ġsyntax": 958,
      "ts": 959,
      "Ġsk": 960,
      "ood": 961,
      "Ġmight": 962,
      "itect": 963,
      "eld": 964,
      "Ġcomputation": 965,
      "Ġarchitect": 966,
      "Ġenc": 967,
      "Ġexpon": 968,
      "Ġeffect": 969,
      "Ġval": 970,
      "Ġprob": 971,
      "istic": 972,
      "Ġconnections": 973,
      "Ġconvergence": 974,
      "aking": 975,
      "Ġneurons": 976,
      "Ġgr": 977,
      "ave": 978,
      "hing": 979,
      "machine": 980,
      "yth": 981,
      "Ġsequ": 982,
      "Ġgeneralization": 983,
      "yes": 984,
      "Ġthink": 985,
      "artificial": 986,
      "ary": 987,
      "ication": 988,
      "reas": 989,
      "Ġmoment": 990,
      "Ġfur": 991,
      "Ġthough": 992,
      "Ġdescent": 993,
      "Ġparameters": 994,
      "com": 995,
      "te": 996,
      "ady": 997,
      "Ġinform": 998,
      "Ġz": 999,
      "Ġgood": 1000,
      "ty": 1001,
      "air": 1002,
      "oy": 1003,
      "Ġtemperature": 1004,
      "you": 1005,
      "ification": 1006,
      "Ġown": 1007,
      "Ġprovid": 1008,
      "Ġour": 1009,
      "Ġpos": 1010,
      "Ġlayer": 1011,
      "Ġdecay": 1012,
      "cing": 1013,
      "mod": 1014,
      "Ġimport": 1015,
      "ract": 1016,
      "Ġ1": 1017,
      "les": 1018,
      "ange": 1019,
      "Ġnever": 1020,
      "Ġmost": 1021,
      "get": 1022,
      "Ġmult": 1023,
      "Ġform": 1024,
      "ife": 1025,
      "Ġmin": 1026,
      "Ġeven": 1027,
      "Ġyet": 1028,
      "Ġefficient": 1029,
      "ython": 1030,
      "Ġadapt": 1031,
      "ily": 1032,
      "more": 1033,
      "ower": 1034,
      "prop": 1035,
      "aling": 1036,
      "Ġperform": 1037,
      "Ġrequires": 1038,
      "Ġsqu": 1039,
      "ingle": 1040,
      "Ġpass": 1041,
      "app": 1042,
      "--": 1043,
      "Ġtwo": 1044,
      "Ġmulti": 1045,
      "yp": 1046,
      "Ġcomb": 1047,
      "Ġrelu": 1048,
      "Ġinformation": 1049,
      "Ġmade": 1050,
      "Ġdistributions": 1051,
      "Ġword": 1052,
      "man": 1053,
      "deep": 1054,
      "Ġinvol": 1055,
      "Ġfurther": 1056,
      "Ġold": 1057,
      "Ġexponential": 1058,
      "Ġcol": 1059,
      "oura": 1060,
      "Ġimportant": 1061,
      "Ġgrammar": 1062,
      "Ġrate": 1063,
      "Ġlarge": 1064,
      "ised": 1065,
      "row": 1066,
      "izing": 1067,
      "Ġpython": 1068,
      "Ġnoise": 1069,
      "Ġbr": 1070,
      "whe": 1071,
      "Ġ=": 1072,
      "ceed": 1073,
      "Ġvis": 1074,
      "ever": 1075,
      "hab": 1076,
      "abling": 1077,
      "Ġenabling": 1078,
      "ory": 1079,
      "Ġoccur": 1080,
      "ional": 1081,
      "Ġq": 1082,
      "Ġway": 1083,
      "Ġvan": 1084,
      "Ġhere": 1085,
      "Ġhapp": 1086,
      "Ġship": 1087,
      "Ġclassification": 1088,
      "xim": 1089,
      "Ġthought": 1090,
      "Ġzer": 1091,
      "Ġrel": 1092,
      "Ġmeas": 1093,
      "Ġhum": 1094,
      "olog": 1095,
      "Ġinclu": 1096,
      "ura": 1097,
      "ropy": 1098,
      "Ġarchitecture": 1099,
      "Ġsol": 1100,
      "Ġmany": 1101,
      "ger": 1102,
      "Ġve": 1103,
      "Ġben": 1104,
      "Ġproble": 1105,
      "uture": 1106,
      "Ġinvolves": 1107,
      "Ġlet": 1108,
      "ount": 1109,
      "ible": 1110,
      "Ġdepends": 1111,
      "inu": 1112,
      "Ġaff": 1113,
      "Ġfuture": 1114,
      "Ġwant": 1115,
      "Ġnatural": 1116,
      "cal": 1117,
      "Ġwithout": 1118,
      "Ġlast": 1119,
      "Ġhead": 1120,
      "modern": 1121,
      "arch": 1122,
      "uracy": 1123,
      "Ġprobability": 1124,
      "Ġallow": 1125,
      "rue": 1126,
      "Ġelizabeth": 1127,
      "Ġtyp": 1128,
      "Ġsat": 1129,
      "Ġbal": 1130,
      "Ġtransformers": 1131,
      "Ġbet": 1132,
      "ier": 1133,
      "present": 1134,
      "po": 1135,
      "aly": 1136,
      "understand": 1137,
      "Ġaccuracy": 1138,
      "ll": 1139,
      "Ġadv": 1140,
      "err": 1141,
      "Ġcombines": 1142,
      "Ġshall": 1143,
      "ishing": 1144,
      "Ġprogra": 1145,
      "Ġaddition": 1146,
      "que": 1147,
      "Ġmat": 1148,
      "its": 1149,
      "ma": 1150,
      "itting": 1151,
      "alk": 1152,
      "ild": 1153,
      "Ġke": 1154,
      "Ġstill": 1155,
      "by": 1156,
      "ase": 1157,
      "ets": 1158,
      "chan": 1159,
      "understanding": 1160,
      "ond": 1161,
      "Ġeng": 1162,
      "Ġte": 1163,
      "Ġregularization": 1164,
      "Ġbeing": 1165,
      "Ġtoo": 1166,
      "Ġcontinu": 1167,
      "Ġanaly": 1168,
      "Ġvariance": 1169,
      "val": 1170,
      "Ġfurthermore": 1171,
      "rent": 1172,
      "mming": 1173,
      "Ġthose": 1174,
      "Ġbetter": 1175,
      "Ġadditionally": 1176,
      "Ġset": 1177,
      "Ġmechan": 1178,
      "ane": 1179,
      "ue": 1180,
      "Ġever": 1181,
      "Ġattention": 1182,
      "Ġhol": 1183,
      "Ġprogramming": 1184,
      "oth": 1185,
      "riend": 1186,
      "Ġmultiple": 1187,
      "li": 1188,
      "Ġwor": 1189,
      "Ġbl": 1190,
      "Ġbias": 1191,
      "ouse": 1192,
      "apter": 1193,
      "net": 1194,
      "Ġcomputer": 1195,
      "Ġnew": 1196,
      "Ġdetect": 1197,
      "mes": 1198,
      "int": 1199,
      "Ġlocal": 1200,
      "Ġdef": 1201,
      "Ġzero": 1202,
      "Ġnormal": 1203,
      "pen": 1204,
      "Ġprodu": 1205,
      "Ġmeasures": 1206,
      "Ġmechanis": 1207,
      "ertain": 1208,
      "Ġsea": 1209,
      "Ġuses": 1210,
      "Ġimproving": 1211,
      "Ġrepresent": 1212,
      "aug": 1213,
      "Ġpatterns": 1214,
      "Ġahab": 1215,
      "Ġbel": 1216,
      "Ġfew": 1217,
      "Ġsize": 1218,
      "Ġapproxim": 1219,
      "ĠĠĠĠĠĠĠĠĠĠĠĠĠĠĠĠ": 1220,
      "Ġind": 1221,
      "lect": 1222,
      "ribe": 1223,
      "Ġvect": 1224,
      "ub": 1225,
      "itu": 1226,
      "Ġsoon": 1227,
      "aps": 1228,
      "Ġmiss": 1229,
      "ding": 1230,
      "can": 1231,
      "uck": 1232,
      "ib": 1233,
      "lev": 1234,
      "iven": 1235,
      "Ġfield": 1236,
      "ian": 1237,
      "Ġflow": 1238,
      "Ġjust": 1239,
      "Ġcome": 1240,
      "agation": 1241,
      "Ġnormalization": 1242,
      "propagation": 1243,
      "Ġaway": 1244,
      "Ġtok": 1245,
      "Ġfound": 1246,
      "Ġpower": 1247,
      "Ġeffective": 1248,
      "Ġmor": 1249,
      "Ġdes": 1250,
      "Ġmon": 1251,
      "ason": 1252,
      "Ġbackpropagation": 1253,
      "Ġinitialization": 1254,
      "pect": 1255,
      "Ġgl": 1256,
      "most": 1257,
      "Ġcur": 1258,
      "Ġemb": 1259,
      "ia": 1260,
      "sc": 1261,
      "ined": 1262,
      "Ġfeel": 1263,
      "Ġspec": 1264,
      "ences": 1265,
      "Ġsupp": 1266,
      "ering": 1267,
      "ased": 1268,
      "ery": 1269,
      "Ġdeterm": 1270,
      "Ġproblem": 1271,
      ").": 1272,
      "Ġ*": 1273,
      "arcy": 1274,
      "Ġsom": 1275,
      "wards": 1276,
      "Ġboat": 1277,
      "Ġseemed": 1278,
      "Ġfl": 1279,
      "iness": 1280,
      "Ġbeg": 1281,
      "ively": 1282,
      "up": 1283,
      "Ġrob": 1284,
      "Ġmake": 1285,
      "Ġaver": 1286,
      "Ġwat": 1287,
      "Ġfol": 1288,
      "umul": 1289,
      "Ġpattern": 1290,
      "ls": 1291,
      "Ġcapt": 1292,
      "connect": 1293,
      "alle": 1294,
      "ister": 1295,
      "Ġfriend": 1296,
      "with": 1297,
      "Ġturn": 1298,
      "Ġupdates": 1299,
      "Ġcame": 1300,
      "imes": 1301,
      "Ġexper": 1302,
      "arity": 1303,
      "Ġsuff": 1304,
      "Ġhowever": 1305,
      "Ġposit": 1306,
      "Ġperformance": 1307,
      "Ġholmes": 1308,
      "connected": 1309,
      "Ġtask": 1310,
      "Ġmar": 1311,
      "uning": 1312,
      "ause": 1313,
      "other": 1314,
      "anced": 1315,
      "my": 1316,
      "Ġfine": 1317,
      "Ġhuman": 1318,
      "Ġhid": 1319,
      "ropout": 1320,
      "Ġerr": 1321,
      "Ġcor": 1322,
      "Ġminim": 1323,
      "Ġwords": 1324,
      "Ġcal": 1325,
      "vers": 1326,
      "Ġgu": 1327,
      "ledge": 1328,
      "Ġacross": 1329,
      "itig": 1330,
      "Ġneg": 1331,
      "ting": 1332,
      "Ġeyes": 1333,
      "Ġmitig": 1334,
      "ances": 1335,
      "Ġinterconnected": 1336,
      "Ġtrue": 1337,
      "Ġfunctions": 1338,
      "Ġsame": 1339,
      "Ġdarcy": 1340,
      "Ġalso": 1341,
      "Ġexceed": 1342,
      "Ġvanishing": 1343,
      "),": 1344,
      "Ġnum": 1345,
      "Ġbec": 1346,
      "Ġsaw": 1347,
      "Ġwork": 1348,
      "Ġhimself": 1349,
      "Ġlife": 1350,
      "Ġredu": 1351,
      "ateg": 1352,
      "Ġstrateg": 1353,
      "Ġsw": 1354,
      "arm": 1355,
      "Ġrobust": 1356,
      "Ġreason": 1357,
      "plain": 1358,
      "Ġnothing": 1359,
      "Ġpers": 1360,
      "Ġproviding": 1361,
      "Ġhal": 1362,
      "Ġstability": 1363,
      "ample": 1364,
      "ank": 1365,
      "Ġencoura": 1366,
      "ying": 1367,
      "Ġseen": 1368,
      "Ġround": 1369,
      "Ġoptimization": 1370,
      "Ġthree": 1371,
      "ner": 1372,
      "Ġcross": 1373,
      "osition": 1374,
      "Ġhidden": 1375,
      "ric": 1376,
      "ins": 1377,
      "Ġproper": 1378,
      "tell": 1379,
      "Ġret": 1380,
      "Ġsquared": 1381,
      "oice": 1382,
      "Ġtra": 1383,
      "Ġaffect": 1384,
      "Ġside": 1385,
      "ened": 1386,
      "Ġste": 1387,
      "Ġintelligent": 1388,
      "pid": 1389,
      "ze": 1390,
      "ants": 1391,
      "ship": 1392,
      "Ġexperience": 1393,
      "Ġencourag": 1394,
      "Ġadaptive": 1395,
      "desc": 1396,
      "Ġobject": 1397,
      "Ġfollow": 1398,
      "she": 1399,
      "hes": 1400,
      "Ġheard": 1401,
      "ments": 1402,
      "Ġlarger": 1403,
      "Ġcreat": 1404,
      "chapter": 1405,
      "Ġrates": 1406,
      "ye": 1407,
      "mble": 1408,
      "Ġyoun": 1409,
      "ives": 1410,
      "Ġparalle": 1411,
      "Ġaccumul": 1412,
      "his": 1413,
      "Ġcommon": 1414,
      "Ġparallel": 1415,
      "Ġmeaning": 1416,
      "Ġacqu": 1417,
      "itude": 1418,
      "Ġcar": 1419,
      "ob": 1420,
      "was": 1421,
      "Ġear": 1422,
      "there": 1423,
      "pping": 1424,
      "ser": 1425,
      "ished": 1426,
      "Ġdifferent": 1427,
      "Ġmag": 1428,
      "Ġbro": 1429,
      "ull": 1430,
      "Ġfeatures": 1431,
      "Ġwind": 1432,
      "Ġmen": 1433,
      "head": 1434,
      "pe": 1435,
      "entropy": 1436,
      "this": 1437,
      "Ġrapid": 1438,
      "Ġembed": 1439,
      "line": 1440,
      "ways": 1441,
      "Ġhard": 1442,
      "Ġexponentially": 1443,
      "ired": 1444,
      "Ġknowledge": 1445,
      "Ġread": 1446,
      "aw": 1447,
      "Ġfar": 1448,
      "Ġfather": 1449,
      "def": 1450,
      "ode": 1451,
      "Ġmyself": 1452,
      "Ġpredictions": 1453,
      "att": 1454,
      "Ġfind": 1455,
      "Ġinno": 1456,
      "Ġsoft": 1457,
      "Ġfin": 1458,
      "Ġhop": 1459,
      "oding": 1460,
      "Ġroom": 1461,
      "Ġnegative": 1462,
      "Ġnight": 1463,
      "new": 1464,
      "Ġmrs": 1465,
      "Ġtell": 1466,
      "Ġple": 1467,
      "lock": 1468,
      "Ġdirect": 1469,
      "Ġmeth": 1470,
      "urp": 1471,
      "Ġsister": 1472,
      "ret": 1473,
      "aring": 1474,
      "help": 1475,
      "ody": 1476,
      "thing": 1477,
      "explain": 1478,
      "====": 1479,
      "Ġalice": 1480,
      "âĢľâĢĺ": 1481,
      "Ġend": 1482,
      "men": 1483,
      "Ġcried": 1484,
      "Ġgenerate": 1485,
      "eng": 1486,
      "Ġdifference": 1487,
      "Ġstat": 1488,
      "Ġonce": 1489,
      "Ġask": 1490,
      "cl": 1491,
      "Ġrather": 1492,
      "Ġmethod": 1493,
      "Ġhun": 1494,
      "Ġsl": 1495,
      "Ġder": 1496,
      "Ġsto": 1497,
      "aus": 1498,
      "ement": 1499,
      "Ġhouse": 1500,
      "Ġass": 1501,
      "Ġright": 1502,
      "Ġyoung": 1503,
      "Ġsort": 1504,
      "Ġmaintaining": 1505,
      "Ġadvanced": 1506,
      "fitting": 1507,
      "Ġcle": 1508,
      "ged": 1509,
      "Ġsin": 1510,
      "describe": 1511,
      "))": 1512,
      "vari": 1513,
      "Ġfel": 1514,
      "deed": 1515,
      "Ġsizes": 1516,
      "Ġpowerful": 1517,
      "rem": 1518,
      "ases": 1519,
      "Ġrecept": 1520,
      "semble": 1521,
      "perv": 1522,
      "define": 1523,
      "Ġprom": 1524,
      "ized": 1525,
      "elop": 1526,
      "Ġanne": 1527,
      "land": 1528,
      "Ġpen": 1529,
      "ived": 1530,
      "Ġspace": 1531,
      "Ġrule": 1532,
      "ify": 1533,
      "Ġtypically": 1534,
      "Ġwent": 1535,
      "Ġwhite": 1536,
      "Ġdear": 1537,
      "Ġappe": 1538,
      "Ġscal": 1539,
      "Ġsigma": 1540,
      "pervised": 1541,
      "Ġscience": 1542,
      "Ġoverfitting": 1543,
      "Ġwr": 1544,
      "ingley": 1545,
      "ched": 1546,
      "ither": 1547,
      "Ġph": 1548,
      "Ġscale": 1549,
      "isticated": 1550,
      "Ġopen": 1551,
      "Ġnor": 1552,
      "Ġcontain": 1553,
      "Ġsoph": 1554,
      "Ġannealing": 1555,
      "Ġmagn": 1556,
      "Ġsophisticated": 1557,
      "ten": 1558,
      "Ġcertain": 1559,
      "Ġdropout": 1560,
      "idual": 1561,
      "volut": 1562,
      "Ġcontinuous": 1563,
      "Ġreceptive": 1564,
      "arb": 1565,
      "Ġextract": 1566,
      "Ġrefers": 1567,
      "Ġscalable": 1568,
      "des": 1569,
      "Ġherself": 1570,
      "Ġlanguages": 1571,
      "Ġsir": 1572,
      "Ġfre": 1573,
      "eler": 1574,
      "ters": 1575,
      "rix": 1576,
      "Ġbennet": 1577,
      "Ġmechanisms": 1578,
      "oh": 1579,
      "Ġtake": 1580,
      "Ġsimpl": 1581,
      "Ġexceeding": 1582,
      "tuning": 1583,
      "Ġgre": 1584,
      "Ġrand": 1585,
      "Ġfam": 1586,
      "Ġlady": 1587,
      "Ġrandom": 1588,
      "Ġinterpre": 1589,
      "when": 1590,
      "Ġdra": 1591,
      "Ġrepl": 1592,
      "Ġheart": 1593,
      "gether": 1594,
      "Ġworld": 1595,
      "Ġstud": 1596,
      "rect": 1597,
      "Ġpr": 1598,
      "Ġimages": 1599,
      "ething": 1600,
      "Ġmomentum": 1601,
      "Ġvision": 1602,
      "Ġcaptain": 1603,
      "antic": 1604,
      "Ġmatrix": 1605,
      "ift": 1606,
      "Ġensemble": 1607,
      "ology": 1608,
      "Ġacceler": 1609,
      "00": 1610,
      "Ġtest": 1611,
      "Ġdon": 1612,
      "Ġdel": 1613,
      "ently": 1614,
      "Ġposs": 1615,
      "Ġmitigating": 1616,
      "Ġaccelerating": 1617,
      "Ġmind": 1618,
      "Ġsimple": 1619,
      "Ġrecur": 1620,
      "Ġget": 1621,
      "Ġnon": 1622,
      "Ġcomputational": 1623,
      "Ġgiven": 1624,
      "ills": 1625,
      "istics": 1626,
      "ĠâĢĺ": 1627,
      "rest": 1628,
      "oub": 1629,
      "Ġreal": 1630,
      "Ġunder": 1631,
      "lected": 1632,
      "Ġcare": 1633,
      "Ġthing": 1634,
      "Ġoptimize": 1635,
      "Ġhelp": 1636,
      "Ġpresent": 1637,
      "Ġknown": 1638,
      "how": 1639,
      "Ġans": 1640,
      "Ġner": 1641,
      "Ġlow": 1642,
      "Ġdecreas": 1643,
      "ubb": 1644,
      "linearity": 1645,
      "Ġfo": 1646,
      "ivity": 1647,
      "Ġplace": 1648,
      "ured": 1649,
      "vative": 1650,
      "Ġboth": 1651,
      "Ġalmost": 1652,
      "Ġshare": 1653,
      "ieve": 1654,
      "ee": 1655,
      "Ġhor": 1656,
      "Ġwhole": 1657,
      "Ġhands": 1658,
      "Ġinnovative": 1659,
      "dat": 1660,
      "Ġwon": 1661,
      "Ġcannot": 1662,
      "cond": 1663,
      "Ġamong": 1664,
      "Ġrespect": 1665,
      "Ġhalf": 1666,
      "haps": 1667,
      "Ġser": 1668,
      "Ġpip": 1669,
      "Ġsail": 1670,
      "anges": 1671,
      "Ġdevelop": 1672,
      "ni": 1673,
      "Ġbingley": 1674,
      "Ġlog": 1675,
      "Ġcontext": 1676,
      "Ġmoving": 1677,
      "Ġresidual": 1678,
      "Ġindeed": 1679,
      "Ġprop": 1680,
      "Ġstatistics": 1681,
      "ered": 1682,
      "max": 1683,
      "ately": 1684,
      "Ġorder": 1685,
      "Ġcontro": 1686,
      "Ġcomposition": 1687,
      "Ġclassify": 1688,
      "Ġsoftmax": 1689,
      "bo": 1690,
      "well": 1691,
      "Ġsingle": 1692,
      "Ġincreas": 1693,
      "Ġcomplexity": 1694,
      "Ġfr": 1695,
      "Ġalways": 1696,
      "Ġagainst": 1697,
      "just": 1698,
      "Ġlight": 1699,
      "Ġanalyze": 1700,
      "ham": 1701,
      "ign": 1702,
      "Ġchar": 1703,
      "Ġsche": 1704,
      "Ġcommun": 1705,
      "Ġtech": 1706,
      "iring": 1707,
      "which": 1708,
      "Ġpoor": 1709,
      "Ġreturn": 1710,
      "Ġinterpreted": 1711,
      "Ġgive": 1712,
      "Ġappl": 1713,
      "Ġglo": 1714,
      "Ġrelev": 1715,
      "valu": 1716,
      "Ġfast": 1717,
      "Ġnear": 1718,
      ".âĢĻ": 1719,
      "work": 1720,
      "Ġsun": 1721,
      "Ġcode": 1722,
      "Ġface": 1723,
      "achines": 1724,
      "Ġcaus": 1725,
      "iving": 1726,
      "ton": 1727,
      "Ġfact": 1728,
      "Ġtowards": 1729,
      "irc": 1730,
      "press": 1731,
      "Ġvalid": 1732,
      "Ġcontrols": 1733,
      "Ġmatter": 1734,
      "Ġequ": 1735,
      "Ġstand": 1736,
      "Ġderiv": 1737,
      "Ġanother": 1738,
      "entle": 1739,
      "Ġdoor": 1740,
      "Ġquite": 1741,
      "Ġdefines": 1742,
      "ove": 1743,
      "Ġdre": 1744,
      "Ġfelt": 1745,
      "imens": 1746,
      "Ġmorning": 1747,
      "fort": 1748,
      "ited": 1749,
      "Ġsequences": 1750,
      "Ġtechni": 1751,
      "ring": 1752,
      "Ġwa": 1753,
      "Ġfav": 1754,
      "arpo": 1755,
      "Ġinf": 1756,
      "Ġjane": 1757,
      "Ġstudy": 1758,
      "ancing": 1759,
      "Ġwhy": 1760,
      "Ġleft": 1761,
      "Ġenough": 1762,
      "Ġche": 1763,
      "els": 1764,
      "iled": 1765,
      "Ġerror": 1766,
      "ug": 1767,
      "Ġcour": 1768,
      "Ġfra": 1769,
      "imin": 1770,
      "queg": 1771,
      "Ġvectors": 1772,
      "Ġtokens": 1773,
      "Ġpenal": 1774,
      "iet": 1775,
      "Ġsent": 1776,
      "Ġmachines": 1777,
      "Ġapply": 1778,
      "Ġself": 1779,
      "Ġmaking": 1780,
      "itation": 1781,
      "Ġrest": 1782,
      "Ġimple": 1783,
      "augh": 1784,
      "vious": 1785,
      "Ġkind": 1786,
      "Ġstubb": 1787,
      "Ġstrong": 1788,
      "Ġtasks": 1789,
      "Ġhope": 1790,
      "sol": 1791,
      "Ġvariants": 1792,
      "Ġdirection": 1793,
      "Ġfollowed": 1794,
      "Ġsomething": 1795,
      "Ġsince": 1796,
      "Ġsil": 1797,
      "Ġput": 1798,
      "Ġarr": 1799,
      "ix": 1800,
      "Ġbeh": 1801,
      "Ġlooked": 1802,
      "Ġrecurrent": 1803,
      "dden": 1804,
      "Ġpat": 1805,
      "Ġadds": 1806,
      "Ġsimul": 1807,
      "Ġneuron": 1808,
      "Ġthou": 1809,
      "Ġstate": 1810,
      "Ġhour": 1811,
      "Ġconsid": 1812,
      "cies": 1813,
      "Ġcount": 1814,
      "ley": 1815,
      "Ġdone": 1816,
      "rodu": 1817,
      "Ġconf": 1818,
      "Ġhigher": 1819,
      "Ġnormalizing": 1820,
      "amples": 1821,
      "Ġschedu": 1822,
      "Ġtill": 1823,
      "Ġwalk": 1824,
      "ities": 1825,
      "Ġwhales": 1826,
      "Ġdependen": 1827,
      "Ġtheore": 1828,
      "Ġwhom": 1829,
      "Ġexc": 1830,
      "ah": 1831,
      "ended": 1832,
      "Ġair": 1833,
      "Ġdoub": 1834,
      "Ġforward": 1835,
      "Ġskills": 1836,
      "Ġstrategies": 1837,
      "Ġpenalty": 1838,
      "sis": 1839,
      "Ġconc": 1840,
      "Ġsperm": 1841,
      "Ġchain": 1842,
      "Ġunderstanding": 1843,
      "Ġskip": 1844,
      "over": 1845,
      "ably": 1846,
      "Ġunit": 1847,
      "Ġline": 1848,
      "Ġheav": 1849,
      "Ġstates": 1850,
      "par": 1851,
      "Ġsens": 1852,
      "ision": 1853,
      "Ġpract": 1854,
      "Ġtook": 1855,
      "Ġoptimal": 1856,
      "Ġoccurs": 1857,
      "day": 1858,
      "oke": 1859,
      "Ġaut": 1860,
      "oring": 1861,
      "Ġgeneral": 1862,
      "Ġnormalizes": 1863,
      "Ġrelevant": 1864,
      "Ġsure": 1865,
      "Ġmask": 1866,
      "aster": 1867,
      "astic": 1868,
      "aken": 1869,
      "Ġimprove": 1870,
      "Ġcommunication": 1871,
      "Ġlab": 1872,
      "ott": 1873,
      "Ġremain": 1874,
      "Ġinclude": 1875,
      "Ġrepresentations": 1876,
      "uc": 1877,
      "Ġsem": 1878,
      "Ġtogether": 1879,
      "they": 1880,
      "Ġhaving": 1881,
      "ference": 1882,
      "Ġsmaller": 1883,
      "ological": 1884,
      "like": 1885,
      "off": 1886,
      "Ġsou": 1887,
      "Ġnod": 1888,
      "utions": 1889,
      "Ġgentle": 1890,
      "Ġsecond": 1891,
      "Ġyears": 1892,
      "nns": 1893,
      "Ġhier": 1894,
      "Ġframe": 1895,
      "99": 1896,
      "ents": 1897,
      "Ġjac": 1898,
      "supervised": 1899,
      "Ġjacob": 1900,
      "cul": 1901,
      "mr": 1902,
      "nal": 1903,
      "Ġ0": 1904,
      "Ġbus": 1905,
      "ape": 1906,
      "Ġpleas": 1907,
      "ek": 1908,
      "med": 1909,
      "Ġid": 1910,
      "Ġconst": 1911,
      "Ġperhaps": 1912,
      "Ġanalysis": 1913,
      "aut": 1914,
      "fer": 1915,
      "Ġbre": 1916,
      "Ġcontr": 1917,
      "Ġmet": 1918,
      "erable": 1919,
      "ows": 1920,
      "Ġrules": 1921,
      "Ġengine": 1922,
      "Ġrandomly": 1923,
      "aid": 1924,
      "ator": 1925,
      "Ġem": 1926,
      "Ġintrodu": 1927,
      "archical": 1928,
      "Ġhierarchical": 1929,
      "Ġdevice": 1930,
      "Ġprovides": 1931,
      "Ġsatur": 1932,
      "network": 1933,
      "Ġho": 1934,
      "Ġbiological": 1935,
      "Ġconsist": 1936,
      "volutional": 1937,
      "Ġgod": 1938,
      "Ġrep": 1939,
      "Ġless": 1940,
      "him": 1941,
      "Ġcase": 1942,
      "oud": 1943,
      "Ġharpo": 1944,
      "Ġmagnitude": 1945,
      "Ġ-": 1946,
      "rib": 1947,
      "Ġsolutions": 1948,
      "Ġwater": 1949,
      "Ġclear": 1950,
      "had": 1951,
      "lish": 1952,
      "Ġvi": 1953,
      "Ġposition": 1954,
      "Ġoften": 1955,
      "ember": 1956,
      "Ġreducing": 1957,
      "Ġsemantic": 1958,
      "order": 1959,
      "ster": 1960,
      "osed": 1961,
      "Ġthings": 1962,
      "Ġele": 1963,
      "ceived": 1964,
      "Ġhear": 1965,
      "Ġfamily": 1966,
      "Ġnodes": 1967,
      "will": 1968,
      "Ġtalk": 1969,
      "Ġdirections": 1970,
      "Ġvector": 1971,
      "Ġcalled": 1972,
      "text": 1973,
      "Ġbest": 1974,
      "comput": 1975,
      "Ġframework": 1976,
      "Ġsequence": 1977,
      "computer": 1978,
      "Ġfell": 1979,
      "Ġge": 1980,
      "Ġalong": 1981,
      "ploy": 1982,
      "Ġquee": 1983,
      "Ġnumber": 1984,
      "batch": 1985,
      "ivers": 1986,
      "your": 1987,
      "Ġcirc": 1988,
      "elizabeth": 1989,
      "etimes": 1990,
      "antly": 1991,
      "ending": 1992,
      "from": 1993,
      "ash": 1994,
      "Ġir": 1995,
      "Ġchange": 1996,
      "Ġreasoning": 1997,
      "do": 1998,
      "gg": 1999,
      "Ġland": 2000,
      "pped": 2001,
      "Ġsudden": 2002,
      "Ġwhether": 2003,
      "Ġquest": 2004,
      "Ġspecific": 2005,
      "Ġsufficient": 2006,
      "ration": 2007,
      "Ġwick": 2008,
      "Ġmax": 2009,
      "abil": 2010,
      "Ġwhose": 2011,
      "Ġcreates": 2012,
      "Ġpassed": 2013,
      "Ġincludes": 2014,
      "Ġqueequeg": 2015,
      "Ġsle": 2016,
      "oup": 2017,
      "aked": 2018,
      "back": 2019,
      "oman": 2020,
      "Ġdistribution": 2021,
      "Ġtype": 2022,
      "Ġbalance": 2023,
      "Ġbegan": 2024,
      "icular": 2025,
      "Ġlearned": 2026,
      "arbuck": 2027,
      "lins": 2028,
      "arp": 2029,
      "Ġhome": 2030,
      "igh": 2031,
      "izer": 2032,
      "Ġentropy": 2033,
      "Ġbene": 2034,
      "Ġblack": 2035,
      "train": 2036,
      "Ġfan": 2037,
      "Ġthus": 2038,
      "Ġgroup": 2039,
      "Ġtoken": 2040,
      "ior": 2041,
      "Ġpul": 2042,
      "als": 2043,
      "Ġdeath": 2044,
      "unt": 2045,
      "Ġpredicted": 2046,
      "ief": 2047,
      "Ġminimizes": 2048,
      "Ġsimpler": 2049,
      "iver": 2050,
      "pro": 2051,
      "Ġter": 2052,
      "ense": 2053,
      "then": 2054,
      "Ġlove": 2055,
      "Ġknew": 2056,
      "Ġpoint": 2057,
      "Ġpositions": 2058,
      "have": 2059,
      "Ġthre": 2060,
      "Ġused": 2061,
      "Ġencourages": 2062,
      "Ġsaturation": 2063,
      "go": 2064,
      "Ġleast": 2065,
      "Ġinte": 2066,
      "Ġgoing": 2067,
      "Ġmother": 2068,
      "aces": 2069,
      "Ġmem": 2070,
      "Ġobser": 2071,
      "Ġviol": 2072,
      "bour": 2073,
      "Ġx": 2074,
      "Ġcall": 2075,
      "Ġsec": 2076,
      "sue": 2077,
      "Ġdays": 2078,
      "Ġearly": 2079,
      "Ġapplication": 2080,
      "ues": 2081,
      "xt": 2082,
      "Ġmapp": 2083,
      "Ġname": 2084,
      "Ġdeeper": 2085,
      "Ġvalue": 2086,
      "gr": 2087,
      "sum": 2088,
      "Ġbrain": 2089,
      "Ġprevious": 2090,
      "Ġweighted": 2091,
      "Ġcreate": 2092,
      "where": 2093,
      "Ġproduces": 2094,
      "quent": 2095,
      "Ġmodeling": 2096,
      "gy": 2097,
      "Ġwish": 2098,
      "Ġpast": 2099,
      "Ġhur": 2100,
      "Ġinsp": 2101,
      "Ġkey": 2102,
      "Ġspecial": 2103,
      "Ġembedding": 2104,
      "Ġdirectly": 2105,
      "Ġscaled": 2106,
      "Ġgone": 2107,
      "Ġstre": 2108,
      "Ġexploding": 2109,
      "attention": 2110,
      "Ġsight": 2111,
      "Ġdark": 2112,
      "Ġanim": 2113,
      "Ġpath": 2114,
      "ĠĠĠ": 2115,
      "though": 2116,
      "Ġwonder": 2117,
      "Ġcontrast": 2118,
      "ingu": 2119,
      "Ġoper": 2120,
      "Ġcat": 2121,
      "Ġide": 2122,
      "riage": 2123,
      "Ġunc": 2124,
      "Ġunivers": 2125,
      "Ġadam": 2126,
      "Ġfeed": 2127,
      "Ġpartial": 2128,
      "Ġsubs": 2129,
      "Ġcourse": 2130,
      "Ġsequential": 2131,
      "Ġturned": 2132,
      "dia": 2133,
      "ingly": 2134,
      "Ġdying": 2135,
      "ices": 2136,
      "Ġdeck": 2137,
      "Ġnext": 2138,
      "whale": 2139,
      "Ġrelation": 2140,
      "Ġfields": 2141,
      "Ġed": 2142,
      "Ġbed": 2143,
      "Ġmaintains": 2144,
      "Ġremark": 2145,
      "Ġbelieve": 2146,
      "Ġmappings": 2147,
      "ches": 2148,
      "por": 2149,
      "Ġcr": 2150,
      "Ġfore": 2151,
      "Ġsuper": 2152,
      "Ġadjust": 2153,
      "bal": 2154,
      "iting": 2155,
      "elves": 2156,
      "Ġreally": 2157,
      "Ġleak": 2158,
      "ides": 2159,
      "Ġconvolutional": 2160,
      "Ġwithin": 2161,
      "quod": 2162,
      "Ġchoice": 2163,
      "Ġsometimes": 2164,
      "night": 2165,
      "ene": 2166,
      "Ġstru": 2167,
      "Ġdead": 2168,
      "anger": 2169,
      "Ġgeneration": 2170,
      "Ġcompan": 2171,
      "Ġallowing": 2172,
      "Ġoh": 2173,
      "iss": 2174,
      "Ġfull": 2175,
      "room": 2176,
      "ropri": 2177,
      "Ġcollins": 2178,
      "az": 2179,
      "Ġsur": 2180,
      "reg": 2181,
      "Ġtold": 2182,
      "shot": 2183,
      "Ġanything": 2184,
      "forward": 2185,
      "Ġhappens": 2186,
      "Ġgard": 2187,
      "Ġvoice": 2188,
      "rown": 2189,
      "Ġill": 2190,
      "Ġstarbuck": 2191,
      "Ġexpress": 2192,
      "Ġmanner": 2193,
      "Ġletter": 2194,
      "gan": 2195,
      "mat": 2196,
      "iform": 2197,
      "arted": 2198,
      "Ġtransfer": 2199,
      "fully": 2200,
      "Ġminut": 2201,
      "Ġansw": 2202,
      "Ġwickham": 2203,
      "dings": 2204,
      "ipping": 2205,
      "Ġcos": 2206,
      "oration": 2207,
      "structure": 2208,
      "Ġprediction": 2209,
      "Ġbecause": 2210,
      "Ġincreased": 2211,
      "_.": 2212,
      "gress": 2213,
      "natural": 2214,
      "Ġfour": 2215,
      "Ġdam": 2216,
      "Ġpur": 2217,
      "Ġgave": 2218,
      "akes": 2219,
      "Ġcomputing": 2220,
      "airs": 2221,
      "Ġdetermined": 2222,
      "Ġembeddings": 2223,
      "Ġdoubt": 2224,
      "Ġinv": 2225,
      "Ġshort": 2226,
      "Ġuniform": 2227,
      "Ġappropri": 2228,
      "Ġcompared": 2229,
      "Ġspeak": 2230,
      "tered": 2231,
      "Ġcontaining": 2232,
      "Ġbusiness": 2233,
      "Ġuniversal": 2234,
      "some": 2235,
      "atives": 2236,
      "Ġdest": 2237,
      "aging": 2238,
      "Ġtherefore": 2239,
      "Ġident": 2240,
      "Ġsound": 2241,
      "orn": 2242,
      "Ġhold": 2243,
      "Ġsho": 2244,
      "Ġinternal": 2245,
      "Ġdecaying": 2246,
      "Ġinterest": 2247,
      "Ġappropriate": 2248,
      "dis": 2249,
      "vous": 2250,
      "Ġesc": 2251,
      "aning": 2252,
      "ising": 2253,
      "Ġgir": 2254,
      "rad": 2255,
      "Ġrese": 2256,
      "uling": 2257,
      "Ġfeet": 2258,
      "ustration": 2259,
      "Ġchild": 2260,
      "look": 2261,
      "Ġcompact": 2262,
      "Ġencouraging": 2263,
      "Ġreplied": 2264,
      "data": 2265,
      "Ġest": 2266,
      "Ġterm": 2267,
      "Ġtext": 2268,
      "Ġly": 2269,
      "owed": 2270,
      "Ġaddress": 2271,
      "Ġregion": 2272,
      "Ġstrange": 2273,
      "gradient": 2274,
      "Ġmemory": 2275,
      "Ġfear": 2276,
      "Ġasked": 2277,
      "ios": 2278,
      "Ġut": 2279,
      "Ġgot": 2280,
      "Ġeye": 2281,
      "Ġshift": 2282,
      "illustration": 2283,
      "ump": 2284,
      "Ġexplo": 2285,
      "Ġchanges": 2286,
      "Ġmechanism": 2287,
      "urpr": 2288,
      "Ġfacts": 2289,
      "Ġswe": 2290,
      "eness": 2291,
      "Ġwood": 2292,
      "Ġdaugh": 2293,
      "Ġunt": 2294,
      "Ġacts": 2295,
      "Ġpeaked": 2296,
      "Ġpositive": 2297,
      "Ġproport": 2298,
      "Ġoperations": 2299,
      "fect": 2300,
      "side": 2301,
      "Ġtimes": 2302,
      "Ġpain": 2303,
      "Ġking": 2304,
      "Ġexpect": 2305,
      "ault": 2306,
      "body": 2307,
      "mon": 2308,
      "asets": 2309,
      "Ġissue": 2310,
      "========": 2311,
      "ength": 2312,
      "Ġdependencies": 2313,
      "Ġrelationship": 2314,
      "##": 2315,
      "dimens": 2316,
      "know": 2317,
      "ople": 2318,
      "Ġaccount": 2319,
      "ached": 2320,
      "Ġpequod": 2321,
      "Ġaffecting": 2322,
      "Ġfinite": 2323,
      "Ġtheorem": 2324,
      "Ġfeedforward": 2325,
      ",âĢĻ": 2326,
      "son": 2327,
      "yond": 2328,
      "Ġmark": 2329,
      "Ġcra": 2330,
      "Ġfire": 2331,
      "chastic": 2332,
      "Ġleg": 2333,
      "Ġexploration": 2334,
      "Ġsched": 2335,
      "Ġcovari": 2336,
      "Ġregularizer": 2337,
      "Ġbalances": 2338,
      "Ġapproximation": 2339,
      "Ġapproximate": 2340,
      "Ġreduces": 2341,
      "Ġfavoring": 2342,
      "Ġsubsets": 2343,
      "Ġleaky": 2344,
      "Ġexploitation": 2345,
      "dimensional": 2346,
      "Ġscheduling": 2347,
      "Ġcovariate": 2348,
      "flow": 2349,
      "would": 2350,
      "Ġeas": 2351,
      "veral": 2352,
      "Ġrun": 2353,
      "Ġkeep": 2354,
      "Ġvalidation": 2355,
      "eled": 2356,
      "ians": 2357,
      "ready": 2358,
      "ergy": 2359,
      "Ġcap": 2360,
      "Ġdri": 2361,
      "Ġlad": 2362,
      "Ġlist": 2363,
      "Ġtempor": 2364,
      "Ġdetermines": 2365,
      "Ġperson": 2366,
      "Ġglobal": 2367,
      "Ġderivatives": 2368,
      "Ġschedule": 2369,
      "Ġcosine": 2370,
      "Ġlydia": 2371,
      "iosity": 2372,
      "vi": 2373,
      "ogn": 2374,
      "Ġstrategy": 2375,
      "af": 2376,
      "come": 2377,
      "iar": 2378,
      "Ġslow": 2379,
      "Ġlim": 2380,
      "pth": 2381,
      "Ġvia": 2382,
      "Ġunsupervised": 2383,
      "istence": 2384,
      "Ġcreature": 2385,
      "vel": 2386,
      "Ġten": 2387,
      "Ġwoman": 2388,
      "irection": 2389,
      "Ġdatasets": 2390,
      "ibility": 2391,
      "Ġmap": 2392,
      "Ġpurp": 2393,
      "Ġbeaut": 2394,
      "Ġrnns": 2395,
      "Ġparametric": 2396,
      "Ġsquare": 2397,
      "Ġbiases": 2398,
      "Ġaverages": 2399,
      "Ġsleep": 2400,
      "learn": 2401,
      "sequ": 2402,
      "Ġadm": 2403,
      "Ġadding": 2404,
      "Ġnervous": 2405,
      "networks": 2406,
      "aving": 2407,
      "aced": 2408,
      "ield": 2409,
      "tle": 2410,
      "Ġcause": 2411,
      "idirection": 2412,
      "ols": 2413,
      "ores": 2414,
      "Ġsharp": 2415,
      "Ġpredicting": 2416,
      "Ġdiscre": 2417,
      "Ġapproximates": 2418,
      "Ġaveraging": 2419,
      "Ġmasking": 2420,
      "idirectional": 2421,
      "ded": 2422,
      "rate": 2423,
      "rimin": 2424,
      "reme": 2425,
      "Ġwarm": 2426,
      "Ġmad": 2427,
      "ird": 2428,
      "Ġspir": 2429,
      "ousand": 2430,
      "Ġbalancing": 2431,
      "Ġcorrect": 2432,
      "Ġhardly": 2433,
      "co": 2434,
      "isf": 2435,
      "Ġbody": 2436,
      "ray": 2437,
      "Ġdepth": 2438,
      "ament": 2439,
      "Ġclipping": 2440,
      "itted": 2441,
      "Ġsigns": 2442,
      "Ġdecreasing": 2443,
      "Ġhist": 2444,
      "who": 2445,
      "iew": 2446,
      "Ġspeed": 2447,
      "Ġparticular": 2448,
      "moid": 2449,
      "ourage": 2450,
      "Ġproduced": 2451,
      "Ġfeelings": 2452,
      "!âĢĶ": 2453,
      "Ġtown": 2454,
      "step": 2455,
      "Ġleave": 2456,
      "Ġbeyond": 2457,
      "oder": 2458,
      "Ġprof": 2459,
      "Ġgover": 2460,
      "Ġsigmoid": 2461,
      "Ġupdate": 2462,
      "Ġsubject": 2463,
      "Ġhappy": 2464,
      "Ġnaturally": 2465,
      "iveness": 2466,
      "Ġarrang": 2467,
      "'s": 2468,
      "Ġtop": 2469,
      "omp": 2470,
      "dered": 2471,
      "Ġlooking": 2472,
      "Ġextrem": 2473,
      "Ġdiscrete": 2474,
      ",--": 2475,
      "br": 2476,
      "Ġquery": 2477,
      "Ġelse": 2478,
      "Ġseems": 2479,
      "Ġsolving": 2480,
      "ucket": 2481,
      "Ġappear": 2482,
      "Ġtechnique": 2483,
      "Ġimplements": 2484,
      "Ġidea": 2485,
      "word": 2486,
      "Ġmur": 2487,
      "Ġbeings": 2488,
      "ously": 2489,
      "Ġarm": 2490,
      "ney": 2491,
      "Ġresp": 2492,
      "Ġsign": 2493,
      "Ġcrew": 2494,
      "Ġcuriosity": 2495,
      "Ġcertainly": 2496,
      "Ġanimal": 2497,
      "Ġtable": 2498,
      "Ġlength": 2499,
      "Ġstop": 2500,
      "Ġorgan": 2501,
      "umst": 2502,
      "ards": 2503,
      "Ġcost": 2504,
      "acter": 2505,
      "Ġfix": 2506,
      "iam": 2507,
      "Ġaw": 2508,
      "Ġang": 2509,
      "ality": 2510,
      "Ġthy": 2511,
      "Ġdistingu": 2512,
      "Ġextreme": 2513,
      "Ġbrought": 2514,
      "training": 2515,
      "Ġinspired": 2516,
      "wing": 2517,
      "inc": 2518,
      "Ġitself": 2519,
      "Ġlik": 2520,
      "Ġmethodology": 2521,
      "Ġidentity": 2522,
      "Ġproportional": 2523,
      "ai": 2524,
      "dred": 2525,
      "Ġtaken": 2526,
      "herent": 2527,
      "Ġdiver": 2528,
      "eline": 2529,
      "Ġsimil": 2530,
      "Ġcountry": 2531,
      "acc": 2532,
      "eff": 2533,
      "use": 2534,
      "Ġtre": 2535,
      "Ġhon": 2536,
      "Ġnature": 2537,
      "icity": 2538,
      "their": 2539,
      "aint": 2540,
      "Ġexact": 2541,
      "Ġpeople": 2542,
      "Ġinstance": 2543,
      "Ġdiscrimin": 2544,
      "Ġworkflow": 2545,
      "Ġtrade": 2546,
      "Ġdelight": 2547,
      "Ġpipeline": 2548,
      "here": 2549,
      "Ġsurpr": 2550,
      "Ġdy": 2551,
      "Ġstood": 2552,
      "Ġenergy": 2553,
      "Ġarri": 2554,
      "formed": 2555,
      "orts": 2556,
      "Ġperfect": 2557,
      "Ġprevents": 2558,
      "were": 2559,
      "Ġrecogn": 2560,
      "Ġentire": 2561,
      "000": 2562,
      "Ġcauses": 2563,
      "Ġterms": 2564,
      "Ġtar": 2565,
      "Ġtur": 2566,
      "Ġreference": 2567,
      "Ġalone": 2568,
      "Ġconsider": 2569,
      "Ġpaths": 2570,
      "bers": 2571,
      "hor": 2572,
      "making": 2573,
      "part": 2574,
      "wise": 2575,
      "Ġblock": 2576,
      "Ġpol": 2577,
      "str": 2578,
      "Ġfort": 2579,
      "Ġproced": 2580,
      "rust": 2581,
      "Ġquick": 2582,
      "Ġothers": 2583,
      "Ġvisit": 2584,
      "Ġpossible": 2585,
      "Ġconcern": 2586,
      "true": 2587,
      "Ġwife": 2588,
      "Ġflo": 2589,
      "Ġdegra": 2590,
      "Ġsearch": 2591,
      "Ġsymb": 2592,
      "ips": 2593,
      "Ġyourself": 2594,
      "Ġpredicts": 2595,
      "atherine": 2596,
      "Ġerrors": 2597,
      "Ġpositional": 2598,
      "Ġanswer": 2599,
      "ead": 2600,
      "ging": 2601,
      "Ġwild": 2602,
      "Ġop": 2603,
      "Ġeither": 2604,
      "Ġexamples": 2605,
      "amp": 2606,
      "aged": 2607,
      "Ġneed": 2608,
      "Ġjo": 2609,
      "Ġincor": 2610,
      "Ġcollected": 2611,
      "Ġcareful": 2612,
      "Ġtemporal": 2613,
      "learning": 2614,
      "dation": 2615,
      "othe": 2616,
      "Ġmid": 2617,
      "anish": 2618,
      "Ġcoming": 2619,
      "empt": 2620,
      "Ġvoy": 2621,
      "Ġach": 2622,
      "ont": 2623,
      "Ġthee": 2624,
      "Ġded": 2625,
      "illed": 2626,
      "msprop": 2627,
      "Ġplay": 2628,
      "Ġeffectively": 2629,
      "Ġnerves": 2630,
      "medi": 2631,
      "Ġconstrain": 2632,
      "Ġbrains": 2633,
      "Ġdegradation": 2634,
      "ert": 2635,
      "Ġcab": 2636,
      "Ġforget": 2637,
      "Ġlost": 2638,
      "Ġtransformer": 2639,
      "Ġboats": 2640,
      "Ġguid": 2641,
      "Ġaffection": 2642,
      "?âĢĻ": 2643,
      "Ġcut": 2644,
      "Ġlearns": 2645,
      "antucket": 2646,
      "Ġcomputers": 2647,
      "Ġsuddenly": 2648,
      "Ġescape": 2649,
      "cial": 2650,
      "inted": 2651,
      "Ġroot": 2652,
      "Ġvalues": 2653,
      "Ġevening": 2654,
      "level": 2655,
      "Ġfriends": 2656,
      "variance": 2657,
      "Ġarrangement": 2658,
      "Ġtradeoff": 2659,
      "hood": 2660,
      "Ġbes": 2661,
      "ouble": 2662,
      "Ġlower": 2663,
      "Ġsusp": 2664,
      "Ġspat": 2665,
      "Ġresol": 2666,
      "Ġelements": 2667,
      "Ġuntil": 2668,
      "Ġextremely": 2669,
      "zy": 2670,
      "iner": 2671,
      "oured": 2672,
      "Ġseveral": 2673,
      "deav": 2674,
      "Ġimag": 2675,
      "Ġdecision": 2676,
      "iously": 2677,
      "Ġremember": 2678,
      "Ġpasses": 2679,
      "aught": 2680,
      "Ġphr": 2681,
      "Ġsentences": 2682,
      "backward": 2683,
      "Ġrespons": 2684,
      "Ġfixed": 2685,
      "Ġblu": 2686,
      "outh": 2687,
      "Ġyes": 2688,
      "wered": 2689,
      "Ġupdating": 2690,
      "Ġbecame": 2691,
      "Ġaccumulation": 2692,
      "Ġhundred": 2693,
      "Ġpleasure": 2694,
      "atively": 2695,
      "Ġopp": 2696,
      "Ġbur": 2697,
      "Ġstable": 2698,
      "Ġsum": 2699,
      "Ġsmo": 2700,
      "Ġbook": 2701,
      "Ġoccas": 2702,
      "Ġinstant": 2703,
      "Ġrelating": 2704,
      "ondon": 2705,
      "Ġcreated": 2706,
      "Ġpurpose": 2707,
      "ream": 2708,
      "atically": 2709,
      "Ġfish": 2710,
      "Ġdom": 2711,
      "Ġinject": 2712,
      "Ġalready": 2713,
      "Ġmere": 2714,
      "Ġscores": 2715,
      "Ġperplex": 2716,
      "Ġadded": 2717,
      "acing": 2718,
      "Ġdescrib": 2719,
      "Ġactivations": 2720,
      "Ġstructures": 2721,
      "upon": 2722,
      "Ġaccumulating": 2723,
      "Ġacquire": 2724,
      "Ġreadability": 2725,
      "Ġsoul": 2726,
      "Ġdistinguish": 2727,
      "Ġdivergence": 2728,
      "Ġincorrect": 2729,
      "Ġspatial": 2730,
      "uff": 2731,
      "vil": 2732,
      "let": 2733,
      "Ġblo": 2734,
      "Ġlive": 2735,
      "Ġdeploy": 2736,
      "Ġkl": 2737,
      "exp": 2738,
      "ĠĠĠĠĠĠĠĠĠĠĠĠĠĠĠĠĠĠĠĠĠĠĠĠĠĠĠĠĠĠĠĠ": 2739,
      "Ġsimulates": 2740,
      "Ġconstraints": 2741,
      "nor": 2742,
      "ones": 2743,
      "Ġwatch": 2744,
      "oting": 2745,
      "ung": 2746,
      "agrad": 2747,
      "Ġspoke": 2748,
      "Ġbrother": 2749,
      "Ġstopping": 2750,
      "ught": 2751,
      "Ġsimulation": 2752,
      "Ġsuperior": 2753,
      "gressive": 2754,
      "Ġperplexity": 2755,
      "aim": 2756,
      "hand": 2757,
      "ties": 2758,
      "res": 2759,
      "cho": 2760,
      "Ġview": 2761,
      "cked": 2762,
      "Ġability": 2763,
      "Ġross": 2764,
      "Ġdescribe": 2765,
      "Ġacquiring": 2766,
      "Ġexactly": 2767,
      "right": 2768,
      "ually": 2769,
      "Ġdro": 2770,
      "Ġhat": 2771,
      "shold": 2772,
      "english": 2773,
      "Ġappeared": 2774,
      "Ġfellow": 2775,
      "Ġquestion": 2776,
      "Ġsmooth": 2777,
      "ouch": 2778,
      "Ġins": 2779,
      "Ġthousand": 2780,
      "Ġwhaling": 2781,
      "Ġstruct": 2782,
      "ided": 2783,
      "une": 2784,
      "rie": 2785,
      "Ġens": 2786,
      "ources": 2787,
      "Ġinstead": 2788,
      "Ġmultipl": 2789,
      "Ġoccurring": 2790,
      "Ġcontains": 2791,
      "Ġcharacter": 2792,
      "Ġpractice": 2793,
      "Ġgoverning": 2794,
      "Ġsymbols": 2795,
      "Ġphrases": 2796,
      "Ġstructural": 2797,
      "_,": 2798,
      "bb": 2799,
      "ken": 2800,
      "pred": 2801,
      "sy": 2802,
      "cement": 2803,
      "Ġstri": 2804,
      "Ġmeet": 2805,
      "Ġconverts": 2806,
      "Ġsatisf": 2807,
      "Ġbehind": 2808,
      "Ġthreshold": 2809,
      "Ġprocedure": 2810,
      "every": 2811,
      "tw": 2812,
      "Ġcatherine": 2813,
      "leg": 2814,
      "Ġevol": 2815,
      "iment": 2816,
      "Ġplain": 2817,
      "iety": 2818,
      "Ġhours": 2819,
      "culiar": 2820,
      "Ġtarget": 2821,
      "ford": 2822,
      "nam": 2823,
      "Ġcru": 2824,
      "Ġdr": 2825,
      "ula": 2826,
      "Ġweek": 2827,
      "Ġspanish": 2828,
      "why": 2829,
      "Ġtransl": 2830,
      "avier": 2831,
      "pening": 2832,
      "Ġrecognition": 2833,
      "mer": 2834,
      "oc": 2835,
      "Ġosc": 2836,
      "Ġfive": 2837,
      "Ġfair": 2838,
      "Ġnantucket": 2839,
      "Ġlondon": 2840,
      "Ġcomple": 2841,
      "ques": 2842,
      "Ġparad": 2843,
      "Ġfund": 2844,
      "arks": 2845,
      "Ġentered": 2846,
      "Ġground": 2847,
      "Ġincluding": 2848,
      "Ġproblems": 2849,
      "Ġmonth": 2850,
      "Ġearth": 2851,
      "Ġanswered": 2852,
      "valued": 2853,
      "overed": 2854,
      "Ġxavier": 2855,
      "sequence": 2856,
      "Ġoscill": 2857,
      "ho": 2858,
      "edy": 2859,
      "Ġgrow": 2860,
      "Ġenv": 2861,
      "iles": 2862,
      "mselves": 2863,
      "Ġsteps": 2864,
      "Ġinstruct": 2865,
      "Ġformula": 2866,
      "Ġsuppose": 2867,
      "Ġtechniques": 2868,
      "Ġbreak": 2869,
      "Ġdaughter": 2870,
      "efficient": 2871,
      "Ġmultiplication": 2872,
      "could": 2873,
      "ges": 2874,
      "sig": 2875,
      "inion": 2876,
      "Ġmist": 2877,
      "isher": 2878,
      "orient": 2879,
      "Ġbeam": 2880,
      "seen": 2881,
      "iful": 2882,
      "Ġranges": 2883,
      "Ġcoefficient": 2884,
      "Ġseeing": 2885,
      "Ġoutputs": 2886,
      "Ġindic": 2887,
      "Ġnumbers": 2888,
      "Ġsteep": 2889,
      "Ġaccumulates": 2890,
      "Ġreturned": 2891,
      "Ġpatience": 2892,
      "Ġjacobian": 2893,
      "Ġjacobians": 2894,
      "Ġsemantics": 2895,
      "Ġdampening": 2896,
      "after": 2897,
      "Ġresponsiveness": 2898,
      "Ġoscillations": 2899,
      "good": 2900,
      "Ġmast": 2901,
      "Ġstory": 2902,
      "Ġsums": 2903,
      "Ġadagrad": 2904,
      "Ġimmedi": 2905,
      "Ġcompute": 2906,
      "Ġconvers": 2907,
      "meaning": 2908,
      "Ġreflected": 2909,
      "Ġarchitectures": 2910,
      "Ġharpoone": 2911,
      "long": 2912,
      "ination": 2913,
      "itors": 2914,
      "orrow": 2915,
      "enty": 2916,
      "Ġrele": 2917,
      "ountain": 2918,
      "Ġprec": 2919,
      "cont": 2920,
      "Ġrequiring": 2921,
      "Ġcontinued": 2922,
      "Ġcreativity": 2923,
      "Ġsimplicity": 2924,
      "abilizing": 2925,
      "Ġrelationships": 2926,
      "Ġfundament": 2927,
      "cast": 2928,
      "Ġ2": 2929,
      "Ġmer": 2930,
      "itud": 2931,
      "lever": 2932,
      "Ġreve": 2933,
      "thy": 2934,
      "while": 2935,
      "Ġabove": 2936,
      "Ġresources": 2937,
      "Ġcompat": 2938,
      "sentence": 2939,
      "weight": 2940,
      "Ġdevices": 2941,
      "Ġformal": 2942,
      "Ġformation": 2943,
      "appe": 2944,
      "Ġhappiness": 2945,
      "Ġsensit": 2946,
      "oriented": 2947,
      "inter": 2948,
      "Ġsn": 2949,
      "Ġevent": 2950,
      "Ġreceived": 2951,
      "Ġiter": 2952,
      "ames": 2953,
      "Ġenh": 2954,
      "Ġendeav": 2955,
      "Ġchapter": 2956,
      "ameter": 2957,
      "athan": 2958,
      "Ġstreet": 2959,
      "Ġcompatibility": 2960,
      "based": 2961,
      "Ġast": 2962,
      "Ġsamples": 2963,
      "Ġmaps": 2964,
      "Ġbit": 2965,
      "Ġinqu": 2966,
      "Ġlord": 2967,
      "Ġeag": 2968,
      "ilt": 2969,
      "Ġconv": 2970,
      "âĢĶâĢľ": 2971,
      "ushed": 2972,
      "Ġstructured": 2973,
      "Ġsuffers": 2974,
      "Ġimplement": 2975,
      "Ġcircumst": 2976,
      "Ġpulley": 2977,
      "Ġguido": 2978,
      "Ġreleased": 2979,
      "'(": 2980,
      "(-": 2981,
      ")(": 2982,
      "/(": 2983,
      "infor": 2984,
      "Ġson": 2985,
      "Ġspl": 2986,
      "Ġmot": 2987,
      "Ġmention": 2988,
      "Ġfall": 2989,
      "Ġdut": 2990,
      "Ġpa": 2991,
      "Ġpot": 2992,
      "Ġstra": 2993,
      "ssible": 2994,
      "Ġrich": 2995,
      "Ġunstructure": 2996,
      "ibly": 2997,
      "Ġpersistence": 2998,
      "Ġcreating": 2999,
      "Ġwindow": 3000,
      "Ġstanding": 3001,
      "Ġderivative": 3002,
      "Ġminutes": 3003,
      "Ġevolve": 3004,
      "sigma": 3005,
      "Ġunstructured": 3006,
      "Ġred": 3007,
      "abases": 3008,
      "Ġoffering": 3009,
      "phology": 3010,
      "Ġ199": 3011,
      "Ġmorphology": 3012,
      "parameter": 3013,
      "Ġorganically": 3014,
      "Ġrossum": 3015,
      "Ġfundamental": 3016,
      "itudes": 3017,
      "Ġenhance": 3018,
      "inforcement": 3019,
      "Ġ1991": 3020,
      "light": 3021,
      "uth": 3022,
      "them": 3023,
      "Ġones": 3024,
      "shire": 3025,
      "Ġboy": 3026,
      "ressed": 3027,
      "databases": 3028,
      "Ġengineering": 3029,
      "ses": 3030,
      "wr": 3031,
      "ony": 3032,
      "Ġoce": 3033,
      "Ġce": 3034,
      "Ġcold": 3035,
      "imp": 3036,
      "Ġlevi": 3037,
      "Ġpret": 3038,
      "Ġclose": 3039,
      "Ġgreater": 3040,
      "Ġdefault": 3041,
      "Ġflask": 3042,
      "Ġgentleman": 3043,
      "regular": 3044,
      "ĠâĢĻ": 3045,
      "Ġsix": 3046,
      "arr": 3047,
      "igms": 3048,
      "see": 3049,
      "Ġfunctional": 3050,
      "oney": 3051,
      "Ġsupports": 3052,
      "Ġmitigates": 3053,
      "Ġgreen": 3054,
      "Ġgreedy": 3055,
      "Ġvoyage": 3056,
      "Ġensures": 3057,
      "Ġparadigms": 3058,
      "Ġiteratively": 3059,
      "band": 3060,
      "king": 3061,
      "Ġbow": 3062,
      "Ġnlp": 3063,
      "Ġliving": 3064,
      "ceive": 3065,
      "ained": 3066,
      "neural": 3067,
      "Ġregard": 3068,
      "retched": 3069,
      "Ġsensitivity": 3070,
      "fast": 3071,
      "field": 3072,
      "Ġtuning": 3073,
      "Ġsing": 3074,
      "ison": 3075,
      "omet": 3076,
      "irt": 3077,
      "Ġseas": 3078,
      "atever": 3079,
      "cks": 3080,
      "Ġable": 3081,
      "Ġdecoding": 3082,
      "such": 3083,
      "Ġfeeling": 3084,
      "Ġmaxim": 3085,
      "Ġgirl": 3086,
      "Ġtranslation": 3087,
      "Ġsteepest": 3088,
      "Ġtail": 3089,
      "onel": 3090,
      "Ġfle": 3091,
      "Ġhus": 3092,
      "iling": 3093,
      "Ġstay": 3094,
      "izzy": 3095,
      "Ġaspect": 3096,
      "Ġscene": 3097,
      "Ġbegin": 3098,
      "solving": 3099,
      "Ġgeneralize": 3100,
      "aff": 3101,
      "col": 3102,
      "happ": 3103,
      "ening": 3104,
      "Ġmim": 3105,
      "Ġden": 3106,
      "Ġevalu": 3107,
      "irm": 3108,
      "riv": 3109,
      "ivation": 3110,
      "Ġspaces": 3111,
      "dec": 3112,
      "Ġquar": 3113,
      "before": 3114,
      "Ġdiff": 3115,
      "Ġdiscourage": 3116,
      "Ġ1000": 3117,
      "Ġproperties": 3118,
      "Ġslight": 3119,
      "Ġvalidate": 3120,
      "Ġarrange": 3121,
      "Ġdescribes": 3122,
      "Ġinstructing": 3123,
      "cut": 3124,
      "gd": 3125,
      "gener": 3126,
      "oid": 3127,
      "Ġai": 3128,
      "hemat": 3129,
      "Ġsgd": 3130,
      "urons": 3131,
      "under": 3132,
      "rium": 3133,
      "Ġtry": 3134,
      "neurons": 3135,
      "Ġago": 3136,
      "Ġhandle": 3137,
      "Ġthoughts": 3138,
      "Ġaverage": 3139,
      "Ġwalked": 3140,
      "Ġremained": 3141,
      "Ġopinion": 3142,
      "Ġmimic": 3143,
      "'t": 3144,
      "ks": 3145,
      "time": 3146,
      "Ġbar": 3147,
      "Ġbott": 3148,
      "Ġdimens": 3149,
      "Ġhast": 3150,
      "never": 3151,
      "Ġpeculiar": 3152,
      "nothing": 3153,
      "Ġeverything": 3154,
      "Ġadaptation": 3155,
      "Ġmonitors": 3156,
      "Ġbecome": 3157,
      "Ġhalts": 3158,
      "Ġmethods": 3159,
      "Ġpromoting": 3160,
      "Ġfoot": 3161,
      "Ġdread": 3162,
      "Ġpractical": 3163,
      "Ġviolates": 3164,
      "Ġstops": 3165,
      "Ġsimilarity": 3166,
      "Ġblood": 3167,
      "Ġmaximizing": 3168,
      ",âĢĶ": 3169,
      "che": 3170,
      "lig": 3171,
      "miss": 3172,
      "pr": 3173,
      "Ġtreat": 3174,
      "Ġaunt": 3175,
      "Ġsample": 3176,
      "Ġmine": 3177,
      "Ġmouth": 3178,
      "Ġanx": 3179,
      "ils": 3180,
      "ccess": 3181,
      "Ġjoy": 3182,
      "rope": 3183,
      "rying": 3184,
      "Ġoffic": 3185,
      "Ġmarriage": 3186,
      "Ġprompt": 3187,
      "Ġhorr": 3188,
      "Ġgeomet": 3189,
      "Ġuncle": 3190,
      "Ġladies": 3191,
      "Ġindicates": 3192,
      "did": 3193,
      "dropout": 3194,
      "Ġfaster": 3195,
      "sto": 3196,
      "Ġproxim": 3197,
      "âĢĶ_": 3198,
      "prec": 3199,
      "Ġmathemat": 3200,
      "Ġpossess": 3201,
      "Ġintroduce": 3202,
      "Ġdedication": 3203,
      "Ġevaluate": 3204,
      "iating": 3205,
      "lot": 3206,
      "alice": 3207,
      "pper": 3208,
      "Ġsupervised": 3209,
      "rupt": 3210,
      "Ġmodern": 3211,
      "Ġscar": 3212,
      "Ġqueen": 3213,
      "Ġrefine": 3214,
      "Ġbright": 3215,
      "Ġdetection": 3216,
      "Ġdesp": 3217,
      "Ġguide": 3218,
      "Ġstrugg": 3219,
      "Ġgeometric": 3220,
      "Ġproximity": 3221,
      "._": 3222,
      "ining": 3223,
      "Ġfisher": 3224,
      "Ġnone": 3225,
      "Ġforcing": 3226,
      "olly": 3227,
      "ified": 3228,
      "rible": 3229,
      "iece": 3230,
      "ieved": 3231,
      "activation": 3232,
      "spect": 3233,
      "Ġallows": 3234,
      "Ġsorting": 3235,
      "Ġiron": 3236,
      "abilities": 3237,
      "Ġbeneath": 3238,
      "Ġgardiner": 3239,
      "Ġpursu": 3240,
      "Ġdimension": 3241,
      "these": 3242,
      "Ġproceed": 3243,
      "Ġsaying": 3244,
      "Ġdetermine": 3245,
      "Ġoccasion": 3246,
      "ailed": 3247,
      "dle": 3248,
      "hic": 3249,
      "Ġtaking": 3250,
      "Ġsense": 3251,
      "Ġthemselves": 3252,
      "Ġma": 3253,
      "Ġcent": 3254,
      "Ġbra": 3255,
      "alth": 3256,
      "ics": 3257,
      "Ġrevolut": 3258,
      "Ġreinforcement": 3259,
      "Ġstart": 3260,
      "used": 3261,
      "Ġquiet": 3262,
      "should": 3263,
      "Ġcoherent": 3264,
      "Ġcommonly": 3265,
      "Ġrapidly": 3266,
      "Ġfinding": 3267,
      "Ġstochastic": 3268,
      "Ġhelping": 3269,
      "Ġsilence": 3270,
      "Ġintroduces": 3271,
      "Ġdynam": 3272,
      "cur": 3273,
      "ners": 3274,
      "yed": 3275,
      "Ġterr": 3276,
      "inary": 3277,
      "read": 3278,
      "Ġcand": 3279,
      "Ġflu": 3280,
      "Ġgold": 3281,
      "raid": 3282,
      "Ġrepe": 3283,
      "Ġdeg": 3284,
      "Ġspout": 3285,
      "dually": 3286,
      "Ġattending": 3287,
      "Ġyear": 3288,
      "Ġfrequent": 3289,
      "Ġlabels": 3290,
      "Ġleviathan": 3291,
      "bed": 3292,
      "gl": 3293,
      "som": 3294,
      "inct": 3295,
      "Ġbul": 3296,
      "ots": 3297,
      "Ġvess": 3298,
      "Ġvast": 3299,
      "Ġsole": 3300,
      "isted": 3301,
      "âĢĶâĢĿ": 3302,
      "usion": 3303,
      "bourn": 3304,
      "Ġcabin": 3305,
      "Ġocean": 3306,
      "Ġrevolution": 3307,
      "sence": 3308,
      "only": 3309,
      "Ġciv": 3310,
      "Ġport": 3311,
      "Ġluc": 3312,
      "ury": 3313,
      "Ġexcept": 3314,
      "Ġhair": 3315,
      "epend": 3316,
      "astrop": 3317,
      "ales": 3318,
      "Ġchance": 3319,
      "Ġjaw": 3320,
      "Ġtruth": 3321,
      "Ġraw": 3322,
      "Ġcommand": 3323,
      "Ġformer": 3324,
      "Ġbring": 3325,
      "Ġzeros": 3326,
      "Ġglad": 3327,
      "Ġturning": 3328,
      "Ġfrequ": 3329,
      "Ġserv": 3330,
      "Ġresearch": 3331,
      "Ġconversation": 3332,
      "lotte": 3333,
      "!âĢĻ": 3334,
      "dw": 3335,
      "iable": 3336,
      "joy": 3337,
      "inced": 3338,
      "onah": 3339,
      "any": 3340,
      "Ġbased": 3341,
      "asp": 3342,
      "icult": 3343,
      "Ġexcess": 3344,
      "Ġran": 3345,
      "been": 3346,
      "mbling": 3347,
      "Ġkept": 3348,
      "Ġcatastrop": 3349,
      "Ġestim": 3350,
      "castle": 3351,
      "Ġmathematical": 3352,
      "little": 3353,
      "Ġaye": 3354,
      "ries": 3355,
      "Ġrmsprop": 3356,
      "Ġsumm": 3357,
      "Ġsav": 3358,
      "Ġjud": 3359,
      "Ġdisp": 3360,
      "Ġlonger": 3361,
      "Ġcurious": 3362,
      "boat": 3363,
      "Ġnearly": 3364,
      "solut": 3365,
      "Ġheaven": 3366,
      "Ġimmediately": 3367,
      "Ġrevolutionized": 3368,
      "round": 3369,
      "hest": 3370,
      "ater": 3371,
      "enance": 3372,
      "Ġmountain": 3373,
      "Ġoil": 3374,
      "Ġblow": 3375,
      "Ġfree": 3376,
      "Ġdl": 3377,
      "Ġlate": 3378,
      "icit": 3379,
      "ident": 3380,
      "emed": 3381,
      "Ġchief": 3382,
      "Ġgenerator": 3383,
      "Ġboard": 3384,
      "Ġcapture": 3385,
      "Ġphil": 3386,
      "Ġschedules": 3387,
      "Ġgeor": 3388,
      "ighbour": 3389,
      "Ġstruck": 3390,
      "Ġhistor": 3391,
      "Ġdiscriminator": 3392,
      "tically": 3393,
      "Ġver": 3394,
      "Ġri": 3395,
      "Ġtouch": 3396,
      "Ġmus": 3397,
      "Ġready": 3398,
      "again": 3399,
      "ssian": 3400,
      "Ġgradually": 3401,
      "Ġshow": 3402,
      "Ġimage": 3403,
      "context": 3404,
      "ression": 3405,
      "Ġ18": 3406,
      "Ġcolonel": 3407,
      "Ġmarried": 3408,
      "Ġdecreases": 3409,
      "Ġcausal": 3410,
      "Ġsilent": 3411,
      "Ġmeta": 3412,
      "Ġadjusting": 3413,
      "dra": 3414,
      "pus": 3415,
      "rum": 3416,
      "wor": 3417,
      "ints": 3418,
      "Ġmoney": 3419,
      "Ġought": 3420,
      "Ġpit": 3421,
      "Ġham": 3422,
      "Ġconce": 3423,
      "Ġcomes": 3424,
      "oregressive": 3425,
      "Ġunidirectional": 3426,
      "Ġprem": 3427,
      "ours": 3428,
      "Ġdisco": 3429,
      "Ġengaged": 3430,
      "Ġparallelization": 3431,
      "Ġlinear": 3432,
      "Ġautoregressive": 3433,
      "Ġentirely": 3434,
      "Ġforgetting": 3435,
      "sm": 3436,
      "Ġcous": 3437,
      "entiating": 3438,
      "Ġcomfort": 3439,
      "Ġnoble": 3440,
      "itten": 3441,
      "Ġimpo": 3442,
      "Ġrose": 3443,
      "Ġplaced": 3444,
      "Ġoblig": 3445,
      "Ġexponentiating": 3446,
      "Ġcalm": 3447,
      "Ġbroken": 3448,
      "Ġreplacing": 3449,
      "Ġlogits": 3450,
      "Ġfront": 3451,
      "Ġeasy": 3452,
      "Ġlimits": 3453,
      "Ġblue": 3454,
      "Ġdomain": 3455,
      "Ġmonths": 3456,
      "lab": 3457,
      "tled": 3458,
      "ĠâĢĶ_": 3459,
      "Ġmort": 3460,
      "Ġbreat": 3461,
      "Ġfat": 3462,
      "Ġforth": 3463,
      "Ġminima": 3464,
      "Ġminimizing": 3465,
      "Ġsweet": 3466,
      "Ġinjection": 3467,
      "?âĢĶ": 3468,
      "down": 3469,
      "eric": 3470,
      "Ġfro": 3471,
      "Ġfil": 3472,
      "Ġwhatever": 3473,
      "Ġexcl": 3474,
      "Ġnecess": 3475,
      "Ġsharing": 3476,
      "Ġunre": 3477,
      "umb": 3478,
      "ested": 3479,
      "Ġjonah": 3480,
      "apers": 3481,
      "Ġaccur": 3482,
      "Ġwilliam": 3483,
      "Ġdistance": 3484,
      "Ġtransformations": 3485,
      "Ġstranger": 3486,
      "Ġattempt": 3487,
      "Ġdependency": 3488,
      "Ġbenef": 3489,
      "cially": 3490,
      "ler": 3491,
      "ned": 3492,
      "pent": 3493,
      "range": 3494,
      "Ġsitu": 3495,
      "Ġcry": 3496,
      "Ġdick": 3497,
      "Ġpict": 3498,
      "espe": 3499,
      "Ġig": 3500,
      "Ġevid": 3501,
      "Ġhen": 3502,
      "char": 3503,
      "Ġwhis": 3504,
      "iron": 3505,
      "ishment": 3506,
      "duct": 3507,
      "Ġcoff": 3508,
      "Ġlongbourn": 3509,
      "Ġvarious": 3510,
      "Ġparty": 3511,
      "Ġcurv": 3512,
      "Ġopened": 3513,
      "Ġbesides": 3514,
      "regularization": 3515,
      "fish": 3516,
      "great": 3517,
      "hen": 3518,
      "Ġbound": 3519,
      "Ġdanger": 3520,
      "ety": 3521,
      "Ġled": 3522,
      "Ġlead": 3523,
      "Ġunseen": 3524,
      "Ġsoc": 3525,
      "Ġsummar": 3526,
      "ĠĠĠĠĠ": 3527,
      "Ġquality": 3528,
      "Ġhighest": 3529,
      "Ġafraid": 3530,
      "Ġafterwards": 3531,
      "ildad": 3532,
      "Ġnewton": 3533,
      "Ġproduct": 3534,
      "scale": 3535,
      "Ġsailor": 3536,
      "Ġdrew": 3537,
      "Ġdream": 3538,
      "fortun": 3539,
      "Ġbehav": 3540,
      "Ġobserved": 3541,
      "Ġcatastrophic": 3542,
      "Ġimpossible": 3543,
      "don": 3544,
      "Ġdare": 3545,
      "Ġlizzy": 3546,
      "Ġearn": 3547,
      "Ġhessian": 3548,
      "aded": 3549,
      "Ġmeant": 3550,
      "anging": 3551,
      "Ġspect": 3552,
      "ourney": 3553,
      "itty": 3554,
      "Ġrol": 3555,
      "together": 3556,
      "Ġcover": 3557,
      "Ġuseful": 3558,
      "Ġdownst": 3559,
      "spe": 3560,
      "Ġsays": 3561,
      "coming": 3562,
      "Ġpersu": 3563,
      "Ġassist": 3564,
      "board": 3565,
      "Ġtheoretically": 3566,
      "Ġexcel": 3567,
      "known": 3568,
      "aintance": 3569,
      "Ġeager": 3570,
      "Ġdifficult": 3571,
      "especially": 3572,
      "Ġcurvature": 3573,
      "cely": 3574,
      "cross": 3575,
      "mn": 3576,
      "must": 3577,
      "moment": 3578,
      "tr": 3579,
      "Ġet": 3580,
      "Ġav": 3581,
      "Ġmut": 3582,
      "Ġgrie": 3583,
      "ste": 3584,
      "Ġheld": 3585,
      "about": 3586,
      "anged": 3587,
      "Ġexplicit": 3588,
      "Ġdecl": 3589,
      "oft": 3590,
      "Ġinstantly": 3591,
      "Ġgrand": 3592,
      "Ġmeasure": 3593,
      "ubl": 3594,
      "Ġwaters": 3595,
      "Ġwatson": 3596,
      "Ġlikely": 3597,
      "aves": 3598,
      "fl": 3599,
      "ming": 3600,
      "mast": 3601,
      "sail": 3602,
      "Ġice": 3603,
      "Ġsitting": 3604,
      "Ġcast": 3605,
      "oton": 3606,
      "Ġdeal": 3607,
      "think": 3608,
      "Ġsuccess": 3609,
      "Ġaround": 3610,
      "reeable": 3611,
      "Ġdevil": 3612,
      "Ġenglish": 3613,
      "Ġemploy": 3614,
      "Ġharpoon": 3615,
      "Ġdriving": 3616,
      "Ġslowly": 3617,
      "Ġpotential": 3618,
      "Ġhusband": 3619,
      "cnns": 3620,
      "rer": 3621,
      "Ġball": 3622,
      "Ġfig": 3623,
      "Ġdin": 3624,
      "Ġnet": 3625,
      "Ġlaug": 3626,
      "Ġgame": 3627,
      "Ġvain": 3628,
      "herfield": 3629,
      "Ġscaling": 3630,
      "ush": 3631,
      "Ġprocesses": 3632,
      "feature": 3633,
      "Ġmiserable": 3634,
      "Ġencoder": 3635,
      "Ġmonoton": 3636,
      "Ġcalcul": 3637,
      "Ġnumer": 3638,
      "Ġbroad": 3639,
      "Ġsisters": 3640,
      "Ġfavour": 3641,
      "Ġgentlemen": 3642,
      "Ġcompanion": 3643,
      "decoder": 3644,
      "Ġhistorical": 3645,
      "Ġsummarization": 3646,
      "Ġtried": 3647,
      "rew": 3648,
      "requent": 3649,
      "Ġwo": 3650,
      "Ġmakes": 3651,
      "lection": 3652,
      "ises": 3653,
      "Ġlaw": 3654,
      "igin": 3655,
      "Ġstabilizing": 3656,
      "Ġbear": 3657,
      "ainted": 3658,
      "aye": 3659,
      "Ġdoing": 3660,
      "Ġchair": 3661,
      "aker": 3662,
      "Ġgenerates": 3663,
      "Ġmoby": 3664,
      "Ġnorms": 3665,
      "Ġconnectivity": 3666,
      "Ġindepend": 3667,
      "Ġswift": 3668,
      "Ġfresh": 3669,
      "Ġdraw": 3670,
      "Ġbeautiful": 3671,
      "Ġachieve": 3672,
      "Ġbottom": 3673,
      "Ġstruggle": 3674,
      "certain": 3675,
      "face": 3676,
      "kes": 3677,
      "may": 3678,
      "into": 3679,
      "Ġmaster": 3680,
      "Ġbu": 3681,
      "Ġburn": 3682,
      "Ġfit": 3683,
      "Ġere": 3684,
      "Ġneither": 3685,
      "cket": 3686,
      "Ġchr": 3687,
      "osing": 3688,
      "Ġtrouble": 3689,
      "Ġmock": 3690,
      "Ġpeace": 3691,
      "Ġcarried": 3692,
      "Ġmasked": 3693,
      "Ġremarked": 3694,
      "Ġexpected": 3695,
      "Ġspirits": 3696,
      "Ġprofess": 3697,
      "Ġappearance": 3698,
      "Ġperfectly": 3699,
      "Ġaston": 3700,
      "Ġstraight": 3701,
      "Ġdegree": 3702,
      "Ġcousin": 3703,
      "much": 3704,
      "Ġsnow": 3705,
      "Ġmate": 3706,
      "Ġcott": 3707,
      "Ġfurn": 3708,
      "Ġexam": 3709,
      "Ġcook": 3710,
      "Ġhappened": 3711,
      "Ġships": 3712,
      "Ġrelated": 3713,
      "Ġblind": 3714,
      "Ġdesire": 3715,
      "Ġlabeled": 3716,
      "Ġgroups": 3717,
      "Ġsecret": 3718,
      "Ġcompany": 3719,
      "Ġdestro": 3720,
      "================": 3721,
      "Ġspirit": 3722,
      "Ġpremature": 3723,
      "action": 3724,
      "mp": 3725,
      "Ġwis": 3726,
      "Ġwished": 3727,
      "Ġcaught": 3728,
      "Ġdiv": 3729,
      "Ġgpus": 3730,
      "Ġconduct": 3731,
      "ssed": 3732,
      "Ġord": 3733,
      "Ġ(_": 3734,
      "Ġactual": 3735,
      "Ġpeleg": 3736,
      "Ġoccup": 3737,
      "Ġefficiently": 3738,
      "Ġheads": 3739,
      "Ġsettled": 3740,
      "Ġcontextual": 3741,
      "Ġheavy": 3742,
      "mrs": 3743,
      "Ġfancy": 3744,
      "Ġarrived": 3745,
      "Ġestimates": 3746,
      "Ġgeorge": 3747,
      ";âĢĶ": 3748,
      "bs": 3749,
      "jo": 3750,
      "rous": 3751,
      "yet": 3752,
      "rel": 3753,
      "Ġbidirectional": 3754,
      "Ġbird": 3755,
      "Ġfing": 3756,
      "term": 3757,
      "Ġcompl": 3758,
      "Ġenjoy": 3759,
      "ellent": 3760,
      "Ġvict": 3761,
      "Ġsher": 3762,
      "aped": 3763,
      "Ġintelligently": 3764,
      "Ġobjective": 3765,
      "Ġconfess": 3766,
      "Ġchildren": 3767,
      "Ġaddresses": 3768,
      "Ġbeauty": 3769,
      "Ġmerely": 3770,
      "Ġharpooneer": 3771,
      "Ġhorror": 3772,
      "stochastic": 3773,
      "Ġdownstream": 3774,
      "father": 3775,
      "gged": 3776,
      "hum": 3777,
      "onder": 3778,
      "Ġmass": 3779,
      "Ġbildad": 3780,
      "algorith": 3781,
      "Ġthick": 3782,
      "Ġthrow": 3783,
      "ashed": 3784,
      "Ġremo": 3785,
      "Ġhel": 3786,
      "Ġforg": 3787,
      "Ġunlab": 3788,
      "ustom": 3789,
      "Ġmanners": 3790,
      "Ġthank": 3791,
      "Ġletters": 3792,
      "Ġmonster": 3793,
      "Ġinnoc": 3794,
      "Ġincreases": 3795,
      "Ġfright": 3796,
      "Ġresolved": 3797,
      "Ġvessel": 3798,
      "Ġunlabeled": 3799,
      "gh": 3800,
      "io": 3801,
      "last": 3802,
      "Ġmiles": 3803,
      "Ġcrow": 3804,
      "Ġevil": 3805,
      "tering": 3806,
      "Ġneighbour": 3807,
      "ssing": 3808,
      "Ġspars": 3809,
      "Ġdecomp": 3810,
      "feel": 3811,
      "Ġinstability": 3812,
      "Ġmisery": 3813,
      "Ġconsol": 3814,
      "comp": 3815,
      "Ġadapts": 3816,
      "liable": 3817,
      "Ġnews": 3818,
      "Ġswim": 3819,
      "Ġwrite": 3820,
      "Ġmagnitudes": 3821,
      "Ġpride": 3822,
      "Ġinfrequent": 3823,
      "Ġautom": 3824,
      "Ġedges": 3825,
      "Ġgarden": 3826,
      "###": 3827,
      "Ġsignific": 3828,
      "Ġsurprise": 3829,
      "Ġsurprised": 3830,
      "Ġrepeated": 3831,
      "Ġlucas": 3832,
      "Ġmonotonically": 3833,
      "awn": 3834,
      "bel": 3835,
      "capt": 3836,
      "even": 3837,
      "hol": 3838,
      "iod": 3839,
      "held": 3840,
      "Ġwit": 3841,
      "Ġwall": 3842,
      "Ġmary": 3843,
      "Ġdue": 3844,
      "Ġren": 3845,
      "iding": 3846,
      "Ġprot": 3847,
      "thought": 3848,
      "Ġshad": 3849,
      "keep": 3850,
      "pleas": 3851,
      "Ġgoes": 3852,
      "Ġameric": 3853,
      "Ġwhereas": 3854,
      "Ġrecall": 3855,
      "Ġadaptively": 3856,
      "Ġengland": 3857,
      "Ġtalking": 3858,
      "ashion": 3859,
      "two": 3860,
      "Ġenviron": 3861,
      "Ġpretty": 3862,
      "dy": 3863,
      "friend": 3864,
      "kind": 3865,
      "lord": 3866,
      "set": 3867,
      "vely": 3868,
      "Ġsad": 3869,
      "ency": 3870,
      "Ġfly": 3871,
      "Ġfirm": 3872,
      "Ġdimin": 3873,
      "Ġhyp": 3874,
      "eli": 3875,
      "Ġcond": 3876,
      "ellow": 3877,
      "redit": 3878,
      "Ġvill": 3879,
      "antage": 3880,
      "Ġjourney": 3881,
      "Ġroad": 3882,
      "Ġplan": 3883,
      "Ġplus": 3884,
      "Ġformed": 3885,
      "Ġpassage": 3886,
      "Ġbelong": 3887,
      "Ġdeser": 3888,
      "Ġcorre": 3889,
      "Ġsteel": 3890,
      "Ġcharlotte": 3891,
      "Ġeasily": 3892,
      "Ġexcessive": 3893,
      "Ġsherlock": 3894,
      "mand": 3895,
      "ored": 3896,
      "Ġage": 3897,
      "Ġoars": 3898,
      "ites": 3899,
      "Ġpray": 3900,
      "iced": 3901,
      "Ġeight": 3902,
      "ceiving": 3903,
      "Ġhealth": 3904,
      "Ġleaving": 3905,
      "iff": 3906,
      "ague": 3907,
      "Ġvirt": 3908,
      "Ġseam": 3909,
      "Ġkitty": 3910,
      "Ġabsolut": 3911,
      "Ġcloud": 3912,
      "Ġsystematically": 3913,
      "Ġwhalemen": 3914,
      "being": 3915,
      "model": 3916,
      "appo": 3917,
      "lik": 3918,
      "anks": 3919,
      "Ġdrawing": 3920,
      "Ġwaves": 3921,
      "Ġpreviously": 3922,
      "Ġspecialized": 3923,
      "Ġwarmup": 3924,
      "Ġhonour": 3925,
      "Ġimagine": 3926,
      "Ġrevealing": 3927,
      "Ġcircumstances": 3928,
      "Ġmaj": 3929,
      "Ġfilters": 3930,
      "Ġunreliable": 3931,
      "Ġearnest": 3932,
      "Ġnetherfield": 3933,
      "Ġenvironment": 3934,
      "bit": 3935,
      "clock": 3936,
      "first": 3937,
      "ware": 3938,
      "Ġespecially": 3939,
      "hens": 3940,
      "Ġsal": 3941,
      "Ġwond": 3942,
      "Ġpubl": 3943,
      "Ġlaid": 3944,
      "Ġshut": 3945,
      "Ġusual": 3946,
      "aled": 3947,
      "Ġchase": 3948,
      "oses": 3949,
      "conc": 3950,
      "Ġinitialized": 3951,
      "Ġtwenty": 3952,
      "Ġcarriage": 3953,
      "Ġrunning": 3954,
      "aimed": 3955,
      "Ġaccurately": 3956,
      "captain": 3957,
      "acy": 3958,
      "cle": 3959,
      "gu": 3960,
      "ira": 3961,
      "vell": 3962,
      "ys": 3963,
      "Ġwed": 3964,
      "Ġcases": 3965,
      "Ġdie": 3966,
      "Ġpay": 3967,
      "Ġspent": 3968,
      "Ġimm": 3969,
      "Ġarms": 3970,
      "rench": 3971,
      "arer": 3972,
      "Ġsky": 3973,
      "Ġcountenance": 3974,
      "himself": 3975,
      "Ġquestions": 3976,
      "Ġthrew": 3977,
      "Ġutter": 3978,
      "Ġbreakfast": 3979,
      "Ġquarter": 3980,
      "Ġsociety": 3981,
      "bre": 3982,
      "cus": 3983,
      "ha": 3984,
      "hold": 3985,
      "pit": 3986,
      "say": 3987,
      "Ġ3": 3988,
      "Ġ4": 3989,
      "Ġmed": 3990,
      "Ġbad": 3991,
      "Ġbrow": 3992,
      "Ġlatter": 3993,
      "Ġlived": 3994,
      "Ġlips": 3995,
      "urch": 3996,
      "Ġexe": 3997,
      "Ġlearnable": 3998,
      "Ġweather": 3999,
      "Ġvent": 4000,
      "Ġselect": 4001,
      "Ġsepar": 4002,
      "ists": 4003,
      "Ġsaf": 4004,
      "reng": 4005,
      "Ġperiod": 4006,
      "arest": 4007,
      "ieves": 4008,
      "Ġconsiderable": 4009,
      "Ġhistory": 4010,
      "Ġscarcely": 4011,
      "Ġdespair": 4012,
      "Ġsavage": 4013,
      "Ġignor": 4014,
      "has": 4015,
      "ii": 4016,
      "ny": 4017,
      "uge": 4018,
      "atic": 4019,
      "attered": 4020,
      "erval": 4021,
      "Ġdress": 4022,
      "Ġpapers": 4023,
      "elled": 4024,
      "Ġreached": 4025,
      "through": 4026,
      "Ġspr": 4027,
      "Ġaccord": 4028,
      "Ġspeaking": 4029,
      "Ġrecol": 4030,
      "soon": 4031,
      "Ġenter": 4032,
      "Ġthinking": 4033,
      "Ġhurried": 4034,
      "looking": 4035,
      "bro": 4036,
      "ego": 4037,
      "iest": 4038,
      "iour": 4039,
      "Ġtall": 4040,
      "Ġtone": 4041,
      "Ġbill": 4042,
      "Ġpal": 4043,
      "Ġlod": 4044,
      "Ġgaz": 4045,
      "Ġiv": 4046,
      "stra": 4047,
      "Ġreach": 4048,
      "Ġalarm": 4049,
      "Ġisland": 4050,
      "irty": 4051,
      "Ġmyst": 4052,
      "Ġsave": 4053,
      "bec": 4054,
      "Ġinterval": 4055,
      "Ġclasses": 4056,
      "Ġextra": 4057,
      "Ġgrat": 4058,
      "----": 4059,
      "Ġallowed": 4060,
      "aneously": 4061,
      "Ġrepresenting": 4062,
      "Ġbelow": 4063,
      "Ġfollowing": 4064,
      "Ġpleased": 4065,
      "Ġassum": 4066,
      "Ġgetting": 4067,
      "Ġcheer": 4068,
      "Ġuncertain": 4069,
      "Ġconcerning": 4070,
      "resnet": 4071,
      "Ġduty": 4072,
      "Ġsituation": 4073,
      "Ġchrist": 4074,
      "Ġautomatically": 4075,
      "Ġhypothe": 4076,
      "cr": 4077,
      "del": 4078,
      "house": 4079,
      "might": 4080,
      "patter": 4081,
      "Ġtrust": 4082,
      "encies": 4083,
      "Ġwretched": 4084,
      "Ġmarch": 4085,
      "Ġbows": 4086,
      "asht": 4087,
      "Ġgiving": 4088,
      "omen": 4089,
      "und": 4090,
      "Ġrushed": 4091,
      "than": 4092,
      "Ġunf": 4093,
      "Ġunless": 4094,
      "Ġsake": 4095,
      "Ġgreatest": 4096,
      "eryton": 4097,
      "heads": 4098,
      "class": 4099,
      "Ġkindness": 4100,
      "Ġresembling": 4101,
      "Ġcandid": 4102,
      "Ġsolemn": 4103,
      "rength": 4104,
      "ashtego": 4105,
      "dest": 4106,
      "said": 4107,
      "tis": 4108,
      "Ġtru": 4109,
      "Ġsend": 4110,
      "Ġwide": 4111,
      "Ġcate": 4112,
      "anqu": 4113,
      "Ġdied": 4114,
      "Ġhatter": 4115,
      "Ġlaugh": 4116,
      "Ġlamp": 4117,
      "elt": 4118,
      "stood": 4119,
      "ilib": 4120,
      "Ġund": 4121,
      "Ġorigin": 4122,
      "Ġspring": 4123,
      "perhaps": 4124,
      "Ġje": 4125,
      "Ġyours": 4126,
      "ope": 4127,
      "arily": 4128,
      "phon": 4129,
      "common": 4130,
      "Ġevenly": 4131,
      "quee": 4132,
      "Ġindian": 4133,
      "Ġdesign": 4134,
      "Ġacquaintance": 4135,
      "Ġdelic": 4136,
      "Ġequal": 4137,
      "Ġequilib": 4138,
      "Ġcreatures": 4139,
      "Ġmiddle": 4140,
      "pattern": 4141,
      "Ġcategor": 4142,
      "Ġequilibrium": 4143,
      "bl": 4144,
      "cceed": 4145,
      "sive": 4146,
      "uous": 4147,
      "Ġsor": 4148,
      "Ġmild": 4149,
      "itions": 4150,
      "Ġfail": 4151,
      "Ġstarted": 4152,
      "Ġalthough": 4153,
      "unity": 4154,
      "ript": 4155,
      "place": 4156,
      "Ġspot": 4157,
      "Ġspite": 4158,
      "ounds": 4159,
      "Ġgenerally": 4160,
      "Ġque": 4161,
      "Ġknows": 4162,
      "Ġstrang": 4163,
      "supp": 4164,
      "ryphon": 4165,
      "Ġrabb": 4166,
      "Ġparts": 4167,
      "Ġlooks": 4168,
      "Ġteeth": 4169,
      "Ġwritten": 4170,
      "Ġcourt": 4171,
      "Ġpleasant": 4172,
      "emberley": 4173,
      "Ġsatisfied": 4174,
      "Ġbitter": 4175,
      "Ġaspects": 4176,
      "Ġfishery": 4177,
      "sed": 4178,
      "Ġcoun": 4179,
      "Ġcumul": 4180,
      "arrow": 4181,
      "Ġpatch": 4182,
      "Ġpairs": 4183,
      "Ġpriv": 4184,
      "Ġhall": 4185,
      "alse": 4186,
      "Ġtot": 4187,
      "Ġthird": 4188,
      "Ġstern": 4189,
      "agement": 4190,
      "Ġvol": 4191,
      "rud": 4192,
      "Ġprep": 4193,
      "Ġdog": 4194,
      "ultaneously": 4195,
      "ferent": 4196,
      "Ġdistributes": 4197,
      "Ġsolve": 4198,
      "pered": 4199,
      "Ġpromise": 4200,
      "Ġprinc": 4201,
      "Ġdecrease": 4202,
      "Ġgloom": 4203,
      "Ġtrees": 4204,
      "Ġturtle": 4205,
      "Ġtargets": 4206,
      "Ġconvinced": 4207,
      "Ġfigure": 4208,
      "Ġsparsity": 4209,
      "Ġdiminishing": 4210,
      "Ġsorry": 4211,
      "Ġcumulative": 4212,
      "car": 4213,
      "count": 4214,
      "fun": 4215,
      "found": 4216,
      "mor": 4217,
      "Ġsit": 4218,
      "Ġfif": 4219,
      "Ġhab": 4220,
      "still": 4221,
      "Ġheight": 4222,
      "imate": 4223,
      "Ġlee": 4224,
      "tern": 4225,
      "Ġrig": 4226,
      "Ġshr": 4227,
      "ival": 4228,
      "luded": 4229,
      "Ġroy": 4230,
      "Ġmighty": 4231,
      "Ġtears": 4232,
      "Ġfoundation": 4233,
      "Ġglance": 4234,
      "Ġhopes": 4235,
      "Ġfool": 4236,
      "Ġfocus": 4237,
      "Ġpatches": 4238,
      "Ġexcellent": 4239,
      "trained": 4240,
      "Ġfortune": 4241,
      "Ġquickly": 4242,
      "Ġinquir": 4243,
      "Ġbeginning": 4244,
      "Ġdynamically": 4245,
      "Ġdinner": 4246,
      "Ġnumerical": 4247,
      "Ġindependently": 4248,
      "algorithm": 4249,
      "Ġexecut": 4250,
      ".âĢĶ": 4251,
      "arent": 4252,
      "cre": 4253,
      "sings": 4254,
      "wind": 4255,
      "ats": 4256,
      "Ġmil": 4257,
      "orter": 4258,
      "Ġpick": 4259,
      "Ġhot": 4260,
      "chant": 4261,
      "Ġstrength": 4262,
      "theless": 4263,
      "Ġyouth": 4264,
      "ifferent": 4265,
      "Ġnote": 4266,
      "Ġshout": 4267,
      "cking": 4268,
      "Ġkne": 4269,
      "Ġnois": 4270,
      "iction": 4271,
      "Ġamiable": 4272,
      "Ġincl": 4273,
      "Ġsmile": 4274,
      "Ġpost": 4275,
      "Ġsubst": 4276,
      "Ġconsc": 4277,
      "Ġdrawn": 4278,
      "Ġsailors": 4279,
      "Ġdarkness": 4280,
      "Ġminute": 4281,
      "Ġgirls": 4282,
      "Ġmurder": 4283,
      "appeared": 4284,
      "Ġpaper": 4285,
      "Ġtreating": 4286,
      "something": 4287,
      "Ġobliged": 4288,
      "Ġbenefits": 4289,
      "Ġcoverage": 4290,
      "Ġrabbit": 4291,
      "ahab": 4292,
      "pass": 4293,
      "turn": 4294,
      "zz": 4295,
      "iny": 4296,
      "inst": 4297,
      "enced": 4298,
      "Ġful": 4299,
      "Ġfashion": 4300,
      "Ġpaus": 4301,
      "Ġgryphon": 4302,
      "Ġstorm": 4303,
      "idence": 4304,
      "Ġaloft": 4305,
      "seemed": 4306,
      "Ġexploring": 4307,
      "esty": 4308,
      "oken": 4309,
      "oked": 4310,
      "cons": 4311,
      "fulness": 4312,
      "Ġsimultaneously": 4313,
      "ernal": 4314,
      "Ġremem": 4315,
      "Ġprobably": 4316,
      "Ġpassing": 4317,
      "Ġadvantage": 4318,
      "Ġpositives": 4319,
      "headed": 4320,
      "Ġnorth": 4321,
      "Ġfamil": 4322,
      "Ġserious": 4323,
      "Ġpipe": 4324,
      "Ġwaiting": 4325,
      "Ġwalking": 4326,
      "Ġinteresting": 4327,
      "Ġdepths": 4328,
      "Ġdiscriminative": 4329,
      "Ġhundreds": 4330,
      "Ġmentioned": 4331,
      "generative": 4332,
      "precision": 4333,
      "Ġpublic": 4334,
      "Ġcandidates": 4335,
      "queequeg": 4336,
      "mar": 4337,
      "pers": 4338,
      "Ã¦": 4339,
      "Ġrope": 4340,
      "ince": 4341,
      "Ġsink": 4342,
      "Ġwand": 4343,
      "Ġbless": 4344,
      "Ġfalse": 4345,
      "Ġdrop": 4346,
      "Ġant": 4347,
      "Ġpra": 4348,
      "Ġthin": 4349,
      "ented": 4350,
      "ution": 4351,
      "Ġgpt": 4352,
      "Ġgall": 4353,
      "Ġforced": 4354,
      "Ġrat": 4355,
      "Ġrid": 4356,
      "Ġrising": 4357,
      "Ġadvent": 4358,
      "ruction": 4359,
      "Ġoverall": 4360,
      "Ġinterrupt": 4361,
      "Ġattent": 4362,
      "Ġelastic": 4363,
      "Ġdidn": 4364,
      "Ġdiscu": 4365,
      "Ġencode": 4366,
      "Ġafford": 4367,
      "Ġproduce": 4368,
      "Ġbelieved": 4369,
      "Ġglass": 4370,
      "Ġcorner": 4371,
      "retch": 4372,
      "Ġassured": 4373,
      "however": 4374,
      "ignity": 4375,
      "Ġauthor": 4376,
      "Ġcraft": 4377,
      "Ġcapabilities": 4378,
      "Ġfloor": 4379,
      "Ġachieves": 4380,
      "Ġburst": 4381,
      "system": 4382,
      "Ġplainly": 4383,
      "Ġcomplete": 4384,
      "Ġsplitting": 4385,
      "Ġbehaviour": 4386,
      "Ġselects": 4387,
      "Ġhypotheses": 4388,
      "classification": 4389,
      "circ": 4390,
      "ech": 4391,
      "gment": 4392,
      "iter": 4393,
      "iteness": 4394,
      "ancy": 4395,
      "Ġfilled": 4396,
      "Ġtow": 4397,
      "Ġgro": 4398,
      "Ġbecoming": 4399,
      "Ġalive": 4400,
      "odings": 4401,
      "Ġprov": 4402,
      "output": 4403,
      "Ġnose": 4404,
      "ortunity": 4405,
      "osop": 4406,
      "tained": 4407,
      "Ġlie": 4408,
      "ordinary": 4409,
      "Ġcompass": 4410,
      "Ġregression": 4411,
      "Ġaccept": 4412,
      "Ġfiend": 4413,
      "Ġdiscovered": 4414,
      "eldom": 4415,
      "reason": 4416,
      "Ġcombine": 4417,
      "Ġworth": 4418,
      "Ġmarry": 4419,
      "Ġassure": 4420,
      "Ġfrank": 4421,
      "Ġtalked": 4422,
      "Ġdaughters": 4423,
      "Ġcomplet": 4424,
      "Ġsingular": 4425,
      "happy": 4426,
      "Ġofficers": 4427,
      "Ġmountains": 4428,
      "Ġdiscovers": 4429,
      "Ġcoffin": 4430,
      "Ġrolled": 4431,
      "holmes": 4432,
      ":âĢĶ": 4433,
      "lady": 4434,
      "oes": 4435,
      "sper": 4436,
      "Ġscho": 4437,
      "recur": 4438,
      "Ġmeryton": 4439,
      "Ġod": 4440,
      "itated": 4441,
      "Ġcatch": 4442,
      "Ġdance": 4443,
      "arth": 4444,
      "ese": 4445,
      "ications": 4446,
      "Ġga": 4447,
      "Ġwholly": 4448,
      "amed": 4449,
      "Ġcompre": 4450,
      "ulous": 4451,
      "Ġvoc": 4452,
      "Ġring": 4453,
      "Ġunknown": 4454,
      "Ġkill": 4455,
      "Ġdoct": 4456,
      "Ġimpat": 4457,
      "Ġknowing": 4458,
      "opy": 4459,
      "Ġanyone": 4460,
      "Ġresult": 4461,
      "Ġcolour": 4462,
      "Ġoccurred": 4463,
      "Ġaffair": 4464,
      "Ġcoron": 4465,
      "Ġcarpent": 4466,
      "attle": 4467,
      "Ġexpressed": 4468,
      "Ġshook": 4469,
      "Ġlistened": 4470,
      "Ġsuspic": 4471,
      "Ġdropped": 4472,
      "Ġevents": 4473,
      "Ġnecessary": 4474,
      "Ġspectrum": 4475,
      "Ġcalculated": 4476,
      "Ġivory": 4477,
      "Ġcategories": 4478,
      "Ġqueer": 4479,
      "cour": 4480,
      "dist": 4481,
      "jud": 4482,
      "jane": 4483,
      "lar": 4484,
      "occ": 4485,
      "top": 4486,
      "Ġtashtego": 4487,
      "indeed": 4488,
      "isely": 4489,
      "Ġann": 4490,
      "Ġears": 4491,
      "Ġbeat": 4492,
      "Ġbeheld": 4493,
      "unning": 4494,
      "ifted": 4495,
      "those": 4496,
      "Ġshowed": 4497,
      "Ġsharks": 4498,
      "Ġshorter": 4499,
      "Ġsugg": 4500,
      "deck": 4501,
      "Ġimper": 4502,
      "Ġsymp": 4503,
      "Ġjump": 4504,
      "bered": 4505,
      "Ġdisappo": 4506,
      "Ġresc": 4507,
      "too": 4508,
      "Ġseek": 4509,
      "Ġentreat": 4510,
      "Ġeverybody": 4511,
      "Ġencoun": 4512,
      "Ġgrey": 4513,
      "Ġpossibly": 4514,
      "Ġreply": 4515,
      "Ġexpression": 4516,
      "ĠĠĠĠĠĠĠĠĠĠĠĠĠĠĠĠĠĠĠĠĠĠĠĠĠĠĠĠĠĠĠĠĠĠĠĠĠĠĠĠ": 4517,
      "Ġanxious": 4518,
      "Ġsignificantly": 4519,
      "ky": 4520,
      "mis": 4521,
      "rmsprop": 4522,
      "sur": 4523,
      "uzz": 4524,
      "Ġrom": 4525,
      "heart": 4526,
      "Ġwel": 4527,
      "Ġwound": 4528,
      "Ġmatch": 4529,
      "Ġcity": 4530,
      "Ġbarb": 4531,
      "Ġpale": 4532,
      "Ġnames": 4533,
      "Ġlines": 4534,
      "Ġgained": 4535,
      "ompl": 4536,
      "adv": 4537,
      "quest": 4538,
      "unk": 4539,
      "iration": 4540,
      "Ġseated": 4541,
      "Ġseven": 4542,
      "Ġnotice": 4543,
      "Ġshot": 4544,
      "Ġsucceed": 4545,
      "Ġkn": 4546,
      "Ġcho": 4547,
      "Ġcharm": 4548,
      "Ġclos": 4549,
      "shall": 4550,
      "Ġconcepts": 4551,
      "Ġagreeable": 4552,
      "idered": 4553,
      "Ġcoat": 4554,
      "Ġrecom": 4555,
      "lessly": 4556,
      "Ġpassion": 4557,
      "Ġsupposed": 4558,
      "rices": 4559,
      "Ġhung": 4560,
      "ohn": 4561,
      "william": 4562,
      "Ġwonderful": 4563,
      "Ġjoined": 4564,
      "Ġweeks": 4565,
      "Ġmotion": 4566,
      "Ġquietly": 4567,
      "bber": 4568,
      "cient": 4569,
      "came": 4570,
      "min": 4571,
      "morrow": 4572,
      "ogra": 4573,
      "ps": 4574,
      "rary": 4575,
      "take": 4576,
      "vis": 4577,
      "Ġtim": 4578,
      "Ġsides": 4579,
      "Ġwil": 4580,
      "Ġbod": 4581,
      "Ġbert": 4582,
      "Ġbones": 4583,
      "Ġdu": 4584,
      "Ġdart": 4585,
      "Ġpet": 4586,
      "Ġpun": 4587,
      "Ġpemberley": 4588,
      "Ġhide": 4589,
      "Ġinn": 4590,
      "Ġinherent": 4591,
      "rote": 4592,
      "oms": 4593,
      "owards": 4594,
      "Ġstro": 4595,
      "ote": 4596,
      "oted": 4597,
      "Ġune": 4598,
      "Ġloved": 4599,
      "derer": 4600,
      "aste": 4601,
      "white": 4602,
      "orted": 4603,
      "Ġtranqu": 4604,
      "Ġclosed": 4605,
      "oking": 4606,
      "Ġrosings": 4607,
      "Ġmoon": 4608,
      "Ġdistinct": 4609,
      "Ġspeech": 4610,
      "Ġconsidered": 4611,
      "Ġours": 4612,
      "Ġkeen": 4613,
      "Ġexceedingly": 4614,
      "Ġconsidering": 4615,
      "Ġcrime": 4616,
      "Ġsurround": 4617,
      "matic": 4618,
      "Ġmarked": 4619,
      "Ġgrief": 4620,
      "Ġwitness": 4621,
      "elihood": 4622,
      "Ġfifty": 4623,
      "Ġnoisier": 4624,
      "away": 4625,
      "mind": 4626,
      "ral": 4627,
      "Ġsorrow": 4628,
      "Ġseldom": 4629,
      "oned": 4630,
      "erial": 4631,
      "Ġwid": 4632,
      "Ġcourage": 4633,
      "leep": 4634,
      "Ġbell": 4635,
      "ouched": 4636,
      "Ġpow": 4637,
      "alf": 4638,
      "Ġthrown": 4639,
      "Ġnative": 4640,
      "elve": 4641,
      "ute": 4642,
      "Ġeat": 4643,
      "chief": 4644,
      "Ġstone": 4645,
      "quite": 4646,
      "Ġven": 4647,
      "Ġloose": 4648,
      "asted": 4649,
      "Ġarbit": 4650,
      "ounts": 4651,
      "Ġjack": 4652,
      "Ġclerval": 4653,
      "Ġwhaleman": 4654,
      "Ġcoast": 4655,
      "Ġdepart": 4656,
      "Ġotherwise": 4657,
      "venge": 4658,
      "sub": 4659,
      "Ġraised": 4660,
      "Ġtwice": 4661,
      "bert": 4662,
      "Ġgrasp": 4663,
      "Ġdesired": 4664,
      "Ġsupper": 4665,
      "Ġfinally": 4666,
      "Ġwriting": 4667,
      "Ġserves": 4668,
      "book": 4669,
      "Ġobserve": 4670,
      "ground": 4671,
      "Ġutil": 4672,
      "Ġlisten": 4673,
      "Ġpolice": 4674,
      "Ġbooks": 4675,
      "fordshire": 4676,
      "Ġendeavour": 4677,
      "Ġcivil": 4678,
      "Ġfrequently": 4679,
      "Ġtouching": 4680,
      "Ġmortal": 4681,
      "Ġexclaimed": 4682,
      "Ġforgot": 4683,
      "Ġcarpenter": 4684,
      "**": 4685,
      "bur": 4686,
      "ds": 4687,
      "give": 4688,
      "hard": 4689,
      "leness": 4690,
      "python": 4691,
      "Ġsick": 4692,
      "Ġmouse": 4693,
      "Ġbone": 4694,
      "Ġbaker": 4695,
      "Ġduc": 4696,
      "arance": 4697,
      "oul": 4698,
      "Ġhuge": 4699,
      "Ġloud": 4700,
      "Ġgun": 4701,
      "omin": 4702,
      "Ġreceive": 4703,
      "terday": 4704,
      "Ġprospect": 4705,
      "Ġexistence": 4706,
      "Ġenem": 4707,
      "thou": 4708,
      "Ġlovely": 4709,
      "Ġchurch": 4710,
      "Ġclothe": 4711,
      "Ġaccomp": 4712,
      "Ġperceived": 4713,
      "Ġsmoke": 4714,
      "acle": 4715,
      "Ġdeeply": 4716,
      "Ġdiscover": 4717,
      "Ġworse": 4718,
      "intment": 4719,
      "Ġ**": 4720,
      "Ġsuffer": 4721,
      "Ġplease": 4722,
      "Ġwrong": 4723,
      "Ġhorse": 4724,
      "Ġhoriz": 4725,
      "Ġequals": 4726,
      "eks": 4727,
      "disc": 4728,
      "Ġwooden": 4729,
      "Ġarrival": 4730,
      "Ġharpooneers": 4731,
      "Ġpursuit": 4732,
      "Ġcottage": 4733,
      "Ġwondrous": 4734,
      "Ġarbitrary": 4735,
      "**:": 4736,
      "boy": 4737,
      "dz": 4738,
      "hy": 4739,
      "sw": 4740,
      "tan": 4741,
      "va": 4742,
      "vation": 4743,
      "Ġ7": 4744,
      "Ġapart": 4745,
      "hess": 4746,
      "Ġsli": 4747,
      "Ġwake": 4748,
      "Ġwomen": 4749,
      "itary": 4750,
      "lections": 4751,
      "ories": 4752,
      "Ġfate": 4753,
      "Ġfond": 4754,
      "Ġdz": 4755,
      "Ġdim": 4756,
      "Ġdarted": 4757,
      "Ġhither": 4758,
      "Ġinj": 4759,
      "Ġhearing": 4760,
      "abular": 4761,
      "sea": 4762,
      "Ġdeb": 4763,
      "Ġasc": 4764,
      "Ġarg": 4765,
      "usoid": 4766,
      "Ġcomputes": 4767,
      "expect": 4768,
      "Ġtransp": 4769,
      "Ġcompar": 4770,
      "ieces": 4771,
      "Ġpointed": 4772,
      "Ġencoding": 4773,
      "Ġencodings": 4774,
      "racted": 4775,
      "Ġvisible": 4776,
      "poss": 4777,
      "Ġcarry": 4778,
      "mense": 4779,
      "Ġsinusoid": 4780,
      "Ġrecursive": 4781,
      "Ġapplications": 4782,
      "Ġequival": 4783,
      "Ġeduc": 4784,
      "Ġopportunity": 4785,
      "Ġdrink": 4786,
      "Ġcivility": 4787,
      "Ġfrequencies": 4788,
      "Ġsummer": 4789,
      "Ġbreath": 4790,
      "fortunate": 4791,
      "Ġwoe": 4792,
      "Ġastonishment": 4793,
      "Ġwishes": 4794,
      "Ġtruly": 4795,
      "function": 4796,
      "ograph": 4797,
      "Ġutilize": 4798,
      "Ġduchess": 4799,
      "abulary": 4800,
      "Ġsinusoidal": 4801,
      "Ġequivalent": 4802,
      "94": 4803,
      "fr": 4804,
      "harpo": 4805,
      "iple": 4806,
      "langu": 4807,
      "made": 4808,
      "oard": 4809,
      "sat": 4810,
      "tfordshire": 4811,
      "Â£": 4812,
      "Ġtri": 4813,
      "hel": 4814,
      "Ġske": 4815,
      "Ġmel": 4816,
      "ital": 4817,
      "Ġcredit": 4818,
      "Ġfa": 4819,
      "Ġdot": 4820,
      "Ġdorm": 4821,
      "arthy": 4822,
      "Ġthunder": 4823,
      "ashing": 4824,
      "Ġlying": 4825,
      "Ġlives": 4826,
      "Ġgain": 4827,
      "Ġev": 4828,
      "igen": 4829,
      "vered": 4830,
      "Ġaltogether": 4831,
      "Ġash": 4832,
      "Ġseized": 4833,
      "Ġshore": 4834,
      "ume": 4835,
      "Ġspoken": 4836,
      "Ġpresum": 4837,
      "Ġtrying": 4838,
      "Ġmoved": 4839,
      "consc": 4840,
      "Ġsomehow": 4841,
      "acqu": 4842,
      "Ġoffer": 4843,
      "Ġhighly": 4844,
      "Ġmoments": 4845,
      "without": 4846,
      "Ġsteady": 4847,
      "Ġfelix": 4848,
      "Ġscales": 4849,
      "Ġdramatic": 4850,
      "ixed": 4851,
      "Ġangel": 4852,
      "Ġjoin": 4853,
      "Ġwatching": 4854,
      "Ġstrike": 4855,
      "Ġpicture": 4856,
      "Ġabsolutely": 4857,
      "Ġwedding": 4858,
      "morning": 4859,
      "Ġcompletely": 4860,
      "Ġsympath": 4861,
      "fol": 4862,
      "god": 4863,
      "ium": 4864,
      "kl": 4865,
      "kilt": 4866,
      "pet": 4867,
      "water": 4868,
      "||": 4869,
      "Ġtong": 4870,
      "Ġaust": 4871,
      "Ġmates": 4872,
      "Ġcro": 4873,
      "ism": 4874,
      "Ġbos": 4875,
      "Ġbour": 4876,
      "Ġbank": 4877,
      "Ġnigh": 4878,
      "Ġlance": 4879,
      "Ġluck": 4880,
      "Ġeigen": 4881,
      "Ġreceiving": 4882,
      "vere": 4883,
      "Ġproved": 4884,
      "Ġneck": 4885,
      "Ġris": 4886,
      "Ġadvers": 4887,
      "Ġsailed": 4888,
      "ccarthy": 4889,
      "herself": 4890,
      "Ġchin": 4891,
      "Ġcham": 4892,
      "osite": 4893,
      "Ġabsence": 4894,
      "express": 4895,
      "necess": 4896,
      "Ġsomewhat": 4897,
      "Ġpocket": 4898,
      "iousness": 4899,
      "Ġimportance": 4900,
      "Ġadvice": 4901,
      "Ġrepresents": 4902,
      "Ġguess": 4903,
      "Ġhardware": 4904,
      "Ġhorrible": 4905,
      "Ġhandsome": 4906,
      "Ġwait": 4907,
      "Ġwaited": 4908,
      "Ġinflu": 4909,
      "Ġremains": 4910,
      "Ġsouth": 4911,
      "Ġsecure": 4912,
      "Ġhurry": 4913,
      "Ġsequentially": 4914,
      "Ġremarkable": 4915,
      "Ġlegs": 4916,
      "Ġsimilar": 4917,
      "Ġendeavoured": 4918,
      "riumph": 4919,
      "Ġdreadful": 4920,
      "Ġinnocent": 4921,
      "Ġvirtue": 4922,
      "because": 4923,
      "consid": 4924,
      "Ġdormouse": 4925,
      "ben": 4926,
      "bingley": 4927,
      "care": 4928,
      "dig": 4929,
      "gin": 4930,
      "half": 4931,
      "life": 4932,
      "mit": 4933,
      "tra": 4934,
      "Ġ5": 4935,
      "Ġrib": 4936,
      "iners": 4937,
      "ancho": 4938,
      "Ġfrench": 4939,
      "Ġdouble": 4940,
      "Ġpity": 4941,
      "Ġhos": 4942,
      "almost": 4943,
      "Ġthirty": 4944,
      "iments": 4945,
      "otion": 4946,
      "Ġdemand": 4947,
      "ection": 4948,
      "Ġseat": 4949,
      "thank": 4950,
      "Ġunable": 4951,
      "Ġimmense": 4952,
      "thern": 4953,
      "ounced": 4954,
      "Ġkilled": 4955,
      "estic": 4956,
      "conf": 4957,
      "convolutional": 4958,
      "Ġamid": 4959,
      "acific": 4960,
      "suff": 4961,
      "Ġrad": 4962,
      "Ġtwelve": 4963,
      "Ġobvious": 4964,
      "Ġoffice": 4965,
      "Ġprobabilities": 4966,
      "ourable": 4967,
      "Ġwanted": 4968,
      "Ġmatrices": 4969,
      "Ġjustine": 4970,
      "Ġwindows": 4971,
      "Ġhearts": 4972,
      "values": 4973,
      "Ġmatters": 4974,
      "fortune": 4975,
      "Ġsensible": 4976,
      "Ġcircle": 4977,
      "Ġinvest": 4978,
      "Ġholding": 4979,
      "Ġmurderer": 4980,
      "Ġturns": 4981,
      "Ġfortun": 4982,
      "Ġcutting": 4983,
      "Ġdrove": 4984,
      "Ġgrows": 4985,
      "Ġmistaken": 4986,
      "Ġcircumstance": 4987,
      "writes": 4988,
      "Ġhence": 4989,
      "Ġeagerly": 4990,
      "momentum": 4991,
      "likelihood": 4992,
      "Ġtotal": 4993,
      "recurrent": 4994,
      "Ġvocabulary": 4995,
      "Ġrecomm": 4996,
      "Ġclothes": 4997,
      "Ġeigenvalues": 4998,
      "aper": 4999,
      "ike": 5000,
      "sir": 5001,
      "towards": 5002,
      "wed": 5003,
      "warks": 5004,
      "Ġrain": 5005,
      "ĠÂ£": 5006,
      "Ġtakes": 5007,
      "Ġap": 5008,
      "heard": 5009,
      "Ġsought": 5010,
      "Ġwrote": 5011,
      "Ġbree": 5012,
      "Ġbase": 5013,
      "Ġpil": 5014,
      "Ġpaid": 5015,
      "Ġhint": 5016,
      "Ġharm": 5017,
      "Ġgives": 5018,
      "Ġhell": 5019,
      "Ġlevel": 5020,
      "Ġleaves": 5021,
      "idation": 5022,
      "Ġprogress": 5023,
      "Ġprogressive": 5024,
      "Ġvac": 5025,
      "Ġuncommon": 5026,
      "anted": 5027,
      "Ġlose": 5028,
      "arded": 5029,
      "ounted": 5030,
      "Ġpresence": 5031,
      "Ġjohn": 5032,
      "Ġoverwrites": 5033,
      "Ġcontent": 5034,
      "Ġattend": 5035,
      "Ġoptimizer": 5036,
      "noon": 5037,
      "Ġskin": 5038,
      "Ġvalu": 5039,
      "Ġnevertheless": 5040,
      "Ġtea": 5041,
      "Ġcontinually": 5042,
      "served": 5043,
      "Ġfinished": 5044,
      "Ġopening": 5045,
      "Ġladyship": 5046,
      "Ġreplay": 5047,
      "Ġcaused": 5048,
      "Ġbehold": 5049,
      "Ġheavens": 5050,
      "Ġempt": 5051,
      "grat": 5052,
      "Ġdestabilizing": 5053,
      "Ġcapable": 5054,
      "Ġdrive": 5055,
      "Ġparticularly": 5056,
      "Ġphilosop": 5057,
      "world": 5058,
      "Ġlaughed": 5059,
      "Ġconsolidation": 5060,
      "Ġamerican": 5061,
      "Ġcorrection": 5062,
      "Ġseamen": 5063,
      "Ġsprang": 5064,
      "strade": 5065,
      "Ġratio": 5066,
      "Ġdoctor": 5067,
      "Ġrescales": 5068,
      "Ġbourgh": 5069,
      "ancholy": 5070,
      "between": 5071,
      "hus": 5072,
      "mates": 5073,
      "zwilliam": 5074,
      "Ġah": 5075,
      "Ġsank": 5076,
      "Ġwre": 5077,
      "Ġcustom": 5078,
      "Ġbore": 5079,
      "Ġfood": 5080,
      "Ġdressed": 5081,
      "Ġpan": 5082,
      "Ġinhab": 5083,
      "Ġthrust": 5084,
      "Ġnarr": 5085,
      "Ġnarrow": 5086,
      "Ġlat": 5087,
      "ctu": 5088,
      "stone": 5089,
      "Ġupper": 5090,
      "ading": 5091,
      "Ġforce": 5092,
      "Ġyield": 5093,
      "ains": 5094,
      "Ġconcl": 5095,
      "Ġexample": 5096,
      "aggo": 5097,
      "Ġweak": 5098,
      "play": 5099,
      "Ġgrave": 5100,
      "illar": 5101,
      "Ġspare": 5102,
      "Ġsafe": 5103,
      "allow": 5104,
      "user": 5105,
      "Ġclaim": 5106,
      "Ġmove": 5107,
      "erman": 5108,
      "Ġbox": 5109,
      "Ġrage": 5110,
      "Ġjustice": 5111,
      "Ġspecies": 5112,
      "myself": 5113,
      "Ġreading": 5114,
      "Ġasks": 5115,
      "Ġpresently": 5116,
      "Ġviolent": 5117,
      "eneva": 5118,
      "Ġsurface": 5119,
      "Ġopposite": 5120,
      "Ġcruel": 5121,
      "Ġcentre": 5122,
      "Ġdynamic": 5123,
      "Ġterror": 5124,
      "Ġvictor": 5125,
      "Ġneighbourhood": 5126,
      "Ġourselves": 5127,
      "Ġeducation": 5128,
      "language": 5129,
      "aggoo": 5130,
      "[_": 5131,
      "bu": 5132,
      "copy": 5133,
      "ef": 5134,
      "fall": 5135,
      "matter": 5136,
      "rid": 5137,
      "sing": 5138,
      "sister": 5139,
      "zen": 5140,
      "Ġ6": 5141,
      "Ġtale": 5142,
      "Ġtriumph": 5143,
      "inte": 5144,
      "Ġmccarthy": 5145,
      "Ġcape": 5146,
      "aned": 5147,
      "leton": 5148,
      "Ġbent": 5149,
      "Ġda": 5150,
      "Ġpop": 5151,
      "Ġpull": 5152,
      "Ġpacific": 5153,
      "Ġthreat": 5154,
      "stairs": 5155,
      "ching": 5156,
      "Ġhare": 5157,
      "thus": 5158,
      "Ġshown": 5159,
      "Ġallen": 5160,
      "Ġspread": 5161,
      "rained": 5162,
      "ouses": 5163,
      "Ġard": 5164,
      "Ġappre": 5165,
      "Ġwhenever": 5166,
      "Ġaccompl": 5167,
      "Ġliber": 5168,
      "exc": 5169,
      "Ġreser": 5170,
      "Ġcovered": 5171,
      "Ġsimon": 5172,
      "Ġpool": 5173,
      "mock": 5174,
      "soc": 5175,
      "Ġrucastle": 5176,
      "Ġgrass": 5177,
      "Ġmaterial": 5178,
      "Ġacquainted": 5179,
      "Ġrooms": 5180,
      "Ġpromised": 5181,
      "Ġgrew": 5182,
      "Ġpresented": 5183,
      "Ġrelevance": 5184,
      "Ġchest": 5185,
      "Ġstream": 5186,
      "whales": 5187,
      "Ġedge": 5188,
      "Ġinvitation": 5189,
      "Ġsounds": 5190,
      "Ġconsideration": 5191,
      "Ġbeside": 5192,
      "Ġmeeting": 5193,
      "Ġboys": 5194,
      "Ġpossessed": 5195,
      "Ġ1894": 5196,
      "Ġhenry": 5197,
      "Ġproducts": 5198,
      "Ġavoid": 5199,
      "Ġemployed": 5200,
      "Ġmajesty": 5201,
      "Ġdiscussing": 5202,
      "sperm": 5203,
      "tanh": 5204,
      "]]": 5205,
      "case": 5206,
      "det": 5207,
      "darcy": 5208,
      "fin": 5209,
      "hun": 5210,
      "having": 5211,
      "mas": 5212,
      "mitted": 5213,
      "nib": 5214,
      "oved": 5215,
      "ron": 5216,
      "sher": 5217,
      "enes": 5218,
      "Ġwest": 5219,
      "Ġwinter": 5220,
      "Ġmal": 5221,
      "Ġcord": 5222,
      "Ġble": 5223,
      "Ġborn": 5224,
      "Ġpor": 5225,
      "Ġlur": 5226,
      "Ġlake": 5227,
      "Ġleaning": 5228,
      "add": 5229,
      "Ġforster": 5230,
      "Ġprove": 5231,
      "Ġexh": 5232,
      "ulate": 5233,
      "Ġaside": 5234,
      "ifying": 5235,
      "ems": 5236,
      "Ġvic": 5237,
      "Ġseason": 5238,
      "three": 5239,
      "ument": 5240,
      "umber": 5241,
      "Ġkno": 5242,
      "Ġchanged": 5243,
      "ource": 5244,
      "Ġsystematic": 5245,
      "Ġquit": 5246,
      "ops": 5247,
      "Ġpoints": 5248,
      "Ġ10": 5249,
      "many": 5250,
      "Ġbran": 5251,
      "Ġyounger": 5252,
      "Ġreadily": 5253,
      "Ġstatement": 5254,
      "Ġfamous": 5255,
      "Ġsails": 5256,
      "Ġequally": 5257,
      "Ġstands": 5258,
      "Ġsensations": 5259,
      "Ġcontrary": 5260,
      "Ġforehead": 5261,
      "Ġaddressed": 5262,
      "Ġadmire": 5263,
      "Ġliked": 5264,
      "Ġmidnight": 5265,
      "Ġflukes": 5266,
      "Ġfluctu": 5267,
      "Ġmusic": 5268,
      "Ġevidence": 5269,
      "Ġfavourite": 5270,
      "Ġdestroyed": 5271,
      "Ġoccupied": 5272,
      "Ġfinger": 5273,
      "Ġremoved": 5274,
      "Ġhelm": 5275,
      "Ġremembered": 5276,
      "copyright": 5277,
      "fo": 5278,
      "iance": 5279,
      "mad": 5280,
      "mark": 5281,
      "sil": 5282,
      "Ġing": 5283,
      "Ġtree": 5284,
      "Ġmaid": 5285,
      "Ġcou": 5286,
      "Ġcrown": 5287,
      "lest": 5288,
      "Ġbab": 5289,
      "Ġband": 5290,
      "Ġbold": 5291,
      "orous": 5292,
      "Ġindu": 5293,
      "asy": 5294,
      "Ġlies": 5295,
      "Ġgen": 5296,
      "Ġstation": 5297,
      "Ġbearing": 5298,
      "idel": 5299,
      "Ġyellow": 5300,
      "Ġnearer": 5301,
      "Ġenorm": 5302,
      "ells": 5303,
      "Ġspend": 5304,
      "dering": 5305,
      "osure": 5306,
      "Ġjet": 5307,
      "rents": 5308,
      "Ġrow": 5309,
      "Ġrock": 5310,
      "Ġquitted": 5311,
      "Ġdistur": 5312,
      "Ġanybody": 5313,
      "Ġartic": 5314,
      "sudden": 5315,
      "Ġrecord": 5316,
      "lessness": 5317,
      "Ġ11": 5318,
      "whether": 5319,
      "intellig": 5320,
      "ĠĠĠĠĠĠĠĠĠĠĠĠĠĠĠĠĠĠĠĠĠĠĠĠ": 5321,
      "Ġbroke": 5322,
      "Ġsailing": 5323,
      "Ġcharge": 5324,
      "Ġreturning": 5325,
      "Ġputting": 5326,
      "Ġterrible": 5327,
      "Ġadmiration": 5328,
      "account": 5329,
      "Ġvisitor": 5330,
      "Ġconcerned": 5331,
      "Ġyesterday": 5332,
      "appearance": 5333,
      "._]]": 5334,
      "Ġproceeded": 5335,
      "Ġgolden": 5336,
      "Ġwhispered": 5337,
      "Ġlaughing": 5338,
      "certainly": 5339,
      "Ġorders": 5340,
      "Ġfrightened": 5341,
      "Ġdecomposition": 5342,
      "Ġignorant": 5343,
      "delight": 5344,
      "Ġprivate": 5345,
      "creature": 5346,
      "Ġshouted": 5347,
      "circumst": 5348,
      "Ġcomprehen": 5349,
      "Ġfaith": 5350,
      "Ġashore": 5351,
      "bennet": 5352,
      "Ġempty": 5353,
      "bus": 5354,
      "gpt": 5355,
      "gentle": 5356,
      "hast": 5357,
      "mate": 5358,
      "nature": 5359,
      "ost": 5360,
      "same": 5361,
      "wick": 5362,
      "inn": 5363,
      "hew": 5364,
      "itely": 5365,
      "Ġfight": 5366,
      "Ġpiece": 5367,
      "Ġpounds": 5368,
      "Ġnine": 5369,
      "Ġeast": 5370,
      "Ġyards": 5371,
      "Ġconsent": 5372,
      "rived": 5373,
      "Ġgrace": 5374,
      "Ġshri": 5375,
      "Ġunfortunate": 5376,
      "Ġhertfordshire": 5377,
      "Ġjury": 5378,
      "rene": 5379,
      "Ġaccident": 5380,
      "Ġroll": 5381,
      "Ġcontin": 5382,
      "except": 5383,
      "Ġsomewhere": 5384,
      "Ġamaz": 5385,
      "Ġlikewise": 5386,
      "Ġdistant": 5387,
      "Ġagony": 5388,
      "Ġactually": 5389,
      "Ġplaces": 5390,
      "Ġattended": 5391,
      "Ġattached": 5392,
      "Ġconnected": 5393,
      "comes": 5394,
      "apped": 5395,
      "Ġways": 5396,
      "Ġengagement": 5397,
      "Ġcontinue": 5398,
      "Ġglancing": 5399,
      "Ġfinal": 5400,
      "Ġhunter": 5401,
      "Ġappears": 5402,
      "Ġprison": 5403,
      "Ġbread": 5404,
      "Ġdeadly": 5405,
      "Ġwoods": 5406,
      "coat": 5407,
      "Ġanxiety": 5408,
      "Ġdisposition": 5409,
      "Ġphilips": 5410,
      "Ġriver": 5411,
      "Ġdiscovery": 5412,
      "Ġflying": 5413,
      "Ġextraordinary": 5414,
      "Ġassumpt": 5415,
      "Ġpaused": 5416,
      "Ġsuggest": 5417,
      "question": 5418,
      "Ġpowers": 5419,
      "Ġvenge": 5420,
      "interest": 5421,
      "sherlock": 5422,
      "Ġcouple": 5423,
      "bow": 5424,
      "fre": 5425,
      "gest": 5426,
      "iant": 5427,
      "mur": 5428,
      "pray": 5429,
      "rather": 5430,
      "uish": 5431,
      "vels": 5432,
      "Ġ8": 5433,
      "Ġtorm": 5434,
      "het": 5435,
      "rees": 5436,
      "itable": 5437,
      "anyth": 5438,
      "another": 5439,
      "Ġdared": 5440,
      "Ġdaggoo": 5441,
      "Ġanger": 5442,
      "Ġancient": 5443,
      "Ġpack": 5444,
      "Ġhate": 5445,
      "Ġhull": 5446,
      "Ġhanging": 5447,
      "Ġinside": 5448,
      "Ġlively": 5449,
      "Ġgeneva": 5450,
      "stre": 5451,
      "Ġrevenge": 5452,
      "Ġheat": 5453,
      "Ġwhal": 5454,
      "Ġconve": 5455,
      "oll": 5456,
      "Ġdearest": 5457,
      "ulation": 5458,
      "reduc": 5459,
      "Ġvig": 5460,
      "Ġshud": 5461,
      "key": 5462,
      "ividual": 5463,
      "achment": 5464,
      "Ġpark": 5465,
      "Ġapparent": 5466,
      "Ġabhor": 5467,
      "using": 5468,
      "bled": 5469,
      "nowled": 5470,
      "Ġdecided": 5471,
      "beh": 5472,
      "Ġresnet": 5473,
      "Ġsmiling": 5474,
      "aved": 5475,
      "acet": 5476,
      "inkled": 5477,
      "Ġattack": 5478,
      "Ġconnection": 5479,
      "mother": 5480,
      "Ġrecovered": 5481,
      "Ġgrin": 5482,
      "Ġ12": 5483,
      "Ġadvance": 5484,
      "allest": 5485,
      "ships": 5486,
      "heading": 5487,
      "Ġhoped": 5488,
      "return": 5489,
      "Ġinterpret": 5490,
      "Ġirreduc": 5491,
      "Ġxx": 5492,
      "Ġsecre": 5493,
      "Ġideas": 5494,
      "Ġforecastle": 5495,
      "Ġutmost": 5496,
      "Ġprofound": 5497,
      "Ġangry": 5498,
      "Ġdelighted": 5499,
      "Ġresolution": 5500,
      "continu": 5501,
      "Ġjudge": 5502,
      "Ġpictures": 5503,
      "speak": 5504,
      "stein": 5505,
      "Ġdecomposes": 5506,
      "Ġswimming": 5507,
      "Ġaccording": 5508,
      "Ġmystery": 5509,
      "Ġsubstance": 5510,
      "Ġfamiliar": 5511,
      "Ġschool": 5512,
      "Ġaccompan": 5513,
      "Ġskeleton": 5514,
      "Ġinfluence": 5515,
      "Ġfluctuations": 5516,
      "Ġassumptions": 5517,
      "anything": 5518,
      "Ġirreducible": 5519,
      "cor": 5520,
      "sk": 5521,
      "sure": 5522,
      "walk": 5523,
      "Ġtaste": 5524,
      "rep": 5525,
      "Ġwar": 5526,
      "Ġcask": 5527,
      "isp": 5528,
      "Ġfed": 5529,
      "Ġfold": 5530,
      "arial": 5531,
      "Ġpuzz": 5532,
      "rob": 5533,
      "Ġgay": 5534,
      "Ġelev": 5535,
      "Ġrevol": 5536,
      "child": 5537,
      "igantic": 5538,
      "Ġur": 5539,
      "Ġstairs": 5540,
      "Ġconsequence": 5541,
      "sey": 5542,
      "several": 5543,
      "Ġproc": 5544,
      "Ġproject": 5545,
      "thousand": 5546,
      "Ġintended": 5547,
      "Ġnoticed": 5548,
      "Ġshark": 5549,
      "isting": 5550,
      "uments": 5551,
      "irect": 5552,
      "Ġoutside": 5553,
      "rence": 5554,
      "Ġclient": 5555,
      "Ġperil": 5556,
      "standing": 5557,
      "oping": 5558,
      "fered": 5559,
      "Ġregret": 5560,
      "acious": 5561,
      "Ġplanks": 5562,
      "Ġdeparted": 5563,
      "Ġtempt": 5564,
      "Ġshoulders": 5565,
      "spond": 5566,
      "Ġinstances": 5567,
      "Ġmisfortune": 5568,
      "Ġprobable": 5569,
      "Ġhappen": 5570,
      "Ġbeloved": 5571,
      "Ġsooner": 5572,
      "Ġcorp": 5573,
      "Ġworking": 5574,
      "Ġtravell": 5575,
      "Ġaffected": 5576,
      "Ġobjects": 5577,
      "Ġdirected": 5578,
      "Ġexcited": 5579,
      "Ġlandlord": 5580,
      "Ġhurst": 5581,
      "Ġanguish": 5582,
      "Ġdedu": 5583,
      "Ġaffectionate": 5584,
      "hole": 5585,
      "Ġenvelop": 5586,
      "Ġflew": 5587,
      "Ġpossession": 5588,
      "Ġoccasionally": 5589,
      "Ġbulk": 5590,
      "Ġbulwarks": 5591,
      "Ġjaws": 5592,
      "trans": 5593,
      "Ġdeclared": 5594,
      "Ġshadow": 5595,
      "keeper": 5596,
      "Ġintervals": 5597,
      "Ġgratitude": 5598,
      "Ġprincip": 5599,
      "Ġrigging": 5600,
      "Ġroyal": 5601,
      "Ġimpatient": 5602,
      "Ġwelcome": 5603,
      "Ġenemy": 5604,
      "Ġmelancholy": 5605,
      "Ġadversarial": 5606,
      "Ġvaluable": 5607,
      "Ġenormous": 5608,
      "business": 5609,
      "bid": 5610,
      "bone": 5611,
      "clo": 5612,
      "dark": 5613,
      "gar": 5614,
      "ked": 5615,
      "mid": 5616,
      "mine": 5617,
      "pillar": 5618,
      "vision": 5619,
      "Ġtack": 5620,
      "Ġack": 5621,
      "hered": 5622,
      "Ġfer": 5623,
      "Ġdry": 5624,
      "Ġhy": 5625,
      "Ġhill": 5626,
      "Ġlane": 5627,
      "Ġgrown": 5628,
      "Ġease": 5629,
      "Ġheed": 5630,
      "ades": 5631,
      "ifference": 5632,
      "agers": 5633,
      "irth": 5634,
      "Ġweary": 5635,
      "eman": 5636,
      "Ġrise": 5637,
      "Ġintention": 5638,
      "Ġshape": 5639,
      "Ġunhappy": 5640,
      "Ġadver": 5641,
      "Ġloft": 5642,
      "Ġscot": 5643,
      "Ġgenerative": 5644,
      "Ġdisappeared": 5645,
      "Ġincred": 5646,
      "comfort": 5647,
      "Ġhollow": 5648,
      "Ġsuffered": 5649,
      "Ġstead": 5650,
      "Ġasking": 5651,
      "Ġclean": 5652,
      "Ġphys": 5653,
      "Ġproud": 5654,
      "Ġunderstood": 5655,
      "igned": 5656,
      "Ġstrongly": 5657,
      "Ġconcluded": 5658,
      "Ġharpoons": 5659,
      "Ġpulled": 5660,
      "Ġpointing": 5661,
      "Ġcalling": 5662,
      "Ġmadam": 5663,
      "Ġhonor": 5664,
      "Ġsuspended": 5665,
      "Ġblubber": 5666,
      "Ġsatisfaction": 5667,
      "import": 5668,
      "smith": 5669,
      "Ġswiftly": 5670,
      "================================": 5671,
      "Ġfingers": 5672,
      "Ġcompliment": 5673,
      "feelings": 5674,
      "Ġsteelkilt": 5675,
      "ription": 5676,
      "Ġstrangely": 5677,
      "Ġinquiries": 5678,
      "Ġforgotten": 5679,
      "follow": 5680,
      "Ġbreeze": 5681,
      "Ġapprehens": 5682,
      "ez": 5683,
      "eyes": 5684,
      "ienced": 5685,
      "mist": 5686,
      "master": 5687,
      "tur": 5688,
      "taking": 5689,
      "youn": 5690,
      "Ġess": 5691,
      "Ġtum": 5692,
      "inity": 5693,
      "heav": 5694,
      "Ġwarn": 5695,
      "iture": 5696,
      "Ġcup": 5697,
      "Ġber": 5698,
      "Ġbag": 5699,
      "orough": 5700,
      "Ġfill": 5701,
      "Ġfault": 5702,
      "Ġdancing": 5703,
      "Ġdignity": 5704,
      "Ġpig": 5705,
      "Ġpair": 5706,
      "Ġpause": 5707,
      "always": 5708,
      "Ġthr": 5709,
      "Ġnur": 5710,
      "Ġnay": 5711,
      "Ġniece": 5712,
      "rol": 5713,
      "asion": 5714,
      "Ġhero": 5715,
      "ational": 5716,
      "Ġstuff": 5717,
      "ads": 5718,
      "Ġforty": 5719,
      "âĢľ_": 5720,
      "âĢĿâĢĶ": 5721,
      "Ġexert": 5722,
      "amb": 5723,
      "empl": 5724,
      "Ġsuit": 5725,
      "angel": 5726,
      "Ġpardon": 5727,
      "allowed": 5728,
      "Ġfears": 5729,
      "Ġscenes": 5730,
      "ushing": 5731,
      "Ġimpression": 5732,
      "luck": 5733,
      "Ġcool": 5734,
      "acity": 5735,
      "Ġmeanwhile": 5736,
      "Ġaft": 5737,
      "spir": 5738,
      "Ġrefuse": 5739,
      "Ġ17": 5740,
      "Ġvisual": 5741,
      "Ġwants": 5742,
      "possible": 5743,
      "Ġindividual": 5744,
      "cannot": 5745,
      "Ġwinds": 5746,
      "Ġtelling": 5747,
      "Ġdelay": 5748,
      "box": 5749,
      "Ġlightning": 5750,
      "Ġcommunic": 5751,
      "Ġsunk": 5752,
      "Ġtender": 5753,
      "Ġparticulars": 5754,
      "brary": 5755,
      "Ġaware": 5756,
      "particular": 5757,
      "Ġsuspect": 5758,
      "Ġimagination": 5759,
      "Ġprecious": 5760,
      "Ġgreenland": 5761,
      "Ġregarded": 5762,
      "Ġhastily": 5763,
      "Ġservant": 5764,
      "Ġjudgment": 5765,
      "Ġchiefly": 5766,
      "Ġpitch": 5767,
      "Ġhammock": 5768,
      "Ġpersuaded": 5769,
      "Ġdifficulty": 5770,
      "Ġfitzwilliam": 5771,
      "Ġdestroy": 5772,
      "Ġrendered": 5773,
      "Ġvillage": 5774,
      "Ġclouds": 5775,
      "irable": 5776,
      "haust": 5777,
      "Ġseparate": 5778,
      "Ġlodge": 5779,
      "expected": 5780,
      "satisf": 5781,
      "Ġinhabit": 5782,
      "..": 5783,
      ":--": 5784,
      "both": 5785,
      "cher": 5786,
      "far": 5787,
      "gre": 5788,
      "ius": 5789,
      "ipped": 5790,
      "kn": 5791,
      "ker": 5792,
      "make": 5793,
      "sl": 5794,
      "table": 5795,
      "Ġaction": 5796,
      "erpillar": 5797,
      "Ġtheory": 5798,
      "enstein": 5799,
      "Ġobe": 5800,
      "itical": 5801,
      "ann": 5802,
      "anation": 5803,
      "Ġbor": 5804,
      "Ġbig": 5805,
      "orse": 5806,
      "Ġfet": 5807,
      "Ġfain": 5808,
      "Ġfare": 5809,
      "Ġfake": 5810,
      "Ġfaint": 5811,
      "Ġdwell": 5812,
      "Ġpri": 5813,
      "Ġhar": 5814,
      "Ġtossed": 5815,
      "Ġoffered": 5816,
      "Ġthro": 5817,
      "Ġnav": 5818,
      "Ġnash": 5819,
      "Ġlan": 5820,
      "Ġgans": 5821,
      "Ġgale": 5822,
      "Ġstir": 5823,
      "Ġleap": 5824,
      "Ġlestrade": 5825,
      "otograph": 5826,
      "Ġcongrat": 5827,
      "aming": 5828,
      "agreeable": 5829,
      "elling": 5830,
      "aching": 5831,
      "Ġordered": 5832,
      "angs": 5833,
      "eping": 5834,
      "umn": 5835,
      "Ġupstairs": 5836,
      "Ġkick": 5837,
      "allah": 5838,
      "Ġwhence": 5839,
      "Ġscra": 5840,
      "usual": 5841,
      "near": 5842,
      "Ġapproached": 5843,
      "Ġdistress": 5844,
      "Ġinches": 5845,
      "grace": 5846,
      "Ġrace": 5847,
      "Ġshoulder": 5848,
      "Ġgreatly": 5849,
      "Ġvalley": 5850,
      "apping": 5851,
      "Ġrelations": 5852,
      "Ġhump": 5853,
      "Ġsolitary": 5854,
      "Ġbelief": 5855,
      "Ġindul": 5856,
      "Ġminimax": 5857,
      "Ġworks": 5858,
      "oubted": 5859,
      "Ġrealistic": 5860,
      "Ġexcuse": 5861,
      "Ġpulling": 5862,
      "Ġstreets": 5863,
      "Ġcaterpillar": 5864,
      "Ġcompanions": 5865,
      "syntax": 5866,
      "host": 5867,
      "Ġmerry": 5868,
      "Ġbringing": 5869,
      "against": 5870,
      "Ġfatal": 5871,
      "Ġpersuade": 5872,
      "Ġbirds": 5873,
      "pleasant": 5874,
      "concern": 5875,
      "Ġgazing": 5876,
      "Ġprepared": 5877,
      "Ġattentions": 5878,
      "Ġsurrounded": 5879,
      "Ġhitherto": 5880,
      "Ġausten": 5881,
      "necessary": 5882,
      "intelligence": 5883,
      "wickham": 5884,
      "Ġvengeance": 5885,
      "_.âĢĿ": 5886,
      "_).": 5887,
      "dri": 5888,
      "felt": 5889,
      "iated": 5890,
      "lay": 5891,
      "next": 5892,
      "pol": 5893,
      "saw": 5894,
      "since": 5895,
      "view": 5896,
      "wa": 5897,
      "wood": 5898,
      "woman": 5899,
      "yard": 5900,
      "Ġ9": 5901,
      "Ġtort": 5902,
      "Ġsong": 5903,
      "once": 5904,
      "erc": 5905,
      "Ġwra": 5906,
      "inging": 5907,
      "Ġbattle": 5908,
      "Ġdust": 5909,
      "Ġpushed": 5910,
      "alled": 5911,
      "asing": 5912,
      "Ġla": 5913,
      "utes": 5914,
      "Ġgigantic": 5915,
      "Ġrejo": 5916,
      "chair": 5917,
      "igation": 5918,
      "Ġwhiteness": 5919,
      "Ġstretched": 5920,
      "Ġyard": 5921,
      "Ġalas": 5922,
      "anded": 5923,
      "Ġrum": 5924,
      "Ġrush": 5925,
      "Ġmyster": 5926,
      "ateful": 5927,
      "Ġlock": 5928,
      "Ġparted": 5929,
      "rus": 5930,
      "Ġfeared": 5931,
      "Ġpress": 5932,
      "Ġchim": 5933,
      "Ġchap": 5934,
      "Ġscream": 5935,
      "Ġexplained": 5936,
      "icted": 5937,
      "Ġgoose": 5938,
      "const": 5939,
      "Ġamuse": 5940,
      "Ġsmiled": 5941,
      "Ġprevented": 5942,
      "super": 5943,
      "Ġboots": 5944,
      "Ġsignal": 5945,
      "mbl": 5946,
      "Ġreflections": 5947,
      "Ġvisited": 5948,
      "Ġvex": 5949,
      "bye": 5950,
      "Ġblank": 5951,
      "Ġglanced": 5952,
      "Ġtravel": 5953,
      "therefore": 5954,
      "Ġfarther": 5955,
      "Ġendure": 5956,
      "Ġstopped": 5957,
      "Ġcheeks": 5958,
      "Ġemer": 5959,
      "Ġhoisted": 5960,
      "Ġwicked": 5961,
      "Ġbenevol": 5962,
      "Ġviolence": 5963,
      "Ġinspect": 5964,
      "Ġpains": 5965,
      "Ġlimbs": 5966,
      "hands": 5967,
      "Ġfallen": 5968,
      "Ġflesh": 5969,
      "mission": 5970,
      "Ġfishermen": 5971,
      "sometimes": 5972,
      "Ġblows": 5973,
      "Ġconceal": 5974,
      "Ġrolling": 5975,
      "Ġeternal": 5976,
      "Ġburning": 5977,
      "pleasure": 5978,
      "Ġearnestly": 5979,
      "Ġfoolish": 5980,
      "Ġadventure": 5981,
      "Ġchoose": 5982,
      "Ġhideous": 5983,
      "possess": 5984,
      "Ġpilot": 5985,
      "Ġconclusion": 5986,
      "Ġdaily": 5987,
      ".,": 5988,
      "fam": 5989,
      "hope": 5990,
      "iers": 5991,
      "lad": 5992,
      "lass": 5993,
      "rance": 5994,
      "sight": 5995,
      "swe": 5996,
      "surpr": 5997,
      "sford": 5998,
      "Ġtun": 5999,
      "Ġtorn": 6000,
      "Ġtouched": 6001,
      "inite": 6002,
      "Ġsold": 6003,
      "rec": 6004,
      "Ġowing": 6005,
      "itz": 6006,
      "Ġbun": 6007,
      "orious": 6008,
      "Ġfaces": 6009,
      "Ġdashed": 6010,
      "Ġpag": 6011,
      "Ġhinted": 6012,
      "along": 6013,
      "rose": 6014,
      "asons": 6015,
      "ashes": 6016,
      "Ġlater": 6017,
      "stubb": 6018,
      "starbuck": 6019,
      "Ġreasons": 6020,
      "oward": 6021,
      "Ġwhist": 6022,
      "Ġstar": 6023,
      "Ġstrain": 6024,
      "Ġstout": 6025,
      "Ġstick": 6026,
      "Ġconject": 6027,
      "Ġprodig": 6028,
      "ulations": 6029,
      "ulated": 6030,
      "Ġwear": 6031,
      "Ġsevere": 6032,
      "things": 6033,
      "Ġshake": 6034,
      "Ġlocked": 6035,
      "Ġcannib": 6036,
      "alling": 6037,
      "ires": 6038,
      "ends": 6039,
      "Ġpreced": 6040,
      "Ġpreser": 6041,
      "Ġpressed": 6042,
      "Ġovercome": 6043,
      "Ġoverboard": 6044,
      "Ġclo": 6045,
      "Ġwouldn": 6046,
      "oped": 6047,
      "Ġdislike": 6048,
      "Ġresent": 6049,
      "Ġattachment": 6050,
      "Ġrequest": 6051,
      "orses": 6052,
      "Ġafternoon": 6053,
      "Ġentertain": 6054,
      "Ġinstrum": 6055,
      "Ġruin": 6056,
      "Ġconsult": 6057,
      "Ġremind": 6058,
      "Ġgoodness": 6059,
      "Ġrelief": 6060,
      "poor": 6061,
      "post": 6062,
      "point": 6063,
      "onday": 6064,
      "Ġglory": 6065,
      "Ġglimp": 6066,
      "Ġsupply": 6067,
      "Ġmariners": 6068,
      "Ġcrossed": 6069,
      "Ġretreat": 6070,
      "Ġretired": 6071,
      "Ġcarrying": 6072,
      "Ġendured": 6073,
      "Ġassur": 6074,
      "Ġcleared": 6075,
      "desp": 6076,
      "Ġglobe": 6077,
      "Ġkindly": 6078,
      "Ġdoublo": 6079,
      "Ġhole": 6080,
      "Ġobserving": 6081,
      "Ġsurv": 6082,
      "Ġshock": 6083,
      "looked": 6084,
      "Ġeste": 6085,
      "whole": 6086,
      "strange": 6087,
      "ville": 6088,
      "Ġstriking": 6089,
      "Ġimmediate": 6090,
      "Ġastern": 6091,
      "Ġmotive": 6092,
      "Ġslightest": 6093,
      "Ġhammer": 6094,
      "Ġcomfortable": 6095,
      "Ġfrost": 6096,
      "Ġordinary": 6097,
      "Ġvictim": 6098,
      "ustomed": 6099,
      "Ġutterly": 6100,
      "break": 6101,
      "Ġoriginal": 6102,
      "country": 6103,
      "course": 6104,
      "Ġsucceeded": 6105,
      "Ġbodily": 6106,
      "harpoone": 6107,
      "Ġfedallah": 6108,
      "bet": 6109,
      "bly": 6110,
      "best": 6111,
      "bene": 6112,
      "four": 6113,
      "flo": 6114,
      "law": 6115,
      "tin": 6116,
      "wel": 6117,
      "watch": 6118,
      "Ġ\"": 6119,
      "Ġtend": 6120,
      "inqu": 6121,
      "Ġaid": 6122,
      "rely": 6123,
      "oner": 6124,
      "atory": 6125,
      "erce": 6126,
      "Ġmonday": 6127,
      "Ġoak": 6128,
      "Ġcher": 6129,
      "isions": 6130,
      "Ġbid": 6131,
      "Ġbare": 6132,
      "Ġfow": 6133,
      "Ġfem": 6134,
      "Ġdig": 6135,
      "Ġdish": 6136,
      "Ġpure": 6137,
      "Ġhouses": 6138,
      "Ġnamed": 6139,
      "icy": 6140,
      "Ġgerman": 6141,
      "Ġghost": 6142,
      "Ġerect": 6143,
      "Ġreward": 6144,
      "Ġrenew": 6145,
      "chor": 6146,
      "uries": 6147,
      "Ġstag": 6148,
      "Ġstars": 6149,
      "idents": 6150,
      "Ġconven": 6151,
      "sec": 6152,
      "Ġproof": 6153,
      "quiet": 6154,
      "Ġweap": 6155,
      "Ġviv": 6156,
      "Ġintense": 6157,
      "Ġnobody": 6158,
      "usions": 6159,
      "ails": 6160,
      "lude": 6161,
      "conven": 6162,
      "Ġmoreover": 6163,
      "took": 6164,
      "often": 6165,
      "Ġraise": 6166,
      "Ġcommence": 6167,
      "sole": 6168,
      "Ġthinks": 6169,
      "manner": 6170,
      "poise": 6171,
      "byshire": 6172,
      "Ġindign": 6173,
      "Ġindifferent": 6174,
      "Ġmissing": 6175,
      "Ġdesper": 6176,
      "Ġmarrying": 6177,
      "Ġguard": 6178,
      "Ġguilt": 6179,
      "Ġpersons": 6180,
      "Ġtrace": 6181,
      "Ġsideways": 6182,
      "Ġhunt": 6183,
      "Ġdrag": 6184,
      "Ġhorn": 6185,
      "Ġapplied": 6186,
      "Ġsentence": 6187,
      "Ġremaining": 6188,
      "Ġbusy": 6189,
      "Ġpleasing": 6190,
      "Ġreport": 6191,
      "Ġeleg": 6192,
      "door": 6193,
      "does": 6194,
      "Ġdoubtless": 6195,
      "Ġshortly": 6196,
      "Ġfearful": 6197,
      "Ġdriven": 6198,
      "Ġawful": 6199,
      "Ġfortnight": 6200,
      "letter": 6201,
      "rief": 6202,
      "Ġmistake": 6203,
      "boats": 6204,
      "Ġwhisper": 6205,
      "Ġmeantime": 6206,
      "Ġprofession": 6207,
      "Ġconsolation": 6208,
      "Ġcorrespond": 6209,
      "Ġleeward": 6210,
      "Ġsuspicion": 6211,
      "Ġgunw": 6212,
      "Ġchamber": 6213,
      "Ġfortunate": 6214,
      "Ġnarrative": 6215,
      "Ġpopular": 6216,
      "Ġlofty": 6217,
      "_,âĢĿ": 6218,
      "bra": 6219,
      "bound": 6220,
      "dr": 6221,
      "dom": 6222,
      "doub": 6223,
      "eye": 6224,
      "iac": 6225,
      "rise": 6226,
      "rated": 6227,
      "sus": 6228,
      "uv": 6229,
      "vest": 6230,
      "wat": 6231,
      "inf": 6232,
      "inate": 6233,
      "Ġaug": 6234,
      "Ġsand": 6235,
      "Ġoar": 6236,
      "Ġcell": 6237,
      "Ġcunning": 6238,
      "isc": 6239,
      "isure": 6240,
      "Ġbol": 6241,
      "Ġbowed": 6242,
      "Ġfitted": 6243,
      "aries": 6244,
      "Ġthorough": 6245,
      "Ġlit": 6246,
      "uttle": 6247,
      "stri": 6248,
      "omy": 6249,
      "Ġhes": 6250,
      "Ġsty": 6251,
      "Ġaloud": 6252,
      "Ġissu": 6253,
      "Ġconsequ": 6254,
      "iza": 6255,
      "among": 6256,
      "Ġasser": 6257,
      "Ġrank": 6258,
      "istol": 6259,
      "pless": 6260,
      "death": 6261,
      "Ġsheet": 6262,
      "Ġusually": 6263,
      "Ġprev": 6264,
      "ortal": 6265,
      "Ġjer": 6266,
      "akeman": 6267,
      "Ġtrif": 6268,
      "Ġclair": 6269,
      "geon": 6270,
      "Ġgenerous": 6271,
      "Ġperse": 6272,
      "Ġperils": 6273,
      "Ġqual": 6274,
      "Ġcontempt": 6275,
      "Ġmood": 6276,
      "Ġagent": 6277,
      "Ġactions": 6278,
      "ensive": 6279,
      "Ġincident": 6280,
      "Ġplun": 6281,
      "Ġlargest": 6282,
      "Ġapproaching": 6283,
      "Ġobst": 6284,
      "Ġentering": 6285,
      "uded": 6286,
      "phant": 6287,
      "Ġskull": 6288,
      "Ġbrit": 6289,
      "Ġbrid": 6290,
      "Ġbride": 6291,
      "called": 6292,
      "Ġsettle": 6293,
      "liest": 6294,
      "apsed": 6295,
      "Ġwatery": 6296,
      "Ġwatched": 6297,
      "Ġbrown": 6298,
      "Ġfinds": 6299,
      "Ġhunters": 6300,
      "Ġhunsford": 6301,
      "Ġphotograph": 6302,
      "Ġminds": 6303,
      "Ġcarefully": 6304,
      "hamed": 6305,
      "overing": 6306,
      "Ġsurely": 6307,
      "Ġsouls": 6308,
      "Ġconstant": 6309,
      "Ġbreaking": 6310,
      "Ġalongside": 6311,
      "untarily": 6312,
      "going": 6313,
      "Ġpursue": 6314,
      "Ġestab": 6315,
      "Ġestate": 6316,
      "umps": 6317,
      "Ġlistening": 6318,
      "Ġsleeping": 6319,
      "Ġdelightful": 6320,
      "Ġblocks": 6321,
      "strong": 6322,
      "bbing": 6323,
      "everything": 6324,
      "Ġfairly": 6325,
      "Ġconviction": 6326,
      "Ġdutch": 6327,
      "Ġpursued": 6328,
      "Ġbrave": 6329,
      "Ġcommanded": 6330,
      "character": 6331,
      "fortunes": 6332,
      "Ġassistance": 6333,
      "Ġexamined": 6334,
      "Ġthrowing": 6335,
      "Ġcrowd": 6336,
      "Ġprotect": 6337,
      "Ġcondem": 6338,
      "Ġsafety": 6339,
      "Ġdelicacy": 6340,
      "Ġpicked": 6341,
      "Ġfully": 6342,
      "Ġinterrupted": 6343,
      "Ġcoronet": 6344,
      "Ġtimid": 6345,
      "Ġsympathy": 6346,
      "Ġtongue": 6347,
      "consider": 6348,
      "Ġexhib": 6349,
      "Ġacknowled": 6350,
      "Ġborne": 6351,
      "aul": 6352,
      "blo": 6353,
      "cra": 6354,
      "fur": 6355,
      "five": 6356,
      "fire": 6357,
      "fact": 6358,
      "gall": 6359,
      "gust": 6360,
      "haw": 6361,
      "ias": 6362,
      "lantic": 6363,
      "oon": 6364,
      "ped": 6365,
      "ply": 6366,
      "pend": 6367,
      "phew": 6368,
      "tem": 6369,
      "teen": 6370,
      "wonder": 6371,
      "Ġsne": 6372,
      "reed": 6373,
      "respect": 6374,
      "atched": 6375,
      "erred": 6376,
      "Ġwore": 6377,
      "Ġwretch": 6378,
      "anc": 6379,
      "Ġbas": 6380,
      "Ġfac": 6381,
      "Ġfift": 6382,
      "Ġdil": 6383,
      "Ġdull": 6384,
      "Ġhorses": 6385,
      "asc": 6386,
      "Ġlately": 6387,
      "icable": 6388,
      "icip": 6389,
      "Ġeu": 6390,
      "sters": 6391,
      "change": 6392,
      "Ġwhir": 6393,
      "ilty": 6394,
      "Ġlest": 6395,
      "Ġbecomes": 6396,
      "Ġforms": 6397,
      "Ġwithdra": 6398,
      "Ġexhaust": 6399,
      "quick": 6400,
      "ander": 6401,
      "Ġassoc": 6402,
      "Ġashamed": 6403,
      "Ġnephew": 6404,
      "ripp": 6405,
      "Ġvague": 6406,
      "Ġhailed": 6407,
      "Ġrust": 6408,
      "Ġintent": 6409,
      "Ġshame": 6410,
      "ivil": 6411,
      "anting": 6412,
      "Ġparsee": 6413,
      "ĠĠĠĠĠĠ": 6414,
      "Ġprey": 6415,
      "Ġprefer": 6416,
      "Ġdoom": 6417,
      "Ġdoors": 6418,
      "Ġjames": 6419,
      "ouring": 6420,
      "assed": 6421,
      "apable": 6422,
      "Ġlibrary": 6423,
      "Ġquant": 6424,
      "sho": 6425,
      "began": 6426,
      "venty": 6427,
      "Ġdisplay": 6428,
      "Ġsmoking": 6429,
      "Ġsmallest": 6430,
      "onsense": 6431,
      "Ġregiment": 6432,
      "Ġpole": 6433,
      "erness": 6434,
      "grammar": 6435,
      "Ġlonged": 6436,
      "Ġeliza": 6437,
      "mean": 6438,
      "Ġcreation": 6439,
      "Ġreflection": 6440,
      "Ġremorse": 6441,
      "rows": 6442,
      "Ġsolid": 6443,
      "Ġkeel": 6444,
      "Ġworn": 6445,
      "Ġblame": 6446,
      "Ġnegro": 6447,
      "Ġswam": 6448,
      "Ġswung": 6449,
      "Ġproperty": 6450,
      "Ġpron": 6451,
      "Ġsaturday": 6452,
      "Ġhook": 6453,
      "Ġgods": 6454,
      "Ġbestow": 6455,
      "Ġviolently": 6456,
      "ission": 6457,
      "Ġinterested": 6458,
      "Ġescaped": 6459,
      "Ġeyeing": 6460,
      "Ġswear": 6461,
      "Ġpainful": 6462,
      "month": 6463,
      "Ġmurdered": 6464,
      "Ġmasts": 6465,
      "Ġprecisely": 6466,
      "Ġmerchant": 6467,
      "Ġceased": 6468,
      "happiness": 6469,
      "Ġbrighton": 6470,
      "Ġservice": 6471,
      "small": 6472,
      "charlotte": 6473,
      "Ġbuild": 6474,
      "Ġfurnished": 6475,
      "Ġfurniture": 6476,
      "Ġinnocence": 6477,
      "Ġgazed": 6478,
      "Ġchristian": 6479,
      "Ġdelicate": 6480,
      "Ġcounter": 6481,
      "rudent": 6482,
      "Ġshroud": 6483,
      "Ġinquiry": 6484,
      "Ġmilk": 6485,
      "Ġpraise": 6486,
      "Ġcompassion": 6487,
      "Ġclosely": 6488,
      "Ġjacket": 6489,
      "Ġdeparture": 6490,
      "hardly": 6491,
      "Ġslipped": 6492,
      "suddenly": 6493,
      "Ġcomprehend": 6494,
      "street": 6495,
      "Ġprincipal": 6496,
      "Ġchimney": 6497,
      "Ġinspector": 6498,
      "pendicular": 6499,
      "done": 6500,
      "different": 6501,
      "earth": 6502,
      "gen": 6503,
      "gone": 6504,
      "iate": 6505,
      "iber": 6506,
      "lied": 6507,
      "mag": 6508,
      "prom": 6509,
      "sim": 6510,
      "sleep": 6511,
      "went": 6512,
      "Ġ&": 6513,
      "Ġsag": 6514,
      "ref": 6515,
      "onely": 6516,
      "Ġwal": 6517,
      "Ġwet": 6518,
      "Ġmould": 6519,
      "Ġcig": 6520,
      "Ġcaut": 6521,
      "anim": 6522,
      "ishes": 6523,
      "Ġbirth": 6524,
      "Ġdi": 6525,
      "Ġpuff": 6526,
      "Ġhills": 6527,
      "Ġinex": 6528,
      "Ġinvari": 6529,
      "Ġtore": 6530,
      "Ġtoil": 6531,
      "Ġlip": 6532,
      "else": 6533,
      "Ġgather": 6534,
      "Ġrear": 6535,
      "Ġrever": 6536,
      "Ġreck": 6537,
      "Ġleague": 6538,
      "Ġleisure": 6539,
      "themselves": 6540,
      "Ġbeach": 6541,
      "Ġalter": 6542,
      "second": 6543,
      "Ġdeceived": 6544,
      "ifting": 6545,
      "ager": 6546,
      "ientific": 6547,
      "Ġvice": 6548,
      "Ġintimate": 6549,
      "Ġshade": 6550,
      "Ġshaking": 6551,
      "Ġunconsc": 6552,
      "Ġunusual": 6553,
      "umed": 6554,
      "dear": 6555,
      "oused": 6556,
      "ounce": 6557,
      "Ġfever": 6558,
      "Ġnoon": 6559,
      "Ġchat": 6560,
      "Ġaband": 6561,
      "ception": 6562,
      "arts": 6563,
      "Ġroof": 6564,
      "Ġdetails": 6565,
      "short": 6566,
      "convers": 6567,
      "feet": 6568,
      "ension": 6569,
      "aches": 6570,
      "Ġeldest": 6571,
      "atha": 6572,
      "Ġdevoted": 6573,
      "Ġinstinct": 6574,
      "Ġreflect": 6575,
      "command": 6576,
      "Ġprovided": 6577,
      "Ġmoral": 6578,
      "Ġembra": 6579,
      "Ġflight": 6580,
      "upid": 6581,
      "Ġexperienced": 6582,
      "Ġworked": 6583,
      "Ġsteward": 6584,
      "Ġobjection": 6585,
      "Ġderbyshire": 6586,
      "works": 6587,
      "pressed": 6588,
      "Ġsentiment": 6589,
      "Ġconfidence": 6590,
      "Ġholy": 6591,
      "willing": 6592,
      "Ġbestowed": 6593,
      "Ġlands": 6594,
      "Ġblacksmith": 6595,
      "until": 6596,
      "Ġobservation": 6597,
      "inguished": 6598,
      "Ġpurch": 6599,
      "Ġdestruction": 6600,
      "Ġmadness": 6601,
      "Ġthyself": 6602,
      "Ġturk": 6603,
      "Ġfloating": 6604,
      "Ġneeds": 6605,
      "Ġdescribed": 6606,
      "twenty": 6607,
      "Ġeagerness": 6608,
      "Ġduties": 6609,
      "Ġservants": 6610,
      "Ġdomains": 6611,
      "Ġevident": 6612,
      "Ġdangerous": 6613,
      "Ġdeclare": 6614,
      "Ġtroubled": 6615,
      "feeling": 6616,
      "Ġsafie": 6617,
      "Ġignorance": 6618,
      "Ġaccordingly": 6619,
      "Ġrecollection": 6620,
      "Ġcheerful": 6621,
      "Ġinclined": 6622,
      "Ġinclination": 6623,
      "Ġodd": 6624,
      "large": 6625,
      "Ġdisappointment": 6626,
      "Ġencounter": 6627,
      "Ġcharming": 6628,
      "Ġwilson": 6629,
      "Ġtranquill": 6630,
      "subject": 6631,
      "Ġhorizon": 6632,
      "Ġapartment": 6633,
      "Ġtrial": 6634,
      "sufficient": 6635,
      "Ġbaby": 6636,
      "Ġshriek": 6637,
      "Ġcorpse": 6638,
      "Ġscotland": 6639,
      "_;": 6640,
      "bes": 6641,
      "cer": 6642,
      "cious": 6643,
      "dro": 6644,
      "fit": 6645,
      "fav": 6646,
      "greg": 6647,
      "hur": 6648,
      "high": 6649,
      "lott": 6650,
      "lizzy": 6651,
      "met": 6652,
      "mpt": 6653,
      "pip": 6654,
      "piece": 6655,
      "talk": 6656,
      "Ġty": 6657,
      "Ġtide": 6658,
      "Ġtrem": 6659,
      "inction": 6660,
      "Ġaud": 6661,
      "Ġahead": 6662,
      "hem": 6663,
      "rels": 6664,
      "Ġwing": 6665,
      "Ġmill": 6666,
      "itate": 6667,
      "itive": 6668,
      "Ġcet": 6669,
      "Ġfled": 6670,
      "Ġfailed": 6671,
      "Ġdod": 6672,
      "Ġdun": 6673,
      "eds": 6674,
      "Ġtol": 6675,
      "Ġnice": 6676,
      "road": 6677,
      "Ġlot": 6678,
      "Ġliv": 6679,
      "enth": 6680,
      "eling": 6681,
      "abri": 6682,
      "ays": 6683,
      "Ġprow": 6684,
      "Ġcomplain": 6685,
      "ifies": 6686,
      "Ġparson": 6687,
      "Ġsport": 6688,
      "Ġspark": 6689,
      "Ġsaved": 6690,
      "Ġkent": 6691,
      "Ġexplanation": 6692,
      "Ġdates": 6693,
      "whatever": 6694,
      "Ġnovel": 6695,
      "ĠâĢľ_": 6696,
      "Ġaboard": 6697,
      "Ġmankind": 6698,
      "Ġperceive": 6699,
      "luding": 6700,
      "Ġcontempl": 6701,
      "Ġdecisions": 6702,
      "Ġsomeone": 6703,
      "Ġamounts": 6704,
      "Ġdisgust": 6705,
      "Ġsmiles": 6706,
      "Ġthanks": 6707,
      "Ġplenty": 6708,
      "inking": 6709,
      "success": 6710,
      "icken": 6711,
      "Ġcommission": 6712,
      "Ġpartly": 6713,
      "Ġpartner": 6714,
      "Ġrefused": 6715,
      "Ġsubtle": 6716,
      "Ġinformed": 6717,
      "Ġ13": 6718,
      "Ġ19": 6719,
      "Ġshipmates": 6720,
      "Ġwanting": 6721,
      "mael": 6722,
      "Ġtear": 6723,
      "Ġholder": 6724,
      "Ġindifference": 6725,
      "Ġdesert": 6726,
      "Ġcursed": 6727,
      "Ġsupport": 6728,
      "Ġsupposing": 6729,
      "within": 6730,
      "Ġhumanity": 6731,
      "Ġsword": 6732,
      "Ġstove": 6733,
      "Ġcertainty": 6734,
      "Ġlowered": 6735,
      "Ġrespectable": 6736,
      "Ġserpent": 6737,
      "Ġpropri": 6738,
      ".âĢĻâĢĿ": 6739,
      "Ġheavily": 6740,
      "Ġrepose": 6741,
      "yourself": 6742,
      "Ġfanc": 6743,
      "Ġcalls": 6744,
      "Ġsecured": 6745,
      "Ġmarks": 6746,
      "Ġinsult": 6747,
      "Ġthousands": 6748,
      "Ġgrounds": 6749,
      "Ġgrowing": 6750,
      "Ġrevealed": 6751,
      "Ġparents": 6752,
      "Ġofficer": 6753,
      "Ġterrific": 6754,
      "Ġvessels": 6755,
      "Ġfatig": 6756,
      "Ġexclam": 6757,
      "umbling": 6758,
      "Ġevidently": 6759,
      "Ġcoffee": 6760,
      "Ġcottagers": 6761,
      "Ġwalls": 6762,
      "Ġamerica": 6763,
      "Ġcondition": 6764,
      "Ġabsolute": 6765,
      "Ġislands": 6766,
      "tisement": 6767,
      "black": 6768,
      "Ġvolume": 6769,
      "Ġprinciple": 6770,
      "Ġhabit": 6771,
      "Ġfulf": 6772,
      "burgh": 6773,
      "Ġhosmer": 6774,
      "Ġradney": 6775,
      "Ġbranches": 6776,
      "Ġcontinual": 6777,
      "Ġapparently": 6778,
      "behind": 6779,
      "Ġaccompanied": 6780,
      "Ġurged": 6781,
      "doubt": 6782,
      ".)": 6783,
      "50": 6784,
      "aver": 6785,
      "dep": 6786,
      "during": 6787,
      "daugh": 6788,
      "ere": 6789,
      "equ": 6790,
      "either": 6791,
      "fellow": 6792,
      "hon": 6793,
      "mal": 6794,
      "name": 6795,
      "pull": 6796,
      "running": 6797,
      "sort": 6798,
      "sound": 6799,
      "ule": 6800,
      "win": 6801,
      "war": 6802,
      "Ġtaught": 6803,
      "inated": 6804,
      "Ġsource": 6805,
      "onies": 6806,
      "attoo": 6807,
      "eries": 6808,
      "enough": 6809,
      "Ġwine": 6810,
      "Ġwise": 6811,
      "inger": 6812,
      "Ġmari": 6813,
      "Ġbanks": 6814,
      "Ġdrown": 6815,
      "Ġdawn": 6816,
      "Ġped": 6817,
      "Ġpir": 6818,
      "Ġponder": 6819,
      "Ġinser": 6820,
      "Ġthither": 6821,
      "Ġlou": 6822,
      "Ġlonely": 6823,
      "entire": 6824,
      "Ġgate": 6825,
      "lydia": 6826,
      "chance": 6827,
      "Ġul": 6828,
      "Ġbears": 6829,
      "Ġbeef": 6830,
      "sequent": 6831,
      "Ġprolong": 6832,
      "Ġexerc": 6833,
      "oline": 6834,
      "quet": 6835,
      "Ġasleep": 6836,
      "Ġvap": 6837,
      "Ġintim": 6838,
      "Ġunion": 6839,
      "Ġunited": 6840,
      "Ġunexpected": 6841,
      "Ġbutter": 6842,
      "ckets": 6843,
      "angled": 6844,
      "ples": 6845,
      "Ġspo": 6846,
      "Ġshel": 6847,
      "ruck": 6848,
      "rugged": 6849,
      "endous": 6850,
      "Ġprejud": 6851,
      "whose": 6852,
      "Ġcha": 6853,
      "osp": 6854,
      "osen": 6855,
      "Ġscattered": 6856,
      "Ġscientific": 6857,
      "Ġjolly": 6858,
      "Ġouter": 6859,
      "apan": 6860,
      "Ġaccustomed": 6861,
      "Ġimpress": 6862,
      "Ġrocks": 6863,
      "shaw": 6864,
      "Ġagitation": 6865,
      "Ġagatha": 6866,
      "Ġcoach": 6867,
      "acher": 6868,
      "inks": 6869,
      "Ġpeep": 6870,
      "Ġfiery": 6871,
      "Ġskill": 6872,
      "compl": 6873,
      "Ġvanished": 6874,
      "Ġrelate": 6875,
      "Ġsolitude": 6876,
      "Ġaffairs": 6877,
      "llable": 6878,
      "Ġadvancing": 6879,
      "ibank": 6880,
      "Ġdesol": 6881,
      "Ġfeels": 6882,
      "years": 6883,
      "object": 6884,
      "Ġwindward": 6885,
      "peculiar": 6886,
      "Ġsorts": 6887,
      "Ġpenet": 6888,
      "Ġdragged": 6889,
      "Ġheartily": 6890,
      "Ġfoam": 6891,
      "Ġwaist": 6892,
      "Ġinfl": 6893,
      "Ġsilently": 6894,
      "Ġpatient": 6895,
      "Ġsensation": 6896,
      "Ġclearly": 6897,
      "Ġelement": 6898,
      "prot": 6899,
      "Ġdecks": 6900,
      "Ġcrimin": 6901,
      "Ġinvis": 6902,
      "Ġinvited": 6903,
      "Ġexpectation": 6904,
      "Ġwarmth": 6905,
      "Ġtremble": 6906,
      "Ġarrive": 6907,
      "Ġvoyages": 6908,
      "Ġplaying": 6909,
      "Ġdomestic": 6910,
      "bbed": 6911,
      "Ġsatisfy": 6912,
      "Ġcruising": 6913,
      "Ġnantucketer": 6914,
      "Ġfalling": 6915,
      "collins": 6916,
      "precisely": 6917,
      "Ġterrors": 6918,
      "Ġverd": 6919,
      "Ġnumerous": 6920,
      "Ġdivine": 6921,
      "Ġbelonged": 6922,
      "Ġalarmed": 6923,
      "Ġchristmas": 6924,
      "countenance": 6925,
      "Ġhabits": 6926,
      "Ġexecution": 6927,
      "Ġknees": 6928,
      "Ġconscience": 6929,
      "Ġwandered": 6930,
      "Ġblessed": 6931,
      "Ġgaze": 6932,
      "Ġimpertin": 6933,
      "surd": 6934,
      "Ġbarbar": 6935,
      "Ġstroke": 6936,
      "Ġhorizont": 6937,
      "acquaintance": 6938,
      "Ġbosom": 6939,
      "irectly": 6940,
      "Ġadvertisement": 6941,
      "knife": 6942,
      "oubtedly": 6943,
      "Ġglimpse": 6944,
      "Ġdoubloon": 6945,
      "Ġstyle": 6946,
      "Ġfifteen": 6947,
      "Ġquantity": 6948,
      "Ġtolerable": 6949,
      "abriel": 6950,
      "bul": 6951,
      "ev": 6952,
      "fell": 6953,
      "find": 6954,
      "got": 6955,
      "hat": 6956,
      "iences": 6957,
      "kward": 6958,
      "lines": 6959,
      "mured": 6960,
      "nes": 6961,
      "none": 6962,
      "opp": 6963,
      "pest": 6964,
      "till": 6965,
      "uel": 6966,
      "Ġ[": 6967,
      "Ġtu": 6968,
      "Ġain": 6969,
      "hearted": 6970,
      "really": 6971,
      "athered": 6972,
      "Ġmour": 6973,
      "Ġmixed": 6974,
      "left": 6975,
      "Ġbrief": 6976,
      "Ġdining": 6977,
      "Ġpage": 6978,
      "Ġhug": 6979,
      "already": 6980,
      "Ġthumb": 6981,
      "Ġnonsense": 6982,
      "Ġlid": 6983,
      "Ġlances": 6984,
      "Ġlifted": 6985,
      "Ġlakeman": 6986,
      "Ġeh": 6987,
      "Ġrev": 6988,
      "urs": 6989,
      "imag": 6990,
      "ilities": 6991,
      "Ġstiff": 6992,
      "Ġstretch": 6993,
      "adr": 6994,
      "othing": 6995,
      "Ġdece": 6996,
      "Ġwasn": 6997,
      "unted": 6998,
      "Ġneat": 6999,
      "Ġatlantic": 7000,
      "Ġvir": 7001,
      "erson": 7002,
      "Ġintens": 7003,
      "Ġunlike": 7004,
      "ivered": 7005,
      "Ġsocial": 7006,
      "Ġsust": 7007,
      "outs": 7008,
      "Ġcanv": 7009,
      "rush": 7010,
      "Ġknot": 7011,
      "Ġsympt": 7012,
      "âĢĶâĢĺ": 7013,
      "Ġabsent": 7014,
      "Ġjob": 7015,
      "asses": 7016,
      "bles": 7017,
      "Ġtrick": 7018,
      "Ġclay": 7019,
      "Ġclue": 7020,
      "ailing": 7021,
      "Ġperth": 7022,
      "Ġroared": 7023,
      "Ġtheirs": 7024,
      "open": 7025,
      "Ġamber": 7026,
      "Ġages": 7027,
      "Ġagreed": 7028,
      "ructed": 7029,
      "Ġdisd": 7030,
      "ieving": 7031,
      "achel": 7032,
      "Ġplank": 7033,
      "Ġboast": 7034,
      "Ġuseless": 7035,
      "Ġseeking": 7036,
      "Ġrare": 7037,
      "Ġparties": 7038,
      "Ġobsc": 7039,
      "Ġoffended": 7040,
      "Ġmisfortunes": 7041,
      "Ġforming": 7042,
      "Ġsquall": 7043,
      "appro": 7044,
      "Ġvanity": 7045,
      "Ġsetting": 7046,
      "levi": 7047,
      "iana": 7048,
      "Ġturner": 7049,
      "Ġminimize": 7050,
      "Ġstepped": 7051,
      "pequod": 7052,
      "Ġendless": 7053,
      "Ġclever": 7054,
      "Ġphant": 7055,
      "Ġfreely": 7056,
      "Ġreality": 7057,
      "condition": 7058,
      "Ġseries": 7059,
      "Ġseriously": 7060,
      "Ġdevelopment": 7061,
      "Ġpropos": 7062,
      "Ġlighted": 7063,
      "Ġscheme": 7064,
      "Ġfastened": 7065,
      "Ġrestored": 7066,
      "Ġsoup": 7067,
      "Ġhost": 7068,
      "prob": 7069,
      "Ġanswers": 7070,
      "Ġshoes": 7071,
      "Ġsubjects": 7072,
      "Ġawkward": 7073,
      "Ġprecip": 7074,
      "Ġprecise": 7075,
      "Ġcease": 7076,
      "Ġcerem": 7077,
      "seeing": 7078,
      "Ġflee": 7079,
      "Ġtreated": 7080,
      "Ġofficial": 7081,
      "Ġstartled": 7082,
      "Ġdisposed": 7083,
      "Ġetc": 7084,
      "Ġetern": 7085,
      "Ġmuttered": 7086,
      "Ġastonished": 7087,
      "human": 7088,
      "evening": 7089,
      "Ġdressing": 7090,
      "brother": 7091,
      "rudence": 7092,
      "Ġknee": 7093,
      "Ã¦mon": 7094,
      "Ġfrankenstein": 7095,
      "Ġjumped": 7096,
      "Ġdisappointed": 7097,
      "Ġargument": 7098,
      "Ġcomparison": 7099,
      "Ġevinced": 7100,
      "Ġribs": 7101,
      "Ġrecommend": 7102,
      "Ġphilosophy": 7103,
      "Ġaccomplished": 7104,
      "determ": 7105,
      "Ġporpoise": 7106,
      "Ġdisturb": 7107,
      "Ġarticles": 7108,
      "accountable": 7109,
      "natured": 7110,
      "aceti": 7111,
      "important": 7112,
      "Ġapprehension": 7113,
      "Ġtumult": 7114,
      "green": 7115,
      "Ġlantern": 7116,
      "Ġpagan": 7117,
      "Ġinstrument": 7118,
      "better": 7119,
      "Ġassert": 7120,
      "hawk": 7121,
      "conversation": 7122,
      "Ġparsonage": 7123,
      "Ġmaria": 7124,
      "_),": 7125,
      "cru": 7126,
      "catherine": 7127,
      "fle": 7128,
      "gent": 7129,
      "hist": 7130,
      "kin": 7131,
      "kers": 7132,
      "living": 7133,
      "length": 7134,
      "nay": 7135,
      "power": 7136,
      "rim": 7137,
      "sn": 7138,
      "sun": 7139,
      "sac": 7140,
      "six": 7141,
      "town": 7142,
      "voy": 7143,
      "won": 7144,
      "Ġ----": 7145,
      "Ġtub": 7146,
      "Ġawe": 7147,
      "requ": 7148,
      "erate": 7149,
      "endeav": 7150,
      "Ġmile": 7151,
      "Ġmalice": 7152,
      "Ġox": 7153,
      "Ġcries": 7154,
      "Ġcoward": 7155,
      "Ġban": 7156,
      "Ġbuck": 7157,
      "Ġbachel": 7158,
      "Ġfoul": 7159,
      "arse": 7160,
      "Ġpin": 7161,
      "Ġpier": 7162,
      "Ġhit": 7163,
      "Ġinvent": 7164,
      "eding": 7165,
      "Ġloun": 7166,
      "Ġlung": 7167,
      "ental": 7168,
      "eting": 7169,
      "Ġglow": 7170,
      "Ġgently": 7171,
      "Ġgasp": 7172,
      "Ġretained": 7173,
      "lying": 7174,
      "changed": 7175,
      "ims": 7176,
      "Ġwhit": 7177,
      "Ġstoner": 7178,
      "Ġbeast": 7179,
      "otions": 7180,
      "Ġcondesc": 7181,
      "olerable": 7182,
      "Ġcomra": 7183,
      "Ġwept": 7184,
      "Ġenchant": 7185,
      "Ġvel": 7186,
      "Ġrough": 7187,
      "thur": 7188,
      "Ġnotes": 7189,
      "Ġunnatural": 7190,
      "Ġunpleasant": 7191,
      "antages": 7192,
      "Ġlover": 7193,
      "Ġsacr": 7194,
      "Ġimpl": 7195,
      "Ġarthur": 7196,
      "Ġkings": 7197,
      "ifice": 7198,
      "Ġfee": 7199,
      "Ġdoc": 7200,
      "Ġchosen": 7201,
      "Ġabsurd": 7202,
      "Ġscand": 7203,
      "Ġjones": 7204,
      "Ġtrunk": 7205,
      "taining": 7206,
      "Ġaccounts": 7207,
      "Ġimpul": 7208,
      "Ġperpendicular": 7209,
      "Ġcontents": 7210,
      "neighbour": 7211,
      "pret": 7212,
      "conv": 7213,
      "mention": 7214,
      "Ġdisgrace": 7215,
      "Ġsmell": 7216,
      "Ġcomposure": 7217,
      "Ġsimply": 7218,
      "Ġpoison": 7219,
      "atherley": 7220,
      "Ġstepfather": 7221,
      "Ġstrict": 7222,
      "Ġelder": 7223,
      "Ġrail": 7224,
      "Ġrapt": 7225,
      "Ġrequired": 7226,
      "ribute": 7227,
      "Ġtwisted": 7228,
      "weather": 7229,
      "Ġdevils": 7230,
      "spring": 7231,
      "Ġenthus": 7232,
      "Ġentrance": 7233,
      "Ġrude": 7234,
      "Ġsubl": 7235,
      "Ġeffects": 7236,
      "Ġcollect": 7237,
      "Ġbench": 7238,
      "Ġprograms": 7239,
      "aneous": 7240,
      "Ġworthy": 7241,
      "Ġflag": 7242,
      "Ġbegun": 7243,
      "Ġbegins": 7244,
      "Ġcaptured": 7245,
      "Ġfriendship": 7246,
      "Ġmariner": 7247,
      "Ġmarvell": 7248,
      "Ġguest": 7249,
      "Ġguilty": 7250,
      "armed": 7251,
      "Ġreasonable": 7252,
      "Ġcrossing": 7253,
      "Ġcreator": 7254,
      "Ġcaroline": 7255,
      "Ġwindlass": 7256,
      "Ġwindibank": 7257,
      "Ġnights": 7258,
      "Ġhunting": 7259,
      "Ġfelicity": 7260,
      "remark": 7261,
      "remember": 7262,
      "sembled": 7263,
      "Ġwrinkled": 7264,
      "Ġnorthern": 7265,
      "arboard": 7266,
      "Ġfreed": 7267,
      "Ġdeliber": 7268,
      "Ġrespects": 7269,
      "Ġsunday": 7270,
      "Ġcheck": 7271,
      "Ġselfish": 7272,
      "Ġconfusion": 7273,
      "Ġlabour": 7274,
      "Ġrepro": 7275,
      "Ġlesson": 7276,
      "Ġbedroom": 7277,
      "_.)": 7278,
      "Ġinvested": 7279,
      "Ġuttered": 7280,
      "Ġproportion": 7281,
      "Ġcraw": 7282,
      "Ġkeeping": 7283,
      "brance": 7284,
      "brought": 7285,
      "Ġawoke": 7286,
      "Ġhonest": 7287,
      "Ġfloated": 7288,
      "Ġoccasional": 7289,
      "Ġviews": 7290,
      "coloured": 7291,
      "Ġquarrel": 7292,
      "Ġslightly": 7293,
      "Ġdegrees": 7294,
      "Ġconceit": 7295,
      "Ġnecessity": 7296,
      "Ġleading": 7297,
      "Ġassistant": 7298,
      "Ġprofessional": 7299,
      "Ġenjoyment": 7300,
      "compan": 7301,
      "Ġsadly": 7302,
      "Ġreaching": 7303,
      "Ġoriginally": 7304,
      "Ġroylott": 7305,
      "turned": 7306,
      "Ġsinking": 7307,
      "Ġresults": 7308,
      "Ġknife": 7309,
      "Ġtranquil": 7310,
      "Ġdistinctly": 7311,
      "Ġloudly": 7312,
      "acquainted": 7313,
      "Ġwreck": 7314,
      "Ġvicinity": 7315,
      "Ġsecrecy": 7316,
      "Ġpuzzled": 7317,
      "Ġelevated": 7318,
      "Ġenvelope": 7319,
      "comfortable": 7320,
      "young": 7321,
      "Ġdwelling": 7322,
      "mblance": 7323,
      "family": 7324,
      "Ġgunwale": 7325,
      "Ġfancied": 7326,
      "Ġinvisible": 7327,
      "Ġvirgin": 7328,
      "!_": 7329,
      ");": 7330,
      ".*": 7331,
      "bell": 7332,
      "cab": 7333,
      "drew": 7334,
      "each": 7335,
      "fa": 7336,
      "fancy": 7337,
      "gs": 7338,
      "gard": 7339,
      "hour": 7340,
      "home": 7341,
      "hmael": 7342,
      "iation": 7343,
      "jack": 7344,
      "kins": 7345,
      "marks": 7346,
      "oper": 7347,
      "oices": 7348,
      "ojo": 7349,
      "pain": 7350,
      "ror": 7351,
      "sor": 7352,
      "uously": 7353,
      "vess": 7354,
      "ws": 7355,
      "Ġtro": 7356,
      "Ġtied": 7357,
      "Ġtreas": 7358,
      "Ġtattoo": 7359,
      "Ġarose": 7360,
      "erted": 7361,
      "Ġmount": 7362,
      "Ġcard": 7363,
      "Ġfath": 7364,
      "Ġfountain": 7365,
      "Ġdine": 7366,
      "Ġdried": 7367,
      "Ġanchor": 7368,
      "Ġpieces": 7369,
      "Ġharb": 7370,
      "Ġinde": 7371,
      "alous": 7372,
      "Ġtoma": 7373,
      "Ġthine": 7374,
      "Ġnar": 7375,
      "Ġnic": 7376,
      "Ġling": 7377,
      "Ġlaz": 7378,
      "Ġlawn": 7379,
      "icious": 7380,
      "ellect": 7381,
      "etition": 7382,
      "Ġgent": 7383,
      "Ġii": 7384,
      "Ġep": 7385,
      "Ġreject": 7386,
      "Ġhed": 7387,
      "Ġwhar": 7388,
      "Ġstage": 7389,
      "Ġstark": 7390,
      "thes": 7391,
      "Ġyonder": 7392,
      "Ġaltered": 7393,
      "Ġaltern": 7394,
      "Ġishmael": 7395,
      "Ġmeets": 7396,
      "Ġexter": 7397,
      "ption": 7398,
      "Ġneville": 7399,
      "Ġhail": 7400,
      "Ġseren": 7401,
      "Ġrout": 7402,
      "Ġrushing": 7403,
      "Ġshone": 7404,
      "Ġsoothe": 7405,
      "istrate": 7406,
      "Ġspine": 7407,
      "aston": 7408,
      "Ġarrest": 7409,
      "allied": 7410,
      "Ġappar": 7411,
      "esting": 7412,
      "Ġchose": 7413,
      "Ġscuttle": 7414,
      "akened": 7415,
      "Ġclam": 7416,
      "aret": 7417,
      "attering": 7418,
      "pread": 7419,
      "full": 7420,
      "Ġwilling": 7421,
      "Ġacted": 7422,
      "Ġincapable": 7423,
      "Ġinteraction": 7424,
      "Ġcopper": 7425,
      "inkles": 7426,
      "Ġdescend": 7427,
      "Ġdescended": 7428,
      "Ġdescription": 7429,
      "ermost": 7430,
      "Ġcommitted": 7431,
      "Ġobtained": 7432,
      "athans": 7433,
      "meas": 7434,
      "Ġrecent": 7435,
      "spr": 7436,
      "Ġfierce": 7437,
      "Ġdoesn": 7438,
      "Ġgrim": 7439,
      "comm": 7440,
      "comple": 7441,
      "Ġbetray": 7442,
      "anean": 7443,
      "Ġworst": 7444,
      "Ġblast": 7445,
      "Ġglided": 7446,
      "Ġembarr": 7447,
      "Ġflame": 7448,
      "Ġswinging": 7449,
      "Ġtrack": 7450,
      "serv": 7451,
      "engaged": 7452,
      "Ġhunted": 7453,
      "Ġslave": 7454,
      "Ġstock": 7455,
      "Ġhousekeeper": 7456,
      "Ġcaptains": 7457,
      "Ġpossibility": 7458,
      "Ġhelped": 7459,
      "Ġproposed": 7460,
      "Ġequator": 7461,
      "Ġhopeless": 7462,
      "Ġsilver": 7463,
      "Ġpatron": 7464,
      "Ġconfined": 7465,
      "offic": 7466,
      "Ġidol": 7467,
      "Ġirre": 7468,
      "Ġlanded": 7469,
      "Ġpulpit": 7470,
      "prof": 7471,
      "proper": 7472,
      "Ġsights": 7473,
      "Ġbedford": 7474,
      "Ġremarks": 7475,
      "Ġcritical": 7476,
      "Ġsurm": 7477,
      "Ġanswering": 7478,
      "knowledge": 7479,
      "Ġpersonal": 7480,
      "Ġmurmured": 7481,
      "Ġtrembling": 7482,
      "handed": 7483,
      "Ġdropping": 7484,
      "afterwards": 7485,
      "Ġinquired": 7486,
      "Ġmotives": 7487,
      "affection": 7488,
      "Ġdeny": 7489,
      "general": 7490,
      "Ġbottle": 7491,
      "Ġmouths": 7492,
      "Ġportion": 7493,
      "Ġformerly": 7494,
      "Ġmusk": 7495,
      "Ġconcealed": 7496,
      "Ġdreams": 7497,
      "sails": 7498,
      "humour": 7499,
      "Ġremove": 7500,
      "Ġwonders": 7501,
      "Ġventured": 7502,
      "Ġbillows": 7503,
      "Ġmystic": 7504,
      "Ġgloomy": 7505,
      "Ġexecute": 7506,
      "instantly": 7507,
      "Ġanticip": 7508,
      "Ġridic": 7509,
      "Ġimpatience": 7510,
      "Ġcoroner": 7511,
      "court": 7512,
      "minutes": 7513,
      "Ġsufferings": 7514,
      "Ġhospit": 7515,
      "Ġreserved": 7516,
      "Ġstatements": 7517,
      "creatures": 7518,
      "gentleman": 7519,
      "innacle": 7520,
      "Ġwhaler": 7521,
      "Ġcasks": 7522,
      "Ġphysical": 7523,
      "Ġessential": 7524,
      "Ġinhabitants": 7525,
      "kerchief": 7526,
      "Ġpriest": 7527,
      "Ġmysterious": 7528,
      "Ġpreceding": 7529,
      "Ġpreserve": 7530,
      "Ġresentment": 7531,
      "Ġesteem": 7532,
      "Ġelegant": 7533,
      "Ġqualities": 7534,
      "Ġacknowledged": 7535,
      "further": 7536,
      "Ġtranquillity": 7537,
      "Ġcriminal": 7538,
      "Ġmarvellous": 7539,
      "Ġtomahawk": 7540,
      "(_": 7541,
      "bar": 7542,
      "bag": 7543,
      "born": 7544,
      "crew": 7545,
      "eur": 7546,
      "fold": 7547,
      "fisher": 7548,
      "fixed": 7549,
      "gings": 7550,
      "live": 7551,
      "list": 7552,
      "oe": 7553,
      "oo": 7554,
      "oct": 7555,
      "oqu": 7556,
      "rig": 7557,
      "rising": 7558,
      "ture": 7559,
      "tons": 7560,
      "taken": 7561,
      "ued": 7562,
      "ude": 7563,
      "Ġvers": 7564,
      "Ġtal": 7565,
      "Ġtrop": 7566,
      "Ġturing": 7567,
      "inations": 7568,
      "initely": 7569,
      "Ġsam": 7570,
      "Ġsul": 7571,
      "Ġsway": 7572,
      "oning": 7573,
      "erably": 7574,
      "enc": 7575,
      "Ġwave": 7576,
      "Ġmix": 7577,
      "itled": 7578,
      "itche": 7579,
      "Ġcop": 7580,
      "Ġcards": 7581,
      "origin": 7582,
      "Ġpall": 7583,
      "Ġpaced": 7584,
      "Ġhated": 7585,
      "Ġinsc": 7586,
      "Ġinconven": 7587,
      "alo": 7588,
      "Ġtoler": 7589,
      "Ġthirst": 7590,
      "icated": 7591,
      "eted": 7592,
      "uted": 7593,
      "utter": 7594,
      "Ġgree": 7595,
      "Ġgabriel": 7596,
      "rab": 7597,
      "stad": 7598,
      "start": 7599,
      "Ġheave": 7600,
      "Ġheaving": 7601,
      "owing": 7602,
      "Ġstump": 7603,
      "Ġstupid": 7604,
      "Ġstarboard": 7605,
      "Ġlean": 7606,
      "Ġleather": 7607,
      "Ġleaned": 7608,
      "adm": 7609,
      "Ġyawn": 7610,
      "Ġyojo": 7611,
      "olstad": 7612,
      "izz": 7613,
      "Ġdeemed": 7614,
      "Ġlearnt": 7615,
      "quar": 7616,
      "Ġashes": 7617,
      "ppers": 7618,
      "Ġweig": 7619,
      "Ġweep": 7620,
      "Ġwealth": 7621,
      "rily": 7622,
      "Ġroused": 7623,
      "inea": 7624,
      "putation": 7625,
      "Ġallusion": 7626,
      "Ġado": 7627,
      "Ġlob": 7628,
      "Ġloom": 7629,
      "Ġspin": 7630,
      "Ġspam": 7631,
      "ĠĠĠĠĠĠĠ": 7632,
      "dev": 7633,
      "Ġupwards": 7634,
      "perfect": 7635,
      "hers": 7636,
      "Ġdost": 7637,
      "Ġfunny": 7638,
      "usal": 7639,
      "Ġjapan": 7640,
      "Ġmanage": 7641,
      "Ġclut": 7642,
      "Ġclergy": 7643,
      "Ġthereby": 7644,
      "Ġperpet": 7645,
      "Ġquitting": 7646,
      "Ġagree": 7647,
      "Ġagitated": 7648,
      "Ġcouldn": 7649,
      "acey": 7650,
      "Ġexped": 7651,
      "Ġexpense": 7652,
      "Ġelapsed": 7653,
      "Ġtemple": 7654,
      "Ġbackward": 7655,
      "Ġextent": 7656,
      "Ġimproved": 7657,
      "Ġregularly": 7658,
      "Ġdiscern": 7659,
      "Ġsubsequent": 7660,
      "Ġgrateful": 7661,
      "Ġfury": 7662,
      "combe": 7663,
      "Ġowners": 7664,
      "Ġmostly": 7665,
      "whel": 7666,
      "Ġrelieved": 7667,
      "Ġmonstr": 7668,
      "Ġcurse": 7669,
      "Ġmarble": 7670,
      "others": 7671,
      "otherwise": 7672,
      "Ġtrap": 7673,
      "Ġfollows": 7674,
      "Ġcarries": 7675,
      "observed": 7676,
      "Ġearl": 7677,
      "people": 7678,
      "locked": 7679,
      "Ġcontained": 7680,
      "Ġfoe": 7681,
      "Ġprophet": 7682,
      "Ġfrance": 7683,
      "justine": 7684,
      "Ġinfer": 7685,
      "solved": 7686,
      "Ġsilly": 7687,
      "Ġconfid": 7688,
      "days": 7689,
      "Ġsouthern": 7690,
      "Ġemotion": 7691,
      "Ġintroduced": 7692,
      "Ġlessons": 7693,
      "ribed": 7694,
      "Ġgeese": 7695,
      "yours": 7696,
      "Ġirons": 7697,
      "gging": 7698,
      "ivering": 7699,
      "Ġnameless": 7700,
      "Ġhurt": 7701,
      "Ġanimated": 7702,
      "Ġremarkably": 7703,
      "Ġsuperst": 7704,
      "azing": 7705,
      "Ġexpressions": 7706,
      "Ġfourth": 7707,
      "Ġpaint": 7708,
      "Ġmarket": 7709,
      "Ġcrack": 7710,
      "Ġadmit": 7711,
      "Ġspeedily": 7712,
      "Ġelsewhere": 7713,
      "Ġawa": 7714,
      "Ġconsiderably": 7715,
      "Ġflood": 7716,
      "Ġsymbol": 7717,
      "Ġneeded": 7718,
      "Ġburied": 7719,
      "Ġinquire": 7720,
      "writing": 7721,
      "Ġpretend": 7722,
      "Ġsixty": 7723,
      "Ġsinging": 7724,
      "Ġhussey": 7725,
      "Ġdreadfully": 7726,
      "prise": 7727,
      "Ġcentral": 7728,
      "Ġstarting": 7729,
      "Ġspouts": 7730,
      "Ġsummit": 7731,
      "Ġshowing": 7732,
      "worthy": 7733,
      "Ġcalmly": 7734,
      "Ġexamine": 7735,
      "Ġfrightful": 7736,
      "Ġdeserved": 7737,
      "Ġoarsmen": 7738,
      "holding": 7739,
      "Ġventure": 7740,
      "Ġdesigned": 7741,
      "Ġdogs": 7742,
      "window": 7743,
      "Ġconscious": 7744,
      "marriage": 7745,
      "person": 7746,
      "Ġprair": 7747,
      "Ġadventures": 7748,
      "Ġauthority": 7749,
      "Ġprovide": 7750,
      "Ġaccepted": 7751,
      "reasonable": 7752,
      "occup": 7753,
      "occasion": 7754,
      "visit": 7755,
      "Ġduke": 7756,
      "Ġdarting": 7757,
      "frank": 7758,
      "Ġlucky": 7759,
      "Ġuncommonly": 7760,
      "buoy": 7761,
      "Ġliberty": 7762,
      "Ġinduce": 7763,
      "circumstance": 7764,
      "Ġamazement": 7765,
      "returned": 7766,
      "Ġxxx": 7767,
      "Ġfolded": 7768,
      "Ġperilous": 7769,
      "Ġfetch": 7770,
      "Ġthroat": 7771,
      "Ġtravelled": 7772,
      "Ġbenevolent": 7773,
      "Ġcannibal": 7774,
      "Ġassurance": 7775,
      "Ġweapon": 7776,
      "Ġdesperate": 7777,
      "Ġprevailed": 7778,
      "Ġcondemned": 7779,
      "blood": 7780,
      "gallant": 7781,
      "entirely": 7782,
      "Ġhorizontal": 7783,
      "Ġcanvas": 7784,
      "leviathan": 7785,
      "voyage": 7786,
      "Ġbachelor": 7787,
      "itchen": 7788,
      "olstadt": 7789,
      "Ġmonstrous": 7790,
      ";âĢĿ": 7791,
      "bing": 7792,
      "ball": 7793,
      "bted": 7794,
      "bacc": 7795,
      "cause": 7796,
      "civil": 7797,
      "dam": 7798,
      "fare": 7799,
      "gave": 7800,
      "giana": 7801,
      "ij": 7802,
      "iqu": 7803,
      "mber": 7804,
      "nantucket": 7805,
      "oil": 7806,
      "pur": 7807,
      "rs": 7808,
      "rating": 7809,
      "squ": 7810,
      "slow": 7811,
      "told": 7812,
      "try": 7813,
      "ux": 7814,
      "van": 7815,
      "vity": 7816,
      "voice": 7817,
      "wit": 7818,
      "yl": 7819,
      "yn": 7820,
      "zing": 7821,
      "Ġtam": 7822,
      "Ġax": 7823,
      "Ġarab": 7824,
      "Ġsan": 7825,
      "Ġsell": 7826,
      "reinforcement": 7827,
      "onic": 7828,
      "athed": 7829,
      "ators": 7830,
      "Ġwishing": 7831,
      "Ġmess": 7832,
      "Ġmounted": 7833,
      "Ġoath": 7834,
      "itself": 7835,
      "itement": 7836,
      "lets": 7837,
      "leave": 7838,
      "Ġbale": 7839,
      "Ġbull": 7840,
      "Ġfarm": 7841,
      "Ġdate": 7842,
      "Ġdanced": 7843,
      "Ġdumb": 7844,
      "ĠdÃ¦mon": 7845,
      "Ġpill": 7846,
      "Ġpistol": 7847,
      "Ġhatch": 7848,
      "Ġhatherley": 7849,
      "Ġinch": 7850,
      "also": 7851,
      "Ġtoll": 7852,
      "Ġtobacc": 7853,
      "roy": 7854,
      "asper": 7855,
      "Ġlun": 7856,
      "Ġlament": 7857,
      "enter": 7858,
      "Ġgle": 7859,
      "Ġgul": 7860,
      "Ġiii": 7861,
      "stern": 7862,
      "struck": 7863,
      "Ġretain": 7864,
      "Ġstamp": 7865,
      "Ġforbid": 7866,
      "Ġisn": 7867,
      "secut": 7868,
      "Ġdeed": 7869,
      "Ġdemon": 7870,
      "quis": 7871,
      "agon": 7872,
      "agger": 7873,
      "ected": 7874,
      "Ġengra": 7875,
      "Ġensu": 7876,
      "Ġvoices": 7877,
      "places": 7878,
      "placed": 7879,
      "Ġseizing": 7880,
      "Ġseventy": 7881,
      "Ġratt": 7882,
      "Ġnotion": 7883,
      "Ġgravely": 7884,
      "Ġshattered": 7885,
      "Ġalluded": 7886,
      "Ġunwilling": 7887,
      "Ġunaccountable": 7888,
      "Ġherd": 7889,
      "Ġhers": 7890,
      "ables": 7891,
      "Ġloath": 7892,
      "pled": 7893,
      "Ġspared": 7894,
      "Ġspray": 7895,
      "devil": 7896,
      "Ġarise": 7897,
      "Ġprepar": 7898,
      "whis": 7899,
      "whaling": 7900,
      "Ġabode": 7901,
      "Ġscorn": 7902,
      "Ġjav": 7903,
      "ropes": 7904,
      "Ġoutward": 7905,
      "Ġmanx": 7906,
      "Ġmanaged": 7907,
      "renched": 7908,
      "Ġlaying": 7909,
      "dued": 7910,
      "exact": 7911,
      "exceed": 7912,
      "Ġsomebody": 7913,
      "opened": 7914,
      "mmed": 7915,
      "Ġactive": 7916,
      "Ġresist": 7917,
      "Ġincome": 7918,
      "Ġplans": 7919,
      "Ġdescried": 7920,
      "Ġactivity": 7921,
      "meant": 7922,
      "spout": 7923,
      "noble": 7924,
      "Ġextended": 7925,
      "phil": 7926,
      "Ġ16": 7927,
      "Ġperforming": 7928,
      "Ġsquee": 7929,
      "Ġpassions": 7930,
      "rowing": 7931,
      "Ġhumour": 7932,
      "Ġsolic": 7933,
      "Ġveil": 7934,
      "Ġadvise": 7935,
      "Ġadditional": 7936,
      "Ġmechanical": 7937,
      "Ġblasted": 7938,
      "Ġmonoman": 7939,
      "Ġflames": 7940,
      "Ġfolly": 7941,
      "Ġneglect": 7942,
      "Ġreduce": 7943,
      "Ġswallowed": 7944,
      "Ġproperly": 7945,
      "Ġtraces": 7946,
      "Ġcarved": 7947,
      "Ġsoftly": 7948,
      "Ġfinish": 7949,
      "Ġended": 7950,
      "clerval": 7951,
      "Ġslid": 7952,
      "Ġstole": 7953,
      "Ġyoungest": 7954,
      "Ġopenshaw": 7955,
      "Ġstudies": 7956,
      "Ġfrantic": 7957,
      "justice": 7958,
      "Ġfavourable": 7959,
      "Ġinfall": 7960,
      "Ġsentiments": 7961,
      "Ġresting": 7962,
      "Ġsincerely": 7963,
      "Ġconfused": 7964,
      "Ġdoubted": 7965,
      "Ġimprovement": 7966,
      "Ġcircles": 7967,
      "ighter": 7968,
      "Ġintegr": 7969,
      "grand": 7970,
      "Ġwondering": 7971,
      "Ġfeeding": 7972,
      "regard": 7973,
      "Ġdestined": 7974,
      "Ġholds": 7975,
      "disp": 7976,
      "Ġresemblance": 7977,
      "Ġswept": 7978,
      "Ġpainted": 7979,
      "Ġcapital": 7980,
      "Ġtemporary": 7981,
      "Ġadmired": 7982,
      "words": 7983,
      "Ġorganization": 7984,
      "Ġvisitors": 7985,
      "Ġmidst": 7986,
      "Ġlowering": 7987,
      "Ġoccasions": 7988,
      "ĠĠĠĠĠĠĠĠĠĠĠĠĠĠĠĠĠĠĠĠĠĠĠĠĠĠĠĠĠĠĠĠĠĠĠĠĠĠĠĠĠĠĠĠĠĠĠĠ": 7989,
      "Ġearthly": 7990,
      "interval": 7991,
      "Ġsnuff": 7992,
      "Ġsplit": 7993,
      "Ġstraits": 7994,
      "written": 7995,
      "Ġoceans": 7996,
      "Ġceiling": 7997,
      "Ġstayed": 7998,
      "Ġhorrid": 7999,
      "Ġrepeat": 8000,
      "Ġattempted": 8001,
      "Ġbehavior": 8002,
      "Ġlaws": 8003,
      "Ġbuoy": 8004,
      "Ġexamination": 8005,
      "Ġexamining": 8006,
      "Ġblinds": 8007,
      "Ġenjoyed": 8008,
      "Ġconfessed": 8009,
      "Ġforgive": 8010,
      "lasting": 8011,
      "Ġcrowded": 8012,
      "Ġshadows": 8013,
      "Ġfirmly": 8014,
      "Ġbelongs": 8015,
      "Ġhealthcare": 8016,
      "Ġsalt": 8017,
      "Ġimmortal": 8018,
      "Ġmedit": 8019,
      "Ġventil": 8020,
      "broken": 8021,
      "Ġgratified": 8022,
      "Ġunfold": 8023,
      "Ġsolemnly": 8024,
      "Ġbitterness": 8025,
      "passed": 8026,
      "Ġfamilies": 8027,
      "persu": 8028,
      "Ġafforded": 8029,
      "arthly": 8030,
      "Ġromantic": 8031,
      "Ġbodies": 8032,
      "Ġwidely": 8033,
      "Ġgrasped": 8034,
      "Ġendeavouring": 8035,
      "Ġdebts": 8036,
      "Ġarguments": 8037,
      "Ġpresume": 8038,
      "Ġrisk": 8039,
      "Ġchina": 8040,
      "apering": 8041,
      "husband": 8042,
      "Ġardour": 8043,
      "excellent": 8044,
      "silence": 8045,
      "Ġgenius": 8046,
      "circumstances": 8047,
      "Ġwhalers": 8048,
      "Ġtraveller": 8049,
      "transform": 8050,
      "Ġtackles": 8051,
      "Ġsteadily": 8052,
      "heaven": 8053,
      "Ġexertion": 8054,
      "spirits": 8055,
      "Ġamusement": 8056,
      "Ġprodigious": 8057,
      "Ġvivid": 8058,
      "Ġcellar": 8059,
      "Ġconsequently": 8060,
      "iasm": 8061,
      "Ġeurope": 8062,
      "Ġbuilding": 8063,
      "Ġinvariably": 8064,
      "Ġenthusiasm": 8065,
      "Ġsublime": 8066,
      "Ġapparition": 8067,
      "Ġtolerably": 8068,
      ";--": 8069,
      "?_": 8070,
      "ais": 8071,
      "bat": 8072,
      "cent": 8073,
      "cott": 8074,
      "ders": 8075,
      "div": 8076,
      "event": 8077,
      "eches": 8078,
      "fat": 8079,
      "faced": 8080,
      "fashion": 8081,
      "gn": 8082,
      "gir": 8083,
      "hot": 8084,
      "hall": 8085,
      "horn": 8086,
      "ikes": 8087,
      "main": 8088,
      "mosp": 8089,
      "past": 8090,
      "purp": 8091,
      "rut": 8092,
      "rict": 8093,
      "sion": 8094,
      "shed": 8095,
      "sens": 8096,
      "sav": 8097,
      "tar": 8098,
      "times": 8099,
      "wish": 8100,
      "wife": 8101,
      "warm": 8102,
      "yra": 8103,
      "zed": 8104,
      "Ġer": 8105,
      "Ġtor": 8106,
      "Ġtid": 8107,
      "Ġtight": 8108,
      "Ġtick": 8109,
      "incl": 8110,
      "Ġsledge": 8111,
      "Ġweld": 8112,
      "Ġwarp": 8113,
      "Ġmuff": 8114,
      "Ġowe": 8115,
      "Ġcoding": 8116,
      "Ġbask": 8117,
      "Ġbub": 8118,
      "Ġbinnacle": 8119,
      "orable": 8120,
      "Ġdaring": 8121,
      "Ġdash": 8122,
      "Ġdense": 8123,
      "Ġanat": 8124,
      "Ġpad": 8125,
      "Ġtossing": 8126,
      "Ġnaked": 8127,
      "Ġnaught": 8128,
      "asiness": 8129,
      "Ġlink": 8130,
      "Ġlakes": 8131,
      "utely": 8132,
      "Ġgas": 8133,
      "Ġgest": 8134,
      "Ġey": 8135,
      "Ġeating": 8136,
      "rah": 8137,
      "raction": 8138,
      "Ġhears": 8139,
      "church": 8140,
      "Ġug": 8141,
      "urg": 8142,
      "urity": 8143,
      "ilst": 8144,
      "Ġbeating": 8145,
      "idable": 8146,
      "Ġalike": 8147,
      "above": 8148,
      "ableness": 8149,
      "Ġconceived": 8150,
      "Ġconsole": 8151,
      "Ġmeat": 8152,
      "sect": 8153,
      "terr": 8154,
      "olent": 8155,
      "americ": 8156,
      "qual": 8157,
      "andy": 8158,
      "uncle": 8159,
      "Ġasse": 8160,
      "agues": 8161,
      "irium": 8162,
      "Ġvest": 8163,
      "Ġvener": 8164,
      "Ġvib": 8165,
      "Ġseize": 8166,
      "Ġserene": 8167,
      "third": 8168,
      "Ġintently": 8169,
      "Ġintellect": 8170,
      "Ġgramm": 8171,
      "Ġshining": 8172,
      "Ġsoothing": 8173,
      "Ġadler": 8174,
      "illing": 8175,
      "Ġloving": 8176,
      "please": 8177,
      "Ġparl": 8178,
      "Ġparis": 8179,
      "dead": 8180,
      "Ġshed": 8181,
      "Ġcanal": 8182,
      "Ġkiss": 8183,
      "ificent": 8184,
      "whom": 8185,
      "Ġdozen": 8186,
      "Ġchanced": 8187,
      "âĢĶâĢĻ": 8188,
      "Ġabomin": 8189,
      "Ġscor": 8190,
      "Ġscru": 8191,
      "usive": 8192,
      "Ġmanagement": 8193,
      "aping": 8194,
      "Ġtrump": 8195,
      "Ġoverwhel": 8196,
      "Ġclim": 8197,
      "oky": 8198,
      "Ġimpressed": 8199,
      "Ġquadr": 8200,
      "Ġmoody": 8201,
      "Ġeffort": 8202,
      "few": 8203,
      "atching": 8204,
      "Ġdistrust": 8205,
      "Ġdisgu": 8206,
      "Ġresidence": 8207,
      "Ġpoet": 8208,
      "aven": 8209,
      "ernation": 8210,
      "Ġdeprived": 8211,
      "Ġcomplexion": 8212,
      "Ġtempest": 8213,
      "ributed": 8214,
      "Ġdeepest": 8215,
      "Ġtwink": 8216,
      "Ġhanded": 8217,
      "mered": 8218,
      "extra": 8219,
      "Ġformidable": 8220,
      "Ġcoll": 8221,
      "Ġcollection": 8222,
      "Ġvisits": 8223,
      "Ġrelieve": 8224,
      "Ġbelieving": 8225,
      "Ġmonkey": 8226,
      "Ġcurled": 8227,
      "Ġflat": 8228,
      "Ġflank": 8229,
      "Ġflash": 8230,
      "Ġbegged": 8231,
      "Ġtrades": 8232,
      "Ġmagic": 8233,
      "Ġmagistrate": 8234,
      "ullen": 8235,
      "Ġwinding": 8236,
      "aws": 8237,
      "Ġends": 8238,
      "Ġderived": 8239,
      "Ġclearing": 8240,
      "lands": 8241,
      "Ġwrit": 8242,
      "Ġwrist": 8243,
      "Ġprim": 8244,
      "Ġpresents": 8245,
      "Ġserved": 8246,
      "Ġincreasing": 8247,
      "valuable": 8248,
      "Ġsund": 8249,
      "Ġconcent": 8250,
      "Ġchains": 8251,
      "Ġsenses": 8252,
      "Ġidle": 8253,
      "Ġhovel": 8254,
      "ribly": 8255,
      "Ġelephant": 8256,
      "Ġfellows": 8257,
      "Ġcircum": 8258,
      "Ġslept": 8259,
      "gris": 8260,
      "gypt": 8261,
      "azz": 8262,
      "Ġillust": 8263,
      "Ġdamp": 8264,
      "Ġsounding": 8265,
      "Ġsweep": 8266,
      "Ġkeeps": 8267,
      "Ġsleepy": 8268,
      "Ġadmirable": 8269,
      "cook": 8270,
      "Ġarmchair": 8271,
      "Ġawake": 8272,
      "Ġdistinguished": 8273,
      "Ġpoliteness": 8274,
      "Ġneedle": 8275,
      "resist": 8276,
      "Ġinsens": 8277,
      "ocity": 8278,
      "Ġ22": 8279,
      "Ġsnug": 8280,
      "Ġmotions": 8281,
      "Ġleviathans": 8282,
      "Ġsixteen": 8283,
      "Ġstaying": 8284,
      "colonel": 8285,
      "nevertheless": 8286,
      "Ġpeculiarly": 8287,
      "Ġfootman": 8288,
      "Ġdreaded": 8289,
      "Ġanxiously": 8290,
      "Ġcentury": 8291,
      "Ġcandle": 8292,
      "Ġbenefit": 8293,
      "Ġign": 8294,
      "trouble": 8295,
      "Ġmutual": 8296,
      "Ġgrieved": 8297,
      "steel": 8298,
      "Ġbuy": 8299,
      "Ġbuilt": 8300,
      "algorithms": 8301,
      "Ġhelpless": 8302,
      "Ġneighbours": 8303,
      "believe": 8304,
      "Ġrender": 8305,
      "friends": 8306,
      "Ġconditions": 8307,
      "Ġbelonging": 8308,
      "Ġdeserve": 8309,
      "Ġrecollect": 8310,
      "Ġrecollected": 8311,
      "Ġlodgings": 8312,
      "Ġundoubtedly": 8313,
      "Ġstrangers": 8314,
      "Ġbitterly": 8315,
      "Ġmurderous": 8316,
      "turning": 8317,
      "Ġremembrance": 8318,
      "Ġtower": 8319,
      "Ġcomprehens": 8320,
      "Ġsuggested": 8321,
      "Ġencountered": 8322,
      "Ġroman": 8323,
      "Ġmotionless": 8324,
      "discovered": 8325,
      "Ġboscombe": 8326,
      "Ġdemanded": 8327,
      "Ġapology": 8328,
      "Ġlatitude": 8329,
      "Ġthreatened": 8330,
      "hundred": 8331,
      "Ġbranch": 8332,
      "Ġingolstadt": 8333,
      "Ġrolls": 8334,
      "Ġconveyed": 8335,
      "ispens": 8336,
      "Ġdeduce": 8337,
      "Ġimpatiently": 8338,
      "followed": 8339,
      "particularly": 8340,
      "Ġleaping": 8341,
      "Ġwrapped": 8342,
      "Ġblanket": 8343,
      "despair": 8344,
      "Ġfemale": 8345,
      "Ġconvenient": 8346,
      "Ġindignation": 8347,
      "Ġthoroughly": 8348,
      "Ġbridge": 8349,
      "Ġdilig": 8350,
      "Ġpronounced": 8351,
      "Ġabandoned": 8352,
      "Ġtremendous": 8353,
      "daughter": 8354,
      "Ġponderous": 8355,
      "Ġinserted": 8356,
      "Ġlouis": 8357,
      "Ġprolonged": 8358,
      "Ġexercise": 8359,
      "Ġdisdain": 8360,
      "Ġceremony": 8361,
      "Ġlungs": 8362,
      "cabin": 8363,
      "Ġhedge": 8364,
      "Ġexternal": 8365,
      "Ġinferior": 8366,
      "Ġtobacco": 8367,
      "yramid": 8368,
      "aired": 8369,
      "aunt": 8370,
      "burn": 8371,
      "bones": 8372,
      "cap": 8373,
      "din": 8374,
      "fra": 8375,
      "gers": 8376,
      "given": 8377,
      "hs": 8378,
      "hil": 8379,
      "hog": 8380,
      "hung": 8381,
      "jac": 8382,
      "lished": 8383,
      "limin": 8384,
      "machines": 8385,
      "pict": 8386,
      "sitting": 8387,
      "sign": 8388,
      "spread": 8389,
      "ti": 8390,
      "tic": 8391,
      "touch": 8392,
      "uit": 8393,
      "voc": 8394,
      "wer": 8395,
      "wil": 8396,
      "Ġern": 8397,
      "Ġting": 8398,
      "Ġtit": 8399,
      "Ġtones": 8400,
      "inv": 8401,
      "inions": 8402,
      "hearing": 8403,
      "resh": 8404,
      "Ġmam": 8405,
      "Ġmend": 8406,
      "Ġmira": 8407,
      "Ġow": 8408,
      "Ġori": 8409,
      "Ġomn": 8410,
      "Ġcas": 8411,
      "Ġcod": 8412,
      "Ġcens": 8413,
      "Ġcub": 8414,
      "Ġcaps": 8415,
      "Ġbought": 8416,
      "orial": 8417,
      "ority": 8418,
      "orously": 8419,
      "Ġfru": 8420,
      "Ġdough": 8421,
      "Ġdru": 8422,
      "Ġdus": 8423,
      "Ġpile": 8424,
      "Ġpiled": 8425,
      "Ġpacing": 8426,
      "Ġpumps": 8427,
      "Ġhark": 8428,
      "Ġhue": 8429,
      "Ġhints": 8430,
      "Ġincess": 8431,
      "althy": 8432,
      "Ġnieces": 8433,
      "asters": 8434,
      "ascar": 8435,
      "Ġlic": 8436,
      "Ġlap": 8437,
      "Ġlens": 8438,
      "Ġlash": 8439,
      "ici": 8440,
      "uttered": 8441,
      "ctic": 8442,
      "Ġgathered": 8443,
      "Ġirene": 8444,
      "Ġhem": 8445,
      "iger": 8446,
      "igns": 8447,
      "urred": 8448,
      "owder": 8449,
      "immedi": 8450,
      "Ġwhip": 8451,
      "verty": 8452,
      "Ġstore": 8453,
      "Ġstared": 8454,
      "Ġstair": 8455,
      "Ġforge": 8456,
      "Ġforbe": 8457,
      "absolut": 8458,
      "Ġisles": 8459,
      "Ġconj": 8460,
      "Ġconceive": 8461,
      "Ġcongreg": 8462,
      "seven": 8463,
      "search": 8464,
      "terrible": 8465,
      "Ġexasper": 8466,
      "amy": 8467,
      "irwin": 8468,
      "emin": 8469,
      "Ġnearest": 8470,
      "Ġvine": 8471,
      "Ġvile": 8472,
      "Ġhaven": 8473,
      "pling": 8474,
      "ights": 8475,
      "ighted": 8476,
      "Ġrud": 8477,
      "Ġranging": 8478,
      "Ġrational": 8479,
      "thrown": 8480,
      "Ġintolerable": 8481,
      "Ġshows": 8482,
      "Ġunjust": 8483,
      "Ġunluck": 8484,
      "Ġuncomfortable": 8485,
      "Ġorange": 8486,
      "antial": 8487,
      "Ġadie": 8488,
      "istical": 8489,
      "Ġloaded": 8490,
      "uming": 8491,
      "umbled": 8492,
      "Ġupright": 8493,
      "ouncing": 8494,
      "Ġkitchen": 8495,
      "Ġkirwin": 8496,
      "Ġappo": 8497,
      "Ġappalling": 8498,
      "Ġmode": 8499,
      "Ġdetest": 8500,
      "Ġchuck": 8501,
      "Ġtrained": 8502,
      "ĠâĢľâĢĺ": 8503,
      "Ġabsor": 8504,
      "Ġjun": 8505,
      "aks": 8506,
      "Ġaccused": 8507,
      "lue": 8508,
      "Ġhowling": 8509,
      "conce": 8510,
      "Ġamount": 8511,
      "beaut": 8512,
      "fear": 8513,
      "Ġdistressed": 8514,
      "forehead": 8515,
      "Ġanywhere": 8516,
      "avo": 8517,
      "ache": 8518,
      "acles": 8519,
      "Ġplat": 8520,
      "aud": 8521,
      "Ġexposed": 8522,
      "Ġwherever": 8523,
      "Ġwherefore": 8524,
      "Ġboiling": 8525,
      "Ġbohem": 8526,
      "Ġramad": 8527,
      "Ġbacks": 8528,
      "Ġdownwards": 8529,
      "Ġvariety": 8530,
      "Ġcommenced": 8531,
      "!âĢĿâĢĶ": 8532,
      "Ġpeas": 8533,
      "Ġpeering": 8534,
      "Ġobed": 8535,
      "moby": 8536,
      "Ġrecalled": 8537,
      "Ġentitled": 8538,
      "Ġseeming": 8539,
      "Ġmischief": 8540,
      "Ġrefuge": 8541,
      "Ġarchangel": 8542,
      "Ġremot": 8543,
      "comed": 8544,
      "Ġze": 8545,
      "Ġperformed": 8546,
      "Ġcombined": 8547,
      "Ġinvoluntarily": 8548,
      "Ġbrill": 8549,
      "Ġrelig": 8550,
      "Ġhumble": 8551,
      "maid": 8552,
      "Ġteach": 8553,
      "Ġdefect": 8554,
      "Ġmissed": 8555,
      "Ġfounded": 8556,
      "Ġmont": 8557,
      "Ġglit": 8558,
      "Ġgliding": 8559,
      "Ġembark": 8560,
      "Ġflor": 8561,
      "Ġflung": 8562,
      "Ġflaming": 8563,
      "Ġobjections": 8564,
      "Ġhardy": 8565,
      "Ġhunger": 8566,
      "Ġhousehold": 8567,
      "Ġsinister": 8568,
      "remained": 8569,
      "Ġwrinkles": 8570,
      "Ġphren": 8571,
      "Ġopenly": 8572,
      "Ġundertaking": 8573,
      "Ġgloves": 8574,
      "Ġwaving": 8575,
      "Ġinfinite": 8576,
      "Ġcheek": 8577,
      "Ġstronger": 8578,
      "Ġdoubts": 8579,
      "Ġconclude": 8580,
      "astern": 8581,
      "Ġlabours": 8582,
      "Ġconstit": 8583,
      "doing": 8584,
      "Ġmember": 8585,
      "Ġobserv": 8586,
      "uesday": 8587,
      "Ġcrimes": 8588,
      "Ġillness": 8589,
      "Ġsounded": 8590,
      "monster": 8591,
      "Ġcrazy": 8592,
      "Ġcracked": 8593,
      "Ġruns": 8594,
      "Ġcapst": 8595,
      "Ġlads": 8596,
      "Ġladder": 8597,
      "Ġpersonally": 8598,
      "Ġsleeper": 8599,
      "learned": 8600,
      "Ġgoverness": 8601,
      "Ġangle": 8602,
      "effect": 8603,
      "Ġtreacher": 8604,
      "horse": 8605,
      "Ġimagined": 8606,
      "Ġburden": 8607,
      "Ġhatred": 8608,
      "Ġcharacteristics": 8609,
      "everybody": 8610,
      "Ġmistress": 8611,
      "longer": 8612,
      "Ġ20": 8613,
      "Ġ27": 8614,
      "interrupt": 8615,
      "Ġeventually": 8616,
      "Ġendeavours": 8617,
      "Ġsplin": 8618,
      "Ġquarters": 8619,
      "princ": 8620,
      "Ġscarce": 8621,
      "Ġcenturies": 8622,
      "curiosity": 8623,
      "Ġcommander": 8624,
      "Ġgeorgiana": 8625,
      "worth": 8626,
      "Ġgrandeur": 8627,
      "Ġemployment": 8628,
      "Ġfigures": 8629,
      "Ġburned": 8630,
      "Ġdivided": 8631,
      "Ġcompliments": 8632,
      "Ġsignificant": 8633,
      "keeping": 8634,
      "Ġvillain": 8635,
      "Ġdeserted": 8636,
      "Ġoarsman": 8637,
      "Ġseaman": 8638,
      "Ġmajestic": 8639,
      "saying": 8640,
      "Ġenterprise": 8641,
      "broad": 8642,
      "Ġpalms": 8643,
      "suppose": 8644,
      "Ġprivile": 8645,
      "Ġprepare": 8646,
      "Ġpreparing": 8647,
      "Ġheightened": 8648,
      "Ġfocuses": 8649,
      "Ġhotel": 8650,
      "instant": 8651,
      "Ġpausing": 8652,
      "Ġwandering": 8653,
      "Ġgallant": 8654,
      "Ġbursting": 8655,
      "miserable": 8656,
      "Ġwounded": 8657,
      "advantage": 8658,
      "Ġcloser": 8659,
      "Ġpunct": 8660,
      "Ġuneasy": 8661,
      "Ġwidow": 8662,
      "books": 8663,
      "Ġcivilized": 8664,
      "Ġascended": 8665,
      "Ġbanker": 8666,
      "Ġrecommended": 8667,
      "Ġbeholding": 8668,
      "Ġcustomary": 8669,
      "Ġinduced": 8670,
      "Ġdisturbed": 8671,
      "Ġprisoner": 8672,
      "Ġtorment": 8673,
      "Ġtormented": 8674,
      "continued": 8675,
      "Ġprocured": 8676,
      "Ġtemptation": 8677,
      "Ġsteadfast": 8678,
      "Ġberth": 8679,
      "nearly": 8680,
      "_).âĢĶ": 8681,
      "drive": 8682,
      "Ġrejoiced": 8683,
      "Ġemerged": 8684,
      "sweet": 8685,
      "Ġsoldiers": 8686,
      "breakfast": 8687,
      "harpooneer": 8688,
      "harpooneers": 8689,
      "Ġfowls": 8690,
      "Ġaugment": 8691,
      "Ġplunged": 8692,
      "Ġexhausted": 8693,
      "rowsers": 8694,
      "besides": 8695,
      "pipe": 8696,
      "Ġfatigue": 8697,
      "Ġexclamation": 8698,
      "Ġvapor": 8699,
      "Ġintimacy": 8700,
      "Ġtrembled": 8701,
      "nesday": 8702,
      "Ġmourn": 8703,
      "Ġsymptoms": 8704,
      "Ġambergris": 8705,
      "Ġphantom": 8706,
      "Ġindebted": 8707,
      "Ġnicely": 8708,
      "Ġgentleness": 8709,
      "Ġweighed": 8710,
      "Ġclergyman": 8711,
      "Ġprairie": 8712,
      "Ġventilator": 8713,
      "transformers": 8714,
      "Ġugly": 8715,
      "Ġernest": 8716,
      "bol": 8717,
      "bable": 8718,
      "cim": 8719,
      "cil": 8720,
      "cous": 8721,
      "call": 8722,
      "cord": 8723,
      "cried": 8724,
      "cles": 8725,
      "caught": 8726,
      "dream": 8727,
      "dread": 8728,
      "eon": 8729,
      "ear": 8730,
      "erer": 8731,
      "fro": 8732,
      "fel": 8733,
      "fig": 8734,
      "free": 8735,
      "gain": 8736,
      "glo": 8737,
      "giving": 8738,
      "groom": 8739,
      "hip": 8740,
      "iature": 8741,
      "ique": 8742,
      "iarity": 8743,
      "journey": 8744,
      "lings": 8745,
      "liness": 8746,
      "mult": 8747,
      "mary": 8748,
      "money": 8749,
      "nlp": 8750,
      "oam": 8751,
      "pig": 8752,
      "pul": 8753,
      "pieces": 8754,
      "rat": 8755,
      "sa": 8756,
      "sal": 8757,
      "south": 8758,
      "scho": 8759,
      "tre": 8760,
      "tail": 8761,
      "tone": 8762,
      "uss": 8763,
      "vag": 8764,
      "want": 8765,
      "wild": 8766,
      "wond": 8767,
      "Ġes": 8768,
      "Ġtut": 8769,
      "Ġtapering": 8770,
      "inous": 8771,
      "Ġaught": 8772,
      "Ġsets": 8773,
      "Ġsending": 8774,
      "repe": 8775,
      "onents": 8776,
      "Ġwes": 8777,
      "itious": 8778,
      "Ġcred": 8779,
      "Ġcult": 8780,
      "Ġcared": 8781,
      "anx": 8782,
      "least": 8783,
      "Ġbon": 8784,
      "Ġbrad": 8785,
      "Ġbucket": 8786,
      "oran": 8787,
      "ordered": 8788,
      "Ġfits": 8789,
      "Ġfainted": 8790,
      "Ġdan": 8791,
      "Ġduck": 8792,
      "Ġdiction": 8793,
      "Ġdashing": 8794,
      "Ġpine": 8795,
      "Ġpap": 8796,
      "Ġplu": 8797,
      "Ġpave": 8798,
      "Ġpoured": 8799,
      "Ġpyramid": 8800,
      "Ġink": 8801,
      "alas": 8802,
      "alog": 8803,
      "although": 8804,
      "aloft": 8805,
      "Ġtomb": 8806,
      "Ġnap": 8807,
      "Ġnations": 8808,
      "Ġlift": 8809,
      "Ġliter": 8810,
      "Ġlamb": 8811,
      "Ġlux": 8812,
      "entered": 8813,
      "uts": 8814,
      "uther": 8815,
      "Ġgn": 8816,
      "Ġegg": 8817,
      "stud": 8818,
      "Ġrely": 8819,
      "Ġreus": 8820,
      "igate": 8821,
      "impossible": 8822,
      "Ġstaring": 8823,
      "Ġleaped": 8824,
      "thed": 8825,
      "Ġbeware": 8826,
      "Ġbefall": 8827,
      "iday": 8828,
      "idity": 8829,
      "otent": 8830,
      "Ġisle": 8831,
      "Ġisol": 8832,
      "Ġmead": 8833,
      "ods": 8834,
      "seek": 8835,
      "ulls": 8836,
      "irous": 8837,
      "Ġate": 8838,
      "Ġvault": 8839,
      "Ġsex": 8840,
      "Ġsees": 8841,
      "iality": 8842,
      "pute": 8843,
      "puted": 8844,
      "Ġgracious": 8845,
      "Ġshores": 8846,
      "Ġshirt": 8847,
      "Ġunw": 8848,
      "Ġunspeak": 8849,
      "Ġunnecessary": 8850,
      "Ġloops": 8851,
      "pleased": 8852,
      "Ġparish": 8853,
      "Ġspell": 8854,
      "decl": 8855,
      "Ġcanst": 8856,
      "perceived": 8857,
      "Ġfeather": 8858,
      "Ġprelimin": 8859,
      "Ġchased": 8860,
      "Ġcharity": 8861,
      "Ġabound": 8862,
      "Ġabund": 8863,
      "Ġabroad": 8864,
      "Ġabilities": 8865,
      "Ġscrew": 8866,
      "Ġjoke": 8867,
      "ourse": 8868,
      "Ġmanif": 8869,
      "Ġmanip": 8870,
      "Ġclum": 8871,
      "Ġclub": 8872,
      "Ġperish": 8873,
      "Ġperceiving": 8874,
      "Ġthroughout": 8875,
      "ethics": 8876,
      "exper": 8877,
      "conject": 8878,
      "lower": 8879,
      "Ġthence": 8880,
      "beyond": 8881,
      "begin": 8882,
      "Ġwillingly": 8883,
      "Ġdistinction": 8884,
      "loat": 8885,
      "lost": 8886,
      "axed": 8887,
      "Ġsmells": 8888,
      "Ġcomply": 8889,
      "Ġcomposed": 8890,
      "Ġcomponents": 8891,
      "Ġinterference": 8892,
      "Ġinterior": 8893,
      "Ġpockets": 8894,
      "avast": 8895,
      "accept": 8896,
      "Ġplate": 8897,
      "Ġplant": 8898,
      "Ġplacing": 8899,
      "ernsey": 8900,
      "Ġdescending": 8901,
      "Ġattitude": 8902,
      "Ġattracted": 8903,
      "Ġafric": 8904,
      "actions": 8905,
      "actory": 8906,
      "Ġelij": 8907,
      "Ġraising": 8908,
      "icking": 8909,
      "asked": 8910,
      "Ġhandling": 8911,
      "Ġhandkerchief": 8912,
      "Ġobtain": 8913,
      "Ġyea": 8914,
      "Ġreferred": 8915,
      "Ġeveryone": 8916,
      "ressing": 8917,
      "Ġremote": 8918,
      "Ġskies": 8919,
      "Ġowner": 8920,
      "Ġinvolved": 8921,
      "Ġcolle": 8922,
      "Ġbrick": 8923,
      "Ġbrute": 8924,
      "Ġvanish": 8925,
      "Ġshipmate": 8926,
      "Ġhumans": 8927,
      "Ġincluded": 8928,
      "urable": 8929,
      "Ġsolved": 8930,
      "Ġveins": 8931,
      "Ġvehic": 8932,
      "calm": 8933,
      "Ġheading": 8934,
      "Ġtypes": 8935,
      "introdu": 8936,
      "Ġrepresented": 8937,
      "Ġindirectly": 8938,
      "Ġflowers": 8939,
      "Ġdesirable": 8940,
      "Ġdesirous": 8941,
      "Ġsupplied": 8942,
      "Ġflour": 8943,
      "withstanding": 8944,
      "Ġsuffering": 8945,
      "Ġguinea": 8946,
      "Ġlifeless": 8947,
      "Ġswell": 8948,
      "Ġswallow": 8949,
      "arming": 8950,
      "attended": 8951,
      "Ġslain": 8952,
      "Ġslip": 8953,
      "Ġslack": 8954,
      "desired": 8955,
      "Ġtests": 8956,
      "Ġhorner": 8957,
      "Ġamongst": 8958,
      "Ġlights": 8959,
      "ignor": 8960,
      "Ġsunset": 8961,
      "Ġinfinitely": 8962,
      "Ġrestrain": 8963,
      "Ġtiller": 8964,
      "Ġwalks": 8965,
      "Ġspermaceti": 8966,
      "Ġbreast": 8967,
      "Ġemotions": 8968,
      "Ġintroduction": 8969,
      "Ġconsisting": 8970,
      "Ġrepetition": 8971,
      "Ġsufficiently": 8972,
      "Ġslee": 8973,
      "Ġsleet": 8974,
      "proceed": 8975,
      "Ġsecurity": 8976,
      "Ġanimals": 8977,
      "Ġcats": 8978,
      "Ġadjusts": 8979,
      "Ġsurgeon": 8980,
      "Ġexpressive": 8981,
      "Ġdestiny": 8982,
      "disappo": 8983,
      "Ġsweeping": 8984,
      "Ġadmitted": 8985,
      "Ġwarmly": 8986,
      "Ġextremity": 8987,
      "bright": 8988,
      "Ġcrews": 8989,
      "Ġorganize": 8990,
      "Ġrecognised": 8991,
      "party": 8992,
      "Ġpolitely": 8993,
      "Ġopium": 8994,
      "Ġstriving": 8995,
      "Ġcompleted": 8996,
      "Ġmercy": 8997,
      "Ġinquiring": 8998,
      "Ġdenied": 8999,
      "Ġdenny": 9000,
      "Ġbarred": 9001,
      "Ġhaste": 9002,
      "Ġhastened": 9003,
      "pron": 9004,
      "didn": 9005,
      "glad": 9006,
      "Ġportra": 9007,
      "Ġlucases": 9008,
      "ourselves": 9009,
      "Ġbreathe": 9010,
      "Ġfrozen": 9011,
      "thinking": 9012,
      "Ġballs": 9013,
      "Ġindependent": 9014,
      "Ġstraightway": 9015,
      "Ġsnowy": 9016,
      "Ġfurnish": 9017,
      "Ġevils": 9018,
      "Ġrepeatedly": 9019,
      "iffs": 9020,
      "likely": 9021,
      "clear": 9022,
      "Ġwednesday": 9023,
      "Ġsafely": 9024,
      "Ġwretchedness": 9025,
      "Ġlaughter": 9026,
      "Ġyourselves": 9027,
      "Ġmildly": 9028,
      "Ġcounty": 9029,
      "Ġwander": 9030,
      "Ġdrops": 9031,
      "Ġattentive": 9032,
      "Ġannounced": 9033,
      "Ġentreaties": 9034,
      "Ġunearthly": 9035,
      "minded": 9036,
      "Ġenemies": 9037,
      "Ġinjured": 9038,
      "Ġdebated": 9039,
      "expressed": 9040,
      "Ġinvestigation": 9041,
      "Ġapolog": 9042,
      "Ġvacancy": 9043,
      "Ġblew": 9044,
      "foot": 9045,
      "fool": 9046,
      "marked": 9047,
      "Ġingen": 9048,
      "Ġshudder": 9049,
      "Ġshuddering": 9050,
      "Ġabhorrence": 9051,
      "Ġgrinning": 9052,
      "Ġsecrets": 9053,
      "children": 9054,
      "Ġtempted": 9055,
      "clothes": 9056,
      "Ġwarning": 9057,
      "rolled": 9058,
      "rolling": 9059,
      "Ġcommunicated": 9060,
      "Ġsuspected": 9061,
      "Ġcongratulate": 9062,
      "concerning": 9063,
      "Ġtorture": 9064,
      "Ġwhistle": 9065,
[...]
