{
  "metadata": {
    "vocab_size": 26616,
    "algorithm": "BPE",
    "created_at": "2026-04-26 04:58:28",
    "special_tokens": [
      "<PAD>",
      "<SOS>",
      "<EOS>",
      "<UNK>",
      "<MASK>"
    ]
  },
  "vocab": {
    "Ġmonoton": 3636,
    "Ġchicha": 15940,
    "Ġentire": 2559,
    "prev": 12873,
    "Ġinfant": 11963,
    "ression": 3406,
    "Ġglut": 18855,
    "Ġlong": 797,
    "Ġregulate": 22590,
    "Ġreceiving": 4882,
    "Ġfrequ": 3326,
    "abulary": 4800,
    "Ġcemeteries": 26377,
    "outside": 12810,
    "Ġproportion": 7279,
    "cription": 20820,
    "intolerable": 22942,
    "Ġcapst": 8599,
    "D": 40,
    "Ġseptember": 18207,
    "Ġplay": 2624,
    "indirectly": 18438,
    "Ġlane": 5627,
    "Ġwaters": 3596,
    "agony": 14072,
    "Ġpatagonia": 25859,
    "haired": 14770,
    "evid": 11488,
    "discrimin": 19610,
    "furthest": 19842,
    "hereafter": 19219,
    "ugl": 23293,
    "Ġattends": 19652,
    "fixedly": 24930,
    "Ġproportions": 16470,
    "Ġindul": 5857,
    "painting": 17047,
    "Ġcomputing": 2219,
    "deck": 4500,
    "clever": 20815,
    "Ġcontraction": 16012,
    "Ġjet": 5309,
    "sweep": 24615,
    "specim": 23948,
    "Ġconclusions": 10556,
    "Ġseedy": 21960,
    "Ġjoined": 4563,
    "Ġretort": 23073,
    "Ġdoesn": 7436,
    "enjoyments": 25434,
    "Ġdreamy": 14707,
    "Ġfiercely": 12957,
    "ped": 6963,
    "ede": 21509,
    "Ġconfines": 23309,
    "brimmed": 14591,
    "Ġassoc": 6401,
    "Ġapoplexy": 25266,
    "Ġimmediate": 6089,
    "scythes": 26404,
    "Ġnuptial": 25783,
    "asional": 17963,
    "Ġcastles": 16642,
    "Ġkramm": 26235,
    "flukes": 25206,
    "Ġsperm": 1842,
    "Ġunconsc": 6552,
    "Ġjustice": 5111,
    "Ġprinciples": 10014,
    "being": 3912,
    "imental": 16536,
    "Ġsuccor": 25663,
    "Ġexceedingly": 4614,
    "Ġtropical": 17067,
    "wling": 11548,
    "exper": 8882,
    "Ġcustoms": 19654,
    "Ġworsted": 19997,
    "acies": 14282,
    "Ġgul": 7859,
    "angling": 14144,
    "wil": 8769,
    "surround": 16760,
    "Ġninety": 13604,
    "Ġbenjam": 22894,
    "Ġglimp": 6066,
    "Ġheap": 12684,
    "Ġincalcul": 16067,
    "gir": 8082,
    "azz": 8261,
    "Ġrepair": 11983,
    "Ġ91": 24591,
    "Ġperish": 8878,
    "Ġcrammed": 16473,
    "Ġdegree": 3702,
    "Ġabound": 8868,
    "Ġmoving": 1679,
    ",*": 17474,
    "column": 19331,
    "Ġendued": 14080,
    "Ġdeliver": 9851,
    "bern": 20777,
    "ulus": 21868,
    "placed": 7879,
    "Ç": 136,
    "Ġsaves": 18325,
    "gates": 20874,
    "Ġextra": 4054,
    "Ġfainted": 8796,
    "Ġclosely": 6487,
    "Ġwindward": 6884,
    "Ġrings": 11706,
    "Ġcoffee": 6760,
    "bedstead": 23936,
    "Ġap": 5008,
    "squee": 15433,
    "https": 11689,
    "batt": 20780,
    "Ġarbitrary": 4736,
    "ittingly": 18808,
    "#": 7,
    "Ġexecute": 7504,
    "Ġsiamese": 20485,
    "Ġpropriety": 10013,
    "virt": 15454,
    "Ġcaved": 21356,
    "Ġleaped": 8829,
    "Ġvisitors": 7984,
    "Ġwow": 15532,
    "orn": 2244,
    "utility": 21590,
    "thur": 7186,
    "ider": 21769,
    "Ġconcerns": 11972,
    "Ġpractical": 3165,
    "Ġunprepared": 22052,
    "Ġunb": 10909,
    "Ġcandelab": 23853,
    "inese": 12879,
    "pleasanter": 24052,
    "inkers": 22618,
    "binder": 17502,
    "sprit": 11385,
    "Ġchagrin": 20610,
    "Ġdiscount": 22786,
    "Ġcontrived": 10306,
    "Ġcongregational": 25105,
    "Ġnumberless": 16419,
    "attest": 23126,
    "Ġdeserves": 13293,
    "oe": 7551,
    "Ġbawling": 25946,
    "tie": 21071,
    "Ġwatched": 6297,
    "ario": 14251,
    "congratulations": 20281,
    "Ġdesertion": 24786,
    "mira": 20981,
    "Ġdiary": 24737,
    "Ġpicking": 11261,
    "Ġtarpaul": 17732,
    "between": 5071,
    "ety": 3520,
    "Ġparis": 8178,
    "Ġtarn": 21161,
    "owners": 16091,
    "ĠâĢĺ": 1635,
    "Ġordering": 18998,
    "]": 65,
    "Ġinfat": 14502,
    "Ġingen": 9052,
    "atical": 10773,
    "Ġpresentiment": 18989,
    "intments": 18823,
    "Ġimprobable": 9798,
    "Ġtomahawk": 7538,
    "ority": 8418,
    "plumed": 21966,
    "benefact": 24643,
    "Ġunremitting": 26219,
    "Ġcompacted": 23513,
    "complet": 11386,
    "Ġorlop": 22097,
    "shire": 3025,
    "Ġchests": 19673,
    "kill": 13747,
    "Ġgranted": 22810,
    "Ġhold": 2245,
    "Ġhaunted": 10256,
    "Ġconsume": 12964,
    "lizzy": 6653,
    "Ġcommunicated": 9064,
    "Ġseizure": 21962,
    "iam": 2508,
    "Ġbesides": 3513,
    "securer": 25603,
    "Ġgull": 15674,
    "Ġsincerity": 13682,
    "maintained": 25023,
    "Ġdepressed": 10884,
    "ump": 2284,
    "whaler": 20311,
    "Ġangry": 5498,
    "office": 16400,
    "Ġprophesy": 26062,
    "Ġpoul": 15617,
    "Ġlottery": 19889,
    "ortations": 22263,
    "Ġensue": 18192,
    "insisted": 23070,
    "Ġshuddered": 11303,
    "Ġplanets": 24062,
    "ynolds": 10039,
    "Ġpractices": 19072,
    "expression": 10550,
    "foremost": 14256,
    "accuracy": 9882,
    "examined": 17269,
    "Ġserves": 4669,
    "Ġyork": 11669,
    "Ġrecommendation": 17027,
    "Ġoccup": 3738,
    "Ġtrampled": 20330,
    "Ġshouts": 19540,
    "Ġvault": 8845,
    "Ġshrink": 14808,
    "liber": 18816,
    "conclude": 24072,
    "Ġsteak": 9832,
    "falsehood": 25902,
    "Ġspoilt": 24804,
    "ginger": 13166,
    "Ġplants": 22604,
    "Ġgoble": 14233,
    "Ġcarefully": 6304,
    "Ġsettle": 6293,
    "Ġnonce": 23239,
    "Ġlangs": 13957,
    "Ġacc": 569,
    "Ġfergus": 16869,
    "Ġflamingo": 15105,
    "day": 1857,
    "ouch": 2778,
    "Ġswimmer": 19462,
    "Ġperu": 14220,
    "Ġweave": 21925,
    "prepare": 20214,
    "<MASK>": 4,
    "Ġstumped": 24945,
    "Ġbeeches": 9229,
    "Ġlandowner": 23385,
    "near": 5843,
    "Ó": 148,
    "tier": 12519,
    "Ġanointing": 25540,
    "Ġinfinitely": 8966,
    "Ġwildly": 9416,
    "welcomed": 24646,
    "Ġunappe": 22020,
    "Ġfrocks": 23927,
    "Ġboun": 21383,
    "Ġwindows": 4971,
    "disciple": 16780,
    "Ġstraggling": 23755,
    "Ġhook": 6452,
    "Ġacutely": 14318,
    "buffalo": 20566,
    "icism": 13959,
    "Ġcatching": 9480,
    "Ġcarpenter": 4685,
    "Ġempty": 5354,
    "Ġoverlooked": 15977,
    "Ġcoer": 22582,
    "Ġmole": 11796,
    "discoloured": 23503,
    "Ġwarmed": 12028,
    "oundered": 14168,
    "individual": 18437,
    "Ġgust": 21600,
    "Ġlive": 2732,
    "Ġclapham": 17268,
    "street": 6494,
    "knew": 9129,
    "Ġdomain": 3392,
    "Ġsgd": 3132,
    "Ġsharpened": 17368,
    "Ġquarrelling": 13501,
    "intosh": 22944,
    "Ġstab": 10864,
    "derest": 18315,
    "Ġender": 11695,
    "Ġseaward": 22951,
    "Ġprimary": 25063,
    "Ġvineyards": 25109,
    "Ġdomineer": 23652,
    "Ġstruct": 786,
    "Ġoppress": 13175,
    "jet": 13745,
    "Ġdecisions": 6703,
    "Ġneedn": 19231,
    "sought": 15430,
    "queness": 18151,
    "Ġvapors": 19909,
    "vis": 4576,
    "orand": 21400,
    "Ġconfederate": 17356,
    "masculine": 24388,
    "loath": 22513,
    "Ġcloudy": 19480,
    "Ġhearts": 4972,
    "Ġmodes": 22216,
    "idean": 14266,
    "Ġconfl": 11139,
    "Ġmaz": 15546,
    "Ġmeek": 21816,
    "Ġwithdrew": 9699,
    "serv": 7449,
    "Ġrepel": 23363,
    "scores": 22996,
    "Ġsoot": 14135,
    "Ġtransported": 11282,
    "sigma": 3005,
    "izard": 10885,
    "ampl": 21846,
    "Ġcasement": 25095,
    "clopÃ¦": 13060,
    "plac": 15824,
    "Ġharmony": 16816,
    "Ġtrifling": 10605,
    "az": 2183,
    "ors": 854,
    "âĢĶâĢľ": 2970,
    "ashes": 6015,
    "inously": 21189,
    "Ġlimp": 19182,
    "somerset": 26324,
    "Ġfunere": 22261,
    "chari": 21692,
    "Ġexperiments": 23027,
    "vid": 914,
    "osure": 5308,
    "ancholy": 5070,
    "vard": 21113,
    "previous": 9763,
    "congreg": 25399,
    "Ġyarns": 15200,
    "ments": 1402,
    "Ġhabitations": 24788,
    "Ġpresently": 5116,
    "orm": 425,
    "regards": 23469,
    "Ġpoky": 21481,
    "Ġherself": 1571,
    "Ġlaws": 8002,
    "Ġcoron": 4463,
    "avers": 17483,
    "ophisticated": 22482,
    "Ġinward": 11611,
    "suitableness": 26262,
    "Ġsy": 490,
    "pits": 15415,
    "Ġdocks": 14181,
    "cturn": 17990,
    "virtue": 20572,
    "pires": 13778,
    "Ġcaliforn": 14435,
    "Ġcircumference": 13547,
    "Ġalice": 1486,
    "dwell": 15345,
    "Ġoutline": 15958,
    "Ġeffaced": 18520,
    "passenger": 24170,
    "blacksmith": 17003,
    "Ġbusiness": 2232,
    "venty": 6426,
    "Ġxx": 5492,
    "Ġnapkins": 25165,
    "mechan": 11862,
    "where": 2093,
    "allic": 12818,
    "Ġsmack": 9303,
    "Ġcommunicates": 24548,
    "Ġevent": 2948,
    "ineffectual": 26506,
    "Ġcopying": 17070,
    "pres": 16028,
    "cated": 20805,
    "Ġsecondly": 14520,
    "alterable": 13627,
    "uguese": 20734,
    "Ġdeficient": 18827,
    "Ġleaving": 3903,
    "Ġlucifers": 16590,
    "Ġanalyze": 1610,
    "ze": 1322,
    "Ġscope": 15947,
    "Ġskirt": 18730,
    "Ġmonument": 16241,
    "Ġinstructive": 19288,
    "ingley": 1551,
    "ivened": 22969,
    "Ġpitiless": 19391,
    "Ġsnows": 14730,
    "Ġcommitting": 22676,
    "hood": 2657,
    "Ġpersever": 10006,
    "Ġspect": 3552,
    "Ġloose": 4649,
    "Ġholiday": 13002,
    "Ġmoulton": 17438,
    "sig": 2871,
    "im": 327,
    "Ġresponded": 13641,
    "adequate": 15208,
    "Ġthoughtless": 16196,
    "dressed": 10697,
    "Ġxxx": 7765,
    "Ġdeigned": 18142,
    "Ġindisposed": 26289,
    "Ġbour": 4876,
    "traced": 19647,
    "Ġbackwards": 12931,
    "ouched": 4637,
    "Ġgaiters": 20463,
    "ain": 343,
    "Ġcollateral": 20074,
    "Ġcalm": 3446,
    "absolutely": 10648,
    "decan": 22145,
    "Ġpopular": 6217,
    "Ġsense": 3251,
    "arms": 10176,
    "bed": 3490,
    "throughout": 24093,
    "Ġheadsmen": 14736,
    "pennies": 26287,
    "Ġlonged": 6435,
    "Ġinconveniences": 24942,
    "aled": 3942,
    "Ġequatorial": 13511,
    "ghan": 19458,
    "conced": 22474,
    "Ġloitered": 26527,
    "reated": 10305,
    "farewell": 12310,
    "Ġdependency": 3487,
    "Ġblending": 14405,
    "Ġconn": 9232,
    "Ġprejudice": 9078,
    "Ġdeposit": 17271,
    "Ġcoco": 11002,
    "Ġmusk": 7493,
    "Ġravine": 18651,
    "rics": 13042,
    "ensing": 12902,
    "mbles": 23092,
    "Ġcomplexity": 1696,
    "Ġstrictly": 12289,
    "Ġmethodology": 2230,
    "Ĭ": 237,
    "Ġscru": 8189,
    "equ": 6790,
    "so": 889,
    "Ġlabourers": 23335,
    "Ġseveral": 2671,
    "Ġsuggestion": 19709,
    "Ġwillingness": 24911,
    "Ġupon": 719,
    "Ġbeard": 11659,
    "Ġsuite": 18277,
    "Ġsanely": 24983,
    "Ġsummoned": 9914,
    "nothing": 3155,
    "Ġformality": 22835,
    "bitt": 17488,
    "Ġbehaviors": 13258,
    "Ġpistol": 7846,
    "wishes": 13810,
    "Ġramsgate": 18652,
    "Ġcontradictory": 20399,
    "Ġwhaleman": 4655,
    "Ġdecanting": 22447,
    "Ġconfirms": 23313,
    "Ġalgorith": 561,
    "Ġfairer": 20464,
    "Ġelucidated": 26030,
    "Ġsun": 1719,
    "Ġcontributes": 15254,
    "Ġhymn": 24519,
    "Ġbrazier": 26322,
    "Ġstalls": 25648,
    "mai": 22917,
    "Ġpupella": 20424,
    "bowing": 24455,
    "Ġjapan": 7639,
    "annica": 24563,
    "Ġfunction": 586,
    "Ġdoxology": 22248,
    "Ġextremest": 19197,
    "Ġperfect": 2556,
    "abounding": 25980,
    "Ġearn": 3547,
    "iring": 1708,
    "Ġelevation": 14903,
    "Ġhval": 21491,
    "'m": 9585,
    "Ġvideos": 13609,
    "Ġexter": 7395,
    "makers": 20984,
    "||": 4869,
    "town": 7142,
    "Ġbathing": 20201,
    "Ġhardware": 4904,
    "Ġantiqu": 12149,
    "frankly": 20024,
    "caused": 25520,
    "Ġsubproblems": 12962,
    "keenest": 25662,
    "Ń": 260,
    "Ġsprained": 15887,
    "wandering": 20286,
    "Ġpersisting": 18884,
    "Ġphotography": 24683,
    "Ġharbour": 19982,
    "Ġjagged": 18408,
    "Ġeulogy": 26472,
    "Ġblessed": 6930,
    "Ġdav": 15594,
    "Ġguineas": 16275,
    "Ġplug": 17150,
    "Ġrespects": 7267,
    "Ġmen": 1437,
    "Ġprevailed": 7776,
    "Ġchange": 1993,
    "Ġfluke": 14677,
    "uncontrollable": 20599,
    "Ġdistended": 16048,
    "Ġbrows": 13304,
    "Ġmethod": 1425,
    "syntax": 5867,
    "Ġbarely": 16938,
    "Ġagitates": 22521,
    "hol": 3838,
    "supernatural": 19780,
    "Ġforty": 5719,
    "Ġostlers": 25277,
    "ciousness": 20819,
    "floating": 12232,
    "arches": 10818,
    "Ġgovernor": 16492,
    "Ġepis": 19984,
    "Ġwarnings": 16883,
    "Ġducking": 17149,
    "Ġnur": 5710,
    "uled": 11540,
    "inlaid": 21193,
    "Ġ110": 24436,
    "Ġimmemorially": 25384,
    "accident": 11184,
    "Ġshoreless": 24298,
    "triumph": 15443,
    "stalk": 21653,
    "Ġconcepts": 4550,
    "gence": 876,
    "bles": 7018,
    "unwilling": 14064,
    "Ġplantation": 11426,
    "Ġchall": 10946,
    "Ġinevitably": 17233,
    "Ġopenness": 18959,
    "Ġquick": 2581,
    "Ġflush": 14428,
    "Ġbowed": 6243,
    "Ġinadequate": 17940,
    "Ġconsequ": 6255,
    "Ġaccumulates": 2886,
    "Ġsaturn": 22905,
    "died": 11483,
    "Ġdines": 21426,
    "Ġconversing": 14636,
    "Ġbored": 16109,
    "Ġfactory": 23281,
    "lu": 597,
    "meadow": 18680,
    "Ġtides": 13824,
    "Ġhull": 5446,
    "raltar": 24237,
    "Ġcomfits": 21856,
    "Ġrepe": 3280,
    "longing": 23730,
    "Ġdifferent": 1431,
    "Ġimbec": 14160,
    "Ġmarble": 7668,
    "illa": 12799,
    "volut": 1565,
    "Ġharvard": 24575,
    "Ġjoint": 12038,
    "Ġcourting": 23295,
    "Ġmug": 21315,
    "Ġrobbed": 23036,
    "flood": 19808,
    "Ġlizz": 21560,
    "Ġcomo": 21851,
    "Ġrepeat": 7999,
    "Ġviolation": 23410,
    "histicated": 20903,
    "Ġbehaves": 23304,
    "Ġsweatings": 25709,
    "preserver": 20215,
    "Ġexplored": 23522,
    "Ġprofund": 13156,
    "inction": 6662,
    "assisted": 22311,
    "Ġedges": 3825,
    "Ġhabits": 6925,
    "Ġfixing": 13159,
    "Ġexaggerated": 25651,
    "Ġentangled": 10346,
    "Ġpassed": 2011,
    "humiliation": 24025,
    "Ġcontemplate": 19893,
    "Ġsermons": 20196,
    "roofed": 26185,
    "Ġordered": 5833,
    "yea": 23091,
    "insulting": 26056,
    "Ġverdant": 15005,
    "Ġdegrees": 7292,
    "propriety": 14368,
    "Ġsit": 4213,
    "nx": 17609,
    "honest": 17005,
    "Ġrele": 2914,
    "ornament": 23493,
    "cery": 20810,
    "ryphon": 4161,
    "Ġcaged": 21355,
    "fere": 10991,
    "Ġcentre": 5123,
    "our": 534,
    "iction": 4266,
    "Ġaccomplished": 7104,
    "Ġth": 299,
    "iness": 1281,
    "bye": 5949,
    "Ġcovariate": 2350,
    "Ġloud": 4701,
    "Ġyounger": 5253,
    "Ġtraitors": 23080,
    "Ġfar": 1453,
    "Ġelbowed": 16113,
    "Ġexcitement": 9384,
    "Ġforgiven": 24031,
    "Ġfewer": 16232,
    "try": 7811,
    "ahead": 12438,
    "Ġlawyers": 25249,
    "reckoning": 25271,
    "ithmetic": 18065,
    "industrious": 26241,
    "nns": 1893,
    "Ġskip": 1844,
    "heavenly": 20047,
    "Ġergo": 25032,
    "Ġdecreases": 3410,
    "Ġheedless": 14907,
    "sw": 4741,
    "Ġmultipl": 2789,
    "resemblance": 25934,
    "rd": 17651,
    "oriental": 23724,
    "Ġblight": 18820,
    "ouching": 13180,
    "Ġbethinking": 25280,
    "Ġspleen": 26423,
    "inv": 8401,
    "Ġanteced": 26178,
    "onom": 9161,
    "Ġshoe": 14571,
    "Ġwhoa": 22426,
    "swam": 24258,
    "Ġrecollections": 10515,
    "Ġadver": 5641,
    "Ġmississippi": 20727,
    "Ġbubb": 12590,
    "Ġreaction": 15699,
    "why": 2826,
    "Ġflanks": 11919,
    "ald": 15629,
    "Ġroods": 22408,
    "Ġovertook": 18430,
    "Ġmysticetus": 24923,
    "Ġsink": 4338,
    "Ġdesperate": 7775,
    "Ġdebility": 24276,
    "especially": 3573,
    "Ġholland": 10368,
    "Ġonce": 1493,
    "philosophers": 25253,
    "Ġobstructed": 22704,
    "Ġmetropolis": 17277,
    "Ġcows": 15557,
    "latter": 15386,
    "Ġforthwith": 16620,
    "Ġcleaving": 23186,
    "Ġpertur": 12856,
    "Ġjar": 15954,
    "Ġscuttle": 7412,
    "Ġcrimin": 6900,
    "Ġloathed": 15879,
    "Ġlxi": 21564,
    "Ġsensitivity": 3074,
    "Ġregards": 16081,
    "ontory": 10461,
    "Ġbrains": 2628,
    "Ġmuster": 16126,
    "Ġnewly": 9341,
    "anite": 17840,
    "rit": 21038,
    "Ġcare": 1641,
    "Ġpond": 13919,
    "Ġtoad": 21513,
    "Ġresearch": 3194,
    "illar": 5101,
    "Ġcheever": 23288,
    "Ġindividuals": 24547,
    "cooks": 25070,
    "Ġfollows": 7672,
    "Ġsole": 3296,
    "disapprobation": 19159,
    "tremendous": 20676,
    "uccas": 21109,
    "shortly": 12263,
    "pretend": 24883,
    "Ġrejected": 12298,
    "Ġpeaceful": 9458,
    "ai": 2526,
    "Ġmisfortune": 5569,
    "Ġmorris": 18846,
    "Ġthistle": 21921,
    "Ġaggregated": 25679,
    "Ġhalting": 16278,
    "my": 1317,
    "ival": 4224,
    "causes": 20345,
    "Ġlinn": 13956,
    "Ġbor": 5805,
    "Ġdecomp": 3810,
    "Ġobserved": 3541,
    "asant": 17962,
    "Ġmanner": 2197,
    "Ġreader": 11938,
    "ters": 1576,
    "declaration": 25176,
    "Ġclub": 8877,
    "fifth": 20148,
    "atively": 2694,
    "Ġsplendidly": 25328,
    "luent": 16000,
    "Ġtiar": 21170,
    "Ġisland": 4047,
    "odhead": 18121,
    "reach": 17760,
    "boast": 23257,
    "Ġfisherman": 12080,
    "generally": 9437,
    "Ġwant": 1117,
    "Ġreach": 4045,
    "Ġinstruction": 14348,
    "iger": 8447,
    "cable": 20799,
    "Ġbegg": 16255,
    "thy": 2932,
    "Ġmirth": 15549,
    "mediate": 16516,
    "security": 26208,
    "Ġmarks": 6747,
    "Ġcherub": 23291,
    "Ġtransformations": 3484,
    "Ġpeter": 10538,
    "rees": 5436,
    "Ġbridge": 8348,
    "Ġdestructive": 23489,
    "Ġtow": 4393,
    "tail": 8765,
    "diversity": 25898,
    "Ġmagic": 8232,
    "Ġunforeseen": 22055,
    "resc": 21241,
    "Ġbul": 3292,
    "pos": 15413,
    "Ġpastures": 23424,
    "Ġmariners": 6068,
    "Ġbene": 2032,
    "Ġperished": 11785,
    "isition": 11590,
    "Ġbachelors": 24861,
    "xim": 1095,
    "Ġaccidental": 16850,
    "Ġsurpassing": 20470,
    "Ġpretence": 13210,
    "ounding": 22388,
    "Ġgenius": 8045,
    "Ġaffairs": 6876,
    "Ġcorrection": 5062,
    "Ġhunks": 18939,
    "leaving": 10793,
    "Ġmeals": 12717,
    "Ġsimilarly": 24311,
    "Ġgiants": 25961,
    "iancy": 13013,
    "related": 24016,
    "conditionally": 24835,
    "Ġbeer": 10222,
    "Ġstubborn": 10416,
    "Ġdeduced": 12212,
    "romeda": 17265,
    "fairly": 17222,
    "tenderly": 20534,
    "Ġcompact": 2263,
    "pest": 6964,
    "ily": 1035,
    "pence": 15412,
    "Ġerecting": 24654,
    "Ġproposed": 7458,
    "Ġoptimization": 1430,
    "itute": 9654,
    "Ġschoolboys": 24482,
    "Ġconvergence": 970,
    "range": 3494,
    "Ġtor": 8105,
    "ried": 924,
    "Ġmagnetic": 17243,
    "Ġpang": 15609,
    "Ġthames": 13941,
    "Ġfevers": 22213,
    "wicked": 24450,
    "oded": 11673,
    "hering": 12820,
    "Ġrejection": 19986,
    "christian": 17235,
    "Ġshaved": 22007,
    "Ġcooper": 16079,
    "rese": 15511,
    "Ġclass": 774,
    "ravelled": 18018,
    "yingly": 23122,
    "heading": 5487,
    "Ġemerge": 14932,
    "Ġenticing": 22750,
    "Ġhushed": 13928,
    "cuniary": 26381,
    "eaten": 20346,
    "brimming": 23579,
    "Ġland": 1997,
    "Ġhumbug": 18781,
    "Ġsacrificed": 17425,
    "oid": 3129,
    "Ġattic": 16099,
    "Ġ184": 16609,
    "Ġnominal": 15173,
    "Ġinfinity": 23286,
    "Ġattentively": 9953,
    "Ġportent": 12086,
    "Ġnervous": 2406,
    "Ġcadiz": 17328,
    "Ġstudied": 11118,
    "remembered": 17354,
    "Ġpencil": 11947,
    "sutherland": 21065,
    "Ġdinah": 9456,
    "tuesday": 17692,
    "Ġflap": 14426,
    "Ġherring": 14130,
    "Ě": 219,
    "Ġfondness": 16782,
    "Ġrepaid": 19082,
    "Ġnom": 21522,
    "drawn": 9916,
    "lad": 5991,
    "pitching": 24080,
    "after": 2892,
    "Ġprognost": 15285,
    "determine": 19946,
    "ville": 6087,
    "brated": 12031,
    "nest": 10116,
    "Ġspecial": 2103,
    "Ġfeeling": 3088,
    "Ġarrives": 23610,
    "halfway": 24314,
    "nails": 17616,
    "pagans": 25526,
    "Ġcreeping": 18686,
    "Ġbeating": 8144,
    "hearted": 6970,
    "Ġfamily": 1966,
    "rapt": 13976,
    "Ġresource": 10995,
    "moving": 11019,
    "Ġsaucer": 20608,
    "Ġ135": 24784,
    "Ġdisk": 22526,
    "Ġceremonious": 24838,
    "Ġorganizations": 12318,
    "Ġtalks": 23374,
    "Ġbarrier": 16572,
    "becomes": 22501,
    "Ġnames": 4532,
    "Ġmonsters": 11076,
    "Ġpersonified": 19180,
    "Ġchin": 4891,
    "nut": 12499,
    "Ġsubsiding": 23438,
    "Ġval": 983,
    "Ġschedule": 2374,
    "Ġsamuel": 10036,
    "Ġembarks": 22970,
    "astern": 8583,
    "Ġdelights": 14599,
    "limping": 26395,
    "oors": 17622,
    "thinks": 16644,
    "Ġlearned": 2024,
    "Ġgallied": 19557,
    "Ġenlist": 21941,
    "atum": 21262,
    "alloyed": 22200,
    "Ġdoubting": 13103,
    "presently": 9812,
    "Ġacquaint": 13049,
    "Ġjuggler": 26368,
    "obedience": 17413,
    "burst": 10540,
    "opp": 6962,
    "Ġrested": 9382,
    "Ġspeed": 2447,
    "spikes": 10344,
    "gy": 2097,
    "Ġlegit": 16475,
    "Ġcomposition": 1689,
    "mis": 4520,
    "Ġregain": 22589,
    "C": 39,
    "Ġexert": 5722,
    "Ġresiding": 16065,
    "Ġsilly": 7685,
    "skinned": 25388,
    "bled": 5469,
    "resist": 8275,
    "Ġnoticed": 5549,
    "Ġage": 3895,
    "merit": 19284,
    "affording": 23781,
    "Ġlocker": 16913,
    "Ġstructured": 2973,
    "support": 9471,
    "stocks": 23825,
    "eding": 7164,
    "Ġedged": 23492,
    "adieu": 26202,
    "Ġsketch": 16169,
    ",": 16,
    "reast": 17761,
    "Ġincarnation": 25574,
    "disgrace": 16461,
    "yonder": 21147,
    "Ġbounding": 19403,
    "Ġevidently": 6759,
    "Ġjewell": 19523,
    "Ġslept": 8258,
    "imson": 12695,
    "Ġshortly": 6197,
    "Ġgallant": 8657,
    "Ġinsects": 25647,
    "tashtego": 9625,
    "oftentimes": 19424,
    "bones": 8371,
    "Ġhorror": 3770,
    "gammon": 20245,
    "Ġplaning": 22607,
    "Ġbestow": 6454,
    "Ġwinged": 16997,
    "ĉ": 202,
    "Ġlicense": 20093,
    "Ġsmitten": 12905,
    "ounder": 11749,
    "unfortunate": 15781,
    "Ġscorch": 20067,
    "Ġgifted": 18000,
    "Ġdelicate": 6479,
    "light": 3021,
    "Ġbeautiful": 3671,
    "Ġnevertheless": 5040,
    "Ġpossessed": 5195,
    "Ġconcluding": 9860,
    "Ġloop": 14150,
    "Ġinterposed": 20622,
    "Ġheadstrong": 14392,
    "erpillar": 5798,
    "ubines": 22963,
    "crews": 15046,
    "ger": 1106,
    "Ġparish": 8858,
    "Ġabilities": 8871,
    "rah": 8136,
    "Ġmour": 6973,
    "stolen": 13985,
    "âĢĶ.": 11760,
    "Ġstopping": 2746,
    "Ġdiscern": 7925,
    "stays": 15693,
    "Ġwounding": 19588,
    "Ġsooty": 25816,
    "ô": 181,
    "Ġrevive": 13482,
    "insurance": 18889,
    "icip": 6388,
    "Ġmenacing": 23114,
    "Ġfalse": 4341,
    "Ġinj": 4760,
    "Ġveget": 11891,
    "Ġdl": 3375,
    "andes": 18155,
    "Ġelias": 18635,
    "Ġtrim": 15972,
    "exceed": 7910,
    "Ġtrail": 16286,
    "unnatural": 15777,
    "Ġrudder": 25110,
    "heav": 5694,
    "Ġdomineering": 23653,
    "Ġ113": 19698,
    "Ġgenerous": 6272,
    "Ġbathed": 17868,
    "Ġsaturation": 2062,
    "whisper": 17084,
    "Ġscreaming": 13426,
    "whole": 6085,
    "Ġportions": 19372,
    "Ġvivacious": 19817,
    "expectations": 24280,
    "quin": 21857,
    "Ġdawned": 14998,
    "Ġapparel": 20438,
    "Ġtransform": 752,
    "advantages": 11274,
    "Ġinsolent": 13603,
    "lied": 6506,
    "Ġpaws": 13924,
    "leg": 2810,
    "Ġpitiful": 13242,
    "gments": 12474,
    "Ġallowing": 2176,
    "Ġthroughout": 8880,
    "Ġacid": 22685,
    "Ġprofound": 5497,
    "Ġtechnique": 2401,
    "frantic": 24286,
    "urmountable": 15283,
    "hunting": 24386,
    "Ġpap": 8802,
    "Ġcommanders": 23872,
    "traces": 24337,
    "Ġworn": 6444,
    "Ġcreditor": 24293,
    "Ġhis": 381,
    "Ġtahitian": 25428,
    "Ġtakes": 5007,
    "ply": 6365,
    "retrie": 18926,
    "Ġpreluding": 18369,
    "dragging": 16611,
    "importance": 9992,
    "Ġhoarsely": 26303,
    "Ġcount": 1814,
    "Ġcrow": 3804,
    "Ġstarboard": 7607,
    "Ġjamming": 17267,
    "K": 47,
    "Ġcholera": 22257,
    "Ġregard": 3071,
    "confused": 19641,
    "Ġnimble": 21531,
    "Ġmutable": 23959,
    "Ġswarming": 16276,
    "ike": 5000,
    "ult": 722,
    "Ġslackened": 15131,
    "supers": 22638,
    "libra": 22929,
    "Ġlarge": 1068,
    "Ġworker": 23033,
    "Ġarrive": 6906,
    "Ġscrewed": 15125,
    "Ġunallied": 22034,
    "rucastle": 22203,
    "Ġexhaust": 6398,
    "Ġanyone": 4458,
    "Ġslipped": 6491,
    "sounded": 12271,
    "spass": 18690,
    "windows": 19537,
    "Ġfulfilled": 11365,
    "Ġpowers": 5419,
    "Ġtyro": 16996,
    "Ġtails": 9905,
    "Ġexclusion": 19399,
    "Ġoffend": 16148,
    "Ö": 151,
    "Ġabode": 7900,
    "iogn": 20923,
    "clock": 3931,
    "Ġcust": 11586,
    "Ġcompar": 4771,
    "gall": 6359,
    "stalls": 26475,
    "Ġfolds": 12211,
    "Ġ11": 5319,
    "mar": 4332,
    "an": 278,
    "Ġbeaks": 21759,
    "while": 2933,
    "Ġabominable": 12326,
    "7": 27,
    "surely": 10572,
    "Ġproceeding": 9909,
    "Ġ25": 13197,
    "pled": 7891,
    "Ġnovember": 11754,
    "Ġshape": 5639,
    "Ġzeal": 9101,
    "Ġcontribute": 12867,
    "Ġtribes": 20483,
    "unity": 4150,
    "Ġappeased": 23202,
    "someone": 14567,
    "Ġstraight": 3701,
    "Ġanchor": 7366,
    "mentioning": 24886,
    "oon": 6364,
    "Ġsuffice": 18871,
    "Ġtartar": 17325,
    "Ġinvestigation": 9045,
    "Ġbringing": 5870,
    "Ġouthouse": 22318,
    "jam": 15375,
    "ĠarchÃ¦": 22784,
    "awakened": 14457,
    "pens": 17634,
    "Ġprob": 968,
    "Ġmercifully": 20180,
    "Ġpaternal": 16385,
    "Ġgle": 7858,
    "ricane": 16282,
    "Ġaccompaniments": 24483,
    "Ġhow": 598,
    "Ġchambers": 16801,
    "Ġcongrat": 5828,
    "Ġtill": 1824,
    "Ġcontents": 7208,
    "Ġmine": 3180,
    "Ġlastly": 16208,
    "Ġfloundering": 16253,
    "Ġblubber": 5666,
    "Ġroads": 13292,
    "Ġaffectionate": 5585,
    "Ġaft": 5737,
    "Ġharvest": 13418,
    "Ġadored": 18292,
    "Ġaud": 6663,
    "¦": 104,
    "Ġdisreputable": 22538,
    "dry": 13707,
    "stirring": 20428,
    "Ġadmires": 19687,
    "Ġpalmed": 24096,
    "Ġbrushed": 15575,
    "dwelt": 23875,
    "Ġadmiration": 5329,
    "dient": 440,
    "cul": 1901,
    "Ġfundamental": 3017,
    "egyptians": 25899,
    "iature": 8745,
    "ĠĠĠĠĠĠĠĠĠĠĠĠĠĠĠĠĠ": 22953,
    "Ġsaviour": 20715,
    "Ġunembarrassed": 22073,
    "duct": 3506,
    "dignity": 15349,
    "erns": 8782,
    "Ġhumility": 12989,
    "Ġsequentially": 4914,
    "Ġlevers": 18068,
    "Ġhimmale": 18330,
    "coloured": 7289,
    "Ġconfident": 11140,
    "reasoning": 9478,
    "shunned": 22471,
    "Ġforcibly": 10064,
    "Ġmemoirs": 26207,
    "ently": 1616,
    "Ġjove": 9271,
    "storm": 9685,
    "valuable": 8246,
    "lesc": 11040,
    "Ġdecorum": 16025,
    "Ġro": 600,
    "Ġequal": 4134,
    "Ġsailing": 5324,
    "hue": 20901,
    "Ġgrand": 3593,
    "west": 10741,
    "teeth": 10357,
    "Ġconfirmation": 17213,
    "dispositions": 25014,
    "Ġwhar": 7386,
    "Ġshaping": 22008,
    "Ġjurors": 17347,
    "Ġgangs": 21612,
    "lection": 3652,
    "Ġingrat": 16842,
    "Ġport": 3308,
    "Ġtrembling": 7480,
    "Ġstatue": 23154,
    "baked": 20781,
    "begged": 18524,
    "Ġemma": 20697,
    "Ġgra": 416,
    "Ġgracechurch": 12203,
    "Ġtragic": 15259,
    "Ġemig": 14527,
    "astic": 1868,
    "Ġfilial": 16622,
    "avenue": 25060,
    "ina": 21182,
    "lik": 3914,
    "Ġ49": 24086,
    "ignation": 11130,
    "overspreading": 26140,
    "Ġhospitality": 13515,
    "Ġruskin": 25810,
    "eff": 2534,
    "utral": 12669,
    "Ġlighter": 12659,
    "Ġscents": 22272,
    "ipt": 12483,
    "Ġadhes": 22107,
    "Ġwits": 15535,
    "talked": 14989,
    "accursed": 20543,
    "Ġintervening": 17270,
    "Ġconcer": 23324,
    "mmar": 952,
    "Ġlove": 2054,
    "throt": 25660,
    "dissatisfied": 26614,
    "Ġjerked": 19834,
    "wail": 21128,
    "Ġboon": 22642,
    "Ġscraps": 16904,
    "untarily": 6312,
    "Ġvictim": 6098,
    "Ġrehears": 15704,
    "Ġknights": 15154,
    "Ġquadrille": 13543,
    "Ġanomaly": 25637,
    "cutting": 23788,
    "harrow": 20910,
    "Ġpondicherry": 20493,
    "Ġladen": 19179,
    "Ġenvied": 19282,
    "Ġsolutions": 1948,
    "confid": 14871,
    "Ġhaggerston": 26454,
    "Ġcongen": 10875,
    "Ġloosed": 22116,
    "oop": 10717,
    "Ġoutbreak": 22321,
    "Ġblinding": 14732,
    "Ġlandscape": 12421,
    "declined": 25175,
    "Ġunfav": 14793,
    "Ġrightly": 13069,
    "ition": 654,
    "Ġmind": 1620,
    "Ġorphans": 20206,
    "Ġweapon": 7774,
    "Ġgeese": 7693,
    "stating": 21650,
    "Ġishmael": 7393,
    "extinguish": 22767,
    "Ġventured": 7500,
    "Ġenorm": 5304,
    "Ġconductor": 24011,
    "Ġkinds": 14507,
    "Ġvillage": 5774,
    "ration": 2005,
    "scra": 13026,
    "fly": 13717,
    "berwell": 22722,
    "requiem": 24857,
    "Ġvenge": 5420,
    "Ġsigning": 22712,
    "poling": 12224,
    "Ġnoise": 1075,
    "ives": 1410,
    "Ġsheer": 14154,
    "Ġtorn": 5999,
    "Ġmir": 9649,
    "inguished": 6599,
    "Ġpropri": 6739,
    "Ġoblique": 20171,
    "Ġreturns": 11931,
    "Ġgentleness": 8713,
    "trem": 17683,
    "Ġlords": 14644,
    "Ġweek": 2823,
    "encounter": 20394,
    "ġ": 226,
    "Ġdash": 8121,
    "Ġmerchant": 6466,
    "Ġforswe": 21778,
    "americ": 8155,
    "Ġconsequent": 18117,
    "lighted": 23758,
    "ellig": 522,
    "Ġeliza": 6436,
    "Ġsord": 21222,
    "ier": 1138,
    "ahawk": 23320,
    "sales": 17669,
    "ridden": 24363,
    "buncle": 13696,
    "Ġcarn": 17824,
    "ppo": 18179,
    "Ġdecoyed": 18489,
    "Ġbehav": 3540,
    "self": 618,
    "Ġbumpkins": 25282,
    "Ġsake": 4090,
    "Ġsuccour": 20437,
    "Ġerr": 1323,
    "reached": 13844,
    "Ġassociates": 24710,
    "ask": 856,
    "rence": 5555,
    "Ġscept": 15506,
    "Ġescaped": 6458,
    "Ġmurmur": 14592,
    "Ġmanager": 11774,
    "was": 1423,
    "Ġgeomet": 3192,
    "Ġwrest": 11575,
    "Ġflushed": 13031,
    "Ġcomponents": 8896,
    "Ġconveys": 16857,
    "nowadays": 22342,
    "Ġty": 6659,
    "Ġdismally": 20216,
    "Ġfidget": 15194,
    "Ġfounder": 17886,
    "Ġovertake": 15976,
    "ooping": 21009,
    "rinted": 21046,
    "shipmates": 11933,
    "ppers": 7617,
    "Ġstepdaughter": 22616,
    "igger": 21703,
    "Ġrest": 1780,
    "whispering": 26104,
    "estic": 4956,
    "Ġtornado": 24619,
    "bun": 12442,
    "ariously": 18531,
    "Ġfretfulness": 25449,
    "aming": 5829,
    "Ġye": 899,
    "Ġaimed": 20252,
    "Ġwaves": 3917,
    "capting": 24044,
    "Ġpotent": 12068,
    "Ġfleshy": 24612,
    "Ġperf": 12855,
    "Ġcalmly": 7732,
    "cano": 18841,
    "Ġstrategies": 1839,
    "Ġdome": 15593,
    "Ġbodiless": 24230,
    "Ġweapons": 10596,
    "yd": 21145,
    "Ġboil": 16108,
    "liter": 11505,
    "deploy": 22146,
    "affold": 16565,
    "stee": 21654,
    "Ġregiment": 6431,
    "Ġriveted": 13621,
    "Ġpathetic": 19037,
    "Ġlonger": 3358,
    "Ġdining": 6977,
    "affa": 23780,
    "Ġsorrowful": 10539,
    "Ġfairy": 14630,
    "Ġensu": 7874,
    "Ġdate": 7840,
    "think": 3609,
    "around": 12614,
    "Ġpugn": 21482,
    "Ġstalk": 12704,
    "elson": 16374,
    ".;": 20746,
    "asily": 13949,
    "met": 6654,
    "Ġvict": 3760,
    "robust": 19730,
    "Ġcrooked": 11284,
    "anatory": 21366,
    "Ġpoint": 2056,
    "Ġhatches": 12049,
    "Ġrestraint": 15132,
    "Ġwhit": 7176,
    "Ġrestore": 9383,
    "Ġcruise": 12053,
    "Ġanoints": 25539,
    "rating": 7807,
    "Ġgeneralization": 980,
    "usually": 10288,
    "Ġpleas": 1907,
    "Ġmexico": 15284,
    "isle": 13895,
    "regular": 3047,
    "olet": 13769,
    "ot": 346,
    "tland": 21076,
    "Ġwages": 13857,
    "Ġbead": 21754,
    "zening": 21151,
    "Ġstrateg": 1393,
    "Ġtiller": 8968,
    "mits": 13759,
    "Ġbr": 1076,
    "Ġcraggy": 23533,
    "{": 95,
    "Ġtuileries": 24824,
    "rings": 10724,
    "Ġfidelity": 15245,
    "Ġcurving": 16243,
    "Ġsystem": 579,
    "bug": 17495,
    "odious": 21814,
    "Ġbohemian": 17136,
    "Ġnightfall": 23137,
    "neying": 22453,
    "asable": 21544,
    "wherever": 13122,
    "Ġerred": 21159,
    "Ġsafely": 9028,
    "Ġthoughtlessness": 16197,
    "Ġshare": 1658,
    "choice": 21694,
    "Ġbethink": 12383,
    "enched": 10157,
    "Ġsurrounds": 24235,
    "bolts": 11423,
    "Ġbuoy": 8003,
    "Ġspeeding": 23566,
    "allowing": 24359,
    "Ġboisterously": 25683,
    "Ġbegged": 8230,
    "Ġremot": 8544,
    "Ė": 215,
    "Ġtalk": 1969,
    "Ġviii": 16417,
    "ilt": 2968,
    "Ġluxuriant": 20397,
    "Ġpratt": 23221,
    "Ġinvariable": 13459,
    "Ġsouth": 4911,
    "Ġlaug": 3627,
    "Ġobliging": 13246,
    "fle": 7128,
    "Ġda": 5150,
    "Ġvilla": 14751,
    "Ġduc": 4697,
    "Ġinterpretation": 19718,
    "Ġexclusiveness": 23932,
    "Ġcod": 8412,
    "Ġhur": 2100,
    "Ġflorida": 20661,
    "tenham": 16325,
    "gon": 17554,
    "respect": 6373,
    "Ġcoppers": 22586,
    "Ġpondering": 17007,
    "%": 9,
    "Ġtoiling": 15639,
    "nikin": 23248,
    "?_": 8069,
    "Ġfattened": 25950,
    "ferences": 10329,
    "Ġpermitted": 9281,
    "uten": 11626,
    "ricity": 23066,
    "Ġjavel": 17085,
    "Ġpermanent": 13634,
    "Ġjones": 7202,
    "Ġshown": 5159,
    "ladder": 19785,
    "Ġphys": 5653,
    "gener": 3128,
    "tempt": 21082,
    "Ġgratified": 8020,
    "Ġ156": 20172,
    "Ġgrapple": 25812,
    "wond": 8772,
    "iate": 6504,
    "Ġmitigates": 3056,
    "Ġcircular": 13114,
    "Ġteased": 18806,
    "Ġhighland": 18711,
    "Ġcares": 9369,
    "Ġxxxiv": 24970,
    "Ġapologized": 25199,
    "Ġgrows": 4985,
    "<": 32,
    "Ġcrimson": 16441,
    "atic": 4015,
    "Ġsafer": 22174,
    "Ġobtaining": 16136,
    "Ġclassify": 1550,
    "glue": 17558,
    "Ġmississ": 18840,
    "laying": 19774,
    "Ġhovering": 10181,
    "Ġcru": 2820,
    "Ġacknowledged": 7533,
    "Ġmoment": 988,
    "onds": 13000,
    "har": 20892,
    "ulating": 10889,
    "gee": 15981,
    "Ġhapless": 15816,
    "Ġdashed": 6009,
    "Ġhat": 2771,
    "ilar": 10218,
    "ipher": 18428,
    "Ġmundane": 26431,
    "bus": 5355,
    "Ġrhyme": 21986,
    "Ġcoldness": 23763,
    "Ġours": 4611,
    "Ġceleb": 20227,
    "Ġflower": 16234,
    "Ġincorrupt": 19237,
    "Ġmil": 4252,
    "harb": 9126,
    "Ġcourtiers": 24140,
    "Ġmoods": 14955,
    "Ġblessings": 24179,
    "Ġinvitation": 5188,
    "Ġjournal": 15223,
    "structed": 11167,
    "Ġstup": 14009,
    "avor": 14281,
    "Ġstrikes": 13184,
    "Ġlead": 3522,
    "white": 4601,
    "Ġprevention": 16095,
    "calabash": 22899,
    "Ġbizarre": 17874,
    "Ġturned": 2133,
    "Ġgrinning": 9056,
    "Ġphenomena": 21486,
    "bulwarks": 12277,
    "Ġbreaths": 14861,
    "handedness": 24921,
    "Ġresolution": 5500,
    "Ġhabit": 6771,
    "Ġlobes": 22119,
    "ķ": 248,
    "Ġexhib": 6349,
    "all": 484,
    "eded": 9676,
    "Ġwhitting": 18059,
    "ky": 4519,
    "Ġdynamically": 4097,
    "Ġhideous": 5982,
    "truth": 9922,
    "Ġvirtue": 4922,
    "Ġjour": 11769,
    "Ġindependent": 9019,
    "cherish": 24553,
    "Ġmonths": 3454,
    "churning": 21700,
    "Ġfolks": 14430,
    "bered": 4504,
    "Ġraven": 16120,
    "Ġfell": 1976,
    "gage": 13726,
    "Ġvibration": 17100,
    "skelter": 24491,
    "othing": 6995,
    "_--": 20764,
    "Ġhoped": 5488,
    ".--": 20748,
    "sych": 9895,
    "Ġunsatisfied": 22046,
    "objections": 19917,
    "Ġsings": 15508,
    "Ġlucky": 7757,
    "Ġgeneva": 5450,
    "Ġcautiousness": 19866,
    "Ġdeliber": 7266,
    "strip": 19832,
    "treatment": 20414,
    "moved": 9788,
    "eh": 13713,
    "Ġtyrant": 24766,
    "Ġinforming": 18742,
    "leo": 21367,
    "Ġscriptures": 26237,
    "Ġgrove": 12151,
    "Ġtops": 14589,
    "Ġcommonest": 23093,
    "rolled": 9062,
    "Ġpresided": 20209,
    "Ġinv": 2223,
    "Ġtashtego": 4486,
    "Ġalternating": 15034,
    "perfect": 7634,
    "cial": 2645,
    "Ġseparating": 16684,
    "Ġinfamy": 14504,
    "Ġsignificant": 8637,
    "Ġprofessors": 14729,
    "Ġwrong": 4724,
    "Ġreaders": 18916,
    "Ġjelly": 22304,
    "Ġdubious": 17386,
    "Ġwounded": 8661,
    "Ġfad": 17879,
    "Ġclients": 19734,
    "Ġselected": 9713,
    "Ġrespond": 11179,
    "Ġquery": 2480,
    "Ġexist": 9234,
    "Ġirresolute": 24917,
    "Ġplayful": 19239,
    "Ġ21": 11201,
    "protruding": 24813,
    "beries": 22721,
    "Ġgot": 2280,
    "apes": 9744,
    "ralian": 19602,
    "waistcoat": 17364,
    "Ġpurposes": 11171,
    "Ġdusting": 24598,
    "Ġknave": 11275,
    "Ġuninter": 18248,
    "Ġglitter": 25126,
    "Ġmurderous": 8315,
    "doc": 23380,
    "flowing": 14554,
    "Ġpredictions": 1458,
    "Ġsymbol": 7715,
    "Ġintentionally": 24524,
    "weight": 2938,
    "Ġbust": 10170,
    "Ġpolicy": 10459,
    "Ġwra": 5906,
    "Ġguido": 2978,
    "alas": 8808,
    "Ġinterests": 14573,
    "ofs": 11835,
    "breaths": 25337,
    "ouses": 5163,
    "inquiries": 13580,
    "Ġdictionaries": 12344,
    "augmented": 26288,
    "Ġspeaks": 11161,
    "Ġunconquerable": 22065,
    "Ġinvestment": 24333,
    "unhappy": 10240,
    "Ġmotive": 6091,
    "gunw": 17223,
    "ascar": 8435,
    "Ġwritten": 4166,
    "Ġbo": 798,
    "Ġdetained": 18371,
    "Ġostentatious": 25737,
    "Ġrelating": 2703,
    "Ġlegendary": 20540,
    "bishop": 13698,
    "Ġstruggles": 16581,
    "Ġdusty": 14929,
    "giv": 13725,
    "Ġshake": 6033,
    "Ġsutherland": 10151,
    "embra": 14079,
    "provided": 13640,
    "Ġbodings": 21394,
    "Ġready": 3398,
    "Ġcontradict": 12389,
    "Ġwhitt": 18058,
    "Ġjoin": 4854,
    "Ġrelu": 1048,
    "Ġfacts": 2288,
    "Ġlandlord": 5581,
    "Ġincognita": 26553,
    "Ġgrateful": 7659,
    "crated": 16685,
    "bler": 11475,
    "Ġal": 342,
    "Ġwalton": 14975,
    "Ġlearnedly": 23390,
    "Ġ125": 24471,
    "Ġtranquillize": 24756,
    "thousands": 16874,
    "Ġtransparent": 9491,
    "Ġven": 4648,
    "Ġstooping": 13066,
    "test": 13795,
    "Ġcompression": 18149,
    "Ġmultitudinous": 26275,
    "erne": 21272,
    "Ġsickness": 10541,
    "Ġrepul": 16412,
    "jud": 4481,
    "Ġattitude": 8907,
    "lab": 3455,
    "Ġgest": 8133,
    "Ġtransmit": 10307,
    "lingly": 9776,
    "solute": 16600,
    "Ġfals": 15585,
    "Ġimproper": 22756,
    "soldiers": 25912,
    "Ġtouched": 6000,
    "Ġworried": 22930,
    "Ġinfidel": 13091,
    "notches": 22754,
    "Ġcottages": 14731,
    "true": 2585,
    "Ġcrown": 5289,
    "function": 4924,
    "Ġdru": 8422,
    "gro": 10097,
    "germans": 20568,
    "cares": 24312,
    "Ġcarelessness": 13079,
    "lim": 9609,
    "Ġmerchantmen": 19860,
    "Ġmarshy": 20220,
    "contr": 12061,
    "Ġeyeing": 6459,
    "Ġsaints": 20677,
    "destiny": 16701,
    "opposition": 24820,
    "ishly": 14203,
    "in": 262,
    "Ġwatches": 11083,
    "Ġupd": 947,
    "devoted": 20019,
    "sheltered": 25586,
    "Ġhalloa": 13320,
    "Ġexpert": 18870,
    "entering": 17980,
    "Ġdrifted": 14628,
    "Ġwight": 12558,
    "sip": 10727,
    "Ġconvincing": 19310,
    "Ġagitation": 6864,
    "Ġstifle": 18080,
    "Ġay": 15494,
    "Ġsplinter": 23751,
    "Ġwhelm": 25999,
    "del": 4074,
    "aly": 1101,
    "Ġinverted": 12643,
    "Ġscrawled": 24582,
    "frightened": 17198,
    "Ġintelligence": 562,
    "Ġidler": 16408,
    "Ġsheet": 6263,
    "prejudice": 25572,
    "Ġphaeton": 17467,
    "Ġpreaching": 15930,
    "Ġblood": 3169,
    "Ġuneasy": 8665,
    "ahab": 4287,
    "quely": 10234,
    "Ġcreative": 9833,
    "adoes": 11664,
    "Ġimpelled": 11789,
    "gryphon": 15362,
    "Ġende": 21937,
    "Ġforward": 1836,
    "Ġgarnery": 17390,
    "Åĵuvre": 25888,
    "performances": 26007,
    "ancho": 4938,
    "Ġinformation": 1049,
    "protected": 19922,
    "Ġdivert": 23596,
    "acc": 2533,
    "ħ": 232,
    "Ġenlar": 15804,
    "Ġpants": 21467,
    "Ġplague": 11829,
    "Ġdialogue": 12408,
    "Ġinsol": 10183,
    "oided": 11512,
    "Ġintroducing": 11980,
    "Ġ1991": 3020,
    "ordingly": 18516,
    "man": 1056,
    "Ġdined": 9179,
    "Ġsomething": 1795,
    "ambition": 13414,
    "Ġmaledictions": 26430,
    "temper": 10007,
    "rann": 21047,
    "Ġseeking": 7035,
    "fourths": 25510,
    "Ġkidn": 20207,
    "though": 2116,
    "urried": 21707,
    "Ġflor": 8563,
    "Ġafrican": 20139,
    "Ġcrests": 25686,
    "formed": 2554,
    "Ġinexpress": 12641,
    "Ġguess": 4903,
    "Ġkilburn": 18350,
    "ignant": 11131,
    "axed": 8892,
    "Ġappeal": 16319,
    "spiracle": 22741,
    "better": 7119,
    "companies": 24895,
    "Ġrecognise": 12044,
    "cent": 8072,
    "Ġfour": 2214,
    "Ġsignal": 5944,
    "Ġdeject": 10882,
    "Ġstoper": 14466,
    "Ġscent": 10287,
    "ilege": 22260,
    "Ġtre": 2536,
    "V": 58,
    "free": 8739,
    "fth": 20858,
    "antic": 1604,
    "ruding": 9730,
    "Ġbrit": 6289,
    "Ġdistribution": 2019,
    "agues": 8160,
    "Ġwell": 900,
    "inglass": 21305,
    "Ġabundant": 17157,
    "Ġowe": 8114,
    "fourth": 11331,
    "Ġtelegram": 15228,
    "Ġdevoted": 6574,
    "pe": 1440,
    "husband": 8041,
    "Ġarduous": 26533,
    "Ġattributed": 11839,
    "Ġolder": 9330,
    "Ġwatery": 6296,
    "grand": 7969,
    "Ġqualities": 7532,
    "sequence": 2853,
    "tt": 13793,
    "jaws": 20934,
    "consult": 24172,
    "alter": 10828,
    "vessels": 10628,
    "Ġjonas": 20612,
    "asht": 4082,
    "Ġinterruptions": 24189,
    "iss": 2178,
    "Ġcabaco": 13170,
    "Ġintellectual": 11404,
    "momentum": 4991,
    "Ġgestic": 21611,
    "Ġchronic": 9932,
    "iquet": 17577,
    "Ġneighbourhood": 5126,
    "opes": 10313,
    "Ġnaturally": 2466,
    "position": 15416,
    "retaining": 21248,
    "scheme": 15258,
    "hour": 7338,
    "Ġteacup": 16216,
    "Ġniece": 5712,
    "Ġanticipation": 17059,
    "Ġwintry": 17437,
    "Ġfable": 15581,
    "Ġfolio": 11922,
    "chop": 21691,
    "trust": 21081,
    "oward": 6020,
    "Ġtendency": 11332,
    "Ġhelper": 24030,
    "send": 15426,
    "humanity": 24840,
    "dorff": 15241,
    "ivates": 18281,
    "angle": 22108,
    "*": 14,
    "Ġmicrosc": 20679,
    "odecimoes": 25319,
    "each": 7333,
    "Ġapprehensions": 13407,
    "xic": 9148,
    "Ġzoology": 22826,
    "Ġinterment": 22578,
    "Ġgarb": 21606,
    "Ġshri": 5375,
    "danger": 10092,
    "Ġthorough": 6246,
    "Ġgeorgiana": 8629,
    "Ġiii": 7860,
    "Ġpaced": 7583,
    "ires": 6037,
    "Ġlengths": 19208,
    "Ġbanners": 24859,
    "treacle": 25151,
    "Ġbomb": 17870,
    "mor": 4212,
    "crowning": 25749,
    "Ġadam": 2127,
    "fav": 6648,
    "Ġmusical": 23897,
    "zar": 11551,
    "Ġthis": 382,
    "attention": 2110,
    "frequent": 15357,
    "Ġincumbent": 16066,
    "otions": 7179,
    "Ġregulations": 18598,
    "Ġdesolate": 10016,
    "ld": 386,
    "Ġboarders": 16602,
    "Ġepid": 18008,
    "Ġdre": 1743,
    "Ġegyptian": 13589,
    "Ġimperilled": 19580,
    "Ġexasperate": 20100,
    "Ġretrie": 10385,
    "Ġhappens": 2189,
    "Ġbring": 3322,
    "Ġunreason": 15846,
    "resembled": 21249,
    "Ġwarming": 23560,
    "intelligence": 5883,
    "impatience": 25501,
    "Ġtide": 6660,
    "Ġcredit": 4819,
    "Ġbright": 3216,
    "Ġdivin": 13276,
    "Ġmartyr": 26362,
    "Ġbranded": 14383,
    "Ġread": 1449,
    "Ġreceives": 20356,
    "Ġresembling": 4096,
    "inj": 9154,
    "Ġpint": 17910,
    "tit": 11531,
    "sculptured": 26047,
    "occur": 19577,
    "obliv": 23101,
    "pit": 3979,
    "Ġfeatureless": 22614,
    "Ġexploration": 2336,
    "Ġsuperlatively": 26076,
    "tin": 6117,
    "girdling": 26391,
    "Ġleast": 2064,
    "Ġengland": 3856,
    "sir": 5001,
    "Ġgreenhorn": 23772,
    "conven": 6163,
    "Ġirons": 7695,
    "expose": 23667,
    "hew": 5286,
    "Ġoverflowed": 20264,
    "bots": 10085,
    "Ġdesirous": 8945,
    "quer": 11684,
    "dem": 10695,
    "Ġimmaculate": 19489,
    "Ġsteep": 2885,
    "Ġruns": 8598,
    "called": 6292,
    "Ġindist": 14413,
    "Ġstreams": 12197,
    "Ġnantucket": 2835,
    "Ġreports": 19084,
    "weaving": 18667,
    "Ġmetal": 9391,
    "uts": 8820,
    "trial": 20352,
    "Ġchristmas": 6923,
    "Ġsigh": 10339,
    "Ġcrowned": 16843,
    "Ġinterlude": 16074,
    "Ġarmed": 9263,
    "Ġalternative": 19989,
    "year": 11097,
    "haust": 5777,
    "Ġminutely": 14564,
    "ances": 1337,
    "Ġmanual": 14201,
    "Ġsharper": 17182,
    "Ġsuavely": 26525,
    "Ġconjure": 17126,
    "Ġscales": 4850,
    "treat": 12518,
    "odes": 18120,
    "Ġconceivable": 16615,
    "rons": 21042,
    "Ġreclining": 26034,
    "Ġhearties": 18967,
    "omn": 15686,
    "safety": 20351,
    "Ġderivatives": 2373,
    "moments": 19415,
    "ĠĠĠĠĠĠĠĠĠĠĠĠĠĠĠĠĠĠĠĠĠĠĠĠĠĠĠĠĠĠ": 24444,
    "kes": 3677,
    "illation": 14145,
    "etwork": 441,
    "astonished": 15036,
    "anke": 15565,
    "walton": 20251,
    "Ġbravest": 23845,
    "¼": 125,
    "Ġtribe": 10753,
    "Ġforefinger": 16445,
    "ivorous": 22086,
    "hastily": 19704,
    "Ġdenny": 9004,
    "Ġsprain": 18306,
    "Ġeastward": 13393,
    "spread": 8388,
    "kye": 20940,
    "Ġgrant": 11878,
    "cement": 2758,
    "extending": 22766,
    "Ġuncivilized": 25499,
    "Ġreciproc": 20625,
    "Ġquito": 24409,
    "Ġfrance": 7681,
    "Ġtread": 9411,
    "Ġaudience": 24768,
    "Ġfellow": 2775,
    "prince": 23819,
    "Ġenraged": 10247,
    "Ġcheek": 8579,
    "Ġexplore": 15912,
    "Ġexult": 10232,
    "Ġuttering": 16464,
    "money": 8753,
    "Ġprefer": 6415,
    "heart": 4525,
    "Ġeventually": 8620,
    "Ġbrack": 23840,
    "broker": 13308,
    "º": 123,
    "Ġpersisted": 13041,
    "Ġsworn": 14439,
    "Ġfrequent": 3286,
    "Ġe": 311,
    "Ġrigged": 16719,
    "arrested": 15605,
    "Ġgenerously": 22387,
    "Ġpure": 6138,
    "Ġii": 7383,
    "Ġ8": 5433,
    "ail": 566,
    "Ġinstrum": 6055,
    "impressions": 20701,
    "Ġcontrad": 9758,
    "Ġadjusted": 23461,
    "Ġsplice": 19311,
    "pendicular": 6498,
    "kindness": 10508,
    "mp": 3726,
    "Ġadvertised": 17250,
    "Ġeye": 2281,
    "000": 2560,
    "Ġpuzzling": 14902,
    "Ġhav": 12760,
    "olets": 21010,
    "Ġrecur": 1623,
    "traversed": 19649,
    "enth": 6681,
    "usages": 22294,
    "Ġbasic": 24699,
    "bonnet": 25743,
    "bless": 22316,
    "Ġhear": 1965,
    "Ġjealously": 24128,
    "Ġignominy": 15090,
    "joint": 24013,
    "sets": 17662,
    "Ġjung": 12842,
    "Ġmasking": 2421,
    "Ġreeds": 15700,
    "oices": 7346,
    "smiles": 14696,
    "Ġfootmen": 23801,
    "hangs": 15372,
    "Ġsnorting": 23745,
    "Ġswaying": 15050,
    "draw": 23904,
    "Ġreciprocating": 26371,
    "Ġportra": 9012,
    "Ġillness": 8593,
    "Ġsheltered": 19912,
    "Ġspat": 2662,
    "rians": 21930,
    "avo": 8518,
    "Ġconsiderable": 4003,
    "Ġprotecting": 24686,
    "general": 7488,
    "writes": 4988,
    "Ġbursting": 8658,
    "gue": 12472,
    "Ġlearnable": 3991,
    "Ġirrad": 19095,
    "Ġagreeable": 4551,
    "Ġinterpreted": 1712,
    "lished": 8382,
    "din": 8373,
    "Ġpacket": 14897,
    "Ġpuff": 6525,
    "narrated": 25622,
    "whew": 22875,
    "Ġplays": 12041,
    "Ġhereditary": 10667,
    "oking": 4605,
    "Ġinfallible": 15075,
    "off": 1886,
    "prolong": 23399,
    "equal": 14997,
    "Ġfritters": 23261,
    "relatively": 24018,
    "Ġpaintings": 15059,
    "Ġanat": 8123,
    "Ġany": 687,
    "tarpaul": 21100,
    "Ġcasually": 25096,
    "Ġbottled": 23799,
    "Ġgamy": 18002,
    "Ġfiftieth": 24701,
    "Ġcollege": 11427,
    "wouldn": 23539,
    "Ġscal": 1498,
    "Ġimmortal": 8017,
    "phere": 21021,
    "Ġbanquet": 15244,
    "Ġshouted": 5348,
    "Ġirregularly": 25324,
    "Ġtranqu": 4604,
    "pro": 2050,
    "fr": 4804,
    "understand": 1135,
    "Ġpremises": 10490,
    "Ġdeacon": 18144,
    "Ġprudential": 17921,
    "Ġthick": 3780,
    "Ġoccupation": 9934,
    "Ġfoul": 7158,
    "Ġeasier": 11168,
    "Ġchrist": 4071,
    "Ġlic": 8436,
    "Ġascribed": 14859,
    "Ġowen": 15099,
    "Ġsuns": 23278,
    "Ġartfully": 22613,
    "Ġthreads": 13121,
    "Ġthigh": 10189,
    "sory": 17661,
    "eter": 11625,
    "Ġadapted": 11042,
    "Ġdisplaying": 16967,
    "Ġtars": 21167,
    "hypothe": 25906,
    "emper": 18189,
    "Ġswan": 23055,
    "arpaul": 14539,
    "Ġsquaw": 22847,
    "deserts": 25382,
    "Ġ62": 24366,
    "digger": 24313,
    "Ġhysterical": 26093,
    "Ġbrim": 12980,
    "inders": 15984,
    "Ġrever": 6536,
    "invested": 17120,
    "fat": 8078,
    "Ġupdate": 2463,
    "Ġcomparable": 24282,
    "Ġant": 4343,
    "Ġbreaches": 14524,
    "je": 11499,
    "²": 115,
    "harmony": 25751,
    "Ġfoss": 9854,
    "Ġunprofitable": 18268,
    "Ġpockets": 8899,
    "Ġve": 1107,
    "Ġstile": 21739,
    "capt": 3836,
    "over": 1845,
    "Ġpanting": 11606,
    "civilities": 24974,
    "Ġdischar": 11813,
    "Ġfreshet": 25704,
    "Ġdiscl": 9800,
    "Ġmac": 15542,
    "Ġeagerly": 4990,
    "Ġbeggar": 9352,
    "Ġblackness": 9395,
    "Ġbelf": 21384,
    "Ġthe": 270,
    "Ġcalmed": 16272,
    "taffrail": 15445,
    "Ġperfections": 23611,
    "algorithms": 8292,
    "Ġhulls": 13929,
    "sequently": 14586,
    "Ġmaggie": 26293,
    "Ġfools": 14485,
    "kles": 17586,
    "andam": 10890,
    "Ġdistributes": 4193,
    "Ġhomely": 25220,
    "Ġmetropolitan": 17278,
    "lar": 4483,
    "Ġinwards": 15625,
    "Ġvide": 10253,
    "fer": 1858,
    "trunk": 23952,
    "dawson": 26129,
    "bulkington": 19926,
    "Ġfamed": 16330,
    "Ġenter": 4028,
    "ible": 1114,
    "shame": 16029,
    "Ġsnake": 12065,
    "Ġhated": 7584,
    "kish": 20936,
    "Ġconspicuous": 13606,
    "methodically": 20666,
    "!--": 10680,
    "birth": 15325,
    "pocket": 9814,
    "Ġmixing": 24937,
    "fifty": 12356,
    "cats": 17514,
    ";": 31,
    "Ġleeward": 6211,
    "Ġcape": 5146,
    "Ġ180": 16608,
    "slee": 17171,
    "Ġyellow": 5302,
    "adays": 14016,
    "elope": 14472,
    "Ġreveal": 11202,
    "Ġpaddle": 20061,
    "Ġsisterly": 16307,
    "Ġcultiv": 13559,
    "perch": 18337,
    "Ġerad": 25031,
    "Ġamusement": 8055,
    "ivity": 1666,
    "educated": 17262,
    "liable": 3817,
    "Ġstruggle": 3674,
    "ishment": 3505,
    "floor": 14940,
    "illed": 2622,
    "Ġyoungest": 7953,
    "izers": 18146,
    "blister": 24131,
    "hob": 20902,
    "battering": 20788,
    "anely": 17839,
    "female": 20669,
    "Ġoy": 15550,
    "Ġimbalance": 22178,
    "concerning": 9070,
    "vex": 21705,
    "suff": 4961,
    "Ġelephants": 9867,
    "Ġtrooped": 24900,
    "Ġliterary": 25166,
    "example": 16017,
    "Ġrebounds": 25968,
    "Ġanchors": 12619,
    "wonder": 6370,
    "holding": 7737,
    "th": 408,
    "Ġconvict": 23749,
    "Ġbleak": 10561,
    "Ġwoven": 9929,
    "dam": 7796,
    "Ġcombining": 22843,
    "Ġcounsel": 13618,
    "Ġunceasingly": 20361,
    "Ġdriver": 16476,
    "Ġintric": 9249,
    "Ġache": 18664,
    "Ġpreserve": 7528,
    "rivial": 9436,
    "Ġfaltering": 17887,
    "precious": 12077,
    "Ġvillainous": 25134,
    "Ġfood": 5080,
    "bos": 17486,
    "cific": 10088,
    "Ġaccelerating": 1619,
    "Ġprecaution": 11199,
    "Ġpointed": 4773,
    "Ġstaggering": 20275,
    "lement": 10169,
    "Ġcruel": 5121,
    "ess": 411,
    "Ġ126": 24472,
    "irectly": 6939,
    "Ġchoking": 15938,
    "Ġuntamed": 19166,
    "Ġadvent": 4354,
    "Ġbloss": 19258,
    "fair": 10095,
    "counter": 20280,
    "rupt": 3213,
    "wretched": 10743,
    "Ġevident": 6614,
    "Ġgrating": 14359,
    "englishman": 23681,
    "Ġoutput": 927,
    "ol": 362,
    "unsuitable": 21898,
    "Ġunreasoning": 15849,
    "Ġrector": 21679,
    "Ġadhering": 14143,
    "Ġmaterials": 11291,
    "Ġfeet": 2259,
    "Ġce": 3035,
    "Ġm": 274,
    "paying": 25412,
    "fered": 5560,
    "Ġgourmand": 26468,
    "Ġfancying": 12117,
    "Ġmantel": 11442,
    "Ġsuffers": 2974,
    "Ġrese": 2191,
    "Ġmodels": 750,
    "Ġstatements": 7515,
    "quadr": 15768,
    "ions": 448,
    "Ġboiling": 8526,
    "Ġoverwhelmed": 11406,
    "Ġidea": 2487,
    "Ġferguson": 17472,
    "two": 3859,
    "Ġassumptions": 5517,
    "Ġphrenologically": 20396,
    "Ġsmacking": 20167,
    "Ġpleasures": 11144,
    "Ġwarb": 17790,
    "Ġchron": 19441,
    "Ġoutputs": 2882,
    "ra": 314,
    "aulets": 18623,
    "Ġbill": 4039,
    "Ġthickest": 16657,
    "Ġnewcom": 16225,
    "Ġcheery": 16371,
    "imately": 12694,
    "terrific": 25043,
    "Ġatrocious": 21948,
    "ocity": 8277,
    "Ġphrenolog": 12338,
    "=": 33,
    "habit": 16193,
    "Ġparr": 22123,
    "ency": 3868,
    "Ġowed": 10782,
    "Ġvicious": 24404,
    "gazed": 15365,
    "orns": 12598,
    "Ġstudying": 9852,
    "ourage": 2450,
    "aciously": 12913,
    "Ġdenying": 14661,
    "Ġmam": 8405,
    "Ġcongenial": 12415,
    "impe": 21711,
    "Ġxlix": 25861,
    "Ġbankers": 24305,
    "needles": 20313,
    "Ġvengeful": 14894,
    "introduced": 15129,
    "lived": 12491,
    "gather": 20877,
    "capable": 13705,
    "abouts": 9455,
    "Ġcargo": 16293,
    "Ġreflections": 5946,
    "Ġexamination": 8004,
    "nant": 17611,
    "fol": 4862,
    "cles": 8729,
    "clothes": 9060,
    "Ġroar": 9756,
    "Ġjun": 8506,
    "always": 5708,
    "Ġcompany": 3720,
    "Ġcringed": 25943,
    "Ġinference": 9674,
    "ince": 4337,
    "Ġstructures": 2717,
    "removed": 15519,
    "Ġpolitic": 23621,
    "Ġsnap": 11203,
    "Ġstops": 3167,
    "or": 282,
    "Ġunharmed": 15144,
    "Ġillum": 9402,
    "Ġrestlessness": 23297,
    "Ġadequate": 20310,
    "Ġparticular": 2448,
    "Ġproducing": 11904,
    "cus": 3976,
    "Ġresign": 18564,
    "Ġnailed": 10192,
    "Ġsociet": 9451,
    "Ġspeak": 2228,
    "Ġgradients": 612,
    "enstein": 5800,
    "Ġveiled": 16204,
    "Ġriver": 5411,
    "Ġorchard": 22098,
    "Ġinsular": 19270,
    "forth": 9325,
    "Ġmutual": 8296,
    "angu": 570,
    "burned": 25082,
    "gain": 8740,
    "Ġpagans": 16923,
    "Ġovercame": 9749,
    "Ġduke": 7754,
    "Ġdated": 10941,
    "Ġsuspending": 19246,
    "Ġposted": 16726,
    "Ġceti": 24772,
    "Ġcaves": 15558,
    "Ġundesired": 12785,
    "erm": 787,
    "marching": 25753,
    "readily": 19365,
    "icial": 12661,
    "caus": 11479,
    "imely": 14001,
    "Ġtimbers": 14843,
    "Ġweaving": 12746,
    "Ġformations": 18751,
    "Ġkissed": 10048,
    "Ġdisregarded": 22534,
    "Ġjollies": 20372,
    "wester": 21141,
    "eu": 17532,
    "Ġlegitimate": 20644,
    "Ġfordham": 21780,
    "Ġswelled": 11089,
    "Ġfetching": 16898,
    "Ġswelling": 11930,
    "bourine": 9398,
    "sheep": 23090,
    "Ġtail": 3093,
    "guessed": 25873,
    "Ġmiserably": 12953,
    "Ġhoky": 17930,
    "Ġdolph": 12384,
    "Ġcontinuous": 1566,
    "disaster": 23498,
    "rents": 5310,
    "ago": 14068,
    "Ġcannibals": 10590,
    "Ġglad": 3324,
    "Ġout": 543,
    "Ġhopes": 4232,
    "Ġpemberley": 4587,
    "Ġadorned": 15251,
    "Ġraises": 11850,
    "Ġcorresponding": 13441,
    "Ġyoungster": 23184,
    "od": 350,
    "epend": 3313,
    "Ġradiating": 24332,
    "Ġhardy": 8567,
    "ceptive": 15980,
    "Ġcell": 6238,
    "Ġtoward": 17950,
    "Ġ/*": 10142,
    "Ġtimorous": 24229,
    "Ġgambler": 26192,
    "Ġappertain": 22227,
    "Ġfuneral": 10285,
    "Ġcushion": 17836,
    "maged": 15397,
    "Ġwaxed": 21300,
    "orrowed": 19292,
    "alley": 23025,
    "Ġmedd": 15543,
    "Ġincreas": 1695,
    "pulled": 25148,
    "datasets": 11951,
    "assemblies": 25957,
    "Ġdoubloons": 13437,
    "oric": 21399,
    "Ġexploding": 2109,
    "Ġcorrected": 10450,
    "circumst": 5349,
    "lude": 6162,
    "desol": 13221,
    "Ġadvised": 16211,
    "Ġcalls": 6745,
    "Ġcha": 6852,
    "total": 17253,
    "Ġgretna": 26470,
    "Ġafric": 8909,
    "Ġexclaiming": 13644,
    "Ġassembled": 9239,
    "Ġn": 300,
    "Ġobservable": 25129,
    "says": 13303,
    "Ġstood": 2551,
    "offer": 19060,
    "lotte": 3329,
    "Ġpolitics": 19227,
    "pierced": 26142,
    "Ġbite": 10799,
    "relapse": 24020,
    "Ġenduring": 16305,
    "Ġsyntax": 958,
    "Ġweep": 7619,
    "h": 76,
    "Ġparametric": 2397,
    "Ġtoller": 9094,
    "```": 25894,
    "ok": 573,
    "Ġindia": 10373,
    "Ġhomeless": 23391,
    "Ġimpet": 11786,
    "beauty": 20106,
    "Ġdomes": 23651,
    "Ġinclosed": 19541,
    "proportions": 22832,
    "Ġnetwork": 452,
    "Ġprone": 18969,
    "smote": 23914,
    "ball": 7791,
    "Ġyarn": 10870,
    "relu": 17762,
    "Ġdeveloped": 16350,
    "laughing": 15184,
    "valley": 16217,
    "Ġ87": 19712,
    "Ġprevent": 757,
    "Ġincl": 4268,
    "Ġfronts": 19003,
    "repe": 8780,
    "Ġinsert": 19906,
    "Ġthread": 14542,
    "Ġthoroughfare": 16946,
    "osa": 22264,
    "_,": 2796,
    "Ġburnt": 9931,
    "arious": 10319,
    "glory": 23856,
    "tahit": 17694,
    "Ġsheep": 10928,
    "infidel": 24665,
    "watch": 6119,
    "Ġsplash": 16552,
    "Ġclustered": 25234,
    "wake": 11549,
    "Ġparliament": 18303,
    "Ġgould": 17993,
    "Ġstat": 1492,
    "iability": 20922,
    "Ġperceptible": 18448,
    "Ġwanderings": 20145,
    "Ġaccount": 2320,
    "Ġ45": 14774,
    "ifford": 15788,
    "Ġselfish": 7270,
    "Ġperturbed": 20442,
    "Ġdood": 22246,
    "Ġdearer": 14052,
    "Ġwriggling": 15261,
    "Ġfingers": 5672,
    "arts": 6563,
    "luc": 9755,
    "Ġnuts": 17955,
    "higher": 20409,
    "Ġrand": 1586,
    "Ġopen": 1556,
    "Ġmoreover": 6164,
    "thr": 12766,
    "famous": 16917,
    "Ġproved": 4884,
    "Ġwitt": 17786,
    "Ġfeebly": 24878,
    "Ġwaylaid": 22879,
    "Ġemaciated": 20641,
    "Ġapproach": 860,
    "Ġwalk": 1825,
    "Ġuprising": 12808,
    "Ġtrying": 4839,
    "ne": 646,
    "Ġfoe": 7679,
    "Ġteacher": 22918,
    "Ġliber": 5168,
    "Ġcomprised": 14271,
    "Ġserm": 9636,
    "million": 25752,
    "horses": 17569,
    "Ġvivacity": 14945,
    "Ġdough": 8421,
    "----âĢĻ": 24103,
    "Ġsand": 6236,
    "ices": 2139,
    "anim": 6521,
    "Ġshipwrecked": 25688,
    "Ġstraighten": 24008,
    "Ġtoilings": 24740,
    "thrown": 8481,
    "Ġparchment": 13655,
    "Ġbidden": 24648,
    "Ġcaptured": 7243,
    "Û": 156,
    "pour": 17632,
    "Ġventil": 8018,
    "Ġconjoined": 21810,
    "Ġ&": 6512,
    "Ġsketches": 26272,
    "Ġdispleasure": 16056,
    "Ġcharing": 14184,
    "Ġalongside": 6311,
    "itors": 2911,
    "Ġowner": 8925,
    "Ġexplanatory": 22206,
    "ĠĠĠĠĠĠĠĠĠĠĠĠĠĠĠĠĠĠĠĠĠĠĠĠĠĠĠĠĠĠĠĠĠĠĠĠĠĠĠĠ": 4516,
    "composed": 14744,
    "rom": 420,
    "Ġsto": 1504,
    "Ġtuesday": 9629,
    "asingly": 17964,
    "duchess": 18464,
    "Ġskylight": 24077,
    "kne": 20937,
    "Ġvirgin": 7326,
    "Ġcomprehens": 8319,
    "Ġbeards": 21755,
    "Ġbutter": 6841,
    "phur": 16156,
    "Ġnocturn": 18376,
    "memory": 13620,
    "Ġeight": 3900,
    "level": 2651,
    "Ġnets": 21527,
    "kindled": 16663,
    "Ġdisinterested": 16061,
    "Ġdamned": 13135,
    "Ġdu": 4583,
    "Ġsequ": 979,
    "vation": 4744,
    "ruined": 18353,
    "Ġrails": 22661,
    "willingness": 24754,
    "racting": 10358,
    "if": 375,
    "Ġgeorge": 3747,
    "letons": 14615,
    "Ġemblem": 20500,
    "Ġimputed": 12814,
    "hetically": 21211,
    "Ġking": 2305,
    ",--": 2477,
    "reasonable": 7750,
    "Ġsumatra": 15290,
    "Ġcalcul": 3637,
    "Ġbaw": 15573,
    "exe": 11794,
    "Ġcomment": 9235,
    "bow": 5424,
    "Ġhoriz": 4726,
    "Ġunde": 11717,
    "Ġgaunt": 11271,
    "Ġscor": 8188,
    "Ġrelevance": 5184,
    "Ġbennet": 1578,
    "Ġchord": 22249,
    "Ġsolving": 2483,
    "Ġchast": 18381,
    "Ġunspeakably": 25173,
    "Ġbad": 3983,
    "Ġoppression": 23656,
    "Ġmurder": 4278,
    "Ġup": 463,
    "thinness": 25811,
    "Ġnum": 1348,
    "Ġwretch": 6377,
    "readers": 23852,
    "Ġalgorithm": 761,
    "Ġauthorities": 11267,
    "correspond": 13401,
    "asse": 15649,
    "untering": 15780,
    "Ġdeny": 7487,
    "Ġflowing": 14415,
    "een": 725,
    "aye": 3659,
    "Ġhamper": 19392,
    "ictions": 14229,
    "yourselves": 24959,
    "Ġinflict": 15004,
    "learn": 2479,
    "Ġships": 3713,
    "Ġpenal": 1771,
    "Ġcurtain": 14420,
    "wal": 10136,
    "Ġprepared": 5877,
    "Ġhopelessly": 16379,
    "Ġugliness": 20429,
    "tical": 10131,
    "Ġsheaves": 22162,
    "Ġahead": 6664,
    "Ġdur": 11596,
    "Ġinnoc": 3792,
    "Ġcobb": 14276,
    "Ġkiller": 19570,
    "Ġraised": 4661,
    "savagery": 25028,
    "vill": 10737,
    "iable": 3332,
    "uv": 6230,
    "Ġpipeline": 2371,
    "zwilliam": 5074,
    "utted": 15665,
    "Ġnephews": 24712,
    "Ġmors": 17804,
    "Ġafter": 869,
    "derness": 11742,
    "Ġmast": 2896,
    "Ġintercept": 14273,
    "rue": 1129,
    "omics": 21646,
    "aked": 2016,
    "unw": 14060,
    "Ġqual": 6275,
    "Ġwhenever": 5166,
    "Ġfame": 21409,
    "ating": 665,
    "varying": 13807,
    "bask": 20778,
    "Ġentreated": 9954,
    "Ġpassage": 3884,
    "Ġbows": 4081,
    "dec": 3115,
    "aswag": 21549,
    "stonecraft": 24357,
    "ma": 1150,
    "Ġenjoy": 3758,
    "Ġconnectivity": 3666,
    "loose": 11810,
    "iosity": 2327,
    "Â": 131,
    "haul": 14769,
    "ģ": 228,
    "Ġsymptom": 13486,
    "Ġignited": 25072,
    "dece": 11739,
    "process": 11150,
    ".,": 5987,
    "Ġalcoves": 26488,
    "fashion": 8080,
    "Ġkeepers": 23542,
    "Ġtwins": 16124,
    "included": 19210,
    "Ġmagnet": 10393,
    "Ġpropose": 9856,
    "Ġtra": 1382,
    "Ġbun": 6006,
    "Ġcannon": 14157,
    "asis": 12656,
    "Ġling": 7375,
    "âĢľâĢĶ": 10874,
    "ander": 6400,
    "rets": 12546,
    "Ġconv": 2969,
    "sander": 11530,
    "ellent": 3759,
    "Ġplying": 17915,
    "fect": 2301,
    "among": 6257,
    "Ġrenounce": 19471,
    "Ġottoman": 17381,
    "leaning": 10792,
    "covery": 11174,
    "attacks": 23129,
    "Ġgroans": 14827,
    "Ġprudent": 9187,
    "Ġcasked": 24498,
    "windlass": 16723,
    "Ġrekindled": 21680,
    "Ġdisapprobation": 16062,
    "Ġexchanging": 18135,
    "Ġcontrari": 23351,
    "project": 16428,
    "Ġperformed": 8548,
    "Ġcuring": 21347,
    "anch": 15564,
    "Ġshine": 12772,
    "hardly": 6490,
    "Ġheh": 21683,
    "Ġsurmisings": 26595,
    "run": 10723,
    "far": 5787,
    "Ġintending": 11709,
    "Ġsafe": 5103,
    "Ġminim": 1325,
    "generous": 16571,
    "Ġsexes": 25172,
    "Ġdeuteronomy": 15764,
    "Ġere": 3684,
    "spout": 7922,
    "Ġemboldened": 22971,
    "Ġglim": 9347,
    "Ġclubbed": 26548,
    "prim": 23815,
    "welt": 12525,
    "Ġphrensy": 25127,
    "Ġunostentatious": 22071,
    "Ġcomfort": 3438,
    "Ġdisagreeable": 9301,
    "asmuch": 10197,
    "Ġ199": 3012,
    "Ġprosecuted": 25294,
    "Ġdiverted": 14595,
    "geneva": 13733,
    "streets": 13398,
    "Ġseverity": 15821,
    "osing": 3688,
    "erce": 6127,
    "ppered": 15795,
    "Ġbeth": 9660,
    "Ġoutweigh": 22326,
    "Ġoutrageous": 20613,
    "urities": 18053,
    "Ġbony": 12593,
    "side": 2302,
    "ropy": 1103,
    "aders": 21762,
    "Ġabsorbing": 17131,
    "ject": 874,
    "will": 1968,
    "Ġbraided": 16584,
    "ituted": 13876,
    "yra": 8102,
    "Ġaccountability": 10440,
    "Ġliberty": 7760,
    "û": 188,
    "Ġimminent": 11247,
    "rifice": 12508,
    "Ġgrip": 11631,
    "cannib": 11907,
    "Ġhobbling": 25645,
    "Ġdispelling": 23884,
    "Ġcet": 6671,
    "lydon": 13992,
    "confusion": 13373,
    "enges": 13058,
    "urious": 21706,
    "Ġforegoing": 23452,
    "Ġcheerfulness": 10519,
    "Ġinherited": 25354,
    "bul": 6950,
    "clo": 5613,
    "Ġconfed": 13101,
    "enit": 17782,
    "Ġherds": 9719,
    "Ġmodeling": 2096,
    "Ġcubic": 20090,
    "Ġdiscussed": 19560,
    "Ġstudents": 23236,
    "Ġtons": 11553,
    "Ġturbul": 23615,
    "added": 11663,
    "desponding": 26343,
    "Ġeddying": 17119,
    "Ġbitten": 21393,
    "Ġappo": 8499,
    "Ġinser": 6819,
    "canallers": 22968,
    "Ġreynolds": 10212,
    "Ġrefill": 18698,
    "Ġbam": 15570,
    "Ġenlightened": 12752,
    "Ġportly": 14681,
    "Ġpainful": 6461,
    "Ġbefitting": 15730,
    "Ġfriesland": 26444,
    "Ġsparkling": 11359,
    "Ġlivel": 11358,
    "Ġhats": 14621,
    "Ġtales": 10144,
    "Ġentra": 18696,
    "moor": 22708,
    "Ġwallowed": 24047,
    "empl": 5724,
    "Ġgrizz": 10354,
    "Ġflu": 3277,
    "tarpaulins": 26407,
    "Ġinquiring": 9002,
    "Ġvoice": 2192,
    "Ġdogs": 7740,
    "Ġdrugg": 17122,
    "agon": 7870,
    "chase": 11649,
    "Ġroughly": 17041,
    "Ê": 139,
    "Ġwanted": 4968,
    "bastian": 10676,
    "Ġointment": 21329,
    "Ġsoul": 2723,
    "Ġsurrounding": 12167,
    "ures": 773,
    "ropol": 10955,
    "pieces": 8758,
    "ufactured": 15186,
    "Ġcoffins": 13253,
    "Ġprairie": 8716,
    "Ġsolicited": 20039,
    "atived": 21265,
    "Ġunfl": 22022,
    "Ġdiscovers": 4425,
    "Ġdominion": 16518,
    "Ġhunsford": 6301,
    "tan": 4742,
    "Ġproofs": 19816,
    "Ġnecessitated": 23933,
    "Ġmadness": 6602,
    "uge": 4014,
    "Ġsage": 17755,
    "Ġprejudiced": 24806,
    "Ġtime": 689,
    "Ġdegradation": 2629,
    "Ġimm": 3962,
    "Ġrabbit": 4286,
    "Ġcontrasting": 11156,
    "ostent": 16848,
    "Ġchronicle": 20230,
    "spoken": 11866,
    "Ġut": 2279,
    "Ġdragging": 14478,
    "under": 3134,
    "Ġbold": 5293,
    "irting": 11690,
    "Ġjolly": 6857,
    "Ġsepulchral": 25893,
    "ologically": 22858,
    "unched": 10238,
    "Ġrans": 21974,
    "Ġtorrent": 17093,
    "Ġspo": 6845,
    "Ġclimates": 25053,
    "fur": 6355,
    "province": 26073,
    "Ġbird": 3754,
    "Ġdecision": 2674,
    "Ġcreat": 1417,
    "Ġfet": 5808,
    "stoke": 18026,
    "Ġtenth": 13829,
    "Ġyouth": 4259,
    "reat": 619,
    "Ġdismast": 12894,
    "Ġdeserve": 8308,
    "influence": 13581,
    "Ġantagon": 19551,
    "Ġelix": 22647,
    "arbuck": 2025,
    "âĢĶâĢĿ": 3298,
    "Ġunfolding": 17087,
    "Ġinexhaustible": 16982,
    "Ġmiserable": 3634,
    "ibly": 2997,
    "no": 897,
    "uncomfortable": 18164,
    "Ġagonizing": 17241,
    "loa": 18537,
    "æ": 167,
    "ineer": 11704,
    "Ġchances": 9266,
    "berg": 11863,
    "Ġhauling": 14090,
    "cc": 470,
    "Ġpart": 859,
    "Ġbenevol": 5961,
    "multiple": 15112,
    "Ġforbid": 7864,
    "Ġloomings": 24952,
    "Ġproprietors": 20188,
    "Ġpict": 3498,
    "intellig": 5321,
    "Ġthrough": 603,
    "Ġmaker": 15547,
    "Ġmanipulated": 25179,
    "clothed": 19740,
    "Ġinput": 610,
    "sphere": 22738,
    "Ġsling": 21223,
    "kovoko": 20672,
    "Ġwan": 15531,
    "Ġredness": 19314,
    "Ġxv": 23411,
    "Ġlives": 4826,
    "ift": 1607,
    "iary": 15374,
    "Ġwit": 3841,
    "Ġsmiled": 5940,
    "¯": 112,
    "Ġvertical": 16606,
    "want": 8770,
    "Ġwhiff": 21721,
    "Ġsurvive": 9069,
    "Ġpitched": 9446,
    "Ġproportionably": 19973,
    "Ġstre": 2108,
    "Ġeyelids": 26108,
    "conject": 8884,
    "Ġinexorable": 12260,
    "Ġsighs": 22713,
    "Ġapproving": 18515,
    "dreams": 12341,
    "Ġheightened": 8652,
    "izabeth": 907,
    "Ġcompose": 12908,
    "Ġprobably": 4311,
    "Ġpalsy": 25779,
    "romed": 10907,
    "Ġanalogy": 25640,
    "philosop": 9569,
    "bes": 6643,
    "Åĵ": 10746,
    "omp": 2472,
    "Ġbread": 5404,
    "Ġaugust": 10600,
    "hus": 5072,
    "Ġanvil": 11601,
    "Ġpolar": 9413,
    "Ġattention": 1168,
    "unavoidable": 17393,
    "shish": 11800,
    "Ġespecial": 26412,
    "intervals": 10640,
    "Ġgar": 10840,
    "condem": 16346,
    "centre": 17088,
    "Ġreturn": 1711,
    "africa": 26309,
    "Ġdecl": 3590,
    "fortune": 4975,
    "Ġperfection": 19221,
    "Ġmansfield": 25939,
    "Ġascend": 9963,
    "Ġvarieties": 14314,
    "lion": 20946,
    "dan": 17517,
    "Ġeffeminacy": 20720,
    "Ġfro": 3472,
    "Ġneville": 7397,
    "Ġsecurely": 16804,
    "nameless": 19904,
    "els": 1762,
    "Ġapiece": 16815,
    "engines": 18931,
    "Ġpresume": 8037,
    "Ġlinks": 13958,
    "Ġind": 1221,
    "ingly": 2137,
    "ized": 1533,
    "gaffman": 26392,
    "âĢĶâĢĶâĢĿ": 15943,
    "Ġpikes": 21480,
    "Ġestab": 6315,
    "wild": 8771,
    "Ġprodu": 1205,
    "Ġaffair": 4462,
    "opatra": 22481,
    "Ġapparelled": 20439,
    "Ġmus": 3397,
    "Ġrocking": 10971,
    "Ġcover": 3557,
    "Ġthoughtful": 16195,
    "egypt": 15353,
    "Ġembarrassed": 11387,
    "Ġbiting": 17864,
    "Ġroasted": 18461,
    "!_": 7327,
    "Ġbreach": 11978,
    "Ġforgive": 8009,
    "remains": 10401,
    "Ġpirates": 9076,
    "Ġdiv": 3730,
    "Ġdramat": 23219,
    "encountered": 20395,
    "encyclopÃ¦dia": 16666,
    "Ġprecisely": 6465,
    "Ġcity": 4529,
    "Ġshocking": 10437,
    "condition": 7058,
    "Ġferoc": 14901,
    "Ġcurse": 7667,
    "Ġlowly": 11123,
    "par": 1864,
    "coronet": 16865,
    "Ġmidday": 23635,
    "Ġnonsensical": 21532,
    "athered": 6972,
    "Ġdipped": 15599,
    "Ġshudderings": 25201,
    "Ġsimultaneously": 4308,
    "Ġhay": 11609,
    "Ġhurling": 19112,
    "Ġben": 1108,
    "crop": 20800,
    "Ġwilliam": 3482,
    "Ġfired": 16158,
    "Ġdarkly": 19116,
    "Ġtorments": 13397,
    "Ġreus": 8826,
    "base": 20779,
    "Ġunaccount": 22029,
    "addressed": 13388,
    "Ġspace": 1534,
    "Ġ100": 14367,
    "Ġidiotic": 25589,
    "Ġcolony": 18768,
    "exam": 10978,
    "Ġrequest": 6051,
    "irious": 15790,
    "Ġhole": 6079,
    "pane": 10123,
    "Ġ1807": 26084,
    "Ġpainting": 13144,
    "Ġformidable": 8219,
    "Ġloos": 15875,
    "insula": 23069,
    "Ġdesisted": 22979,
    "Ġamuse": 5939,
    "Ġdons": 17891,
    "â": 163,
    "deep": 991,
    "ak": 538,
    "Ġsettlement": 19837,
    "tu": 12516,
    "Ġdefilements": 26286,
    "Ġcommand": 3320,
    "@": 36,
    "Ġparcel": 15204,
    "unders": 13313,
    "_âĢĿ": 20763,
    "Ġenderby": 13654,
    "Ġindispens": 22958,
    "elsewhere": 19868,
    "drugg": 20840,
    "Ġcontinue": 5398,
    "Ġcompan": 2175,
    "Ġsolic": 7932,
    "sters": 6390,
    "Ġattack": 5478,
    "Ġexcl": 3475,
    "reme": 2425,
    "Ġminers": 22838,
    "Ġstammered": 26201,
    "ribute": 7223,
    "camp": 15333,
    "ļ": 253,
    "Ġ68": 24371,
    "Ġpumping": 25644,
    "Ġaddress": 2271,
    "venor": 16104,
    "sperm": 5203,
    "Ġdirections": 1970,
    "Ġpresents": 8244,
    "Ġentertaining": 16928,
    "system": 4471,
    "Ġcos": 2208,
    "iscuits": 24668,
    "icated": 7590,
    "Ġxlvi": 25591,
    "Ġmultimodal": 18749,
    "Ġtwinkled": 14316,
    "Ġshade": 6550,
    "Ġdegenerated": 20508,
    "final": 19678,
    "Ġlately": 6386,
    "Ġuniformity": 23486,
    "enet": 10155,
    "sticks": 25966,
    "Ġtierce": 15481,
    "đ": 210,
    "ĠcÃ¦": 15559,
    "lances": 15387,
    "swing": 15432,
    "Ġmaking": 1777,
    "Ġstreet": 2957,
    "Ġfacet": 15589,
    "grateful": 10430,
    "ibbald": 18843,
    "Ġthoroughfares": 26096,
    "concern": 6100,
    "Ġbrotherhood": 23673,
    "Ġapart": 4746,
    "looks": 12022,
    "Ġdeadliest": 14560,
    "Ġstructure": 936,
    "Ġbecomes": 6395,
    "Ġirrevoc": 15042,
    "Ġlights": 8963,
    "Ġpierced": 12286,
    "Ġautomatically": 4032,
    "Ġencamp": 22804,
    "Ġfatig": 6757,
    "sa": 8760,
    "Ġdistinguished": 8272,
    "Ġperilously": 24508,
    "Ġunfathomable": 20551,
    "ã": 164,
    "Ġungovernable": 20711,
    "Ġunreliable": 3927,
    "Ġretire": 10384,
    "Ġgrampus": 21998,
    "Ġprofoundly": 16861,
    "attachment": 13056,
    "Ġopine": 19230,
    "racts": 14361,
    "Ġ500": 24325,
    "itself": 7833,
    "Ġmodel": 508,
    "Ġze": 8546,
    "ferent": 4192,
    "Ġscandalous": 24879,
    "iciency": 9576,
    "Ġon": 351,
    "usiveness": 22297,
    "arthur": 14834,
    "fulfilment": 26026,
    "Ġbiscuit": 12595,
    "bpp": 20774,
    "Ġmince": 22837,
    "establishment": 26114,
    "arat": 9183,
    "Ġbacked": 12930,
    "Ġembark": 8558,
    "tol": 17674,
    "Ġwhisky": 23938,
    "murderers": 25728,
    "Ġachieves": 4377,
    "Ġmultitud": 18748,
    "Ġcharity": 8866,
    "Ġsavory": 23880,
    "Ġsled": 21221,
    "Ġjulia": 22306,
    "Ġcarpent": 4464,
    "till": 6965,
    "Ġparticulars": 5754,
    "ilities": 6991,
    "stairs": 5155,
    "Ġencomp": 12968,
    "ager": 6546,
    "inctions": 17734,
    "Ġshan": 9252,
    "nui": 21002,
    "Ġbarriers": 23798,
    "Ġsuperlative": 26075,
    "Ġherd": 7887,
    "Ġarrest": 7407,
    "sockets": 22732,
    "Ġgayer": 24502,
    "Ġvision": 1597,
    "remorse": 14470,
    "orted": 4602,
    "bill": 10079,
    "north": 14618,
    "Ġsine": 10765,
    "ucumber": 19058,
    "Ġfortun": 4982,
    "Ġmembrane": 20506,
    "),": 1346,
    "Ġlads": 8600,
    "Ġsoda": 25535,
    "gely": 10702,
    "sax": 21059,
    "Ġtreachery": 15106,
    "Ġtheatre": 21281,
    "unted": 6998,
    "Ġeddystone": 25736,
    "Ġantics": 24181,
    "ĠĠĠĠĠĠĠĠĠĠĠĠĠĠĠĠĠĠĠĠĠĠĠĠĠ": 24443,
    "Ġendure": 5955,
    "Ġpenetration": 19918,
    "Ġfalsehood": 10526,
    "itty": 3554,
    "Ġpatience": 2906,
    "icacy": 15662,
    "rified": 15422,
    "Ġpow": 4638,
    "practical": 17224,
    "quired": 21859,
    "Ġdimly": 9490,
    "pips": 21022,
    "Ġshoulder": 5849,
    "Ġshud": 5461,
    "repeating": 20131,
    "overing": 6306,
    "faint": 17547,
    "Ġwanting": 6722,
    "key": 5462,
    "Ġimpud": 18452,
    "Ġzig": 18745,
    "Ġprobed": 18734,
    "Ġcable": 11584,
    "Ġloathsome": 13530,
    "Ġshirr": 18233,
    "Ġquitted": 5312,
    "Ġhovers": 19078,
    "atre": 17773,
    "aneously": 4058,
    "ered": 1685,
    "osed": 1961,
    "hideous": 25408,
    "Ġbrill": 8550,
    "brace": 16944,
    "Ġdeserted": 8640,
    "Ġproof": 6154,
    "tails": 21089,
    "Ġshutter": 16673,
    "thern": 4953,
    "Ġfidel": 12602,
    "Ġcents": 17831,
    "Ġfibres": 12956,
    "crane": 24091,
    "Ġexisting": 12724,
    "ascal": 10195,
    "endous": 6849,
    "Ġstung": 21745,
    "N": 50,
    "Ġsmell": 7214,
    "noble": 7923,
    "finds": 19928,
    "mantel": 26396,
    "Ġspl": 2985,
    "disc": 4729,
    "facts": 19843,
    "Ġdifficulty": 5770,
    "Ġrashly": 20307,
    "Ġabove": 2934,
    "Ġalabama": 14022,
    "Ġaffliction": 25846,
    "Ġwinter": 5220,
    "algorithm": 3832,
    "uit": 8392,
    "Ġnay": 5711,
    "continue": 16863,
    "Ġdiffers": 23785,
    "consuming": 25675,
    "acious": 5563,
    "Ġthreatens": 24376,
    "Ġther": 17781,
    "Ġconstitutional": 25128,
    "desper": 13222,
    "Ġprisoner": 8676,
    "Ġinex": 6527,
    "spot": 9791,
    "teness": 23209,
    "Ġamends": 14249,
    "Ġacting": 10993,
    "Ġrum": 5924,
    "Ġdiscriminative": 4324,
    "child": 5538,
    "Ġdaniel": 15116,
    "minded": 9040,
    "Ġwooden": 4730,
    "Ġinhabit": 5782,
    "Ġdistinguish": 2724,
    "Ġprosper": 10231,
    "naturalists": 23491,
    "Ġcolds": 23762,
    "Ġwilful": 10537,
    "Ġbestirred": 20453,
    "income": 15489,
    "Ġunflinching": 26514,
    "Ġscar": 3214,
    "Ġmaelstrom": 19359,
    "Ġcrozetts": 19631,
    "Ġhatty": 19267,
    "Ġshrieked": 9550,
    "ssing": 3808,
    "Ġprecipitous": 24836,
    "Ġexig": 21830,
    "Ġknotted": 17021,
    "Ġgovernments": 20269,
    "Ġhil": 10823,
    "Ġmien": 17811,
    "Ġrecital": 16145,
    "Ġjustification": 22972,
    "dham": 20832,
    "Ġadmeasure": 18294,
    "Ġwantonly": 22898,
    "velope": 17703,
    "gloomy": 25147,
    "ols": 2414,
    "asions": 12657,
    "Ġmarine": 23039,
    "Ġgardens": 16454,
    "Ġafterwards": 3531,
    "ermost": 7428,
    "Ġlengthen": 15658,
    "Ġmilk": 6484,
    "Ġclutching": 24954,
    "Ġuntouched": 16468,
    "Ġfelony": 18955,
    "Ġmediocrity": 26610,
    "most": 1258,
    "bergen": 14330,
    "Ġancest": 12620,
    "loud": 11504,
    "Ġgreenness": 23771,
    "Ġbald": 16209,
    "Ġcease": 7076,
    "Ġcloak": 9536,
    "Ġfam": 1587,
    "Ġbewitched": 25976,
    "Ġsurv": 6081,
    "Ġmur": 2489,
    "arer": 3965,
    "Ġfurnace": 19443,
    "Ġpoland": 23620,
    "newsp": 23140,
    "Ġtwitching": 25684,
    "Ġint": 409,
    "Ġhill": 5626,
    "Ġcombat": 16185,
    "Ġclifford": 22357,
    "ilingly": 21727,
    "yes": 981,
    "Ġearned": 19408,
    "Ġgrind": 18735,
    "judges": 19575,
    "Ġfilled": 4392,
    "swiss": 24259,
    "abez": 10225,
    "Ġscolded": 25473,
    "otle": 21801,
    "Ġblunder": 18821,
    "Ġcircling": 19094,
    "Ġarg": 4766,
    "pless": 6261,
    "Ġhearty": 9848,
    "borean": 25744,
    "Ġjog": 18405,
    "Ġmon": 1253,
    "Ġearlier": 9090,
    "copper": 19190,
    "blown": 25202,
    "iers": 5990,
    "Ġfare": 5810,
    "Ġloomed": 12305,
    "Ġins": 2779,
    "les": 1016,
    "Ġg": 310,
    "Ġhung": 4559,
    "Ġenchant": 7183,
    "Ġlandsman": 11353,
    "Ġroared": 7024,
    "Ġfolly": 7940,
    "Ġdistributed": 18662,
    "aloud": 17944,
    "Ġpersonally": 8602,
    "Ġpagoda": 19789,
    "Ġexplo": 2285,
    "Ġtears": 4229,
    "Ġwoody": 23523,
    "Ġ[\"": 19932,
    "oried": 10804,
    "Ġconsol": 3814,
    "ichron": 22172,
    "Ġconcil": 23325,
    "Ġweight": 657,
    "Ġsatisfied": 4170,
    "Ġopportunities": 19251,
    "Ġassist": 3564,
    "fted": 9121,
    "pondicherry": 26402,
    "emporary": 15802,
    "restrained": 16339,
    "adjust": 21763,
    "Ġblossom": 26313,
    "nder": 20989,
    "Ġringed": 16752,
    "Ġsorts": 6886,
    "lamp": 9611,
    "Ġwarbling": 26169,
    "Ġdishes": 16054,
    "iew": 2446,
    "matical": 13132,
    "Ġsame": 1341,
    "Ġascertain": 9709,
    "Ġscho": 4435,
    "Ġterribly": 10427,
    "Ġshiver": 12773,
    "received": 9641,
    "leton": 5148,
    "Ġmounts": 17809,
    "dles": 11484,
    "sad": 11524,
    "Ġcircum": 8257,
    "Ġabuse": 18398,
    "Ġpsal": 15620,
    "horn": 8085,
    "Ġxiii": 25592,
    "Ġresearches": 13131,
    "Ġgroping": 13669,
    "Ġconcrete": 20639,
    "ary": 984,
    "hunsford": 24387,
    "Ġcaptive": 14431,
    "Ġaust": 4871,
    "remarked": 12292,
    "consciously": 19627,
    "Ġgifts": 21615,
    "forbidding": 25838,
    "Ġhoisted": 5959,
    "irably": 13299,
    "wholly": 10943,
    "Ġmomentarily": 22815,
    "hollow": 24045,
    "Ġhist": 2444,
    "ake": 748,
    "Ġhe": 318,
    "delight": 5345,
    "Ġsay": 930,
    "Ġchal": 18379,
    "Ġthose": 1174,
    "Ġflourishing": 25188,
    "Ġrational": 8480,
    "Ġimprudently": 22400,
    "Ġmanhood": 22330,
    "Ġlightness": 23265,
    "Ġlearns": 2640,
    "Ü": 157,
    "smoking": 23915,
    "orable": 8119,
    "hy": 4740,
    "Ġtarpaulin": 26158,
    "wick": 5363,
    "Ġhavoc": 15817,
    "Ġinvol": 1066,
    "proves": 23398,
    "orate": 10802,
    "Ġinoffensive": 21501,
    "Ġhawsers": 26504,
    "--âĢĺ": 22856,
    "Ġsearch": 2589,
    "Ġimprisonment": 22401,
    "Ġmothers": 14543,
    "Ġexertion": 8053,
    "speps": 14340,
    "apt": 728,
    "flag": 14715,
    "Ġconfound": 23308,
    "Ġcelest": 9904,
    "seven": 8464,
    "Ġrejoice": 10211,
    "ial": 410,
    "erland": 9643,
    "Ġmock": 3690,
    "Ġterr": 3273,
    "Ġcordage": 19680,
    "Ġthundering": 24294,
    "Ġproduce": 4364,
    "whips": 22242,
    "scruple": 26046,
    "bolt": 25138,
    "separation": 25227,
    "Ġled": 3521,
    "ĠĠĠĠĠĠĠĠĠĠĠĠĠĠĠĠĠĠĠĠĠĠĠĠĠĠĠĠĠĠĠĠĠĠĠĠĠ": 14617,
    "Ġthrobbing": 16900,
    "Ġtypically": 1542,
    "thrill": 25657,
    "Ġevangelical": 25507,
    "Ġbennett": 16328,
    "Ġpitchpoling": 14915,
    "Ġmarried": 3409,
    "Ġlab": 1871,
    "pipe": 8700,
    "Ġunimaginable": 15250,
    "Ġcontracted": 12866,
    "Ġqueequeg": 2013,
    "ificial": 609,
    "sust": 15425,
    "Ġdistorted": 14253,
    "Ġnorthwards": 19547,
    "stir": 12679,
    "aths": 22705,
    "Ġordained": 19448,
    "date": 17519,
    "Ġvig": 5460,
    "Ġhigher": 1819,
    "Ġdazed": 15600,
    "il": 329,
    "seam": 10876,
    "countenances": 24155,
    "oring": 1860,
    "Ġclin": 14204,
    "Ļ": 252,
    "Ġcapital": 7979,
    "Ġbank": 4877,
    "iced": 3899,
    "aling": 1038,
    "Ġselects": 4383,
    "Ġantelope": 24183,
    "Ġmist": 2873,
    "Ġterm": 2267,
    "Ġshowers": 16607,
    "Ġbackgammon": 22654,
    "ergy": 2362,
    "loops": 12889,
    "Ġpleated": 16300,
    "Ġgettest": 23238,
    "cher": 5786,
    "Ġstaple": 26200,
    "gently": 13732,
    "france": 24285,
    "Ġreplete": 15702,
    "Ġborrow": 10173,
    "Ġbrought": 2516,
    "Ġstrand": 11833,
    "Ġpag": 6010,
    "Ġsyrian": 18354,
    "itance": 13871,
    "Ġinnermost": 12165,
    "factories": 19844,
    "Ġaberde": 22291,
    "Ġbelieved": 4365,
    "Ġwint": 15536,
    "Ġwis": 3727,
    "Ġmarbank": 23043,
    "Ġelder": 7221,
    "soles": 18688,
    "Ġsuspic": 4469,
    "Ġushered": 18357,
    "**:": 4737,
    "reed": 6372,
    "Ġabating": 22281,
    "continued": 8679,
    "Ġowing": 6004,
    "thread": 15830,
    "Ġpickle": 16724,
    "Ġramble": 9316,
    "Ġoverhear": 15979,
    "Ġtoast": 21515,
    "Ġrestrained": 16376,
    "altern": 17945,
    "Ġpolitical": 19226,
    "Ġfrightened": 5342,
    "nep": 20988,
    "Ġfoster": 18992,
    "Ġaccompany": 9489,
    "future": 13720,
    "octial": 20007,
    "Ġman": 544,
    "vens": 21115,
    "gin": 4931,
    "Ġserpents": 13080,
    "Ġlard": 13950,
    "Ġreddening": 25971,
    "appin": 18760,
    "Ġrel": 1098,
    "Ġfetch": 7768,
    "Ġcentury": 8290,
    "Ġfresher": 23213,
    "Ġfloat": 12036,
    "adel": 15733,
    "Ġhatch": 7847,
    "perai": 10278,
    "holland": 24046,
    "Ġcomplet": 4420,
    "Ġeighty": 19479,
    "Ġglue": 15678,
    "Ġretarded": 23075,
    "prosperity": 20737,
    "Ġmeditation": 16707,
    "Ġattent": 4358,
    "Ġsan": 7823,
    "fleece": 19950,
    "Ġcounting": 13099,
    "Ġsignificantly": 4518,
    "upon": 2719,
    "apers": 3481,
    "Ġ1825": 25719,
    "Ġunstruct": 2995,
    "Ġcommit": 18656,
    "Ġlithe": 24670,
    "dishonourable": 26367,
    "keeping": 8638,
    "Ġlavater": 20498,
    "Ġfitted": 6244,
    "Ġintolerably": 15833,
    "difficulty": 12394,
    "Ġignorantly": 19498,
    "Ġmeant": 3550,
    "clu": 20801,
    "canoes": 16233,
    "rarely": 21637,
    "laugh": 10111,
    "Ġvindication": 25365,
    "Ġnathan": 21529,
    "Ġcontinuing": 14401,
    "================": 3722,
    "Ġstory": 2897,
    "Ġmutually": 23961,
    "Ġarsac": 11747,
    "fast": 3075,
    "Ġoper": 2121,
    "Ġlouisa": 13548,
    "hurried": 11356,
    "Ġdock": 15934,
    "Ġgone": 2107,
    "Ġprofile": 16490,
    "Ġluxuries": 25167,
    "Ġobserver": 11993,
    "Ġ15": 9327,
    "Ġaway": 1246,
    "ckled": 9260,
    "sooner": 14782,
    "Ġwr": 1549,
    "Ġslumbers": 18945,
    "Ġinexperienced": 26101,
    "anyth": 5438,
    "Ġsoph": 1630,
    "riet": 18183,
    "Ġunho": 18247,
    "Ġdataset": 12825,
    "timidity": 25754,
    "Ġgestures": 13538,
    "Ġbumping": 25281,
    "Ġimpropri": 14224,
    "r": 86,
    "Ġrepro": 7273,
    "butter": 11790,
    "Ġcongregation": 12333,
    "fing": 13716,
    "Ġqueer": 4478,
    "intern": 23740,
    "Ġgenealogies": 25962,
    "Ġinattention": 17935,
    "menced": 23151,
    "adders": 24401,
    "iarity": 8747,
    "tim": 13794,
    "Ġinitialized": 3946,
    "Ġstraining": 11329,
    "Ġdiscovering": 13361,
    "Ġbully": 23860,
    "Ġcords": 14883,
    "trifling": 19417,
    "Ġmagician": 25061,
    "Ġword": 1054,
    "suddenly": 6492,
    "Ġwo": 3650,
    "Ġknocked": 9502,
    "Ġobsequ": 14324,
    "Ġwhimsical": 20430,
    "Ġredundant": 16554,
    "Ġseparately": 13306,
    "charm": 13993,
    "Ġjetted": 24432,
    "Ġtim": 4577,
    "Ġleatherhead": 20016,
    "Ġrepl": 1593,
    "Ġboundary": 11225,
    "Ġgenus": 24430,
    "itatingly": 25278,
    "Ġchick": 22251,
    "Ġlifeless": 8951,
    "measured": 19992,
    "Ġparadise": 11197,
    "Ġgathering": 14981,
    "neg": 12871,
    "umbrance": 22122,
    "road": 6678,
    "Ġyon": 9696,
    "Ġslay": 16311,
    "Ġpondered": 15171,
    "Ġconfidently": 24958,
    "Ġlabels": 3287,
    "Ġhearsed": 25042,
    "Ġboister": 12926,
    "practised": 20249,
    "gems": 20886,
    "anning": 10167,
    "ild": 1155,
    "Ġworms": 25217,
    "object": 6883,
    "backward": 2681,
    "ollen": 11301,
    "aloes": 21505,
    "geon": 6271,
    "Ġequalled": 13316,
    "Ġsil": 1797,
    "Ġconfiding": 19039,
    "Ġreplied": 2265,
    "Ġoptimal": 1855,
    "Ġcondition": 6764,
    "amped": 12037,
    "Ġbowlines": 19324,
    "Ġperhaps": 1912,
    "tumbled": 21093,
    "successively": 24778,
    "Ġreview": 18034,
    "ourers": 21452,
    "loat": 8890,
    "wolf": 26411,
    "Ġbath": 9661,
    "deaux": 22152,
    "utch": 21589,
    "aky": 18412,
    "Ġsched": 2337,
    "Ġexhaustion": 14964,
    "oyed": 14370,
    "Ġdeity": 18138,
    "formal": 14171,
    "Ġlanding": 11989,
    "intu": 22937,
    "Ġaroused": 15902,
    "Ġemergencies": 17365,
    "Ġunion": 6838,
    "Ġgruff": 21617,
    "ques": 2838,
    "step": 2455,
    "Ġfilters": 3926,
    "Ġseventeen": 26212,
    "Ġwood": 2291,
    "Ġundertaking": 8575,
    "Ġfooting": 14486,
    "Ġpallidness": 25605,
    "Ġthin": 4345,
    "uvian": 12247,
    "Ġincorporate": 20456,
    "Ġoccas": 2701,
    "Ġstig": 14006,
    "bounded": 13442,
    "professor": 17252,
    "Ġmostly": 7663,
    "Ġbounds": 9921,
    "Ġflows": 13014,
    "Ġdiamond": 15603,
    "Ġembraces": 19873,
    "Ġrash": 10900,
    "Ġresults": 7306,
    "bride": 19202,
    "Ġsummarization": 3646,
    "Ġstarvation": 19792,
    "ĠĠĠĠĠĠĠĠĠĠĠĠĠĠĠĠĠĠĠĠĠĠĠĠĠĠĠĠĠĠĠĠĠĠĠĠĠĠĠĠĠĠĠ": 12159,
    "Ġloathing": 15072,
    "Ġcovering": 13259,
    "Ġordinarily": 20651,
    "Ġfeature": 749,
    "vicious": 21121,
    "request": 21244,
    "Ġtheoretic": 23315,
    "isc": 6240,
    "Ġinvestigated": 25387,
    "Ġbowels": 9432,
    "Ġtry": 3136,
    "chancing": 22922,
    "Ġexempl": 21834,
    "Ġclasses": 4053,
    "richard": 17289,
    "Ġappal": 18361,
    "for": 953,
    "Ġsquat": 14372,
    "fes": 20853,
    "standard": 22440,
    "bib": 17494,
    "Ġbetray": 7440,
    "atherine": 2594,
    "Ġbeast": 7178,
    "gypt": 8260,
    "Ġupbraid": 18319,
    "enorm": 17784,
    "Ġdeliberate": 15026,
    "Ġsimilitude": 19212,
    "cripp": 20821,
    "Ġbands": 14888,
    "plate": 18209,
    "Ġresentment": 7529,
    "Ġmuslin": 19386,
    "Ġfrenzy": 13625,
    "Ġnocturnal": 20717,
    "Ġped": 7844,
    "amples": 1821,
    "Ġwane": 21291,
    "Ġdisp": 3357,
    "Ġwheelbarrow": 17207,
    "inguish": 9399,
    "Ġpasture": 14546,
    "Ġspecies": 5112,
    "vels": 5432,
    "Ġjurymen": 16849,
    "Ġdeserving": 14757,
    "Ġrattle": 10901,
    "Ġlevelled": 11287,
    "Ġclasped": 17209,
    "Ġrepairing": 25590,
    "Ġhome": 2028,
    "Ġhurts": 19113,
    "Ġcircumnavigation": 20402,
    "cor": 5520,
    "Ġmountainous": 16601,
    "Ġwillow": 18534,
    "Ġlances": 6984,
    "occupations": 24967,
    "Ġclearness": 23188,
    "Ġburst": 4378,
    "Ġexplaining": 15964,
    "Ġconverse": 11849,
    "Ġfinite": 2324,
    "agra": 14069,
    "brow": 15319,
    "ù": 186,
    "Ġassembly": 10645,
    "Ġfriendless": 23028,
    "pict": 8385,
    "recogn": 13428,
    "Ġwindibank": 7255,
    "Ġuniform": 2225,
    "Ġsorrow": 4629,
    "Ġdiversity": 25285,
    "sul": 15424,
    "pair": 21014,
    "Ġsteelkilt": 5675,
    "piece": 6657,
    "olent": 8154,
    "Ġinstinctively": 13462,
    "Ġdoctrine": 24201,
    "Ġhereabouts": 12982,
    "Ġwickedness": 9528,
    "Ġprincess": 23225,
    "Ġbordered": 24565,
    "envelope": 17785,
    "Ġosc": 2832,
    "works": 6588,
    "usoid": 4767,
    "anx": 8788,
    "tranquil": 25871,
    "Ġbefore": 813,
    "Ġdreary": 10410,
    "py": 17626,
    "could": 2869,
    "Ġtwin": 12934,
    "fug": 17545,
    "ula": 2822,
    "Ġcore": 13881,
    "Ġrheum": 18218,
    "Ġswift": 3668,
    "uend": 21104,
    "Ġhelp": 1643,
    "early": 20121,
    "Ġelizabeth": 1130,
    "Ġrascally": 26509,
    "Ġfowler": 16939,
    "Ġserviceable": 24716,
    "ċ": 204,
    "preser": 9762,
    "Ġconcent": 8249,
    "rel": 3752,
    "poke": 18800,
    "Ġchili": 25562,
    "Ġsnatches": 16547,
    "Ġsympathised": 14866,
    "Ġcrows": 24036,
    "Ġlimbs": 5965,
    "beheaded": 22498,
    "disguise": 26307,
    "saf": 11528,
    "Ġtypewriting": 16424,
    "stochastic": 3771,
    "Ġmercenary": 17196,
    "Ġserenity": 10031,
    "ples": 6844,
    "Ġgnashed": 20135,
    "Ġpeas": 8534,
    "Ġsimulation": 2748,
    "sides": 12512,
    "Ġge": 1977,
    "Ġcoin": 9774,
    "Ġfourteen": 12014,
    "Ġretrogression": 26583,
    "Ġtunnels": 24618,
    "Ġnormalization": 1245,
    "Ġmaria": 7124,
    "Ġlofty": 6218,
    "msman": 9273,
    "Ġmanaging": 22329,
    "Ġmeditations": 25016,
    "Ġglimpses": 13435,
    "Ġsymphony": 26534,
    "wa": 5897,
    "Ġphysical": 7521,
    "southern": 20411,
    "Ġbegin": 3102,
    "isco": 12587,
    "trucks": 25420,
    "Ġrefreshing": 20266,
    "Ġdisciple": 22788,
    "Ġvol": 4187,
    "Ġlegend": 14578,
    "amusement": 15286,
    "Ġpointing": 5661,
    "Ġdistinct": 4608,
    "Ġabrupt": 9741,
    "Ġconjugal": 25104,
    "Ġwrecks": 16820,
    "Ġbesee": 19245,
    "Ġstanding": 3000,
    "Ġtur": 2564,
    "chie": 21693,
    "Ġold": 1058,
    "Ġunclasp": 26513,
    "Ġbalance": 2021,
    "Ġsandwiched": 26612,
    "Ġbrigandish": 25488,
    "Ġknots": 15012,
    "Ġbrings": 11885,
    "mrs": 3743,
    "Ġmills": 21314,
    "Ġcheer": 4065,
    "ident": 3378,
    "Ġlegal": 10441,
    "wise": 2574,
    "Ġsleepy": 8267,
    "conduct": 11802,
    "Ġpruning": 18971,
    "nuts": 15401,
    "Ġstrict": 7220,
    "meditated": 19070,
    "Ġforgery": 25978,
    "Ġdimin": 3871,
    "Ġfrighten": 13281,
    "Ġbreath": 4791,
    "Ġimpediments": 26242,
    "rimshander": 20659,
    "Ġpresumably": 19626,
    "Ġghostly": 24652,
    "Ġhoary": 23358,
    "ants": 1390,
    "Ġvowed": 14087,
    "original": 9088,
    "Ġraft": 16121,
    "Ġsocially": 22091,
    "Ġfemale": 8344,
    "Ġmonosy": 18847,
    "Ġvast": 3295,
    "Ġhyster": 16875,
    "Ġheat": 5453,
    "Ġpark": 5465,
    "iter": 4389,
    "Ġprelimin": 8864,
    "week": 12937,
    "back": 2017,
    "Ġfancy": 3744,
    "Ġsighed": 10340,
    "there": 1426,
    "Ġspurn": 18310,
    "Ġdost": 7636,
    "Ġfind": 1460,
    "Ġdetect": 1181,
    "Ġperceive": 6700,
    "Ġhanging": 5447,
    "threatened": 25463,
    "bra": 6220,
    "ault": 2307,
    "uses": 11766,
    "augment": 18831,
    "Ġnegative": 1466,
    "Ġex": 361,
    "inative": 15487,
    "Ġcontrolled": 23255,
    "Ġclerks": 17298,
    "prairies": 20569,
    "undertaking": 23791,
    "Ġsmall": 892,
    "dep": 6786,
    "stream": 15691,
    "isting": 5551,
    "Ġas": 374,
    "whilst": 18373,
    "pered": 4195,
    "Ġj": 533,
    "Ġpillar": 21475,
    "Ġconst": 1911,
    "txt": 12520,
    "Ġrides": 21979,
    "Ġsaintly": 25932,
    "Ġaccommodate": 20520,
    "represent": 9640,
    "gallery": 24693,
    "Ġshifted": 14110,
    "Ġbar": 3149,
    "asleep": 21547,
    "Ġphysi": 9991,
    "Ġlifelessly": 23054,
    "Ġpos": 1011,
    "Ġhardship": 18915,
    "Ġequality": 16362,
    "fo": 5279,
    "desperate": 17360,
    "Ġneur": 816,
    "Ġdetailed": 12830,
    "ern": 759,
    "Ġhither": 4759,
    "Ġtak": 15473,
    "amaz": 21848,
    "Ġmuttering": 10502,
    "Ġunexpectedly": 19910,
    "Ġwestmorland": 24391,
    "Ġtell": 1470,
    "adler": 21766,
    "Ġend": 1475,
    "Ġs": 265,
    "Ġcheapside": 23292,
    "uth": 3022,
    "rally": 17653,
    "Ġdidst": 11854,
    "ihood": 20924,
    "Ġsupport": 6729,
    "Ġpatter": 809,
    "Ġcomplain": 6686,
    "Ġtune": 17727,
    "Ġoutward": 7903,
    "Ġbrew": 23346,
    "cannon": 22966,
    "Ġstamped": 13529,
    "contempl": 13194,
    "Ġhieroglyphic": 25588,
    "Ġsubtlety": 24779,
    "Ġinches": 5846,
    "obey": 11513,
    "impression": 15715,
    "Ġseaport": 20602,
    "Ġinsomuch": 23687,
    "whaleman": 23440,
    "Ġwad": 13854,
    "Ġinterpreter": 23216,
    "Ġroy": 4226,
    "slept": 17172,
    "Ġemployer": 19435,
    "wishing": 21131,
    "Ġintrig": 21995,
    "Ġslime": 23166,
    "onde": 21254,
    "ohnson": 16329,
    "Ġslacked": 25189,
    "Ġder": 1503,
    "Ġperforms": 11882,
    "Ġoriginally": 7302,
    "Ġlayer": 1012,
    "wooden": 24589,
    "Ġutilize": 4798,
    "Ġlaz": 7376,
    "atra": 17774,
    "icy": 6141,
    "Ġbravely": 23843,
    "Ġship": 1094,
    "Ġhorns": 11125,
    "atus": 21263,
    "Ġbalanced": 12993,
    "Ġdiverged": 23597,
    "Ġcircus": 19093,
    "Ġtutored": 20130,
    "dreadful": 11424,
    "Ġcheers": 16369,
    "Ġerection": 24005,
    "Ġinterval": 4052,
    "heidelburgh": 21214,
    "doublo": 24662,
    "riptions": 14799,
    "quid": 18150,
    "pret": 7210,
    "tered": 2229,
    "Ġtoo": 1166,
    "gled": 10701,
    "keeper": 5597,
    "fit": 6647,
    "Ġsucceeding": 16763,
    "Ġintolerable": 8482,
    "Ġcharted": 22254,
    "Ġsturgeon": 20595,
    "Ġwore": 6376,
    "Ġprehens": 22235,
    "abst": 21792,
    "Ġtogether": 1878,
    "until": 6597,
    "Ġbenevolent": 7771,
    "Ġrefuge": 8540,
    "Ġtallow": 14784,
    "Ġhowled": 12861,
    "physiogn": 26266,
    "Ġstiff": 6992,
    "him": 1940,
    "Ġetern": 7085,
    "Ġsqu": 1040,
    "Ġvacuous": 24345,
    "Ġclang": 15966,
    "Ġblandly": 20325,
    "Ġlightened": 23266,
    "Ġimaginative": 19249,
    "accents": 19213,
    "crossed": 16635,
    "Ġrepresenting": 4059,
    "presbyter": 20621,
    "Ġey": 8134,
    "Ġpartiality": 9400,
    "birds": 15149,
    "phew": 6367,
    "iform": 2201,
    "Ġmedium": 16708,
    "ilations": 21725,
    "Ġmunro": 25631,
    "Ġgroom": 13969,
    "described": 18896,
    "_,âĢĻ": 12437,
    "Ġdecoding": 3086,
    "yed": 3272,
    "Ġastonishing": 10504,
    "Ġprophets": 20452,
    "centred": 25020,
    "smoke": 17225,
    "Ġcraft": 4374,
    "miss": 3175,
    "Ġalleg": 14020,
    "ges": 2870,
    "bloom": 24689,
    "alty": 17942,
    "Ġspar": 10923,
    "Ġscrewing": 20210,
    "Ġfaithfulness": 24447,
    "Ġinstead": 2788,
    "contemplated": 20460,
    "peare": 18913,
    "======================================================================": 10071,
    "impetuous": 23767,
    "Ġvexed": 9997,
    "Ġbur": 2696,
    "Ġnautical": 17389,
    "gd": 3127,
    "ulum": 21867,
    "Ġglac": 9349,
    "Ġpainter": 19170,
    "eral": 9162,
    "Ġfath": 7362,
    "rifle": 21049,
    "appearing": 14640,
    "springing": 24890,
    "Ġamel": 18510,
    "Ġscarcity": 23831,
    "introduction": 15128,
    "Ġfeast": 10280,
    "vitiated": 25755,
    "Ġcould": 703,
    "Ġsuppress": 13028,
    "awake": 14456,
    "bing": 7790,
    "ted": 793,
    "Ġappropriate": 2250,
    "lege": 17844,
    "Ġaround": 3611,
    "Ġdin": 3625,
    "Ġbacking": 16115,
    "Ġrestrain": 8967,
    "Ġbrix": 12589,
    "Ġcareless": 11121,
    "Ġloo": 22114,
    "ume": 4836,
    "Ġabstraction": 26542,
    "Ġroute": 11384,
    "9": 29,
    "Ġheavens": 5050,
    "Ġfears": 5729,
    "Ġbruised": 25773,
    "Ġwhy": 1758,
    "Ġregularizer": 2339,
    "Ġstand": 1735,
    "Ġfluctuations": 5516,
    "icle": 10836,
    "Ġbroad": 3639,
    "Ġtorture": 9067,
    "Ġobstetrics": 24748,
    "Ġshowed": 4496,
    "wreck": 21139,
    "av": 739,
    "romising": 18235,
    "Ġsplend": 9901,
    "Ġslid": 7951,
    "Ġenrapt": 21944,
    "Ġroofs": 16986,
    "Ġsees": 8847,
    "Ġgriev": 16637,
    "Ġscalable": 1518,
    "pursued": 17284,
    "icted": 5937,
    "Ġpalmy": 19502,
    "Ġzero": 1202,
    "Ġsurveying": 25326,
    "Ġluxurious": 17314,
    "Ġtwinkle": 12327,
    "matter": 5136,
    "Ġspared": 7892,
    "istered": 14148,
    "closed": 23159,
    "Ġmoral": 6580,
    "Ġcontinent": 14892,
    "suggested": 17302,
    "moby": 8537,
    "Ġmabel": 17327,
    "Ġoffic": 3188,
    "Ġroaring": 10970,
    "deployment": 26529,
    "acled": 16086,
    "Ġpitied": 14695,
    "recked": 17765,
    "question": 5418,
    "Ġaval": 15496,
    "Ġbound": 3518,
    "ounted": 5030,
    "Ġedinburgh": 16459,
    "Ġdoleful": 18378,
    "Ġgrecian": 26297,
    "Ġrests": 13097,
    "Ġbreaking": 6310,
    "Ġunearthly": 9039,
    "voices": 21120,
    "acid": 11008,
    "zag": 17715,
    "Ġrelinqu": 12987,
    "Ġrisks": 9967,
    "Ġers": 15463,
    "itch": 10163,
    "Ġcond": 3874,
    "Ġmarines": 16264,
    "Ġdecomposes": 5506,
    "approaching": 15015,
    "distinct": 13339,
    "Ġmayhap": 18710,
    "Ġslowly": 3618,
    "Ġunexampled": 20362,
    "Ġsubdued": 11032,
    "Ġlvi": 21556,
    "Ġrevolving": 9986,
    "rin": 10124,
    "silly": 24423,
    "resolutions": 26165,
    ";âĢĿâĢĶ": 20762,
    "1775": 26380,
    "pig": 8756,
    "Ġvalue": 2086,
    "Ġloafer": 18300,
    "Ġporthole": 24400,
    "shut": 10983,
    "Ġdecided": 5471,
    "kington": 11206,
    "Ġpolynes": 16083,
    "ten": 1561,
    "Ġensigns": 23693,
    "Ġregion": 2273,
    "Ġallurements": 22012,
    "bo": 1691,
    "Ġmockery": 12112,
    "Ġdive": 10175,
    "introdu": 8940,
    "Ġaustralia": 15236,
    "suitable": 18631,
    "Ġgrimes": 11036,
    "feit": 16046,
    "generations": 23789,
    "Ġwretchedness": 9029,
    "Ġborne": 6351,
    "Ġpertin": 18446,
    "alization": 732,
    "deliber": 17429,
    "chooses": 23677,
    "Ġmaterially": 12196,
    "Ġsemicircle": 26068,
    "Ġsometimes": 2168,
    "anum": 17838,
    "terbury": 21828,
    "ease": 12462,
    "Ġimpartial": 15224,
    "clam": 13059,
    "listen": 13516,
    "Ġproperties": 3121,
    "gover": 10704,
    "Ġquestionable": 19268,
    "Ġsalmon": 24067,
    "abases": 3008,
    "monkey": 19172,
    "shazzar": 15293,
    "Ġsurrounded": 5879,
    "Ġposture": 24168,
    "stay": 9684,
    "produce": 20284,
    "adm": 7608,
    "Ġdisaster": 12893,
    "Ġpursuers": 13230,
    "seek": 8841,
    "Ġpence": 17906,
    "Ġaberdeen": 26544,
    "Ġretrogress": 23076,
    "Ġattracted": 8908,
    "Ġbranch": 8331,
    "Ġdetaining": 25819,
    "deser": 10481,
    "pinn": 21028,
    "enjoy": 10776,
    "Ġrealism": 18984,
    "Ġextracts": 9366,
    "tures": 21072,
    "Ġgreeting": 18964,
    "04": 10682,
    "Ġcoolness": 16888,
    "Ġrevelation": 25223,
    "Ġblacksmith": 6596,
    "simple": 13455,
    "affectionate": 24922,
    "Ġprecious": 5760,
    "Ġbag": 5699,
    "ick": 836,
    "Ġelated": 18634,
    "ivided": 22085,
    "oves": 15406,
    "fearing": 18533,
    "tube": 20413,
    "pursue": 24976,
    "Ġhaste": 9006,
    "Ġcomplement": 23713,
    "Ġactuated": 18545,
    "âĢĻ-": 18170,
    "onical": 21256,
    "Ġtests": 8960,
    "Ġweighted": 2091,
    "neys": 23585,
    "Ġbund": 17866,
    "Ġrazors": 22665,
    "Ġwerter": 15243,
    "Ġmoles": 22436,
    "Ġvocabulary": 4995,
    "bird": 9588,
    "flatter": 23971,
    "Ġburg": 23657,
    "Ġunjust": 8484,
    "minute": 11277,
    "itating": 9653,
    "Ġswaths": 23062,
    "Ġsecured": 6746,
    "onsense": 6430,
    "seventh": 12720,
    "Ġfinanc": 23134,
    "Ġadded": 2714,
    "became": 10517,
    "omit": 13977,
    "cre": 4248,
    "Ġassume": 10518,
    "Ġvancou": 22881,
    "Ġdry": 5624,
    "Ġbinding": 20421,
    "iven": 1238,
    "inates": 21183,
    "Ġretains": 20032,
    "umbers": 10920,
    "gloves": 25146,
    "Ġsplendid": 17216,
    "goodness": 19291,
    "supposed": 13319,
    "Ġway": 1090,
    "Ġcoiled": 11825,
    "Ġoutrages": 18416,
    "Ġscience": 1540,
    "asible": 21545,
    "lover": 18540,
    "Ġlowers": 23245,
    "ais": 8070,
    "abetical": 15747,
    "Ġcharacteristic": 12052,
    "Ġcoburg": 18594,
    "quarter": 11391,
    "church": 8139,
    "maid": 8553,
    "Ġlowerings": 23649,
    "Ġsimul": 1806,
    "4": 24,
    "Ġindulging": 16906,
    "Ġjav": 7901,
    "Ġbled": 17859,
    "zealand": 26053,
    "Ġtamely": 24980,
    "Ġwoll": 21296,
    "Ġhawaiian": 25367,
    "des": 3173,
    "ureau": 10229,
    "swallowed": 14857,
    "Ġrecord": 5317,
    "Ġcondem": 6338,
    "Ġhuzza": 12639,
    "Ġperilous": 7767,
    "raise": 18015,
    "Ġvigilant": 20186,
    "Ġadmitting": 19185,
    "Ġaltitude": 26204,
    "danced": 20830,
    "anzas": 17843,
    "Ġactivation": 917,
    "sterdam": 19091,
    "Ġwhereas": 3854,
    "Ġsenate": 25215,
    "Ġarticulated": 24434,
    "considerably": 13448,
    "Ġluff": 15657,
    "japan": 15378,
    "Ġdisclose": 16160,
    "ĠĠĠĠĠĠĠĠĠĠĠĠĠĠĠĠĠĠĠĠĠĠĠĠĠĠĠĠĠĠĠĠĠĠĠĠĠĠĠĠĠĠĠĠĠĠ": 9956,
    "Ġrough": 7185,
    "trad": 21078,
    "Ġundet": 16703,
    "happiest": 19334,
    "ougher": 18280,
    "Ġsize": 1216,
    "Ġwonder": 2118,
    "ighb": 10425,
    "ria": 15799,
    "dipped": 20839,
    ",--âĢľ": 19199,
    "rential": 22923,
    "lass": 5992,
    "reproof": 25433,
    "tem": 6368,
    "handed": 7481,
    "obser": 11101,
    "Ġmany": 1105,
    "odox": 21815,
    "Ġshaft": 18231,
    "83": 13684,
    "lock": 1472,
    "mine": 5618,
    "hack": 20898,
    "Ġconsort": 18725,
    "Ġser": 1672,
    "Ġplaus": 22605,
    "Ġremain": 1873,
    "Ġsurve": 9877,
    "Ġincreasingly": 9374,
    "Ġextravagant": 17281,
    "breakfast": 8691,
    "Ġmute": 19419,
    "Ġrecovered": 5481,
    "rated": 6228,
    "Ġreplaced": 13075,
    "Ġframed": 19027,
    "inement": 11561,
    "folding": 24928,
    "aul": 6352,
    "Ġlower": 2660,
    "Ġtrick": 7021,
    "prisoner": 20546,
    "Ġpious": 11602,
    "walk": 5523,
    "Ġdebt": 12172,
    "Ġresist": 7915,
    "Ġhave": 445,
    "Ġcomprehension": 15091,
    "Ġdodge": 19887,
    "Ġpled": 17908,
    "Ġlooked": 1802,
    "Ġforg": 3785,
    "Ġrambled": 20170,
    "Ġplot": 14285,
    "incible": 16500,
    "Ġcompetition": 14270,
    "effect": 8607,
    "Ġunassuming": 20511,
    "Ġvisits": 8222,
    "Ġfist": 21407,
    "exerc": 16019,
    "rayed": 23565,
    "Ġincidents": 9302,
    "Ġlibraries": 20617,
    "disappo": 8987,
    "ogy": 22699,
    "Ġsinusoid": 4781,
    "Ġgor": 9209,
    "Ġbishop": 13905,
    "Ġloudly": 7310,
    "Ġrafters": 22664,
    "Ġinflamed": 13476,
    "geons": 15983,
    "Ġunit": 1847,
    "shark": 14243,
    "old": 800,
    "ancing": 1757,
    "Ġemph": 14528,
    "Ġbrist": 14382,
    "Ġprophesied": 26063,
    "Ġcrumbs": 19124,
    "Ġincant": 18569,
    "iloqu": 11652,
    "ively": 1305,
    "fell": 6952,
    "lot": 3209,
    "Ġblocks": 6321,
    "astonishment": 10033,
    "Ġmisfortunes": 7041,
    "usations": 15951,
    "Ġwharves": 13508,
    "consideration": 14958,
    "Ġfossils": 20224,
    "uing": 17695,
    "Ġcharge": 5325,
    "Ġbasket": 9574,
    "mbling": 3343,
    "thou": 4709,
    "Ġorganically": 3015,
    "Ġfrosted": 19805,
    "Ġgorge": 13569,
    "Ġbru": 13898,
    "Ġabutted": 22289,
    "Ġhal": 1362,
    "Ġrevenue": 26196,
    "Ġconfidence": 6591,
    "Ġskies": 8924,
    "Ġledge": 19404,
    "Ġcivilized": 8668,
    "Ġinsights": 13182,
    "Ġdepicted": 14280,
    "Ġsleepless": 14585,
    "mccarthy": 15398,
    "ien": 10104,
    "Ġfingertips": 24021,
    "Ġpenalties": 10414,
    "resistible": 10646,
    "Ġtenderness": 12220,
    "Ġgentlemanly": 19318,
    "Ġbushy": 16405,
    "tle": 2411,
    "Ġsquare": 2398,
    "Ġdeduce": 8336,
    "Ġboundless": 10498,
    "Ġcarving": 14447,
    "Ġwondrously": 24070,
    "Ġvolcano": 24151,
    "profitable": 17056,
    "Ġforehead": 5262,
    "Ġelsewhere": 7711,
    "Ġarmy": 11746,
    "ivers": 1983,
    "ulsive": 10236,
    "Ġhunts": 23163,
    "Ġeng": 1163,
    "save": 13788,
    "Ġreassure": 21675,
    "Ġbenefit": 8293,
    "nants": 17615,
    "\"]": 17473,
    "Ġdespondence": 25870,
    "torm": 11534,
    "den": 938,
    "Ġmajor": 13295,
    "Ġpell": 21458,
    "beer": 22493,
    "Ġbloom": 9890,
    "Ġuniversally": 12004,
    "Ġgangway": 20160,
    "Ġimmensity": 25330,
    "Ġwhelmed": 26000,
    "Ġsilken": 16382,
    "icide": 11622,
    "barbar": 20240,
    "Ġvishnoo": 12759,
    "assistant": 25568,
    "Ġbusy": 6190,
    "dinah": 20083,
    "Ġwatch": 2740,
    "Ġsends": 14795,
    "gown": 9599,
    "Ġlurked": 11294,
    "Ġlub": 15653,
    "computer": 2004,
    "Ġpigeon": 9518,
    "Ġfollowed": 1792,
    "Ġvehem": 22893,
    "Ġgrego": 18963,
    "Ġnext": 2141,
    "Ġcomple": 2837,
    "onely": 6515,
    "ĠĠĠĠĠĠĠĠĠĠĠĠĠĠĠĠ": 1220,
    "Ġlesson": 7274,
    "absurd": 21799,
    "Ġtis": 15468,
    "Ġpounds": 5368,
    "sper": 4433,
    "erity": 21270,
    "Ġperpendicularly": 11377,
    "Ġundu": 15841,
    "Ġfaster": 3199,
    "Ġjava": 12316,
    "sighted": 19786,
    "Ġindulged": 13420,
    "Ġcursory": 18853,
    "inked": 12919,
    "mag": 6507,
    "Ġcapt": 1290,
    "baby": 25516,
    "Ġchilled": 18383,
    "pall": 17630,
    "Ï": 144,
    "Ġbottomless": 12111,
    "Ġbasin": 19848,
    "Ġnewton": 3533,
    "Ġboom": 9313,
    "Ġjest": 18404,
    "Ġoath": 7832,
    "Ġdepends": 1069,
    "Ġdoubloon": 6944,
    "Ġconcealing": 23907,
    "otence": 14026,
    "Ġargemone": 24278,
    "Ġgable": 15671,
    "Ġbuckle": 17034,
    "through": 4021,
    "Ġhorrify": 23823,
    "Ġleg": 2335,
    "flesh": 13493,
    "drove": 16995,
    "Ġrates": 1406,
    "Ġchronicler": 20231,
    "imly": 12693,
    "express": 4895,
    "Ġexample": 5096,
    "placidity": 25989,
    "Ġsleet": 8978,
    "illuminated": 17456,
    "Ġvacancies": 24346,
    "lacings": 26135,
    "Ġjuncture": 17132,
    "Ġsensitiveness": 23739,
    "Ġdeafened": 25652,
    "Ġstores": 18075,
    "Ġclinch": 18425,
    "glass": 9912,
    "Ġlingering": 11382,
    "Ġranks": 21980,
    "Ġfake": 5811,
    "mean": 6437,
    "X": 60,
    "Ġslates": 11109,
    "Ġimbib": 22179,
    "Ġgrap": 11712,
    "ilogue": 21728,
    "Ġcampa": 17176,
    "Ġperth": 7023,
    "Ġdemoniacal": 20559,
    "pan": 10718,
    "Ġhardships": 14455,
    "ower": 1033,
    "Ġfobbing": 26443,
    "Ġaspired": 25985,
    "tasted": 17689,
    "Ġinsolence": 20255,
    "âĢĶâĢĺ_": 24832,
    "Ġflurry": 18862,
    "rope": 3186,
    "ensibility": 22551,
    "globe": 25145,
    "Ġsnarl": 25714,
    "Ġlapse": 17123,
    "sentiment": 12920,
    "Ġsequential": 2132,
    "hester": 9634,
    "Ġunwillingly": 15852,
    "dred": 2527,
    "Ġreproachfully": 25252,
    "Ġvisage": 18773,
    "idual": 1564,
    "Ġlingu": 11618,
    "Ġmut": 3583,
    "Ġstark": 7388,
    "Ġafford": 4363,
    "Ġlifting": 10199,
    "Ġeels": 21623,
    "Ġdistant": 5387,
    "aws": 8236,
    "Ġsitt": 21220,
    "dire": 15339,
    "ctions": 951,
    "Ġwires": 21298,
    "Ġkindly": 6077,
    "Ġthreshold": 2805,
    "ensils": 22552,
    "angs": 5835,
    "Ġmisgiv": 14349,
    "Ġcrowding": 13283,
    "orous": 5294,
    "Ġalert": 18105,
    "ulation": 5458,
    "slow": 7809,
    "Ġsmothered": 20722,
    "struct": 2293,
    "Ġthrilling": 19750,
    "ture": 7557,
    "Ġem": 1925,
    "Ġsnatching": 10474,
    "Ġwhosoever": 21722,
    "Ġdetection": 3345,
    "Ã¦": 4335,
    "Ġsupple": 23003,
    "model": 4612,
    "Ġpir": 6817,
    "eous": 13715,
    "aulding": 11341,
    "Ġhed": 7385,
    "spades": 14339,
    "Ġhoars": 19077,
    "Ġoverpow": 14211,
    "Ġtugged": 17291,
    "Ġcharacteristics": 8613,
    "ades": 5631,
    "Ġattached": 5392,
    "acter": 2506,
    "ractions": 11637,
    "Ġenemies": 9041,
    "ggy": 13117,
    "ivil": 6410,
    "derick": 22171,
    "Ġthrone": 12218,
    "axen": 22525,
    "Ġtemporarily": 11170,
    "preserve": 25304,
    "Ġdeck": 2140,
    "Ġbestir": 13113,
    "trimmed": 23953,
    "Ġmaintains": 2146,
    "immed": 9220,
    "achine": 607,
    "Ġbagging": 24540,
    "Ġwrist": 8242,
    "Ġimplies": 24874,
    "continu": 5501,
    "Ġgroan": 13327,
    "Ġfathom": 17049,
    "Ġthumb": 6981,
    "depth": 12806,
    "accomp": 10457,
    "Ġhitherto": 5880,
    "latitude": 25260,
    "indignation": 18439,
    "naturalist": 23490,
    "Ġstate": 1810,
    "pulous": 15419,
    "Ġfamiliarly": 11306,
    "impropriety": 21716,
    "Á": 130,
    "unwillingly": 21889,
    "cu": 10086,
    "Ġguardsmen": 20633,
    "Ġocc": 885,
    "ĠĠĠĠĠ": 3526,
    "compose": 24037,
    "iousness": 4899,
    "travelling": 24339,
    "Ġconversations": 9427,
    "Ġaccomplice": 24377,
    "inspect": 11562,
    "ction": 501,
    "Ġintention": 5638,
    "wound": 21129,
    "Ġruled": 22790,
    "Ġsmilingly": 22564,
    "Ġmanilla": 15963,
    "shaped": 10312,
    "Ġslung": 23173,
    "creation": 14810,
    "Ġcowardice": 17033,
    "Ġexclude": 19042,
    "Ġstriding": 16097,
    "Ġunravel": 26216,
    "Ġesq": 15113,
    "Ġworst": 7442,
    "aching": 5832,
    "teous": 16176,
    "Ġconfine": 14511,
    "Ġstirs": 14921,
    "thoroughly": 26510,
    "Ġdrowsy": 26446,
    "Ġimmortality": 26327,
    "Ġpoetry": 15085,
    "piteous": 21036,
    "Ġunmanner": 22031,
    "Ġdripping": 13150,
    "1": 21,
    "Ġsloop": 25931,
    "Ġcircles": 7966,
    "fights": 20867,
    "desolation": 20461,
    "twill": 21077,
    "Ġbe": 336,
    "Ġnephew": 6404,
    "Ġjewel": 9945,
    "deliver": 19507,
    "Ġseething": 18203,
    "Ġslope": 14464,
    "increasing": 20271,
    "Ġtaurus": 21181,
    "inisc": 15491,
    "Ġwhine": 21718,
    "fugitive": 26132,
    "Ġinexperience": 26100,
    "Ġsubstit": 19543,
    "arity": 1303,
    "Ġgasps": 24866,
    "Ġhaul": 11697,
    "Ġunsolved": 22035,
    "Ġsymptoms": 8708,
    "Ġsmiling": 5474,
    "lads": 20957,
    "attached": 11939,
    "Ġleech": 24159,
    "Ġentr": 14343,
    "shiver": 16031,
    "persuade": 13535,
    "cro": 13700,
    "Ġcattle": 12578,
    "animated": 14978,
    "ications": 4444,
    "letters": 13177,
    "Ġribbed": 16806,
    "Ġdeg": 3281,
    "suspicious": 25391,
    "Ġindolence": 16231,
    "entire": 6823,
    "Ġadieu": 10054,
    "Ġclinging": 10294,
    "Ġassisted": 11113,
    "Ġfearful": 6198,
    "Ġindoors": 18838,
    "ondency": 15273,
    "Ġforces": 12708,
    "Ġgateway": 24799,
    "ę": 218,
    "Ġprograms": 7237,
    "Ġpreserved": 9265,
    "Ġdexterous": 15153,
    "Ġharrow": 17929,
    "Ġgrey": 4512,
    "solitary": 14508,
    "Ġreduced": 11929,
    "Ġ105": 24414,
    "Ġdepth": 2438,
    "Ġgladstone": 23873,
    "Ġberyl": 20492,
    "kers": 7132,
    "Ġtalents": 15048,
    "avast": 8900,
    "Ġinner": 9673,
    "burgh": 6773,
    "Ġhonourable": 10458,
    "warm": 8101,
    "_?âĢĿ": 15309,
    "ads": 5718,
    "cry": 12450,
    "Ġfeedback": 23437,
    "mighty": 9468,
    "mind": 4627,
    "itations": 17820,
    "onts": 15522,
    "Ġten": 2388,
    "Ġroman": 8322,
    "Ġvehicles": 10662,
    "Ġdemeanour": 17340,
    "immediate": 20096,
    "endeavour": 17032,
    "Ġending": 18924,
    "Ġviews": 7288,
    "Ġdismantled": 20218,
    "Ġsensationalism": 26067,
    "ches": 2150,
    "midnight": 14906,
    "Ġdrew": 3537,
    "Ġcostly": 23587,
    "Ġflash": 8229,
    "believed": 9936,
    "Ġwhispers": 14704,
    "Ġjur": 12840,
    "Ġuntoward": 19167,
    "Ġgouldings": 26189,
    "Ġsquid": 11883,
    "Ġfountains": 13505,
    "ounts": 4652,
    "umns": 14151,
    "ividual": 5463,
    "Ġaristocratic": 20516,
    "Ġmourning": 13481,
    "athies": 22706,
    "educ": 10830,
    "Ġtol": 6676,
    "Ġcleansed": 26295,
    "hee": 10762,
    "Ġoffices": 14342,
    "Ġrecorded": 11296,
    "astron": 22173,
    "ative": 744,
    "Ġlaying": 7907,
    "Ġwherever": 8524,
    "Ġpuzzled": 7315,
    "nowhere": 18419,
    "Ġparts": 4163,
    "hyena": 24256,
    "Ġcopy": 10166,
    "Ġnamed": 6140,
    "Ġreusable": 13560,
    "Ġpersonality": 16479,
    "Ġfurnish": 9022,
    "conqu": 14248,
    "Ġcontest": 18474,
    "Ġstove": 6734,
    "Ġruggedness": 26270,
    "Ġiter": 2950,
    "Ġrecounted": 22743,
    "Ġburied": 7717,
    "Ġapplied": 6187,
    "suspicions": 25392,
    "Ġcommission": 6713,
    "Ġmrs": 1469,
    "Ġpreserving": 19797,
    "Ġdwelling": 7320,
    "greenland": 10024,
    "without": 4847,
    "Ġburly": 19252,
    "Ì": 141,
    "uously": 7351,
    "hump": 12482,
    "Ġclim": 8194,
    "Ġwag": 10777,
    "ancy": 4391,
    "Ġjost": 23633,
    "Ġaid": 6123,
    "Ġjutting": 22305,
    "mant": 20967,
    "alluring": 18351,
    "Ġmincer": 14369,
    "cceed": 4141,
    "Ġdried": 7365,
    "Ġperse": 6273,
    "erxes": 21278,
    "nals": 16403,
    "onstr": 12551,
    "ery": 1268,
    "Ġilluminated": 20177,
    "staff": 21659,
    "col": 3106,
    "lay": 5891,
    "history": 15018,
    "Ġrifled": 21984,
    "Ġcomparison": 7099,
    "additional": 20466,
    "Ġowned": 11881,
    "Ġliking": 23594,
    "Ġtyphoon": 12393,
    "Ġcan": 468,
    "Ġflames": 7939,
    "indef": 17737,
    "Ġlawn": 7377,
    "rubbed": 22205,
    "Ġinde": 7369,
    "Ġmutter": 23958,
    "Ġgordon": 26469,
    "icherry": 15140,
    "interference": 23742,
    "Ġwork": 1300,
    "Ġbustle": 17230,
    "mond": 20976,
    "à": 161,
    "Ġjudges": 14688,
    "Ġtraining": 530,
    "Ġauthentic": 20538,
    "Ġnoon": 6559,
    "Ġmagnanim": 14476,
    "Ġhypocritical": 20740,
    "unalterable": 21891,
    "Ġchry": 22250,
    "Ġbible": 9322,
    "vity": 7814,
    "garnished": 26390,
    "iod": 3839,
    "irous": 8843,
    "err": 1143,
    "Ġexpanded": 14296,
    "Ġzone": 14366,
    "Ġrevolut": 3258,
    "Ġconsists": 11982,
    "oding": 1464,
    "Ġregrets": 18599,
    "nelson": 25621,
    "mies": 20970,
    "Ġwhirled": 14963,
    "idered": 4552,
    "sisters": 13379,
    "exception": 9979,
    "Ġannum": 24207,
    "hibited": 17430,
    "cloth": 11941,
    "Ġ81": 24458,
    "Ġclair": 6269,
    "Ġassault": 9840,
    "he": 264,
    "Ô": 149,
    "Ġresides": 22544,
    "Ġget": 1624,
    "Ġresemblance": 7973,
    "Ġrallied": 14099,
    "Ġbillows": 7501,
    "Ġself": 1776,
    "Ġtemper": 956,
    "Ġissue": 2311,
    "Ġner": 1648,
    "phr": 18713,
    "Ġhalyards": 21497,
    "Ġdarkness": 4275,
    "Ġobservant": 20112,
    "Ġtemporal": 2611,
    "Ġentities": 11869,
    "usage": 12839,
    "Ġadviser": 25313,
    "Ġmitigating": 1618,
    "Ġsnaky": 23746,
    "inian": 21185,
    "ĠĠĠĠĠĠĠĠĠĠĠĠĠĠĠĠĠĠĠĠĠĠĠĠĠĠĠĠĠĠĠĠĠĠĠĠĠĠĠĠĠ": 19584,
    "Ġthro": 5818,
    "sing": 5138,
    "Ġgrunt": 18736,
    "Ġbrass": 11050,
    "Ġdeceitful": 25733,
    "recurring": 24198,
    "Ġencounters": 19582,
    "Ġskiff": 16168,
    "calmed": 16207,
    "Ġcomes": 3423,
    "Ġcom": 368,
    "Ġkeenly": 9487,
    "Ġcanals": 22166,
    "ased": 1267,
    "Ġlens": 8438,
    "Ġminutes": 3002,
    "bitterly": 20339,
    "pect": 1256,
    "ridge": 9499,
    "worshipping": 16612,
    "Ġporus": 24399,
    "Ġdiscoursing": 26268,
    "end": 498,
    "Ġhooked": 19079,
    "Ġcrazed": 19177,
    "asp": 3338,
    "Ġproceeded": 5336,
    "ack": 611,
    "venerable": 26410,
    "Ġcleat": 18950,
    "excepting": 19708,
    "Ġgnawed": 25168,
    "spent": 12948,
    "Ġarguing": 25471,
    "Ġ48": 24085,
    "Ġ2": 2925,
    "aut": 1913,
    "Ġenthus": 7230,
    "til": 17673,
    "oro": 21398,
    "Ġbapt": 13899,
    "hug": 17565,
    "Ġdecapitated": 20619,
    "Ġglowing": 12287,
    "Ġextort": 22724,
    "Ġencountered": 8321,
    "Ġran": 3341,
    "Ġissu": 6254,
    "mansion": 20985,
    "Ġendwise": 23142,
    "takes": 21079,
    "Ġquestioning": 10466,
    "Ġourselves": 5127,
    "Ġfumbled": 17884,
    "Ġincorrect": 2726,
    "Ġwears": 10243,
    "Ġletting": 10364,
    "Ġthenceforth": 25183,
    "Ġalchemists": 26489,
    "results": 20389,
    "instrument": 15242,
    "Ġapple": 14172,
    "Ġprovision": 14828,
    "bb": 2797,
    "Ġeliminating": 20623,
    "Ġwicked": 5960,
    "Ġroyals": 19535,
    "ous": 476,
    "Ġhitting": 21490,
    "Ġgam": 11628,
    "Ġinhospit": 25453,
    "Ġpreviously": 3918,
    "uvier": 9071,
    "Ġunderneath": 16341,
    "surrounded": 26089,
    "Ġconting": 18473,
    "Ġstories": 10867,
    "imaux": 21715,
    "Ġpeering": 8535,
    "Ġidentified": 19152,
    "Ġwindlass": 7254,
    "Ġestimation": 11221,
    "Ġ41": 24084,
    "Ġcocoanuts": 26364,
    "Ġfatality": 12100,
    "isf": 2435,
    "suspended": 15182,
    "Ġunwell": 22019,
    "Ġbrine": 18771,
    "recollect": 17226,
    "Ġproced": 2579,
    "Ġsound": 2243,
    "Ġabout": 633,
    "Ġsteel": 3888,
    "ud": 918,
    "Ġplaned": 24061,
    "Ġtopic": 9408,
    "Ġpanelled": 19656,
    "dirty": 20836,
    "Ġcock": 11001,
    "peter": 24301,
    "Ġdev": 891,
    "little": 3350,
    "Ġquenched": 22421,
    "Ġclimb": 15084,
    "throw": 14101,
    "Ġlines": 4533,
    "Ġmanipulation": 10661,
    "rises": 17657,
    "Ġopenly": 8574,
    "ackled": 22424,
    "vell": 3956,
    "Ġtour": 9150,
    "sign": 8387,
    "aggo": 5097,
    "Ġapproxim": 1217,
    "utional": 17987,
    "Ġgrat": 4055,
    "Ġcraven": 16472,
    "much": 3704,
    "Ġapothe": 12379,
    "Ġcompanionship": 14924,
    "gracechurch": 24583,
    "irr": 12743,
    "Ġcomplying": 18585,
    "nesday": 8706,
    "Ġkeep": 2356,
    "Ġluxur": 12345,
    "Ġcetacean": 25879,
    "this": 1442,
    "leness": 4691,
    "iliary": 21730,
    "Ġunworth": 22038,
    "Ġmiddle": 4137,
    "================================================================": 9993,
    "Ġfurniture": 6475,
    "Ġdiffered": 22715,
    "yset": 21148,
    "Ġfossil": 12391,
    "Ġtennes": 23552,
    "Ġhesitate": 16948,
    "Ġsingle": 1693,
    "igations": 18046,
    "Ġground": 2844,
    "Ġinequalities": 26455,
    "barrels": 15045,
    "likelihood": 4992,
    "Ġunc": 2125,
    "threat": 10902,
    "Ġsnugness": 20079,
    "ductive": 23940,
    ":--âĢľ": 24551,
    "Ġerroneous": 17412,
    "Ġwhole": 1662,
    "sherlock": 5422,
    "ĠâĢĶâĢľ_": 17720,
    "Ġw": 272,
    "urns": 10216,
    "Ġanytime": 12891,
    "consciousness": 13369,
    "Ġhapp": 1093,
    "Ġmetallic": 19088,
    "Ġuntutored": 19168,
    "Ġaffirmative": 15227,
    "jar": 17579,
    "Ġaccost": 12851,
    "Ġsedentary": 25431,
    "Ġunmethodically": 22072,
    "Ġcongratulatory": 19769,
    "Ġlent": 21550,
    "Ġappro": 663,
    "grew": 17557,
    "Ġpouch": 21471,
    "mountains": 15185,
    "Ġsavoury": 23881,
    "sm": 3435,
    "Ġmarty": 20292,
    "Ġsolitary": 5855,
    "Ġpeels": 22694,
    "Ġreverse": 16983,
    "Ġsuspicion": 6212,
    "Ġrouted": 24908,
    "ric": 1374,
    "pronouncing": 25194,
    "Ġextras": 22725,
    "Ġmoments": 4846,
    "Ġintru": 15831,
    "happened": 9435,
    "getic": 12971,
    "Ġreduces": 2343,
    "Ġsatirical": 26281,
    "Ġconsole": 8150,
    "Ġmag": 1432,
    "Ġdoctor": 5067,
    "Ġtrucks": 19515,
    "Ġcoff": 3507,
    "raham": 18017,
    "Ġunpleasant": 7189,
    "ptic": 21929,
    "Ġmiracle": 15098,
    "Ġgrasping": 12170,
    "Ġneed": 2606,
    "perfectly": 9089,
    "Ġensuring": 11194,
    "Ġdisgu": 8205,
    "polar": 24585,
    "ceed": 1080,
    "Ġbuild": 6473,
    "Ġconjured": 25102,
    "Ġbreathing": 9447,
    "ified": 3228,
    "Ġdrowning": 19905,
    "sche": 13023,
    "alarm": 15631,
    "native": 17614,
    "Ġfoolscap": 24162,
    "Ġcompasses": 11270,
    "devils": 20035,
    "Ġmiraculous": 13550,
    "onents": 8781,
    "Ġbarrowful": 25596,
    "Ġfruitless": 25606,
    "Ġimpossibility": 20649,
    "ning": 949,
    "Ġfore": 2154,
    "Ġlend": 17966,
    "pha": 22778,
    "admit": 18094,
    "Ġusage": 9733,
    "Ġbitterly": 8314,
    "soul": 9143,
    "palms": 25263,
    "Ġsickle": 24249,
    "Ġawa": 7712,
    "Ġgreenland": 5761,
    "serpent": 16295,
    "Ġidentity": 2524,
    "ixed": 4852,
    "Ġtransfer": 2143,
    "pistol": 17644,
    "ness": 851,
    "Ġpersist": 16277,
    "walked": 10573,
    "Ġmanip": 8875,
    "con": 655,
    "Ġscheme": 7064,
    "achel": 7032,
    "Ġlad": 2365,
    "Ġnoisier": 4625,
    "Ġpunct": 8664,
    "Ġ72": 19613,
    "Ġlovely": 4710,
    "Ġdodo": 9075,
    "oar": 12502,
    "Ġwhatsoever": 18456,
    "Ġceased": 6467,
    "Ġlounged": 19956,
    "Ġgrowled": 19286,
    "humor": 19455,
    "assuming": 22314,
    "Ġuncommon": 5026,
    "quis": 7869,
    "Ġsloping": 11943,
    "als": 2041,
    "Ġreliance": 14389,
    "oglyph": 11018,
    "like": 1885,
    "Ġunderstood": 5655,
    "nel": 11508,
    "Ġcork": 12574,
    "Ġlarboard": 11011,
    "Ġhawk": 15178,
    "Ġdrought": 19280,
    "vult": 21116,
    "mus": 10113,
    "Ġcring": 15556,
    "Ġhonorable": 16878,
    "Ġgown": 10204,
    "Ġentreat": 4509,
    "swaying": 25911,
    "Ġundeniable": 26512,
    "training": 2517,
    "Ġquarter": 3973,
    "Ġflickering": 23018,
    "sudden": 5316,
    "Ġbashful": 20422,
    "Ġeaster": 15679,
    "neighbourhood": 10028,
    "ulity": 10888,
    "Ġcurb": 16242,
    "Ġsmooth": 2777,
    "Ġschedules": 3386,
    "Ġvisibly": 22874,
    "Ġmode": 8498,
    "immense": 18056,
    "rove": 21536,
    "Ġlistless": 16478,
    "Ġstraightway": 9020,
    "Ġunforgiving": 25996,
    "Ġexpensive": 12924,
    "Ġproduces": 2094,
    "Ġaccosted": 13676,
    "Ġresponsiveness": 2893,
    "Ġcomforted": 19394,
    "Ġlady": 1588,
    "rested": 13078,
    "ibles": 18788,
    "prophecy": 22833,
    "Ġpet": 4585,
    "Ġsubstant": 14813,
    "kerchief": 7524,
    "Ġdavis": 25953,
    "ms": 541,
    "Ġconven": 6152,
    "observing": 25495,
    "Ġapproximates": 2419,
    "Ġwrinkles": 8572,
    "Ġathe": 17744,
    "Ġcanvas": 7782,
    "Ġwafted": 14501,
    "Ġunkindness": 22044,
    "turtle": 12216,
    "Ġcharmed": 16764,
    "Ġcalled": 1972,
    "superiority": 20187,
    "sake": 13786,
    "Ġtaken": 2528,
    "Ġwinc": 9645,
    "Ġcompass": 4406,
    "reas": 987,
    "glo": 8741,
    "irregular": 21916,
    "Ġmyth": 18222,
    "Ġobstacle": 16987,
    "Ġconsec": 21809,
    "Ġmountains": 4424,
    "Ġpedest": 15068,
    "Ġexecuted": 9474,
    "Ġattach": 14292,
    "Ġresol": 2663,
    "vert": 15719,
    "Ġplacing": 8904,
    "Ġburn": 3682,
    "Ġembarkation": 25125,
    "Ġgodfrey": 15297,
    "terday": 4705,
    "Ġpreposter": 12828,
    "Ġpetticoat": 15299,
    "Ġdrop": 4342,
    "Ġvainly": 9927,
    "ishness": 22346,
    "everlasting": 18774,
    "Ġjerking": 12250,
    "customary": 25896,
    "Ġhooded": 12410,
    "Ġninetieth": 25358,
    "Ġsleep": 2402,
    "Ġvoyagings": 19238,
    "mens": 20971,
    "Ġtube": 15006,
    "otent": 8836,
    "Ġliter": 8816,
    "Ġtrusted": 10520,
    "Ġgroups": 3718,
    "tre": 8764,
    "Ġbriskly": 25312,
    "Ġtie": 10752,
    "Ġtener": 21166,
    "burn": 8370,
    "Ġdozing": 22247,
    "acknowledged": 15207,
    "Ġiceberg": 14720,
    "Ġaffright": 9335,
    "gn": 8081,
    "Ġard": 5164,
    "Ġdestination": 19151,
    "Ġdevouring": 11865,
    "sum": 2088,
    "farmer": 25900,
    "account": 5330,
    "engine": 18930,
    "Ġgeorgia": 23890,
    "Ġstacked": 21750,
    "Ġumb": 11650,
    "Ġpathways": 11155,
    "Ġfirst": 937,
    "du": 604,
    "Ġirrevocably": 15301,
    "Ġwhispering": 14949,
    "rine": 21040,
    "Ġconstrained": 19242,
    "Ġcomfor": 14057,
    "Ġfarthing": 14458,
    "fed": 11491,
    "ren": 549,
    "fedallah": 25523,
    "idly": 12706,
    "Ġreplacing": 3448,
    "sembled": 7261,
    "Ġcrescent": 16139,
    "rages": 15685,
    "properly": 24919,
    "dropping": 14986,
    "Ġshield": 22004,
    "Ġenglishmen": 19433,
    "dro": 6646,
    "Ġfestival": 25446,
    "confined": 24329,
    "Ġtuck": 10143,
    "Ġspoils": 24805,
    "Ġquill": 12863,
    "ization": 487,
    "Ġdistantly": 18535,
    "Ġinjured": 9042,
    "Ġbenefactor": 14701,
    "Ġinvoluntary": 18766,
    "Ġpalace": 16691,
    "anxiously": 15115,
    "got": 6954,
    "Ġoperate": 19117,
    "spears": 23946,
    "Ġascertaining": 17206,
    "Ġtremor": 24767,
    "inclined": 10642,
    "Ġroot": 2647,
    "Ġagency": 11811,
    "caroline": 24153,
    "Ġflying": 5413,
    "Ġanguish": 5583,
    "quitted": 21861,
    "una": 21873,
    "Ġshrunk": 16720,
    "slowly": 9092,
    "Ġsacri": 18329,
    "Ġorgans": 15869,
    "Ġdiab": 10614,
    "Ġmessage": 13525,
    "steering": 16638,
    "Ġsprinkled": 19500,
    "Ġvolat": 24148,
    "Ġcaterpillar": 5865,
    "Ġpiled": 8425,
    "Ġcuba": 25098,
    "Ġpartake": 18674,
    "ised": 1051,
    ").âĢĿ": 20743,
    "rough": 590,
    "Ġmess": 7830,
    "ifled": 14066,
    "Ġretreating": 19801,
    "Ġmilitia": 13321,
    "Ġ103": 24412,
    "Ġsnoo": 21231,
    "Ġhom": 9189,
    "motives": 26138,
    "fatality": 25022,
    "Ġand": 295,
    "Ġshamefully": 24714,
    "Ġrasc": 21982,
    "Ġabund": 8869,
    "roused": 16655,
    "Ġlizard": 12660,
    "Ġwife": 2586,
    "Ġfooted": 23800,
    "uberance": 25917,
    "giving": 8742,
    "likes": 18817,
    "Ġmysteriously": 24603,
    "agree": 14070,
    "la": 10707,
    "Ġflirt": 14427,
    "Ġapothecary": 13662,
    "Ġmorocco": 26575,
    "Ġgurg": 15677,
    "Ġstormy": 16730,
    "Ġgarden": 3824,
    "alleging": 23026,
    "Ġfurrow": 22817,
    "smile": 23910,
    "Ġkitchen": 8496,
    "Ġbarrow": 12074,
    "Ġalliance": 18237,
    "Ġdetermining": 14425,
    "crime": 14779,
    "arthly": 8029,
    "Ġdinn": 23985,
    "grave": 16098,
    "linen": 25258,
    "Ġrepublican": 17415,
    "Ġpleasing": 6191,
    "Ġeffects": 7234,
    "consternation": 16927,
    "rendered": 22343,
    "Ġcrosswise": 18887,
    "neural": 3070,
    "inter": 2946,
    "Ġriddle": 14823,
    "Ġsimplest": 16337,
    "Ġmeeting": 5193,
    "crowded": 20192,
    "Ġunheard": 22027,
    "Ġadventures": 7746,
    "shadow": 20316,
    "admon": 21764,
    "Ġdemanded": 8326,
    "engagements": 25855,
    "morland": 24157,
    "Ġtort": 5902,
    "Ġack": 5622,
    "Ġtyphoons": 20236,
    "Ġundiscernible": 22070,
    "Ġsustained": 13485,
    "Ġtied": 7355,
    "fold": 7545,
    "Ġpassions": 7929,
    "Ġlooking": 2474,
    "beef": 18527,
    "historian": 25735,
    "Ë": 140,
    "Ġaint": 17747,
    "sullenly": 26150,
    "stirred": 20427,
    "Ġspit": 22128,
    "Ġunsocial": 18258,
    "Ġstruck": 3389,
    "aby": 18110,
    "vast": 10738,
    "Ġinvests": 14872,
    "eyes": 5684,
    "Ġattain": 12753,
    "ned": 3492,
    "Ġfervour": 19728,
    "Ġnewfound": 22936,
    "Ġoftener": 13568,
    "anse": 12581,
    "Ġoccupies": 24012,
    "Ġhalls": 19528,
    "Ġ4": 3982,
    "Ġwired": 17789,
    "Ġox": 7152,
    "Ġcandidates": 4330,
    "consum": 12876,
    "cho": 2759,
    "Ġboxed": 24361,
    "uplifted": 17697,
    "Ġtestified": 16335,
    "spade": 10343,
    "Ġpenetrating": 17013,
    "Ġprojecting": 9988,
    "ailed": 3248,
    "Ġasi": 12738,
    "Ġcaptain": 1603,
    "Ġnarratives": 24354,
    "iety": 2814,
    "oned": 4631,
    "Ġdiffused": 12073,
    "Ġcorrespond": 6210,
    "Ġclinched": 17397,
    "Ġpraying": 19555,
    "Ġjan": 11767,
    "Ġco": 730,
    "contrivance": 26317,
    "Ġinclu": 1102,
    "Ġsolitude": 6875,
    "Ģ": 227,
    "Ġfrighted": 24033,
    "Ġpassenger": 14374,
    "Ġ]": 15462,
    "ations": 710,
    "Ġsinew": 25432,
    "Ġaverse": 11082,
    "braid": 17497,
    "sub": 4660,
    "Ġparl": 8177,
    "Ġrare": 7036,
    "Ġsheeted": 19833,
    "Ġboot": 11845,
    "Ġtiger": 11558,
    "Ġxli": 14545,
    "Ġvic": 5236,
    "Ġentrapped": 26264,
    "Ġrevealed": 6752,
    "Ġunfold": 8021,
    "writ": 16556,
    ">": 34,
    "lemency": 21377,
    "Ġfold": 5531,
    "Ġjobs": 24833,
    "feared": 11808,
    "Ġcorroboration": 26054,
    "tempestuous": 26098,
    "Ġcalmness": 12098,
    "Ġforgetfulness": 14609,
    "Ġmachinery": 20487,
    "bantering": 25254,
    "Ġleague": 6538,
    "Ġprescribed": 26011,
    "train": 2034,
    "Ġunf": 4088,
    "cherries": 19758,
    "Ġparade": 18302,
    "andish": 18157,
    "Ġstore": 8454,
    "Ġpop": 5151,
    "Ġlids": 12280,
    "fluke": 25205,
    "Ġstarbuck": 2195,
    "Ġfails": 13317,
    "ission": 6456,
    "·": 120,
    "Ġblu": 2685,
    "Ġwake": 4749,
    "Ġobliterated": 17408,
    "edged": 15635,
    "sprang": 19993,
    "supervised": 1895,
    "Ġbutt": 14129,
    "Ġinanimate": 13936,
    "Ġinsp": 2101,
    "Ġcritic": 19123,
    "Ġadditionally": 1176,
    "anish": 2614,
    "Ġuns": 15840,
    "Ġperishing": 22393,
    "mael": 6723,
    "Ġum": 10214,
    "mistakable": 20655,
    "hap": 17561,
    "Ġspeedily": 7710,
    "Ġstirred": 12222,
    "garious": 17560,
    "vine": 10736,
    "continual": 20646,
    "Ġfurnishing": 16648,
    "batch": 1982,
    "Ġstil": 15725,
    "Ġsuggestive": 11300,
    "Ġsemantics": 2890,
    "Ġnot": 413,
    "batross": 9096,
    "drifting": 19826,
    "tell": 1377,
    "Ġthirds": 16710,
    "Ġmeetings": 16535,
    "Ġeluded": 12928,
    "ú": 187,
    "Ġfilling": 13411,
    "infernal": 24664,
    "share": 14241,
    "urch": 3989,
    "Ġroving": 22407,
    "Ġconvul": 13206,
    "Ġmau": 21313,
    "Ġvest": 8162,
    "bber": 4567,
    "Ġsquee": 7928,
    "Ġgases": 21605,
    "ierce": 14395,
    "advise": 24221,
    "Ġalarm": 4046,
    "heat": 15500,
    "Ġpecks": 18670,
    "Ġreceived": 2949,
    "Ġbehave": 23303,
    "Ġjacobian": 2888,
    "Ġdoted": 21436,
    "ulty": 22571,
    "Ġar": 480,
    "crier": 20822,
    "Ġgrammar": 1065,
    "mer": 2830,
    "instruct": 17738,
    "opol": 12877,
    "Ġneglecting": 25010,
    "Ġguide": 3218,
    "Ġtasted": 12534,
    "ĠĠĠĠĠĠĠĠĠĠĠĠĠĠĠĠĠĠĠĠĠĠĠĠĠĠĠĠĠĠĠĠĠĠĠĠĠĠĠĠĠĠĠĠ": 12158,
    "Ġincrease": 9373,
    "Ġdictator": 20155,
    "Ġexponentiating": 3445,
    "Ġdependencies": 2314,
    "spect": 3234,
    "rem": 1527,
    "stretched": 10210,
    "Ġfreer": 23212,
    "antically": 22100,
    "Ġtum": 5692,
    "Ġtraced": 10386,
    "hatch": 15368,
    "Ġgarments": 15198,
    "Ġphrenologist": 25608,
    "inserted": 18888,
    "Ġmechanically": 14403,
    "Ġgibraltar": 25788,
    "Ġomitted": 12569,
    "Ġloading": 15878,
    "osite": 4893,
    "pretty": 10624,
    "esteem": 26009,
    "igned": 5656,
    "otion": 4946,
    "Ġnoblest": 13245,
    "asper": 7854,
    "Ġwand": 4339,
    "Ġforeheads": 23451,
    "elder": 21575,
    "building": 17312,
    "ogr": 18671,
    "iverer": 11721,
    "oubted": 5860,
    "cart": 10692,
    "ds": 4688,
    "entiating": 3437,
    "Ġdimmed": 24271,
    "Ġemb": 1241,
    "Ġsteadily": 8051,
    "atlantic": 15527,
    "Ġtep": 21164,
    "Ġoverpowering": 15253,
    "Ġlamp": 4113,
    "ccess": 3184,
    "Ġaccusations": 22381,
    "backs": 9393,
    "Ġintense": 6158,
    "perform": 15898,
    "arth": 4442,
    "Ġsoapstone": 20514,
    "none": 6961,
    "Ġcanada": 22167,
    "Ġfel": 1524,
    "Ġevening": 2650,
    "Ġdowncast": 18653,
    "confirmed": 19642,
    "cept": 557,
    "Ġdays": 2078,
    "umbled": 8493,
    "isol": 17849,
    "Ġgovernesses": 25130,
    "Ġdefects": 12337,
    "Ġoak": 6129,
    "Ġunquestionable": 26223,
    "Ġthan": 736,
    "crazy": 24691,
    "cleanliness": 25872,
    "slanting": 24559,
    "Ġphren": 8573,
    "orers": 14106,
    "Ġeither": 2602,
    "Ġrind": 21977,
    "Ġhier": 1894,
    "justified": 19004,
    "ulate": 5233,
    "meetings": 20380,
    "Ġelapsed": 7652,
    "Ġbolts": 16945,
    "Ġthreats": 13380,
    "Ġgreek": 10634,
    "Ġquench": 22423,
    "wers": 12524,
    "Ġdisconsolate": 20721,
    "Ġclothe": 4712,
    "Ġisolation": 17153,
    "Ġflee": 7079,
    "Ġespecially": 3934,
    "Ġplain": 2813,
    "igating": 21702,
    "Ġaccommod": 14216,
    "Ġconf": 1818,
    "Ġsmiles": 6707,
    "Ġcorroded": 18877,
    "Ġirreduc": 5491,
    "Ġunknown": 4452,
    "Ġmolasses": 25629,
    "myself": 5113,
    "audible": 17135,
    "icable": 6387,
    "Ġstings": 21741,
    "Ġresolves": 23650,
    "laws": 19809,
    "Ġdistinctions": 18536,
    "Ġconfirming": 25322,
    "aux": 14295,
    "freighted": 14896,
    "atoes": 17778,
    "Ġmerchants": 23737,
    "Ġunabated": 15856,
    "Ġdeliberately": 10627,
    "_âĢĶ": 11470,
    "Ġbingleys": 18996,
    "friend": 3862,
    "Ġusing": 716,
    "rints": 12507,
    "simp": 17667,
    "Ġpensive": 21477,
    "Ġbeach": 6541,
    "Ġtakings": 20575,
    "Ġbenchmarks": 15025,
    "Ġuneasiness": 9486,
    "Ġsuspicions": 9481,
    "Ġbrink": 18772,
    "Ġlink": 8129,
    "Ġimitated": 18332,
    "unvarying": 21892,
    "Ġtwist": 11856,
    "ica": 10201,
    "Ġord": 3734,
    "Ġhue": 8429,
    "Ġdiagon": 24738,
    "Ġstiffly": 15008,
    "Ġinsufferable": 13934,
    "Ġextensive": 12946,
    "nephew": 26399,
    "Ġast": 2961,
    "Ġprocession": 11780,
    "eler": 1575,
    "Ġclues": 18422,
    "Ġshel": 6846,
    "Ġpantaloons": 20298,
    "Ġrattler": 24998,
    "eties": 10839,
    "Ġpropensity": 18997,
    "Ġmalays": 19679,
    "Ġoscill": 2854,
    "footman": 17165,
    "rically": 15420,
    "aves": 3599,
    "Ġapartment": 6635,
    "Ġyawned": 15055,
    "saying": 8644,
    "christmas": 20257,
    "fab": 13719,
    "Ġtumbling": 13828,
    "lovely": 16050,
    "Ġflea": 23777,
    "Ġdoes": 943,
    "Ġshipping": 14107,
    "Ġredden": 15698,
    "Ġstretched": 5920,
    "twas": 15440,
    "otes": 15748,
    "Ġgenerator": 3381,
    "Ġrepresentations": 1875,
    "Ġdispositions": 13236,
    "Ġhog": 13927,
    "itoring": 21335,
    "Ġbefall": 8833,
    "ashions": 16421,
    "Ġnervously": 19186,
    "conf": 4957,
    "nowled": 5470,
    "Ġdissol": 18551,
    "Ġchowders": 18387,
    "Ġdiscriminator": 3391,
    "Ġsuperstition": 15058,
    "Ġmainland": 22658,
    "Ġdangers": 12358,
    "itate": 6669,
    "cheered": 23809,
    "verize": 21732,
    "Ġberths": 20117,
    "enemy": 15530,
    "Ġpurp": 2394,
    "Ġmerited": 23735,
    "advancing": 14840,
    "Ġroses": 11791,
    "usions": 6160,
    "Ġmerciless": 25247,
    "oud": 1942,
    "Ġaux": 21202,
    "anous": 21362,
    "Ġoperation": 12003,
    "plans": 21963,
    "Ġdint": 15595,
    "Ġpartly": 6714,
    "leful": 17845,
    "Ġarrang": 2469,
    "Ġflannel": 26579,
    "Ġinsane": 19271,
    "Ġglacier": 11436,
    "Ġnicely": 8712,
    "Ġdispute": 16060,
    "Ġperiodically": 19497,
    "vigorous": 25918,
    "coburg": 13601,
    "Ġglobu": 23276,
    "Ġpleased": 4062,
    "Ġlaborers": 19057,
    "sin": 21051,
    "Ġdischarge": 18556,
    "liked": 10511,
    "Ġdrawer": 13269,
    "Ġdamps": 23477,
    "Ġromish": 19586,
    "Ġindistinctly": 26118,
    "Ġunst": 18240,
    "Ġdivulged": 16651,
    "agonies": 21914,
    "Ġadvice": 4901,
    "Ġhose": 12633,
    "Ġtangle": 25761,
    "Ġenables": 724,
    "pursu": 11395,
    "Ġdomestic": 6909,
    "Ġexultation": 15176,
    "bowl": 14895,
    "Ġsluggishly": 25892,
    "Ġdonkey": 23232,
    "calculating": 25690,
    "Ġnarrowly": 16822,
    "plain": 1359,
    "Ġdistricts": 20265,
    "andy": 8157,
    "subject": 6633,
    "Ġcharged": 9857,
    "Ġangelic": 19629,
    "Ġsleek": 23388,
    "Ġannoyed": 17202,
    "entered": 8819,
    "accidents": 19214,
    "Ġaugment": 8695,
    "desp": 6093,
    "Ġdau": 21428,
    "real": 10152,
    "Ġcowards": 12579,
    "Ġchas": 18380,
    "view": 5896,
    "Ġinherent": 4590,
    "lays": 14926,
    "Ġtattooed": 11381,
    "Ġprobability": 1126,
    "cries": 17513,
    "gladness": 25195,
    "Ġgun": 4702,
    "Ġsordid": 26424,
    "alarms": 21508,
    "Ġlat": 5087,
    "Ġdardanelles": 26445,
    "erde": 21271,
    "Ġassociate": 13453,
    "Ġhath": 12634,
    "Ġju": 10289,
    "Ġgloss": 11962,
    "necessities": 24309,
    "Ġfarewell": 9522,
    "Ġbarn": 11591,
    "Ġnooks": 26012,
    "Ġcleanse": 24528,
    "diminished": 20841,
    "Ġerrand": 11087,
    "Ġmodesty": 12823,
    "Ġremorselessly": 16968,
    "Ġguitar": 16274,
    "wrinkles": 16558,
    "gard": 7337,
    "Ġservices": 11220,
    "opolising": 25677,
    "ader": 14015,
    "odecim": 9835,
    "Ġbreast": 8971,
    "Ġquohog": 10974,
    "Ġproflig": 23569,
    "Ġasked": 2278,
    "crimson": 24092,
    "owing": 7601,
    "Ġinsure": 13181,
    "Ġconsecutive": 20705,
    "Ġoppressively": 25711,
    "levelled": 23646,
    "mush": 20979,
    "Ġ111": 24437,
    "Ġtus": 10751,
    "Ġobviously": 16812,
    "convenient": 12242,
    "Ġslate": 11942,
    "Ġdormouse": 4926,
    "wood": 5898,
    "gris": 8259,
    "Ġ(`": 12859,
    "initions": 21190,
    "Ġopposed": 11191,
    "Ġexecut": 4245,
    "battle": 12446,
    "ulous": 4449,
    "Ġgratification": 24102,
    "simon": 16974,
    "Ġfanny": 23395,
    "Ġmoonlight": 9961,
    "ificant": 22210,
    "Ġdistension": 22509,
    "Ġdisdain": 8359,
    "Ġdared": 5440,
    "sl": 5794,
    "Ġexcuses": 19043,
    "Ġpronounce": 16969,
    "Ġnose": 4400,
    "steelkilt": 10050,
    "baggage": 24927,
    "asion": 5714,
    "Ġcarcase": 14448,
    "odd": 21813,
    "Ġensures": 3060,
    "omen": 4084,
    "Ġfaculties": 14961,
    "Ġworkflow": 2297,
    "Ġdifferences": 18712,
    "Ġpronounced": 8350,
    "ob": 1422,
    "Ġmildness": 9947,
    "well": 1692,
    "Ġcommonplaces": 16292,
    "adopt": 25545,
    "Ġhyp": 3872,
    "they": 1879,
    "answ": 15888,
    "mering": 12495,
    "proper": 7470,
    "Ġconfided": 19038,
    "Ġjoyfully": 19349,
    "Ġsubstitute": 16728,
    "Ġbetween": 794,
    "overhearing": 19053,
    "seized": 14038,
    "Ġsty": 6252,
    "Ġloungers": 24863,
    "Ġvisitor": 5331,
    "Ġchisel": 20370,
    "circumstances": 8046,
    "Ġcolleg": 22864,
    "script": 11079,
    "been": 3342,
    "Ġli": 602,
    "Ġinsensibility": 17111,
    "laz": 15389,
    "ders": 8074,
    "Ġconfronted": 23312,
    "hoping": 17568,
    "Ġpatron": 7462,
    "guess": 14765,
    "Ġfirmest": 16667,
    "Ġcook": 3710,
    "Ġmoored": 11797,
    "thrasher": 25659,
    "Ġsurface": 5119,
    "footsteps": 25200,
    "Ġpaddling": 25286,
    "dismay": 19156,
    "Ġshoulders": 5566,
    "mysteries": 26051,
    "Ġhatred": 8612,
    "Ġa": 263,
    "Ġblue": 3453,
    "Ġphilist": 16603,
    "Ġrighteous": 18949,
    "thro": 12767,
    "enhall": 13853,
    "Ġpowerful": 1514,
    "poor": 6061,
    "Ġsummit": 7729,
    "Ġanyways": 22524,
    "Ġlulled": 17972,
    "Ġstud": 1621,
    "Ġpetulance": 24231,
    "Ġunfailing": 24115,
    "Ġgroup": 2037,
    "rippling": 24711,
    "ris": 9140,
    "177": 20754,
    "Ġexcite": 11970,
    "circuit": 24191,
    "Ġbelong": 3885,
    "deed": 1525,
    "meal": 22716,
    "Ġintersect": 22579,
    "Ġrevelry": 15141,
    "Ġawkward": 7073,
    "unnecessary": 21885,
    "Ġdent": 13909,
    "ore": 418,
    "Ġbeque": 18084,
    "nect": 662,
    "retreat": 23144,
    "blows": 17168,
    "Ġ106": 24415,
    ",âĢĶâĢľ": 10073,
    "Ġlighten": 23264,
    "spoutings": 25004,
    "heredit": 21212,
    "Ġboast": 7034,
    "Ġciv": 3307,
    "riot": 18184,
    "Ġbelieve": 2148,
    "enge": 21283,
    "Ġ1000": 3120,
    "vint": 21117,
    "Ġpitch": 5767,
    "rr": 17652,
    "intim": 22938,
    "Ġsiam": 13841,
    "Ġclimax": 25054,
    "ellect": 7379,
    "jour": 20929,
    "Ġfamiliarity": 16731,
    "harpoone": 6108,
    "Ġeff": 669,
    "spersed": 22740,
    "Ġconsisting": 8974,
    "Ġweaken": 21926,
    "Ġabsorb": 25115,
    "Ġlashed": 9201,
    "Ġcivilised": 24248,
    "estab": 14174,
    "button": 10968,
    "dance": 17521,
    "Ġtwitched": 20446,
    "Ġperiodical": 14776,
    "Ġobjections": 8566,
    "Ġsettee": 22925,
    "Ġphil": 3384,
    "Ġprivilege": 11422,
    "Ġpreternatural": 12829,
    "Ġgentleman": 3046,
    "collected": 13216,
    "Ġvalleys": 14923,
    "Ġheadway": 18794,
    "Ġwhitewashed": 14473,
    "Ġbaby": 6638,
    "crimes": 16686,
    "Ġoblivious": 26033,
    "Ġproductions": 22950,
    "Ġsuddenness": 23386,
    "Ġclaret": 22354,
    "Ġillustrations": 17109,
    "mid": 5617,
    "ex": 623,
    "Ġbroods": 23109,
    "Ġcryst": 9920,
    "Ġterms": 2562,
    "Ġbegrimed": 26580,
    "quished": 21858,
    "tallow": 21088,
    "Ġajar": 21205,
    "Ġindel": 13008,
    "kl": 4865,
    "Ġnetworks": 596,
    "Ġinteraction": 7422,
    "Ġdemand": 4947,
    "Ġinterest": 2249,
    "Ġlungless": 24864,
    "Ġsacrific": 15021,
    "draught": 12095,
    "Ġacute": 16127,
    "Ġtemptation": 8681,
    "Ġweather": 3992,
    "pray": 5429,
    "ittle": 814,
    "Ġpallet": 21483,
    "protest": 24812,
    "remes": 21240,
    "Ġhours": 2815,
    "Ġhumanity": 6732,
    "onged": 18411,
    "Ġdeputation": 21843,
    "Ġsurvivors": 25732,
    "possibly": 10546,
    "guard": 12133,
    "eling": 6682,
    "Ġjollity": 25567,
    "Ġunconnected": 18244,
    "endless": 22223,
    "Ġresulting": 24202,
    "gentlemanlike": 20004,
    "Ġassizes": 11111,
    "Ġadequately": 15203,
    "Ġblasphe": 17410,
    "Ġelud": 22646,
    "Ġhollows": 19743,
    "Ġfleeting": 19329,
    "Ġdarted": 4758,
    "Ġsublime": 8065,
    "contrad": 19294,
    "acific": 4960,
    "ieving": 7031,
    "Ġfetched": 24569,
    "Ġspence": 22130,
    "bodily": 17318,
    "Ġunsupplied": 22045,
    "appear": 13201,
    "entreaties": 26187,
    "Ġnewspapers": 17189,
    "Ġplausible": 26555,
    "nineteenth": 26139,
    "vig": 15449,
    "Ġtrifled": 24676,
    "Ġcompetent": 11821,
    "Ġstopped": 5956,
    "Ġsumat": 14133,
    "Ġcurling": 9346,
    "Ġwalker": 23314,
    "Ġnarrated": 14875,
    "Ġvows": 15812,
    "forgotten": 12420,
    "abated": 14023,
    "Ġjustly": 11909,
    "atching": 8202,
    "zeal": 16269,
    "atiously": 15525,
    "Ġallured": 14116,
    "Ġput": 1798,
    "Ġsuburban": 17349,
    "Ġpo": 737,
    "star": 12678,
    "Ġsurprised": 3829,
    "Ġfrosty": 14939,
    "Ġlively": 5449,
    "vember": 10857,
    "ection": 4948,
    "ittleness": 22383,
    "Ġbrewed": 23348,
    "craft": 12251,
    "Ġbacks": 8528,
    "Ġaffl": 14390,
    "Ġimpious": 15994,
    "?âĢĿ": 700,
    "ifying": 5252,
    "Ġensl": 19276,
    "Ġscalding": 16309,
    "Ġamid": 4959,
    "Ġimparts": 18453,
    "Ġcoupled": 16853,
    "although": 8810,
    "orious": 6007,
    "Ġsurprise": 3828,
    "Ġmember": 8588,
    "whe": 1078,
    "Ġcred": 8785,
    "Ġtake": 1581,
    "ĠĠĠĠĠĠĠĠĠĠĠĠĠĠ": 22567,
    "ow": 325,
    "nobody": 16146,
    "library": 13003,
    "Ġfine": 1318,
    "ken": 2798,
    "Ġneighbours": 8302,
    "Ġupstairs": 5837,
    "Ġ22": 8278,
    "§": 105,
    "Ġheaving": 7600,
    "Ġano": 11600,
    "then": 2053,
    "Ġprints": 16334,
    "okes": 9280,
    "Ġoverthrown": 18432,
    "Ġsimultaneous": 22591,
    "ude": 7561,
    "Ġadopted": 15183,
    "Ġbraw": 23839,
    "Ġtrumpet": 9575,
    "flight": 15356,
    "imod": 15714,
    "Ġsluggish": 25891,
    "Ġwreak": 16819,
    "g": 75,
    "english": 2773,
    "Ġforecastle": 5495,
    "ildad": 3532,
    "narr": 12501,
    "Ġancient": 5443,
    "right": 2768,
    "cavity": 26127,
    "ler": 3491,
    "Ġruined": 12959,
    "ises": 3653,
    "Ġprow": 6685,
    "Ġremonstrate": 22799,
    "Ġeigenvalues": 4998,
    "Ġinconvenience": 9565,
    "Ġesteemed": 10591,
    "erable": 1918,
    "Ġtwilight": 16125,
    "travel": 24338,
    "Ġont": 18122,
    "Ġrustic": 14968,
    "Ġbond": 21387,
    "Ġadmired": 7981,
    "Ġtrade": 2547,
    "posted": 24637,
    "Ġflatt": 16249,
    "fears": 18532,
    "Ġhappiest": 11887,
    "lesson": 22774,
    "Ġnuptials": 20496,
    "Ġactively": 18655,
    "Ġmethods": 3161,
    "Ġhyperborean": 26341,
    "fitted": 17546,
    "linked": 17595,
    "settled": 10509,
    "Ġcogent": 14277,
    "eminence": 20101,
    "Ġgreyish": 24212,
    "nyder": 16687,
    "Ġdangling": 17177,
    "Ġswe": 2289,
    "Ġwings": 9166,
    "opic": 22480,
    "Ġconditions": 8306,
    "Ġstable": 2697,
    "aster": 1867,
    "Ġy": 341,
    "Ġbanish": 15574,
    "Ġunaccountably": 26517,
    "Ġacts": 2295,
    "Ġcleaned": 23187,
    "na": 13763,
    "Ġstrasburgh": 18616,
    "Ġincrust": 22554,
    "Ġspatial": 2727,
    "changing": 10856,
    "Ġlandsc": 11148,
    "hand": 2754,
    "Ġpursuit": 4733,
    "Ġoctavo": 15168,
    "Ġsperma": 19049,
    "arrang": 14655,
    "Ġcanes": 22165,
    "independent": 26022,
    "Ġdo": 512,
    "oqu": 7554,
    "Ġrespite": 13157,
    "Ġmouth": 3181,
    "Ġanybody": 5314,
    "Ġdinnertime": 16721,
    "Ġmidst": 7985,
    "Ġdeclaration": 16639,
    "Ġsatisfactory": 11195,
    "icate": 9204,
    "Ġalleviated": 26205,
    "cried": 8728,
    "Ġsystemat": 18443,
    "Ġplates": 11009,
    "Ġadmirable": 8268,
    "Ġbreathed": 11223,
    "Ġtin": 15466,
    "Ġsticking": 13430,
    "Ġtrample": 20329,
    "Ġwilson": 6631,
    "forest": 22522,
    "aration": 12613,
    "Ġdivine": 6920,
    "Ġcompunction": 18586,
    "Ġfanning": 23394,
    "Ġcottagers": 6761,
    "Ġpurposed": 23555,
    "below": 12126,
    "cour": 4479,
    "scap": 22994,
    "starbuck": 6018,
    "Ġlazily": 11383,
    "Ġteasing": 11896,
    "people": 7676,
    "lies": 15385,
    "Ġskylarking": 19490,
    "arking": 16129,
    "aways": 15314,
    "Ġthickening": 24028,
    "Ġungrateful": 14125,
    "regulated": 23470,
    "Ġdeceived": 6544,
    "Ġdeadly": 5405,
    "concluding": 19484,
    "distraction": 24204,
    "Ġschoolmaster": 16864,
    "Ġhelplessness": 25074,
    "Ġmood": 6277,
    "Ġoverseeing": 22367,
    "impotence": 23765,
    "be": 671,
    "Ġofficious": 19351,
    "erial": 4632,
    "approbation": 11461,
    "Ġmem": 2070,
    "bits": 17491,
    "Ġhoneymoon": 25646,
    "chapter": 1405,
    "conside": 9293,
    "leaves": 12584,
    "Ġthanking": 18603,
    "Ġnods": 19062,
    "Ġvers": 7562,
    "Ġrichness": 19313,
    "Ġstabilizing": 3656,
    "Ġnobleman": 19395,
    "Ġmarriage": 3189,
    "ohog": 9846,
    "somehow": 12016,
    "!âĢĿ": 845,
    "Ġcomput": 601,
    "inished": 17736,
    "Ġuncl": 22018,
    "Ġpreser": 6040,
    "Ġ122": 24468,
    "Ġteeth": 4165,
    "ected": 7872,
    "Ġunchanging": 22047,
    "Ġenhancement": 23729,
    "glorious": 19370,
    "Ġdefinitions": 22948,
    "Ġsex": 8846,
    "Ġdey": 11679,
    "Ġbol": 6242,
    "Ġfrom": 434,
    "Ġsmite": 22561,
    "Ġbehind": 2804,
    "Ġwandered": 6929,
    "commanders": 16991,
    "teak": 22820,
    "leagues": 21376,
    "Ġpersistence": 2956,
    "Ġtablet": 19207,
    "Ġmeanwhile": 5736,
    "Ġpositional": 2596,
    "Ġhang": 9190,
    "Ġswim": 3819,
    "Ġardour": 8042,
    "Ġcaresses": 26060,
    "Ġkuiperai": 10937,
    "Ġboneless": 19607,
    "shone": 22459,
    "circ": 4386,
    "Ġcautious": 12258,
    "Ġmouldings": 24735,
    "urer": 18125,
    "Ġhumans": 8933,
    "Ġassembl": 20063,
    "Ġincorporated": 25710,
    "Ġcommendation": 13613,
    "Ġresignation": 18566,
    "grie": 12475,
    "endom": 15924,
    "strength": 13983,
    "inite": 6001,
    "Ġelementary": 24811,
    "ician": 21568,
    "Ġentit": 22748,
    "Ġsplit": 7992,
    "Ġtruthful": 23871,
    "concerns": 24073,
    "Ġgrowl": 16540,
    "Ġdeportment": 22599,
    "Ġmedicine": 15211,
    "lo": 681,
    "Ġenergy": 2552,
    "Ġweakness": 9970,
    "Ġincline": 18570,
    "sole": 6169,
    "Ġaqu": 17745,
    "Ġencoding": 4774,
    "vicinity": 20482,
    "enced": 4293,
    "Ġimmut": 13301,
    "avern": 24791,
    "meanwhile": 10612,
    "Ġpredecess": 18519,
    "Ġprize": 11953,
    "pointing": 12229,
    "transition": 24514,
    "Ġsecretly": 13274,
    "Ġcran": 12005,
    "Ġinherit": 25353,
    "Ġdreams": 7495,
    "Ġecl": 18009,
    "Ġmention": 2987,
    "Ġsne": 6371,
    "unfearing": 21897,
    "Ġvoc": 4450,
    "Ġlifted": 6985,
    "cket": 3686,
    "Ġsod": 11565,
    "Ġslew": 23387,
    "Ġinterp": 16073,
    "Ġcornelius": 13576,
    "Ġhandkerchief": 8917,
    "Ġadversary": 12178,
    "urean": 18126,
    "Ġcopper": 7423,
    "voc": 8393,
    "Ġmend": 8406,
    "Ġcher": 6130,
    "Ġwoollen": 12108,
    "Ġlubber": 17447,
    "Ġpray": 3898,
    "Ġfixed": 2684,
    "Ġlexicon": 25974,
    "Ġmysterious": 7526,
    "Ġpresc": 15929,
    ".)": 6783,
    "Ġeste": 6084,
    "Ġemails": 13110,
    "hold": 3978,
    "Ġjanuary": 13656,
    "Ġpoet": 8207,
    "arers": 12134,
    "hopper": 23718,
    "Ġcrushed": 9425,
    "Ġtelescope": 17351,
    "adr": 6994,
    "Ġexperiment": 11923,
    "Ġbiographical": 22772,
    "bearings": 25372,
    "sor": 7350,
    "abeth": 906,
    "awing": 18917,
    "Ġlothario": 26186,
    "Ġprocessing": 888,
    "Ġdramatic": 4851,
    "neighboring": 20620,
    "Ġbusier": 23341,
    "Ġrefusal": 10347,
    "Ġcheshire": 13093,
    "fever": 22506,
    "Ġquicker": 16510,
    "rimsh": 17029,
    "hetic": 12208,
    "dozen": 23382,
    "acher": 6867,
    "later": 20955,
    "Ġlecture": 13570,
    "Ġunchanged": 22033,
    "ive": 427,
    "Ġdelighted": 5499,
    "Ġdistressing": 12223,
    "Ġhalf": 1670,
    "Ġprinted": 11954,
    "Ġimposs": 16618,
    "onted": 11571,
    "belonged": 25598,
    "Ġdelightfully": 13161,
    "Ġinvis": 6901,
    "Ġje": 4121,
    "Ġlargest": 6283,
    "Ġgoest": 22427,
    "brave": 19825,
    "Ġloth": 17969,
    "Ġgraph": 10904,
    "Ġplayed": 9418,
    "âĢĻ,": 14073,
    "luding": 6701,
    "kinder": 24846,
    "Ġting": 8398,
    "Ġtroublesome": 24006,
    "nets": 9135,
    "Ġnarrations": 24353,
    "Ġapplies": 11965,
    "sort": 6798,
    "Ġslain": 8956,
    "sustained": 20571,
    "ench": 21282,
    "Ġjug": 12841,
    "Ġbounded": 16629,
    "affair": 14658,
    "Ġess": 5691,
    "_)": 9105,
    "Ġaperture": 26161,
    "measureless": 20237,
    "Ġinsect": 12642,
    "d": 72,
    "Ġrestless": 10415,
    "Ġdisposing": 19378,
    "place": 4152,
    "worship": 19390,
    "fro": 8736,
    "mil": 13755,
    "Ġcosy": 13134,
    "Ġcam": 10164,
    "Ġpaused": 5416,
    "Ġhos": 4942,
    "Ġgabriel": 7595,
    "same": 5362,
    "ondescript": 22920,
    "Ġdedication": 3073,
    "Ġsquares": 11172,
    "Ġur": 5540,
    "aps": 1231,
    "Ġrambling": 18648,
    "exposure": 19259,
    "Ġmoss": 9287,
    "Ġopposing": 12045,
    "might": 4076,
    "Ġoaken": 13868,
    "nur": 11509,
    "Ġinn": 4589,
    "Ġslo": 15509,
    "isely": 4488,
    "Ġdisc": 944,
    "Ġ63": 24367,
    "Ġsphynx": 20714,
    "gno": 13730,
    "mosp": 8088,
    "breeze": 20565,
    "Ġhoarse": 14529,
    "Ġmeasures": 1206,
    "Ġball": 3623,
    "Ġprofusion": 23570,
    "Ġtongs": 9964,
    "Ġfervent": 14900,
    "belt": 24040,
    "Ġinscriptions": 20011,
    "<UNK>": 3,
    "Ġfrown": 10809,
    "Ġspell": 8859,
    "Ġradney": 6775,
    "Ġinterrupting": 19558,
    "Ġdoubling": 23323,
    "Ġdiscomposed": 25581,
    "difficult": 10061,
    "Ġliberality": 24378,
    "Ġlaurel": 20656,
    "Ġforesaw": 19128,
    "accompl": 9883,
    "drop": 15340,
    "neck": 14238,
    "Ġcomparing": 14268,
    "otics": 10226,
    "Ġarches": 14166,
    "pattern": 4429,
    "assin": 22309,
    "Ġspars": 3809,
    "Ġskills": 1838,
    "Ġconvert": 11848,
    "Ġplaguy": 22610,
    "Ġexposes": 22628,
    "mo": 863,
    "vous": 2253,
    "lowering": 16033,
    "given": 8376,
    "Ġports": 10820,
    "Ġdiscol": 12958,
    "Ġkeeps": 8266,
    "Ġlull": 15655,
    "visited": 13351,
    "Ġremove": 7498,
    "recurrent": 4994,
    "cating": 20804,
    "Ġfiss": 21415,
    "Ġbreathless": 12174,
    "unicorn": 21894,
    "Ġhinting": 19651,
    "Ġmortification": 12099,
    "spr": 7433,
    "Ġfriends": 2652,
    "Ġlooks": 4164,
    "Ġcards": 7580,
    "bec": 4051,
    "even": 3837,
    "lob": 22511,
    "evil": 11489,
    "Ġmainz": 22656,
    "built": 16827,
    "gences": 20879,
    "Ġtok": 1247,
    "burnt": 20082,
    "Ġliveliness": 13646,
    "wig": 17706,
    "bread": 10688,
    "sail": 3603,
    "Ġgunw": 6213,
    "Ġhealthy": 10853,
    "Ġinserted": 8355,
    "courageous": 26128,
    "imitably": 21714,
    "Ġcolt": 11046,
    "sme": 17660,
    "Ġbecoming": 4395,
    "Ġeavesdroppers": 25964,
    "Ġconstitution": 20111,
    "wer": 8395,
    "breathing": 25336,
    "Ġstage": 7387,
    "hval": 20900,
    "invest": 11563,
    "Ġprove": 5231,
    "Ġtowards": 1729,
    "Ġthings": 1962,
    "fired": 20862,
    "Ġbecalmed": 18090,
    "Ġinscrut": 10037,
    "task": 13796,
    "oton": 3607,
    "tried": 13797,
    "Ġmain": 812,
    "Ġresigned": 9771,
    "Ġholmes": 1310,
    "chain": 18043,
    "arthy": 4823,
    "Ġclubb": 22352,
    "Ġvariation": 22668,
    "cushion": 20823,
    "Ġarchly": 22783,
    "Ġstilly": 25975,
    "Ġorph": 9720,
    "Ġevid": 3500,
    "Ġpopulous": 16828,
    "mechanical": 25579,
    "quietly": 10595,
    "Ġrestrictions": 20638,
    "Ġorders": 5341,
    "supp": 4160,
    "Ġvanish": 8931,
    "adier": 18093,
    "covered": 11480,
    "._": 3222,
    "Ġha": 400,
    "Ġineffect": 13933,
    "Ġpan": 5082,
    "Ġchristendom": 16696,
    "suffered": 24331,
    "Ġbeams": 14634,
    "Ġbudge": 15169,
    "Ġjonah": 3480,
    "Ġtissu": 25921,
    "Ġhateful": 19715,
    "Ġachieve": 3672,
    "collecting": 26082,
    "mph": 20974,
    "ts": 959,
    "Ġlocking": 18299,
    "Ġexamine": 7733,
    "Ġnobler": 14179,
    "irwin": 8469,
    "Ġaddison": 14236,
    "attempts": 17193,
    "itated": 4439,
    "Ġsolace": 16203,
    "Ġinnocence": 6476,
    "willing": 6593,
    "ohn": 4560,
    "Ġvindictive": 20472,
    "angel": 5726,
    "civil": 7795,
    "Ġillustrate": 25068,
    "hab": 1082,
    "Ġmathematical": 3349,
    "Ġduck": 8798,
    "Ġreject": 7384,
    "bout": 20775,
    "scence": 14423,
    "Ġladder": 8601,
    "Ġsacred": 10932,
    "Ġconnection": 5479,
    "prejudiced": 17300,
    "antarctic": 22103,
    "poison": 14396,
    "enesis": 24389,
    "Ġinstituted": 18702,
    "Ġtranquil": 7308,
    "ceremony": 20593,
    "jane": 4482,
    "Ġromans": 16761,
    "Ġdrags": 16943,
    "Ġexhibited": 9546,
    "Ġlun": 7855,
    "Ġparmacetti": 20607,
    "Ġple": 1471,
    "liv": 9610,
    "Ġmark": 2331,
    "dress": 17522,
    "Ġvery": 636,
    "serious": 14452,
    "Ġkentuck": 19892,
    "lone": 11503,
    "Ġcatch": 4440,
    "Ġmaterial": 5178,
    "Ġcollectively": 19970,
    "decoder": 3644,
    "wic": 21123,
    "Ġbending": 12591,
    "Ġextravag": 11255,
    "Ġmeasurement": 19426,
    "acting": 22634,
    "Ġbiological": 1934,
    "Ġmeets": 7394,
    "arp": 2027,
    "scent": 13025,
    "Ġanimate": 23427,
    "Ġproprietor": 12377,
    "tern": 4221,
    "Ġneither": 3685,
    "etical": 13961,
    "Ġcapric": 14579,
    "Ġsavi": 18326,
    "aintance": 3570,
    "Ġyaw": 18098,
    "Ġresemble": 15697,
    "Ġlessons": 7691,
    "Ġdeactivates": 20706,
    "returning": 12210,
    "Ġdust": 5909,
    "Ġanom": 12617,
    "icirc": 15660,
    "rollable": 13948,
    "Ġenslaved": 26315,
    "Ġchaps": 14183,
    "Ġhearth": 11986,
    "Ġporpoises": 13385,
    "Ġornaments": 17455,
    "Ġreap": 18030,
    "izzy": 3099,
    "Ġsund": 8248,
    "³": 116,
    "Ġheadlong": 11893,
    "Ġlain": 17965,
    "Ġtrifles": 16953,
    "hunt": 20905,
    "Ġmanif": 8874,
    "Ġmanaged": 7905,
    "gone": 6503,
    "rat": 8759,
    "Ġtransparency": 10679,
    "occupation": 15060,
    "wid": 10137,
    "above": 8147,
    "repeated": 12343,
    "rud": 4188,
    "Ġeconomically": 25289,
    "Ġforget": 2632,
    "Ġlucas": 3831,
    "Ġnorms": 3665,
    "Ġhood": 10825,
    "Ġthird": 4185,
    "Ġcelebrated": 13597,
    "riminately": 16485,
    "Ġindolent": 13009,
    "Ġoriginated": 24126,
    "istan": 22112,
    "bearer": 18525,
    "Ġsallies": 21232,
    "Ġremark": 2147,
    "Ġacknowled": 6350,
    "supper": 12925,
    "forgive": 18724,
    "questioning": 16852,
    "?_âĢĿ": 12320,
    "Ġtucked": 12396,
    "rium": 3135,
    "Ġexpectations": 13146,
    "Ġexpands": 25238,
    "Ġcheat": 19020,
    "oam": 8755,
    "Ġpleasanter": 19065,
    "Ġloaded": 8491,
    "Ġimportance": 4900,
    "mal": 6794,
    "Ġdampening": 2891,
    "mists": 17606,
    "norm": 20987,
    "Ġmystical": 12137,
    "eddling": 11906,
    "sway": 15427,
    "dinner": 11409,
    "Ġmarbles": 18874,
    "ifications": 9731,
    "Ġderision": 16314,
    "Ġvent": 3993,
    "sounding": 24795,
    "Ġsteals": 23087,
    "heim": 17749,
    "Ġvint": 18196,
    "atiate": 12553,
    "Ġvap": 6836,
    "Ġdaboll": 25951,
    "numerous": 17434,
    "Ġemblematical": 25789,
    "Ġearl": 7675,
    "Ġhumane": 11889,
    "Ġcrotch": 9966,
    "pse": 21011,
    "Ġcompleted": 9000,
    "rs": 7806,
    "Ġshot": 4543,
    "Ġyea": 8919,
    "excited": 13383,
    "slipped": 25530,
    "Ġcorporeally": 25729,
    "Ġobjects": 5578,
    "Ġcra": 2332,
    "ifice": 7196,
    "Ġ114": 24439,
    "Ġtransplanted": 22445,
    "Ġmeridian": 25713,
    "Ġemploy": 3615,
    "Ġaxe": 15065,
    "Ġfreedom": 9085,
    "told": 7810,
    "Ġdeified": 18141,
    "aches": 6570,
    "omnipotent": 25965,
    "Ġheave": 7599,
    "clopÃ¦dia": 15260,
    "Ġgash": 15675,
    "verted": 10220,
    "joke": 20932,
    "straw": 24101,
    "qualified": 17099,
    "Ġskeletons": 16793,
    "Ġinsanity": 12051,
    "mouse": 15396,
    "Ġendeared": 26500,
    "Ġsnapping": 19303,
    "Ġcl": 552,
    "Ġboughs": 20491,
    "Ġgord": 21603,
    "principal": 20662,
    "Ġimpertinence": 11369,
    "Ġshortened": 23485,
    "ular": 714,
    "rear": 21235,
    "loaded": 22516,
    "Ġconcert": 11971,
    "ual": 946,
    "Ġestates": 16462,
    "commanding": 24751,
    "Ġsuper": 2156,
    "Ġpercept": 14221,
    "Ġfade": 21410,
    "secut": 7866,
    "Ġencoder": 3635,
    "muttered": 13762,
    "Ġpaint": 7706,
    "eat": 11486,
    "ozy": 17624,
    "emph": 21933,
    "Ġbree": 5012,
    "Ġbrag": 23838,
    "Ġdebar": 24275,
    "Ġneedles": 11187,
    "Ġprophet": 7680,
    "Ġpatriot": 23305,
    "Ġlets": 18067,
    "Ġxiv": 23412,
    "toes": 22568,
    "Ġlodged": 11253,
    "oblig": 16294,
    "Ġquantity": 6947,
    "vand": 21111,
    "Ġconcussion": 26301,
    "Ġshowing": 7730,
    "hamlet": 23267,
    "elfth": 22373,
    "concerned": 24640,
    "shrugged": 22466,
    "interval": 7990,
    "Ġprotruding": 16661,
    "ignor": 8964,
    "Ġslim": 18940,
    "Ġshop": 9255,
    "Ġdevils": 7228,
    "Ġlegisl": 23538,
    "izon": 18145,
    "hors": 9601,
    "Ġneglected": 10380,
    "Ġcobbler": 25831,
    "esy": 9188,
    "Ġdissuade": 26258,
    "active": 16107,
    "Ġwhir": 6392,
    "Ġjumped": 7096,
    "Ġalthough": 4149,
    "Ġidiot": 11976,
    "Ġvicinity": 7313,
    "scissors": 20729,
    "Ġreplace": 14479,
    "Ġisn": 7865,
    "Ġhorrible": 4905,
    "Ġarrested": 9562,
    "Ġpebbles": 16133,
    "iates": 13740,
    "mason": 17604,
    "Ġireland": 17338,
    "Ġtearing": 14400,
    "Ġintricate": 15142,
    "Ġpick": 4254,
    "merry": 16539,
    "Ġagree": 7646,
    "ocean": 12405,
    "Ġadmission": 23558,
    "Ġballs": 9018,
    "ga": 17552,
    "Ġnaturalists": 10365,
    "Ġxxxii": 24973,
    "Ġpout": 17907,
    "Ġrestricted": 19030,
    "Ġabstracted": 17185,
    "Ġflights": 24752,
    "Ġpendulous": 25956,
    "Ġembarked": 17137,
    "Ġezekiel": 26194,
    "Ġcont": 620,
    "Ġlibrary": 6422,
    "ercely": 12555,
    "Ġbouquet": 20686,
    "commendation": 26351,
    "Ġindignation": 8346,
    "Ġconvenience": 11334,
    "Ġvex": 5948,
    "Ġassistant": 7296,
    "Ġblanched": 26284,
    "imble": 10860,
    "Ġ34": 16679,
    "missionary": 24613,
    "Ġgather": 6534,
    "Ġbecause": 2210,
    "Ġbackward": 7654,
    "sively": 13789,
    "Ġquiver": 16007,
    "Ġnewspaper": 12368,
    "pshire": 21026,
    "Ġdistraction": 22510,
    "Ġslightly": 7291,
    "sweeping": 24616,
    "tempered": 13449,
    "Ġembattled": 26290,
    "Ġperceptibly": 25821,
    "Ġaccompanying": 11307,
    "monster": 8595,
    "several": 5544,
    "Ġboat": 1278,
    "mankind": 14378,
    "Ġallow": 1128,
    "Ġtro": 7354,
    "Ġconsist": 1935,
    "Ġkindled": 19031,
    "ars": 904,
    "Ġmet": 1946,
    "Ġflirting": 16252,
    "teenth": 11879,
    "Ġimpetuous": 25571,
    "mir": 20965,
    "manned": 18764,
    "Ġbeing": 1165,
    "Ġadler": 8173,
    "et": 307,
    "ady": 995,
    "Ġrighted": 23183,
    "Ġintend": 12770,
    "ce": 313,
    "ails": 6161,
    "Ġpads": 21476,
    "Ġinspiring": 19114,
    "Ġcorrespondent": 19824,
    "Ġeverybody": 4510,
    "Ġintimate": 6549,
    "Ġmorals": 22976,
    "Ġcreating": 2998,
    "Ġsp": 457,
    "Ġ177": 13415,
    "hing": 976,
    "ensions": 14262,
    "ather": 740,
    "Ġan": 286,
    "Ġungracious": 18260,
    "lemagne": 26438,
    "enthusiastic": 20695,
    "Ġimpressive": 15002,
    "mons": 17602,
    "tru": 10731,
    "earth": 6501,
    "Ġcommunicate": 10580,
    "executed": 25740,
    "tubs": 15135,
    "Ġfinancier": 26585,
    "teen": 6369,
    "Ġplanned": 14756,
    "Ġcolle": 8928,
    "forever": 22523,
    "Ġunintelligible": 26516,
    "anyone": 16595,
    "Ġtatters": 21180,
    "Ġchap": 5934,
    "roc": 9677,
    "Ġcomprise": 18584,
    "Ġinf": 1754,
    "Ġclouds": 5775,
    "Ġimpo": 3441,
    "ious": 770,
    "ad": 337,
    "niest": 18991,
    "Ġchildren": 3765,
    "glanced": 19369,
    "Ġdomin": 10463,
    "young": 7319,
    "Ġmaled": 21317,
    "Ġcub": 8414,
    "Ġdecanter": 22448,
    "calm": 8937,
    "deli": 15348,
    "Ġbrothers": 13178,
    "Ġtrampling": 25493,
    "umed": 6554,
    "renew": 24451,
    "jur": 17580,
    "fill": 15354,
    "Ġpresumption": 10548,
    "sence": 3305,
    "quickness": 19851,
    "Ġawake": 8271,
    "sent": 760,
    "Ġproducts": 5198,
    "irement": 18356,
    "Ġprice": 10405,
    "Ġmassac": 14740,
    "Ġmottled": 20681,
    "Ġsymb": 2590,
    "Ġsufferings": 7512,
    "rus": 5930,
    "ileries": 18062,
    "Ġwithdraw": 16965,
    "Ġfrontispiece": 23918,
    "rich": 11521,
    "Ġlogits": 3449,
    "iterranean": 15554,
    "etween": 776,
    "Ġhandfuls": 17212,
    "gaz": 20880,
    "solic": 16380,
    "Ġreeled": 13989,
    "Ġannals": 17901,
    "Ġprofundities": 20455,
    "Ġarchitectures": 2905,
    "Ġfanned": 19101,
    "Ġperplexed": 23664,
    "Ġcylinders": 25944,
    "Ġwithhold": 18115,
    "Ġsung": 23277,
    "retch": 4369,
    "Ġward": 10158,
    "exhibited": 18478,
    "seriously": 18906,
    "Ġreliably": 22884,
    "Ġgain": 4828,
    "Ġbind": 12588,
    "curiosity": 8627,
    "Ġconsoled": 18119,
    "Ġsundry": 20076,
    "Ġrationally": 18217,
    "Ġspend": 5306,
    "Ġtexture": 19162,
    "uish": 5431,
    "regularization": 3514,
    "Ġmace": 21312,
    "aciousness": 18608,
    "prejud": 11799,
    "Ġconsoling": 19460,
    "miniature": 16767,
    "Ġscarlet": 13227,
    "Ġhundreds": 4325,
    "Ġrelish": 14388,
    "Ġwhittling": 20702,
    "Ġprivileges": 25135,
    "Ġtools": 11613,
    "Ġcompassionate": 24721,
    "Ġaccomplishment": 19667,
    "Ġthreatening": 16830,
    "law": 6116,
    "Ġrandom": 1589,
    "Ġnorthumbria": 24174,
    "Ġmccarthys": 19664,
    "ilated": 18061,
    "Ġagain": 817,
    "formation": 22220,
    "Ġmurderers": 16813,
    "Ġcapacity": 10442,
    "classes": 12140,
    "Ġfootpaths": 26319,
    "ssip": 14082,
    "Ġrepeatedly": 9024,
    "admiration": 11390,
    "Ġtickets": 17095,
    "Ġoverlook": 10962,
    "03": 20750,
    "Ġexpedite": 24956,
    "Ġfoundations": 11075,
    "Ġunderstanding": 1837,
    "brain": 13691,
    "Ġpurchas": 19875,
    "own": 745,
    "Ġgloomy": 7503,
    "ior": 2039,
    "crucible": 24843,
    "Ġago": 3138,
    "Ġsurpl": 19134,
    "Ġconvolutional": 2165,
    "Ġawed": 23588,
    "ampton": 18148,
    "Ġdented": 17894,
    "====": 1485,
    "Ġancestry": 25642,
    "Ġincognit": 22558,
    "Ġscand": 7200,
    "besides": 8699,
    "boots": 11128,
    "Ġstandard": 14499,
    "goose": 19103,
    "Ġbouton": 17871,
    "ippi": 20246,
    "mysterious": 26052,
    "ens": 701,
    "Ġprosperity": 20259,
    "Ġunexplored": 26520,
    "plifted": 9714,
    "Ġtrusty": 24108,
    "weigh": 18666,
    "Ġtroubled": 6617,
    "iriously": 18175,
    "doubt": 6782,
    "Ġwronged": 24251,
    "Ġpeev": 22696,
    "Ġevents": 4472,
    "ulties": 12907,
    "Ġsensations": 5260,
    "private": 13585,
    "william": 4561,
    "Ġsacrilege": 26230,
    "withstand": 23029,
    "Ġdocile": 19961,
    "Ġterrified": 14675,
    "Ġzer": 1097,
    "Ġhospitable": 17061,
    "hastening": 24449,
    "field": 3076,
    "shelf": 20383,
    "princip": 17139,
    "umber": 5240,
    "Ġscepticism": 25928,
    "Ġquadruped": 20618,
    "sleeves": 26110,
    "icest": 21567,
    "Ġhouse": 1507,
    "Ġmexic": 14035,
    "Ġbud": 10171,
    "Ġqu": 605,
    "Ġsuperstitions": 17073,
    "orial": 8417,
    "Ġdependen": 1828,
    "Ġlouis": 8356,
    "Ġgre": 1585,
    "Ġlevel": 5020,
    "Ġexcept": 3311,
    "Ġunworthy": 11720,
    "fortnight": 13090,
    "ulance": 15771,
    "weary": 22689,
    "Ġmanxman": 9567,
    "Ġmurderer": 4980,
    "Ġstanzas": 21751,
    "Ġbottles": 16573,
    "Ġinjunctions": 24273,
    "Ġlearnt": 7612,
    "Ġpained": 19169,
    "Ġchecked": 9379,
    "rior": 12747,
    "Ġvi": 1954,
    "Ġconvulsive": 19309,
    "tumultuous": 20401,
    "Ġfin": 1462,
    "consolation": 15157,
    "exclaimed": 11795,
    "achines": 1722,
    "Ġunbecoming": 22066,
    "Ġpri": 5814,
    "ivable": 10912,
    "Ġcompare": 9305,
    "Ġcared": 8787,
    "mention": 7212,
    "scor": 13024,
    "Ġcrowded": 8011,
    "races": 21633,
    "Ġchatbots": 11351,
    "Ġverbal": 19382,
    "Ġstated": 9692,
    "sorts": 21063,
    "Ġpull": 5152,
    "scratch": 26045,
    "ire": 493,
    "Ġpaus": 4296,
    "Ġsympathise": 16796,
    "Ġshock": 6082,
    "Ġridicule": 13514,
    "Ġqualified": 14954,
    "harpooneer": 8692,
    "Ġexcuse": 5862,
    "ortment": 22262,
    "eled": 2359,
    "Ġhy": 5625,
    "gradually": 12921,
    "warn": 11546,
    "itation": 1778,
    "Ġscript": 18393,
    "ways": 1444,
    "bad": 12440,
    "ippers": 17578,
    "Ġdeftly": 26495,
    "elastic": 17984,
    "beam": 16043,
    "Ġbriony": 9332,
    "details": 19677,
    "Ġaston": 3700,
    "Ġconsult": 6057,
    "Ġ115": 24440,
    "acknowledge": 18469,
    "Ġreplenished": 13639,
    "Ġunprotected": 22069,
    "Ġlongest": 18632,
    "Ġscholar": 26112,
    "alling": 6036,
    "Ġtattoo": 7357,
    "Ġpert": 22391,
    "Ġconfining": 23310,
    "seaman": 25458,
    "mell": 20966,
    "icorn": 15661,
    "Ġopenshaw": 7954,
    "Ġimputable": 22177,
    "Ġhappened": 3712,
    "Ġaccept": 4408,
    "second": 6543,
    "Ġanalysis": 1892,
    "Ġallowed": 4057,
    "herds": 22207,
    "Ġguidance": 9419,
    "Ġknees": 6927,
    "Ġstingy": 25456,
    "Ġstamping": 20033,
    "Ġremnants": 22798,
    "stolidity": 21666,
    "already": 6980,
    "Ġdealer": 23981,
    "rib": 1947,
    "Ġcope": 17833,
    "âĢĺ": 939,
    "Ġparcels": 25466,
    "Ġlace": 13952,
    "Ġnigh": 4878,
    "Ġpilgr": 12185,
    "Ġdescending": 8906,
    "ape": 1906,
    "Ġadd": 630,
    "Ġmiriam": 25274,
    "Ġunperceived": 22039,
    "intercourse": 14641,
    "Ġsemantic": 1959,
    "Ġobservation": 6598,
    "Ġindic": 2883,
    "pp": 384,
    "Ġprolonged": 8357,
    "Ġnoble": 3439,
    "Ġpossibility": 7456,
    "Ġepo": 21622,
    "Ġaddu": 22106,
    "lakeman": 13754,
    "ption": 7396,
    "barb": 10083,
    "Ġiceland": 15151,
    "Ġplead": 14459,
    "Ġtaffrail": 15479,
    "Ġlion": 9678,
    "Ġcreditable": 19624,
    "eur": 7544,
    "Ġexperiences": 13034,
    "Ġsinusoidal": 4801,
    "aborate": 14025,
    "Ġvestibule": 13539,
    "Ġdenoted": 16568,
    "Ġcovari": 2338,
    "rary": 4574,
    "ieves": 4002,
    "Ġsustenance": 19936,
    "Ġcretan": 22729,
    "Ġbuckskin": 19954,
    "Ġsoar": 18283,
    "Ġus": 494,
    "mon": 2309,
    "Ġnightgown": 23138,
    "Ġbeale": 12705,
    "Ġvice": 6548,
    "Ġwraps": 19778,
    "Ġtropic": 17066,
    "visit": 7753,
    "Ġstride": 22620,
    "Ġale": 9157,
    "Ġlucy": 17973,
    "locked": 7677,
    "Ġbeaches": 18088,
    "person": 7744,
    "Ġtooks": 23330,
    "whis": 7897,
    "Ġharpooneer": 3769,
    "splinter": 25211,
    "strained": 21661,
    "Ġscuff": 15946,
    "Ġthinking": 4029,
    "Ġsewing": 21959,
    "Ġpromote": 23197,
    "rapid": 12676,
    "Ġwhereon": 16105,
    "Ġterrier": 23403,
    "Ġfant": 9176,
    "how": 1646,
    "fitters": 24760,
    "Ġpersecutor": 26097,
    "cong": 10691,
    "Ġadduced": 26526,
    "Ġappl": 1755,
    "Ġass": 1508,
    "ĠĠĠĠĠĠĠĠĠĠĠĠĠ": 22566,
    "bury": 9110,
    "Ġretain": 7862,
    "Ġcataract": 23432,
    "Ġemotion": 7689,
    "ication": 994,
    "hatred": 24818,
    "comfort": 5647,
    "unc": 15773,
    "Ġauto": 23329,
    "Ġbrig": 11049,
    "irs": 14074,
    "tons": 7558,
    "Ġstren": 15727,
    "Ġreasonably": 11095,
    "Ġdes": 1252,
    "Ġfiend": 4409,
    "Ġdiscoveries": 13362,
    "--------": 14787,
    "ading": 5091,
    "Ġunfair": 19510,
    "Ġcontr": 1916,
    "common": 4126,
    "Ġshame": 6409,
    "Ġclutch": 15057,
    "Ġdreaminess": 23944,
    "utmost": 21591,
    "Ġforcing": 3226,
    "these": 3243,
    "Ġerskine": 17435,
    "Ġbedroom": 7275,
    "lucas": 15156,
    "reporting": 24495,
    "Ġslices": 23170,
    "Ġfeeds": 16437,
    "designated": 26320,
    "Ġhospital": 15043,
    "ching": 5156,
    "sicilian": 21066,
    "onden": 13847,
    "aks": 8507,
    "Ġimmutable": 17361,
    "Ġgamming": 25543,
    "Ġextrem": 2475,
    "Ġdan": 8797,
    "Ġletter": 2198,
    "Ġsums": 2898,
    "acute": 22601,
    "Ġlookest": 22719,
    "visual": 24226,
    "Ġinhab": 5083,
    "kily": 20939,
    "Ġwarmth": 6904,
    "Ġmoses": 21318,
    "Ġfamiliar": 5511,
    "kin": 7131,
    "Ġnarrating": 24352,
    "Ġwelcome": 5604,
    "Ġassur": 6074,
    "Ġenvironment": 3861,
    "queer": 10366,
    "Ġburying": 19254,
    "allowed": 5728,
    "Ġclose": 3040,
    "aren": 10077,
    "boom": 18999,
    "commod": 16177,
    "Ġnatures": 16508,
    "Ġplanet": 14754,
    "Ġfrig": 13084,
    "Ġvale": 14085,
    "Ġinvesting": 19643,
    "Ġgardener": 19136,
    "shaven": 18500,
    "Ġdiminished": 16668,
    "resent": 10771,
    "Ġspasmodically": 17317,
    "Ġhastened": 9007,
    "Ġdauntless": 26338,
    "hair": 9125,
    "Ġchairs": 12832,
    "ificent": 8183,
    "wed": 5796,
    "greater": 13254,
    "umnal": 18301,
    "Ġarrow": 10933,
    "Ġremembrance": 8317,
    "Ġsignature": 16495,
    "Ġengineering": 3029,
    "consequential": 26251,
    "dil": 11481,
    "ting": 1334,
    "Ġmeadow": 17154,
    "ians": 2360,
    "Ġpromoting": 3162,
    "Ġsemi": 11973,
    "Ġrevisit": 21673,
    "Ġphantom": 8710,
    "rote": 4591,
    "É": 138,
    "Ġnodding": 23339,
    "Ġroof": 6564,
    "Ġwithstand": 10227,
    "Ġcurv": 3511,
    "Ġbrick": 8929,
    "story": 9215,
    "urs": 6989,
    "Ġoffering": 3010,
    "Ġsitting": 3605,
    "dramatic": 19388,
    "Ġcontemplation": 11360,
    "Ġbehoo": 19035,
    "Ġpythag": 26450,
    "Ġsolicitude": 10043,
    "Ġnomine": 26458,
    "liberal": 26283,
    "etence": 21580,
    "Ġwrecked": 9969,
    "Ġconducting": 16652,
    "Ġbeliever": 25847,
    "Ġsoundings": 13136,
    "Ġbrimming": 22872,
    "ings": 631,
    "define": 1531,
    "commend": 19995,
    "Ġsavesoul": 26229,
    "Ġmaxim": 3089,
    "Ġsupports": 3055,
    "Ġthanked": 9461,
    "Ġmatters": 4974,
    "Ġsign": 2495,
    "Ġarter": 22187,
    "coll": 23783,
    "Ġsteal": 16287,
    "departure": 15238,
    "Ġearnestly": 5978,
    "Ġuniversity": 13125,
    "Ġcyl": 15561,
    "Ġvel": 7184,
    "Ġardent": 9973,
    "Ġunconscious": 9549,
    "Ġglances": 10375,
    "Ġbalmoral": 16210,
    "Ġ123": 24469,
    "Ġtens": 17725,
    "Ġtrained": 8503,
    "Ġpertaining": 18447,
    "nades": 20999,
    "Ġwrists": 11115,
    "enance": 3370,
    "Ġdom": 2669,
    "Ġlonely": 6822,
    "Ġhomeward": 9394,
    "Ġassuming": 16694,
    "phys": 18714,
    "stopping": 19353,
    "island": 10796,
    "era": 13850,
    "shri": 14240,
    "magn": 10613,
    "strikes": 24672,
    "ingolstadt": 21306,
    "Ġindirect": 18837,
    "important": 7112,
    "Ġextraordinary": 5414,
    "Ġgrotesque": 26330,
    "Ġtinged": 20085,
    "Ġpharaoh": 26587,
    "Ġmann": 18417,
    "slipping": 25529,
    "nable": 13765,
    "Ġwear": 6030,
    "Ġprovincial": 20652,
    "emason": 18190,
    "._)": 10483,
    "Ġsweat": 13143,
    "Ġpsychology": 11451,
    "Ġcoat": 4553,
    "data": 2047,
    "uzza": 11273,
    "hours": 9127,
    "inhabited": 13623,
    "Ġfiled": 15584,
    "Ġapparently": 6778,
    "Ġsouthampton": 24310,
    "Ð": 145,
    "legged": 10468,
    "Ġsuperstitious": 13522,
    "¬": 110,
    "Ġbambooz": 26120,
    "Ġfollies": 16257,
    "Ġflounders": 23017,
    "Ġgranting": 18737,
    "agged": 9240,
    "absent": 21794,
    "Ġsepulch": 15288,
    "health": 13836,
    "Ġsmile": 4269,
    "Ġgallons": 14821,
    "Ġabraham": 18401,
    "possessed": 9530,
    "jury": 15377,
    "rist": 10125,
    "Ġafloat": 9311,
    "Ġlessen": 14535,
    "Ġconvince": 14645,
    "proposal": 18750,
    "Ġsunbeam": 23280,
    "supportable": 12374,
    "heed": 15501,
    "itative": 13873,
    "Ġtigris": 25760,
    "dost": 14538,
    "ctors": 21593,
    "Ġdressed": 5081,
    "Ġroom": 1465,
    "ascribed": 24706,
    "Ġyourself": 2592,
    "Ġfair": 2834,
    "stick": 15689,
    "min": 4570,
    "Ġcoral": 11927,
    "progress": 11992,
    "Ġscruple": 25051,
    "warrior": 24797,
    "Ġwindpipe": 23112,
    "peaceful": 20449,
    "tete": 10734,
    "atch": 674,
    "blu": 12444,
    "feed": 9296,
    "Ġsauce": 15894,
    "Ġsaw": 1351,
    "ements": 11110,
    "uteronomy": 15668,
    "Ġgret": 21604,
    "Ġflo": 2587,
    "osely": 9268,
    "oping": 5559,
    "Ġmultiplied": 23694,
    "nett": 16224,
    "Ġrecom": 4554,
    "Ġsupers": 18278,
    "Ġtender": 5753,
    "Ġprofounder": 23571,
    "Ġfrivolous": 26177,
    "ieged": 22581,
    "Ġuncomfortable": 8486,
    "Ġor": 437,
    "Ġsmells": 8893,
    "Ġranges": 2879,
    "assured": 10954,
    "Ġfalling": 6914,
    "Ġstock": 7453,
    "superstitious": 17283,
    "ctic": 8442,
    "Ġsleepers": 13152,
    "killing": 20944,
    "Ġcourage": 4634,
    "Ġsant": 21217,
    "Ġresolved": 3796,
    "Ġforbidden": 17079,
    "Ġdemon": 7868,
    "Ġaven": 10761,
    "que": 1139,
    "Ġsixth": 16562,
    "Ġpeasants": 12336,
    "Ġunfit": 14792,
    "stains": 11641,
    "Ġwelcomed": 9484,
    "Ġrooted": 13172,
    "Ġjoosy": 23634,
    "Ġincisive": 18571,
    "Ġmisty": 16542,
    "aff": 3105,
    "Ġtreble": 16506,
    "itud": 2928,
    "Ġreceipt": 20357,
    "Ġcoins": 11824,
    "irons": 10241,
    "Ġeffect": 965,
    "Ġindiam": 22957,
    "Ġshipped": 9718,
    "eluded": 21578,
    "mediterranean": 16409,
    "cold": 9592,
    "Ġscoundrel": 13674,
    "Ġkilling": 13336,
    "Ġunobserved": 18251,
    "Ġminut": 2204,
    "thank": 4950,
    "eness": 2290,
    "sufferable": 12181,
    "Ġdesk": 11912,
    "Ġsuit": 5725,
    "Ġcarried": 3692,
    "Ġalb": 14019,
    "Ġsquire": 16186,
    "Ġanticipating": 17060,
    "Ġexceeding": 1583,
    "Ġbash": 12592,
    "Ġshameful": 19852,
    "Ġspiral": 14587,
    "go": 2063,
    "persecutor": 26531,
    "mn": 3577,
    "Ġmemb": 14033,
    "Ġforeshad": 23455,
    "games": 20882,
    "Ġpredicted": 2044,
    "Ġcontextually": 11959,
    "ware": 3933,
    "Ġforebodings": 17307,
    "ilies": 18060,
    "Ġdevious": 22733,
    "Ġstranger": 3485,
    "Ġcre": 886,
    "Ġkeen": 4613,
    "card": 11478,
    "Ġhearses": 20062,
    "bat": 8071,
    "Ġgryphon": 4297,
    "Ġneighbor": 25804,
    "Ġtiny": 11556,
    "hyp": 15370,
    "Ġsimplicity": 2920,
    "vol": 733,
    "Ġglaring": 11913,
    "Ġpersu": 3563,
    "Ġvanquished": 22882,
    "itche": 7578,
    "Ġmoran": 9344,
    "consequ": 18507,
    "Ġgratify": 19506,
    "Ġheartily": 6889,
    "Ġpeeped": 10015,
    "Ġcontribut": 12865,
    "Ġfinished": 5044,
    "unable": 14062,
    "Ġwhale": 627,
    "ows": 1919,
    "Ġwhe": 438,
    "Ġremarks": 7472,
    "Ġearls": 18905,
    "Ġtang": 13817,
    "matlock": 23472,
    "bbing": 6323,
    "ember": 1957,
    "Ġontario": 26206,
    "Ġital": 10868,
    "Ġturbulence": 26599,
    "Ġbeh": 1801,
    "Ġquoted": 22419,
    "Ġtyph": 10011,
    "Ġinitialization": 1255,
    "Ġgeneric": 18444,
    "tack": 12517,
    "ament": 2439,
    "Ġfelicity": 7258,
    "Ġ94": 17719,
    "Ġhumour": 7931,
    "ĠĠĠĠĠĠĠĠĠĠĠĠĠĠĠĠĠĠĠĠĠĠĠĠĠĠĠĠĠĠĠĠĠĠĠĠĠĠĠĠĠĠĠĠĠĠĠ": 16757,
    "Ġimpro": 913,
    "iferous": 17294,
    "Ġprestige": 22240,
    "prow": 15414,
    "Ġruefully": 17304,
    "iteness": 4390,
    "Ġhazard": 20434,
    "prepar": 22456,
    "Ġfierceness": 26267,
    "Ġadvanced": 1495,
    "analysis": 26174,
    "Ĺ": 250,
    "arm": 1356,
    "Ġsunrise": 9376,
    "Ġanew": 11433,
    "Ġindies": 22955,
    "fortunately": 9453,
    "Ġrelatives": 12986,
    "liament": 16221,
    "perquisites": 26532,
    "Ġbanks": 6814,
    "arily": 4124,
    "Ġmethodically": 23104,
    "Ġcreep": 22727,
    "Ġheads": 3739,
    "Ġuppermost": 15282,
    "dropped": 12267,
    "quod": 2166,
    "Ġuncivil": 11157,
    "Ġ181": 23900,
    "Ġnovelist": 24776,
    "occasional": 19578,
    "Ġneutral": 12750,
    "loom": 18539,
    "Ġcat": 2122,
    "Ġproximity": 3221,
    "asburgh": 15651,
    "Ġsingled": 23776,
    "hs": 8377,
    "jol": 20927,
    "Ġmornings": 16239,
    "Ġnap": 8813,
    "Ġpreprocess": 22237,
    "Ġincreasing": 8247,
    "Ġliterally": 15121,
    "ulled": 14059,
    "you": 1007,
    "rougham": 15997,
    "Ġgraze": 18228,
    "mass": 12494,
    "Ġcrouched": 23443,
    "ator": 1924,
    "Ġloc": 10916,
    "Ġobliquely": 12366,
    "aet": 15311,
    "conve": 14247,
    "hammad": 23268,
    "linging": 16082,
    "Ġ275": 20113,
    "Ġconfessor": 24023,
    "Ġdoc": 7198,
    "Ġtolerable": 6948,
    "image": 9689,
    "Ġowners": 7662,
    "Ġsunken": 14496,
    "Ġtells": 9364,
    "wrath": 23760,
    "Ġane": 9184,
    "efficient": 2867,
    "Ġsable": 15503,
    "Ġamazed": 14893,
    "eag": 20844,
    "farintosh": 24554,
    "Ġrearing": 12683,
    "drovand": 24759,
    "Ġtracing": 18890,
    "grow": 10101,
    "Ġwould": 652,
    "Ġprank": 23220,
    "Ġemploying": 23982,
    "Ġfru": 8420,
    "une": 2783,
    "Ġparasol": 22125,
    "Ġserpent": 6738,
    "boxes": 16890,
    "Ġglide": 22990,
    "ada": 14014,
    "jewel": 20348,
    "Ġoccasioned": 13231,
    "Ġdull": 6383,
    "ĠĠĠĠĠĠ": 6413,
    "Ġscuffle": 20611,
    "Ġcopies": 24938,
    "Ġfluctuating": 24418,
    "Ġangel": 4853,
    "indebted": 26159,
    "requirements": 24858,
    "Ġbitterest": 12406,
    "Ġsubordinate": 18723,
    "Ġstrewed": 23426,
    "Ġtraveller": 8048,
    "Ġreckless": 13461,
    "30": 20756,
    "Ġeucl": 24707,
    "Ġblan": 18819,
    "lac": 17591,
    "Ġcursed": 6728,
    "Ġinterven": 10999,
    "Ġbulkhead": 24512,
    "Ġfed": 5530,
    "pip": 6656,
    "Ġmisled": 22759,
    "Ġtreacherous": 13557,
    "Ġamb": 9295,
    "retched": 3072,
    "irited": 15791,
    "Ġpol": 2576,
    "Ġoutsk": 15960,
    "Ġ1869": 19387,
    "Ġdishonoured": 20393,
    "Ġreef": 10851,
    "waters": 11336,
    "accompanied": 12426,
    "Ġprivacy": 19527,
    "Ġilleg": 21626,
    "daughters": 13469,
    "Ġdreading": 23802,
    "requent": 3649,
    "Ġdart": 4584,
    "Ġdisabled": 18561,
    "Ġwrapping": 19777,
    "sight": 5994,
    ");": 7328,
    "Ġflexible": 23779,
    "moment": 3579,
    "Ġcontriv": 9285,
    "directed": 20407,
    "claim": 9838,
    "Ġpreceded": 13431,
    "Ġabst": 9269,
    "sorting": 17006,
    "Ġshipmate": 8932,
    "Ġforbear": 17124,
    "Ġnice": 6677,
    "Ġgoug": 17994,
    "Ġcloth": 9746,
    "orative": 21401,
    "Ġgod": 1937,
    "Ġengagement": 5397,
    "Ġrainy": 24342,
    "Ġvector": 1971,
    "Ġdel": 1615,
    "ouder": 17903,
    "icher": 9205,
    "Ġmoth": 17805,
    "Ġsupplying": 19800,
    "organ": 15578,
    "action": 3725,
    "Ġimpart": 11787,
    "croquet": 25748,
    "Ġadvocate": 13680,
    "tw": 2808,
    "Ġseries": 7059,
    "Ġhousehold": 8569,
    "Ġmarched": 18873,
    "Ġfif": 4214,
    "withdrawn": 23030,
    "Ġadvoc": 12995,
    "Ġwaiter": 16363,
    "soup": 21061,
    "favourite": 15148,
    "Ġsibbald": 21233,
    "ipl": 20920,
    "twenty": 6608,
    "Ġscotland": 6641,
    "Ġfitzwilliam": 5771,
    "Ġjust": 1243,
    "Ġreception": 9842,
    "Ġphyseter": 26588,
    "fra": 8374,
    "Ġrick": 21978,
    "Ġanother": 1737,
    "opposite": 19930,
    "to": 713,
    "Ġcrest": 12947,
    "Ġapproximation": 2341,
    "Ġpill": 7845,
    "Ġpresented": 5183,
    "tra": 5002,
    "Ġvexation": 10589,
    "Ġgods": 6453,
    "discharging": 26306,
    "Ġemm": 18006,
    "Ġstaring": 8830,
    "Ġgrappling": 25813,
    "Ġhotel": 8654,
    "Ġfault": 5702,
    "Ġbackbone": 22650,
    "Ġcoats": 16078,
    "penet": 11072,
    "ac": 741,
    "Ġinvention": 19955,
    "gre": 5788,
    "Ġsom": 1276,
    "Ġtimely": 19596,
    "Ġdetain": 14177,
    "Ġcruellest": 19660,
    "Ġsenseless": 12083,
    "Ġdwelt": 12611,
    "Ġbaltic": 18797,
    "ampling": 12732,
    "emptied": 23638,
    "tied": 21073,
    "condite": 23251,
    "ingale": 21302,
    "Ġforesight": 13130,
    "Ġunhappiness": 14122,
    "Ġfoundering": 21422,
    "Ġresponsible": 9889,
    "vishnoo": 21122,
    "Ġcandidate": 16700,
    "gust": 6360,
    "Ġdeclared": 5595,
    "Ġfundamentals": 14638,
    "rical": 11522,
    "Ġplu": 8803,
    "misrepresented": 24215,
    "Ġdirector": 18922,
    "Ġbuy": 8299,
    "droppers": 24758,
    "Ġreve": 2931,
    "Ġoverwhelming": 17103,
    "Ġundaunted": 24123,
    "Ġsubstantial": 14814,
    "Ġnorris": 23206,
    "Ġlivers": 18462,
    "Ġclank": 15968,
    "Ġsupposing": 6730,
    "Ġmud": 11577,
    "Ġcomputes": 4768,
    "Ġtrait": 23077,
    "Ġuttermost": 19491,
    "Ġinexpressible": 17336,
    "ă": 196,
    "three": 5238,
    "subjects": 19877,
    "Ġcapsized": 20092,
    "Ġprojected": 16873,
    "Ġhasten": 10480,
    "hope": 5989,
    "Ġkneel": 14811,
    "Ġexhale": 24403,
    "lightning": 16555,
    "Ġinstructing": 3125,
    "Ġinvoked": 19146,
    "Ġcomplex": 747,
    "Ġmount": 7360,
    "affected": 10478,
    "Ġlash": 8439,
    "intention": 10370,
    "pacific": 17643,
    "turbaned": 24533,
    "procure": 23401,
    "treated": 21097,
    "Ġrag": 18645,
    "Ġjohn": 5032,
    "Ġelastic": 4359,
    "Ġatonement": 21947,
    "Ġsatin": 12992,
    "Ġpace": 9185,
    "Ġagonized": 25373,
    "Ġunwelcome": 12786,
    "Ġoozy": 21330,
    "across": 10327,
    "rack": 18014,
    "Ġspirit": 3723,
    "mpt": 6655,
    "Ġmim": 3109,
    "Ġdrank": 16538,
    "confirm": 16809,
    "Â£": 4812,
    "Ġnour": 10832,
    "iration": 4539,
    "published": 26143,
    "Ġslighted": 16570,
    "Ġvisible": 4777,
    "Ġpurchases": 24755,
    "Ġwallet": 21301,
    "Ġagents": 9769,
    "Ġrelig": 8551,
    "ateful": 5927,
    "Ġsuspect": 5758,
    "Ġjenkinson": 11434,
    "ringle": 21043,
    "Ġswitching": 23061,
    "Ġappointment": 10649,
    "Ĳ": 243,
    "ssible": 2993,
    "Ġinitial": 825,
    "Ġsub": 950,
    "Ġchatting": 24745,
    "Ġseaman": 8642,
    "Ġdisposal": 19379,
    "mot": 17598,
    "Ġdusk": 12331,
    "undant": 14791,
    "uctive": 17698,
    "Ġextinct": 14331,
    "eps": 12796,
    "contents": 12062,
    "Ġallude": 12777,
    "despairing": 25077,
    "Ġgospel": 18004,
    "ribution": 14308,
    "Ġheaths": 25973,
    "Ġtrappers": 23084,
    "Ġcarelessly": 11122,
    "poled": 22912,
    "Ġwherefore": 8525,
    "Ġagencies": 18542,
    "Ġhumiliation": 16202,
    "Ġabased": 22282,
    "Ġspan": 11733,
    "Ġtold": 2186,
    "lier": 20951,
    "bunger": 20404,
    "Ġren": 3845,
    "venge": 4659,
    "Ġinve": 17932,
    "Ġmasterly": 23998,
    "Ġyounge": 16291,
    "whalemen": 10433,
    "Ġsurviv": 13438,
    "genteel": 19951,
    "court": 7510,
    "Ġloves": 10917,
    "Ġcitadel": 25439,
    "==": 945,
    "chance": 6826,
    "pul": 8757,
    "Ġlunacy": 20030,
    "mm": 675,
    "Ġnotion": 7881,
    "Ġworaciousness": 22933,
    "Ġbou": 17855,
    "ernity": 18614,
    "Ġcelestial": 10070,
    "Ġdaunt": 19666,
    "Ġsea": 1208,
    "Ġpugnacious": 26453,
    "Ġpestilent": 25778,
    "petulance": 24302,
    "Ġexponentially": 1446,
    "Ġuseless": 7037,
    "Ġlung": 7166,
    "Ġtrad": 9831,
    "communication": 25881,
    "Ġbespe": 19244,
    "infall": 21191,
    "Ġgold": 3278,
    "âĢĶâĢĻ": 8187,
    "Ġbrooded": 23110,
    "Ġvehemently": 26040,
    "Ġstru": 2172,
    "Ġconveying": 19716,
    "Ġbarbarous": 13479,
    "Ġmappings": 2149,
    "Ġbreakers": 12059,
    "Ġhails": 21955,
    "Ġpresence": 5031,
    "alcul": 15632,
    "augh": 1781,
    "Ġlee": 4219,
    "Ġfri": 17881,
    "Ġpettic": 14845,
    "Ġshrouded": 14972,
    "Ġincarnate": 20377,
    "Ġcolleague": 17162,
    "Ġ[": 6967,
    "Ġcister": 13885,
    "istry": 22113,
    "local": 22514,
    "Ġpriv": 4181,
    "Ġspiteful": 19525,
    "eryton": 4092,
    "Ġslavish": 23178,
    "Ġxavier": 2852,
    "heaving": 21210,
    "ille": 9222,
    "Ġdefault": 3042,
    "fthand": 26388,
    "Ġawakened": 10455,
    "Ġcit": 10785,
    "Ġmab": 12565,
    "Ġtragedy": 10670,
    "prosper": 19102,
    "Ġcircumst": 2976,
    "Ġprem": 3426,
    "recover": 24620,
    "iquette": 26133,
    "Ġdownright": 16122,
    "Ġgolden": 5337,
    "extent": 22764,
    "boil": 19000,
    "have": 2058,
    "infallibly": 26419,
    "nerable": 16280,
    "Ġhem": 8446,
    "Ġchambermaid": 24307,
    "Ġarchbishop": 18718,
    "Ġyet": 1028,
    "Ġirr": 10423,
    "Ġeveryday": 22773,
    "Ġug": 8140,
    "Ġindividuality": 14913,
    "Ġprayer": 16669,
    "machines": 8384,
    "Ġrepugn": 23367,
    "Ġdiscomp": 11871,
    "Ġjunior": 15104,
    "brother": 7091,
    "Ġbulwarks": 5592,
    "Ġsurf": 19133,
    "Ġbump": 9662,
    "Ġexpressive": 8985,
    "Ġhorribly": 16345,
    "Ġsli": 4748,
    "Ġhighlands": 22776,
    "impressed": 12697,
    "Ġstricken": 9779,
    "alarmed": 21506,
    "Ġseized": 4834,
    "Ġgaieties": 24199,
    "Ġundecided": 22050,
    "Ġscenes": 5730,
    "Ġpulling": 5863,
    "def": 1455,
    "Ġstiffest": 24827,
    "speech": 10669,
    "Ġfrancisco": 26065,
    "Ġalman": 21785,
    "Ġsymbols": 2794,
    "steady": 14713,
    "Ġemblazonings": 26043,
    "):": 11464,
    "collar": 19330,
    "Ġsoutherly": 23338,
    "Ġbegins": 7242,
    "Ġunfinished": 19512,
    ".âĢĻ": 1718,
    "Ġdiligent": 25078,
    "cup": 10694,
    "Ġinfallibly": 10044,
    "Ġst": 333,
    "offensive": 16402,
    "fleet": 15017,
    "Ġtimes": 2303,
    "Ġxxxi": 24969,
    "Ġwest": 5219,
    "ced": 694,
    "da": 17516,
    "Ġdismasted": 15255,
    "sufficiently": 14985,
    "narrowly": 20349,
    "Ġterminated": 23514,
    "Ġlosing": 10918,
    "lively": 12489,
    "uture": 1062,
    "long": 2909,
    "cabinet": 25080,
    "Ġmule": 13865,
    "Ġdesires": 9459,
    "Ġspecimens": 18860,
    "itically": 21333,
    "Ġic": 9628,
    "pow": 10719,
    "Ġsadly": 7300,
    "eyed": 11490,
    "Ġunlim": 18255,
    "Ġhosts": 19941,
    "Ġobscured": 15014,
    "Ġdespaired": 14672,
    "Ġbury": 12046,
    "Ġelderly": 13497,
    "odings": 4397,
    "Ġtidy": 17094,
    "Ġgaily": 16750,
    "Ġbusks": 23342,
    "Ġsufficiently": 8976,
    "Ġsabbath": 17257,
    "fier": 9596,
    "iz": 365,
    "Ġfortifications": 23623,
    "Ġdeferred": 18828,
    "Ġdeceiving": 21841,
    "atory": 6126,
    "Ġlizzy": 3546,
    "secondly": 16985,
    "apparat": 22854,
    "Ġstrangest": 14800,
    "Ġintroduces": 3269,
    "Ġtrouble": 3689,
    "Ġshriek": 6639,
    "Ġgpt": 4348,
    "ta": 13792,
    "loo": 10321,
    "hint": 12480,
    "shud": 18496,
    "whom": 8184,
    "Ġheard": 1401,
    "Ġgracefully": 13394,
    "stamp": 21657,
    "Ġtestimony": 14481,
    "Ġhovered": 12637,
    "Ġslumbering": 25702,
    "bble": 17487,
    "Ġliquid": 22413,
    "armon": 23063,
    "Ġrepairs": 19083,
    "á": 162,
    "belated": 24042,
    "Ġexerting": 21836,
    "Ġconsecrated": 26490,
    "promising": 24724,
    "95": 17480,
    "Ġstructural": 2787,
    "Ġplank": 7033,
    "Ġenglish": 3614,
    "keys": 15862,
    "Ġcuriously": 13018,
    "leman": 21371,
    "Ġscrape": 14922,
    "came": 4569,
    "beth": 13692,
    "deserving": 17248,
    "wedding": 12526,
    "Ġgo": 614,
    "prit": 19345,
    "Ġaccording": 5508,
    "Ġgl": 1257,
    "ifies": 6687,
    "Ġhelen": 16658,
    "Ġgovernment": 15181,
    "surprised": 9533,
    "prov": 16426,
    "Ġhelpless": 8301,
    "ender": 9163,
    "Â·": 21152,
    "actory": 8911,
    "tomahawk": 25916,
    "Ġjumbled": 22301,
    "Ġvillagers": 19477,
    "rapidly": 15247,
    "Ġintroduced": 7690,
    "concerted": 16674,
    "crat": 24090,
    "Ġinterrupt": 4357,
    "Ą": 197,
    "what": 643,
    "correct": 24484,
    "Ġstranded": 9778,
    "Ġislanders": 19505,
    "Ġabandonment": 25604,
    "Ġakin": 15498,
    "Ġferule": 24500,
    "Ġheroic": 14912,
    "clerval": 7950,
    "top": 4485,
    "Ġaccuracy": 1063,
    "Ġwedded": 15539,
    "Ġdreamt": 23943,
    "Ġhabitual": 24789,
    "oftener": 23969,
    "Ġrising": 4353,
    "Ġgrotes": 19564,
    "Ġhazarded": 25655,
    "Ġwishing": 7829,
    "oda": 15753,
    "Ġmisgivings": 15295,
    "Ġperception": 9753,
    "judgment": 16755,
    "unching": 18162,
    "Ġpress": 5932,
    "exactly": 10639,
    "Ġbackstays": 22653,
    "Ġovercome": 6043,
    "oquent": 12504,
    "condemned": 26061,
    "choose": 23676,
    "Ġnon": 1626,
    "stun": 18022,
    "staking": 21651,
    "Ġrespectable": 6737,
    "language": 5129,
    "Ġspringing": 10521,
    "Ġmercy": 9001,
    "Ġemperor": 15163,
    "dark": 5614,
    "Ġarom": 15495,
    "Ġstayed": 7997,
    "Ġsounding": 8264,
    "Ġawaken": 23589,
    "walls": 25346,
    "iforn": 14067,
    "Ġfeminine": 15267,
    "abbering": 21800,
    "illustration": 2283,
    "Ġfierc": 18715,
    "Ġstray": 18076,
    "Ġadmit": 7709,
    "Ġgene": 15676,
    "beneath": 9537,
    "Ġdoubly": 16389,
    "thumb": 18220,
    "Ġenlivened": 26209,
    "stump": 21656,
    "flames": 14716,
    "ousness": 10277,
    "Ġcosmopol": 16456,
    "Ġdistrusting": 25056,
    "w": 91,
    "Ġshell": 11741,
    "Ġtarget": 2817,
    "Ġsanction": 20028,
    "Ġaries": 21200,
    "Ġdecisive": 18488,
    "wife": 8100,
    "Ġebony": 18012,
    "ure": 356,
    "Ġexhilarating": 26339,
    "Ġblinded": 13273,
    "âĢĿ;": 11674,
    "Ġunderstand": 837,
    "Ġthews": 21280,
    "Ġriddles": 16734,
    "unctuous": 21887,
    "Ġtot": 4184,
    "sugg": 11844,
    "Ġsecluded": 11997,
    "Ġglobal": 2372,
    "ang": 446,
    "Ġfreshe": 13073,
    "tawn": 21083,
    "Ġyoke": 18099,
    "Ġcrocod": 19630,
    "Ġsab": 10764,
    "Ġrefused": 6716,
    "club": 26382,
    "Ġfortunate": 6215,
    "Ġavenues": 25430,
    "Ġplaid": 22606,
    "Ġoughts": 23905,
    "Ġdeem": 18137,
    "immedi": 8451,
    "Ġtranslation": 3091,
    "solution": 14689,
    "studied": 17152,
    "ā": 194,
    "Ġaccompanied": 6780,
    "Ġtw": 840,
    "Ġabstract": 17184,
    "Ġwheel": 9721,
    "mouthed": 12404,
    "Ġvineyarder": 25607,
    "Ġinquir": 4240,
    "ech": 4387,
    "mud": 20973,
    "Ġagreeably": 24955,
    "este": 15925,
    "Ġroundabout": 23064,
    "Ġlivelihood": 24773,
    "spoke": 11026,
    "ill": 447,
    "Ġtelegraph": 25584,
    "ension": 6569,
    "Ġmod": 492,
    "ivation": 3113,
    "Ġlinguistic": 12429,
    "Ġspecks": 14312,
    "Ġrefres": 14344,
    "Ġexcluded": 16388,
    "Ġunwinding": 22062,
    "Ġunsc": 22017,
    "whims": 22243,
    "Ġprocedure": 2806,
    "ë": 172,
    "Ġvisiting": 10360,
    "Ġundulating": 19520,
    "Ġdiscerned": 25006,
    "Ġgrie": 3584,
    "Ġwrath": 16321,
    "Ġinev": 10184,
    "ê": 171,
    "Ġmalignant": 14882,
    "Ġpom": 21454,
    "Ġprocuring": 16872,
    "istol": 6260,
    "Ġfabric": 25948,
    "Ġsobs": 14138,
    "quarried": 24948,
    "ignorantly": 25190,
    "humorously": 24024,
    "Ġbeaut": 2395,
    "Ġrecommence": 16814,
    "Ġstochastic": 3266,
    "Ġspears": 12932,
    "Ġstepped": 7051,
    "Ġsol": 1104,
    "glings": 23855,
    "worm": 15456,
    "Ġstrives": 23699,
    "during": 6787,
    "float": 19807,
    "Ġerected": 12238,
    "ays": 6684,
    "Ġcoopers": 20525,
    "Ġsteamer": 17191,
    "iber": 6505,
    "Ġshipmates": 6721,
    "Ġsick": 4693,
    "disposed": 25013,
    "Ġbottle": 7489,
    "Ġblush": 14407,
    "Ġschoolmasters": 19722,
    "Ġreceive": 4704,
    "vent": 683,
    "Ġzigzag": 26274,
    "arned": 21821,
    "Ġderiv": 1736,
    "Ġshy": 10905,
    "Ġsparkled": 13465,
    "dock": 16422,
    "Ġsc": 528,
    "Ġxxii": 24479,
    "Ġlexic": 15722,
    "Ġpalpit": 16692,
    "ested": 3479,
    "ear": 8734,
    "enger": 10775,
    "Ġenchanted": 9083,
    "Ġmission": 13010,
    "Ġbourgh": 5069,
    "Ġspitz": 14152,
    "Ġhandled": 12943,
    "occ": 4484,
    "Ġclapped": 9748,
    "Ġdisconsol": 18557,
    "mut": 17597,
    "Ġced": 10786,
    "Ġundulates": 24122,
    "Ġneatly": 17018,
    "Ġbias": 1193,
    "Ġgrave": 5100,
    "Ġbeau": 9227,
    "Ġbow": 3065,
    "westward": 25425,
    "Ġheredit": 9219,
    "por": 2151,
    "fool": 9050,
    "¡": 99,
    "ĠĠ": 353,
    "Ġpossesses": 19355,
    "Ġcrutch": 23448,
    "Ġimprecations": 25822,
    "murderer": 13396,
    "Ġinexplicable": 12261,
    "display": 19158,
    "Ġlawless": 19438,
    "Ġplum": 11827,
    "Ġ43": 14773,
    "Ġshows": 8483,
    "Ġsurround": 4617,
    "aphs": 22340,
    "ÿ": 192,
    "Ġlodger": 24098,
    "eminently": 25108,
    "bourn": 3300,
    "pre": 649,
    "Ġfastidious": 14495,
    "dischar": 19155,
    "noted": 22753,
    "Ġdet": 509,
    "did": 3197,
    "Ġseventy": 7877,
    "drown": 13708,
    "Ġinjury": 10543,
    "adventures": 20258,
    "vib": 21118,
    "Ġconvivial": 16551,
    "rudence": 7092,
    "greek": 25405,
    "Ġcheerful": 6623,
    "bowed": 10687,
    "Ġvillanous": 24060,
    "Ġsisters": 3640,
    "Ġsevent": 18202,
    "Ġmurmuring": 23582,
    "Ġboasting": 19938,
    "cle": 3953,
    "00": 1611,
    "Ġmoose": 22435,
    "Ġfuller": 11158,
    "Ġtusks": 17256,
    "smallest": 23916,
    "Ġequals": 4727,
    "Ġundeviating": 15222,
    "Ġsuspicious": 9482,
    "increas": 10456,
    "ĝ": 222,
    "Ġappals": 22228,
    "Ġretired": 6071,
    "oubled": 23648,
    "ois": 9137,
    "organic": 25947,
    "regarded": 12012,
    "Ġinterfere": 11822,
    "conjectures": 25181,
    "Ġzoned": 22825,
    "Ġunfolded": 10641,
    "Ġmachine": 790,
    "Ġfanc": 6744,
    "Ġviv": 6157,
    "troubled": 17113,
    "Ġcocoan": 20318,
    "Ġdisd": 7030,
    "oof": 15408,
    "fire": 6357,
    "Ġdenied": 9003,
    "Ġvariants": 1790,
    "oy": 1030,
    "Ġcomposure": 7215,
    "Ġarri": 2553,
    "Ġcerem": 7077,
    "network": 1929,
    "encoura": 15052,
    "Ġdoing": 3660,
    "ott": 1872,
    "urry": 13997,
    "Ġhag": 12631,
    "Ġsubmitted": 11876,
    "Ġadroop": 26002,
    "Ġhealth": 3902,
    "ige": 12685,
    "Ġneedless": 19232,
    "murmured": 24456,
    "Ġcontain": 1558,
    "Ġdecency": 18486,
    "Ġpossible": 2584,
    "existence": 16018,
    "Ġhogshead": 26369,
    "Ġcommander": 8628,
    "Ġgrudge": 20696,
    "read": 3275,
    "rippa": 11343,
    "Ġbeds": 14556,
    "Ġdumb": 7842,
    "Ġbelonging": 8307,
    "Ġjudged": 12088,
    "small": 6471,
    "alike": 17946,
    "Ġdiscernible": 15074,
    "Ġconcise": 23326,
    "Ġmainten": 16117,
    "Ġparamount": 15882,
    "late": 11502,
    "dict": 15341,
    "resp": 13842,
    "Ġvindictiveness": 25739,
    "Ġjourney": 3879,
    "proble": 9396,
    "Ġcommonly": 3264,
    "culous": 11142,
    "Ġbower": 15571,
    "catch": 17509,
    "Ġfift": 6381,
    "Ġexhausting": 24708,
    "Ġtraditions": 11446,
    "ll": 1142,
    "Ġsucceeded": 6106,
    "Ġsullen": 9160,
    "Ġfunctions": 1340,
    "swells": 26149,
    "clergyman": 20731,
    "Ġexulting": 20260,
    "Ġspires": 11735,
    "Ġrebellion": 26477,
    "Ġlengthened": 25959,
    "purp": 8090,
    "igated": 15711,
    "Ġrecogn": 2648,
    "Ġcabal": 23644,
    "darcy": 5208,
    "Ġpunctures": 25136,
    "gathered": 13735,
    "'(": 2980,
    "Ġheeded": 13406,
    "Ġrelief": 6060,
    "magistrate": 19863,
    "aco": 12912,
    "Ġthrees": 23405,
    "Ġrefrained": 14345,
    "tend": 17676,
    "allen": 22195,
    "Ġnaut": 13944,
    "pede": 19931,
    "Ġmoved": 4840,
    "protection": 19921,
    "Ġencouragement": 13047,
    "Ġmaintainable": 12941,
    "irksome": 18176,
    "Ġbelief": 5856,
    "gossip": 23408,
    "impenetrable": 26198,
    "Ġdra": 1592,
    "Ġnail": 9198,
    "Ġcalms": 23047,
    "Ġbarbarians": 19589,
    "Ġgushed": 21610,
    "entirely": 7780,
    "deformity": 22150,
    "strongly": 24684,
    "Ġreckoned": 24742,
    "Ġminister": 18754,
    "Ġproceed": 3244,
    "aker": 3662,
    "extremely": 26265,
    "ulpt": 10887,
    "gratitude": 16818,
    "Ġultimately": 17167,
    "influences": 25251,
    "Ġency": 21938,
    "Ġpoison": 7217,
    "agers": 5633,
    "Ġlone": 11617,
    "uther": 8821,
    "Ġhousemaid": 14468,
    "rec": 6003,
    "point": 6063,
    "Ġmamma": 10051,
    "Ġhosmer": 6774,
    "p": 84,
    "Ġmalacca": 24394,
    "study": 15122,
    "Ġportcull": 23867,
    "dev": 7631,
    "www": 17254,
    "Ġrefrain": 12952,
    "Ġselves": 21225,
    "Ġdefer": 18825,
    "atters": 18484,
    "Ġdefines": 1741,
    "Ġdidn": 4360,
    "ate": 423,
    "ides": 2163,
    "Ġnavy": 14920,
    "Ġingenuity": 17166,
    "Ġpresum": 4838,
    "spirited": 19755,
    "commence": 19994,
    "unconquerable": 21896,
    "Ġquestions": 3969,
    "asiness": 8128,
    "Ġeloped": 22648,
    "Ġhearing": 4761,
    "Ġtale": 5142,
    "admitted": 18095,
    "Ġcum": 21345,
    "í": 174,
    "oky": 8197,
    "Ġrespect": 1669,
    "Ġdoubled": 19639,
    "Ġkid": 9727,
    "Ġsofa": 10273,
    "Ġlysander": 13142,
    "su": 795,
    "conclusions": 25673,
    "itching": 21338,
    "Ġposs": 1617,
    "Ġsignificance": 13284,
    "mightily": 24107,
    "Ġunimpe": 22074,
    "accompan": 11455,
    "bod": 12441,
    "casks": 20405,
    "Ġcase": 1941,
    "Ġdisconnected": 22529,
    "Ġinmates": 15627,
    "onze": 21258,
    "unwho": 21882,
    "Ġshadowed": 24050,
    "ibilities": 13012,
    "Ġinland": 11612,
    "itable": 5437,
    "Ġcontextual": 3741,
    "Ġadagrad": 2899,
    "Ġparameters": 992,
    "Ġconcl": 5095,
    "asters": 8434,
    "Ġhell": 5019,
    "Ġsleeves": 10663,
    "Ġsuits": 22080,
    "discoveries": 25386,
    "bohemia": 20733,
    "ronted": 14881,
    "rudent": 6481,
    "Ġinsepar": 17937,
    "ank": 1365,
    "Ġburned": 8634,
    "Ġpiping": 23231,
    "lane": 10708,
    "sloop": 26146,
    "Ġdrows": 21438,
    "disputed": 23505,
    "Ġhyper": 19741,
    "follows": 24529,
    "Ġsavann": 14687,
    "Ġleagues": 9224,
    "Ġhoney": 12638,
    "Ġdizzy": 21435,
    "ribbed": 16416,
    "suspected": 12376,
    "Ġrace": 5848,
    "bel": 3835,
    "beautiful": 10651,
    "Ġrelentless": 26279,
    "Ġdiffidence": 14662,
    "ering": 1266,
    "ancial": 21365,
    "accordingly": 19215,
    "Ġwitnesses": 9488,
    "Ġrad": 4962,
    "Ġhanover": 20589,
    "Ġoblivion": 26032,
    "ignorant": 13566,
    "fins": 13722,
    "Ġbrighter": 16191,
    "unting": 21878,
    "Ġpropontis": 17468,
    "Ġvariously": 18654,
    "contain": 18503,
    "Ġembell": 14417,
    "Ġcondescend": 19957,
    "Ġdelight": 2548,
    "aries": 6245,
    "Ġsidel": 9638,
    "Ġchristianity": 19861,
    "mast": 3602,
    "Ġharb": 7368,
    "Ġconflagration": 26366,
    "Ġchanced": 8186,
    "Ġcloud": 3910,
    "Ġinquisitive": 26318,
    "uction": 15446,
    "Ġadvantageously": 19546,
    "nourished": 26400,
    "figures": 20124,
    "Ġbos": 4875,
    "Ġarticulate": 24433,
    "Ġcunning": 6239,
    "rels": 6666,
    "Ġmechanisms": 1579,
    "Ġshocks": 16460,
    "Ġfrog": 23926,
    "Ġbaronial": 23797,
    "Ġher": 426,
    "Ġexercised": 24800,
    "impul": 16559,
    "Ġbigger": 19763,
    "onday": 6064,
    "Ġabsurd": 7201,
    "bowsprit": 16855,
    "Ġoptimizer": 5036,
    "fortunes": 6332,
    "Ġcontrols": 1732,
    "Ġtopmost": 14590,
    "Ġcrime": 4616,
    "itic": 11582,
    "Ġunintermitted": 26221,
    "sell": 13784,
    "attending": 18918,
    "Ġprofundity": 20454,
    "unte": 21877,
    "Ġheadland": 22900,
    "Ġprev": 6265,
    "furthermore": 20006,
    "agger": 7871,
    "Ġexpeditions": 24957,
    "Ġfront": 3450,
    "soundest": 24796,
    "Ġlurks": 11293,
    "Ġapprehensiveness": 16879,
    "xi": 17712,
    "smo": 10128,
    "Ġworthless": 19566,
    "Ġowes": 20087,
    "towns": 24855,
    "imen": 12692,
    "Ġleft": 1759,
    "Ġhogarth": 25781,
    "aution": 9389,
    "afer": 17484,
    "ondon": 2704,
    "Ġsteps": 2860,
    "icil": 17975,
    "Ġhelps": 9370,
    "impat": 11205,
    "Ġstabbed": 25457,
    "Ġexp": 781,
    "uity": 12522,
    "Ġdism": 9770,
    "scoured": 22997,
    "iage": 17575,
    "Ġhereford": 22883,
    "reck": 9639,
    "with": 1296,
    "Ġsalutation": 12401,
    "Ġunseason": 22054,
    "Ġattics": 22625,
    "idled": 21772,
    "Ġtoss": 10187,
    "urements": 18127,
    "Ġporpoise": 7106,
    "Ġprofessional": 7297,
    "Ġtradeoff": 2656,
    ".âĢĻâĢĿ": 6740,
    "Ġsince": 1796,
    "iture": 5696,
    "leaped": 17846,
    "Ġshears": 18320,
    "Ġartist": 12918,
    "nd": 11507,
    "Ġbrah": 19360,
    "Ġnoiseless": 10359,
    "sn": 7138,
    "Ġbat": 10797,
    "direful": 25897,
    "sensibility": 25026,
    "Ġturkish": 12266,
    "Ġchurned": 18386,
    "Ġpaw": 12626,
    "forbearance": 22796,
    "Ġthomas": 17951,
    "Ġundersampling": 19521,
    "ni": 1653,
    "Ġ73": 24264,
    "Ġmischie": 22763,
    "Ġop": 2601,
    "obtain": 23098,
    "Ġmocking": 24007,
    "nantucket": 7803,
    "Ġassociations": 14966,
    "Ġimpertinent": 9080,
    "Ġunusual": 6553,
    "Ġfleece": 10617,
    "eks": 4728,
    "Ġsect": 17754,
    "Ġjupiter": 17459,
    "Ġprofession": 6208,
    "Ġgard": 2190,
    "Ġengravings": 15070,
    "Ġaz": 9632,
    "Ġrem": 955,
    "Ġbelted": 22952,
    "Ġcolonies": 14380,
    "ells": 5305,
    "Ġartic": 5315,
    "Ġinte": 2065,
    "Ġcoarsely": 25830,
    "Ġpaces": 13922,
    "Ġtroops": 24899,
    "Ġgrammars": 11405,
    "Ġfew": 1230,
    "Ġwalls": 6762,
    "Ġtink": 9151,
    "tallied": 21092,
    "shown": 22460,
    "Ġdiscoloured": 15256,
    "Ġpolluted": 25594,
    "fits": 13721,
    "Ġsomewhere": 5384,
    "Ġwhis": 3504,
    "Ġartificial": 792,
    "Ġsounds": 5190,
    "exact": 7909,
    "Ġcrystal": 17217,
    "Ġcordially": 16838,
    "Ġsavagely": 26325,
    "ĠâĢľ": 516,
    "Ġlengthwise": 10454,
    "Ġreturning": 5326,
    "Ġdante": 21441,
    "Ġcreated": 2705,
    "Ġgenuine": 14889,
    "Ġunanswerable": 26523,
    "Ġimpatiently": 8337,
    "Ġmalady": 24393,
    "irection": 2390,
    "Ġindisp": 18836,
    "turned": 7304,
    "Ġnewcastle": 16226,
    "Ġtrunks": 15974,
    "Ġsmelling": 16070,
    "Ġdifferen": 932,
    "Ġouter": 6858,
    "tured": 13798,
    "Ġcharacter": 2792,
    "Ġ35": 24081,
    "ods": 8839,
    "Ġhorrid": 7998,
    "Ġcovent": 16076,
    "ands": 21870,
    "Ġtag": 15471,
    "Ġtimber": 13353,
    "Ġfig": 3624,
    "Ġsetting": 7046,
    "Ġliar": 22412,
    "pent": 3493,
    "Ġcrisp": 12007,
    "sue": 2077,
    "Ġindependently": 4244,
    "librarian": 26570,
    "footed": 19691,
    "Ġpierce": 17037,
    "Ġcatholic": 20684,
    "Ġellenborough": 26155,
    "leading": 15566,
    "Ġexpose": 10330,
    "×": 152,
    "Ġresc": 4506,
    "Ġfiends": 14831,
    "Ġindians": 14414,
    "Ġexpectantly": 23529,
    "Ġgr": 974,
    "Ġconversation": 3328,
    "irements": 22218,
    "value": 18809,
    "Ġprofessor": 11233,
    "former": 11753,
    "Ġshore": 4835,
    "Ġexpectation": 6903,
    "Ġtrains": 10949,
    "Ġmask": 1866,
    "Ġexact": 2543,
    "vocabulary": 25088,
    "limbs": 20193,
    "owers": 12690,
    "Ġoaths": 13526,
    "Ġtrap": 7671,
    "verty": 8453,
    "Ġexcepting": 14683,
    "Ġ129": 24475,
    "sense": 11527,
    "Ġcast": 3606,
    "Ġadjac": 18293,
    "Ġtrinity": 22360,
    "<PAD>": 0,
    "Ġloads": 22118,
    "Ġomin": 11581,
    "Ġvaults": 17156,
    "val": 1156,
    "Ġdisobedience": 22539,
    "iply": 22361,
    "qual": 8156,
    "onse": 21252,
    "pine": 13772,
    "bres": 11474,
    "ckets": 6842,
    "Ġexterior": 19990,
    "rimin": 2424,
    "Ġcivil": 4679,
    "embarr": 17295,
    "Ġbull": 7838,
    "Ġbefell": 14013,
    "Ġgrowth": 14632,
    "Ġacquiring": 2765,
    "Ġwarned": 16882,
    "helping": 23148,
    "Ġfighting": 12202,
    "onsensical": 18576,
    "gest": 5426,
    "gh": 3800,
    "adv": 4536,
    "Ġabide": 14194,
    "Ġthreat": 5154,
    "Ġarray": 12816,
    "Ġescort": 23510,
    "Ġserenely": 13509,
    "values": 4973,
    "racing": 21634,
    "vocation": 25087,
    "lue": 8509,
    "Ġori": 8409,
    "sec": 6153,
    "Ġforb": 11667,
    "orses": 6052,
    "Ġmonitors": 3158,
    "Ġhandling": 8916,
    "Ġseeth": 21958,
    "Ġclient": 5556,
    "Ġentertainment": 12227,
    "orient": 2875,
    "Ġfeathers": 15124,
    "Ġtweezers": 26558,
    "Ġunsh": 14118,
    "Ġejaculation": 20256,
    "Ġlumber": 13955,
    "cheeks": 23811,
    "Ġsw": 1355,
    "ama": 11681,
    "omed": 13978,
    "Ġ550": 19638,
    "events": 12321,
    "Ġsilver": 7461,
    "Ġimplac": 24875,
    "Ġloops": 8856,
[...]
