{
  "metadata": {
    "vocab_size": 26614,
    "algorithm": "BPE",
    "created_at": "2026-06-12 06:40:08",
    "special_tokens": [
      "<PAD>",
      "<SOS>",
      "<EOS>",
      "<UNK>",
      "<MASK>"
    ]
  },
  "vocab": {
    "armed": 7251,
    "ifle": 10891,
    "Ġwalk": 1824,
    "lu": 596,
    "Ġdeduced": 12205,
    "Ġprevent": 756,
    "Ġclusters": 25232,
    "fates": 20857,
    "qualified": 17098,
    "Ġglowing": 12280,
    "Ġdeigned": 18138,
    "Ġmechanis": 1219,
    "varied": 23182,
    "Ġarrested": 9560,
    "Ġtemple": 7653,
    "Ġpurchase": 12257,
    "Ġsilent": 3412,
    "Ġcetology": 10008,
    "Ġsports": 18310,
    "Ġrack": 9312,
    "Ġsig": 868,
    "Ġfireboard": 23532,
    "Ġpink": 12615,
    "Ġdismantled": 20215,
    "Ġardently": 9497,
    "!âĢĻâĢĿ": 16592,
    "Ġsignature": 16492,
    "Ġsix": 3043,
    "Ġunanswerable": 26521,
    "ante": 11719,
    "ument": 5239,
    "ounted": 5029,
    "Ġhow": 597,
    "Ġbaronial": 23792,
    "Ġcramped": 23530,
    "comput": 1871,
    "earn": 10696,
    "otic": 15742,
    "establish": 17392,
    "Ġtroub": 22341,
    "Ġattracted": 8904,
    "and": 372,
    "Ġblanket": 8342,
    "Ġvoyager": 16511,
    "wid": 10134,
    "wholly": 10941,
    "accurately": 25861,
    "jump": 10103,
    "Ġholding": 4978,
    "track": 24314,
    "iable": 3335,
    "trip": 21090,
    "Ġcandles": 9907,
    "ark": 848,
    "shop": 14236,
    "Ġretrieval": 10674,
    "Ġspouted": 14674,
    "?âĢĿ": 700,
    "Ġlighten": 23257,
    "Ġrescued": 24206,
    "Ġbrag": 23831,
    "wickham": 5883,
    "Ġberg": 24536,
    "Ġderanged": 23172,
    "Ġodds": 13327,
    "Ġtook": 1856,
    "Ġtahiti": 13617,
    "Ġwherein": 14294,
    "Ġproperly": 7944,
    "Ġclink": 22345,
    "Ġprocessing": 892,
    "oms": 4590,
    "Ġunivers": 2123,
    "Ġjub": 22292,
    "Ġdesigned": 7740,
    "Ġinsinuating": 19270,
    "Ġbrix": 12580,
    "Ġunderwent": 23237,
    "Ġletters": 3793,
    "£": 101,
    "Ġ23": 13188,
    "Ġcircumst": 2972,
    "Ġwool": 19431,
    "Ġwinding": 8235,
    "Ġlean": 7602,
    "Ġbelly": 10369,
    "Ġattaining": 15801,
    "Ġpleasantly": 14520,
    "Ġeng": 1164,
    "widely": 25343,
    "å": 166,
    "Ġzero": 1200,
    "Ġhissed": 15786,
    "Ġdragged": 6889,
    "ara": 12603,
    "Ġirrad": 19093,
    "Ġwindward": 6885,
    "Ġhighland": 18710,
    "cannot": 5745,
    "Ġtemperate": 16161,
    "Ġsending": 8774,
    "endurable": 22225,
    "Ġturtle": 4202,
    "Ġcommunic": 5751,
    "handedness": 24920,
    "Ġhistory": 4005,
    "humorously": 24020,
    "Ġdelusion": 18975,
    "Ġcrozetts": 19628,
    "ports": 13772,
    "Ġsanctified": 25883,
    "senses": 25022,
    "atmosphere": 21263,
    "Ġunav": 18240,
    "coarse": 16486,
    "expose": 23663,
    "Ġdun": 6673,
    "laughing": 15178,
    "Ġdiscl": 9796,
    "Ġsee": 803,
    "Ġarrogance": 26231,
    "ethe": 9676,
    "sleeve": 26108,
    "ruff": 15899,
    "revealed": 20414,
    "Ġspread": 5160,
    "Ġschedule": 2371,
    "gen": 6503,
    "Ġrepairs": 19083,
    "Ġappro": 661,
    "Ġtarts": 10753,
    "irectly": 6940,
    "xes": 21139,
    "Ġwent": 1535,
    "jammed": 25906,
    "Ġrepe": 3283,
    "hogs": 20080,
    "Ġcrutch": 23445,
    "Ġunb": 10907,
    "regard": 7973,
    "crow": 9590,
    "Ġvial": 10248,
    "Ġsenseless": 12076,
    "Ġclo": 6042,
    "admire": 24943,
    "Ġfiner": 13049,
    "Ġdinah": 9454,
    "ari": 673,
    "fect": 2300,
    "Ġpython": 1068,
    "Ġindic": 2886,
    "Ġentered": 2846,
    "Ġjetted": 24431,
    "evade": 24820,
    "Ġportraits": 20141,
    "Ġbou": 17852,
    "Ġrushed": 4087,
    "Ġsting": 10861,
    "gate": 12464,
    "Ġdeclares": 16992,
    "Ġknives": 14836,
    "Ġanticip": 7507,
    "scratch": 26044,
    "aff": 3104,
    "Ġsheaves": 22155,
    "Ġfairness": 9893,
    "unconquerable": 21888,
    "lust": 15378,
    "Ġpell": 21453,
    "Ġimmovable": 15890,
    "Ġnotes": 7189,
    "Ġmiller": 19882,
    "shoes": 14239,
    "twice": 14621,
    "Ġsatir": 18793,
    "Ġsimpler": 2047,
    "Ġlull": 15648,
    "ifer": 11683,
    "Ġhaws": 21948,
    "softened": 20408,
    "Ġcharacteristically": 23689,
    "Ġmig": 13854,
    "hot": 8083,
    "Ġreturning": 5325,
    "Ġserve": 9369,
    "Ġcombing": 22832,
    "Ġlistening": 6318,
    "beholding": 16039,
    "till": 6965,
    "Ġest": 2265,
    "Ġmach": 13855,
    "Ġwithdrawing": 11340,
    "Ġvale": 14081,
    "Ġleakage": 23458,
    "Ġroasted": 18460,
    "Ġbeliever": 25845,
    "follow": 5680,
    "voice": 7816,
    "Ġvia": 2382,
    "Ġcalmly": 7733,
    "playing": 19656,
    "trees": 10731,
    "furthermore": 20002,
    "lessly": 4553,
    "ply": 6366,
    "Ġaddition": 1148,
    "ignorantly": 25189,
    "Ġlatterly": 24082,
    "Ġtrowsers": 9627,
    "Ġstraps": 19308,
    "Ġ43": 14768,
    "Ġfinancial": 23126,
    "ineff": 21963,
    "colour": 9902,
    "Ġperches": 18448,
    "Ġlye": 21548,
    "Ġbrooded": 23101,
    "sebastian": 21817,
    "tribute": 21087,
    "magnetic": 20551,
    "perpet": 14158,
    "mir": 20962,
    "Ġperempt": 13671,
    "vate": 21108,
    "lost": 8887,
    "Ġadversity": 24303,
    "miniature": 16765,
    "useful": 16501,
    "irted": 14070,
    "distant": 13332,
    "Ġunrelieved": 20544,
    "envelope": 17782,
    "doesn": 19819,
    "Ġcivilly": 19602,
    "caroline": 24148,
    "ifference": 5632,
    "thes": 7391,
    "Ġlabel": 14517,
    "Ġlearnedly": 23384,
    "Ġdipped": 15592,
    "mund": 13756,
    "Ġflannel": 26577,
    "Ġbeck": 14007,
    "Ġsqualidness": 25842,
    "ifiable": 18163,
    "unreasonable": 18162,
    "Ġfiend": 4410,
    "Ġmarvell": 7248,
    "atiously": 15520,
    "despicable": 24636,
    "collinses": 19922,
    "ĕ": 214,
    "Ġassuming": 16693,
    "Ġmeridians": 17355,
    "Ġbambooz": 26119,
    "Ġperception": 9749,
    "Ġpaddington": 17095,
    "spouting": 25000,
    "Ġaft": 5737,
    "Ġroy": 4228,
    "Ġexped": 7650,
    "Ġhonest": 7287,
    "Ġnormal": 1201,
    "achment": 5464,
    "fered": 5560,
    "Ġantichronical": 26609,
    "Ġexplained": 5935,
    "ocation": 14626,
    "should": 3265,
    "avering": 24793,
    "Ġmerest": 14028,
    "Ġwooded": 23518,
    "Ġe": 311,
    "writer": 14648,
    "Ġbenignity": 18782,
    "Ġloose": 4645,
    "condite": 23246,
    "improve": 15709,
    "Ġmarried": 3409,
    "pinn": 21025,
    "lun": 20945,
    "suggest": 20374,
    "Ġaccompan": 5513,
    "inqu": 6121,
    "waiting": 12218,
    "Ġvirtuous": 14754,
    "ulance": 15764,
    "induce": 22371,
    "Ġfrigid": 17352,
    "Ġrelevance": 5183,
    "Ġheel": 9683,
    "Ġnostrils": 10943,
    "icts": 22398,
    "Ġconcentrate": 25063,
    "Ġfanny": 23389,
    "worth": 8626,
    "formality": 22212,
    "Ġbelrive": 18830,
    "Ġbethink": 12377,
    "Ġamber": 7026,
    "Ġremedy": 18725,
    "shroud": 20309,
    "Ġsplinter": 23745,
    "borrowed": 20791,
    "co": 2435,
    "Ġcombining": 22834,
    "Ġhulls": 13924,
    "Ġbegone": 11915,
    "Ġslumbers": 18941,
    "Ã¦mon": 7094,
    "Ġimpressive": 14999,
    "Ġsalvation": 14756,
    "rossing": 18641,
    "computer": 1879,
    "sion": 8093,
    "hilar": 25081,
    "esteemed": 26009,
    "Ġarticle": 9501,
    "Ġamph": 18510,
    "Ġcarcase": 14443,
    "jackets": 24895,
    "Ġunconcern": 14116,
    "retion": 9363,
    "Ġjew": 9467,
    "Ġmusky": 19380,
    "Ġswayed": 15047,
    "antingly": 22095,
    "Ġlobsters": 13515,
    "iff": 3903,
    "Ġlegend": 14575,
    "determ": 7105,
    "Ġrefusal": 10344,
    "Ġmediocrity": 26608,
    "Ġunmo": 12770,
    "Ġbarbarous": 13474,
    "lest": 5288,
    "Ġcylinders": 25943,
    "asible": 21539,
    "Ġembatt": 18848,
    "Ġohio": 19128,
    "Ġconcrete": 20635,
    "Ġcraggy": 23529,
    "Ġmunro": 25630,
    "Ġintru": 15825,
    "Ġslabs": 13057,
    "Ġgrapp": 14100,
    "undoubtedly": 13309,
    "ds": 4684,
    "mm": 675,
    "subtle": 24243,
    "Ġprophet": 7680,
    "Ġpret": 3033,
    "Ġrecl": 16142,
    "mix": 20973,
    "works": 6587,
    "Ġhut": 15616,
    "ernation": 8211,
    "etus": 21575,
    "Ġineff": 12631,
    "Ġburke": 19250,
    "«": 109,
    "slightest": 25416,
    "impotence": 23759,
    "Ġframe": 1853,
    "uble": 21101,
    "naturalist": 23522,
    "ondency": 15267,
    "Ġdip": 13905,
    "marching": 25752,
    "hopes": 15368,
    "Ġmoral": 6579,
    "Ġfloats": 9413,
    "Ġprofession": 6207,
    "Ġrubbed": 12953,
    "Ġstructured": 2970,
    "Ġdistrust": 8203,
    "Ġmuslin": 19381,
    "Ġderision": 16308,
    "Ġwouldst": 18503,
    "Ġrejoice": 10208,
    "eth": 619,
    "Ġconquer": 14025,
    "Ġpoetic": 17103,
    "clings": 23150,
    "Ġboard": 3385,
    "exact": 7909,
    "Ġjustification": 22968,
    "Ġfanning": 23388,
    "Ġremarks": 7474,
    "Ġcathed": 14548,
    "Ġintellect": 8169,
    "Ġelusive": 22641,
    "Ġmotionless": 8323,
    "apped": 5395,
    "Ġgradu": 15830,
    "Ġtraveller": 8048,
    "spe": 3559,
    "Ġwriggling": 15255,
    "Ġconveys": 16855,
    "Ġbespe": 19241,
    "fain": 13713,
    "ren": 549,
    "Ġafrican": 20136,
    "extrem": 18708,
    "Ġeye": 2281,
    "phenomenon": 17648,
    "Ġprovinces": 24190,
    "hom": 12471,
    "wonder": 6371,
    "Ġwarmly": 8987,
    "enchanted": 26424,
    "astern": 8581,
    "Ġalbatross": 10871,
    "Ġincalcul": 16061,
    "where": 2091,
    "bewil": 22495,
    "Ġperceptible": 18451,
    "stri": 6249,
    "Ġangels": 11178,
    "ada": 14009,
    "Ġnash": 5819,
    "circled": 24187,
    "Ġpanic": 11286,
    "luding": 6700,
    "lessness": 5317,
    "wander": 17709,
    "squeezing": 25913,
    "Ġdon": 1614,
    "Ġpriest": 7526,
    "Ġbenjamin": 26567,
    "wealth": 22685,
    "Ġsuggest": 5417,
    "Ġluxury": 20130,
    "Ġrevered": 23732,
    "Ġsorting": 3236,
    "forty": 9374,
    "shaven": 18494,
    "roofed": 26183,
    "Ġrecords": 12193,
    "Ġcomplaisance": 19448,
    "ı": 242,
    "find": 6954,
    "Ġintrepid": 11704,
    "unning": 4491,
    "gallery": 24693,
    "Ġinterrupt": 4359,
    "Ġelements": 2667,
    "Ġprotesting": 14740,
    "Ġstair": 8455,
    "itable": 5437,
    "Ġreflections": 5945,
    "Ġhandsom": 11124,
    "erson": 7002,
    "clopÃ¦": 13052,
    "crime": 14781,
    "Ġsecret": 3721,
    "Ġyields": 19655,
    "oftentimes": 19419,
    "prophecy": 22849,
    "peddling": 24696,
    "Ġhatchways": 24987,
    "capt": 3835,
    "Ġbrack": 23833,
    "Ġsink": 4340,
    "wl": 17702,
    "isp": 5528,
    "Ġnumerical": 4244,
    "Ġfrederick": 15584,
    "Ġsprain": 18305,
    "Ġcontracting": 16009,
    "Ġblubber": 5666,
    "Ġneighbors": 25806,
    "Ġraving": 16112,
    "Ġintelligible": 15939,
    "Ġpurchased": 12258,
    "Ġrepel": 23357,
    "bee": 16036,
    "ĺ": 251,
    "Ġdigesting": 19808,
    "Ġlashings": 25097,
    "Ġcontained": 7678,
    "Ġwra": 5905,
    "befriend": 22489,
    "Ġhanded": 8216,
    "Ġaustrian": 24300,
    "Åĵuvre": 25887,
    "iantly": 13737,
    "Ġxlvi": 25590,
    "Ġdiffer": 18676,
    "Ġcompassion": 6487,
    "Ġpompous": 20421,
    "ady": 996,
    "structure": 2380,
    "Ġcapsized": 20088,
    "reng": 4000,
    "sme": 17658,
    "fem": 17537,
    "widows": 25344,
    "Ġpocket": 4896,
    "Ġfumbling": 21415,
    "Ò": 147,
    "au": 778,
    "Ġincalculable": 17460,
    "Ġobservant": 20108,
    "opotam": 22468,
    "quitted": 21854,
    "Ġpythag": 26448,
    "foundered": 20866,
    "existence": 16012,
    "Ġmock": 3693,
    "ricane": 16277,
    "gain": 8736,
    "Ġhereafter": 9330,
    "Ġstag": 6148,
    "affections": 17356,
    "Ġvolume": 6769,
    "Ġcollect": 7237,
    "ayed": 12709,
    "Ġdesc": 772,
    "Ġreusable": 13555,
    "symp": 14618,
    "Ġhessian": 3547,
    "Ġrendered": 5773,
    "indirectly": 18437,
    "Ġpredictions": 1456,
    "Ġwords": 1326,
    "Ġstrolled": 16770,
    "Ġunlabeled": 3800,
    "connected": 1311,
    "appearance": 5333,
    "st": 316,
    "inquir": 9535,
    "interchange": 23737,
    "inkled": 5477,
    "Ġdons": 17888,
    "Ġhump": 5853,
    "degrees": 22147,
    "Ġlandsmen": 11351,
    "Ġcommit": 18655,
    "shoulder": 16583,
    "Ġfervour": 19725,
    "pid": 1400,
    "Ġcontinued": 2921,
    "Ġfossiliferous": 25609,
    "board": 3564,
    "R": 54,
    "putting": 14099,
    "warning": 25531,
    "Ġquadr": 8199,
    "Ġvoc": 4449,
    "ashing": 4821,
    "Ġpop": 5150,
    "Ġsalisbury": 24060,
    "den": 939,
    "eaten": 20343,
    "Ġprep": 4190,
    "Ġholiday": 12994,
    "semble": 1524,
    "Ġhopkins": 23127,
    "dischar": 19151,
    "Ġdoran": 9180,
    "Ġpersu": 3562,
    "ak": 539,
    "Ġstammered": 26199,
    "Ġderiv": 1738,
    "Ġideal": 13118,
    "Ġlatter": 3987,
    "Ġfleeting": 19326,
    "Ġconcer": 23319,
    "ellest": 21571,
    "infallibly": 26417,
    "valu": 1689,
    "Ġforemast": 12004,
    "fted": 9119,
    "Ġempires": 19075,
    "Ġwidows": 24236,
    "ight": 402,
    "Ġbull": 7839,
    "recognised": 15260,
    "canonical": 22965,
    "Ġvile": 8472,
    "slept": 17169,
    "Ġladen": 19176,
    "Ġwallowed": 24039,
    "reading": 12077,
    "Ġhigh": 930,
    "appl": 9326,
    "Ġspecimen": 13019,
    "calm": 8934,
    "regret": 16450,
    "Ġinscriptions": 20007,
    "Ġterminating": 23508,
    "Ġprefers": 20512,
    "Ġstays": 16561,
    "byshire": 6172,
    "Ġbeque": 18080,
    "Ġbrahma": 26319,
    "ifers": 15779,
    "Ġrocky": 13385,
    "spoken": 11859,
    "Ġcapt": 1291,
    "mers": 9610,
    "Ġsweating": 16461,
    "Ġhides": 16263,
    "Ġrecip": 16143,
    "Ġgene": 15669,
    "Ġdrew": 3536,
    "Ġboone": 11838,
    "Ġpalaces": 24088,
    "conclude": 24063,
    "Ġunperceived": 22034,
    "Ġcontriv": 9282,
    "Ġdestroying": 14729,
    "Ġpunct": 8660,
    "Ġexhilarating": 26337,
    "Ġelaborate": 18635,
    "Ġregretted": 13398,
    "mosp": 8088,
    "saf": 11524,
    "Ġanswered": 2852,
    "tinted": 17683,
    "Ġantarctic": 19551,
    "Ġbark": 10798,
    "abling": 1077,
    "Ġpip": 1641,
    "Ġboasted": 16104,
    "Ġsuffice": 18869,
    "Ġcoars": 14270,
    "Ġdefine": 9814,
    "bishop": 13692,
    "Ġinit": 818,
    "Ġneighbouring": 12116,
    "Ġslipper": 24265,
    "Ġnosegay": 24192,
    "max": 1685,
    "Ġhandsomest": 20333,
    "rupt": 3213,
    "Ġborn": 5223,
    "thankful": 16806,
    "Ġprinces": 23220,
    "Ġminute": 4278,
    "Ġwelded": 9571,
    "Ġenormous": 5609,
    "Ġopenness": 18956,
    "Ġprairie": 8712,
    "cherish": 24552,
    "Ġappertain": 22216,
    "Ġmur": 2490,
    "Ġmccarthys": 19661,
    "Ġmagnified": 23200,
    "trial": 20349,
    "Ġslighter": 18939,
    "Ġexpectantly": 23525,
    "extracts": 22765,
    "Ġhesitated": 10001,
    "Ġlivel": 11355,
    "Ġslammed": 20446,
    "Ġmail": 17800,
    "inking": 6709,
    "inexplicable": 25808,
    "del": 4076,
    "about": 3586,
    "loose": 11802,
    "Ġlimited": 23544,
    "Ġshad": 3848,
    "Ġlady": 1589,
    "observed": 7674,
    "Ġministers": 22829,
    "inj": 9152,
    "Ġhog": 13922,
    "Ġstubbs": 23293,
    "theast": 21745,
    "movement": 25577,
    "ermost": 7430,
    "vision": 5620,
    "Ġaudience": 24769,
    "Ġmirth": 15542,
    "her": 488,
    "Ġbulky": 13226,
    "malicious": 19901,
    "allingly": 22196,
    "Ġdazed": 15593,
    "Ġextras": 22717,
    "pread": 7419,
    "visitors": 13346,
    "Ġsatirical": 26279,
    "hundreds": 25073,
    "welcomed": 24644,
    "Ġivory": 4474,
    "ispens": 8335,
    "Ġraised": 4657,
    "chance": 6827,
    "Ġenveloping": 19733,
    "Ġ235": 25713,
    "Ġwert": 12553,
    "Ġconfession": 11236,
    "Ġessential": 7523,
    "cork": 20795,
    "tap": 17676,
    "ignity": 4373,
    "Ġcups": 16882,
    "Ġlaug": 3627,
    "Ġconversation": 3331,
    "Ġaband": 6561,
    "whew": 22866,
    "gazing": 12469,
    "Ġopens": 23625,
    "Ġmoby": 3664,
    "objection": 19914,
    "book": 4666,
    "footsteps": 25199,
    "Ġpossession": 5589,
    "Ġstopped": 5956,
    "pile": 17629,
    "Ġnoiselessly": 22861,
    "Ġdeliver": 9847,
    "walked": 10570,
    "Ġswerve": 14436,
    "Ġsumatra": 15285,
    "cient": 4566,
    "Ġenjoyment": 7301,
    "Ġfavourite": 5270,
    "Ġassurance": 7774,
    "Ġmilky": 9946,
    "Ġextort": 22716,
    "Ġconstraint": 16513,
    "Ġguarded": 9825,
    "Ġrece": 11637,
    "dest": 4102,
    "Ġindestructible": 26572,
    "Ġmil": 4253,
    "gged": 3778,
    "asburgh": 15644,
    "fes": 20850,
    "sle": 9139,
    "beh": 5472,
    "Ġsafer": 22167,
    "Ġcopy": 10163,
    "Ġdignified": 15595,
    "sof": 17657,
    "Ġrobert": 10970,
    "netherfield": 9812,
    "isted": 3301,
    "Ġsanguine": 25928,
    "waving": 21130,
    "adequately": 20318,
    "Ġfrequent": 3289,
    "Ġpads": 21471,
    "Ġbills": 17860,
    "Ġdaring": 8120,
    "Ġlivelihood": 24774,
    "oy": 1035,
    "Ġimpreg": 15986,
    "Ġcamp": 9165,
    "life": 4931,
    "Ġfaith": 5350,
    "ascending": 24707,
    "Ġthumb": 6981,
    "âĢĶâĢĺ_": 24831,
    "ites": 3896,
    "Ġmutual": 8295,
    "glo": 8737,
    "Ġsuperhuman": 23452,
    "to": 715,
    "Ġpurposely": 10444,
    "Ġtracks": 18890,
    "Ġemblaz": 16233,
    "Ġnonce": 23233,
    "tart": 21066,
    "Ġfinanc": 23125,
    "swam": 24254,
    "Ġgover": 2462,
    "iot": 9600,
    "Ġomniscient": 20084,
    "Ġrambled": 20167,
    "Ġmales": 17805,
    "Ġfront": 3452,
    "see": 3046,
    "aze": 10074,
    "Ġplaguy": 22602,
    "Ġfetched": 24567,
    "imson": 12686,
    "ef": 5133,
    "mast": 3601,
    "sterdam": 19089,
    "Ġdecanting": 22440,
    "Ġflush": 14423,
    "accepted": 20135,
    "Ġcore": 13876,
    "Ġindelicacy": 25695,
    "Ġcelestial": 10066,
    "Ġoverwhelmed": 11403,
    "Ġsam": 7569,
    "Ġhave": 444,
    "Ġpack": 5444,
    "Ġattention": 1180,
    "Ġpositional": 2598,
    "Ġshivered": 14107,
    "Ġbulkhead": 24511,
    "Ġceased": 6468,
    "Ġsupercil": 23453,
    "Ġensuing": 12307,
    "entiating": 3439,
    "Ġdiary": 24739,
    "Ġdisguises": 25055,
    "success": 6710,
    "Ġpronouncing": 16969,
    "Ġmuff": 8113,
    "later": 20952,
    "Ġdim": 4754,
    "arranging": 19317,
    "growing": 13731,
    "Ġdisease": 14257,
    "Ġmanufact": 22325,
    "Ġmajor": 13289,
    "Ġjungfrau": 15247,
    "Ġcausing": 16356,
    "]": 65,
    "ĠĠĠĠĠĠĠĠĠĠĠĠĠĠĠĠĠĠĠĠĠĠĠĠĠĠĠĠĠĠĠĠĠĠĠĠĠĠĠĠĠĠĠĠĠĠ": 9952,
    "oil": 7805,
    "Ġdrily": 23539,
    "ivia": 22076,
    "Ġlane": 5627,
    "conf": 4956,
    "Ġjourneys": 19473,
    "emason": 18181,
    "Ġcoaxing": 18598,
    "uing": 17693,
    "mai": 22911,
    "Ġleaks": 16447,
    "uneven": 23683,
    "Ġbaling": 17859,
    "Ġdoxology": 22241,
    "Ġhud": 10822,
    "Ġprodigy": 19791,
    "Ġbring": 3325,
    "Ġboughs": 20487,
    "smiles": 14692,
    "ront": 15417,
    "Ġprocessions": 18433,
    "clinging": 20821,
    "Ġdisgraceful": 15019,
    "Ġaux": 21198,
    "accompl": 9879,
    "Ġasph": 21895,
    "Ġfavourable": 7958,
    "bore": 13684,
    "specul": 23940,
    "Ġram": 11013,
    "concealed": 25115,
    "enjoy": 10774,
    "Ġern": 8396,
    "exclaimed": 11788,
    "Ġkept": 3347,
    "yset": 21144,
    "Ġunimpe": 22069,
    "Ġindustry": 18836,
    "ruction": 4357,
    "Ġassisted": 11111,
    "Ġhandspike": 22693,
    "Ġrespecting": 14483,
    "inev": 21962,
    "condem": 16342,
    "ishe": 13889,
    "Ġumbrell": 13648,
    "Ġquadru": 16001,
    "expound": 23662,
    "Ġspe": 821,
    "Ġvoices": 7875,
    "ĠâĢĺ_": 11117,
    "Ġsultan": 15183,
    "Ġdanes": 25156,
    "Ġexperiment": 11910,
    "Ġimprinted": 22389,
    "Ġsplitting": 4382,
    "Ġobsequ": 14319,
    "Ġuncomfortable": 8485,
    "plainly": 11089,
    "eks": 4724,
    "chooses": 23672,
    "Ġappend": 18360,
    "Ġnightmare": 18919,
    "peril": 18337,
    "Ġblasphemy": 26115,
    "contempt": 13186,
    "Ġopt": 775,
    "Ġneighbour": 3808,
    "flow": 2277,
    "Ġstacked": 21743,
    "poling": 12217,
    "Ġtransform": 739,
    "Ġchronicled": 25328,
    "Ġbrings": 11878,
    "Ġphysiognomical": 25611,
    "Ġlirra": 21557,
    "Ġcrossed": 6068,
    "afflicted": 23776,
    "Ġwine": 6810,
    "Ġrio": 23889,
    "Ġmoderately": 22214,
    "dri": 5887,
    "warrior": 24798,
    "reader": 23844,
    "Ġmoss": 9284,
    "incident": 14591,
    "Ġinferred": 14501,
    "Ġinboard": 17932,
    "Ġfugitives": 25634,
    "Ġstubbornness": 25380,
    "pede": 19843,
    "Ġmoulded": 16975,
    "carry": 19525,
    "jolly": 20930,
    "luent": 15994,
    "rust": 2581,
    "benevolent": 15232,
    "round": 3370,
    "Ġmaps": 2961,
    "igin": 3655,
    "Ġformidable": 8219,
    "Ġstony": 21739,
    "librarian": 26568,
    "Ġheaded": 11055,
    "bul": 6951,
    "Ġplausible": 26553,
    "Ġendeared": 26498,
    "Ġwraps": 19775,
    "box": 5749,
    "Ġharb": 7370,
    "Ġfullest": 14813,
    "Ġjud": 3360,
    "Ġbroker": 23099,
    "Ġexcuses": 19041,
    "vere": 4881,
    "Ġalthough": 4150,
    "overing": 6306,
    "decoder": 3644,
    "Ġha": 400,
    "Ġdisinclined": 22526,
    "Ġquarrelling": 13497,
    "Ġabsurdities": 24878,
    "Ġpedestrian": 25879,
    "Ġstrangers": 8313,
    "names": 16532,
    "Ġmicha": 17811,
    "Ġxliv": 23407,
    "dler": 13704,
    "writes": 4987,
    "Ġfestival": 25445,
    "Ġwildly": 9414,
    "Ġdisp": 3361,
    "Ġimbedded": 18334,
    "Ġfare": 5809,
    "ish": 551,
    "Ġcorrected": 10448,
    "hers": 7635,
    "pro": 2049,
    "Ġsisters": 3640,
    "soles": 18688,
    "Ġegypt": 9678,
    "Ġdrugg": 17119,
    "Ġexperiences": 13021,
    "Ġclaims": 13371,
    "Ġsystems": 801,
    "Ġstabbed": 25456,
    "earliest": 20118,
    "itous": 13865,
    "saddest": 25527,
    "Ġfav": 1756,
    "Ġberm": 21381,
    "(-": 2977,
    "Ġarbitrary": 4732,
    "ctu": 5087,
    "Ġsignifies": 19202,
    "tempest": 16959,
    "Ġregular": 935,
    "Ġdusky": 13547,
    "Ġestab": 6315,
    "Ġwhipcord": 20093,
    "Ġtangle": 25760,
    "Ġnorthern": 7265,
    "disgrace": 16457,
    "Ġbulldog": 23857,
    "antled": 18287,
    "Ġsmothe": 18573,
    "arab": 21439,
    "aim": 2755,
    "Ġbottles": 16570,
    "imental": 16533,
    "Ġassociate": 13448,
    "Ġsoph": 1617,
    "Ġguilty": 7250,
    "outs": 7008,
    "official": 24914,
    "Ġdaughters": 4420,
    "enjoyment": 17257,
    "acetti": 13394,
    "Ġcan": 470,
    "Ġdisco": 3429,
    "Ġmem": 2069,
    "Ġsymphony": 26532,
    "ĠĠĠĠĠĠĠĠĠĠĠĠĠ": 22559,
    "Ġfamil": 4320,
    "forget": 11031,
    "gment": 4389,
    "Ġstatistical": 11105,
    "Ġxxxvi": 24969,
    "Ġtomb": 8807,
    "hammered": 19004,
    "Ġhussey": 7724,
    "irium": 8161,
    "Ġjon": 15946,
    "Ġextracting": 11101,
    "Ġfills": 12591,
    "Ġsitting": 3604,
    "Ġ98": 24593,
    "Ġextensive": 12938,
    "cell": 10685,
    "Ġlances": 6984,
    "Ġmovable": 22432,
    "Ġspray": 7893,
    "Ġentailed": 11027,
    "Ġbordeaux": 24564,
    "dry": 13701,
    "Ġsoul": 2725,
    "ict": 592,
    "critters": 14782,
    "Ġrespectively": 23247,
    "Ġundulations": 19514,
    "grief": 13729,
    "Ġverd": 6919,
    "Ġdelay": 5748,
    "c": 71,
    "Ġstifle": 18076,
    "ided": 2783,
    "Ġaught": 8772,
    "Ġswimmer": 19457,
    "Ġexplicit": 3588,
    "Ġround": 1371,
    "--": 1041,
    "shish": 11791,
    "Ġsanctioned": 26349,
    "Ġencoura": 1367,
    "Ġpurple": 10433,
    "Ġindec": 13926,
    "pendicular": 6499,
    "chanced": 18810,
    "rised": 10123,
    "ratulations": 20124,
    "Ġexhausted": 8693,
    "attending": 18916,
    "offended": 16395,
    "machines": 8384,
    "iverer": 11714,
    "Ġshine": 12763,
    "Ġprofane": 13150,
    "apable": 6422,
    "bill": 10075,
    "Ġmarch": 4082,
    "Ġtw": 841,
    "Ġvoyagings": 19235,
    "vously": 23502,
    "Ġdodo": 9073,
    "Ġown": 1008,
    "Ġcolleg": 22852,
    "mod": 1067,
    "Ġgratification": 24093,
    "Ġtwitching": 25683,
    ";--": 8068,
    "lutions": 20949,
    "Ġcottage": 4730,
    "Ġpeasants": 12330,
    "upp": 10130,
    "iece": 3231,
    "Ġonto": 14026,
    "Ġearning": 23938,
    "Ġarmada": 23579,
    "Ġwasting": 12725,
    "Ġmustard": 12927,
    "....": 11316,
    "greeting": 24554,
    "urously": 18050,
    "imely": 13996,
    "Ġcontrivance": 17183,
    "scotch": 25850,
    "Ġhardship": 18913,
    "Ġearnestly": 5978,
    "Ġfrown": 10807,
    "instant": 8651,
    "Ġrag": 18642,
    "Ġcontributes": 15249,
    "Ġadapted": 11038,
    "Ġtheirs": 7024,
    "era": 13845,
    "Ġremainder": 9857,
    "wanted": 10743,
    "utch": 21583,
    "Ġaccident": 5380,
    "ios": 2157,
    "Ġseals": 11693,
    "Ġtoday": 12640,
    "harbors": 20147,
    "hig": 12472,
    "Ġsqueezed": 20034,
    "Ġgoal": 10301,
    "ht": 375,
    "hroom": 12474,
    "Ġhorns": 11123,
    "Ġsalut": 10509,
    "Ġbones": 4580,
    "visit": 7754,
    "locks": 14456,
    "exerc": 16013,
    "Ġ86": 24461,
    "Ġunreasoning": 15843,
    "Ġperf": 12846,
    "Ġcorpor": 23036,
    "Ġhardly": 2434,
    "Ġtiar": 21166,
    "Ġadaptation": 3158,
    "ingham": 21299,
    "streamed": 25966,
    "acceptable": 25184,
    "Ġgossip": 18469,
    "faces": 13718,
    "Ġtext": 2267,
    "Ġantagonist": 26328,
    "Ġanimals": 8978,
    "Ġabruptly": 15149,
    "onstr": 12543,
    "Ġeddy": 13121,
    "sou": 12503,
    "ricade": 13035,
    "Ġpir": 6818,
    "Ġ24": 13189,
    "twenty": 6607,
    "Ġmouldy": 14973,
    "architect": 22888,
    "Ġsurpasses": 25268,
    "Ġdiving": 12598,
    "insensibility": 23066,
    "Ġhere": 1088,
    "Ġcl": 553,
    "Ġsimulation": 2750,
    "Ġvillainous": 25131,
    "Ġsnake": 12059,
    "Ġantelope": 24180,
    "Ġfreely": 7056,
    "Ġrationally": 18215,
    "Ġath": 15799,
    "nuee": 17429,
    "Ġrecurring": 23231,
    "trunk": 23945,
    "Ġelbows": 18634,
    "Ġeuroc": 14958,
    "Ġpanted": 21469,
    "Ġnewspapers": 17186,
    "Ġlength": 2501,
    "fail": 17540,
    "visits": 24223,
    "Ġdefray": 22938,
    "Ġbroom": 18906,
    "sensibility": 25023,
    "Ġreply": 4512,
    "Ġshaster": 21995,
    "Ġsuffered": 5649,
    "belled": 24033,
    "Ġdisreputable": 22531,
    "Ġexploded": 15907,
    "Ġintimacy": 8700,
    "Ġoccurrence": 14381,
    "Ġtear": 6722,
    "disappeared": 14569,
    "rumours": 23897,
    "resp": 13837,
    "promising": 24726,
    "Ġincites": 22548,
    "Ġhaze": 18196,
    "tiness": 21070,
    "Ġinexper": 16980,
    "Ġimprec": 14218,
    "fooled": 24419,
    "ival": 4226,
    "Ġgarnery": 17386,
    "request": 21240,
    "Ġabove": 2934,
    "Ġcolossal": 11459,
    "idation": 5021,
    "actually": 14296,
    "Ġhonour": 3920,
    "Ġfashions": 17885,
    "acknowledging": 25476,
    "iration": 4537,
    "om": 315,
    "Ġdaresay": 14703,
    "Ġshade": 6550,
    "base": 20776,
    "Ġhug": 6979,
    "send": 15422,
    "verted": 10217,
    "circumst": 5348,
    "Ġstratag": 26028,
    "Ġsagacity": 16974,
    "Ġmile": 7151,
    "anxious": 15108,
    "Ġhands": 1665,
    "Ġupd": 948,
    "year": 11095,
    "Ġadviser": 25312,
    "Ġinsight": 16529,
    "Ġbureau": 11589,
    "enough": 6809,
    "thought": 3847,
    "grass": 23411,
    "Ġphilosopher": 12181,
    "hour": 7340,
    "Ġaver": 1286,
    "Ġcardboard": 19977,
    "Ġcabman": 14605,
    "Ġcubs": 20085,
    "Ġplush": 18609,
    "Ġ10": 5248,
    "Ġsit": 4215,
    "attempted": 20173,
    "real": 10149,
    "neg": 12862,
    "dozen": 23376,
    "aks": 8506,
    "each": 7335,
    "Ġimpulse": 10023,
    "Ġsmiting": 12895,
    "inois": 17738,
    "Ġvaults": 17153,
    "Ġholder": 6724,
    "Ġadapts": 3816,
    "hon": 6793,
    "dispute": 23497,
    "======================================================================": 10067,
    "Ġwaistcoat": 12268,
    "addition": 13382,
    "niest": 18974,
    "puzz": 17640,
    "garious": 17558,
    "size": 15424,
    "Ġbowled": 23767,
    "Ġaccord": 4025,
    "Ġriverside": 25247,
    "avail": 18604,
    "feed": 9293,
    "Ġhard": 1441,
    "9": 29,
    "stout": 21642,
    "lorious": 17592,
    "Ġunallied": 22029,
    "comm": 7439,
    "Ġbeseeching": 26311,
    "iting": 2158,
    "Ġfill": 5701,
    "Ġspectre": 16630,
    "Ġsailing": 5323,
    "calculation": 25688,
    "telesc": 22815,
    "attempts": 17190,
    "tree": 11533,
    "Ġmaty": 22909,
    "Ġchinks": 22248,
    "oqu": 7555,
    "Ġdiscu": 4363,
    "Ġsec": 2075,
    "Ġnile": 21518,
    "Ġfeels": 6882,
    "Ġmontan": 22980,
    "Ġide": 2120,
    "umbrance": 22115,
    "Ġmyth": 18220,
    "ior": 2039,
    "Ġcust": 11581,
    "mankind": 14373,
    "Ġbart": 17857,
    "Ġacceded": 22375,
    "Ġamid": 4958,
    "join": 12111,
    "Ġcontinent": 14887,
    "Ġnamely": 20688,
    "Ġ182": 13234,
    "you": 1007,
    "numer": 15398,
    "Ġunexpectedly": 19908,
    "Ġseason": 5237,
    "Ġjustly": 11901,
    "Ġcompliments": 8632,
    "Ġearnest": 3927,
    "Ġcircumstantial": 14643,
    "Ġsne": 6372,
    "unching": 18158,
    "istically": 14143,
    "Ġindicated": 10469,
    "Ġhed": 7387,
    "Ġdusty": 14924,
    "Ġult": 9075,
    "Ġaudacious": 13458,
    "touching": 15090,
    "Ġdull": 6384,
    "Ġbowlines": 19321,
    "precaution": 23820,
    "Ġpig": 5705,
    "Ġflattening": 26048,
    "Ġoversight": 22355,
    "Ġgarments": 15192,
    "Ġpredict": 671,
    "Ġapple": 14168,
    "Ġsow": 17749,
    "traces": 24315,
    "Ġcoron": 4462,
    "Ġsplend": 9897,
    "Ġapplicable": 19019,
    "Ġparaph": 22117,
    "striking": 13438,
    "Ġfirmest": 16664,
    "eluded": 21572,
    "Ġphaet": 16317,
    "Ġreports": 19084,
    "oting": 2743,
    "Ġkrem": 9725,
    "Ġacqu": 1416,
    "Ġvillanous": 24051,
    "Ġbrooding": 18907,
    "Ġgurglings": 26465,
    "Ġbenches": 18781,
    "Ġvent": 3995,
    "Ġrucastle": 5175,
    "Ġhorrid": 7998,
    "Ġsurmis": 23462,
    "Ġheading": 8935,
    "Ġfl": 1281,
    "Ġtraversed": 18892,
    "elop": 1445,
    "à": 161,
    "thither": 21980,
    "wharf": 20605,
    "Ĺ": 250,
    "sne": 10124,
    "nails": 17614,
    "heavenly": 20043,
    "Ġ52": 24321,
    "Ġforbidding": 17079,
    "Ġxxxii": 24970,
    "regards": 23465,
    "Ġcasement": 25092,
    "Ġprofit": 14585,
    "hearth": 15498,
    "nurse": 15207,
    "Ġmourning": 13476,
    "cnns": 3621,
    "Ġwiser": 14730,
    "longing": 23724,
    "erde": 21267,
    "Ġfrog": 23918,
    "Ġalmighty": 18104,
    "Ġanchored": 17439,
    "Ġprint": 18970,
    "probable": 17021,
    "Ġcanst": 8857,
    "herald": 22202,
    "Ġhon": 2539,
    "suppose": 8644,
    "Ġcompletion": 12145,
    "Ġfi": 941,
    "Ġkeepers": 23538,
    "Ġunparalleled": 15851,
    "Ġinstructed": 19283,
    "Ġtwins": 16118,
    "Ġhammered": 13237,
    "Ġabsurdly": 19958,
    "Ġcommission": 6712,
    "elling": 5830,
    "Ġastr": 15493,
    "Ġretiring": 16279,
    "ilty": 6394,
    "Ġwalrus": 14972,
    "âĢĻâĢĶ": 12733,
    "Ġcuring": 21342,
    "Ġdialogue": 12402,
    "Ġinsip": 19266,
    "sit": 13778,
    "Ġdard": 21420,
    "Ġafraid": 3529,
    "Ġdegraded": 19225,
    "Ġcompassionate": 24723,
    "Ġsour": 21215,
    "reposed": 24492,
    "Ġpartner": 6714,
    "relapse": 24016,
    "susp": 10596,
    "Ġefficient": 1053,
    "whaling": 7898,
    "Ġsent": 1777,
    "arious": 10316,
    "Ġardu": 22181,
    "Ġlashes": 17966,
    "ann": 5802,
    "Ġrequires": 1027,
    "Ġjavelins": 26105,
    "Ġswiss": 18880,
    "val": 1159,
    "Ġoscillations": 2897,
    "Ġcompromising": 22570,
    "Ġdrink": 4784,
    "plate": 18207,
    "Ġstirs": 14916,
    "umst": 2504,
    "strangely": 17276,
    "practised": 20246,
    "pat": 10116,
    "Ġcreativity": 3101,
    "whispering": 26103,
    "fire": 6357,
    "Ġsax": 10929,
    "Ġhandled": 12934,
    "ried": 925,
    "Ġbeauty": 3771,
    "Ġbush": 23335,
    "clergy": 18933,
    "gust": 6360,
    "Ġunlucky": 10049,
    "eled": 2358,
    "est": 501,
    "shutters": 20310,
    "Ġjest": 18403,
    "Ġbolts": 16943,
    "Ġpetticoat": 15294,
    "Ġclifford": 22353,
    "Ġtis": 15464,
    "Ġvint": 18194,
    "ousings": 18330,
    "Ġfathers": 16295,
    "Ġunacquainted": 12773,
    "word": 2489,
    "Ġdece": 6996,
    "**": 4682,
    "Ġmoderate": 10938,
    "Ġstreaming": 19672,
    "mic": 12486,
    "hau": 17562,
    "Ġblameless": 19858,
    "Ġformless": 22824,
    "feared": 11800,
    "Ġspectator": 19404,
    "entle": 1740,
    "Ġlibraries": 20613,
    "Ġwel": 4524,
    "desp": 6075,
    "Ġarrog": 18342,
    "Ġjoist": 19231,
    "Ġbearing": 5298,
    "wore": 21123,
    "studies": 25166,
    "Ġshoes": 7071,
    "Ġbor": 5804,
    "Ġoccupy": 14731,
    "Ġjonas": 20608,
    "Ġresignation": 18566,
    "bers": 2570,
    "intervals": 10637,
    "Ġsof": 18282,
    "Ô": 149,
    "yet": 3754,
    "Ġ150": 22823,
    "Ġmiguel": 25766,
    "Ġits": 706,
    "Ġfaculties": 14957,
    "behaved": 24463,
    "chains": 9684,
    "Ġnapoleons": 25885,
    "Ġmeanest": 12907,
    "between": 5070,
    "icked": 10332,
    "poky": 17644,
    "Ġbranch": 8331,
    "am": 367,
    "urry": 13992,
    "Ġimple": 1869,
    "Ġimmedi": 2903,
    "Ġgeneric": 18453,
    "Ġquohog": 10972,
    "heading": 5487,
    "Ġbanks": 6814,
    "Ġreject": 7386,
    "toller": 20671,
    "Ġpeterson": 9482,
    "Ġwearisome": 19794,
    "Ġarist": 14161,
    "plifted": 9710,
    "Ġlie": 4405,
    "Ġexploring": 4305,
    "Ġresides": 22537,
    "lott": 6650,
    "Ġsculpt": 15945,
    "vity": 7815,
    "completed": 19992,
    "bolt": 25135,
    "cl": 1494,
    "Ġclearer": 16311,
    "Ġpropontis": 17465,
    "Ġreplying": 19580,
    "Ġabstra": 22268,
    "oars": 9614,
    "Ġhails": 21947,
    "posted": 24635,
    "Ġendued": 14076,
    "istence": 2402,
    "Ġindist": 14407,
    "Ġmiles": 3804,
    "Ġexplaining": 15958,
    "Ġdl": 3378,
    "xi": 17710,
    "b": 70,
    "Ġlistened": 4467,
    "Ġdiminished": 16665,
    "Ġfilthy": 13245,
    "Ġwho": 612,
    "Ġforcibly": 10060,
    "Ľ": 254,
    "Ġstrand": 11826,
    "Ġjoints": 12033,
    "Ġprogram": 12990,
    "Ġreserved": 7515,
    "azore": 23461,
    "throw": 14097,
    "gallantry": 15058,
    "Ġiroquois": 26472,
    "mas": 5211,
    "rice": 13775,
    "Ġfogs": 25282,
    "Ġcumul": 4178,
    "Ġpatience": 2909,
    "Ġgreek": 10630,
    "unc": 15766,
    "Ġcause": 2410,
    "rified": 15418,
    "protest": 24815,
    "Ġmolasses": 25628,
    "Ġmasts": 6465,
    "Ġforeman": 23446,
    "Ġvault": 8840,
    "Ġaccompanying": 11304,
    "brous": 19197,
    "Ġvindication": 25364,
    "Ġcarter": 18900,
    "Ġflann": 23010,
    "rs": 7807,
    "Ġevinced": 7100,
    "Ġencamp": 22800,
    "clim": 18929,
    "nam": 2810,
    "vis": 4574,
    "Ġfishing": 9662,
    "Ġunaccountably": 26515,
    "stud": 8819,
    "Ġcontinental": 19704,
    "Ġembod": 14412,
    "Ġlessened": 19087,
    "Ġseventh": 18204,
    "Ġrelig": 8550,
    "Ġinspiring": 19112,
    "wa": 5896,
    "Ġbrutality": 26276,
    "Ġbetray": 7442,
    "Ġchristians": 13306,
    "Ġflapp": 23006,
    "Ġperils": 6272,
    "Ġpinched": 17035,
    "yramid": 8367,
    "Ġneighbours": 8302,
    "Ġshelves": 14998,
    "Ġmonstr": 7667,
    "mistake": 24529,
    "Ġrepute": 18034,
    "Ġtyphoon": 12387,
    "suit": 18639,
    "reshold": 21238,
    "unken": 10236,
    "âĢĶ(": 15936,
    "hurrying": 14982,
    "Ġarr": 1799,
    "Ġtilted": 20411,
    "Ġbusiness": 2233,
    "Ġoffending": 22736,
    "interruption": 20110,
    "stays": 15686,
    "Ġwaning": 15532,
    "harrow": 20907,
    "Ġprogra": 1147,
    "ask": 855,
    "Ġdouble": 4939,
    "everlasting": 18771,
    "Ġstave": 11650,
    "âĢĶâĢĺ": 7013,
    "came": 4567,
    "Ġlarboard": 11009,
    "kingly": 20938,
    "Ġcommonest": 23087,
    "Ġtreatment": 12069,
    "conditionally": 24834,
    "Ġorphan": 12381,
    "Ġtypewriter": 19097,
    "Ġbites": 23741,
    "Ġadmirals": 20383,
    "skull": 24488,
    "Ġmatch": 4526,
    "acon": 10681,
    "Ġuncommonly": 7759,
    "Ġnarrating": 24351,
    "Ġforfeit": 21772,
    "buncle": 13690,
    "Ġbo": 797,
    "Ġhyena": 24519,
    "Ġjacket": 6489,
    "Ġherself": 1566,
    "Ġhack": 12753,
    "Ġthickness": 13275,
    "Ġsubstit": 19539,
    "Ġdigest": 24647,
    "Ġplanks": 5563,
    "ackled": 22421,
    "Ġobligations": 12089,
    "Ġrollicking": 24451,
    "Ġshy": 10903,
    "Ġingolstadt": 8332,
    "Ġfatigue": 8697,
    "ariously": 18527,
    "Ġreturn": 1712,
    "recked": 17762,
    "Ġtribe": 10751,
    "sometimes": 5971,
    "cannon": 22964,
    "Ġcharging": 23265,
    "Ġassault": 9836,
    "ravity": 21632,
    "Ġoverlapping": 26238,
    "Ġorlop": 22090,
    "mselves": 2862,
    "rece": 21233,
    "dog": 10692,
    "treated": 21093,
    "Ġdelighted": 5499,
    "Ġcritics": 23443,
    "Ġunrest": 11712,
    "Ġcurled": 8225,
    "iminished": 19024,
    "Ġgracefully": 13389,
    "itoring": 21330,
    "bering": 18683,
    "idirectional": 2421,
    "Ġhumaneval": 25582,
    "ances": 1338,
    "Ġaffright": 9332,
    "faith": 15024,
    "animal": 16978,
    "Ġalarm": 4047,
    "Ġfolds": 12204,
    "Ġxl": 11988,
    "Ġminor": 12964,
    "Ġirregularity": 25324,
    "Ġexposure": 16094,
    "confid": 14866,
    "tallow": 21084,
    "Ġpratt": 23217,
    "Ġunwillingly": 15846,
    "dismay": 19152,
    "Ġamusements": 16913,
    "confirm": 16807,
    "Ġunpleasing": 22052,
    "Ġsubstantiated": 25875,
    "Ġmusical": 23891,
    "Ġcoldly": 14650,
    "õ": 182,
    "Ġcotton": 17378,
    "robustness": 26338,
    "Ġingenuity": 17163,
    "Ġasks": 5114,
    "Ġattained": 14077,
    "etting": 21577,
    "jane": 4480,
    "Ġtru": 4105,
    "espe": 3498,
    "Ġundersampling": 19517,
    "Ġresting": 7961,
    "Ġprodigiously": 14931,
    "ounder": 11742,
    "Ġgeological": 14533,
    "osop": 4403,
    "nights": 16448,
    "odecimo": 11444,
    "contact": 23726,
    "description": 11094,
    "Ġschedu": 1822,
    "Ġdan": 8792,
    "Ġbrad": 8786,
    "withstanding": 8945,
    "Ġwon": 1666,
    "mess": 13751,
    "Ġ28": 19293,
    "Ġimputed": 12805,
    "mistress": 14904,
    "Ġneglected": 10377,
    "orts": 2556,
    "Ġadult": 18289,
    "wrote": 11546,
    "Ġoriginated": 24121,
    "Ġaspects": 4174,
    "Ġtroublesome": 24002,
    "Ġruins": 16157,
    "ay": 355,
    "Ġmilan": 19534,
    "advise": 24217,
    "Ġdotted": 16792,
    "resistible": 10643,
    "Ġliter": 8811,
    "seldom": 13785,
    "Ġexasperate": 20096,
    "brows": 17496,
    "Ġcoat": 4551,
    "Į": 239,
    "sprinkling": 24912,
    "ike": 4999,
    "Ġpasseng": 12967,
    "Ġshut": 3940,
    "Ġrestlessness": 23290,
    "Ġconverted": 16110,
    "Ġvaulted": 25167,
    "Ġcapricious": 20537,
    "Ġwanderings": 20142,
    "analy": 17838,
    "Ġfilial": 16620,
    "Ġintrospect": 15826,
    "Ġsaturation": 2061,
    "helmsman": 24287,
    "Ġroaring": 10968,
    "Ġparcels": 25465,
    "Ġrewards": 10848,
    "laying": 19771,
    "Ġbad": 3985,
    "ra": 314,
    "ksome": 10104,
    "Ġunprecedented": 15852,
    "Ġfiles": 21411,
    "begged": 18520,
    "Ġreplete": 15695,
    "Ġsil": 1797,
    "Ġwrinkled": 7264,
    "Ġoffend": 16139,
    "Ġcollected": 2611,
    "crossed": 16632,
    "appalled": 18759,
    "Ġcrowds": 14739,
    "Ġlabourers": 23330,
    "cham": 10853,
    "Ġimportance": 4898,
    "night": 2168,
    "sec": 6152,
    "ared": 770,
    "Ġbennet": 1576,
    "returns": 23133,
    "young": 7321,
    "efficient": 2870,
    "nt": 921,
    "Ġseren": 7401,
    "Ġkindness": 4096,
    "blast": 9587,
    "springs": 24911,
    "perform": 15892,
    "tort": 17675,
    "Ġazores": 20192,
    "Ġignorance": 6618,
    "Ġsimplicity": 2922,
    "wer": 8394,
    "Ġunbending": 25464,
    "alogue": 25159,
    "abetical": 15740,
    "Ġdial": 10810,
    "paint": 21017,
    "Ġostentatious": 25736,
    "absolute": 17122,
    "Ġdeception": 18139,
    "commence": 19990,
    "Ġshirt": 8848,
    "Ġliberty": 7761,
    "apsed": 6295,
    "ignific": 11953,
    "threshold": 21984,
    "colonel": 8284,
    "ravelled": 18014,
    "heartedness": 24827,
    "Ġsymmetry": 20364,
    "rison": 13777,
    "ĠĠĠĠĠĠĠĠĠĠĠĠĠĠĠĠĠĠĠĠĠĠĠĠĠĠĠĠĠĠĠĠĠĠĠĠĠĠĠĠĠĠĠĠĠ": 9951,
    "deceit": 25556,
    "Ġpaid": 5014,
    "arranged": 19318,
    "Ġperchance": 15989,
    "Ġawhile": 13828,
    "Ġplunged": 8692,
    "Ġpioneer": 17916,
    "cen": 17502,
    "company": 9456,
    "Ġworry": 18815,
    "epilogue": 22100,
    "seaman": 25457,
    "relieved": 13273,
    "Ġfragmentary": 25856,
    "Ġspeedy": 11172,
    "Ġwronged": 24247,
    "Ġlass": 15645,
    "Ġassizes": 11109,
    "ctive": 11622,
    "Ġsquid": 11876,
    "Ġreel": 9214,
    "Ġfanned": 19099,
    "inlaid": 21189,
    "ut": 308,
    "iss": 2177,
    "float": 19804,
    "Ġslate": 11936,
    "ropol": 10953,
    "Ġslippers": 19614,
    "Ġflourish": 17160,
    "insufficient": 15488,
    "force": 12951,
    "Ġabhor": 5467,
    "Ġgazes": 24091,
    "Ġoccur": 1081,
    "cruise": 24841,
    "ated": 729,
    "Ġferule": 24499,
    "Ġweariness": 19793,
    "Ġofficially": 24838,
    "Ġmemorable": 16426,
    "testing": 12514,
    "Ġkiss": 8182,
    "dead": 8179,
    "interference": 23736,
    "Ġblurred": 22928,
    "Ġlevels": 12693,
    "Ġclass": 784,
    "Ġoffences": 18692,
    "Ġmiser": 18703,
    "ç": 168,
    "ingale": 21298,
    "Ġdirecting": 16299,
    "Ġchapters": 10473,
    "brary": 5755,
    "Ġand": 295,
    "Ġchased": 8861,
    "ĠâĢĶâĢĶ": 25757,
    "Ġwave": 7575,
    "Ġsurviving": 24637,
    "Ġyet": 1026,
    "antarctic": 22096,
    "Ġjokes": 18408,
    "Ġocc": 888,
    "Ġconvolutional": 2164,
    "derer": 4597,
    "Ġblinding": 14728,
    "pol": 5892,
    "Ġfierce": 7437,
    "methodically": 20663,
    "mens": 20968,
    "Ġcluster": 13569,
    "Ġunjustly": 17126,
    "Ġnations": 8809,
    "Ġtempted": 9057,
    "embarr": 15794,
    "Ġdecreed": 18486,
    "Ġdeportment": 22606,
    "Ġwanting": 6721,
    "Ġsurest": 19058,
    "Ġtax": 13814,
    "Ġkink": 22190,
    "acid": 11005,
    "sl": 5794,
    "Ġplanned": 14751,
    "search": 8464,
    "old": 800,
    "pop": 17631,
    "Ġbreast": 8968,
    "thrusting": 20258,
    "Ġlees": 18062,
    "Ġshame": 6410,
    "grammar": 6435,
    "I": 45,
    "Ġetext": 23947,
    "Ġthird": 4186,
    "Ġgrapple": 25811,
    "Ġsprained": 15881,
    "what": 643,
    "itting": 1153,
    "straight": 9939,
    "Ġsummers": 23871,
    "house": 4077,
    "Ġknots": 15008,
    "Ġclosely": 6488,
    "Ġsacrificed": 17421,
    "porary": 14552,
    "Ġhellish": 10550,
    "Ġcognitive": 13632,
    "Ġcalamities": 25699,
    "Ġstartled": 7082,
    "Ġchose": 7413,
    "tone": 8762,
    "Ġwhit": 7177,
    "Ġnom": 21516,
    "Ġnevertheless": 5039,
    "Ġvisible": 4774,
    "stache": 15687,
    "Ġsounded": 8590,
    "cannibal": 15223,
    "Ġbarely": 16936,
    "arrow": 4179,
    "Ġinterior": 8894,
    "Ġimplac": 24874,
    "Ġsoldiers": 8686,
    "ased": 1267,
    "Ġpalm": 10513,
    "Ġgroom": 13964,
    "task": 13791,
    "Ġdisagreeable": 9298,
    "Ġbelonged": 6922,
    "berish": 22718,
    "Ġtra": 1385,
    "istics": 1634,
    "Ġshrivelled": 19702,
    "just": 1702,
    "Ġdespond": 14667,
    "Ġshovel": 23489,
    "Ġscheming": 23268,
    "cool": 19186,
    "writ": 16553,
    "kerchief": 7525,
    "Ġclues": 18422,
    "mediterranean": 16402,
    "Ġgallon": 24184,
    "Ġedged": 23435,
    "Ġmagistrate": 8233,
    "Ġarrangements": 16514,
    "Ġmethod": 1488,
    "bitious": 16669,
    "Ġscorch": 20065,
    "Ġleaning": 5227,
    "brated": 12025,
    "Ġreefed": 20301,
    "Ġnick": 21520,
    "shock": 19854,
    "Ġwhis": 3503,
    "woman": 5898,
    "Ġconver": 806,
    "Ġsharpen": 13567,
    "Ġextremities": 19194,
    "Ġestimated": 16594,
    "Ġkl": 2735,
    "da": 17514,
    "Ġtig": 13811,
    "Ġboisterous": 20441,
    "Ġborder": 10169,
    "¤": 102,
    "wherever": 13116,
    "Ġtearless": 24786,
    "Ġbalm": 22901,
    "ants": 1391,
    "Ġexeget": 24083,
    "Ġru": 950,
    "Ġfooted": 23795,
    "sex": 12710,
    "Ġbreathless": 12167,
    "Ġagonising": 25373,
    "Ġwaiting": 4323,
    "ream": 2709,
    "progra": 9395,
    "Ġecc": 11627,
    "Ġfollows": 7672,
    "Ġblaze": 16218,
    "Ġmemories": 14541,
    "Ġsnaky": 23740,
    "hem": 6663,
    "imitably": 21708,
    "contained": 22471,
    "Ġevanesc": 24294,
    "Ġgent": 7383,
    "nals": 16398,
    "Ġsparkling": 11356,
    "flight": 15351,
    "Ġventure": 7739,
    "Ġrole": 15995,
    "gentlemen": 9503,
    "Ġconfounded": 16382,
    "Ġcrunched": 19123,
    "rows": 6442,
    "Ġstar": 6022,
    "Ġstories": 10865,
    "Ġstick": 6025,
    "urned": 9306,
    "infer": 10144,
    "ifix": 21900,
    "rawling": 21633,
    "Ġsummoned": 9910,
    "Ġnumberless": 16414,
    "Ġdig": 6135,
    "patter": 4737,
    "Ġgranting": 18738,
    "Ġyawning": 12298,
    "Ġcigarette": 20655,
    "Ġavail": 11227,
    "Ġtraffic": 23080,
    "Ġlanc": 19763,
    "compasses": 19434,
    "Ġtarquin": 23609,
    "Ġautumnal": 19054,
    "functions": 11226,
    "Ġthrob": 21515,
    "Ġfirst": 938,
    "Ġdiscove": 16153,
    "Ġshrine": 19530,
    "Ġprosper": 10229,
    "Ġtransformations": 3484,
    "imly": 12684,
    "acet": 5476,
    ").âĢĿ": 20740,
    "chan": 1170,
    "Ġsket": 18728,
    "render": 10290,
    "fron": 24281,
    "sculptured": 26046,
    "Ġcurb": 16228,
    "Ġrevellers": 21675,
    "Ġemergencies": 17361,
    "Ġcousin": 3706,
    "Ġarsacides": 17293,
    "Ġaccompanied": 6780,
    "Ġdeeper": 2083,
    "Ġroyals": 19531,
    "Ġannouncing": 16754,
    "mis": 4518,
    "linked": 17593,
    "Ġinspire": 11994,
    "Ġdock": 15928,
    "civilized": 17075,
    "Ġlighted": 7063,
    "Ġreliable": 18776,
    "Ġconvey": 9980,
    "Ġhospitals": 24923,
    "orphans": 26440,
    "berwell": 22720,
    "Ġtutored": 20126,
    "musket": 25341,
    "Ġarrow": 10931,
    "Ġcashier": 20197,
    "Ġhearers": 15700,
    "enhall": 13848,
    "reinforcement": 7826,
    "Ġamput": 16031,
    "Ġcetacean": 25878,
    "Ġcathedral": 17412,
    "Ġthankful": 14738,
    "ron": 5215,
    "assed": 6421,
    "Ġpitied": 14691,
    "Ġebony": 18008,
    "Ġwip": 13851,
    "Ġtongues": 14862,
    "Ġscruples": 15077,
    "Ġfundamental": 3012,
    "Ġgrass": 5176,
    "Ġrefreshment": 17239,
    "Ġderives": 16307,
    "Ġdespise": 14665,
    "Ġamateur": 22482,
    "Ġevils": 9020,
    "Ġay": 15490,
    "Ġinexpress": 12632,
    "Ġslo": 15505,
    "ture": 7558,
    "Ġharbor": 10026,
    "Ġwinds": 5746,
    "Ġstorm": 4301,
    "removing": 17764,
    "Ġfly": 3868,
    "1": 21,
    "iour": 4037,
    "Ġowned": 11874,
    "Ġboisterously": 25682,
    "erity": 21266,
    "Ġindefatigable": 17177,
    "Ġsummits": 14683,
    "Ġintrodu": 1927,
    "Ġwaterproof": 19088,
    "compared": 23985,
    "Ġwind": 1433,
    "Ġtiller": 8965,
    "Ġflask": 3037,
    "Ġstars": 6149,
    "Ġsamuel": 10032,
    "truth": 9918,
    "collected": 13211,
    "Ġviolin": 16427,
    "Ġpromises": 10400,
    "Ġimpetus": 25569,
    "reliable": 21239,
    "Ġrelief": 6059,
    "Ġdeterm": 1269,
    "Ġjoin": 4850,
    "Ġabridged": 26540,
    "Ġsafety": 6339,
    "Ġlingering": 11379,
    "Ġadjusts": 8980,
    "Ġhall": 4183,
    "Ġoblique": 20168,
    "Ġadmeasurements": 26225,
    "Ġvengeful": 14889,
    "wling": 11544,
    "Ġswash": 23052,
    "Ġunstructure": 2993,
    "Ġbashful": 20418,
    "Ġrepair": 11977,
    "abashed": 21789,
    "cooks": 25067,
    "Ġsigned": 11177,
    "dispositions": 25011,
    "Ġcover": 3556,
    "achel": 7032,
    "Ġrheumatic": 20704,
    ".âĢĻâĢĿ": 6739,
    "thumb": 18218,
    "Ġany": 687,
    "Ġcommence": 6167,
    "Ġlandsman": 11350,
    "Ġhunts": 23156,
    "Ġbullion": 24983,
    "report": 13397,
    "Ġtweezers": 26556,
    "Ġgratefully": 20443,
    "endeavoured": 12278,
    "Ġaloud": 6252,
    "oses": 3944,
    "Ġscolded": 25472,
    "Ġoct": 10158,
    "building": 17308,
    "Ġgrievances": 20647,
    "Ġfreshet": 25704,
    "anced": 1306,
    "Ġklux": 22192,
    "Ġplentiful": 12908,
    "Ġtelegram": 15222,
    "Ġscrew": 8867,
    "Ġutterly": 6100,
    "eds": 6674,
    "Ġblaming": 22927,
    "Ġslang": 23157,
    "aws": 8236,
    "Ġnuts": 17951,
    "hic": 3252,
    "Ġridic": 7508,
    "Ġfished": 21408,
    "Ġencirc": 18734,
    "myst": 9821,
    "Ġhoriz": 4722,
    "Ġxavier": 2855,
    "Ġunintelligible": 26514,
    "Ġevangel": 11280,
    "Ġoctavo": 15162,
    "Ġgrooves": 16741,
    "Ġvaguely": 17365,
    "Ġcrowding": 13277,
    "Ġpropag": 16346,
    "Ġstil": 15718,
    "Ġig": 3500,
    "Ġcult": 8781,
    "dually": 3286,
    "supplemental": 25874,
    "Ġsufficient": 2004,
    "Ġaccidentally": 9504,
    "Ġnoah": 10942,
    "Ġ166": 25004,
    "title": 17287,
    "Ġmisconduct": 22755,
    "la": 10705,
    "Ġdeified": 18137,
    "factories": 19842,
    "Ġavast": 9919,
    "Ġlightly": 13081,
    "meat": 18673,
    "iliation": 10860,
    "âĢĶâĢľ": 2968,
    "Ġunchanging": 22042,
    "Ġmainland": 22647,
    "second": 6543,
    "Ġhowling": 8509,
    "Ġflow": 1239,
    "covered": 11477,
    "Ġwick": 2006,
    "Ġlabours": 8582,
    "take": 4573,
    "Ġnatives": 17950,
    "ling": 735,
    "orough": 5700,
    "Ġfunere": 22254,
    "Ġvomit": 21945,
    "Ġscolding": 15199,
    "jumping": 20244,
    "Ġheadstrong": 14387,
    "ssing": 3809,
    "med": 1911,
    "ty": 1003,
    "ilent": 21717,
    "Ġbible": 9319,
    "ability": 717,
    "Ġdeactivates": 20702,
    "Ġaction": 5796,
    "land": 1530,
    "courageous": 26127,
    "Ġdistinguishing": 16495,
    "Ġspars": 3810,
    "ĠĠĠĠĠĠĠĠĠĠĠĠĠĠĠĠĠĠĠĠĠĠĠĠĠĠĠĠĠĠĠĠĠĠĠĠĠĠĠĠĠĠĠĠĠĠĠĠĠĠĠ": 20037,
    "Ġhide": 4586,
    "Ġgroves": 16740,
    "Ġattain": 12744,
    "Ġthoughtfulness": 18772,
    "ishnoo": 10955,
    "Ġglossy": 15226,
    "Ġcasualties": 25512,
    "Ġgrammars": 11402,
    "uned": 21868,
    "danish": 20832,
    "Ġinsensibly": 20074,
    "Ġnotorious": 18223,
    "hopper": 23713,
    "Ġvind": 10249,
    "Ġscal": 1540,
    "ersed": 10257,
    "viv": 17698,
    "Ġagency": 11804,
    "Ġnot": 413,
    "Ġgra": 415,
    "tales": 17686,
    "ades": 5631,
    "levelled": 23642,
    "fam": 5988,
    "victim": 25530,
    "Ġnights": 7258,
    "Ġadmon": 15866,
    "Ġscratch": 25564,
    "uit": 8392,
    "aset": 10832,
    "Ġembellished": 25848,
    "Ġindebted": 8707,
    "Ġphyset": 23197,
    "Ġloosened": 26002,
    "Ġtelescopes": 25690,
    "dissatisfied": 26612,
    "Ġunerring": 15845,
    "Ġsolid": 6443,
    "Ġdiscretion": 10347,
    "atiate": 12545,
    "represent": 9637,
    "Ġberyls": 25775,
    "Ġslippery": 12164,
    "Ġoccasionally": 5590,
    "Ġbaleful": 24982,
    "lect": 1220,
    "gences": 20876,
    "Ġshout": 4263,
    "sprang": 19989,
    "Ġvast": 3299,
    "monkey": 19169,
    "prints": 23810,
    "Ġrestrictions": 20634,
    "Ġu": 324,
    "Ġdrifted": 14625,
    "isol": 17846,
    "agation": 1260,
    "Ġfamiliar": 5511,
    "Ġshri": 5375,
    "Ġenticements": 26033,
    "rant": 11516,
    "Ġseated": 4538,
    "Ġbarque": 23789,
    "Ġfleetness": 20178,
    "talked": 14984,
    "enorm": 17781,
    "Ġxi": 16428,
    "ppered": 15788,
    "Ġrel": 1098,
    "oper": 7347,
    "Ġnominal": 15167,
    "Ġdivergence": 2727,
    "Ġphil": 3387,
    "pipe": 8696,
    "showed": 16023,
    "deed": 1519,
    "oted": 4594,
    "Ġenvelope": 7319,
    "Ġhydraulic": 10063,
    "Ġpledged": 20686,
    "Ġvirtual": 11240,
    "advanced": 19587,
    "Ġpreyed": 18366,
    "Ġandes": 12638,
    "proportions": 22848,
    "Ġobeisance": 19757,
    "Ġruss": 18720,
    "Ġberth": 8679,
    "igantic": 5539,
    "Ġ/*": 10139,
    "Ġxxxiv": 24967,
    "Ġnobly": 22238,
    "tempestuous": 26097,
    "bber": 4565,
    "Ġther": 17778,
    "creator": 26381,
    "ure": 357,
    "Ġtread": 9409,
    "employed": 17261,
    "merry": 16536,
    "owders": 18047,
    "Ġutter": 3972,
    "otherwise": 7670,
    "dle": 3251,
    "relations": 14733,
    "Ġclang": 15963,
    "Ġaims": 15495,
    "Ġcruisings": 25864,
    "Ġmonogram": 26574,
    "gy": 2095,
    "umps": 6317,
    "Ġrapture": 13494,
    "tuesday": 17690,
    "Ġlawyer": 10668,
    "res": 2758,
    "Ġtouched": 6000,
    "Ġalph": 9694,
    "È": 137,
    "rennial": 22338,
    "ighter": 7967,
    "antages": 7192,
    "Ġsluggish": 25890,
    "Ġunconnected": 18242,
    "Ġgods": 6454,
    "given": 8376,
    "Ġsurrounded": 5878,
    "Ġensuring": 11191,
    "links": 20957,
    "ips": 2592,
    "Ġglove": 14491,
    "itor": 12563,
    "uous": 4144,
    "neighbouring": 19962,
    "izz": 7614,
    "Ġpointed": 4770,
    "Ġpursuing": 9438,
    "Ġhundreds": 4328,
    "cross": 3574,
    "breath": 15161,
    "Ġdiscovered": 4411,
    "bastian": 10673,
    "Ġpacket": 14892,
    "ev": 6952,
    "therly": 18344,
    "Ġconfess": 3767,
    "square": 15059,
    "Ġhailing": 11691,
    "Ġnervous": 2404,
    "Ġphrenologist": 25607,
    "Ġvales": 21943,
    "Ġdoor": 1741,
    "Ġweaving": 12737,
    "Ġesq": 15107,
    "Ġtimely": 19593,
    "Ġspiritual": 9929,
    "Ġshouting": 10522,
    "Ġlearned": 2024,
    "Ġmodels": 761,
    "Ġdeclare": 6614,
    "Ġconvent": 11667,
    "Ġappe": 1538,
    "solut": 3366,
    "icted": 5936,
    "Ġeligible": 10670,
    "phur": 16150,
    "Ġpartially": 13120,
    "arer": 3966,
    "Ġdisturbance": 15012,
    "Ġallurements": 22004,
    "Ġdorm": 4818,
    "persu": 8027,
    "Ġeloquent": 16109,
    "Ġhelps": 9368,
    "quohog": 21855,
    "threw": 21981,
    "unerative": 21893,
    "hurst": 19878,
    "Ġsauntering": 18327,
    "Ġpeaked": 2296,
    "Ġsurpr": 2551,
    "Ġignorant": 5343,
    "Ġmatrimony": 13633,
    "performed": 18339,
    "Ġhanging": 5447,
    "Ġdeeds": 15756,
    "Ġpersons": 6180,
    "Ġpained": 19166,
    "Ġshades": 9462,
    "Ġmournful": 12334,
    "lesc": 11039,
    "Ġisland": 4048,
    "Ġtypically": 1534,
    "l": 80,
    "Ġpredicted": 2044,
    "hyp": 15365,
    "Ġinno": 1395,
    "Ġaffrighted": 13570,
    "Ġmurmured": 7480,
    "office": 16394,
    "Ġpoliteness": 8273,
    "greek": 25404,
    "journey": 8744,
    "Ġlikes": 9408,
    "crowded": 20189,
    "chief": 4641,
    "Ġdissol": 18551,
    "Ġmagazine": 23097,
    "Ġcurtains": 22962,
    "Ġherbage": 25996,
    "parm": 21013,
    "educ": 10828,
    "Ġveget": 11884,
    "ology": 1597,
    "Ġgestures": 13534,
    "Ġdeliber": 7268,
    "Ġdismast": 12885,
    "kye": 20937,
    "Ġrespects": 7269,
    "Ġanchor": 7368,
    "Ġparched": 11725,
    "eded": 9673,
    "informed": 17736,
    "Ġlightened": 23259,
    "<UNK>": 3,
    "Ġincommod": 25307,
    "discoloured": 23496,
    "Ġvague": 6406,
    "Ġtopsails": 19192,
    "ezes": 9990,
    "Ġ61": 24364,
    "Ġappeal": 16313,
    "Ġdreamt": 23936,
    "disc": 4725,
    "turbaned": 24532,
    "Ġadvantage": 4316,
    "precisely": 6917,
    "Ġsequences": 1753,
    "Ġskill": 6872,
    "Ġsuspense": 9418,
    "eastward": 15128,
    "ispensable": 9096,
    "ignorance": 17161,
    "Ġunfolded": 10638,
    "thus": 5157,
    "Ġcorner": 4369,
    "Ġallegro": 25794,
    "Ġpossibility": 7458,
    "Ġbucket": 8787,
    "Ġcapital": 7979,
    "monograph": 23526,
    "leading": 15559,
    "Ġtamely": 24977,
    "liable": 3817,
    "Ġmixing": 24934,
    "Ġseeming": 8540,
    "Ġdiscours": 18718,
    "surprise": 9529,
    "expression": 10547,
    "Ġsacrilege": 26228,
    "Ġclasped": 17206,
    "mody": 16184,
    "leaning": 10790,
    "Ġunnecessary": 8851,
    "Ġwarning": 9059,
    "ĠĠĠĠĠĠĠĠĠĠĠĠ": 12897,
    "stairs": 5154,
    "istical": 8489,
    "Ġdashed": 6009,
    "Ġent": 902,
    "Ġcronies": 23441,
    "Ġsmoky": 22555,
    "ernal": 4312,
    "irwin": 8468,
    "Ġcomparing": 14264,
    "Ġdescribed": 6606,
    "ols": 2412,
    "==": 946,
    "ix": 1800,
    "twain": 23699,
    "planks": 21957,
    "ioneer": 15629,
    "Ġracket": 22651,
    "Ġteaches": 18797,
    "Ġlonged": 6436,
    "Ġobscured": 15010,
    "Ġmistake": 6203,
    "Ġcouples": 16852,
    "last": 3803,
    "Ġpia": 21461,
    "Ġmar": 1313,
    "urch": 3991,
    "Ġpasses": 2679,
    "Ġmont": 8558,
    "Ġhoisting": 9861,
    "Ġ156": 20169,
    "Ġunostentatious": 22067,
    "Ġveins": 8932,
    "Ġordinary": 6096,
    "beryls": 25309,
    "Ġmarlingspike": 26579,
    "thed": 8826,
    "Ġhatty": 19264,
    "Ġreverse": 16982,
    "Ġlog": 1678,
    "native": 17611,
    "É": 138,
    "Ġke": 1156,
    "Ġluxur": 12339,
    "Ġpaper": 4283,
    "rec": 6003,
    "bib": 17491,
    "Ġtranspired": 16784,
    "Ġfavourably": 16360,
    "Ġforbidden": 17078,
    "Ġnieces": 8432,
    "Ġvexations": 24609,
    "Ġheedfulness": 24522,
    "flame": 16637,
    "caves": 20815,
    "eldest": 22802,
    "Ġabsor": 8504,
    "venth": 9295,
    "bed": 3292,
    "Ġaccosted": 13670,
    "Ġscrape": 14917,
    "Ġkicked": 10581,
    "Ġone": 569,
    "Ġfurled": 22811,
    "objections": 19915,
    "interested": 9505,
    "Ġfruitless": 25605,
    "Ġaustral": 12170,
    "rubbery": 17341,
    "Ġscroll": 14191,
    "Ġrue": 11865,
    "Ġmixed": 6974,
    "Ġdiscol": 12950,
    "Ġdrows": 21433,
    "Ġgenerous": 6273,
    "Ġsixpence": 19316,
    "Ġbitter": 4173,
    "Ġdol": 9664,
    "lac": 17589,
    "Ġinjuries": 11277,
    "inburgh": 15489,
    "Ġforebodings": 17303,
    "repro": 10770,
    "Ġje": 4122,
    "alk": 1154,
    "Ġcabal": 23640,
    "osal": 11757,
    "ily": 1030,
    "Ġtester": 21171,
    "Ġquies": 18464,
    "vanity": 24974,
    "converse": 22474,
    "Ġbled": 17856,
    "Ġminutes": 2999,
    "Ġthy": 2513,
    "Ġ[_": 15460,
    "Ġcolonel": 3408,
    "Ġrevolutions": 23839,
    "Ġtenants": 23546,
    "Ġmalice": 7152,
    "currents": 23842,
    "Ġblu": 2686,
    "Ġexpanded": 14288,
    "drunk": 24659,
    "Ġcranial": 25592,
    "Ġsins": 13835,
    "Ġinserted": 8355,
    "Ġdesiring": 14414,
    "glances": 23851,
    "Ġblemish": 19678,
    "Ġlistless": 16475,
    "Ġmasters": 11574,
    "due": 22407,
    "Ġeaten": 14844,
    "an": 278,
    "Ġane": 9182,
    "shaw": 6864,
    "Ġbidden": 24646,
    "endured": 22224,
    "ersampling": 18210,
    "intellig": 5320,
    "Ġgrease": 26189,
    "Ġsustain": 10016,
    "Ġ221": 25068,
    "par": 1873,
    "Ġharriet": 24572,
    "Ġwe": 388,
    "Ġ2": 2927,
    "Ġwarped": 25035,
    "jacket": 12290,
    "emptied": 23634,
    "alse": 4184,
    "Ġsub": 952,
    "epend": 3316,
    "orses": 6051,
    "Ġsnuffing": 25012,
    "Ġoperated": 14547,
    "lo": 680,
    "Ġpince": 21468,
    "Ġstrife": 18613,
    "catherine": 7127,
    "Ġtall": 4038,
    "grie": 12468,
    "ms": 535,
    "Ġleather": 7603,
    "supposing": 24134,
    "pus": 3415,
    "Ġspectrum": 4472,
    "Ġtattered": 21170,
    "Ġfrosts": 19801,
    "Ġmainten": 16111,
    "rann": 21043,
    "conveyed": 20519,
    "Ġguitar": 16268,
    "Ġglided": 7447,
    "ality": 2512,
    "Ġray": 18643,
    "urred": 8449,
    "ern": 759,
    "Ġinvective": 26181,
    "Ġoctober": 17226,
    "ret": 1475,
    "listener": 24930,
    "Ġedinburgh": 16435,
    "distinct": 13333,
    "Ġdey": 11674,
    "Ġbenefit": 8292,
    "Ġconfederate": 17353,
    "icest": 21561,
    "Ġact": 689,
    "repeating": 20127,
    "guilt": 24066,
    "tru": 10729,
    "Ġembraced": 10005,
    "children": 9056,
    "injured": 15131,
    "rential": 22916,
    "Ġrender": 8304,
    "Ġwaste": 9234,
    "Ġcarpets": 18902,
    "Ġtombed": 25160,
    "Ġformerly": 7493,
    "notwithstanding": 22750,
    "meas": 7434,
    "Ġsank": 5075,
    "Ġfestoon": 20293,
    "Ġner": 1650,
    "Ġcaulking": 20292,
    "Ġdenominated": 15227,
    "Ġabsorbing": 17128,
    "Ġdocile": 19957,
    "Ġunnatural": 7190,
    "conven": 6162,
    "bring": 9105,
    "naturally": 14571,
    "Ġcompasses": 11267,
    "successfully": 14990,
    "Ġnavigation": 9992,
    "Ġsurve": 9873,
    "idy": 21761,
    "decided": 13213,
    "luded": 4227,
    "Ġsaid": 577,
    "Ġassur": 6073,
    "cast": 2926,
    "Ġprotection": 9461,
    "Ġimaginations": 16515,
    "Ġseats": 14087,
    "Ġapoplexy": 25265,
    "Ġburying": 19251,
    "Ġbountiful": 25944,
    "Ġaisle": 21200,
    "Ġpauper": 26179,
    "Ġheedless": 14902,
    "Ġstopping": 2748,
    "Ġrasc": 21974,
    "expectation": 14855,
    "Ġbiting": 17861,
    "Ġaristocratic": 20511,
    "Ġascertaining": 17203,
    "Ġways": 5396,
    "Ġmusket": 12294,
    "industrious": 26239,
    "uteness": 17985,
    "Ġslung": 23166,
    "bweb": 20790,
    "Ġreturned": 2890,
    "Ġsmoothe": 23657,
    "ger": 1106,
    "moderate": 22860,
    "Ġcontinuation": 22914,
    "Ġseer": 21949,
    "Ġscaffold": 18401,
    "Ġhadn": 9718,
    "Ġcommon": 1413,
    "Ġrecol": 4029,
    "Ġcranes": 20381,
    "Ġprediction": 2204,
    "irement": 18357,
    "Ġimpelled": 11780,
    "screen": 22993,
    "Ġdispute": 16053,
    "Ġanywhere": 8516,
    "Ġnetherfield": 3929,
    "Ġgamesome": 17289,
    "pard": 9618,
    "Ġsquare": 2396,
    "horrible": 14600,
    "uction": 15442,
    "likes": 18814,
    "Ġtarpaulin": 26157,
    "agreeable": 5829,
    "Ġostlers": 25276,
    "Ġshocking": 10435,
    "Ġattitude": 8903,
    "Ġporter": 15608,
    "necessary": 5881,
    "isions": 6130,
    "Ġpsal": 15613,
    "Ġsteep": 2888,
    "incing": 15484,
    "attacked": 23119,
    "Ġcoleman": 22584,
    "Ġcaves": 15551,
    "refuge": 24734,
    "chel": 11206,
    "Ġfell": 1978,
    "Ġpunishment": 9955,
    "mingled": 14712,
    "Ġfeathers": 15118,
    "staring": 18020,
    "Ġcig": 6520,
    "metallic": 19879,
    "Ġflame": 7448,
    "blooded": 20021,
    "Ġherd": 7887,
    "Ġprofited": 19190,
    "Ġmouse": 4690,
    "Ġcour": 1770,
    "Ġlook": 880,
    "iquet": 17575,
    "osh": 18388,
    "Ġcommodores": 25374,
    "Ġbarber": 23788,
    "Ġblind": 3717,
    "acle": 4712,
    "nourished": 26398,
    "Ġsiamese": 20481,
    "Ġripe": 13232,
    "Ġdamn": 11158,
    "em": 389,
    "Ġbranded": 14378,
    "Ġdelights": 14596,
    "ater": 3372,
    "wedged": 24338,
    "Ġlad": 2364,
    "rig": 7556,
    "Ġdaft": 19662,
    "fare": 7798,
    "Ġdirect": 1472,
    "Ġsentinel": 26065,
    "Ġguess": 4901,
    "Ġkrempe": 10669,
    "Ġincreas": 1695,
    "irresistible": 18173,
    "Ġcart": 11582,
    "Ġinquiring": 8999,
    "Ġwonderland": 23423,
    "osed": 1961,
    "Ġsprout": 24085,
    "Ġbenchmarks": 15021,
    "Ġcomprising": 16066,
    "Ġsubord": 22786,
    "behind": 6779,
    "oug": 431,
    "combined": 20319,
    "bitt": 17485,
    "Ġlamps": 14789,
    "Ġhalyards": 21491,
    "Ġpantheistic": 26335,
    "Ġregarding": 13208,
    "poss": 4775,
    "Ġ11": 5318,
    "Ġpenny": 16312,
    "Ġsavagely": 26323,
    "Ġkeenly": 9484,
    "mature": 20966,
    "Ġpoured": 8800,
    "affected": 10476,
    "¨": 106,
    "spirits": 8054,
    "Ġdistraction": 22502,
    "yellow": 9624,
    "narrated": 25621,
    "Ġpawn": 12061,
    "Ġimpregn": 26022,
    "Ġcommunicative": 24548,
    "Ġpauses": 14814,
    "Ġparting": 9782,
    "Ġimpatient": 5603,
    "Ġinher": 10179,
    "Ġopposed": 11188,
    "Ġparac": 12792,
    "shine": 9288,
    "start": 7598,
    "ison": 3074,
    "Ġmainz": 22645,
    "Ġspecific": 2003,
    "Ġindulgence": 11319,
    "syntax": 5866,
    "Ġunbroken": 18250,
    "inu": 1116,
    "Ġdancing": 5703,
    "Ġanvil": 11596,
    "agitation": 14066,
    "Ġproof": 6153,
    "animated": 14974,
    "trade": 19635,
    "Ġcascade": 20579,
    "surprised": 9530,
    "sham": 9756,
    "imen": 12683,
    "Ġdum": 10811,
    "Ġmayhap": 18707,
    "Ġroof": 6564,
    "Ġsynd": 22204,
    "aculate": 16080,
    "Ġrode": 15996,
    "going": 6313,
    "Ġphysiognomy": 25610,
    "companion": 9557,
    "hr": 20887,
    "Ġvag": 9707,
    "Ġmeanings": 18607,
    "Ġjaw": 3320,
    "rival": 12739,
    "Ġcombined": 8547,
    "Ġmood": 6276,
    "Ġreconciled": 13585,
    "Ġpropri": 6738,
    "oul": 4695,
    "Ġfires": 16471,
    "Ġxvi": 19104,
    "sufficiently": 14980,
    "Ġbathing": 20198,
    "escript": 18471,
    "Ġrampart": 20317,
    "inity": 5693,
    "itude": 1417,
    "steel": 8297,
    "Ġkentuckian": 26342,
    "Ġrevelations": 25223,
    "dled": 9111,
    "Ġenchant": 7185,
    "Ġincorporate": 20453,
    "partly": 14602,
    "phants": 9320,
    "spades": 14335,
    "Ġcontrad": 9754,
    "ie": 728,
    "jaw": 13741,
    "ency": 3867,
    "Ġkeenest": 12159,
    "Ġbreach": 11972,
    "Ġsun": 1720,
    "Ġinflamed": 13471,
    "crucible": 24842,
    "Ġlaz": 7378,
    "Ġspr": 4024,
    "Ġpounds": 5368,
    "completely": 12418,
    "Ġmoving": 1679,
    "Ġscuttle": 7414,
    "forster": 16155,
    "Ġwillingly": 8884,
    "Ġincognita": 26551,
    "commun": 15033,
    "favourable": 12261,
    "ortion": 11755,
    "Ġspeedily": 7711,
    "Ġcurious": 3363,
    "begone": 12876,
    "Ġwaits": 23277,
    "Ġbag": 5699,
    "lings": 8745,
    "Ġhollows": 19740,
    "Ġarose": 7360,
    "Ġ30": 10511,
    "Ġabusive": 22270,
    "observation": 17269,
    "ertion": 12037,
    "front": 12168,
    "Ġquantity": 6948,
    "Ġstrangely": 5677,
    "accomplishments": 25326,
    "Ġdecap": 16018,
    "Ġsinew": 25431,
    "Ġnameless": 7699,
    "ribes": 23364,
    "Ġregularly": 7657,
    "retch": 4370,
    "Ġsouth": 4910,
    "moil": 22700,
    "Ġcup": 5697,
    "erably": 7573,
    "Ġsummary": 19401,
    "Ġprognostics": 20557,
    "Ġtreacher": 8604,
    "Ġhammock": 5768,
    "Ġentra": 18694,
    "Ġczar": 12571,
    "Ġextinguished": 10339,
    ",âĢĻ": 2328,
    "Ġincrease": 9370,
    "wins": 21128,
    "fall": 5134,
    "Ġpitch": 5767,
    "Ġassent": 12730,
    "Ġchancery": 20715,
    "rowing": 7930,
    "rence": 5555,
    "Ġsickbed": 24246,
    "scy": 21054,
    "Ġreck": 6537,
    "Ġunderground": 18985,
    "Ġtherefore": 2239,
    "sings": 4250,
    "Ġindistinct": 17407,
    "prot": 6899,
    "tahit": 17692,
    "perceive": 12806,
    "Ġcruise": 12047,
    "Ġcourt": 4169,
    "Ġtrapped": 23074,
    "Ġim": 477,
    "bra": 6219,
    "Ġutil": 4669,
    "Ġdictionary": 15111,
    "rimsh": 17027,
    "Ġdurst": 20351,
    "setting": 13283,
    "hemat": 3130,
    "Ġclamped": 18426,
    "Ġmuscle": 14689,
    "ressing": 8918,
    "ingle": 1038,
    "ze": 1303,
    "Ġsigning": 22705,
    "examined": 17266,
    "Ġfainter": 14913,
    "Ġtrusted": 10517,
    "Ġecstasy": 11629,
    "assisted": 22304,
    "vessel": 11377,
    "Ġterm": 2266,
    "Ġblock": 2575,
    "Ġactivations": 2719,
    "Ġconsternation": 9858,
    "Ġtack": 5621,
    "clair": 18932,
    "Ġthus": 2036,
    "Ġpathways": 11153,
    "Ġtoiled": 12639,
    "Ġsu": 430,
    "itch": 10160,
    "Ġconfirmation": 17210,
    "Ġpolitics": 19223,
    "Ġpantaloons": 20295,
    "Ġlust": 9198,
    "Ġshaded": 14104,
    "speckled": 23942,
    "Ġalternately": 15031,
    "Ġcourtesy": 9944,
    "itates": 13867,
    "Ġtidings": 11397,
    "Ġcircumnavigation": 20398,
    "Ġbask": 8116,
    "Ġinitials": 11014,
    "Ġassociated": 12247,
    "phon": 4126,
    "Ġbody": 2437,
    "Ġunquestion": 18248,
    "clothes": 9058,
    "divers": 15341,
    "another": 5439,
    "Ġpul": 2040,
    "Ġprobably": 4314,
    "Ġkeeping": 7283,
    "Ġnortheast": 23199,
    "Ġdyspepsia": 20642,
    "Ġwarrior": 24496,
    "opence": 18501,
    "Ġthreatens": 24375,
    "Ġbelf": 21379,
    "irious": 15783,
    "Ġmo": 629,
    "Ġhumming": 12982,
    "Ġargued": 13627,
    "consp": 18506,
    "Ġcurbstone": 26042,
    "Ġhazarded": 25654,
    "Ġsneeze": 24699,
    "mine": 5618,
    "ury": 3313,
    "omeness": 18015,
    "Ġdenomin": 12065,
    "erringly": 16211,
    "Ġsteed": 13037,
    "Ġbatch": 890,
    "Ġniagara": 26458,
    "signed": 21060,
    "Ġlatin": 16821,
    "vishnoo": 21118,
    "Ġtasks": 1789,
    "Ġlumber": 13950,
    "direful": 25896,
    "Ġmarvel": 23032,
    "Ġthanking": 18602,
    "Ġfangs": 12594,
    "quimaux": 21856,
    "proachable": 23396,
    "man": 1051,
    "desponding": 26341,
    "Ġshun": 11707,
    "Ġfainted": 8791,
    "Ġheedful": 19739,
    "Ġalleged": 17290,
    "Ġexaggerate": 25649,
    "Ġsquall": 7043,
    "Ġwhiskers": 10492,
    "Ġsuspic": 4468,
    "Ġprone": 18969,
    "Ġdiscoverer": 26035,
    "present": 1141,
    "abiding": 21790,
    "pit": 3980,
    "Ġconse": 21801,
    "Ġdelicious": 14791,
    "Ġappearing": 9840,
    "girl": 12316,
    "Ġmadly": 16484,
    "Ġattested": 22623,
    "Ġexh": 5230,
    "Ġamel": 18509,
    "vit": 13799,
    "Ġcreamy": 14332,
    "Ġmember": 8585,
    "Ġscrutin": 26014,
    "lifted": 15385,
    "axed": 8888,
    "Ġwherever": 8523,
    "humored": 19452,
    "ulsive": 10233,
    "Ġmace": 21308,
    "tired": 21071,
    "Ġbitterly": 8314,
    "Ġcannib": 6035,
    "ever": 1074,
    "Ġdiminish": 14744,
    "terms": 15748,
    "ilies": 18056,
    "Ġpour": 13912,
    "onet": 12542,
    "Ġthirst": 7589,
    "natural": 2301,
    "Ġgrain": 15829,
    "Ġj": 533,
    "Ġescaped": 6459,
    "amet": 589,
    "asingly": 17960,
    "ĠĠĠĠĠĠĠĠĠĠĠĠĠĠĠĠĠĠĠĠĠĠĠĠĠĠĠĠĠĠĠĠĠĠĠĠĠĠĠĠĠĠĠĠĠĠĠĠĠĠĠĠĠ": 20038,
    "etymology": 14700,
    "complacency": 19913,
    "\"": 6,
    "coff": 9109,
    "finer": 17546,
    "hunsford": 24386,
    "Ġlent": 21544,
    "Ġclear": 1950,
    "clopÃ¦dia": 15254,
    "shell": 16285,
    "Ġsweetness": 9446,
    "itying": 21991,
    "Ġoar": 6236,
    "plumed": 21958,
    "Ġproprietor": 12371,
    "85": 13679,
    "Ġstirred": 12215,
    "Ġdisciple": 22781,
    "ateness": 15518,
    "Ġcocoan": 20315,
    "Ġconsidering": 4612,
    "Ġwhipping": 21713,
    "Ġtypewritten": 16420,
    "Ġdecorated": 22442,
    "Ġhorrify": 23816,
    "Ġinvoluntarily": 8548,
    "Ġwilliam": 3482,
    "03": 20747,
    "mel": 9128,
    "walks": 19720,
    "Ġfourteen": 12008,
    "Ġeurope": 8061,
    "mastod": 23971,
    "Ġincognit": 22551,
    "Ġgoethe": 22419,
    "Ġtattooed": 11378,
    "Ġhen": 3501,
    "Ġdetailed": 12821,
    "Ġtents": 13816,
    "alt": 12635,
    "Ġbonnet": 10655,
    "leagued": 26435,
    "Ġshifted": 14106,
    "clean": 14759,
    "putation": 7624,
    "recklessly": 25269,
    "continued": 8675,
    "Ġstrat": 16090,
    "Ġblanc": 11065,
    "ibank": 6880,
    "elter": 21568,
    "Ġknowest": 12861,
    "Ġviv": 6156,
    "summoned": 26591,
    "Ġrelation": 2139,
    "Ġclever": 7054,
    "Ġhelplessly": 20076,
    "Ġfath": 7364,
    "Ġability": 2762,
    "Ġarchly": 22774,
    "anc": 6379,
    "Ġtreacherously": 25129,
    "influences": 25250,
    "Ġgrotesque": 26329,
    "occupations": 24964,
    "Ġfountains": 13501,
    "Ġflattened": 26047,
    "Ġwoollen": 12101,
    "dream": 8727,
    "Ġdelirium": 10405,
    "sk": 5521,
    "flitted": 23966,
    "Ġpresence": 5030,
    "Ġrind": 21969,
    "Ġcrying": 10786,
    "quent": 2093,
    "abby": 14019,
    "Ġbeacon": 21753,
    "Ġadmiral": 17304,
    "Ġforbearance": 12326,
    "Ġfidgeted": 25889,
    "Ġdimmed": 24267,
    "ult": 723,
    "Ġdragg": 23214,
    "secut": 7866,
    "Ġencourag": 1393,
    "Ġsuperfluous": 17413,
    "wondrous": 12336,
    "lled": 10107,
    "Ġcourtiers": 24136,
    "Ġintrepidity": 25550,
    "Ġhugest": 17015,
    "Ġme": 351,
    "Ġunob": 22012,
    "Ġobliterated": 17404,
    "Ġsentiments": 7960,
    "Ġstorms": 11262,
    "Ġclearly": 6897,
    "answer": 11730,
    "Ġchamounix": 14863,
    "Ġenduring": 16302,
    "glory": 23850,
    "udding": 11863,
    "ugn": 9378,
    "Ġwarring": 16865,
    "entire": 6824,
    "Ġtranquillize": 24757,
    "Ġinnovative": 1584,
    "Ġannealing": 1552,
    "Ġfarthing": 14454,
    "Ġauthors": 10417,
    "Ġswain": 18879,
    "awing": 18915,
    "emporary": 15793,
    "Ġgravity": 9248,
    "Ġentreating": 24207,
    "Ġalleg": 14015,
    "asant": 17958,
    "Ġsepulchral": 25892,
    "Ġmix": 7576,
    "Ġemerg": 13422,
    "Ġadversary": 12171,
    "Ġterribly": 10425,
    "Ġdeveloped": 16323,
    "ses": 3024,
    "Ġplaymate": 23636,
    "conquerable": 17398,
    "pennies": 26285,
    "mp": 3728,
    "Ġgained": 4532,
    "steaks": 23958,
    "Ġflames": 7939,
    "Ġpens": 21457,
    "ast": 473,
    "Ġmere": 2713,
    "ray": 2438,
    "Ġname": 2082,
    "Ġyounge": 16286,
    "Ġtusks": 17253,
    "speaks": 19718,
    "Ġbedfellows": 23437,
    "Ġimmersed": 19483,
    "Ġimpenit": 22388,
    "artificial": 999,
    "Ġbutler": 18270,
    "Ġscan": 22281,
    "seventh": 12711,
    "ollen": 11298,
    "heavens": 19744,
    "Ġunsounded": 15847,
    "rily": 7621,
    "Ġcedar": 15187,
    "ł": 259,
    "hitherto": 17283,
    "Ġdistance": 3483,
    "Ġsallies": 21228,
    "Ġendeavored": 19301,
    "yielded": 25756,
    "Ġnaught": 8127,
    "Ġexceedingly": 4611,
    "accessible": 13637,
    "Ġoarsmen": 7737,
    "daylight": 19057,
    "Ġages": 7027,
    "sort": 6798,
    "probably": 10019,
    "Ġsmart": 11813,
    "Ġinsurg": 23679,
    "Ġbands": 14883,
    "keepers": 16659,
    "4": 24,
    "enderby": 25215,
    "ilet": 12826,
    "leisure": 21369,
    "Ġawa": 7713,
    "annica": 24561,
    "Ġunresting": 25553,
    "Ġsquaw": 22838,
    "Ġintervals": 5598,
    "ensils": 22545,
    "Ġtrip": 16788,
    "Ġclumsy": 9579,
    "Ġunnaturally": 24870,
    "jac": 8381,
    "drew": 7334,
    "Ġsalt": 8016,
    "Ġtransformers": 1090,
    "Ġpleadings": 25852,
    "coiled": 16485,
    "Ġsucceed": 4542,
    "ky": 4517,
    "killed": 15375,
    "Ġaperture": 26160,
    "eline": 2428,
    "inting": 9813,
    "Ġabst": 9266,
    "Ġdaylight": 10350,
    "Ġdeed": 7867,
    "tum": 11531,
    "Ġmosses": 20162,
    "Ġmiss": 1229,
    "dig": 4928,
    "Ġtested": 23224,
    "Ġvertu": 23888,
    "ulated": 6029,
    "Ġpadd": 9669,
    "Ġwrist": 8242,
    "phys": 18712,
    "Ġhaste": 9003,
    "frozen": 25139,
    "Ġexchanging": 18130,
    "consuming": 25675,
    "Ġbumpkins": 25281,
    "Ġomens": 21326,
    "Ġcast": 3605,
    "ropes": 7902,
    "<MASK>": 4,
    "ble": 542,
    "Ġrevol": 5537,
    "mured": 6960,
    "Ġbanquet": 15239,
    "aped": 3765,
    "mb": 913,
    "Ġpositives": 4317,
    "pardonable": 17217,
    "ptic": 21915,
    "B": 38,
    "Ġincom": 9768,
    "hardly": 6491,
    "Ġvalue": 2084,
    "Ġfigure": 4206,
    "wantonly": 25149,
    "Ġprofits": 16488,
    "Ġtowed": 11265,
    "Ġinclosed": 19537,
    "Ġdawned": 14993,
    "Ġgrassy": 24379,
    "Ġcurios": 18842,
    "acious": 5562,
    "deformity": 22143,
    "hearty": 14833,
    "Ġtract": 21164,
    "Ġgardener": 19134,
    "dee": 11731,
    "Ġcrescentic": 20619,
    "iloquent": 21722,
    "rest": 1636,
    "Ġbar": 3150,
    "ullo": 12726,
    "pointing": 12222,
    "Ġalfred": 21783,
    "Ġinward": 11606,
    "Ġpail": 15604,
    "Ġinvis": 6902,
    "neville": 22462,
    "artic": 14221,
    "Ġworkflow": 2484,
    "Ġholland": 10365,
    "Ġmetallic": 19055,
    "nin": 17608,
    "assemblies": 25956,
    "Ġadvised": 16207,
    "Ġshake": 6033,
    "tol": 17672,
    "Ġmajority": 13290,
    "Ġclattering": 22350,
    "Ġorgans": 15863,
    "Ġarrayed": 25664,
    "Ġcasts": 19424,
    "26": 10072,
    "Ġstaving": 21737,
    "Ġtandem": 26411,
    "Ġglimp": 6065,
    "Ġav": 3581,
    "Ý": 158,
    "terday": 4701,
    "Ġgloomy": 7504,
    "Ă": 195,
    "ĠĠĠĠĠĠĠĠĠĠĠĠĠĠĠĠĠĠĠĠĠĠĠĠĠĠĠĠĠĠĠĠĠĠĠĠĠĠĠĠĠĠ": 24209,
    "Ġgrud": 17995,
    "cong": 10687,
    "Ġdisturb": 7107,
    "Ġexercising": 19906,
    "Ġstat": 1491,
    "Ġwednesday": 9025,
    "Ġhearsed": 25039,
    "/*": 10070,
    "Ġcovariate": 2351,
    "Ġreminisc": 18726,
    "Ġplague": 11822,
    "#": 7,
    "paused": 17373,
    "Ġframed": 19017,
    "times": 8098,
    "Ġtire": 17720,
    "Ġrepugnance": 19086,
    "Ġinevitably": 17230,
    "deprived": 19897,
    "Ġhorse": 4721,
    "Ġconvolutions": 21804,
    "Ġamend": 16032,
    "Ġlovel": 10271,
    "Ġprotectors": 9071,
    "Ġwrig": 13064,
    "Ġgraze": 18226,
    "Ġsy": 490,
    "Ġslave": 7454,
    "dro": 6644,
    "idel": 5299,
    "Ġpreaching": 15924,
    "iced": 3898,
    "uting": 15657,
    "Ġunho": 18245,
    "joke": 20929,
    "Ġmut": 3582,
    "contriv": 19291,
    "Ġerection": 24001,
    "Ġconsecrated": 26488,
    "itives": 17819,
    "Ġvanity": 7045,
    "Ġslouched": 13055,
    "sympathy": 20541,
    "aunt": 8369,
    "Ġimperfectly": 25727,
    "haired": 14765,
    "Ġisles": 8459,
    "ional": 1082,
    "Ġstanding": 2997,
    "Ġfrightful": 7735,
    "Ġxxx": 7766,
    "pilot": 25908,
    "instinct": 19542,
    "reached": 13839,
    "Ġgateway": 24802,
    "Ġinns": 17929,
    "Ġreverend": 15257,
    "Ġlantern": 7116,
    "Ġmulti": 1043,
    "mindful": 19598,
    "Ġelastic": 4361,
    "nx": 17607,
    "Ġprinc": 4198,
    "agings": 18165,
    "Ġgoes": 3851,
    "Ġbolivia": 24667,
    "Ġprices": 15609,
    "Ġguardianship": 17419,
    "Ġsalmon": 24058,
    "Ġsees": 8842,
    "Ġdies": 11592,
    "odecim": 9831,
    "Ġnuptial": 25782,
    "Ġpay": 3961,
    "Ġhorizontally": 17012,
    "clad": 14459,
    "Ġexcepting": 14680,
    "Ġcontempl": 6701,
    "disagreeable": 11163,
    "Ġboundary": 11222,
    "ĉ": 202,
    "Ġambition": 11432,
    "Ġincomp": 12894,
    "casks": 20401,
    "Ġinconven": 7586,
    "allowed": 5728,
    "estab": 14170,
    "po": 1142,
    "ĠâĢĶâĢľ_": 17718,
    "Ġreceiving": 4880,
    "Ġintimately": 24804,
    "Ġvary": 15805,
    "sinking": 17668,
    "know": 2319,
    "arpaul": 14536,
    "Ġsavage": 4008,
    "Ġsuppl": 11078,
    "Ġchild": 2260,
    "Ġmagnanim": 14471,
    "Ġcaused": 5047,
    "romeda": 17262,
    "anque": 13886,
    "duck": 22409,
    "Ġfacetious": 20582,
    "consequ": 18508,
    "adoes": 11659,
    "Ġchr": 3690,
    "Ġsuns": 23271,
    "Ġsom": 1277,
    "----âĢĿ": 13304,
    "Ġtantalizing": 20412,
    "Ġunf": 4089,
    "Ġold": 1055,
    "harpooneers": 8689,
    "Ġconduct": 3734,
    "Ġsolar": 22882,
    "ulatory": 15765,
    "Ġassoc": 6402,
    "Ġexample": 5095,
    "Ġscuffle": 20607,
    "Ġsweeping": 8985,
    "constant": 11324,
    "Ġsimon": 5171,
    "Ġflu": 3280,
    "azing": 7704,
    "Ġincivility": 18572,
    "Ġlawyers": 25248,
    "Ġfergus": 16867,
    "Ġletter": 2197,
    "hing": 981,
    "bearer": 18521,
    "Ġworking": 5575,
    "Ġpantry": 20294,
    "Ġlivers": 18461,
    "wrapped": 15208,
    "Ġhomely": 25219,
    "Ġabstract": 17181,
    "ience": 824,
    "cent": 8072,
    "Ġcollecting": 12284,
    "Ġcorrupt": 11921,
    "Ġen": 392,
    "queer": 10362,
    "Ġattends": 19649,
    "amp": 2606,
    "Ġspots": 11727,
    "Ġderivatives": 2370,
    "emorial": 10241,
    "Ġhammer": 6093,
    "Ġflorida": 20658,
    "Ġgive": 1714,
    "Ġroads": 13286,
    "Ġremembrance": 8317,
    "Ġdespondence": 25869,
    "Ġdescried": 7918,
    "Ġrav": 14305,
    "Ġdishon": 12228,
    "Ġsensitiveness": 23733,
    "nson": 16086,
    "Ġdeuteronomy": 15757,
    "Ġdoc": 7200,
    "otent": 8831,
    "Ġweapons": 10593,
    "gangway": 20666,
    "Ġsorely": 17256,
    "Ġpurp": 2392,
    "Ġprior": 11318,
    "Ġnorton": 12646,
    "Ġrewarded": 14939,
    "Ġireland": 17334,
    "Ġcertainty": 6734,
    "Ġlakes": 8130,
    "interrupted": 11417,
    "no": 887,
    "inkers": 22612,
    "Ġevenings": 18753,
    "among": 6256,
    "Ġincess": 8430,
    "ip": 555,
    "Ġsuperl": 16445,
    "Ġfortifications": 23619,
    "Ġgrey": 4510,
    "Ġnote": 4262,
    "Ġlessen": 14532,
    "Ġpistol": 7846,
    "Ġyawn": 7609,
    "Ġgregarious": 18965,
    "Ġjail": 22291,
    "Ġwomanly": 23550,
    "Ġhunter": 5401,
    "german": 11491,
    "Ġrepeating": 11213,
    "Ġaggregate": 25677,
    "examination": 25478,
    "Ġtorch": 25030,
    "Ġadvertised": 17247,
    "feet": 6568,
    "colnett": 19329,
    "Ġeighteenth": 14753,
    "Ġchildhood": 13136,
    "Ġpirates": 9074,
    "attend": 11102,
    "Ġlottery": 19887,
    "scent": 13017,
    "oning": 7572,
    "fters": 20860,
    "afforded": 25865,
    "Ġassociation": 24711,
    "penet": 11070,
    "Ġapologizing": 25197,
    "Ġdrag": 6184,
    "âĢĶâĢĿ": 3302,
    "Ġcomplimented": 14903,
    "ologist": 22875,
    "Ġcompanion": 3643,
    "poise": 6171,
    "Ġfrenchman": 11283,
    "Ġpsychology": 11448,
    "heavily": 24534,
    "Ġrep": 1938,
    "miles": 10712,
    "Ġindians": 14408,
    "\\": 64,
    "Ġbelieves": 14406,
    "Ġsolve": 4195,
    "america": 17097,
    "effectually": 25128,
    "Ġrush": 5924,
    "nowhere": 18418,
    "Ġdiscerned": 25003,
    "Ġpowder": 11275,
    "ving": 594,
    "Ġdrawers": 12103,
    "Ġvibrated": 25045,
    "Ġveil": 7933,
    "Ġgives": 5017,
    "Ġgates": 10200,
    "Ġtrap": 7671,
    "Ġrustic": 14964,
    "Ġconciliating": 19048,
    "ú": 187,
    "roses": 17956,
    "Ġasleep": 6836,
    "Ġ94": 17717,
    "access": 11180,
    "Ġgrandeur": 8627,
    "Ġabstained": 25231,
    "âĢľ_": 5720,
    "employ": 10895,
    "Ġfoolish": 5979,
    "leagues": 21371,
    "Ġexclaim": 11221,
    "Ġrepetition": 8972,
    "Ġremarked": 3697,
    "hill": 15361,
    "illes": 12691,
    "Ġhangs": 11605,
    "Ġincarn": 11812,
    "Ġodious": 12148,
    "rees": 5436,
    "Ġforts": 21769,
    "riages": 10243,
    "ii": 4014,
    "Ġengraving": 17080,
    "Ġreeling": 18032,
    "ages": 829,
    "Ġcarriage": 3948,
    "Ġpaddock": 25037,
    "Ġdarkness": 4277,
    "ffy": 18316,
    "Ġcollins": 2182,
    "Ġinqu": 2963,
    "Ġhipp": 21489,
    "Ġrecital": 16144,
    "ands": 21863,
    "Ġextravagant": 17278,
    "Ġfootsteps": 16572,
    "Ġprim": 8243,
    "ousness": 10274,
    "Ġbounds": 9917,
    "Ġfidget": 15188,
    "Ġdong": 17887,
    "germ": 15355,
    "Ġmorose": 18849,
    "Ġmeagre": 21807,
    "Ġcongen": 10873,
    "Ġundoubted": 19513,
    "iments": 4944,
    "Ġpoet": 8207,
    "Ġperhaps": 1914,
    "beginning": 13559,
    "Ġtransparent": 9488,
    "Ġtickets": 17094,
    "Ġobserved": 3540,
    "Ġhoarse": 14526,
    "Ġbounded": 16626,
    "Ġbat": 10795,
    "Ġwaves": 3916,
    "Ġenviron": 4071,
    "xt": 2080,
    "Ġhail": 7400,
    "olen": 9699,
    "Ġgraphs": 25463,
    "Ġexaggerated": 25650,
    "airs": 2222,
    "Ġmake": 1285,
    "Ġ19": 6719,
    "able": 451,
    "Ġpalace": 16690,
    "Ġ81": 24457,
    "offered": 14518,
    "carpenter": 11427,
    "Ġchink": 15930,
    "Ġhelen": 16655,
    "thine": 15822,
    "Ġdetain": 14174,
    "angles": 18295,
    "Ġirish": 14534,
    "Ġimagination": 5759,
    "eliest": 14745,
    "arned": 21814,
    "Ġwilds": 16508,
    "https": 11682,
    "income": 15485,
    "Ġmarriage": 3190,
    "coat": 5407,
    "duchess": 18463,
    "Ġsituated": 9447,
    "Ġoce": 3027,
    "Ġdangerous": 6613,
    "Ġcaterpillar": 5864,
    "whaler": 20308,
    "Ġspell": 8855,
    "Ġemb": 1247,
    "Ġblindly": 12107,
    "vast": 10736,
    "ace": 716,
    "asp": 3341,
    "plete": 10919,
    "Ġrelev": 1716,
    "foundation": 16714,
    "Ġperpendicular": 7209,
    "fitzwilliam": 11352,
    "Ġvoids": 25807,
    "Ġ129": 24474,
    "Ġhabit": 6771,
    "bab": 11468,
    "Ġimpud": 18445,
    "Ġcongealed": 25981,
    "Ġhopeful": 19031,
    "Ġcandidate": 16701,
    "Ġequally": 5257,
    "suspected": 12370,
    "sworn": 24256,
    "Ġobserv": 8586,
    "pole": 9333,
    "cd": 15322,
    "urity": 8142,
    "Ġsaith": 14155,
    "Ġsyntax": 959,
    "Ġbeware": 8827,
    "Ġlearnt": 7611,
    "Ġclearing": 8239,
    "Ġsultry": 20287,
    "Ġreflect": 6574,
    "ogra": 4570,
    "Ġsashes": 21224,
    "Ġobligation": 13241,
    "ans": 458,
    "Ġcomfort": 3440,
    "Ġwat": 1287,
    "Ġverge": 23885,
    "Ġgoney": 14545,
    "Ġoppression": 23649,
    "irksome": 18172,
    "Ġcomputer": 1222,
    "laid": 10109,
    "Ġconfiding": 19037,
    "Ġdir": 21419,
    "Ġprovinc": 16742,
    ").": 1271,
    "Ġbolted": 12242,
    "Ġsocially": 22084,
    "Ġaglow": 22511,
    "opÃ¦": 12867,
    "Ġpred": 664,
    "Ġpau": 17906,
    "Ġblunder": 18818,
    "Ġunexplored": 26518,
    "Ġstating": 15722,
    "Ġgrating": 14359,
    "rolling": 9061,
    "acy": 3952,
    "Ġconjure": 17123,
    "irations": 18170,
    "arms": 10173,
    "Ġwollstonecraft": 26425,
    "Ġincorporated": 25711,
    "opposite": 19928,
    "awk": 23112,
    "wol": 21121,
    "Ġbrief": 6976,
    "Ġmaid": 5285,
    "Ġdisappears": 18560,
    "empl": 5724,
    "live": 7550,
    "Ġcumulative": 4210,
    "Ġache": 18663,
    "owder": 8448,
    "Ġshr": 4225,
    "cavity": 26126,
    "Ġcolumn": 9328,
    "Ġidler": 16404,
    "pips": 21019,
    "Ġinterruptions": 24186,
    "Ġmerciless": 25246,
    "Ġabandon": 12255,
    "superstitiousness": 25508,
    "te": 995,
    "Ġraven": 16113,
    "Ġcure": 21338,
    "Ġdoubloon": 6945,
    "illed": 2625,
    "icult": 3342,
    "intern": 23734,
    "Ġsupper": 4662,
    "Ġoblig": 3446,
    "ela": 21566,
    "Ġunbelief": 22046,
    "Ġlongitude": 11011,
    "itical": 5801,
    "consist": 14815,
    "Ġextract": 1450,
    "Ġpresentiment": 18989,
    "Ġeavesdroppers": 25963,
    "elves": 2159,
    "Ġfries": 21413,
    "Ġxxv": 19716,
    "harbor": 13562,
    "enge": 21279,
    "Ġcontour": 18474,
    "Ġcleaned": 23180,
    "Ġnatur": 17333,
    "stretching": 20497,
    "Ġsoles": 22082,
    "Ġdejection": 15195,
    "judgment": 16753,
    "Ġincl": 4270,
    "grinder": 23413,
    "appre": 14369,
    "Ġsubset": 9869,
    "Ġsmokes": 22556,
    "Ġbiographical": 22760,
    "baboon": 25516,
    "tes": 11528,
    "Ġark": 10276,
    "reward": 15508,
    "Ġreality": 7058,
    "spond": 5567,
    "Ġcongregated": 20095,
    "Ġbedrooms": 19968,
    "Ġamply": 22479,
    "vul": 15447,
    "Ġbl": 1190,
    "signs": 16538,
    "Ġfaint": 5811,
    "Ġcrucial": 9892,
    "Ġcultiv": 13554,
    "Ġdisregarded": 22527,
    "Ġaside": 5233,
    "Ġstig": 14001,
    "glings": 23849,
    "Ġphrase": 11187,
    "tormented": 13643,
    "Ġspent": 3962,
    "Ġbount": 15565,
    "Ġconversations": 9425,
    "Ġequinoctial": 20531,
    "Ġcrowned": 16841,
    "secondly": 16984,
    "amusement": 15280,
    "Ġexploitation": 2348,
    "zening": 21147,
    "Ġlosing": 10916,
    "Ġrobots": 11083,
    "at": 268,
    "Ġinstituted": 18701,
    "Ġhawsers": 26502,
    "Ġuseless": 7037,
    "Ġparent": 14645,
    "wit": 7817,
    "Ġnorthumbria": 24171,
    "Ġmanipulated": 25178,
    "Ġchann": 15933,
    "Ġturbul": 23611,
    "Ġstrongest": 11135,
    "appin": 18757,
    "Ġencouraging": 2263,
    "Ġpersever": 10002,
    "emotion": 21925,
    "Ġfurther": 1054,
    "====": 1482,
    "Ġcordial": 16835,
    "Ġsublimity": 26345,
    "Ġmeas": 1099,
    "form": 494,
    "erval": 4019,
    "Ġsnarl": 25715,
    "offensive": 16396,
    "Ġhealthy": 10851,
    "consol": 9761,
    "Ġprobability": 1128,
    "Ġparmacetti": 20603,
    "brimming": 23576,
    "Ġshrugged": 12766,
    "staff": 21653,
    "Ġpup": 12616,
    "thanked": 24331,
    "Ġhind": 9189,
    "iftings": 23226,
    "historical": 20464,
    "offic": 7466,
    "Ġcrept": 11022,
    "banked": 25337,
    "Ġcommunion": 19008,
    "Ġbeau": 9225,
    "queness": 18147,
    "operations": 19973,
    "spikes": 10341,
    "izes": 885,
    "Ġcondition": 6764,
    "ĠâĢľâĢĺ_": 25111,
    "oth": 1185,
    "\"],": 26120,
    "interview": 19297,
    "Ġacquiescence": 20329,
    "lay": 5890,
    "frock": 20119,
    "icuous": 10835,
    "Ġdri": 2363,
    "Ġvital": 9243,
    "Ā": 193,
    "spin": 22730,
    "Ġdigress": 24648,
    "ceased": 21623,
    "urons": 3132,
    "âĢĶâĢľ_": 13200,
    "Ġlaying": 7907,
    "Ġguests": 12285,
    "Ġstrip": 9421,
    "ria": 15795,
    "cordiality": 25137,
    "cet": 15324,
    "Ġsm": 704,
    "Ġevolve": 3000,
    "Ġhold": 2243,
    "turned": 7306,
    "Ġgames": 11625,
    "sies": 21053,
    "Ġepis": 19980,
    "Ġleaders": 16627,
    "Ġmund": 21317,
    "Ġcuba": 25095,
    "Ġsplinters": 15101,
    "Ġvow": 10246,
    "obed": 14445,
    "Ġsangu": 15503,
    "Ġwound": 4525,
    "asked": 8911,
    "nantucketer": 24972,
    "Ġper": 588,
    "Ġsweetly": 23916,
    "bted": 7793,
    "Ġdeer": 12717,
    "rivial": 9434,
    "barbar": 20237,
    "create": 24158,
    "Ġsnatches": 16543,
    "Ġhereford": 22874,
    "alous": 7372,
    "Ġadroop": 26001,
    "pleas": 3850,
    "Ġhelmsman": 10504,
    "Ġoutstanding": 22313,
    "icha": 11736,
    "hint": 12473,
    "agos": 21901,
    "Ġrib": 4935,
    "Ġmocking": 24003,
    "weep": 22681,
    "Ġhardware": 4902,
    "otence": 14021,
    "Ġstages": 14003,
    "Ġsort": 1508,
    "Ġcomputational": 1630,
    "atively": 2695,
    "Ġretire": 10381,
    "adie": 18088,
    "Ġannihil": 10174,
    "Ġincreased": 2212,
    "Ġinfidel": 13086,
    "inquire": 16932,
    "Ġheaved": 9384,
    "Ġdelayed": 9517,
    "Ġrestless": 10413,
    "Ġperry": 22393,
    "Ġdisposed": 7083,
    "ament": 2440,
    "flames": 14711,
    "Ġadvers": 4885,
    "Ġdz": 4753,
    "Ġlinguistic": 12423,
    "Ġeating": 8135,
    "Ġmundane": 26429,
    "acher": 6868,
    "Ġgenealogies": 25961,
    "Ġannum": 24203,
    "Ġpleas": 1909,
    "Ġenormity": 19694,
    "Ġwith": 348,
    "Ġstrang": 4161,
    "Ġparm": 15875,
    "Ġsearched": 15814,
    "rushing": 10017,
    "iod": 3838,
    "Ġsunlight": 13082,
    "Ġjoint": 12032,
    "Ġimpute": 18333,
    "Ġschoolmasters": 19719,
    "Ġlong": 796,
    "Ġfolded": 7767,
    "Ġadm": 2401,
    "Ġchowder": 10280,
    "Ġticklish": 25034,
    "iveness": 2468,
    "moor": 22699,
    "Ġsunrise": 9373,
    "Ġandromeda": 21505,
    "Ġpersuade": 5872,
    "ven": 781,
    "Ġlinn": 13951,
    "^": 66,
    "Ġdesert": 6727,
    "noise": 14330,
    "Ġlustrous": 20155,
    "ache": 8518,
    "Ġtranscend": 25667,
    "sharp": 10306,
    "Ġconvivial": 16547,
    "Ġtalent": 12295,
    "Ġlecture": 13565,
    "ired": 1444,
    "Ġdot": 4817,
    "Ġprofusion": 23567,
    "tling": 9143,
    "everywhere": 23696,
    "orted": 4600,
    "Ġincumbent": 16060,
    "Ġrevolving": 9982,
    "Ġinterment": 22571,
    "Ġgryphon": 4300,
    "blunder": 24129,
    "entering": 17976,
    "Ġmic": 17797,
    "Ġwhisky": 23931,
    "Ġboarding": 12084,
    "Ġweaver": 11686,
    "approb": 11042,
    "Á": 130,
    "Ġthose": 1173,
    "lashed": 20953,
    "Ġfinish": 7948,
    "oud": 1942,
    "Ġeyebrows": 23514,
    "Ġlarger": 1403,
    "Ġinstrument": 7118,
    "Ġfobbing": 26441,
    "Ġfoul": 7159,
    "Ġsuperior": 2752,
    "variety": 23183,
    "Ġepidemic": 20694,
    "conscientious": 19625,
    "Ġcrimin": 6901,
    "Ġindomitableness": 26571,
    "Ġgreat": 896,
    "Ġours": 4609,
    "Ġinquest": 16546,
    "actions": 8906,
    "prow": 15410,
    "Ġbouton": 17868,
    "Ġgeor": 3389,
    "plac": 15818,
    "tubs": 15129,
    "Ġspeak": 2230,
    "Ġrefres": 14339,
    "Ġswimming": 5507,
    "Ġsoftness": 18917,
    "Ġaffecting": 2324,
    "Ġimprudence": 10297,
    "quadr": 15761,
    "Ġprimitive": 25061,
    "pursued": 17281,
    "(": 12,
    "dancing": 12452,
    "Ġbra": 3258,
    "Ġprodu": 1203,
    "Ġconveniences": 19811,
    "atches": 13844,
    "Ġlethar": 21728,
    "sciss": 18857,
    "Ġwashes": 21858,
    "unable": 14057,
    "Ġramble": 9313,
    "Ġhy": 5625,
    "Ġdeliberate": 15022,
    "Ġyoung": 1507,
    "Ġlomb": 21556,
    "Ġcost": 2506,
    "Ġgospel": 18000,
    "ª": 108,
    "Ġprosperity": 20257,
    "tray": 21076,
    "intosh": 22937,
    "Ġintolerable": 8481,
    "Ġsatisfy": 6912,
    "ackinaw": 22422,
    "Ġfloated": 7288,
    "such": 3084,
    "Ġpettiness": 24229,
    "rospect": 11611,
    "turkish": 24533,
    "Ġflank": 8228,
    "column": 19328,
    "Ġjacob": 1902,
    "relig": 15511,
    "avern": 24792,
    "Ġdevoting": 22713,
    "burn": 8370,
    "Ġwatchman": 23667,
    "fort": 1751,
    "Ġislanders": 19500,
    "idirection": 2411,
    "Ġexpeditions": 24954,
    "thouse": 21979,
    "Ġut": 2278,
    "Ġfolio": 11916,
    "Ġstrainings": 24627,
    "ese": 4442,
    "Ġactor": 16046,
    "Ġirreducible": 5519,
    "Ġmag": 1428,
    "athed": 7828,
    "ighted": 8475,
    "Ġperforms": 11875,
    "etah": 12658,
    "shabbily": 26246,
    "umpled": 15874,
    ":âĢĶâĢĺ": 24193,
    "trick": 19411,
    "Ġpregnant": 26535,
    "eting": 7169,
    "Ġlab": 1874,
    "Ġpretext": 22226,
    "Ġfreemason": 23209,
    "Ġhat": 2771,
    "dorff": 15236,
    "isis": 12576,
    "Ġpresents": 8244,
    "Ġinsignificant": 20455,
    "ouncing": 8494,
    "Ġswaying": 15046,
    "Ġnoiseless": 10357,
    "hope": 5989,
    "Ġskirt": 18729,
    "plendent": 21961,
    "Ġpainful": 6462,
    "individual": 18436,
    "Ġjackets": 19601,
    "riety": 12740,
    "Ġconcerning": 4068,
    "deserted": 18960,
    "ipagos": 22362,
    "Ġfoss": 9850,
    "forgetting": 25485,
    "ancho": 4937,
    "Ġgnarled": 25165,
    "Ġbrightest": 13222,
    "Ġinformation": 1046,
    "welt": 12518,
    "erness": 6434,
    "accuracy": 9878,
    "anche": 10788,
    "problem": 25244,
    "Ġappear": 2486,
    "Ġsmoke": 4711,
    "Ġulster": 14997,
    "Ġclad": 12837,
    "Ġgap": 21596,
    "Ġcomprehens": 8319,
    "Ġharpooned": 13259,
    "explanations": 25234,
    "ript": 4152,
    "Ġgrind": 18736,
    "Ġpalpit": 16691,
    "Ġ133": 24783,
    "Ġquart": 11785,
    "ruin": 22183,
    "settle": 16661,
    "splinter": 25210,
    "Ġcoopers": 20520,
    "collect": 16563,
    "Ġtransplanted": 22438,
    "gement": 13726,
    "Ġcaution": 11346,
    "etition": 7382,
    "footed": 19688,
    "Ġgleam": 12306,
    "Ġflew": 5588,
    "Ġtorrid": 25032,
    "Ġconclusion": 5985,
    "caught": 8726,
    "Ġcargo": 16288,
    "Ġautoregressive": 3432,
    "Ġgravely": 7882,
    "Ġgroan": 13322,
    "Ġdoze": 14176,
    "chest": 11207,
    "rict": 8092,
    "Ġaddress": 2270,
    "Ġpresum": 4834,
    "Ġcoroner": 7510,
    "Ġamaz": 5385,
    "back": 2017,
    "Ġvagabond": 20202,
    "Ġwarehouse": 20415,
    "hook": 12051,
    "Ġpressed": 6041,
    "suspicious": 25390,
    "deceiving": 22141,
    "Ġnursery": 19749,
    "Ġnook": 15926,
    "including": 23589,
    "fishery": 10031,
    "Ġeffect": 967,
    "Ġgouge": 26188,
    "Ġseaman": 8638,
    "Ġforms": 6397,
    "Ġsuffer": 4718,
    "irr": 12734,
    "rah": 8136,
    "murdered": 12200,
    "Ġverbal": 19377,
    "Ġunderstand": 831,
    "Ġnois": 4266,
    "hug": 17563,
    "Ġsource": 6805,
    "Ġreigned": 13985,
    "Ġsiber": 17755,
    "Ġmeditate": 16682,
    "itics": 13870,
    "Ġ103": 24411,
    "Ġshiver": 12764,
    "Ġpublished": 11242,
    "mutually": 26136,
    "Ġremove": 7499,
    "Ġbrotherhood": 23669,
    "Ġcheever": 23282,
    "Ġspite": 4155,
    "Ġmuzzle": 21319,
    "Ġinfamous": 16363,
    "Ġdictating": 20151,
    "Ġlikeness": 11179,
    "Ġdistantly": 18531,
    "Ġsimil": 2532,
    "fireside": 24692,
    "Ġsuddenness": 23380,
    "Ġbur": 2697,
    "rals": 21041,
    "Ġheartily": 6890,
    "Ġdaintiest": 25953,
    "Ġdivulged": 16648,
    "ought": 832,
    "cupboards": 25401,
    "Ġcrotch": 9962,
    "Ġroot": 2650,
    "Ġsnoo": 21227,
    "Ġhos": 4941,
    "###": 3826,
    "Ġmostly": 7663,
    "wond": 8767,
    "Ġjoll": 11763,
    "anoke": 21359,
    "total": 17250,
    "others": 7669,
    "Ġtail": 3091,
    "accomp": 10455,
    "ô": 181,
    "ner": 1374,
    "Ġtraditions": 11443,
    "overs": 17621,
    "Ġsingular": 4422,
    "Ġstartling": 14670,
    "Ġrumpled": 24600,
    "Ġra": 817,
    "thur": 7188,
    "Ġendangered": 16303,
    "Ġleaking": 21727,
    "define": 1526,
    "Ġsocks": 14134,
    "repugnance": 16864,
    "Ġcolt": 11044,
    "Ġhawk": 15172,
    "Ġcents": 17828,
    "Ġboneless": 19604,
    "Ġassumed": 9465,
    "dreadful": 11421,
    "instrument": 15237,
    "mical": 9129,
    "Ġphilosophical": 26334,
    "gard": 7339,
    "melted": 25206,
    "³": 116,
    "Ġattempted": 8000,
    "Ġordin": 16650,
    "unk": 4536,
    "full": 7420,
    "Ġscoresby": 10462,
    "Ġtatters": 21176,
    "rings": 10722,
    "ooping": 21006,
    "Ġdeject": 10880,
    "Ġangle": 8602,
    "Ġdyspeps": 16504,
    "passed": 8025,
    "Ġlamentations": 17076,
    "Ġprey": 6415,
    "Ġguns": 16776,
    "Ġfairer": 20460,
    "contrad": 19290,
    "Ġproper": 1380,
    "obscure": 23095,
    "lp": 898,
    "Ġproceed": 3244,
    "eleg": 20848,
    "Ġretirement": 25378,
    "rarely": 21631,
    "Ġpublisher": 24062,
    "Ġwaking": 11569,
    "pleasant": 5874,
    "lit": 9605,
    "clifford": 23155,
    "Ġinhuman": 13927,
    "Ġline": 1850,
    "Ġ66": 24369,
    "Ġmak": 10778,
    "Ġobli": 9316,
    "ines": 663,
    "compl": 6873,
    "insurance": 18888,
    "Ġvainly": 9923,
    "Ġsaleve": 17390,
    "Ġwarb": 17787,
    "Ġgrapnels": 25551,
    "Ġcos": 2209,
    "Ġembellish": 25847,
    "_).âĢĶ": 8681,
    "Ġgpus": 3733,
    "Ġdissect": 16050,
    "Ġscience": 1629,
    "Ġbiases": 2397,
    "mblings": 19779,
    "Ġscre": 9736,
    "Ġchas": 18379,
    "Ġfluctu": 5267,
    "Ġdaw": 21427,
    "Ġconj": 8460,
    "uzza": 11270,
    "ely": 620,
    "Ġknight": 9726,
    "embarrassed": 20595,
    "Ġscept": 15502,
    "ordered": 8789,
    "Ġmaintains": 2144,
    "İ": 241,
    "Ġcontrivances": 12356,
    "Ġcards": 7580,
    "fowl": 17549,
    "short": 6566,
    "ilated": 18057,
    "Ġimitate": 14157,
    "substance": 15230,
    "murderers": 25728,
    "Ġbillows": 7502,
    "Ġlullaby": 20586,
    "reasoning": 9475,
    "Ġexter": 7397,
    "Ġerrors": 2597,
    "Ġforwards": 12700,
    "Ġinanimate": 13931,
    "âĢĺ": 942,
    "Ġ125": 24470,
    "onel": 3092,
    "Ġoysters": 20577,
    "Ġfooting": 14482,
    "varying": 13802,
    "ď": 208,
    "Ġsurvey": 13591,
    "94": 4800,
    "ä": 165,
    "Ġproc": 5545,
    "Ġundecided": 22045,
    "Ġcitadel": 25438,
    "perse": 15891,
    "Ġbishop": 13900,
    "Ġgarden": 3825,
    "gin": 4929,
    "Ġprofund": 13151,
    "Ġgaiters": 20459,
    "yard": 5899,
    "thinking": 9013,
    "swiss": 24255,
    "Ġawoke": 7286,
    "Ġunimag": 12772,
    "Ġinjunctions": 24269,
    "Ġparcel": 15198,
    "Ġref": 904,
    "expressing": 16801,
    "Ġbrill": 8549,
    "globe": 25142,
    "Ġchimneys": 16972,
    "Ġacquaintances": 17349,
    "Ġluck": 4878,
    "Ġdry": 5624,
    "Ġformer": 3324,
    "Ġsleepy": 8267,
    "Ġlurid": 19680,
    "myself": 5112,
    "Ġpedest": 14995,
    "norm": 20984,
    "Ġadvice": 4899,
    "Ġimproved": 7656,
    "fiercely": 25256,
    "Ġcarrying": 6071,
    "Ġincurable": 22549,
    "Ġinve": 17928,
    "shooting": 16965,
    "achalot": 15859,
    "okers": 18441,
    "Ġdepicting": 22605,
    "Ġloaded": 8490,
    "Ġpatted": 16378,
    "Ġital": 10866,
    "Ġexpost": 18623,
    "rebell": 17763,
    "forgive": 18719,
    "Ġtuck": 10140,
    "clergyman": 20728,
    "Ġferry": 24498,
    "tons": 7559,
    "persons": 24174,
    "Ġjamming": 17264,
    "Ġgard": 2190,
    "Ġmerited": 23729,
    "Ġapr": 12529,
    "Ġdearest": 5457,
    "display": 19154,
    "Ġrenders": 13281,
    "Ġshuddered": 11300,
    "Ġhieroglyphics": 17302,
    "dition": 15339,
    "Ġcreep": 22724,
    "games": 20879,
    "Ġrehears": 15697,
    "Ġsacr": 7194,
    "aching": 5831,
    "Ġformal": 2941,
    "Ġthunders": 15635,
    "Ġtravelling": 11307,
    "Ġexclam": 6757,
    "Ġponderous": 8354,
    "Ġfatigued": 13463,
    "ction": 496,
    "Ġtak": 15469,
    "acks": 11786,
    "street": 6495,
    "Ġbuckskin": 19950,
    "modern": 1162,
    "Ġescort": 23503,
    "Ġschemes": 11131,
    "isters": 11917,
    "Ġplain": 2817,
    "iven": 1237,
    "valued": 2853,
    "money": 8749,
    "Ġchivalry": 25819,
    "Ġsurveying": 25325,
    "separation": 25226,
    "Ġtri": 4810,
    "Ġpartners": 11851,
    "Ġ20": 8613,
    "correct": 24483,
    "Ġdescribes": 3123,
    "Ġwindibank": 7257,
    "Ġtemporarily": 11167,
    "oft": 3590,
    "Ġrecollection": 6620,
    "data": 2198,
    "Ġmurmuring": 23578,
    "Ġmatrices": 4968,
    "arming": 8951,
    "beings": 12874,
    "Ġexpressed": 4465,
    "Ġdeser": 3885,
    "Ġbind": 12579,
    "longer": 8612,
    "Ġmediocr": 24081,
    "cabin": 8362,
    "Ġtorm": 5434,
    "Ġbanished": 10616,
    "obliv": 23094,
    "rigible": 24931,
    "Ġvices": 14082,
    "Ġriotous": 20543,
    "Ġ87": 19709,
    "Ġinv": 2225,
    "Ġgait": 13328,
    "Ġdecay": 1013,
    "Ġdispelling": 23878,
    "Ġabominable": 12320,
    "apothe": 22332,
    "hob": 20899,
    "honest": 17003,
    "narwhale": 17317,
    "hes": 1399,
    "ounix": 14163,
    "Ġdodging": 19886,
    "Ġstop": 2502,
    "ai": 2526,
    "tain": 558,
    "Ġbestow": 6455,
    "Ġunimaginable": 15245,
    "Ġeleg": 6192,
    "Ġegyptian": 13584,
    "Ġdesponding": 25868,
    "perquis": 22178,
    "G": 43,
    "Ġpainting": 13139,
    "rigged": 17062,
    "Ġpart": 860,
    "Ġcommended": 18656,
    "Ġcoils": 9303,
    "Ġcities": 17827,
    "alling": 6036,
    "Ġpicking": 11259,
    "Ġshoots": 14567,
    "anders": 18152,
    "surface": 10530,
    "omy": 6248,
    "Ġnearer": 5301,
    "Ġwhitish": 24866,
    "Ġabsurd": 7202,
    "bald": 16446,
    "Ġpastures": 23418,
    "Ġmanner": 2196,
    "Ġacquirement": 19254,
    "culiar": 2821,
    "iment": 2816,
    "haul": 14764,
    "Ġcompress": 21846,
    "Ġbir": 17853,
    "ivened": 22967,
    "Ġowns": 22821,
    "culiarity": 11142,
    "Ġretired": 6070,
    "gorge": 22329,
    "Ġmelting": 24288,
    "Ġfists": 15580,
    "Ġwinc": 9642,
    "gan": 2199,
    "Ġimm": 3963,
    "Ġoaks": 16933,
    "philosophy": 13578,
    "contain": 18504,
    "quarters": 24946,
    "Ġbedroom": 7277,
    "Ġsafie": 6617,
    "Ġguinea": 8947,
    "Ġal": 342,
    "bing": 7791,
    "spirit": 11313,
    "Ġexquisite": 12379,
    "Ġservox": 23868,
    "Ġtu": 6968,
    "generous": 16568,
    "blow": 9104,
    "Ġpairs": 4181,
    "Ġexcl": 3474,
    "kings": 17583,
    "pherd": 13642,
    "Ġwaxed": 21296,
    "Ġspies": 22125,
    "Ġevil": 3806,
    "Ġyou": 366,
    "oh": 1579,
    "adders": 24400,
    "tro": 15432,
    "mistakable": 20652,
    "Ġhis": 380,
    "Ġaloft": 4303,
    "presently": 9808,
    "ane": 1178,
    "Ġresults": 7308,
    "Ġpoul": 15610,
    "Ġwolfish": 25935,
    "Ġuniversal": 2234,
    "Ġsteer": 10386,
    "ying": 1368,
    "Ġknowledge": 1446,
    "grow": 10098,
    "Ġmadman": 13149,
    "Ġgurg": 15670,
    "Ġcontrary": 5260,
    "stars": 18019,
    "through": 4023,
    "!": 5,
    "conclusive": 25674,
    "voy": 7143,
    "supplement": 14795,
    "Ġnuptials": 20492,
    "Ġbrightness": 16576,
    "Ġhammers": 13238,
    "Ġimmemorially": 25383,
    "Ġvincent": 15282,
    "counterpart": 26359,
    "Ġjewel": 9941,
    "Ġproperties": 3120,
    "cords": 25136,
    "mortals": 25409,
    "Ġunrolled": 22035,
    "Ġclosing": 11770,
    "heim": 17746,
    "Ġbubbles": 11398,
    "Ġeternities": 19941,
    "Ġdynamically": 4205,
    "terrible": 8465,
    "Ġawful": 6199,
    "Ġridiculous": 10628,
    "Ġdarkly": 19114,
    "Ġpassionately": 16764,
    "valley": 16213,
    "Ġoccurrences": 11050,
    "Ġreview": 18030,
    "sounding": 24796,
    "Ġdr": 2825,
    "Ġhighness": 22768,
    "thanking": 24330,
    "Ġlater": 6016,
    "mighty": 9466,
    "perai": 10275,
    "Ġtelegra": 11888,
    "without": 4843,
    "Ġappointed": 20101,
    "sand": 21051,
    "Ġfatality": 12092,
    "izar": 14048,
    "asse": 15642,
    "Ġmincing": 18750,
    "Ġiroqu": 21621,
    "1775": 26378,
    "Ġpile": 8423,
    "Ġunit": 1847,
    "Ġapproximate": 2342,
    "propriety": 14371,
    "Ġcanal": 8181,
    "Ġap": 5007,
    "Ġtraces": 7945,
    "ises": 3653,
    "Ġobsole": 22695,
    "ression": 3406,
    "arled": 21440,
    "Ġestablished": 9070,
    "paradise": 20636,
    "13": 20749,
    "Ġmicrosc": 20675,
    "Ġdivin": 13270,
    "Ġmish": 15535,
    "experience": 17158,
    "K": 47,
    "kee": 18273,
    "í": 174,
    "Ġestates": 16458,
    "bling": 10078,
    "atig": 13843,
    "ashion": 3857,
    "Ġconstruct": 23340,
    "Ġwapping": 21293,
    "plunging": 25987,
    "Ġequivalent": 4799,
    "Ġbusy": 6189,
    "swed": 24253,
    "Ġadequately": 15197,
    "Ġsturgeon": 20590,
    "ğ": 224,
    "Ġnomin": 10190,
    "commod": 16165,
    "Y": 61,
    "treas": 17679,
    "Ġthat": 335,
    "Ġcomplied": 14734,
    "Ġfraud": 19016,
    "ologies": 18773,
    "Ġclaim": 5105,
    "standard": 22428,
    "Ġdinn": 23978,
    "Ġspec": 1262,
    "delights": 19700,
    "disputed": 23498,
    "Ġlimit": 10443,
    "Ġbree": 5011,
    "Ġarrowy": 25469,
    "Ġchagrin": 20606,
    "Ġunluck": 8484,
    "Ġspo": 6846,
    "Ġaberdeen": 26541,
    "Ġvener": 8163,
    "Ġheadsmen": 14732,
    "Ġharris": 13925,
    "Ġsteam": 9353,
    "Ġsuddenly": 2646,
    "Ġworshipping": 22925,
    "Ġpatiently": 19917,
    "Ī": 235,
    "Ġgardiner": 3240,
    "mense": 4777,
    "ls": 1290,
    "orte": 14184,
    "carried": 16711,
    "Ġdeceitfulness": 25734,
    "oric": 21394,
    "Ġshowers": 16605,
    "iner": 2671,
    "don": 3543,
    "Ġtribute": 15474,
    "Ġricher": 12756,
    "concerns": 24064,
    "Ġhurrah": 9868,
    "Ġscaling": 3632,
    "Ġdiff": 3117,
    "washed": 13042,
    "Ġdropt": 23674,
    "coburg": 13596,
    "Ġrespected": 11951,
    "million": 25751,
    "Ġconjugal": 25101,
    "ording": 9763,
    "hotel": 20048,
    "Ġwickedness": 9525,
    "Ġclank": 15965,
    "Ġton": 15463,
    "Ġherein": 16189,
    "Ġnathan": 21523,
    "Ġdeline": 16332,
    "storm": 9681,
    "Ġhover": 15617,
    "Ġskirting": 22794,
    "Ġstruggling": 12072,
    "Ġseaward": 22944,
    "nephew": 26397,
    "Ġbottle": 7490,
    "Ġlower": 2662,
    "Ġapproved": 16033,
    "Ġinsolence": 20252,
    "Ġsubproblems": 12955,
    "Ġlooked": 1802,
    "Ġsideboard": 10385,
    "uer": 21099,
    "Ġpurse": 12009,
    "claimed": 9835,
    "very": 500,
    "Ġtrifled": 24674,
    "Ġsuffering": 8946,
    "Ġbest": 1976,
    "dost": 14535,
    "Ġdishes": 16047,
    "twig": 23698,
    "Ġdaugh": 2293,
    "Ġcertainly": 2498,
    "ladyship": 14828,
    "Ġexclamations": 11361,
    "sigma": 3001,
    "usive": 8189,
    "reeable": 3612,
    "spark": 18690,
    "reduced": 15803,
    "Ġmaintainable": 12932,
    "speech": 10666,
    "Ġlets": 18063,
    "unaccountable": 15776,
    "fly": 13712,
    "alescence": 15922,
    "break": 6101,
    "Ġproclaim": 18131,
    "Ġsheepfold": 25466,
    "achine": 600,
    "sunlight": 24851,
    "engthen": 14457,
    "Ġtelesc": 12986,
    "Ġtrue": 1340,
    "Ġavalanche": 17432,
    "Ġhobbling": 25644,
    "Ġinverted": 12634,
    "Ġwolves": 25934,
    "Ġlodger": 24089,
    "Ġsaints": 20673,
    "Ġexpected": 3698,
    "ceed": 1073,
    "Ġdesigns": 13012,
    "ogne": 12937,
    "Ġsimultaneously": 4311,
    "Ġleviathanic": 12078,
    "Ġcensured": 25094,
    "Ġrejection": 19982,
    "Ġveiled": 16199,
    "inished": 17734,
    "Ġskull": 6288,
    "Ġprejudice": 9076,
    "Ġcollectively": 19966,
    "Ġmouths": 7491,
    "Ġconcisely": 19045,
    "Ġneedless": 19229,
    "Ġtemper": 957,
    "Ġchilly": 25562,
    "Ġerected": 12231,
    "Ġblot": 9811,
    "Ġdur": 11591,
    "Ġplaint": 10325,
    "Ġsherry": 19450,
    "ror": 7351,
    "window": 7742,
    "Ġtries": 9151,
    "worship": 19385,
    "social": 11023,
    "ldog": 21914,
    "Ġcont": 621,
    "Ġamerican": 5060,
    "Ġmorbid": 16234,
    "Ġcharger": 19005,
    "Ì": 141,
    "Ġplum": 11820,
    "command": 6576,
    "Ġbehave": 23296,
    "Ġtart": 12525,
    "Ġaromatic": 25925,
    "Ġanger": 5442,
    "satisfactory": 16893,
    "Ġcutting": 4982,
    "Ġslew": 23381,
    "Ġnatural": 1126,
    "ashions": 16416,
    "Ġbased": 3340,
    "Ġsoothing": 8172,
    "idly": 12697,
    "Ġblackness": 9393,
    "Ġapprehensions": 13402,
    "Ġnantucketers": 9894,
    "Ġdrawn": 4275,
    "Ġnug": 21522,
    "Ġdebated": 9041,
    "Ġinconsiderable": 21492,
    "Ġpuzzled": 7317,
    "ellations": 21941,
    "Ġpriests": 15040,
    "Ġbarbarously": 24819,
    "Ġbudge": 15163,
    "Ġsolved": 8931,
    "idious": 11661,
    "Ġunjust": 8483,
    "Ġconference": 15744,
    "Ġloved": 4596,
    "Ġlingu": 11613,
    "gardiner": 12289,
    "Ġpictures": 5503,
    "Ġdistended": 16042,
    "Ġabsent": 7014,
    "fleece": 19946,
    "Ġdangerously": 23934,
    "Ġbigness": 19759,
    "centred": 25017,
    "token": 21081,
    "Ġpiercing": 13492,
    "shad": 10981,
    "had": 1951,
    "Ġsmith": 16062,
    "Ó": 148,
    "Ġscepticism": 25927,
    "Ġsoliloquized": 17301,
    "etite": 21576,
    "Ġconductor": 24007,
    "Ġbrazier": 26320,
    "Ġtangled": 13825,
    "clock": 3931,
    "Ġfurlongs": 20722,
    "Ġeyes": 1335,
    "comprehens": 16166,
    "meantime": 9092,
    "izers": 18142,
    "Ġostent": 13582,
    "tips": 13794,
    "Ġstun": 11649,
    "Ġtrustees": 24106,
    "Ġinsurmountable": 16530,
    "Ġkicks": 19767,
    "Ġdistances": 22500,
    "Ġsciences": 15943,
    "br": 2478,
    "play": 5098,
    "Ġto": 297,
    "Ġpoorly": 9854,
    "Ġbacking": 16115,
    "Ġharder": 14448,
    "Ġrecovery": 11441,
    "viii": 12019,
    "gast": 20870,
    "Ġparagraph": 17453,
    "ivot": 11716,
    "¼": 125,
    "Ġenvelop": 5587,
    "Ġcharms": 11130,
    "Ġattending": 3287,
    "Ġbuoyant": 13530,
    "Ġexcellence": 11451,
    "struck": 7861,
    "Ġshrinking": 14803,
    "Ġsedentary": 25430,
    "Ġslink": 23161,
    "tisement": 6767,
    "intended": 11066,
    "ety": 3519,
    "Ġappertaining": 26533,
    "eneva": 5117,
    "overhearing": 19053,
    "rinted": 21042,
    "Ġleagues": 9222,
    "Ġsincere": 11136,
    "Ġpiny": 21467,
    "Ġsubmerged": 11870,
    "Ġfut": 15572,
    "Ġdevouring": 11856,
    "Ġmonument": 16237,
    "Ġpertaining": 18450,
    "lesome": 12961,
    "constellation": 24607,
    "Ġrelinquish": 17346,
    "inc": 2520,
    "Ġnewton": 3532,
    "Ġattended": 5391,
    "Ġviolet": 19090,
    "Ġtrumpet": 9573,
    "Ġwretchedly": 19505,
    "Ġincludes": 2012,
    "mother": 5480,
    "ember": 1957,
    "Ġpropagating": 20632,
    "Ġencompassed": 15281,
    "Ġsincerity": 13676,
    "prejud": 11794,
    "singing": 24363,
    "Ġwarden": 17224,
    "Ġfeast": 10277,
    "este": 15917,
    "professor": 17249,
    "Ġcontrive": 16008,
    "ested": 3479,
    "Ġshelf": 12265,
    "ber": 884,
    "figured": 20121,
    "ĠĠĠĠĠĠĠĠ": 712,
    "Ġfinery": 23123,
    "wild": 8766,
    "Ġdetermining": 14420,
    "joining": 19445,
    "been": 3345,
    "commanders": 16989,
    "Ġagain": 814,
    "gul": 12463,
    "Ġanomaly": 25636,
    "secured": 16938,
    "Ġdimension": 3242,
    "ench": 21278,
    "rived": 5373,
    "Ġcass": 13877,
    "Ġmetaphysical": 26066,
    "Ġinvited": 6903,
    "natured": 7110,
    "Ġobtained": 7432,
    "Ġsustaining": 25333,
    "electricity": 26385,
    "Ġpreliminary": 10056,
    "itory": 12564,
    "icting": 12849,
    "atement": 17773,
    "urable": 8923,
    "Ġfranc": 16350,
    "Ġassigned": 16310,
    "Ġlords": 14641,
    "Ġonset": 12707,
    "Ġprophes": 16347,
    "goodness": 19287,
    "Ġdejected": 20303,
    "Ġsupplying": 19797,
    "best": 6111,
    "conscience": 14859,
    "osque": 22259,
    "Ġsain": 17750,
    "warm": 8101,
    "brain": 13685,
    "Ġwandering": 8653,
    "Ġunceasing": 20356,
    "Ġcable": 11579,
    "Ġdifferen": 937,
    "alice": 3211,
    "dat": 1644,
    "privilege": 25263,
    "Ġscener": 10949,
    "Ġonce": 1492,
    "Ġtil": 12521,
    "Ġsingle": 1693,
    "mou": 10708,
    "wor": 3417,
    "Ġcumbrous": 26432,
    "compose": 23984,
    "Ġfist": 21402,
    "Ġspong": 15879,
    "se": 358,
    "Ġslightly": 7293,
    "Ġnothing": 1359,
    "Ġdepresses": 25797,
    "langu": 4804,
    "Ġstud": 1562,
    "anger": 2172,
    "Ġloops": 8852,
    "instruct": 19541,
    "Ġconcepts": 4548,
    "ugal": 19022,
    "done": 6500,
    "Ġstumbling": 21742,
    "Ġtyp": 1132,
    "Ġrash": 10898,
    "Ġcontract": 18475,
    "Ġblood": 3170,
    "Ġwhiting": 10859,
    "uccas": 21105,
    "Ġexclude": 19040,
    "Ġcontradictory": 20395,
    "Ġjam": 10951,
    "Ġsimilarity": 3169,
    "Ġmortal": 4678,
    "Ġcar": 1418,
    "Ġproduced": 2453,
    "asets": 2310,
    "Ġsalted": 14755,
    "vo": 11539,
    "Ġmuhammad": 26169,
    "Ġhoped": 5488,
    "Ġpoultry": 17440,
    "cup": 10690,
    "uncont": 15771,
    "Ġnovels": 15927,
    "Ġlowers": 23241,
    "Ġlump": 21549,
    "downward": 16619,
    "ills": 1633,
    "Ġreg": 730,
    "Ġprevailed": 7777,
    "Ġpropriet": 9549,
    "Ġremem": 4313,
    "ption": 7398,
    "Ġsod": 11561,
    "Ġpouch": 21466,
    "Ġincommunicable": 26611,
    "Ġquantization": 19853,
    "Ġredu": 1353,
    "letter": 6201,
    "Ġcreat": 1429,
    "Ġwhaler": 7520,
    "hel": 4811,
    "Ġcompany": 3722,
    "arius": 14248,
    "accomplished": 17211,
    "Ġaware": 5756,
    "Ġbast": 21377,
    "Ġissuing": 16948,
    "Ġfrightens": 24030,
    "beards": 22488,
    "hur": 6648,
    "Ġturing": 7566,
    "Ġsecurely": 16802,
    "Ġexultation": 15169,
    "shold": 2772,
    "mount": 9130,
    "ter": 359,
    "roots": 15640,
    "Ġjung": 12833,
    "Ġperem": 12929,
    "Ġber": 5698,
    "Ġbrist": 14377,
    "Ġinwards": 15618,
    "Ġpeleg": 3739,
    "causes": 20342,
    "self": 616,
    "chester": 23805,
    "Ġviolence": 5962,
    "ulum": 21860,
    "Ġshore": 4831,
    "Ġparadise": 11194,
    "oder": 2460,
    "Ġcurrents": 13006,
    "abominable": 20592,
    "Ġhaggerston": 26452,
    "Ġblocks": 6321,
    "Ġchis": 11748,
    "all": 486,
    "eches": 8077,
    "female": 20665,
    "Ġrebell": 21666,
    "Ġswam": 6448,
    "ni": 1607,
    "encountered": 20391,
    "Ġtearing": 14390,
    "Ġunden": 22010,
    "Ġsales": 12804,
    "Ġrevolutionized": 3369,
    "conviction": 19963,
    "Ġsounding": 8264,
    "cules": 12389,
    "feeder": 12360,
    "constit": 24604,
    "Ġimplicate": 24876,
    "Ġbought": 8415,
    "Ġliterature": 17148,
    "agra": 14064,
    "Ġmuteness": 19415,
    "Ġstanzas": 21744,
    "Ġcedars": 20291,
    "Ġdisappo": 4503,
    "Ġgentlemanly": 19315,
    "Ġsuspect": 5758,
    "elze": 21570,
    "Ġguidance": 9417,
    "shut": 10980,
    "Ġinsens": 8276,
    "scores": 22989,
    "Ġsumat": 14129,
    ",âĢĿ": 579,
    "buffalo": 20562,
    "Ġwantest": 18790,
    "yea": 23085,
    "Ġ275": 20109,
    "----": 4057,
    "Ġspence": 22123,
    "aintance": 3568,
    "sh": 647,
    "Ġelectric": 15193,
    "Ġplu": 8798,
    "Ġstr": 758,
    "Ġdrops": 9033,
    "swim": 16779,
    "hurt": 19877,
    "Ġpeeling": 22689,
    "wishing": 21127,
    "Ġthen": 667,
    "Ġstretch": 6993,
    "Ġson": 2980,
    "Ġcomes": 3424,
    "prop": 1047,
    "Ġornamented": 20360,
    "Ġcharity": 8862,
    "Ġvacancy": 9045,
    "crimson": 24098,
    "Ġfocus": 4235,
    "Ġhoary": 23352,
    "Ġcarelessly": 11120,
    "Ġstaggered": 9538,
    "Ġradiance": 13368,
    "ellect": 7381,
    "Ġregards": 16071,
    "confidential": 25876,
    "glimmer": 26321,
    "understood": 13214,
    "Ġheart": 1595,
    "haz": 17564,
    "Ġlivelong": 25511,
    "perplex": 18338,
    "Ġexpatiate": 18624,
    "Ġstem": 15719,
    "Ġearthquake": 14628,
    "ondon": 2706,
    "Ġcontact": 9281,
    "Ġden": 3109,
    "stave": 21646,
    "Ġtrooped": 24899,
    "folding": 24927,
    "Ġnetworks": 598,
    "Ġfatig": 6756,
    "Ġcorroboration": 26053,
    "aky": 18412,
    "Ġblending": 14399,
    "90": 12430,
    "Ġtremble": 6906,
    "Ġinterval": 4053,
    "Ġdreaminess": 23937,
    "most": 1256,
    "Ġscratches": 22288,
    "Ġfren": 10805,
    "th": 407,
    "Ġrecollections": 10512,
    "Ġwrites": 23195,
    "oters": 21796,
    "crum": 17511,
    "Ġportents": 14679,
    "apolog": 22330,
    "Ġbowditch": 19322,
    "Ġwithdrawn": 10606,
    "uously": 7353,
    "ri": 390,
    "Ġpartial": 2126,
    "Ġsignals": 10585,
    "Ġpaced": 7583,
    "Ġconsiderations": 9410,
    "Ġchanc": 18384,
    "Ġbestirred": 20450,
    "Ġminimax": 5857,
    "Ġoffer": 4840,
    "Ġlitter": 19828,
    "Ġsands": 14947,
    "Ġextant": 18681,
    "horse": 8605,
    "Ġoverflowed": 20261,
    "Ġnlp": 3062,
    "izings": 14049,
    "Ġslacked": 25188,
    "rever": 21234,
    "Ġreap": 18026,
    "luc": 9751,
    "Ġsurm": 7476,
    "Ġcanvassed": 19933,
    "Ġaccountability": 10438,
    "doubtful": 24791,
    "remonstr": 23188,
    "ories": 4750,
    "sleeping": 13452,
    "e": 73,
    "Ġinclinations": 19538,
    "Ġcoin": 9770,
    "Ġhatherley": 7848,
    "Ġapparently": 6778,
    "inese": 12871,
    "Ġtermination": 16459,
    "Ġoutstretched": 14195,
    "Ġrachel": 11845,
    "Ġweedy": 15790,
    "Ġdetermination": 9818,
    "Ġcrews": 8990,
    "strom": 15681,
    "Ġwithhold": 18111,
    "Ġmovements": 24359,
    "Ġheadache": 22896,
    "Ġexcused": 23310,
    "estate": 12818,
    "Ġsupplication": 25491,
    "Ġsymptom": 13481,
    "anation": 5803,
    "reference": 13838,
    "Ġsurmise": 12293,
    "fortune": 4974,
    "Ġheroism": 24544,
    "Ġbewitched": 25975,
    "atious": 10151,
    "ross": 809,
    "ġ": 226,
    "wal": 10133,
    "Ġcoppers": 22582,
    "naturedly": 24840,
    "Ġ119": 24441,
    "rudence": 7092,
    "Ġfreckled": 18961,
    "bur": 4683,
    "Ġgipsies": 12406,
    "Ġhouse": 1504,
    "watery": 19825,
    "conjectures": 25180,
    "Ġretreats": 16928,
    "Ġce": 3028,
    "carefully": 13366,
    "Ġpillows": 24986,
    "latin": 25258,
    "Ġcoun": 4177,
    "Ġnat": 12642,
    "sheep": 23084,
    "Ġcur": 1231,
    "Ġpoets": 11819,
    "Ġfring": 11127,
    "Ġtrim": 15960,
    "apparatus": 26563,
    "alogies": 25158,
    "Ġabatement": 22273,
    "ã": 164,
    "trifling": 19412,
    "Ġnursing": 12212,
    "```": 25893,
    "Ġrolling": 5974,
    "accustomed": 13155,
    "Ġprognost": 15279,
    "somewhere": 12011,
    "bly": 6110,
    "Ġwhirlwinds": 20463,
    "driven": 19770,
    "shavings": 22455,
    "Ġcontemplated": 13462,
    "Ġfootpaths": 26318,
    "sively": 13784,
    "Ġharpooning": 23976,
    "Ġalleviated": 26203,
    "Ġexpedition": 10633,
    "crippled": 26384,
    "Ġpositions": 2056,
    "mpt": 6653,
    "say": 3981,
    "continue": 16861,
    "phia": 22773,
    "Ġsupre": 10268,
    "backs": 9391,
    "eck": 20843,
    "Ġcauldron": 25441,
    "orative": 21396,
    "Ġgodlike": 23355,
    "Ġplead": 14455,
    "month": 6463,
    "Ġple": 1470,
    "Ġ-": 1946,
    "Ġlux": 8813,
    "lig": 3174,
    "Ġbelfry": 26438,
    "Ġdisadvantage": 12887,
    "apply": 18758,
    "Ġelect": 10842,
    "Ġparamet": 610,
    "Ġshooting": 11162,
    "ization": 483,
    "lace": 13746,
    "Ġcarbuncle": 14444,
    "Ġshadows": 8012,
    "Ġexcuse": 5861,
    "engineer": 23146,
    "ductive": 23933,
    "sensible": 20050,
    "Ġtransc": 12860,
    "Ġimpulsively": 24880,
    "Ġrepented": 23360,
    "Ġenable": 685,
    "Ġdrunkard": 20176,
    "Ġjot": 11761,
    "berries": 22721,
    "loud": 11500,
    "atural": 940,
    "Ġwounding": 19585,
    "precise": 19349,
    "Ġcomputations": 16002,
    "Ġdeployment": 11210,
    "Ġchatbots": 11349,
    "spiracle": 22735,
    "bott": 9106,
    "Ġnam": 17948,
    "iety": 2819,
    "andromeda": 21865,
    "urried": 21701,
    "Ġpassionate": 11273,
    "Ġplaited": 14282,
    "8": 28,
    "Ġstreamed": 14546,
    "Ġallusions": 10906,
    "unmistakable": 21892,
    "member": 20974,
    "Ġstealing": 18893,
    "Ġsupreme": 13605,
    "@": 36,
    "Ġbland": 11064,
    "Ġthickening": 24024,
    "asserted": 22306,
    "went": 6512,
    "rippa": 11341,
    "Ġnarrowly": 16820,
    "Ġmau": 21309,
    "engagements": 25853,
    "Ġpump": 12618,
    "Ġalas": 5921,
    "tie": 21067,
    "bits": 17488,
    "Ġconcealing": 23900,
    "Ġstately": 9833,
    "Ġpugnacious": 26451,
    "Ġgash": 15668,
    "Ġtransition": 14233,
    "Ġlungless": 24863,
    "withdrawn": 23025,
    "Ġunrel": 14695,
    "Ġconversed": 13184,
    "Ġtranslates": 12049,
    "Ġgasfitters": 25038,
    "Ġneared": 14073,
    "Ġend": 1485,
    "Ġerrone": 14429,
    "Ġdestructive": 23485,
    "Ġrestraint": 15126,
    "Ġsat": 1133,
    "Ġentering": 6285,
    "path": 10118,
    "idean": 14262,
    "stricken": 9883,
    "projecting": 26073,
    "east": 9116,
    "ĥ": 230,
    "Ġ79": 24264,
    "slanting": 24558,
    "Ġdevoured": 16133,
    "Ġtoy": 15631,
    "Ġcripple": 11440,
    "cul": 1903,
    "Ġgrego": 18963,
    "gressive": 2753,
    "Ġescorted": 23504,
    "Ġtrain": 516,
    "Ġdesertion": 24787,
    "Ġmer": 2928,
    "Ġcontinents": 16849,
    "Ġwindlass": 7256,
    "outh": 2687,
    "ations": 711,
    "lever": 2930,
    "Ġcant": 17824,
    "ishly": 14199,
    "inal": 15479,
    "ĠĠĠĠĠĠĠĠĠĠĠĠĠĠĠĠĠĠĠĠĠĠĠĠĠĠĠĠĠĠĠĠ": 2737,
    "Ġorganizations": 12312,
    "Ġexempl": 21827,
    "Ġhit": 7163,
    "tempered": 13444,
    "dressing": 11481,
    "instead": 14812,
    "hist": 7130,
    "Ġoperation": 11997,
    "ikes": 8086,
    "Ġserved": 8245,
    "Ġpequod": 2323,
    "================================================================": 9989,
    "Ġpomp": 12619,
    "Ġpaus": 4299,
    "Ġflip": 11911,
    "loaded": 22508,
    "Ġphilips": 5410,
    "Ġdripping": 13145,
    "Ġforc": 9228,
    "Ġprair": 7746,
    "swift": 14851,
    "Ġplace": 1656,
    "Ġpair": 5706,
    "Ġweltering": 19584,
    "Ġapparent": 5466,
    "stool": 23817,
    "ual": 947,
    "Ġsprings": 16687,
    "farintosh": 24553,
    "Ġparalle": 1410,
    "Ġmoderation": 12815,
    "Ġfowler": 16937,
    "Ġarticulate": 24432,
    "nuts": 15397,
    "Ġoptimal": 1857,
    "dreams": 12335,
    "Ġhasty": 10477,
    "iform": 2201,
    "Ġvanished": 6874,
    "Ġrede": 13982,
    "Ġemotions": 8969,
    "Ġunattended": 15841,
    "plans": 21955,
    "indust": 18435,
    "Ġmitigates": 3050,
    "ppo": 18175,
    "Ġdecidedly": 9508,
    "Ġspecial": 2101,
    "situation": 11437,
    "magnificent": 20273,
    "opening": 10312,
    "Ġcrack": 7709,
    "aulding": 11339,
    "warmest": 25027,
    "Ġransacked": 26505,
    "Ġcompar": 4768,
    "ĠĠĠĠĠĠĠĠĠĠĠĠĠĠĠĠĠĠĠĠĠĠ": 16225,
    "Ġfishy": 16523,
    "enborough": 21284,
    "Ġcream": 22723,
    "Ġvillain": 8635,
    "Ġreadily": 5253,
    "Ġconceits": 19388,
    "unciation": 25982,
    "Ġmoody": 8200,
    "apologizing": 26544,
    "Ġinsert": 19904,
    "Ġvows": 15806,
    "enemy": 15525,
    "circum": 16737,
    "ipotence": 22361,
    "exhibited": 18477,
    "rative": 17652,
    "reception": 15513,
    "Ġproportionate": 17043,
    "Ġunsupplied": 22040,
    "Ġaberde": 22274,
    "Ġclout": 22343,
    "Ġvine": 8471,
    "Ġpremises": 10487,
    "icket": 22665,
    "mbles": 23086,
    "stepfather": 19189,
    "Ġdungeon": 16996,
    "ernity": 18615,
    "Ġaltern": 7394,
    "ocean": 12399,
    "Ġunqualified": 22058,
    "Ġbits": 11587,
    "still": 4218,
    "Ġcritic": 19124,
    "Ġenraptured": 26500,
    "Ġbreakfast": 3973,
    "Ġtended": 21165,
    "ith": 330,
    "buckets": 26123,
    "Ġhummed": 18777,
    "Ġrepentance": 15159,
    "immediately": 10048,
    "Ġliberated": 19665,
    "ide": 722,
    "abri": 6682,
    "Ġlexic": 15715,
    "Ġtolland": 24988,
    "police": 10583,
    "Ġjupiter": 17455,
    "Ġbarren": 11205,
    "Ġdirections": 1971,
    "Ġfurnishing": 16645,
    "interests": 19707,
    "ccas": 15883,
    "persuasion": 20042,
    "Ġtexture": 19159,
    "Ġmasonry": 13597,
    "stranger": 9882,
    "Ġhues": 21486,
    "Ġdashing": 8795,
    "Ġruskin": 25809,
    "Ġindignity": 18832,
    "hued": 20910,
    "Ġrule": 1533,
    "onde": 21250,
    "Ġalter": 6542,
    "Ġbridle": 24681,
    "seeking": 17152,
    "Ġsavory": 23874,
    "Ġrec": 903,
    "Ġbreckinridge": 14523,
    "Ġsalutations": 25382,
    "cred": 9108,
    "Ġprofessor": 11231,
    "Ġdel": 1615,
    "programming": 10062,
    "Ġdangling": 17174,
    "Ġstoutest": 24628,
    "Ġcarted": 21347,
    "irts": 9238,
    "Ġproximity": 3221,
    "Ġmagic": 8232,
    "ĠâĢĺ": 1635,
    "inex": 14091,
    "Ġconcre": 16385,
    "contains": 16028,
    "Ġso": 434,
    "Ġgreedily": 18966,
    "come": 2376,
    "became": 10514,
    "ĠâĢľ": 515,
    "Ġwrenched": 12555,
    "Ġfervently": 25877,
    "Ġwayward": 22869,
    "ckinridge": 11717,
    "Ġelev": 5536,
    "Ġsolomon": 11052,
    "peleg": 16292,
    "rather": 5430,
    "Ġrelentless": 26277,
    "Ġphrenolog": 12332,
    "Ġenlarged": 25985,
    "attendants": 25495,
    "Ġfisherman": 12073,
    "Ġrhine": 12355,
    "eminently": 25105,
    "Ġinevitable": 15166,
    "Ġvideo": 25365,
    "Ġhats": 14619,
    "encounter": 20390,
    "Ġslappin": 18942,
    "since": 5894,
    "calcul": 12983,
    "Ġfeigned": 22207,
    "Ġcorresponding": 13436,
    "ean": 20839,
    "51": 12429,
    "Ġconstructed": 9387,
    "pur": 7806,
    "Ġashamed": 6403,
    "Ġbennets": 9805,
    "Ġgiant": 13966,
    "Ġcasks": 7521,
    "writhed": 26080,
    "rable": 11631,
    "Ġx": 2073,
    "Ġmilliner": 19883,
    "biscuit": 17500,
    "Ġfriendless": 23021,
    "Ġheedfully": 24521,
    "tubes": 25211,
    "Ġpencil": 11941,
    "Ġastern": 6090,
    "ura": 1057,
    "Ġoutskirts": 17456,
    "Ġpractical": 3166,
    "Ġmerchant": 6467,
    "leviathan": 7784,
    "Ġadventure": 5980,
    "assembled": 21542,
    "Ġrehearsed": 25971,
    "pride": 11209,
    "Ġcuriosities": 26288,
    "cstasy": 11445,
    "Ġinsects": 25646,
    "Ġbathe": 25443,
    "aceti": 7111,
    "Ġgentlemen": 3642,
    "Ġstab": 10862,
    "anned": 17839,
    "Ġbus": 1907,
    "Ġstripped": 10465,
    "Ġaccept": 4409,
    "Ġdeliverer": 11948,
    "consequential": 26249,
    "client": 18931,
    "tra": 4933,
    "ì": 173,
    "umnal": 18300,
    "Ġev": 4825,
    "Ġpulpit": 7470,
    "Ġconc": 1841,
    "Ġreading": 5113,
    "ulled": 14054,
    "Ġthre": 2058,
    "rate": 2423,
    "Ġredden": 15691,
    "Ġtea": 5040,
    "Ġmajest": 24057,
    "Ġbirds": 5873,
    "Ġrefrain": 12944,
    "encing": 21281,
    "Ġpleasant": 4170,
    "entirely": 7781,
    "Ġretribution": 16280,
    "Ġgeorgiana": 8625,
    "iffs": 9022,
    "Ġepistle": 24904,
    "learning": 2475,
    "Ġfurrow": 22812,
    "veh": 12676,
    "Ġpunctual": 17137,
    "Ġgest": 8133,
    "Ġchicha": 15934,
    "fool": 9048,
    "ostent": 16846,
    "Ġwork": 1336,
    "Ġnecessitates": 23926,
    "Ġregrets": 18592,
    "Ġgather": 6534,
    "ius": 5789,
    "Ġoccurred": 4460,
    "Ġloite": 22108,
    "Ġstatistics": 1683,
    "verd": 21724,
    "Ġhus": 3094,
    "Ġconv": 2967,
    "Ġpanthe": 19652,
    "Ġrabbit": 4289,
    "gal": 15354,
    "Ġproposed": 7460,
    "jub": 20928,
    "Ġturks": 14598,
    "gratification": 24348,
    "likelihood": 4991,
    "holmes": 4429,
    "Ġemploy": 3615,
    "Ġsleepers": 13147,
    "Ġprocedural": 12029,
    "hammad": 23261,
    "we": 847,
    "large": 6625,
    "Ġentertain": 6053,
    "conversations": 24749,
    "stump": 21650,
    "Ġpersonified": 19177,
    "merchant": 10467,
    "leaves": 12575,
    "Ġabsorb": 25112,
    "heed": 15497,
    "principal": 20659,
    "Ġbecome": 3160,
    "Ġdataset": 12817,
    "Ġcompat": 2936,
    "commodore": 20623,
    "infl": 15486,
    "Ġdetect": 1234,
    "Ġfiftieth": 24703,
    "tland": 21072,
    "somehow": 12010,
    "Ġroute": 11381,
    "pits": 15411,
    "Q": 53,
    "Ġoldest": 12969,
    "Ġinquirer": 24961,
    "Ġtand": 21159,
    "Ġcordially": 16836,
    "oppressed": 24824,
    "endless": 22223,
    "Ġyours": 4123,
    "Ġruin": 6055,
    "occup": 7752,
    "Ġpallor": 13514,
    "sign": 8387,
    "Ġcontaining": 2232,
    "Ġtask": 1312,
    "Ġflowery": 16232,
    "Ġdue": 3843,
    "det": 5206,
    "Ġoffice": 4964,
    "roylott": 20025,
    "Ġappears": 5402,
    "Ġintellectual": 11401,
    "Ġbowed": 6242,
    "âĢĻ!âĢĿ": 18167,
    "Ġcorps": 13029,
    "Ġquenched": 22414,
    "Ġbrick": 8925,
    "Ġdes": 1250,
    "abern": 21786,
    "Ġtwinkle": 12321,
    "Ġheath": 15699,
    "scrape": 25698,
    "resol": 17760,
    "country": 6103,
    "Ġsymmetrical": 20365,
    "down": 3469,
    "suited": 22643,
    "streets": 13393,
    "Ġ132": 19895,
    "ken": 2799,
    "umbling": 6758,
    "Ġprendergast": 26537,
    "âĢĿ--": 21813,
    "Ġmourn": 8703,
    "Ġunconsc": 6552,
    "Ġglanced": 5951,
    "Ġallow": 1129,
    "Ġdomains": 6611,
    "Ġinfat": 14500,
    "Ġding": 12596,
    "abez": 10222,
    "arman": 11594,
    "Ġverdure": 10612,
    "Ġfurnace": 19439,
    "Ġaffliction": 25844,
    "eternal": 17982,
    "Ġparameter": 886,
    "smoking": 23908,
    "discovered": 8324,
    "Ġbenevol": 5961,
    "Ġanyone": 4457,
    "Ġimbu": 15889,
    "Ġreasonable": 7253,
    "Ġpreceding": 7528,
    "Ġswells": 9826,
    "Ġenergies": 25459,
    "Ġundertaken": 18987,
    "Ġusual": 3941,
    "Ġoffended": 7040,
    "Ġrecover": 9791,
    "ingly": 2133,
    "Ġgrated": 22803,
    "Ġdisent": 22520,
    "cad": 17504,
    "Ġbadly": 12129,
    "Ġsperm": 1842,
    "Ġsources": 10147,
    "sail": 3602,
    "phantoms": 24679,
    "Ġexchange": 15750,
    "thole": 21983,
    "top": 4483,
    "Ġsnowy": 9018,
    "Ġprecautions": 23725,
    "Ġstile": 21732,
    "Ġstrongly": 5657,
    "Ġnightgown": 23129,
    "three": 5238,
    "Ġvirginia": 13498,
    "iters": 21327,
    "Ġdistinguish": 2726,
    "Ġemail": 19074,
    "Ġmelt": 21316,
    "Ġwarned": 16880,
    "hearse": 17748,
    "Ġenforced": 21935,
    "public": 17646,
    "Ġginger": 9211,
    "Ġbodily": 6106,
    "Ġwhereby": 11835,
    "izing": 1065,
    "small": 6472,
    "Ġturkish": 12259,
    "their": 2542,
    "ieving": 7031,
    "posterity": 25488,
    "Ġmarred": 23029,
    "threat": 10900,
    "boast": 23251,
    "chet": 13215,
    "Ġbraced": 16579,
    "harpooned": 24286,
    "Ġte": 1135,
    "insult": 16278,
    "Ġblessings": 24176,
    "lady": 4431,
    "Ġoutwardly": 24998,
    "beer": 22485,
    "Ġfeed": 2125,
    "Ġleague": 6538,
    "convolutional": 4957,
    "disgraceful": 26076,
    "Ġhealthful": 24055,
    "Ġrough": 7187,
    "Ġshortened": 23481,
    "Ġinter": 727,
    "Ġreasoner": 14440,
    "Ġglancing": 5399,
    "learnt": 23513,
    "gir": 8082,
    "Ġloathed": 15873,
    "Ġimpatiently": 8337,
    "Ġscorching": 20066,
    "Ġpieces": 7369,
    "Ġ270": 25130,
    "ronted": 14876,
    "Ġabraham": 18395,
    "match": 15389,
    "Ġresolve": 13168,
    "Ġcomputing": 2221,
    "Ġalchemists": 26487,
    "Ġwakes": 11571,
    "Ġgain": 4824,
    "Ġicy": 10747,
    "Ġblasp": 14400,
    "swimming": 24258,
    "Ġgriefs": 16771,
    "Ġrather": 1495,
    "comfortably": 16875,
    "Ġworaciousness": 22926,
    "Ġdiscrete": 2476,
    "itions": 4147,
    "Ġcoachman": 15000,
    "Ġambitious": 18513,
    "congratulations": 20278,
    "Ġreconc": 9682,
    "Ġdesperation": 19817,
    "Ġdante": 21436,
    "dramatic": 19383,
    "Ġmartin": 25436,
    "vius": 23541,
    "Ġcovering": 13253,
    "secur": 18126,
    "oquent": 12497,
    "sister": 5138,
    "Ġdwelling": 7322,
    "Ġqualities": 7533,
    "william": 4559,
    "Ġeucl": 24709,
    "Ġloath": 7890,
    "Ġaccusations": 22376,
    "Ġsnugness": 20075,
    "Ġbrougham": 17870,
    "Ġsteadfast": 8678,
    "Ġmisfortunes": 7041,
    "Ġshow": 3403,
    "tram": 19634,
    "adr": 6994,
    "Ġspacious": 18312,
    "Ġprob": 970,
    "wooden": 24587,
    "Ġaudible": 19880,
    "Ġdagger": 21435,
    "Ġdecent": 10978,
    "Ġdocument": 15018,
    "Ġnav": 5818,
    "Ġsituation": 4072,
    "ive": 426,
    "Ġsucceeding": 16761,
    "Ġrepresent": 1210,
    "Ġall": 421,
    "Ġcrazed": 19174,
    "neying": 22460,
    "neighb": 16025,
    "Ġunsolved": 22030,
    "fit": 6645,
    "Ġdecomposes": 5506,
    "Ġthack": 21514,
    "orne": 17872,
    "audible": 17132,
    "Ġswandam": 11088,
    "Ġconscientious": 16727,
    "ington": 21300,
    "Ġoutcast": 18414,
    "Ġforgot": 4680,
    "ihood": 20921,
    "Ġrelated": 3716,
    "tw": 2811,
    "Ġwriters": 13541,
    "scuttle": 11908,
    "oubted": 5859,
    "knives": 14912,
    "Ġinco": 14259,
    "Ġearl": 7675,
    "may": 3680,
    "Ġmam": 8404,
    "Ġassaults": 15155,
    "isco": 12578,
    "ic": 304,
    "Ġ70": 11276,
    "Ġstay": 3096,
    "Ġafforded": 8028,
    "hereafter": 19215,
    "marked": 9049,
    "Ġforward": 1836,
    "retrie": 18922,
    "Ġembra": 6578,
    "Ġquaint": 18465,
    "make": 5793,
    "strongly": 24684,
    "code": 15328,
    "Ġgall": 4351,
    "particulars": 11315,
    "uries": 6147,
    "Ġstrove": 9956,
    "Ġalabama": 14017,
    "Ġextracted": 16294,
    "ivided": 22078,
    "Ġoverdone": 22356,
    "ounded": 9747,
    "6": 26,
    "leep": 4631,
    "Ġslices": 23163,
    "Ġlxi": 21558,
    "blending": 24128,
    "Ġhumanity": 6731,
    "okened": 15982,
    "Ġwaylaid": 22870,
    "ama": 11676,
    "Ġowed": 10780,
    "Ġdiscoveries": 13356,
    "Ġresolutely": 14609,
    "Ġlavater": 20494,
    "solemn": 19816,
    "orns": 12589,
    "Ġendeav": 2953,
    "Ġinflexibly": 26370,
    "Ġindignant": 12237,
    "Ġvalidate": 3086,
    "shr": 10979,
    "octavo": 11385,
    "manned": 18761,
    "abomin": 15739,
    "Ĭ": 237,
    "carbuncle": 26382,
    "Ġnods": 19064,
    "Ġvesture": 20060,
    "sideways": 14572,
    "Ġauthentic": 20534,
    "Ġplow": 21456,
    "Ġprofessors": 14725,
    "Ġwhe": 438,
    "soft": 12507,
    "capital": 15087,
    "discern": 14850,
    "aloud": 17940,
    "Ġpale": 4529,
    "Ġwhaling": 2781,
    "Ġdreaded": 8288,
    "bidden": 19736,
    "Ġrejoinder": 24597,
    "Ġimproves": 22746,
    "miraculous": 26396,
    "Ġcistern": 17380,
    "continuing": 24479,
    "Ġdiscriminator": 3393,
    "azed": 9399,
    "Ġcoiled": 11818,
    "unhappy": 10237,
    "unctions": 18155,
    "Ġdocumentation": 20553,
    "Ġthoroughly": 8347,
    "aft": 9583,
    "Ġwoven": 9925,
    "Ġheinous": 18038,
    "irous": 8838,
    "pick": 17634,
    "itance": 13866,
    "Ġthrilling": 19747,
    "kindness": 10505,
    "Ġmockery": 12105,
    "also": 7850,
    "Ġmeantime": 6206,
    "Ġnewspaper": 12363,
    "forgotten": 12414,
    "rush": 7010,
    "laborers": 23913,
    "Ġpossibilities": 18977,
    "mark": 5281,
    "Ġlandless": 23377,
    "Ġsinners": 18949,
    "Ġvenge": 5420,
    "Ġcrumbs": 20639,
    "Ġcruelly": 13373,
    "immedi": 8450,
    "linen": 25257,
    "Ġhotels": 19535,
    "hibited": 17426,
    "underneath": 23786,
    "Ġbrandy": 11049,
    "Ġlazy": 17050,
    "Ġcrimson": 16440,
    "Ġexam": 3712,
    "Ġsuggestive": 11297,
    "Ġmamm": 25090,
    "roqu": 21531,
    "how": 1648,
    "belief": 13279,
    "Ġannihilation": 15164,
    "icing": 9201,
    "Ġstride": 22613,
    "._]]": 5334,
    "mind": 4623,
    "Ġchestnuts": 24381,
    "Ġcivil": 4675,
    "treacle": 25148,
    "Ġhumane": 11882,
    "Ġinnocent": 4920,
    "troubled": 17112,
    "Ġgangway": 20157,
    "Ġxlix": 25860,
    "extinguish": 22764,
    "mon": 2309,
    "Ġgenerative": 5644,
    "Ġsounds": 5189,
    "Ġuntidy": 23521,
    "Ġbeginning": 4242,
    "Ġevents": 4470,
    "things": 6032,
    "Ġtrial": 6634,
    "Ġexistence": 4702,
    "kick": 20935,
    "Ġtails": 9901,
    "Ġcliffs": 15968,
    "tossed": 10996,
    "progress": 11986,
    "Ġobliv": 16131,
    "Ġbrim": 12973,
    "charming": 15703,
    "Ġtest": 1608,
    "stream": 15684,
    "Ġdef": 1199,
    "Ġworms": 25216,
    "Ġ104": 24412,
    "Ġrussian": 14350,
    "archbishop": 22889,
    "g": 75,
    "Ġdisplay": 6428,
    "chamber": 13623,
    "?âĢĻâĢĿ": 23641,
    "hatchway": 25904,
    "inspect": 11558,
    "Ġislets": 21798,
    "dan": 17515,
    "calabash": 22893,
    "Ġperceiving": 8875,
    "Ġprows": 19888,
    "Ġskies": 8920,
    "Ġscant": 22282,
    "vigorous": 25917,
    "Ġmax": 2007,
    "death": 6261,
    "ieves": 4003,
    "Ġimprove": 1831,
    "lob": 22503,
    "Ġseedy": 21952,
    "Ġjohnson": 18409,
    "Ġstaggering": 20272,
    "remorse": 14466,
    "Ġincline": 18569,
    "Ġaccuracy": 1102,
    "itche": 7578,
    "untary": 9866,
    "aton": 21257,
    "Ġbachelor": 7786,
    "Ġdisembow": 22534,
    "Ġbasement": 24702,
    "Ġcooped": 22580,
    "Ġmeaning": 1415,
    "thoughts": 9934,
    "Ġmarshy": 20217,
    "Ġseparating": 16685,
    "Ġsums": 2901,
    "vine": 10734,
    "Ġcanallers": 13625,
    "gallant": 7780,
    "lied": 6507,
    "Ġbreaking": 6310,
    "Ġcomplain": 6685,
    "Ġble": 5222,
    "Ġprocedures": 9412,
    "Ġagreement": 18542,
    "Ġears": 4488,
    "Ġmurdered": 6464,
    "Ġsteadily": 8051,
    "Ġrept": 13981,
    "Ġnightfall": 23128,
    "Ġunderstood": 5655,
    "Ġ1869": 19382,
    "Ġdesignated": 19520,
    "Ġclung": 10958,
    "Ġgreatly": 5849,
    "upid": 6582,
    "Ġunw": 8849,
    "Ġtale": 5141,
    "Ġswears": 16462,
    "ullen": 8234,
    "ildad": 3531,
    "Ġinfernal": 11959,
    "Ġpersonally": 8599,
    "Ġoaken": 13863,
    "Ġglory": 6064,
    "Ġconfused": 7963,
    "Ġquest": 2002,
    "»": 124,
    "several": 5544,
    "Ġr": 406,
    "Ġpleases": 16297,
    "Ġcocoa": 25482,
    "Ġexists": 14036,
    "Ġtendinous": 16931,
    "comparison": 25840,
    "Ġmeasured": 9803,
    "Ġhardened": 14449,
    "Ġrandom": 1590,
    "Ġmomentum": 1603,
    "Ġpaw": 12617,
    "herself": 4888,
    "charles": 14698,
    "ral": 4624,
    "anely": 17836,
    "Ġforces": 12699,
    "Ġhydraul": 9513,
    "mill": 13752,
    "Ġunlike": 7004,
    "oke": 1860,
    "Ġboth": 1658,
    "Ġhebrew": 13986,
    "Ġ200": 19294,
    "Ġdog": 4191,
    "Ġforging": 18093,
    "entric": 11618,
    "âĢĶâĢĻ": 8187,
    "regulated": 23466,
    "Ġlawy": 9455,
    "Ġont": 18116,
    "Ġmincer": 14363,
    "Ġcott": 3710,
    "Ġexpiring": 16093,
    "mild": 15390,
    "Ġdod": 6672,
    "affect": 13210,
    "uning": 1314,
    "geon": 6270,
    "buck": 17490,
    "aust": 15308,
    "arbuck": 2025,
    "falsehood": 25901,
    "baron": 24925,
    "adieu": 26200,
    "Ġcontinuously": 23202,
    "Ġnimble": 21525,
    "Ġrick": 21970,
    "Ġbottom": 3675,
    "Ġfruit": 12324,
    "prim": 23808,
    "Ġaffidavit": 20723,
    "Ġtambourine": 9564,
    "ssed": 3735,
    "Ġfellow": 2775,
    "Ġaverages": 2398,
    "Ġdiameter": 19866,
    "Ġrequisition": 22642,
    "chambers": 25454,
    "Ġseeking": 7035,
    "waters": 11333,
    "ores": 2413,
    "Ġlanguor": 12844,
    "Ġdiligent": 25075,
    "Ġdoubtfully": 23476,
    "ars": 907,
    "greg": 6647,
    "Ġkeel": 6444,
    "Ġprocession": 11773,
    "atiable": 17774,
    "Ġrocks": 6863,
    "Ġagrippa": 11805,
    "Ġsurpassing": 20466,
    "sweet": 8685,
    "Ġscope": 15942,
    "ushion": 14719,
    "Ġbrace": 11211,
    "trimmed": 23946,
    "âĢĶâĢĶâĢĿ": 15937,
    "Ġphilist": 16601,
    "Ġquery": 2479,
    "Ġdoubts": 8579,
    "Ġsloop": 25930,
    "Ġadmires": 19684,
    "fifth": 20145,
    "Ġpaltry": 16692,
    "Ġuniversity": 13119,
    "Ġincred": 5646,
    "Ġreconsidered": 21670,
    "Ġdiscerning": 25002,
    "yield": 13807,
    "affection": 7487,
    "Ġjoking": 12834,
    "thousand": 5547,
    "Ġkilled": 4954,
    "Ġfrayed": 23276,
    "rians": 21927,
    "Ġapparition": 8066,
    "model": 5250,
    "Ġthinnest": 24183,
    "Ġimagenet": 19245,
    "swinging": 25912,
    "Ġproble": 1111,
    "miseries": 16757,
    "Ġbanners": 24858,
    "rusion": 11323,
    "Ġmemb": 14027,
    "Ġpostpone": 17306,
    "Ġrestricted": 19028,
    "Ġfastidious": 14492,
    "gloomy": 25144,
    "Ġcouple": 5423,
    "rically": 15416,
    "image": 9685,
    "Ġminded": 23230,
    "Ġmounts": 17806,
    "Ġstacks": 18077,
    "Ġsullenly": 17172,
    "Ġphyseter": 26586,
    "Ġpallet": 21478,
    "Ġpausing": 8652,
    "Ġeffort": 8204,
    "ortment": 22255,
    "Ġabrid": 22269,
    "inion": 2875,
    "Ġdealing": 14043,
    "ieve": 1661,
    "ute": 4639,
    "skylight": 25623,
    "obliged": 20630,
    "uded": 6286,
    "Ġearthy": 23711,
    "Ġcond": 3873,
    "Ġdandy": 17892,
    "Ġdupl": 9953,
    "Ġlover": 7193,
    "standing": 5558,
    "Ġinfant": 11958,
    "Ġharbors": 24901,
    "Ġgoodly": 22819,
    "Ġschoolmaster": 16862,
    "Ġbefallen": 12341,
    "Ġdepression": 21837,
    "Ġgibe": 25959,
    "piteous": 21032,
    "apothecary": 26545,
    "degra": 22138,
    "playful": 24357,
    "Ġimpenetrable": 17396,
    "Ġbloodshot": 23798,
    "Ġfootmarks": 19336,
    "practical": 17221,
    "conditional": 9079,
    "char": 3502,
    "Ġdirty": 9179,
    "susceptible": 24661,
    "ti": 8389,
    "Ġpro": 361,
    "Ġelemental": 19918,
    "amaz": 21841,
    "Ġfluttered": 16246,
    "inioned": 19285,
    "Ġmalays": 19676,
    "Ġhatches": 12042,
    "Ġinvader": 23477,
    "volous": 18599,
    "Ġunfrequently": 20738,
    "Ġparallel": 1414,
    "below": 12119,
    "Ġmarrying": 6177,
    "Ġstretching": 10014,
    "eray": 21265,
    "floor": 14935,
    "Ġremark": 2145,
    "wait": 11320,
    "Ġskiff": 16162,
    "Ġassertion": 13487,
    "Ġointment": 21324,
    "Ġstudent": 14473,
    "apes": 9740,
    "Ġenjoyments": 24018,
    "morn": 20975,
    "restrained": 16335,
    "Ġpad": 8124,
    "Ġinsufficient": 9672,
    "Ġviolates": 3167,
    "provoke": 26071,
    "Ġaccidental": 16848,
    "looks": 12016,
    "Ġ13": 6718,
    "protruding": 24816,
    "Ġfrig": 13078,
    "Ġabandoned": 8351,
    "only": 3309,
    "Ġprimal": 17107,
    "Ġchaise": 9077,
    "Ġrefine": 2940,
    "lue": 8508,
    "bolts": 11420,
    "Ġindign": 6173,
    "fi": 12459,
    "Ġapologize": 15127,
    "bulkington": 19924,
    "surrounded": 26088,
    "control": 16542,
    "Ġdisappoint": 24205,
    "iscreet": 20681,
    "Ġishmael": 7395,
    "derick": 22159,
    "div": 8075,
    "69": 17474,
    "Ġcasked": 24497,
    "Ġeff": 681,
    "Ġbreaths": 14856,
    "Ġpositively": 13027,
    "Ġgreeted": 23211,
    "Ġwander": 9032,
    "ferred": 16412,
    "Ġconvers": 2905,
    "brink": 23575,
    "exper": 8878,
    "Ġintegrated": 13529,
    "sn": 7138,
    "dden": 1804,
    "Ġevenness": 22830,
    "Ġneville": 7399,
    "Ġ51": 24320,
    "hills": 13734,
    "species": 13254,
    "Ġarter": 22180,
    "tiger": 13795,
    "Ġbringing": 5869,
    "cowardly": 25749,
    "leaving": 10791,
    "Ġnour": 10830,
    "Ġsale": 14154,
    "Ġsab": 10762,
    "obviously": 25242,
    "Ġweeps": 24947,
    "Ġrafters": 22653,
    "Ġpluck": 15611,
    "Ġexceptions": 13227,
    "Ġumb": 11645,
    "meanwhile": 10609,
    "Ġdeft": 21833,
    "capitals": 25080,
    "ouched": 4633,
    "ilt": 2966,
    "_,": 2797,
    "Ġfry": 17879,
    "heat": 15496,
    "strangers": 20335,
    "attent": 9360,
    "significant": 25082,
    "Ġdespised": 14666,
    "sory": 17659,
    "murmured": 24455,
    "akness": 14194,
    "Ġinner": 9670,
    "Ġuneasily": 24230,
    "happened": 9433,
    "ap": 547,
    "Ġnigh": 4876,
    "Ġsickness": 10538,
    "Ġluff": 15650,
    "Ġunique": 12775,
    "ioning": 21506,
    "Ġrecovering": 11862,
    "Ġgave": 2219,
    "Ġted": 13810,
    "Ġruled": 22784,
    "Ġtemptations": 24508,
    "$": 8,
    "Ġoutermost": 22316,
    "brill": 16490,
    "appears": 12058,
    "Ġcusack": 26433,
    "Ġalmanac": 26485,
    "wr": 3025,
    "impropriety": 21710,
    "Ġmeadows": 11422,
    "fishers": 24928,
    "Ġcor": 1324,
    "ynolds": 10035,
    "y": 93,
    "Ġmagg": 18905,
    "maintained": 25020,
    "Ġhinting": 19648,
    "Ġcapture": 3386,
    "utmost": 21585,
    "Ġconflag": 20334,
    "Ġgreen": 3051,
    "Ġcastors": 23973,
    "Ġungenerous": 18266,
    "Ġsuperiority": 14616,
    "mises": 20977,
    "Ġdefault": 3036,
    "madam": 24421,
    "Ġmorals": 22974,
    "Ġelephant": 8255,
    "Ġdrawling": 19436,
    "Ġsnows": 14726,
    "tese": 21082,
    "Ġsignify": 16493,
    "Ġconducting": 16649,
    "ief": 2045,
    "Ġlubber": 17443,
    "Ġrejo": 5915,
    "profound": 16424,
    "Ġsides": 4576,
    "Ġvolley": 24144,
    "bale": 20773,
    "orrow": 2914,
    "Ġdaybreak": 18727,
    "Ġconfirming": 25321,
    "Ġamazing": 9976,
    "Ġcoloured": 11045,
    "Ġmended": 21312,
    "tawn": 21079,
    "Ġcoffee": 6760,
    "atter": 636,
    "Ġfeeds": 16432,
    "Ġtruck": 19510,
    "Ġsight": 2109,
    "simple": 13450,
    "Ġride": 12755,
    "Ġsaying": 3245,
    "irresist": 21909,
    "Ġnominally": 17231,
    "risonment": 17374,
    "Ġcelest": 9900,
    "Ġ71": 24259,
    "nd": 11503,
    "urns": 10213,
    "Ġfifteen": 6947,
    "Ġ": 225,
    "Ġrival": 10485,
    "peare": 18911,
    "Ġnailed": 10189,
    "Ġpainter": 19167,
    "Ġscents": 22284,
    "Ġwillow": 18528,
    "insulting": 26055,
    "Ġbridegroom": 10604,
    "veral": 2354,
    "Ġstupid": 7606,
    "Ġminority": 18752,
    "Ġbitten": 21388,
    "Ġofficious": 19346,
    "Ġscandalous": 24879,
    "Ġhabitations": 24789,
    "rab": 7596,
    "forgot": 11032,
    "Ġcloset": 19590,
    "Ġexplanations": 15908,
    "Ġencounter": 6627,
    "ggling": 19096,
    "teen": 6370,
    "Ġinfer": 7683,
    "Ġmr": 660,
    "Ġcommentaries": 20159,
    "Ġcaus": 1725,
    "Ġtags": 20570,
    "Ġinterrupting": 19556,
    "any": 3339,
    "Ġdolphin": 17311,
    "Ġcorporeally": 25729,
    "Ġrighteous": 18945,
    "gus": 13723,
    "Ġeagle": 13198,
    "Ġbiography": 22759,
    "cap": 8372,
    "cible": 20805,
    "Ġsuffers": 2971,
    "horses": 17567,
    "Ġallies": 18234,
    "humoured": 11237,
    "Ġbricks": 13560,
    "Ġrattled": 15065,
    "daw": 17522,
    "Ġslowly": 3618,
    "Ġpants": 21462,
    "Ġtransports": 24277,
    "engines": 18927,
    "Ġnineveh": 13387,
    "rodu": 1817,
    "Ġflutter": 16245,
    "Ġfurnish": 9019,
    "Ġseen": 1370,
    "Ġintolerably": 15827,
    "Ġendeavours": 8617,
    "diversity": 25897,
    "Ġensl": 19273,
    "arched": 10815,
    "Ġdescending": 8902,
    "Ġtemples": 18637,
    "ustry": 18358,
    "Ġwindings": 18909,
    "Ġascend": 9959,
    "Ġgrandfather": 19420,
    "tide": 11532,
    "Ġrealising": 18983,
    "willingly": 11981,
    "omit": 13972,
    "Ġeastern": 11628,
    "raised": 15676,
    "divided": 25018,
    "frisco": 16787,
    "Ġprejudiced": 24809,
    "Ġproperty": 6450,
    "conject": 8879,
    "Ġfishers": 19352,
    "Ġdebar": 24271,
    "dered": 2472,
    "eag": 20841,
    "Ġcrucifix": 26079,
    "ind": 567,
    "rosings": 15641,
    "Ġmole": 11789,
    "Ġvalidation": 2357,
    "hew": 5364,
    "Ġsharks": 4495,
    "tenderly": 20529,
    "Ġnegro": 6447,
    "Ġcollar": 11877,
    "Ġambergris": 8705,
    "Ġenderby": 13649,
    "Ġideas": 5494,
    "Ġinserting": 19905,
    "Ġmarsh": 9820,
    "Ġenumerating": 15243,
    "Ġowners": 7662,
    "houn": 20892,
    "permitted": 18340,
    "pitchpoling": 25725,
    "Ġaerial": 21197,
    "nervous": 16276,
    "lacing": 17590,
    "worthy": 7732,
    "Ġcontinuing": 14396,
    "stationed": 25453,
    "Ġintens": 7003,
    "ipp": 10102,
    "Ġtransparen": 10541,
    "Ġconvince": 14642,
    "Ġintricacies": 15137,
    "Ġcabaco": 13165,
    "wing": 2519,
    "Ġadaptively": 4031,
    "Ġabruptness": 25299,
    "Ġsevere": 6031,
    "Ġinclemency": 22552,
    "ems": 5235,
    "Ġcourses": 10411,
    "msgate": 18410,
    "driver": 14920,
    "Ġbeard": 11654,
    "Ġunexpl": 22036,
    "Ġconception": 10319,
    "Ġcherub": 23285,
    "Ġthree": 1372,
    "retirement": 23135,
    "Ġbent": 5148,
    "Ġpane": 21460,
    "Ġpod": 15601,
    "tail": 8761,
    "engagement": 14458,
    "rap": 21625,
    "ultaneous": 18582,
    "Ġjudge": 5502,
    "proud": 9903,
    "mentioned": 10623,
    "stall": 21643,
    "Ġvacantly": 16815,
    "tit": 11527,
    "Ġhorsham": 10406,
    "Ġvanishing": 1346,
    "Ġpaint": 7707,
    "frequently": 9978,
    "oce": 10714,
    "Ġapart": 4743,
    "Ġobjection": 6585,
    "Ġbunch": 11326,
    "Ġassured": 4371,
    "Ġeigen": 4879,
    "Ġusually": 6263,
    "Ġextracts": 9359,
    "Ġoccasions": 7987,
    "Ġwarriors": 19722,
    "tled": 3458,
    "drawn": 9912,
    "Ġhenceforth": 19646,
    "presents": 18800,
    "Ġinnocently": 24028,
    "Ġcovers": 18594,
    "Ġbakers": 17866,
    "urean": 18123,
    "n": 82,
    "hearts": 13342,
    "Ġnature": 2540,
    "Ŀ": 256,
    "Ġwithin": 2163,
    "trained": 4238,
    "rese": 15507,
    "castle": 3352,
    "amuse": 14050,
    "Ġrelative": 11881,
    "Ġcas": 8410,
    "Ġfrighten": 13276,
    "Ġurging": 24505,
    "Ġwhose": 2009,
    "Ġgermans": 25784,
    "Ġjem": 18402,
    "Ġluxurious": 17310,
    "sad": 11520,
    "ibid": 18846,
    "Ġfinishing": 23122,
    "Ġremaining": 6188,
    "Ġwithstand": 10224,
    "Ġ108": 19683,
    "Ġreproofs": 24892,
    "Ġdissu": 18550,
    "Ġdiabolically": 25513,
    "iries": 18169,
    "Ġbrave": 6329,
    "Ġderived": 8238,
    "Ġlads": 8597,
    "vult": 21112,
    "safie": 20347,
    "splash": 25209,
    "Ġtides": 13819,
    "Ġhell": 5018,
    "Ġuncounted": 19116,
    "Ġstores": 18071,
    "Ġconfidential": 9088,
    "âĢĿ": 354,
    "Ġkirwin": 8496,
    "lim": 9606,
    "Ġfisheries": 17437,
    "Ġexceptionable": 25503,
    "clu": 20798,
    "Ġmeanwhile": 5736,
    "reproach": 15185,
    "exp": 2736,
    "draw": 23896,
    "Ġsmile": 4271,
    "Ġsurv": 6081,
    "Ġhurts": 19111,
    "Ġlysander": 13137,
    "Ġgasp": 7172,
    "ical": 753,
    "Ġcatastrophe": 10483,
    "Ġpe": 851,
    "frequented": 25900,
    "Ġdisgusted": 14989,
    "queg": 1772,
    "Ġjing": 15947,
    "Ġ105": 24413,
    "dec": 3114,
    "sorrows": 17319,
    "strade": 5064,
    "Ġdecision": 2676,
    "Ġdoing": 3660,
    "ness": 852,
    "conside": 9291,
    "Ġperfect": 2557,
    "Ġwhither": 10214,
    "Ġobeyed": 12214,
    "chair": 5916,
    "crimin": 17508,
    "ave": 980,
    "delightful": 12194,
    "Ġluc": 3312,
    "rule": 15898,
    "founded": 16713,
    "precip": 14664,
    "Ġreason": 1390,
    "sink": 11521,
    "Ġvisitor": 5330,
    "Ġmaketh": 15186,
    "Ġegyptians": 25289,
    "placidity": 25988,
    "Ġunrestrained": 25554,
    "atlantic": 15522,
    "Ġagree": 7646,
    "Ġstrengthen": 20699,
    "datasets": 11949,
    "Ġfounder": 17883,
    "Ġsire": 15500,
    "Ġwerter": 15238,
    "hears": 12530,
    "bery": 9786,
    "Ġmitigating": 1620,
    "mistak": 16878,
    "Ġgroup": 2037,
    "Ġantagon": 19549,
    "atical": 10771,
    "fate": 17539,
    "narrow": 11507,
    "Ġpresumption": 10545,
    "eling": 6681,
    "ui": 9145,
    "Ġbare": 6132,
    "aye": 3659,
    "Ġshakes": 10904,
    "opol": 12866,
    "Ġuttermost": 19486,
    "Ġbecomes": 6396,
    "icious": 7380,
    "Ġliving": 3063,
    "sch": 21049,
    "ailed": 3250,
    "Ġbreeds": 23346,
    "Ġcharcoal": 19007,
    "Ġma": 3256,
    "irect": 5553,
    "Ġdisobedience": 22532,
    "Ġtheoretic": 23308,
    "Ġserviceable": 24718,
    "Ġ106": 24414,
    "wherein": 19107,
    "Ġpleasures": 11143,
    "Ġadam": 2124,
    "Ġtrack": 7450,
    "Ġmet": 1849,
    "outon": 12800,
    "Ġagainst": 1701,
    "Ġomit": 17815,
    "Ġelab": 22637,
    "Ġtrusty": 24103,
    "lord": 3863,
    "Ġtrust": 4079,
    "bid": 5611,
    "Ġsummarization": 3646,
    "twill": 21073,
    "Ġfirmly": 8013,
    "Ġreign": 13983,
    "again": 3400,
    "zek": 16256,
    "bol": 8717,
    "irs": 14069,
    "mrs": 3745,
    "Ġchests": 19670,
    "crated": 16696,
    "Ġzoned": 22817,
    "Ġpictured": 16622,
    "Ġswallows": 18881,
    "Ġpenetrate": 12267,
    "Ġmajesty": 5200,
    "Ġbelieving": 8224,
    "Ġguise": 14431,
    "Ġventilator": 8713,
    "Ġastonishment": 4791,
    "Ġflag": 7242,
    "Ġdenoted": 16565,
    "Ġinsc": 7585,
    "staking": 21645,
    "Ġdeclines": 23960,
    "Ġexcavating": 23312,
    "government": 25406,
    "Ġrunning": 3949,
    "Ġknock": 9972,
    "drifting": 19823,
    "Ġarchitecture": 1119,
    "Ġoakshott": 12227,
    "aimed": 3950,
    "Ġmutilated": 23956,
    "dron": 17525,
    "alid": 13933,
    "Ġsuspend": 14608,
    "lanter": 15386,
    "Ġorb": 22088,
    "Ġmour": 6973,
    "Ġelement": 6898,
    "sul": 15420,
    "Ġchristianity": 19860,
    "Ġmomentary": 11036,
    "taffrail": 15441,
    "Ġvexed": 9993,
    "Ġpierced": 12279,
    "constantinople": 25507,
    "dwelt": 23869,
    "Ġvibrating": 13536,
    "Ġeddystone": 25709,
    "across": 10324,
    "oam": 8751,
    "Ġash": 4829,
    "Ġcyp": 21343,
    "peasant": 23108,
    "people": 7676,
    "feeders": 25235,
    "estation": 15918,
    "opius": 18502,
    "Ġnice": 6676,
    "iii": 14773,
    "Ġrisks": 9963,
    "inside": 23062,
    "Ġpurchases": 24756,
    "Ġyears": 1895,
    "Ġproxim": 3202,
    "Ġevaluation": 16550,
    "otograph": 5826,
    "Ġhurst": 5582,
    "Ġgreas": 17991,
    "tacit": 21097,
    "disappo": 8984,
    "Ġpractically": 13098,
    "Ġbadge": 16683,
    "Ġdisappointing": 19578,
    "chastic": 2334,
    "Ġthw": 21512,
    "Ġdemoniacal": 20555,
    "Ġ42": 16678,
    "Ġallen": 5159,
    "Ġgrotes": 19562,
    "Ġeighty": 19474,
    "Ġbright": 3216,
    "Ġexpon": 968,
    "Ġtroop": 24897,
    "Ġconfessed": 8008,
    "inously": 21185,
    "Ġpeculiarity": 12930,
    "Ġconvulsively": 25717,
    "uge": 4016,
    "Ġappre": 5164,
    "green": 7115,
    "Ġtwopence": 18660,
    "Ġhartshorn": 26180,
    "entitled": 21565,
    "Ġnorms": 3665,
    "Ġbillow": 14777,
    "Ġinsatiate": 19269,
    "Ġquoin": 22415,
    "Ġairy": 23314,
    "ripp": 6404,
    "Ġsurely": 6307,
    "Ġvagueness": 25737,
    "dashed": 12453,
    "Ġsor": 4145,
    "requ": 7148,
    "Ġsymph": 22205,
    "Ġfile": 13901,
    "Ę": 217,
    "verize": 21725,
    "running": 6797,
    "keel": 14128,
    "Ġpapa": 10656,
    "Ġgasping": 17038,
    "Ġconjectured": 9996,
    "Ġalighted": 18103,
    "Ġannoyed": 17199,
    "Ġpit": 3421,
    "conced": 22469,
    "Ġreside": 22536,
    "obedience": 17409,
    "Ġdoings": 18376,
    "Ġmoist": 9285,
    "osoever": 17342,
    "romising": 18233,
    "wail": 21124,
    "phew": 6368,
    "outward": 22157,
    "Ġportcullis": 26603,
    "Ġtradeoff": 2658,
    "Ġpossessor": 23821,
    "cle": 3953,
    "vell": 3956,
    "Ġcordage": 19677,
    "simp": 17665,
    "Ġviolent": 5116,
    "!âĢĶ": 2455,
    "hos": 15362,
    "Ġhumorously": 18778,
    "gigantic": 15358,
    "Ġdeaden": 23459,
    "Ġprovidence": 18745,
    "Ġtattooing": 15027,
    "Ġclim": 8195,
    "Ġincapable": 7423,
    "Ġstrides": 22614,
    "Ġnur": 5710,
    "Ġburied": 7718,
    "Ġbank": 4875,
    "Ġlaboratory": 13610,
    "Ġembarr": 7446,
    "Ġrevealed": 6751,
    "aring": 1476,
    "Ġriv": 10746,
    "Ġcolourless": 19568,
    "detached": 19673,
    "bethinking": 25745,
    "ont": 2623,
    "Ġquaff": 22411,
    "Ġgoblets": 20517,
    "Ġhelping": 3270,
    "problems": 11434,
    "reason": 4413,
    "ĠĠĠĠĠĠĠĠĠĠĠĠĠĠĠĠĠĠĠĠĠĠĠĠĠĠĠĠĠ": 19698,
    "Ġreinforcement": 3076,
    "inate": 6233,
    "Ġintervened": 25481,
    "pect": 1254,
    "Ġlikelihood": 16499,
    "Ġdeficient": 18824,
    "Ġunass": 14113,
    ":âĢĶ": 4430,
    "Ġjapanese": 10632,
    "billiard": 25334,
    "Ġexp": 779,
    "Ġundeniable": 26510,
    "atherley": 7220,
    "Ġmaddening": 17243,
    "consult": 24169,
    "Ġguardians": 14942,
    "Ġyell": 21774,
    "Ġdrove": 4983,
    "results": 20385,
    "specim": 23941,
    "aments": 12722,
    "gers": 8375,
    "rue": 1130,
    "rine": 21036,
    "Ġirritation": 20265,
    "ergy": 2361,
    "threatened": 25462,
    "Ġlament": 7856,
    "ory": 1079,
    "friends": 8305,
    "Ġtrespass": 23599,
    "histor": 13489,
    "Ġty": 6657,
    "independent": 26021,
    "Ġheads": 3741,
    "Ġenveloped": 12206,
    "shirt": 22450,
    "neighbour": 7211,
    "Ġlids": 12273,
    "Ġstrategy": 2419,
    "Ġpossessing": 16575,
    "Ġmizzen": 20288,
    "Ġbreadth": 10563,
    "depend": 9113,
    "N": 50,
    "hatchet": 24822,
    "liv": 9607,
    "fun": 3575,
    "james": 15371,
    "immense": 18052,
    "absurd": 21792,
    "bet": 6109,
    "Ġimbalanced": 18335,
    "wheeling": 22868,
    "establishment": 26113,
    "worked": 19002,
    "²": 115,
    "Ġsailors": 4276,
    "arers": 12127,
    "Ġamong": 1669,
    "Ġthreatening": 16828,
    "Ġduration": 20352,
    "permission": 15894,
    "Ġschooner": 16747,
    "ning": 951,
    "Ġscreamed": 9523,
    "Ġhimself": 1351,
    "vered": 4826,
    "dening": 22777,
    "Ġgaieties": 24195,
    "Ġvoy": 2620,
    "Ġconstitutes": 13550,
    "apering": 8040,
    "poison": 14392,
    "Ġmelancholy": 5606,
    "Ġfling": 9660,
    "Ġsmelt": 16063,
    "Ġgaily": 16748,
    "Ġinfle": 16361,
    "Ġhuddled": 20298,
    "Ġclaret": 22351,
    "Ġfoundations": 11073,
    "uerus": 26406,
    "Ġgenus": 24429,
    "dropped": 12260,
    "Ġlocket": 22110,
    "ides": 2162,
    "Ġorders": 5340,
    "Ġbarbs": 10531,
    "Ġtraged": 9352,
    "Ġwonders": 7500,
    "Ġlob": 7627,
    "swelled": 19609,
    "Ġchimney": 6497,
    "¬": 110,
    "Ġdispleased": 18555,
    "Ġshops": 21998,
    "Ġacid": 22679,
    "Ġlacey": 10197,
    "Ġguernsey": 9351,
    "housekeeper": 24100,
    "ë": 172,
    "probability": 17022,
    "Ġpencils": 23192,
    "Ġstudied": 11114,
    "caterpillar": 26383,
    "attended": 8952,
    "sw": 4738,
    "quietly": 10592,
    "gay": 11488,
    "Ġdines": 21421,
    "Ġstock": 7455,
    "Ġpeaceful": 9457,
    "Ġgermany": 25785,
    "Ġweighing": 20014,
    "15": 12428,
    "abriel": 6950,
    "feature": 4269,
    "Ġhemp": 9216,
    "Ġaper": 17743,
    "Ġhandkerchief": 8913,
    "Ġcreated": 2707,
    "Ġvariety": 8530,
    "Ġhappens": 2189,
    "irting": 11684,
    "Ġrepenting": 25322,
    "Ġintervening": 17267,
    "sold": 15425,
    "Ġimplicit": 19956,
    "Ġappeared": 2774,
    "Ġacquire": 2723,
    "Ġmislead": 22754,
    "rub": 15897,
    "Ġconvert": 11840,
    "ason": 1275,
    "Ġbeneath": 3239,
    "Ġmetaphys": 16387,
    "Ġdocks": 14177,
    "spirited": 19752,
    "endeavouring": 15015,
    "aggoo": 5129,
    "ender": 9161,
    "kindled": 16660,
    "desk": 23205,
    "Ġheeds": 24520,
    "anging": 3550,
    "Ġnavel": 24576,
    "Ġelegant": 7532,
    "Ġobliter": 14321,
    "seek": 8836,
    "Ġcouch": 12568,
    "Ġsoothingly": 25047,
    "urements": 18124,
    "Ġpur": 2218,
    "Ġdiabolism": 25514,
    "Ġridges": 16731,
    "Ġinclu": 1101,
    "Ġtumbling": 13824,
    "Ġscrewing": 20207,
    "Ġ74": 24261,
    "Ġprime": 10404,
    "fer": 1962,
    "lived": 12484,
    "Ġouthouse": 22311,
    "hole": 5586,
    "Ġ102": 24410,
    "gree": 10701,
    "grew": 17555,
    "floating": 12225,
    "parted": 21015,
    "_.)": 7278,
    "Ġstress": 18069,
    "Ġsebastian": 11694,
    "Ġberry": 19745,
    "Ġstalked": 20427,
    "Ġcondescending": 24868,
    "bbings": 19275,
    "rifled": 21046,
    "handsome": 13174,
    "Ġpinch": 15016,
    "transferred": 24514,
    "eel": 11483,
    "Ġinducements": 24965,
    "Ġlethargy": 26482,
    "Ġchuck": 8501,
    "magn": 10610,
    "Ġcarpenter": 4681,
    "Ġcommenting": 25228,
    "marrying": 19546,
    "itigated": 23042,
    "desired": 8956,
    "Ġcultivated": 17363,
    "Ġclings": 15964,
    "Ġepsom": 19981,
    "Ġcrouched": 23440,
    "Ġcoloss": 11046,
    "Ġjump": 4501,
    "isc": 6239,
    "Ġpsalmody": 20583,
    "ators": 7829,
    "ishing": 1146,
    "Ġrobbed": 23022,
    "autions": 20766,
    "ă": 196,
    "Ġrending": 19465,
    "Ġjane": 1759,
    "Ġstaircase": 20094,
    "Ġdiscount": 22779,
    "Ġfro": 3471,
    "ised": 1076,
    "accessory": 25499,
    "Ġpalsy": 25778,
    "Ġpostponed": 20388,
    "cele": 21622,
    "bank": 10079,
    "Ġguiding": 19240,
    "thirty": 12759,
    "Ġmout": 17798,
    "races": 21627,
    "Ġpurses": 23475,
    "Ġeddying": 16434,
    "hav": 20896,
    "Ġcrows": 24031,
    "in": 262,
    "Ġpreface": 18367,
    "Ġgale": 5822,
    "Ġgladly": 14681,
    "unctuous": 21879,
    "Ä": 133,
    "Ġtough": 13813,
    "Ġunsatisfied": 22041,
    "Ġfaded": 10809,
    "Ġcalf": 16265,
    "Ġloathing": 15066,
    "Ġdais": 24372,
    "Ġuns": 15834,
    "ascertain": 21540,
    "Ġgardiners": 11157,
    "Ġlaughed": 5058,
    "Ġhistorically": 19376,
    "Ġclothing": 18424,
    "dwelling": 20563,
    "Ġtang": 13812,
    "Ġacknowledgment": 16957,
    "province": 26072,
    "Ġbud": 10168,
    "Ġslip": 8954,
    "Ġequator": 7461,
    "honor": 19899,
    "Ġhumph": 22880,
    "fab": 13714,
    "Ġhemisphere": 26478,
    "swaying": 25910,
    "Ġattendant": 11285,
    "Ġhymn": 24518,
    "alarms": 21502,
    "Ġbarn": 11586,
    "Ġga": 4444,
    "beaut": 8512,
    "Ġlieu": 19563,
    "icilian": 20690,
    "Ġportions": 19367,
    "Ġcontinu": 1167,
    "Ġhapless": 15810,
    "Ġnoticed": 5549,
    "delirium": 14783,
    "embraces": 25803,
    "uring": 819,
    "×": 152,
    "Ġens": 2786,
    "Ġnews": 3818,
    "Ġmarking": 16468,
    "Ġundergone": 18986,
    "Ġphiladelphia": 26604,
    "Ġear": 1421,
    "lynes": 15701,
    "brown": 15316,
    "Ġmeals": 12708,
    "Ġhearts": 4971,
    "Ġactivation": 918,
    "Ġsemi": 11967,
    "under": 3133,
    "Ġdens": 21422,
    "etence": 21574,
    "Ġmischie": 22757,
    "Ġpeaking": 22687,
    "lanterns": 17428,
    "Ġmeekly": 26490,
    "approaching": 15011,
    "Ġda": 5149,
    "Ġfiendish": 13325,
    "aution": 9388,
    "Ġperish": 8874,
    "_,âĢĻâĢĿ": 20399,
    "Ġglimmer": 15140,
    "Ġburg": 23650,
    "Ġeul": 21615,
    "Ġclose": 3034,
    "Ġaffirm": 11885,
    "sleepers": 24730,
    "venerable": 26408,
    "Ġcontroverted": 23250,
    "conclusion": 25672,
    "Ġardour": 8042,
    "oda": 15746,
    "emone": 21922,
    "Ġsave": 4051,
    "Ã¦us": 14816,
    "hopeless": 16917,
    "Ġlongbourn": 3507,
    "Ġvineyarder": 25606,
    "Ġreceipt": 20354,
    "single": 10126,
    "Ġpursue": 6314,
    "atching": 8201,
    "Ġscrib": 22285,
    "Ġposs": 1618,
    "Ġuseful": 3557,
    "taste": 10129,
    "endous": 6850,
    "Ġresolution": 5500,
    "sam": 21050,
    "Ġhuzza": 12630,
    "Ġinheriting": 25354,
    "ian": 1238,
    "fulness": 4310,
    "Ġcorpora": 26580,
    "Ġprayer": 16666,
    "Ġraging": 14306,
    "Ġqueen": 3215,
    "Ġarrange": 3122,
    "Ġfonder": 17880,
    "Ġenric": 21931,
    "Ġunsocial": 18256,
    "Ġvastly": 23858,
    "Ġintroduce": 3207,
    "Ġceiling": 7996,
    "iless": 10281,
    "const": 5938,
    "raged": 9212,
    "Ġlink": 8129,
    "ortions": 10948,
    "Ġvinegar": 20098,
    "Ġethere": 23948,
    "Ġnovember": 11747,
    "Ġsuccor": 25662,
    "seriously": 18904,
    "Ġsuperiors": 23454,
    "Ġincensed": 18571,
    "Ġcertain": 1555,
    "rmsprop": 4519,
    "Ġbless": 4342,
    "iop": 20918,
    "Ġzodiac": 16173,
    "began": 6426,
    "ologically": 22876,
    "utored": 15660,
    "fishing": 20858,
    "Ġposit": 1308,
    "rog": 15637,
    "univers": 15769,
    "Ġrefuse": 5739,
    "Ġdatasets": 2389,
    "sailors": 9921,
    "Ġraptures": 13495,
    "Ġstudded": 18958,
    "half": 4930,
    "sword": 10726,
    "Ġconstraints": 2739,
    "Ġpunctures": 25133,
    "Ġalps": 10870,
    "Ġnupt": 13941,
    "Ġegress": 21618,
    "icated": 7590,
    "Ġdrowsy": 26444,
    "apparently": 15203,
    "seemed": 4304,
    "Ġrepro": 7275,
    "antique": 18288,
    "Ġdiscontented": 16056,
    "Ġglacier": 11433,
    "Ġquite": 1742,
    "lan": 15376,
    "Ġfam": 1588,
    "Ġharpoone": 2910,
    "islanders": 25442,
    "Ġgrapes": 15214,
    "walls": 25345,
    "Ġ48": 24078,
    "Ġbuttoning": 17235,
    "plan": 15816,
    "suitableness": 26260,
    "Ġprying": 15606,
    "Ġremoter": 20104,
    "Ġmedium": 16681,
    "Ġstart": 3262,
    "Ġcompens": 14263,
    "Ġcoinc": 11001,
    "Ġprogen": 14038,
    "Ġsanta": 26420,
    "itan": 10159,
    "eous": 13710,
    "Ġpeddling": 24799,
    "Ġestate": 6316,
    "fthand": 26386,
    "Ġenter": 4028,
    "Ġwhole": 1664,
    "ires": 6037,
    "Ġcorn": 9350,
    "Ġwhal": 5454,
    "bon": 13682,
    "Ġcholera": 22250,
    "Ġinterfere": 11815,
    "Ġservant": 5764,
    "stone": 5088,
    "Ġbrightened": 23826,
    "Ġtorture": 9065,
    "Ġwrapt": 24595,
    "_)": 9102,
    "narr": 12494,
    "Ġsufferable": 16258,
    "Ġmildness": 9943,
    "Ġdemo": 10879,
    "Ġarrant": 23295,
    "Ġretained": 7173,
    "Ġpills": 21463,
    "stun": 18018,
    "youth": 11873,
    "Ġdevoid": 18680,
    "Ġyaw": 18094,
    "Ġdiverse": 19208,
    "Ġevident": 6612,
    "becomes": 22493,
    "intolerable": 22935,
    "©": 107,
    "Ġtort": 5901,
    "iction": 4267,
    "Ġpolluted": 25593,
    "Ġpanegyric": 26449,
    "putable": 10901,
    "Ġtranque": 14200,
    "schoolmaster": 15160,
    "Ġinterlacing": 22573,
    "Ġpend": 15603,
    "Ġpaunch": 23747,
    "contents": 12056,
    "erative": 21271,
    "ners": 3274,
    "sculpt": 16243,
    "Ġparents": 6752,
    "someone": 14563,
    "tor": 15431,
    "Ġcad": 12565,
    "Ġtwist": 11849,
    "Ġspur": 18303,
    "Ġslavery": 16306,
    "letters": 13172,
    "Ġjurymen": 16847,
    "yourselves": 24956,
    "Ġlens": 8437,
    "Ġdeclined": 9920,
    "Ġfeatures": 1432,
    "Ġcleans": 18947,
    "Ġlimits": 3454,
    "Ġeber": 18003,
    "Ġobeying": 13412,
    "Ġencouragement": 13039,
    "Ġalacrity": 15734,
    "derment": 22158,
    "uth": 3016,
    "Ġselecting": 16684,
    "Ġarea": 14186,
    "Ġfreshets": 25705,
    "ump": 2284,
    "vens": 21111,
    "Ġendow": 23139,
    "Ġcloudless": 16668,
    "Ġscheme": 7064,
    "Ġwearing": 12736,
    "irms": 18168,
    "Ġpresto": 22227,
    "covering": 15333,
    "thorough": 21982,
    "charmed": 21693,
    "Ġintruder": 25991,
    "[": 63,
    "circ": 4387,
    "falling": 24361,
    "Ġadv": 1138,
    "pha": 22771,
    "evil": 11485,
    "Ġpretension": 23762,
    "Ġstriving": 8995,
    "Ġautomatically": 4012,
    "Ġrecording": 24434,
    "Ġprogressive": 5023,
    "Ġwhen": 514,
    "impress": 18051,
    "your": 1986,
    "ault": 2307,
    "Ġmisgiv": 14344,
    "Ġgift": 10840,
    "Ġspans": 18304,
    "ssip": 14079,
    "Ġstriking": 6088,
    "Ġarchangel": 8542,
    "Ġdisaster": 12884,
    "Ġstrokes": 16769,
    "Ġpalp": 11251,
    "until": 6596,
    "Ġgarb": 21600,
    "osely": 9265,
    "Ġdefinitions": 22941,
    "Ġunhappy": 5640,
    "Ġrespective": 16343,
    "sided": 17664,
    "Ġanimated": 7701,
    "oices": 7348,
    "Ġreligious": 25121,
    "recl": 15509,
    "less": 927,
    "Ġsim": 734,
    "Ġwhist": 6021,
    "Ġattorney": 18626,
    "Ġiii": 7860,
    "Ġrounded": 14437,
    "Ġcorrob": 16264,
    "tenham": 16320,
    "Ġstormy": 16728,
    "maid": 8553,
    "Ġbearded": 15724,
    "air": 1005,
    "rod": 10831,
    "cocks": 23560,
    "Ġgalvan": 21614,
    "Ġdrowsiness": 26445,
    "merged": 11193,
    "uten": 11621,
    "Ġplaned": 24052,
    "Ġsaved": 6690,
    "Ġvalues": 2651,
    "Ġbed": 2142,
    "offer": 19062,
    "calmed": 16202,
    "iations": 11494,
    "Ġdiscern": 7925,
    "Ġembodiment": 20526,
    "Ġvariously": 18653,
    "Ġrace": 5847,
    "Ġof": 298,
    "Ġdislike": 6047,
    ",âĢĶâĢĺ": 23801,
    "Ġboarded": 13231,
    "address": 14880,
    "Ġincantation": 26257,
    "Ġcaravan": 26290,
    "Ġfearfully": 23509,
    "Ġbelie": 14405,
    "daughter": 8353,
    "Ġlothario": 26184,
    "union": 15767,
    "Ġdefiance": 11068,
    "Ġconstable": 19070,
    "Ġcentrally": 23829,
    "Ġpromoting": 3163,
    "Ġconsult": 6056,
    "ladder": 19783,
    "clear": 9024,
    "nurtured": 25524,
    "Ġfallen": 5967,
    "Ġswung": 6449,
    "vener": 21110,
    "Ġwilful": 10534,
    "pocket": 9810,
    "Ġchimer": 24602,
    "Ġ41": 24077,
    "Ġsimpleton": 16334,
    "Ġcakes": 13882,
    "pyramid": 21029,
    "Ġexterm": 21826,
    "ored": 3893,
    "oundering": 11744,
    "Ġabide": 14187,
    "Ġsubsc": 22787,
    "Ġtight": 8107,
    "blot": 20782,
    "fortunate": 4789,
    "Ġperformance": 1309,
    "jerked": 25618,
    "precision": 4331,
    "Ġlowly": 11121,
    "Ġattentively": 9949,
    "Ġtiles": 17726,
    "Ġringle": 18212,
    "warrant": 21136,
    "forward": 2188,
    "Ġforeshad": 23451,
    "Ġcalls": 6744,
    "sustained": 20567,
    "----âĢĻ": 24094,
    "crawling": 16958,
    "Ġinsomuch": 23681,
    "Ġbarrens": 25501,
    "riet": 18183,
    "ders": 8074,
    "Ġfasten": 11132,
    "eye": 6224,
    "rasing": 21044,
    "Ġepicurean": 20554,
    "Ġacts": 2295,
    "Ġcompanies": 14557,
    "sized": 15427,
    "Ġcuff": 17829,
    "Ġvaliantly": 22799,
    "Ġpresumed": 10544,
    "Ġimpotently": 22390,
    "mention": 7215,
    "Ġverses": 17063,
    "Ġrefill": 18697,
    "Ġshipmates": 6720,
    "Ġ54": 24322,
    "aste": 4598,
    "Ġproposals": 10613,
    "[_": 5130,
    "Ġsuspending": 19243,
    "Ġshud": 5461,
    "Ġwal": 6517,
    "theories": 18078,
    "Ġascertained": 25296,
    "Ġassu": 21894,
    "dra": 3414,
    "sufficient": 6635,
    "Ġsequential": 2129,
    "una": 21866,
    "highly": 24764,
    "angels": 22103,
    "Ġbelted": 22945,
    "buff": 15317,
    "Ġdictated": 25218,
    "Ġspin": 7629,
    "con": 654,
    "Ġdrawback": 23990,
    "Ġrifle": 18214,
    "Ġmate": 3709,
    "choice": 21688,
    "Ġincredible": 9514,
    "Ġrhone": 25230,
    "Ġstim": 18066,
    "Ġribbons": 24329,
    "Ġcousins": 9914,
    "Ġamiss": 18511,
    "Ġmoth": 17802,
    "Ġreser": 5169,
    "Ġbias": 1191,
    "Ġenlist": 21933,
    "failed": 20862,
    "preference": 22464,
    "Ġlanes": 19764,
    "Ġthrobbing": 16898,
    "anted": 5026,
    "Ġblowing": 10484,
    "Ġabilities": 8866,
    "initely": 7568,
    "Ġbarrier": 16569,
    "Ġroughly": 17040,
    "Ġsensibly": 14514,
    "Ġbarbaric": 10013,
    "Ġdre": 1746,
    "Ġadvantages": 9807,
    "Ġgovernments": 20266,
    "output": 4400,
    "pping": 1424,
    "Ġtossings": 25356,
    "Ġindividuals": 24546,
    "mechan": 11855,
    "aways": 15309,
    "Ġrandomly": 1923,
    "larger": 24202,
    "Ġunceasingly": 20357,
    "Ġlikened": 16498,
    "Ġsense": 3254,
    "Ġliquid": 22406,
    "arded": 5028,
    "Ġsublim": 19965,
    "dependence": 17167,
    "Ġdolphins": 20394,
    "Ġlivid": 14988,
    "Ġarbit": 4647,
    "Ġdwelt": 12602,
    "continual": 20643,
    "gee": 15975,
    "Ġconvalescence": 23744,
    "Ġunsur": 22019,
    "cer": 6642,
    "--------": 14779,
    "Ġbored": 16103,
    "Ġinputs": 843,
    "fug": 17543,
    "six": 7141,
    "Ġdivers": 9665,
    "produ": 10720,
    "dislike": 23492,
    "Ġbustle": 17227,
    "Ġbul": 3296,
    "Ġtrait": 23071,
    "Ġpar": 456,
    "Ġfumbled": 17881,
    "Ġnative": 4637,
    "Ġsmoked": 10322,
    "Ġcurves": 18840,
    "ĠĠĠĠĠĠĠĠĠĠĠĠĠĠĠĠĠĠĠĠĠĠĠĠĠ": 24442,
    "Ġbristol": 14379,
    "Ġcork": 12566,
    "affording": 23775,
    "Ġwin": 9641,
    "Ġhappening": 14382,
    "getic": 12962,
    "ificant": 22203,
    "unusual": 21876,
    "Ġimpl": 7195,
    "Ġregularization": 1174,
    "Ď": 207,
    "Ġgor": 9207,
    "Ġdy": 2538,
    "prom": 6509,
    "school": 10054,
    "Ġenglishman": 11230,
    "impenetrable": 26196,
    "values": 4972,
    "Ġclerical": 25568,
    "Ġnarwhale": 12291,
    "Ġdisturbed": 8671,
    "Ġcountenances": 11963,
    "forbidding": 25835,
    "speaking": 12096,
    "Ġwhar": 7388,
    "those": 4493,
    "subject": 6631,
    "offing": 23331,
    "neighbours": 24881,
    "quietude": 24655,
    "Ġcharitable": 23267,
    "Ġannoyance": 20661,
    "Ġpostmark": 16725,
    "Ġthan": 736,
    "Ġhollowly": 24526,
    "Ġunintellig": 22023,
    "Ġcow": 13874,
    "Ġbernard": 20683,
    "step": 2457,
    "Ġcompan": 2173,
    "rolled": 9060,
    "cery": 20807,
    "ompl": 4533,
    "Ġunra": 18237,
    "arle": 21438,
    "Ġroom": 1464,
    "nav": 17612,
    "Ġnewly": 9338,
    "Ġthickets": 24023,
    "Ġfob": 21407,
    "Ġembedding": 2102,
    "paid": 15413,
    "Ġtrappings": 23079,
    "Ġmccarthy": 5144,
    "Ġcrime": 4613,
    "Ġmot": 2982,
    "Ġmuseum": 15269,
    "rabb": 15677,
    "Ġrespons": 2684,
    "Ġcanopy": 18322,
    "restraint": 18980,
    "Ġinflex": 20633,
    "buoy": 7760,
    "Ġcasting": 12098,
    "Ġdilatory": 24705,
    "erland": 9640,
    "estion": 18362,
    "bo": 1691,
    ":--": 5784,
    "Ġcommand": 3323,
    "Ġclatter": 22344,
    "Ġknowing": 4455,
    "Ġdeeply": 4713,
    "avenue": 25057,
    "fourths": 25509,
    "Ġpenet": 6888,
    "Ġaltogether": 4828,
    "inked": 12910,
    "acute": 22593,
    "Ġfather": 1452,
    "ophisticated": 22467,
    "Ġindefinite": 17176,
    "Ġphys": 5653,
    "Ġimperfect": 13337,
    "Ġmeasurement": 19421,
    "Ġfelt": 1748,
    "insula": 23063,
    "ays": 6683,
    "lads": 20954,
    "vels": 5432,
    "sharpening": 22456,
    "Ġfun": 522,
    "Ġbuying": 23996,
    "omin": 4699,
    "philosophers": 25252,
    "plague": 21956,
    "Ġenh": 3078,
    "Ġtoll": 7851,
    "cur": 3273,
    "Ġbeats": 21749,
    "â": 163,
    "Ġturk": 6603,
    "Ġblackstone": 23387,
    "Ġadvancement": 24475,
    "requirements": 24857,
    "Ġangles": 23587,
    "Ġwalton": 14971,
    "riminately": 16482,
    "ignomin": 23264,
    "pulling": 25146,
    "Ġhowever": 1307,
    "Ġfall": 2984,
    "Ġroared": 7023,
    "¶": 119,
    "Ġsatisfying": 23695,
    "repeat": 25151,
    "Ġfibres": 12948,
    "oniously": 21256,
    "Ġcatching": 9477,
    "alle": 1294,
    "Ġarrives": 23606,
    "surprising": 16919,
    "near": 5842,
    "Ġloomings": 24949,
    "itating": 9650,
    "Ġ22": 8278,
    "hen": 3516,
    "Ġsuited": 12781,
    "Ġlinks": 13953,
    "comes": 5394,
    "believe": 8303,
    "anything": 5518,
    "ran": 11515,
    "ape": 1908,
    "Ġheathenish": 13614,
    "Ġprudent": 9185,
    "Ġrushes": 20506,
    "Ġcannibal": 7773,
    "Ġvengeance": 5884,
    "Ġcreases": 22725,
    "Ġscr": 11759,
    "Ġpermitted": 9278,
    "anse": 12572,
    "Ġreferred": 8916,
    "table": 5795,
    "Ġsupplied": 8943,
    "Ġinterlude": 16068,
    "Ġcherish": 10589,
    "Ġalert": 18101,
    "Ġirresolute": 24916,
    "Ġapprehens": 5682,
    "Ġ8": 5433,
    "ents": 1900,
    "Ġunpitying": 25660,
    "tarpaulins": 26405,
    "Ġsudden": 2000,
    "bbed": 6911,
    "Ġbankers": 24302,
    "franch": 24284,
    "alled": 5910,
    "Ġsecretary": 19441,
    "wanderer": 25423,
    "Ġcheetah": 14503,
    "list": 7551,
    "Ġunprejudiced": 18269,
    "fred": 20854,
    "succeed": 10329,
    "Ġserm": 9633,
    "Ġchildish": 13135,
    "supers": 22644,
    "Ġbrig": 11047,
    "Ġexert": 5722,
    "loa": 18533,
    "depart": 12263,
    "rogress": 21533,
    "ples": 6845,
    "Ġcirclings": 26431,
    "ė": 216,
    "who": 2447,
    "Ġpiqu": 21474,
    "Ġjealously": 24123,
    "Ġstiff": 6992,
    "Ġravings": 18647,
    "arthly": 8029,
    "jury": 15372,
    "suff": 4960,
    "Ġentire": 2560,
    "Ġ*": 1272,
    "Ġrisk": 8038,
    "Ġhyster": 16873,
    "Ġflea": 23771,
    "wat": 6231,
    "aly": 1107,
    "Ġbell": 4632,
    "chess": 16573,
    "cheer": 9437,
    "Ġglitter": 25123,
    "hero": 21203,
    "Ġfriendly": 9819,
    "Ġencourages": 2060,
    "soul": 9141,
    "Ġvindict": 13603,
    "Ġmermaid": 17813,
    "icating": 15652,
    "ist": 449,
    "Ġoverthrow": 18431,
    "amouch": 21842,
    "experienced": 15120,
    "Ġpursu": 3241,
    "Ġindeed": 1681,
    "respectively": 24700,
    "Ġlanyard": 26461,
    "commend": 19991,
    "Ġwre": 5076,
    "Ġplied": 22595,
    "Ġcontains": 2791,
    "watch": 6118,
    "Ġfloundered": 18862,
    "Ġneighbor": 25805,
    "Ġimmaculate": 19484,
    "zag": 17713,
    "------": 12131,
    "illar": 5100,
    "Ġnapole": 15114,
    "bowed": 10683,
    "doub": 6223,
    "Ġchat": 6560,
    "Ġobserving": 6080,
    "fearing": 18530,
    "Ġhelped": 7459,
    "Ġdisconnected": 22522,
    "Ġstrands": 25574,
    "Ġspy": 22120,
    "ours": 3428,
    "Ġ1991": 3014,
    "Ġprepar": 7896,
    "afterwards": 7484,
    "stick": 15682,
    "Ġwint": 15531,
    "Ġdistingu": 2514,
    "Ġmechan": 1184,
    "Ġconveyed": 8334,
    "pretty": 10621,
    "´": 117,
    "Ġcows": 15550,
    "Ġunhe": 22007,
    "chain": 18039,
    "Ġloathsome": 13526,
    "initions": 21186,
    "Ġreusability": 13556,
    "Ġflounders": 23011,
    "Ġcord": 5221,
    "Ġunnearable": 26516,
    "fisher": 7547,
    "Ġcleaving": 23179,
    "requent": 3649,
    "oney": 3048,
    "Ġdeterminate": 23001,
    "scream": 11076,
    "pictures": 15089,
    "Ġsomething": 1795,
    "Ġtrifle": 10601,
    ".,": 5987,
    "Ġhag": 12622,
    "aloft": 8806,
    "considerable": 10548,
    "fortunes": 6332,
    "Ġheathen": 10565,
    "Ġculprit": 26172,
    "Ġenters": 11025,
    "ous": 476,
    "Ġpunctually": 17138,
    "Ġmetal": 9383,
    "Ġvolcano": 24146,
    "ignified": 14490,
    "Ġtransformer": 2637,
    "Ġstubb": 1787,
    "Ġquebec": 24132,
    "Ġinjured": 9040,
    "io": 3802,
    "resnet": 4069,
    "Ġrecesses": 17260,
    "circumstance": 7763,
    "unteered": 26495,
    "volutional": 1936,
    "Ġthemselves": 3255,
    "assertion": 22308,
    "Ġgathers": 24743,
    "Ġuntrodden": 23520,
    "ignation": 11128,
    "flutterings": 26606,
    "Ġbandaged": 16842,
    "Ġfame": 21404,
    "Ġimmort": 19482,
    "Ġubiqu": 18046,
    "Ġcharge": 5324,
    "Ġinsupportable": 13930,
    "Ġgrammar": 1061,
    "minds": 24232,
    "Ġsilver": 7463,
    "Ġbarrow": 12067,
    "Ġpassengers": 13673,
    "Ġwide": 4107,
    "Ġarranging": 11174,
    "Ġdisappointment": 6626,
    "brow": 15314,
    "Ġtransparency": 10676,
    "Ġstrategies": 1838,
    "Ġgrow": 2860,
    "Ġsoftware": 18918,
    "Ġsympathise": 16794,
    "Ġpallidness": 25604,
    "feeling": 6616,
    "Ġflee": 7079,
    "Ġmethodic": 23143,
    "gradually": 12912,
    "ske": 13780,
    "dashing": 20835,
    "Ġunfaltering": 24111,
    "breeze": 20561,
    "Ġsepul": 14088,
    "Ġedward": 19119,
    "Ġaccess": 9746,
    "Ġunreason": 15840,
    "Ġdesires": 9458,
    "ancient": 9655,
    "ipotent": 10960,
    "aan": 20763,
    "Ġ12": 5483,
    "ager": 6546,
    "Ġimpending": 22384,
    "one": 615,
    "Ġaccommod": 14212,
    "Ġmanx": 7904,
    "Ġsple": 21214,
    "appointment": 24056,
    "ckles": 22086,
    "cement": 2663,
    "reds": 12745,
    "Ġklan": 23661,
    "ither": 1545,
    "Ġreeds": 15693,
    "age": 504,
    "Ġfascinating": 17327,
    "Ġcollections": 22854,
    "Ġsmells": 8889,
    "Ġtalk": 1970,
    "almost": 4942,
    "ateful": 5926,
    ".;": 20743,
    "Ġrenew": 6145,
    "bull": 13688,
    "Ġinfirmity": 26298,
    "ropy": 1103,
    "Ġdissembling": 26254,
    "Ġweaken": 21919,
    "Ġtechni": 1672,
    "Ġcruises": 23704,
    "Ġbomb": 17867,
    "riors": 18186,
    "Ġperplexed": 23660,
    "Ġtaught": 6803,
    "whose": 6852,
    "Ġpreced": 6039,
    "lement": 10166,
    "Ġplainly": 4380,
    "Ġhorrors": 10479,
    "Ġveracity": 23887,
    "Ġex": 360,
    "Ġexquis": 9697,
    "rested": 13072,
    "Ġmaintenance": 17461,
    "ineer": 11697,
    "Ġmisty": 16539,
    "passion": 11260,
    "Ġakin": 15494,
    "Ġgladness": 16591,
    "Ġwor": 1189,
    "Ġquiet": 3264,
    "drive": 8682,
    "sequ": 2400,
    "Ġbec": 1349,
    "Ġfrom": 435,
    "Ġoffence": 12942,
    "Ġoutdone": 22315,
    "Ġblacksmiths": 19872,
    "Ġtash": 13818,
    "ateg": 1364,
    "Ġturned": 2130,
    "Ġdumbly": 24985,
    "ilder": 15710,
    "Ġhel": 3787,
    "iogn": 20920,
    "acceler": 23597,
    "boom": 18998,
    "Ġbel": 1214,
    "Ġbale": 7838,
    "Ġparading": 23709,
    "Ġprovoke": 14825,
    "Ġblooming": 17212,
    "Ġag": 684,
    "Ġentrance": 7233,
    "honey": 20904,
    "tied": 21069,
    "Ġshadowed": 24042,
    "Ġlight": 1703,
    "Ġhimmale": 18329,
    "Ġlashed": 9199,
    "Ġfreshness": 23988,
    "upwards": 18864,
    "Ġhoky": 17926,
    "asters": 8433,
    "depths": 25663,
    "Ġperu": 14222,
    "Ġhatchway": 13523,
    "ĠĠĠĠĠĠĠĠĠĠĠĠĠĠĠĠĠĠĠĠĠĠĠĠĠĠĠĠĠĠĠĠĠĠĠĠĠ": 14614,
    "ittance": 12842,
    "Ġfearfulness": 23510,
    "Ġselected": 9709,
    "Ġdiversity": 25284,
    "otics": 10223,
    "Ġ65": 24368,
    "Ġprofundity": 20451,
    "Ġdisastrous": 16057,
    "Ġdiversion": 17197,
    "cig": 17503,
    "Ġbulb": 23853,
    "assured": 10952,
    "understanding": 1150,
    "lifeless": 24312,
    "Ġvision": 1582,
    "{": 95,
    "Ġpremeditated": 22231,
    "Ġtartar": 17321,
    "mortar": 25408,
    "Ġpitched": 9444,
    "Ġsouthwards": 19632,
    "eastern": 17533,
    "charge": 9448,
    "Ġwoes": 23983,
    "Ġgeomet": 3194,
    "Ġinjection": 3467,
    "enty": 2915,
    "jumped": 20245,
    "Ġinf": 1758,
    "osures": 22258,
    "itative": 13868,
    "typewritten": 26038,
    "Ġtucked": 12390,
    "Ġbales": 21387,
    "istry": 22106,
    "open": 7025,
    "secure": 12233,
    "Ġdarted": 4755,
    "Ġtargets": 4203,
    "lemency": 21372,
    "foreseen": 14253,
    "Ġrussia": 26267,
    "asses": 7016,
    "repent": 15512,
    "Ġarrangement": 2657,
    "Ġedge": 5187,
    "Ġdeficiencies": 26570,
    "Ġcoronet": 6344,
    "Ġarchipelagoes": 14347,
    "Ġvan": 1087,
    "ements": 11108,
    "Ġperplexity": 2754,
    "Ù": 154,
    "Ġperilously": 24507,
    "Ġoccupations": 9459,
    "Ġlaborers": 19059,
    "ifts": 12732,
    "Ġquivers": 22410,
    "Ġirr": 10421,
    "Ġroods": 22401,
    "Ġcorrect": 2433,
    "covery": 11171,
    "furniture": 20241,
    "before": 3116,
    "transp": 24512,
    "marest": 20979,
    "Ġlangu": 575,
    "Ġaforethought": 25428,
    "Ġtower": 8318,
    "Ġocean": 3306,
    "Ġalb": 14014,
    "bedstead": 23847,
    "circle": 16736,
    "vi": 2374,
    "resum": 17761,
    "ounts": 4648,
    "Ġmeditative": 25014,
    "Ġcirc": 1987,
    "Ġindefinitely": 25221,
    "Ġdisgusting": 19893,
    "hailed": 17565,
    "Ġarmy": 11739,
    "Ġtalking": 3856,
    "Ġviii": 16411,
    "Ġale": 9155,
    "inst": 4295,
    "Ġprotecting": 24686,
    "Ġsutherland": 10148,
    "Ġsearching": 13160,
    "off": 1889,
    "Ġfiddle": 25444,
    "Ġgrand": 3592,
    "Ġtinge": 25087,
    "Ġmid": 2616,
    "Ġtrees": 4201,
    "Ġhaughty": 11449,
    "hoist": 23712,
    "Ġhandles": 22692,
    "ĠĠĠĠĠĠĠ": 7631,
    "Ġsisterly": 16301,
    "Ġpharaoh": 26585,
    "lic": 17587,
    "Ġmou": 13853,
    "otion": 4945,
    "Ġbargain": 23791,
    "Ç": 136,
    "elly": 17979,
    "Ġconscious": 7743,
    "Ġbore": 5078,
    "spect": 3234,
    "cannib": 11900,
    "Ġasi": 12729,
    "impregnable": 26481,
    "Ġdeg": 3284,
    "ougher": 18279,
    "Ġlac": 17964,
    "Ġfondness": 16780,
    "Ġtut": 8769,
    "Ġstack": 21733,
    "Ġsophisticated": 1626,
    "rad": 2256,
    "Ġtoilette": 20491,
    "attached": 11933,
    "Ġconsc": 4274,
    "Ġresembles": 25969,
    "Ġju": 10286,
    "Ġtrained": 8503,
    "Ġgreedy": 3052,
    "Ġinfinitely": 8963,
    "Ġstrenuously": 17447,
    "Ġunche": 23427,
    "Ġdramat": 23215,
    "Ġcondemn": 13442,
    "Ġmarshal": 20218,
    "Ġslewed": 23383,
    "aggo": 5096,
    "dripping": 16905,
    "Ġcountryside": 23595,
    "onic": 7827,
    "Ġdone": 1816,
    "Ġloitered": 26525,
    "Ġadoption": 24948,
    "endent": 15920,
    "Ġdick": 3496,
    "Ï": 144,
    "palms": 25262,
    "adopt": 25544,
    "birth": 15321,
    "Ġpainfully": 13140,
    "Ġconsecrate": 26489,
    "Ġtrampling": 25492,
    "Ġhollow": 5648,
    "Ġpalsied": 25779,
    "Ġdeeps": 16105,
    "Ġsake": 4091,
    "Ġplucked": 15112,
    "civility": 17513,
    "ucy": 15443,
    "Ġbang": 17854,
    "Ġgeneva": 5450,
    "Ġsurround": 4614,
    "Ġhe": 318,
    "Ġsubdivisions": 26037,
    "Ġuse": 827,
    "itt": 571,
    "ouri": 21445,
    "Ġforlorn": 14013,
    "engaged": 7452,
    "ug": 1769,
    "Ġdepos": 11007,
    "Ġdisorder": 16048,
    "sho": 6425,
    "Ġspile": 22124,
    "hester": 9631,
    "Ġtremendous": 8352,
    "Ġthirdly": 24142,
    "behaviour": 11301,
    "Ġfatal": 5871,
    "Ġcook": 3713,
    "knew": 9127,
    "Ġclust": 9274,
    "Ġchambermaid": 24304,
    "ore": 418,
    "drop": 15336,
    "bunger": 20400,
    "Ġobstacles": 19834,
    "een": 726,
    "Ġrazors": 22654,
    "Ġplease": 4719,
    "Ġhesitation": 13439,
    "Ġcompos": 22566,
    "Ġdebt": 12165,
    "Ġprescribed": 26010,
    "Ġtriumph": 5142,
    "Ġbeams": 14631,
    "iving": 1726,
    "Ġbunger": 9995,
    "Ġindelible": 25694,
    "Ġfoster": 18991,
    "ces": 578,
    "ugnance": 12366,
    "ister": 1295,
    "Ġimmortal": 8017,
    "Ġreaction": 15692,
    "admitted": 18091,
    "Ġdivision": 19443,
    "kshire": 13744,
    "urs": 6989,
    "Ġbasic": 24701,
    "Ġfuriously": 9801,
    "Ġcarav": 18901,
    "Ġhumor": 11051,
    "Ġnets": 21521,
    "raise": 18011,
    "Ġcloud": 3909,
    "Ġyounger": 5252,
    "Ġsurprise": 3828,
    "Ġhandsome": 4905,
    "Ġadrift": 11720,
    "Ġeverywhere": 9795,
    "respect": 6374,
    "Ġdismally": 20213,
    "restored": 18979,
    "customary": 25895,
    "plied": 10255,
    "Ġpalms": 8643,
    "scor": 13016,
    "igner": 21699,
    "Ġstandards": 19015,
    "dÃ¦mon": 17527,
    "incredible": 16497,
    "Ġsecondary": 23334,
    "Ġbehoo": 19033,
    "Ġneskyeuna": 26459,
    "Ġcompl": 3760,
    "Ġbeliefs": 24582,
    "Ġausten": 5880,
    "Ġtons": 11549,
    "Ġsphy": 18311,
    "Ġslates": 11107,
    "Ġlurks": 11290,
    "Ġpolished": 11182,
    "Ġapprehensiveness": 16877,
    "Ġoffers": 12943,
    "Ġrobustness": 18885,
    "Ġexhale": 24402,
    "Ġsect": 17751,
    "city": 15326,
    "Ġjob": 7015,
    "Ġperpet": 7644,
    "mell": 20963,
    "madly": 24420,
    "pond": 21012,
    "Ġreminded": 9998,
    "Ġpressing": 9261,
    "Ġgallons": 14817,
    "Ġsurmised": 24919,
    "Ġleaps": 14000,
    "renadier": 18419,
    "iverse": 13113,
    "earnestly": 17312,
    "Ġcontest": 18473,
    "Ġsensible": 4975,
    "Ġlaudanum": 20689,
    "Ġimprobable": 9792,
    "Ġoverpower": 12839,
    "du": 604,
    "Ġthimble": 15634,
    "holes": 12052,
    "Ġsable": 15499,
    "persecut": 22177,
    "Ġaggregated": 25678,
    "Æ": 135,
    "Ą": 197,
    "Ġenraged": 10244,
    "ped": 6365,
    "ipher": 18432,
    "kind": 3862,
    "Ġeternity": 12276,
    "user": 5104,
    "Ġvenetian": 14846,
    "angling": 14140,
    "Ġstuffed": 13407,
    "Ġmethinks": 10391,
    "Ġanom": 12608,
    "Ġrevolver": 14899,
    "Ġsubterr": 10348,
    "Ġhopelessly": 16374,
    "ke": 429,
    "Ġpooh": 18603,
    "represented": 20194,
    "yours": 7694,
    "Ġregression": 4408,
    "byter": 16212,
    "springing": 24889,
    "Ġfrighted": 24029,
    "Ġincoherent": 17399,
    "Ġcrib": 21346,
    "Ġparties": 7038,
    "Ġtrifling": 10602,
    "Ġquarrels": 16566,
    "Ġundesired": 12776,
    "Ġmen": 1434,
    "mightily": 24102,
    "Ġfifth": 11257,
    "bus": 5354,
    "Ġth": 299,
    "Ġweather": 3994,
    "reserved": 13841,
    "Ġdeacon": 18140,
    "Ġsatisfaction": 5667,
    "Ġword": 1050,
    "Ġphenomena": 21480,
    "Ġrecommence": 16812,
    "race": 11630,
    "Ġlobes": 22112,
    "Ġengraved": 17081,
    "Ġheron": 22070,
    "cturn": 17986,
    "Ġkra": 18348,
    "Ġcoolness": 16886,
    "Ġneutral": 12741,
    "astonishment": 10029,
    "Ġhorseman": 19606,
    "abode": 21788,
    "ibility": 2390,
    "Ġcircular": 13108,
    "Ġresigned": 9767,
    "Ġhovering": 10178,
    "Ġjustified": 11902,
    "Ġwhip": 8451,
    "explain": 1481,
    "Ġbubble": 13533,
    "Ġdisturbing": 19944,
    "Ġfeelings": 2454,
    "example": 16011,
    "Ġrefreshed": 15289,
    "Ġrests": 13091,
    "Ġjeopardy": 13594,
    "mortal": 10112,
    "Ġmutter": 23951,
    "Ġscientific": 6857,
    "cold": 9589,
    "Ġinvolve": 11043,
    "Ġhierarchical": 1929,
    "Ġlimp": 19179,
    "grey": 14911,
    "Ġheiress": 20696,
    "Ġhumbug": 18779,
    "Ġhurriedly": 11250,
    "Ġmiscellaneous": 17462,
    "Ġdistinguished": 8272,
    "questioning": 16850,
    "Ġembalmed": 13654,
    "Ġsixth": 16559,
    "Ġmarry": 4416,
    "Ġpines": 12614,
    "ded": 2422,
    "Ġenriched": 26499,
    "dick": 11479,
    "Ġclimes": 12838,
    "Ġboarders": 16600,
    "Ġcongregational": 25102,
    "Ġfool": 4234,
    "Ġvillages": 14747,
    "Ġfluctuating": 24417,
    "distraction": 24200,
    "Ġawakened": 10453,
    "carte": 25400,
    "Ġeve": 13968,
    "Ġblew": 9046,
    "mole": 22698,
    "Ġnailing": 21524,
    "Ġburnished": 23998,
    "Ġheroic": 14907,
    "ued": 7561,
    "Ġyelled": 9693,
    "ists": 3998,
    "Ġxv": 23405,
    "intercourse": 14638,
    "representativeness": 25272,
    "liked": 10508,
    "Ġanguish": 5583,
    "Ġrelish": 14383,
    "Ġsunshine": 14494,
    "Ġpods": 17912,
    "incible": 16496,
    "thar": 18217,
    "Ġaccurately": 4010,
    "Ġcoast": 4652,
    "Ġcrooked": 11281,
    "indian": 11776,
    "Ġpaste": 23417,
    "Ġmustering": 18662,
    "ascertaining": 26460,
    "gentlemanlike": 20000,
    "Ġoblong": 14320,
    "execution": 20470,
    "Ġpersisting": 18883,
    "Ġbanker": 8666,
    "pleased": 8853,
    "Ġbuilt": 8300,
    "educated": 17259,
    "Ġpanelled": 19653,
    "Ġadver": 5641,
    "freely": 16854,
    "Ġflashed": 11912,
    "Ġquarto": 17295,
    "letons": 14612,
    "Ġtorpor": 25031,
    "Ġhandsomer": 20332,
    "fierce": 25255,
    "Ġscared": 14189,
    "Ġxxiv": 24477,
    "property": 19998,
    "tur": 5688,
    "Ġdream": 3537,
    "Ġnut": 12643,
    "Ġslop": 23160,
    "Ġstrong": 1788,
    "Ġcolle": 8924,
    "Ġunwonted": 14124,
    "Ġwane": 21287,
    "Ġsaws": 23046,
    "icity": 2541,
    "Ġmatter": 1735,
    "Ġchiswick": 25560,
    "strength": 13978,
    "feit": 16040,
    "Ġlapse": 17120,
    "Ġstrict": 7222,
    "isturbed": 18297,
    "filled": 9594,
    "Ġcapsizing": 20087,
    "Ġextinct": 14326,
    "Ġautom": 3768,
    "Ġarom": 15491,
    "Ġsoon": 1227,
    "pig": 8752,
    "Ġellenborough": 26154,
    "prehend": 14242,
    "Ġmotioned": 19591,
    "Ġcrav": 19172,
    "Ġcommissioned": 19894,
    "Ġenables": 725,
    "Ġreaders": 18914,
    "Ġsore": 10764,
    "clut": 23149,
    "Ġclimates": 25050,
    "Ġfreighted": 16322,
    "elson": 16369,
    "Ġbloss": 19255,
    "Ġbrixton": 13661,
    "yingly": 23057,
    "Ġcountess": 11962,
    "actor": 11836,
    "Ġreco": 9790,
    "appro": 7044,
    "Ġprograms": 7239,
    "Ġcrop": 10162,
    "Ġpool": 5172,
    "Ġcooper": 16075,
    "Ġpray": 3897,
    "Ġsqualid": 14367,
    "allet": 11082,
    "Ġpertur": 12847,
    "Ġrods": 9753,
    "jaws": 20931,
    "ell": 398,
    "Ġdevoutly": 25832,
    "Ġdetaining": 25818,
    "Ġspitz": 14148,
    "Ġprovides": 1931,
    "Ġweapon": 7775,
    "gon": 17552,
    "jure": 20923,
    "Ġsilvery": 13092,
    "Ġsufferings": 7513,
    "Ġacknowled": 6350,
    "Ġcondescension": 10618,
    "Ġhero": 5715,
    "Ġcomprehensive": 15086,
    "Ġnest": 10188,
    "Ġmaster": 3682,
    "aked": 2016,
    "othic": 16214,
    "Ġmills": 21310,
    "wheel": 22867,
    "Ġtones": 8399,
    "Ġphrases": 2795,
    "Ġbehaviour": 4383,
    "Ġcrowder": 19455,
    "forever": 22516,
    "ancholy": 5069,
    "Ġfee": 7199,
    "anzas": 17840,
    "Ġmis": 917,
    "Ġultimately": 17164,
    "unwillingness": 25802,
    "mit": 4932,
    "Ġroar": 9752,
    "Ġcorners": 18874,
    "Ġrinal": 21977,
    "latitudes": 17196,
    "Ġpew": 9315,
    "Ġflood": 7715,
    "Ġcrammed": 16470,
    "Ġconfessor": 24019,
    "Ġvaried": 11846,
    "Ġunhappily": 18262,
    "cked": 2761,
    "Ġrounding": 16274,
    "Ġrecognise": 12046,
    "Ġsaviour": 20712,
    "Ġfierceness": 26265,
    "trampled": 26333,
    "grasp": 16429,
    "Ġbosom": 6939,
    "weave": 22682,
    "Ġtransitory": 16016,
    "amb": 5723,
    "Ġcou": 5286,
    "meal": 22703,
    "Ġdinner": 4243,
    "by": 1158,
    "Ġgam": 11623,
    "Ġbegins": 7244,
    "Ġlub": 15646,
    "Î": 143,
    "suspect": 9539,
    "Ġpersonal": 7479,
    "choose": 23671,
    "Ġoccas": 2703,
    "Ġcracks": 12018,
    "Ġblanche": 18819,
    "nour": 20987,
    "Ġtinkling": 25212,
    "Ġpercept": 14223,
    "tent": 21063,
    "Ġ1": 1015,
    "Ġsharply": 9403,
    "Ġinclined": 6622,
    "delighted": 10562,
    "Ġknitting": 24218,
    "Ġlunatic": 24990,
    "H": 44,
    "bread": 10684,
    "abash": 18107,
    "ad": 337,
    "judge": 13334,
    "Ġmoles": 22431,
    "ashed": 3785,
    "Ġdesmarest": 22978,
    "Ġfortresses": 23620,
    "Ġresiding": 16059,
    "Ġmeasures": 1205,
    "Ġrepining": 23358,
    "Ġresolved": 3798,
    "oun": 484,
    "Ġsemblance": 20733,
    "Ġcomplying": 18584,
    "priv": 9619,
    "discrimin": 19607,
    "shipping": 10307,
    "Ġcomforter": 20505,
    "Ġtender": 5753,
    "Ġsant": 21213,
    "miss": 3175,
    "Ġexplain": 545,
    "pract": 10119,
    "Ġenlivened": 26207,
    "Ġfired": 16152,
    "Ġlying": 4822,
    "ocratic": 17245,
    "Ġstream": 5185,
    "Ġapplied": 6186,
    "'re": 12426,
    "Ġcontrari": 23347,
    "Ġwondering": 7970,
    "Ġsweetheart": 19393,
    "Ġmankind": 6698,
    "Ġevening": 2652,
    "devils": 20031,
    "Ġprow": 6684,
    "Ġharbour": 19978,
    "Ġjavan": 24997,
    "hue": 20898,
    "Ġcask": 5527,
    "esy": 9186,
    "~": 98,
    "mbling": 3346,
    "Ġmamma": 10047,
    "Ġdiscuss": 9473,
    "Ġindia": 10370,
    "love": 9294,
    "obli": 23092,
    "Ġenticing": 22739,
    "Ġmyst": 4050,
    "ener": 562,
    "Ġ1839": 20458,
    "Ġseap": 15812,
    "Ġpond": 13914,
    "Ġhol": 1182,
    "Ġlightness": 23258,
    "Ġintimate": 6549,
    "there": 1423,
    "Ġlucy": 17969,
    "Ġskil": 14351,
    "Ġunprofitable": 18267,
    "Ġshutters": 9936,
    "Ġswallowed": 7943,
    "asher": 15643,
    "spent": 12940,
    "Ġtol": 6675,
    "Ġfault": 5702,
    "ilingly": 21720,
    "gins": 12466,
    "ree": 874,
    "friendly": 13282,
    "Ġcommonplace": 11096,
    "Ġrigging": 5601,
    "Ġdisput": 14255,
    "Ġpolicy": 10457,
    "Ġcandle": 8291,
    "Ġmanoir": 22328,
    "Ġphysi": 9987,
    "Ġhereditarily": 25224,
    "idea": 9301,
    "Ġwrath": 16316,
    "Ġdiscussed": 19558,
    "Ġ]": 15458,
    "Ġbrid": 6290,
    "Ġdispose": 23877,
    "narrative": 17318,
    "wonted": 13491,
    "Ġshrill": 12139,
    "Ġpoints": 5247,
    "crat": 24096,
    "Ġrevenge": 5452,
    "Ġtone": 4039,
    "Ġtrouble": 3692,
    "actory": 8907,
    "Ġbeside": 5191,
    "Ġserving": 14485,
    "Ġidleness": 11144,
    "Ġ55": 24323,
    "moving": 11016,
    "Ġfond": 4752,
    "Ġmeal": 9696,
    "stem": 568,
    "Ġby": 383,
    "Ġbermud": 26439,
    "Ġconfirms": 23306,
    "Ġsickle": 24245,
    "Ġwonderful": 4560,
    "mes": 1196,
    "Ġcomposition": 1688,
    "ario": 14247,
    "Ġwhaleman": 4651,
    "lighter": 20958,
    "excited": 13378,
    "Ġexperiments": 23002,
    "Ġgrec": 18962,
    "Ġinitialization": 1252,
    "Ġatrocious": 21940,
    "Ġtrousers": 12413,
    "Ġwaifing": 25243,
    "Ġarrived": 3747,
    "Ġconsecutive": 20701,
    "ashes": 6015,
    "alterable": 13622,
    "Ġchill": 11750,
    "Ġchurches": 12825,
    "known": 3567,
    "Ġlandlady": 10422,
    "irc": 1732,
    "id": 338,
    "page": 13769,
    "snowy": 20282,
    "Ġlunch": 13524,
    "hering": 12811,
    "ĩ": 234,
    "Ġtyrant": 24767,
    "ilight": 12690,
    "Ġrouted": 24907,
    "arts": 6563,
    "Ġjago": 22296,
    "scene": 14419,
    "Ġyoun": 1408,
    "pron": 9005,
    "Ġsignificance": 13278,
    "Ġopinions": 9415,
    "Ġmotion": 4563,
    "tried": 13792,
    "Ġlibr": 15998,
    "prit": 19340,
    "Ġ39": 19488,
    "Ġcomforted": 19389,
    "Ġunscrew": 22037,
    "Ġunmanner": 22026,
    "Ġwishes": 4792,
    "Ġwides": 17788,
    "Ġdated": 10939,
    "Ġinhabitants": 7524,
    "Ġcoals": 16073,
    "Ġinh": 10824,
    "Ġmarling": 23031,
    "imprudence": 16557,
    "Ġinterests": 14568,
    "Ġuncompromised": 20602,
    "Ġflatter": 9348,
    "Ġproceeding": 9905,
    "girdling": 26389,
    "Ġsalutation": 12395,
    "Ġeastward": 13388,
    "pagans": 25525,
    "Ġexasperated": 11412,
    "Ġappals": 22217,
    "Ġplata": 25117,
    "Ġjerk": 16950,
    "avast": 8896,
    "iard": 9601,
    "irm": 3110,
    "Ġcircumvent": 25064,
    "Ġsnow": 3708,
    "Ġrephr": 21676,
    "Ġmonoton": 3636,
    "Ġsolutions": 1948,
    "Ġstomach": 11652,
    "Ġarmed": 9260,
    "soundest": 24797,
    "aited": 12433,
    "advice": 12155,
    "drovand": 24760,
    "uff": 2730,
    "heaved": 21209,
    "Ġominous": 12422,
    "affectionate": 24921,
    "Ġdischar": 11806,
    "ur": 326,
    "Ġmortar": 19391,
    "malice": 17604,
    "lad": 5991,
    "Ġconcil": 23320,
    "fugitive": 26131,
    "ferences": 10326,
    "Ġstreng": 18073,
    "angular": 11721,
    "ught": 2749,
    "fedallah": 25522,
    "Ġshocked": 9401,
    "Ġinherited": 25353,
    "Ġcongreg": 8462,
    "Ġbegrimed": 26578,
    "Ġunctuous": 10266,
    "Ġmaxim": 3087,
    "Ġinscrutable": 10672,
    "Ġindolence": 16227,
    "]]": 5204,
    "Ġstrives": 23693,
    "iam": 2509,
    "Ġlouder": 13466,
    "pacific": 17641,
    "ubb": 1653,
    "Ġcanvas": 7783,
    "smallest": 23909,
    "occasional": 19575,
    "Ġignor": 4009,
    "quest": 4535,
    "fortunately": 9451,
    "Ġpulse": 13112,
    "owards": 4591,
    "asol": 21537,
    "Ġsucceeded": 6105,
    "greatly": 16623,
    "solely": 19815,
    "allowing": 24358,
    "Ġencoder": 3635,
    "Ġbehind": 2806,
    "Ġduodecimo": 16767,
    "twas": 15436,
    "told": 7811,
    "Ġfew": 1204,
    "Ġreef": 10849,
    "Ġmachines": 1778,
    "Ġende": 21929,
    "whar": 15925,
    "cont": 2919,
    "Ġelasticity": 19557,
    "Ġbreak": 2868,
    "estone": 18363,
    "nailed": 20995,
    "noticed": 14342,
    "tem": 6369,
    "Ġwrest": 11570,
    "anish": 2617,
    "Ġdifferences": 18714,
    "Ġdirection": 1793,
    "÷": 184,
    "ĠĠĠĠĠĠĠĠĠĠĠĠĠĠĠĠĠĠĠĠĠĠĠĠĠĠĠĠĠĠĠĠĠĠĠĠĠĠĠĠĠĠĠĠĠĠĠĠĠĠĠĠĠĠĠĠĠĠĠĠ": 19259,
    "icacy": 15655,
    "Ġthrowing": 6335,
    "throughout": 24084,
    "Ġseams": 12122,
    "Ġslaugh": 18937,
    "Ġfeasible": 22208,
    "lilies": 20960,
    "returned": 7765,
    "harpoone": 6107,
    "Ġlearn": 362,
    "pronouncing": 25193,
    "lizzy": 6651,
    "Ġwoods": 5406,
    "Ġdistinctly": 7311,
    "general": 7489,
    "Ġostr": 21323,
    "Ġscuff": 15941,
    "Ġsentence": 6187,
    "Ġdaboll": 25950,
    "Ġmartyr": 26360,
    "ga": 17550,
    "Ċ": 203,
    "Ġmason": 10157,
    "laughed": 20280,
    "Ġpipeline": 2444,
    "inous": 8771,
    "7": 27,
    "Ġboon": 22634,
    "Ġinfall": 7959,
    "Ġgreater": 3035,
    "slouched": 24557,
    "gling": 10097,
    "clearly": 25195,
    "Ġconcoct": 19046,
    "Ġneuron": 1807,
    "Ġtold": 2186,
    "Ġmachine": 794,
    "Ġ1807": 26083,
    "Ġrenounce": 19466,
    "Ġcells": 13883,
    "mystical": 25317,
    "Ġascending": 14853,
    "Ġincompetent": 25679,
    "Ġtok": 1245,
    "Ġjollies": 20368,
    "vices": 21115,
    "bern": 20774,
    "Ġcalled": 1974,
    "Ġencountered": 8321,
    "Ġdepart": 4653,
    "Ġwarm": 2426,
    "saved": 15430,
    "Ġchurchyard": 16777,
    "precious": 12070,
    "Ġshol": 21992,
    "Ġinspirited": 23419,
    "Ġimagine": 3921,
    "Ġbrains": 2631,
    "stalk": 21647,
    "rep": 5525,
    "agrad": 2745,
    "Ġpitchpoling": 14910,
    "suddenly": 6493,
    "Ġ124": 24469,
    "Ġdisquiet": 18552,
    "Ġillust": 8262,
    "pattern": 4859,
    "Ġsleeve": 20139,
    "Ġsingers": 23769,
    "á": 162,
    "text": 1975,
    "!âĢĿâĢĶ": 8532,
    "Ġdavis": 25952,
    "cheeked": 19339,
    "Ġgo": 613,
    "Ġsuccour": 20433,
    "Ġoffered": 5816,
    "Ġdefined": 11896,
    "Ġimp": 585,
    "Ġgn": 8817,
    "Ġdistant": 5387,
    "sugg": 11842,
    "Ġdevil": 3613,
    "brothers": 17024,
    "gration": 9122,
    "Ġ37": 24075,
    "save": 13783,
    "Ġsaucer": 20604,
    "suitable": 18640,
    "Ġopposing": 12038,
    "Ġgrizz": 10352,
    "Ġgrazed": 15831,
    "arising": 17895,
    "Ġconvulsive": 19305,
    "married": 9948,
    "Ġclasping": 20208,
    "Ġratt": 7880,
    "tell": 1381,
    "Ġintercept": 14268,
    "Ġglance": 4232,
    "Ġlatent": 19654,
    "missed": 11208,
    "Ġcrony": 23439,
    "Ġcontro": 1687,
    "Ġsympathies": 14860,
    "fishermen": 17061,
    "steak": 14707,
    "Ġundeceive": 25552,
    "Ġmoves": 14231,
    "poles": 16209,
    "Ġintim": 6838,
    "aware": 16293,
    "Ġwond": 3937,
    "Ġbend": 9171,
    "Ġmeek": 21806,
    "Ġrobbery": 11918,
    "accountable": 7109,
    "lightning": 16552,
    "Ġtrinity": 22342,
    "Ġsteal": 16282,
    "Ġfactor": 19012,
    "Ġtwitch": 22673,
    "Ġbinnacle": 8118,
    "Ġgasps": 24865,
    "Ġnurtured": 19748,
    "whal": 10940,
    "Ġpolitical": 19222,
    "Ġexamined": 6334,
    "##": 2317,
    "comra": 16164,
    "osure": 5306,
    "Ġchast": 18380,
    "gi": 17551,
    "Ġalleys": 25978,
    "Ġfled": 6670,
    "allest": 5485,
    "Ġhailed": 6407,
    "Ġeagerness": 6608,
    "âĢĶ.": 11753,
    "Ġp": 288,
    "Ġremonstrate": 22792,
    "pers": 4336,
    "case": 5205,
    "Ġeyelids": 26107,
    "attering": 7417,
    "rating": 7808,
    "patient": 25342,
    "Ġmal": 5220,
    "Ġmysteries": 11322,
    "solic": 16375,
    "Ġdistricts": 20262,
    "Ġinsights": 13177,
    "Ġextended": 7921,
    "Ġorganize": 8991,
    "shortened": 24748,
    "Ġfor": 340,
    "rifice": 12501,
    "Ġcruising": 6913,
    "Ġcorruption": 15224,
    "wants": 21129,
    "much": 3707,
    "Ġendless": 7053,
    "Ġinexorable": 12253,
    "vill": 10735,
    "Ġnaturalists": 10363,
    "sails": 7497,
    "Ġpun": 4584,
    "Ġcopying": 17068,
    "Ġshows": 8482,
    "inform": 10143,
    "Ġbert": 4579,
    "sweeping": 24618,
    "Ġlungs": 8361,
    "Ġbarricade": 14660,
    "Ġdisgra": 18549,
    "Ġreaped": 18029,
    "Ġdefects": 12331,
    "Ġdebts": 8035,
    "stuff": 15685,
    "Ġscar": 3214,
    "Ġjoes": 19230,
    "ration": 2005,
    "F": 42,
    "shabb": 18495,
    "Ġwedding": 4855,
    "Ġaback": 22263,
    "fier": 9593,
    "Ġflail": 23005,
    "Ġdetails": 6565,
    "Ġalien": 14016,
    "dense": 18715,
    "Ġ77": 24263,
    "willingness": 24755,
    "Ġadventurous": 16733,
    "Ġaugment": 8691,
    "Ġthey": 576,
    "Ġrecurred": 18978,
    "Ġprincipally": 11309,
    "imag": 6990,
    "ees": 13709,
    "Ġscorched": 17101,
    "article": 22391,
    "leap": 21365,
    "oman": 2018,
    "Ġgestic": 21605,
    "Ġcustomary": 8669,
    "Ġplates": 11006,
    "Ġobey": 9518,
    "Ġwrit": 8241,
    "Ġkicking": 16901,
    "cons": 4309,
    "Ġwant": 1120,
    "ogy": 22710,
    "Ġthinkings": 22809,
    "oded": 11668,
    "Ġw": 272,
    "Ġ26": 10470,
    "Ġhonourable": 10456,
    "Ġbackstays": 22660,
    "Ġillustrious": 17109,
    "Ġdistressed": 8514,
    "Ġattribute": 16097,
    "Ġmu": 17795,
    "ernsey": 8901,
    "squ": 7809,
    "Ġmeet": 2803,
    "Ġerrand": 11085,
    "Ġsuperstitions": 17072,
    "etics": 21578,
    "Ġaffairs": 6877,
    "Ġpol": 2576,
    "Ġprocopius": 19730,
    "Ġwandered": 6930,
    "Ġ95": 19772,
    "interrupt": 8615,
    "Ġtrous": 10956,
    "Ġball": 3623,
    "alot": 15623,
    "chants": 21689,
    "his": 1412,
    "Ġbasket": 9572,
    "Ġfriesland": 26442,
    "Ġinnocence": 6477,
    "Ġwaters": 3595,
    "Ġstru": 2170,
    "grateful": 10428,
    "Ġmeanly": 12906,
    "Ġdiscernment": 15067,
    "loath": 22505,
    "Ġsuavely": 26523,
    "Ġresounds": 22539,
    "Ġtraps": 23077,
    "tomorrow": 25914,
    "Ġimmensity": 25329,
    "Ġchamois": 16800,
    "ostentatious": 20651,
    "Ġformed": 3882,
    "50": 6784,
    "Ġwoodlands": 23519,
    "Ġmob": 16015,
    "mun": 20961,
    "torm": 11530,
    "Ġunwe": 15836,
    "uneasy": 23684,
    "Ġshark": 5550,
    "Ġdisregard": 22525,
    "Ġoozy": 21325,
    "Ġfamine": 16327,
    "mounting": 25207,
    "cherries": 19755,
    "Ġtruly": 4793,
    "ident": 3381,
    "Ġamongst": 8959,
    "Ġmodesty": 12814,
    "Ġturn": 1299,
    "Ġmeasuring": 22879,
    "lips": 13748,
    "Ġshaft": 18229,
    "anim": 6522,
    "yn": 7819,
    "Ġcrusad": 23705,
    "true": 2586,
    "inferences": 17739,
    "Ġeyeing": 6460,
    "Ġanno": 9667,
    "sitting": 8386,
    "comrade": 20622,
    "liest": 6294,
    "porpoise": 16437,
    "Ĕ": 213,
    "Ġvel": 7186,
    "fil": 12460,
    "Ġdash": 8121,
    "Ġstooped": 14463,
    "Ġswarm": 23051,
    "Ġfainting": 16897,
    "dining": 13703,
    "breadth": 20275,
    "Ġhate": 5445,
    "pres": 16026,
    "Ġfreezing": 23881,
    "rudent": 6482,
    "slight": 10727,
    "Ġannesley": 19576,
    "Ġdelicacy": 6340,
    "iet": 1776,
    "unfortunate": 15774,
    "tha": 15821,
    "Ġentreaties": 9036,
    "earthly": 24724,
    "Ñ": 146,
    "az": 2183,
    "Ġrecumbent": 22744,
    "answers": 22137,
    "Ġimpious": 15985,
    "Ġdozen": 8185,
    "cence": 9588,
    "Ġprogrammed": 11058,
    "Ġunman": 12771,
    "Ġcrystal": 17214,
    "Ġstrain": 6023,
    "breckinridge": 24072,
    "Ġmanly": 22321,
    "attery": 18484,
    "Ġheadlong": 11886,
    "Ġrebellion": 26475,
    "reed": 6373,
    "Ġsame": 1342,
    "Ġawake": 8271,
    "humiliation": 24021,
    "Ġorganization": 7983,
    "Ġoverfitting": 1541,
    "russian": 22186,
    "Ġspasmodically": 17313,
    "often": 6165,
    "Ġbriefly": 11367,
    "Ġmorocco": 26573,
    "iter": 4390,
    "Ġplainpal": 19276,
    "Ġinvent": 7164,
    "shoe": 14966,
    "ex": 624,
    "Ġbelieve": 2146,
    "Ġinsipid": 26313,
    "Ġrejoined": 14926,
    "drink": 10595,
    "escaped": 14230,
    "Ġconfine": 14508,
    "Ġfolding": 19726,
    "pooh": 18802,
    "Ġneighbourhood": 5125,
    "Ġunreasonably": 17450,
    "Ġimpression": 5732,
    "miserable": 8656,
    "Ġlips": 3989,
    "follows": 24528,
    "Ġearnestness": 12123,
    "Ġunful": 22008,
    "Ġbraces": 14669,
    "Ġsequ": 983,
    "other": 1317,
    "anelles": 26434,
    "Ġcharing": 14180,
    "vitiated": 25754,
    "Ġfleets": 23772,
    "lone": 11499,
    "Ġamuse": 5939,
    "Ġdoubly": 16384,
    "approached": 13483,
    "care": 4927,
    "Ġcandelab": 23846,
    "orified": 21400,
    "Ġamours": 22478,
    "ook": 21003,
    "Ġ57": 24325,
    "Ġers": 15459,
    "Ġgloom": 4200,
    "Ġboasting": 19934,
    "Ġrigged": 16717,
    "Ġjour": 11762,
    "Ġfamilies": 8026,
    "Ġrun": 2355,
    "regarding": 15070,
    "ims": 7176,
    "Ġunfortunate": 5376,
    "log": 18534,
[...]
