{
  "metadata": {
    "vocab_size": 26616,
    "algorithm": "BPE",
    "created_at": "2026-05-10 05:36:17",
    "special_tokens": [
      "<PAD>",
      "<SOS>",
      "<EOS>",
      "<UNK>",
      "<MASK>"
    ]
  },
  "vocab": {
    "disposed": 25013,
    "Ġcoolness": 16888,
    "Ġundoubted": 19517,
    "Ġjunk": 15957,
    "Ġslates": 11107,
    "Ġweb": 9243,
    "Ġpolitics": 19226,
    "Ġpulse": 13118,
    "Ġmuhammad": 26170,
    "Ġasylum": 13670,
    "Ġorder": 1685,
    "Ġrested": 9382,
    "Ġshipped": 9718,
    "Ġemer": 5959,
    "Ġpictured": 16625,
    "Ġwaning": 15537,
    "wilful": 25152,
    "exe": 11793,
    "Ġdiscernment": 15072,
    "headsman": 16699,
    "Ġdeser": 3886,
    "Ġapiece": 16815,
    "coloured": 7290,
    "Ġperfectly": 3701,
    "Ġbrew": 23345,
    "restored": 18979,
    "Ġnecessity": 7295,
    "Ġwatchful": 16528,
    "rid": 5137,
    "irection": 2385,
    "Ġstupidity": 15052,
    "|": 96,
    "Ġremaining": 6189,
    "Ġreduces": 2341,
    "animate": 12583,
    "Ġinser": 6819,
    "Ġsuperhuman": 23455,
    "Ġpreprocessing": 26538,
    "simple": 13455,
    "Ġresounds": 22546,
    "Ġimitate": 14160,
    "Ġinferences": 17937,
    "Ġearl": 7676,
    "Ġopposition": 16522,
    "Ġsails": 5257,
    "Ġmeridians": 17358,
    "Ġlarboard": 11010,
    "Ġfaint": 5812,
    "Ġineffect": 13933,
    "Ġrecital": 16145,
    "Ġcenturies": 8626,
    "Ġbeast": 7179,
    "coffin": 10665,
    "Ġmuchness": 18707,
    "eastern": 17535,
    "Ġhated": 7585,
    "Ġsensitivity": 3068,
    "Ġadorn": 12796,
    "interference": 23740,
    "glorious": 19370,
    "lux": 14228,
    "Ġungovernable": 20711,
    "Ġindignantly": 16941,
    "Ġtid": 8107,
    "Ġparameters": 990,
    "Ġgryphon": 4300,
    "Ġsoliloquized": 17305,
    "Ġnext": 2138,
    "Ġexcuse": 5862,
    "Ġvelvets": 25394,
    "goose": 19103,
    "subs": 14304,
    "educated": 17262,
    "Ġenvironments": 24063,
    "Ġnovels": 15933,
    "ading": 5091,
    "Ġgardiners": 11158,
    "wil": 8769,
    "herds": 22207,
    "Ġsurrounded": 5879,
    "Ġvapors": 19910,
    "Ġswiftness": 9930,
    "Ġstroll": 13356,
    "Ġlain": 17964,
    "Ġunparalleled": 15857,
    "Ġwhim": 14002,
    "Ġsufferings": 7513,
    "Ġdivert": 23595,
    "Ġreceptacle": 23195,
    "ilty": 6394,
    "Ġexasperate": 20101,
    "leaped": 17845,
    "Ġkeeps": 8267,
    "eprints": 12798,
    "Ġpreferment": 19855,
    "lied": 6507,
    "Ġclimax": 25054,
    "Ġapoplexy": 25266,
    "Ġcriminal": 7537,
    "Ġcharcoal": 19009,
    "Ġappar": 7410,
    "Ġfruitless": 25606,
    "singular": 12193,
    "Ġdireful": 11019,
    "estation": 15926,
    "Ġupper": 5090,
    "Ġpaddington": 17096,
    "moon": 10338,
    "secur": 18129,
    "Ġfondness": 16782,
    "Ġimmut": 13301,
    "Ġunheeded": 18262,
    "apside": 22963,
    "Ġobjectionable": 16993,
    "Ġsuav": 22085,
    "Ġwalking": 4325,
    "Ġnorm": 764,
    "Ġconve": 5455,
    "Ġgaol": 19570,
    "beards": 22495,
    "Ġequilib": 4134,
    "Ġstruggles": 16581,
    "Ġstript": 23697,
    "ifers": 15786,
    "Ġflee": 7080,
    "cheap": 23807,
    "Ġshapes": 14112,
    "Ġsine": 10765,
    "englishman": 23679,
    "wrinkles": 16558,
    "Ġgrassy": 24379,
    "Ġpiratical": 24798,
    "Ġcommunicate": 10580,
    "Ġforster": 5230,
    "zz": 4293,
    "ning": 949,
    "ys": 3959,
    "Ġways": 5396,
    "seen": 2877,
    "feelings": 5674,
    "Ġitems": 9695,
    "Ġrestraint": 15131,
    "engagement": 14462,
    "Ġcursed": 6728,
    "ne": 645,
    "Ġtravelled": 7771,
    "Ġexclaiming": 13644,
    "situ": 9624,
    "Ġthoughtlessness": 16198,
    "lob": 22510,
    "ared": 771,
    "Ġsle": 2013,
    "nostril": 26561,
    "Ġachieve": 3673,
    "Ġcheerfulness": 10519,
    "Ġhurt": 7700,
    "Ġdawn": 6816,
    "ĠĠĠĠĠĠĠĠĠĠĠĠĠĠĠĠĠĠĠĠĠĠĠĠĠĠĠĠĠĠĠĠĠĠĠĠĠĠĠĠĠĠĠĠĠ": 9955,
    "Ġnoon": 6560,
    "Ġdelic": 4132,
    "Ġbarbaric": 10017,
    "Ġreddening": 25971,
    "Ġreplace": 14479,
    "Ġsuffusing": 23033,
    "aye": 3660,
    "Ġextremity": 8991,
    "exerc": 16019,
    "Ę": 217,
    "atory": 6126,
    "Ġremo": 3786,
    "Ġfrigate": 13085,
    "Ġsatan": 14393,
    "Ġfreshets": 25705,
    "Ġplate": 8902,
    "Ġfall": 2986,
    "Ġdirty": 9181,
    "twill": 21077,
    "Ġseptember": 18208,
    "Ġfiles": 21416,
    "ider": 21769,
    "detained": 24382,
    "concern": 6100,
    "Ġpoint": 2058,
    "Ġinsert": 19907,
    "buttons": 22404,
    "Ġcomm": 838,
    "chiefly": 14849,
    "ppery": 10893,
    "Ġincreasingly": 9374,
    "Ġeffeminacy": 20720,
    "idea": 9304,
    "Ġintrig": 21994,
    "Ġinterference": 8897,
    "Ġell": 17717,
    "allions": 22202,
    "Ġexultation": 15175,
    "Ġinv": 2222,
    "dataset": 23202,
    "Ġtempest": 8213,
    "loa": 18535,
    "slept": 17172,
    "interruption": 20115,
    "completed": 19997,
    "icult": 3339,
    "constant": 11325,
    "flour": 23969,
    "tallow": 21088,
    "Ġswart": 14438,
    "Ġcomprehension": 15090,
    "creatures": 7517,
    "hundred": 8331,
    "eray": 21269,
    "Ġimpudence": 26243,
    "Ġshut": 3942,
    "Ġunconcern": 14120,
    "Ġhues": 21492,
    "Ġbrahma": 26321,
    "ohnson": 16328,
    "Ġprophes": 16352,
    "Ġsax": 10930,
    "cable": 20799,
    "Ġconducted": 10505,
    "Ġanyways": 22524,
    "ve": 322,
    "Ġacquired": 13048,
    "opol": 12877,
    "pleasant": 5875,
    "crier": 20822,
    "immediately": 10052,
    "fits": 13721,
    "aurus": 20563,
    "Ġchair": 3662,
    "Ġcranes": 20386,
    "Ġannihilation": 15169,
    "Ġinterrupted": 6344,
    "obey": 11511,
    "Ġmainten": 16117,
    "idate": 21771,
    "Ġwreck": 7313,
    "Ġphara": 23203,
    "minded": 9040,
    "Ġgracechurch": 12203,
    "Ġbuoyancy": 20045,
    "Ġswimmer": 19462,
    "quadr": 15768,
    "Ġroyals": 19535,
    "Ġemployed": 5200,
    "shaken": 16030,
    "Ġthrew": 3973,
    "fearfully": 25119,
    "itig": 1331,
    "Ġrumpled": 24601,
    "Ġ104": 24412,
    ".)": 6783,
    "Ġbreakers": 12059,
    "rict": 8093,
    "baden": 25616,
    "speed": 19412,
    "figure": 13558,
    "cats": 17514,
    "Ġmut": 3582,
    "Ġmoderation": 12824,
    "lipped": 16220,
    "Ġdecoding": 3080,
    "Ġbutchers": 18273,
    "Ġfootmen": 23800,
    "Ġtraversed": 18894,
    "Ġpetticoat": 15299,
    "Ġfifty": 4624,
    "ratches": 20128,
    "Ġprophesy": 26062,
    "Ġsubstantiated": 25876,
    "Ġarabian": 9093,
    "Ġidentity": 2523,
    "Ġdreams": 7496,
    "Ġnorth": 4320,
    "fen": 20852,
    "iously": 2676,
    "Ġexample": 5096,
    "discovering": 24254,
    "Ġlibr": 16005,
    "Ġineffectual": 17387,
    "igan": 21702,
    "Ġspades": 12802,
    "Ġtravellers": 11309,
    "pig": 8756,
    "Ġmates": 4873,
    "roof": 17956,
    "oward": 6021,
    "wrote": 11548,
    "Ġflaming": 8566,
    "Ġdiffidence": 14661,
    "stump": 21656,
    "terbury": 21828,
    "Ġrenow": 18030,
    "Ġcollect": 7236,
    "laws": 19810,
    "Ġ105": 24413,
    "Ġport": 3308,
    "asted": 4650,
    "Ġcrozetts": 19632,
    "Ġxxxvi": 24972,
    "Ġpolynes": 16084,
    "Ġsexes": 25172,
    "Ġglances": 10375,
    "Ġsides": 4580,
    "absolutely": 10648,
    "Ġpallor": 13518,
    "heeded": 13837,
    "Ġentrapped": 26264,
    "damn": 20027,
    "Ġflank": 8229,
    "weakness": 16128,
    "Ġobsolete": 26560,
    "boats": 6205,
    "Ġbaker": 4696,
    "Ġmorocco": 26575,
    "Ġiii": 7861,
    "false": 15358,
    "Ġsevere": 6032,
    "Ġdeeds": 15760,
    "Ġrecesses": 17263,
    "antly": 1989,
    "Ġflight": 6581,
    "Ġmansion": 17811,
    "Ġtotally": 9474,
    "Ġimperilled": 19581,
    "Ġdarcy": 1342,
    "Ġpanthe": 19656,
    "Ġ54": 24318,
    "Ġunimaginable": 15250,
    "asable": 21544,
    "Ġstoutly": 16926,
    "Ġslyness": 25267,
    "hos": 15367,
    "Ġmerchants": 23735,
    "Ġq": 1089,
    "Ġestate": 6317,
    "isive": 10795,
    "Ġbasement": 24701,
    "hester": 9634,
    "Ġvengeance": 5885,
    "Ġtypewritten": 16425,
    "Ġabuse": 18398,
    "Ġcultiv": 13559,
    "arking": 16129,
    "alously": 15633,
    "ressing": 8921,
    "Ġdespised": 14669,
    "Ġmerc": 9429,
    "º": 123,
    "Ġtinge": 25090,
    "Ġsystematic": 5244,
    "Ġhorizontally": 17014,
    "engthen": 14461,
    "Ġquite": 1740,
    "Ġvagueness": 25738,
    "wit": 7817,
    "Ġeber": 18006,
    "Ġcompanies": 14559,
    "Ġreflect": 6576,
    "Ġintelligently": 3969,
    "Ġarchitecture": 1120,
    "Ġcertain": 1560,
    "Ġgeorge": 3749,
    "Ġhurtling": 24960,
    "thole": 21990,
    "Ġattempts": 10493,
    "Ġestimation": 11219,
    "Ġjup": 15956,
    "Ġfailure": 13318,
    "ouncing": 8496,
    "deliberated": 26119,
    "Ġflinging": 13588,
    "Ġalleys": 25979,
    "Ġweeping": 11690,
    "peace": 13053,
    "Ġsched": 2335,
    "Ġoverpower": 12848,
    "Ġcooking": 16649,
    "Ġgouldings": 26189,
    "veil": 18045,
    "Ġ270": 25133,
    "Ġvintage": 26211,
    "ruding": 9727,
    "Ġlife": 1352,
    "conven": 6163,
    "Ġsi": 21215,
    "Ġprofessional": 7298,
    "anzas": 17842,
    "guilt": 24073,
    "leisure": 21374,
    "Ġhints": 8431,
    "cost": 19188,
    "Ġheed": 5630,
    "Ġvib": 8165,
    "Ġmixture": 9565,
    "Ġlizard": 12660,
    "Ġamid": 4959,
    "Ġconfirming": 25322,
    "esley": 17904,
    "pedest": 24823,
    "Ġhanover": 20589,
    "Ġstrategy": 2465,
    "Ġsanction": 20029,
    "Ġtinkling": 25213,
    "Ġlashed": 9201,
    "Ġaffections": 10387,
    "Ġtears": 4231,
    "agues": 8161,
    "Ġspasmod": 12417,
    "arrang": 14654,
    "spersed": 22737,
    "Ġhazard": 20435,
    "voice": 7816,
    "earliest": 20123,
    "whe": 1077,
    "aud": 8523,
    "Â": 131,
    "ll": 1138,
    "Ġagents": 9769,
    "poverty": 22910,
    "Ġtelesc": 12998,
    "seventy": 10877,
    "Ġchuckled": 10650,
    "Ġstave": 11654,
    "breast": 11246,
    "bbed": 6910,
    "Ġsmallest": 6430,
    "charge": 9451,
    "Ġblack": 2034,
    "Ġreligions": 20111,
    "tempt": 21082,
    "arpaul": 14538,
    "Ġwhip": 8453,
    "Ġpir": 6817,
    "Ġpiece": 5367,
    "omorrah": 18020,
    "hearing": 8404,
    "convul": 24884,
    "Ġqual": 6275,
    "gaff": 20884,
    "doing": 8587,
    "Ġspringing": 10521,
    "out": 467,
    "Ġdishon": 12235,
    "berish": 22722,
    "Ġmultipl": 2790,
    "altern": 17944,
    "john": 11499,
    "secure": 12240,
    "bearer": 18519,
    "Ġnug": 21528,
    "Ġtum": 5692,
    "Ġspiteful": 19525,
    "Ġvisitor": 5331,
    "enances": 10156,
    "Ġvoracity": 25987,
    "Ġprosecut": 9701,
    "Ġmutiny": 13262,
    "Ġencounters": 19583,
    "Ġeffusion": 22516,
    "Ġwestmorland": 24390,
    "Ġalter": 6543,
    "ese": 4445,
    "Ġslaughtered": 26586,
    "thank": 4950,
    "Ġmilitia": 13321,
    "Ġperem": 12938,
    "Ġsell": 7825,
    "Ġrainy": 24341,
    "Ġavowal": 19418,
    "locked": 7678,
    "Ġdried": 7366,
    "wel": 6118,
    "Ġ17": 5740,
    "Ġshrink": 14806,
    "Ġwrig": 13072,
    "Ġtester": 21175,
    "Ġinno": 1471,
    "Ġrumours": 24599,
    "vitiated": 25755,
    "Ġswarm": 23058,
    "Ġaperture": 26161,
    "Ġdesp": 3214,
    "ctive": 11625,
    "Ġbent": 5149,
    "Ġadoration": 18291,
    "ridden": 24362,
    "alarm": 15631,
    "satisfy": 16894,
    "Ġmisgiv": 14346,
    "useness": 22296,
    "Ġexpressing": 12013,
    "Ġroots": 11186,
    "Ġabandon": 12262,
    "compar": 14362,
    "Ġserpent": 6738,
    "Ġw": 272,
    "ernally": 22619,
    "ouses": 5163,
    "Ġstrolled": 16772,
    "Ġnobody": 6159,
    "Ġsuperiors": 23457,
    "ortunities": 15944,
    "Ġgulp": 20032,
    "Ġdense": 8123,
    "Ġtip": 15474,
    "lever": 2929,
    "Ġdarts": 16770,
    "I": 45,
    "Ġpovelson": 26554,
    "Ġinserted": 8356,
    "Ġsubst": 4274,
    "contriv": 19295,
    "Ġmatrices": 4969,
    "wish": 8100,
    "Ġevaporate": 26334,
    "oing": 15404,
    "oner": 6125,
    "Ġentangled": 10345,
    "Ġsinned": 18953,
    "chains": 9688,
    "Ġgriefs": 16773,
    "Ġtutored": 20131,
    "Ġscatter": 18392,
    "Ġharriet": 24573,
    "Ġlawy": 9458,
    "Ġcurt": 18855,
    "Ġfilial": 16622,
    "Ġbrazier": 26322,
    "Ġcretan": 22729,
    "Ġter": 2053,
    "Ġunprovided": 18261,
    "Ġobstetrics": 24679,
    "Ġpromising": 10402,
    "ially": 9250,
    "Ġflag": 7241,
    "felix": 10656,
    "Ġreciproc": 20625,
    "asily": 13949,
    "fee": 12885,
    "organic": 25947,
    "Ġseal": 10259,
    "Ġfreshe": 13073,
    "amped": 12037,
    "bring": 9108,
    "Ġmarvell": 7247,
    "Ġpilgr": 12185,
    "Ġscared": 14190,
    "greenland": 10024,
    "Ġindulging": 16906,
    "Ġdetails": 6566,
    "backs": 9394,
    "requent": 3650,
    "Ġdirections": 1970,
    "Ġjury": 5378,
    "Ġev": 4830,
    "Ġgu": 1326,
    "ault": 2304,
    "Ġstealing": 18895,
    "Ġfer": 5529,
    "vert": 15719,
    "Ġcon": 348,
    "Ġanatomical": 15080,
    "Ġdespite": 19356,
    "Ġsubjects": 7073,
    "practised": 20250,
    "imitably": 21714,
    "Ġchoked": 9267,
    "espe": 3497,
    "Ġconclusion": 5986,
    "Ġcorridor": 10674,
    "Ġaberde": 22291,
    "Ġelapsed": 7653,
    "Ġpours": 17914,
    "Ġtoll": 7852,
    "trip": 21094,
    "Ġtolerably": 8068,
    "Ġfeigned": 22214,
    "Ġfrozen": 9016,
    "icip": 6389,
    "Ġundeniable": 26512,
    "Ġcombined": 8551,
    "Ġentertain": 6054,
    "aboard": 21798,
    "fever": 22508,
    "bourn": 3300,
    "bles": 7018,
    "Ġse": 402,
    "Ġfactor": 19014,
    "Ġquee": 1981,
    "Ġkentuck": 19893,
    "fold": 7546,
    "Ġinquir": 4242,
    "Ġphysiognomically": 25613,
    "glancing": 11215,
    "destined": 24116,
    "Ġenergies": 25460,
    "ĠarchÃ¦": 22781,
    "Ġretreat": 6070,
    "lock": 1472,
    "Ġagonized": 25373,
    "surface": 10533,
    "rowsers": 8698,
    "Ġloc": 10915,
    "Ġundressed": 19516,
    "Ġdeed": 7868,
    "spot": 9791,
    "Ġdemonstrate": 24997,
    "carbuncle": 26384,
    "Ġdistribut": 841,
    "Ġspectacles": 12102,
    "repressed": 21246,
    "Ġdemands": 19641,
    "Ġcucumber": 21359,
    "rinted": 21046,
    "_.âĢĶ": 23474,
    "Ġjewelled": 20186,
    "lingly": 9776,
    "uned": 21875,
    "Ġneedless": 19231,
    "Ġdumbly": 24988,
    "unalterable": 21890,
    "opes": 10313,
    "orph": 21402,
    "wn": 721,
    "Ġdangers": 12358,
    "Ġstreaming": 19676,
    "Ġcus": 21346,
    "levi": 7048,
    "Ġtens": 17725,
    "oting": 2743,
    "Ġ\"": 6120,
    "tired": 21075,
    "Ġsnatch": 14641,
    "harpooneer": 8692,
    "comparison": 25842,
    "Ġgive": 1713,
    "Ġbanquet": 15244,
    "fem": 17539,
    "Ġjanuary": 13656,
    "ual": 945,
    "Ġoverwrites": 5033,
    "Ġdaugh": 2290,
    "Ġmermaid": 17815,
    "Ġmagnitude": 1944,
    "Ġcosmopolitan": 20643,
    "constantly": 24607,
    "gentlemanlike": 20005,
    "Ġsalary": 13297,
    "Ġhesitate": 16948,
    "Ġgrow": 2856,
    "Ġfoundling": 22973,
    "clim": 18932,
    "Ġsolemnity": 9944,
    "relu": 17761,
    "Ġsamples": 2960,
    "hands": 5967,
    "Ġobserving": 6080,
    "shell": 16290,
    "pless": 6261,
    "Ġprogra": 1144,
    "Ġcasually": 25096,
    "rep": 5525,
    "aggo": 5097,
    "Ġpeering": 8536,
    "Ġisinglass": 21806,
    "wra": 11543,
    "Ġprayer": 16669,
    "Ġchink": 15936,
    "Ġinvestigations": 17249,
    "cerem": 15682,
    "Ġsubdivisions": 26038,
    "Ġern": 8397,
    "meetings": 20381,
    "Ġdexterously": 25296,
    "Ġmisanthrop": 22767,
    "Ġthrone": 12218,
    "Ġgaping": 13972,
    "ersed": 10262,
    "Ġink": 8807,
    "Ġsmiting": 12904,
    "Ġspars": 3810,
    "boone": 23256,
    "conclusion": 25672,
    "hard": 4690,
    "Ġunquestion": 18249,
    "typewritten": 26039,
    "Ġgazette": 19504,
    "onic": 7827,
    "Ġotherwise": 4658,
    "Ġfelix": 4850,
    "Ġscript": 18393,
    "Ġmbpp": 21325,
    "Ġhemis": 21687,
    "oring": 1860,
    "belated": 24040,
    "Ġsoundings": 13136,
    "Ġsoldier": 16922,
    "Ġlight": 1701,
    "Ġembra": 6579,
    "Ġleyden": 21751,
    "Ġdrank": 16538,
    "Ġetext": 23953,
    "Ġpiteous": 17920,
    "Ġxiv": 23411,
    "Ġinjurious": 24273,
    "Ġgra": 415,
    "Ġconverse": 11848,
    "Ġbarrowful": 25596,
    "humanity": 24840,
    "Ġplease": 4723,
    "Ġsaturday": 6452,
    "Ġphantom": 8710,
    "Ġunattended": 15847,
    "Ġjura": 14195,
    "tle": 2406,
    "Ġcovariate": 2348,
    "Ġwall": 3842,
    "onent": 21251,
    "Ġlasted": 11054,
    "shortly": 12263,
    "dep": 6786,
    "culine": 19063,
    "Ġhumility": 12991,
    "urning": 12922,
    "Ġjeroboam": 10603,
    "Ġlayer": 1011,
    "Ġsuit": 5725,
    "unlike": 18159,
    "listened": 15046,
    "rix": 1577,
    "imper": 14000,
    "Ġpersistence": 3024,
    "Ġdynamically": 4137,
    "corners": 17371,
    "cream": 15334,
    "Ġtimid": 6346,
    "Ġirrevoc": 15041,
    "Ġungover": 18256,
    "ructure": 749,
    "usable": 22293,
    "never": 3149,
    "Ġrelates": 12987,
    "Ġcontention": 22430,
    "friendship": 24051,
    "Ġwoe": 4794,
    "Ġrepugn": 23366,
    "fierce": 25256,
    "intended": 11067,
    "Ġovertake": 15977,
    "Ġquenched": 22421,
    "knell": 24555,
    "Ġarithmetic": 18341,
    "Ġsphere": 15886,
    "Ġunallied": 22034,
    "Ġpersuade": 5873,
    "nesday": 8706,
    "Ġple": 1470,
    "Ġpreyed": 18367,
    "Ġreiterating": 26476,
    "Ġspoken": 4838,
    "asiness": 8129,
    "._]]": 5335,
    "Ġconfusion": 7272,
    "Ġnight": 1466,
    "Ġreasoner": 14437,
    "Ġdividing": 12116,
    "Ġlanding": 11989,
    "Ġbathing": 20202,
    "omist": 21641,
    "Ġsnugness": 20080,
    "Ġinstrum": 6055,
    "Ġmiserably": 12952,
    "Ġdiscoverers": 26037,
    "Ġmathematical": 3348,
    "ĳ": 244,
    "Ġtasted": 12534,
    "Ġangelic": 19630,
    "Ġderives": 16311,
    "Ġplank": 7034,
    "alleging": 23027,
    "usal": 7639,
    "Ġsymmetry": 20369,
    "Ġsaxon": 25469,
    "Ġuprising": 12808,
    "threadbare": 25990,
    "pread": 7417,
    "Ġvouch": 15813,
    "actory": 8911,
    "whaling": 7899,
    "Ġstreets": 5864,
    "Ġoars": 3896,
    "Ġbel": 1216,
    "Ġpoorly": 9858,
    "Ġeaglet": 19307,
    "planks": 21958,
    "prep": 9761,
    "Ġnods": 19062,
    "approaching": 15014,
    "elf": 564,
    "Ġnest": 10191,
    "Ġmoody": 8201,
    "Ġplucked": 15117,
    "Ġutterly": 6101,
    "Ġfunctions": 1339,
    "destruction": 11255,
    "Ġben": 1110,
    "Ġmemoirs": 26207,
    "asions": 12657,
    "Ġfinished": 5044,
    "Ġric": 18210,
    "Ġadopted": 15182,
    "merely": 16138,
    "Ġintensely": 17019,
    "tale": 10130,
    "Ġcomplexion": 8211,
    "Ġnetherfield": 3930,
    "Ġalph": 9698,
    "Ġblemish": 19682,
    "Ġtash": 13823,
    "esy": 9185,
    "mounting": 25208,
    "Ġviews": 7289,
    "Ġshame": 6410,
    "cab": 7332,
    "Ġfolios": 23021,
    "Ġobtain": 8918,
    "imony": 12696,
    "Ġphrenologist": 25608,
    "asburgh": 15651,
    "è": 169,
    "Ġensures": 3055,
    "across": 10327,
    "Ġnewton": 3532,
    "staring": 18023,
    "Ġcripp": 9656,
    "Ġhooded": 12410,
    "adding": 21765,
    "restoration": 23239,
    "âĢĻ!âĢĿ": 18170,
    "Ġcovent": 16076,
    "Ġequality": 16362,
    "\\": 64,
    "Ġenemy": 5605,
    "dire": 15339,
    "Ġweal": 21924,
    "trouble": 8296,
    "examination": 25479,
    "Ġdetestation": 17130,
    "Ġas": 374,
    "Ġresulting": 24201,
    "Ġanno": 9670,
    "Ġtransc": 12870,
    "Ġsanct": 15065,
    "acceptable": 25185,
    "Ġdiscoursing": 26268,
    "âĢĶâĢĺ": 7014,
    "terday": 4705,
    "sum": 2088,
    "executed": 25740,
    "Ġparts": 4164,
    "Ġstones": 9224,
    "Ġunho": 18246,
    "Ġwin": 9644,
    "Ġintrospective": 20603,
    "Ġmakest": 25436,
    "Ġbetokened": 18797,
    "peculiar": 6885,
    "Ġrebellion": 26477,
    "Ġconceal": 5974,
    "Ġorganize": 8994,
    "Ġunful": 22013,
    "Ġcathed": 14550,
    "Ġsubsc": 22792,
    "sper": 4436,
    "Ġassistance": 6334,
    "pole": 9336,
    "trivial": 21095,
    "Ġupwards": 7634,
    "hus": 5072,
    "Ġcous": 3434,
    "ly": 319,
    "aited": 12439,
    "Ġbehavior": 8002,
    "clad": 14463,
    "phur": 16155,
    "Ġhim": 476,
    "Ġborder": 10172,
    "threshold": 21991,
    ".âĢĻâĢĿ": 6740,
    "Ġalt": 18101,
    "Ġrestored": 7067,
    "Ġunconditional": 15848,
    "Ġsl": 1498,
    "sicilian": 21066,
    "domestic": 19828,
    "Ġfacial": 10608,
    "examine": 25478,
    "Ġvoluntarily": 12145,
    "Ġbuzz": 24000,
    "how": 1643,
    "emotion": 21932,
    "Ġhunger": 8569,
    "Ġlounging": 10025,
    "Ġshrieking": 24757,
    "Ġsepulch": 15288,
    "neighb": 16027,
    "intervals": 10640,
    "ensions": 14261,
    "Ġinvariable": 13459,
    "Ġapproved": 16037,
    "Ġegress": 21626,
    "Ġhandsomer": 20336,
    "Ġheavens": 5050,
    "Ġinterview": 9773,
    "Ġwhalers": 8048,
    "Ġrepe": 3278,
    "Ġapologies": 25197,
    "accurately": 25862,
    "Ġfour": 2213,
    "Ġdespond": 14670,
    "Ġchance": 3316,
    "Ġwhite": 1538,
    "slanting": 24558,
    "Ġrigid": 16718,
    "influence": 13581,
    "evinced": 19928,
    "Ġpurchased": 12265,
    "desp": 6093,
    "Ġunpleasant": 7190,
    "Ġauxiliary": 26420,
    "described": 18896,
    "Ġnations": 8814,
    "Ġchances": 9266,
    "Ġvirtuous": 14758,
    "Ġarrant": 23300,
    "Ġassizes": 11109,
    "Ġmultimodal": 18749,
    "Ġramadans": 25122,
    "Ġtrop": 7565,
    "acqu": 4844,
    "Ġrevolver": 14903,
    "Ġath": 15805,
    "Ġmist": 2873,
    "Ġstunsail": 25544,
    "Ġmannish": 26239,
    "expedition": 26079,
    "kins": 7344,
    "Ġinitialization": 1253,
    "now": 548,
    "burning": 25081,
    "washed": 13050,
    "/*": 10074,
    "tu": 12516,
    "crat": 24088,
    "gins": 12473,
    "Ġdog": 4193,
    "ceiling": 21630,
    "hess": 4748,
    "Ġobscure": 9557,
    "Ġdoted": 21436,
    "ged": 1513,
    "neglected": 25670,
    "seek": 8841,
    "Ġembellish": 25849,
    "Ġstrangely": 5677,
    "Ġbuild": 6474,
    "Ġstacks": 18077,
    "sory": 17661,
    "Ġhot": 4258,
    "Ġbristles": 25845,
    "Ġpronounced": 8351,
    "Ġfresh": 3670,
    "Ġpregn": 22236,
    "librarian": 26570,
    "Ġtwee": 22678,
    "Ġbeh": 1800,
    "hairs": 20906,
    "Ġicicles": 25265,
    "ologies": 18764,
    "Ġpau": 17910,
    "connected": 1309,
    "thesize": 24907,
    "Ġcabin": 3301,
    "nns": 1892,
    "âĢĶâĢĿ": 3297,
    "Ġdusty": 14928,
    "Ġmanagement": 8193,
    "Ġbacking": 16121,
    "middle": 11311,
    "ns": 752,
    "Ġserenely": 13509,
    "unicorn": 21893,
    "Ġiterate": 13204,
    "Ġrapid": 1445,
    "ived": 1533,
    "stalk": 21653,
    "Ġfound": 1245,
    "Ġsystemat": 18443,
    "Ġattitude": 8907,
    "Ġriv": 10748,
    "Ġbenefit": 8294,
    "Ġmutable": 23958,
    "Ġsale": 14157,
    "Ġmeaning": 1416,
    "empt": 2618,
    "Ġthing": 1639,
    "Ġ49": 24085,
    "ality": 2511,
    "aphs": 22339,
    "Ġblended": 16222,
    "Ġsleeping": 6320,
    "Ġted": 13815,
    "¬": 110,
    "Ġclothing": 18425,
    "Ġbloss": 19258,
    "done": 6500,
    "Ġstr": 762,
    "ison": 3073,
    "class": 4095,
    "setting": 13289,
    "slave": 16897,
    "Ġdreamy": 14706,
    "roman": 22008,
    "Ġthrees": 23404,
    "spl": 9142,
    "Ġbinnacle": 8119,
    "terdam": 18132,
    "uts": 8820,
    "Ġerad": 25031,
    "Ġcharmingly": 24224,
    "Ġclaps": 22353,
    "Ġgraces": 18226,
    "Ġleghorn": 13149,
    "Ġbeale": 12705,
    "Ġspoil": 17009,
    "Ġdisd": 7031,
    "Ġrecognised": 8998,
    "Ġpublished": 11242,
    "number": 10117,
    "Ġcalifornia": 20533,
    "Ġwrongfully": 24251,
    "Ġedition": 16458,
    "ever": 1081,
    "commodore": 20628,
    "Ġcanopy": 18322,
    "Ġlaboratory": 13615,
    "commander": 16989,
    "resc": 21241,
    "Ġtheirs": 7025,
    "surprised": 9534,
    "Ġname": 2084,
    "Ġaz": 9632,
    "ousand": 2427,
    "Ġearth": 2846,
    "Ġcust": 11584,
    "ilburn": 18062,
    "absurd": 21799,
    "Ġtestimony": 14475,
    "Ġundertaking": 8576,
    "Ġpillar": 21476,
    "was": 1422,
    "blood": 7779,
    "Ġnotwithstanding": 9717,
    "proof": 16427,
    "arthy": 4824,
    "perch": 18342,
    "Ġportent": 12086,
    "Ġpainfully": 13145,
    "Ġalive": 4400,
    "irmed": 9242,
    "appeared": 4282,
    "ativeness": 15524,
    "Ġintegration": 9871,
    "Ġrevolt": 24504,
    "takes": 21079,
    "Ġshortness": 23483,
    "atement": 17775,
    "ploy": 2038,
    "Ġrest": 1782,
    "Ġhig": 756,
    "Ġbought": 8417,
    "Ġconcepts": 4552,
    "Ġmonth": 2845,
    "Ġdrowning": 19906,
    "Ġwilt": 9646,
    "Ġeels": 21625,
    "Ā": 193,
    "gast": 20873,
    "Ġinquire": 7719,
    "desirable": 23813,
    "Ġchristian": 6479,
    "Ġbarrier": 16572,
    "Ġdeftly": 26494,
    "Ġhereby": 10361,
    "Ġverses": 17065,
    "Ġseven": 4543,
    "Ġdefault": 3039,
    "wis": 12523,
    "Ġheartily": 6889,
    "put": 414,
    "Ġsubterraneous": 20268,
    "nment": 20992,
    "Ġheighten": 19532,
    "carriage": 9949,
    "Ġgregarious": 18965,
    "Ġillustration": 19137,
    "Ġpost": 4273,
    "ñ": 178,
    "Ġprognostics": 20561,
    "Ġconjectured": 10000,
    "Ġsly": 9635,
    "sacrifice": 13495,
    "Ġvoyagings": 19237,
    "Ġemblem": 20501,
    "repent": 15516,
    "arded": 5029,
    "scar": 9819,
    "Ġ26": 10472,
    "respectively": 24699,
    "usoid": 4768,
    "ĠâĢĻ": 3043,
    "Ġstate": 1808,
    "Ġimpending": 22388,
    "Ġincognita": 26553,
    "humored": 19456,
    "ruction": 4358,
    "Ġcommunications": 16358,
    "Ġavoided": 13261,
    "Ġattract": 11836,
    "Ġenv": 2899,
    "Ġstuck": 9223,
    "Ġwouldst": 18500,
    "Ġdo": 512,
    "Ġhedgehog": 10647,
    "ainted": 3659,
    "picture": 11408,
    "Ġapply": 1778,
    "floor": 14939,
    "Ġallow": 1128,
    "calabash": 22899,
    "Ġlowermost": 23244,
    "deformity": 22150,
    "chers": 11318,
    "Ġaccompanied": 6780,
    "pudding": 17649,
    "Ġdrowned": 9555,
    "Ġassailed": 23181,
    "Ġinvestigated": 25387,
    "dut": 10090,
    "Ġacquirement": 19257,
    "Ġsignature": 16495,
    "haired": 14769,
    "assemblies": 25957,
    "Ġaveraging": 2415,
    "ak": 539,
    "ureau": 10229,
    "Ġpathetic": 19041,
    "inioned": 19288,
    "Ġsynthe": 26008,
    "account": 5330,
    "pick": 17636,
    "tish": 17679,
    "inf": 6233,
    "Ġbitterness": 8024,
    "!)": 10072,
    "Ġprovides": 1931,
    "Ġchristendom": 16696,
    "177": 20754,
    "Ġrelated": 3715,
    "Ġbeneath": 3237,
    "Ġdisplays": 19859,
    "Ġemigrant": 25860,
    "emotions": 15799,
    "ellow": 3876,
    "doors": 19096,
    "Ġsorrow": 4629,
    "marks": 7345,
    "Ġhypothe": 4072,
    "produced": 25415,
    "Ġimple": 1723,
    "fab": 13719,
    "exagger": 22432,
    "Ġgoodness": 6059,
    "Ġclings": 15970,
    "but": 591,
    "chants": 21695,
    "Ġele": 1963,
    "Ġunfrequent": 24111,
    "paradise": 20639,
    "lect": 1221,
    "Ġbaling": 17861,
    "Ġsufficiently": 8976,
    "Ġnoted": 15834,
    "imate": 4221,
    "Ġperplexity": 2754,
    "Ġbut": 423,
    "Ġcoat": 4555,
    "asp": 3338,
    "Ġbillow": 14783,
    "Ġhither": 4760,
    "oarsman": 25262,
    "Ġunwearied": 20605,
    "Ġirr": 10423,
    "Ġcrooked": 11282,
    "Ġchalk": 15937,
    "Ġsable": 15503,
    "Ġworship": 10369,
    "Ġcult": 8786,
    "Ġillinois": 19138,
    "lish": 1952,
    "Ġdirect": 1473,
    "industrious": 26241,
    "say": 3984,
    "age": 504,
    "turn": 4292,
    "outside": 12810,
    "ieving": 7032,
    "Ġtailed": 21171,
    "Ġpraised": 19556,
    "elope": 14460,
    "una": 21873,
    "perplex": 18344,
    "Ġancestors": 25643,
    "Ġhatchways": 24990,
    "Ġfellow": 2775,
    "Ġfaded": 10811,
    "serve": 13051,
    "Ġshoes": 7072,
    "Ġfeminine": 15267,
    "Ġrepublican": 17415,
    "quet": 6834,
    "punctual": 26357,
    "Ġtrample": 20330,
    "Ġduplicity": 25332,
    "Ġvineyard": 12334,
    "Ġestim": 3346,
    "Ġlaurel": 20656,
    "Ġfowler": 16939,
    "ryphon": 4162,
    "Ġunclad": 22056,
    "Ġadieu": 10054,
    "Ġglobules": 26590,
    "Ġpulpit": 7469,
    "Ġmeet": 2803,
    "Ġdigress": 24649,
    "ithing": 11652,
    "Ġforeign": 9875,
    "Ġstays": 16564,
    "securer": 25603,
    "Ġsim": 735,
    "Ġenl": 18190,
    "sudden": 5316,
    "Ġcrawford": 24894,
    "Ġvacancy": 9047,
    "against": 5871,
    "Ġbrad": 8791,
    "ik": 17573,
    "Ġwillingly": 8888,
    "Ġmyself": 1456,
    "Ġdisp": 3356,
    "erm": 788,
    "augmented": 26288,
    "Ġneville": 7398,
    "Ġimpul": 7207,
    "Ġvancou": 22880,
    "Ġsteepest": 3086,
    "Ġprotectors": 9073,
    "notches": 22751,
    "Ġscornful": 24999,
    "Ġreappearance": 21670,
    "Ġnewcomer": 26041,
    "Ġdamned": 13135,
    "Ġwrench": 12562,
    "Ġraising": 8913,
    "Ġballasted": 23983,
    "Ġbaleen": 10040,
    "Ġvers": 7563,
    "derstand": 661,
    "ching": 5156,
    "Ġwhisky": 23937,
    "Ġbale": 7838,
    "Ġacquaintances": 17353,
    "Ġstranded": 9778,
    "Ġlowly": 11122,
    "Ġbilliard": 16690,
    "dispute": 23501,
    "lyph": 10853,
    "walls": 25346,
    "Ġvessels": 6756,
    "enstein": 5800,
    "Ġoat": 21326,
    "Ġsleep": 2396,
    "Ġdevious": 22719,
    "Ġcracks": 12024,
    "performances": 26007,
    "minds": 24235,
    "Ġnecess": 3474,
    "Ġattendance": 12186,
    "umb": 3400,
    "Ġrevered": 23736,
    "adequate": 15207,
    "instantly": 7506,
    "Ġgurglings": 26467,
    "Ġfinery": 23130,
    "Ġabsence": 4895,
    "Ġencaps": 12967,
    "overing": 6307,
    "Ġdiscerned": 25006,
    "Ġ1991": 3015,
    "Ġcensured": 25097,
    "remarks": 23192,
    "Ġformidable": 8220,
    "Ġsharp": 2411,
    "Ġmes": 17798,
    "illar": 5101,
    "Ġenable": 686,
    "support": 9472,
    "Ġgomorrah": 21618,
    "Ġincludes": 2011,
    "Ġhailed": 6407,
    "emy": 14076,
    "rical": 11520,
    "Ġinco": 14262,
    "Ġ**": 4721,
    "Ġdiffused": 12073,
    "Ġdonkey": 23232,
    "talking": 10010,
    "orne": 17874,
    "Ġstrict": 7221,
    "Ġexpress": 2195,
    "Ġphenomena": 21487,
    "ded": 2756,
    "orse": 5807,
    "Ġblocks": 6322,
    "Ġtranquill": 6632,
    "truth": 9922,
    "battle": 12446,
    "Ġabusing": 18399,
    "Ġshrimp": 24159,
    "oquence": 11387,
    "Ġrandom": 1591,
    "Ġexclusion": 19399,
    "deepest": 22820,
    "Ġrefuge": 8543,
    "swelled": 19613,
    "Ġwont": 9855,
    "Ġrecovered": 5481,
    "Ġbulwarks": 5592,
    "means": 9789,
    "Ġnursing": 12219,
    "ress": 928,
    "Ġopium": 8997,
    "âĢ": 294,
    "15": 12434,
    "Ġinestimable": 17445,
    "prince": 23818,
    "accursed": 20543,
    "adequ": 11021,
    "ursday": 12281,
    "Ġintact": 21993,
    "Ġmatrimony": 13638,
    "perils": 22191,
    "Ġlogic": 13081,
    "Ġber": 5698,
    "inous": 8776,
    "Ġdaylight": 10353,
    "rane": 17655,
    "istrate": 7405,
    "Ġmean": 743,
    "Ġsixteen": 8283,
    "glances": 23856,
    "Ġchamounix": 14867,
    "Ġpressed": 6042,
    "Ġsubord": 22791,
    "derness": 11743,
    "drawn": 9916,
    "prospect": 23399,
    "sche": 13019,
    "correspond": 13401,
    "reproof": 25433,
    "Ġscand": 7201,
    "Ġfriends": 2653,
    "Ġevery": 925,
    "Ġdecisive": 18486,
    "Ġframework": 1945,
    "cloud": 11106,
    "Ġinquirer": 24964,
    "âĢĶ.": 11759,
    "fortunate": 4793,
    "Ġmomentum": 1603,
    "Ġtilted": 20416,
    "linging": 16083,
    "orus": 10803,
    "only": 3306,
    "reputable": 15520,
    "numbers": 17618,
    "'m": 9585,
    "Ġbreaks": 13186,
    "pure": 17628,
    "liness": 8750,
    "Ġli": 602,
    "Ġprudence": 13923,
    "Ġrural": 21971,
    "Ġwondrously": 24068,
    "gro": 10097,
    "away": 4626,
    "Ġyear": 3283,
    "attention": 2110,
    "Ġdecreasing": 2441,
    "owed": 2268,
    "Ġcaged": 21355,
    "spread": 8389,
    "tail": 8765,
    "Ġextant": 18700,
    "olly": 3225,
    "Ġdrawback": 23993,
    "battering": 20788,
    "Ġgratifying": 13309,
    "circumspect": 26087,
    "Ġwhichever": 14003,
    "Ġinc": 702,
    "Ġtune": 17727,
    "Ġobeisance": 19761,
    "Ġdespatched": 23833,
    "Ġnonsense": 6982,
    "viii": 12025,
    "Ġheel": 9687,
    "Ġsouthern": 7689,
    "Ġlunatic": 24993,
    "Ġplun": 6282,
    "onel": 3089,
    "Ġarrest": 7408,
    "powerful": 24848,
    "Ġwoodlands": 23522,
    "Ġdisposed": 7084,
    "Ġsnuffing": 25015,
    "Ġarbit": 4651,
    "zealand": 26055,
    "stand": 638,
    "pr": 3173,
    "feared": 11807,
    "times": 8099,
    "Ġ95": 19776,
    "Ġconjugal": 25104,
    "liberal": 26283,
    "easy": 9595,
    "avish": 22600,
    "Ġgover": 2458,
    "Ġguard": 6179,
    "Ġelij": 8912,
    "Ġdrug": 11411,
    "Ġirresistible": 13116,
    "bos": 17486,
    "Ġscrape": 14921,
    "Ġgallon": 24186,
    "acter": 2505,
    "Ġhanded": 8217,
    "Ġduck": 8798,
    "marching": 25753,
    "Ġsaleve": 17394,
    "Ġclutches": 20021,
    "iah": 14419,
    ");": 7329,
    "Ġengage": 9338,
    "scales": 22992,
    "cul": 1899,
    "Ġdigging": 14941,
    "armed": 7251,
    "ices": 2136,
    "Ġfever": 6559,
    "alliance": 22204,
    "Ġstamped": 13529,
    "Ġtattooed": 11379,
    "Ġspurned": 12803,
    "eli": 3873,
    "Ġmccarthy": 5145,
    "Ġbos": 4876,
    "Ġzone": 14360,
    "Ġsatiated": 22905,
    "Ġcontextual": 3743,
    "Ġunfitted": 24110,
    "Ġchased": 8865,
    "========": 2309,
    "Ġtranced": 18422,
    "Ġclub": 8877,
    "settled": 10509,
    "Ġnorthumbria": 24173,
    "Ġrationally": 18214,
    "Ġointment": 21329,
    "Ġken": 22195,
    "Ġminiatures": 20324,
    "Ġattested": 22625,
    "Ġtalents": 15047,
    "Ġwedged": 24936,
    "Ġwronged": 24250,
    "iousness": 4900,
    "Ġinherit": 25353,
    "gre": 5788,
    "fitting": 1510,
    "Ġsple": 21218,
    "Ġcrush": 9425,
    "ivia": 22088,
    "worth": 8630,
    "Ġutensils": 23516,
    "Ġperry": 22400,
    "Ġflukes": 5267,
    "Ġbug": 11591,
    "Ġsk": 959,
    "ldog": 21921,
    "Ġrand": 1588,
    "remarkable": 13500,
    "Ġsec": 2077,
    "tim": 13794,
    "Ġgleam": 12312,
    "Ġpain": 2301,
    "Ġsequence": 1975,
    "reement": 15514,
    "licted": 20958,
    "spond": 5567,
    "akin": 11772,
    "Ġformation": 2940,
    "Ġlighted": 7064,
    "method": 17287,
    "tide": 11534,
    "lifeless": 24314,
    "Ġillustrations": 17109,
    "Ġhaze": 18197,
    "towards": 5003,
    "Ġoarsman": 8641,
    "Ġattitudes": 16100,
    "21": 10075,
    "rip": 9244,
    "Ï": 144,
    "Ġcandour": 14675,
    "Ġtea": 5041,
    "Ġsol": 1106,
    "variety": 23189,
    "mb": 908,
    "Ġfragments": 19020,
    "Ġ35": 24080,
    "Ġfat": 3458,
    "catherine": 7128,
    "Ġvicinity": 7314,
    "Ġmarlings": 23039,
    "Ġbarrels": 9439,
    "Ġneither": 3686,
    "omitted": 18019,
    "igantic": 5539,
    "Ġdomineer": 23669,
    "anybody": 12087,
    "Ġrobinson": 17466,
    "Ġregret": 5562,
    "Ġbenevolence": 9530,
    "Ġimmeasurable": 26231,
    "arising": 17897,
    "oundered": 14167,
    "orn": 2242,
    "ascertaining": 26462,
    "Ġclamped": 18427,
    "endeavoured": 12285,
    "Ġvexations": 24610,
    "Ġrapidly": 3299,
    "clothes": 9060,
    "Ġpor": 5225,
    "Ġtaurus": 21181,
    "Ġvaliant": 9805,
    "Ĺ": 250,
    "Ġascendency": 20235,
    "chop": 21691,
    "Ġliberty": 7761,
    "Ġmovements": 24359,
    "Ġstructured": 2971,
    "Ġfet": 5808,
    "Ġrich": 2992,
    "Ġinquired": 7485,
    "Ġunrem": 18245,
    "neys": 23584,
    "mates": 5073,
    "iece": 3229,
    "Ġmathemat": 3201,
    "Ġtravelling": 11308,
    "Ġanon": 9669,
    "scept": 21056,
    "Ġafrican": 20140,
    "tempest": 16961,
    "london": 9612,
    "shr": 10981,
    "estion": 18364,
    "Ġsupp": 1264,
    "Ġendeavors": 16548,
    "Ġoverseeing": 22365,
    "atived": 21265,
    "Ġjoints": 12039,
    "cr": 4012,
    "Ġflashes": 11919,
    "acceptance": 25186,
    "Ġsour": 21219,
    "Ġpam": 21457,
    "Ġfogs": 25283,
    "mine": 5618,
    "Ġvomit": 21952,
    "tained": 4407,
    "Ġsources": 10150,
    "hills": 13739,
    "stripped": 16947,
    "Ġgrappling": 25813,
    "Ġrefuse": 5739,
    "weigh": 18666,
    "plied": 10257,
    "unwillingness": 25803,
    "Ġelegance": 11333,
    "eded": 9676,
    "Ġgrapple": 25812,
    "Ġstarve": 24626,
    "Ġgaunt": 11269,
    "Ġknot": 7012,
    "isf": 2433,
    "Ġpredictions": 1457,
    "Ġsoldiers": 8690,
    "Ġquality": 3527,
    "Ġtroops": 24899,
    "Ġexposes": 22628,
    "Ġcorpore": 13404,
    "Ġwelcome": 5604,
    "Ġdisinclination": 22540,
    "Ġdl": 3374,
    "supper": 12926,
    "signed": 21064,
    "Ġwintry": 17437,
    "Ġcolumb": 22861,
    "avier": 2828,
    "Ġperforming": 7928,
    "lesson": 22776,
    "Ġmerry": 5869,
    "Ġperil": 5557,
    "Ġstow": 21734,
    "works": 6588,
    "Ġtask": 1310,
    "quid": 18149,
    "tranqu": 14709,
    "plain": 1357,
    "Ġhearing": 4762,
    "comb": 11039,
    "Ġordin": 16653,
    "Ġcheers": 16369,
    "Ġtrusted": 10520,
    "adv": 4538,
    "Ġcharacters": 9375,
    "Ġwatery": 6297,
    "kindled": 16663,
    "Ġhandspike": 22701,
    "elled": 3992,
    "Ġeliza": 6437,
    "Ġpedest": 15067,
    "Ġque": 4158,
    "tra": 5002,
    "astern": 8584,
    "Ġ>": 21154,
    "Ġhessian": 3547,
    "resistible": 10646,
    "Ġingrat": 16842,
    "Ġincidents": 9302,
    "Ġoutriders": 26545,
    "quimaux": 21863,
    "min": 4572,
    "ficial": 17550,
    "opposition": 24820,
    "Ġquarter": 3976,
    "Ġshepherd": 14155,
    "Ġdying": 2135,
    "Ġtremble": 6905,
    "fiend": 13664,
    "soled": 14333,
    "Ġguidance": 9420,
    "calm": 8937,
    "itate": 6669,
    "Ġpulling": 5863,
    "Ġadversarial": 5607,
    "ches": 2148,
    "Ġfleetness": 20182,
    "brance": 7283,
    "Ġevening": 2651,
    "Ġmadame": 13153,
    "england": 18931,
    "hever": 13834,
    "ede": 21509,
    "Ġregiment": 6432,
    "gallant": 7780,
    "Ġquarrelling": 13501,
    "igger": 21704,
    "Ġtongs": 9964,
    "Ġefficient": 1053,
    "Ġaccused": 8509,
    "Ġforeshadowing": 26594,
    "Ġgodfre": 14531,
    "flames": 14715,
    "Ġmechanisms": 1579,
    "Ġforbidding": 17080,
    "ĠĠĠĠĠĠĠ": 7633,
    "Ġcam": 10164,
    "igh": 2029,
    "authority": 13594,
    "Ġpersever": 10006,
    "Ġexpressive": 8985,
    "Ġreaching": 7302,
    "Ġromantic": 8031,
    "lying": 7174,
    "Ġimpressive": 15001,
    "Ġsands": 14951,
    "Ġdefects": 12337,
    "omuch": 21643,
    "Ġmoments": 4847,
    "Ġpipe": 4322,
    "Ġconsumed": 10352,
    "specific": 10500,
    "Ġsolution": 9810,
    "unable": 14062,
    "Ġceases": 19315,
    "Ġcatastrop": 3345,
    "Ġdrugg": 17122,
    "Ġunseasonable": 26522,
    "Ġinvoked": 19146,
    "Ġskipper": 22800,
    "Ġetc": 7085,
    "pacific": 17643,
    "knot": 13748,
    "Ġcommod": 10336,
    "Ġinches": 5846,
    "answered": 10276,
    "isa": 17847,
    "±": 114,
    "silenced": 24423,
    "cle": 3955,
    "etts": 12666,
    "acup": 14282,
    "isters": 11923,
    "Ġcough": 11583,
    "clearer": 24072,
    "rit": 21038,
    "Ġascertained": 25297,
    "Ġcompression": 18148,
    "six": 7142,
    "Ġbur": 2697,
    "convinced": 10625,
    "Ġflowed": 10374,
    "odings": 4401,
    "whale": 2139,
    "Ġcarve": 23095,
    "Ġbachelors": 24861,
    "Ġplunging": 14955,
    "Ġpreferred": 14969,
    "Ġdoleful": 18378,
    "wid": 10137,
    "asht": 4082,
    "Ġ1883": 23901,
    "Ġupheld": 22156,
    "iciency": 9577,
    "Ġmahogany": 20581,
    "vigorous": 25918,
    "Ġindisp": 18836,
    "Ġsynd": 22210,
    "retion": 9365,
    "Ġrocking": 10970,
    "accomp": 10457,
    "+": 15,
    "Ġkilled": 4955,
    "Ġwrought": 11948,
    "ids": 21767,
    "Ġext": 915,
    "Ġmoved": 4841,
    "Ġsepulchre": 20562,
    "Ġpa": 2988,
    "Ġforehead": 5262,
    "scr": 16243,
    "Ġeel": 18004,
    "Ġfishy": 16525,
    "Ġheroic": 14911,
    "Ġcoco": 11001,
    "Ġinsulated": 23683,
    "Ġwheels": 10913,
    "Ġinadequate": 17939,
    "Ġenglish": 3614,
    "Ġamours": 22485,
    "ture": 7558,
    "Ġkettle": 26234,
    "Ġtemptations": 24508,
    "isting": 5551,
    "Ġrev": 6988,
    "Ġshop": 9255,
    "pute": 8849,
    "five": 6357,
    "Ġcynicism": 25772,
    "Ġheading": 8938,
    "Ġtoilings": 24741,
    "handed": 7482,
    "Ġunimpe": 22074,
    "wide": 10140,
    "eu": 17532,
    "frozen": 25142,
    "Ġskylight": 24075,
    "Ġlac": 17967,
    "Ġpromises": 10403,
    "ordingly": 18516,
    "Ġindistinct": 17411,
    "bingleys": 19637,
    "Ġ221": 25071,
    "Ġbarmaid": 19337,
    "Ġaug": 6235,
    "j": 78,
    "Ġphenomenon": 17919,
    "accompanied": 12425,
    "Ġcontriv": 9285,
    "Ġkept": 3344,
    "icilian": 20694,
    "Ġrepose": 6742,
    "Ġbashee": 19851,
    "Ġoper": 2120,
    "rows": 6442,
    "Ġerect": 6144,
    "Ġfulf": 6772,
    "guarded": 13298,
    "Ġambiguous": 20167,
    "impatiently": 20474,
    "Ġtawny": 20485,
    "Ġproportionably": 19974,
    "Ġholds": 7976,
    "Ġmathematics": 12078,
    "Ġbusied": 19064,
    "Ġeigenvalues": 4998,
    "Ġleisurely": 24745,
    "ateral": 19380,
    "Ġvisitors": 7985,
    "ration": 2004,
    "zar": 11549,
    "trunk": 23951,
    "Ġperilous": 7768,
    "trembling": 17145,
    "nals": 16402,
    "fur": 6356,
    "Ġcur": 1263,
    "marry": 13327,
    "Ġtheme": 16023,
    "Ġspite": 4155,
    "reck": 9639,
    "Ġinfants": 16367,
    "blown": 25202,
    "Ġdescend": 7426,
    "Ġincline": 18570,
    "malice": 17605,
    "Ġdefend": 9343,
    "Ġjoy": 3182,
    "screw": 9349,
    "Ġroving": 22407,
    "Ġrheum": 18215,
    "unerative": 21900,
    "Ġplates": 11008,
    "amples": 1820,
    "Ġhampshire": 15246,
    "Ġimitated": 18330,
    "Ġdrawing": 3916,
    "expression": 10550,
    "sufficiently": 14984,
    "Ġproble": 1111,
    "rendered": 22343,
    "pur": 7806,
    "Ġfeatures": 1433,
    "ithmetic": 18064,
    "inkled": 5477,
    "Ġtight": 8108,
    "mou": 10710,
    "Ġlaunched": 14929,
    "Ġlimb": 9405,
    "Ġpup": 12625,
    "Ġpleases": 16301,
    "particulars": 11316,
    "Ġteneriffe": 26416,
    "dz": 4740,
    "Ġanchor": 7367,
    "Ġtestament": 23209,
    "Ġprivileged": 20116,
    "Ġbreat": 3457,
    "Ġaverred": 18866,
    "Ġrejoinder": 24598,
    "Ġnourishment": 15196,
    "person": 7745,
    "Ġdistorted": 14252,
    "ispensable": 9099,
    "Ġbower": 15571,
    "Ġvinc": 14088,
    "cannibals": 25585,
    "Ġhence": 4989,
    "_,": 2798,
    "advanced": 19591,
    "Ġroarings": 25303,
    "collinses": 19925,
    "ets": 1159,
    "irited": 15791,
    "Ġingolstadt": 8333,
    "Ġthundering": 24293,
    "Ġcrawling": 17046,
    "Ġcap": 2359,
    "Ġvii": 13112,
    "extremely": 26265,
    "Ġte": 1154,
    "Ġdamning": 19141,
    "Ġimpress": 6861,
    "hoisting": 23719,
    "Ġfidel": 12602,
    "acknowled": 10976,
    "Ġunjust": 8485,
    "loun": 17590,
    "Ġswiftly": 5670,
    "blow": 9107,
    "Ġpart": 861,
    "tube": 20414,
    "ative": 747,
    "Ġprovinces": 24193,
    "lands": 8241,
    "Ġscant": 22270,
    "historian": 25735,
    "Ġfrankly": 16747,
    "_.âĢĻâĢĿ": 17482,
    "lights": 13208,
    "Ġdew": 14045,
    "Ġtarpaulin": 26158,
    "Ġmode": 8499,
    "Ġbursting": 8659,
    "Ġoverthrow": 18432,
    "Ġresort": 18564,
    "Ġinexhaustible": 16983,
    "msman": 9273,
    "skylight": 25624,
    "!âĢĻ": 3330,
    "Ġbuckle": 17034,
    "ut": 308,
    "Ġjabbering": 22307,
    "thed": 8831,
    "choose": 23675,
    "Ġdeceit": 13484,
    "official": 24915,
    "Ġacid": 22685,
    "shaped": 10312,
    "omically": 13979,
    "gpt": 5356,
    "Ġcolder": 22859,
    "pe": 1438,
    "sympathy": 20544,
    "Ġconsisted": 10421,
    "Ġcrash": 12006,
    "icha": 11741,
    "ĠĠĠĠĠĠĠĠĠĠĠĠĠĠĠĠĠĠĠĠĠĠĠĠĠĠĠĠĠĠ": 24443,
    "affa": 23779,
    "verd": 21731,
    "Ġdust": 5909,
    "Ġstrong": 1787,
    "Ġhousings": 21496,
    "Ġaccording": 5508,
    "becoming": 18517,
    "Ġsurm": 7476,
    "Ġpry": 11602,
    "py": 17626,
    "Ġdriven": 6199,
    "Ġ1950": 11360,
    "Ġstature": 10864,
    "Ġshin": 18228,
    "Ġstoke": 10398,
    "perceived": 8862,
    "Ġpurporting": 19184,
    "flow": 2298,
    "outer": 9671,
    "Ġwiping": 25766,
    "Ġwithdrawing": 11341,
    "Ġconven": 6152,
    "Ġdozing": 22247,
    "Ġflower": 16234,
    "drink": 10598,
    "Ġjelly": 22304,
    "dug": 18463,
    "Ġtogether": 1877,
    "Ġdenominated": 15232,
    "Ġkindred": 16378,
    "travellers": 24339,
    "Ġmoluccas": 25630,
    "Ġmonotonous": 13266,
    "Ġpang": 15609,
    "Ġsailor": 3535,
    "Ġhisself": 21918,
    "Ġhemp": 9218,
    "Ġimperfectly": 25727,
    "Ġformerly": 7493,
    "nantucketer": 24975,
    "Ġinvaders": 23482,
    "Ġregulations": 18601,
    "Ġsuppress": 13028,
    ";âĢĿ": 7790,
    "Ġgradual": 20604,
    "Ġseventeen": 26212,
    "Ġgenerous": 6274,
    "Ġswan": 23055,
    "é": 170,
    "Ġstepdaughter": 22616,
    "Ġdiv": 3731,
    "Ġgor": 9209,
    "ination": 2910,
    "Ġmodes": 22216,
    "Ġapt": 9158,
    "Ġapplied": 6187,
    "Ġembal": 11909,
    "Ġsimply": 7217,
    "searching": 25106,
    "unw": 14060,
    "Ġlanes": 19768,
    "peare": 18913,
    "ledyard": 22395,
    "mansion": 20985,
    "ø": 185,
    ".âĢĿ": 464,
    "Ġdepended": 9780,
    "Ġartistic": 18613,
    "Ġapothecary": 13662,
    "Ġloo": 22114,
    "Ġrejoined": 14930,
    "](": 11467,
    "arson": 22748,
    "Ġconsequently": 8060,
    "Ġarch": 934,
    "Ġfairness": 9897,
    "Ġshudder": 9053,
    "sively": 13789,
    "Ġmassacre": 20550,
    "Ġdespair": 4009,
    "Ġbough": 13897,
    "tre": 8764,
    "elaborate": 21579,
    "sharks": 14243,
    "hunting": 24385,
    "Ġspeak": 2227,
    "sheet": 16289,
    "Ġtom": 15637,
    "Ġattending": 3282,
    "Ġfors": 21775,
    "Ġasking": 5651,
    "Ġsticks": 14934,
    "Ġactions": 6279,
    "Ġbecher": 18880,
    "Ġfrosty": 14938,
    "elstrom": 17984,
    "Ġmovable": 22437,
    "Ġdeformed": 14049,
    "advise": 24220,
    "Ġvane": 22879,
    "Ġgibe": 25960,
    "Ġgeorgia": 23889,
    "binnacle": 20789,
    "ins": 1376,
    "Ġbegrim": 23018,
    "cork": 20798,
    "Ġarriving": 19219,
    "leviathan": 7784,
    "Ġbeards": 21755,
    "Ġoce": 3031,
    "Ġwatson": 3596,
    "Ġascending": 14857,
    "Ġwealthy": 18181,
    "Ġbracelets": 25503,
    "gi": 17553,
    "Ġgaieties": 24198,
    "ignorantly": 25190,
    "Ġdimens": 3147,
    "Ġlivid": 14992,
    "Ġaversion": 18867,
    "Ġcharlotte": 3889,
    "Ġmach": 13860,
    "wed": 5796,
    "ingley": 1546,
    "Ġanom": 12617,
    "Ġmanxman": 9568,
    "positive": 20570,
    "Ġdaunt": 19667,
    "nearly": 8684,
    "E": 41,
    "Ġkeenest": 12166,
    "Ġleviathans": 8282,
    "embraced": 25805,
    "fatigue": 20660,
    "Ġvexatious": 19784,
    "Ġreducing": 1958,
    "Ġmasoned": 20254,
    "Ġpensive": 21478,
    "rop": 542,
    "side": 2299,
    "Ġclubs": 25180,
    "Ġveteran": 17453,
    "M": 49,
    "Ġmisconduct": 22766,
    "Ġgrievances": 20650,
    "Ġpurposed": 23553,
    "Ġpeeling": 22695,
    "Ġstable": 2698,
    "ouch": 2779,
    "Ġcharacter": 2793,
    "Ġnav": 5819,
    "Ġxxiv": 24477,
    "Ġcorpusants": 13681,
    "Ġpreviously": 3918,
    "Ġwicked": 5961,
    "welcomed": 24645,
    "Ġparametric": 2392,
    "Ġspont": 22135,
    "Ġhose": 12633,
    "Ġthere": 563,
    "Ġtrad": 9831,
    "ady": 992,
    "Ġimpressed": 8199,
    "Ġhealthful": 24061,
    "gir": 8083,
    "island": 10796,
    "solut": 3361,
    "Ġimmort": 19487,
    "changed": 7175,
    "monster": 8595,
    "Ġbery": 13901,
    "Ġcompetition": 14269,
    "gale": 13727,
    "Ġministers": 22836,
    "Ġbrine": 18772,
    "Ġceiling": 7997,
    "77": 15304,
    "Ġlounged": 19957,
    "Ġawful": 6200,
    "conjecturing": 20137,
    "awing": 18917,
    "looking": 4032,
    "Ġeternally": 11370,
    "Ġclubbed": 26549,
    "returning": 12210,
    "rear": 21235,
    "sebastian": 21824,
    "Ġkitty": 3908,
    "Ġrooms": 5180,
    "omical": 9683,
    "icient": 787,
    "ser": 1427,
    "Ġnaturalists": 10365,
    "Ġbury": 12046,
    "Ľ": 254,
    "ument": 5239,
    "Ġcurb": 16247,
    "Ġaccommodate": 20520,
    "business": 5610,
    "Ġdances": 10814,
    "court": 7511,
    "Ġbrisk": 9806,
    "Ġhospitals": 24924,
    "Ġarcher": 22188,
    "Ġfrancisco": 26065,
    "Ġme": 352,
    "Ġblasphe": 17410,
    "Ġcharged": 9857,
    "Ġattics": 22624,
    "Ġrespectable": 6737,
    "Ġprimitive": 25064,
    "Ġattended": 5391,
    "moby": 8538,
    "Ġideal": 13124,
    "Ġtanning": 17731,
    "ources": 2788,
    "rougham": 15997,
    "Ġninetieth": 25358,
    "Ġreadability": 2723,
    "Ġcuff": 17831,
    "fellow": 6792,
    "Ġrom": 4526,
    "Ġcurvature": 3573,
    "embarr": 17295,
    "mouthful": 25209,
    "Ġaustrian": 24302,
    "obscure": 23100,
    "Ġmartha": 16264,
    "hoped": 20912,
    "manners": 16186,
    "boo": 16354,
    "Ġslowly": 3618,
    "story": 9215,
    "Ġmorsel": 20680,
    "Ġpracticable": 19075,
    "Ġspaulding": 11735,
    "Ġapproximates": 2414,
    "unwittingly": 25802,
    "Ġmasonry": 13602,
    "Ġtraining": 531,
    "compl": 6872,
    "Ġtall": 4037,
    "Ġflock": 21414,
    "forbid": 14356,
    "ittleness": 22383,
    "Ġbearing": 5300,
    "unction": 10237,
    "reasonable": 7751,
    "ated": 723,
    "aired": 8369,
    "Ġsurely": 6308,
    "rim": 7138,
    "inaw": 21186,
    "Ġconverted": 16115,
    "aneous": 7239,
    "Ġsling": 21223,
    "cent": 8073,
    "ist": 448,
    "pursuit": 20343,
    "Ġdrifting": 19281,
    "Ġdeliberation": 19972,
    "tremendous": 20676,
    "tornadoes": 26154,
    "Ġdenny": 9004,
    "chariot": 26481,
    "Ġdignified": 15602,
    "country": 6104,
    "Ġlombardy": 26465,
    "bra": 6220,
    "Ġlatitudes": 9499,
    "pped": 1998,
    "rates": 21041,
    "Ġassaulted": 25321,
    "Ġcompute": 2903,
    "derick": 22173,
    "Ġsmelt": 16069,
    "Ġmonoton": 3637,
    "anded": 5923,
    "Ġmoby": 3665,
    "Ġrubbing": 9324,
    "nd": 11505,
    "Ġflour": 8947,
    "Ġeyel": 17097,
    "colnett": 19332,
    "Ġincrease": 9373,
    "Ġoverjoyed": 17461,
    "Ġvexed": 9997,
    "screaming": 20328,
    "Ġrapture": 13498,
    "Ġhelmsman": 10507,
    "Ġshock": 6082,
    "Ġsmooth": 2777,
    "Ġbreeze": 5681,
    "Ġthoughtless": 16197,
    "Ġlinear": 3430,
    "Ġloadstone": 25817,
    "Ġabandonment": 25604,
    "Ġunsavory": 20709,
    "penn": 18829,
    "Ġprophesied": 26063,
    "heum": 17749,
    "Ġjerking": 12250,
    "Ġwrite": 3821,
    "ishes": 6523,
    "dare": 12458,
    "Ġincreases": 3796,
    "Ġgain": 4829,
    "Ġvoy": 2619,
    "Ġsaintsbury": 26374,
    "Ġstory": 2898,
    "Ġgur": 21595,
    "Ġhabit": 6771,
    "Ġrun": 2352,
    "Ġpassing": 4315,
    "apparently": 15208,
    "Ġsurrounding": 12167,
    "Ġcautiousness": 19868,
    "Ġspaniards": 25556,
    "Ġscreen": 17208,
    "Ġlandlord": 5581,
    "?âĢĻ": 2640,
    "Ġsubstance": 5510,
    "Ġoblivion": 26032,
    "Ġbrowne": 13305,
    "Ġfuller": 11157,
    "Ġoscill": 2853,
    "izar": 14053,
    "eter": 11623,
    "Ġcarelessness": 13079,
    "Ġdevote": 10341,
    "twice": 14623,
    "Ġlik": 2522,
    "othic": 16219,
    "Ġdoubling": 23322,
    "Ġmortar": 19396,
    "im": 327,
    "unning": 4495,
    "Ġlosing": 10917,
    "Ġprecaution": 11198,
    "Ġcensure": 15099,
    "Ġunobstructed": 18265,
    "Ġrevived": 11369,
    "shot": 2270,
    "Ġfergus": 16869,
    "Ġeloquence": 11846,
    "Ġpantheistic": 26337,
    "Ġfiltering": 23930,
    "tiness": 21074,
    "Ġdestroy": 5772,
    "Ġdoublo": 6078,
    "ction": 503,
    "Ġpy": 21454,
    "Ġalliance": 18236,
    "Ġcontro": 1686,
    "stayed": 25291,
    "Ġfinest": 10395,
    "ĩ": 234,
    "Ġslides": 18941,
    "uvian": 12247,
    "Ġchurning": 15941,
    "Ġcandles": 9911,
    "Ġsecondary": 23334,
    "Ġwhy": 1760,
    "Ġ61": 24364,
    "anything": 5518,
    "Ġpleasant": 4169,
    "Ġfamil": 4321,
    "Ġloom": 7629,
    "Ġstir": 5824,
    "Ġgenius": 8046,
    "Ġblankness": 24611,
    "rolling": 9063,
    "speak": 5504,
    "Ġbang": 17856,
    "Ġphilipses": 24452,
    "Ç": 136,
    "Ġrevolutions": 23845,
    "noon": 5037,
    "Ġblunder": 18820,
    "deser": 10481,
    "Ġobstacle": 16957,
    "Ġsignification": 19205,
    "Ġsky": 3968,
    "Ġbuffalo": 11430,
    "Ġbrave": 6330,
    "Ġsulphur": 24934,
    "Ġface": 1721,
    "leave": 7837,
    "Ġskul": 22798,
    "Ġexpensive": 12924,
    "Ġguns": 16778,
    "Ġcrockery": 24303,
    "Ġdashes": 21437,
    "Ġincul": 22553,
    "Ġunited": 6839,
    "Ġproposed": 7459,
    "'re": 12432,
    "Ġ83": 24459,
    "Ġchapters": 10475,
    "liter": 11503,
    "unconquerable": 21895,
    "whales": 5187,
    "Ġrains": 24340,
    "ineffectual": 26509,
    "Ġcolonnades": 26277,
    "whence": 23218,
    "Ġhell": 5019,
    "Ġmrs": 1468,
    "sole": 6169,
    "susceptible": 24662,
    "Ġcathedral": 17416,
    "gl": 3287,
    "Ġrede": 13987,
    "all": 485,
    "Ġagree": 7647,
    "Ġtherefore": 2237,
    "Ġimpenetrable": 17400,
    "Ġimplicated": 24876,
    "chet": 13220,
    "Ġ94": 17719,
    "abated": 14023,
    "Ġfob": 21412,
    "Ġgreas": 17994,
    "cas": 20796,
    "Ġoccupant": 16654,
    "oquent": 12504,
    "Ġspake": 18309,
    "Ġcurios": 18859,
    "Ġendeavour": 4678,
    "Ġcolour": 4463,
    "terms": 15755,
    "Ġattraction": 18621,
    "Ġshorter": 4500,
    "Ġphiladelphia": 26606,
    "Ġobserv": 8589,
    "Ġmaintained": 12940,
    "Ġgaiety": 16751,
    "ugal": 19024,
    "Ġbrid": 6291,
    "Ġcopper": 7424,
    "isons": 17851,
    "ause": 1313,
    "Ġshaking": 6552,
    "Ġunsupervised": 2425,
    "Ġcharacteristically": 23694,
    "Ġbleached": 24396,
    "Ġbr": 1075,
    "Ġwithhold": 18118,
    "sustained": 20571,
    "prudently": 21037,
    "orious": 6008,
    "Ġchristians": 13312,
    "Ġblind": 3716,
    "Ġprynne": 25541,
    "Ġhartshorn": 26182,
    "lung": 17593,
    "ography": 13366,
    "Ġpreparation": 13531,
    "Ġsparing": 22133,
    "Ġindependent": 9019,
    "pha": 22772,
    "Ġstudy": 1767,
    "Ġlate": 3375,
    "unhesitatingly": 26498,
    "charlotte": 6473,
    "l": 80,
    "provided": 13640,
    "der": 473,
    "Ġportraits": 20145,
    "Ġunsounded": 15853,
    "ined": 1259,
    "spike": 16142,
    "remember": 7261,
    "Ġrefreshing": 20267,
    "Ġriverside": 25248,
    "Ġimagination": 5759,
    "Ġnom": 21522,
    "Ġvoluntary": 14801,
    "ipp": 10105,
    "ittarius": 22384,
    "indebted": 26159,
    "Ġvest": 8163,
    "Ġcalhoun": 23046,
    "Ġdependen": 1827,
    "painting": 17047,
    "Ġsteal": 16287,
    "Ġshave": 22000,
    "inced": 3334,
    "Ġrepented": 23365,
    "Ġhang": 9190,
    "rubber": 12815,
    "Ġelbows": 18636,
    "Ġshining": 8172,
    "racts": 14373,
    "Ġtechnical": 17194,
    "Ġlearnable": 3995,
    "Ġlonely": 6822,
    "Ġarm": 2491,
    "Ġescapes": 23509,
    "Ġdr": 2822,
    "oura": 1065,
    "Ġlees": 18078,
    "achines": 1722,
    "Ġhumbly": 16202,
    "Ġsenior": 17174,
    "Ġcheery": 16371,
    "Ġroaring": 10969,
    "oused": 6557,
    "ascal": 10195,
    "Ġesq": 15112,
    "Ġsiam": 13841,
    "bted": 7793,
    "Ġvindict": 13608,
    "Ġendowed": 18925,
    "wr": 3029,
    "jacket": 12296,
    "ems": 5235,
    "betrayed": 24641,
    "Ġmysticetus": 24923,
    "anted": 5027,
    "Ġimaginary": 11187,
    "Ġrifle": 18213,
    "Ġundecided": 22050,
    "Ġ13": 6719,
    "_).âĢĶ": 8685,
    "asses": 7017,
    "glance": 16589,
    "Ġpaws": 13924,
    "Ġimagine": 3922,
    "says": 13303,
    "Ġgrief": 4621,
    "Ġfaithfully": 14890,
    "Ġsneezes": 24697,
    "Ġoverhead": 11777,
    "Ġdeposition": 18598,
    "animal": 16980,
    "Ġpods": 17917,
    "etent": 10202,
    "desc": 1392,
    "Ġobstructed": 24678,
    "larger": 24205,
    "continually": 11303,
    "Ġresnet": 5473,
    "introduce": 25187,
    "Ġvaluable": 5608,
    "Ġult": 9077,
    "Ġhing": 11606,
    "pshire": 21026,
    "Ġflame": 7447,
    "sius": 13791,
    "sentimental": 25682,
    "Ġcomputational": 1628,
    "Ġresp": 2493,
    "Ġlikes": 9411,
    "Ġillustrious": 17110,
    "Ġteeth": 4166,
    "Ġdull": 6384,
    "Ġgerman": 6142,
    "ishop": 9745,
    "mael": 6723,
    "secret": 12241,
    "hel": 4815,
    "Ġsag": 6514,
    "Ġconvolutions": 21811,
    "hideous": 25408,
    "Ġcrashes": 13128,
    "Ġardently": 9501,
    "Ġcomforter": 20510,
    "talk": 6658,
    "burned": 25082,
    "Ġmaids": 19694,
    "Ġrecovering": 11867,
    "pires": 13778,
    "Ġlimit": 10445,
    "anxious": 15113,
    "cruise": 24842,
    "Ġgreenwich": 19323,
    "batt": 20780,
    "iable": 3332,
    "Ġcelebrate": 26359,
    "tubs": 15134,
    "dr": 6222,
    "Ġgaining": 9495,
    "eled": 2355,
    "Ġcompromising": 22577,
    "Ġdepend": 773,
    "Ġclerval": 4654,
    "roded": 17958,
    "Ġencoun": 4513,
    "Ġearnest": 3929,
    "Ġcaprice": 14578,
    "Ġentity": 10344,
    "Ġpendulous": 25956,
    "luded": 4228,
    "Ġsays": 3561,
    "Ġpaintings": 15058,
    "Ġverse": 16604,
    "Ġwish": 2098,
    "ssian": 3397,
    "Ġsteeple": 19289,
    "Ġchimneys": 16974,
    "ela": 21572,
    "humiliation": 24024,
    "Ġvelv": 10622,
    "Ġundulated": 19519,
    "Ġpenal": 1774,
    "Ġtwentieth": 18659,
    "commencement": 26350,
    "breaking": 14767,
    "Ġrheumatic": 20707,
    "aviour": 11006,
    "liking": 22927,
    "elve": 4642,
    "Ġhousekeeper": 7455,
    "Ġkrempe": 10672,
    "Ġmild": 4146,
    "Ġorgan": 2501,
    "countless": 24152,
    "Ġven": 4648,
    "chose": 18043,
    "Ġleviathan": 3286,
    "Ġfast": 1716,
    "Ġmartyr": 26362,
    "Ġhandsome": 4907,
    "Ġpoisoned": 24887,
    "Ġ121": 24466,
    "Ġcle": 1511,
    "advice": 12162,
    "abhorred": 17339,
    "Ġappearing": 9844,
    "oded": 11672,
    "Ġfancies": 10426,
    "medium": 23640,
    "Ġtart": 12533,
    "Ġsad": 3867,
    "Ġcat": 2121,
    "Ġadvertising": 25390,
    "nowledge": 10292,
    "Ġdiffident": 23786,
    "Ġfaults": 12217,
    "Ġstaggered": 9542,
    "Ġcetacea": 20556,
    "whiskers": 12315,
    "admit": 18093,
    "Ġcomfits": 21856,
    "Ġbohem": 8528,
    "horner": 23616,
    "Ġwrinkled": 7263,
    "bing": 7791,
    "Ġhoneymoon": 25646,
    "decan": 22145,
    "Ġsitting": 3605,
    "Ġimplac": 24875,
    "Ġinsolent": 13603,
    "dham": 20832,
    "blocks": 25518,
    "amouch": 21849,
    "Ġhelplessness": 25074,
    "Ġprevention": 16095,
    "Ġjaws": 5593,
    "bonnet": 25743,
    "sounding": 24795,
    "example": 16017,
    "Ġimpelling": 22389,
    "Ġspir": 2426,
    "Ġepisode": 26349,
    "Ġfooted": 23799,
    "gypt": 8261,
    "Ġhorizontal": 7782,
    "Ġdrowsiness": 26447,
    "returned": 7765,
    "ople": 2316,
    "Ġfring": 11128,
    "Ġdiab": 10614,
    "Ġfield": 1251,
    "unearthly": 19275,
    "Ġowners": 7663,
    "71": 20758,
    "yonder": 21147,
    "Ġlatest": 16824,
    "Ġfrantic": 7957,
    "Ġseedy": 21966,
    "Ġhinting": 19652,
    "wealth": 22691,
    "Ġpractice": 2999,
    "umps": 6318,
    "Ġconveys": 16857,
    "stalls": 26475,
    "ics": 3255,
    "tales": 17688,
    "Ġmarbles": 18874,
    "Ġhesitating": 16949,
    "Ġadmeasure": 18294,
    "Ġprocessing": 893,
    "flies": 19427,
    "Ġcorporeally": 25729,
    "recklessly": 25270,
    "oubtedly": 6942,
    "Ġenumerating": 15248,
    "Ġmounts": 17808,
    "les": 1017,
    "Ġthreatened": 8330,
    "ogr": 18671,
    "Ġsatir": 18795,
    "awed": 10394,
    "entle": 1738,
    "Ġobtained": 7431,
    "Ġwomen": 4751,
    "Ġyarn": 10869,
    "Ġpluck": 15618,
    "Ġmedical": 9473,
    "Ġbashful": 20423,
    "Ġstudying": 9849,
    "Ġmile": 7151,
    "ĠâĢľ_": 6697,
    "mystery": 15159,
    "red": 397,
    "Ġremote": 8923,
    "pistol": 17644,
    "immed": 9220,
    "Ġsustain": 10020,
    "Ġthrice": 10578,
    "Ġstrangers": 8314,
    "otence": 14026,
    "inces": 13831,
    "tenderly": 20534,
    "inities": 21188,
    "Ġsquatted": 25843,
    "Ġconvict": 23747,
    "context": 3402,
    "Ġforce": 5092,
    "Ġcreep": 22727,
    "related": 24015,
    "Ġbestir": 13113,
    "ancy": 4395,
    "Ġtruck": 19514,
    "Ġtimidly": 11339,
    "Ġassertions": 19950,
    "acrity": 14283,
    "Ġdistended": 16046,
    "Ġchewed": 16373,
    "Ġye": 898,
    "Ġprosecuted": 25294,
    "Ġterminated": 23511,
    "love": 9297,
    "Ġglu": 15672,
    "ildad": 3531,
    "Ġstaple": 26200,
    "bons": 17489,
    "elson": 16374,
    "rupt": 3210,
    "Ġsheet": 6263,
    "Ġwholesome": 16009,
    "name": 6795,
    "Ġrewards": 10849,
    "Ġpoll": 12034,
    "Ġcommanded": 6331,
    "ought": 829,
    "Ġbraw": 23838,
    "Ġswitching": 23061,
    "Ġmoon": 4609,
    "Ġcommence": 6168,
    "Ġschoolmaster": 16864,
    "Ġsubdiv": 16163,
    "Ġrainbows": 19651,
    "llable": 6878,
    "Ġincalcul": 16067,
    "Ġsensationalism": 26067,
    "grief": 13734,
    "Ġdair": 17891,
    "protest": 24812,
    "Ġoccurred": 4464,
    "levelled": 23645,
    "penetrate": 20327,
    "unbe": 21876,
    "Ġcoolly": 9775,
    "ersman": 11705,
    "imen": 12692,
    "Ġ62": 24365,
    "Ġapprehen": 16831,
    "Ġfirmest": 16667,
    "Ġlouisa": 13548,
    "Ġgrieve": 14710,
    "urity": 8143,
    "walk": 5523,
    "stolen": 13985,
    "bermaid": 20792,
    "Ġcolony": 18769,
    "uccas": 21109,
    "experienced": 15125,
    "leaning": 10792,
    "Ġobvious": 4964,
    "Ġalbert": 12712,
    "Ġgothic": 18002,
    "lane": 10708,
    "hastily": 19705,
    "Ġresignation": 18567,
    "Ġdiana": 21439,
    "Ġgush": 10205,
    "iny": 4294,
    "horses": 17569,
    "Ġlaid": 3941,
    "Ġclap": 10958,
    "Ġroylott": 7304,
    "Ġread": 1449,
    "ometer": 19328,
    "Ġluc": 3309,
    "Ġintensity": 10019,
    "Ġapprehensions": 13407,
    "Ġall": 421,
    "Ġinconsist": 17938,
    "pip": 6656,
    "ergy": 2358,
    "Ġbelonging": 8308,
    "Ġhut": 15623,
    "Ġrider": 24187,
    "Ġegypt": 9681,
    "Ġdejection": 15200,
    "Ġvales": 21950,
    "rable": 11635,
    "halloa": 17091,
    "Ġoriginate": 24123,
    "Ġborrowed": 17232,
    "Ġdon": 1615,
    "preservation": 25306,
    "Ġfitting": 21411,
    "aciousness": 18608,
    "faces": 13723,
    "omeness": 18018,
    "Ġclue": 7021,
    "Ġsto": 1500,
    "Ġsuccessful": 9926,
    "Ġsurround": 4618,
    "months": 9074,
    "Ġpatter": 845,
    "existence": 16018,
    "belled": 24039,
    "Ġdocks": 14180,
    "amidst": 25653,
    "wer": 8396,
    "elfare": 11781,
    "Ġgreatly": 5850,
    "Ġoffers": 12950,
    "beware": 16043,
    "Ġdearly": 10404,
    "Ġsculpt": 15950,
    "Ġtiles": 17728,
    "Ġjesty": 18406,
    "Ġspecific": 2002,
    "Ġchocks": 13349,
    "Ġlevel": 5020,
    "Ġretreated": 13436,
    "Ġstalk": 12703,
    "Ġdesk": 11911,
    "Ġroanoke": 22411,
    "ies": 583,
    "Ġobtruded": 20724,
    "Ġshow": 3399,
    "anywhere": 14684,
    "erting": 17779,
    "Ġmessage": 13525,
    "Ġpanting": 11605,
    "Ġvict": 3762,
    "power": 7137,
    "Ġlowered": 6736,
    "Ġbottomless": 12111,
    "en": 271,
    "Ġbeer": 10222,
    "Ġceremonious": 24838,
    "ophisticated": 22482,
    "Ġwhitish": 24867,
    "ob": 1421,
    "Ġcombat": 16191,
    "Ġoverjoy": 15976,
    "Ġpantry": 20298,
    "Ġforthwith": 16620,
    "ench": 21282,
    "Ġtemporal": 2613,
    "interval": 7991,
    "entials": 22661,
    "Ġdownright": 16122,
    "iver": 2051,
    "Ġdevotedly": 24749,
    "Ġarguments": 8037,
    "!âĢĿ": 846,
    "Ġreinforcement": 3459,
    "Ġparade": 18302,
    "perseus": 26006,
    "Ġadmitting": 19185,
    "Ġpallid": 12303,
    "Ġwhispers": 14703,
    "preserver": 20216,
    "Ġcity": 4531,
    "awful": 23119,
    "moreover": 12974,
    "Ġdearest": 5457,
    "Ġinspection": 14546,
    "Ġleast": 2066,
    "Ġbuttons": 12787,
    "Ġmeets": 7395,
    "aped": 3764,
    "Ġhip": 17923,
    "ints": 3414,
    "uge": 4016,
    "Ġhonour": 3921,
    "ampl": 21846,
    "impl": 21710,
    "Ġheiress": 20700,
    "Ġcrazy": 8596,
    "upp": 10133,
    "Ġnatural": 1114,
    "Ġspread": 5161,
    "Ġdismast": 12894,
    "cracy": 24691,
    "Ġstag": 6149,
    "Ġsob": 12789,
    "Ġmoul": 15548,
    "adler": 21766,
    "ulls": 8842,
    "Ġaccord": 4025,
    "Ġcontrivance": 17186,
    "danish": 20835,
    "Ġfinite": 2322,
    "offensive": 16401,
    "Ġsuperst": 7703,
    "))": 1516,
    "compose": 24035,
    "plexy": 18576,
    "imly": 12693,
    "Ġglowed": 24865,
    "contents": 12062,
    "Ġinfluence": 5515,
    "Ġhosea": 17334,
    "Ġlunch": 13528,
    "Ġperpendicular": 7208,
    "stream": 15691,
    "Ġtenderest": 23550,
    "hered": 5623,
    "original": 9088,
    "Ġroy": 4229,
    "Ġark": 10278,
    "Ġbroadened": 23988,
    "Ġjava": 12316,
    "Ġshuddering": 9054,
    "Ġbeckoned": 25794,
    "Ġmotives": 7486,
    "hement": 13835,
    "Ġforgetting": 3432,
    "penet": 11071,
    "Ġvertu": 23893,
    "Ġduchess": 4800,
    "Ġpretence": 13210,
    "Ġlearnedly": 23389,
    "Ġtablet": 19207,
    "Ġuntimely": 16469,
    "Ġhonor": 5664,
    "trimmed": 23952,
    "imson": 12695,
    "higher": 20410,
    "killing": 20944,
    "networks": 2401,
    "Ġought": 3416,
    "Ġtarget": 2819,
    "Ġhue": 8430,
    "Ġexplicit": 3588,
    "Ġdestroyer": 13416,
    "Ġspecksnyder": 17406,
    "que": 1139,
    "Ġsan": 7824,
    "Ġjoyous": 14666,
    "injury": 25214,
    "Ġdeduced": 12212,
    "Ġcloudy": 19480,
    "Ġbread": 5404,
    "ron": 5216,
    "Ġclassification": 1102,
    "Ġaccountability": 10440,
    "Ġhoisted": 5960,
    "Ġinsipid": 26314,
    "Ġarticulated": 24433,
    "fred": 20857,
    "Ġpupp": 10822,
    "apped": 5395,
    "Ġnautical": 17389,
    "december": 25559,
    "Ġmould": 6519,
    "het": 5435,
    "du": 605,
    "Ġimpotent": 18448,
    "Ġ37": 24081,
    "exact": 7910,
    "Ġstill": 1156,
    "Ġescape": 2646,
    "Ġaquiline": 26160,
    "why": 2826,
    "Ġbishop": 13905,
    "Ġfounder": 17885,
    "raised": 15683,
    "arp": 2027,
    "Ġstiffness": 24828,
    "Ġrel": 1099,
    "Ġimm": 3964,
    "Ġskills": 1839,
    "supplement": 14799,
    "Ġtreats": 19347,
    "Ġdaniel": 15115,
    "Ġoutright": 18414,
    "Ġsolitudes": 22889,
    "Ġram": 11014,
    "Ġy": 341,
    "Ġunctuous": 10269,
    "Ġsyntax": 957,
    "Ġheroines": 19754,
    "Ġanother": 1737,
    "alf": 4639,
    "Ġearliest": 9833,
    "Ġfaltering": 17886,
    "Ġwails": 21299,
    "Ġcoincidence": 25484,
    "Ġknow": 630,
    "clearly": 25196,
    "illum": 15873,
    "Ġdominic": 25381,
    "Ġinherited": 25354,
    "Ġdesert": 6727,
    "Ġunstructured": 3003,
    "Ġconsecutive": 20705,
    "besides": 8699,
    "Ġfunere": 22263,
    "bus": 5355,
    "Ġpervading": 20616,
    "ilingly": 21727,
    "Ġgraze": 18227,
    "Ġspaniard": 20366,
    "Ġpaths": 2569,
    "Ġcrystal": 17217,
    "Ġdumb": 7843,
    "Ġsaving": 15891,
    "Ġwounded": 8661,
    "unt": 2046,
    "Ġaven": 10761,
    "Ġaccusations": 22381,
    "enial": 17782,
    "Ġnaturally": 2463,
    "Ġdarling": 12610,
    "Ġmu": 17797,
    "Ġcreature": 2379,
    "Ġspeckled": 14311,
    "Ġfancy": 3746,
    "aving": 2403,
    "Ġnormalization": 1242,
    "Ġflap": 14425,
    "Ġperemptory": 25741,
    "Ġsubmitted": 11875,
    "tures": 21072,
    "Ġsovereign": 10065,
    "results": 20390,
    "Ġshovel": 23493,
    "Ġantiqu": 12149,
    "Ġconfines": 23306,
    "nur": 11507,
    "sunlight": 24852,
    "Ġexpectations": 13146,
    "entrance": 12663,
    "Ġproperly": 7945,
    "Ġintru": 15831,
    "antee": 22101,
    "Ġforger": 15737,
    "disp": 7977,
    "Ġupdate": 2460,
    "Ġhonoured": 9884,
    "Ġmanned": 9274,
    "Ġplayful": 19239,
    "aneously": 4058,
    "Ġcolumns": 14380,
    "axen": 22525,
    "Ġstove": 6734,
    "steps": 9408,
    "Ġunmethodically": 22072,
    "abomin": 15746,
    "Ġ1890": 23900,
    "Ġchronic": 9932,
    "Ġlongbourn": 3507,
    "sings": 4252,
    "Ġcrocodile": 20742,
    "Ġpout": 17908,
    "Ġallude": 12777,
    "tooth": 18580,
    "Ġeconomical": 25288,
    "kne": 20937,
    "harpooned": 24288,
    "ails": 6161,
    "Ġtarshish": 12033,
    "Ġsparkled": 13465,
    "distinguished": 10529,
    "Ġdisease": 14260,
    "Ġconfiding": 19037,
    "Ġapplies": 11963,
    "Ġconvention": 25547,
    "lleg": 20953,
    "Ġshipwrecked": 25688,
    "Ġmere": 2712,
    "absence": 12714,
    "Ġcamel": 25350,
    "subsided": 25832,
    "Ġnailing": 21530,
    "Ġrepro": 7274,
    "Ġcommission": 6713,
    "suspended": 15181,
    "Ġhateful": 19716,
    "Ġwretch": 6378,
    "Ġaggregate": 25678,
    "Ġcollege": 11425,
    "itime": 15552,
    "Ġharpooneer": 3772,
    "Ġamel": 18511,
    "Ġlime": 13951,
    "oration": 2208,
    "justified": 19005,
    "grasping": 20642,
    "obtained": 23098,
    "bet": 6110,
    "Ġking": 2302,
    "Ġput": 1797,
    "spoutings": 25004,
    "Ġblew": 9048,
    "Ġskulls": 12964,
    "Ġunappe": 22020,
    "Ġrecourse": 22741,
    "type": 16178,
    "closing": 23160,
    "Ġhill": 5626,
    "Ġsuppose": 2863,
    "Ġrestricted": 19030,
    "¦": 104,
    "Ġprotect": 6338,
    "Ġpro": 360,
    "Ġsignific": 3828,
    "Ġbison": 21391,
    "irement": 18363,
    "share": 14240,
    "gee": 15981,
    "odox": 21815,
    "Ġsociety": 3977,
    "Ġdeadly": 5405,
    "Ġprosperous": 15174,
    "Ġgrating": 14358,
    "sky": 12515,
    "nonsense": 17617,
    "Ġtouches": 20573,
    "Ġgives": 5018,
    "Ġabridged": 26543,
    "Ġinhospit": 25453,
    "Ġripp": 11220,
    "pend": 6367,
    "Ġrepresenting": 4059,
    "il": 329,
    "summoned": 26593,
    "?_": 8070,
    "vit": 13804,
    "Ġfashions": 17887,
    "Ġdisadvantages": 18559,
    "Ġlifeless": 8951,
    "opposing": 24822,
    "Ġfestival": 25446,
    "Ġrevelation": 25223,
    "handsome": 13179,
    "carp": 9113,
    "itself": 7834,
    "reel": 21236,
    "Ġobservable": 25129,
    "Ġrese": 2193,
    "arms": 10176,
    "ceptive": 15975,
    "Ġextrem": 2474,
    "Ġmisunderstand": 18703,
    "Ġ65": 24368,
    "Ġnonce": 23237,
    "Ġdecorated": 22449,
    "Ġrake": 18643,
    "Ġagreement": 18544,
    "glue": 17558,
    "Ġcompar": 4772,
    "Ġclink": 22352,
    "wander": 17711,
    "Ġdouble": 4940,
    "Ġcircle": 4977,
    "romang": 22009,
    "Ġoffended": 7041,
    "Ġdegenerated": 20509,
    "impregn": 21717,
    "Ġmistaken": 4986,
    "eenth": 12465,
    "Ġstops": 3164,
    "enemy": 15530,
    "resh": 8405,
    "Ġlionel": 25287,
    "Ġfluid": 11213,
    "Ġemper": 9864,
    "Ġflog": 23624,
    "adel": 15733,
    "Ġthe": 270,
    "sworn": 24259,
    "thar": 18218,
    "arat": 9183,
    "wled": 15457,
    "sharpening": 22470,
    "Ġagitated": 7648,
    "Ġpleasure": 2694,
    "mantel": 26396,
    "idents": 6151,
    "Ġjoking": 12843,
    "Ġpre": 506,
    "Ġunch": 18240,
    "snap": 24849,
    "Ġsurmisings": 26595,
    "agne": 21909,
    "wear": 22686,
    "shed": 8095,
    "Ġblessed": 6930,
    "Ġfootpaths": 26319,
    "Ġemig": 14526,
    "ricade": 13043,
    "deduction": 23673,
    "jerked": 25619,
    "Ġstrides": 22621,
    "mers": 9613,
    "Ġleave": 2454,
    "Ġhave": 445,
    "asserted": 22313,
    "Ġsketches": 26272,
    "tro": 15436,
    "Ġstreams": 12197,
    "con": 652,
    "voyage": 7785,
    "Ġclassify": 1545,
    "bene": 6113,
    "Ġsmacking": 20168,
    "although": 8810,
    "Ġmedit": 8025,
    "Ġsavi": 18326,
    "Ġrudeness": 17127,
    "arrangement": 17418,
    "Ġnear": 1717,
    "Ġhish": 21917,
    "Ġmincer": 14368,
    "....": 11317,
    "Ġoppressive": 20458,
    "Ġsuburban": 17349,
    "Ġsidelong": 11439,
    "constable": 24606,
    "iii": 14779,
    "famous": 16918,
    "Ġsoles": 22081,
    "Ġdenied": 9003,
    "vand": 21111,
    "Ġenveloped": 12213,
    "Ġthoughtfully": 12986,
    "contempl": 13194,
    "illes": 12700,
    "companion": 9560,
    "usation": 18402,
    "Ġcouples": 16854,
    "Ġwert": 12561,
    "shout": 22458,
    "alse": 4186,
    "Ġstumble": 26484,
    "heredit": 21212,
    "Ġacquit": 18899,
    "idly": 12706,
    "ahead": 12438,
    "Ġrecollection": 6622,
    "Ġpleasing": 6191,
    "Ġignorantly": 19498,
    "Ġfarmhouse": 24987,
    "Ġlaborious": 13106,
    "buckets": 26124,
    "itu": 1225,
    "allowing": 24358,
    "usages": 22294,
    "Ġrepresentation": 14409,
    "Ġaugust": 10600,
    "Ġleatherhead": 20017,
    "Ġmadly": 16487,
    "Ġparcel": 15203,
    "difficulty": 12394,
    "Ġgrunted": 16172,
    "Ġpythag": 26450,
    "smo": 10128,
    "Ġthanked": 9462,
    "Ġstrasburgh": 18616,
    "Ġallegro": 25795,
    "pitch": 13302,
    "Ġbulkington": 14679,
    "Ġadded": 2715,
    "comes": 5394,
    "Ġprompted": 23820,
    "Ġlegitimate": 20644,
    "Ġdelineations": 26059,
    "naturally": 14585,
    "Ġdormouse": 4926,
    "Ġheads": 3741,
    "greatest": 10496,
    "Ġanimate": 23426,
    "ampled": 18884,
    "Ġhorizont": 6936,
    "watch": 6119,
    "Ġnieces": 8434,
    "Ġforcibly": 10064,
    "isles": 15568,
    "Ġevent": 2948,
    "Ġreiter": 21669,
    "ales": 3315,
    "Ġeyed": 12675,
    "naught": 20996,
    "Ġlined": 15654,
    "itting": 1149,
    "ug": 1768,
    "Ġremainder": 9861,
    "itable": 5437,
    "Ġhears": 8139,
    "devoted": 20020,
    "reply": 19725,
    "Ġextent": 7657,
    "Ġentic": 16149,
    "Ġachieves": 4381,
    "temper": 10007,
    "deacon": 22151,
    "conspicuous": 26249,
    "Ġdefe": 21832,
    "blo": 6354,
    "Ġelimin": 16111,
    "Ġineffable": 17335,
    "Ġtransparen": 10544,
    "Ġxiii": 25592,
    "Ġrapidity": 11101,
    "Ġplunge": 13446,
    "offended": 16400,
    "orily": 15577,
    "Ġfighting": 12202,
    "Ġmultitud": 18748,
    "cy": 637,
    "Ġvarieties": 14312,
    "Ġgree": 7595,
    "Ġfreezing": 23886,
    "Ġpages": 15612,
    "Ġpresided": 20210,
    "dutch": 17221,
    "body": 2305,
    "cherries": 19759,
    "separation": 25227,
    "Ġdeepest": 8214,
    "Ġsuffering": 8949,
    "mat": 2199,
    "recogn": 13428,
    "sulphur": 25910,
    "Ġinsights": 13182,
    "Ġmills": 21314,
    "Ġfruits": 17121,
    "Ġsalutations": 25383,
    "Ġpettic": 14844,
    "spouting": 25003,
    "Ġbasics": 13451,
    "Ġvalley": 5851,
    "Ġeddying": 17119,
    "Ġtow": 4397,
    "Ġ]": 15462,
    "bill": 10079,
    "Ġstru": 2170,
    "officers": 10630,
    "Ġbe": 336,
    "Ġimprovements": 14520,
    "fair": 10095,
    "apothe": 22338,
    "urean": 18125,
    "Ġbefore": 810,
    "Ġpaddling": 25286,
    "lestrade": 9659,
    "Ġsashes": 21228,
    "Ġacquaint": 13049,
    "hush": 20908,
    "Ġsperm": 1843,
    "Ġponies": 21479,
    "Ġparacels": 13671,
    "Ġthinker": 22811,
    "Ġretreats": 16930,
    "ladyship": 14832,
    "Ġfervour": 19729,
    "Ġpouch": 21472,
    "Ġdemand": 4947,
    "Ġbellies": 13359,
    "Ġoverhear": 15980,
    "Ġchaff": 18384,
    "fate": 17541,
    "sac": 7141,
    "Ġpilgrimage": 17311,
    "Ġsurvey": 13596,
    "Ġexpenses": 11840,
    "Ġdevelopments": 23231,
    "hinting": 17571,
    "Ġbeyond": 2455,
    "Ġbridge": 8349,
    "Ġabsurdly": 19964,
    "Ġsigned": 11178,
    "Ġgiants": 25961,
    "Ġexpanded": 14295,
    "Ġmassa": 19457,
    "Ġdropped": 4473,
    "Ġfurthermore": 1169,
    "Ġamput": 16038,
    "Ġdisobedience": 22539,
    "fourths": 25510,
    "Ġmoth": 17804,
    "yours": 7695,
    "illity": 18297,
    "Ġscr": 11764,
    "Ġsweep": 8266,
    "robust": 19731,
    "Ġraving": 16118,
    "Ġcomprehens": 8320,
    "Ġlining": 13954,
    "Ġsets": 8778,
    "Ġretrogress": 23076,
    "Ġtreacherous": 13557,
    "uberance": 25917,
    "Ġopera": 23429,
    "Ġgames": 11629,
    "Ġcommitting": 22676,
    "ferred": 16411,
    "cabin": 8363,
    "izens": 18146,
    "raction": 8138,
    "Ġbrixton": 13667,
    "Ġ51": 24316,
    "rations": 10725,
    "Ġheightened": 8652,
    "Ġallurements": 22011,
    "Ġadvance": 5484,
    "Ġlustre": 15138,
    "bethinking": 25746,
    "Ġunwarranted": 24831,
    "inations": 7567,
    "Ġminister": 18753,
    "Ġafore": 10760,
    "oubled": 23647,
    "Ġnor": 1553,
    "ula": 2823,
    "Ġmiscell": 16154,
    "Ġtapers": 11553,
    "Ġdomineering": 23670,
    "level": 2652,
    "Ġdedu": 5584,
    "collar": 19330,
    "Ġfamilies": 8027,
    "Ġallures": 22010,
    "Ġenjoying": 11235,
    "Ġinterval": 4052,
    "position": 15416,
    "ahab": 4290,
    "Ġbitterly": 8315,
    "Ġart": 750,
    "eling": 6682,
    "revol": 12545,
    "tastes": 21099,
    "Ġinterm": 14271,
    "shock": 19857,
    "my": 1315,
    "sub": 4660,
    "Ġincant": 18569,
    "every": 2809,
    "Ġdetected": 18824,
    "Ġethere": 23954,
    "rices": 4560,
    "Ġlubber": 17447,
    "oles": 21007,
    "Ġcheapside": 23291,
    "Ġscarlet": 13227,
    "Ġdropping": 7483,
    "ibly": 2994,
    "Ġcrust": 21354,
    "strike": 14952,
    "again": 3396,
    "Ġdisenc": 22530,
    "Ġundu": 15841,
    "Ġroared": 7024,
    "crane": 24089,
    "batim": 25019,
    "ening": 3103,
    "uses": 11765,
    "Ġconscience": 6928,
    "Ġauthorities": 11265,
    "note": 14340,
    "Ġintervening": 17270,
    "ignominious": 26589,
    "fresh": 13395,
    "Ġlethar": 21750,
    "Ġaided": 17747,
    "Ġprophets": 20453,
    "Ġadmirably": 16483,
    "Ġlaborers": 19057,
    "Ġscaled": 2106,
    "Ġyork": 11668,
    "carefully": 13372,
    "Ġbrooding": 18909,
    "F": 42,
    "Ġing": 5284,
    "eldom": 4415,
    "Ġrehears": 15704,
    "Ö": 151,
    "Ġlimbs": 5966,
    "Ġidentified": 19152,
    "Ġleisure": 6540,
    "Ġrelate": 6875,
    "Ġprofanely": 23572,
    "Ġdelivery": 18976,
    "Ġpaused": 5416,
    "Ġlater": 6017,
    "Ġgrows": 4985,
    "lab": 3453,
    "poled": 22909,
    "Ġliberties": 19670,
    "fedallah": 25523,
    "Ġplain": 2815,
    "Ġstatement": 5255,
    "Ġadam": 2126,
    "f": 74,
    "Ġ84": 19712,
    "bold": 17490,
    "houn": 20895,
    "Ġhorr": 3188,
    "notwithstanding": 22752,
    "Ġhostile": 19943,
    "Ġinsane": 19271,
    "Ġchace": 14181,
    "Ġchas": 18380,
    "preserve": 25304,
    "Ġlit": 6247,
    "Ġderiv": 1735,
    "nay": 7136,
    "blacksmith": 17003,
    "Ġauthentic": 20538,
    "Ġmice": 13862,
    "Ġcontrary": 5261,
    "coming": 3562,
    "readily": 19365,
    "Ġhereabouts": 12984,
    "Ġpersuading": 19413,
    "Ġtorpor": 25034,
    "Ġran": 3341,
    "conjectured": 25182,
    "Ġgid": 13965,
    "join": 12118,
    "ruin": 22180,
    "Ġtreacle": 14597,
    "Ġinexperience": 26100,
    "bounded": 13442,
    "Ġfable": 15581,
    "Ġduring": 874,
    "Ġprotracted": 19472,
    "izzy": 3094,
    "Ġhorseback": 14853,
    "iciously": 17976,
    "Ġsecrecy": 7315,
    "Ġwhims": 12698,
    "ropout": 1319,
    "Ġpanic": 11287,
    "flatter": 23970,
    "Ġgigantic": 5915,
    "Ġheidelburgh": 11646,
    "ugues": 19025,
    "compassion": 12372,
    "Ġacquiescence": 20333,
    "Ġsuspending": 19246,
    "magn": 10613,
    "Ġbrightest": 13229,
    "Ġanimation": 11153,
    "formal": 14170,
    "Ġoccasions": 7988,
    "Ġdot": 4822,
    "arth": 4444,
    "Ġunderground": 18985,
    "iew": 2444,
    "Ġdesmarest": 22979,
    "lotte": 3329,
    "Ġheire": 18039,
    "Ġrattled": 15070,
    "ipher": 18433,
    "Ġtinged": 20086,
    "meantime": 9095,
    "inkle": 22617,
    "Ġsubjected": 23574,
    "ui": 9147,
    "Ġrecoil": 18691,
    "dec": 3110,
    "Ġdeliberate": 15025,
    "Ġ12": 5483,
    "Ġwrote": 5011,
    "Ġyouth": 4262,
    "Ġmole": 11795,
    "observed": 7675,
    "Ġvesture": 20065,
    "plenty": 14091,
    "Ġhates": 21489,
    "Ġerie": 20057,
    "nal": 1901,
    "omn": 15686,
    "Ġgraphs": 25464,
    "Ġpowers": 5419,
    "Ġadds": 1804,
    "Ġimpelled": 11786,
    "cannib": 11906,
    "Ġdusky": 13552,
    "Ġtermination": 16463,
    "uguese": 20734,
    "Ġsom": 1274,
    "Ġstretched": 5920,
    "Ġjavelin": 26105,
    "Ġdish": 6137,
    "Ġminim": 1322,
    "desol": 13221,
    "bureau": 20791,
    "tenham": 16324,
    "lee": 11587,
    "10": 17475,
    "Ġsplitting": 4385,
    "Ġsons": 10768,
    "mighty": 9469,
    "osite": 4894,
    "ensity": 11817,
    "Ġconversed": 13191,
    "Ġsafely": 9028,
    "Ġlightly": 13087,
    "isco": 12587,
    "Ġascent": 19621,
    "Ġyawning": 12304,
    "Ġspears": 12930,
    "butter": 11789,
    "Ġslain": 8956,
    "Ġent": 901,
    "Ġmerited": 23733,
    "Ġinstructive": 19287,
    "sy": 2562,
    "Ġglue": 15678,
    "Ġrecognise": 12044,
    "Ġprincess": 23226,
    "Ġattributed": 11837,
    "conceive": 16033,
    "Ġcontemplation": 11358,
    "Ġworlds": 11952,
    "Ġopal": 23627,
    "Ġ1869": 19387,
    "Ġbond": 21387,
    "Ġblackstone": 23392,
    "Ġleaking": 21749,
    "Ġdiscoveries": 13362,
    "Ġtantamount": 25626,
    "Ġ87": 19713,
    "Ġreplay": 5047,
    "Ġvolition": 14800,
    "Ġum": 10214,
    "Ġrolls": 8334,
    "extra": 8219,
    "rying": 3184,
    "amusement": 15286,
    "Ġ7": 4746,
    "ouncement": 11749,
    "Ġperish": 8878,
    "agreeable": 5830,
    "ore": 417,
    "Ġsequel": 14359,
    "Ġentailed": 11027,
    "Ġsocial": 7007,
    "Ġposs": 1618,
    "Ġexposing": 11839,
    "Ġstrat": 16096,
    "Ġsm": 704,
    "Ġpetulance": 24230,
    "mish": 17600,
    "each": 7334,
    "make": 5793,
    "iot": 9603,
    "cleanliness": 25872,
    "Ġtreasures": 17048,
    "Ġgreeting": 18964,
    "Ġcassock": 20490,
    "Ġappetite": 12388,
    "scho": 8763,
    "Ġslink": 23167,
    "Ġwhere": 785,
    "conducted": 25573,
    "Ġfamiliarity": 16731,
    "bey": 10317,
    "Ġshroud": 6483,
    "billows": 20239,
    "tremble": 17144,
    "sto": 3197,
    "tempted": 26405,
    "Ġsauc": 15892,
    "Ġgenealogies": 25962,
    "Ġhanging": 5447,
    "Ġinteractions": 12909,
    "Ġser": 1672,
    "uber": 15448,
    "twelvemonth": 25863,
    "Ġrueful": 25582,
    "Ġtiny": 11554,
    "welcome": 10004,
    "Ġpropos": 7063,
    "mind": 4627,
    "Ġmarried": 3406,
    "Ġsupplied": 8946,
    "Ġslumber": 13064,
    "Ġcelest": 9904,
    "Ġgroping": 13669,
    "Ġloves": 10916,
    "appo": 3913,
    "hatherley": 17570,
    "Ġsummoned": 9914,
    "Ġmaledictions": 26430,
    "Ġunshored": 25814,
    "travelling": 24338,
    "Ġcobbler": 25831,
    "affairs": 14658,
    "Ġaffected": 5577,
    "Ġstil": 15722,
    "old": 801,
    "change": 6392,
    "listen": 13516,
    "Ġremot": 8545,
    "expose": 23663,
    "unc": 15773,
    "Ġgas": 8133,
    "Ġperiodically": 19497,
    "Ġscorched": 17102,
    "minutely": 19596,
    "ĠĠĠ": 2115,
    "Ġglaciers": 20176,
    "Ġuns": 15840,
    "ustration": 2258,
    "Ġmirror": 12382,
    "here": 2548,
    "afforded": 25866,
    "msprop": 2625,
    "sailing": 14717,
    "Ġpersuasion": 10501,
    "ifications": 9732,
    "Ġexists": 14052,
    "Ġagrippa": 11811,
    "ignorance": 17164,
    "aborate": 14025,
    "Ġwhist": 6022,
    "Ġknights": 15153,
    "Ġrecurred": 18978,
    "Ġcorporeal": 17363,
    "Ġtransport": 11279,
    "admitted": 18094,
    "cavity": 26127,
    "ves": 696,
    "Ġafrica": 12349,
    "Ġproved": 4885,
    "Ġ110": 24435,
    "Ġheathen": 10568,
    "residence": 19265,
    "Ġflail": 23010,
    "ache": 8520,
    "Ġ59": 24323,
    "Ġmind": 1622,
    "Ġsuch": 795,
    "erc": 5905,
    "the": 334,
    "Ġtrappings": 23085,
    "Y": 61,
    "Ġgate": 6824,
    "leader": 25352,
    "cooper": 19191,
    "Ġexpressly": 16454,
    "dest": 4102,
    "Ġacknowled": 6351,
    "Ġluck": 4881,
    "Ġobedience": 11414,
    "Ġannouncement": 14836,
    "mountain": 10715,
    "Ġbriskly": 25312,
    "avery": 13687,
    "Ġsomnam": 23008,
    "wonderful": 16962,
    "wore": 21127,
    "appears": 12064,
    "Ġpondering": 17007,
    "fier": 9596,
    "Ġrecol": 4028,
    "Ġdiminish": 14748,
    "cest": 12449,
    "Ġheredit": 9219,
    "Ġdaggoo": 5441,
    "Ġhunks": 18938,
    "grinder": 23418,
    "Ġhealth": 3902,
    "Ġwiser": 14733,
    "Ġride": 12764,
    "Ġruthless": 15289,
    "Ġteacup": 16216,
    "izard": 10884,
    "worthy": 7732,
    "Ġcul": 17824,
    "Ġsidel": 9638,
    "rove": 21536,
    "wins": 21132,
    "Ġbanks": 6814,
    "Ġrobe": 18459,
    "shud": 18494,
    "Ġyourselves": 9031,
    "Ġmilitary": 11259,
    "Ġsalutation": 12401,
    "Ġfluke": 14676,
    "Ġbalm": 22906,
    "Ġglass": 4371,
    "conc": 3947,
    "Ġbre": 1913,
    "Ġswitzerland": 10382,
    "Ġdelineate": 26058,
    "Ġarchipelagoes": 14351,
    "Ġlid": 6983,
    "Ġdeliver": 9850,
    "Ġmaggie": 26293,
    "Ġmodular": 12822,
    "unders": 13313,
    "Ġghastly": 10063,
    "Ġuncommon": 5026,
    "Ġnin": 10190,
    "Ġwildly": 9417,
    "is": 280,
    "Ġtransparency": 10679,
    "shadows": 25480,
    "Ġungod": 22026,
    "Ġmildly": 9032,
    "Ġdoubts": 8582,
    "Ġleaf": 15727,
    "Ġfright": 3797,
    "sar": 12509,
    "Ġbase": 5013,
    "alty": 17941,
    "inously": 21189,
    "Ġpork": 21460,
    "Ġafforded": 8029,
    "Ġcomput": 598,
    "eronomy": 15528,
    "Ġtr": 551,
    "ultural": 22572,
    "Ġcheck": 7270,
    "icket": 22671,
    "endeavour": 17032,
    "ulations": 6029,
    "Ġconversations": 9428,
    "Ġunlab": 3789,
    "berg": 11863,
    "culous": 11141,
    "Ġmac": 15542,
    "Ġodious": 12155,
    "Ġunav": 18241,
    "Ġenabling": 1084,
    "Ġstranger": 3483,
    "patient": 25343,
    "Ġwhitewashed": 14472,
    "Ġprovided": 6578,
    "writ": 16556,
    "Ġcapabilities": 4379,
    "Ġrussian": 14353,
    "hic": 3247,
    "izing": 1072,
    "topic": 10530,
    "Ġsyrian": 18354,
    "bble": 17487,
    "Ġdeficiencies": 26572,
    "Ġpromptly": 23821,
    "rub": 15897,
    "recked": 17764,
    "Ġlandau": 16423,
    "between": 5071,
    "lik": 3914,
    "Ġrefresh": 10349,
    "Ġprudential": 17922,
    "Ġbenevolent": 7772,
    "Ġprofoundly": 16861,
    "franch": 24286,
    "Ġcongratulatory": 19770,
    "Ġwondered": 11126,
    "Ġbloodshed": 23803,
    "satisfactory": 16895,
    "snow": 10726,
    "propagation": 1278,
    "Ġpraises": 16732,
    "Ġhedges": 19988,
    "Ġpour": 13917,
    "Ġjail": 22298,
    "Ġardu": 22187,
    "Ġtufted": 17016,
    "Ġinheritance": 25356,
    "Ġstepping": 9357,
    "thinking": 9017,
    "allet": 11084,
    "narr": 12501,
    "unimportant": 18162,
    "disagreeable": 11164,
    "Ġcontext": 1667,
    "Ġtransformed": 22612,
    "Ġont": 18121,
    "Ġwhirling": 12253,
    "ellest": 21577,
    "Ġdescrib": 2717,
    "Ġidleness": 11145,
    "Ġfootmarks": 19339,
    "Ġobst": 6285,
    "gently": 13732,
    "Ġstandards": 19017,
    "Ġreveries": 11348,
    "complexion": 14364,
    "Ġbag": 5699,
    "Ġaddresses": 3768,
    "Ġagreeing": 20022,
    "visited": 13351,
    "Ġcompunction": 18586,
    "Ġdeserve": 8309,
    "crimin": 17511,
    "Ġincomplete": 17211,
    "Ġvacancies": 24345,
    "ivates": 18284,
    "Ġrows": 10563,
    "Ġearthquake": 14630,
    "iards": 17576,
    "Ġinstructing": 3120,
    "mccarthy": 15398,
    "Ġton": 15467,
    "appearance": 5334,
    "Ġpriest": 7526,
    "rowed": 22864,
    "Ġschedule": 2368,
    "Ġtarts": 10755,
    "bare": 12445,
    "infall": 21191,
    "Ġconstantinople": 19840,
    "degrad": 22147,
    "Ġsnowy": 9021,
    "occ": 4486,
    "Ġbrought": 2515,
    "Ġneck": 4886,
    "umer": 9261,
    "aco": 12912,
    "vision": 5620,
    "Ġroods": 22408,
    "Ġmingling": 20200,
    "Ġrestless": 10415,
    "Ġbenjam": 22893,
    "ideas": 18582,
    "Ġscho": 4437,
    "Ġneed": 2607,
    "hog": 8380,
    "errand": 22912,
    "appear": 13201,
    "Ġunsafe": 22043,
    "Ġwitnessed": 14847,
    "Ġbrains": 2630,
    "begins": 18523,
    "Ġbulb": 23858,
    "Ġunbecoming": 22066,
    "Ġdiffer": 18680,
    "gigantic": 15363,
    "Ġinattention": 17934,
    "Ġdrunk": 9427,
    "hereditary": 26421,
    "uary": 11539,
    "writhed": 26081,
    "Ġpresumed": 10547,
    "dwelling": 20567,
    "Ġcalling": 5662,
    "Ġexponentiating": 3443,
    "Ġstabilizing": 3657,
    "Ġmidst": 7986,
    "Ġmend": 8407,
    "Ġpersuaded": 5769,
    "Ġsalut": 10512,
    "Ġbracing": 16583,
    "Ġlumber": 13955,
    "Ġjoint": 12038,
    "urously": 18053,
    "Ġinterpre": 1592,
    "Ġclad": 12846,
    "ĠĠĠĠĠĠĠĠĠĠĠĠĠĠĠĠĠĠĠĠĠĠĠĠĠĠĠĠ": 9978,
    "Ġcand": 3274,
    "abez": 10225,
    "Ġstolen": 14010,
    "Ġchoosing": 19593,
    "aulets": 18623,
    "Ġwas": 370,
    "little": 3349,
    "Ġaust": 4872,
    "Ġworrying": 22930,
    "Ġsuspecting": 14913,
    "Ġemble": 13974,
    "Ġsh": 419,
    "Ġincreas": 1693,
    "alvan": 21507,
    "Ġbelshazzar": 16228,
    "Ġconcern": 2655,
    "Ġtimorous": 24228,
    "inder": 9155,
    "Ġunnatural": 7189,
    "Ġlingering": 11380,
    "wheels": 14384,
    "post": 6062,
    "wantonly": 25153,
    "Ġinventing": 24862,
    "Ġ43": 14772,
    "mun": 20964,
    "arnel": 18127,
    "ension": 6570,
    "fing": 13716,
    "Ġobstinate": 11337,
    "0": 20,
    "Ġtus": 10751,
    "oat": 13767,
    "Ġtongue": 6348,
    "independent": 26022,
    "itary": 4752,
    "rels": 6666,
    "Ġcredit": 4820,
    "Ġspouts": 7729,
    "ried": 924,
    "Ġmerciless": 25247,
    "Ġintervened": 25482,
    "Ġtarn": 21161,
    "Ġnets": 21527,
    "Ġfrigates": 25707,
    "Ġtrifled": 24675,
    "Ġlar": 766,
    "Ġmatches": 14398,
    "Ġserious": 4323,
    "Ġkeepers": 23539,
    "learn": 2383,
    "eze": 20849,
    "aged": 2606,
    "Ġmaintains": 2143,
    "Ġtrailing": 23082,
    "erately": 21276,
    "Ġscan": 22269,
    "kindly": 14747,
    "mble": 1407,
    "Ġautonomous": 10678,
    "Ġgirth": 13139,
    "wic": 21123,
    "Ġundaunted": 24121,
    "Ġinterven": 10998,
    "fun": 4175,
    "Ġraiment": 22654,
    "Ġhackney": 20436,
    "upid": 6582,
    "Ġemergencies": 17365,
    "ary": 984,
    "Ġpangs": 15619,
    "Ġfundamentals": 14637,
    "Ġarsacidean": 20368,
    "Ġinstance": 2543,
    "chat": 21689,
    "Ġexcessive": 3891,
    "catch": 17509,
    "Ġlegendary": 20540,
    "Ġlargely": 14288,
    "exceeded": 25002,
    "Ġgeneral": 1861,
    "Ġkid": 9728,
    "ohn": 4562,
    "Ġgrope": 17997,
    "Ġexpose": 10330,
    "exhibited": 18478,
    "Ġladyship": 5046,
    "wered": 2688,
    "Ġrevenge": 5452,
    "neck": 14237,
    "int": 1198,
    "Ġhorsey": 24252,
    "cures": 20807,
    "sat": 4811,
    "Ġastern": 6090,
    "hing": 978,
    "ikes": 8087,
    "lean": 21368,
    "Ġblame": 6446,
    "raltar": 24236,
    "Ġremains": 4911,
    "opence": 18506,
    "Ġperceived": 4714,
    "hill": 15366,
    "Ġpia": 21467,
    "Ġforg": 3788,
    "Ġnur": 5710,
    "rise": 6227,
    "Ġmaintain": 858,
    "etween": 774,
    "Ġseries": 7061,
    "summit": 23420,
    "Ġchinks": 22255,
    "Ġoy": 15550,
    "Ġplayfulness": 23638,
    "Ġseats": 14092,
    "Ġboundless": 10498,
    "İ": 241,
    "pil": 15411,
    "Ġtu": 6968,
    "Ġsimple": 1623,
    "Ġreverence": 12063,
    "Ġbrightened": 23832,
    "Ġpersonified": 19180,
    "irium": 8162,
    "Ġfinal": 5400,
    "Ġracket": 22656,
    "understanding": 1213,
    "parameter": 2943,
    "reader": 23850,
    "Ġpacked": 9983,
    "Ġwaldman": 11346,
    "previous": 9763,
    "suffer": 24329,
    "Ġultimate": 12353,
    "Ġthrob": 21521,
    "Ġteacher": 22918,
    "Ġcourage": 4634,
    "Ġplead": 14458,
    "Ġexal": 10882,
    "Ġstaving": 21741,
    "Ġcontained": 7679,
    "text": 1973,
    "Ġgrind": 18736,
    "Ġcontact": 9284,
    "Ġbehavioral": 11397,
    "Ġkrusenstern": 26379,
    "Ġ74": 24264,
    "Ġrepl": 1595,
    "physiogn": 26266,
    "phew": 6368,
    "gunpowder": 25340,
    "Ġclo": 6043,
    "Ġgossiping": 26245,
    "Ġlowering": 7987,
    "Ġjumbled": 22301,
    "ertips": 23641,
    "ĠĠĠĠĠĠĠĠĠĠĠĠĠĠĠĠĠĠĠĠĠĠĠĠĠĠĠĠĠĠĠĠĠĠĠĠĠĠĠĠĠĠĠĠĠĠĠĠĠ": 20041,
    "Ġoccupation": 9934,
    "aphys": 15205,
    "Ġpredicted": 2047,
    "sne": 10127,
    "Ġstun": 11653,
    "Ġtotal": 4993,
    "Ġreliance": 14388,
    "Ġnon": 1627,
    "Ġevangelical": 25507,
    "âĢĶâĢĻâĢĿ": 20067,
    "Ġbirds": 5874,
    "Ġhawk": 15177,
    "assault": 22310,
    "Ġdow": 17888,
    "Ġ92": 24591,
    "Ġremarkable": 4916,
    "Ġplants": 22604,
    "Ġuneasiness": 9487,
    "ittle": 811,
    "bear": 10318,
    "Ġcontentment": 14873,
    "Ġvaried": 11852,
    "atmosphere": 21267,
    "Ġfluttered": 16251,
    "Ġdissolved": 18555,
    "visitor": 15060,
    "Ġpled": 17909,
    "Ġfasting": 16359,
    "Ġnuptials": 20497,
    "onious": 15521,
    "Ġmoney": 3415,
    "Ġproprietor": 12377,
    "Ġloos": 15875,
    "Ġnation": 12653,
    "gorith": 554,
    "Ġmortified": 14697,
    "Ġprized": 23223,
    "Ġegyptian": 13589,
    "Ġpuzz": 5533,
    "Ġjacobian": 2889,
    "Ġdesirable": 8944,
    "of": 768,
    "Ġsublim": 19970,
    "system": 3770,
    "Ġalpine": 18108,
    "Ġabatement": 22290,
    "Ġdames": 23475,
    "Ġconnected": 5393,
    "bow": 5424,
    "Ġprotesting": 14744,
    "lers": 10109,
    "Ġtiger": 11556,
    "philosophy": 13583,
    "Ġconfound": 23305,
    "Ġobeyed": 12221,
    "claimed": 9839,
    "hidden": 17374,
    "Ġrevolving": 9986,
    "apan": 6859,
    "Ġcorrectly": 9407,
    "suspect": 9543,
    "Ġcannon": 14156,
    "renadier": 18420,
    "condem": 16347,
    "Ġoverbearing": 12849,
    "smooth": 20251,
    "Ġsentence": 6188,
    "Ġstoried": 18075,
    "Ġap": 5008,
    "Ġinstrument": 7119,
    "itioned": 22473,
    "Ġcondescended": 19959,
    "acetti": 13399,
    "Ġdest": 2235,
    "Ġcongratulate": 9066,
    "fav": 6648,
    "drovand": 24759,
    "Ġhoars": 19079,
    "Ġphilosophers": 10554,
    "Ġseason": 5237,
    "Ġavert": 14428,
    "Ġgleaming": 24996,
    "mosp": 8089,
    "squee": 15433,
    "Ġdiscrete": 2475,
    "Ġsolved": 8934,
    "Ġbeque": 18083,
    "uits": 21107,
    "Ġsheath": 14154,
    "Ġtomahawk": 7539,
    "off": 1886,
    "uneasy": 23689,
    "beds": 16624,
    "Ġominous": 12427,
    "Ġcurly": 18856,
    "Ġweighed": 8714,
    "Ġpaw": 12626,
    "Ġcumberland": 21358,
    "Ġoverwhelming": 17103,
    "Ġprofessors": 14728,
    "Ġswamp": 14440,
    "Ġanecdote": 26356,
    "Ġexercised": 24800,
    "Ġpity": 4941,
    "Ġhappiest": 11886,
    "startled": 24944,
    "Ġtrim": 15966,
    "Ġowner": 8925,
    "crawling": 16960,
    "Ġaper": 17745,
    "maltese": 24794,
    "ounted": 5030,
    "Ġjavelins": 26106,
    "Ġshades": 9466,
    "Ġaccomp": 4713,
    "furthest": 19844,
    "verb": 10219,
    "Ġlimp": 19182,
    "dington": 12070,
    "Ġrigging": 5601,
    "Ġclatter": 22351,
    "Ġfixed": 2684,
    "Ġrepining": 23363,
    "Ġmal": 5221,
    "Ġdictionary": 15116,
    "Ġtener": 21166,
    "Ġdere": 21831,
    "Ġexternal": 8365,
    "mediterranean": 16409,
    "Ġordinary": 6097,
    "Ġtuileries": 24824,
    "whips": 22242,
    "ober": 15409,
    "Ġsubtle": 6717,
    "ino": 15482,
    ",âĢĶ": 3168,
    "Ġsubt": 11872,
    "gam": 10098,
    "worshipping": 16612,
    "Ġobjection": 6586,
    "Ġga": 4447,
    "omics": 21646,
    "Ġlowest": 11123,
    "Ġgreatness": 12948,
    "Ġency": 21937,
    "hoist": 23716,
    "ize": 763,
    "clerval": 7951,
    "drunk": 24660,
    "ipagos": 22370,
    "ended": 1832,
    "isis": 12585,
    "Ġpoultry": 17444,
    "Ġyields": 19659,
    "iscient": 17853,
    "Ġsickening": 19607,
    "Ġ109": 24416,
    "Ġfrenzy": 13625,
    "discoveries": 25386,
    "Ġconqueror": 25797,
    "forth": 9325,
    "Ġhydraul": 9517,
    "Ġtub": 7146,
    "magnetic": 20555,
    "Ġboldness": 24428,
    "Ġbitten": 21393,
    "Ġspecially": 12002,
    "Ġdivinest": 25722,
    "distinction": 19574,
    "Ġcoherent": 3261,
    "Ġmamma": 10051,
    "rasing": 21048,
    "Ġprec": 2917,
    "oriented": 2945,
    "limp": 20954,
    "ribes": 23369,
    "Ġsubterr": 10351,
    "lun": 20948,
    "Ġblasted": 7938,
    "Ġspoils": 24805,
    "Ġunwelcome": 12786,
    "turned": 7305,
    "Ġoblig": 3442,
    "Ġpuzzling": 14901,
    "oniously": 21260,
    "atching": 8202,
    "onder": 3780,
    "Ġfriday": 14490,
    "acing": 2716,
    "Ġcasks": 7521,
    "nurs": 21001,
    "Ġinitials": 11015,
    "Ġgrop": 12670,
    "jac": 8382,
    "ips": 2609,
    "Ġforgot": 4684,
    "coal": 12029,
    "any": 3336,
    "Ġplaint": 10328,
    "mem": 10711,
    "smitten": 23912,
    "Ġearly": 2080,
    "utting": 17987,
    "Ġremembering": 14613,
    "fro": 8736,
    "paws": 21031,
    "Ġunfailing": 24113,
    "conscientious": 19629,
    "osing": 3689,
    "Ġorders": 5341,
    "Ġcholera": 22257,
    "Ġgale": 5823,
    "Ġenticing": 22746,
    "Ġpomp": 12628,
    "Ġ181": 23899,
    "Ġveter": 15815,
    "Ġskull": 6289,
    "Ġphrenologists": 25609,
    "remarked": 12292,
    "Ġnomin": 10193,
    "holmes": 4432,
    "Ġmail": 17802,
    "Ġfelicity": 7259,
    "uted": 7593,
    "lie": 12487,
    "Ġisol": 8838,
    "Ġwonderland": 23428,
    "oug": 430,
    "sticking": 21663,
    "Ġunfulfilled": 26511,
    "Ġforfeit": 21779,
    "ensed": 10996,
    "Ġcalms": 23044,
    "polar": 24584,
    "Ġswaying": 15049,
    "Ġdro": 2770,
    "Ġresearches": 13131,
    "tolerably": 21098,
    "Ġentranced": 25835,
    "Ġbroiled": 18910,
    "Ġfronted": 23260,
    "depend": 9115,
    "guest": 19485,
    "ceased": 21629,
    "Ġreconc": 9686,
    "Ġacknowledgment": 16959,
    "ile": 522,
    "Åĵ": 10746,
    "Ġeat": 4644,
    "Ġpoured": 8805,
    "Ġrem": 954,
    "tons": 7559,
    "concerns": 24071,
    "frock": 20124,
    "Ġmantelpiece": 15211,
    "Ġoppress": 13175,
    "Ġburnished": 24001,
    "Ġcom": 368,
    "unaffected": 21887,
    "Ġceler": 15555,
    "Ġscandalous": 24879,
    "Ġav": 3581,
    "heartedness": 24825,
    "isation": 13896,
    "Ġviewing": 19266,
    "Ġboarded": 13237,
    "Ġamazement": 7764,
    "final": 19679,
    "Ġquestioned": 14622,
    "Ġring": 4453,
    "Ġdummy": 25450,
    "Ġjet": 5309,
    "Ġopen": 1552,
    "bastian": 10676,
    "Ġaccordance": 19501,
    "ß": 160,
    "Ġamongst": 8962,
    "adru": 15735,
    "specim": 23947,
    "console": 22477,
    "possesses": 24617,
    "Ġnomine": 26458,
    "Ġfierc": 18716,
    "Ġsustaining": 25334,
    "Ġtendons": 19811,
    "Ġisolation": 17153,
    "^{": 15308,
    "Ġits": 707,
    "ĠâĢľâĢĺ": 8505,
    "this": 1440,
    "iability": 20922,
    "Ã": 132,
    "encounter": 20395,
    "Ġstamp": 7864,
    "event": 8077,
    "Ġhopelessly": 16379,
    "Ġslipped": 6492,
    "Ġwilled": 21294,
    "Ġscholars": 26113,
    "classification": 4389,
    "Ġschemes": 11132,
    "Ġsta": 18065,
    "instrument": 15242,
    "Ġspaces": 3109,
    "Ġ111": 24436,
    "Ġlacepede": 20498,
    "Ġunconsc": 6553,
    "jeroboam": 25620,
    "iated": 5890,
    "representation": 20199,
    "_âĢĶ": 11468,
    "Ġwaggish": 25435,
    "Ġmosses": 20166,
    "wedged": 24559,
    "Ġbrist": 14381,
    "Ġturtle": 4204,
    "Ġgladness": 16593,
    "Ġbern": 17860,
    "Ġboy": 3022,
    "enance": 3369,
    "Ġsituation": 4070,
    "Ġmanage": 7641,
    "Ġiron": 3235,
    "groom": 8743,
    "Ġcandelabra": 26604,
    "otent": 8836,
    "Ġtrump": 8195,
    "Ġillness": 8593,
    "Ġexhibit": 14959,
    "Ġnarrowly": 16822,
    "Ġunanswerable": 26523,
    "Ġthousands": 6749,
    "Ġbequest": 21757,
    "Ġequals": 4727,
    "sweep": 24618,
    "Ġrosings": 4608,
    "child": 5538,
    "Ġallowing": 2174,
    "Ġinjuring": 24271,
    "Ġfoes": 11956,
    "Ġlords": 14643,
    "extreme": 11028,
    "mopol": 15399,
    "spoke": 11024,
    "Ġfireplace": 13148,
    "Ġcounterpart": 24720,
    "Ġplainpalais": 20739,
    "Ġweap": 6156,
    "convers": 6568,
    "Ġchimer": 24603,
    "Ġvehem": 22892,
    "Ġeliminating": 20623,
    "Ġoakum": 16936,
    "Ġremorseless": 13454,
    "Ġcoleman": 22588,
    "Ġelevation": 14902,
    "Ġopine": 19229,
    "biscuit": 17503,
    "sis": 1923,
    "mes": 1197,
    "Ġbrood": 23105,
    "Ġdepresses": 25798,
    "Ġsole": 3294,
    "Ġshipping": 14107,
    "Ġsignify": 16496,
    "_),": 7126,
    "Ġdynamic": 5122,
    "Ġprecautions": 23729,
    "Ġmagnifying": 16323,
    "Ġdented": 17893,
    "pinn": 21028,
    "cre": 4251,
    "Ġunsupp": 22023,
    "Ġembod": 14415,
    "calmly": 20142,
    "Ġselfish": 7271,
    "Ġthews": 21280,
    "Ġcould": 703,
    "Ġvices": 14086,
    "Ġpresum": 4839,
    "parlour": 16391,
    "porary": 14553,
    "Ġribbons": 24325,
    "Ġaccompaniments": 24482,
    "gree": 10703,
    "Ġplains": 14625,
    "Ġconstraints": 2738,
    "Ġexert": 5722,
    "Ġcurious": 3358,
    "Ġapprehended": 26091,
    "cring": 20813,
    "hailed": 17567,
    "Ġgirls": 4280,
    "Ġrisk": 8039,
    "ituted": 13876,
    "Ġattorney": 18622,
    "ashion": 3858,
    "Ġnarrations": 24352,
    "Ġisle": 8837,
    "Ġembarkation": 25125,
    "secured": 16940,
    "abama": 12715,
    "ocity": 8278,
    "playing": 19660,
    "Ġuntoward": 19167,
    "Ġnatives": 17953,
    "Ġcombines": 1180,
    "uzz": 4525,
    "Ġabject": 18397,
    "Ġseveral": 2672,
    "Ġsuited": 12792,
    "Ġwaited": 4909,
    "fortunes": 6333,
    "Ġvariously": 18652,
    "Ġdeclaring": 19423,
    "tan": 4743,
    "Ġdupl": 9957,
    "warning": 25532,
    "Ġfreshly": 23990,
    "Ġroughs": 19960,
    "Ġtreatise": 19348,
    "Ġlads": 8600,
    "Ġpigs": 19750,
    "Ġcosine": 2369,
    "Ġeddies": 25089,
    "Ġcentral": 7727,
    "Ġpallet": 21484,
    "remediable": 26296,
    "minutes": 7512,
    "Ġimpious": 15990,
    "Ġeveryday": 22775,
    "hurry": 24762,
    "hoping": 17568,
    "herald": 22209,
    "Ġdistracted": 11806,
    "steel": 8299,
    "Ġunjustly": 17129,
    "dimensional": 2346,
    "Ġrecumbent": 22742,
    "Ġbuy": 8300,
    "Ġtrag": 13044,
    "Ġpredict": 682,
    "Ġregimentals": 19860,
    "Ġcommanders": 23871,
    "Ġ128": 24473,
    "Ġcaution": 11347,
    "Ġrounded": 14442,
    "Ġvarying": 15814,
    "Ġscales": 4851,
    "bunger": 20405,
    "andam": 10889,
    "Ġgord": 21603,
    "fif": 9119,
    "Ġbuoyant": 13534,
    "Ġpapered": 20134,
    "Ġdisclosed": 15157,
    "pus": 3412,
    "scap": 22988,
    "Ġadvisable": 11443,
    "Ġtortoise": 16910,
    "Ġwants": 5742,
    "Ġimpreg": 15991,
    "Ġmalice": 7152,
    "Ġtennes": 23549,
    "Ġregions": 10326,
    "social": 11023,
    "Ġsorely": 17259,
    "Ġwillow": 18530,
    "Ġinarticulate": 21503,
    "Ġequator": 7460,
    "Ġstartled": 7083,
    "Ġpul": 2043,
    "Ġseen": 1367,
    "esty": 4306,
    "sequently": 14584,
    "Ġcoopman": 25829,
    "Ġwallow": 19469,
    "ĠâĢĶâĢĶ": 25758,
    "Ġdoorway": 14499,
    "Ġafar": 14297,
    "Ġvaguely": 17369,
    "Ġundo": 15844,
    "Ġreveren": 13200,
    "Ġneskye": 21534,
    "Ġexpanse": 14296,
    "Ġtoil": 6532,
    "Ġklan": 23661,
    "quadrille": 20598,
    "om": 315,
    "vener": 21114,
    "Ġspices": 22134,
    "Ġlug": 15656,
    "Ġasi": 12738,
    "Ġstated": 9692,
    "Ġel": 802,
    "Ġoversampling": 20519,
    "connect": 1292,
    "Ġreadiness": 13054,
    "Ġlazy": 17051,
    "Ġbubble": 13537,
    "streamed": 25967,
    "Ġbridegroom": 10607,
    "Ġunwarrant": 19936,
    "wor": 3413,
    "Ġevaluation": 16555,
    "miss": 3172,
    "Ġreliable": 18778,
    "Ġfossiliferous": 25610,
    "Ġeagerness": 6609,
    "Ġinspiring": 19114,
    "Ġentertained": 10001,
    "Ġobliquely": 12366,
    "Ġfleshy": 24615,
    "Ġsummoning": 23877,
    "rad": 2153,
    "Ġsunwards": 19013,
    "Ġanew": 11431,
    "Ġcontinental": 19708,
    "wes": 17705,
    "Ġtells": 9364,
    "bantering": 25254,
    "antique": 18288,
    "noticed": 14341,
    "Ġpatch": 4182,
    "Ġintelligent": 1406,
    "Ġcontrolled": 23253,
    "Ġclum": 8876,
    "Ġhogshe": 20495,
    "along": 6013,
    "Ġdraughts": 20224,
    "Ġentit": 22744,
    "Ġut": 2277,
    "ancient": 9658,
    "everywhere": 23701,
    "locks": 14459,
    "expectations": 24279,
    "Ġwol": 15533,
    "Ġprefers": 20517,
    "Ġpossibility": 7457,
    "Ġsteadfastly": 10654,
    "Ġi": 311,
    "Ġfrock": 10492,
    "Ġdif": 873,
    "counter": 20281,
    "Ġourselves": 5127,
    "Ġbedfellow": 16442,
    "laden": 14932,
    "Ġmaddening": 17245,
    "fishers": 24929,
    "Ġbanker": 8670,
    "nor": 2739,
    "Ġinfinitely": 8966,
    "ury": 3310,
    "G": 43,
    "Ġcrony": 23441,
    "Ġamuse": 5940,
    "Ġloveliest": 20264,
    "queer": 10366,
    "Ġchase": 3945,
    "weeks": 14319,
    "mortar": 25409,
    "Ġtobacc": 7853,
    "Ġreplete": 15702,
    "Ġslippers": 19618,
    "Ġpawn": 12067,
    "Ġdamp": 8264,
    "Ġbeliever": 25847,
    "Ġhercules": 14130,
    "Ġminimize": 7051,
    "Ġweaken": 21926,
    "Ġmuscle": 14691,
    "Ġclouds": 5775,
    "preserving": 25305,
    "É": 138,
    "Ġbend": 9173,
    "mount": 9132,
    "Ġmaritime": 23041,
    "Ġlines": 4535,
    "rades": 8592,
    "gangway": 20670,
    "alk": 1150,
    "Ġwh": 328,
    "Ġfriendship": 7245,
    "Ġguernsey": 9354,
    "Ġboscombe": 8326,
    "nes": 6960,
    "Ġasleep": 6835,
    "Ġinert": 15626,
    "Ġpractised": 23351,
    "profess": 10631,
    "jee": 17581,
    "Ġ100": 14365,
    "Ġhey": 11644,
    "Ġplant": 8903,
    "Ġpooh": 18605,
    "Ġnast": 15643,
    "comple": 7440,
    "Ġ44": 16681,
    "Ġrange": 9715,
    "Ġelephant": 8256,
    "increased": 20273,
    "Ġshowers": 16607,
    "Ġpotent": 12068,
    "Ġbeheading": 21758,
    "helped": 18927,
    "Ġproficiency": 19194,
    "conditional": 9081,
    "speechless": 25396,
    "Ġmillion": 14990,
    "ember": 1957,
    "Ġcompan": 2173,
    "Ġmarvelled": 18875,
    "Ġcomical": 11681,
    "Ġbloodshot": 23802,
    "offing": 23335,
    "pall": 17630,
    "avor": 14280,
    "Ġlikely": 3598,
    "watching": 16932,
    "Ġsacrific": 15020,
    "duchess": 18464,
    "Ġpsal": 15620,
    "Ġfant": 9176,
    "Ġquit": 5246,
    "Ġprotecting": 24687,
    "Ġtur": 2564,
    "common": 4126,
    "Ġsymmet": 11751,
    "Ġchristianity": 19863,
    "Ġmer": 2927,
    "nuee": 17433,
    "cellar": 20280,
    "Ġeurope": 8062,
    "Ġburglar": 17357,
    "Ġvisibly": 22857,
    "Ġuttermost": 19491,
    "Ġlamented": 24994,
    "perai": 10279,
    "skinned": 25388,
    "umphed": 23518,
    "Ġunreasonably": 17454,
    "Ġkeels": 11062,
    "unknown": 10891,
    "descending": 16288,
    "cull": 20811,
    "ourney": 3553,
    "Ġson": 2982,
    "Ġmetropol": 11144,
    "Ġlaud": 17970,
    "purp": 8091,
    "Ġwonderfully": 10432,
    "Ġbusy": 6190,
    "Ġowest": 25094,
    "oms": 4594,
    "Ġirrespective": 23378,
    "Ġtherein": 11780,
    "Ġ89": 19715,
    "Ġadvanced": 1409,
    "Ġlull": 15655,
    "nurse": 15212,
    "enty": 2913,
    "Ġrays": 10333,
    "Ġargosy": 24276,
    "Ġflourish": 17163,
    "silly": 24422,
    "Ġhoarsely": 26303,
    "Ġgown": 10204,
    "abby": 14024,
    "Ġthro": 5818,
    "Ġconvert": 11847,
    "Ġbuckskin": 19955,
    "pagans": 25526,
    "Ġrejected": 12298,
    "Ġecl": 18008,
    "upon": 2720,
    "Ġcadiz": 17328,
    "Ġguests": 12291,
    "ientious": 11695,
    "ieged": 22581,
    "elihood": 4623,
    "Ġgent": 7382,
    "Ġprevail": 13445,
    "Ġdiverse": 19211,
    "Ġwilfully": 16768,
    "Ġgums": 21614,
    "resolution": 17768,
    "Ġcaptiv": 16260,
    "Ġremembered": 5277,
    "ĠĠĠĠĠĠĠĠĠĠĠĠĠĠĠĠĠĠĠĠĠĠĠĠĠĠĠĠĠĠĠ": 19703,
    "Ġsalted": 14759,
    "ais": 8071,
    "Ġeast": 5370,
    "acetty": 24464,
    "Ġknives": 14840,
    "Ġmamm": 25093,
    "Ġwept": 7183,
    "Ġtechniques": 2864,
    "Ġconvincing": 19310,
    "Ġpos": 1009,
    "Ġbringing": 5870,
    "orient": 2875,
    "Ġescort": 23507,
    "Ġpet": 4587,
    "Ġbush": 23338,
    "Ġdislike": 6048,
    "sacred": 17030,
    "els": 1764,
    "zor": 15461,
    "found": 4214,
    "Á": 130,
    "Ġmel": 4818,
    "mere": 11859,
    "capable": 13705,
    "hurt": 19880,
    "Ġwithin": 2164,
    "rushed": 10587,
    "Ġdepartments": 24245,
    "Ġringed": 16752,
    "Ġminuteness": 19140,
    "destroy": 19513,
    "Ġcowards": 12579,
    "Ġwrenching": 17326,
    "Ġsecretly": 13275,
    "public": 17648,
    "Ġquartered": 20376,
    "smoke": 17225,
    "Ġcompliment": 5673,
    "woof": 21142,
    "Ġschedules": 3384,
    "aming": 5829,
    "Ġloosed": 22116,
    "Ġpointing": 5661,
    "Ġstiffly": 15007,
    "apt": 720,
    "Ġpoising": 22597,
    "Ġdisguises": 25058,
    "Ġpenn": 11112,
    "Ġkindest": 23296,
    "narrow": 11509,
    "Ġdeadliest": 14558,
    "gabriel": 15364,
    "µ": 118,
    "Ġsouthwards": 19636,
    "waited": 24586,
    "Ġhem": 8447,
    "deemed": 18316,
    "gard": 7338,
    "Ġdollars": 11456,
    "enet": 10155,
    "Ġgl": 1255,
    "Ġbased": 3337,
    "Ġschooner": 16749,
    "Ġbegone": 11920,
    "musical": 25341,
    "Ġspire": 18307,
    "ering": 1265,
    "Ġindestruct": 22961,
    "Ġmeditation": 16707,
    "Ġlandsc": 11147,
    "isen": 10794,
    "frightened": 17198,
    "Ġnumerous": 6919,
    "Ġconverts": 2804,
    "Ġdisregarded": 22534,
    "inch": 10757,
    "canst": 22964,
    "Ġaccurately": 4138,
    "Ġexpeditions": 24957,
    "Ġhyp": 3872,
    "ien": 10104,
    "Ġstre": 2108,
    "Ġpredecess": 18528,
    "Ġsolid": 6443,
    "Ġwhir": 6393,
    "gue": 12472,
    "×": 152,
    "ilt": 2967,
    "Ġpowerful": 1526,
    "guard": 12133,
    "owal": 13996,
    "ude": 7562,
    "Ġ79": 24267,
    "Ġadopt": 10635,
    "Ġanoints": 25539,
    "Ġascertain": 9709,
    "diss": 17525,
    "giana": 7800,
    "Ġhinted": 6012,
    "Ġpool": 5173,
    "Ġstay": 3093,
    "Ġexhaled": 19685,
    "Ġwestern": 10657,
    "Ġargued": 13632,
    "hroom": 12481,
    "Ġcountrymen": 23597,
    "imet": 21709,
    "vard": 21113,
    "ises": 3654,
    "Ġtick": 8109,
    "Ġadapts": 3816,
    "Ġexper": 1306,
    "Ġsharkish": 24506,
    "opÃ¦": 12878,
    "respectable": 19849,
    "Ġrector": 21679,
    "bers": 2570,
    "Ġ16": 7927,
    "Ġinspirited": 23424,
    "Ġomens": 21331,
    "Ġcherished": 10593,
    "mingled": 14716,
    "Ġadie": 8490,
    "Ġfacet": 15589,
    "Ġunqualified": 22063,
    "interrupt": 8619,
    "threaten": 25462,
    "Ġyelling": 18099,
    "Ġtyp": 1131,
    "Ġ31": 12135,
    "Ġmouthfuls": 20648,
    "hearth": 15502,
    "Ġcopied": 20011,
    "oct": 7554,
    "deceiving": 22148,
    "storied": 18027,
    "forster": 16169,
    "Ġremonstrate": 22797,
    "gle": 20871,
    "broad": 8646,
    "Ġentreated": 9954,
    "iliation": 10861,
    "Ġxavier": 2851,
    "uled": 11538,
    "Ġnorthern": 7264,
    "Ġbecomes": 6396,
    "Ġeffective": 1248,
    "Ġfielding": 16240,
    "Ġshoving": 23491,
    "embraces": 25804,
    "Ġthrown": 4640,
    "erring": 11058,
    "Ġwinc": 9645,
    "Ü": 157,
    "Ġmachinations": 25768,
    "Ġunable": 4951,
    "Ġresuming": 12899,
    "Ġpail": 15611,
    "Ġargu": 10935,
    "Ġadmit": 7710,
    "Ġmarshalled": 25316,
    "merchant": 10469,
    "Ġemir": 23353,
    "Ġbrightly": 13228,
    "Ġphotography": 24684,
    "Ġmar": 1311,
    "Ġfurled": 22814,
    "Ġmish": 15541,
    "Ġsanity": 24982,
    "man": 1057,
    "Ġspirit": 3724,
    "cused": 15335,
    "ccarthy": 4889,
    "Ġopposed": 11189,
    "Ġyawn": 7610,
    "ilated": 18060,
    "Ġforenoon": 19127,
    "Ġsilvery": 13098,
    "jephro": 26394,
    "âĢĻ": 378,
    "Ġforemost": 12009,
    "easily": 17536,
    "Ġconnexion": 11455,
    "ampton": 18147,
    "lop": 20950,
    "Ġperdition": 15996,
    "Ġconfed": 13101,
    "Ġhandsomest": 20337,
    "Ġdevice": 1930,
    "Ġdeceiving": 21834,
    "Ġnuts": 17954,
    "irth": 5634,
    "Ġspy": 22127,
    "Ġconsidered": 4612,
    "Ġlbs": 11617,
    "Ġsquire": 16183,
    "Ġshared": 10266,
    "entions": 17977,
    "ļ": 253,
    "Ġincl": 4271,
    "Ġlevi": 3035,
    "Ġevolved": 9895,
    "Ġunaccount": 22029,
    "Ġfemale": 8345,
    "able": 451,
    "Ġuninterrupted": 22048,
    "Ġmeek": 21816,
    "Ġoutput": 927,
    "Ġjunior": 15103,
    "caut": 20814,
    "ĠĠĠĠĠĠĠĠĠĠĠĠĠĠĠĠ": 1219,
    "Ġscent": 10287,
    "Ġbidding": 9540,
    "Ġvillanous": 24057,
    "bred": 11470,
    "Ġrenewal": 12239,
    "joy": 3333,
    "stun": 18021,
    "Ġprognost": 15285,
    "Ġtwine": 14314,
    "Ġeventually": 8620,
    "simply": 20673,
    "Ġyell": 21781,
    "farintosh": 24553,
    "Ġfought": 12599,
    "Ġhands": 1663,
    "Ġunrecorded": 17470,
    "atives": 2234,
    "Ġstatements": 7516,
    "Ġstings": 21738,
    "supers": 22643,
    "Ġhastily": 5763,
    "sweetly": 25137,
    "Ġsite": 17755,
    "source": 11527,
    "Ġperils": 6273,
    "Ġabiding": 22284,
    "Ġdestined": 7975,
    "Ġincalculable": 17463,
    "rusted": 16509,
    "Ġright": 1505,
    "Ġmans": 15540,
    "Ġarts": 11009,
    "Ġgrego": 18963,
    "Ġdeferred": 18828,
    "Ġrot": 10968,
    "vicinity": 20483,
    "ufactured": 15185,
    "Ġtasselled": 25922,
    "Ġconject": 6027,
    "astonished": 15035,
    "outon": 12809,
    "Ġlanguor": 12854,
    "Ġsoap": 14133,
    "Ġdemi": 25549,
    "uy": 21102,
    "Ġbon": 8790,
    "Ġcapting": 23024,
    "Ġreco": 9792,
    "Ġbrit": 6290,
    "Ġalleviated": 26205,
    "Ġaghast": 16051,
    "history": 15017,
    "Ġreclining": 26034,
    "Ġenumer": 12751,
    "midnight": 14905,
    "gr": 2087,
    "ases": 1522,
    "Ġtrous": 10957,
    "Ġirreparable": 20002,
    "deck": 4502,
    "âĢĿ)": 21818,
    "Ġproced": 2579,
    "Ġsake": 4090,
    "Ġmechanically": 14400,
    "Ġbarnacled": 25537,
    "Ġphil": 3383,
    "Ġcheating": 16370,
    "ong": 538,
    "Ġdisengaged": 12895,
    "Ġimmemorially": 25384,
    "!âĢĿâĢĶ": 8534,
    "Ġtashtego": 4488,
    "extracts": 22759,
    "Ġdrawling": 19440,
    "quick": 6400,
    "Ġaverages": 2395,
    "inde": 17733,
    "define": 1527,
    "Ġlestrade": 5826,
    "Ġhideousness": 16917,
    "Ġlaugh": 4112,
    "ame": 644,
    "ģ": 228,
    "Ġcass": 13882,
    "Ġfaithful": 9506,
    "Ġfrown": 10809,
    "Ġbaked": 21389,
    "Ġfru": 8421,
    "Ġreaction": 15699,
    "Ġvillage": 5774,
    "uded": 6287,
    "Ġcompanions": 5866,
    "Ġcheerful": 6623,
    "mangled": 20983,
    "Ġexquisitely": 20205,
    "Ġcondense": 21812,
    "ivance": 22087,
    "Ġtorm": 5434,
    "supp": 4161,
    "dan": 17517,
    "Ġpoints": 5248,
    "ethe": 9679,
    "Ġperturbed": 20443,
    "message": 17375,
    "sue": 2078,
    "Ġvestige": 20066,
    "heavily": 24534,
    "Ġcheat": 19023,
    "agation": 1273,
    "Ġsixty": 7722,
    "exper": 8882,
    "enchanted": 26426,
    "reast": 17760,
    "Ġinhuman": 13932,
    "Ġrejoicing": 13424,
    "blast": 9590,
    "cannon": 22965,
    "pleasing": 14745,
    "unfortunate": 15781,
    "Ġremem": 4313,
    "Ġconsec": 21809,
    "Ġmulti": 1043,
    "Ġnimble": 21531,
    "Ġglow": 7170,
    "Ġcollections": 22862,
    "Ġhansom": 13668,
    "Ġshot": 4545,
    "vering": 15720,
    "irts": 9241,
    "Ġchart": 10946,
    "oro": 21398,
    "ibility": 2386,
    "pets": 17638,
    "drove": 16995,
    "threatened": 25463,
    "Ġcanvas": 7783,
    "Ġtrees": 4203,
    "Ġshortened": 23484,
    "sneezes": 11447,
    "Ġemerg": 13427,
    "Ġbegging": 11080,
    "Ġabusive": 22287,
    "Ġutility": 23515,
    "Ġnearer": 5303,
    "Ġenduring": 16305,
    "aire": 10683,
    "Ġaffrighted": 13575,
    "Ġsquad": 22838,
    "Ġwell": 899,
    "Ġfail": 4148,
    "bib": 17494,
    "Ġtempered": 12929,
    "berries": 22725,
    "tempered": 13449,
    "Ġbrides": 22867,
    "Ġdaw": 21432,
    "tender": 14477,
    "Ġfarthest": 23121,
    "Ġdisplay": 6428,
    "Ġelig": 9781,
    "kin": 7132,
    "sir": 5001,
    "Ġwar": 5526,
    "¥": 103,
    "Ġwithdraw": 16966,
    "itching": 21338,
    "Ġlub": 15653,
    "treasures": 26153,
    "Ġpaltry": 16693,
    "Ġphilosoph": 19654,
    "iple": 4807,
    "Ġaver": 1285,
    "Ġcentaurs": 23836,
    "stains": 11640,
    "Ġforeb": 12008,
    "mot": 17598,
    "Ġestablished": 9072,
    "Ġegot": 18010,
    "thrown": 8482,
    "Ġvortex": 26210,
    "Ġclanging": 18424,
    "ffic": 22155,
    "sli": 11524,
    "Ġbustle": 17230,
    "Ġheeds": 24520,
    "Ġgrampus": 21997,
    "Ġshaster": 22002,
    "Ġcalmed": 16269,
    "Ġpatron": 7464,
    "Ġunob": 22017,
    "pale": 13775,
    "gracechurch": 24582,
    "Ġthrough": 604,
    "Ġslavery": 16310,
    "og": 854,
    "Ġbru": 13898,
    "zy": 2669,
    "igning": 12687,
    "Ġlocked": 6035,
    "asion": 5714,
    "Ġsociet": 9452,
    "Ġorphans": 20207,
    "Ġcircumvent": 25067,
    "Ġstam": 18068,
    "idence": 4302,
    "deception": 22149,
    "will": 1968,
    "Ġflooring": 23625,
    "Ġtrap": 7672,
    "vity": 7815,
    "Ġanticip": 7507,
    "Ġburden": 8611,
    "Ġinexper": 16982,
    "Ġdetestable": 15102,
    "Ġbosom": 6938,
    "Ġimportance": 4901,
    "Ġsinews": 20290,
    "mselves": 2859,
    "Ġreduced": 11928,
    "cooee": 12421,
    "mitted": 5213,
    "reinforcement": 7826,
    "diff": 9116,
    "gratitude": 16818,
    "Ġscraping": 13419,
    "Ġencourages": 2063,
    "Ġsenseless": 12083,
    "Ġbeam": 2876,
    "high": 6651,
    "bling": 10685,
    "Ġquies": 18465,
    "heat": 15500,
    "Ġsaw": 1350,
    "Ġchiselled": 25560,
    "Ġmaxim": 3083,
    "Ġthickly": 12120,
    "raham": 18016,
    "fingers": 17373,
    "Ġclaws": 15973,
    "Ġfollow": 1395,
    "Ġmischief": 8542,
    "stirred": 20428,
    "combination": 25487,
    "Ġexpedite": 24956,
    "Ġyield": 5093,
    "gely": 10702,
    "perpetually": 20516,
    "Ġsympathies": 14864,
    "Ġboil": 16108,
    "ained": 3064,
    "preser": 9762,
    "Ġlandless": 23382,
    "bee": 16041,
    "Ġmanner": 2196,
    "Ġhurrah": 9872,
    "Ġconvulsive": 19309,
    "99": 1894,
    "won": 8395,
    "Ġnoticed": 5549,
    "Ġack": 5622,
    "Ġrighted": 23182,
    "Ġtastes": 15480,
    "Ġdescription": 7428,
    "Ġlucy": 17972,
    "okened": 15988,
    "Ġmonsie": 11448,
    "thanked": 24327,
    "precip": 14667,
    "Ġjur": 12840,
    "Ġperception": 9753,
    "Ġimpertinence": 11367,
    "Ġmedium": 16708,
    "Ġconv": 2968,
    "emed": 3378,
    "ella": 12755,
    "Ġmurderous": 8316,
    "Ġadaptive": 1299,
    "olic": 14044,
    "Ġpleased": 4062,
    "Ġbackgammon": 22666,
    "ĠâĢĶâĢľ_": 17720,
    "Ġastonishment": 4795,
    "Ġbumpkin": 20203,
    "Ġfog": 9664,
    "Ġende": 21936,
    "Ġscreams": 24604,
    "kept": 11721,
    "Ġextravagant": 17281,
    "cheerful": 13578,
    "Ġbenjamin": 26569,
    "Ġausten": 5881,
    "onsensical": 18577,
    "scru": 16244,
    "orns": 12598,
    "lucky": 24545,
    "Ġaccordingly": 6621,
    "pots": 11515,
    "Ġscratching": 20372,
    "uttermost": 24943,
    "Ġwelded": 9574,
    "Ġfriend": 1295,
    "Ġvideos": 13609,
    "°": 113,
    "Ġtons": 11551,
    "Ġenchant": 7184,
    "Ġcountenance": 3970,
    "Ġslanting": 23176,
    "Ġduke": 7755,
    "anelles": 26436,
    "Ġlengthwise": 10454,
    "Ġmuslin": 19386,
    "ĠĠĠĠĠĠĠĠĠĠĠĠĠĠĠĠĠĠĠĠĠĠĠĠĠĠĠĠĠĠĠĠĠĠĠĠĠĠĠĠĠĠ": 24212,
    "Ġtrapped": 23079,
    "Ġcrest": 12946,
    "Ġundet": 16703,
    "yourself": 6743,
    "Ġpale": 4533,
    "sperm": 5203,
    "Ġdisc": 942,
    "Ġentering": 6286,
    "Ġrum": 5924,
    "Ġintolerable": 8483,
    "Ġdaughters": 4423,
    "abriel": 6949,
    "summon": 23419,
    "egyptians": 25899,
    "eks": 4728,
    "Ġundersampling": 19521,
    "Ġidentical": 10436,
    "Ġzeros": 3323,
    "Ġfalse": 4344,
    "Ġobeying": 13417,
    "Ġunrecord": 16623,
    "Ġhitting": 21490,
    "brandy": 19203,
    "Ġfrivolous": 26177,
    "tarpaul": 21100,
    "Ġpremeditated": 22238,
    "Ġaid": 6123,
    "origin": 7582,
    "Ġinject": 2710,
    "Ġexcavating": 23317,
    "chased": 18044,
    "Ġtypewriting": 16424,
    "sculptured": 26046,
    "Ġregards": 16082,
    "Ġsummary": 19407,
    "Ġsquat": 14369,
    "Ġmute": 19419,
    "Ġsunset": 8965,
    "intellect": 18823,
    "lins": 2026,
    "Ġwilliam": 3480,
    "Ġapr": 12537,
    "Ġpop": 5151,
    "Ġsuns": 23276,
    "quit": 15766,
    "Ġpleaded": 16302,
    "Ġaskance": 23154,
    "Ġlimber": 16481,
    "Ġenergetic": 15201,
    "shutters": 20316,
    "sect": 8153,
    "aston": 7407,
    "jaws": 20934,
    "Ġendure": 5956,
    "Ġblu": 2685,
    "Ġdischarged": 15224,
    "Ġcoloss": 11047,
    "triumph": 15443,
    "Ġbelong": 3885,
    "Ġclank": 15971,
    "simp": 17667,
    "Ġinsc": 7586,
    "Ġpicking": 11260,
    "Ġglistened": 20175,
    "windlass": 16723,
    "enderby": 25216,
    "Ġ55": 24319,
    "ę": 218,
    "bast": 10080,
    "Ġtimor": 24227,
    "Ġharshly": 25250,
    "butt": 15998,
    "Ġdeserves": 13293,
    "Ġprizes": 13077,
    "ouse": 1192,
    "soup": 21061,
    "Ġbags": 24537,
    "created": 12455,
    "Ġruin": 6056,
    "Ġsize": 1217,
    "Ġstool": 14465,
    "oregressive": 3421,
    "seas": 14036,
    "Ġneutral": 12750,
    "Ġpertur": 12856,
    "rabb": 15684,
    "Ġsupplying": 19801,
    "Ġrece": 11641,
    "Ġsagacity": 16976,
    "nantucket": 7804,
    "nigh": 13766,
    "sion": 8094,
    "Ġdisposal": 19379,
    "Ġmystical": 12137,
    "insisted": 23070,
    "Ġinanimate": 13936,
    "Ġappropriated": 23486,
    "embarrassed": 20667,
    "Ġvessel": 3799,
    "Ġlifted": 6985,
    "Ġmark": 2329,
    "Ġwatched": 6298,
    "Ġoun": 13866,
    "3": 23,
    "Ġtheatre": 21281,
    "yed": 3270,
    "dreadful": 11422,
    "Ġendeav": 2952,
    "Ġinsulted": 14995,
    "Ġfanning": 23393,
    "Ġlift": 8815,
    "ć": 200,
    "Ġcounting": 13099,
    "Ġengrossed": 13001,
    "Ġstump": 7603,
    "Ġmoss": 9287,
    "confined": 24328,
    "pits": 15415,
    "Ġball": 3623,
    "Ġindication": 22955,
    "uteronomy": 15668,
    "Ġminimizing": 3462,
    "fer": 1929,
    "Ġrises": 9716,
    "news": 23137,
    "illings": 14145,
    "Ġcourtship": 24137,
    "Ġsolomon": 11053,
    "trop": 15439,
    "acity": 5735,
    "Ġkiss": 8183,
    "amore": 21847,
    "Ġgossip": 18470,
    "Ġwelcomed": 9485,
    "Ġejaculated": 15173,
    "Ġresented": 22547,
    "Ġlumps": 21559,
    "Ġtired": 9152,
    "iteous": 14264,
    "Ġsobs": 14135,
    "Ġroast": 18458,
    "Ġachieved": 13169,
    "Ġoceans": 7996,
    "Ġhumaneval": 25583,
    "Ġcem": 17825,
    "Ġnavel": 24577,
    "Ġblocked": 19224,
    "Ġnoisier": 4625,
    "hear": 10149,
    "Ġcomely": 21852,
    "Ġenraptured": 26502,
    "Ġwhispering": 14948,
    "riminately": 16485,
    "¾": 127,
    "once": 5904,
    "stool": 23823,
    "faced": 8080,
    "Ġsullenly": 17175,
    "Ġprobed": 18733,
    "Ġplaymate": 23639,
    "Ġamiable": 4270,
    "Ġunexpectedly": 19911,
    "Ġbosoms": 16797,
    "dom": 6223,
    "Ġsomething": 1794,
    "Ġavoid": 5199,
    "Ġscru": 8190,
    "admiration": 11388,
    "Ġflashed": 11917,
    "Ġcistern": 17384,
    "footman": 17165,
    "Ġdesperation": 19821,
    "Ġneighbour": 3808,
    "Ġscarce": 8625,
    "Ġplantation": 11424,
    "presum": 12874,
    "Ġsutherland": 10151,
    "Ġresistance": 13532,
    "geneva": 13733,
    "Ġostens": 25276,
    "Ġdaresay": 14707,
    "Ġmand": 21307,
    "rift": 11521,
    "Ġman": 544,
    "function": 4736,
    "actually": 14300,
    "Ġsoul": 2724,
    "imodal": 17450,
    "Ġdeclare": 6616,
    "master": 5687,
    "Ġpeninsula": 23199,
    "Ġbillows": 7502,
    "sleeve": 26109,
    "Ġpurchase": 12264,
    "Ġgemini": 26471,
    "Ġstout": 6025,
    "ichever": 13960,
    "er": 269,
    "Ġcringing": 25942,
    "knows": 19174,
    "rese": 15511,
    "Ġcommend": 10337,
    "tery": 14040,
    "Ġtrains": 10948,
    "Ġinfer": 7684,
    "Ġcure": 21343,
    "Ġrepaid": 19084,
    "Ġfiftieth": 24702,
    "Ġmarines": 16263,
    "keepers": 16662,
    "Ġlays": 15993,
    "Ġselecting": 16683,
    "Ġdominant": 12400,
    "Ġmansfield": 25939,
    "Ġleaks": 16448,
    "order": 1960,
    "Ġbrush": 17866,
    "destiny": 16701,
    "Ġpedro": 15066,
    "Ġbulls": 23861,
    "going": 6314,
    "Ġpossessor": 23827,
    "opportunity": 12279,
    "Ġcanterbury": 22169,
    "rose": 6014,
    "ation": 320,
    "ena": 11570,
    "Ġwarming": 23560,
    "Ġlastly": 16209,
    "Ġmau": 21313,
    "something": 4285,
    "invest": 11561,
    "Ġgifted": 17999,
    "bol": 8721,
    "par": 1834,
    "oa": 9615,
    "equally": 19901,
    "Ġenvied": 19291,
    "Ġunlim": 18254,
    "Ġundue": 25994,
    "Ġinsect": 12642,
    "leaves": 12584,
    "¹": 122,
    "pse": 21011,
    "hampshire": 23267,
    "back": 2017,
    "Ġpeak": 16130,
    "diversity": 25898,
    "Ġinsult": 6748,
    "erect": 20850,
    "Ġcomply": 8894,
    "stained": 21658,
    "Ġ156": 20173,
    "Ġevenings": 18755,
    "Ġlane": 5627,
    "countenance": 6924,
    "cially": 3487,
    "este": 15925,
    "began": 6426,
    "changing": 10855,
    "ild": 1152,
    "Ġpolitical": 19225,
    "Ġcage": 17827,
    "valued": 2849,
    "Ġspurn": 18310,
    "rant": 11518,
    "Ġdefiance": 11069,
    "fancy": 7336,
    "frank": 7757,
    "Ġmarking": 16471,
    "impart": 21712,
    "Ġlie": 4408,
    "recursion": 13332,
    "cont": 2918,
    "Ġshocking": 10437,
    "Ġencoding": 4775,
    "Ġalgorithm": 772,
    "ondon": 2705,
    "Ġknitting": 24221,
    "grant": 10429,
    "stricken": 9888,
    "Ġfluctuating": 24417,
    "Ġdisappointing": 19582,
    "Ġdesolate": 10016,
    "Ġreverber": 19871,
    "considerably": 13448,
    "wand": 10740,
    "allen": 22200,
    "ep": 441,
    "Ġgabriel": 7596,
    "Ġargue": 16785,
    "Ġbig": 5806,
    "ľ": 255,
    "Ġgratify": 19506,
    "mies": 20970,
    "Ġtrait": 23077,
    "Ġagitation": 6864,
    "tot": 10730,
    "shame": 16029,
    "Ġwhereas": 3854,
    "Ġbiggest": 24567,
    "Ġbehaves": 23302,
    "Ġharbors": 24902,
    "monkey": 19172,
    "Ġwearily": 18180,
    "Ġchival": 14185,
    "american": 11401,
    "Ġclapping": 14206,
    "Ġmisery": 3814,
    "bal": 2157,
    "pres": 16028,
    "lose": 12887,
    "Ġlamp": 4113,
    "Ġconstables": 19070,
    "Ġglowing": 12287,
    "Ġskin": 5038,
    "behaviour": 11302,
    "soul": 9143,
    "Ġconfident": 11139,
    "asting": 12812,
    "Ġsickle": 24248,
    "maker": 12497,
    "Ġgentlemanly": 19318,
    "Ġinterests": 14570,
    "claim": 9838,
    "Ġcomposing": 16071,
    "church": 8140,
    "Ġphrensy": 25127,
    "Ġol": 17816,
    "Ġconvalescence": 23748,
    "ish": 550,
    "Ġtold": 2185,
    "Ġsprings": 16688,
    "Ġbounce": 21396,
    "gradient": 2273,
    "atter": 657,
    "Ġconsecrate": 26491,
    "iences": 6956,
    "Ġalan": 10870,
    "Ġ21": 11200,
    "Ġalle": 11669,
    "Ġharpooning": 23982,
    "Ġfirmness": 11238,
    "Ġcontemptuously": 19836,
    "Ġcelebrated": 13597,
    "unhes": 21879,
    "Ġcub": 8415,
    "Ġintruder": 25992,
    "Ġilliterate": 26596,
    "Ġcheetah": 14505,
    "mons": 17602,
    "Ġsubstit": 19543,
    "granting": 23417,
    "Ġvertically": 19383,
    "retch": 4373,
    "Ġdreamed": 16632,
    "Ġimplicate": 24877,
    "heard": 5009,
    "suppose": 8648,
    "thyself": 19300,
    "Ġfeather": 8863,
    "Ġtags": 20574,
    "Ġimmersed": 19488,
    "Ġliv": 6680,
    "itying": 21998,
    "Ġfelt": 1745,
    "Ġseasons": 9434,
    "Ġ118": 19701,
    "rine": 21040,
    "arn": 357,
    "Ġphyset": 23204,
    "Ġtelegraph": 25584,
    "Ġcharging": 23270,
    "ignity": 4376,
    "Ġreigning": 15705,
    "Ġdinner": 4244,
    "Ġcleaned": 23186,
    "Ġdau": 21428,
    "Ġcharley": 19008,
    "Ġfrightful": 7735,
    "Ġstructure": 826,
    "Ġcupidity": 24535,
    "Ġacutely": 14317,
    "Ġstile": 21736,
    "nevertheless": 8286,
    "plun": 15819,
    "keeping": 8638,
    "Ġexpanding": 25239,
    "Ġsurrey": 14560,
    "ulates": 14058,
    "beef": 18521,
    "malicious": 19904,
    "hatred": 24818,
    "Ġdistinguished": 8273,
    "Ġslide": 10396,
    "lilies": 20963,
    "Ġsy": 489,
    "Ġwrapping": 19778,
    "Ġswore": 10381,
    "per": 481,
    "Ġfuneral": 10285,
    "Ġborders": 15576,
    "âĢĶâĢľ": 2969,
    "Ġskirt": 18729,
    "Ġwalrus": 14976,
    "gledy": 25404,
    "Ġinvoluntary": 18763,
    "Ġpauper": 26180,
    "Ġinsure": 13181,
    "Ġbod": 4582,
    "Ġstepfather": 7220,
    "Ġpious": 11601,
    "ched": 1547,
    "Ġribs": 7102,
    "Ġgem": 21597,
    "Ġabhorrent": 16858,
    "Ġexamples": 2604,
    "Ġcreatures": 4135,
    "Ġinscribed": 24941,
    "Ġconsoled": 18115,
    "Ġholiest": 18814,
    "jackets": 24896,
    "iod": 3839,
    "Ġ[\"": 19933,
    "Ġexcept": 3311,
    "tri": 11531,
    "puff": 21024,
    "masterly": 24530,
    "ò": 179,
    "Ġtreacherously": 25132,
    "Ġlingered": 13507,
    "Ġvisual": 5741,
    "acific": 4960,
    "confused": 19642,
    "persuade": 13535,
    "Ġcomposed": 8895,
    "Ġineff": 12640,
    "Ġenvironmental": 24076,
    "Ġexposure": 16103,
    "king": 3059,
    "Ġconsent": 5372,
    "happily": 14659,
    "Ġancho": 15607,
    "Ġbully": 23859,
    "Ġeffort": 8205,
    "gossip": 23407,
    "Ġpaying": 9941,
    "hence": 16627,
    "pieces": 8758,
    "gered": 9279,
    "Ġemperor": 15162,
    "Ġdistant": 5387,
    "ivot": 11722,
    "Ġslung": 23172,
    "inea": 7624,
    "iliary": 21730,
    "peril": 18343,
    "Ġloggerhead": 13660,
    "Ġacquies": 11098,
    "Ġdents": 13914,
    "Ġreasoning": 1977,
    "fug": 17545,
    "Ġfootfalls": 25867,
    "Ġfrankness": 16748,
    "Ġlou": 6821,
    "piled": 21017,
    "Ġmurmured": 7480,
    "Ġcomprehensive": 15091,
    "Ġcautiously": 16979,
    "inv": 8402,
    "et": 307,
    "Ġforked": 11667,
    "clut": 23155,
    "Ġseat": 4949,
    "inion": 2872,
    "pher": 11513,
    "Ġcontradictory": 20400,
    "Ġwool": 19436,
    "short": 6567,
    "Ġilliter": 23470,
    "Ġfled": 6672,
    "Ġembarked": 17137,
    "Ġscenari": 22277,
    "yesterday": 10355,
    "Ġlithe": 24669,
    "whiteness": 18371,
    "Ġawaken": 23588,
    "complete": 15037,
    "oky": 8198,
    "Ġtaffrail": 15479,
    "Ġmoustache": 20487,
    "distinctive": 25726,
    "urpation": 16304,
    "Ġmartial": 20294,
    "Ġbawling": 25946,
    "Ġpruning": 18971,
    "Ġfatig": 6757,
    "grew": 17557,
    "Ġet": 3580,
    "Ġembark": 8559,
    "don": 3543,
    "Ġsplice": 19311,
    "result": 12048,
    "Ġparted": 5929,
    "Ġimposing": 11785,
    "Ġriot": 14690,
    "Ġscience": 1436,
    "gentleman": 7518,
    "Ġfurnish": 9022,
    "Ġendow": 23139,
    "Ġclin": 14204,
    "Ġcellars": 24666,
    "Ġconsequ": 6255,
    "dra": 3411,
    "sofa": 26147,
    "Ġ88": 19714,
    "apse": 14201,
    "Ġbeholding": 8672,
    "intellig": 5321,
    "Ġanomalous": 25638,
    "Ġwonderful": 4564,
    "Ġtossed": 5816,
    "Ġencamp": 22803,
    "Ġratt": 7881,
    "Ġitalian": 12413,
    "patched": 17645,
    "Ġindecision": 25782,
    "boxes": 16890,
    "atha": 6573,
    "Ġgarnery": 17390,
    "Ġassuredly": 14825,
    "barn": 17485,
    "Ġdistributing": 22682,
    "Ġkneel": 14809,
    "Ġrome": 12160,
    "testing": 12521,
    "Ġknew": 2057,
    "impetuous": 23766,
    "alloyed": 22205,
    "Ġperpet": 7645,
    "Ġbespeaking": 26311,
    "Ġscore": 9740,
    "Ġgeometric": 3218,
    "wards": 1275,
    "neighbour": 7210,
    "ional": 1088,
    "rises": 17657,
    "Ġcalmer": 23045,
    "Ġexult": 10233,
    "Ġgib": 13968,
    "Ġ46": 19494,
    "Ġsnap": 11202,
    "Ġinspect": 5964,
    "Ġdisembow": 22541,
    "chanced": 18801,
    "Ġjoin": 4855,
    "Ġbountiful": 25945,
    "windows": 19537,
    "Ġtackles": 8051,
    "investments": 25533,
    "omas": 12677,
    "Ġway": 1090,
    "manner": 6171,
    "duct": 3505,
    "nered": 18489,
    "Ġfresher": 23214,
    "Ġranges": 2879,
    "dden": 1803,
    "execution": 20475,
    "queness": 18150,
    "Ġguid": 2638,
    "rived": 5373,
    "Ġmarlingspike": 26581,
    "Ġconsole": 8151,
    "ief": 2048,
    "ctic": 8443,
    "Ġperseus": 10606,
    "Ġended": 7950,
    "Ġholmes": 1308,
    "Ġeleg": 6193,
    "advent": 10223,
    "Ġrock": 5311,
    "Ġdum": 10813,
    "Ġinsinuating": 19273,
    "pulling": 25149,
    "verize": 21732,
    "Ġgoodge": 22825,
    "pour": 17632,
    "Ġabsolute": 6765,
    "eastward": 15133,
    "copyright": 5278,
    "Ġsu": 432,
    "gloomy": 25147,
    "Ġappro": 658,
    "Ġexpectation": 6903,
    "Ġcitizens": 25440,
    "Ġdispleasure": 16056,
    "Ġfurther": 1060,
    "mped": 16650,
    "augment": 18831,
    "oftener": 23968,
    "endering": 21287,
    "Ġisles": 8461,
    "Ġingen": 9052,
    "Ġfleeting": 19329,
    "Ġsympathise": 16796,
    "matical": 13132,
    "Ġadvent": 4357,
    "Ġvide": 10253,
    "Ġhavoc": 15817,
    "Ġem": 1925,
    "Ġpopularly": 12246,
    "estinated": 15927,
    "Ġwhistled": 24624,
    "och": 21003,
    "beauty": 20107,
    "Ġpoliceman": 15262,
    "Ġnewly": 9341,
    "Ġmustard": 12936,
    "Ġdiscomp": 11870,
    "Ġadjac": 18293,
    "Ġwhirlpool": 20657,
    "Ġconduct": 3733,
    "Ġtuning": 3071,
    "Ġrepulses": 26071,
    "reflected": 24732,
    "Ġpeaceable": 14726,
    "Ġbacked": 12932,
    "bag": 7542,
    "Ġmistake": 6204,
    "Ġtowards": 1728,
    "Ġkeel": 6444,
    "chery": 24551,
    "Ġcalifornian": 25853,
    "ı": 242,
    "Ġsuspended": 5665,
    "Ġcompiled": 22574,
    "uiperai": 10666,
    "Ġpeaceful": 9459,
    "Ġexponentially": 1446,
    "bug": 17495,
    "Ġnuptial": 25783,
    "Ġoil": 3371,
    "by": 1157,
    "Ġundoubtedly": 8313,
    "Ġmiriam": 25274,
    "directed": 20408,
    "Ġmason": 10160,
    "probability": 17024,
    "ete": 9206,
    "artificial": 1002,
    "Ġeludes": 26556,
    "unmistakable": 21899,
    "Ġabstracted": 17185,
    "Ġcliffs": 15974,
    "atches": 13849,
    "Ġresidence": 8207,
    "matters": 14877,
    "Ġnovelist": 24776,
    "Ġpaint": 7707,
    "Ġhatchway": 13527,
    "Ġcertainly": 2496,
    "Ġgradually": 3398,
    "Ġstrugg": 3216,
    "serv": 7450,
    "Ġmerryweather": 9525,
    "ily": 1030,
    "Ġconce": 3419,
    "Ġunsatisfied": 22046,
    "Ġcetace": 14991,
    "closed": 23158,
    "desponding": 26343,
    "oses": 3946,
    "Ġirrad": 19095,
    "money": 8753,
    "Ġsheeted": 19834,
    "Ġjulia": 22306,
    "Ġkeener": 22917,
    "Ġconventional": 25548,
    "operation": 13503,
    "Ġassociate": 13453,
    "Ġstubbornness": 25380,
    "force": 12966,
    "Ġstoutest": 24629,
    "daughter": 8354,
    "Ġinflicted": 11366,
    "Ġactor": 16053,
    "Ġbrief": 6976,
    "Ġevolve": 3001,
    "Ġsnuffed": 15076,
    "Ġgeorgiana": 8629,
    "inery": 17735,
    "Ġassert": 7121,
    "Ġpane": 21466,
    "Ġlearn": 364,
    "Ć": 199,
    "isance": 17849,
    "copper": 19190,
    "Ġmariner": 7246,
    "Ġnewcomers": 26042,
    "pet": 4868,
    "(": 12,
    "Ġmeanness": 22602,
    "under": 3129,
    "Ġcolouring": 16753,
    "enc": 7574,
    "Ġcottagers": 6761,
    "etch": 9207,
    "û": 188,
    "Ġscorching": 20069,
    "retired": 11940,
    "ĠĠĠĠĠĠĠĠĠĠĠĠĠĠĠĠĠĠĠĠĠĠĠĠĠĠĠĠĠĠĠĠĠĠĠ": 19260,
    "Ġsallied": 12542,
    "ourage": 2448,
    "dition": 15342,
    "Ġbucket": 8792,
    "osop": 4406,
    "atch": 672,
    "te": 991,
    "Ġfunction": 589,
    "į": 240,
    "Ġsuppressed": 11915,
    "Ġconsol": 3815,
    "Ġit": 339,
    "Ġintimate": 6550,
    "volume": 18591,
    "Ġornaments": 17455,
    "Ġexpecting": 10438,
    "Ġharbor": 10030,
    "Ġimpropri": 14217,
    "Ġcit": 10785,
    "Ġliable": 14231,
    "Ġstung": 21742,
    "Ġsoapstone": 20514,
    "ust": 496,
    "Ġsimplest": 16338,
    "Ġshiny": 14109,
    "ade": 881,
    "Ġconjoined": 21810,
    "Ġprivileges": 25135,
    "ette": 15663,
    "Ġinterruption": 9476,
    "Ġbrass": 11049,
    "mpt": 6655,
    "Ġbath": 9661,
    "Ġuncles": 23434,
    "Ġjeopardy": 13599,
    "Ġclicked": 22359,
    "Ġreminisc": 18726,
    "Ġromish": 19587,
    "Ġdeject": 10879,
    "Ġimpression": 5732,
    "Ġunion": 6838,
    "harbors": 20151,
    "Ġmotioned": 19595,
    "lit": 9608,
    "Ġshoals": 13137,
    "Ġbaptized": 25775,
    "Ġclearness": 23187,
    "Ġspoke": 2746,
    "colonel": 8285,
    "remark": 7260,
    "beloved": 19464,
    "ging": 2600,
    "Ġtable": 2498,
    "Ġcred": 8785,
    "Ġsmiled": 5941,
    "ounts": 4652,
    "racing": 21634,
    "Ġdoom": 6417,
    "Ġeaves": 15680,
    "ricted": 15423,
    "Ġcastor": 19430,
    "indeed": 4489,
    "breadth": 20279,
    "Ġdestro": 3722,
    "moved": 9788,
    "Ġmechan": 1161,
    "Ġfurn": 3710,
    "Ġswallowed": 7944,
    "Ġwitnesses": 9489,
    "Ġdrawers": 12110,
    "flutterings": 26608,
    "Ġpossess": 3202,
    "Ġforced": 4353,
    "Ġconvergence": 971,
    "Ġlandscape": 12420,
    "pond": 21015,
    "feeders": 25236,
    "Ġannesley": 19580,
    "Ġsuperb": 16445,
    "Ġpaling": 21465,
    "thorough": 21989,
    "Ġhalyards": 21497,
    "Ġinstituted": 18696,
    "jumped": 20249,
    "Ġfervent": 14899,
    "ittance": 12852,
    "robe": 15646,
    "Ġvol": 4190,
    "Ġstarlight": 24627,
    "angs": 5835,
    "wondrous": 12342,
    "histicated": 20903,
    "ader": 14015,
    "Ġghostliness": 24652,
    "violence": 16480,
    "Ġintrepidity": 25551,
    "Ġerrand": 11086,
    "Ġcocoa": 25483,
    "Ġnavies": 16902,
    "ble": 541,
    "itories": 15553,
    "Ġdisent": 22527,
    "fairly": 17222,
    "Ġfinding": 3263,
    "ĠĠĠĠĠĠĠĠĠĠĠĠĠĠĠĠĠĠĠĠĠĠĠĠĠĠĠĠĠ": 19702,
    "Ġperfidious": 25667,
    "sister": 5139,
    "Ġmultitude": 9328,
    "Ġprobably": 4314,
    "Ġwalton": 14975,
    "Ġ22": 8279,
    "Ġrobots": 11083,
    "Ġpaper": 4283,
    "Ġfeed": 2127,
    "Ġstopped": 5957,
    "Ġplanisphere": 26609,
    "Ġexcel": 3567,
    "Ġcustom": 5078,
    "Ġcig": 6520,
    "older": 15757,
    "Ġcomplaints": 12269,
    "Ġshoe": 14568,
    "Ġshirt": 8853,
    "club": 26382,
    "Ġvariety": 8532,
    "bestowed": 12230,
    "keel": 14131,
    "Ġthrow": 3784,
    "Ġsil": 1796,
    "Ġdeception": 18141,
    "enjoyment": 17260,
    "pronouncing": 25194,
    "sized": 15431,
    "Ġroar": 9756,
    "ailing": 7022,
    "Ġ53": 19638,
    "Ġbehaviors": 13257,
    "Ġguiding": 19243,
    "Ġfluffy": 19367,
    "Ġcorners": 18876,
    "play": 5099,
    "Ġstair": 8457,
    "Ġwra": 5906,
    "Ġmainland": 22652,
    "wound": 21129,
    "committed": 18744,
    "desperate": 17360,
    "Ġaccomplish": 14879,
    "Ġshrubbery": 18233,
    "arial": 5532,
    "Ġgates": 10203,
    "Ġtroop": 24898,
    "Ġgpus": 3732,
    "âĢĿ;": 11673,
    "Ġsaith": 14158,
    "Ġfidelity": 15245,
    "sent": 761,
    "car": 4212,
    "Ġshrivelled": 19706,
    "buried": 14852,
    "Ġshunned": 17296,
    "astrop": 3314,
    "Ġsunny": 13089,
    "rised": 10126,
    "Ġobed": 8537,
    "Ġ126": 24471,
    "Ġexchanging": 18143,
    "Ġorange": 8488,
    "usually": 10288,
    "fed": 11489,
    "Ġtol": 6676,
    "himself": 3971,
    "pattern": 4248,
    "Ġdissimilar": 22535,
    "Ġinvoking": 19147,
    "Ġfitzwilliam": 5771,
    "chan": 1141,
    "Ġgathered": 8444,
    "Ġcrawled": 17045,
    "Ġcasual": 11410,
    "Ġjoists": 19234,
    "Ġthreading": 23405,
    "itude": 1418,
    "Ġsqualid": 14370,
    "Ġboisterously": 25683,
    "cottagers": 20051,
    "po": 1137,
    "Ġview": 2761,
    "Ġdutch": 6328,
    "unte": 21877,
    "Ġmapple": 11151,
    "invari": 21187,
    "agitation": 14071,
    "amplified": 26496,
    "Ġpenalizing": 13095,
    "told": 7811,
    ".}": 20747,
    "Ġnails": 12654,
    "pidation": 18897,
    "itten": 3438,
    "Ġpraying": 19557,
    "Ġstock": 7454,
    "Ġplying": 17916,
    "Ġcontracting": 16014,
    "Ġharvest": 13418,
    "Ġsulk": 15048,
    "Ġaboriginal": 14194,
    "ech": 4391,
    "Ġofficially": 24839,
    "Ġchooses": 13350,
    "hawk": 7122,
    "tete": 10734,
    "Ġcoppers": 22586,
    "Ġeffects": 7235,
    "both": 5785,
    "Ġnocturnal": 20717,
    "Ġfive": 2833,
    "abetical": 15747,
    "prec": 3200,
    "stick": 15689,
    "Ġimpunity": 14218,
    "behold": 12883,
    "Ġsympath": 4862,
    "Ġcaught": 3730,
    "should": 3260,
    "Ġinvests": 14871,
    "Ġimmensity": 25330,
    "Ġhails": 21954,
    "Ġcrawl": 11376,
    "Ġwr": 1544,
    "Ġparasol": 22125,
    "mastod": 23977,
    "Ġstubb": 1786,
    "Ġpervers": 11787,
    "Ġincome": 7917,
    "ely": 624,
    "Ġcrippled": 25279,
    "Ġvanquished": 22881,
    "ernal": 4312,
    "osures": 22265,
    "fered": 5560,
    "Ġpetty": 19598,
    "Ġcapric": 14577,
    "oked": 4308,
    "evade": 24817,
    "Ġdangerous": 6615,
    "chron": 21697,
    "ulity": 10887,
    "scure": 22986,
    "rol": 5713,
    "Ġdisco": 3425,
    "adow": 18090,
    "shold": 2772,
    "log": 18536,
    "Ġgenuine": 14888,
    "abounding": 25980,
    "Ġtraveller": 8049,
    "crop": 20800,
    "spending": 18690,
    "Ġnortheast": 23206,
    "Ġweeds": 21928,
    "Ġhover": 15624,
    "tell": 1379,
    "Ġinconsistency": 26184,
    "onies": 6806,
    "Ġhyster": 16875,
    "oss": 10118,
    "Ġmaternal": 11060,
    "Ġr": 404,
    "Ġfevers": 22213,
    "untarily": 6313,
    "Ġ1846": 26085,
    "Ġlying": 4828,
    "Ġarrival": 4731,
    "first": 3934,
    "Ġgoverned": 23573,
    "Ġgestic": 21611,
    "Ġtooth": 9195,
    "Ġmiz": 10779,
    "Ġexpense": 7652,
    "dw": 3331,
    "Ġcrunched": 19122,
    "oce": 10716,
    "ray": 2435,
    "iminished": 19026,
    "Ġgruff": 21617,
    "ented": 4349,
    "Ġalbino": 20506,
    "Ġfaulty": 14910,
    "Ġbritain": 16958,
    "Ġadmired": 7982,
    "oof": 15408,
    "fortnight": 13091,
    "neighbourhood": 10028,
    "unforeseen": 21892,
    "garity": 17556,
    "Ġjacob": 1898,
    "12": 20751,
    "Ġtragic": 15259,
    "Ġsewing": 21965,
    "happy": 4426,
    "Ġelse": 2479,
    "Ġqualifications": 24676,
    "acey": 7650,
    "Ġeffect": 969,
    "Ġplot": 14284,
    "Ġlaughing": 5339,
    "grim": 19108,
    "ub": 1224,
    "Ġovercome": 6044,
    "Ġsanctioned": 26352,
    "allest": 5485,
    "Ġzer": 1098,
    "Ġcanada": 22167,
    "Ġcomprises": 22576,
    "itancy": 21336,
    "Ġkneeling": 12147,
    "Ġcolonel": 3405,
    "Ġgateway": 24799,
    "Ġalbatross": 10872,
    "mushroom": 26397,
    "slight": 10729,
    "ological": 1884,
    "Ġflask": 3040,
    "Ġequally": 5258,
    "etency": 21585,
    "ificent": 8184,
    "Ġimprecate": 20521,
    "Ġwarmly": 8990,
    "turbaned": 24532,
    "Ġwind": 1434,
    "Ġexcellence": 11452,
    "retrospect": 23144,
    "Ġpeels": 22694,
    "Ġdives": 17892,
    "Ġjost": 23632,
    "letter": 6202,
    "Ġdeity": 18136,
    "Ġinsince": 23682,
    "ban": 9587,
    "Ġdidst": 11853,
    "Ġfest": 10806,
    "Ġhonourable": 10458,
    "cial": 2647,
    "Ġdiligently": 11406,
    "mand": 3893,
    "Ġrelation": 2140,
    "unbounded": 21889,
    "Ġjing": 15953,
    "Ġpronouncing": 16971,
    "ream": 2708,
    "Ġisn": 7866,
    "Ġwherefore": 8526,
    "Ġflowers": 8943,
    "Ġcoaxing": 18597,
    "Ġsympt": 7013,
    "elect": 20848,
    "Ġspiral": 14586,
    "Ġhapp": 1094,
    "Ġassumed": 9468,
    "outward": 22164,
    ")(": 2980,
    "deliber": 17429,
    "over": 1846,
    "Ġhasty": 10479,
    "Ġbundle": 13429,
    "Ġclusters": 25233,
    "Ġvig": 5460,
    "xter": 9149,
    "Ġprocess": 560,
    "condition": 7060,
    "metals": 24765,
    "Ġremarked": 3696,
    "Ġmorcar": 13015,
    "Ġsubsets": 2343,
    "Ġpharaoh": 26587,
    "Ġrepay": 19083,
    "mont": 19171,
    "otograph": 5827,
    "retreat": 23142,
    "dually": 3281,
    "ront": 15421,
    "Ġremonstr": 16165,
    "Ġdevil": 3613,
    "swing": 15432,
    "Ġmildness": 9947,
    "Ġconception": 10316,
    "Ġcooped": 22584,
    "bedded": 12447,
    "Ġhawsers": 26504,
    "Ġcaress": 16343,
    "vict": 11542,
    "Ġoccas": 2702,
    "Ġleadenhall": 16631,
    "Ġnatures": 16508,
    "Ġinexperienced": 26101,
    "tiger": 13800,
    "command": 6577,
    "avoiding": 25237,
    "entropy": 1439,
    "approbation": 11459,
    "Ġthomas": 17950,
    "Ġmatrix": 1608,
    "Ġgift": 10842,
    "Ġgodson": 23361,
    "Ġcoffee": 6760,
    "haul": 14768,
    "Ġtapping": 10754,
    "Ġadjust": 2155,
    "Ġstating": 15726,
    "Ġnovember": 11753,
    "witness": 10038,
    "Ġopens": 23628,
    "Ġregarded": 5762,
    "onted": 11569,
    "astron": 22171,
    "umed": 6555,
    "etus": 21581,
    "Ġrevelations": 25224,
    "Ġsomnambul": 26578,
    "Ġleaps": 14011,
    "Ġveil": 7935,
    "Ġquivers": 22417,
    "well": 1691,
    "Ġcramped": 23531,
    "Ġjackets": 19605,
    "Ġassuring": 13068,
    "Ġbambooz": 26120,
    "Ġquestioning": 10466,
    "Ġpitiless": 19391,
    "conjectures": 25181,
    "ounded": 9751,
    "Ġjoke": 8872,
    "Ġslay": 16309,
    "Ġontario": 26206,
    "Ġringleader": 26214,
    "Ġlurking": 11290,
    "quently": 9705,
    "oury": 22308,
    "Ġterrier": 23402,
    "Ġpol": 2576,
    "Ġthat": 335,
    "Ġpants": 21468,
    "Ġchagrin": 20610,
    "Ġbridal": 14957,
    "Ġcomprise": 18584,
    "ordinate": 12881,
    "Ġassistants": 9454,
    "Ġbreed": 19073,
    "Ġnantucketers": 9898,
    "Ġshrugged": 12775,
    "Ġlye": 21554,
    "successful": 11359,
    "forgotten": 12419,
    "brated": 12031,
    "Ġresembles": 25970,
    "Ġtrifles": 16953,
    "andish": 18156,
    "black": 6768,
    "hopeless": 16919,
    "swear": 16920,
    "H": 44,
    "inates": 21183,
    "Ġtransactions": 18482,
    "âĢĶâĢľ_": 13207,
    "Ġsum": 2699,
    "t": 88,
    "journey": 8748,
    "Ġterritories": 23849,
    "athy": 14326,
    "Ġpra": 4347,
    "Ġsuddenness": 23385,
    "Ġmemories": 14543,
    "Ġconnections": 968,
    "ensing": 12902,
    "Ġpays": 13300,
    "Ġacts": 2292,
    "Ġspans": 18305,
    "Ġsamuel": 10036,
    "atig": 13848,
    "Ġsundry": 20077,
    "Ġcoleridge": 18770,
    "niest": 18993,
    "Ġcompat": 2935,
    "Ġdromed": 15601,
    "Ġhunting": 7258,
    "Ġoutrages": 18416,
    "accents": 19213,
    "Ġmo": 628,
    "apprehens": 17409,
    "Ġresolution": 5500,
    "Ġworaciousness": 22932,
    "Ġpay": 3962,
    "Ġorganically": 3010,
    "Ġ1894": 5196,
    "shipped": 18497,
    "Ġhall": 4185,
    "iliar": 15718,
    "Ġig": 3499,
    "Ġflo": 2589,
    "Ġtechni": 1736,
    "Ġinfluenced": 19635,
    "Ġcontribute": 12867,
    "Ġpredicting": 2412,
    "enthus": 17980,
    "Ġejaculation": 20257,
    "toss": 22570,
    "Ġragged": 11850,
    "consequ": 18505,
    "Ġgenerate": 1582,
    "Ġshattered": 7884,
    "myself": 5113,
    "agra": 14069,
    "stopping": 19353,
    "Ġginger": 9213,
    "Ġplace": 1652,
    "Ġamelia": 26253,
    "Ġdecreas": 1647,
    "Ġraft": 16120,
    "Ġapo": 9633,
    "Ġwee": 21923,
    "Ġmatrim": 11061,
    "uendoes": 26409,
    "osure": 5308,
    "icant": 21565,
    "wherefore": 19110,
    "Ġramble": 9316,
    "are": 639,
    "Ġholder": 6725,
    "ta": 13792,
    "Ġupbraided": 26530,
    "Ġunexampled": 20363,
    "Ġfulfilment": 20190,
    "project": 16428,
    "smug": 23911,
    "brevi": 24077,
    "Ġnotable": 18223,
    "Ġconciliating": 19049,
    "while": 2932,
    "Ġtack": 5621,
    "application": 12367,
    "exp": 2735,
    "muring": 17603,
    "Ġreported": 11984,
    "Ġrepugnance": 19088,
    "omen": 4084,
    "Ġtalent": 12301,
    "Ġcurv": 3511,
    "Ġheadsman": 13278,
    "Ġdesper": 6177,
    "?âĢĶ": 3465,
    "Ġgibberish": 25787,
    "Ġgulf": 10638,
    "Ġrummaged": 16912,
    "Ġwarsaw": 26168,
    "Ġfather": 1453,
    "nut": 12499,
    "ants": 1388,
    "Ġindividually": 22960,
    "zek": 16273,
    "Ġprofundity": 20455,
    "Ġjourneying": 25566,
    "deserts": 25382,
    "Ġacc": 570,
    "assist": 11771,
    "Ġmagical": 23103,
    "aker": 3663,
    "ean": 20842,
    "âĢĶ.âĢĿ": 22259,
    "Ġscotland": 6641,
    "Ġdusk": 12331,
    "olerable": 7182,
    "¿": 128,
    "bennet": 5353,
    "might": 4076,
    "igating": 21703,
    "Ġresign": 18565,
    "miniature": 16767,
    "Ġarab": 7823,
    "Ġimp": 576,
    "plex": 705,
    "Ġventilator": 8717,
    "Ġcountries": 13100,
    "browed": 25895,
    "Ġendued": 14080,
    "prom": 6509,
    "Ġloath": 7891,
    "shoulders": 16587,
    "Ġrespect": 1669,
    "Ġcetology": 10012,
    "Ġundeviating": 15221,
    "Ġrailway": 15023,
    "exactly": 10639,
    "Ġfavoured": 16364,
    "olent": 8155,
    "Ġassumptions": 5517,
    "rade": 9682,
    "oldened": 22644,
    "Ġdetermines": 2364,
    "Ġsuperficial": 23458,
    "Ġrephrased": 26479,
    "describe": 1515,
    "Ġthoroughly": 8348,
    "Ġsavannah": 17419,
    "ailed": 3246,
    "Ġunidirectional": 3422,
    "]": 65,
    "warmly": 25029,
    "Ġcra": 2330,
    "fight": 17540,
    "Ġblasphemy": 26116,
    "Ġminor": 12973,
    "Ġcomplaisance": 19452,
    "nowhere": 18419,
    "heavy": 10577,
    "Ġconquest": 15752,
    "uously": 7352,
    "Ġhandsom": 11125,
    "Ġinglorious": 24424,
    "Ġhappiness": 2942,
    "opolising": 25677,
    "Ġsolicitude": 10043,
    "encoura": 15051,
    "onstrate": 17770,
    "bit": 3932,
    "Ġcalendar": 18878,
    "Ġquiescent": 26244,
    "school": 10058,
    "stating": 21650,
    "Ġwashed": 15769,
    "Ġpoised": 22596,
    "started": 10846,
    "Ġpremium": 23908,
    "Ġfir": 17879,
    "object": 6883,
    "activation": 3231,
    "Ġcad": 12573,
    "Ġhoriz": 4726,
    "Ġwarrior": 24496,
    "Ġtemperate": 16166,
    "Ġinforming": 18742,
    "urre": 10857,
    "Ġnewspaper": 12368,
    "erranean": 9337,
    "gers": 8376,
    "sway": 15428,
    "musket": 25342,
    "Ġshakespeare": 20310,
    "Ġencirc": 18732,
    "Ġpossibilities": 18977,
    "Ġbay": 9171,
    "clouded": 20334,
    "Ġgeography": 23375,
    "Ġstability": 1361,
    "Ġquest": 2001,
    "Ġrough": 7186,
    "convalescence": 24885,
    "Ġpolar": 9414,
    "aulding": 11340,
    "Ġgave": 2216,
    "Ġgrowth": 14631,
    "Ġexquis": 9704,
    "page": 13774,
    "Ġrespectful": 16349,
    "Ġamb": 9295,
    "Ġbaron": 19336,
    "fourth": 11329,
    "overs": 17623,
    "disgrace": 16461,
    "ark": 849,
    "Ġroundabout": 23064,
    "lead": 10168,
    "Ġvel": 7185,
    "Ġdy": 2520,
    "Ġdid": 835,
    "Ġcomprehend": 6494,
    "Ġoppressed": 11190,
    "Ġgreenness": 23770,
    "gammon": 20246,
    "Ġinsular": 19270,
    "Ġc": 277,
    "Ġtrem": 6661,
    "ern": 759,
    "flung": 16641,
    "questions": 16762,
    "idled": 21772,
    "Ġwhaleman": 4655,
    "Ġaround": 3611,
    "Ġfiercely": 12957,
    "Ġ36": 14770,
    "Ġsuggestive": 11298,
    "peter": 24300,
    "ries": 3351,
    "forehead": 8517,
    "inquire": 16934,
    "Ġmerrily": 23734,
    "Ġankles": 17901,
    "Ġharder": 14452,
    "ell": 398,
    "Ġfine": 1316,
    "Ġheadache": 22902,
    "ind": 568,
    "Ġhearsed": 25042,
    "Ġrequirements": 9801,
    "Ġtearing": 14399,
    "Ġworth": 4418,
    "Ġade": 22104,
    "Ġproportional": 2524,
    "asper": 7855,
    "Ġstrip": 9424,
    "Ġdeputation": 21836,
    "Ġaudits": 24769,
    "Ġheedfully": 24521,
    "ois": 9137,
    "Ġklux": 22199,
    "Ġindel": 13008,
    "Ġtakes": 5007,
    "measureless": 20238,
    "uity": 12522,
    "come": 2373,
    "persuaded": 15077,
    "Ġjib": 14196,
    "caught": 8730,
    "Ġallen": 5160,
    "ondency": 15273,
    "Ġparlor": 13542,
    "Ġtap": 12531,
    "Ġomnipotent": 13551,
    "orously": 8420,
    "dream": 8731,
    "reach": 17759,
    "Ġcanst": 8861,
    "Ġorph": 9720,
    "Ġfoolish": 5980,
    "recurrent": 4994,
    "Ġupd": 946,
    "Ġhole": 6079,
    "akeman": 6268,
    "Ġarrangements": 16517,
    "shapes": 22468,
    "starbuck": 6019,
    "ear": 8734,
    "Ġcraw": 7281,
    "Ġfe": 491,
    "eer": 15351,
    "Ġenjoyment": 7299,
    "thereby": 14450,
    "ingu": 2119,
    "Ġparcels": 25466,
    "isturbed": 18298,
    "cho": 2760,
    "Ġdiameter": 19869,
    "Ġscuttle": 7413,
    "Ġcopestone": 24939,
    "asc": 6386,
    "Ġdependent": 14291,
    "Ġoutdone": 22322,
    "namely": 23680,
    "Ġtoy": 15638,
    "Ġusage": 9733,
    "haven": 20914,
    "Ġasks": 5115,
    "Ġfathers": 16299,
    "Ġridges": 16733,
    "ruct": 676,
    "prejudice": 25572,
    "ouement": 21451,
    "uvier": 9071,
    "ant": 438,
    "yond": 2328,
    "rosings": 15648,
    "Ġrule": 1534,
    "otics": 10226,
    "uments": 5552,
    "vely": 3866,
    "Ġunreliable": 3928,
    "Ġgust": 21600,
    "encies": 4078,
    "Ġhandspikes": 12944,
    "Ġproduces": 2094,
    "mosphere": 10046,
    "Ġexam": 3711,
    "lowering": 16036,
    "Ġapproximation": 2339,
    "Ġtickled": 20060,
    "Ġemm": 18005,
    "Ġfounded": 8560,
    "Ġfourth": 7706,
    "L": 48,
    "shri": 14239,
    "ignor": 8964,
    "Ġhomely": 25220,
    "Ġtrooped": 24900,
    "Ġsingled": 23775,
    "Ġinvented": 17038,
    "brad": 20782,
    "Ġbites": 23745,
    "Ġinterruptions": 24189,
    "Ġshaping": 22007,
    "Ġsisterly": 16307,
    "darcy": 5208,
    "Ġuniversally": 12004,
    "Ġsymptoms": 8708,
    "lanter": 15391,
    "intim": 22937,
    "rior": 12747,
    "shone": 22459,
    "Ë": 140,
    "warrior": 24797,
    "Ġspan": 11732,
    "omit": 13977,
    "Ġdismember": 20218,
    "Ġdeposit": 17271,
    "proble": 9397,
    "Ġfullest": 14816,
    "Ġexpect": 2303,
    "Ġbul": 3290,
    "longing": 23728,
    "Ġedges": 3826,
    "accessible": 13642,
    "Ġsmoky": 22562,
    "Ġamazing": 9980,
    "prolong": 23398,
    "Ġrefreshed": 15295,
    "Ġconcise": 23325,
    "Ġcomo": 21851,
    "Ġbreathlessly": 24283,
    "connections": 14431,
    "Ġ1839": 20463,
    "Ġstumped": 24945,
    "Ġstilly": 25974,
    "lone": 11501,
    "Ġ99": 10747,
    "Ġfull": 2177,
    "Ġdiscipl": 22787,
    "discern": 14854,
    "ational": 5716,
    "Ġseizing": 7879,
    "risonment": 17378,
    "be": 669,
    "ways": 1442,
    "Ġbanners": 24859,
    "Ġtalk": 1969,
    "suitable": 18632,
    "duck": 22416,
    "Ĳ": 243,
    "brink": 23578,
    "disappointed": 25192,
    "Ġeasily": 3890,
    "Ġrail": 7223,
    "Ġwound": 4529,
    "murderers": 25728,
    "Ġlydia": 2370,
    "Ġm": 274,
    "Ġevermore": 18813,
    "Ġpunct": 8664,
    "Ġswears": 16466,
    "Ġate": 8844,
    "Ġadler": 8174,
    "Ġreputation": 11643,
    "Ġide": 2122,
    "Ġeigen": 4882,
    "marrying": 19550,
    "ides": 2162,
    "Ġshillings": 15839,
    "Ġemperors": 15163,
    "judges": 19576,
    "Ġjewell": 19523,
    "Ġbet": 1134,
    "Ġmaze": 23834,
    "Ġscents": 22272,
    "Ġdismally": 20217,
    "Ġnine": 5369,
    "Ġham": 3418,
    "Ġimparted": 15992,
    "Ġmaketh": 15191,
    "sil": 5283,
    "Ġangels": 11179,
    "stat": 21647,
    "jewel": 20349,
    "ues": 2081,
    "Ġexploding": 2109,
    "da": 17516,
    "Ġsweating": 16465,
    "aking": 973,
    "Ġoutrid": 22319,
    "Ġbeams": 14633,
    "Ġbubbles": 11399,
    "insupportable": 21196,
    "Ġimmensities": 25331,
    "lantic": 6364,
    "Ġappellation": 22225,
    "Ġlustrous": 20159,
    "_": 67,
    "ud": 913,
    "street": 6495,
    "atically": 2587,
    "Ġexpressed": 4469,
    "Ġburnt": 9931,
    "Ġthreats": 13380,
    "elling": 5831,
    "Ġpropag": 16351,
    "kicked": 20945,
    "Ġlivelong": 25512,
    "Ġsighed": 10340,
    "Ġcloth": 9746,
    "Ġdome": 15593,
    "utility": 21590,
    "Ġpattering": 18664,
    "Ġsw": 1355,
    "attend": 11102,
    "distrustful": 26332,
    "Ġbuoy": 8004,
    "Ġsweetly": 23922,
    "Ġbureau": 11592,
    "Ġanaly": 1155,
    "Ġmaid": 5287,
    "Ġplentiful": 12917,
    "50": 6784,
    "Ġsauce": 15894,
    "Ġattached": 5392,
    "Ġnephew": 6405,
    "thankful": 16808,
    "Ġtrowsers": 9630,
    "Ġsocially": 22083,
    "Ġbeak": 18082,
    "Ġpresumably": 19627,
    "Ġsport": 6689,
    "bowl": 14894,
    "Ġpossible": 2584,
    "Ġtumult": 7115,
    "aky": 18412,
    "Ġensued": 11395,
    "bringing": 17169,
    "Ġinserting": 19908,
    "Ġshr": 4226,
    "thickness": 25368,
    "Ġcoronet": 6345,
    "Ġguide": 3215,
    "ieved": 3230,
    "Ġpupella": 20425,
    "Ġwires": 21298,
    "give": 4689,
    "ague": 3905,
    "deeply": 16176,
    "addressing": 24401,
    "oology": 21008,
    "abs": 11670,
    ";âĢĻ": 15306,
    "Ġannals": 17900,
    "Ġchaldee": 26236,
    "Ġfamous": 5256,
    "Ġrecl": 16143,
    "aways": 15314,
    "postp": 24635,
    "Ġenslaved": 26315,
    "vial": 17699,
    "Ġsuppression": 23003,
    "Ġpoor": 1710,
    "Ġrespons": 2683,
    "Ġfrantically": 23261,
    "Ġfidget": 15193,
    "ties": 2758,
    "presented": 12996,
    "Ġreview": 18033,
    "Ġtransom": 22440,
    "Ġglorious": 11076,
    "involuntarily": 20418,
    "Ġcollinses": 19131,
    "allah": 5839,
    "ignorant": 13566,
    "bank": 10082,
    "Ġfelony": 18954,
    "geons": 15983,
    "Ġtoilette": 20496,
    "Ġoccasionally": 5590,
    "Ġreced": 15696,
    "Ġconsummate": 25311,
    "Ġcounterpane": 11344,
    "Ġrefusing": 11030,
    "Ġsurpassed": 25268,
    "prejudiced": 17300,
    "deceptive": 22153,
    "sens": 8096,
    "Ġbolt": 11335,
    "Ġach": 2620,
    "Ġtram": 11093,
    "Ġbattle": 5908,
    "Ġcommunication": 1869,
    "Ġmantle": 25275,
    "Ġsharper": 17182,
    "Ġconstrain": 2628,
    "Ġtill": 1822,
    "Ġinto": 646,
    "grained": 20885,
    "Ġcomprehended": 11295,
    "Ġdisasters": 16058,
    "Ġunflinching": 26514,
    "tural": 21069,
    "Ġby": 383,
    "ention": 856,
    "carry": 19529,
    "stonecraft": 24356,
    "icism": 13959,
    "Ġhard": 1443,
    "Ġcath": 17828,
    "Ġdifficult": 3571,
    "ribed": 7693,
    "Ġanat": 8124,
    "Ġnot": 413,
    "Ġbest": 1974,
    "ume": 4837,
    "ply": 6366,
    "concerted": 16674,
    "Ġremedy": 18725,
    "rist": 10125,
    "accompl": 9883,
    "Ġloft": 5642,
    "Ġtower": 8319,
    "Ġdoor": 1739,
    "Ġph": 1550,
    "virt": 15454,
    "Ġpebbles": 16133,
    "quer": 11683,
    "Ġcapacious": 19178,
    "toed": 18579,
    "agatha": 21912,
    "Ġlashings": 25100,
    "ifying": 5252,
    "Ġauthent": 14514,
    "Ġhedge": 8364,
    "Ġcausal": 3408,
    "Ø": 153,
    "ocris": 23711,
    "police": 10586,
    "Ġadvantages": 9808,
    "Ġdampening": 2892,
    "Ġ131": 24781,
    "Ġnormalizing": 1819,
    "great": 3516,
    "mrs": 3745,
    "attery": 18509,
    "Ġtougher": 21179,
    "Ġpreparing": 8651,
    "Ġlands": 6595,
    "previously": 17210,
    "lashed": 20956,
    "Ġdismissed": 12898,
    "adr": 6994,
    "Ġmiscellaneous": 17465,
    "Ġplainpal": 19279,
    "suitableness": 26262,
    "iluvian": 18063,
    "Ġsuspicion": 6212,
    "Ġsalvation": 14760,
    "Ġsally": 15505,
    "itory": 12572,
    "Ġtheoretic": 23313,
    "Ġspinal": 12306,
    "Ġdecidedly": 9512,
    "burg": 16775,
    "Ġmurderers": 16813,
    "Ġacquiring": 2766,
    "Ġstars": 6150,
    "Ġstaggering": 20276,
    "prise": 7726,
    "Ġmeanly": 12915,
    "Ġgroan": 13328,
    "Ġpositions": 2059,
    "july": 20478,
    "tranquil": 25871,
    "Ġone": 569,
    "Ġcroquet": 9965,
    "rising": 7557,
    "instinct": 19546,
    "Ġuniformly": 19149,
    "arming": 8954,
    "Ġfrank": 4421,
    "Ġcalculates": 13268,
    "Ġrecollected": 8311,
    "Ġequinoctial": 20535,
    "Ġlieutenant": 15265,
    "ickering": 22673,
    "ous": 477,
    "ulus": 21868,
    "Ġaddressing": 11165,
    "script": 11078,
    "Ġnoble": 3437,
    "Ġtasks": 1788,
    "Ġdespaired": 14671,
    "Ġaids": 12233,
    "ier": 1135,
    "deaux": 22152,
    "D": 40,
    "Ġsuggest": 5417,
    "Ġemac": 16410,
    "treat": 12518,
    "Ġhaz": 12761,
    "childhood": 16870,
    "Ġreceive": 4704,
    "Ġexploitation": 2345,
    "Ġlagged": 21561,
    "Ġminds": 6304,
    "Ġwarmup": 3920,
    "idge": 14017,
    "Ġautumn": 14513,
    "Ġnewfound": 22935,
    "Ġdiddled": 22670,
    "Ġhandle": 3134,
    "morning": 4860,
    "sharp": 10310,
    "Ġconsider": 2568,
    "announced": 19762,
    "inguished": 6599,
    "asters": 8435,
    "pon": 17627,
    "Ġlogits": 3447,
    "wonders": 17146,
    "ĠâĢĶ": 13814,
    "iters": 21332,
    "Ġpurposes": 11169,
    "Ġtrade": 2546,
    "Ġlashing": 11618,
    "Ġpads": 21477,
    "Ġapproach": 851,
    "Ġdepression": 21837,
    "Ġrichest": 26213,
    "satisf": 5781,
    "passed": 8026,
    "Ġoperated": 14549,
    "Ġofficers": 4427,
    "x": 92,
    "Ġclerks": 17298,
    "Ġcounsell": 25385,
    "gage": 13726,
    "jo": 3751,
    "Ġrect": 18028,
    "Ġchemical": 10412,
    "Ġscandal": 9084,
    "Ġswallow": 8953,
    "cour": 4481,
    "Ġfrenchman": 11284,
    "dependence": 17170,
    "Ġclothe": 4712,
    "assed": 6421,
    "combe": 7662,
    "ports": 13777,
    "Ġgiver": 21608,
    "Ġdegenerating": 25800,
    "Ġessays": 19747,
    "Ġgenial": 12199,
    "Ġjuggl": 20441,
    "Ġsermons": 20197,
    "Ġanecd": 20157,
    "departed": 24793,
    "Ġgarments": 15197,
    "Ġwapping": 21297,
    "Ġequilibrium": 4140,
    "Ġincluded": 8959,
    "Ġburied": 7718,
    "arabian": 26448,
    "Ġbowled": 23772,
    "minute": 11275,
    "misrepresented": 24214,
    "Ġgamming": 25543,
    "Ġoutwardly": 25001,
    "arbuck": 2025,
    "Ġthick": 3783,
    "Ġperformance": 1307,
    "Ġconcrete": 20640,
    "byter": 16217,
    "air": 1001,
    "vious": 1784,
    "decoder": 3645,
    "ay": 355,
    "Ġruinous": 24634,
    "amused": 21850,
    "Ġinsp": 2101,
    "Ġparmacetti": 20607,
    "advancing": 14839,
    "uger": 21106,
    "Ġdates": 6694,
    "Ġcoffins": 13253,
    "Ġwaif": 9378,
    "ieves": 4005,
    "Ġingenuity": 17166,
    "home": 7340,
    "Ġrecorded": 11294,
    "Ġparalle": 1411,
    "Ġassid": 18947,
    "Ġlately": 6387,
    "lished": 8383,
    "lac": 17591,
    "Ġmicrosc": 20679,
    "Ġpanegyric": 26451,
    "Ġsurmis": 23465,
    "Ġheath": 15706,
    "Ġwaterloo": 11985,
    "Ġtainted": 21173,
    "Ġhenry": 5197,
    "Ġthoughtful": 16196,
    "diminished": 20841,
    "dismal": 23499,
    "arranged": 19321,
    "Ġbes": 2659,
    "Ġphiladel": 23888,
    "Ġordered": 5833,
    "Ġcleanse": 24527,
    "Ġworm": 9165,
    "Ġexisted": 15762,
    "Ġrim": 21969,
    "Ġscot": 5643,
    "X": 60,
    "Ġpadded": 25039,
    "breakfast": 8691,
    "hering": 12820,
    "Ġthank": 3792,
    "Ġprofane": 13155,
    "Ġsystematically": 3736,
    "Ġtransports": 24280,
    "ious": 770,
    "herself": 4891,
    "Ġonset": 12716,
    "z": 94,
    "Ġinflamed": 13476,
    "winter": 10742,
    "Ġunsuccessful": 18258,
    "uced": 13803,
    "âĢĿ--": 21820,
    "Ġdrown": 6815,
    "likeness": 19481,
    "Ġbert": 4583,
    "ining": 3221,
    "overcoat": 19053,
    "Ġelias": 18635,
    "Ġpolynesian": 26027,
    "inders": 15984,
    "Ġsilken": 16382,
    "ont": 2621,
    "-": 17,
    "Ġinstigated": 18697,
    "Ġdigesting": 19812,
    "total": 17253,
    "Ġthrills": 24542,
    "Ġdaring": 8121,
    "Ġblank": 5951,
    "alogies": 25162,
    "Ġting": 8399,
    "Ġve": 1109,
    "manif": 14375,
    "grave": 16098,
    "affectionate": 24922,
    "Ġdemanded": 8327,
    "twist": 23704,
    "tried": 13797,
    "Ġworsh": 13004,
    "arb": 1567,
    "urday": 13998,
    "Ġcrows": 24034,
    "honey": 20907,
    "remembrance": 25703,
    "Ġswelled": 11089,
    "Ġabilities": 8871,
    "onsense": 6431,
    "scenes": 16245,
    "Ġvictim": 6098,
    "Ġunrivalled": 26521,
    "Ġinconven": 7587,
    "ê": 171,
    "Ġcrushed": 9426,
    "Ġperempt": 13677,
    "Ġlysander": 13142,
    "linen": 25258,
    "onse": 21252,
    "performed": 18345,
    "keenest": 25662,
    "door": 6194,
    "Ġtelescope": 17351,
    "sterns": 23371,
    "consumed": 25676,
    "awe": 20767,
    "Ġrus": 14095,
    "Ġvillainous": 25134,
    "glings": 23854,
    "cst": 10087,
    "Ġintegral": 25011,
    "Ġsting": 10862,
    "generally": 9438,
    "Ġwarehouse": 20420,
    "ippers": 17578,
    "Ġproof": 6154,
    "orrowed": 19292,
    "Ġgnashed": 20136,
    "Ġmermaids": 26171,
    "Ġbewil": 11660,
    "Ġimpertin": 6932,
    "Ġnarration": 13506,
    "Ġglared": 13018,
    "Ġreliably": 22883,
    "ontory": 10461,
    "Ġnarwhales": 24903,
    "Ġwounding": 19589,
    "interest": 5421,
    "Ġmultitudinous": 26275,
    "elsewhere": 19870,
    "87": 20759,
    "Ġpropont": 16353,
    "Ġclang": 15969,
    "oun": 483,
    "Ġpaste": 23422,
    "Ġpassive": 22842,
    "ward": 706,
    "paus": 13776,
    "Ġexerting": 21844,
    "unfort": 21880,
    "Ġgall": 4352,
    "Ġicy": 10749,
    "Ġreplen": 11114,
    "Ġmorphology": 3009,
    "oc": 2831,
    "tch": 9144,
    "Ġfid": 10805,
    "Ġpartly": 6714,
    "Ġsituated": 9450,
    "Ġdesigned": 7740,
    "Ġtrunks": 15968,
    "Ġrouse": 15825,
    "Ġtargets": 4205,
    "Ġboxes": 13377,
    "Ġslaugh": 18940,
    "olidity": 18134,
    "sighted": 19788,
    "Ġexpected": 3697,
    "Ġsallow": 12541,
    "window": 7742,
    "arts": 6564,
    "Ġroad": 3880,
    "Ġbutler": 18271,
    "Ġpurely": 12236,
    "Ġblown": 12090,
    "addressed": 13388,
    "Ġcastors": 23979,
    "Ġretrie": 10385,
    "Ġperhaps": 1910,
    "Ġethiop": 26156,
    "?âĢĻâĢĿ": 23644,
    "Ġclust": 9277,
    "piling": 15418,
    "among": 6257,
    "ogn": 2472,
    "Ġarter": 22186,
    "ru": 478,
    "Ġreturn": 1711,
    "Ġgladly": 14683,
    "Ã¦us": 14819,
    "Ġmoodily": 19837,
    "Ġabode": 7901,
    "Ġfrequently": 4680,
    "Ġpit": 3417,
    "brown": 15321,
    "stern": 8446,
    "Ġadmits": 23555,
    "Ġpush": 9187,
    "ivation": 3108,
    "Ġaddressed": 5263,
    "ishe": 13894,
    "success": 6711,
    "Ġdesperately": 24657,
    "nne": 20991,
    "Ġunex": 11717,
    "Ġpuppy": 12409,
    "thoroughly": 26510,
    "acknowledging": 25477,
    "wherever": 13122,
    "Ġunnearable": 26518,
    "reluct": 26164,
    "furnish": 25339,
    "Ġsuspected": 9065,
    "kish": 20936,
    "Ġburns": 16524,
    "Ġeighty": 19479,
    "Ú": 155,
    "consent": 18502,
    "Ġkl": 2734,
    "Ġfates": 15582,
    "Ġabased": 22282,
    "hound": 20897,
    "Ġlawyers": 25249,
    "aps": 1227,
    "alone": 10186,
    "mortals": 25410,
    "Ġeve": 13973,
    "scor": 13020,
    "report": 13402,
    "Ġdeft": 21833,
    "usations": 15951,
    "Ġperusal": 14227,
    "Ġsignal": 5945,
    "Ġcoefficient": 2881,
    "more": 1031,
    "Ġlodger": 24096,
    "umbered": 22121,
    "Ġpassengers": 13679,
    "ason": 1247,
    "paused": 17377,
    "Ġdiscourage": 3114,
    "Ġhval": 21491,
    "tottenham": 25419,
    "Ġlawn": 7378,
    "Ġidiot": 11976,
    "ocean": 12405,
    "Ġdundee": 16999,
    "ĠĠĠĠĠĠ": 6414,
    "rene": 5379,
    "Ġgranite": 22810,
    "Ġbarque": 23793,
    "ically": 848,
    "Ġgreyish": 24211,
    "idual": 1562,
    "Ġfel": 1518,
    "Ġanx": 3179,
    "heads": 4094,
    "Ġmournful": 12340,
    "Ġweighty": 16035,
    "Ġmarvellous": 7538,
    "Ġcrabs": 19176,
    "jets": 20930,
    "Ġced": 10786,
    "travel": 24337,
    "food": 12468,
    "Ġcrocod": 19631,
    "doublo": 24661,
    "Ġdetection": 3154,
    "ow": 325,
    "into": 3680,
    "ordinary": 4409,
    "Ġplans": 7918,
    "punishment": 15149,
    "Ġsearching": 13165,
    "berwell": 22724,
    "orified": 21405,
    "Ġexasperated": 11413,
    "Ġbraces": 14672,
    "laughed": 20284,
    "case": 5206,
    "Ġbuildings": 24719,
    "Ġago": 3133,
    "Ġmeekly": 26492,
    "Ġimprovement": 7966,
    "batross": 9096,
    "appre": 14372,
    "disputed": 23502,
    "Ġthrilling": 19751,
    "Ġspear": 9317,
    "Ġutterance": 14766,
    "Ġsick": 4693,
    "Ġresolved": 3798,
    "speaking": 12103,
    "Ġserenity": 10031,
    "ks": 3142,
    "purse": 20028,
    "Ġpurch": 6600,
    "Ġsped": 22129,
    "Ġvesuvius": 26503,
    "Ġblessing": 11264,
    "Ġshaft": 18230,
    "itive": 6670,
    "Ġresource": 10994,
    "third": 8168,
    "Ġseem": 912,
    "Ġservants": 6611,
    "itations": 17819,
    "ighbour": 3386,
    "Ġstacked": 21747,
    "Ġprom": 1528,
    "Ġcemet": 20683,
    "Ġtingling": 15096,
    "Ġdevelopment": 7058,
    "Ġgreat": 894,
    "Ġsustained": 13485,
    "lo": 680,
    "Ġlurid": 19684,
    "def": 1454,
    "Ġcrumpled": 16441,
    "rodu": 1815,
    "ĠĠĠĠĠĠĠĠĠĠĠĠĠĠĠĠĠĠĠĠĠĠĠĠĠ": 24442,
    "Ġveracity": 23892,
    "1775": 26380,
    "Ġrear": 6536,
    "rec": 6004,
    "Ġclever": 7055,
    "osis": 18390,
    "Ġgovern": 10452,
    "immense": 18055,
    "Ġingratitude": 17471,
    "Ġpersu": 3563,
    "iloquent": 21729,
    "Ġdesist": 16239,
    "Ġcring": 15556,
    "Ġsurvivors": 25732,
    "Ġslo": 15509,
    "iness": 1280,
    "leagues": 21376,
    "ley": 1813,
    "Ġvort": 18194,
    "Ġvancouver": 26567,
    "Ġmedd": 15543,
    "Ġaltering": 18105,
    "Ġaccess": 9750,
    "Ġbind": 12588,
    "Ġneighb": 14079,
    "ousness": 10277,
    "signs": 16541,
    "Ġthoughtfulness": 18775,
    "Ġoverheard": 11778,
    "Ġcredulous": 17147,
    "Ġcrotch": 9966,
    "Ġhardened": 14453,
    "2": 22,
    "Ġhumbled": 16201,
    "Ė": 215,
    "Ġtis": 15468,
    "Ġputting": 5327,
    "Ġlanc": 19767,
    "Ġstall": 12702,
    "Ġmeasured": 9809,
    "Ġaux": 21202,
    "7": 27,
    "Ġcomfor": 14057,
    "expressive": 24307,
    "Ġcashier": 20201,
    "driver": 14924,
    "missing": 13223,
    "Ġlace": 13952,
    "uv": 6230,
    "Ġdoxology": 22248,
    "Ġrealising": 18983,
    "kov": 17588,
    "Ġunharmed": 15143,
    "Ġhatchet": 16531,
    "occurrences": 26333,
    "currents": 23848,
    "Ġclinging": 10294,
    "Ġ(âĢľ": 15999,
    "nowadays": 22342,
    "Ġplanisp": 24060,
    "Ġobliv": 16137,
    "Ġacquitted": 18900,
    "Ġbarrel": 23794,
    "Ġmanoir": 22335,
    "Ġpredestinated": 18527,
    "asher": 15650,
    "shavings": 22469,
    "Ġconcer": 23323,
    "idually": 21773,
    "Ġdreaming": 11224,
    "Ġstripped": 10467,
    "Ġrussia": 26269,
    "Ġcompass": 4410,
    "Ġ8": 5433,
    "comprehens": 16181,
    "destroyed": 15264,
    "Ġallows": 3233,
    "Ġ150": 22830,
    "Ġproudly": 19745,
    "Ġperplexed": 23660,
    "irksome": 18175,
    "Ġprot": 3847,
    "circumstances": 8047,
    "Ġpanther": 16821,
    "isp": 5528,
    "Ġslip": 8957,
    "consp": 18503,
    "Ġfeebly": 24878,
    "escript": 18477,
    "Ġhus": 3091,
    "Ġconjured": 25102,
    "Ġ80": 24456,
    "Ġconfess": 3766,
    "Ġprovinc": 16744,
    "ange": 1019,
    "Ġwidespread": 20678,
    "Ġpriv": 4184,
    "Ġhookah": 16972,
    "Ġdeline": 16337,
    "Ġbeeches": 9229,
    "owders": 18050,
    "Ġvenerable": 9097,
    "Ġstraightened": 12113,
    "Ġhelmet": 19690,
    "Ġjustification": 22969,
    "Ġresided": 11815,
    "mouthed": 12404,
    "Ġnorthwards": 19549,
    "Ġglimpses": 13435,
    "Ġdestroyed": 5272,
    "Ġconcluding": 9860,
    "restraint": 18980,
    "Ġsure": 1864,
    "oppressed": 24821,
    "Ġdecreases": 3407,
    "Ġpence": 17907,
    "imprisonment": 23765,
    "included": 19210,
    "quarter": 11389,
    "oforte": 14289,
    "Ġlived": 3990,
    "Ġtest": 1557,
    "ĠĠĠĠĠĠĠĠĠĠĠĠĠĠĠĠĠĠĠĠĠĠĠĠĠĠĠĠĠĠĠĠĠĠĠĠĠĠĠĠĠĠĠĠĠĠĠĠĠĠĠĠĠ": 20043,
    "ustry": 18358,
    "Ġresume": 18566,
    "Ġresounded": 22548,
    "Ġcaves": 15558,
    "commanded": 16990,
    "Ġtender": 5753,
    "!_âĢĿ": 11377,
    "muttered": 13762,
    "Ġflannel": 26579,
    "Ġmarks": 6747,
    "Ġpriests": 15043,
    "Ġcraft": 4378,
    "scent": 13021,
    "Ġgnarled": 25169,
    "Ġseclusion": 18209,
    "bation": 9106,
    "Ġtepid": 26414,
    "hemat": 3126,
    "Ġretain": 7863,
    "Ġperfect": 2555,
    "Ġpad": 8125,
    "idav": 18095,
    "Ġconducting": 16652,
    "upt": 13801,
    "Ġhero": 5715,
    "Ġarctic": 12817,
    "Ġincoherent": 17403,
    "Ġsilence": 3266,
    "Ġenlist": 21940,
    "1": 21,
    "Ġmoses": 21318,
    "ifice": 7197,
    "Ġprettier": 23768,
    "Ġsocietal": 11437,
    "N": 50,
    "Ġ$": 21153,
    "Ġ72": 19614,
    "Ġmargin": 11925,
    "Ġnone": 3223,
    "ercely": 12555,
    "Ġshouldn": 14328,
    "Ġcaring": 23094,
    "Ġinvestig": 10552,
    "Ġpermanent": 13634,
    "edd": 1229,
    "unwillingly": 21888,
    "đ": 210,
    "Ġrequiring": 2919,
    "covery": 11172,
    "Ġconcil": 23324,
    "too": 4509,
    "stairs": 5155,
    "Ġsymptom": 13486,
    "Ġclipping": 2438,
    "Ġsurvived": 14937,
    "bulk": 19926,
    "invincible": 25092,
    "alice": 3208,
    "Ġjac": 1897,
    "Ġbathe": 25444,
    "Ġpratt": 23222,
    "contrasted": 17309,
    "Ġbetake": 22908,
    "flitted": 23972,
    "Ġsnarl": 25714,
    "etical": 13961,
    "Ġapex": 24342,
    "Ġfringe": 17274,
    "Ġelaborate": 18637,
    "grounds": 11152,
    "Ġhook": 6453,
    "Ġrashness": 25461,
    "Ġjust": 1238,
    "Ġvitality": 15176,
    "Ġor": 436,
    "Ġgable": 15671,
    "mering": 12495,
    "Ġghost": 6143,
    "Ġbenches": 18782,
    "chess": 16576,
    "Ġmess": 7831,
    "Ġsolely": 9913,
    "Ġnugent": 26459,
    "Ġspent": 3963,
    "danger": 10092,
    "heim": 17748,
    "luding": 6701,
    "su": 799,
    "Ġencourag": 1391,
    "Ġglobu": 23274,
    "Ġadroop": 26002,
    "flex": 24844,
    "Ġtalks": 23373,
    "Ġuppermost": 15282,
    "Ġsuckling": 25998,
    "sive": 4143,
    "romised": 14115,
    "omach": 11637,
    "Ġsofa": 10271,
    "umpled": 15880,
    "quohog": 21862,
    "Ġprofundities": 20456,
    "Ġentries": 22745,
    "Ġgrasped": 8034,
    "cra": 6355,
    "north": 14618,
    "ompl": 4537,
    "Ġsomewhere": 5384,
    "04": 10682,
    "Ġexploring": 4305,
    "Ġvine": 8473,
    "transom": 19738,
    "possibility": 13365,
    "Ġledger": 19405,
    "Ġinjury": 10543,
    "Ġgreenhorn": 23771,
    "Ġnature": 2537,
    "Ġbegin": 3097,
    "Ġlightning": 5750,
    "estic": 4956,
    "Ġxxxiv": 24970,
    "Ġpoetic": 17104,
    "heartily": 24218,
    "Ġvaulted": 25171,
    "retched": 3067,
    "Ġbarbara": 24815,
    "rabbit": 20594,
    "Ġcorroded": 18877,
    "Ġrelics": 16200,
    "oman": 2018,
    "Ġretains": 20033,
    "Ġcommander": 8628,
    "treated": 21097,
    "Ġproperties": 3116,
    "Ġseeking": 7036,
    "Ġlifelessly": 23053,
    "Ġsadness": 13290,
    "required": 17031,
    "absolute": 17125,
    "fears": 18533,
    "Ġcareful": 2612,
    "Ġconsented": 11296,
    "Ġocc": 886,
    "Ġtierce": 15481,
    "Ġdisastrous": 16064,
    "Ġxxxii": 24973,
    "couldn": 23720,
    "Ġcorp": 5574,
    "Ġsurvive": 9069,
    "Ġtowers": 16740,
    "thinks": 16644,
    "Ġgoes": 3852,
    "ulate": 5233,
    "Ġceti": 24772,
    "Ġscraps": 16904,
    "Ġlancaster": 26342,
    "Ġtreacher": 8608,
    "Ġpurchas": 19876,
    "\"],": 26121,
    "Ġdared": 5440,
    "Ġaccumulated": 11935,
    "inois": 17740,
    "Ġweld": 8112,
    "private": 13585,
    "Ġoct": 10161,
    "Ġatrocious": 21947,
    "hor": 2571,
    "Ġincred": 5646,
    "icting": 12861,
    "gument": 20887,
    "ignation": 11129,
    "ounds": 4156,
    "Ġinst": 909,
    "Ġstum": 21735,
    "Ġcommenting": 25229,
    "Ġinter": 728,
    "Ġseparation": 11247,
    "erer": 8735,
    "ucumber": 19058,
    "Ġdispositions": 13236,
    "Ġprone": 18969,
    "Ġmemory": 2274,
    "uncont": 15778,
    "hamed": 6306,
    "pertaining": 22192,
    "Ġix": 12672,
    "ö": 183,
    "Ġgermany": 25786,
    "Ġringing": 13335,
    "Ġunremitting": 26219,
    "Ġchasing": 11758,
    "inarticulate": 21198,
    "Ġdistressing": 12223,
    "Ġcocoan": 20319,
    "Ġansw": 2204,
    "Ġshakes": 10905,
    "discrimin": 19611,
    "Ġpiny": 21473,
    "Ġpalm": 10516,
    "Ġpresents": 8245,
    "isure": 6241,
    "Ġconvul": 13206,
    "Ġdeaden": 23462,
    "ucket": 2482,
    "itt": 572,
    "Ġtokens": 1773,
    "Ġtwos": 18657,
    "Ġsch": 13838,
    "Ġquote": 18467,
    "fallen": 19662,
    "walking": 9985,
    "Ġwarmed": 12028,
    "Ġvile": 8474,
    "snatched": 24851,
    "Ġsettles": 22923,
    "Ġsill": 10767,
    "Ġscolded": 25473,
    "Ġmarrying": 6178,
    "Ġwives": 12560,
    "Ġrace": 5848,
    "Ġappeal": 16317,
    "mpus": 13760,
    "Ġslashing": 23174,
    "Ġhappening": 14386,
    "Ġcomputers": 2644,
    "extent": 22755,
    "asant": 17961,
    "Ġscrew": 8867,
    "Ġtit": 8400,
    "Ġaristotle": 25818,
    "velling": 14765,
    "Ġoutward": 7904,
    "kily": 20939,
    "ference": 1881,
    "Ġmonkey": 8226,
    "Ġdirected": 5579,
    "Ġhorner": 8961,
    "Ġpresentiment": 18989,
    "Ġphysical": 7522,
    "Ġdetaining": 25819,
    "Ġgamesome": 17292,
    "Ġdetained": 18373,
    "Ġmagnetic": 17243,
    "Ġawe": 7147,
    "Ġsolemn": 4099,
    "Ġfrowning": 13626,
    "Ġproceeding": 9909,
    "itzerland": 9998,
    "Ġaffability": 14390,
    "infallibly": 26419,
    "Ġpersecut": 16954,
    "Ġgentleman": 3041,
    "ĥ": 230,
    "Ġuser": 15920,
    "Ġnightfall": 23135,
    "earthly": 24723,
    "stall": 21649,
    "'t": 3141,
    "Ġdick": 3496,
    "Ġlent": 21550,
    "Ġconsid": 1810,
    "Ġcomfortably": 16617,
    "hero": 21207,
    "Ġcreates": 2009,
    "pump": 21019,
    "ici": 8441,
    "embers": 21931,
    "Ġmaiden": 13389,
    "clay": 18933,
    "Ġrage": 5110,
    "Ġmaw": 15544,
    "sincerely": 24585,
    "offer": 19060,
    "Ġpace": 9186,
    "diligence": 26111,
    "earnestly": 17316,
    "Ġcheese": 9380,
    "Ġintric": 9249,
    "Ġlargest": 6283,
    "Ġimpulsive": 19966,
    "Ġprecision": 13192,
    "Ġtorrents": 20059,
    "Ġhurts": 19113,
    "ires": 6039,
    "white": 4603,
    "Ġsincerity": 13682,
    "Ġstray": 18072,
    "Ġhap": 18196,
    "Ġduration": 20356,
    "beyond": 8886,
    "Ġadult": 18290,
    "Ġghosts": 12237,
    "abound": 15744,
    "com": 1005,
    "Ġepistle": 24905,
    "Ġdeuteronomy": 15761,
    "Ġscreamed": 9527,
    "came": 4571,
    "tranquillity": 20549,
    "canoes": 16233,
    "Ġnewsp": 9342,
    "Ġalman": 21785,
    "Ġscarcity": 23830,
    "Ġinfirm": 19022,
    "riot": 18186,
    "Ġhove": 17925,
    "Ġpatroness": 13512,
    "Ġshank": 22001,
    "Ġlucases": 9013,
    "Ġmutual": 8297,
    "Ġcongregation": 12333,
    "Ġgrinning": 9056,
    "Ġconcentration": 25065,
    "ieties": 19027,
    "irra": 15789,
    "Ġevince": 24295,
    "Ġechoed": 20427,
    "dense": 18717,
    "Ġemployment": 8632,
    "Ġbubbling": 17329,
    "Ġdevouring": 11862,
    "Ġuncontrollable": 25815,
    "Ġshudderings": 25201,
    "Ġthankful": 14741,
    "Ġremark": 2144,
    "Ġthomson": 26456,
    "Ġvoid": 14089,
    "Ġdu": 4585,
    "Ġhosmer": 6774,
    "Ġcolumbus": 26566,
    "Ġaccompany": 9490,
    "Ġdistressed": 8515,
    "Ġexception": 11217,
    "Ġprovocation": 24194,
    "Ġhanding": 16134,
    "crimson": 24090,
    "fact": 6359,
    "Ġsquared": 1381,
    "end": 498,
    "Ġwooded": 23521,
    "Ġgrie": 3583,
    "Ġchaplain": 19914,
    "Ġfreedom": 9085,
    "vocation": 25087,
    "Ġindividual": 5744,
    "Ġbun": 6007,
    "Ġsparsity": 4208,
    "Ġans": 1644,
    "Ġpickle": 16724,
    "Ġsequentially": 4915,
    "Ġsumm": 3353,
    "Ġscenes": 5730,
    "added": 11662,
    "ientific": 6548,
    "icherry": 15139,
    "Ġchivalry": 25820,
    "edmund": 17948,
    "Ġpretend": 7721,
    "carpet": 25203,
    "Ġinfirmity": 26299,
    "Ġpurchasing": 19877,
    "endless": 22227,
    "intense": 22939,
    "Ġapologizing": 25198,
    "aternity": 21268,
    "Ġuncompromised": 20606,
    "Ġcongeal": 25981,
    "Ġoutset": 15959,
    "Ġfedallah": 6109,
    "Ġtrough": 15967,
    "Ġcuba": 25098,
    "Ġpatagonia": 25859,
    "Ġreservo": 16833,
    "swept": 19789,
    "Ġcompleted": 9000,
    "Ġticking": 25036,
    "dwell": 15345,
    "linked": 17595,
    "depth": 12806,
    "Ġceased": 6468,
    "Ġmaintainable": 12941,
    "Ġmarshy": 20221,
    "Ġmutter": 23957,
    "Ġremoved": 5275,
    "Ġlaz": 7377,
    "odecimo": 11445,
    "Ġinvade": 19144,
    "Ġsideboard": 10388,
    "talked": 14988,
    "Ġsulky": 13517,
    "goodbye": 12060,
    "âĢĶâĢĺ_": 24832,
    "Ġresemblance": 7974,
    "chors": 11647,
    "Ġdemean": 12726,
    "experience": 17161,
    "opp": 6962,
    "Ġprematurely": 24009,
    "Ġrespite": 13157,
    "Ġhump": 5854,
    "Ä": 133,
    "Ġglim": 9346,
    "enesis": 24388,
    "Ġbackward": 7655,
    "'d": 12431,
    "Ġpledge": 11603,
    "Ġyounge": 16291,
    "wholly": 10942,
    "clu": 20801,
    "forecastle": 10991,
    "err": 1140,
    "Ġdisgu": 8206,
    "mblings": 19783,
    "Ġreserved": 7515,
    "liked": 10511,
    "Ġparl": 8178,
    "rug": 18337,
    "Ġowes": 20088,
    "Ġforeheads": 23450,
    "surpr": 5997,
    "ozy": 17624,
    "Ġspit": 22128,
    "Ġmultiplication": 2868,
    "Ġmagnet": 10393,
    "ĠâĢĺ_": 11118,
    "Ġfur": 988,
    "unquiet": 21885,
    "âĢĿ]": 21819,
    "ogany": 18673,
    "swaying": 25911,
    "Ġpiqu": 21480,
    "ething": 1602,
    "Ġpostscript": 14810,
    "Ġproduce": 4368,
    "heidelburgh": 21214,
    "Ġglens": 18850,
    "ease": 12462,
    "Ġparamet": 603,
    "conclusive": 25674,
    "neat": 22452,
    "Ġwakeful": 24269,
    "era": 13850,
    "Ġlids": 12280,
    "Ġcoward": 7155,
    "Ġenvelop": 5587,
    "Ġloitering": 22120,
    "prosperity": 20737,
    "Ġbeggars": 20632,
    "Ġexceeded": 14436,
    "ĠĠĠĠĠĠĠĠĠĠĠĠĠĠĠĠĠĠĠĠĠĠĠĠĠĠ": 13391,
    "ures": 837,
    "Ġprofessions": 11232,
    "Ġanyone": 4460,
    "Ġgrapnels": 25552,
    "Ġlandowner": 23384,
    "sideways": 14573,
    "Ġpenetrated": 13475,
    "Ġlap": 8438,
    "Ġorganisation": 23585,
    "attempt": 9363,
    "Ġlandsmen": 11352,
    "Ġaught": 8777,
    "Ġcourtiers": 24138,
    "Ġripple": 25505,
    "Ġcre": 887,
    "Ġbitter": 4172,
    "peleg": 16297,
    "Ġcrib": 21351,
    "Ġri": 3392,
    "leads": 21373,
    "Ġstaff": 14009,
    "'s": 2467,
    "iary": 15374,
    "Ġflush": 14427,
    "ilst": 8144,
    "Ġhoops": 9392,
    "Ġconclusions": 10556,
    "Ġworshippers": 25694,
    "ortion": 11761,
    "Ġadversity": 24305,
    "Ġabstra": 22285,
    "prevented": 20377,
    "Ġcontrivances": 12361,
    "Ġshouts": 19540,
    "Ġrepublic": 14533,
    "Ġbargain": 23795,
    "Ġconsiderations": 9413,
    "Ġgreater": 3038,
    "Ġsplinter": 23750,
    "Ġhelping": 3265,
    "Ġdusting": 24597,
    "ecess": 17534,
    "guinea": 16675,
    "enorm": 17783,
    "unwho": 21881,
    "servants": 15040,
    "superstitiousness": 25509,
    "loat": 8890,
    "collect": 16566,
    "Ġcordiality": 24395,
    "Ġencoura": 1366,
    "Ġir": 1993,
    "Ġscal": 1607,
    "Ġbarely": 16938,
    "claims": 25320,
    "Ġpersonal": 7479,
    "Ġreceived": 2949,
    "horizon": 23617,
    "Ġrenegades": 26478,
    "Ġchal": 18379,
    "earth": 6502,
    "Ġdepths": 4327,
    "amount": 10885,
    "ple": 455,
    "Ġairs": 14515,
    "Ġperformed": 8548,
    "Ġpres": 9735,
    "vels": 5432,
    "Ġhieroglyphic": 25588,
    "Ġmodels": 753,
    "zag": 17715,
    "extinguish": 22758,
    "wood": 5898,
    "dun": 17518,
    "Ġphilistines": 26083,
    "Ġexcess": 3340,
    "Ġosc": 2832,
    "Ġincumbent": 16066,
    "Ġnook": 15932,
    "tic": 8391,
    "Ġbalmy": 22907,
    "Ġintegr": 7969,
    "phia": 22774,
    "Ġunwound": 24829,
    "Ġcasualty": 20344,
    "Ġbarbs": 10534,
    "proposal": 18766,
    "Ġdoes": 941,
    "urer": 18124,
    "visits": 24226,
    "sculpt": 16246,
    "tar": 8098,
    "mistaken": 12215,
    "despair": 8344,
    "scy": 21058,
    "sorrows": 17323,
    "odecimoes": 25319,
    "Ġcore": 13881,
    "Ġgirl": 3084,
    "bres": 11472,
    "Ġwraps": 19779,
    "Ġspectre": 16633,
    "Ġmeryton": 4439,
    "subjects": 19878,
    "spade": 10342,
    "shows": 22462,
    "united": 14063,
    "ugl": 23292,
    "Ġhinge": 25542,
    "confirmed": 19643,
    "Ġruggedness": 26270,
    "fully": 2202,
    "Ġfebruary": 15917,
    "Ġchamber": 6214,
    "ready": 2357,
    "steaks": 23964,
    "Ġintervals": 5598,
    "Ġacceptable": 16746,
    "shudder": 26247,
    "Ġunostentatious": 22071,
    "rubbery": 17345,
    "cnns": 3621,
    "Ġmiguel": 25767,
    "Ġunerring": 15851,
    "Ġpap": 8802,
    "/`": 12433,
    "poke": 18799,
    "Ġdoze": 14179,
    "Ġchapel": 9526,
    "Ġarms": 3965,
    "Ġconsiderable": 4006,
    "already": 6980,
    "string": 15690,
    "Ġcoiled": 11824,
    "Ġcommands": 16591,
    "Ġsighing": 18679,
    "swed": 24256,
    "Ġoutline": 15958,
    "alive": 10829,
    "Ġtroubled": 6617,
    "Ġcommunity": 19011,
    "Ġuncouth": 14551,
    "Ġscores": 2713,
    "Ġrenowned": 26195,
    "Ġfrequencies": 4790,
    "ifted": 4496,
    "Ġguessed": 11283,
    "----âĢĿ": 13310,
    "Ġmien": 17810,
    "Ġembarks": 22971,
    "encouragement": 17426,
    "Ġcharles": 11961,
    "Ġradiant": 16811,
    "Ġuncommonly": 7759,
    "chase": 11648,
    "Ġrandomly": 1921,
    "sl": 5794,
    "Ġauthorized": 16737,
    "Ġdry": 5624,
    "Ġpitches": 23905,
    "Ġlifetime": 13605,
    "firmly": 20283,
    "repeated": 12343,
    "Ġcatching": 9481,
    "iliating": 12701,
    "desper": 13222,
    "detached": 19677,
    "killer": 20479,
    "Ġspas": 10923,
    "Ġfairly": 6326,
    "willingness": 24754,
    "Ġscraggy": 24580,
    "Ġunspeak": 8854,
    "Ġalco": 21786,
    "Ġdrow": 21429,
    "uerus": 26408,
    "Ġenormous": 5609,
    "instances": 13323,
    "Ġexe": 3994,
    "Ġprovoked": 13329,
    "Ġcoding": 8116,
    "Ġhop": 1462,
    "requ": 7148,
    "Ġunde": 11716,
    "Ġvirgin": 7327,
    "Ġdejected": 20307,
    "Ġfearlessness": 19163,
    "cible": 20808,
    "corn": 13703,
    "Ġdesirous": 8945,
    "Ġchamois": 16802,
    "labour": 23918,
    "Ġamounted": 18514,
    "Ġoverwhel": 8197,
    "val": 1163,
    "inconsiderable": 21194,
    "urred": 8451,
    "gd": 3122,
    "ire": 499,
    "Ġimpetus": 25570,
    "plexion": 14263,
    "hest": 3367,
    "Ġforetold": 23453,
    "Ġhabitations": 24788,
    "haustible": 16893,
    "angels": 22110,
    "fail": 17542,
    "Ġpunishment": 9959,
    "Ġoctavo": 15167,
    "Ġvoice": 2190,
    "alled": 5911,
    "violent": 14581,
    "turtle": 12216,
    "beg": 22491,
    "bond": 17492,
    "Ġvillain": 8639,
    "Ġzig": 18743,
    "adventurous": 25362,
    "Ġoversight": 22363,
    "gon": 17554,
    "transform": 8050,
    "Ġrespecting": 14486,
    "Ġcocaine": 20723,
    "Ġhymn": 24518,
    "Ġalbertus": 25649,
    "stupid": 12682,
    "ock": 15405,
    "osc": 18388,
    "Ġextras": 22762,
    "Ġshaped": 15838,
    "orers": 14106,
    "Ġjung": 12842,
    "Ġopposing": 12045,
    "heart": 4527,
    "Ġscheming": 23273,
    "Ġchips": 14184,
    "Ġjagged": 18408,
    "Ġbestow": 6455,
    "Ġglaring": 11912,
    "Ġtheories": 13852,
    "Ġdecap": 16024,
    "species": 13259,
    "Ġincites": 22555,
    "Ġmiseries": 10347,
    "Ġalthough": 4150,
    "paper": 9139,
    "aint": 2540,
    "ouble": 2660,
    "Ġdisturbing": 19949,
    "bishop": 13698,
    "hounds": 20909,
    "Ġsavann": 14686,
    "Ġasserted": 16951,
    "reliable": 21243,
    "Ġshiver": 12773,
    "Ġtremendous": 8353,
    "Ġparading": 23713,
    "sink": 11523,
    "Ġimpaling": 22387,
    "Ġunf": 4088,
    "yd": 21145,
    "Ġfirm": 3870,
    "Ġrare": 7037,
    "Ġcatch": 4442,
    "Ġtorch": 25033,
    "Ġag": 685,
    "Ġon": 351,
    "Ġmagn": 1558,
    "Ġchronicled": 25329,
    "Ġdecapitated": 20619,
    "deprived": 19900,
    "Ġcompatibility": 2957,
    "Ġgaze": 6931,
    "rew": 3649,
    "Ġwerter": 15243,
    "Ġuncomp": 15845,
    "Ġdeprec": 15759,
    "mysteries": 26051,
    "trad": 21078,
    "elopement": 23146,
    "strikes": 24671,
    "dishonourable": 26367,
    "(_": 7540,
    "atical": 10773,
    "Ġthump": 11613,
    "Ġgrieved": 8298,
    "aspect": 10196,
    "Ġladies": 3191,
    "Ġcircles": 7967,
    "Ġones": 3020,
    "dening": 22783,
    "Ġfearfulness": 23514,
    "Ġbroods": 23107,
    "terror": 18131,
    "rel": 3754,
    "coat": 5407,
    "greeting": 24554,
    "adieu": 26202,
    "yramid": 8368,
    "broker": 13308,
    "Ġrag": 18641,
    "Ġquant": 6424,
    "Ġuncl": 22018,
    "Ġunfelt": 24112,
    "ĠĠĠĠĠĠĠĠĠĠĠĠĠ": 22566,
    "Ġslavish": 23177,
    "Ġgenerously": 22405,
    "Ġprelimin": 8864,
    "Ġcompassion": 6487,
    "germ": 15360,
    "epend": 3313,
    "Ġmuteness": 19420,
    "Ġsinking": 7306,
    "ort": 521,
    "invisible": 17742,
    "Ġspouting": 9442,
    "Ġsog": 22080,
    "Ġfinds": 6300,
    "Ġboa": 22638,
    "Ġmonotonically": 3833,
    "Ġrelinquish": 17350,
    "Ġhides": 16266,
    "seventh": 12720,
    "attributed": 23125,
    "Ġbutt": 14128,
    "Ġwinking": 17795,
    "Ġvicissitudes": 12422,
    "Ġ85": 24460,
    "Ġmethodically": 23102,
    "Ġsavesoul": 26229,
    "Ġquakers": 22420,
    "spiracle": 22738,
    "Ġprofile": 16490,
    "Ġengland": 3856,
    "Ġprolong": 6831,
    "precipitance": 25868,
    "ĠâĢľâĢĶ": 9737,
    "Ġendeavours": 8621,
    "Ġrafters": 22658,
    "Ġanne": 1530,
    "Ġcontempl": 6702,
    "Ġdisapprobation": 16062,
    "/": 19,
    "Ġcruc": 16537,
    "Ġhurling": 19112,
    "fired": 20862,
    "Ġsounded": 8594,
    "Ġoutlined": 22324,
    "avenza": 17105,
    "Ġcoral": 11926,
    "Ġcities": 17829,
    "ptic": 21922,
    "remed": 18955,
    "Ġgo": 613,
    "nings": 9134,
    "!âĢĶ": 2451,
    "Ġdrows": 21438,
    "Ġinstincts": 16988,
    "Ġnosegay": 24195,
    "ber": 884,
    "Ġpure": 6138,
    "illation": 14144,
    "âĢĻ,": 14073,
    "imagine": 19934,
    "Ġmanilla": 15963,
    "masculine": 24387,
    "Ġcontinuation": 22921,
    "buffalo": 20566,
    "raint": 18318,
    "Ġscratches": 22276,
    "Ġmemorable": 16431,
    "Ġimpact": 10299,
    "Ġlooks": 4165,
    "Ġmonosy": 18847,
    "Ġrefinement": 18712,
    "Ġmarked": 4620,
    "Ġsuffers": 2972,
    "Ġcasting": 12105,
    "Ġtrades": 8232,
    "Ġobserve": 4671,
    "Ġ2026": 12339,
    "Ġpubl": 3940,
    "Ġsleeper": 8604,
    "shake": 22461,
    "Ġprinces": 23225,
    "programming": 10066,
    "oblig": 16294,
    "Ġdey": 11678,
    "Ġlabeled": 3718,
    "Ġcapsized": 20093,
    "ivial": 15867,
    "general": 7489,
    "Ġthousand": 2781,
    "Ġmasters": 11577,
    "Ġchildish": 13140,
    "Ġvalues": 2650,
    "Ġcreation": 6439,
    "Ġfury": 7661,
    "hur": 6650,
    "ims": 7176,
    "individual": 18437,
    "Ġappare": 12826,
    "ĠĠ": 353,
    "angu": 571,
    "Ġsculpture": 26017,
    "Ġwalker": 23311,
    "Ġspouted": 14677,
    "Ġepic": 15032,
    "actorily": 25577,
    "rudential": 16711,
    "Ġacquaintance": 4131,
    "lady": 4434,
    "Ġmountain": 3370,
    "presently": 9812,
    "Ġcords": 14882,
    "400": 20757,
    "ô": 181,
    "Ġswords": 19899,
    "Ġblasphemer": 26117,
    "Ġgrand": 3592,
    "umbrance": 22122,
    "Ġ70": 11277,
    "intelligent": 16846,
    "brill": 16493,
    "Ġhistory": 4007,
    "Ġpatagon": 14510,
    "Ġneedles": 11185,
    "roofed": 26185,
    "appro": 7045,
    "Ġvir": 7001,
    "Ġresponsiveness": 2894,
    "avers": 17483,
    "fetch": 12469,
    "trade": 19647,
    "Ġteased": 18808,
    "Ġfuriously": 9804,
    "Ġinsatiable": 19274,
    "Ġsnapping": 19303,
    "Ġresult": 4461,
    "infernal": 24663,
    "drop": 15340,
    "sig": 2871,
    "attracted": 13055,
    "================================================================": 9993,
    "Ġstabbed": 25457,
    "imod": 15714,
    "Ġhaggerston": 26454,
    "adm": 7609,
    "Ġnamed": 6140,
    "Ġfaire": 13368,
    "Ġvice": 6549,
    "Ġfeasible": 22215,
    "Ġrewarded": 14943,
    "ars": 902,
    "Ġshrew": 22004,
    "Ġstubbs": 23298,
    "day": 1858,
    "Ġthought": 1097,
    "Ġanalog": 12618,
    "izings": 14054,
    "enses": 10995,
    "Ġextract": 1614,
    "footsteps": 25200,
    "Ġbran": 5251,
    "Ġcloudless": 16671,
    "Ġlocking": 18299,
    "Ġladder": 8601,
    "Ġpouring": 12630,
    "bered": 4506,
    "Ġnarrowed": 24355,
    "Ġwalk": 1823,
    "Ġlighting": 13086,
    "questioning": 16852,
    "whispering": 26104,
    "Ġlima": 10444,
    "Ġhomeless": 23390,
    "Ġincurable": 22556,
    "unaccountable": 15783,
    "Ġcomforters": 25801,
    "ascar": 8436,
    "tumult": 12426,
    "continual": 20646,
    "Ġchange": 1994,
    "soever": 11864,
    "castles": 14638,
    "Ġusher": 22220,
    "damp": 15347,
    "Ġcemeteries": 26377,
    "cheeks": 23810,
    "cut": 3121,
    "Ġdelirium": 10407,
    "Ġwait": 4908,
    "Ġeuroc": 14962,
    "Ġindefinite": 17179,
    "income": 15489,
    "Ġcripple": 11441,
    "vens": 21115,
    "rents": 5310,
    "Ġdeployment": 11196,
    "Ġbottles": 16573,
    "Ġsig": 870,
    "Ġleaders": 16630,
    "Ġcedar": 15192,
    "saturday": 14861,
    "eyed": 11488,
    "madam": 24421,
    "ifle": 10892,
    "kles": 17586,
    "Ġopp": 2696,
    "Ġcott": 3709,
    "Ġcompared": 2226,
    "Ġdownst": 3559,
    "Ġglittering": 10056,
    "Ġmechanis": 1184,
    "Ġridic": 7508,
    "Ġjapanese": 10636,
    "Ġclear": 1950,
    "Ġwantest": 18791,
    "Ġdepos": 11004,
    "from": 1991,
    "Ġtesting": 23207,
    "nett": 16224,
    "Ġfundamental": 3013,
    "Ġbingleys": 18996,
    "Ġcontrari": 23350,
    "Ġfollowed": 1793,
    ";âĢĶ": 3750,
    "Ġwinchester": 10069,
    "------": 12138,
    "in": 262,
    "accessory": 25500,
    "Ġintelligence": 562,
    "Ġfanned": 19101,
    "Ġexpired": 18625,
    "Ġoozy": 21330,
    "li": 1188,
    "Ġrushes": 20511,
    "Ġgoble": 14232,
    "jep": 20928,
    "Ġwel": 4528,
    "riving": 21935,
    "Ġtrousers": 12418,
    "Ġovercame": 9749,
    "Ġbuilt": 8301,
    "showing": 22467,
    "Ġvacantly": 16817,
    ",--âĢľ": 19199,
    "Ġsuffoc": 18871,
    "Ġwrung": 14473,
    "Ġdestructive": 23488,
    "pleasure": 5978,
    "crowd": 25255,
    "Ġstructural": 2797,
    "Ġ75": 19615,
    "ishing": 1143,
    "Ġdescribes": 3119,
    "holes": 12058,
    "Ġsavagely": 26325,
    "Ġalgorith": 561,
    "Ġunfathomably": 25874,
    "Ġreneg": 21678,
    "estruct": 22231,
    "orders": 12880,
    "baboon": 25517,
    "unks": 15779,
    "gods": 13370,
    "xic": 9148,
    "Ġunappalled": 22067,
    "isle": 13895,
    "Ġsend": 4106,
    "Ġincredulity": 11312,
    "Ġrending": 19470,
    "Ġlooking": 2473,
    "carrying": 16714,
    "Ġmuffled": 10643,
    "harb": 9126,
    "america": 17098,
    "Ġgathers": 24742,
    "knowing": 10439,
    "dece": 11738,
    "Ġserene": 8167,
    "Ġslighted": 16570,
    "Ġ[_": 15464,
    "Ġedged": 23489,
    "Ġh": 290,
    "Ġbending": 12591,
    "Ġepidemic": 20698,
    "belais": 24041,
    "Ġdelicately": 24127,
    "host": 5868,
    "troubled": 17113,
    "Ġelud": 22646,
    "solved": 7685,
    "¡": 99,
    "wreck": 21139,
    "orses": 6052,
    "Ġener": 10897,
    "Ġexpl": 486,
    "sadly": 25527,
    "irect": 5553,
    "Ġpills": 21469,
    "Ġnoticing": 18225,
    "Ġrevolved": 9987,
    "Ġcomputes": 4769,
    "Ġerected": 12238,
    "Ġregretted": 13403,
    "happen": 19333,
    "Ġuniformity": 23485,
    "Ġrambles": 17187,
    "Ġbakers": 17868,
    "gia": 20878,
    "olet": 13769,
    "fare": 7798,
    "Ġdrunkard": 20180,
    "Ġanchors": 12619,
    "Ġvenge": 5420,
    "pain": 7349,
    "Ġfountains": 13505,
    "Ġenchantment": 24870,
    "unavoidable": 17393,
    "Ġcredited": 25157,
    "Ġinfiltrated": 23286,
    "Ġaf": 783,
    "weed": 14318,
    "ivil": 6411,
    "anger": 2172,
    "Ġ199": 3008,
    "Ġdimly": 9491,
    "task": 13796,
    "95": 17480,
    "eland": 11622,
    "civility": 17515,
    "regarding": 15075,
    "ilations": 21725,
    "encing": 21285,
    "Ġawoke": 7285,
    "Ġgar": 10840,
    "attempts": 17193,
    "Ġsank": 5076,
    ",)": 9104,
    "Ġlonging": 14302,
    "elly": 17982,
    "rage": 10844,
    "Ġshrunk": 16720,
    "Ġpoisonous": 24888,
    "Ġwildness": 14606,
    "qu": 369,
    "Ġwoeful": 19622,
    "Ġbra": 3253,
    "Ġfields": 2141,
    "Ġdeaths": 14539,
    "Ġratio": 5066,
    "Ġsebastian": 11702,
    "digger": 24312,
    "Ġrules": 1919,
    "Ġul": 6827,
    "Ġmarling": 23037,
    "Ġwrist": 8243,
    "edding": 4370,
    "Ġtusk": 25426,
    "Ġdetain": 14176,
    "critters": 14778,
    "Ġresentment": 7530,
    "Ġconveying": 19717,
    "huzza": 20915,
    "Ġreversed": 15701,
    "Ġsweatings": 25709,
    "Ġreap": 18029,
    "Ġmonths": 3452,
    "nui": 21002,
    "europe": 20668,
    "n": 82,
    "Ġsuck": 15865,
    "volutional": 1936,
    "Ġcalm": 3444,
    "empl": 5724,
    "Ġshrouded": 14972,
    "Ġsanguine": 25929,
    "Ġforcing": 3224,
    "itional": 22472,
    "itives": 17821,
    "Ġimpl": 7194,
    "Ġneighbor": 25806,
    "oder": 2456,
    "Ġcolonial": 22863,
    "anchor": 13892,
    "Ġvanished": 6873,
    "aying": 15754,
    "sake": 13786,
    "Ġroasted": 18461,
    "recur": 4438,
    "Ġimbec": 14159,
    "dick": 11480,
    "Ġyard": 5921,
    "Ġpractices": 19074,
    "Ġproofs": 19817,
    "Ġspikes": 22140,
    "cannibal": 15228,
    "frankenstein": 11392,
    "quakes": 21860,
    "icle": 10836,
    "Ġfamily": 1966,
    "horrible": 14603,
    "Ġmicha": 17813,
    "Ġscowl": 22275,
    "Ġobscured": 15013,
    "ultaneously": 4194,
    "Ġaccomplishments": 13382,
    "Ġvultures": 25654,
    "gardiner": 12295,
    "Ġwides": 17790,
    "Ġavowed": 16636,
    ")âĢĶ": 20744,
    "Ġgpt": 4351,
    "aid": 1922,
    "deficient": 23122,
    "Ġmeadows": 11423,
    "Ĩ": 233,
    "._": 3220,
    "Ġgangs": 21612,
    "Ġbeget": 9228,
    "Ġattaining": 15807,
    "Ġbapt": 13899,
    "Ġembarrassment": 10629,
    "Ġding": 12605,
    "ĠĠĠĠĠĠĠĠĠĠĠĠĠĠĠĠĠĠĠĠĠĠĠĠĠĠĠĠĠĠĠĠĠĠĠĠĠĠĠĠ": 4518,
    "Ġremoval": 12122,
    "Ġdesertion": 24786,
    "Ġtra": 1383,
    "hun": 5210,
    "Ġspasmodic": 20401,
    "airs": 2219,
    "vice": 15452,
    "ultaneous": 18583,
    "Ġglance": 4233,
    "rimsh": 17029,
    "Ġthirds": 16710,
    "determination": 19948,
    "Ġfolds": 12211,
    "lascar": 20962,
    "Ġcontains": 2792,
    "Ġpyramid": 8806,
    "Ġverily": 16605,
    "aan": 20766,
    "Ġwigwam": 11429,
    "Ġcondensed": 24055,
    "qualified": 17099,
    "hedge": 22503,
    "Ġoperation": 12003,
    "Ġtartar": 17325,
    "christmas": 20258,
    "Ġdefence": 11068,
    "Ġcommencement": 12243,
    "Ġcoach": 6866,
    "etition": 7381,
    "Ġplanning": 14754,
    "protested": 13477,
    "feeling": 6618,
    "Ġshapeless": 24524,
    "Ġmatrimonial": 25490,
    "Ġprodu": 1205,
    "Ġagon": 10323,
    "torture": 26152,
    "Ġblotting": 25314,
    "Ġbeware": 8832,
    "Ġcrowder": 19459,
    "shoulder": 16586,
    "Ġprophet": 7681,
    "ratulations": 20129,
    "Ġrinal": 21981,
    "Ġability": 2763,
    "Ġelijah": 9103,
    "Ġhardihood": 23116,
    "mare": 17601,
    "Ġdisconnected": 22529,
    "sorts": 21063,
    "shape": 10984,
    "Ġvisions": 12979,
    "Ġoffered": 5817,
    "abash": 18110,
    "Ġturning": 3325,
    "Ġflights": 24752,
    "Ġmanipulation": 10661,
    "Ġcocain": 18595,
    "entimes": 12662,
    "angered": 16182,
    "Ġfascinated": 25636,
    "cocks": 23563,
    "Ġear": 1423,
    "anse": 12581,
    "Ġlimped": 19183,
    "emper": 18183,
    "Ġpersuasions": 16634,
    "latitudes": 17199,
    "Ġbatch": 888,
    "like": 1885,
    "Ġcommonest": 23092,
    "Ġcunning": 6239,
    "bru": 12443,
    "Ă": 195,
    "jointed": 24013,
    "desire": 14664,
    "ele": 9117,
    "Ġfulfil": 9554,
    "goes": 10428,
    "Ġoccupied": 5273,
    "Ġassisting": 13260,
    "Ġdeg": 3279,
    "Ġbrute": 8930,
    "Ġchrysalis": 26540,
    "Ġgoverness": 8605,
    "problems": 11435,
    "Ġdug": 21433,
    "wheeler": 16192,
    "expound": 23662,
    "Ġperu": 14225,
    "laugh": 10111,
    "gging": 7697,
    "angling": 14143,
    "Ġunbroken": 18251,
    "Ġchil": 11755,
    "ends": 6038,
    "Ġdreary": 10410,
    "Ġsuccess": 3610,
    "Ġre": 317,
    "Ġcanallers": 13630,
    "Ġrecalled": 8539,
    "Ġtangles": 25762,
    "balanced": 14557,
    "algorith": 3471,
    "morn": 20978,
    "Ġbitterest": 12406,
    "germans": 20568,
    "Ġwhittling": 20702,
    "Ġtickets": 17095,
    "Ġrevealing": 3924,
    "Ġsabbee": 17258,
    "Ġfrayed": 23281,
    "condemned": 26061,
    "Ġuniversal": 2232,
    "Ġsumatra": 15290,
    "Ġharem": 9712,
    "Ġrustling": 24714,
    "Ġabrid": 22286,
    "surv": 24216,
    "pract": 10122,
    "Ġadequ": 10914,
    "Ġcomplied": 14737,
    "Ġmislead": 22765,
    "Ġcontinue": 5398,
    "ax": 694,
    "youn": 5690,
    "Ġwhaler": 7520,
    "#": 7,
    "Ġgoal": 10304,
    "Ġnow": 693,
    "conced": 22474,
    "Ġcommissionaire": 17002,
    "Ġproducts": 5198,
    "affection": 7487,
    "Ġportrait": 10664,
    "limin": 8384,
    "education": 20304,
    "Ġlodge": 5779,
    "Ġsemicircular": 26069,
    "Ġclearly": 6896,
    "Ġwhit": 7177,
    "Ġstation": 5299,
    "Ġabsent": 7015,
    "Ġnetworks": 599,
    "Ġinhaled": 25452,
    "Ġworldly": 16332,
    "Ġharvard": 24574,
    "Ġepit": 18009,
    "Ġequal": 4133,
    "civilities": 24974,
    "Ġhogshead": 26369,
    "Ġharmless": 9968,
    "Ġstaves": 21744,
    "dying": 15344,
    "Ġfamiliar": 5511,
    "Ġdz": 4757,
    "Ġsums": 2900,
    "Ġac": 844,
    "Ġfallen": 5968,
    "Ġaverse": 11081,
    "Ġtossing": 8126,
    "Ġwarden": 17227,
    "Ġsaville": 15893,
    "Ġherb": 15860,
    "thr": 12766,
    "Ġcher": 6130,
    "Ġnice": 6677,
    "poises": 11893,
    "Ġeduc": 4786,
    "Ġthey": 577,
    "Ġthrows": 14740,
    "Ġdashed": 6010,
    "Ġindirectly": 8942,
    "Ġsnatching": 10474,
    "Ġcontrols": 1731,
    "contrast": 25595,
    "Ġbit": 2962,
    "ror": 7350,
    "Ġast": 2959,
    "Ġlearning": 387,
    "iverse": 13119,
    "Ġchains": 8251,
    "Ġchilian": 25564,
    "Ġmag": 1430,
    "Ġraging": 14308,
    "Ġintent": 6409,
    "Ġgradu": 15836,
    "Ġrascal": 11704,
    "hap": 17561,
    "Ġsaying": 3243,
    "Ġstuffed": 13412,
    "Ġveiled": 16205,
    "brought": 7284,
    "Ġacross": 1329,
    "Ġdoll": 10815,
    "Ġdepart": 4657,
    "Ġ": 225,
    "Ġreference": 2565,
    "quired": 21859,
    "stepfather": 19192,
    "onde": 21254,
    "achment": 5463,
    "ilogue": 21728,
    "hunter": 10558,
    "Ġinquisitive": 26318,
    "Ġjudiciously": 23881,
    "Ġbirch": 26175,
    "Ġquench": 22423,
    "clopÃ¦dia": 15260,
    "Ġmajest": 24064,
    "phants": 9323,
    "Ġmab": 12565,
    "Ġalarmed": 6922,
    "Ġapprobation": 10986,
    "umbria": 23898,
    "fabulous": 20477,
    "½": 126,
    "bourine": 9399,
    "Ġanticipating": 17060,
    "rival": 12748,
    "Ġcardboard": 19982,
    "Ġfrequent": 3284,
    "Ġphilips": 5410,
    "ciousness": 20819,
    "Ġfixing": 13159,
    "undoubtedly": 13314,
    "phys": 18706,
    "declare": 25174,
    "dance": 17521,
    "Ġswashing": 23060,
    "Ġbeckoning": 20505,
    "itled": 7578,
    "draw": 23903,
    "hope": 5990,
    "Ġpleasantness": 24140,
    "Ġmanufact": 22332,
    "Ġparent": 14647,
    "Ġpassages": 12975,
    "Ġarrested": 9563,
    "Ġsailing": 5324,
    "apering": 8041,
    "Ġbount": 15572,
    "anque": 13891,
    "Ġfoam": 6890,
    "exped": 16526,
    "Ġbearded": 15731,
    "Ġpromote": 23196,
    "thrust": 10264,
    "Ġsplit": 7993,
    "coo": 11171,
    "Ġeulogy": 26473,
    "Ġox": 7153,
    "Ġhoping": 11104,
    "Ġ180": 16608,
    "Ġgramm": 8171,
    "disappeared": 14571,
    "need": 10980,
    "ved": 871,
    "Ġpinched": 17036,
    "pper": 3209,
    "Ġobscurely": 20191,
    "ifford": 15788,
    "inisc": 15491,
    "fig": 8738,
    "Ġhon": 2536,
    "Ġrepeatedly": 9024,
    "Ġenigmatical": 20600,
    "Ġmelancholy": 5606,
    "Ġclim": 8196,
    "situation": 11438,
    "Ġprisoner": 8676,
    "Ġkindly": 6077,
    "dignity": 15349,
    "Ġnarr": 5085,
    "Ġtortures": 14926,
    "Ġentrance": 7232,
    "adventures": 20259,
    "ium": 4865,
    "forgot": 11034,
    "tack": 12517,
    "caused": 25520,
    "nothing": 3151,
    "Ġnormal": 1203,
    "ableness": 8149,
    "Ġbreaching": 23348,
    "Ġpassionately": 16766,
    "newsp": 23138,
    "consolation": 15156,
    "cries": 17513,
    "hued": 20913,
    "Ġthree": 1369,
    "inqu": 6122,
    "obliv": 23099,
    "Ġ28": 19297,
    "stranded": 19227,
    "Ý": 158,
    "Ġfolded": 7767,
    "impenetrable": 26198,
    "Ġexertion": 8054,
    "Ġcannot": 1666,
    "son": 2327,
    "denial": 18718,
    "Ġbreathing": 9448,
    "Ġmankind": 6699,
    "Ġnewspapers": 17189,
    "haz": 17566,
    "dough": 15338,
    "Ġpassage": 3884,
    "Ġfemin": 13439,
    "Ġsteep": 2886,
    "Ġsinusoid": 4782,
    "oe": 7552,
    "Ġchanced": 8187,
    "lynes": 15708,
    "Ġarchy": 14350,
    "Ġbeen": 626,
    "Ġlottery": 19890,
    "Ġquestion": 2776,
    "omon": 10209,
    "idean": 14265,
    "ld": 385,
    "Ġcanes": 22165,
    "contains": 16034,
    "Ġrecess": 10848,
    "horr": 14602,
    "Ġsafe": 5103,
    "shark": 14242,
    "Ġimpertinent": 9080,
    "Ġcleansed": 26295,
    "hum": 3779,
    "infor": 3144,
    "Ġdungeon": 16998,
    "inian": 21185,
    "mess": 13756,
    "J": 46,
    "Ġdesigns": 13016,
    "Ġexhaust": 6399,
    "Ġsp": 457,
    "Ġauto": 23319,
    "passage": 11262,
    "grin": 19107,
    "Ġmassachusetts": 24025,
    "Ġgrounds": 6750,
    "ees": 13714,
    "genteel": 19952,
    "Ġspectators": 19410,
    "Ġembarrassed": 11385,
    "Ġ42": 16680,
    "Ġundesired": 12785,
    "Ġcomprehensiveness": 25075,
    "Ġrash": 10899,
    "Ġimmaculate": 19489,
    "Ġcharity": 8866,
    "Ġalternative": 19990,
    "dost": 14537,
    "Ġdisappeared": 5645,
    "Ġcru": 2821,
    "Ġtreat": 3174,
    "Ġsits": 10770,
    "afterwards": 7484,
    "Ġdeportment": 22591,
    "Ġascribe": 16784,
    "Ġcranial": 25593,
    "Ġfath": 7363,
    "rayed": 23565,
    "Ġmental": 21322,
    "finding": 17015,
    "Ġcourse": 2130,
    "Ġbee": 21753,
    "principle": 10653,
    "Ġlxi": 21564,
    "poles": 16213,
    "Ġtrepidation": 19217,
    "Ġlieuten": 13330,
    "Ġdrenched": 12609,
    "Ġchry": 22250,
    "mody": 16185,
    "Ġowned": 11880,
    "Ġdisput": 14258,
    "Ġrepressed": 21671,
    "flakes": 23971,
    "Ġjackal": 24242,
    "Ġdeemed": 7613,
    "Ġevaluate": 3087,
    "Ġfinally": 4667,
    "Ġenlivened": 26209,
    "Ġbegrimed": 26580,
    "Ġhandy": 12942,
    "Ġexplained": 5936,
    "Ġadjusts": 8983,
    "Ġimaginations": 16518,
    "Ġexcl": 3473,
    "eff": 2533,
    "Ġwidows": 24239,
    "Ġconnivance": 25226,
    "vine": 10736,
    "rog": 15644,
    "Ġpropri": 6739,
    "Ġcommunicating": 16891,
    "possible": 5743,
    "ootiful": 17376,
    "Ġinfinite": 8579,
    "flask": 12104,
    "Ġcouns": 10523,
    "poison": 14395,
    "Ġcheever": 23287,
    "frequented": 25901,
    "Ġheaven": 3362,
    "hom": 12478,
    "Ġseething": 18204,
    "Ġstooped": 14467,
    "Ġire": 12673,
    "Ġsecurely": 16804,
    "Ġspeed": 2445,
    "cake": 20806,
    "Ġaffecting": 2321,
    "Ġmeant": 3549,
    "nostr": 22749,
    "ils": 3180,
    "Ġtwelve": 4963,
    "Ġswimming": 5507,
    "parad": 16389,
    "[": 63,
    "icable": 6388,
    "Ġsplinters": 15106,
    "ich": 470,
    "holding": 7738,
    "eridge": 15529,
    "Ġfurthest": 22816,
    "Ġfire": 2331,
    "pat": 10119,
[...]
