{
  "metadata": {
    "vocab_size": 26617,
    "algorithm": "BPE",
    "created_at": "2026-08-19 02:54:33",
    "special_tokens": [
      "<PAD>",
      "<SOS>",
      "<EOS>",
      "<UNK>",
      "<MASK>"
    ]
  },
  "vocab": {
    "Ġsagittarius": 24736,
    "Ġmurderers": 16812,
    "common": 4127,
    "Ġsanctified": 25887,
    "tumultuously": 25618,
    "whip": 22243,
    "money": 8753,
    "inctions": 17733,
    "Ġseal": 10257,
    "Ġdishonoured": 20394,
    "hopeless": 16918,
    "Ġmab": 12565,
    "Ġappellation": 22232,
    "Ġjib": 14196,
    "Ġanyhow": 14257,
    "Ġsire": 15504,
    "Ġattacking": 24469,
    "Ġoverlook": 10959,
    "creature": 5348,
    "sought": 15430,
    "ugging": 23297,
    "greater": 13255,
    "Ġteased": 18806,
    "Ġclaret": 22368,
    "susceptible": 24667,
    "Ġsilently": 6895,
    "Ġdented": 17893,
    "Ġfronts": 19003,
    "Ġexamined": 6336,
    "Ġtransitory": 16022,
    "context": 3406,
    "Ġprynne": 25545,
    "Ġsailor": 3537,
    "ipelag": 12846,
    "waters": 11335,
    "Ġfasting": 16358,
    "Ġcanopy": 18323,
    "Ġsprang": 5065,
    "Ġsouthwards": 19636,
    "Ġtall": 4038,
    "Ġfed": 5530,
    "mountains": 15184,
    "gentleness": 24850,
    "Ġviolence": 5965,
    "industrious": 26243,
    "Ġimmensity": 25334,
    "Ġesq": 15112,
    "ground": 4670,
    "Ġmum": 13861,
    "Ġquadrille": 13544,
    "ave": 979,
    "Ġhumorous": 10363,
    "mistaken": 12215,
    "Ġhatherley": 7851,
    "Ġsoftware": 18920,
    "Ġcordon": 24398,
    "Ġsprout": 24096,
    "Ġprofessor": 11232,
    "Ġwriggling": 15261,
    "Ġthey": 577,
    "Ġcompre": 4447,
    "Ġtribute": 15478,
    "bber": 4565,
    "Ġepis": 19985,
    "Ġbroker": 23111,
    "Ġfrown": 10809,
    "Ġciv": 3310,
    "Ġstrives": 23703,
    "abilities": 3237,
    "Ġext": 903,
    "quished": 21860,
    "acles": 8522,
    "Ġvices": 14086,
    "Ġcorpor": 23050,
    "Ġyell": 21783,
    "ancing": 1755,
    "preserving": 25309,
    "Ġcharcoal": 19008,
    "thirst": 15829,
    "Ġwarehouses": 20421,
    "Ġknot": 7013,
    "Ġprolong": 6832,
    "anqu": 4110,
    "magnitude": 17250,
    "Ġmasts": 6466,
    "Ġwhiskers": 10495,
    "ã": 164,
    "Ġimpediments": 26244,
    "Ġmagnus": 18959,
    "Ġfog": 9664,
    "Ġpurposes": 11170,
    "Ġoccupant": 16653,
    "Ġrisks": 9967,
    "idents": 6152,
    "Ġdeclare": 6617,
    "Ġsongs": 13424,
    "Q": 53,
    "ipped": 5791,
    "Ġantagon": 19553,
    "Ġboneless": 19608,
    "Ġfrayed": 23330,
    "expose": 23671,
    "Ġunb": 10910,
    "Ġcoils": 9305,
    "iation": 7343,
    "ouncement": 11749,
    "Ġclasping": 20212,
    "Ġparc": 10923,
    "related": 24020,
    "Ġhasty": 10479,
    "inex": 14099,
    "of": 769,
    "Ġjupiter": 17458,
    "fuller": 22492,
    "Ġdamps": 23480,
    "Ġfalsehood": 10526,
    "Ġconcent": 8252,
    "Ġallegor": 25550,
    "Ġindividual": 5745,
    "whel": 7667,
    "Ġsteered": 11095,
    "Ġplaymate": 23645,
    "Ġdocile": 19962,
    "Ġadler": 8176,
    "Ġxxiv": 24481,
    "Ġtrade": 2546,
    "grass": 23420,
    "prolong": 23402,
    "Ġhabitation": 14805,
    "Ġprobability": 1126,
    "Ġcontrived": 10306,
    "Ġcarried": 3695,
    "onsensical": 18577,
    "Ġservants": 6612,
    "Ġthinks": 6171,
    "Ġswish": 23062,
    "Ġbade": 9173,
    "Ġdinn": 23989,
    "amusement": 15286,
    "ieving": 7033,
    "Ġconstrain": 2628,
    "hog": 8382,
    "Ġinflexibly": 26374,
    "Ġdefects": 12337,
    "Ġbringing": 5871,
    "Ġwarsaw": 26170,
    "Ġprouder": 18972,
    "Ġstooped": 14466,
    "ufactured": 15185,
    "Ġsaviour": 20715,
    "Ġmud": 11576,
    "Ġassertions": 19950,
    "hack": 20898,
    "irection": 2389,
    "ready": 2361,
    "Ġamaze": 22489,
    "alescing": 23874,
    "hau": 17563,
    "Ġmizzen": 20292,
    "Ġtoe": 13939,
    "Ġbuoy": 8006,
    "Ġautom": 4007,
    "Ġkind": 1781,
    "Ġsell": 7827,
    "Ġurged": 6782,
    "Ġsadly": 7302,
    "hated": 17562,
    "Ġbrutality": 26280,
    "Ġthirt": 13942,
    "mael": 6724,
    "pockets": 16213,
    "Ġcommunicative": 24552,
    "Ġpropri": 6740,
    "eration": 10774,
    "Ġadapted": 11036,
    "bit": 3931,
    "che": 3169,
    "ution": 4348,
    "Ġlawy": 9458,
    "pits": 15415,
    "Ġmaterials": 11290,
    "Ġreeds": 15700,
    "Ġeverlasting": 9340,
    "journey": 8748,
    "animation": 16980,
    "Ġexpl": 486,
    "declared": 15122,
    "bul": 6951,
    "disappo": 8986,
    "Ġicebergs": 23983,
    "Ġcar": 1418,
    "Ġdissip": 10994,
    "Ġretain": 7866,
    "Ġunav": 18241,
    "Ġstroke": 6936,
    "Ġdeliberately": 10627,
    "Ġsevered": 18204,
    "Ġdinners": 23990,
    "anim": 6523,
    "Ġsusp": 2663,
    "Ġwisdom": 11235,
    "Ġmund": 21321,
    "gallantry": 15063,
    "shaped": 10311,
    "Ġundulated": 19519,
    "Ġbrad": 8790,
    "Ġpreface": 18368,
    "Ġfossil": 12391,
    "strongly": 24690,
    "Ġhighness": 22781,
    "Ġpossibility": 7458,
    "ruded": 15901,
    "endom": 15922,
    "Ġhaunts": 18199,
    "Ġproceeding": 9909,
    "anting": 6413,
    "Ġcavity": 20491,
    "Ġende": 21938,
    "Ġunsub": 22029,
    "Ġaccordance": 19501,
    "upright": 23030,
    "Ġgrapp": 14104,
    "Ġsanguine": 25933,
    "cils": 20816,
    "lakeman": 13754,
    "aced": 2408,
    "Ġtides": 13824,
    "Þ": 159,
    "Ġsubdued": 11032,
    "eer": 15351,
    "Ġriddles": 16733,
    "Ġtwo": 1044,
    "Ġfossils": 20225,
    "Ġnightmare": 18921,
    "Ġyields": 19659,
    "attered": 4019,
    "alot": 15630,
    "hoping": 17567,
    "Ġculprit": 26175,
    "Ġpath": 2115,
    "score": 18857,
    "Ġspan": 11732,
    "Ġprinc": 4199,
    "interest": 5422,
    "Ġhem": 8448,
    "Ġsatisfaction": 5668,
    "dug": 18463,
    "wrinkles": 16556,
    "Ġcapsized": 20093,
    "Ġsignificant": 8637,
    "Ġvalley": 5852,
    "Ġaghast": 16051,
    "quickness": 19853,
    "cried": 8728,
    "club": 26383,
    "Ġclearer": 16314,
    "Ġpatch": 4180,
    "secured": 16939,
    "Ġgovern": 10452,
    "icking": 8913,
    "Ġyawning": 12304,
    "Ġpossess": 3203,
    "Ġcompression": 18148,
    "avings": 12025,
    "Ġstorms": 11264,
    "Ġdecisive": 18492,
    "creat": 20802,
    "Ġbecher": 18881,
    "Ġturned": 2134,
    "Ġgoodness": 6061,
    "erable": 1914,
    "Ġblew": 9047,
    "Ġminutes": 3001,
    "Ġmidway": 14606,
    "Ġsuperiors": 23461,
    "merged": 11195,
    "Ġcrisp": 12005,
    "min": 4568,
    "Ġwalk": 1822,
    "Ġstarvation": 19794,
    "Ġfills": 12599,
    "Ġfiery": 6871,
    "idly": 12705,
    "Ġsuit": 5726,
    "----": 4057,
    "Ġacutely": 14317,
    "midnight": 14903,
    "Ġspeedily": 7713,
    "bitious": 16671,
    "Ġshoot": 11163,
    "Ġduke": 7757,
    "Ġ114": 24442,
    "exactly": 10639,
    "Ġimprudently": 22402,
    "quarter": 11390,
    "scales": 23003,
    "Ġdesc": 765,
    "dignity": 15349,
    "Ġduck": 8797,
    "youn": 5691,
    "Ġbroom": 18908,
    "Ġdismantled": 20219,
    "Ġgarn": 13966,
    "Ġdizzy": 21437,
    "trying": 15441,
    "Ġerud": 20058,
    "Ġbundles": 26178,
    "overcome": 19048,
    "Ġdisorder": 16054,
    "Ġhorrify": 23827,
    "icles": 17975,
    "trust": 21081,
    "Ġno": 509,
    "Ġarchy": 14349,
    "Ġtimidity": 24693,
    "Ġheedful": 19743,
    "Ġilliter": 23474,
    "ifers": 15786,
    "Ġlou": 6822,
    "Ġsuff": 1305,
    "Ġobstetrics": 24684,
    "Ġany": 687,
    "library": 13003,
    "Ġnought": 21527,
    "lected": 1635,
    "my": 1317,
    "serious": 14451,
    "vessels": 10628,
    "Ġcotton": 17381,
    "vously": 23510,
    "ilities": 6992,
    "umn": 5837,
    "Ġpunctual": 17138,
    "scence": 14421,
    "Ġcrows": 24039,
    "Ġcarriages": 11100,
    "racing": 21636,
    "Ġvaliant": 9803,
    "lanter": 15391,
    "everything": 6326,
    "Ġassembl": 20064,
    "pan": 10718,
    "Ġscript": 18399,
    "vis": 4574,
    "Ġharshly": 25254,
    "Ġreminding": 19800,
    "emin": 8472,
    "Ġdropt": 23683,
    "Ġunlo": 22018,
    "Ġexpands": 25242,
    "uce": 11538,
    "Ġlights": 8962,
    "Ġrazor": 22663,
    "Ġjup": 15956,
    "Ġsn": 2948,
    "ĠĠĠĠĠĠĠĠĠĠĠĠĠĠĠĠĠĠĠĠĠĠĠĠĠĠĠĠĠĠĠĠĠĠĠĠĠĠĠĠĠĠĠĠĠĠĠ": 16756,
    "zag": 17714,
    "æ": 167,
    "Ġworkman": 16250,
    "nosed": 20994,
    "awn": 3835,
    "Ġstructural": 2797,
    "Ġimpenet": 14227,
    "speptic": 23954,
    "Ġboots": 5945,
    "uning": 1314,
    "Ġcreation": 6440,
    "Ġscott": 22287,
    "Ġmagnific": 16320,
    "accustomed": 13161,
    "Ġallows": 3234,
    "Ġcig": 6521,
    "Ġadapts": 3817,
    "Ġprehens": 22237,
    "interchange": 23747,
    "Ġmagnetic": 17242,
    "frankenstein": 11393,
    "Ġ=": 1076,
    "Ġsuite": 18279,
    "belief": 13285,
    "prev": 12871,
    "Ġplat": 9308,
    "lie": 12487,
    "Ġassistants": 9454,
    "Ġsecretary": 19445,
    "stocks": 23829,
    "digger": 24316,
    "Ġbl": 1192,
    "Ġvalid": 1699,
    "Ġphysiology": 25337,
    "Ġcake": 12575,
    "Ġincor": 2610,
    "Ġassaults": 15160,
    "Ġcommitting": 22681,
    "Ġequival": 4784,
    "Ġquarrel": 7292,
    "Ġunworth": 22042,
    "bottom": 11428,
    "Ġeliminating": 20623,
    "Ġselecting": 16682,
    "weave": 22693,
    "telling": 14443,
    "Ġrinal": 21983,
    "Ġdismissed": 12896,
    "Ġfevers": 22214,
    "Ġtrample": 20330,
    "Ġhither": 4759,
    "Ġrecol": 4029,
    "abominable": 20597,
    "ishment": 3507,
    "bun": 12442,
    "hamed": 6307,
    "moving": 11018,
    "Ġhorner": 8960,
    "vac": 15453,
    "Ġcalmer": 23053,
    "Ġdined": 9178,
    "Ġanticipating": 17059,
    "Ġcomical": 11681,
    "Ġ86": 24465,
    "Ġtechnique": 2400,
    "Ġze": 8547,
    "Ġbohem": 8528,
    "Ġcircus": 19093,
    "Ġsherlock": 3892,
    "Ġvigorous": 10569,
    "Ġbitterest": 12406,
    "servants": 15040,
    "tha": 15827,
    "ience": 795,
    "circ": 4387,
    "Ġequin": 14497,
    "imately": 12693,
    "Ġclad": 12847,
    "Ġtheore": 1826,
    "Ġestab": 6317,
    "Ġarrested": 9563,
    "Ġsetbacks": 11065,
    "Ġgleamed": 17077,
    "ribe": 1223,
    "Ġbrass": 11050,
    "ned": 3493,
    "whal": 10942,
    "Ġflea": 23781,
    "nuee": 17432,
    "Ġmove": 5108,
    "Ġedged": 23493,
    "Ġdive": 10175,
    "onstrate": 17769,
    "Ġhorizon": 6635,
    "Ġarranged": 9880,
    "Ġcrowder": 19459,
    "Ġflattening": 26051,
    "R": 54,
    "Ġstalked": 20432,
    "Ġdiary": 24743,
    "Ġvigorously": 11301,
    "rimin": 2423,
    "Ġsafie": 6620,
    "screwed": 17189,
    "unless": 9237,
    "Ġsupposing": 6731,
    "blame": 14796,
    "Ġcareful": 2612,
    "du": 605,
    "Ġvisit": 2583,
    "Ġvagabond": 20206,
    "urities": 18052,
    "shells": 26059,
    "Ġignominy": 15089,
    "autions": 20769,
    "asingly": 17963,
    "Ġsurmise": 12299,
    "Ġwhispering": 14948,
    "Ġstation": 5300,
    "Ġpalms": 8647,
    "Ġinsure": 13182,
    "Ġadmirers": 19689,
    "Ġwouldn": 6048,
    "Ġezek": 18012,
    "Ġ&": 6514,
    "Ġjackal": 24245,
    "Ġsilence": 3268,
    "Ġperil": 5557,
    "ays": 6686,
    "Ġdisappo": 4503,
    "morn": 20978,
    "Ġdisposed": 7085,
    "izard": 10886,
    "Ġdependence": 18618,
    "Ġstatements": 7517,
    "Ġ31": 12135,
    "Ġfreely": 7058,
    "Ġpredefined": 20719,
    "Ġhole": 6081,
    "Ġspectrum": 4472,
    "Ġglassy": 19563,
    "ww": 10739,
    "wondrous": 12342,
    "Ġpreprocessing": 26539,
    "Ġvict": 3763,
    "Ġbarbary": 24222,
    "Ġunf": 4089,
    "--âĢľ": 12976,
    "bacc": 7796,
    "Ġshag": 9253,
    "Ġconsistence": 23364,
    "gh": 3802,
    "âĢ": 294,
    "Ġphrenologically": 20397,
    "antled": 18288,
    "ensical": 18569,
    "etts": 12665,
    "Ġminers": 22841,
    "Ġqu": 606,
    "oters": 21805,
    "Ġ121": 24470,
    "gaffman": 26393,
    "Ġloom": 7630,
    "pile": 17630,
    "madly": 24424,
    "Ġmistress": 8615,
    "Ġaccompl": 5168,
    "ificant": 22217,
    "Ġunwaning": 24835,
    "Ġexpression": 4513,
    "Ġwander": 9033,
    "Ġblaming": 22939,
    "Ġdimension": 3241,
    "ordinate": 12879,
    "Ġmaking": 1776,
    "Ġlibraries": 20617,
    "Ġbehooves": 20735,
    "although": 8809,
    "Ġcarter": 18902,
    "Ġoscill": 2856,
    "Ġfinally": 4665,
    "ever": 1078,
    "Ġlar": 767,
    "Ġswam": 6449,
    "Ġsoftened": 11104,
    "Ġcaged": 21356,
    "Ġinfle": 16365,
    "Ġasiatics": 20434,
    "Ġheartily": 6890,
    "above": 8150,
    "Ġwilful": 10537,
    "inent": 9631,
    "Ġjustly": 11908,
    "Ġoakum": 16935,
    "Ġcharging": 23275,
    "gangway": 20670,
    "Ġindulge": 10585,
    "Ġfil": 3473,
    "Ġfrontispiece": 23922,
    "obvious": 9360,
    "Ġnourishment": 15196,
    "rically": 15420,
    "Ġconvenient": 8348,
    "ky": 4517,
    "lacings": 26137,
    "iance": 5281,
    "Ġelegance": 11334,
    "irement": 18356,
    "Ġbiological": 1931,
    "particip": 23622,
    "borough": 20787,
    "Ġlace": 13952,
    "ump": 2285,
    "Ġlips": 3991,
    "Ġgraces": 18226,
    "Ġcredited": 25160,
    "Ġvitality": 15176,
    "Ġfranc": 16354,
    "Ġaltern": 7394,
    "Ġstratag": 22625,
    "Ġmonkey": 8229,
    "several": 5544,
    "inished": 17735,
    "isher": 2876,
    "Ġbidirectional": 3756,
    "Ġhollowly": 24530,
    "Ġskirts": 14355,
    "Ġmumbled": 17809,
    "Ġsimpl": 1576,
    "Ġbosoms": 16796,
    "Ġalert": 18104,
    "Ġburg": 23661,
    "Ġjeer": 24129,
    "Ġcrockery": 24307,
    "magnifying": 25397,
    "alions": 21506,
    "Ġsolace": 16202,
    "unhesitatingly": 26499,
    "Ġdeceitful": 25737,
    "ubl": 3597,
    "ushing": 5732,
    "spent": 12946,
    "Ġsurely": 6309,
    "keeper": 5597,
    "Ġdenoted": 16566,
    "Ġstared": 8457,
    "arched": 10818,
    "Ġdeliver": 9849,
    "Ġmark": 2332,
    "Ġpreceded": 13432,
    "Ġprophets": 20453,
    "Ġlocking": 18299,
    "helped": 18927,
    "Ġsucking": 12791,
    "Ġchimer": 24609,
    "brace": 16943,
    "Ġchristianity": 19863,
    "Ġhemisphere": 26481,
    "onah": 3339,
    "Ġfinite": 2326,
    "walton": 20252,
    "Ġcranes": 20386,
    "Ġclinched": 17396,
    "Ġdaw": 21434,
    "Ġissu": 6255,
    "Ġenable": 685,
    "Ġrenowned": 26197,
    "gments": 12474,
    "_)âĢĶ": 20147,
    "Ġfolded": 7769,
    "carries": 19530,
    "Ġowned": 11880,
    "bill": 10079,
    "kee": 18274,
    "Ġwires": 21299,
    "Ġarc": 14159,
    "cen": 17504,
    "Ġjerking": 12250,
    "conc": 3947,
    "venison": 22636,
    "Ġtusk": 25430,
    ")âĢĶâĢľ": 20745,
    "Ġanew": 11432,
    "Ġuncont": 14119,
    "Ġenric": 21940,
    "Ġhearken": 21690,
    "hammered": 19005,
    "ross": 808,
    "Ġparr": 22125,
    "Ġdrop": 4343,
    "Ġarg": 4766,
    "Ġisinglass": 21808,
    "increase": 20271,
    "Ġchilled": 18382,
    "rug": 18335,
    "Ġrhyme": 21984,
    "Ġsimilarity": 3165,
    "Ġalice": 1483,
    "Ġwalking": 4323,
    "Ġrecursive": 4783,
    "asting": 12811,
    "nable": 13765,
    "Ġwronged": 24253,
    "======================================================================": 10071,
    "pulled": 25151,
    "minded": 9039,
    "Ġphenomena": 21485,
    "adopt": 25549,
    "aggoo": 5131,
    "Ġinconvenience": 9566,
    "Ġpoet": 8212,
    "Ġhumility": 12989,
    "Ġcrumbs": 19124,
    "Ġfooted": 23804,
    "Ġaye": 3354,
    "Ġclimb": 15083,
    "Ġloveliness": 13612,
    "hole": 5586,
    "Ġnobleman": 19395,
    "Ġchoking": 15938,
    "summon": 23423,
    "Ġbengal": 18785,
    "Ġheed": 5631,
    "ical": 755,
    "sentiment": 12918,
    "cas": 20796,
    "Ġreverend": 15263,
    "Ġimagenet": 19248,
    "converse": 22481,
    "Ġlabyrinth": 13683,
    "slave": 16896,
    "isles": 15568,
    "did": 3194,
    "ne": 647,
    "created": 12455,
    "Ġbeseeching": 26314,
    "material": 13134,
    "Ġornament": 11724,
    "Ġplausible": 26556,
    "Ġapex": 24346,
    "Ġfan": 2035,
    "fted": 9120,
    "nine": 13764,
    "sin": 21051,
    "roded": 17958,
    "Ġword": 1054,
    "Ġbedside": 19125,
    "pulous": 15419,
    "Ġriotous": 20547,
    "Ġeaten": 14847,
    "Ġmir": 9649,
    "Ġtemporary": 7983,
    "limbs": 20194,
    "Ġcommands": 16590,
    "relieved": 13280,
    "lydon": 13992,
    "Ġthickness": 13281,
    "also": 7853,
    "Ġincumbent": 16066,
    "Ġsuddenly": 2646,
    "ĠĠĠĠĠĠĠĠĠĠĠĠĠĠĠĠ": 1220,
    "joice": 9605,
    "Ġindefinite": 17177,
    "Ġmystical": 12137,
    "Ġsoften": 23132,
    "Ġquiescent": 26246,
    "Ġgirdled": 19161,
    "Ġentranced": 25839,
    "ourse": 8872,
    "Ġwhirling": 12253,
    "plac": 15824,
    "Ġunkindness": 22048,
    "azine": 19132,
    "Ġsurvey": 13597,
    "Ġsober": 10914,
    "Ġshrieking": 24762,
    "Ġpitch": 5768,
    "Ġacquies": 11099,
    "Ġtheme": 16027,
    "ureau": 10229,
    "Ġdep": 732,
    "Ġknave": 11274,
    "Ġshivering": 10268,
    "Ġchron": 19441,
    "Ġencode": 4363,
    "shiver": 16025,
    "stirred": 20428,
    "Ġai": 3127,
    "Ġjoys": 13225,
    "anel": 21361,
    "Ġgratifying": 13310,
    "Ġprejud": 6851,
    "Ġscold": 10952,
    "been": 3346,
    "Ġcounsel": 13619,
    "fifth": 20149,
    "Ġringing": 13336,
    "Ġprizes": 13077,
    "Ġgree": 7596,
    "Ġgrievous": 13264,
    "usations": 15951,
    "olstadt": 7790,
    "bout": 20775,
    "fif": 9118,
    "Ġmuchness": 18707,
    "ouraged": 22870,
    "youth": 11879,
    "Ġrecommending": 24337,
    "Ġevolved": 9895,
    "Ġcounter": 6482,
    "draw": 23908,
    "began": 6427,
    "awned": 19463,
    "Ġnorthwards": 19549,
    "Ġnarrative": 6217,
    "ulum": 21869,
    "ger": 1106,
    "ordered": 8793,
    "Ġoptimal": 1853,
    "Ġrenewed": 9541,
    "Ġsurpr": 2549,
    "Ġattempted": 8003,
    "Ġaroused": 15896,
    "Ġincessantly": 11413,
    "Ġwine": 6811,
    "pistol": 17643,
    "arpening": 21448,
    "Ġdoubloons": 13438,
    "Ġcollins": 2182,
    "ounding": 22389,
    "Ġinstructions": 11197,
    "Ġgentlemanly": 19318,
    "Ġtension": 13827,
    "Ġrushed": 4087,
    "Ġanticipation": 17058,
    "Ġproduced": 2452,
    "inte": 5145,
    "Ġ0": 1901,
    "Ġeleven": 9393,
    "Ġcetacea": 20556,
    "deprived": 19900,
    "idav": 18095,
    "quar": 7617,
    "Ġequilibrium": 4139,
    "gown": 9599,
    "Ġcorp": 5575,
    "Ġwilson": 6632,
    "'m": 9585,
    "Ġloggerhead": 13661,
    "Ġbeale": 12704,
    "Ġquench": 22425,
    "Ġadjusts": 8982,
    "Ġthre": 2059,
    "Ġstarve": 24632,
    "nearly": 8684,
    "Ġderivatives": 2371,
    "sleeping": 13458,
    "Ġsuperhuman": 23459,
    "Ġtwilight": 16124,
    "kles": 17585,
    "Ġaids": 12233,
    "Ġconnectivity": 3669,
    "resembled": 21249,
    "then": 2052,
    "tiness": 21074,
    "ralian": 19603,
    "Ġdesign": 4131,
    "anders": 18155,
    "Ġhotel": 8654,
    "Ġradney": 6776,
    "bearing": 9768,
    "sail": 3605,
    "supervised": 1942,
    "ially": 9249,
    "Ġintelligently": 4611,
    "Ġsalted": 14759,
    "letons": 14614,
    "Ġdrenched": 12608,
    "cupboards": 25406,
    "ide": 722,
    "Ġinsatiable": 19274,
    "warrior": 24802,
    "Ġdisgusting": 19896,
    "Ġdrove": 4985,
    "Ġmonsters": 11076,
    "Ġmelancholy": 5606,
    "Ġtest": 1607,
    "archbishop": 22901,
    "Ġcurbstone": 26046,
    "Ġseven": 4539,
    "Ġpaul": 12066,
    "ropout": 1322,
    "olog": 1100,
    "Ġvortex": 26212,
    "ectual": 21921,
    "Ġminimax": 5860,
    "Ġporing": 21468,
    "Ġrecording": 24438,
    "view": 5898,
    "Ġespe": 21158,
    "bare": 12445,
    "Ġloathsome": 13531,
    "Ġpleased": 4063,
    "Ġfiles": 21418,
    "Ġtuileries": 24829,
    "Ġirr": 10423,
    "Ġhob": 12634,
    "Ġsilk": 11966,
    "Ġdominic": 25385,
    "compliment": 11366,
    "atiable": 17775,
    "illating": 22113,
    "Ġkeep": 2357,
    "Ġstrive": 23701,
    "Ġexactly": 2766,
    "Ġsagacity": 16975,
    "Ġglobal": 2370,
    "Ġgouldings": 26191,
    "Ġfrenz": 25451,
    "Ġmuster": 16125,
    "Ġdrab": 13074,
    "Ġfam": 1581,
    "Ġrags": 18646,
    "Ġmabel": 17326,
    "Ġraved": 22659,
    "tale": 10130,
    "surround": 16759,
    "Ġhonorable": 16877,
    "overfitting": 13103,
    "Ġobst": 6286,
    "Ġhazard": 20435,
    "Ġcontraction": 16012,
    "Ġtoad": 21515,
    "Ġtarred": 23615,
    "Ġab": 528,
    "particulars": 11317,
    "imming": 9690,
    "mariners": 19551,
    "igan": 21704,
    "bid": 5611,
    "Ġperusal": 14220,
    "Ġassure": 4417,
    "entials": 22672,
    "Ġintrude": 25995,
    "Ġengrossed": 13001,
    "Ġsanely": 24990,
    "Ġtypes": 8938,
    "boat": 3363,
    "Ġemerging": 24619,
    "Ġaffording": 14823,
    "clergy": 18936,
    "instr": 12536,
    "Ġheadsman": 13278,
    "Ġventilator": 8717,
    "ti": 8392,
    "boiling": 19001,
    "rees": 5437,
    "Ġoperations": 2300,
    "Ġdisk": 22528,
    "Ġmediocrity": 26611,
    "Ġblackstone": 23396,
    "effort": 19216,
    "Ġeffusions": 18544,
    "Ġfainted": 8795,
    "turn": 4291,
    "\":": 9584,
    "agon": 7874,
    "opposition": 24825,
    "Ġham": 3422,
    "Ġplug": 17148,
    "hope": 5992,
    "riages": 10246,
    "lev": 1234,
    "Ġintens": 7004,
    "standard": 22442,
    "uments": 5552,
    "Ġtoil": 6533,
    "Ġmil": 4252,
    "pipe": 8700,
    "cence": 9591,
    "Ġprobably": 4313,
    "overing": 6308,
    "Ġshipwrecked": 25692,
    "Ġsphynx": 20714,
    "biting": 20783,
    "lue": 8511,
    "presented": 12996,
    "Ġjoyfully": 19349,
    "Ġgateway": 24804,
    "Ġhammer": 6096,
    "akers": 9742,
    "Ġallies": 18235,
    "althy": 8435,
    "Ġevenness": 22843,
    "Ġrelate": 6875,
    "Ġcrust": 21355,
    "aking": 975,
    "aet": 15311,
    "etymology": 14704,
    "Ġstirred": 12222,
    "prepared": 13594,
    "Ġbehave": 23306,
    "Ġuttered": 7280,
    "Ġquadru": 16008,
    "ñ": 178,
    "Ġsinful": 18951,
    "Ġmagistrate": 8236,
    "Ġsurviv": 13439,
    "Ġpri": 5815,
    "Ġskilfully": 20527,
    "perpendicular": 14165,
    "Ġclutching": 24959,
    "tender": 14476,
    "Ġcalculated": 4473,
    "Ġodor": 12154,
    "Ġrecall": 3856,
    "Ġdurst": 20355,
    "rene": 5380,
    "warnings": 20354,
    "vitality": 20482,
    "iations": 11497,
    "ibank": 6880,
    "Ġprotecting": 24692,
    "Ġunspeakable": 10059,
    "Ġarms": 3965,
    "Ġgloves": 8577,
    "bec": 4052,
    "Ġrascal": 11704,
    "rubbery": 17344,
    "Ġforgotten": 5680,
    "ifice": 7199,
    "Ġtelesc": 12998,
    "Ġsubdivisions": 26040,
    "Ġchili": 25566,
    "Ġcomplicated": 14738,
    "terrors": 25049,
    "linearity": 1648,
    "Ġado": 7628,
    "terrible": 8468,
    "Ġplanet": 14753,
    "Ġanomalously": 25643,
    "Ġconfounded": 16386,
    "Ġchapters": 10475,
    "Ġleech": 24161,
    "Ġvarieties": 14313,
    "meal": 22721,
    "Ġobliged": 4284,
    "Ġparalle": 1409,
    "Ġprincely": 24154,
    "icorn": 15661,
    "Ġconvict": 23753,
    "lips": 13753,
    "Ġhumor": 11053,
    "Ġcomforter": 20510,
    "wid": 10137,
    "masterly": 24534,
    "ariously": 18528,
    "Ġquant": 6425,
    "bound": 6222,
    "Ġfact": 1726,
    "Ġverdure": 10615,
    "Ġprecision": 13193,
    "Ġconfident": 11140,
    "sequent": 6831,
    "Ġimpotent": 18454,
    "Ġunostentatious": 22075,
    "Ġtempted": 9058,
    "Ġdesert": 6729,
    "iliary": 21732,
    "Ġhospitality": 13516,
    "Ġprincip": 5600,
    "nades": 20999,
    "Ġfaultless": 24544,
    "Ġcustoms": 19655,
    "web": 18665,
    "illity": 18297,
    "horse": 8609,
    "ppings": 18179,
    ",âĢĻ": 2329,
    "Ġmake": 1287,
    "Ġdub": 13912,
    "Ġfoaming": 18993,
    "learned": 8598,
    "Ġgrease": 26193,
    "Ġfurnace": 19443,
    "earn": 10698,
    "ez": 5684,
    "Ġrouted": 24913,
    "unnecessary": 21886,
    "Ġobsc": 7041,
    "Ġcontemptuously": 19836,
    "Ġdismal": 11814,
    "nment": 20992,
    "Ġtink": 9150,
    "quadrille": 20598,
    "Ġcomparing": 14267,
    "Ġcurling": 9344,
    "attoo": 6808,
    "Ġcome": 1240,
    "chors": 11647,
    "fate": 17540,
    "ientific": 6549,
    "Ġnegative": 1462,
    "Ġoff": 901,
    "Ġrailway": 15023,
    "Ġholmes": 1310,
    "quakes": 21862,
    "Ġstudy": 1802,
    "Ġfought": 12598,
    "Ġacquit": 18899,
    "Ġabounding": 12348,
    "Ġvancouver": 26568,
    "oth": 1186,
    "Ġrefine": 3214,
    "irting": 11689,
    "mole": 22709,
    "ug": 1764,
    "_,": 2798,
    "Ġroyal": 5602,
    "¹": 122,
    "Ġling": 7377,
    "Ġcowards": 12578,
    "Ġdiamond": 15603,
    "Ġshipmate": 8931,
    "outward": 22166,
    "ieved": 3231,
    "nineteenth": 26141,
    "Ġdropped": 4469,
    "este": 15925,
    "departure": 15238,
    "Ġmarried": 3410,
    "Ġhastening": 19338,
    "Ġzone": 14364,
    "Ġencircling": 26275,
    "Ġsnuff": 7994,
    "Ġcubic": 20091,
    "frau": 15093,
    "Ġshameful": 19854,
    "Ġinjunctions": 24275,
    "Ġosc": 2835,
    "astonishment": 10033,
    "ole": 9616,
    "Ġvi": 1951,
    "Ġvexed": 9997,
    "fanc": 20866,
    "Ġcheese": 9380,
    "Ġsurmount": 20004,
    "rous": 3753,
    "Ġes": 8773,
    "Ġnocturnal": 20717,
    "Ġterribly": 10427,
    "Ġarist": 14160,
    "Ġtimely": 19597,
    "gpt": 5357,
    "Ġanon": 9669,
    "(": 12,
    "Ġproviding": 1363,
    "Ġhorns": 11125,
    "jonah": 11499,
    "Ġcivilised": 24250,
    "ĠâĢľâĢĶ": 9737,
    "Ġnarration": 13507,
    "Ġattractions": 12920,
    "vision": 5620,
    "Ġincreased": 2213,
    "greatly": 16625,
    "Ġteaching": 10367,
    "pher": 11514,
    "Ġinquirer": 24971,
    "Ġsimulation": 2750,
    "Ġheroism": 24548,
    "Ġdamp": 8266,
    "Ġperceiving": 8878,
    "Ġvoyagings": 19238,
    "Ġprovision": 14827,
    "Ġnarrowly": 16821,
    "ableness": 8151,
    "W": 59,
    "Ġherds": 9719,
    "Ġantiquities": 25603,
    "Ġevap": 19626,
    "Ġspeeches": 22671,
    "asing": 5914,
    "Ġxxxii": 24980,
    "sus": 6230,
    "read": 3276,
    "vative": 1626,
    "Ġfascinated": 25640,
    "prospect": 23403,
    "Ġexpert": 18860,
    "Ġdetermination": 9822,
    "Ġattachment": 6052,
    "fairly": 17221,
    "Ġgeese": 7696,
    "Ġbeam": 2878,
    "Ġspect": 3554,
    "Ġdisappearance": 9299,
    "Ġmerc": 9429,
    "Ġobstructed": 24683,
    "monster": 8595,
    "Ġechoed": 20427,
    "itics": 13875,
    "Ġsign": 2495,
    "Ġindepend": 3670,
    "Ġburst": 4379,
    "Ġillustrious": 17109,
    "Ġfreshet": 25708,
    "achment": 5465,
    "su": 800,
    "Ġvesu": 21955,
    "Ġnug": 21530,
    "Ġbedfellows": 23452,
    "Ġcircumspection": 25889,
    "Ġwhims": 12697,
    "hammad": 23271,
    "anxiously": 15114,
    "Ġportable": 19373,
    "Ġoffences": 18692,
    "Ġlift": 8814,
    "Ġsooner": 5573,
    "bular": 15317,
    "Ġestablishment": 13583,
    "Ġrattled": 15072,
    "Ġhaws": 21957,
    "Ġunderstanding": 1817,
    "Ġexclamation": 8702,
    "Ġarmada": 23586,
    "accomplishment": 20226,
    "Ġfidelity": 15245,
    "Ġtelescopes": 25695,
    "imp": 3035,
    "Ġworsted": 19998,
    "Ġchil": 11755,
    "dreaded": 25144,
    "Ġfist": 21408,
    "Ġconcuss": 19044,
    "Ġstepdaughter": 22620,
    "Ġemble": 13974,
    "Ġusing": 716,
    "Ġplainer": 23712,
    "Ġpens": 21461,
    "Ġearlier": 9089,
    "georgiana": 26025,
    "Ġburden": 8611,
    "child": 5538,
    "Ġsubterranean": 13615,
    "atory": 6127,
    "Ġknives": 14839,
    "Ġdesisted": 22989,
    "Ġcomprehend": 6495,
    "profess": 10631,
    "numbers": 17617,
    "Ġmarry": 4416,
    "cable": 20799,
    "Ġross": 2763,
    "Ġlat": 5088,
    "gerine": 22897,
    "zes": 11551,
    "xible": 13811,
    "Ġslit": 13061,
    "Ġfigure": 4206,
    "Ġmiseries": 10347,
    "Ġoblivious": 26035,
    "Ġunjustifiable": 25117,
    "sa": 8760,
    "Ġimpetuously": 20375,
    "Ġapolog": 9045,
    "ously": 2491,
    "phren": 22785,
    "Ġparasol": 22127,
    "Ġfurnishing": 16647,
    "Ġcomputer": 1185,
    "Ġphilosophers": 10554,
    "hatches": 19930,
    "iates": 13740,
    "Ġoccurring": 2790,
    "bowsprit": 16854,
    "stat": 21649,
    "mansion": 20985,
    "Ġ29": 23738,
    "Ġideal": 13124,
    "tallied": 21092,
    "Ġcomfortably": 16616,
    "Ġfatig": 6758,
    "Ġcurrent": 13015,
    "negro": 18496,
    "drawing": 10489,
    "Ġtakings": 20575,
    "Ġpassengers": 13679,
    "Ġmission": 13010,
    "Ġkn": 4543,
    "Ġsixty": 7724,
    "Ġunwound": 24834,
    "disguise": 26309,
    "Ġapo": 9633,
    "ocratic": 17246,
    "somers": 19371,
    "Ġmortified": 14697,
    "Ġabundance": 17156,
    "Ġdilig": 8352,
    "ible": 1116,
    "Ġsumatra": 15290,
    "Ġemerg": 13428,
    "kshire": 13749,
    "Ġfinancial": 23137,
    "igh": 2029,
    "dr": 6223,
    "report": 13403,
    "attentions": 13578,
    "Ġspir": 2428,
    "agues": 8163,
    "brushing": 20790,
    "Ġpour": 13917,
    "prejudice": 25576,
    "Ġcandelab": 23857,
    "Ġpropos": 7064,
    "Ġconfirming": 25326,
    "sings": 4249,
    "Ġsupposition": 9820,
    "domestic": 19828,
    "Ġinquire": 7721,
    "Ġaccommodate": 20520,
    "footed": 19692,
    "Ġsteamer": 17190,
    "Ġpiled": 8428,
    "sander": 11529,
    "Ġappre": 5166,
    "Ġsleepers": 13153,
    "distressed": 24205,
    "articulate": 17400,
    "with": 1299,
    "ire": 492,
    "Ġparacels": 13671,
    "Ġfit": 3686,
    "¬": 110,
    "Ġlikeness": 11181,
    "Ġpertin": 18445,
    "scra": 13026,
    "Ġcommunion": 19009,
    "ize": 761,
    "cross": 3578,
    "ahab": 4289,
    "Ġabund": 8867,
    "Ġdeem": 18135,
    "Ġ81": 24461,
    "Ġwapping": 21298,
    "Ġugliness": 20430,
    "kes": 3680,
    "atches": 13849,
    "Ġsluggish": 25895,
    "Ġsuppressing": 23010,
    "Ġcommunications": 16357,
    "adequate": 15207,
    "Ġconveys": 16856,
    "Ġabaft": 22280,
    "Ġhorrid": 8001,
    "Ġwit": 3842,
    "/": 19,
    "Ġserving": 14488,
    "Ġchimneys": 16973,
    "declined": 25178,
    "masculine": 24391,
    "reck": 9639,
    "fulfilment": 26030,
    "Ġspam": 7632,
    "ales": 3318,
    "Ġtro": 7356,
    "Ġagitation": 6865,
    "==": 944,
    "Ġcommitted": 7431,
    "bad": 12440,
    "look": 2262,
    "hello": 13368,
    "Ġpeace": 3694,
    "Ġgemini": 26472,
    "Ġbone": 4694,
    "Ġwalled": 15538,
    "Ġcountryside": 23602,
    "Ġcasual": 11411,
    "rested": 13078,
    "bil": 20773,
    "ordingly": 18519,
    "Ġautomatically": 4287,
    "Ġcharm": 4545,
    "prick": 19346,
    "chronicle": 26483,
    "Ġcrawling": 17045,
    "standing": 5558,
    "Ġoffing": 16146,
    "there": 1423,
    "occ": 4482,
    "Ġmerry": 5870,
    "Ġices": 21157,
    "Ġrepeat": 8002,
    "superstitious": 17282,
    "sam": 21054,
    "Ġspoilt": 24809,
    "inde": 17732,
    "Ġsol": 1103,
    "Ġarbit": 4649,
    "Ġbudge": 15168,
    "Ġpractice": 2910,
    "Ġislets": 21807,
    "Ġmeryton": 4436,
    "Ġscatter": 18398,
    "Ġsomewhere": 5385,
    "Ġverily": 16604,
    "Ġwatchman": 23675,
    "Ġgarb": 21608,
    "Ġparis": 8181,
    "six": 7143,
    "ims": 7177,
    "Ġtravelled": 7773,
    "Ġwork": 1281,
    "fugitive": 26134,
    "erringly": 16214,
    "recl": 15513,
    "Ġquantization": 19856,
    "Ġuntoward": 19167,
    "shine": 9288,
    "Ġgates": 10203,
    "Ġinfl": 6893,
    "Ġnonsense": 6983,
    "Ġmaritime": 23049,
    "Ġanno": 9670,
    "escript": 18470,
    "breast": 11247,
    "net": 1196,
    "itted": 2441,
    "Ġfamil": 4319,
    "Ġlobster": 11391,
    "Ġentertain": 6056,
    "dra": 3415,
    "Ġstair": 8458,
    "Ġpolic": 13165,
    "hark": 15369,
    "Ġthackeray": 26458,
    "Ġcreature": 2384,
    "Ġexplanations": 15914,
    "mel": 9129,
    "Ġtreatment": 12076,
    "Ġrifled": 21982,
    "Ġquee": 1977,
    "Ġsaving": 15891,
    "usal": 7640,
    "Ġeffemin": 18545,
    "abular": 4762,
    "Ġrigged": 16718,
    "Ġneural": 619,
    "Ġwore": 6378,
    "comfortably": 16876,
    "Ġdrags": 16942,
    "div": 8078,
    "Ġobserver": 11991,
    "Ġeddies": 25094,
    "Ġperu": 14218,
    "Ġlanguage": 645,
    "solution": 14688,
    "Ġdelivered": 11117,
    "distraction": 24206,
    "Ġsplinter": 23755,
    "uous": 4144,
    "Ġbreaths": 14860,
    "fears": 18538,
    "Ġcrane": 23444,
    "Ġgentlemen": 3645,
    "Ġpray": 3898,
    "save": 13788,
    "nose": 17611,
    "change": 6393,
    "Ġwig": 9163,
    "mur": 5429,
    "Ġro": 597,
    "Ġpreparations": 12314,
    "Ġdisadvantages": 18559,
    "Ġincred": 5647,
    "Ġmule": 13865,
    "400": 20757,
    "Ġupbra": 22159,
    "Ġdispose": 23887,
    "frozen": 25145,
    "Ġdealer": 23985,
    "intentions": 22948,
    "Ġwaylaid": 22882,
    "Ġextravag": 11254,
    "therefore": 5956,
    "uch": 877,
    "Ġsteak": 9832,
    "Ġbery": 13901,
    "Ġbert": 4579,
    "Ġunfit": 14790,
    "Ġinstrum": 6057,
    "Ġcommunicated": 9063,
    "berish": 22724,
    "Ġcomplaint": 24780,
    "/`)": 13664,
    "sole": 6170,
    "Ġaspire": 21906,
    "Ġthanks": 6709,
    "Ġfern": 21411,
    "Ġshakes": 10907,
    "brous": 19201,
    "cousins": 20121,
    "Ġvestibule": 13540,
    "study": 15121,
    "distrustful": 26334,
    "Ġboxes": 13378,
    "Ġgaz": 4043,
    "Ġclattered": 22367,
    "features": 14859,
    "Ġboomer": 20170,
    "onstr": 12551,
    "Ġmentioned": 4328,
    "Ġmarshy": 20221,
    "alty": 17941,
    "Ġhanded": 8219,
    "Ġattentively": 9953,
    "Ġstands": 5260,
    "Ġbeat": 4489,
    "difference": 13711,
    "Ġum": 10214,
    "Ġdiscoloured": 15256,
    "ohog": 9846,
    "Ġatom": 18193,
    "less": 927,
    "uesday": 8590,
    "Ġperchance": 15991,
    "dient": 441,
    "astonished": 15035,
    "Ġperemptorily": 17369,
    "person": 7747,
    "Ġcum": 21346,
    "Ġlethargy": 26486,
    "Ġmouldings": 24741,
    "Ġirrevoc": 15041,
    "ĠĠ": 352,
    "mme": 22506,
    "Ġanoint": 25542,
    "fear": 8517,
    "Ġ83": 24463,
    "enough": 6810,
    "Ġcongregation": 12333,
    "Ġconjectured": 10000,
    "Ġanvil": 11600,
    "Ġclinging": 10295,
    "Ġhotels": 19539,
    "legs": 13186,
    "byter": 16216,
    "Ġreck": 6539,
    "ineer": 11706,
    "Ġ112": 24441,
    "Ġobstinacy": 17423,
    "treacle": 25154,
    "anation": 5805,
    "Ġrooted": 13173,
    "Ġvarying": 15814,
    "Ġdull": 6385,
    "Ġornamented": 20365,
    "Ġendured": 6075,
    "Ġhoarsely": 26305,
    "Ġtongues": 14866,
    "ashed": 3786,
    "Ġvainly": 9927,
    "ustration": 2260,
    "argue": 21449,
    "stead": 10849,
    "civil": 7798,
    "Ġspeechless": 13358,
    "Ġche": 1759,
    "arance": 4697,
    "Ġcoronet": 6346,
    "Ġaven": 10761,
    "hemat": 3128,
    "Ġvexation": 10589,
    "Ġdilatory": 24709,
    "Ġlect": 9224,
    "Ġhaggard": 17332,
    "Ġnarwhale": 12297,
    "itchen": 7789,
    "Ġlobsters": 13520,
    "into": 3682,
    "Ġlonely": 6823,
    "presence": 18497,
    "vishnoo": 21122,
    "Ġinser": 6820,
    "Ġspiced": 22139,
    "alo": 7589,
    "Ġfritters": 23264,
    "glance": 16588,
    "Ġoccas": 2701,
    "Ġaffecting": 2325,
    "Ġthoroughfares": 26098,
    "non": 9614,
    "Ġsleepy": 8270,
    "tawny": 26407,
    "r": 86,
    "harrow": 20910,
    "regulated": 23473,
    "Ġcushion": 17835,
    "Ġancho": 15607,
    "Ġorganization": 7986,
    "Ġgulf": 10638,
    "Ġcomprising": 16072,
    "Ġsuspended": 5666,
    "Ġmed": 4176,
    "narwhale": 17320,
    "mean": 6439,
    "uzza": 11272,
    "Ġtrout": 22349,
    "intend": 16227,
    "Ġconcealment": 16915,
    "ur": 326,
    "Ġaddress": 2272,
    "Ġinsect": 12641,
    "Ġgallop": 19558,
    "Ġgle": 7861,
    "Ġventured": 7502,
    "oda": 15753,
    "redible": 15808,
    "wor": 3417,
    "Ġcoldness": 23767,
    "msprop": 2625,
    "Ġmixing": 24942,
    "heard": 5010,
    "ove": 1741,
    "Ġsal": 3937,
    "Ġdisinclined": 22535,
    "intelligence": 5885,
    "Ġpays": 13300,
    "inced": 3338,
    "sold": 15429,
    "lively": 12489,
    "Ġcocks": 18594,
    "Ġpunctilious": 26357,
    "mockery": 24382,
    "Ġheadlands": 22907,
    "Ġstatement": 5256,
    "Ġcathed": 14553,
    "Ġamounts": 6706,
    "Ġconcisely": 19042,
    "Ġstrangeness": 16705,
    "aggo": 5098,
    "din": 8376,
    "Ġdisp": 3360,
    "longing": 23734,
    "acknowledging": 25481,
    "Ġhowl": 12859,
    "Ġjost": 23638,
    "Ġsound": 2243,
    "Ġissue": 2312,
    "blasted": 20192,
    "Ġbanish": 15574,
    "Ġdodo": 9074,
    "Ġloved": 4596,
    "conclusions": 25677,
    "adie": 18091,
    "Ġneskye": 21536,
    "Ġmeekly": 26493,
    "Ġregularizer": 2341,
    "pier": 17636,
    "Ġsleeve": 20143,
    "Ġonly": 788,
    "Ġinflict": 15003,
    "Ġknob": 24411,
    "Ġorganisation": 23589,
    "foundation": 16716,
    "Ġincognit": 22560,
    "mission": 5972,
    "Ġpronounce": 16969,
    "Ġintegral": 25016,
    "value": 18812,
    "Ġnonce": 23239,
    "Ġpredecessor": 26257,
    "÷": 184,
    "henry": 16627,
    "Ġtremendous": 8355,
    "Ġtaking": 3250,
    "struck": 7865,
    "winds": 10524,
    "shrugged": 22456,
    "altogether": 12644,
    "esc": 612,
    "atives": 2237,
    "..": 5784,
    "patter": 4625,
    "Ġadjac": 18293,
    "conda": 18994,
    "Ġdey": 11677,
    "shad": 10982,
    "Ġloaded": 8493,
    "Ġavenues": 25434,
    "Ġwhispers": 14703,
    "Ġinconsiderable": 21500,
    "ortunities": 15944,
    "Ġface": 1720,
    "tw": 2811,
    "Ġedition": 16456,
    "Ġalabama": 14022,
    "Ġeight": 3900,
    "much": 3708,
    "itating": 9653,
    "exact": 7913,
    "murderers": 25732,
    "Ġhogshe": 20495,
    "enth": 6683,
    "iting": 2159,
    "Ġegyptian": 13590,
    "abond": 15745,
    "Ġguess": 4904,
    "Ġwritten": 4167,
    "Ġdiscount": 22789,
    "enjoyment": 17259,
    "ills": 1628,
    "Ġnervously": 19186,
    "Ġstables": 23664,
    "dro": 6647,
    "Ġconvalescence": 23754,
    "Ġappear": 2484,
    "national": 21000,
    "Ġrobbery": 11917,
    "inferences": 17740,
    "Ġremoval": 12122,
    "Ġdecks": 6900,
    "Ġflogged": 23631,
    "Ġridicule": 13515,
    "Ġramsgate": 18649,
    "ornamented": 26598,
    "od": 353,
    "Ġhire": 21490,
    "iating": 3205,
    "Ġdiligent": 25083,
    "Ġexpress": 2197,
    "Ġdetected": 18861,
    "Ġconfound": 23310,
    "Ġtired": 9151,
    "Ġfill": 5702,
    "Ġpolished": 11184,
    "aternity": 21269,
    "might": 4077,
    "Ġcurly": 18845,
    "tooth": 18580,
    "Ġinclud": 1511,
    "Ġauthority": 7750,
    "ckets": 6843,
    "Ġsnowy": 9020,
    "changed": 7176,
    "ash": 1989,
    "Ġrainbows": 19651,
    "prodig": 16429,
    "roads": 17960,
    "Ġbreakfast": 3975,
    "Ġfloated": 7288,
    "idge": 14017,
    "Ġcring": 15556,
    "gives": 15361,
    "Ġbrazier": 26324,
    "riving": 21937,
    "Ġchas": 18379,
    "Ġestates": 16461,
    "Ġrough": 7187,
    "pire": 9137,
    "increas": 10456,
    "Ġstrain": 6026,
    "//": 11465,
    "rank": 21044,
    "Ġoctavo": 15167,
    "apter": 1195,
    "Ġattacks": 12209,
    "Ġphysiogn": 12392,
    "Ġtarts": 10755,
    "Ġentrance": 7233,
    "intments": 18822,
    "Ġtrumpet": 9576,
    "Ġmount": 7362,
    "teen": 6371,
    "Ġanyways": 22525,
    "Ġmem": 2070,
    "thro": 12766,
    "Ġdesper": 6178,
    "Ġtawny": 20485,
    "Ġtroops": 24904,
    "cl": 1493,
    "Ġattendance": 12186,
    "Ġavalanche": 17435,
    "Ġrum": 5926,
    "inclined": 10642,
    "Ġlifetime": 13606,
    "cement": 3005,
    "Ġwebster": 20164,
    "Ġdow": 17888,
    "Ġvigilance": 12375,
    "Ġvesture": 20065,
    "Ġalarmed": 6923,
    "Ġexec": 19495,
    "Ġschemes": 11133,
    "your": 1982,
    "Ġdiscoursing": 26270,
    "Ġanimals": 8980,
    "artificial": 1055,
    "Ġmansion": 17811,
    "morrow": 4569,
    "poises": 11893,
    "relu": 17760,
    "Ġaltogether": 4833,
    "Ġexertions": 13414,
    "Ġinfatuation": 25861,
    "Ġoccurrences": 11052,
    "Ġcaved": 21357,
    "Ġbildad": 3783,
    "Ġen": 392,
    "Ġbeheaded": 11659,
    "Ġsunrise": 9376,
    "icated": 7592,
    "onent": 21251,
    "Ġcommander": 8628,
    "bud": 10686,
    "ò": 179,
    "ong": 537,
    "Ġrecl": 16142,
    "Ġspoken": 4838,
    "laugh": 10111,
    "anque": 13891,
    "number": 10117,
    "Ġthy": 2513,
    "Ġdeified": 18139,
    "impenet": 18056,
    "rows": 6443,
    "Ġgibberish": 25791,
    "Ġheightened": 8652,
    "Ġshiver": 12772,
    "Ġjudgment": 5766,
    "Ġfulfilled": 11364,
    "Ġinternal": 2248,
    "commer": 22825,
    "persuade": 13536,
    "isition": 11589,
    "rus": 5932,
    "Ġgn": 8821,
    "Ġassist": 3567,
    "Ġtropics": 17067,
    "Ġlamented": 25001,
    "ror": 7351,
    "ivil": 6412,
    "Ġstubborn": 10416,
    "rown": 2194,
    "Ġaccommod": 14215,
    "Ġlargest": 6284,
    "interval": 7993,
    "Ġhelping": 3267,
    "ackled": 22426,
    "Ġregression": 4408,
    "Ġacquaintances": 17352,
    "Ġallures": 22012,
    "blubber": 15240,
    "Ġexploitation": 2349,
    "Ġyards": 5372,
    "Ġreassure": 21677,
    "Ġaggreg": 12888,
    "Ġfagged": 17884,
    "Ġstepping": 9357,
    "Ġblanched": 26286,
    "acies": 14281,
    "Ġwat": 1289,
    "Ġquestionable": 19268,
    "Ġwheel": 9721,
    "Ġseverely": 14936,
    "yrin": 12527,
    "furnished": 20244,
    "vice": 15452,
    "alarmed": 21508,
    "asht": 4083,
    "Ġdissimilar": 22537,
    "linen": 25262,
    "silence": 8047,
    "vig": 15449,
    "embarrassed": 20667,
    "Ġvine": 8474,
    "Ġinitialization": 1254,
    "Ġmassive": 9935,
    "Ġexplore": 15912,
    "mounting": 25211,
    "Ġcontrols": 1730,
    "Ġconsume": 12962,
    "alleging": 23036,
    "emy": 14076,
    "Ġproduces": 2094,
    "Ġrational": 8482,
    "ted": 790,
    "Ġchildhood": 13142,
    "Ġconcealed": 7496,
    "Ġevince": 24299,
    "arity": 1304,
    "Ġflooring": 23630,
    "conceal": 25122,
    "Ġtransform": 748,
    "Ġtuples": 13481,
    "aulding": 11341,
    "Ġflamingo": 15104,
    "Ġmosses": 20166,
    "Ġfondly": 19619,
    "Ġunderwent": 23245,
    "Ġairs": 14510,
    "Ġwouldst": 18500,
    "racted": 4777,
    "Ġspeaking": 4027,
    "ancient": 9658,
    "Ġeul": 21623,
    "Ġimbecile": 17394,
    "Ġvenom": 24244,
    "Ġnapole": 15119,
    "Ġsemicirc": 16395,
    "inition": 11559,
    "putable": 10904,
    "prejudiced": 17299,
    "wreck": 21139,
    "bitts": 26125,
    "Ġanticipatingly": 26105,
    "washed": 13050,
    "ructive": 18537,
    "Ġpivot": 13926,
    "Ġjoosy": 23639,
    "ra": 314,
    "Ġspurred": 22144,
    "john": 11500,
    "condite": 23254,
    "Ġrealising": 18983,
    "bern": 20777,
    "figure": 13559,
    "È": 137,
    "Ġislands": 6767,
    "Ġleviathans": 8284,
    "Ġuncomfortable": 8488,
    "Ġfortifications": 23626,
    "crimin": 17510,
    "Ġchances": 9265,
    "Ġaudible": 19883,
    "tallow": 21088,
    "Ġestablish": 9546,
    "Ġcloth": 9747,
    "Ć": 199,
    "unmistakable": 21901,
    "ster": 1958,
    "omit": 13977,
    "Ġimpro": 916,
    "Ġjurymen": 16848,
    "Ġstairs": 5541,
    "Ġanalysis": 1937,
    "scorched": 25702,
    "Ġblurred": 22940,
    "Ġgor": 9208,
    "Ġch": 512,
    "blades": 24136,
    "Ġgrowth": 14631,
    "Ġharem": 9712,
    "Ġtreating": 4282,
    "ilt": 2969,
    "isation": 13896,
    "Ġcondem": 6340,
    "Ġmarrying": 6179,
    "ceiving": 3901,
    "yingly": 23070,
    "1": 21,
    "ece": 17532,
    "Ġlikelihood": 16502,
    "Ġreturning": 5327,
    "travellers": 24343,
    "ject": 875,
    "fere": 10991,
    "arse": 7161,
    "omics": 21648,
    "Ġsayest": 22783,
    "Ġunrecorded": 17469,
    "Ġsequel": 14359,
    "Ġide": 2122,
    "aint": 2541,
    "utions": 1887,
    "Ġdemig": 20359,
    "Ġbegrim": 23029,
    "Ġlearns": 2643,
    "gd": 3124,
    "Ġgush": 10205,
    "Ġmicrosc": 20679,
    "Ġripple": 25509,
    "awake": 14455,
    "Ġmont": 8561,
    "tri": 11532,
    "Ġaudacity": 19884,
    "sets": 17661,
    "Ġhop": 1459,
    "Ġsolid": 6444,
    "Ġclams": 19992,
    "Ġsummons": 13236,
    "Ġcomplaisance": 19452,
    "Ġlimbs": 5968,
    "kitchen": 17586,
    "Ġpredecess": 18518,
    "Ġsket": 18728,
    "worship": 19390,
    "Ġlamp": 4114,
    "Ġsgd": 3129,
    "Ġrecollection": 6623,
    "Ġviews": 7290,
    "Ġshown": 5160,
    "Ġsuited": 12790,
    "Ġexchanging": 18134,
    "Ġpills": 21467,
    "Ġcot": 13880,
    "Ġdelusion": 18974,
    "Ġmaid": 5288,
    "agre": 18167,
    "appear": 13202,
    "daw": 17523,
    "Ġscraggy": 24584,
    "Ġresounded": 22550,
    "Ġboundless": 10498,
    "Ġhovel": 8256,
    "Ġlightly": 13087,
    "Ġscandinav": 19964,
    "Ġriddle": 14822,
    "Ġundertone": 23246,
    "cription": 20820,
    "rages": 15685,
    "Ġattraction": 18621,
    "ologist": 22892,
    "Ġhid": 1321,
    "Ġlonger": 3361,
    "Ġstraps": 19312,
    "Ġboa": 22642,
    "Ġthames": 13941,
    "pred": 2801,
    "Ġmaledictions": 26431,
    "Ġinanimate": 13936,
    "Ġrelig": 8552,
    "Ġpantry": 20298,
    "classes": 12140,
    "ider": 21771,
    "phia": 22786,
    "rule": 15898,
    "racting": 10358,
    "sincerely": 24591,
    "Ġbroadened": 23993,
    "Ġinhuman": 13932,
    "xes": 21143,
    "Ġprinciple": 6771,
    "Ġastr": 15497,
    "Ġsensibly": 14515,
    "Ġcarpent": 4463,
    "dismal": 23503,
    "Ġgods": 6455,
    "powers": 25415,
    "anelles": 26437,
    "flask": 12104,
    "Ġtermination": 16462,
    "Ġclam": 7416,
    "ounded": 9751,
    "haired": 14769,
    ",âĢĶ": 3168,
    "Ġmarch": 4081,
    "Ġapproaching": 6285,
    "eneva": 5119,
    "Ġnumerical": 4243,
    "Ġprobabilities": 4966,
    "lovel": 22514,
    "Ġicicles": 25269,
    "didst": 19352,
    "carte": 25405,
    "met": 6655,
    "conditionally": 24840,
    "Ġroutine": 13511,
    "Ġfearless": 9878,
    "iracle": 11245,
    "Ġcopy": 10166,
    "Ġtogether": 1876,
    "Ġexpans": 18624,
    "Ġcetology": 10012,
    "Ġmien": 17810,
    "Ġhan": 15622,
    "vel": 2385,
    "Ġsuggests": 12205,
    "vib": 21118,
    "bering": 18681,
    "ni": 1649,
    "Ġstable": 2697,
    "talking": 10010,
    "Ġresembling": 4097,
    "Ġimpressions": 9556,
    "Ġfragmentary": 25863,
    "osque": 22268,
    "Ġunbroken": 18251,
    "studies": 25173,
    "]": 65,
    "Ġ181": 23904,
    "Ġconference": 15751,
    "Ġdecreas": 1646,
    "Ġreusable": 13561,
    "consolation": 15156,
    "Ġex": 361,
    "·": 120,
    "Ġroofs": 16986,
    "Ġunprincipled": 20710,
    "uttle": 6249,
    "utterly": 20015,
    "Ġvenetian": 14849,
    "Ġimmemorial": 10513,
    "Ġformation": 2942,
    "cstasy": 11447,
    "irr": 12742,
    "Ġstranger": 3486,
    "swiss": 24261,
    "Ġhosts": 19942,
    "Ġparametric": 2396,
    "Ġinsc": 7587,
    "Ġcurv": 3513,
    "Ġpar": 456,
    "Ġraging": 14309,
    "Ġvanish": 8930,
    "laden": 14932,
    "Ġglim": 9347,
    "<UNK>": 3,
    "doubted": 17527,
    "Ġlimp": 19182,
    "Ġwhen": 513,
    "77": 15304,
    "years": 6883,
    "Ġstowing": 18074,
    "Ġgreenwich": 19323,
    "Ġthinking": 4031,
    "Ġwallow": 19469,
    "Ġnoteworthy": 24168,
    "scale": 3536,
    "Ġrepl": 1588,
    "Ġbegins": 7244,
    "Ġarguments": 8039,
    "ker": 5793,
    "Ġdisposing": 19378,
    "breakfast": 8691,
    "Ġbowl": 11206,
    "Ġgenerative": 5645,
    "txt": 12520,
    "Ġ99": 10747,
    "based": 2961,
    "Ġdeploy": 3008,
    "Ġhighly": 4846,
    "Ġbidding": 9540,
    "Ġmasking": 2420,
    "death": 6263,
    "Ġgrounded": 23720,
    "remental": 21250,
    "Ġunintermitted": 26223,
    "grandfather": 25017,
    "mn": 3579,
    "Ġmotive": 6093,
    "noo": 9794,
    "aug": 1213,
    "Ġunsav": 18252,
    "Ġunmingled": 18264,
    "wouldn": 23543,
    "itory": 12572,
    "broad": 8646,
    "Ġhonestly": 19975,
    "daughter": 8356,
    "dun": 17517,
    "Ġbulge": 23865,
    "quely": 10234,
    "Ġsingers": 23779,
    "Ġpause": 5708,
    "Ġtrying": 4840,
    "Ġtwit": 12933,
    "lotte": 3333,
    "Ġhence": 4990,
    "Ġwreat": 15534,
    "avish": 22602,
    "Ġrallied": 14098,
    "beg": 22493,
    "extrem": 18709,
    "Ġens": 2786,
    "Ġdies": 11596,
    "appe": 2943,
    "subject": 6634,
    "angular": 11727,
    "Ġlima": 10444,
    "Ġcham": 4893,
    "clopÃ¦dia": 15260,
    "estate": 12825,
    "Ġconfessor": 24027,
    "highly": 24768,
    "Ġthreading": 23409,
    "Ġshaped": 15838,
    "ccess": 3181,
    "residence": 19265,
    "Ġecc": 11631,
    "lighter": 20961,
    "vy": 21110,
    "chest": 11210,
    "geon": 6272,
    "Ġobliging": 13247,
    "until": 6598,
    "Ġunsc": 22020,
    "ernsey": 8904,
    "Ġpron": 6452,
    "skin": 10571,
    "Ġbended": 21389,
    "Ġverbal": 19382,
    "Ġsubs": 2129,
    "Ġdistance": 3484,
    "Ġdelights": 14598,
    "Ġsensitive": 13203,
    "athans": 7433,
    "Ġblinds": 8009,
    "Ġtortures": 14926,
    "around": 12613,
    "control": 16544,
    "wrinkled": 16555,
    "Ġfarthing": 14457,
    "Ġjig": 15955,
    "Ġcombine": 4414,
    "Ġmechanically": 14401,
    "Ġ36": 14770,
    "octial": 20008,
    "Ġscandalous": 24885,
    "idual": 1557,
    "Ġtrapped": 23086,
    "being": 3912,
    "Ġideas": 5495,
    "Ġcom": 368,
    "Ġwildest": 16512,
    "dimensional": 2350,
    "thole": 21992,
    "outer": 9672,
    "ulations": 6031,
    "Ġresentment": 7531,
    "proportions": 22844,
    "Ġsomething": 1791,
    "oysius": 14369,
    "arding": 22162,
    "Ġcheerfulness": 10519,
    "Ġmajor": 13295,
    "whis": 7901,
    "Ġshade": 6552,
    "Ġobsequious": 17406,
    "Ġpurchased": 12265,
    "Ġ54": 24322,
    "Ġsickly": 16775,
    "networks": 2406,
    "Ġpunishment": 9959,
    "ryphon": 4162,
    "Ġgrizzled": 11452,
    "dat": 2832,
    "locks": 14459,
    "Ġconsidered": 4608,
    "pence": 15412,
    "âĢĶâĢĺ_": 24837,
    "Ġappetite": 12388,
    "Ġpassers": 18759,
    "Ġscientific": 6857,
    "Ġmorbid": 16239,
    "forbearance": 22811,
    "Ġballs": 9017,
    "Ġsolution": 9808,
    "Ġdir": 21426,
    "Ġcorridor": 10674,
    "worm": 15456,
    "acled": 16086,
    "sign": 8390,
    "cor": 5521,
    "plex": 699,
    "Ġsab": 10764,
    "aw": 1448,
    "coll": 23787,
    "Ġretention": 23081,
    "Ġdemocracy": 25463,
    "Ġforging": 18096,
    "Ġdistressed": 8516,
    "Ġrobots": 11081,
    "Ġsalad": 19482,
    "Ġverdict": 13479,
    "Ġconvivial": 16549,
    "Ġthrows": 14740,
    "myst": 9825,
    "Ġcoming": 2618,
    "Ġslippery": 12171,
    "due": 22416,
    "Ġstay": 3094,
    "Ġapprehension": 7115,
    "Ġtreachery": 15105,
    "uel": 6967,
    "spiracle": 22743,
    "Ġcurve": 22980,
    "itably": 10784,
    "telescope": 26565,
    "prec": 3201,
    "derick": 22168,
    "same": 5363,
    "Ġabusing": 18394,
    "Ġclump": 15977,
    "etime": 12664,
    "allowance": 16825,
    "yet": 3754,
    "Ġsheepfold": 25471,
    "Ġmol": 12566,
    "process": 11150,
    "acetty": 24468,
    "Ġdownwards": 8531,
    "Ġruth": 14096,
    "changing": 10857,
    "Ġreceives": 20357,
    "Ġbodies": 8034,
    "Ġcologne": 12979,
    "Ġstolen": 14010,
    "Ġclo": 6047,
    "Ġappend": 18362,
    "Ġfootpath": 19340,
    "resentment": 15189,
    "Ġattacked": 10570,
    "Ġwaifing": 25248,
    "Ġchaps": 14180,
    "elag": 12663,
    "Ġtorn": 6002,
    "Ġattended": 5392,
    "Ġteeth": 4166,
    "chan": 1162,
    "Ġjail": 22300,
    "Ġmerchants": 23741,
    "Ġscandinavian": 26349,
    "Ġwhine": 21720,
    "ened": 1389,
    "Ġproducts": 5199,
    "wear": 22691,
    "woods": 13423,
    "ifle": 10894,
    "Ġflask": 3041,
    "Ġpry": 11602,
    "Ġtiller": 8967,
    "fen": 20852,
    "ailed": 3248,
    "Ġappearances": 10453,
    "Ġanchors": 12618,
    "Ġsurprise": 3830,
    "Ġquaker": 10973,
    "moon": 10338,
    "Ġcorrected": 10450,
    "Ġriverside": 25252,
    "Ġbutter": 6842,
    "Ġsunken": 14495,
    "Ġprovided": 6579,
    "invari": 21187,
    "kl": 4866,
    "arthly": 8032,
    "Ġcarving": 14446,
    "Ġcommon": 1412,
    "dum": 17519,
    "Ġwrites": 23207,
    "occasion": 7755,
    "Ġfaint": 5813,
    "uteronomy": 15668,
    "Ġweakness": 9970,
    "Ġdormouse": 4926,
    "seized": 14038,
    "unlike": 18159,
    "neath": 12870,
    "Ġannealing": 1552,
    "Ġsold": 6005,
    "oked": 4307,
    "Ġtransplanted": 22447,
    "uncomfortable": 18163,
    "Ġperth": 7024,
    "Ġpalaces": 24099,
    "Ġmorals": 22986,
    "omp": 2471,
    "herald": 22211,
    "Ġalpha": 13592,
    "Ġimbalanced": 18341,
    "Ġmel": 4818,
    "Ġoutlandish": 12842,
    "sledge": 21060,
    "Ġglove": 14493,
    "onist": 21253,
    "Ġoverthrown": 18426,
    "Ġ199": 3011,
    "beds": 16623,
    "reshold": 21242,
    "Ġpore": 21459,
    "Ġlullaby": 20591,
    "Ġdisregarded": 22536,
    "latitude": 25264,
    "Ġrecover": 9793,
    "Ġhung": 4557,
    "featured": 24284,
    "Ġass": 1503,
    "Ġmummy": 25773,
    "Ġparticulars": 5755,
    "Ġincluding": 2850,
    "Ġeurope": 8064,
    "compan": 7301,
    "Ġplaint": 10328,
    "Ġnuptial": 25787,
    "compasses": 19461,
    "ps": 4571,
    "Ġweaken": 21928,
    "Ġutterly": 6102,
    "Ġbluish": 23659,
    "Ġyour": 634,
    "Ġdenominated": 15232,
    "Ġhoped": 5489,
    "Ġwhalemen": 3911,
    "Ġglued": 20592,
    "utter": 7595,
    "Ġtimbers": 14841,
    "Ġasks": 5116,
    "Ġconfined": 7465,
    "saying": 8644,
    "Ġgratification": 24104,
    "Ġbit": 2965,
    "achalot": 15867,
    "Ġcandidates": 4332,
    ",âĢĿâĢĶ": 14217,
    "Ġflourished": 15129,
    "Ġoffspring": 16148,
    "ivia": 22083,
    "two": 3860,
    "Ġthyself": 6604,
    "Ġconjunction": 25108,
    "usage": 12837,
    "Ġauthent": 14520,
    "Ġsmilingly": 22566,
    "Ġsallies": 21232,
    "Ġendow": 23143,
    "oga": 22716,
    "Ġbend": 9172,
    "Ġbuoyancy": 20045,
    "Ġselves": 21225,
    "Ġemployment": 8632,
    "Ġgrammar": 1065,
    "pleas": 3852,
    "Ġsiam": 13841,
    "imprudence": 16558,
    "weight": 2939,
    "Ġark": 10278,
    "à": 161,
    "Ġ275": 20114,
    "izing": 1069,
    "Ġpains": 5967,
    "ineas": 15826,
    "pronounce": 25196,
    "Ġtreacherous": 13558,
    "Ġengraved": 17081,
    "Ġimprove": 1916,
    "Ġsilken": 16384,
    "Ġbeauty": 3770,
    "buck": 17492,
    "cks": 3080,
    "Ġextended": 7927,
    "entary": 21572,
    "Ġmiles": 3805,
    "Ġblankets": 24618,
    "Ġsunset": 8964,
    "Ġapartment": 6636,
    "Ġasiatic": 20433,
    "Ġscraped": 16904,
    "aper": 5000,
    "Ġdisastrous": 16063,
    "Ġfetched": 24572,
    "whatsoever": 18494,
    "Ġsubmission": 22798,
    "Ġwilliam": 3483,
    "Ġnarwhales": 24908,
    "Ġ30": 10514,
    "Ġhaul": 11696,
    "cloudless": 20335,
    "Ġproperly": 7947,
    "Ġnervous": 2405,
    "Ġpruning": 18970,
    "readily": 19365,
    "Ġjavelin": 26107,
    "happily": 14659,
    "Ġhypocr": 19475,
    "accidents": 19214,
    "angles": 18296,
    "Ġboot": 11842,
    "Ġlifts": 25363,
    "drugg": 20840,
    "Ġmarred": 23043,
    "oton": 3609,
    "Ġcarpets": 18904,
    "Ġdawned": 14997,
    "Ġthoroughly": 8350,
    "Ġjovial": 19235,
    "Ġschedule": 2372,
    "Ġpulling": 5864,
    "Ġkitchen": 8498,
    "Ġobliterated": 17407,
    "Ġencouragement": 13047,
    "Ġpirate": 14998,
    "inisc": 15491,
    "Ġcolony": 18767,
    "Ġgracechurch": 12203,
    "Ġconcentrate": 25071,
    "Ġjets": 10290,
    "Ġwarmer": 19187,
    "Ġphantoms": 13490,
    "aded": 3550,
    "Ġdil": 6384,
    "absurd": 21801,
    "Ġcheating": 16369,
    "Ġstarbuck": 2196,
    "Ġwishes": 4796,
    "Ġsquee": 7931,
    "uries": 6149,
    "reposed": 24496,
    "Ġbenjamin": 26570,
    "Ġbachelor": 7788,
    "ourers": 21488,
    "nue": 15400,
    "Ġrevolutionized": 3369,
    "onze": 21258,
    "Ġwo": 3653,
    "Ġinclu": 1098,
    "Ġbeaks": 21761,
    "Ġdreamy": 14706,
    "apt": 717,
    "boo": 16353,
    "Ġdesperately": 24662,
    "ission": 6458,
    "Ġclerks": 17297,
    "Ġostens": 25280,
    "antique": 18289,
    "Ġscorch": 20070,
    "Ġfive": 2836,
    "Ġcoronation": 13338,
    "accordingly": 19215,
    "Ġwindings": 18911,
    "Ġmutual": 8299,
    "Ġidiotic": 25593,
    "dden": 1801,
    "Ġslice": 23167,
    "Ġ93": 24598,
    "Ġstat": 1489,
    "atch": 674,
    "lake": 13752,
    "Ġfruit": 12330,
    "Ġpike": 12628,
    "Ġconflag": 20338,
    "Ġinscrut": 10037,
    "discover": 10542,
    "Ġshores": 8851,
    "shattered": 22455,
    "mpt": 6656,
    "Ġrescales": 5069,
    "sm": 3437,
    "Ġevangel": 11282,
    "ase": 1160,
    "collar": 19330,
    "strength": 13983,
    "fth": 20858,
    "reg": 2186,
    "Ġcomfortless": 23921,
    "contin": 16543,
    "2": 22,
    "sell": 13784,
    "eds": 6531,
    "Ġchair": 3664,
    "Ġdisciple": 22791,
    "bird": 9588,
    "_:": 17480,
    "Ġdisaster": 12891,
    "grees": 20888,
    "practised": 20250,
    "Ġblotches": 25319,
    "tout": 21068,
    "occupations": 24974,
    "mr": 1899,
    "Ġfob": 21414,
    "Ġdeer": 12725,
    "Ġadvise": 7937,
    "few": 8206,
    "elve": 4640,
    "Ġpresence": 5032,
    "Ġfiendish": 13332,
    "Ġpleaded": 16301,
    "Ġsimilar": 4918,
    "office": 16399,
    "Ġworms": 25220,
    "Ġblasphe": 17409,
    "Ġbuff": 9174,
    "Ġho": 1930,
    "Ġsplice": 19311,
    "Ġlocket": 22119,
    "remediable": 26298,
    "Ġswarm": 23063,
    "Ġprudence": 13923,
    "Ġcorpore": 13405,
    "Ġtahiti": 13623,
    "Ġclasses": 4054,
    "ĠĠĠĠĠ": 3528,
    "Ġbabel": 24430,
    "Ġcontemptible": 16954,
    "Ġklan": 23669,
    "inst": 4294,
    "Ġbirds": 5875,
    "Ġinsensibly": 20079,
    "ning": 949,
    "ificial": 614,
    "ermost": 7430,
    "Ġgestures": 13539,
    "iloqu": 11651,
    "Ġdesolate": 10016,
    "Ġvirgin": 7328,
    "iac": 6227,
    "Ġanatomy": 12324,
    "posture": 16928,
    "shorn": 22453,
    "ibbald": 18842,
    "Ġesteemed": 10591,
    "Ġobtain": 8917,
    "N": 50,
    "Ġdeb": 4764,
    "tap": 17677,
    "Ġdischarged": 15224,
    "Ġexult": 10232,
    "Ġhint": 5017,
    "rove": 21538,
    "watson": 12248,
    "Ġsick": 4692,
    "urged": 18051,
    "Ġexceed": 1347,
    "Ġmay": 923,
    "queens": 22916,
    "Ġdens": 21429,
    "thousands": 16871,
    "Ġsubdiv": 16162,
    "Ġjulia": 22308,
    "berwell": 22726,
    "Ġrippling": 17279,
    "eleg": 20851,
    "Ġtales": 10144,
    "pole": 9336,
    "Ġwrenching": 17325,
    "founded": 16715,
    "ises": 3656,
    "games": 20882,
    "aration": 12612,
    "ynolds": 10039,
    "Ġboth": 1654,
    "Ġsummers": 23881,
    "Ġ118": 19701,
    "eted": 7593,
    "Ġprecipices": 12282,
    "horrors": 20544,
    "Ġquebec": 24138,
    "Ġatrocious": 21949,
    "Ġinjuries": 11279,
    "Ġ115": 24443,
    "stuff": 15692,
    "carpenter": 11429,
    "Ġpin": 7162,
    "Ġmurmur": 14591,
    "Ġcruel": 5122,
    "crime": 14777,
    "stolen": 13985,
    "oused": 6558,
    "Ġinterior": 8897,
    "andish": 18156,
    "ige": 12685,
    "Ġpebbles": 16132,
    "streamed": 25971,
    "Ġillustrative": 25074,
    "Ġdug": 21435,
    "Ġunaccountably": 26518,
    "cruise": 24847,
    "Ġcards": 7582,
    "indirect": 22378,
    "quick": 6401,
    "commend": 19996,
    "isle": 13895,
    "Ġbore": 5080,
    "Ġbrixton": 13667,
    "Ġwickedness": 9529,
    "Ġprecip": 7076,
    "carefully": 13373,
    "inting": 9817,
    "Ġhopeful": 19029,
    "famous": 16917,
    "Ġindian": 4130,
    "buncle": 13696,
    "Ġsap": 18324,
    "Ġprefer": 6417,
    "ilated": 18060,
    "Ġrepairs": 19085,
    "Ġaspects": 4173,
    "sails": 7498,
    "Ġallow": 1127,
    "Ġabomin": 8191,
    "Ġsacrific": 15020,
    "Ġopenness": 18958,
    "Ġmo": 628,
    "ies": 582,
    "rison": 13782,
    "Ġwaterward": 23375,
    "Ġtraffic": 23093,
    "Ġadorned": 15251,
    "Ġearth": 2849,
    "runs": 25420,
    "Ġannotations": 25959,
    "general": 7490,
    "Ġflap": 14425,
    "ruck": 6848,
    "Ġif": 698,
    "Ġhogarth": 25785,
    "jud": 4479,
    "Ġimpat": 4454,
    "Ġimaginary": 11188,
    "Ġearliest": 9834,
    "trained": 4237,
    "Ġfreckled": 18960,
    "sil": 5284,
    "Ġgrunt": 18737,
    "ercely": 12555,
    "Ġtenderness": 12220,
    "Ġterminated": 23515,
    "Ġjollies": 20373,
    "animals": 24742,
    "apse": 14201,
    "Ġpreliminary": 10060,
    "Ġprey": 6416,
    "Ġcau": 13884,
    "prisoner": 20546,
    "Ġhealthcare": 8018,
    "flag": 14714,
    "Ġsteer": 10389,
    "ĠĠĠĠĠĠĠĠĠĠĠĠĠĠĠĠĠĠĠĠĠĠĠĠĠĠĠĠĠĠĠĠĠĠĠĠĠĠĠĠĠĠĠĠĠĠĠĠ": 7991,
    "Ġregardless": 19326,
    "Ġconfidential": 9090,
    "Ġomens": 21332,
    "Ġsimon": 5173,
    "Ġdances": 10815,
    "Ġprofited": 19194,
    "Ġwitness": 4619,
    "Ġspasmod": 12418,
    "Ġtraverse": 18893,
    "Ġoaken": 13868,
    "cnns": 3624,
    "Ġrambles": 17186,
    "Ġtrial": 6637,
    "Ġshelves": 15000,
    "Ġradiance": 13375,
    "Ġremotest": 10055,
    "activity": 22639,
    "impl": 21712,
    "ghost": 20889,
    "Ġdestruction": 6602,
    "Ġseren": 7401,
    "Ġcalifornia": 20533,
    "Ę": 217,
    "output": 4400,
    "Ġtown": 2455,
    "Ġdecision": 2675,
    "ript": 4152,
    "Ġrucastles": 18722,
    "Ġare": 527,
    "magnet": 14973,
    "Ġfled": 6673,
    "Ġfant": 9175,
    ";": 31,
    "Ġspilling": 22143,
    "tumult": 12427,
    "Ġbrew": 23352,
    "Ġrules": 1917,
    "Ġtoils": 10188,
    "Ġmadden": 10449,
    "Ġessentially": 24930,
    "gather": 20877,
    "permitted": 18346,
    "odhead": 18123,
    "Ġfergus": 16873,
    "Ġacceded": 22382,
    "Ġsurging": 19135,
    "befriend": 22498,
    "Ġaud": 6664,
    "Ġfoundering": 21424,
    "Ġardu": 22179,
    "otence": 14026,
    "Ġimmens": 9942,
    "Ġinsensibility": 17110,
    "Ġinexperienced": 26103,
    "Ġtallest": 15477,
    "Ġunrest": 11718,
    "Ġprocured": 8680,
    "Ġaccompanied": 6781,
    "Ġmiss": 1230,
    "Ġzones": 22828,
    "leaped": 17845,
    "steady": 14712,
    "Ġburial": 16524,
    "pet": 4868,
    "us": 532,
    "sen": 21052,
    "Ġrole": 16001,
    "extinguish": 22775,
    "Ġdeline": 16335,
    "Ġeel": 18004,
    "ada": 14014,
    "remarked": 12292,
    "urmountable": 15283,
    "irted": 14075,
    "apple": 22851,
    "Ġintention": 5639,
    "Ġswung": 6450,
    "obli": 23104,
    "Ġhave": 445,
    "bles": 7019,
    "den": 939,
    "Ġjury": 5379,
    "Ġork": 18285,
    "colnett": 19332,
    "solemn": 19820,
    "Ġflash": 8232,
    "Ġargue": 16784,
    "Ġgod": 1934,
    "Ġstorm": 4300,
    "abled": 12799,
    "ulty": 22573,
    "Ġcalamity": 17351,
    "camp": 15333,
    "Ġshoals": 13138,
    "Ġgazette": 19504,
    "Ġnewfoundland": 26572,
    "article": 22413,
    "thrusting": 20262,
    "Ġrobberies": 23016,
    "Ġvoy": 2620,
    "Ġthread": 14541,
    "rayed": 23569,
    "drawn": 9916,
    "Ġconting": 18473,
    "Ġnorms": 3668,
    "pul": 8757,
    "Ġblinded": 13274,
    "believing": 19465,
    "Ġnewcomer": 26043,
    "Ġspitzbergen": 15291,
    "unhes": 21881,
    "involuntarily": 20418,
    "Ġparagra": 15883,
    "appearing": 14639,
    "rudently": 16712,
    "Ġaccused": 8510,
    "Ġnorthumbria": 24177,
    "Ġloading": 15878,
    "Ġmimic": 3142,
    "ceptible": 10963,
    "invest": 11562,
    "peasant": 23120,
    "Ġ21": 11200,
    "Ġirritation": 20269,
    "leo": 21368,
    "Ġsunbeam": 23283,
    "Ġmathematical": 3352,
    "Ġchose": 7413,
    "lant": 20949,
    "Ġsafety": 6341,
    "Ġbye": 12743,
    "Ġpugnacious": 26454,
    "yarn": 15460,
    "recovered": 19790,
    "knives": 14916,
    "sound": 6800,
    "sloop": 26148,
    "Ġhandy": 12940,
    "Ġsting": 10864,
    "Ġsculpt": 15950,
    "Ġjune": 10291,
    "Ġconsisted": 10421,
    "Åĵuv": 15186,
    "Ġathirst": 20601,
    "ascar": 8438,
    "Ġgrenadier": 21621,
    "Ġimportant": 1125,
    "Ġirregularity": 25329,
    "barbs": 20240,
    "motion": 17607,
    "turning": 8319,
    "ke": 429,
    "Ġrelevance": 5185,
    "endurable": 22223,
    "application": 12367,
    "aboard": 21800,
    "Ġ39": 19493,
    "mou": 10710,
    "Ġpalpable": 15209,
    "ü": 189,
    "omb": 10208,
    "Ġtal": 7565,
    "Ġago": 3135,
    "loud": 11503,
    "Ġfee": 7198,
    "Ġvigilant": 20187,
    "Ġmultipl": 2789,
    "begins": 18526,
    ",âĢĶâĢĺ": 23810,
    "Ġgenerations": 10967,
    "Ġapprehending": 26094,
    "Ġcadiz": 17327,
    "action": 3728,
    "Ġfrocks": 23931,
    "Ġgirl": 3086,
    "Ġwatery": 6298,
    "Ġpicturesque": 14897,
    "boscombe": 26124,
    "Ġviv": 6158,
    "fitters": 24765,
    "Ġintelligent": 1368,
    "swell": 17664,
    "atag": 21262,
    "Ġkra": 18349,
    "lost": 8890,
    "vital": 17701,
    "thus": 5159,
    "Ġconditions": 8309,
    "thur": 7188,
    "Ġcomponents": 8895,
    "Ġcorps": 13037,
    "princip": 17137,
    "Ġcanvassed": 19938,
    "Ġdoomed": 11344,
    "Ġdocks": 14178,
    "idered": 4550,
    "rab": 7598,
    "Ġluggage": 25962,
    "Ġofficially": 24844,
    "Ġcarav": 18903,
    "Ġmasoned": 20254,
    "Ġpressure": 13426,
    "Ġinterpreter": 23219,
    "Ġresignation": 18567,
    "pleasant": 5876,
    "Ġchairs": 12829,
    "Ġhit": 7164,
    "Ġcollection": 8224,
    "ivered": 7007,
    "Ġfac": 6382,
    "Ġstren": 15724,
    "complete": 15037,
    "obser": 11101,
    "Ġstur": 15721,
    "dried": 20829,
    "Ġmine": 3177,
    "unfort": 21882,
    "ential": 827,
    "Ġhimmale": 18330,
    "diver": 20833,
    "Ġpiping": 23252,
    "Ġbraces": 14672,
    "Ġfurious": 10356,
    "iers": 5993,
    "Ġobe": 5802,
    "Ġeng": 1164,
    "Ġlouis": 8359,
    "beware": 16044,
    "Ġgothic": 18002,
    "Ġmustard": 12934,
    "Ġsystem": 574,
    "Ġunreasoning": 15849,
    "Ġlit": 6248,
    "Ġencourage": 10383,
    "Ġprice": 10405,
    "Ġfeed": 2127,
    "Ġtw": 841,
    "Ġru": 948,
    "ction": 501,
    "uctive": 17697,
    "Ġcompacted": 23514,
    "Ġmurder": 4278,
    "Ġcorpse": 6641,
    "orn": 2244,
    "Ġfairy": 14629,
    "icting": 12854,
    "cures": 20807,
    "Ġyounge": 16290,
    "ments": 1401,
    "etuous": 21588,
    "rades": 8592,
    "'s": 2469,
    "Ġshabby": 14114,
    "Ġchick": 22253,
    "itions": 4147,
    "Ġproflig": 23573,
    "co": 2434,
    "Ġanimated": 7703,
    "Ġbelieved": 4366,
    "Ġafforded": 8031,
    "dening": 22788,
    "Ġappointed": 20106,
    "tart": 21070,
    "vengeance": 13361,
    "Ġtroubling": 26549,
    "asis": 12655,
    "Ġshelter": 17009,
    "Ġbohemian": 17134,
    "Ġign": 8297,
    "Ġconsoled": 18118,
    "Ġcarcase": 14447,
    "pick": 17635,
    "Ġelement": 6898,
    "Ġwholly": 4445,
    "Ġirreducible": 5520,
    "ishop": 9745,
    "Ġafar": 14297,
    "etrics": 21590,
    "cra": 6356,
    "Ġunsh": 14118,
    "rack": 18013,
    "easy": 9595,
    "Ġtouching": 4679,
    "ber": 884,
    "caus": 11478,
    "ence": 393,
    "Ġbag": 5700,
    "bag": 7543,
    "accomplished": 17213,
    "Ġsurprising": 14599,
    "Ġwintry": 17436,
    "Ġfragments": 19053,
    "Ġfreshly": 23995,
    "Ġboisterous": 20446,
    "Ġaskance": 23157,
    "Ġlumber": 13955,
    "Ġdiverted": 14594,
    "Ġmultiplicity": 19277,
    "Ġamongst": 8961,
    "Ġclimate": 9277,
    "fortnight": 13090,
    "Ġdefici": 22952,
    "Ġireland": 17337,
    "Ġnumberless": 16418,
    "cient": 4566,
    "Ġrested": 9382,
    "Ġrightly": 13069,
    "programming": 10066,
    "Ġblend": 14402,
    "eng": 1487,
    "makers": 20984,
    "Ġdeath": 2042,
    "retch": 4370,
    "Ġadmirer": 16839,
    "origin": 7583,
    "naturally": 14573,
    "iet": 1771,
    "restoration": 23243,
    "Ġcompat": 2937,
    "Ġmedical": 9473,
    "rifice": 12508,
    "ifies": 6689,
    "ware": 3934,
    "quired": 21861,
    "Ġadvent": 4355,
    "Ġdevice": 1926,
    "Ġvintage": 26213,
    "andam": 10891,
    "Ġdipping": 15596,
    "Ġcontradict": 12389,
    "Ġexert": 5723,
    "Ġwooden": 4729,
    "iage": 17574,
    "frankly": 20025,
    "Ġengineer": 11977,
    "Ġinterpret": 5491,
    "Ġrossum": 3015,
    "Ġmortal": 4680,
    "horror": 13163,
    "tray": 21080,
    "Ġoblivion": 26034,
    "liking": 22933,
    "Ġshr": 4224,
    "when": 1586,
    "obedience": 17412,
    "ashes": 6018,
    "Ġ132": 19898,
    "Ġadversarial": 5607,
    "Ġproceeds": 12082,
    "home": 7341,
    "ä": 165,
    "Ġjem": 18403,
    "auley": 22631,
    "Ġtattooing": 15030,
    "Ġbount": 15572,
    "Ġbrute": 8929,
    "according": 12030,
    "phant": 6289,
    "Ġnamed": 6141,
    "Ġhorseback": 14852,
    "Ġsleeps": 10448,
    "Ġcleaned": 23191,
    "Ġembellish": 25853,
    "Ġjohnson": 18410,
    "Ġsingularly": 12153,
    "prejud": 11800,
    "Ġstaggered": 9542,
    "Ġbent": 5150,
    "Ġdamning": 19141,
    "Ġskulls": 12963,
    "sax": 21059,
    "million": 25756,
    "Ġmuhammad": 26172,
    "âĢĶâĢľ_": 13208,
    "Ġdesmarest": 22990,
    "Ġsp": 457,
    "Ġunlocking": 20708,
    "Ġintelligible": 15945,
    "Ġruns": 8599,
    "Ġdiscompose": 25584,
    "Ġselfishness": 12293,
    "forming": 15924,
    "Ġhousekeeper": 7456,
    "Ġsorrows": 13359,
    "mushroom": 26398,
    "Ġtopic": 9409,
    "Ġtests": 8959,
    "impatiently": 20474,
    "ody": 1478,
    "Ġarrant": 23305,
    "Ġfirmness": 11239,
    "Ġseparate": 5779,
    "vand": 21111,
    "Ġforemost": 12007,
    "comrade": 18744,
    "reds": 12753,
    "Ġfestival": 25450,
    "others": 7672,
    "Ġhush": 13215,
    "Ġinside": 5449,
    "osop": 4403,
    "Ġproper": 1381,
    "Ġflo": 2588,
    "iard": 9604,
    "Ġtidy": 17093,
    "Ġactively": 18655,
    "jaw": 13746,
    "mult": 8751,
    "Ġlikely": 3600,
    "Ġvillain": 8639,
    "Ġassailed": 23186,
    "shaw": 6864,
    "Ġcobbler": 25835,
    "arrested": 15605,
    "exertion": 16020,
    "madam": 24425,
    "iv": 431,
    "Ġastronomy": 25931,
    "residual": 19264,
    "Ġhorseman": 19610,
    "Ġdistinctly": 7311,
    "_": 67,
    "Ġhereby": 10361,
    "Ġsurpl": 19134,
    "Ġxv": 23414,
    "Ġnervousness": 23563,
    "Ġwhere": 785,
    "Ġutter": 3974,
    "Ġpunch": 9958,
    "flung": 16640,
    "stating": 21652,
    "Ġsilent": 3413,
    "Ġdepicted": 14278,
    "Ġought": 3420,
    "Ġlapl": 19780,
    "Ġopium": 8996,
    "Ġhumans": 8932,
    "Ġseems": 2481,
    "Ġwhistles": 24631,
    "carried": 16713,
    "rooms": 10434,
    "Ġparamount": 15882,
    "pity": 17628,
    "Ġlonged": 6437,
    "Ġezekiel": 26196,
    "doubtful": 24795,
    "Ġarid": 22177,
    "Ġjane": 1754,
    "glory": 23860,
    "Ġappare": 12824,
    "Ġcorpora": 26583,
    "Ġwithdrew": 9699,
    "Ġconceivable": 16614,
    "Ġimagination": 5760,
    "Ġfurthermore": 1170,
    "names": 16510,
    "ssing": 3810,
    "Ġdividing": 12116,
    "grate": 23419,
    "Ġpleasures": 11145,
    "Ġcontextual": 3744,
    "Ġcelebrate": 26361,
    "Ġtender": 5754,
    "Ġdescends": 14288,
    "Ġfluke": 14676,
    "suff": 4961,
    "Ġgrant": 11877,
    "rowed": 22871,
    "Ġhorizont": 6937,
    "Ġunsavory": 20709,
    "tenham": 16322,
    "Ġdelightful": 6322,
    "Ġshrieked": 9551,
    "Ġbirth": 6525,
    "attention": 2111,
    "Ġcourse": 2130,
    "Ġaccidents": 10298,
    "neural": 3067,
    "Ġduty": 4070,
    "ship": 1392,
    "Ġports": 10821,
    "ables": 7893,
    "host": 5869,
    "Ġcrowned": 16842,
    "Ġdifferen": 937,
    "cent": 8075,
    "does": 6196,
    "Ġdesires": 9460,
    "mouthful": 25212,
    "Ġaust": 4872,
    "Ġvictim": 6100,
    "derest": 18315,
    "Ġsurvivor": 17365,
    "Ġpublished": 11243,
    "irectly": 6940,
    "Ġdiffident": 23791,
    "dirty": 20836,
    "Ġaround": 3613,
    "oning": 7573,
    "vering": 15720,
    "apping": 5853,
    "Ġpages": 15612,
    "Ġhorr": 3188,
    "Ġbowls": 23778,
    "Ġden": 3107,
    "chased": 18044,
    "shortly": 12263,
    "Ġcrouching": 23448,
    "Ġharris": 13930,
    "Ġdowry": 20688,
    "gled": 10701,
    "Ġsavoury": 23885,
    "Ġencounter": 6630,
    "Ġextraction": 11253,
    "Ġcontrary": 5262,
    "Ġpianoforte": 15277,
    "ufact": 10735,
    "Ġbreezes": 14872,
    "worked": 19033,
    "loa": 18532,
    "Ġimpertinence": 11368,
    "justice": 7960,
    "Ġvoracity": 25991,
    "Ġvalu": 5040,
    "Ġhurried": 4032,
    "Ġlining": 13954,
    "Ġheeded": 13407,
    "Ġupdates": 1301,
    "pret": 7212,
    "failed": 20865,
    "bree": 15318,
    "shoulders": 16586,
    "Ġvivacious": 19818,
    "Ġupp": 13995,
    "abomin": 15746,
    "gard": 7339,
    "Ġensu": 7878,
    "Ġserenity": 10031,
    "Ġsally": 15505,
    "Ġhaw": 10254,
    "Ġverdant": 15004,
    "Ġstatue": 23156,
    "Ġlitter": 19832,
    "Ġincarnate": 20378,
    "Ġungrateful": 14124,
    "Ġmapple": 11152,
    "Ġcountenances": 11968,
    "Ġsecondary": 23338,
    "Ġgrappling": 25817,
    "Ġjones": 7204,
    "ception": 6564,
    "Ġvel": 7186,
    "canonical": 22972,
    "vult": 21116,
    "Ġcooper": 16079,
    "Ġpleasure": 2693,
    "bert": 4661,
    "Ġpots": 9431,
    "vicious": 21121,
    "Ġdrily": 23547,
    "Ġpitied": 14694,
    "Ġcapstan": 9101,
    "=": 33,
    "verd": 21733,
    "flies": 19427,
    "Ġdood": 22248,
    "cooee": 12422,
    "Ġfantastic": 10062,
    "Ġvic": 5238,
    "Ġhval": 21493,
    "lab": 3457,
    "kily": 20939,
    "violets": 23551,
    "Ġbefallen": 12347,
    "beth": 13692,
    "Ġstained": 11655,
    "Ġconvolutional": 2166,
    "Ġbarriers": 23802,
    "Ġbeggars": 20632,
    "Ġcomprise": 18584,
    "continu": 5502,
    "Ġthirds": 16709,
    "insensibility": 23079,
    "Ġclubs": 25183,
    "Ġbustle": 17229,
    "queg": 1767,
    "ĠĠĠĠĠĠĠĠĠĠĠĠĠĠĠĠĠĠĠĠĠĠĠĠĠĠĠĠĠĠĠĠĠĠĠĠĠĠĠĠĠĠĠĠĠĠĠĠĠĠĠĠĠĠĠĠĠĠĠĠ": 19262,
    "luck": 5734,
    "onement": 21259,
    "Ġapparently": 6779,
    "Ġlashings": 25105,
    "Ġreciprocating": 26373,
    "Ġscreen": 17207,
    "Ġoppression": 23660,
    "Ġjoy": 3182,
    "Ġfacility": 19852,
    "Ġcautiousness": 19868,
    "Ġbold": 5294,
    "Ġsane": 21224,
    "Ġtone": 4039,
    "Ġswell": 8951,
    "gans": 11492,
    "terrific": 25048,
    "Ġhairs": 13235,
    "cocks": 23567,
    "ckery": 22096,
    "Ġdonkey": 23234,
    "Ġecl": 18008,
    "oms": 4590,
    "bies": 15316,
    "Ġcrimes": 8591,
    "vag": 8768,
    "comes": 5395,
    "Ġweighing": 20019,
    "Ġestimates": 3749,
    "Ġbuildings": 24724,
    "Ġ56": 24324,
    "Ġscowl": 22291,
    "Ġentropy": 2031,
    "Ġbackbone": 22666,
    "Ġsharply": 9406,
    "Ġnomine": 26459,
    "Ġruddy": 17127,
    "investigations": 25538,
    "bitt": 17487,
    "Ġwhale": 627,
    "Ġbrig": 11049,
    "partner": 19223,
    "Ġinsip": 19269,
    "will": 1966,
    "Ġappl": 1761,
    "Ġnovelist": 24781,
    "Ġbanking": 19633,
    "hound": 20897,
    "ctive": 11626,
    "ratulations": 20129,
    "conditional": 9080,
    "plexy": 18568,
    "Ġcarted": 21354,
    "windlass": 16722,
    "Ġpiteous": 17917,
    "Ġsurmisings": 26596,
    "orse": 5808,
    "Ġconveniences": 19815,
    "fering": 17543,
    "Ġbankers": 24308,
    "Ġmankind": 6700,
    "zeal": 16267,
    "Ġchestnuts": 24385,
    "surpr": 5999,
    "beryls": 25314,
    "zwilliam": 5075,
    "sw": 4741,
    "twas": 15440,
    "Ġpods": 17914,
    "sequently": 14585,
    "drovand": 24764,
    "grim": 19108,
    "Ġstup": 14008,
    "Ġexpressions": 7707,
    "ribution": 14310,
    "Ġdeployment": 11203,
    "Ġecstasy": 11633,
    "gia": 20878,
    "Ġumbrell": 13654,
    "ridden": 24366,
    "harmony": 25755,
    "Ġcognitive": 13638,
    "provoke": 26074,
    "crow": 9593,
    "Ġunexpectedly": 19911,
    "owders": 18050,
    "Ġbestow": 6456,
    "Ġepidemic": 20698,
    "ifying": 5236,
    "lemagne": 26439,
    "âĢĿâĢĶ": 5722,
    "ix": 1796,
    "Ġnich": 21525,
    "Ġpatience": 2806,
    "strangely": 17278,
    "Ġconsummate": 25315,
    "Ġdandy": 17894,
    "Ġamusing": 11804,
    "Ġground": 2846,
    "Ġpent": 17902,
    "18": 20753,
    "Ġbad": 3987,
    "lingly": 9776,
    "shed": 8097,
    "dismay": 19156,
    "Ġcorrespond": 6211,
    "Ġport": 3311,
    "Ġgust": 21602,
    "Ġexploring": 4304,
    "Ġduring": 873,
    "Ġpiercing": 13497,
    "Ġbolts": 16944,
    "ique": 8746,
    "ben": 4927,
    "Ġunheeded": 18262,
    "Ġuniformly": 19149,
    "Ġimpose": 22398,
    "Ġincl": 4268,
    "Ġevident": 6615,
    "sprang": 19994,
    "Ġpreserved": 9264,
    "Ġdecapitated": 20619,
    "otle": 21803,
    "Ġunrestrained": 25559,
    "Ġfurlongs": 20725,
    "lipped": 16220,
    "mology": 12496,
    "Ġconcussion": 26303,
    "ased": 1267,
    "Ġraised": 4659,
    "Ġtag": 15471,
    "Ġreconciled": 13591,
    "Ġenvelope": 7319,
    "Ġrepair": 11981,
    "Ġberths": 20118,
    "Ġgiver": 21610,
    "abounding": 25984,
    "wrote": 11549,
    "Ġhurrying": 11997,
    "Ġsoaked": 15866,
    "ishes": 6524,
    "Ġsignification": 19205,
    "Ġvagueness": 25742,
    "Ġborne": 6353,
    "provided": 13641,
    "Ġbewil": 11660,
    "Ġauthorities": 11266,
    "comprehend": 14362,
    "Ġhumped": 19772,
    "architect": 22900,
    "Ġaccumulated": 11935,
    "decan": 22147,
    "prison": 14665,
    "committed": 18743,
    "iew": 2447,
    "Ġintimidated": 24807,
    "egyptians": 25903,
    "ourselves": 9013,
    "uzzle": 19586,
    "Ġstand": 1733,
    "Ġarguing": 25475,
    "Ġintermediate": 18589,
    "ama": 11680,
    "Ġsuperstition": 15059,
    "88": 20760,
    "Ġswart": 14437,
    "village": 25427,
    "Ġvir": 7002,
    "Ġpick": 4254,
    "additional": 20467,
    "Ġmamma": 10051,
    "Ġbounds": 9921,
    "Ġma": 3253,
    "Ġblinding": 14731,
    "Ġapplying": 13095,
    "somewhat": 11162,
    "Ġenticements": 26037,
    "ences": 1264,
    "Ġunnecessary": 8854,
    "meet": 11860,
    "Ġserved": 8248,
    "covering": 15337,
    "Ġbest": 1972,
    "ott": 1868,
    "Ġsurf": 19133,
    "Ġnaut": 13944,
    "Ġabsent": 7016,
    "Ġsharing": 3477,
    "Ġdepends": 1037,
    "Ġglimmered": 20174,
    "Ġlaughed": 5060,
    "crimson": 24094,
    "lucifer": 25306,
    "Ġillinois": 19138,
    "absolute": 17124,
    "idean": 14265,
    "Ġuninter": 18247,
    "Ġbattering": 13904,
    "Ġcareless": 11121,
    "about": 3589,
    "Ġdiscriminator": 3393,
    "Ġinheritance": 25360,
    "Ġfeigned": 22215,
    "ional": 1085,
    "induce": 22380,
    "tfordshire": 4812,
    "Ġexclamations": 11363,
    "Ġmusic": 5270,
    "oyed": 14368,
    "descending": 16287,
    "Ġwashington": 17204,
    "hem": 6666,
    "Ġmim": 3106,
    "Ġforests": 13596,
    "anean": 7443,
    "Ġpatiently": 19920,
    "Ġwindlass": 7256,
    "Ġmoderately": 22225,
    "Ġforbidden": 17078,
    "Ġquaff": 22420,
    "handsome": 13180,
    "Ġcontemplation": 11359,
    "Ġbloss": 19258,
    "Ġissues": 9545,
    "Ġmouse": 4693,
    "Ġdescribing": 19256,
    "Ġmin": 1024,
    "leviathans": 19941,
    "Ġdrawled": 23997,
    "Ġunrestingly": 20364,
    "Ġpiling": 17910,
    "isol": 17848,
    "stee": 21656,
    "Ġvalues": 2651,
    "dishon": 20407,
    "ighted": 8479,
    "Ġju": 10289,
    "Ġsoothingly": 25055,
    "enges": 13058,
    "Ġrobe": 18458,
    "ign": 1702,
    "caused": 25524,
    "ain": 343,
    "Ġphil": 3387,
    "captains": 12132,
    "Ġannihil": 10177,
    "treated": 21097,
    "Ġforming": 7044,
    "Ġstamping": 20034,
    "Ġforbidding": 17079,
    "Ġlany": 21559,
    "Ġoutriders": 26546,
    "Ġbale": 7840,
    "Ă": 195,
    "Ġfreed": 7267,
    "Ġunsophisticated": 25997,
    "ices": 2138,
    "Ġsource": 6806,
    "ister": 1297,
    "ogra": 4570,
    "Ġtranslations": 12055,
    "Ġmartial": 20294,
    "Ġsuspense": 9421,
    "darcy": 5209,
    "ensed": 10997,
    "nostril": 26562,
    "Ġwisely": 13276,
    "solitude": 23303,
    "Ġimparts": 18453,
    "Ġcareer": 11120,
    "Ġdavy": 25956,
    "Ġremonstrate": 22802,
    "Ġveteran": 17452,
    "ĠâĢľâĢĺ": 8506,
    "Ġmarsh": 9824,
    "Ġenveloped": 12213,
    "Ġsm": 705,
    "iber": 6507,
    "erect": 20850,
    "arising": 17897,
    "Ġhalf": 1669,
    "Ġreplete": 15702,
    "Ġdepend": 770,
    "Ġthrees": 23408,
    "oud": 1940,
    "ouring": 6421,
    "Ġinsufferable": 13934,
    "Ġtweed": 22685,
    "inter": 2947,
    "ensibility": 22553,
    "Ġtweezers": 26559,
    "Ġincredible": 9518,
    "Ġanteced": 26180,
    "Ġsequence": 1973,
    "amb": 5724,
    "Ġboil": 16108,
    "om": 315,
    "wat": 6233,
    "aged": 2607,
    "ums": 10275,
    "rie": 2785,
    "Ġconstraints": 2737,
    "Ġghast": 9211,
    "Ġapprehens": 5683,
    "ert": 2632,
    "iamond": 14592,
    "...": 24553,
    "Ġsurplus": 26306,
    "Ġpricking": 23226,
    "Ġowners": 7665,
    "Ġabsolut": 3909,
    "exceedingly": 9569,
    "Ġheeds": 24524,
    "Ġpyramids": 15118,
    "sey": 5543,
    "Ġachieved": 13170,
    "Ġmistaken": 4987,
    "yea": 23097,
    "Ġlose": 5029,
    "Ġcontains": 2791,
    "Ġhas": 826,
    "Ġstrengthen": 20703,
    "Ġmoral": 6581,
    "Ġhug": 6980,
    "rederick": 14082,
    "Ġnobody": 6160,
    "Ġgrimesby": 11459,
    "avating": 18607,
    "Ġwooing": 19437,
    "Ġdad": 12605,
    "Ġclub": 8876,
    "proachable": 23405,
    "Ġstock": 7455,
    "!--": 10680,
    "Ġmaids": 19694,
    "Ġcombining": 22863,
    "amous": 15765,
    "fordshire": 4675,
    "Ġnegatived": 23057,
    "Ġbil": 15569,
    "Ġdrifted": 14627,
    "Ġclass": 802,
    "levi": 7049,
    "Ġgerman": 6143,
    "oices": 7348,
    "Ġcollectively": 19971,
    "drown": 13708,
    "hawk": 7123,
    "Ġendangered": 16305,
    "rons": 21042,
    "Ġfronted": 23265,
    "Ġmathemat": 3202,
    "Ġignited": 25077,
    "Ġenglishman": 11231,
    "subsided": 25836,
    "Ġmuttered": 7088,
    "Ġreddening": 25975,
    "Ġrepining": 23368,
    "repairing": 24499,
    "stochastic": 3774,
    "Ġannum": 24209,
    "Ġdirecting": 16302,
    "Ġfainting": 16898,
    "possesses": 24623,
    "Ġparacelsus": 15270,
    "allied": 7410,
    "Ġyears": 1889,
    "Ġherself": 1565,
    "hollow": 24048,
    "Ġdrawing": 3916,
    "Ġblankness": 24617,
    "Ġantilles": 24185,
    "Ġscrewing": 20211,
    "Ġhuzza": 12638,
    "Ġmonitors": 3155,
    "pled": 7895,
    "ø": 185,
    "Ġsit": 4215,
    "Ġtightly": 13537,
    "uber": 15448,
    "Ġminim": 1325,
    "shape": 10983,
    "avenue": 25065,
    "message": 17374,
    "couldn": 23726,
    "Ġloosed": 22118,
    "Ġyet": 1026,
    "Ġsketch": 16167,
    "Ġgiving": 4084,
    "ortions": 10950,
    "odox": 21819,
    "assure": 9272,
    "cont": 2920,
    "nostr": 22748,
    "Ġstubbs": 23302,
    "hatchet": 24824,
    "Ġjuicy": 25375,
    "olen": 9704,
    "account": 5331,
    "aset": 10835,
    "saf": 11527,
    "Ġinflamed": 13477,
    "hus": 5073,
    "delay": 16696,
    "peddling": 21034,
    "Ġsong": 5905,
    "ickory": 22677,
    "Ġslides": 18941,
    "Ġdeliberation": 19972,
    "Ġcontrast": 2119,
    "Ġtombed": 25167,
    "G": 43,
    "Ġchased": 8864,
    "uttural": 21594,
    "Ġconsc": 4272,
    "Ġcistern": 17383,
    "staring": 18023,
    "Ġcrucifix": 26082,
    "Ġdaughter": 2868,
    "Ġdread": 3161,
    "Ġreconc": 9686,
    "swam": 24260,
    "Ġprophes": 16351,
    "vert": 15719,
    "ede": 21511,
    "Ġbones": 4580,
    "Ġfad": 17878,
    "Ġenveloping": 19736,
    "Ġdoesn": 7438,
    "Ġdeuteronomy": 15762,
    "Ġwoodlands": 23528,
    "itig": 1334,
    "apothe": 22340,
    "Ġchatbots": 11351,
    "itu": 1226,
    "Ġgravesend": 15220,
    "Ġcampaign": 20663,
    "Ġpond": 13919,
    "Ġobjections": 8567,
    "Ġal": 342,
    "Ġstaple": 26202,
    "Ġvoluntarily": 12145,
    "Ġfaculties": 14961,
    "Ġclanging": 18430,
    "darkness": 9515,
    "leeward": 15214,
    "sombre": 23862,
    "casks": 20406,
    "Ġofficial": 7083,
    "anced": 1283,
    "Ġproduct": 3535,
    "Ġdispelling": 23888,
    "injustice": 17738,
    "Ġoptimize": 1514,
    "Ġreynolds": 10212,
    "Ġeconomical": 25292,
    "Ġdarling": 12609,
    "isk": 9169,
    "choose": 23680,
    "Ġgroping": 13669,
    "readiness": 19366,
    "Ġspinning": 15055,
    "cott": 8076,
    "Ġhen": 3504,
    "accomplishments": 25331,
    "inclination": 20061,
    "Ġrueful": 25586,
    "Ġgoverning": 2793,
    "apan": 6860,
    "Ġspeckled": 14312,
    "heat": 15500,
    "Ġpeak": 16129,
    "Ġgodfre": 14531,
    "Ġspo": 6846,
    "Ġwont": 9855,
    "ffic": 22163,
    "Ġscoundrel": 13674,
    "fil": 12467,
    "Ġold": 1059,
    "mingled": 14716,
    "Ġredu": 1357,
    "consuming": 25679,
    "Ġtreas": 7358,
    "Ġincreasingly": 9374,
    "Ġtoday": 12648,
    "Ġwickham": 2208,
    "endured": 22222,
    "Ġsail": 1672,
    "progression": 20385,
    "Ġdivided": 8635,
    "Ġkent": 6694,
    "Ġtalked": 4419,
    "Ġcompares": 20169,
    "Ġdirected": 5579,
    "Ġresisted": 22547,
    "mediate": 16516,
    "means": 9789,
    "correct": 24487,
    "Ġcheat": 19018,
    "Ġswarming": 16275,
    "Ġouter": 6859,
    "etah": 12666,
    "mid": 5617,
    "Ġcontrasting": 11156,
    "Ġhoard": 23360,
    "Ġardently": 9501,
    "covery": 11173,
    "Ġungod": 22030,
    "Ġsynthe": 26012,
    "Ġsuspend": 14610,
    "fect": 2302,
    "Ġshut": 3941,
    "moment": 3581,
    "les": 1014,
    "eh": 13713,
    "Ġclapham": 17267,
    "Ġpainting": 13145,
    "Ġawa": 7715,
    "Ġseap": 15818,
    "Ġcostume": 16497,
    "Ġbingley": 1676,
    "Ġminiature": 11042,
    "Ġshake": 6036,
    "Ġspecial": 2104,
    "rod": 10834,
    "Ġnearly": 3364,
    "terr": 8156,
    "Ġextract": 1563,
    "Ġanalyze": 1591,
    "Ġsentinel": 26068,
    "Ġretire": 10384,
    "Ġholiday": 13002,
    "Ġwhipcord": 20098,
    "Ġwindsor": 16888,
    "Ġpipe": 4320,
    "chers": 11319,
    "Ġstepped": 7053,
    "Ġopposition": 16523,
    "farmer": 25904,
    "ė": 216,
    "Ġparaph": 22126,
    "emotions": 15799,
    "Ġdisdained": 15012,
    "billiard": 25339,
    "Ġe": 311,
    "often": 6167,
    "Ġlizzy": 3547,
    "Ġshrine": 19534,
    "ection": 4948,
    "Ġpuzzled": 7317,
    "Ġcase": 1939,
    "Ġvillas": 24061,
    "Ġdelicate": 6481,
    "akes": 2220,
    "Ġangelic": 19630,
    "Ġbodiless": 24232,
    "Ġannot": 15606,
    "Ġgibraltar": 25792,
    "Ġpestilent": 25782,
    "unhappy": 10240,
    "Ġmortification": 12099,
    "Ġseconds": 16397,
    "Ġstrand": 11832,
    "Ġprolonged": 8360,
    "Ġsegment": 12762,
    "that": 850,
    "ught": 2749,
    "Ġdau": 21430,
    "Ġshowed": 4494,
    "Ġlegit": 16474,
    "Ġcastle": 14720,
    "Ġsets": 8778,
    "Ġbrightness": 16578,
    "visitor": 15062,
    "Ġbreach": 11976,
    "Ġbo": 796,
    "Ġexpanding": 25243,
    "Ġ106": 24418,
    "ark": 848,
    "Ġliberal": 12195,
    "luyt": 18455,
    "Ġmonotonous": 13267,
    "woman": 5901,
    "Ġim": 480,
    "Ġafternoon": 6055,
    "Ġasylum": 13670,
    "anks": 3915,
    "00": 1606,
    "cc": 470,
    "Ġinsects": 25651,
    "necessarily": 19634,
    "reputable": 15520,
    "greenland": 10024,
    "Ġpunchbowl": 20234,
    "Ġvexations": 24616,
    "Ġstil": 15722,
    "Ġdiabol": 11455,
    "Ġcausal": 3412,
    "Ġother": 762,
    "Ġdoors": 6419,
    "Ġtapped": 11556,
    "centre": 17087,
    "explanation": 12362,
    "feet": 6570,
    "Ġexperience": 1354,
    "Ġwe": 388,
    "Ġassum": 4064,
    "rix": 1571,
    "Ġcaptioning": 23034,
    "uated": 10134,
    "Ġpersonality": 16478,
    "ane": 1179,
    "Ġrecurrent": 1800,
    "brated": 12029,
    "Ġlife": 1356,
    "harpoons": 24291,
    "Ġtesting": 23231,
    "Ġpardon": 5728,
    "league": 17846,
    "Ġtempered": 12927,
    "plutarch": 21969,
    "Ġpeculiarity": 12937,
    "Ġalacrity": 15741,
    "Ġdev": 889,
    "Ġcounting": 13098,
    "Ġhappened": 3715,
    "Ġ15": 9327,
    "Ġengaging": 9339,
    "collins": 6916,
    "Ġhier": 1891,
    "Ġmantel": 11441,
    "Ġidol": 7467,
    "Ġstraightened": 12113,
    "vered": 4831,
    "umbered": 22123,
    "Ġcannibals": 10590,
    "Ġdeeply": 4716,
    "Ġrevolution": 3306,
    "Ġwidows": 24242,
    "big": 13689,
    "lier": 20951,
    "Ġpill": 7848,
    "Ġmarty": 20293,
    "Ġacquiring": 2765,
    "atmospheric": 17777,
    "blocks": 25522,
    "Ġexcl": 3475,
    "Ġrent": 11642,
    "Ġajar": 21205,
    "Ġpeculiarly": 8289,
    "Ġshar": 9252,
    "vent": 682,
    "grasp": 16433,
    "Ġdelic": 4133,
    "agation": 1241,
    "Ġdraught": 9847,
    "Ġamelia": 26255,
    "Ġvapors": 19910,
    "Ġwin": 9644,
    "Ġlessons": 7694,
    "Ġairy": 23323,
    "cules": 12395,
    "Ġbefall": 8832,
    "Ġexcursion": 26592,
    "esy": 9187,
    "Ġrustling": 24719,
    "Ġrece": 11641,
    "Ġimply": 18451,
    "ĠĠĠĠĠĠĠĠĠĠĠĠĠĠĠĠĠĠĠĠĠĠĠĠĠĠĠĠĠĠĠĠĠĠĠĠĠĠĠĠĠĠĠĠĠĠĠĠĠĠĠ": 20042,
    "oriental": 23729,
    "Ġpreside": 18366,
    "Ġlunatic": 25000,
    "Ġsun": 1718,
    "ashtego": 4102,
    "com": 997,
    "Ġbaron": 19336,
    "again": 3400,
    "Ġdiscoveries": 13363,
    "achable": 14140,
    "wheeling": 22880,
    "ancies": 11587,
    "ified": 3228,
    "meetings": 20381,
    "Ġcrush": 9425,
    "combs": 22826,
    "glimmer": 26325,
    "soo": 18686,
    "Ġvile": 8475,
    "omen": 4085,
    "Ġconsulted": 13434,
    "Ġembra": 6580,
    "wich": 11546,
    "ther": 482,
    "Ġsneering": 24701,
    "Ġhammers": 13245,
    "Ġremarkable": 4916,
    "mastod": 23982,
    "par": 1837,
    "Ġstreets": 5865,
    "Ġadopt": 10635,
    "Ġheron": 22079,
    "uncontrollable": 20599,
    "paus": 13776,
    "Ġfrosts": 19805,
    "et": 307,
    "Ġtil": 12529,
    "Ġoversight": 22353,
    "ourably": 14380,
    "Ġjustine": 4971,
    "ĠĠĠĠĠĠĠĠĠĠĠĠĠĠ": 22569,
    "fellows": 12278,
    "Ġsolic": 7935,
    "dron": 17526,
    "Ġresounds": 22548,
    "Ġtyros": 26104,
    "Ġpostmark": 16726,
    "Ġlydia": 2374,
    "mit": 4934,
    "nui": 21002,
    "Ġhanging": 5448,
    "Ġsnatched": 10473,
    "orified": 21406,
    "Ġferocious": 17421,
    "Ġgrey": 4510,
    "ieged": 22583,
    "Ġtranquillity": 7537,
    "mod": 1051,
    "rid": 5138,
    "Ġcolle": 8927,
    "Ġsalut": 10512,
    "Ġhieroglyphics": 17305,
    "Ġgour": 21603,
    "Ġparcel": 15203,
    "tiest": 21084,
    "Ġjeopardy": 13600,
    "Ġye": 899,
    "Ġpa": 2989,
    "north": 14617,
    "increased": 20273,
    "garnished": 26391,
    "Ġvelocity": 10623,
    "nx": 17608,
    "addressed": 13389,
    "muttered": 13762,
    "Ġpuzzling": 14899,
    "Ġqueer": 4476,
    "iem": 20919,
    "Ġjingling": 26022,
    "supers": 22648,
    "Ġintegrated": 13534,
    "fav": 6649,
    "Ġburgl": 13177,
    "Ġenvirons": 13191,
    "Ġthursday": 12649,
    "Ġunerringly": 18266,
    "Ġloafer": 18300,
    "Ġbenediction": 18786,
    "Ġforbade": 15218,
    "simultaneously": 19866,
    "elfth": 22375,
    "borean": 25748,
    "Ġfeasts": 25374,
    "Ġunconsciously": 10008,
    "Ġbreaking": 6312,
    "Ġwonders": 7501,
    "?âĢĻâĢĿ": 23650,
    "Ġsupplying": 19801,
    "Ġepisode": 26351,
    "Ġbarbarously": 24821,
    "Ġtoss": 10187,
    "Ġlady": 1582,
    "Ġtash": 13823,
    "Ġic": 9628,
    "Ġflorid": 17136,
    "Ġinqu": 2966,
    "respective": 19848,
    "Ġalive": 4397,
    "neighboring": 20620,
    "Ġalmanac": 26488,
    "Ġimpud": 18452,
    "ro": 301,
    "Ġemploy": 3618,
    "stript": 21662,
    "Ġjogged": 26240,
    "Ġtoward": 17949,
    "Ġwarbling": 26171,
    "Ġfilled": 4393,
    "Ġconveniently": 20082,
    "reasonable": 7753,
    "Ġdiadem": 24745,
    "lead": 10168,
    "Ġwigwam": 11430,
    "okes": 9279,
    "Ġpetersburgh": 24234,
    ":--": 5785,
    "Ġrowing": 10303,
    "improve": 15716,
    "substance": 15235,
    "Ġtooth": 9194,
    "Ġbrandy": 11051,
    "marriage": 7746,
    "Ġshipmates": 6722,
    "Ġelaborate": 18637,
    "missionary": 24622,
    "ċ": 204,
    "Ġflinging": 13589,
    "poise": 6173,
    "izz": 7616,
    "Ġembedd": 1413,
    "Ġconsolation": 6210,
    "Ġfrank": 4418,
    "Ġtim": 4575,
    "last": 3804,
    "Ġshould": 865,
    "asy": 5297,
    "unw": 14060,
    "ios": 2225,
    "professional": 20278,
    "Ġrid": 4353,
    "Ġsweetest": 13251,
    "Ġrelieved": 7668,
    "Ġimprobable": 9798,
    "Ġnaught": 8130,
    "recover": 24629,
    "Ġmak": 10780,
    "Ġ1839": 20463,
    "ry": 807,
    "Ġconfinement": 19037,
    "lucky": 24549,
    "christ": 10213,
    "Ġforcing": 3226,
    "sides": 12512,
    "Ġsyllable": 9731,
    "Ġph": 1545,
    "Ġdragging": 14477,
    "Ġdisappointment": 6629,
    "impatient": 13644,
    "oboam": 9361,
    "Ġmisanthropic": 26563,
    "Ġeulogy": 26473,
    "Ġcasc": 15560,
    "Ġkirwin": 8499,
    "Ġivory": 4474,
    "Ġgang": 9209,
    "Ġwheelbarrow": 17206,
    "Ġbehaviors": 13258,
    "holmes": 4429,
    "Ġsank": 5077,
    "Ġinherent": 4588,
    "assistant": 25572,
    "ford": 2822,
    "iless": 10284,
    "Ġimbedded": 18340,
    "Ġcased": 21350,
    "Ġclinch": 18432,
    "Ġflashes": 11921,
    "Ġpreyed": 18367,
    "Ġbapt": 13899,
    "Ġtypewriter": 19099,
    "gone": 6505,
    "Ġexisting": 12723,
    "Ġentailed": 11028,
    "Ġgurg": 15677,
    "cceed": 4141,
    "Ġjohn": 5033,
    "Ġmidst": 7988,
    "boots": 11128,
    "ermaid": 14301,
    "Ġimposed": 14222,
    "minute": 11276,
    "ugnance": 12371,
    "aff": 3102,
    "Ġexploration": 2338,
    "Ġhark": 8431,
    "Ġreligion": 11417,
    "weeks": 14319,
    "Ġprimary": 25068,
    "Ġbonnet": 10658,
    "Ġdiscerned": 24964,
    "ins": 1380,
    "Ġhappier": 10362,
    "Ġinasmuch": 10828,
    "ering": 1266,
    "Ġadagrad": 2902,
    "rush": 7012,
    "Ġdegrad": 2589,
    "Ġdeclining": 23972,
    "Ġcommended": 18657,
    "Ġflitting": 13031,
    "nantucketer": 24982,
    "shadows": 25484,
    "repeating": 20132,
    "Ġmissing": 6177,
    "Ġsavann": 14686,
    "Ġchina": 8042,
    "kne": 20937,
    "eches": 8080,
    ",": 16,
    "correspond": 13402,
    "Ġclear": 1948,
    "Ġoverflowing": 17239,
    "ignominious": 26590,
    "Ġleaped": 8829,
    "Ġboyhood": 23763,
    "hun": 5211,
    "friends": 8308,
    "Ġstile": 21738,
    "Ġissued": 10602,
    "Ġgritted": 22813,
    "pervading": 18973,
    "procure": 23404,
    "Ġaveraging": 2419,
    "Ġmales": 17807,
    "Ġdispirited": 23890,
    "Ġcupboard": 16884,
    "Ġoily": 13867,
    "Ġphotograph": 6304,
    "Ġprospect": 4705,
    "Ġlegisl": 23542,
    "51": 12435,
    "Ġlion": 9678,
    "charles": 14702,
    "Ġguardianship": 17422,
    "desirable": 23818,
    "Ġgoodge": 22832,
    "Ġapt": 9157,
    "Ġpraises": 16731,
    "Ġreprehensible": 15703,
    "utmost": 21593,
    "Ġrank": 6260,
    "Ġconvinced": 4205,
    "Ġsurmis": 23469,
    "Ġdivine": 6921,
    "belongs": 25601,
    "pest": 6965,
    "Ġuniformity": 23489,
    "Ġbidden": 24652,
    "Ġcharles": 11959,
    "Ġmeadows": 11424,
    "rail": 10207,
    "cream": 15334,
    "Ġgros": 14825,
    "adventures": 20259,
    "Ġdisputes": 25830,
    "Ġembarrassed": 11386,
    "Ġpondered": 15170,
    "Ġlearnedly": 23393,
    "Ġcrept": 11023,
    "Ġintended": 5548,
    "aculate": 16087,
    "Ġlandau": 16422,
    "Ġtwenty": 3949,
    "Ġlesson": 7276,
    "lengths": 24852,
    "Ġwardrobe": 17227,
    "Ġaback": 22272,
    "Ġsite": 17754,
    "Ġmagnitudes": 3823,
    "Ġdictate": 20154,
    "Ġdisse": 18549,
    "Ġpeddler": 26183,
    "adler": 21768,
    "iality": 8847,
    "Ġposition": 1952,
    "Ġperformed": 8548,
    "Ġeluded": 12926,
    "Ġparmacetti": 20607,
    "Ġringbolts": 24202,
    "Ġcharnel": 22258,
    "Ġveins": 8934,
    "rary": 4572,
    "arians": 18527,
    "Ġstrategy": 2264,
    "Ġintroduce": 3204,
    "liter": 11504,
    "Ġfarmhouse": 24994,
    "Ġmethods": 3158,
    "Ġuntrodden": 23529,
    "yield": 13812,
    "romang": 22011,
    "myster": 16265,
    "Ġpersever": 10006,
    "ival": 4225,
    "resh": 8407,
    "Ġrevol": 5537,
    "Ġdischarge": 18557,
    "life": 4933,
    "Ġfeeling": 3084,
    "hooked": 23724,
    "rel": 3755,
    "Ġcapital": 7982,
    "magnetic": 20555,
    "Ġaffirm": 11891,
    "hering": 12819,
    "Ġcriminals": 19924,
    "Ġlic": 8439,
    "Ġincompetent": 25684,
    "Ġskeletons": 16792,
    "Ġmalicious": 10560,
    "ulls": 8841,
    "Ġbabes": 24429,
    "clifford": 23164,
    "Ġvan": 1088,
    "absolut": 8461,
    "Ġcautious": 12258,
    "Ġgraceful": 11298,
    "Ġte": 1151,
    "Ġgoverned": 23577,
    "Ġblacksmiths": 19875,
    "Ġ19": 6721,
    "Ġtree": 5286,
    "note": 14343,
    "Ġsimulates": 2736,
    "ssian": 3401,
    "Ġ1828": 25724,
    "possess": 5986,
    "Ġpurchas": 19876,
    "icating": 15659,
    "icult": 3343,
    "dislike": 23500,
    "Ġdownst": 3561,
    "treatment": 20415,
    "bye": 5952,
    "Ġparadise": 11196,
    "Ġtongue": 6349,
    "anch": 15564,
    "Ġunusual": 6555,
    "Ġprepared": 5879,
    "Ġpersisted": 13041,
    "crucible": 24848,
    "accurately": 25866,
    "Ġthree": 1374,
    "Ġseam": 3907,
    "Ġreckoned": 24748,
    "ġ": 226,
    "narrowly": 20350,
    "Ġguiding": 19243,
    "string": 15690,
    "burnt": 20083,
    "Ġderived": 8241,
    "Ġterti": 14540,
    "ositories": 22270,
    "Ġnapoleons": 25890,
    "Ġaloft": 4302,
    "Ġunsupervised": 2478,
    "Ġfiddle": 25449,
    "osition": 1377,
    "Ġmovements": 24363,
    "abbering": 21802,
    "ie": 729,
    "Ġabsorbing": 17130,
    "ana": 15563,
    "tackles": 25629,
    "Ġannoy": 17200,
    "balance": 12009,
    "cottagers": 20051,
    "Ġimmediately": 3368,
    "Ġtiles": 17727,
    "Ġprocessions": 18434,
    "narrow": 11510,
    "ages": 828,
    "Ġporpoise": 7108,
    "Ġbru": 13898,
    "Ġgenerate": 1551,
    "Ġhand": 860,
    "Ġdeepest": 8215,
    "Ġexclaim": 11223,
    "Ġleaning": 5229,
    "Ġstruct": 2782,
    "Ġtelling": 5748,
    "Ġraising": 8912,
    "Ġbeaches": 18087,
    "Ġreputed": 18038,
    "Ġgoes": 3853,
    "Ü": 157,
    "Ġsincere": 11138,
    "Ġcoward": 7156,
    "Ġsweeping": 8987,
    "po": 1140,
    "Ġdepths": 4325,
    "dispositions": 25019,
    "Ġconvergence": 973,
    "Ġremoved": 5276,
    "Ġdashing": 8799,
    "astrous": 15890,
    "Ġfiner": 13057,
    "Ġspoke": 2745,
    "Ġexecute": 7506,
    "Ġdeeper": 2085,
    "Ġportra": 9011,
    "Ġoh": 2177,
    "storm": 9685,
    "Ġvanishing": 1348,
    "Ġtig": 13816,
    "Ġpewter": 17187,
    "Ġshud": 5462,
    "otent": 8835,
    "ĠĠĠĠĠĠĠĠĠĠĠĠĠĠĠĠĠĠĠĠĠĠĠĠĠ": 24446,
    "endent": 15921,
    "Ġremove": 7500,
    "dashing": 20838,
    "slowly": 9091,
    "Ġirregularly": 25328,
    "Ġcovent": 16076,
    "Ġcomo": 21853,
    "Ġprivileges": 25138,
    "Ġpatentee": 25591,
    "hurriedly": 25515,
    "Ġquick": 2581,
    "arpaul": 14538,
    "frequently": 9982,
    "wrong": 13210,
    "Ġobserve": 4669,
    "safe": 10057,
    "Ġsums": 2901,
    "hullo": 17571,
    "sprinkling": 24918,
    "Ġexasper": 8469,
    "Ġretreating": 19802,
    "esteemed": 26014,
    "ixed": 4853,
    "Ġhistorical": 3648,
    "Ġoscillations": 2896,
    "Ġcascade": 20584,
    "Ġwashing": 9708,
    "length": 7136,
    "ach": 435,
    "Ġlad": 2365,
    "Ġowl": 20087,
    "legged": 10468,
    "doom": 23384,
    "islands": 21380,
    "Ġhundreds": 4327,
    "Ġdiscomp": 11870,
    "Ġlodgings": 8314,
    "Ġsnatching": 10474,
    "ured": 1652,
    "Ġlatest": 16823,
    "Ġjam": 10953,
    "Ġeaglet": 19307,
    "gracious": 11835,
    "ites": 3897,
    "Ġmoran": 9345,
    "Ġphr": 2680,
    "exciting": 19671,
    "Ġworlds": 11951,
    "Ġscimet": 22294,
    "luent": 16000,
    "Ġtooks": 23332,
    "oso": 12834,
    "Ġsaluted": 14761,
    "Ġcows": 15557,
    "Ġphysical": 7523,
    "younger": 11314,
    "Ġaw": 2510,
    "doctor": 19097,
    "apprehens": 17408,
    "dry": 13707,
    "Ġl": 303,
    "Ġfire": 2335,
    "vanished": 15065,
    "Ġagencies": 18540,
    "Ġinvite": 14565,
    "Ġcovered": 5172,
    "Ġindia": 10373,
    "Ġabundantly": 17157,
    "li": 1190,
    "Ġexpon": 967,
    "wicked": 24453,
    "Ġslackened": 15130,
    "Ġquieted": 23851,
    "Ġstrides": 22623,
    "Ġhalloa": 13321,
    "Ġcontrivance": 17184,
    "Ġstops": 3164,
    "ete": 9205,
    "Ġspell": 8858,
    "Ġimpulse": 10027,
    "numerous": 17433,
    "arbuck": 2025,
    "âĢľ": 344,
    "Ġmemb": 14032,
    "brary": 5756,
    "including": 23596,
    "rised": 10126,
    "Ġinfatuated": 20536,
    "Ġawaited": 17074,
    "Ġstructure": 830,
    "âĢĶâĢĻâĢĿ": 20067,
    "Ġmealy": 18121,
    "Ú": 155,
    "gentlemen": 9507,
    "Ġskirt": 18729,
    "intense": 22945,
    "Ġmead": 8838,
    "entering": 17979,
    "kitty": 10108,
    "igin": 3658,
    "^": 66,
    "danish": 20835,
    "Ġastonishing": 10504,
    "Ġvow": 10249,
    "Ġstam": 18068,
    "Ġseeth": 21959,
    "patient": 25347,
    "tomorrow": 25919,
    "shining": 18486,
    "Ġunfathom": 14792,
    "Ġshapeless": 24528,
    "Ġwash": 9706,
    "Ġsaloon": 24071,
    "Ġmac": 15542,
    "Ġheire": 18039,
    "Ġfanny": 23398,
    "fem": 17538,
    "ĠcÃ¦": 15559,
    "valu": 1734,
    "Ġeastward": 13394,
    "Ġref": 915,
    "is": 280,
    "purposes": 25029,
    "Ġmethod": 1501,
    "Ġsli": 4748,
    "Ġcomputes": 4768,
    "Ġenviron": 3923,
    "Ġbrides": 22875,
    "Ġfaithfulness": 24450,
    "Ġtrifles": 16952,
    "rets": 12546,
    "Ġelevating": 19731,
    "Ġascending": 14856,
    "neys": 23588,
    "moonlight": 25380,
    "Ġvacancies": 24349,
    "Ġraving": 16117,
    "ccarthy": 4889,
    "uther": 8820,
    "Ġgripping": 26190,
    "Ġscale": 1546,
    "Ġbarbarous": 13480,
    "elephant": 12355,
    "Ġmysteries": 11324,
    "Ġphant": 7057,
    "Ġvicinity": 7315,
    "reen": 21234,
    "lies": 15385,
    "Ġconsp": 10228,
    "ington": 21305,
    "Ġvanished": 6874,
    "mir": 20965,
    "marked": 9050,
    "understood": 13220,
    "Ġlowers": 23247,
    "declare": 25177,
    "far": 5788,
    "ream": 2707,
    "Ġensued": 11396,
    "olstad": 7614,
    "Ġstrait": 23758,
    "acetti": 13400,
    "Ġduncan": 13465,
    "Ġdependencies": 2315,
    "Ġeth": 17717,
    "Ġsemicircle": 26070,
    "Ġactivity": 7923,
    "Ġoar": 6238,
    "Ġsickened": 16776,
    "Ġhed": 7387,
    "Ġnotwithstanding": 9717,
    "Ġbarque": 23798,
    "Ġnarrating": 24355,
    "Ġhemp": 9217,
    "Ġdimmed": 24273,
    "Ġdl": 3378,
    "Ġprecautions": 23735,
    "ither": 1544,
    "Ġdrive": 5056,
    "Ġpredestinated": 18517,
    "comp": 3818,
    "chair": 5919,
    "Ġreaction": 15699,
    "Ġchink": 15936,
    "Ġsuper": 2156,
    "Ġbat": 10797,
    "Ġproportional": 2524,
    "jet": 13745,
    "perse": 15904,
    "Ġfancied": 7326,
    "yours": 7697,
    "unusually": 15784,
    "Ġdepos": 11005,
    "Ġgordon": 26470,
    "ifully": 13188,
    "Ġneedless": 19231,
    "rifle": 21049,
    "kins": 7345,
    "unken": 10239,
    "green": 7117,
    "Ġben": 1109,
    "Ġpolitical": 19225,
    "onents": 8781,
    "ement": 1500,
    "chat": 21691,
    "Ġexerting": 21838,
    "reason": 4413,
    "Ġod": 4437,
    "Ġruminated": 24606,
    "®": 111,
    "Ġfe": 490,
    "Ġcurious": 3362,
    "Ġlying": 4827,
    "Ġadapt": 974,
    "Ġlondon": 2839,
    "Ġgenerous": 6275,
    "Ġrighted": 23187,
    "leaned": 21373,
    "Ġgrotesque": 26333,
    "Ġpresent": 1640,
    "Ġindicates": 3193,
    "Ġrestrict": 16376,
    "Ġbuy": 8302,
    "insult": 16282,
    "Ġmanipulated": 25182,
    "Ġforts": 21778,
    "Ġor": 437,
    "stache": 15694,
    "Ġformless": 22837,
    "Ġbridge": 8351,
    "invariably": 26419,
    "Ġthirst": 7591,
    "Ġcigar": 9548,
    "Ġgrandfather": 19425,
    "ushed": 2972,
    "pocket": 9814,
    "Ġcommunicating": 16890,
    "Ġhundredth": 16521,
    "Ġmarling": 23045,
    "direct": 12461,
    "Ġsumm": 3357,
    "Ġcelest": 9904,
    ".âĢĻ": 1717,
    "Ġinquir": 4240,
    "Ġcrystals": 20230,
    "Ġboston": 22645,
    "Ġchemist": 11136,
    "pur": 7808,
    "Ġdearly": 10404,
    "Ġparagraph": 17456,
    "Ġow": 8411,
    "icity": 2539,
    "sn": 7140,
    "cleanliness": 25876,
    "Ġcollected": 2611,
    "Ġpatagon": 14507,
    "Ġcurls": 22981,
    "Ġ184": 16608,
    "Ġhut": 15623,
    "Ġsuperstitious": 13523,
    "aching": 5833,
    "promote": 24731,
    "uced": 13803,
    "affected": 10478,
    "horr": 14601,
    "satisf": 5782,
    "Ġsuccessful": 9926,
    "Ġpercept": 14219,
    "Ġirreduc": 5492,
    "urous": 10215,
    "Ġfrequented": 16587,
    "Ġbetray": 7442,
    "Ġrepresentation": 14408,
    "Ġpiny": 21471,
    "ignomin": 23274,
    "data": 1994,
    "Ġknow": 632,
    "ective": 18177,
    "Ġwhereas": 3855,
    "Ġstole": 7955,
    "prov": 16425,
    "Ġanyone": 4457,
    "Ġpeered": 18669,
    "Ġchecking": 23293,
    "Ġunless": 4090,
    "hypothe": 25910,
    "Ġchart": 10947,
    "Ġgrievances": 20650,
    "Ġhazarded": 25659,
    "orte": 14187,
    "Ġill": 2195,
    "doublo": 24666,
    "Ġbadly": 12136,
    "Ġevid": 3501,
    "Ġweaving": 12745,
    "Ġsoutherly": 23340,
    "Ġjub": 22301,
    "Ġtackles": 8053,
    "Ġunnaturally": 24876,
    "porpoise": 16437,
    "Ġwhirled": 14963,
    "Ġlot": 6681,
    "itate": 6670,
    "azing": 7706,
    "unc": 15773,
    "Ġscratch": 25569,
    "Ġinformation": 1049,
    "Ġrect": 18028,
    "inhabited": 13624,
    "aders": 21764,
    "Ġsweetheart": 19397,
    "Ġbressed": 21391,
    "anity": 9657,
    "Ġvivid": 8060,
    "presume": 25675,
    "Ġspires": 11734,
    "Ġscener": 10951,
    "Ġmou": 13858,
    "Ġmaintained": 12938,
    "vedale": 22718,
    "cell": 10689,
    "Ġgra": 415,
    "thank": 4950,
    "Ġunspeak": 8853,
    "Ġtomb": 8811,
    "Ġczar": 12579,
    "phon": 4126,
    "Ġuncivil": 11157,
    "yed": 3273,
    "Ġhellaswag": 24347,
    "Ġplunged": 8696,
    "Ġrespectively": 23256,
    "horn": 8088,
    "Ġroused": 7624,
    "keel": 14131,
    "Ġineff": 12639,
    "Ġdesist": 16241,
    "Ġease": 5630,
    "peculiarities": 13475,
    "Ġsteal": 16286,
    "Ġeternal": 5978,
    "Ġwipe": 25769,
    "Ġextracting": 11115,
    "Ġgazed": 6479,
    "Ġlifeless": 8950,
    "Ġderivative": 3000,
    "grinder": 23422,
    "Ġimprovement": 7968,
    "Ġgrowled": 19285,
    "Ġforward": 1833,
    "Ġverify": 12092,
    "Ġluxurious": 17313,
    "Ġsteeple": 19289,
    "ë": 172,
    "Ġprescribed": 26015,
    "complexion": 14363,
    "Ġpulled": 5661,
    "Ġmercenary": 17195,
    "missed": 11211,
    "Ġvirtues": 9939,
    "Ġonto": 14031,
    "Ġhair": 3315,
    "Ġcynical": 25775,
    "Ġdun": 6676,
    "Ġmatters": 4974,
    "zening": 21151,
    "rendered": 22345,
    "Ġsemantics": 2892,
    "Ġdisturbing": 19949,
    "Ġgratitude": 5599,
    "screaming": 20328,
    "Ġanatomical": 15080,
    "special": 14708,
    "drowned": 17371,
    "Ġsneezes": 24702,
    "Ġpinch": 15019,
    "Ġsuccessfully": 19432,
    "Ġcanal": 8184,
    "Ġfar": 1449,
    "ingle": 1040,
    "Ġdeact": 18137,
    "Ġhooked": 19081,
    "unched": 10238,
    "ividual": 5464,
    "Ġfleeting": 19329,
    "behaved": 24467,
    "shazz": 14243,
    "Ġhoisted": 5962,
    "develop": 13521,
    "completed": 19997,
    "Ġshrugged": 12774,
    "Ġcease": 7078,
    "Ġunlocked": 14123,
    "irresistible": 18176,
    "Ġmanifold": 13564,
    "Ġpharaoh": 26588,
    "Ġunrecord": 16622,
    "Ġice": 3606,
    "Ġwantonly": 22904,
    "Ġworking": 5574,
    "impression": 15715,
    "Ġchanges": 2287,
    "Ġvultures": 25658,
    "Ġhungry": 10535,
    "Ġburgled": 23663,
    "Ġmaze": 23839,
    "Ġexertion": 8056,
    "orses": 6054,
    "Ġdiversity": 25289,
    "thy": 2933,
    "Ġfoes": 11955,
    "Ġtouched": 6003,
    "ides": 2164,
    "Ġlingo": 24909,
    "Ġinspection": 14547,
    "harpooneer": 8692,
    "Ġinvestigated": 25391,
    "uary": 11540,
    "Ġproced": 2579,
    "ĠâĢĶâĢľ_": 17719,
    "athered": 6973,
    "oury": 22310,
    "footsteps": 25203,
    "Ġterrific": 6756,
    "insufferable": 21195,
    "rosings": 15648,
    "abling": 1080,
    "Ġhat": 2771,
    "thed": 8830,
    "othing": 6996,
    "Ġtinker": 15135,
    "Ġlaugh": 4113,
    "ivial": 15863,
    "Ġcomrades": 9235,
    "Ġpompous": 20426,
    "osing": 3691,
    "Ġproceed": 3243,
    "itations": 17819,
    "Ġfelicity": 7260,
    "gal": 15359,
    "Ġsteward": 6586,
    "Ġcravat": 26310,
    "Ġtheir": 644,
    "iously": 2676,
    "Ġorgans": 15869,
    "Ġsperm": 1839,
    "Ġnortheast": 23211,
    "Ġbound": 3520,
    "Ġpursuit": 4732,
    "Ġfer": 5624,
    "depend": 9114,
    "wolf": 26412,
    "rodu": 1814,
    "Ġmethinks": 10395,
    "Ġrug": 16160,
    "Ġrecovered": 5482,
    "many": 5252,
    "mile": 17598,
    "commun": 15036,
    "remembered": 17353,
    "trial": 20353,
    "fac": 17542,
    "sembled": 7263,
    "Ġcherish": 10592,
    "Ġreluctant": 20528,
    "Ġpredictions": 1454,
    "Ġinstruction": 14345,
    "continuing": 24483,
    "Ġcreated": 2705,
    "acity": 5736,
    "Ġergo": 25037,
    "reated": 10305,
    "Ġpleated": 16299,
    "narrated": 25626,
    "Ġquivered": 18468,
    "Ġgenial": 12199,
    "pleasing": 14745,
    "ip": 555,
    "Ġliter": 8815,
    "closing": 23163,
    "Ġcommod": 10336,
    "Ġcapt": 1294,
    "saw": 5896,
    "astern": 8584,
    "ē": 212,
    "Ġpauper": 26182,
    "ass": 541,
    "Ġrecommence": 16813,
    "Ġendless": 7055,
    "hastening": 24452,
    "Ġcommunity": 19010,
    "voyage": 7787,
    "Ġincome": 7920,
    "Ġconfusion": 7273,
    "irmed": 9241,
    "Ġpreservative": 24636,
    "Ġ12": 5484,
    "ropri": 2181,
    "ahawk": 23322,
    "Ġpapa": 10659,
    "Ġdecomp": 3812,
    "Ġuncle": 3190,
    "Ġriot": 14690,
    "nib": 5215,
    "Ġpence": 17904,
    "Ġunprecedented": 15858,
    "rimshander": 20659,
    "already": 6981,
    "Ġpain": 2305,
    "kind": 3863,
    "Ġcertainty": 6736,
    "Ġarrangements": 16517,
    "connections": 14431,
    "Ġsynd": 22212,
    "Ġobligation": 13248,
    "Ġleague": 6540,
    "Ġwhether": 1999,
    "Ġslewed": 23392,
    "Ġleast": 2064,
    "Ġanaly": 1135,
    "Ġcounted": 12144,
    "Ġcorroborated": 26057,
    "Ġtrivial": 10145,
    "Ġsensations": 5261,
    "Ġnav": 5820,
    "Ġdirect": 1469,
    "Ġcataract": 23442,
    "Ġla": 5915,
    "Ġwiping": 25770,
    "pr": 3173,
    "Ġrake": 18644,
    "Ġpromise": 4198,
    "Ġsqu": 1039,
    "Ġsmitten": 12903,
    "Ġcritically": 23450,
    "Ġconquer": 14030,
    "amplified": 26497,
    "promise": 12255,
    "Ġencounters": 19583,
    "Ġmechan": 1178,
    "Ġones": 3022,
    "rawling": 21641,
    "what": 643,
    "rippling": 24718,
    "Ġepit": 18009,
    "Ġtails": 9905,
    "Ġembal": 11907,
    "Ġquivers": 22419,
    "Ġcorre": 3887,
    "Ġcrossed": 6071,
    "sufferable": 12181,
    "Ġhostile": 19943,
    "Ġsandwic": 24670,
    "cooks": 25075,
    "Ġmilitia": 13322,
    "Ġneighbor": 25810,
    "Ġunluckily": 20105,
    "Ġrenow": 18030,
    "Ġlashed": 9200,
    "Ġacross": 1333,
    "regarded": 12010,
    "pen": 1204,
    "Ġmaker": 15547,
    "Ġproof": 6155,
    "atra": 17772,
    "uts": 8819,
    "i": 77,
    "Ġsize": 1217,
    "Ġcouples": 16853,
    "undant": 14789,
    "repeat": 25158,
    "blo": 6355,
    "ļ": 253,
    "Ġdistinction": 8888,
    "Ġstrife": 18615,
    "aurs": 20771,
    "Ġunintellig": 22032,
    "Ġ25": 13198,
    "Ġcongregational": 25110,
    "gentle": 5358,
    "thr": 12765,
    "Ġvertical": 16605,
    "Ġbushy": 16404,
    "Ġembedding": 2105,
    "spouting": 25010,
    "solitary": 14506,
    "Ġassistant": 7298,
    "ste": 3587,
    "Ġcousin": 3707,
    "Ġengage": 9338,
    "Ġtriumph": 5144,
    "Ġhandsome": 4907,
    "Ġgrooves": 16742,
    "vain": 15450,
    "Ġent": 902,
    "occup": 7754,
    "Ġfounder": 17885,
    "Ġdrawer": 13270,
    "Ĭ": 237,
    "sum": 2088,
    "begin": 8886,
    "Ġfruitless": 25610,
    "finds": 19929,
    "Ġconveying": 19717,
    "Ġcurled": 8228,
    "following": 10575,
    "Ġimprecations": 25826,
    "macy": 18804,
    "Ġexposing": 11838,
    "Ġdoctor": 5068,
    "sp": 893,
    "Ġmalady": 24396,
    "Ġgid": 13965,
    "Ġresolutely": 14611,
    "ĠĠĠĠĠĠĠĠĠĠĠĠĠ": 22568,
    "Ġhunt": 6185,
    "retired": 11940,
    "Ġunderstand": 835,
    "Ġchamber": 6215,
    "Ġprompt": 3187,
    "itatingly": 25282,
    "herds": 22209,
    "orus": 10803,
    "Ġrifle": 18213,
    "Ġarve": 15895,
    "Ġtriumphant": 12194,
    "believed": 9936,
    "con": 655,
    "hug": 17564,
    "Ġrelationships": 2925,
    "Ġshell": 11740,
    "Ġscaled": 2107,
    "Ġtakes": 5008,
    "guest": 19485,
    "Ġ84": 19712,
    "Ġdeposed": 16080,
    "Ġdeceiving": 21842,
    "Ġdispute": 16059,
    "Ġhugest": 17016,
    "Ġinterruptions": 24192,
    "poverty": 22918,
    "Ġillum": 9403,
    "aciousness": 18608,
    "Ġcetacean": 25883,
    "rushing": 10021,
    "Ġfilling": 13412,
    "Ġhistory": 4008,
    "Ġcorruption": 15229,
    "Ġscarcity": 23835,
    "177": 20754,
    "Ġcottagers": 6762,
    "conqu": 14247,
    "Ġlessen": 14534,
    "Ġalong": 1976,
    "Ġsoothing": 8175,
    "rigging": 20009,
    "Ġtax": 13819,
    "Ġgre": 1579,
    "pike": 11517,
    "irations": 18173,
    "Ġimmediate": 6091,
    "Ġdisposal": 19379,
    "Ġcomfortable": 6097,
    "Ġsideways": 6184,
    "Ġoverpower": 12844,
    "Ġappears": 5403,
    "Ġunfav": 14791,
    "precipitance": 25872,
    "writer": 14650,
    "Ġangrily": 9410,
    "Ġrecom": 4552,
    "Ġglimp": 6068,
    "prom": 6510,
    "Ġoverwhelming": 17102,
    "Ġ166": 25012,
    "Ġbashful": 20423,
    "Ġtool": 21516,
    "Ġnovel": 6697,
    "Ġtalks": 23377,
    "hamlet": 23270,
    "Ġunfolding": 17086,
    "Ġwooded": 23527,
    "Ġprow": 6687,
    "Ġearly": 2079,
    "steaks": 23969,
    "histor": 13495,
    "regiment": 16451,
    "buttons": 22407,
    "Ġglistened": 20175,
    "Ġirrespective": 23382,
    "Ġperiods": 13307,
    "Ġchasing": 11758,
    "ep": 442,
    "Ġshave": 22002,
    "Ġcoral": 11926,
    "pires": 13778,
    "Ġunembarrassed": 22077,
    "Ġdupl": 9957,
    "medium": 23646,
    "Ġways": 5397,
    "Ġemerged": 8688,
    "Ġconsid": 1809,
    "Ġgambler": 26194,
    "Ġplied": 22608,
    "Ġbacking": 16120,
    "thunder": 10265,
    "Ġpossible": 2584,
    "Ġeaves": 15680,
    "plan": 15822,
    "fun": 4142,
    "Ġheave": 7601,
    "Ġembell": 14415,
    "nourished": 26401,
    "Ġleakage": 23465,
    "appo": 3913,
    "Ġbal": 1132,
    "gris": 8262,
    "Ġpagan": 7119,
    "Ġsticks": 14934,
    "Ġlove": 2053,
    "dle": 3307,
    "encing": 21286,
    "Ġextending": 11029,
    "Ġtand": 21163,
    "Ġwearisome": 19798,
    "encyclopÃ¦dia": 16665,
    "Ġspile": 22133,
    "Ġtricks": 13488,
    "pre": 650,
    "Ġ76": 24268,
    "Ġlongitude": 11013,
    "Ġaisle": 21204,
    "forgive": 18732,
    "Ġsharpen": 13573,
    "Ġmap": 2392,
    "Ġsitt": 21220,
    "state": 13982,
    "accessible": 13643,
    "Ġfeeds": 16436,
    "Ġrepugn": 23371,
    "Ġevian": 24298,
    "Ġnodes": 1965,
    "andering": 21873,
    "Ġdiff": 3115,
    "Ġbracelets": 25507,
    "getting": 12971,
    "stranded": 19227,
    "ikes": 8089,
    "Ġwriters": 13546,
    "Ġflog": 23629,
    "Ġlengths": 19208,
    "Ġresolved": 3799,
    "mort": 10712,
    "į": 240,
    "Ġservices": 11219,
    "reinforcement": 7828,
    "Ġnation": 12652,
    "Ġdeactivates": 20706,
    "Ġtur": 2564,
    "Ġtok": 1246,
    "ared": 773,
    "Ġhunks": 18938,
    "Ġunpitying": 25665,
    "unts": 12736,
    "Ġlysander": 13143,
    "Ġforster": 5231,
    "Ġstepmother": 16092,
    "Ġmon": 1252,
    "ruit": 22182,
    "Ġrelapses": 26282,
    "Ġprovocation": 24197,
    "Ġunfolded": 10641,
    "Ġcleanse": 24531,
    "ribbed": 16415,
    "murderer": 13397,
    "und": 4086,
    "Ġmuttering": 10502,
    "Ġmeasurement": 19426,
    "Ġconstrued": 26304,
    "pump": 21019,
    "valley": 16217,
    "Ġwasn": 6998,
    "Ġjoyful": 13226,
    "Ġunattended": 15847,
    "iful": 2880,
    "strike": 14952,
    "Ġsimply": 7218,
    "igantic": 5539,
    "ellations": 21950,
    "Ġincess": 8434,
    "mut": 17596,
    "Ġimmovable": 15903,
    "Ġimpelling": 22401,
    "large": 6628,
    "Ġbranches": 6777,
    "weep": 22692,
    "Ġwhitewashed": 14472,
    "Ġreceive": 4703,
    "Ġlapse": 17122,
    "asible": 21547,
    "Ġweld": 8114,
    "pots": 11516,
    "ribly": 8257,
    "Ġupset": 22158,
    "Ġfactory": 23284,
    "rannical": 26404,
    "Ġworldly": 16332,
    "Ġdated": 10814,
    "cares": 24315,
    "Ġwherein": 14298,
    "Ġtransferred": 16459,
    "Ġmuseum": 15275,
    "handled": 19263,
    "oregressive": 3426,
    "imodal": 17449,
    "Ġwhaling": 2781,
    "Ġandromeda": 21513,
    "suspicious": 25395,
    "Ġflapp": 23022,
    "mblings": 19783,
    "Ġtang": 13817,
    "Ġfierce": 7437,
    "Ġpensive": 21476,
    "Ġfields": 2143,
    "onder": 3781,
    "Ġsavages": 9915,
    "straw": 24103,
    "ugn": 9381,
    "Ġreproofs": 24898,
    "Ġcursory": 18849,
    "Ġreve": 2932,
    "Ġarter": 22178,
    "Ġinvited": 6903,
    "lan": 15381,
    "Ġtraveller": 8051,
    "Ġaustralia": 15236,
    "Ġinfancy": 10411,
    "Ġregard": 3068,
    "Ġmitig": 1339,
    "Ġcorrect": 2432,
    "roses": 17959,
    "Ġspeedy": 11174,
    "Ġhateful": 19716,
    "Ġgout": 21601,
    "Ġunwarrant": 19936,
    "Ġprior": 11320,
    "Ġrivals": 20274,
    "Ġaccepted": 7752,
    "fishermen": 17062,
    "Ġadvert": 10574,
    "appalling": 22854,
    "july": 20478,
    "Ġboat": 1279,
    "mistak": 16879,
    "ancial": 21366,
    "Ġsaying": 3244,
    "establish": 17395,
    "bow": 5425,
    "Ġstory": 2899,
    "ency": 3868,
    "Ġankers": 21450,
    "Ġcontract": 18476,
    "Ġdescrib": 2716,
    "Ġtexture": 19162,
    "ollion": 19718,
    "anything": 5519,
    "presently": 9812,
    "Ġchord": 22251,
    "Ġphilipp": 23892,
    "Ġcarr": 23100,
    "Ġimpregn": 26027,
    "Ġgliding": 8563,
    "base": 20779,
    "Ġbake": 21386,
    "Ġtiar": 21170,
    "Ġsque": 18758,
    "Ġtwin": 12932,
    "mosphere": 10046,
    "scans": 22998,
    "Ġnatur": 17336,
    "Ġapproached": 5845,
    "Ġtrotting": 19979,
    "wet": 15455,
    "Ġproves": 14041,
    "ĠĠĠĠĠĠĠĠ": 711,
    "Ġpeople": 2543,
    "Ġimmort": 19487,
    "angu": 570,
    "Ġhumph": 22890,
    "ses": 3029,
    "Ġdropout": 1556,
    "Ġflat": 8230,
    "endering": 21288,
    "embers": 21933,
    "Ġpanic": 11288,
    "Ġperceive": 6701,
    "uracy": 1064,
    "Ġul": 6828,
    "renewed": 19707,
    "Ġbleached": 24400,
    "Ġwrite": 3822,
    "),": 1350,
    "Ġbrilliancy": 20110,
    "companies": 24900,
    "developed": 15268,
    "buffalo": 20566,
    "Ġwithdraw": 16965,
    "Ġunrem": 18245,
    "Ġeffaced": 18543,
    "Ġfabric": 25952,
    "Ġmemo": 18120,
    "Ġhog": 13927,
    "Ġdreadful": 4921,
    "followed": 8341,
    "loom": 18534,
    "Ġchin": 4892,
    "Ġowns": 22834,
    "bon": 13688,
    "cheap": 23812,
    "Ġknowing": 4455,
    "Ġoversampling": 20519,
    "Ġfaintly": 14918,
    "ulate": 5234,
    "Ġprevents": 2556,
    "Ġsatir": 18795,
    "ata": 499,
    "Ġreven": 18031,
    "Ġnuptials": 20497,
    "Ġrestore": 9383,
    "anely": 17838,
    "ĠĠĠĠĠĠĠĠĠĠĠĠĠĠĠĠĠĠĠĠĠĠĠĠĠĠĠĠĠĠĠĠĠĠĠĠĠĠĠ": 19261,
    "Ġscaramouch": 23836,
    "Ġcope": 17832,
    "Ġstating": 15726,
    "Ġ105": 24417,
    "Ġconstantly": 11975,
    "Ġflour": 8946,
    "Ġency": 21939,
    "attend": 11103,
    "weigh": 18666,
    "Ġendeared": 26501,
    "conception": 22480,
    "Ġiteratively": 3059,
    "Ġmaz": 15546,
    "Ġcrammed": 16472,
    "Ġimag": 2674,
    "pursu": 11394,
    "Ġhierarchical": 1925,
    "pent": 3494,
    "believe": 8306,
    "Ġlegitimate": 20644,
    "Ġbronze": 22877,
    "entropy": 1437,
    "Ġmaps": 2964,
    "method": 17286,
    "Ġhistorically": 19381,
    "crimes": 16685,
    "Ġgood": 999,
    "dropped": 12267,
    "«": 109,
    "Ġcharacters": 9375,
    "rs": 7809,
    "aneously": 4059,
    "Ġrevolved": 9987,
    "Ġreluct": 14375,
    "uits": 21107,
    "Ġviii": 16416,
    "commotion": 24919,
    "neglect": 25673,
    "Ġconception": 10322,
    "Ġmerit": 9430,
    "Ġreported": 11982,
    "tum": 11534,
    "turned": 7306,
    "thumb": 18219,
    "Ġfingertips": 24025,
    "Ġhills": 6528,
    "Ġconstable": 19070,
    "Ġflanks": 11920,
    "Ġadequ": 10916,
    "Ġconstantinople": 19840,
    "Ġhoarse": 14528,
    "known": 3571,
    "yset": 21148,
    "Ġsnoring": 23748,
    "Ġtranquilly": 12294,
    "anges": 1674,
    "iding": 3847,
    "Ġparting": 9786,
    "fered": 5560,
    "Ġclusters": 25236,
    "Ġgigantic": 5917,
    "Ġeccentric": 13653,
    "Ġfem": 6136,
    "ou": 288,
    "antage": 3878,
    "Ġtranspointed": 22446,
    "Ġfrigid": 17354,
    "Ġdesertion": 24791,
    "amed": 4446,
    "alt": 12643,
    "Ġfreshe": 13073,
    "ii": 4015,
    "shooting": 16966,
    "Ġvint": 18195,
    "earnest": 12403,
    "Ġfelix": 4850,
    "Ġbarrens": 25506,
    "rim": 7139,
    "aimed": 3953,
    "af": 2377,
    "Ġearnest": 3929,
    "antages": 7192,
    "Ġfitzwilliam": 5772,
    "Ġbumping": 25285,
    "oars": 9617,
    "Ġsoil": 9257,
    "naturedly": 24846,
    "Ġharmony": 16815,
    "Ġtorrent": 17092,
    "Ġpacket": 14896,
    "azed": 9402,
    "Ġforemast": 12008,
    "Ġwonder": 2118,
    "tained": 4404,
    "Ġgomorrah": 21620,
    "Ġdiscovers": 4426,
    "Ġprecipice": 19944,
    "Ġlate": 3379,
    "Ġfainter": 14917,
    "ascal": 10195,
    "ruin": 22181,
    "scho": 8763,
    "Ġintermission": 18588,
    "can": 1231,
    "learnt": 23538,
    "Ġmutters": 23964,
    "driver": 14924,
    "Ġaudits": 24774,
    "een": 727,
    "Ġremain": 1869,
    "cond": 1662,
    "renadier": 18420,
    "Ġhedge": 8366,
    "Ġappet": 9734,
    "Ġsoldiers": 8690,
    "Ġjunior": 15103,
    "Ġmizen": 17260,
    "Ġthoughts": 3137,
    "Ġgorgeous": 20470,
    "vices": 21119,
    "Ġilliterate": 26597,
    "Ġsolitudes": 22895,
    "sun": 7141,
    "Ġabsurd": 7202,
    "Ġjunks": 25121,
    "irene": 15918,
    "Ġmot": 2985,
    "Ġsand": 6237,
    "unteered": 26498,
    "Ġeclipsed": 26380,
    "Ġnet": 3629,
    "atement": 17774,
    "Ġhilarity": 20300,
    "Ġreferences": 21679,
    "queen": 12732,
    "Ġsust": 7008,
    "gloomy": 25150,
    "swallow": 24263,
    "Ġfrightens": 24038,
    "Ġhish": 21919,
    "Ġreefed": 20305,
    "Ġmerchantmen": 19862,
    "whale": 2141,
    "Ġinstruments": 12228,
    "Ġlie": 4405,
    "startled": 24949,
    "Ġcompanions": 5867,
    "|": 96,
    "delighted": 10565,
    "disgrace": 16460,
    "Ġtransom": 22444,
    "Ġunequal": 14844,
    "Ġrecognise": 12043,
    "som": 3293,
    "alarms": 21510,
    "congratulations": 20282,
    "rive": 9710,
    "fishing": 20861,
    "incidentally": 20542,
    "Ġsmite": 22563,
    "Ġabominably": 20069,
    "Ġhunts": 23165,
    "Ġsounds": 5191,
    "Ġplanned": 14755,
    "poison": 14395,
    "Ġnotion": 7885,
    "Ġdeceased": 15008,
    "entric": 11622,
    "alescence": 15928,
    "Ġderick": 9367,
    "Ġmulti": 1045,
    "Ġimpelled": 11788,
    "Ġpurses": 23482,
    "mouth": 9132,
    "Ġaboard": 6699,
    "Ġfreer": 23215,
    "Ġoperated": 14550,
    "instantly": 7507,
    "Ġliterally": 15120,
    "Ġhear": 1963,
    "Ġwanted": 4969,
    "dem": 10695,
    "Ġstar": 6025,
    "Ġtypically": 1534,
    "Ġbackwards": 12929,
    "Ġassemblage": 26356,
    "Ġbestowing": 16972,
    "piteous": 21036,
    "Ġtried": 3650,
    "gammon": 20246,
    "Ġstript": 23702,
    "Ġbenefited": 19401,
    "perv": 1604,
    "matter": 5137,
    "Ġgrandeur": 8631,
    "Ġinsignific": 13184,
    "Ġstranded": 9778,
    "Ġforgery": 25982,
    "Ġinv": 2226,
    "Ġlascar": 9201,
    "Ġvary": 15811,
    "returned": 7767,
    "half": 4932,
    "Ġhalyards": 21499,
    "mere": 11859,
    "mospheric": 17091,
    "Ġwithstand": 10227,
    "Ġhydraul": 9517,
    "Ġmists": 14632,
    "text": 1971,
    "Ġnecks": 18185,
    "ta": 13792,
    "Ġnational": 13945,
    "Ġpremises": 10490,
    "icate": 9203,
    "fol": 4863,
    "Ġcracking": 14576,
    "te": 993,
    "Ġheight": 4219,
    "le": 279,
    "Ġus": 494,
    "Ġtormenting": 15108,
    "Ġaperture": 26163,
    "Ġaccomplishment": 19668,
    "Ġott": 13869,
    "consist": 14818,
    "Ġbuying": 24004,
    "Ġunstructured": 3004,
    "Ġbravery": 23845,
    "mankind": 14377,
    "strang": 11185,
    "pra": 15410,
    "weakness": 16127,
    "sory": 17660,
    "Ġessays": 19747,
    "Ġquestioning": 10466,
    "phr": 18713,
    "Ġrobust": 1349,
    "Ġflounders": 23027,
    "thousand": 5547,
    "Ġcrackling": 24968,
    "Ġreasoner": 14441,
    "finding": 17014,
    "Ġphaet": 16319,
    "rowing": 7933,
    "Ġdines": 21428,
    "?_âĢĿ": 12320,
    "Ġelephants": 9867,
    "empty": 23642,
    "isf": 2435,
    "Ġspouts": 7731,
    "istence": 2388,
    "Ġabutted": 22281,
    "Ġguided": 10462,
    "Ġburly": 19252,
    "hen": 3519,
    "Ġsnows": 14729,
    "Ġtashtego": 4484,
    "Ġconcerning": 4068,
    "Ġcontingency": 26248,
    "Ġgenerating": 12855,
    "Ġstormy": 16729,
    "roc": 9677,
    "Ġconquered": 14029,
    "upid": 6585,
    "Ġassailants": 20452,
    "cloth": 11941,
    "Ġcasement": 25100,
    "omon": 10209,
    "Ġseventh": 18205,
    "Ġbridle": 24687,
    "Ġ2026": 12339,
    "Ġfeverish": 11350,
    "Ġstop": 2501,
    "Ġcattle": 12577,
    "ort": 524,
    "baked": 20781,
    "Ġfrantic": 7959,
    "Ġdangerous": 6616,
    "Ġdriven": 6200,
    "Ġremedy": 18725,
    "istics": 1629,
    "Ġsummar": 3526,
    "ĠĠĠĠĠĠĠĠĠĠĠĠĠĠĠĠĠĠĠĠĠĠĠĠ": 5323,
    "Ġtroubles": 19442,
    "Ġcomfits": 21858,
    "religion": 20578,
    "Ġthence": 8884,
    "ipp": 10105,
    "Ġdotted": 16793,
    "Ġeyelids": 26110,
    "Ġdifficulties": 11227,
    "Ġ82": 24462,
    "Ġpow": 4635,
    "private": 13586,
    "Ġspirit": 3726,
    "Ġwelded": 9574,
    "Ġcomposure": 7217,
    "legra": 10791,
    "Ġcast": 3608,
    "tarpaulins": 26408,
    "itud": 2930,
    "Ġneutral": 12746,
    "insisted": 23077,
    "Ġco": 731,
    "Ġ97": 19777,
    "enari": 21285,
    "Ġknelt": 12163,
    "imagination": 13484,
    "Ġnewfound": 22941,
    "forbidding": 25843,
    "cused": 15335,
    "Ġsignificance": 13284,
    "lin": 9606,
    "hearty": 14836,
    "historical": 20469,
    "Ġsea": 1209,
    "twenty": 6609,
    "Ġnoblest": 13246,
    "bonnet": 25747,
    "stopping": 19353,
    "eprints": 12797,
    "Ġhinges": 15216,
    "ething": 1597,
    "Ġscenarios": 26545,
    "Ġrecurred": 18977,
    "Ġcongratulatory": 19770,
    "Ġeagerness": 6610,
    "iro": 20916,
    "Ġnoses": 18373,
    "Ġbird": 3757,
    "inates": 21183,
    "Ġparson": 6690,
    "tipt": 25091,
    "Ġsatisfy": 6912,
    "Ġcheap": 13092,
    "Ġwearer": 21929,
    "Ġapparition": 8069,
    "Ġscot": 5644,
    "Ġ77": 24269,
    "och": 21003,
    "eyes": 5685,
    "Ġunusually": 15850,
    "Ġnewcomers": 26044,
    "Ġreports": 19086,
    "over": 1842,
    "Ġeduc": 4786,
    "Ġcheering": 11135,
    "airing": 16179,
    "fool": 9049,
    "Ġprim": 8246,
    "Ġglare": 13021,
    "avery": 13687,
    "Ġburying": 19254,
    "preserve": 25308,
    "Ġcourtiers": 24142,
    "bell": 7332,
    "breat": 10081,
    "Ġnorris": 23210,
    "everywhere": 23706,
    "unwho": 21883,
    "declaration": 25179,
    "ppers": 7619,
    "âĢĶ.": 11759,
    "Ġcove": 22585,
    "Ġlashing": 11619,
    "Ġinc": 703,
    "Ġwrung": 14473,
    "Ġinvestigations": 17248,
    "Ġcasually": 25101,
    "Ġbuild": 6475,
    "profitable": 17055,
    "scap": 22999,
    "Ġnote": 4261,
    "Ġqueequeg": 2013,
    "Ġed": 2242,
    "hopes": 15373,
    "Ġrepaid": 19084,
    "twig": 23707,
    "Ġsufficient": 2002,
    "Ġinvisible": 7327,
    "Ġanswered": 2851,
    "Ġclutched": 13522,
    "Ġpockets": 8898,
    "Ġpermitted": 9280,
    "Ġtruthful": 23875,
    "inquiry": 15146,
    "Ġpsychology": 11450,
    "act": 786,
    "sho": 6426,
    "Ġbroad": 3642,
    "Ġ28": 19297,
    "hastily": 19705,
    "Ġopposing": 12044,
    "Ġsearch": 2590,
    "Ġneat": 7000,
    "Ġloud": 4700,
    "Ġfloor": 4377,
    "Ġnoisy": 13323,
    "dread": 8732,
    "Ġpratt": 23224,
    "dorff": 15241,
    "Ġglitter": 25129,
    "?âĢĿâĢĶ": 12899,
    "Ġarduous": 26532,
    "Ġowes": 20088,
    "Ġrichest": 26215,
    "Ġprofit": 14587,
    "Ġsof": 18282,
    "Ġtangles": 25766,
    "Ġharbors": 24907,
    "chron": 21699,
    "Ġhamp": 12635,
    "Ġbewit": 15732,
    "Ġbeer": 10222,
    "Ġdiscrete": 2475,
    "acters": 9312,
    "Ġslyness": 25271,
    "sympathy": 20545,
    "Ġglorious": 11077,
    "lydia": 6826,
    "og": 869,
    "Ġbulk": 5591,
    "Ġsubtle": 6718,
    "Ġprender": 22241,
    "Ġcatherine": 2813,
    "Ġleviathan": 3290,
    "Ġmemories": 14544,
    "Ġpasture": 14546,
    "Ġfates": 15582,
    "Ġpropagating": 20636,
    "terror": 18131,
    "Ġuneasy": 8665,
    "Ġcorn": 9353,
    "sailors": 9925,
    "ked": 5616,
    "Ġgrammatical": 13542,
    "Ġlover": 7193,
    "jub": 20931,
    "Ġconnexion": 11456,
    "Ġgeography": 23379,
    "Ġpoising": 22599,
    "Ġrelaps": 18776,
    "Ġsulky": 13518,
    "Ġbelong": 3885,
    "Ġaunt": 3175,
    "Ġsystematic": 5246,
    "Ġthanked": 9462,
    "Ġ9": 5903,
    "ote": 4593,
    "Ġchace": 14179,
    "Ġpest": 13916,
    "deceit": 25561,
    "Ġcompact": 2263,
    "Ġwaits": 23286,
    "Ġtigers": 25763,
    "Ġthinner": 24188,
    "Ġazores": 20196,
    "Ġpleases": 16300,
    "Ġresolve": 13174,
    "Ġstrangled": 24139,
    "Ġcontented": 9759,
    "Ġpious": 11601,
    "even": 3838,
    "Ġsporting": 17000,
    "Ġpaltry": 16692,
    "wart": 17706,
    "Ġwalker": 23316,
    "Ġgay": 5535,
    "Ġlaw": 3657,
    "Ġbony": 12592,
    "without": 4848,
    "Ġcompromised": 22577,
    "ferences": 10329,
    "Ġhaunt": 18198,
    "Ġjacobians": 2891,
    "Ġactionable": 24564,
    "vitiated": 25759,
    "anth": 13890,
    "german": 11494,
    "ishnoo": 10957,
    "Ġlinguistic": 12429,
    "Ġwrithing": 11950,
    "Ġstreat": 15725,
    "Ġgrave": 5101,
    "Ġcler": 11776,
    "Ġelias": 18635,
    "Ġconsecutive": 20705,
    "Ġmaled": 21318,
    "Ġmichigan": 26429,
    "tumultuous": 20402,
    "Ġ22": 8281,
    "Ġcandour": 14675,
    "Ġmortifying": 13249,
    "Ġprofessors": 14728,
    "Ġlid": 6984,
    "Ġcurric": 22982,
    "Ġdeplored": 20508,
    "Ġfishermen": 5973,
    "xology": 21144,
    "Ġevaluation": 16577,
    "constable": 24612,
    "Ġnearing": 15801,
    "Ġinterposed": 20622,
    "Ġnail": 9197,
    "vit": 13804,
    "olently": 15764,
    "M": 49,
    "Ġrefused": 6717,
    "furnish": 25343,
    "Ġforms": 6398,
    "Ġclattering": 22369,
    "unting": 21880,
    "inkles": 7426,
    "Ġconclusions": 10556,
    "utting": 17987,
    "amused": 21852,
    "Ġbending": 12590,
    "Ġaccosted": 13676,
    "taining": 7206,
    "Ġsupreme": 13611,
    "Ġunfeeling": 14122,
    "Ġexplo": 2286,
    "ob": 1419,
    "Ġinterlude": 16074,
    "Ġgallantry": 15107,
    "Ġlurking": 11291,
    "Ġlap": 8440,
    "hence": 16626,
    "Ġsyrian": 18354,
    "ading": 5092,
    "gainst": 25147,
    "Ġding": 12604,
    "dog": 10696,
    "Ġkill": 4452,
    "elihood": 4620,
    "Ġcharms": 11132,
    "Ġsurtout": 23471,
    "Ġx": 2074,
    "etency": 21587,
    "Ġdiminished": 16667,
    "Ġcongratulations": 10583,
    "û": 188,
    "Ġclustered": 25237,
    "Ġdromed": 15601,
    "prep": 9762,
    "ways": 1440,
    "resent": 10771,
    "Ġbelieving": 8227,
    "Ġlovely": 4709,
    "Ġcasked": 24501,
    "Ġpsal": 15620,
    "Ġresearch": 3101,
    "Ġheadlong": 11892,
    "search": 8467,
    "supportable": 12374,
    "oubled": 23655,
    "Ġawfulness": 23593,
    "Ġindefinitely": 25225,
    "roof": 17956,
    "commanding": 24756,
    "ge": 560,
    "Ġgould": 17992,
    "Ġgraze": 18227,
    "Ġhousings": 21498,
    "Ġcounsell": 25389,
    "âĢĶâĢĶâĢĿ": 15943,
    "%": 9,
    "rate": 2422,
    "Ġeconomy": 17202,
    "body": 2309,
    "rily": 7623,
    "f": 74,
    "Ġhospital": 15042,
    "Ġsubfield": 11873,
    "Ġwindigate": 18912,
    "Ġ124": 24473,
    "Ġfork": 15736,
    "Ġmotives": 7487,
    "Ġbehavior": 8004,
    "anche": 10790,
    "Ġnew": 1197,
    "Ġjet": 5310,
    "Ġliveliest": 24779,
    "ilst": 8146,
    "Ġeffectual": 18735,
    "flutterings": 26609,
    "000": 2560,
    "Ġyelled": 9697,
    "withstanding": 8947,
    "Ġgain": 4829,
    "Ġbefell": 14013,
    "Ġoutwardly": 25008,
    "therly": 18347,
    "advance": 12161,
    "arranted": 19322,
    "pips": 21022,
    "ternatural": 12720,
    "perplex": 18344,
    "Ġproud": 5655,
    "Ġdiabolically": 25518,
    "dead": 8182,
    "irth": 5635,
    "Ġcalifornian": 25857,
    "Ġchemistry": 11462,
    "ban": 9587,
    "Ġcommissioned": 19897,
    "Ġdeclaration": 16638,
    "Ġtreasures": 17047,
    "Ġwith": 348,
    "Ġeach": 891,
    "Ġdecline": 9290,
    "Ġmonstr": 7670,
    "Ġmode": 8500,
    "Ġfa": 4821,
    "Ġfavoured": 16363,
    "sitting": 8389,
    "Ġflatt": 16251,
    "Ġconsole": 8153,
    "Ġto": 297,
    "adoes": 11663,
    "evening": 7091,
    "elijah": 19476,
    "Ġunparalleled": 15857,
    "Ġpraying": 19557,
    "rough": 587,
    "Ġsentences": 2681,
    "ishly": 14202,
    "mistake": 24533,
    "lott": 6653,
    "Ġspectre": 16632,
    "Ġclaps": 22364,
    "{": 95,
    "benefact": 24647,
    "anchor": 13892,
    "Ġproposition": 23257,
    "Ġtreated": 7082,
    "Ġmaintaining": 1507,
    "Ġfusion": 21419,
    "isen": 10794,
    "Ġprivacy": 19527,
    "branch": 23584,
    "Ġsurface": 5120,
    "Ġphaeton": 17466,
    "held": 3841,
    "Ġapproving": 18510,
    "Ġallusions": 10909,
    "should": 3262,
    "Ġtwitched": 20447,
    "Ġobtruded": 20724,
    "Ġensue": 18191,
    "Ġrespects": 7269,
    "Ġ156": 20173,
    "rief": 6204,
    "ility": 624,
    "ming": 3603,
    "Ġsped": 22131,
    "tempestuous": 26100,
    "Ġadds": 1803,
    "iscuits": 24672,
    "riety": 12749,
    "Ġdefines": 1740,
    "quimaux": 21865,
    "Ġtrifle": 10604,
    "iature": 8745,
    "efficient": 2869,
    "Ġcolouring": 16752,
    "Ġquenched": 22423,
    "Ġwhipping": 21721,
    "Ġaddison": 14235,
    "est": 502,
    "Ġ1778": 25734,
    "silenced": 24427,
    "exagger": 22434,
    "Ġobeying": 13418,
    "Ġdam": 2217,
    "onym": 14651,
    "arb": 1561,
    "Ġoverlooked": 15971,
    "Ġaltitude": 26206,
    "Ġprodigiously": 14935,
    "wards": 1278,
    "âĢĿ]": 21821,
    "Ġheathen": 10568,
    "pres": 16033,
    "Ġdomineer": 23653,
    "first": 3933,
    "ateness": 15523,
    "wont": 21135,
    "discoloured": 23504,
    "Ġmaimed": 21320,
    "examination": 25483,
    "twice": 14623,
    "alliance": 22206,
    "acific": 4960,
    "Ġresulting": 24204,
    "idation": 5023,
    "Ġpattern": 1329,
    "atig": 13848,
    "bb": 2799,
    "Ġdictionaries": 12344,
    "Ġrending": 19470,
    "Ġrun": 2356,
    "Ġeternally": 11371,
    "Ġlarboard": 11011,
    "Ġflaw": 23024,
    "Ġexplicit": 3591,
    "Ġapproved": 16037,
    "liest": 6296,
    "ldog": 21923,
    "fold": 7547,
    "Ġgangway": 20161,
    "speaks": 19722,
    "Ġabstra": 22277,
    "bott": 9108,
    "Ġstash": 18070,
    "Ġhearties": 18966,
    "Ġpuzz": 5533,
    "Ġlogical": 14489,
    "Ġdeprived": 8210,
    "Ġsatin": 12994,
    "Ġbarely": 16937,
    "Ġspoon": 22140,
    "rously": 17655,
    "iver": 2048,
    "Ġmisty": 16541,
    "urements": 18126,
    "Ġinvade": 19144,
    "iogn": 20923,
    "Ġburned": 8634,
    "uarded": 21108,
    "Ġperched": 10300,
    "Ġmysterious": 7528,
    "Ġtransmit": 10307,
    "drawers": 19389,
    "qual": 8159,
    "menced": 23153,
    "Ġscaling": 3634,
    "Ġarchipelagoes": 14350,
    "Ġbon": 8789,
    "otions": 7181,
    "summer": 11996,
    "Ġdebility": 24278,
    "Ġbatch": 888,
    "Ġnow": 692,
    "Ġstifle": 18076,
    "Ġtackle": 9516,
    "specific": 10500,
    "rocious": 21544,
    "Ġsweating": 16464,
    "Ġsigning": 22714,
    "umul": 1291,
    "Ġrevered": 23742,
    "Ġpagoda": 19791,
    "mention": 7215,
    "Ġcamel": 25354,
    "opolising": 25681,
    "iferous": 17293,
    "Ġhopes": 4232,
    "Ġsaved": 6693,
    "ishe": 13894,
    "Ġderision": 16311,
    "Ġprofuse": 23572,
    "Ġimproper": 22766,
    "Ġacceptable": 16745,
    "Ġfocus": 4234,
    "Ġsubt": 11872,
    "Ġpromptly": 23826,
    "sensibility": 25031,
    "Ġlav": 13953,
    "attendants": 25500,
    "Ġspray": 7897,
    "Ġplantation": 11425,
    "ubb": 1647,
    "Ġreceipt": 20358,
    "occupied": 12308,
    "Ġgreenness": 23775,
    "smith": 5670,
    "canst": 22970,
    "Ġbulwarks": 5592,
    "Ġabide": 14190,
    "Ġstubbornness": 25384,
    "best": 6113,
    "Ġcompromising": 22579,
    "Ġaccomp": 4712,
    "volut": 1558,
    "chanced": 18810,
    "asiness": 8131,
    "stall": 21651,
    "))": 1516,
    "Ġamused": 11803,
    "Ġresolute": 19247,
    "Ġcommunication": 1866,
    "Ġoft": 9196,
    "secur": 18129,
    "Ġmanifested": 17158,
    "Ġstronger": 8581,
    "rmsprop": 4519,
    "Ġclipping": 2440,
    "Ġvisiting": 10360,
    "Ġhipp": 21497,
    "Ġbathed": 17867,
    "Ġinjection": 3466,
    "comfortableness": 24529,
    "Ġslowly": 3621,
    "Ġexclude": 19039,
    "Ġrecalled": 8539,
    "Ġinterest": 2250,
    "Ġmilitary": 11260,
    "Ġelig": 9781,
    "Ġxlix": 25865,
    "Ġsatirical": 26283,
    "Ġwhelmed": 26004,
    "evidence": 25526,
    "olds": 9314,
    "Ġinconveniences": 24947,
    "indignation": 18439,
    "Ġcripp": 9656,
    "Ġconfide": 13101,
    "Ġescapes": 23513,
    "Ġsnar": 13204,
    "ledyard": 22388,
    "fishery": 10035,
    "ampl": 21848,
    "Ġdied": 4111,
    "Ġsabbee": 17257,
    "Ġsavagely": 26327,
    "Ġsmokes": 22565,
    "floating": 12232,
    "sequ": 2402,
    "disposed": 25018,
    "Ġfifteen": 6947,
    "rolling": 9062,
    "live": 7551,
    "produced": 25419,
    "Ġris": 4887,
    "Ġlirra": 21565,
    "inement": 11560,
    "Ġfleet": 9435,
    "Ġjudge": 5503,
    "Ġpads": 21475,
    "Ġimage": 3405,
    "Ġimplicate": 24882,
    "Ġ40": 14771,
    "Ġadvisable": 11444,
    "refusal": 24740,
    "Ġwhir": 6394,
    "arch": 1110,
    "boom": 18999,
    "hunter": 10558,
    "Ġupon": 720,
    "orting": 9738,
    "Ġhandling": 8915,
    "Ġdexterous": 15152,
    "Ġliv": 6682,
    "Ġassu": 21903,
    "Ġpasses": 2678,
    "Ġ": 225,
    "Ġsuperiority": 14618,
    "Ġdepress": 14048,
    "Ġdeparture": 6491,
    "Ġgrown": 5629,
    "overs": 17622,
    "Ġchaise": 9078,
    "Ġsticking": 13431,
    "Ġprotesting": 14744,
    "Ġquadrant": 11406,
    "Ġgenius": 8048,
    "slack": 16895,
    "Ġeleventh": 23376,
    "Ġpants": 21466,
    "Ġknife": 7309,
    "Ġdesignated": 19524,
    "Ġignor": 4012,
    "Ġturing": 7567,
    "Ġsultry": 20291,
    "Ġargu": 10937,
    "Ġsteadfast": 8682,
    "precious": 12077,
    "Ġintricate": 15141,
    "obliged": 20634,
    "Ġsurviving": 24643,
    "Ġloadstone": 25821,
    "abri": 6685,
    "anted": 5028,
    "Ġmeet": 2803,
    "Ġconnecting": 18631,
    "sighted": 19788,
    "Ġborrowed": 17231,
    "Ġimmortality": 26329,
    "Ġmediocr": 24145,
    "Ġque": 4158,
    "Ġoust": 21328,
    "Ġadmiring": 16482,
    "ilations": 21727,
    "Ġuppermost": 15282,
    "Ġeye": 2282,
    "Ġmermaids": 26173,
    "Ġrails": 22661,
    "kempt": 20943,
    "26": 10076,
    "Ġrights": 10399,
    "Ġtruest": 16701,
    "yards": 9626,
    "Ġwitnesses": 9489,
    "Ġmachinations": 25772,
    "Ġpeevish": 26560,
    "Ġmatrimonial": 25494,
    "Ġmitigating": 1615,
    "covered": 11479,
    "Ġdevilish": 11230,
    "ance": 477,
    "prehens": 9291,
    "Ġstature": 10866,
    "anzas": 17842,
    "tles": 10732,
    "level": 2653,
    "smitten": 23917,
    "Ġdismasted": 15255,
    "dinner": 11408,
    "among": 6258,
    "Ġlun": 7858,
    "hor": 2571,
    "clings": 23159,
    "Ġcompliance": 12119,
    "Ġensl": 19276,
    "recurrent": 4995,
    "icy": 6142,
    "Ġdirectly": 2106,
    "fle": 7130,
    "ĠÂ£": 5007,
    "Ġnar": 7375,
    "Ġauthor": 4374,
    "Ġunmolested": 15249,
    "Ġhabitu": 19531,
    "Ġcant": 17826,
    "bs": 3777,
    "sure": 5523,
    "preading": 18498,
    "Ġhired": 10180,
    "Ġloops": 8855,
    "Ġruggedness": 26272,
    "Ġ73": 24266,
    "Ġwinged": 16996,
    "Ġfacilitate": 26101,
    "Ġarose": 7360,
    "Ġmadness": 6603,
    "sig": 2873,
    "concerns": 24588,
    "Ġcheery": 16370,
    "Ġwithdrawing": 11342,
    "Ġledger": 19405,
    "englishman": 23684,
    "friendly": 13288,
    "Ġunaware": 22065,
    "Ġske": 4816,
    "barbar": 20241,
    "encouragement": 17425,
    "Ġblunt": 11898,
    "Ġidle": 8255,
    "itching": 21339,
    "Ġwait": 4908,
    "Ġ182": 13241,
    "Ġsombre": 18862,
    "pans": 13773,
    "Ġsnugly": 17111,
    "Ġevol": 2815,
    "Ġenglishmen": 19433,
    "Ġoutfits": 22327,
    "removed": 15519,
    "Ġstudies": 7958,
    "ckinridge": 11723,
    "watch": 6120,
    "paws": 21031,
    "Ġrome": 12160,
    "signs": 16540,
    "ortion": 11761,
    "fail": 17541,
    "Ġtended": 21169,
    "Ġfinery": 23134,
    "mason": 17603,
    "inexplicable": 25814,
    "meaning": 2907,
    "Ġnose": 4401,
    "Ġcities": 17829,
    "intellig": 5322,
    "Ġcomparatively": 9493,
    "Ġpride": 3824,
    "Ġreturn": 1709,
    "da": 17515,
    "Ġrecoil": 18691,
    "Ġcategorization": 12141,
    "Ġthereof": 22374,
    "Ġrigging": 5601,
    "Ġdisplaying": 16967,
    "Ġprecious": 5761,
    "Ġdesirable": 8943,
    "Ġcopper": 7425,
    "hastened": 16846,
    "Ġsuspending": 19246,
    "Ġstrugg": 3218,
    "entimes": 12661,
    "Ġsecondly": 14517,
    "Ġmoulded": 16976,
    "Ġsour": 21219,
    "supplied": 10522,
    "_),": 7127,
    "Ġhardened": 14453,
    "Ġruin": 6058,
    "Ġcrescentic": 20624,
    "rear": 21235,
    "Ġcomprehen": 5351,
    "vessel": 11379,
    "toss": 22572,
    "exceed": 7914,
    "iate": 6506,
    "Ġglac": 9349,
    "Ġpunctil": 20117,
    "Ġdere": 21839,
    "Ġcentre": 5124,
    "dilig": 17284,
    "vict": 11543,
    "Ġcruelty": 9972,
    "hes": 1399,
    "somehow": 12014,
    "Ġfleecy": 17024,
    "lowering": 16032,
    "receiving": 12548,
    "Ġbath": 9661,
    "contempl": 13195,
    "Ġdivinely": 25727,
    "bohem": 19002,
    "iture": 5697,
    "uiperai": 10666,
    "Ġluckily": 16799,
    "Ġnewspaper": 12368,
    "Ġmutineer": 19421,
    "Ġten": 2386,
    "Ġcomplained": 16999,
    "Ġrephr": 21684,
    "Ġfeelings": 2453,
    "atics": 15526,
    "Ġsurve": 9877,
    "Ġthimble": 15641,
    "Ġrespected": 11956,
    "bermaid": 20792,
    "Ġunsettled": 14126,
    "pardonable": 17219,
    "discharging": 26308,
    "Ġlocal": 1200,
    "Ġexpiring": 16101,
    "americ": 8158,
    "ager": 6548,
    "--": 1043,
    "Ġnavies": 16901,
    "Ġbecame": 2690,
    "Ġregent": 18599,
    "Ġhaunted": 10256,
    "Ġbalancing": 2430,
    "cery": 20810,
    "deep": 1002,
    "joining": 19449,
    "Ġexultation": 15175,
    "Ġket": 18348,
    "Ġbene": 2032,
    "alk": 1153,
    "kerchief": 7526,
    "Ġjapanese": 10636,
    "Ġgrieve": 14710,
    "Ġadviser": 25317,
    "Ġindications": 14634,
    "initions": 21190,
    "Ġcurses": 13017,
    "Ġpleasantest": 24143,
    "angling": 14143,
    "Ġinquirers": 24972,
    "Ġquohog": 10974,
    "Ġrusty": 14967,
    "Ġduplicity": 25336,
    "imental": 16535,
    "inate": 6235,
    "Ġpersecutor": 26099,
    "bucket": 17495,
    "Ġniece": 5713,
    "Ġlawn": 7379,
    "Ġcele": 9903,
    "hard": 4689,
    "_.)": 7278,
    "Ġcoupled": 16852,
    "Ġ101": 24413,
    "Ġstings": 21740,
    "Ġdefe": 21840,
    "skull": 24492,
    "hur": 6651,
    "Ġsewing": 21960,
    "Ġlegal": 10441,
    "Ġstrictly": 12289,
    "speps": 14336,
    "Ġglaring": 11912,
    "Ġticking": 25041,
    "col": 3103,
    "Ġdeposited": 25489,
    "Ġemir": 23358,
    "Ġvernal": 23896,
    "Ġwarped": 25043,
    "Ġmiscellaneous": 17464,
    "meantime": 9094,
    "Ġcategories": 4475,
    "Ġmeasuring": 22889,
    "Ġtherefore": 2240,
    "Ġscorched": 17101,
    "Ġsolemnity": 9944,
    "Ġaccomplished": 7106,
    "iron": 3552,
    "Ġwilling": 7421,
    "wling": 11547,
    "Ġembark": 8559,
    "Ġempty": 5355,
    "hide": 10705,
    "goldsmith": 20150,
    "Ġpress": 5934,
    "mathemat": 19139,
    "Ġdominant": 12400,
    "Ġsymbol": 7718,
    "kindness": 10508,
    "Ġunsupplied": 22049,
    "Ġevanesc": 24300,
    "lengthwise": 19953,
    "disagreeable": 11165,
    "Ġconversation": 3332,
    "Ġ1671": 25013,
    "Ġunaffected": 14125,
    "ief": 2045,
    "ouses": 5164,
    "heavy": 10577,
    "Ġbanker": 8670,
    "raham": 18016,
    "atter": 654,
    "Ġweap": 6157,
    "Ġencirc": 18731,
    "glit": 23858,
    "Ġtints": 17728,
    "elze": 21578,
    "ientiously": 21947,
    "Ġinputs": 843,
    "Ġgramm": 8173,
    "ofs": 11834,
    "Ġequator": 7461,
    "perai": 10279,
    "bull": 13694,
    "Ġethics": 15465,
    "Ġdelighted": 5500,
    "Ġcross": 1376,
    "Ġcastors": 23984,
    "Ġbegging": 11082,
    "Ġslim": 18939,
    "Ġslates": 11108,
    "neat": 22468,
    "ractions": 11636,
    "Ġclothed": 19609,
    "Ġoccurs": 1854,
    "Ġprejudiced": 24811,
    "Ġdefine": 9818,
    "evid": 11487,
    "speeches": 25244,
    "Ġangle": 8606,
    "Ġpainter": 19170,
    "achel": 7034,
    "Ġunfinished": 19512,
    "Ġpoetic": 17103,
    "Ġbleeding": 14883,
    "Ġembod": 14414,
    "england": 18931,
    "Ġpoliteness": 8276,
    "Ġfurrow": 22821,
    "jur": 17579,
    "Ġsoothed": 10032,
    "Ġdisagree": 22538,
    "Ġbowing": 10477,
    "Ġsmiled": 5943,
    "Ġdavis": 25957,
    "Ġstandard": 14498,
    "retrospect": 23148,
    "ache": 8521,
    "Ġmariners": 6070,
    "Ġsources": 10150,
    "Ġeldest": 6573,
    "Ġphilosopher": 12188,
    "Ġourselves": 5128,
    "id": 338,
    "utch": 21591,
    "Ġrepenting": 25327,
    "Ġtradesman": 20076,
    "Ġadoption": 24956,
    "Ġsuch": 793,
    "Ġdepression": 21845,
    "Ġlivelong": 25516,
    "Ġmeagre": 21816,
    "Ġgri": 17990,
    "Ġstriving": 8998,
    "Ġmanagement": 8195,
    "consult": 24175,
    "ek": 1905,
    "Ġcharming": 6631,
    "Ġlust": 9199,
    "Ġaries": 21200,
    "Ġcigaret": 16977,
    "astron": 22175,
    "biqu": 17499,
    "izarre": 17391,
    "Ġregular": 947,
    "Ġadored": 18292,
    "lotts": 23834,
    "Ġexternal": 8367,
    "Ġindiscreet": 22965,
    "Â": 131,
    "natured": 7112,
    "Ġflights": 24757,
    "arr": 3047,
    "Ġnoting": 18222,
    "Ġthin": 4346,
    "Ġmus": 3398,
    "conf": 4957,
    "Ġgold": 3279,
    "splinter": 25214,
    "endeavour": 17031,
    "Ġcraw": 7282,
    "Ġxerxes": 23418,
    "utherland": 9581,
    "Ġattractive": 25580,
    "deepest": 22833,
    "Ġicy": 10749,
    "Ġpomp": 12627,
    "Ġmuteness": 19420,
    "Ġforest": 9874,
    "isons": 17851,
    "blows": 17166,
    "â": 163,
    "surrounded": 26091,
    "Ġalgorithm": 774,
    "Ġevalu": 3208,
    "lude": 6163,
    "elopement": 23196,
    "mant": 20967,
    "become": 14249,
    "sweep": 24624,
    "loath": 22512,
    "Ġhover": 15624,
    "Ġsteering": 10390,
    "ptic": 21924,
    "admon": 21766,
    "timidity": 25758,
    "Ġdarker": 13123,
    "Ġtook": 1852,
    "Ġdemeanour": 17339,
    "Ġcomposing": 16071,
    "Ġremainder": 9861,
    "Ġcommons": 22680,
    "Ġheath": 15706,
    "fer": 1929,
    "Ġmatted": 22921,
    "ificent": 8186,
    "arded": 5030,
    "Ġprevented": 5944,
    "Ġsuitable": 18281,
    "Ġdownstairs": 11226,
    "rench": 3967,
    "Ġclasp": 9748,
    "Ġproximity": 3221,
    "Ġkeeping": 7283,
    "Ġexaggerate": 25654,
    "Ġextra": 4055,
    "Ġ1": 1013,
    "Ġdenied": 9002,
    "ceptive": 15980,
    "urning": 12921,
    "Ġalgorith": 564,
    "Ġinnocently": 24036,
    "Ġbook": 2700,
    "aches": 6572,
    "Ġlifelessly": 23059,
    "Ġchisel": 20371,
    "stove": 21657,
    "Ġamaz": 5386,
    "short": 6568,
    "Ġmistaking": 23727,
    "re": 266,
    "Ġinfallibly": 10044,
    "inridge": 11563,
    "Ġaware": 5757,
    "ĠlinnÃ¦us": 15279,
    "Ġswan": 23060,
    "school": 10058,
    "discoveries": 25390,
    "mblance": 7323,
    "Ġtremor": 24772,
    "Ġunreasonably": 17453,
    "Ġunhinged": 26220,
    "Ġlo": 453,
    "Ġcabs": 23648,
    "Ġjung": 12840,
    "Ġimpropriety": 17397,
    "Ġcovering": 13259,
    "Ġbigness": 19763,
    "success": 6712,
    "okingly": 22387,
    "Ġspacious": 18313,
    "bloom": 24695,
    "Ġenig": 15803,
    "nne": 20991,
    "amidst": 25657,
    "Ġdigress": 24654,
    "verbally": 25365,
    "Ġbefriend": 18084,
    "gor": 547,
    "Ġweary": 5636,
    "Ġsignific": 3829,
    "Ġeverywhere": 9799,
    "xter": 9148,
    "Ġreb": 15695,
    "Ġplaus": 22610,
    "Ġgentle": 1888,
    "Ġenrapt": 21945,
    "Ġyourself": 2593,
    "Ġzeros": 3326,
    "proceeded": 25194,
    "Ġmultiplied": 23697,
    "Ġaffairs": 6877,
    "transom": 19737,
    "Ġinsult": 6749,
    "eur": 7546,
    "Ġbewitching": 25981,
    "Ġleaned": 7609,
    "concerted": 16673,
    "Ġaims": 15499,
    "Ġinvincible": 23485,
    "Ġcondemned": 7780,
    "Ġwept": 7184,
    "Ġabruptly": 15154,
    "Ġtugged": 17290,
    "Ġimpersonal": 17398,
    "Ġcurrents": 13018,
    "sheet": 16288,
    "honorable": 19903,
    "Ġaccord": 4026,
    "confidence": 16809,
    "Ġschoolmaster": 16863,
    "unned": 21884,
    "Ġseaman": 8642,
    "Ġcaves": 15558,
    "Ġfootman": 8290,
    "Ġbaronial": 23801,
    "Ġabsor": 8507,
    "Ġtelegraph": 25588,
    "Ġklux": 22201,
    "Ġprofess": 3700,
    "Ġfi": 936,
    "naught": 20996,
    "confirmation": 26092,
    "sive": 4143,
    "Ġcounterpart": 24725,
    "Ġsacrifice": 9558,
    "Ġviol": 2072,
    "agitation": 14071,
    "cheerfulness": 20183,
    "letter": 6203,
    "Ġidentify": 12016,
    "scuttle": 11914,
    "love": 9295,
    "Ġadhes": 22108,
    "Ġliber": 5169,
    "Ġagreeably": 24960,
    "Ġdifferences": 18716,
    "Ġaffected": 5577,
    "etus": 21583,
    "ounder": 11748,
    "3": 23,
    "Ġstraggling": 23759,
    "Ġeffected": 14357,
    "/`": 12433,
    "iration": 4537,
    "Ġrig": 4223,
    "Ġreligions": 20111,
    "Ġdoubtful": 19143,
    "ory": 1082,
    "Ġban": 7157,
    "consciousness": 13370,
    "plumed": 21967,
    "together": 3558,
    "reat": 618,
    "icide": 11621,
    "Ġprimal": 17107,
    "Ġdialogue": 12408,
    "Ġcrawled": 17044,
    "hair": 9124,
    "rapidly": 15247,
    "Ġsagaciously": 24735,
    "atisf": 21267,
    "Ġbucket": 8791,
    "Ġproprietors": 20189,
    "opic": 22482,
    "slackened": 26097,
    "Ġforebodings": 17306,
    "folding": 24933,
    "yesterday": 10355,
    "fort": 1746,
    "Ġlasted": 11055,
    "Ġfailing": 12142,
    "manners": 16187,
    "Ġsum": 2698,
    "Ġunmanufactured": 20437,
    "ronted": 14880,
    "itect": 966,
    "Ġvelvet": 12402,
    "Ġenhancement": 23699,
    "pure": 17627,
    "Ġcuriously": 13016,
    "Ġtandem": 26414,
    "despicable": 24644,
    "ohn": 4558,
    "Ġstri": 2802,
    "Ġbeamed": 23730,
    "Ġphilosop": 5058,
    "Ġchis": 11754,
    "latin": 25263,
    "ser": 1425,
    "Ġmans": 15540,
    "Ġpretension": 23772,
    "Ġrmsprop": 3356,
    "ivorous": 22086,
    "wed": 5797,
    "Ġclaw": 22365,
    "Ġlance": 4880,
    "Ġshoulder": 5850,
    "Ġanimating": 23431,
    "Ġamazing": 9980,
    "Ġjustify": 11074,
    "gro": 10097,
    "Ġblasphemy": 26118,
    "asion": 5715,
    "Ġmight": 962,
    "Ġtranslation": 3087,
    "Ġdefect": 8556,
    "Ġorph": 9720,
    "Ġinarticulate": 21505,
    "Ġdeduced": 12212,
    "announcement": 24567,
    "Ġmarks": 6748,
    "ounders": 22390,
    "Ġcarpet": 9359,
    "Ġlogic": 13081,
    "Ġconfronted": 23314,
    "Ġyaw": 18097,
    "Ġdangling": 17175,
    "Ġdegree": 3706,
    "Ġfundament": 2926,
    "Ġbree": 5013,
    "Ġapologize": 15132,
    "toed": 18579,
    "Ġdepl": 14046,
    "Ġseized": 4835,
    "Ġwet": 6519,
    "assuming": 22316,
    "Ġenergies": 25464,
    "rings": 10724,
    "Ġintruder": 25996,
    "Ġmerely": 3771,
    "Ġmidnight": 5267,
    "tically": 3394,
    "quit": 15766,
    "howling": 18990,
    "Ġbuilded": 24723,
    "Ġinclusive": 24169,
    "Ġspl": 2984,
    "surprise": 9533,
    "Ġharpoons": 5660,
    "gar": 5615,
    "Ġsockets": 22094,
    "Ġtumbled": 13410,
    "conspicuous": 26251,
    "Ġbathing": 20202,
    "iot": 9603,
    "Ġprograms": 7239,
    "Ġ1991": 3018,
    "Ġpier": 7163,
    "bedstead": 23940,
    "Ġheav": 1847,
    "Ġsaw": 1353,
    "Ġsembl": 19058,
    "Ġsenate": 25218,
    "Ġsinging": 7725,
    "Ġpawnbroker": 13662,
    "Ġviolet": 19091,
    "Ġmanufactured": 22336,
    "Ġsacr": 7194,
    "edded": 8557,
    "exc": 5170,
    "iday": 8833,
    "Ġbreat": 3461,
    "Ġdiscourse": 9801,
    "Ġsuperflu": 14557,
    "Ġsolicited": 20040,
    "ezes": 9994,
    "Ġgratify": 19506,
    "'d": 12431,
    "Ġbristling": 20530,
    "Ġcommercial": 22682,
    "zas": 17713,
    "Ġsine": 10765,
    "Ġon": 350,
    "acqu": 4844,
    "Ġmanner": 2198,
    "Ġdiffered": 22719,
    "Ġexclusion": 19399,
    "Ġjames": 6420,
    "Ġdissolved": 18555,
    "Ġexercised": 24805,
    "accompl": 9883,
    "concluded": 11244,
    "ev": 6952,
    "Ġey": 8137,
    "althily": 19362,
    "Ġsitu": 3496,
    "law": 6117,
    "Ġdiscourage": 3116,
    "alizing": 17942,
    "Ġwhelm": 26003,
    "ĠĠĠĠĠĠĠĠĠĠĠĠĠĠĠĠĠĠĠĠĠĠĠĠĠĠĠĠĠĠĠĠĠ": 12046,
    "iteness": 4391,
    "Ġhe": 318,
    "Ġabode": 7903,
    "Ġintrospective": 20603,
    "incess": 15485,
    "Ġsloop": 25935,
    "french": 9121,
    "Ġtainted": 21173,
    "Ġrecept": 1524,
    "Ġferrule": 24521,
    "sor": 7352,
    "Ġcaresses": 26062,
    "Ġforger": 15737,
    "Ġcomple": 2840,
    "Ġforbe": 8460,
    "Ġschooner": 16748,
    "reflections": 24739,
    "build": 12192,
    "oping": 5559,
    "irm": 3108,
    "Ġincompatible": 25685,
    "angel": 5727,
    "Ġvia": 2383,
    "Ġsymptoms": 8708,
    "Ġdomes": 23652,
    "Ġeels": 21625,
    "Ġpract": 1894,
    "Ġturn": 1300,
    "must": 3580,
    "disreputable": 23509,
    "Ġdoted": 21438,
    "Ġ3": 3985,
    "Ġprudent": 9186,
    "rom": 420,
    "Ġpencils": 23204,
    "Ġcreat": 1420,
    "Ġserene": 8169,
    "Ġfireboard": 23540,
    "Ġshudderings": 25204,
    "practical": 17223,
    "Ġmaelstrom": 19359,
    "Ġbelted": 22957,
    "Ġrepro": 7275,
    "Ġbelongs": 8017,
    "90": 12436,
    "Ġenchanted": 9082,
    "stem": 567,
    "tiger": 13800,
    "Ġabstracted": 17183,
    "Ġcourage": 4632,
    "doubt": 6783,
    "chairs": 21698,
    "Ġestimation": 11220,
    "finer": 17547,
    "unicorn": 21895,
    "penn": 18828,
    "quite": 4645,
    "Ġhisself": 21920,
    "Ġinvitation": 5189,
    "Ġvale": 14085,
    "Ġadvantages": 9811,
    "Ġcirculating": 23380,
    "Ġthoughtfully": 12984,
    "!âĢĶâĢĻ": 23571,
    "Ġgettest": 23238,
    "Ġmeant": 3551,
    "perceived": 8861,
    "Ġsumat": 14132,
    "Ġintrospect": 15832,
    "rics": 13042,
    "12": 20751,
    "ender": 9162,
    "Ġlamps": 14794,
    "Ġunconnected": 18243,
    "gle": 20871,
    "Ġfurthest": 22822,
    "ony": 3031,
    "mild": 15395,
    "Ġsuperseded": 26227,
    "ullied": 23114,
    "bulkington": 19927,
    "Ġlab": 1867,
    "eric": 3470,
    "eyed": 11489,
    "Ġspence": 22132,
    "Ġoverall": 4357,
    "Ġreputation": 11643,
    "Ġwinchester": 10069,
    "Ġcolonial": 22869,
    "Ġpugn": 21481,
    "bble": 17486,
    "call": 8726,
    "Ġshifting": 12773,
    "Ġvalidate": 2998,
    "Ġenormity": 19698,
    "rises": 17656,
    "Ġpalpitated": 26088,
    "eping": 5835,
    "Ġswells": 9830,
    "Ġcomfor": 14057,
    "Ġtraditions": 11445,
    "Ġprogeny": 17390,
    "consideration": 14958,
    "guarded": 13298,
    "Ġath": 15805,
    "nings": 9133,
    "aught": 2679,
    "Ġpark": 5466,
    "igations": 18046,
    "Ġstrang": 4160,
    "isome": 17850,
    "vely": 3866,
    "Ġincidents": 9301,
    "Ġconvolutions": 21813,
    "Ġsuspicious": 9483,
    "distinction": 19574,
    "Ġcampa": 17174,
    "headers": 23118,
    "Ġcolours": 12978,
    "hotel": 20053,
    "Ġalcoves": 26489,
    "poling": 12224,
    "onely": 6517,
    "Ġwhist": 6024,
    "ric": 1379,
    "itering": 17820,
    "gan": 2201,
    "rodden": 21540,
    "Ġteasing": 11895,
    "necessity": 13372,
    "Ġsqueezing": 25014,
    "quietly": 10595,
    "dripping": 16906,
    "Ġlivers": 18462,
    "sudden": 5317,
    "Ġabreast": 18395,
    "Ġerad": 25036,
    "mortar": 25413,
    "confidential": 25881,
    "incible": 16499,
    "Ġtempt": 5565,
    "Ġsome": 656,
    "Ġpursue": 6316,
    "Ġstripped": 10467,
    "Ġcovariate": 2352,
    "Ġunprovided": 18261,
    "Ġsucceeded": 6107,
    "utored": 15667,
    "Ġfootsteps": 16573,
    "conscientious": 19629,
    "Ġscrawled": 24585,
    "Ġdexterously": 25300,
    "Ġsatur": 1928,
    "taken": 7561,
    "Ġslack": 8957,
    "Ġcedars": 20295,
    "humour": 7499,
    "Ġtierce": 15481,
    "Ġinconceivable": 17940,
    "Ġsepar": 3999,
    "oura": 1062,
    "Ġmaintains": 2145,
    "Ġlabors": 23334,
    "Ġhump": 5855,
    "pillar": 5619,
    "Ġimplac": 24880,
    "machines": 8387,
    "Ġheaving": 7602,
    "Ġshame": 6411,
    "Ġseeking": 7037,
    "Ġreg": 734,
    "Ġloc": 10917,
    "Ġunable": 4951,
    "Ġsaturation": 2062,
    "Ġstowed": 21742,
    "Ġunctuous": 10269,
    "Ġfastening": 16359,
    "Ġmiriam": 25278,
    "overed": 2853,
    "aries": 6246,
    "Ġgall": 4350,
    "eager": 12464,
    "Ġattending": 3285,
    "Ġundulates": 24124,
    "our": 535,
    "goodbye": 12060,
    "Ġimperial": 9484,
    "slight": 10729,
    "attempts": 17192,
    "ittleness": 22385,
    "dl": 20825,
    "backpropagation": 11988,
    "Ġsplashing": 16551,
    "Ġflu": 3278,
    "Ġconcre": 16392,
    "Ġopulent": 23636,
    "Ġproduce": 4365,
    "landish": 11946,
    "haul": 14768,
    "Ġcompar": 4772,
    "impul": 16557,
    "ccas": 15889,
    "Ġprovoke": 14828,
    "Ġconcentric": 20078,
    "Ġdiscrimination": 23611,
    "Ġadmission": 23562,
    "Ġconducting": 16651,
    "Ġguards": 16272,
    "Ġintru": 15831,
    "Ġerrors": 2596,
    "antically": 22102,
    "Ġthreat": 5155,
    "Ġhaughty": 11451,
    "sofa": 26149,
    "Ġswear": 6462,
    "sery": 17662,
    "Ġforg": 3789,
    "Ġwides": 17790,
    "Ġenvironmental": 24080,
    "Ġstopped": 5959,
    "reast": 17759,
    "Ġidolator": 20001,
    "Ġbeheading": 21760,
    "Ġfaded": 10811,
    "Ġspade": 9261,
    "Ġdreading": 23806,
    "Ġbroiled": 18910,
    "Ġreserves": 19673,
    "leaving": 10793,
    ".;": 20746,
    "arabian": 26449,
    "Ġcheeks": 5960,
    "Ġmonosyllable": 20728,
    "Ġbits": 11591,
    "Ġcourt": 4168,
    "lose": 12885,
    "slee": 17169,
    "girdling": 26392,
    "Ġable": 3081,
    "Ġlancaster": 26344,
    "themselves": 6542,
    "Ġsolicitude": 10043,
    "pursuit": 20343,
    "Ġsubaltern": 22799,
    "Ġframe": 1979,
    "Ġwee": 21925,
    "Ġcontinuing": 14400,
    "uble": 21105,
    "import": 5669,
    "Ġglowed": 24870,
    "fanning": 20868,
    "Ġcraft": 4375,
    "Ġtype": 2020,
    "Ġominous": 12428,
    "Ġren": 3846,
    "adequately": 20322,
    "Ġstaring": 8828,
    "iteous": 14264,
    "Ġextinguish": 14342,
    "jerked": 25623,
    "Ġthrone": 12218,
    "Ġrelied": 16197,
    "Ġtons": 11552,
    "itarian": 21341,
    "Ġentic": 16149,
    "eline": 2489,
    "wait": 11322,
    "Ġamours": 22487,
    "Ġborn": 5225,
    "Ġundeniable": 26513,
    "Ġultimately": 17165,
    "Ġintense": 6159,
    "Ġsummarization": 3649,
    "Ġlend": 17965,
    "Ġupward": 9724,
    "yd": 21145,
    "Ġbellies": 13360,
    "Ġcet": 6672,
    "Ġshowing": 7733,
    "Ġthr": 5710,
    "board": 3568,
    "marching": 25757,
    "infallibly": 26420,
    "tremendous": 20676,
    "Ġpitchpoling": 14914,
    "Ġbasement": 24706,
    "ension": 6571,
    "Ġsurmised": 24925,
    "Ġinstance": 2544,
    "Ġsaturday": 6453,
    "Ġmistake": 6205,
    "Ġunaccount": 22033,
    "Ġmortally": 23925,
    "Ġaffront": 18790,
    "Ġselect": 3998,
    "Ġmoist": 9287,
    "Ġaglow": 22519,
    "Ġhardships": 14454,
    "ertain": 1208,
    "Ġherbage": 26001,
    "eastward": 15133,
    "dense": 18717,
    "bey": 10316,
    "Ġcharacteristic": 12051,
    "Ġtwig": 11854,
    "Ġclerval": 4652,
    "assin": 22311,
    "sford": 6000,
    "really": 6972,
    "osoever": 17345,
    "Ġdescent": 970,
    "derment": 22167,
    "Ġring": 4450,
    "afraid": 10443,
    "Ġhushed": 13928,
    "razor": 21642,
    "Ġendeavor": 16546,
    "Ġnavigators": 19766,
    "Ġspoils": 24810,
    "Ġnarr": 5086,
    "Ġbroadway": 23992,
    "Ġtotally": 9474,
    "Ġfeels": 6882,
    "Ġrecognised": 8997,
    "meadow": 18680,
    "Ġalongside": 6313,
    "Ġaquiline": 26162,
    "mered": 8220,
    "sal": 8761,
    "Ġarrowy": 25474,
    "income": 15489,
    "Ġdeliverance": 15161,
    "Ġfrench": 4939,
    "Ġincisive": 18572,
    "edged": 15635,
    "chants": 21697,
    "Ġtub": 7147,
    "Ġprofane": 13156,
    "propagation": 1244,
    "!âĢĶ": 2454,
    "Ġcemet": 20683,
    "writing": 7722,
    "pag": 11513,
    "mountain": 10715,
    "paddington": 20481,
    "Ġener": 10899,
    "Ġjoist": 19233,
    "nel": 11507,
    "tr": 3582,
    "bushes": 24451,
    "Ġconflict": 17275,
    "Ġannesley": 19580,
    "Ġcylinders": 25948,
    "Ġresults": 7308,
    "bene": 6114,
    "het": 5436,
    "hunt": 20905,
    "Ġconvince": 14644,
    "Ġsigh": 10339,
    "Ġprivate": 5347,
    "Ġdefer": 18824,
    "Ġmother": 2068,
    "Ġscraping": 13420,
    "Ġinert": 15626,
    "Ġchurchyard": 16778,
    "Ġresentful": 24638,
    "simon": 16974,
    "._]]": 5336,
    "pane": 10123,
    "Ġrunning": 3952,
    "Ġlicence": 25104,
    "Ġvaliantly": 22807,
    "Ġrolling": 5977,
    "Ġeighty": 19479,
    "reward": 15512,
    "Ġlantern": 7118,
    "reng": 4002,
    "ories": 4753,
    "Ġsaxe": 13632,
    "Ġelect": 10845,
    "salesman": 20674,
    "Ġmeets": 7396,
    "contain": 18503,
    "diss": 17524,
    "rated": 6229,
    "manif": 14376,
    "Ġsurest": 19055,
    "msman": 9271,
    "Ġfarewell": 9523,
    "avor": 14280,
    "Ġexpense": 7653,
    "Ġfake": 5812,
    "Ġmounts": 17808,
    "Ġstaggers": 24659,
    "Ġringed": 16751,
    "Ġconfining": 23312,
    "steam": 23968,
    "Ġlarge": 1067,
    "Ġsmart": 11819,
    "atters": 18501,
    "wore": 21127,
    "Ġhesitated": 10005,
    "Ġswamp": 14439,
    "Ġfiend": 4410,
    "Ġvolley": 24151,
    "Ġindians": 14412,
    "Ġcasks": 7522,
    "isely": 4486,
    "parm": 21016,
    "icha": 11742,
    "achines": 1721,
    "Ġcetace": 14991,
    "Ġdears": 18138,
    "Ġcoefficient": 2882,
    "dled": 9113,
    "books": 8667,
    "Ġbeliever": 25851,
    "Ġstalls": 25652,
    "Ġbra": 3255,
    "rudence": 7094,
    "Ġeu": 6391,
    "Ġvault": 8844,
    "Ġgi": 15670,
    "Ġinnovative": 1636,
    "Ġenchant": 7185,
    "Ġbloodshot": 23807,
    "E": 41,
    "judge": 13341,
    "Ġfrantically": 23266,
    "uniform": 18160,
    "Ġblemish": 19682,
    "robustness": 26342,
    "oise": 15407,
    "Ġinclemency": 22561,
    "Ġmorrow": 9346,
    "Ġfailed": 6674,
    "Ġrespectful": 16348,
    "Ġtransfer": 2247,
    "Ġrec": 894,
    "Ġtrace": 6183,
    "Ġoil": 3375,
    "Ġwhimsical": 20431,
    "valued": 2852,
    "Ġdistinctions": 18531,
    "Ġtechniques": 2866,
    "protested": 13478,
    "delivered": 24106,
    "emone": 21931,
    "Ġsymmet": 11751,
    "uberance": 25921,
    "Ġfollies": 16259,
    "Ġacquirement": 19257,
    "hills": 13739,
    "mary": 8752,
    "Ġheard": 1400,
    "approach": 24839,
    "Ġinsipid": 26316,
    "Ġconstitutes": 13556,
    "Ġprevail": 13446,
    "Ġfrosty": 14938,
    "Ġunassuming": 20512,
    "ato": 17770,
    "gra": 771,
    "Ġaimed": 20253,
    "pp": 384,
    "Ġpresenting": 18988,
    "Ġwrench": 12562,
    "while": 2934,
    "condem": 16345,
    "Ġis": 347,
    "turbable": 24535,
    "Ġcompetent": 11820,
    "Ġrally": 21974,
    "word": 2487,
    "âĢĿ;": 11673,
    "Ġkitty": 3908,
    "conviction": 19968,
    "´": 117,
    "Ġv": 399,
    "Ġaustral": 12177,
    "Ġsty": 6253,
    "Ġconcluded": 5659,
    "Ġescaped": 6460,
    "Ġinnocent": 4922,
    "Ġsquared": 1384,
    "umbling": 6614,
    "male": 15392,
    "Ġishmael": 7395,
    "Ġrejected": 12298,
    "Ġoverspread": 14205,
    "asses": 7018,
    "Ġfeather": 8862,
    "Ġde": 362,
    "Ġdecreases": 3411,
    "Ġfoot": 3160,
    "Ġgrin": 5483,
    "activation": 3232,
    "Ġrustic": 14968,
    "Ġshoe": 14569,
    "Ġbrink": 18772,
    "evident": 25525,
    "advent": 10223,
    "Ġfull": 2179,
    "dev": 7633,
    "Ġnor": 1548,
    "boone": 23261,
    "Ġcherished": 10593,
    "Ġissuing": 16949,
    "dances": 17522,
    "gigantic": 15363,
    "Ġspermacetti": 19047,
    "Ġ[_": 15464,
    "U": 57,
    "countless": 24156,
    "Ġanimal": 2498,
    "Ġregularization": 1188,
    "sentimental": 25686,
    "fluttering": 23981,
    "immense": 18055,
    "archical": 1924,
    "american": 11402,
    "Ġsentiment": 6590,
    "Ġsant": 21217,
    "plexion": 14261,
    "Ġcro": 4874,
    "Ġvolumes": 14802,
    "atre": 17771,
    "Ġmortals": 9919,
    "Ġopine": 19229,
    "indust": 18436,
    "Ġspanish": 2827,
    "Ġwillow": 18529,
    "angled": 6844,
    "zy": 2669,
    "accuracy": 9882,
    "nursery": 26402,
    "Ġcivilly": 19606,
    "Ġfor": 340,
    "Ġcelestial": 10070,
    "Ġshine": 12771,
    "Ġsafely": 9027,
    "Ġunbounded": 18260,
    "movement": 25582,
    "Ġimpet": 11785,
    "highest": 20411,
    "Ġorganically": 3014,
    "Ġheightens": 24160,
    "Ġscarce": 8625,
    "houn": 20895,
    "Ġxxxi": 24976,
    "Ġbravely": 23847,
    "Ġcould": 704,
    "usually": 10288,
    "Ġpoints": 5250,
    "Ġconsort": 18724,
    "Ġbumpkins": 25286,
    "Ġcleared": 6077,
    "Ġlives": 4828,
    "lat": 9607,
    "sters": 6392,
    "Ġletting": 10364,
    "mount": 9131,
    "Ġengagement": 5398,
    "enance": 3373,
    "Ġlighten": 23267,
    "tranquil": 25875,
    "horner": 23620,
    "Ġalluded": 7888,
    "deliberated": 26121,
    "Ġsoot": 14134,
    "generative": 4329,
    "preserver": 20216,
    "yonder": 21147,
    "Ġhum": 1097,
    "Ġcompletely": 4861,
    "melancholy": 12357,
    "Ġmut": 3585,
    "active": 16106,
    "zor": 15461,
    "Ġvariations": 22674,
    "letters": 13178,
    "Ġtolerably": 8070,
    "Ġdiana": 21441,
    "ler": 3492,
    "Ġcens": 8416,
    "Ġskill": 6872,
    "Ġfidel": 12601,
    "5": 25,
    "Ġplease": 4722,
    "london": 9612,
    "Ġcroquet": 9965,
    "taste": 10132,
    "p": 84,
    "strugg": 21667,
    "Ġdrows": 21440,
    "Ġhistor": 3392,
    "Ġunfortunate": 5377,
    "Ġvehemence": 26569,
    "Ġpopular": 6218,
    "Ġquiet": 3261,
    "parts": 14603,
    "Ġrainy": 24345,
    "ule": 6801,
    "Ġlookest": 22723,
    "Ġreversed": 15701,
    "Ġoriginate": 24127,
    "Ġanticipated": 13514,
    "Ġencoun": 4509,
    "Ġmembrane": 20507,
    "Ġpoultry": 17443,
    "Ġconsum": 9802,
    "Ġhumorously": 18779,
    "Ġunlabeled": 3801,
    "Ġundeviating": 15221,
    "Ġha": 400,
    "uck": 1232,
    "Ġsales": 12812,
    "wil": 8769,
    "Ġethiopian": 26616,
    "Ġplace": 1651,
    "Ġlikewise": 5387,
    "Ġwarehouse": 20420,
    "ernal": 4311,
    "anger": 2174,
    "Ġcursed": 6728,
    "Ġensuring": 11193,
    "Ġdons": 17890,
    "Ġwhispered": 5339,
    "joint": 24017,
    "Ġworshippers": 25698,
    "°": 113,
    "sculptured": 26049,
    "ometer": 19328,
    "Ġrepresentations": 1871,
    "modern": 1142,
    "Ġkidn": 20208,
    "previously": 17209,
    "Ġleaking": 21751,
    "Ġindispens": 22963,
    "ens": 702,
    "Ġovertake": 15970,
    "orm": 425,
    "ivers": 1981,
    "Ġrabbit": 4288,
    "www": 17253,
    "ieve": 1658,
    "Ġconcoct": 19043,
    "Ġterrible": 5329,
    "willing": 6594,
    "Ġdropping": 7484,
    "Ġbruited": 25778,
    "Ġblunder": 18820,
    "Ġintertw": 18587,
    "feed": 9297,
    "Ĩ": 233,
    "Ġbaggy": 24542,
    "ires": 6040,
    "Ġbir": 17855,
    "Ġarrest": 7409,
    "Ġfriendless": 23037,
    "splash": 25213,
    "aks": 8509,
    "Ġwoes": 23994,
    "plunging": 25992,
    "milk": 20480,
    "gon": 17553,
    "Ġdescribed": 6608,
    "Ġguardian": 14945,
    "Ġhardihood": 23121,
    "murdered": 12207,
    "Ġinserting": 19908,
    "cadence": 26128,
    "Ġworkflow": 2200,
    "ignantly": 23273,
    "Ġsex": 8845,
    "Ġchag": 15935,
    "Ġlatter": 3989,
    "Ġremonstrance": 20626,
    "Ġstandpoint": 23285,
    "Ġbarbed": 14837,
    "ugal": 19020,
    "Ġburning": 5979,
    "robotics": 11308,
    "Ġcommend": 10337,
    "ierce": 14394,
    "Ġsetting": 7048,
    "Ġpret": 3037,
    "ĠâĢĻ": 3045,
    "Ġfixedly": 19250,
    "Ġmeeting": 5194,
    "Ġbarmaid": 19337,
    "Ġpantheistic": 26339,
    "majesty": 26284,
    "nnight": 20995,
    "ethics": 8880,
    "Ġdrunkard": 20180,
    "carp": 9112,
    "Ġorphan": 12387,
    "Ġcoer": 22584,
    "tent": 21067,
    "Ġerected": 12238,
    "Ġindestruct": 22967,
    "Ġnum": 1351,
    "caroline": 24155,
    "Ġsecure": 4913,
    "Ġbab": 5292,
    "Ġlavater": 20499,
    "Ġfairest": 20466,
    "Ġcondescending": 24874,
    "hid": 13737,
    "Ġw": 272,
    "Ġhesitation": 13445,
    "º": 123,
    "riage": 2123,
    "Ġcongenial": 12415,
    "Ġgently": 7172,
    "Ġprofession": 6209,
    "tranqu": 14709,
    "Ġwounded": 8661,
    "infidel": 24669,
    "ineff": 21986,
    "Ġdescending": 8905,
    "Ġthews": 21281,
    "Ġassented": 17340,
    "ials": 11710,
    "Ġcleaving": 23190,
    "ak": 538,
    "othic": 16219,
    "Ġcloser": 8663,
    "handle": 11192,
    "Ġhol": 1182,
    "Ġdisagreeable": 9300,
    "ado": 11661,
    "Ġgalvan": 21622,
    "Ġreneg": 21680,
    "Ġincensed": 18573,
    "Ġperform": 1036,
    "idence": 4301,
    "Ġtransient": 18482,
    "hercules": 22210,
    "Ġascertain": 9709,
    "Ġemblem": 20501,
    "pitching": 24083,
    "Ġinex": 6529,
    "Ġefficiently": 3565,
    "Ġmeta": 3269,
    "Ġnets": 21529,
    "Ġdeterm": 1270,
    "Ġhappening": 14386,
    "Ġsalvation": 14760,
    "Ġrumors": 11323,
    "Ġers": 15463,
    "Ġallured": 14116,
    "Ġjuggling": 20442,
    "Ġzoned": 22829,
    "Ġsage": 17753,
    "Ġ2": 2928,
    "Ġfoolish": 5982,
    "ener": 561,
    "Ġbraw": 23843,
    "Ġvanquished": 22885,
    "Ġdeck": 2139,
    "communication": 25885,
    "Ġfolios": 23032,
    "mm": 675,
    "¨": 106,
    "Ġheavy": 3745,
    "Ġcontr": 1912,
    "Ġran": 3345,
    "Ġshades": 9466,
    "Ġpaid": 5016,
    "icil": 17974,
    "hurst": 19881,
    "Ġanything": 2189,
    "Ġtune": 17726,
    "Ġratio": 5067,
    "Ġpon": 10178,
    "Ġlightning": 5751,
    "Ě": 219,
    "dressed": 10697,
    "gi": 17552,
    "flood": 19809,
    "Ġclut": 7643,
    "fic": 20854,
    "Ġrele": 2917,
    "<": 32,
    "evinced": 19928,
    "Ġunman": 12779,
    "Ġbrows": 13304,
    "Ġpreparation": 13532,
    "Ġinfrequent": 3825,
    "Ġsaws": 23058,
    "bishop": 13698,
    "Ġhypothesis": 14786,
    "Ġtelescope": 17350,
    "Ġslappin": 18945,
    "Ġjiff": 22302,
    "Ġguilt": 6181,
    "Ġshoulders": 5566,
    "wn": 721,
    "afternoon": 13189,
    "Ġinexplicable": 12261,
    "Ġdesolation": 12273,
    "Ġdesperate": 7778,
    "Ġrefuge": 8543,
    "Ġsmoked": 10325,
    "Ġsarat": 21230,
    "shott": 11798,
    "Ġdemo": 10882,
    "Ġjapan": 7641,
    "Ġfowler": 16938,
    "Ġapply": 1774,
    "Ġquitted": 5313,
    "Ġthousandth": 23691,
    "ag": 377,
    "girl": 12322,
    "robber": 21542,
    "wondered": 17117,
    "Ġtumb": 21172,
    "ers": 405,
    "Ġprincess": 23228,
    "Ġhealth": 3902,
    "gging": 7699,
    "lingering": 18603,
    "conduct": 11801,
    "Ġdarcy": 1345,
    "exhibited": 18478,
    "mped": 16649,
    "unsuitable": 21899,
    "Ġanalogical": 25645,
    "Ġfrenchman": 11285,
    "Ġpeasants": 12336,
    "itudes": 3017,
    "dreams": 12341,
    "dropping": 14985,
    "standers": 18480,
    "Ġretribution": 16284,
    "thern": 4953,
    "Ġtraversed": 18894,
    "lady": 4431,
    "Ġfowls": 8694,
    "Ġadvertise": 25393,
    "Ġassisted": 11112,
    "beginning": 13565,
    "Ġbear": 3660,
    "Ġvigour": 24466,
    "Ġfoiled": 23251,
    "Ġtout": 17720,
    "Ġcontest": 18474,
    "Ġpoker": 13925,
    "Ġdissipate": 13637,
    "Ġrecollect": 8312,
    "Ġbeloved": 5572,
    "Ġproductions": 22955,
    "dece": 11738,
    "Ġplow": 21460,
    "Ġabandon": 12262,
    "Ġsubsequent": 7661,
    "Ġfluctu": 5269,
    "pyramid": 21032,
    "Ġstreaked": 19115,
    "peace": 13053,
    "Ġkentuckian": 26346,
    "Ġdemanded": 8329,
    "Ġenchanting": 17039,
    "Ġbamboo": 17439,
    "Ġinspector": 6499,
    "Ġoverhanging": 22356,
    "adding": 21767,
    "power": 7138,
    "arpo": 1752,
    "sensations": 20054,
    "atural": 931,
    "Ġendowed": 18925,
    "vour": 17700,
    "Ġcuts": 14609,
    "deeply": 16180,
    "Ġspectators": 19410,
    "D": 40,
    "chambers": 25459,
    "âĢĿ--": 21822,
    "Ġreusability": 13562,
    "emptied": 23643,
    "Ġtart": 12533,
    "Ġtrop": 7566,
    "ĠĠĠĠĠĠĠĠĠĠĠĠĠĠĠĠĠĠĠ": 22959,
    "ists": 4000,
    "excellent": 8046,
    "Ġdomin": 10463,
    "um": 454,
    "Ġawakened": 10455,
    "Ġmanners": 3792,
    "Ġimmutable": 17360,
    "Ġsymb": 2591,
    "pleasures": 24054,
    "Ġante": 17898,
    "Ġflirting": 16254,
    "Ġ27": 8618,
    "inging": 5909,
    "Ġentries": 22751,
    "gloom": 17140,
    "Ġexaggerated": 25655,
    "Ġsteepest": 3088,
    "Ġtube": 15005,
    "poor": 6063,
    "pregn": 18499,
    "Ġoverjoy": 15969,
    "Ġra": 816,
    "Ġredundant": 16552,
    "Ġslink": 23170,
    "Ġreclining": 26036,
    "Ġuncommon": 5027,
    "ights": 8478,
    "favourite": 15147,
    "ped": 6964,
    "tern": 4222,
    "Ġinsurgents": 26603,
    "til": 17672,
    "librarian": 26571,
    "urg": 8144,
    "reement": 15514,
    "eks": 4727,
    "Ġoptimization": 1445,
    "Ġglimpse": 6944,
    "Ġresumed": 11816,
    "Ġshoes": 7073,
    "rog": 15644,
    "Ġflavor": 16256,
    "Ġyer": 15738,
    "nervous": 16280,
    "Ġphase": 14474,
    "Ġtwopence": 18661,
    "Ġsilvery": 13097,
    "Ġprivileged": 20116,
    "ŀ": 257,
    "happiest": 19334,
    "pl": 402,
    "Ġrapturously": 24894,
    "Ġchival": 14183,
    "Ġentreat": 4507,
    "story": 9214,
    "romeda": 17264,
    "Ġislanders": 19505,
    "Ġforce": 5093,
    "Ġwas": 370,
    "Ġspong": 15885,
    "Ġembarkation": 25128,
    "Ġharbour": 19983,
    "Ġexulting": 20261,
    "Ġscra": 5842,
    "Ġarts": 11009,
    "Ġcritic": 19123,
    "valuable": 8251,
    "useless": 14596,
    "Ġecon": 9680,
    "Ġquestioned": 14622,
    "asol": 21545,
    "august": 11073,
    "Ġmale": 9651,
    "Ġaffair": 4461,
    "Ġinf": 1753,
    "Ġcrate": 19121,
    "Ġgreenhorn": 23776,
    "Ġsteed": 13045,
    "Ġexact": 2542,
    "Ġfading": 15588,
    "serpent": 16294,
    "Ġproble": 1111,
    "Ġgallon": 24190,
    "sius": 13791,
    "Ġaffronted": 22903,
    "Ġbond": 21388,
    "Ġemaciated": 20641,
    "Ġfraud": 19051,
    "henomena": 20275,
    "amy": 8470,
    "Ġge": 1975,
    "Ġhelped": 7459,
    "Ġamend": 16039,
    "Ġriots": 23900,
    "Ġmodesty": 12822,
    "Ġfrequent": 3287,
    "Ġvouch": 15813,
    "sister": 5140,
    "Ġgrinned": 16858,
    "Ġexclam": 6759,
    "Ġtis": 15468,
    "Ġlizzie": 26465,
    "pression": 10409,
    "beh": 5473,
    "Ġgouge": 26192,
    "Ġgodfrey": 15297,
    "define": 1526,
    "Ġperennial": 22702,
    "Ġgnashed": 20136,
    "Ġaboriginal": 14191,
    "Ġmccauley": 26430,
    "Ġunbecoming": 22070,
    "eight": 9594,
    "sche": 13023,
    "Ġpartiality": 9401,
    "Ġinstructed": 19286,
    "Ġemploys": 19434,
    "Ġenrolled": 21943,
    "Ġbenchmarks": 15024,
    "Ġactions": 6280,
    "ilent": 21725,
    "@": 36,
    "Ġnetworks": 594,
    "destroyed": 15264,
    "Ġtraitors": 23087,
    "Ġconsoling": 19460,
    "B": 38,
    "Ġtables": 9881,
    "Ġgovernor": 16492,
    "Ġaccomplishments": 13383,
    "Ġaudacious": 13464,
    "Ġwrit": 8244,
    "Ġbalance": 2021,
    "says": 13303,
    "Ġwra": 5908,
    "Ġcommission": 6714,
    "Ġmaintenance": 17463,
    "turner": 19544,
    "Ġaddition": 1147,
    "ceive": 3065,
    "Ġprovinc": 16743,
    "Ġigniting": 25078,
    "Ġprocesses": 3636,
    "Ġbermud": 26442,
    "Ġpickle": 16723,
    "sim": 6511,
    "repugnance": 16865,
    "died": 11482,
    "prof": 7471,
    "Ġfatigued": 13469,
    "as": 302,
    "Ġped": 7847,
    "broken": 8022,
    "Ġswitching": 23066,
    "Ġdiscol": 12957,
    "Ġcreeping": 18684,
    "dissatisfied": 26615,
    "Ġaided": 17746,
    "Ġsleeves": 10663,
    "childhood": 16867,
    "Ġanoints": 25543,
    "motives": 26140,
    "Ġcounterbalance": 24726,
    "Ġdin": 3628,
    "Ġslaught": 23174,
    "Ġenraptured": 26503,
    "Ġindustry": 18838,
    "smile": 23914,
    "speaking": 12103,
    "uncommonly": 25554,
    "Ġgeneralization": 984,
    "Ġlump": 21557,
    "oding": 1460,
    "Ġparcels": 25470,
    "Ġaccustomed": 6861,
    "ands": 21872,
    "Ġwarnings": 16882,
    "all": 485,
    "cain": 15329,
    "ultural": 22574,
    "Ġthreatened": 8332,
    "disp": 7979,
    "Ġsimul": 1804,
    "Ġfault": 5703,
    "Ġminiatures": 20324,
    "Ġremained": 3140,
    "Ġinter": 728,
    "Ġcheck": 7271,
    "invisible": 17741,
    "rich": 11520,
    "ray": 2437,
    "assemblies": 25961,
    "Ġrecounted": 22745,
    "Ġdepressions": 25803,
    "edd": 1227,
    "Ġagonising": 25378,
    "Ġtail": 3089,
    "crazy": 24697,
    "Ġmock": 3693,
    "Ġarabian": 9092,
    "narrative": 17321,
    "hour": 7340,
    "Ġsensible": 4977,
    "Ġsympathising": 24303,
    "return": 5490,
    "Ġetern": 7087,
    "Ġstamped": 13530,
    "Ġinform": 996,
    "Ġcompass": 4407,
    "ander": 6402,
    "Ġreconciliation": 25297,
    "using": 5469,
    "Ġdynamically": 3703,
    "considering": 12179,
    "Ġkeeps": 8269,
    "Ġhandspike": 22704,
    "Ġhabits": 6926,
    "Ġhabit": 6772,
    "Ġnimble": 21533,
    "Ġyielded": 14875,
    "irect": 5553,
    "Ġpretty": 3861,
    "Ġimagined": 8610,
    "Ġprotectors": 9072,
    "Ġendeavouring": 8037,
    "cring": 20813,
    "Ġfood": 5081,
    "difficulty": 12394,
    "Ġbequeathed": 20704,
    "Ġparlour": 12325,
    "Ġdefined": 11902,
    "Ġexecutioner": 12276,
    "Ġtambourine": 9567,
    "Ġemboldened": 22976,
    "Ġsog": 22090,
    "Ġswitzerland": 10382,
    "Ġoffices": 14338,
    "Ġgrammars": 11404,
    "Ġreco": 9792,
    "Ġsavory": 23884,
    "mas": 5213,
    "Ġkindest": 23300,
    "Ġearthy": 23721,
    "Ġacts": 2296,
    "Ġwhitt": 18057,
    "Ġuncouth": 14551,
    "Ġrussian": 14353,
    "eliest": 14749,
    "Ġphilosoph": 19654,
    "Ġlord": 2967,
    "road": 6680,
    "Ġcannon": 14156,
    "jane": 4480,
    "code": 15332,
    "Ġfrolic": 23933,
    "ilet": 12833,
    "Ġappearing": 9844,
    "effect": 8607,
    "Ġmisled": 22761,
    "Ġchinese": 14184,
    "prove": 11149,
    "Ġrudeness": 17126,
    "say": 3984,
    "mises": 20980,
    "Ġforth": 3462,
    "Ġexceedingly": 4612,
    "Ġmand": 21308,
    "alling": 6039,
    "Ġdegenerating": 25804,
    "waiter": 24593,
    "downstairs": 23928,
    "Ġvac": 5026,
    "gir": 8085,
    "Ġprime": 10406,
    "Ġunholy": 26222,
    "Ġspectator": 19409,
    "ellig": 523,
    "Ġboys": 5195,
    "Ġhandles": 22703,
    "ondon": 2704,
    "Ġsensibility": 14514,
    "Ġflushed": 13032,
    "Ġmean": 743,
    "cure": 11476,
    "Ġduties": 6611,
    "Ġnecessary": 4471,
    "Ġbreed": 19075,
    "unavoid": 14065,
    "Ġsher": 3764,
    "position": 15416,
    "Ġfear": 2278,
    "Ġano": 11599,
    "Ġheroines": 19754,
    "Ġplanisphere": 26610,
    "Ġprem": 3428,
    "Ġwrest": 11574,
    "romised": 14115,
    "Ġtattoo": 7359,
    "great": 3518,
    "Ġbuttoning": 17237,
    "Ġhood": 10826,
    "iters": 21333,
    "loaded": 22515,
    "electricity": 26388,
    "Ġsecluded": 11995,
    "Ġjew": 9470,
    "Ġsquires": 16185,
    "mess": 13756,
    "Ġunchanging": 22051,
    "Ġdestroyed": 5273,
    "Ġacquiesce": 20332,
    "arches": 10819,
    "Ġsuperfluous": 17416,
    "onday": 6066,
    "thrown": 8483,
    "val": 1174,
    "mortal": 10115,
    "sent": 763,
    "ded": 2755,
    "Ġfitness": 24008,
    "Ġoccasions": 7990,
    "Ġmachine": 798,
    "Ġfol": 1290,
    "stories": 18026,
    "igner": 21707,
    "Ġlaudanum": 20693,
    "Ġinclined": 6625,
    "Ġnotice": 4540,
    "za": 13813,
    "âĢĻ": 378,
    "desper": 13223,
    "Ġtimor": 24230,
    "unquiet": 21887,
    "Ġsinks": 19552,
    "Ġcapacious": 19178,
    "Ġmarvellous": 7539,
    "Ġunanswerable": 26524,
    "pow": 10719,
    "Ġtea": 5042,
    "Ġfurnish": 9021,
    "uting": 15664,
    "Ġlist": 2366,
    "Ġrefres": 14347,
    "Ġstacks": 18077,
    "Ġdazzling": 15215,
    "customary": 25900,
    "Ġdistrustful": 25062,
    "Ġanalogy": 25644,
    "Ġsee": 804,
    "Ġmadame": 13154,
    "haustible": 16892,
    "wis": 12523,
    "Ġunhallowed": 17181,
    "osh": 18389,
    "Ġinherited": 25358,
    "Ġmorbidness": 20631,
    "Ġheaviest": 23331,
    "killer": 20479,
    "Ġpinioned": 21484,
    "Ġdownward": 10334,
    "Ġgayer": 24502,
    "Ġsmo": 2699,
    "Ġperfect": 2555,
    "swaying": 25915,
    "Ġcame": 1302,
    "Ġsevent": 18201,
    "severe": 21825,
    "Ġwards": 17791,
    "Ġadvised": 16206,
    "Ġmice": 13862,
    "bunger": 20405,
    "Ġcarbuncle": 14448,
    "itzerland": 9998,
    "fthand": 26389,
    "Ġvictims": 19807,
    "fel": 8737,
    "Ġparaphrasing": 26529,
    "Ġimmensely": 13599,
    "Ġprofessed": 14727,
    "Ġnear": 1716,
    "Ġaffliction": 25850,
    "Ġenglish": 3617,
    "Ġleaves": 5022,
    "Ġaugment": 8695,
    "Ġmingled": 12381,
    "Ġrefreshing": 20267,
    "Ġhideous": 5985,
    "Ġinstrument": 7120,
    "Ġbestir": 13113,
    "Ġkinds": 14505,
    "Ġoccupation": 9934,
    "Ġready": 3399,
    "Ġarise": 7899,
    ".âĢĶ": 4246,
    "Ġdives": 17892,
    "ouble": 2661,
    "Ġtu": 6969,
    "horrible": 14602,
    "Ġeffectually": 16170,
    "yramid": 8370,
    "hand": 2756,
    "^{": 15308,
    "nals": 16402,
    "separately": 25231,
    "Ġmug": 21316,
    "Ġceremony": 8363,
    "Ġconsidering": 4613,
    ";âĢĶ": 3751,
    "Ġbachelors": 24866,
    "inform": 10146,
    "Ġing": 5285,
    "Ġmember": 8588,
    "notwithstanding": 22759,
    "Ġsnorting": 23749,
    "Ġem": 1922,
    "Ġrecollected": 8313,
    "secret": 12241,
    "old": 799,
    "Ġstre": 2109,
    "nial": 20986,
    "Ġwitty": 21296,
    "Ġ(âĢľ": 15999,
    "dragged": 16609,
    "Ġpanther": 16820,
    "thinness": 25815,
    "seems": 10878,
    "Ġedges": 3827,
    "Ġrestrictions": 20638,
    "Ġcell": 6239,
    "gain": 8740,
    "Ġshoreless": 24301,
    "Ġvelv": 10622,
    "Ġexciting": 23318,
    "Ġcoiling": 12909,
    "ows": 1915,
    "Ġmult": 1020,
    "vul": 15451,
    "protection": 19922,
    "resses": 16154,
    "Ġhartshorn": 26184,
    "Ġgrinning": 9055,
    "still": 4218,
    "cig": 17505,
    "Ġwed": 7576,
    "convinced": 10625,
    "Ġstyle": 6946,
    "goes": 10428,
    "Ġleaf": 15727,
    "opard": 9293,
    "ention": 851,
    "Ġvocabulary": 4996,
    "Ġnot": 413,
    "Ġsheath": 14154,
    "Ġpeaks": 16131,
    "Ġhighland": 18712,
    "Ġrepulses": 26073,
    "Ġbosom": 6939,
    "Ġtestament": 23233,
    "esty": 4305,
    "Ġerroneous": 17411,
    "Ġhenry": 5198,
    "icest": 21569,
    "iancy": 13013,
    "cri": 17507,
    "Ġ20": 8617,
    "Ġoffending": 22749,
    "Ġrests": 13096,
    "Ġimitated": 18337,
    "ck": 436,
    "consol": 9765,
    "leagues": 21377,
    "mad": 5282,
    "umerable": 11729,
    "Ġhelp": 1639,
    "Ġeighteen": 11240,
    "mill": 13757,
    "Ġdeportment": 22593,
    "Ġlowered": 6737,
    "ards": 2504,
    "disapprobation": 19159,
    "ħ": 232,
    "Ġripp": 11221,
    "Ġdining": 6978,
    "Ġdwelling": 7322,
    "affording": 23785,
    "Ġerect": 6145,
    "rr": 17651,
    "Ġunfitted": 24114,
    "Ġripe": 13239,
    "Ġbrief": 6977,
    "Ġwalrus": 14976,
    "enit": 17780,
    "icts": 22396,
    "aits": 20768,
    "west": 10741,
    "aying": 15754,
    "Ġdishonor": 25606,
    "Ġjonah": 3481,
    "want": 8770,
    "ety": 3522,
    "Ġfamiliar": 5512,
    "ledge": 1332,
    "smiled": 16615,
    "Ġspot": 4154,
    "Ġsucked": 14133,
    "Ġshoved": 23496,
    "cup": 10694,
    "rasing": 21048,
    "Ġinco": 14263,
    "onden": 13847,
    "Ġflood": 7717,
    "Ġdeposition": 18598,
    "Ġunwell": 22023,
    "Ġrepose": 6743,
    "Ġut": 2280,
    "overlooked": 23329,
    "bale": 20776,
    "Ġdoes": 942,
    "ains": 5095,
    "Ġfigures": 8633,
    "seventy": 10879,
    "Ġsteersman": 13046,
    "Ġdivers": 9668,
    "flo": 6116,
    "Ġwave": 7577,
    "Ġaristotle": 25822,
    "ons": 709,
    "Ġsunshine": 14496,
    "ildad": 3533,
    "Ġpen": 1531,
    "Ġsensational": 16394,
    "Ġbraided": 16583,
    "Ġpleasurable": 23348,
    "pot": 10120,
    "----âĢĻ": 24105,
    "Ġcatches": 23441,
    "Ġmajesty": 5202,
    "Ġrambled": 20171,
    "Ġtranquil": 7310,
    "Ġliberty": 7763,
    "Ġtyphoon": 12393,
    "Ġmonoman": 7941,
    "springs": 24917,
    "Ġmany": 1105,
    "Ġoutlines": 15961,
    "Ġslay": 16308,
    "Ġbud": 10171,
    "Ġperilously": 24508,
    "ieves": 4005,
    "Ġchance": 3319,
    "intending": 22944,
    "Ġchoosing": 19593,
    "Ġmessage": 13526,
    "Ġproceedings": 9910,
    "Ġedward": 19153,
    "ura": 1047,
    "cket": 3689,
    "Ġwarned": 16881,
    "Ġpedro": 15068,
    "Ġequal": 4134,
    "lower": 8882,
    "Ġcentaurs": 23841,
    "erest": 10699,
    "inated": 6805,
    "Ġnick": 21528,
    "iest": 4036,
    "bub": 15320,
    "we": 847,
    "arrived": 12614,
    "conquerable": 17401,
    "Ġincorrupt": 19236,
    "Ġplaything": 19240,
    "jol": 20927,
    "Ġguessed": 11284,
    "hateful": 20911,
    "Ġrotation": 25479,
    "tack": 12517,
    "supposed": 13320,
    "alas": 8807,
    "inence": 15484,
    "ost": 5362,
    "Ġhereditarily": 25228,
    "Ġtreble": 16505,
    "Ġbinnacle": 8121,
    "Ý": 158,
    "Ġdents": 13914,
    "bast": 10080,
    "Ġpresents": 8247,
    "lover": 18535,
    "friend": 3862,
    "pretending": 17041,
    "Ġcolder": 22865,
    "Ġtwos": 18658,
    "Ġvessels": 6757,
    "oop": 10717,
    "Ġemails": 13110,
    "Ġprepare": 8650,
    "Ġhealthful": 24066,
    "rob": 5534,
    "umnal": 18301,
    "dering": 5308,
    "acceptable": 25188,
    "Ġarmitage": 23587,
    "window": 7744,
    "Ġslices": 23172,
    "Ġhero": 5716,
    "Ġharb": 7370,
    "swear": 16919,
    "Ġloftiest": 16875,
    "70": 17477,
    "Ġwinds": 5747,
    "Ġmanage": 7642,
    "Ġconverse": 11848,
    "Ġplant": 8902,
    "Ġug": 8143,
    "resemblance": 25938,
    "Ġsleeper": 8604,
    "places": 7882,
    "this": 1438,
    "Ġpoland": 23623,
    "Ġsoundings": 13137,
    "mature": 20969,
    "ancholy": 5071,
    "Ġfirm": 3870,
    "Ġspur": 18304,
    "Ġeffort": 8207,
    "Ġrotterdam": 25480,
    "war": 6803,
    "Ġplayers": 12041,
    "resc": 21241,
    "Ġleaps": 14011,
    "impregnable": 26484,
    "Ġthirteen": 15278,
    "Ġallev": 18103,
    "thou": 4708,
    "Ġtarshish": 12031,
    "Ġworshipping": 22937,
    "urons": 3130,
    "helpless": 16791,
    "Ġsubmitted": 11875,
    "gave": 7801,
    "happiness": 6470,
    "iss": 2178,
    "Ġt": 261,
    "revealed": 20419,
    "Ġ11": 5320,
    "Ġprocedural": 12033,
    "hent": 12539,
    "Ġrapt": 7226,
    "Ġboscombe": 8328,
    "Ġbehavioral": 11398,
    "playing": 19660,
    "Ġdishes": 16053,
    "attacks": 23131,
    "venor": 16103,
    "reliable": 21243,
    "Ġwherefore": 8526,
    "Ġnieces": 8436,
    "whosoever": 22246,
    "Ġmysteriously": 24608,
    "Ġsar": 21216,
    "Ġnoiselessly": 22872,
    "ling": 737,
    "Ġsolitude": 6876,
    "Ġdeliverer": 11954,
    "ibles": 18788,
    "Ġphren": 8574,
    "hip": 8744,
    "tie": 21071,
    "Ġimpetuous": 25575,
    "Ġturner": 7051,
    "Ġpressed": 6044,
    "Ġquicker": 16509,
    "Ġabused": 22275,
    "Ġconceit": 7295,
    "Ġaim": 10148,
    "Ġblotting": 25318,
    "wow": 21124,
    "Ġsends": 14793,
    "ozy": 17623,
    "Ġhanding": 16133,
    "Ġexplanation": 6695,
    "Ġunnear": 22034,
    "._": 3222,
    "Ġavocation": 23961,
    "concent": 19483,
    "each": 7335,
    "Ġdisappeared": 5646,
    "Ġwrist": 8245,
    "Ġcalmly": 7735,
    "Ġname": 2083,
    "Ġquarto": 17298,
    "ais": 8073,
    "Ġcramped": 23537,
    "Ġattent": 4359,
    "autumn": 23350,
    "igators": 18048,
    "Ġavail": 11228,
    "object": 6884,
    "ĝ": 222,
    "atum": 21263,
    "Ġtruck": 19514,
    "etch": 9206,
    "Ġbacks": 8530,
    "congreg": 25403,
    "Ġservox": 23878,
    "Ġreaching": 7303,
    "othed": 16513,
    "Ġcalves": 13039,
    "Ġslipper": 24271,
    "Ġgills": 17995,
    "Ġcreatures": 4136,
    "bearer": 18522,
    "iline": 21726,
    "Ġcold": 3034,
    "light": 3019,
    "hr": 20890,
    "wharf": 20609,
    "Ġclutches": 20021,
    "Ġhus": 3092,
    "Ġtubs": 11372,
    "Ġhill": 5627,
    "ice": 591,
    "persu": 8030,
    "Ġbelike": 18831,
    "goose": 19103,
    "Ġsepulchral": 25897,
    "j": 78,
    "hoisting": 23725,
    "Ġprofile": 16490,
    "nothing": 3152,
    "Ġtrod": 15029,
    "Ġgul": 7862,
    "king": 3061,
    "gyric": 19111,
    "Ġjoyous": 14666,
    "Ġred": 3006,
    "console": 22479,
    "Ġtelegra": 11896,
    "Ġproclaim": 18133,
    "Ġdevotees": 25381,
    "Ġdepartments": 24248,
    "Ġupdate": 2463,
    "maj": 18803,
    "appeared": 4280,
    "Ġexplored": 23525,
    "crawling": 16959,
    "Ġexponentially": 1442,
    "Ġflit": 23020,
    "Ġdisgu": 8208,
    "Ġwaves": 3917,
    "nurse": 15212,
    "revival": 26165,
    "Ġrifts": 21981,
    "Ġeagle": 13206,
    "solic": 16379,
    "Ġalleged": 17292,
    "Ġcosmopol": 16454,
    "Ġinference": 9674,
    "direction": 17525,
    "bethinking": 25750,
    "loss": 22511,
    "Ġcrozetts": 19632,
    "Ġbreathless": 12174,
    "Ġwished": 3731,
    "Ġdistinguish": 2724,
    "flu": 9119,
    "Ġ64": 24371,
    "Ġincommod": 25312,
    "tenderly": 20534,
    "Ġstrenuously": 17450,
    "ket": 17583,
    "Ġacting": 10993,
    "drop": 15340,
    "fright": 9598,
    "Ġpropont": 16352,
    "suggested": 17301,
    "Ġruled": 22794,
    "unwillingness": 25807,
    "Ġtranspired": 16785,
    "ality": 2512,
    "Ġlanguor": 12851,
    "gunpowder": 25344,
    "Ġsiber": 17756,
    "Ġsupple": 23008,
    "ilib": 4117,
    "soon": 4028,
    "Ġrobustness": 18880,
    "Ġcheer": 4066,
    "Ġbars": 13900,
    "seek": 8840,
    "Ġgoat": 16011,
    "Ġrepublican": 17414,
    "Ġperuvian": 18448,
    "Ġenvironments": 24068,
    "Ġoccur": 1084,
    "âĢĶâĢĿ": 3301,
    "rib": 1945,
    "Ġcosmetic": 23477,
    "speech": 10669,
    "Ġenter": 4030,
    "bounded": 13443,
    "batross": 9095,
    "âĢĶ_": 3200,
    "Ġlacey": 10200,
    "ineffectual": 26510,
    "Ġegotistical": 26195,
    "Ġbrilliantly": 25126,
    "Ġbasis": 16962,
    "propriety": 14370,
    "Ġhide": 4586,
    "Ġconfessed": 8011,
    "Ġheadstrong": 14391,
    "Ġgoodly": 22831,
    "Ġentities": 11868,
    "ature": 521,
    "Ġnurse": 9520,
    "pad": 13771,
    "investments": 25537,
    "Ġhatchet": 16531,
    "itters": 10783,
    "Ġumb": 11649,
    "formity": 10281,
    "ribs": 23373,
    "Ġdownstream": 3776,
    "magnificent": 20277,
    "etieth": 21589,
    "destruction": 11256,
    "Ġadduced": 26527,
    "arial": 5532,
    "Ġsides": 4576,
    "Ġmanager": 11773,
    "arks": 2844,
    "mody": 16186,
    "una": 21875,
    "Ġperemptory": 25745,
    "Ġheadway": 18794,
    "Ġpack": 5445,
    "Ġresent": 6051,
    "Ġindies": 22960,
    "resum": 17762,
    "lection": 3655,
    "Ġunlock": 18244,
    "Ġwindow": 2997,
    "Ġcontinuous": 1559,
    "gins": 12473,
    "Ġgasps": 24871,
    "itors": 2914,
    "Ġmagical": 23108,
    "Ġinseparable": 20691,
    "Ġbrings": 11884,
    "Ġconfines": 23311,
    "Ġpillow": 10041,
    "iness": 1284,
    "Ġstiffness": 24833,
    "Ġtobacco": 8369,
    "Ġclimax": 25060,
    "Ġinsepar": 17936,
    "bus": 5356,
    "izings": 14054,
    "folly": 20864,
    "Ġindul": 5858,
    "Ġbeautiful": 3674,
    "Ġdan": 8796,
    "Ġspans": 18305,
    "Ġassizes": 11110,
    "Ġshipped": 9718,
    "sentence": 2938,
    "icherry": 15139,
    "jackets": 24901,
    "Ġretiring": 16283,
    "Ġhyperborean": 26343,
    "Ġwhoa": 22428,
    "Ġfaith": 5352,
    "Ġcommonplaces": 16291,
    "Ġwiser": 14733,
    "Ġfalling": 6915,
    "Ġcelerity": 17438,
    "Ġnodded": 11972,
    "Ġcalculate": 13268,
    "Ġspeaks": 11161,
    "arctic": 12615,
    "covenant": 23568,
    "Ġprying": 15613,
    "recklessly": 25274,
    "Ġnightfall": 23139,
    "Ġinexper": 16981,
    "Ġoverpow": 14206,
    "rise": 6228,
    "Ġcommanders": 23876,
    "Ġsc": 530,
    "family": 7324,
    "Ġsphy": 18312,
    "shapes": 22458,
    "orily": 15577,
    "Ġdiscu": 4362,
    "adam": 15734,
    "Ġdangers": 12358,
    "homely": 25622,
    "worshipping": 16611,
    "Ġhap": 18196,
    "patched": 17644,
    "Ġwond": 3938,
    "Ġtornado": 24628,
    "Ġleaky": 2348,
    "ils": 3180,
    "Ġmeans": 700,
    "Ġsucceed": 4542,
    "bery": 9790,
    "slouched": 24561,
    "reve": 12544,
    "Ġtask": 1312,
    "bureau": 20791,
    "Ġexhilar": 19686,
    "pursued": 17283,
    "ration": 2005,
    "Ġtreacherously": 25135,
    "Ġob": 862,
    "ad": 337,
    "seriously": 18906,
    "humoured": 11238,
    "Ġprev": 6266,
    "Ġsubmit": 11874,
    "Ġinvented": 17037,
    "Ġinferences": 17937,
    "Ġnormalizes": 1859,
    "ead": 2599,
    "Ġtops": 14588,
    "Ġone": 569,
    "Ġtradeoff": 2657,
    "romed": 10908,
    "penetrate": 20327,
    "leaning": 10792,
    "Ġrespons": 2683,
    "prehend": 14245,
    "Ġlug": 15656,
    "horses": 17568,
    "Ġstrategies": 1835,
    "verity": 14004,
    "Ġbeings": 2490,
    "rucastle": 22183,
    "Ġscandal": 9083,
    "Ġlaws": 8005,
    "Ġpalmed": 24098,
    "Ġsanctioned": 26354,
    "Ġscenes": 5731,
    "Ġbarbaric": 10017,
    "Ġcliffs": 15979,
    "Ġwrote": 5012,
    "Ġpart": 861,
    "contracting": 19296,
    "waves": 10744,
    "Ġcost": 2505,
    "Ġgaiters": 20464,
    "Ġwandered": 6930,
    "Ġthreatens": 24379,
    "heavenly": 20048,
    "Ġinher": 10182,
    "Ġveter": 15815,
    "acle": 4715,
    "Ġbathe": 25448,
    "destined": 24120,
    "Ġforty": 5720,
    "Ġting": 8401,
    "Ġtinted": 13825,
    "Ġexamination": 8007,
    ",)": 9103,
    "ater": 3372,
    "aping": 8196,
    "mb": 904,
    "Ġcirc": 1983,
    "Ġweather": 3996,
    "Ġlimped": 19183,
    "plate": 18208,
    "ommod": 13980,
    "tempered": 13450,
    "Ġquestion": 2776,
    "gration": 9123,
    "Ġschools": 9480,
    "Ġagents": 9769,
    "pattern": 4735,
    "Ġbigot": 24570,
    "Ġbut": 424,
    "Ġroared": 7025,
    "Ġunremitting": 26221,
    "officer": 17054,
    "icket": 22676,
    "magistrate": 19865,
    "Ġmystic": 7504,
    "Ġoperation": 12001,
    "pig": 8756,
    "Ġresiding": 16064,
    "prepar": 22472,
    "arle": 21445,
    "coming": 3564,
    "Ġdetermining": 14423,
    "rock": 15645,
    "Ġscream": 5937,
    "Ġobligations": 12097,
    "Ġpasseng": 12975,
    "Ġpenalty": 1836,
    "Ġsult": 10769,
    "Ġappe": 1538,
    "Ġeigenvalues": 4999,
    "Ġbrawny": 13617,
    "Ġscoresby": 10464,
    "Ġcolumbus": 26567,
    "Ġprevious": 2090,
    "copyright": 5279,
    "Ġattested": 22630,
    "her": 487,
    "Ġreinforcement": 3503,
    "Ġunimag": 12780,
    "bourn": 3303,
    "ricane": 16281,
    "ivering": 7700,
    "Ġnoisier": 4622,
    "frantic": 24289,
    "speechless": 25400,
    "frock": 20124,
    "etween": 776,
    "staff": 21661,
    "Ġvest": 8165,
    "sleeve": 26111,
    "Ġrecords": 12200,
    "metals": 24770,
    "Ġwink": 11572,
    "Ġgunwales": 12245,
    "Ġmiserable": 3637,
    "Ġlanc": 19767,
    "Ġexpressly": 16453,
    "Ġcompanion": 3646,
    "Ġdecayed": 22835,
    "property": 20003,
    "whether": 5321,
    "offended": 16400,
    "roar": 17955,
    "Ġcrippled": 25283,
    "Ġanne": 1529,
    "ound": 584,
    "anging": 3553,
    "athom": 12943,
    "Ġduchess": 4800,
    "maul": 11894,
    "elled": 3992,
    "Ġparade": 18302,
    "scores": 23001,
    "Ġtestified": 16334,
    "uten": 11625,
    "Ġbarbara": 24820,
    "afforded": 25870,
    "_âĢĿ": 20763,
    "spark": 18689,
    "Ġtight": 8110,
    "Ġfeat": 10940,
    "peleg": 16296,
    "Ġneglig": 18879,
    "measureless": 20238,
    "quaker": 15767,
    "Ġfriends": 2654,
    "Ġjava": 12316,
    "Ġsmiting": 12902,
    "Ġtempestuous": 20074,
    "speckled": 23953,
    "Ġunsur": 22028,
    "Ġemotions": 8971,
    "Ġmish": 15541,
    "Ġaqu": 17743,
    "Ġsurpass": 13587,
    "Ġinmost": 17933,
    "Ġpelt": 15614,
    "bers": 2570,
    "frost": 15110,
    "Ġunt": 2295,
    "Ġperry": 22392,
    "Ġdenote": 19335,
    "Ġfavourably": 16364,
    "Ġalt": 18101,
    "Ġspotted": 12143,
    "execution": 20475,
    "Ġbankrupt": 16797,
    "Ġtheoretically": 3569,
    "Ġfathom": 17048,
    "Ġdived": 9179,
    "Ġproved": 4885,
    "cious": 6646,
    "Ġcru": 2823,
    "Ġbrazen": 23848,
    "Ġfits": 8794,
    "proble": 9397,
    "able": 452,
    "Ġvirginia": 13503,
    "Ġoxford": 11373,
    "shish": 11797,
    "Ġtobacc": 7855,
    "Ġbrighter": 16190,
    "Ġtrophy": 20010,
    "eenth": 12465,
    "Ġmajority": 13296,
    "Ġtell": 1466,
    "Ġwidest": 24240,
    "longer": 8616,
    "contrast": 25599,
    "Ġposterity": 17404,
    "ustry": 18357,
    "Ġfluid": 11214,
    "Ġsincerely": 7965,
    "Ġrepented": 23370,
    "Ġfatally": 19398,
    "Ġfrigates": 25711,
    "ily": 1032,
    "Ġboisterously": 25687,
    "Ġpotency": 14648,
    "rane": 17654,
    "lever": 2931,
    "Ġwade": 17786,
    "Ġcrowding": 13283,
    "Ġspout": 3283,
    "answering": 26009,
    "Ġengraving": 17080,
    "Ġlazarus": 15031,
    "poke": 18800,
    "Ġleghorn": 13150,
    "Ġjustinian": 22978,
    "preser": 9763,
    "tis": 4105,
    "Ġroman": 8325,
    "erably": 7574,
    "Ġlonging": 14302,
    "admire": 24951,
    "rium": 3132,
    "âĢĻ,": 14073,
    "stun": 18021,
    "Ġevil": 3807,
    "Ġloads": 22120,
    "Ġsacrificial": 24877,
    "reel": 21236,
    "Ġasia": 11686,
    "Ġanchored": 17442,
    "dor": 12456,
    "monsters": 19173,
    "Ġrick": 21976,
    "Ġembrace": 16991,
    "Ġcanvas": 7785,
    "Ġprofundity": 20455,
    "Ġaltering": 18105,
    "Ġteaches": 18807,
    "Ġharvard": 24578,
    "Ġtrespass": 23606,
    "ĠĠĠĠĠĠĠĠĠĠĠĠ": 12904,
    "oky": 8200,
    "Ġdav": 15594,
    "shriek": 20523,
    "Ġleeward": 6212,
    "Ġloses": 15877,
    "yp": 1046,
    "Ġmurdered": 6465,
    "Ġscheming": 23278,
    "Ġatonement": 21948,
    "orable": 8122,
    "Ġroasted": 18460,
    "unalterable": 21892,
    "Ġeventually": 8620,
    "lessly": 4553,
    "Ġarisen": 11747,
    "Ġshutters": 9940,
    "Ġelbowed": 16113,
    "ess": 409,
    "Ġdirest": 22713,
    "soft": 12514,
    "osed": 1959,
    "Ġxxxvi": 24979,
    "Ġheedfulness": 24526,
    "gus": 13728,
    "intment": 4719,
    "4": 24,
    "Ġcircumstance": 4988,
    "Ġfile": 13906,
    "Ġevenly": 4128,
    "Ġhunger": 8569,
    "Ġsibbald": 21233,
    "rained": 5163,
    "Ġgoverness": 8605,
    "Ġtemples": 18638,
    "Ġdemean": 12728,
    "betrayed": 24646,
    "87": 20759,
    "Ġframed": 19052,
    "thoughts": 9938,
    "Ġmayhap": 18708,
    "Ġhospitable": 17060,
    "Ġlimit": 10445,
    "whisper": 17083,
    "entions": 17977,
    "Ġrecess": 10850,
    "Ġbark": 10800,
    "ately": 1701,
    "linked": 17594,
    "Ġelixir": 26558,
    "jump": 10106,
    "ercial": 21278,
    "Ġfeeding": 7974,
    "Ġlucifers": 16589,
    "anum": 17837,
    "Ġidentifies": 12017,
    "Ġverte": 9444,
    "Ġavast": 9923,
    "Ġskrimshander": 22806,
    "Ġmeditating": 20046,
    "Ġexpired": 18625,
    "Ġstraining": 11329,
    "winter": 10742,
    "Ġspiteful": 19525,
    "Ġtangle": 25765,
    "coffin": 10665,
    "Ġgreyish": 24214,
    "cing": 1012,
    "Ġleviathanic": 12085,
    "Ġsoothe": 7405,
    "udg": 22771,
    "spr": 7435,
    "Ġalfred": 21792,
    "Ġcomplacency": 19451,
    "Ġalex": 15137,
    "stool": 23828,
    "Ġspecimens": 18859,
    "Ġexpeditions": 24962,
    "Ġlanding": 11987,
    "Ġhaz": 12760,
    "Ġconvulsive": 19309,
    "Ġsettling": 11064,
    "acknowledged": 15206,
    "Ġcorner": 4369,
    "Ġfortune": 4238,
    "Ġinducement": 16844,
    "Ġfists": 15587,
    "Ġcandid": 4098,
    "relate": 24019,
    "--âĢĺ": 22857,
    "Ġsighed": 10340,
    "Ġhelter": 24033,
    "conject": 8883,
    "Ġheadsmen": 14735,
    "Ġcontradicted": 20214,
    "orand": 21401,
    "ress": 930,
    "Ġbarrow": 12074,
    "expound": 23670,
    "drunk": 24665,
    "wrapped": 15213,
    "Ġmodeling": 2097,
    "bes": 6644,
    "Ġdames": 23479,
    "Ġwint": 15536,
    "Ġout": 543,
    "Ġcharitable": 23277,
    "boil": 19000,
    "Ġusher": 22219,
    "Ġgretna": 26471,
    "Ġlakeman": 6987,
    "Ġspeech": 4607,
    "lutions": 20952,
    "swing": 15432,
    "Ġcopying": 17069,
    "Ġslipped": 6493,
    "desol": 13222,
    "Ġcoil": 11822,
    "Ġsinew": 25436,
    "tottenham": 25423,
    "Ġpilgr": 12185,
    "ources": 2787,
    "cele": 21630,
    "Ġdireful": 11019,
    "ample": 1367,
    "hither": 11495,
    "Ġunconsc": 6554,
    "Ġbutt": 14128,
    "Ġxii": 11993,
    "Ġbigger": 19764,
    "Ġpaces": 13922,
    "Ġjewel": 9945,
    "Ġfears": 5730,
    "Ġroad": 3880,
    "Ġfinishing": 23133,
    "free": 8739,
    "governed": 25410,
    "Ġsunk": 5753,
    "Ġrespectfully": 18995,
    "Ġsurprised": 3831,
    "Ġdepending": 14291,
    "Ġdissatisfied": 14259,
    "Ġcav": 13883,
    "crowd": 25259,
    "Ġmockery": 12112,
    "Ġyoked": 15739,
    "Ġquar": 3113,
    "alth": 3256,
    "Ġtroop": 24903,
    "Ġserenely": 13510,
    "Ġontario": 26208,
    "forget": 11034,
    "Ġindebted": 8711,
    "Ġrows": 10563,
    "Ġinterrupting": 19560,
    "Ġreced": 15696,
    "ond": 1163,
    "Ġbanners": 24864,
    "Ġcombat": 16188,
    "leisure": 21375,
    "Ġtransp": 4770,
    "mont": 19171,
    "Ġcomstock": 21857,
    "Ġuse": 813,
    "lestrade": 9659,
    "Ġyawn": 7611,
    "lording": 24058,
    "stream": 15691,
    "pie": 21013,
    "Ġmetallic": 19059,
    "gg": 1995,
    "phere": 21021,
    "Ġsimpler": 2047,
    "Ġpips": 9853,
    "Ġfail": 4148,
    "kye": 20940,
    "slow": 7812,
    "rubber": 12815,
    "education": 20304,
    "ues": 2080,
    "Ġ120": 16859,
    "locked": 7680,
    "Ġdetective": 14424,
    "Ġascend": 9963,
    "ten": 1554,
    "penny": 22954,
    "Ġfemin": 13440,
    "barrels": 15044,
    "Ġlouder": 13472,
    "Ġrefinement": 18706,
    "Ġsolitary": 5856,
    "Ġscene": 3097,
    "Ġgeomet": 3189,
    "arter": 17895,
    "gences": 20879,
    "odecim": 9835,
    "Ġperpet": 7646,
    "landed": 18957,
    "Ġtrad": 9831,
    "floated": 24649,
    "fresh": 13396,
    "Ġturbulence": 26600,
    "bel": 3836,
    "Ġburglar": 17356,
    "Ġmillar": 13864,
    "throwing": 11707,
    "Ġrascally": 26509,
    "vic": 13805,
    "Ġvibrated": 25053,
    "ispensable": 9098,
    "Ġstaircase": 20099,
    "access": 11182,
    "Ġnoah": 10944,
    "Ġinglorious": 24428,
    "Ġresponsiveness": 2895,
    "Ġthroat": 7772,
    "Ġbushes": 16403,
    "atively": 2694,
    "Ġdeadliest": 14559,
    "Ġsnaky": 23750,
    "avoid": 9307,
    "Ġchiefly": 5767,
    "Ġscarlet": 13228,
    "Ġnowhere": 12890,
    "Ġeverybody": 4508,
    "itates": 13872,
    "Ġhey": 11644,
    "ron": 5217,
    "Ġthoughtlessness": 16196,
    "Ġfrance": 7684,
    "Ġmarched": 18873,
    "chains": 9688,
    "Ġconceal": 5976,
    "terbury": 21830,
    "Ġdriving": 3620,
    "ool": 17619,
    "Ġinvulnerable": 19148,
    "Ġbillow": 14783,
    "mish": 17599,
    "vener": 21114,
    "Ġeating": 8138,
    "somerset": 26326,
    "earthly": 24728,
    "points": 14396,
    ",--âĢľ": 19199,
    "Ġassurances": 10003,
    "Ġfacet": 15589,
    "Ġattempting": 14699,
    "stairs": 5156,
    "Ġfrock": 10492,
    "suddenly": 6494,
    "Ġgentleman": 3043,
    "abez": 10225,
    "Ġlin": 10836,
    "Ġtist": 21165,
    "Ġreserve": 9974,
    "jug": 17581,
    "baboon": 25521,
    "Ġslips": 23173,
    "Ġopposite": 5121,
    "otted": 14027,
    "Ġdiggings": 24655,
    "Ġinterpreted": 1710,
    "sworn": 24262,
    "İ": 241,
    "Ġacquiescence": 20333,
    "Ġsoftmax": 1688,
    "omy": 6250,
    "Ġlive": 2732,
    "Ġadieus": 25118,
    "Ġplentiful": 12916,
    "Ġworthless": 19568,
    "Ġbegin": 3098,
    "Ġtickled": 20060,
    "Ġobviously": 16811,
    "Ġmonstrous": 7791,
    "Ġantique": 19554,
    "occur": 19578,
    "pend": 6368,
    "Ġslang": 23166,
    "alization": 733,
    "Ġretarded": 23082,
    "judges": 19576,
    "Ġsplend": 9901,
    "Ġinconvenient": 20013,
    "Ġintending": 11708,
    "Ġjo": 2609,
    "Ġclassical": 22649,
    "igned": 5657,
    "prevailed": 17347,
    "whew": 22878,
    "mantel": 26397,
    "Ġemph": 14527,
    "Ġsutherland": 10151,
    "Ġvideos": 13610,
    "Ġhandsomest": 20337,
    "usive": 8194,
    "spikes": 10343,
    "effectually": 25134,
    "Ġrewarding": 13441,
    "subs": 14304,
    "ny": 4016,
    "Ġmoderation": 12823,
    "unbe": 21878,
    "Ġmessages": 24991,
    "Ġbrougham": 17872,
    "experienced": 15125,
    "Ġbureau": 11593,
    "odings": 4398,
    "ı": 242,
    "Ġfourteen": 12012,
    "seaman": 25462,
    "Ġhapp": 1090,
    "Ġpail": 15611,
    "Ġdispleased": 18556,
    "!âĢĿâĢĶ": 8534,
    "heartily": 24221,
    "ensation": 22551,
    "Ġcrowded": 8014,
    "Ġchronicle": 20231,
    "Ġreceived": 2950,
    "Ġthem": 641,
    "Ġsociable": 19407,
    "Ġrafters": 22664,
    "Ġeats": 15681,
    "Ġisn": 7869,
    "Ġdaft": 19666,
    "unk": 4536,
    "Ġcultivation": 17146,
    "symp": 14620,
    "Ġutterance": 14766,
    "bodily": 17317,
    "Ġinsurance": 23689,
    "Ġrokovoko": 22411,
    "gems": 20886,
    "Ġfrom": 434,
    "Ġload": 14148,
    "itated": 4438,
    "Ġamsterdam": 22490,
    "azore": 23468,
    "Ġkindred": 16377,
    "Ġtak": 15472,
    "Ġpoltroon": 26601,
    "Ġkne": 4264,
    "azz": 8264,
    "Ġstabbing": 20306,
    "Ġreposing": 23369,
    "Ġdivert": 23599,
    "anter": 9168,
    "Ġuncork": 23435,
    "Ġconvenience": 11333,
    "Ġcontributed": 16013,
    "Ġsheaves": 22164,
    "Ġapothecary": 13663,
    "Ġthickening": 24032,
    "Ġroof": 6565,
    "ctors": 21595,
    "infernal": 24668,
    "anned": 17841,
    "awing": 18917,
    "laying": 19775,
    "Ĕ": 213,
    "Ġundone": 24123,
    "necessities": 24312,
    "Ġsod": 11564,
    "Ġwarmly": 8989,
    "Ġcanst": 8860,
    "cheeked": 19342,
    "Ġvague": 6407,
    "asional": 17962,
    "urry": 13997,
    "Ġdetached": 10283,
    "Ġbeen": 626,
    "volutions": 16323,
    "Ġopenly": 8575,
    "Ġsatire": 22909,
    "impat": 11204,
    "heading": 5488,
    "Ġpatient": 6894,
[...]
