{
  "metadata": {
    "vocab_size": 26614,
    "algorithm": "BPE",
    "created_at": "2026-07-14 04:49:48",
    "special_tokens": [
      "<PAD>",
      "<SOS>",
      "<EOS>",
      "<UNK>",
      "<MASK>"
    ]
  },
  "vocab": {
    "Ġadroit": 26000,
    "Ġunbroken": 18250,
    "pictures": 15089,
    "maybe": 23988,
    "Ġforging": 18093,
    "Ġobligations": 12089,
    "71": 20755,
    "Ġbelt": 13000,
    "plings": 11695,
    "Ġnormalization": 1243,
    "hood": 2663,
    "dings": 2156,
    "sitting": 8386,
    "Ġarising": 10933,
    "cod": 12441,
    "Ġcorners": 18874,
    "Ġoily": 13863,
    "atha": 6572,
    "anybody": 12080,
    "Ġuttering": 16461,
    "Ġpolished": 11182,
    "sequent": 6831,
    "'re": 12426,
    "Ġult": 9074,
    "Ġinquiring": 8999,
    "Ġche": 1761,
    "ntax": 934,
    "Ġputting": 5326,
    "rote": 4589,
    "Ġreserved": 7515,
    "Ġgoverned": 23570,
    "Ġ78": 19612,
    "itarian": 21335,
    "Ġhalloa": 13315,
    "Ġclapping": 14203,
    "Ġcheerful": 6621,
    "Ġassisting": 13256,
    "impressions": 20697,
    "jointed": 24007,
    "oices": 7348,
    "Ġpumping": 25643,
    "ances": 1337,
    "ify": 1489,
    "ille": 9219,
    "Ġpetrified": 19595,
    "Ġcastaways": 19426,
    "Ġcrowding": 13278,
    "throw": 14097,
    "Ġ88": 19710,
    "convul": 24883,
    "Ġstrife": 18613,
    "Ġwhile": 606,
    "Ġmiserably": 12944,
    "pag": 11510,
    "dia": 2133,
    "Ġran": 3345,
    "Ġunc": 2124,
    "Ġpreposterous": 13668,
    "Ġwaterloo": 11979,
    "elevating": 20404,
    "Ġbristol": 14379,
    "earnestly": 17312,
    "Ġpoland": 23616,
    "ordinate": 12871,
    "Ġsharp": 2416,
    "thouse": 21979,
    "Ġdeficient": 18824,
    "Ġjacket": 6489,
    "Ġcalmness": 12090,
    "Ġrejoice": 10208,
    "Ġ1828": 25720,
    "tot": 10728,
    "Ġfurnaces": 24002,
    "Ġcomparatively": 9489,
    "Ġmonica": 22982,
    "Ġroughs": 19955,
    "sweetly": 25134,
    "Ġtroublesome": 23999,
    "Ġpurch": 6599,
    "hatchet": 24822,
    "Ġextravagance": 17279,
    "Ġadvantage": 4314,
    "Ġinjuring": 24268,
    "Æ": 135,
    "Ġtransl": 2832,
    "Ġdetain": 14173,
    "wid": 10134,
    "Ġquaker": 10971,
    "necess": 4896,
    "wrong": 13205,
    "Ġthreatening": 16828,
    "venant": 22624,
    "Ġadequately": 15197,
    "impossible": 8823,
    "venth": 9294,
    "ccess": 3181,
    "/": 19,
    "hush": 20905,
    "Ġmolasses": 25628,
    "Ġfaults": 12210,
    "cour": 4476,
    "Ġbehoo": 19038,
    "Ġsunda": 13543,
    "Ġmilliner": 19883,
    "Ġcarav": 18901,
    "Ġscud": 14190,
    "Ġmining": 22827,
    "Ġnearer": 5301,
    "Ġguardsmen": 20629,
    "Ġtexture": 19159,
    "asing": 5911,
    "400": 20754,
    "Ġdistrict": 10318,
    "Ġbooks": 4675,
    "Ġcanes": 22161,
    "Ġvacantly": 16815,
    "Ġgratified": 8021,
    "ssed": 3734,
    "Ġpir": 6818,
    "Ġstrike": 4855,
    "Ġcrocod": 19627,
    "middle": 11310,
    "Ġah": 5075,
    "Ġmrs": 1468,
    "Ġprodigy": 19791,
    "Ġpreliminaries": 25176,
    "lessly": 4553,
    "Ġwow": 15527,
    "ishly": 14200,
    "Ġindividually": 22954,
    "Ġcosmetic": 23472,
    "!_âĢĿ": 11376,
    "Ġrustling": 24715,
    "Ġconceits": 19388,
    "spanish": 14330,
    "buoy": 7760,
    "moderate": 22858,
    "Ġcommon": 1411,
    "Ġsuspic": 4467,
    "delightful": 12194,
    "Ġtossed": 5815,
    "round": 3369,
    "Ġquebec": 24132,
    "Ġdefray": 22938,
    "Ġeditions": 19120,
    "Ġwad": 13850,
    "ratches": 20123,
    "taste": 10129,
    "Ġunex": 11711,
    "Ġknight": 9726,
    "Ġsqualidness": 25842,
    "rons": 21038,
    "Ġwent": 1537,
    "Ġlaw": 3655,
    "Ġbegged": 8230,
    "Ġsailors": 4275,
    "Ġstillness": 12991,
    "Ġunmanner": 22026,
    "Ġtheory": 5798,
    "Ġentra": 18695,
    "Ġalb": 14015,
    "Ġadaptively": 4093,
    "Ġeigenvalues": 4998,
    "Ġviolent": 5117,
    "Ġstocks": 23173,
    "Ġlinear": 3434,
    "Ġstreet": 2956,
    "Ġcobbler": 25829,
    "ease": 12455,
    "Ġpromise": 4198,
    "uneven": 23683,
    "Ġlaborers": 19057,
    "Ġassumed": 9465,
    "Ġsax": 10929,
    "Ġtoast": 21509,
    "Ġinitialized": 3948,
    "Ġexponential": 1058,
    "Ġstatistical": 11104,
    "commer": 22815,
    "Ġmines": 21307,
    "Ġmulti": 1042,
    "Ġcouldn": 7648,
    "mem": 10709,
    "dart": 20825,
    "Ġmathemat": 3200,
    "Ġjavel": 17084,
    "accusations": 23598,
    "Ġleading": 7297,
    "ieties": 19027,
    "Ġsubtlety": 24780,
    "osy": 11756,
    "medi": 2632,
    "Ġtrespass": 23599,
    "acious": 5562,
    "reck": 9636,
    "Ġboone": 11838,
    "Ġattends": 19649,
    "Ġab": 527,
    "hunted": 16832,
    "sig": 2876,
    "Ġdeclare": 6614,
    "Ġfumbled": 17881,
    "widely": 25343,
    "Ġprocopius": 19730,
    "Ġimperfectly": 25727,
    "onement": 21255,
    "Ġunreasoning": 15843,
    "Ġplates": 11006,
    "Ġfurnishes": 19439,
    "Ġsalut": 10509,
    "Ġ156": 20169,
    "Ġii": 7385,
    "Ġisa": 14024,
    "Ġflight": 6581,
    "Ġbitterness": 8024,
    "Ġwiser": 14729,
    "Ġdriver": 16473,
    "kles": 17584,
    "Ġaltogether": 4831,
    "Ġmoon": 4605,
    "token": 21081,
    "Ġsailed": 4889,
    "Ġbiscuit": 12586,
    "Ġinvent": 7164,
    "10": 17472,
    "Ġhumane": 11882,
    "unexpected": 15775,
    "Ġintrig": 21987,
    "complet": 11383,
    "Ġpredefined": 20717,
    "Ġexhale": 24402,
    "Ġwaiting": 4322,
    "Ġclump": 15966,
    "Ġconse": 21801,
    "Ġpowerful": 1449,
    "Ġwindward": 6885,
    "ocation": 14626,
    "Ġdominant": 12394,
    "scale": 3535,
    "lish": 1951,
    "dishonourable": 26365,
    "planted": 11696,
    "Ġleyden": 21744,
    "asional": 17959,
    "ruin": 22177,
    "umbria": 23928,
    "warmly": 25026,
    "Ġconfine": 14509,
    "Ġiroquois": 26472,
    "Ġlug": 15649,
    "Ġslashing": 23167,
    "stories": 18023,
    "humiliation": 24018,
    "habit": 16188,
    "Ġassumpt": 5415,
    "aby": 18106,
    "admire": 24943,
    "Ġankles": 17899,
    "Ġjoyously": 19345,
    "Ġsynthe": 26007,
    "Ġdictate": 20150,
    "prep": 9758,
    "Ġbouton": 17868,
    "Ġrendered": 5773,
    "Ġoriental": 9096,
    "Ġbespeaking": 26310,
    "Ġghosts": 12230,
    "els": 1762,
    "Ġbil": 15562,
    "Ġdeepest": 8214,
    "ourney": 3553,
    "awakened": 14452,
    "Ġconvent": 11667,
    "Ġknees": 6928,
    "Ġthrilling": 19747,
    "Ġpatient": 6892,
    "Ġelimin": 16105,
    "Ġodds": 13328,
    "Ġgreatness": 12941,
    "irst": 878,
    "oubtedly": 6943,
    "stein": 5505,
    "Ġslates": 11106,
    "177": 20751,
    "Ġmending": 17804,
    "Ġmeet": 2807,
    "Ġfine": 1318,
    "ometer": 19325,
    "asons": 6014,
    "Ġappare": 12817,
    "Ġcond": 3874,
    "Ġliable": 14228,
    "Ġkentuckian": 26342,
    "utterly": 20010,
    "Ġduplicity": 25331,
    "Ġver": 3394,
    "correct": 24483,
    "Ġmuslin": 19381,
    "Ġobjecting": 18896,
    "Ġhatty": 19264,
    "Ġaspect": 3096,
    "Ġskrimshander": 22796,
    "staring": 18020,
    "founded": 16713,
    "wrapped": 15208,
    "forever": 22516,
    "ushing": 5731,
    "silver": 19689,
    "Ġtail": 3089,
    "onents": 8776,
    "Ġpadd": 9669,
    "Ġbutter": 6842,
    "Ġchal": 18378,
    "Ġdames": 23474,
    "Ġcomputes": 4768,
    "copper": 19187,
    "Ġbitterly": 8314,
    "apter": 1193,
    "Ġcoding": 8115,
    "inc": 2520,
    "fre": 5425,
    "Ġeduc": 4785,
    "Ġounce": 15271,
    "Ġoccur": 1082,
    "Ġregain": 22584,
    "))": 1517,
    "pale": 13770,
    "Ġinspired": 2518,
    "Ġswung": 6449,
    "Ġcannibal": 7773,
    "Ġsweating": 16462,
    "Ġgossip": 18469,
    "Ġfobbing": 26441,
    "Ġbelongs": 8014,
    "Ġtitle": 11408,
    "Ġparad": 2844,
    "wow": 21120,
    "Ġreasoner": 14439,
    "Ġhangs": 11605,
    "ohnson": 16324,
    "Ġmizzen": 20288,
    "Ġma": 3251,
    "caps": 20806,
    "Ġantiqu": 12142,
    "errand": 22905,
    "Ġunprovided": 18260,
    "Ġgunwales": 12238,
    "Ġformed": 3883,
    "Ġmills": 21310,
    "ighted": 8475,
    "Ġcarted": 21347,
    "jac": 8381,
    "Ġaffright": 9331,
    "Ġsurpasses": 25268,
    "allic": 12810,
    "tolerable": 17688,
    "Ġmal": 5221,
    "ga": 17550,
    "Ġsenses": 8251,
    "Ġcos": 2209,
    "removed": 15515,
    "ispens": 8335,
    "Ġnaturally": 2467,
    "conscientious": 19625,
    "Ġopened": 3513,
    "Ġcrosswise": 18886,
    "Ġmetallic": 19060,
    "irty": 4048,
    "benefact": 24641,
    "ython": 1030,
    "Ġweep": 7619,
    "Ġhaunts": 18198,
    "Ġcourses": 10411,
    "Ġmagician": 25058,
    "Ġengraving": 17080,
    "libra": 22922,
    "Ġmarking": 16468,
    "tedious": 22630,
    "Ġfierceness": 26264,
    "Ġcronies": 23441,
    "helm": 12169,
    "virtue": 20568,
    "umul": 1292,
    "Ġ92": 24590,
    "romising": 18233,
    "Ġmaintained": 12931,
    "Ġadjusts": 8980,
    "Ġtusks": 17253,
    "alse": 4185,
    "chester": 23805,
    "Ġsummits": 14683,
    "Ġdiscovering": 13356,
    "Ġaccounted": 10294,
    "Ġchinese": 14183,
    "silly": 24422,
    "Ġexperiments": 23000,
    "Ġcem": 17823,
    "exc": 5169,
    "irksome": 18172,
    "Ġannounced": 9034,
    "Ġtrifled": 24674,
    "Ġcolours": 12971,
    "frozen": 25139,
    "Ġdismasted": 15250,
    "sip": 10725,
    "resolutions": 26164,
    "Ġfrightened": 5341,
    "million": 25751,
    "rimin": 2425,
    "wondering": 19844,
    "Ġapo": 9630,
    "awing": 18915,
    "Ġwouldn": 6045,
    "clifford": 23154,
    "Ġsick": 4692,
    "Ġcrowds": 14738,
    "Ġthanking": 18604,
    "ilib": 4118,
    "Ġquestions": 3972,
    "Ġproclaim": 18131,
    "studies": 25166,
    "remediable": 26294,
    "Ġgrandeur": 8627,
    "Ġheedful": 19739,
    "Ġwheels": 10912,
    "Ġdisclose": 16154,
    "important": 7112,
    "Ġdragging": 14475,
    "Ġconcuss": 19048,
    "Ġferry": 24498,
    "vedale": 22709,
    "unusual": 21876,
    "Ġfanned": 19099,
    "discoloured": 23498,
    "Ġiceland": 15145,
    "Ġserved": 8245,
    "irra": 15782,
    "Ġfitzwilliam": 5771,
    "Ġtestament": 23211,
    "Ġaway": 1244,
    "Ġslanting": 23169,
    "mistake": 24529,
    "gged": 3777,
    "Ġunfrequent": 24108,
    "estab": 14170,
    "lodged": 25907,
    "Ġdestitute": 14566,
    "Ġcrumb": 16439,
    "Ġsecretly": 13270,
    "Ġwayward": 22869,
    "confid": 14866,
    "ever": 1077,
    "rendering": 22340,
    "Ġmanif": 8870,
    "odox": 21810,
    "ort": 523,
    "Ġc": 277,
    "Ġawed": 23584,
    "serious": 14447,
    "Ġspine": 7407,
    "Ġlichen": 20090,
    "suffered": 24334,
    "wes": 17703,
    "Ġyaw": 18094,
    "Ġnine": 5369,
    "Ġwhiskers": 10492,
    "Ġmacy": 19353,
    "Ġintrodu": 1924,
    "Ġtransom": 22435,
    "frankenstein": 11391,
    "drawers": 19384,
    "Ġintrospective": 20599,
    "Ġaverse": 11081,
    "Ġmincer": 14363,
    "Ġstiffly": 15005,
    "Ġcarried": 3694,
    "ville": 6087,
    "Ġspeed": 2448,
    "Ġbush": 23333,
    "Ġsenseless": 12076,
    "Ġmaty": 22906,
    "Ġrepulses": 26070,
    "Ġthrusts": 24350,
    "convenient": 12235,
    "Ġtreated": 7080,
    "ni": 1693,
    "Ġunexpected": 6841,
    "Ġlimit": 10443,
    "Ġsolely": 9909,
    "Ġunmindful": 22063,
    "Ġbuzz": 23994,
    "wives": 15454,
    "Ġraved": 22648,
    "Ġsparkled": 13461,
    "thence": 23396,
    "unte": 21870,
    "ized": 1529,
    "Ġarmies": 16491,
    "prophecy": 22849,
    "Ġbathed": 17865,
    "Ġvenge": 5420,
    "Ġsupplying": 19797,
    "Ġpriv": 4183,
    "Ġpugn": 21477,
    "Ġscholar": 26111,
    "Ġlat": 5087,
    "Ġtart": 12525,
    "expedition": 26078,
    "code": 15328,
    "Ġappl": 1704,
    "unw": 14056,
    "terogene": 21822,
    "dying": 10694,
    "arter": 17893,
    "Ġhorizon": 6632,
    "copyright": 5277,
    "Ġdisappears": 18560,
    "Ġincarn": 11812,
    "wet": 15451,
    "otion": 4946,
    "Ġfervently": 25877,
    "cry": 12443,
    "Ġsocietal": 11436,
    "ju": 13740,
    "Ġmedicine": 15204,
    "Ġpang": 15602,
    "Ġdrawers": 12103,
    "angible": 22102,
    "Ġnin": 10187,
    "þ": 191,
    "murderer": 13392,
    "Ġbrowne": 13300,
    "lay": 5890,
    "Ġliking": 23590,
    "Ġmethodically": 23143,
    "Ġlengthwise": 10452,
    "Ġblunder": 18817,
    "Ġcareful": 2614,
    "Ġtorture": 9064,
    "12": 20748,
    "Ġall": 422,
    "ocations": 23707,
    "Ġpeeled": 14317,
    "partiality": 13159,
    "Ġlogical": 14486,
    "Ġsurrey": 14558,
    "forbearance": 22792,
    "ivity": 1696,
    "ĠĊ": 12520,
    "Ġnames": 4530,
    "Ġcollapsed": 15080,
    "Ġsmoky": 22556,
    "Ġsituation": 4070,
    "Ġreaching": 7303,
    "thereby": 14446,
    "Ġpermission": 9278,
    "Ġsecrets": 9054,
    "club": 26380,
    "destruction": 11256,
    "Ġsting": 10861,
    "Ġcut": 2645,
    "Ġromans": 16759,
    "Ġabsorbing": 17128,
    "Ġbulkington": 14677,
    "Ġquoted": 22412,
    "ckery": 22087,
    "Ġclearing": 8239,
    "flung": 16638,
    "Ġsadly": 7302,
    "Ġlabelled": 23326,
    "lands": 8240,
    "greeting": 24554,
    "Ġrejecting": 17051,
    "Ġdefection": 22939,
    "isl": 21373,
    "Ġunwarrant": 20132,
    "Ġpallidness": 25604,
    "explaining": 23136,
    "Ġphys": 5653,
    "Ġvalues": 2655,
    "Ġsell": 7825,
    "Ġundone": 24117,
    "Ġpersuaded": 5769,
    "Ġwilliam": 3484,
    "Ġsoc": 3526,
    "Ġdew": 14044,
    "Ġexchanging": 18130,
    "pt": 388,
    "faint": 17545,
    "Ġmeanest": 12907,
    "Ġderives": 16306,
    "Ġtemperate": 16160,
    "Ġazure": 12372,
    "Ġknew": 2054,
    "tie": 21067,
    "ootiful": 17372,
    "Ġreward": 6144,
    "while": 2934,
    "Ġunsupplied": 22040,
    "Ġsuppl": 11078,
    "asses": 7016,
    "Ġcassock": 20485,
    "rudential": 16709,
    "thoughts": 9934,
    "Ġvine": 8471,
    "investments": 25532,
    "Ġconjoined": 21803,
    "Ġboister": 12916,
    "Ġstrangest": 14794,
    "Ġscuffle": 20607,
    "borough": 20784,
    "enter": 7857,
    "ax": 694,
    "Ġdressed": 5081,
    "Ġcomputational": 1624,
    "Ġperceiving": 8875,
    "Ġlapl": 19776,
    "Ġsolemn": 4100,
    "Ġfierc": 18711,
    "Ġstaring": 8824,
    "Ġhoped": 5488,
    "Ġtale": 5142,
    "Ġcomparison": 7099,
    "Ġseem": 913,
    "Ġgardiners": 11157,
    "presence": 18498,
    "Ġital": 10866,
    "Ġdorm": 4821,
    "Ġweeps": 24947,
    "Ġmotive": 6091,
    "Ġadjusted": 23457,
    "narrative": 17318,
    "achines": 1724,
    "craft": 12244,
    "Ġpatagon": 14489,
    "Ġtransformations": 3486,
    "flying": 13720,
    "Ġobsolete": 26558,
    "Ġbattered": 17862,
    "Ġchilled": 18382,
    "Ġinj": 4760,
    "absolute": 17122,
    "equal": 14992,
    "Ġleft": 1759,
    "Ġcreator": 7257,
    "Ġqual": 6274,
    "uten": 11621,
    "Ġconsecrate": 26489,
    "hum": 3778,
    "Ġdexterously": 25295,
    "Ġpunct": 8660,
    "Ġsleek": 23380,
    "Ġconnectivity": 3668,
    "Ġpettic": 14839,
    "Ġexpectation": 6904,
    "Ġoriginate": 24121,
    "curiosity": 8623,
    "Ġtransmit": 10304,
    "Ġspecimen": 13020,
    "Ġfairness": 9893,
    "speech": 10666,
    "Ġnoticed": 5549,
    "Ġsaintsbury": 26372,
    "phia": 22776,
    "vic": 13801,
    "intention": 10367,
    "Ġattain": 12744,
    "erns": 8777,
    "beer": 22485,
    "Ġcoquet": 22580,
    "Ġtravellers": 11308,
    "Ġwarmth": 6905,
    "Ġdefault": 3036,
    "Ġappar": 7411,
    "Ġhertfordshire": 5377,
    "abashed": 21789,
    "Ġbeside": 5192,
    "Ġmetropolitan": 17275,
    "urch": 3993,
    "Ġgu": 1329,
    "capable": 13700,
    "Ġbarbs": 10531,
    "Ġpatroness": 13508,
    "iro": 20913,
    "Ġmuster": 16120,
    "surrounded": 26088,
    "Ġunmolested": 15244,
    "Ġmarshal": 20218,
    "hunting": 24385,
    "Ġreeds": 15693,
    "bene": 6112,
    "chat": 21683,
    "Ġhunter": 5401,
    "duck": 22409,
    "dron": 17525,
    "Ġunassuming": 20507,
    "Ġvulture": 17338,
    "discovered": 8324,
    "boats": 6204,
    "Ġbranded": 14378,
    "Ġalan": 10869,
    "Ġtumult": 7114,
    "alongside": 19788,
    "missed": 11208,
    "Ġelij": 8908,
    "Ġhandkerchief": 8913,
    "Ġfrequent": 3287,
    "Ġfootfalls": 25866,
    "Ġvoyagings": 19234,
    "Ġunprepared": 22047,
    "Ġsustaining": 25333,
    "need": 10983,
    "Ġ58": 24326,
    "Ġlavater": 20493,
    "Ġgreek": 10630,
    "shazzar": 15288,
    "Ġdefinite": 11069,
    "starbuck": 6018,
    "Ġtiles": 17726,
    "Ġshifted": 14106,
    "asily": 13945,
    "hy": 4740,
    "Ġembraces": 19871,
    "Ġmechanis": 1222,
    "Ġplunging": 14951,
    "george": 26019,
    "Ġtrous": 10955,
    "Ġsuavely": 26523,
    "Ġmam": 8404,
    "Ġsporty": 19889,
    "ather": 740,
    "Ġrever": 6536,
    "viating": 14578,
    "appetite": 22842,
    "Ġsetting": 7046,
    "Ġletter": 2197,
    "extrem": 18709,
    "Ġbrilliantly": 25120,
    "Ġmature": 17799,
    "oder": 2459,
    "making": 2575,
    "estion": 18362,
    "Ġaberdeen": 26541,
    "Ġunfit": 14785,
    "Ġcocks": 18593,
    "Ġoscillations": 2899,
    "Ġmonomania": 17085,
    "Ġmalignity": 10556,
    "Ġhealthy": 10851,
    "Ġdisenc": 22523,
    "Ġviewing": 19263,
    "Ġbrand": 16185,
    "tee": 16168,
    "splinter": 25210,
    "Ġostentatiously": 20467,
    "Ġsunk": 5752,
    "fellow": 6792,
    "Ġchannel": 26012,
    "rod": 10831,
    "killer": 20474,
    "Ġsnugly": 17111,
    "Ġarchitecture": 1087,
    "seriously": 18904,
    "Ġcyn": 13885,
    "mens": 20968,
    "pedest": 24695,
    "Ġfifty": 4622,
    "educated": 17259,
    "ucumber": 19058,
    "Ġfusion": 21412,
    "prove": 11147,
    "Ġty": 6657,
    "igner": 21699,
    "Ġcoolness": 16886,
    "arrang": 14652,
    "Ġremarkably": 7702,
    "Ġinsane": 19268,
    "Ġjoined": 4561,
    "malice": 17604,
    "wail": 21124,
    "Ġtimbers": 14837,
    "Ġevaluate": 3600,
    "Ġomen": 11575,
    "combined": 20319,
    "pleasant": 5874,
    "Ġaffidav": 18789,
    "Ġpersonified": 19177,
    "Ġelig": 9777,
    "ordingly": 18514,
    "magnet": 14969,
    "Ġcocain": 18594,
    "Ġbefore": 811,
    "Ġinanimate": 13932,
    "¡": 99,
    "Ġoust": 21322,
    "voice": 7816,
    "Ġfors": 21768,
    "Ġdecide": 9285,
    "Ġundersampling": 19517,
    "naught": 20993,
    "mo": 862,
    "lording": 24047,
    "agger": 7871,
    "Ġparamet": 608,
    "razor": 21634,
    "accepted": 20135,
    "Ġ1825": 25719,
    "Ġdefined": 11896,
    "Ġcleared": 6074,
    "halloa": 17090,
    "Ġshoreless": 24295,
    "Ġsolitudes": 22884,
    "Ġpredicting": 2417,
    "actually": 14294,
    "Ġsublime": 8065,
    "Ġcottages": 14726,
    "Ġchair": 3663,
    "is": 280,
    "hester": 9631,
    "Ġdurst": 20351,
    "Ġsa": 474,
    "Ġrol": 3555,
    "Ġproprietors": 20185,
    "Ġtrustworthy": 24105,
    "backpropagation": 11984,
    "Ġaxe": 15061,
    "Ġberm": 21381,
    "Ġshape": 5639,
    "ignominious": 26587,
    "Ġcruising": 6913,
    "Ġsar": 21212,
    "Ġsquat": 14364,
    "Ġapprised": 18361,
    "Ġsteersman": 13039,
    "being": 3915,
    "Ġnervous": 2406,
    "unfearing": 21889,
    "izing": 1067,
    "Ġemerged": 8684,
    "Ġsocial": 7007,
    "illity": 18296,
    "bitter": 11240,
    "pie": 21010,
    "Ġwal": 6517,
    "keep": 3849,
    "Ġdamp": 8263,
    "situation": 11437,
    "ĠĠĠĠĠĠĠĠĠĠĠĠĠĠĠĠĠ": 22946,
    "hopeless": 16917,
    "Ġinsight": 16529,
    "Ġunnearable": 26516,
    "Ġjollity": 25566,
    "Ġdecomp": 3810,
    "odecim": 9831,
    "haps": 1668,
    "lilies": 20960,
    "idav": 18092,
    "Ġgrown": 5628,
    "Ġfortunate": 6214,
    "grieved": 17316,
    "Ġcommencement": 12236,
    "eh": 13709,
    "lucases": 20209,
    "loom": 18536,
    "Ġlengthen": 15651,
    "Ġcompar": 4771,
    "Ġgentlemanly": 19315,
    "Ġenrapt": 21936,
    "Ġcrowder": 19454,
    "Ġtrustees": 24106,
    "doubted": 17526,
    "Ġamph": 18510,
    "glow": 20873,
    "Ġabominably": 20064,
    "Ġtomahawk": 7539,
    "Ġhanded": 8216,
    "Ġspectacles": 12095,
    "]": 65,
    "Ġaugment": 8691,
    "apprehension": 26114,
    "Ġdesmarest": 22978,
    "oul": 4698,
    "Ġtransport": 11278,
    "Ġfurs": 18738,
    "Ġlikes": 9407,
    "Ġsandwich": 19827,
    "came": 4567,
    "Ġrevel": 9214,
    "Ġsuperglue": 23456,
    "rods": 21535,
    "Ġfreshet": 25704,
    "Ġglimmered": 20170,
    "ĩ": 234,
    "Ġantagon": 19549,
    "Ġburial": 16520,
    "Ġproblems": 2850,
    "Ġlungless": 24863,
    "cer": 6642,
    "Ġsweeter": 23915,
    "Ġlouder": 13467,
    "arious": 10316,
    "strils": 10458,
    "Ġdestined": 7974,
    "suspicious": 25390,
    "Ġinsights": 13178,
    "ign": 1703,
    "Ġmurmur": 14589,
    "awed": 10390,
    "Ġblade": 11891,
    "Ġlearnedly": 23382,
    "omely": 21636,
    "step": 2456,
    "Ġdownright": 16116,
    "ricted": 15419,
    "Ġswell": 8949,
    "tra": 4934,
    "ĠĠĠĠĠĠĠĠĠĠĠĠĠĠĠĠĠĠĠĠĠĠĠĠĠĠĠĠĠĠĠĠ": 2741,
    "Ġmadame": 13149,
    "Ġbrandy": 11049,
    "Ġsashes": 21224,
    "utherland": 9578,
    "Ġhurt": 7700,
    "hib": 15366,
    "Ġgentlemen": 3643,
    "commotion": 24913,
    "tr": 3579,
    "sensations": 20049,
    "Ġinferior": 8365,
    "Ġcalcul": 3638,
    "ribute": 7227,
    "te": 994,
    "mael": 6722,
    "visitor": 15057,
    "Ġhol": 1181,
    "Ġatrocious": 21940,
    "rel": 3755,
    "avo": 8517,
    "Ġskilfully": 20522,
    "almost": 4943,
    "Ġbirth": 6524,
    "Ġausten": 5880,
    "ude": 7562,
    "Ġadd": 630,
    "bbing": 6323,
    "Ġbol": 6241,
    "majesty": 26280,
    "Ġcruellest": 19657,
    "Ġstrand": 11826,
    "beside": 19876,
    "Ġinventing": 24861,
    "Ġpant": 10817,
    "Ġcarn": 17821,
    "Ġexped": 7650,
    "Ġriddle": 14818,
    "cher": 5786,
    "Ġbench": 7238,
    "Ġdriving": 3618,
    "cest": 12442,
    "behaved": 24463,
    "precedented": 15173,
    "Ġconstructed": 9385,
    "cried": 8724,
    "Ġerrand": 11085,
    "beards": 22488,
    "Ġ{": 21151,
    "aton": 21257,
    "Ġvertical": 16603,
    "fters": 20860,
    "Ġbrawn": 10481,
    "ail": 565,
    "Ġplausible": 26553,
    "Ġunlocked": 14119,
    "Ġwholesome": 16003,
    "oro": 21393,
    "Ġsizes": 1521,
    "eastward": 15128,
    "Ġwildest": 16509,
    "suited": 22638,
    "Ġvariants": 1790,
    "Ġwisely": 13271,
    "Ġhinges": 15211,
    "Ġanguish": 5583,
    "Ġdealer": 23974,
    "perceive": 12809,
    "Ġinnovative": 1659,
    "Ġcalves": 13032,
    "Ġregret": 5561,
    "Ġgrammatical": 13538,
    "](": 11466,
    "Ġperth": 7022,
    "Ġpist": 12612,
    "Ġwidow": 8662,
    "Ġprom": 1528,
    "Ġwrote": 5011,
    "Ġacknowled": 6350,
    "abs": 11666,
    "urable": 8922,
    "Ġcomprehend": 6494,
    "Ġstoven": 23172,
    "inese": 12872,
    "iable": 3335,
    "pardonable": 17217,
    "Ġpsych": 10176,
    "Ġcard": 7363,
    "Ġlangs": 13953,
    "Ġlovely": 4709,
    "Ġpawnbroker": 13657,
    "Ġbreach": 11972,
    "incible": 16496,
    "rew": 3649,
    "Ġoverpow": 14207,
    "Ġsupposed": 4555,
    "Ġcurbstone": 26042,
    "poises": 11887,
    "Ġwitt": 17783,
    "satisfactory": 16893,
    "rannical": 26401,
    "Ġcircumst": 2974,
    "reast": 17758,
    "hmael": 7342,
    "Ġsolution": 9804,
    "Ġbre": 1913,
    "bennet": 5352,
    "rigible": 24931,
    "Ġsupple": 22996,
    "fam": 5988,
    "Ġdialogue": 12402,
    "law": 6115,
    "morrow": 4569,
    "Ġgap": 21596,
    "Ġcolourless": 19568,
    "ainted": 3659,
    "inforcement": 3070,
    "goodness": 19287,
    "Ġnorthward": 13320,
    "Ġangle": 8602,
    "Ġcapable": 5054,
    "Ġviii": 16411,
    "think": 3610,
    "troubled": 17112,
    "Ġpresenting": 18987,
    "Ġcentre": 5123,
    "Ġointment": 21324,
    "âĢĶ": 517,
    "ppings": 18176,
    "Ġincredulous": 9986,
    "isen": 10792,
    "Ġcraggy": 23528,
    "whims": 22236,
    "âĢĻ-": 18166,
    "Ġvir": 7001,
    "Ġimpl": 7195,
    "Ġmarbles": 18872,
    "Ġwhose": 2008,
    "Ġhams": 16611,
    "gradu": 18616,
    "Ġplanks": 5563,
    "bowed": 10683,
    "Ġmalays": 19676,
    "Ġbawling": 25945,
    "surface": 10530,
    "Ġneuron": 1809,
    "Ġdiscriminator": 3392,
    "Ġgrap": 11705,
    "onden": 13843,
    "desc": 1394,
    "Ġissues": 9541,
    "Ġpastures": 23418,
    "Ġwhereby": 11834,
    "Ġtherein": 11773,
    "Ġresemblance": 7973,
    "Ġbidirectional": 3756,
    "Ġenlarge": 21932,
    "Ġmasts": 6465,
    "Ġflourish": 17160,
    "Ġinterview": 9769,
    "Ġay": 15490,
    "ake": 750,
    "Ġgenerations": 10964,
    "Ġadmiral": 17304,
    "Ġforebodings": 17303,
    "Ġtoiled": 12639,
    "tw": 2815,
    "Ġconfidential": 9087,
    "Ġrevived": 11368,
    ",*": 17471,
    "Ġstanding": 2997,
    "Ġanxiety": 5408,
    "Ġinside": 5448,
    "eneva": 5118,
    "roads": 17957,
    "Ġobscured": 15010,
    "ashed": 3784,
    "Ġafford": 4363,
    "attempted": 20173,
    "eon": 8729,
    "Ġdejected": 20303,
    "Ġlabourers": 23328,
    "abated": 14019,
    "Ġnephew": 6404,
    "Ġjac": 1898,
    "stem": 569,
    "ires": 6037,
    "Ġattracted": 8904,
    "omical": 9679,
    "Ġslippery": 12164,
    ".--": 20745,
    "Ġcosine": 2371,
    "cooks": 25067,
    "Ġhistorically": 19376,
    "garnished": 26388,
    "mming": 1172,
    "Ġwriggling": 15256,
    "Ġcave": 10785,
    "Ġnaut": 13940,
    "Ġconcentrated": 15082,
    "care": 4928,
    "Ġpled": 17905,
    "Ġcomput": 601,
    "Ġreached": 4021,
    "picture": 11407,
    "aper": 4999,
    "Ġbaker": 4695,
    "Ġsubfield": 11867,
    "Ġoutbreak": 22314,
    "alice": 3205,
    "Ġscolding": 15199,
    "forty": 9373,
    "Ġunfrequently": 20738,
    "Ġadjusting": 3414,
    "Ġphase": 14470,
    "Ġconquered": 14025,
    "Ġconveniences": 19811,
    "Ġfalling": 6915,
    "Ġlawyers": 25248,
    "Ġboasted": 16104,
    "smart": 23904,
    "Ġteeth": 4167,
    "Ġpurplish": 19140,
    "Ġdifferent": 1426,
    "Ġstomach": 11652,
    "Ġst": 332,
    "Ġcondition": 6764,
    "Ġcatherine": 2816,
    "Ġunidirectional": 3427,
    "Ġfrolic": 23921,
    "Ġheartless": 13071,
    "Ġinsisted": 12044,
    "Ġtemptations": 24508,
    "zza": 24166,
    "Ġgi": 15663,
    "earthquakes": 24725,
    "Ġharpooning": 23976,
    "ripp": 6405,
    "Ġbarn": 11586,
    "Ġconstantly": 11971,
    "insufferable": 21191,
    "depend": 9112,
    "Ġtender": 5753,
    "Ġdubious": 17382,
    "married": 9948,
    "Ġyon": 9692,
    "sham": 9756,
    "erval": 4018,
    "Ġmotion": 4563,
    "Ġlearned": 2023,
    "Ġplank": 7033,
    "women": 15455,
    "Ġdishonoured": 20389,
    "Ġinvitation": 5189,
    "Ġlowerings": 23645,
    "Ġalluded": 7884,
    "Ġfeared": 5930,
    "Ġcombat": 16180,
    "Ġcetology": 10008,
    "Ġanno": 9667,
    "Ġdrab": 13069,
    "offer": 19062,
    "Ġcoinc": 11002,
    "Ġstrategy": 2322,
    "Ġdocument": 15018,
    "kempt": 20940,
    "Ġfluffy": 19362,
    "eck": 20843,
    "intosh": 22937,
    "Ġontario": 26204,
    "Ġsgd": 3128,
    "Ġclink": 22345,
    "Ġanim": 2113,
    "Ġprevention": 16091,
    "Ġbehind": 2810,
    "Ġpotential": 3620,
    "Ġengineering": 3024,
    "adders": 24400,
    "Ġmanners": 3790,
    "Ġseams": 12122,
    "Ġlod": 4041,
    "Ġjewell": 19519,
    "concent": 19478,
    "Ġcraft": 4373,
    "animate": 12574,
    "Ġimpersonal": 17395,
    "Ġfeverish": 11348,
    "ificent": 8183,
    "pay": 10718,
    "ics": 3255,
    "Ġglasses": 9474,
    "Ġdong": 17887,
    "Ġxl": 11988,
    "ension": 6569,
    "congreg": 25398,
    "Ġtipt": 21172,
    "Ġpry": 11598,
    "Ġargued": 13628,
    "promising": 24726,
    "Ġcotton": 17378,
    "shrouded": 26361,
    "Ġdavy": 25951,
    "Ġstage": 7389,
    "Ġbeliever": 25845,
    "Ġunnatural": 7190,
    "h": 76,
    "parad": 16387,
    "Ġze": 8545,
    "Ġlanding": 11983,
    "Ġscar": 3208,
    "Ġslugg": 15267,
    "Ġsung": 23271,
    "Ġmouthful": 16573,
    "Ġtoday": 12640,
    "Ġsplit": 7992,
    "umbered": 22114,
    "father": 3776,
    "Ġdestroying": 14728,
    "agre": 18164,
    "igation": 5917,
    "Ġtahit": 10754,
    "sur": 4520,
    "Ġmo": 629,
    "admitted": 18091,
    "ssian": 3401,
    "Ġoversight": 22358,
    "Ġload": 14145,
    "onym": 14649,
    "Ġcham": 4892,
    "Ġbengal": 18784,
    "contrary": 23728,
    "Ľ": 254,
    "strangely": 17276,
    "Ġbr": 1072,
    "_.âĢĻâĢĿ": 17479,
    "Ġdrive": 5055,
    "Ġrests": 13092,
    "ourselves": 9010,
    "Ġelixir": 26555,
    "Ġhon": 2541,
    "Ġscraggy": 24579,
    "alid": 13934,
    "sigma": 3002,
    "ailed": 3245,
    "Ġdegraded": 19225,
    "Ġdestabilizing": 5053,
    "Ġdinner": 4243,
    "Ġbon": 8785,
    "readers": 23845,
    "Ġstrait": 23748,
    "Ġcra": 2331,
    "Ġcarved": 7946,
    "houn": 20892,
    "Ġfondly": 19615,
    "Ġrobustness": 18879,
    "Ġcats": 8979,
    "lid": 20944,
    "tort": 17675,
    "Ġrope": 4336,
    "Ġvent": 3997,
    "Ġinconstant": 21493,
    "execution": 20470,
    "ct": 309,
    "class": 4096,
    "Ġeleg": 6192,
    "Ġnoble": 3441,
    "Ġapplies": 11955,
    "Ġpious": 11597,
    "oil": 7805,
    "Ġideal": 13119,
    "Ġinstructing": 3121,
    "ć": 200,
    "Ġjudging": 16594,
    "Ġascertaining": 17203,
    "discover": 10539,
    "ins": 1378,
    "ibles": 18786,
    "Ġresolutely": 14609,
    "Ġidentical": 10434,
    "Ġextensive": 12940,
    "}": 97,
    "Ġservices": 11217,
    "Ġvagu": 13588,
    "Ġgarnery": 17386,
    "Ġgid": 13961,
    "Ġconcerning": 4067,
    "lively": 12482,
    "eding": 7165,
    "pierced": 26141,
    "Ġlimber": 16478,
    "id": 338,
    "Ġgrounded": 23711,
    "Ġaught": 8772,
    "Ġplaguy": 22602,
    "Ġcordially": 16836,
    "Ġhereabouts": 12975,
    "Ġcompute": 2906,
    "Ġignorantly": 19494,
    "Ġperemptory": 25740,
    "Ġrevolut": 3256,
    "Ġreproofs": 24892,
    "Ġpenalties": 10412,
    "inburgh": 15489,
    "joice": 9602,
    "Ġscho": 4433,
    "Ġservant": 5764,
    "wood": 5897,
    "Ġventing": 19492,
    "Ġgreas": 17991,
    "Ġdictator": 20152,
    "indeed": 4484,
    "Ġretrie": 10382,
    "Ġoutermost": 22316,
    "bears": 22487,
    "Ġqueens": 16706,
    "Ġsurviving": 24637,
    "Ġalbino": 20501,
    "ologically": 22877,
    "hideous": 25407,
    "Ġunheeded": 18261,
    "beings": 12874,
    "hyme": 19608,
    "Ġcook": 3712,
    "Ġexample": 5096,
    "onde": 21250,
    "Ġdodge": 19885,
    "orously": 8418,
    "Ġchagrin": 20606,
    "._": 3216,
    "Ġlaudanum": 20689,
    "lement": 10166,
    "Ġcirculation": 16414,
    "ou": 287,
    "aries": 6244,
    "authority": 13590,
    "Ġescaping": 13134,
    "walton": 20248,
    "ssible": 2990,
    "Ġpig": 5705,
    "Ġbought": 8415,
    "Ġinsolence": 20252,
    "Ġyesterday": 5332,
    "Ġdissolved": 18554,
    "Ġsarat": 21226,
    "Ġwid": 4632,
    "vest": 6230,
    "Ġseason": 5238,
    "Ġaim": 10145,
    "Ġsled": 21217,
    "inuating": 16201,
    "Ġcompares": 20165,
    "Ġabhor": 5467,
    "Ġthreads": 13116,
    "ivance": 22075,
    "variety": 23182,
    "attachment": 13049,
    "Ġimpatience": 7509,
    "idays": 21767,
    "Ġcrab": 13143,
    "Ġcorrect": 2433,
    "taller": 26150,
    "bers": 2573,
    "divers": 15341,
    "Ġrepeating": 11212,
    "Ġfunny": 7637,
    "Ġchecking": 23283,
    "pattern": 4624,
    "Ġcontains": 2794,
    "Ġroute": 11381,
    "Ġreveren": 13194,
    "Ġunkindness": 22039,
    "Ġoccasion": 3244,
    "Ġthirst": 7589,
    "Ġheath": 15699,
    "Ġxii": 11989,
    "Ġfuller": 11156,
    "Ġreside": 22536,
    "Ġscanning": 18399,
    "paid": 15413,
    "mons": 17600,
    "Ġscrutin": 26014,
    "Ġslapped": 23168,
    "Ġelizabeth": 1131,
    "existence": 16012,
    "Ġcrimson": 16440,
    "Ġselfishness": 12287,
    "wharf": 20605,
    "Ġajar": 21201,
    "Ġexpired": 18623,
    "Ġfacilitate": 26098,
    "throughout": 24084,
    "Ġhumbled": 16195,
    "ggling": 19096,
    "atoes": 17775,
    "rary": 4572,
    "Ġeuroclydon": 15295,
    "sad": 11520,
    "yl": 7818,
    "header": 11931,
    "Ġnay": 5711,
    "illating": 22104,
    "Ġsmell": 7216,
    "Ġgrotesque": 26329,
    "mystical": 25317,
    "obtain": 23091,
    "Ġsnaky": 23741,
    "dington": 11899,
    "proposal": 18760,
    "Ġcourage": 4633,
    "Ġ/*": 10139,
    "pshaw": 21027,
    "agues": 8160,
    "Ġport": 3311,
    "Ġrivers": 9441,
    "called": 6292,
    "Ġassent": 12730,
    "invincible": 25089,
    "Ġflannel": 26577,
    "Ġterritories": 23843,
    "Ġdespondency": 16576,
    "Ġreliable": 18778,
    "Ġmakest": 25435,
    "Ġabusing": 18393,
    "Ġpropag": 16346,
    "Ġchancing": 22245,
    "Ġflushed": 13025,
    "Ġgodly": 19080,
    "rrh": 26144,
    "Ġelement": 6897,
    "itar": 15544,
    "generative": 4328,
    "Ġnocturnal": 20714,
    "Ġcontrivances": 12355,
    "immediate": 20092,
    "Ġglide": 22983,
    "stalk": 21647,
    "Ġdissip": 10992,
    "Ġobjection": 6585,
    "Ġslacked": 25188,
    "other": 1316,
    "Ġgilt": 21603,
    "ete": 9203,
    "Ġwalrus": 14972,
    "Ġliquid": 22406,
    "story": 9212,
    "meal": 22703,
    "sacred": 17028,
    "Ġchiefly": 5766,
    "gainst": 25141,
    "Ġdiscu": 4361,
    "Ġlodging": 24091,
    "Ġlawy": 9454,
    "resembled": 21245,
    "icest": 21561,
    "Ġhulls": 13925,
    "shudder": 26245,
    "queequeg": 4332,
    "Ġren": 3844,
    "Ġins": 2782,
    "Ġcompose": 12899,
    "Ġloving": 8175,
    "Ġlif": 10195,
    "Ġread": 1447,
    "Ġflashes": 11914,
    "Ġevangelists": 20338,
    "Ġjustine": 4970,
    "Ġvivacious": 19814,
    "Ġthom": 21513,
    "bringing": 17166,
    "consequence": 9762,
    "Ġalacrity": 15734,
    "time": 3146,
    "Ġchestnut": 19671,
    "pall": 17628,
    "Ġtiara": 26415,
    "danish": 20832,
    "Ġanimal": 2499,
    "Ġunmethodically": 22068,
    "part": 2576,
    "Ġtruest": 16703,
    "Ġnightgown": 23128,
    "Ġconsuming": 22789,
    "thern": 4953,
    "rud": 4190,
    "Ġstupid": 7603,
    "Ġcasement": 25092,
    "Ġlaunched": 14925,
    "learnt": 23530,
    "Ġscare": 18396,
    "Ġlany": 21551,
    "aloud": 17940,
    "Ġtapering": 8770,
    "Ġprophesy": 26061,
    "Ġspool": 24806,
    "iour": 4036,
    "bit": 3932,
    "Ġmortifying": 13244,
    "Ġknow": 632,
    "Ġstrolled": 16770,
    "Ġrambling": 18644,
    "Ġaggreg": 12881,
    "Ġeas": 2352,
    "Ġespe": 21154,
    "Ġsucceeding": 16761,
    "iarity": 8743,
    "cri": 17505,
    "Ġcaliforn": 14430,
    "totally": 25417,
    "Ġmaids": 19690,
    "arranged": 19318,
    "liberal": 26281,
    "Ġthackeray": 26455,
    "Ġchast": 18380,
    "Ġunspeakably": 25172,
    "Ġpatience": 2524,
    "Ġsaratoga": 26423,
    "opy": 4455,
    "Ġrelating": 2708,
    "Ġpairs": 4182,
    "Ġhatred": 8608,
    "indef": 17735,
    "Ġparac": 12792,
    "Ġslides": 18938,
    "Ġdesol": 6881,
    "Ġprivately": 19522,
    "Ġejaculation": 20253,
    "Ġdefici": 22940,
    "intment": 4720,
    "destiny": 16702,
    "Ġrushes": 20506,
    "Ġord": 3735,
    "Ġdanes": 25156,
    "pieces": 8754,
    "lux": 14225,
    "Ġtranqu": 4601,
    "ividually": 22080,
    "Ġabiding": 22267,
    "mightily": 24102,
    "bows": 10081,
    "Ġtalk": 1969,
    "Ġannual": 14830,
    "?": 35,
    "Ġgraves": 11706,
    "Ġmot": 2984,
    "sworn": 24256,
    "oured": 2676,
    "Ġcomputer": 1180,
    "dimens": 2316,
    "'(": 2978,
    "Ġjail": 22291,
    "Ġenjoys": 19448,
    "Ġwhither": 10214,
    "Ġmuhammad": 26169,
    "events": 12315,
    "Ġhoarse": 14525,
    "Ġfired": 16150,
    "hence": 16624,
    "Ġprim": 8243,
    "co": 2435,
    "ĠâĢĶâĢľ_": 17718,
    "orrow": 2915,
    "Ġscold": 10950,
    "Ġjones": 7204,
    "Ġsurrounds": 24231,
    "Ġmurder": 4279,
    "Ġamelia": 26250,
    "Ġsubstituting": 26326,
    "henomen": 10494,
    "Ġkindest": 23290,
    "Ġusage": 9729,
    "Ġsevent": 18200,
    "Ġresolving": 9418,
    "Ġpop": 5151,
    "Ġenglishman": 11229,
    "nui": 20999,
    "itioned": 22466,
    "Ġuttered": 7280,
    ";": 31,
    "rage": 10843,
    "Ġoverwhelmed": 11403,
    "Ġfur": 990,
    "Ġmerciless": 25246,
    "Ġbe": 336,
    "Ġlaborious": 13102,
    "Ġsee": 804,
    "Ġunrivalled": 26519,
    "Ġdelineations": 26058,
    "stairs": 5155,
    "Ġbust": 10167,
    "Ġretreated": 13432,
    "anzas": 17840,
    "Ġcordon": 24394,
    "Ġherd": 7887,
    "cst": 10084,
    "oglyph": 11019,
    "exam": 10976,
    "dream": 8727,
    "Ġslip": 8954,
    "Ġemergencies": 17361,
    "Ġcombinations": 22847,
    "Ġmerit": 9426,
    "Ġholland": 10365,
    "Ġwhirlwinds": 20463,
    "lowering": 16030,
    "inea": 7623,
    "iability": 20919,
    "Ġwind": 1431,
    "Ġshed": 8180,
    "frisco": 16787,
    "visit": 7754,
    "ivial": 15858,
    "Ġbestowed": 6593,
    "elves": 2158,
    "Ġeddy": 13122,
    "reve": 12536,
    "Ġpoetry": 15079,
    "Ġheart": 1594,
    "solving": 3099,
    "Ġdeference": 10882,
    "Ġpressed": 6041,
    "Ġresuming": 12890,
    "shape": 10982,
    "to": 714,
    "swiftly": 20550,
    "dy": 3861,
    "numer": 15398,
    "Ġembracing": 14979,
    "damn": 20022,
    "Ġbay": 9168,
    "Ġdragged": 6889,
    "Ġwretchedness": 9026,
    "ious": 769,
    "Ġirresolution": 24915,
    "Ġregularly": 7658,
    "Ġtraces": 7945,
    "Ġliterature": 17148,
    "Ġmast": 2901,
    "Ġinaudible": 21496,
    "Ġplease": 4723,
    "leeward": 15209,
    "Ġantique": 19550,
    "business": 5610,
    "Ġsmo": 2704,
    "Ġbelf": 21379,
    "card": 11475,
    "Ġepicurean": 20554,
    "Ġast": 2959,
    "acceler": 23597,
    "whis": 7897,
    "Ġunremitting": 26217,
    "Ġappals": 22217,
    "Ġmassacre": 20546,
    "Ġvehic": 8933,
    "Ġequin": 14497,
    "darkened": 24517,
    "Ġarrangement": 2661,
    "Ġsunny": 13084,
    "Ġnar": 7375,
    "Ġcough": 11580,
    "Ġgrammar": 1061,
    "substance": 15230,
    "Ġ183": 13236,
    "Ġtricks": 13483,
    "ertain": 1208,
    "brad": 20780,
    "tem": 6369,
    "Ġcriminal": 7537,
    "Ġguide": 3212,
    "chorus": 19810,
    "delighted": 10562,
    "hos": 15362,
    "Ġxiii": 25591,
    "Ġhelped": 7459,
    "Ġdoubting": 13099,
    "share": 14235,
    "Ġevolve": 3001,
    "Ġsavory": 23874,
    "Ġpond": 13915,
    "Ġsubterranean": 13610,
    "merely": 16132,
    "Ġtoll": 7851,
    "Ġinfirm": 19022,
    "noo": 9792,
    "Ġquadru": 16002,
    "Ġsigning": 22707,
    "taken": 7560,
    "Ġremorselessly": 16967,
    "Ĭ": 237,
    "erately": 21272,
    "Ġnatives": 17950,
    "shr": 10979,
    "Ġsundry": 20072,
    "Ġunworth": 22033,
    "Ġthyself": 6602,
    "phon": 4128,
    "Ġcask": 5527,
    "cruet": 17026,
    "oh": 1579,
    "finding": 17013,
    "justice": 7957,
    "buried": 14848,
    "Ġincreased": 2213,
    "rederick": 14079,
    "Ġimmeasurable": 26230,
    "Ġomit": 17815,
    "f": 74,
    "written": 7994,
    "Ġnorton": 12646,
    "Ġmaelstrom": 19354,
    "hear": 10146,
    "Ġdesisted": 22977,
    "Ġsubstantiated": 25875,
    "cheap": 23803,
    "Ġgreenhorn": 23767,
    "etrics": 21582,
    "Ġcultiv": 13555,
    "Ġgaping": 13968,
    "Ġmccarthy": 5145,
    "Ġamel": 18509,
    "effect": 8603,
    "zar": 11547,
    "Ġagree": 7646,
    "Ġmurdered": 6464,
    "Ġ129": 24474,
    "Ġlibrary": 6423,
    "Ġnegatived": 23043,
    "cru": 7126,
    "Ġexpression": 4512,
    "Ġarch": 915,
    "Ġrepro": 7275,
    "Ġnewcom": 16220,
    "Ġblanched": 26282,
    "Ġslipped": 6492,
    "Ġgirl": 3086,
    "ĠĠĠ": 2115,
    "hinting": 17569,
    "quished": 21851,
    "Ġimprovement": 7964,
    "Ġploughing": 26259,
    "Ġobstin": 14952,
    "gossip": 23400,
    "ĵ": 246,
    "Ġdived": 9177,
    "Ġsprings": 16687,
    "Ġasked": 2278,
    "O": 51,
    "Ġinoffensive": 21495,
    "sim": 6510,
    "Ġsticking": 13426,
    "Ġprint": 18969,
    "Ġfrederick": 15584,
    "Ġimportant": 1116,
    "portent": 25412,
    "vast": 10736,
    "intend": 16222,
    "ods": 8835,
    "blacksmith": 17001,
    "Ġspecially": 11996,
    "Ġsche": 1706,
    "Ġdiscontented": 16057,
    "Ġjug": 12832,
    "Ġoverdone": 22359,
    "Ġstudent": 14478,
    "Ġoverbearing": 12841,
    "Ġcranes": 20381,
    "hitherto": 17283,
    "named": 9889,
    "quee": 4131,
    "auley": 22620,
    "Ġmeasures": 1207,
    "Ġrobes": 16252,
    "Ġdetermination": 9818,
    "Ġruns": 8595,
    "Ġhom": 9186,
    "Ġoccurrences": 11050,
    "Ġaffidavit": 20723,
    "Ġacted": 7422,
    "icirc": 15653,
    "Ġpostmark": 16725,
    "Ġprofession": 6207,
    "Ġvii": 13107,
    "Ġparticular": 2449,
    "Ġfacility": 19849,
    "Ġcomforts": 14693,
    "Ġsubdiv": 16157,
    "unfortunate": 15774,
    "leagued": 26435,
    "Ġreef": 10849,
    "Ġdifference": 1492,
    "Ġglaciers": 20172,
    "opposing": 24825,
    "Ġshaggy": 13569,
    "soundest": 24797,
    "quitted": 21854,
    "Ġreligion": 11415,
    "Ġmissing": 6175,
    "warnings": 20350,
    "Ġunseen": 3524,
    "Ġdashing": 8795,
    "Ġcovers": 18592,
    "Ġsperm": 1844,
    "Ġmaritime": 23035,
    "magnetic": 20551,
    "Ġsympathise": 16794,
    "largely": 19573,
    "Ġvolcano": 24146,
    "Ù": 154,
    "Ġfastidious": 14493,
    "enstein": 5799,
    "Ġadvantageously": 19544,
    "Ġignoble": 19397,
    "Ġillustrations": 17108,
    "Ġgravity": 9247,
    "Ą": 197,
    "row": 1066,
    "shiver": 16022,
    "plain": 1361,
    "Ġjoll": 11763,
    "Ġordained": 19443,
    "Ġexpected": 3697,
    "aceti": 7111,
    "Ġfireboard": 23532,
    "oqu": 7555,
    "Ġflowery": 16231,
    "Ġmelting": 24288,
    "night": 2167,
    "highly": 24764,
    "Ġsabbath": 17254,
    "ables": 7889,
    "Ġrunning": 3951,
    "Ġforc": 9227,
    "Ġtormented": 8674,
    "Ġmatlock": 18800,
    "Ġdoll": 10813,
    "opement": 10311,
    "Ġmanifold": 13559,
    "Ġsurvivor": 17362,
    "Ġnicely": 8708,
    "possible": 5743,
    "Ġeasy": 3453,
    "Ġmans": 15534,
    "isf": 2436,
    "erable": 1916,
    "Ġnews": 3818,
    "Ġdeceitful": 25733,
    "ij": 7801,
    "Ġcorn": 9349,
    "Ġscepticism": 25927,
    "Ġsupposing": 6729,
    "Ġimmutable": 17357,
    "Ġtep": 21160,
    "Ġinflicted": 11365,
    "aloft": 8806,
    "eminent": 25104,
    "Ġwintry": 17433,
    "confl": 22468,
    "Ġrubbing": 9320,
    "Ġextinct": 14333,
    "occupied": 12302,
    "Ġunb": 10907,
    "soul": 9140,
    "est": 501,
    "Ġgre": 1585,
    "Ġinvoking": 19145,
    "taffrail": 15441,
    "Ġforgotten": 5679,
    "Ġcourtiers": 24136,
    "Ġtract": 21164,
    "âĢľâĢĻ": 10221,
    "complained": 25838,
    "Ġlivelihood": 24774,
    "Ġbrave": 6329,
    "weave": 22682,
    "Ġcosy": 13129,
    "Ġcontemptible": 16953,
    "orse": 5806,
    "andromeda": 21865,
    "thed": 8826,
    "Ġsl": 1500,
    "remained": 8569,
    "Ġgrec": 18961,
    "companion": 9557,
    "Ġintervene": 25480,
    "Ġitaly": 10867,
    "agreeable": 5829,
    "osp": 6854,
    "Ġmaterially": 12189,
    "aths": 22696,
    "Ġcommanders": 23866,
    "Ġnorth": 4317,
    "Ġkilburn": 18351,
    "tor": 15431,
    "Ġpiratical": 24801,
    "tin": 6116,
    "Ġinquis": 19302,
    "Ġconcent": 8249,
    "Ġlot": 6678,
    "Ġwhere": 783,
    "Ġdraughts": 20220,
    "reported": 24493,
    "Ġplanets": 24053,
    "fortune": 4974,
    ".*": 7331,
    "Ġsimilarity": 3166,
    "tick": 17678,
    "Ġignited": 25069,
    "Ġpugnacious": 26451,
    "Ġenveloped": 12206,
    "Ġbaggy": 24538,
    "stationed": 25453,
    "Ġnailing": 21524,
    "Ġequinox": 25857,
    "itt": 570,
    "Ġmagnitudes": 3821,
    "urring": 21702,
    "values": 4975,
    "umerable": 11723,
    "elder": 21569,
    "Ġhedgehog": 10644,
    "ors": 855,
    "Ġimbib": 22172,
    "Ġrequisite": 18630,
    "Ġtolerable": 6949,
    "clusion": 16303,
    "ike": 5000,
    "Ġpleasantest": 24137,
    "ifully": 13183,
    "shortened": 24748,
    "itted": 2442,
    "Ġcomfort": 3440,
    "Ġblades": 11893,
    "Ġdisorder": 16049,
    "trick": 19411,
    "ittered": 18439,
    "text": 1973,
    "Ġforbidding": 17079,
    "Ġfirmly": 8013,
    "Ġhollowly": 24526,
    "Ġinstruction": 14341,
    "Ġsta": 18062,
    "Ġtawny": 20480,
    "Ġcredulous": 17144,
    "Ġmau": 21309,
    "Ġsal": 3938,
    "Ġhuff": 21487,
    "Ġaddu": 22098,
    "entieth": 17978,
    "Ġseasonable": 24406,
    "nowledge": 10289,
    "Ġcounterpane": 11343,
    "Ġbriskly": 25311,
    "Ġhazarded": 25654,
    "cies": 1815,
    "Ġancestors": 25642,
    "Ġperiod": 4003,
    "ĠĠĠĠĠĠĠĠĠĠĠĠĠĠĠĠĠĠĠĠĠĠĠĠĠĠĠĠĠĠĠ": 19699,
    "Ġhav": 12751,
    "Ġdepicted": 14283,
    "_:": 17478,
    "Ġvisitor": 5330,
    "Ġalterations": 19870,
    "Ġadapted": 11038,
    "computer": 1994,
    "scans": 22986,
    "Ġmorass": 22973,
    "Ġrejected": 12292,
    "Ġaugmentation": 20114,
    "Ġcreat": 1435,
    "Ġthreats": 13376,
    "Ġpaw": 12617,
    "Ġprepared": 5876,
    "Ġre": 317,
    "Ġmanip": 8871,
    "Ġvestibule": 13536,
    "Ġprofessions": 11231,
    "Ġvengeance": 5884,
    "Ġbuffalo": 11429,
    "Ġslammed": 20446,
    "Ġinterpreted": 1712,
    "rics": 13035,
    "anded": 5922,
    "Ġrational": 8479,
    "jet": 13741,
    "Ġpresumption": 10545,
    "Ġdoubling": 23317,
    "Ġdescribed": 6606,
    "Ġhastening": 19335,
    "Ġvaliantly": 22800,
    "Ġduc": 4696,
    "Ġsimultaneously": 4309,
    "Ġmultitude": 9324,
    "terms": 15748,
    "Ġtour": 9147,
    "Ġfigured": 16643,
    "Ġgallop": 19554,
    "fail": 17540,
    "immense": 18052,
    "anche": 10788,
    "Ġspake": 18308,
    "divided": 25018,
    "Ġdespised": 14666,
    "herent": 2532,
    "Ġhumans": 8929,
    "crew": 7544,
    "Ġel": 803,
    "Ġire": 12666,
    "Ġtarts": 10753,
    "Ġdetermines": 2366,
    "Ġdeuteronomy": 15757,
    "Ġthews": 21276,
    "Ġvest": 8162,
    "Ġturns": 4981,
    "obst": 11930,
    "Ġbedfellow": 16436,
    "Ġofficers": 4423,
    "Ġdeed": 7867,
    "oice": 1384,
    "iled": 1763,
    "according": 12026,
    "beating": 22486,
    "abulary": 4800,
    "vex": 21695,
    "Ġsacr": 7194,
    "30": 20753,
    "Ġexquis": 9697,
    "Ġplaintiffs": 13608,
    "odhead": 18120,
    "Ġinc": 702,
    "iamond": 14590,
    "Ġextract": 1515,
    "Ġpacing": 8425,
    "Ġinf": 1755,
    "Ġtightly": 13533,
    "Ġbefell": 14009,
    "Ġdit": 21418,
    "âĢĿ]": 21812,
    "nerable": 16275,
    "road": 6677,
    "gd": 3123,
    "Ġnothing": 1362,
    "Ġgiant": 13967,
    "Ġmastery": 23990,
    "shadow": 20311,
    "Ġdecisions": 6702,
    "Ġnewcomers": 26041,
    "ography": 13361,
    "aan": 20763,
    "reason": 4411,
    "Ġgolden": 5336,
    "Ġmonstr": 7667,
    "Ġbeth": 9657,
    "Ġpurpose": 2711,
    "Ġindign": 6173,
    "Ġthrown": 4639,
    "happ": 3103,
    "Ġcreditor": 24290,
    "reds": 12745,
    "onze": 21254,
    "itancy": 21331,
    "Ġvigour": 24462,
    "Ġgodson": 23354,
    "Ġgleaming": 24993,
    "Ġdelivered": 11115,
    "||": 4869,
    "Ġarbit": 4650,
    "science": 11907,
    "university": 25983,
    "Ġcusack": 26433,
    "paper": 9136,
    "Ġasc": 4765,
    "tier": 12512,
    "comp": 3815,
    "Ġignominy": 15084,
    "/*": 10070,
    "Ġcivilized": 8664,
    "perquisites": 26531,
    "repeat": 25151,
    "Ġhaz": 12752,
    "Ġsleepers": 13148,
    "Ġviciously": 24404,
    "Ġrevolver": 14899,
    "Ġdismantled": 20215,
    "fitting": 1511,
    "mble": 1405,
    "Ġlack": 17963,
    "unforeseen": 21885,
    "Ġgasp": 7172,
    "Ġhardly": 2434,
    "Ġravings": 18646,
    "earthly": 24724,
    "Ġoverwhelming": 17102,
    "Ġbenevol": 5961,
    "Ġjost": 23629,
    "bb": 2802,
    "Ġglanced": 5951,
    "deserted": 18959,
    "Ġunluck": 8484,
    "Ġcuriosity": 2400,
    "Ġmeditation": 16680,
    "ls": 1293,
    "âĢĶ.âĢĿ": 22252,
    "assemblies": 25956,
    "Ġfeedback": 23431,
    "Ġlatin": 16821,
    "Ġcapacity": 10440,
    "Ġaberde": 22274,
    "Ġbitt": 10796,
    "tfordshire": 4811,
    "Ġhar": 5814,
    "trem": 17681,
    "ass": 539,
    "Ġcrouched": 23440,
    "Ġhorsham": 10406,
    "Ġattach": 14287,
    "Ġvesture": 20060,
    "Ġapple": 14168,
    "Ġenabled": 9295,
    "recur": 4434,
    "Ġprendergast": 26537,
    "ernation": 8211,
    "thunder": 10262,
    "Ġbarbary": 24215,
    "Ġbishop": 13901,
    "bbs": 23691,
    "problems": 11434,
    "Ġinsensible": 12323,
    "user": 5105,
    "creator": 26381,
    "Ġsigns": 2443,
    "wife": 8100,
    "objection": 19914,
    "Ġkiller": 19567,
    "Ġsavag": 19372,
    "Ġsurp": 9634,
    "Ġrepugn": 23359,
    "Ġshelves": 14998,
    "Ġmoonlight": 9957,
    "Ġtahiti": 13618,
    "Ġaristotle": 25817,
    "Ġpassengers": 13674,
    "Ġshown": 5159,
    "Ġmississippi": 20724,
    "Ġmountain": 3373,
    "Ġpreface": 18367,
    "Ġstretching": 10014,
    "Ġrud": 8477,
    "Ġrecourse": 22737,
    "Ġmidships": 23632,
    "Ġbands": 14883,
    "cop": 20800,
    "Ġdais": 24372,
    "Ġdot": 4820,
    "reflect": 19864,
    "Ġ65": 24368,
    "feature": 4607,
    "unts": 12728,
    "Ġhandwriting": 14318,
    "âĢľ": 344,
    "Ġatmosphere": 10897,
    "ö": 183,
    "Ġexist": 9231,
    "eskye": 21481,
    "flu": 9117,
    "Ġdaughter": 2871,
    "impl": 21704,
    "should": 3260,
    "Ġutil": 4672,
    "inition": 11556,
    "brows": 17496,
    "dependence": 17167,
    "Ġshouting": 10522,
    "Ġghastly": 10059,
    "Ġwh": 328,
    "Ġwat": 1290,
    "Ġdiscount": 22778,
    "slipping": 25528,
    "ages": 829,
    "Ġeats": 15674,
    "barbs": 20236,
    "reserve": 17765,
    "ench": 21278,
    "Ġconsult": 6056,
    "Ġroutine": 13507,
    "Ġross": 2767,
    "Ġshapes": 14108,
    "hounds": 20906,
    "duing": 22408,
    "blood": 7779,
    "Ġboom": 9309,
    "Ġstated": 9688,
    "ornamented": 26595,
    "rings": 10722,
    "doctor": 19095,
    "Ġskeletons": 16791,
    "worse": 14690,
    "Ġoccasional": 7289,
    "Ġantilles": 24178,
    "likely": 9022,
    "leo": 21362,
    "Ġintu": 12760,
    "Ġevalu": 3474,
    "rab": 7596,
    "Ġbroke": 5322,
    "dissemble": 23492,
    "Ġprofits": 16488,
    "inclination": 20056,
    "Ġhell": 5019,
    "Ġpeculiarity": 12930,
    "oking": 4603,
    "Ġpropriet": 9549,
    "Ġusurpation": 18357,
    "Ġrans": 21963,
    "Ġlac": 17964,
    "Ġrendering": 16657,
    "urbed": 15706,
    "Ġirrevocably": 15296,
    "voyages": 24855,
    "Ġtests": 8957,
    "pool": 16207,
    "Ġwondrous": 4735,
    "Ġdisinclination": 22533,
    "enesis": 24388,
    "cu": 10083,
    "ied": 940,
    "Ġamericans": 14742,
    "Ġunsuccessful": 18257,
    "Ġeffectually": 16165,
    "Ġflour": 8944,
    "Ġvelv": 10619,
    "Ġencoun": 4508,
    "Ġforeshadowing": 26592,
    "model": 4718,
    "Ġleaking": 21742,
    "Ġauthentic": 20534,
    "police": 10583,
    "Ġforthwith": 16617,
    "Ġcontinually": 5041,
    "words": 7982,
    "Ġphysi": 9987,
    "Ġ166": 25004,
    "Ġforeseen": 16442,
    "Ġxerxes": 23409,
    "Ġwilds": 16508,
    "Ġmovements": 24359,
    "ys": 3959,
    "Ġtables": 9877,
    "Ġmari": 6813,
    "Ġremarking": 13123,
    "Ġchoking": 15932,
    "Ġelder": 7224,
    "Ġranges": 2884,
    "Ġpowdered": 24237,
    "Ġsummers": 23871,
    "Ġrejoicing": 13420,
    "Ġpitched": 9443,
    "Ġbrighter": 16186,
    "laug": 10707,
    "Ġfall": 2986,
    "awn": 3833,
    "operations": 19973,
    "Ġmatters": 4973,
    "Ġearly": 2080,
    "Ġsafie": 6617,
    "Ġunostentatious": 22067,
    "Ġobey": 9518,
    "Ġsacrifice": 9555,
    "plentiful": 21959,
    "Ġarrows": 18336,
    "ushed": 2970,
    "Ġstarted": 4150,
    "rusted": 16506,
    "Ġthoroughly": 8347,
    "example": 16011,
    "indispensable": 14209,
    "Ġcapric": 14575,
    "Ġsin": 1514,
    "Ġthroats": 24575,
    "Ġ235": 25713,
    "_âĢĶâĢĻâĢĿ": 25741,
    "max": 1682,
    "Ġowest": 25091,
    "signs": 16538,
    "illings": 14142,
    "Ġstoutly": 16924,
    "Ġcentrally": 23829,
    "Ġimparted": 15987,
    "Ġphilosophy": 7103,
    "take": 4573,
    "Ġshelter": 17008,
    "mou": 10708,
    "ject": 875,
    "Ġpiled": 8424,
    "level": 2657,
    "ction": 498,
    "Ġslee": 8974,
    "Ġpur": 2218,
    "Ġconvul": 13200,
    "Ġfut": 15572,
    "flies": 19422,
    "Ġmanipulated": 25178,
    "otions": 7180,
    "iction": 4267,
    "together": 3556,
    "Ġplaited": 14282,
    "Ġconfided": 19039,
    "Ġpill": 7845,
    "Ġamb": 9291,
    "Ġperformed": 8546,
    "Ġglacier": 11433,
    "positive": 20566,
    "gered": 9275,
    "condemned": 26060,
    "Ġirrad": 19093,
    "Ġalternately": 15031,
    "Ġtrousers": 12413,
    "Ġdrowned": 9551,
    "Ġpoul": 15610,
    "Ġrepl": 1593,
    "Ġhot": 4256,
    "morland": 24152,
    "ts": 960,
    "repid": 11564,
    "Ġchalk": 15931,
    "consequential": 26249,
    "sulphur": 25909,
    "within": 6730,
    "Ġwheelbarrow": 17204,
    "Ġclass": 789,
    "Ġbordered": 24563,
    "odes": 18119,
    "infidel": 24663,
    "Ġscraps": 16902,
    "jury": 15372,
    "Ġtalks": 23366,
    "Ġbottles": 16569,
    "Ġcorrid": 9823,
    "ke": 429,
    "Ġimp": 584,
    "yarn": 15456,
    "Ġpumps": 8426,
    "Ġcast": 3607,
    "Ġsuspended": 5665,
    "sugg": 11839,
    "Ġdissol": 18551,
    "uendoes": 26407,
    "Ġmer": 2929,
    "igen": 4830,
    "amy": 8467,
    "singular": 12186,
    "Ġzig": 18743,
    "swaying": 25910,
    "Ġborrowed": 17229,
    "oun": 483,
    "r": 86,
    "hauled": 20667,
    "riety": 12741,
    "Ġwashed": 15762,
    "Ġremarks": 7474,
    "enge": 21279,
    "Ġexhibition": 14956,
    "Ġconvey": 9980,
    "Ġfourth": 7706,
    "Ġslabs": 13058,
    "Ġfairy": 14627,
    "ingley": 1545,
    "¿": 128,
    "Ġempty": 5353,
    "Ġundertone": 23238,
    "inkers": 22615,
    "pushed": 21022,
    "Ġaft": 5737,
    "Ġshield": 21996,
    "storied": 18024,
    "protruding": 24816,
    "Ġtheatre": 21277,
    "Ġtrough": 15961,
    "met": 6652,
    "Ġoccupy": 14730,
    "Ġnobly": 22238,
    "Ġhorner": 8958,
    "Ġeucl": 24709,
    "Ġgroups": 3719,
    "Ġess": 5691,
    "easily": 17534,
    "atively": 2699,
    "cro": 13695,
    "isure": 6240,
    "scra": 13019,
    "too": 4504,
    "whip": 22234,
    "Ġdreamt": 23936,
    "Ġwhip": 8451,
    "Ġcubs": 20085,
    "Ġminimax": 5857,
    "ipher": 18427,
    "Ġconting": 18472,
    "chambers": 25454,
    "Ġdiligent": 25075,
    "Ġcritical": 7475,
    "augh": 1781,
    "Ġaven": 10759,
    "contempl": 13188,
    "Ġregimentals": 19857,
    "Ġpuppy": 12403,
    "aternity": 21264,
    "ouement": 21446,
    "ith": 330,
    "Ġsuppressing": 22998,
    "unning": 4490,
    "Ġportents": 14679,
    "asserted": 22306,
    "Ġcultured": 25154,
    "Ġcalms": 23038,
    "Ġsuite": 18276,
    "Ġpepper": 9780,
    "Ġfanatic": 23388,
    "Ġgreeting": 18963,
    "learning": 2528,
    "aver": 6785,
    "Ġidly": 16402,
    "Ġfeature": 749,
    "Ġstiffness": 24830,
    "sav": 8095,
    "Ġsmothe": 18575,
    "Ġtribute": 15474,
    "burned": 25079,
    "falsehood": 25901,
    "Ġdiscipline": 26561,
    "fted": 9118,
    "Ġpall": 7582,
    "Ġegg": 8818,
    "Ġtext": 2268,
    "member": 20974,
    "Ġbusy": 6189,
    "isting": 5551,
    "conclusion": 25671,
    "Ġinvolved": 8924,
    "shadows": 25479,
    "Ġmonth": 2851,
    "Ġwoeful": 19618,
    "Ġrattle": 10899,
    "Ġinstability": 3812,
    "Ġtrotting": 19974,
    "Ġmeek": 21806,
    "Ġcoming": 2621,
    "incom": 21180,
    "Ġcompanies": 14557,
    "Ġavailed": 23949,
    "Ġdivergence": 2730,
    "Ġano": 11595,
    "Ġswiftness": 9926,
    "iates": 13736,
    "Ġcovent": 16070,
    "Ġaloof": 21782,
    "Ġhel": 3786,
    "ě": 220,
    "Ġdreamy": 14702,
    "Ġuncovered": 23430,
    "mont": 19168,
    "Ġloosed": 22109,
    "fever": 22508,
    "Ġcleaned": 23179,
    "Ġunhappiness": 14117,
    "Ġdun": 6673,
    "Ġrequired": 7223,
    "Ġfettered": 24568,
    "Ġjoining": 13163,
    "Ġshivered": 14107,
    "Ġhitting": 21484,
    "stirring": 20424,
    "Ġdiscrete": 2476,
    "corpse": 24486,
    "Ġpredecess": 18530,
    "Ġproposal": 10018,
    "Ġfugitive": 17326,
    "Ġconfused": 7963,
    "distressed": 24198,
    "Ġpersevering": 20232,
    "Ġtwine": 14310,
    "compar": 14358,
    "Ġvon": 14080,
    "three": 5239,
    "Ġcant": 17824,
    "alous": 7372,
    "Ġexasperated": 11412,
    "inkle": 22614,
    "Ġheaped": 18037,
    "Ġsurmise": 12293,
    "Ġfeeling": 3084,
    "Ġanimals": 8978,
    "Ġcareer": 11118,
    "Ġradiance": 13369,
    "orious": 6007,
    "Ġpossessions": 23822,
    "unwillingly": 21881,
    "Ġindependence": 12102,
    "Ġdecisive": 18485,
    "Ġfirmament": 19469,
    "Ġtacit": 21173,
    "Ġtermination": 16460,
    "Ġum": 10211,
    "Ġmood": 6276,
    "col": 3102,
    "Ġmanhandle": 22326,
    "weight": 2939,
    "Ġrebell": 21666,
    "stiff": 12672,
    "ă": 196,
    "grew": 17555,
    "usion": 3302,
    "Ġeleven": 9388,
    "Ġinheriting": 25354,
    "Ġpleased": 4062,
    "orters": 21399,
    "ultaneous": 18584,
    "Ġefficiently": 3855,
    "Ġtum": 5692,
    "source": 11525,
    "Ġlamentations": 17076,
    "pane": 10120,
    "izar": 14042,
    "Ġcracked": 8593,
    "Ġshaped": 15832,
    "Ġwaits": 23401,
    "dilig": 17282,
    "belief": 13280,
    "watching": 16930,
    "Ġinexperienced": 26100,
    "0": 20,
    "Ġfret": 10806,
    "Ġrevolution": 3307,
    "Ġspat": 2668,
    "brink": 23575,
    "Ġsweat": 13139,
    "meryton": 10111,
    "med": 1908,
    "Ġshowed": 4493,
    "rusion": 11323,
    "peculiarity": 23107,
    "Ġwilderness": 14838,
    "comb": 11037,
    "Ġcakes": 13883,
    "Ġproof": 6153,
    "Ġopposite": 5120,
    "Ġrate": 1062,
    "Ġindirectly": 8939,
    "Ġadmirers": 19685,
    "Ġsighing": 18678,
    "stepfather": 19189,
    ",": 16,
    "disinterested": 23501,
    "Ġundeserving": 18268,
    "iling": 3093,
    "Ġwhitened": 24867,
    "Ġquoin": 22415,
    "anging": 3551,
    "Ġconsiderations": 9409,
    "sing": 5138,
    "Ġgilded": 17444,
    "Ġjava": 12310,
    "noon": 5037,
    "Ġatt": 774,
    "Ġcheek": 8576,
    "stache": 15687,
    "Ġjob": 7015,
    "Ġ11": 5318,
    "aced": 2409,
    "Ġliberty": 7761,
    "unconquerable": 21888,
    "Ġunderground": 18984,
    "Ġslewed": 23381,
    "dissatisf": 26129,
    "peddling": 24696,
    "Ġreminds": 13430,
    "pp": 384,
    "Ġbeats": 21749,
    "Ġmeasuring": 22880,
    "Ġy": 341,
    "Ġger": 21588,
    "Ġmicrosc": 20675,
    "Ġrim": 21962,
    "Ġunless": 4090,
    "Ġproduce": 4364,
    "Ġgravely": 7882,
    "gunwale": 20662,
    "Ġgamming": 25542,
    "pump": 21016,
    "account": 5329,
    "7": 27,
    "silenced": 24423,
    "nez": 22458,
    "Ġlooks": 4166,
    "Ġreturning": 5325,
    "Ġrewards": 10848,
    "Ġlighter": 12650,
    "Ġpractical": 3163,
    "Ġcomrade": 12281,
    "Ġanecd": 20153,
    "Ġrustic": 14964,
    "Ġstandpoint": 23277,
    "Ġdistances": 22499,
    "Ġfemin": 13435,
    "Ġtoilet": 13936,
    "ose": 718,
    "Ġpeering": 8534,
    "expectation": 14855,
    "Ġinex": 6528,
    "widows": 25344,
    "amount": 10884,
    "Ġendowed": 18924,
    "possibly": 10543,
    "Ġdeeds": 15756,
    "aming": 5828,
    "ercial": 21273,
    "Ġcareless": 11119,
    "Ġsulphur": 24933,
    "pate": 21009,
    "Ġflatt": 16246,
    "belated": 24034,
    "Ġalarmed": 6923,
    "uch": 877,
    "Ġunderwent": 23237,
    "Ġprudential": 17917,
    "Ġ[": 6967,
    "Ġunmanufactured": 20432,
    "goldsmith": 20146,
    "utral": 12660,
    "Ġsanguinary": 25929,
    "insula": 23063,
    "Ġafternoon": 6052,
    "Ġlegendary": 20536,
    "Ġlands": 6594,
    "sofa": 26146,
    "ic": 304,
    "cottagers": 20046,
    "Ġdistrusting": 25053,
    "Ġimprinted": 22388,
    "Ġreport": 6191,
    "Ġyears": 1892,
    "iday": 8829,
    "aments": 12722,
    "Ġsoul": 2728,
    "Ġpresented": 5183,
    "Ġunlim": 18253,
    "Ġbackstays": 22660,
    "nay": 7135,
    "ferent": 4194,
    "Ġambition": 11432,
    "Ġrosings": 4604,
    "quent": 2095,
    "Ġconfluent": 19042,
    "Ġfringe": 17271,
    "Ġsuffoc": 18870,
    "rd": 17649,
    "Ġacc": 572,
    "charles": 14698,
    "lust": 15378,
    "Ġdanger": 3520,
    "Ġmeasure": 3594,
    "Ġimplore": 24872,
    "×": 152,
    "Ġwhalebone": 10977,
    "servant": 15035,
    "Ġ103": 24411,
    "Ġsubtle": 6716,
    "edmund": 17945,
    "Ġway": 1086,
    "Ġresolved": 3797,
    "lev": 1236,
    "Ġplanting": 16083,
    "Ġbeads": 18083,
    "ws": 7355,
    "ursday": 12274,
    "Ġsorts": 6887,
    "Ġcock": 11000,
    "Ġshop": 9251,
    "Ġdelighted": 5499,
    "Ġnever": 1021,
    "warning": 25531,
    "Ġmystical": 12130,
    "Ġinheritance": 25355,
    "icted": 5936,
    "else": 6533,
    "Ġeasily": 3890,
    "special": 14704,
    "Ġnamed": 6139,
    "Ġprows": 19888,
    "anything": 5518,
    "Ġintrusted": 21989,
    "knowing": 10437,
    "Ġisinglass": 21799,
    "Ġtar": 2567,
    "nearest": 16024,
    "beginning": 13560,
    "Ġsymmetrical": 20365,
    "Ġ46": 19489,
    "mouthful": 25208,
    "inct": 3294,
    "fiend": 13660,
    "Ġshaded": 14104,
    "judging": 24200,
    "Ġgard": 2189,
    "Ġbranch": 8331,
    "Ġmultiplied": 23688,
    "untering": 15773,
    "Ġmab": 12557,
    "pract": 10119,
    "Ġrepublican": 17411,
    "Ġfang": 21401,
    "fairly": 17219,
    "Ġobliter": 14321,
    "insanity": 23065,
    "Ġhoping": 11103,
    "either": 6791,
    "Ġshrieks": 12197,
    "prevented": 20372,
    "Ġderanged": 23171,
    "Ġslo": 15505,
    "ogene": 18676,
    "Ġchurches": 12825,
    "Ġpropontis": 17465,
    "ately": 1699,
    "Ġcowardice": 17032,
    "Ġsatisfaction": 5667,
    "Ġalph": 9694,
    "itor": 12563,
    "waist": 13417,
    "dried": 20826,
    "ge": 560,
    "separated": 20158,
    "Ġfashioned": 13319,
    "Ġbeen": 626,
    "Ġroads": 13287,
    "Ġgramm": 8170,
    "ates": 519,
    "Ġfool": 4234,
    "Ġprophet": 7680,
    "Ġcranial": 25592,
    "nt": 921,
    "umns": 14147,
    "ahit": 9380,
    "Ġhospitality": 13512,
    "redible": 15802,
    "Ġhorribly": 16340,
    "Ġcheck": 7271,
    "Ġaverred": 18865,
    "Ġadroop": 26001,
    "Ġrush": 5924,
    "Ġdrags": 16941,
    "Ġexpectantly": 23524,
    "Ġrefill": 18704,
    "Ġrefers": 1565,
    "ologist": 22876,
    "rell": 11563,
    "boo": 16349,
    "ğ": 224,
    "ensed": 10996,
    "mology": 12489,
    "ructure": 752,
    "Ġexhibiting": 19837,
    "Ġamusement": 8055,
    "Ġspans": 18304,
    "Ġsofas": 26224,
    "Ġgrowing": 6750,
    "wis": 12516,
    "Ġuniversally": 11998,
    "nical": 20990,
    "Ġtechnically": 12364,
    "pray": 5429,
    "touching": 15090,
    "Ġprovinc": 16742,
    "Ġresponsiveness": 2898,
    "place": 4154,
    "Ġmanhood": 22323,
    "Ġwhich": 503,
    "Ġcorpore": 13400,
    "Ġrepublic": 14530,
    "Ġestimable": 23870,
    "Ġrevenge": 5452,
    "Ġlifts": 25358,
    "Ġwardrobe": 17225,
    "works": 6587,
    "active": 16101,
    "Ġprev": 6264,
    "Ġhyster": 16873,
    "remind": 23184,
    "kshire": 13745,
    "Ġblending": 14399,
    "acknowledge": 18470,
    "mitted": 5213,
    "Ġkin": 15902,
    "jackets": 24895,
    "Ġpossibly": 4510,
    "dining": 13704,
    "Ġcreatures": 4138,
    "Ġdispel": 16595,
    "ified": 3222,
    "along": 6012,
    "distinctive": 25726,
    "atherine": 2597,
    "Ġparametric": 2397,
    "yd": 21141,
    "Ġlatest": 16822,
    "rable": 11631,
    "Ġfound": 1246,
    "shabb": 18495,
    "Ġyourself": 2595,
    "spike": 16136,
    "flo": 6114,
    "Ġshoulders": 5566,
    "Ġyielding": 12184,
    "Ġalbertus": 25648,
    "Ġbureau": 11589,
    "Ġvouch": 15807,
    "Ġdollar": 25283,
    "Ġbacked": 12923,
    "athan": 2955,
    "Ġformality": 22826,
    "head": 1434,
    "³": 116,
    "hook": 12051,
    "Ġannum": 24202,
    "Ġembraced": 10005,
    "Ġpiteous": 17915,
    "alth": 3254,
    "Ġtouch": 3396,
    "Ġaverages": 2401,
    "Ġflavor": 16251,
    "Ġsnuff": 7991,
    "Ġdefilements": 26284,
    "pression": 10407,
    "Ġdelights": 14596,
    "Ġbodings": 21389,
    "Ġfaultless": 24540,
    "Ġaudience": 24769,
    "Ġ73": 24260,
    "Ġlast": 1125,
    "Ġsole": 3299,
    "inions": 8401,
    "_)âĢĶ": 20143,
    "repent": 15512,
    "we": 850,
    "Ġsemi": 11967,
    "mpus": 13756,
    "arranging": 19317,
    "Ġcontemptuously": 19832,
    "Ġreconsidered": 21670,
    "Ġoutstretched": 14195,
    "moor": 22699,
    "seem": 10227,
    "Ġpreceding": 7528,
    "directly": 13708,
    "Ġbesee": 19241,
    "Ġknife": 7309,
    "Ġscream": 5934,
    "Ġtelescope": 17347,
    "Ġadored": 18291,
    "Ġdemand": 4947,
    "aset": 10832,
    "Ġmuskets": 17056,
    "occupation": 15056,
    "ped": 6365,
    "Ġsprung": 11248,
    "Ġstupendous": 20499,
    "missing": 13217,
    "ocean": 12399,
    "Ġurging": 24505,
    "Ġfuneral": 10282,
    "Ġmechan": 1183,
    "Ġconverse": 11842,
    "Ġspring": 4122,
    "ahawk": 23314,
    "Ġwoods": 5406,
    "ene": 2168,
    "Ġmutter": 23951,
    "dering": 5305,
    "ean": 20839,
    "iss": 2176,
    "Ġgrapple": 25811,
    "Ġbowl": 11203,
    "Ġsober": 10911,
    "Ġride": 12755,
    "Ġjeer": 24123,
    "Ġlikely": 3598,
    "remarks": 23185,
    "ribut": 816,
    "Ġberth": 8679,
    "Ġboxes": 13373,
    "eries": 6808,
    "este": 15917,
    "lot": 3204,
    "Ġtyphoon": 12387,
    "istical": 8489,
    "ribes": 23362,
    "Ġsprout": 24085,
    "Ġancest": 12611,
    "Ġsingled": 23771,
    "Ġtre": 2540,
    "bearings": 25371,
    "instances": 13318,
    "lled": 10107,
    "ieves": 4005,
    "Ġaccompany": 9486,
    "Ġfain": 5808,
    "gia": 20875,
    "Ġhorrors": 10479,
    "Ġfatt": 15576,
    "Ġbanker": 8666,
    "Ġexpans": 18622,
    "in": 262,
    "urry": 13993,
    "Ġbud": 10168,
    "Ġforg": 3787,
    "~": 98,
    "Ġobserving": 6080,
    "shaven": 18494,
    "Ġportra": 9008,
    "extinguished": 16148,
    "oc": 2836,
    "agne": 21902,
    "Ġresidence": 8206,
    "Ġmainly": 22646,
    "Ġwatery": 6296,
    "Ġprosperous": 15170,
    "Ġlionel": 25286,
    "kinson": 10025,
    "Ġ184": 16606,
    "sprang": 19989,
    "Ġintended": 5548,
    "purpose": 10043,
    "dom": 6222,
    "chamber": 13624,
    "misery": 13342,
    "Ġvacant": 9494,
    "ais": 8070,
    "Ġarrest": 7409,
    "aulets": 18621,
    "Ġexploration": 2336,
    "Ġdisordered": 16053,
    "enjoyment": 17257,
    "Ġtask": 1312,
    "consciously": 19624,
    "Ġsalutation": 12395,
    "arance": 4697,
    "Ġcalculate": 13263,
    "Ġfreshe": 13068,
    "Ġlined": 15647,
    "Ġfactory": 23276,
    "buttoned": 13631,
    "Ġyoungest": 7953,
    "Ġacid": 22679,
    "include": 23588,
    "waste": 21133,
    "Ġfascinating": 17327,
    "ceive": 3064,
    "Ġrequested": 14300,
    "unciation": 25982,
    "dissatisfied": 26612,
    "wall": 10136,
    "rumours": 23897,
    "weigh": 18665,
    "âĢĿ)": 21811,
    "Ġtu": 6968,
    "Ġnug": 21522,
    "Ġworsted": 19993,
    "Ġproperly": 7944,
    "proachable": 23394,
    "Ġattent": 4358,
    "Ġimagine": 3924,
    "crime": 14781,
    "Ġconducting": 16649,
    "Ġfrozen": 9012,
    "avail": 18567,
    "claimed": 9835,
    "lost": 8887,
    "bad": 12434,
    "chains": 9684,
    "Ġmock": 3692,
    "Ġmankind": 6698,
    "Ġcorresponds": 19820,
    "Ġclatter": 22344,
    "otograph": 5826,
    "Ġnorm": 763,
    "Ġoptim": 794,
    "depth": 12797,
    "much": 3706,
    "tuesday": 17690,
    "appin": 18757,
    "car": 4211,
    "Ġlav": 13948,
    "angry": 18294,
    "again": 3400,
    "sheltered": 25585,
    "chors": 11643,
    "Ġwhirling": 12246,
    "bingleys": 19633,
    "apologizing": 26544,
    "Ġdardanelles": 26443,
    "Ġperseus": 10603,
    "Ġpreyed": 18366,
    "Ġcontest": 18473,
    "Ġwith": 348,
    "Ġkramm": 26233,
    "Ġphysiognomically": 25612,
    "melancholy": 12351,
    "out": 467,
    "Ġanaly": 1089,
    "reference": 13839,
    "Ġlaug": 3628,
    "ginger": 13162,
    "Ġmysteriously": 24601,
    "Ġcode": 1722,
    "Ġrenounce": 19466,
    "Ġpurchasing": 19874,
    "Ġunt": 2294,
    "Ġgallied": 19555,
    "Ġmadden": 10447,
    "vard": 21109,
    "Ġirreduc": 5491,
    "Ġgulp": 20027,
    "Ġowed": 10780,
    "Ġseriously": 7060,
    "ĠcÃ¦": 15552,
    "absurd": 21792,
    "xter": 9146,
    "Ġmeeting": 5193,
    "Ġthrust": 5084,
    "Ġplains": 14623,
    "Ġcream": 22717,
    "Ġfearfulness": 23512,
    "Ġsires": 21225,
    "rained": 5162,
    "Ġconsisted": 10419,
    "Ġsperma": 19050,
    "aged": 2609,
    "Ġpom": 21449,
    "welcomed": 24644,
    "Ġobtained": 7432,
    "wrinkled": 16553,
    "owl": 12680,
    "cable": 20796,
    "Ġannoy": 17198,
    "Ġmungo": 25631,
    "idation": 5022,
    "Ġevermore": 18810,
    "ura": 1053,
    "rush": 7010,
    "Ġallows": 3229,
    "Ġoffensive": 18694,
    "Ġskiff": 16162,
    "mortal": 10112,
    "Ġstarts": 16581,
    "Ġestablishment": 13578,
    "Ġviews": 7290,
    "Ġmanaged": 7905,
    "Ġlabors": 23325,
    "Ġincidents": 9299,
    "Ġfurious": 10354,
    "rubbed": 22181,
    "Ġbags": 24537,
    "Ġtruly": 4796,
    "pillar": 5619,
    "consternation": 16912,
    "Ġpiece": 5367,
    "Ġbored": 16103,
    "Ġabsurd": 7202,
    "Ġstray": 18069,
    "original": 9084,
    "oir": 21001,
    "entle": 1740,
    "ø": 185,
    "calabash": 22893,
    "Ġsubproblems": 12954,
    "weather": 7229,
    "elag": 12655,
    "Ġsings": 15504,
    "------": 12131,
    "dÃ¦mon": 17527,
    "console": 22470,
    "insurance": 18888,
    "tempestuous": 26097,
    "Ġolfactories": 26171,
    "Ġvig": 5460,
    "kne": 20934,
    "pagan": 17285,
    "gings": 7549,
    "etite": 21576,
    "Ġfood": 5080,
    "Ġherbage": 25996,
    "unbounded": 21882,
    "Ġglove": 14492,
    "wear": 22680,
    "oding": 1463,
    "Ġimitation": 22168,
    "Ġrole": 15995,
    "Ġellenborough": 26154,
    "covenant": 23561,
    "astrous": 15884,
    "ony": 3027,
    "Ġcove": 22578,
    "Ġmiscellaneous": 17462,
    "Ġexposed": 8522,
    ":âĢĶ": 4429,
    "Ġhomely": 25219,
    "Ġslu": 13835,
    "Ġgeorgia": 23884,
    "Ġsimpler": 2047,
    "Ġinvestigated": 25386,
    "Ġlament": 7856,
    "murdered": 12200,
    "Ġdeputation": 21837,
    "iver": 2048,
    "uce": 11535,
    "Ġlife": 1354,
    "accompl": 9879,
    "Ġdazzling": 15210,
    "unhes": 21872,
    "Ġislets": 21798,
    "imper": 13996,
    "separation": 25226,
    "Ġreve": 2932,
    "Ġobtaining": 16130,
    "Ġworked": 6583,
    "Ġgret": 21598,
    "supper": 12917,
    "mingled": 14712,
    "Ġtransf": 22434,
    "Ġbriefly": 11367,
    "philosop": 9567,
    "ard": 465,
    "process": 11148,
    "kward": 6958,
    "Ġexagger": 12715,
    "Ġpurp": 2394,
    "Ġdesigns": 13013,
    "Ġmajority": 13291,
    "Ġleaks": 16447,
    "Ġ27": 8614,
    "Ġbarque": 23789,
    "delay": 16698,
    "Ġdynam": 3238,
    "Ġcontracted": 12857,
    "plague": 21956,
    "Ġhumour": 7931,
    "Ġburton": 23651,
    "Ġcorrespond": 6209,
    "Ê": 139,
    "Ġscandalous": 24879,
    "Ġtortoise": 16908,
    "Ġguitar": 16268,
    "try": 7812,
    "note": 14339,
    "Ġdistinct": 4606,
    "Ġreceptacle": 23188,
    "coarse": 16486,
    "supernatural": 19778,
    "Ġcooked": 13268,
    "apers": 3483,
    "wr": 3026,
    "aculate": 16080,
    "Ġdomestic": 6910,
    "Ġhilarity": 20296,
    "fol": 4862,
    "Ġbag": 5699,
    "tell": 1380,
    "Ġdestination": 19149,
    "Ġapproach": 870,
    "Ġcarrying": 6071,
    "Ġstop": 2502,
    "countryman": 24639,
    "drown": 13703,
    "which": 1709,
    "Ġforced": 4350,
    "swallow": 24257,
    "quis": 7869,
    "Ġisland": 4047,
    "Ġbass": 17855,
    "Ġmurky": 19201,
    "contrast": 25594,
    "bowing": 24454,
    "Ġextent": 7655,
    "Ġnut": 12643,
    "Ġele": 1963,
    "Ġscorch": 20065,
    "companions": 15023,
    "abez": 10222,
    "Ġprevents": 2561,
    "acter": 2507,
    "ented": 4346,
    "Ġbene": 2031,
    "Ġlegend": 14574,
    "nailed": 20995,
    "Ġyes": 2692,
    "ators": 7829,
    "Ġsatisfactory": 11192,
    "ģ": 228,
    "def": 1452,
    "believed": 9932,
    "islands": 21374,
    "jure": 20923,
    "igan": 21696,
    "Ġconfed": 13097,
    "lins": 2025,
    "vo": 11539,
    "Ġnosegay": 24191,
    "tal": 17670,
    "Ġparasol": 22118,
    "Ġgrandfather": 19420,
    "Ġcolonnades": 26275,
    "Ġoaken": 13864,
    "posted": 24635,
    "addressed": 13384,
    "valuable": 8248,
    "Ġomens": 21326,
    "\"": 6,
    "pike": 11514,
    "Ġarrangements": 16514,
    "ĠĠĠĠĠĠĠĠĠĠĠĠĠĠĠĠĠĠĠĠĠĠĠĠĠĠĠĠĠĠĠĠĠĠĠĠĠĠĠĠĠĠ": 24208,
    "Ġmilk": 6485,
    "Ġage": 3895,
    "Ġstig": 14001,
    "Ġostr": 21323,
    "hunt": 20902,
    "Ġthroughout": 8876,
    "relig": 15511,
    "ominy": 13977,
    "Ġgreyish": 24207,
    "roy": 7853,
    "Ġexplanations": 15908,
    "Ġimmemorial": 10510,
    "iferous": 17291,
    "Ġdanish": 21429,
    "Ġdisgu": 8205,
    "Ġmeasurement": 19421,
    "Ġtropic": 17064,
    "Ġhideousness": 16915,
    "abominable": 20592,
    "eping": 5833,
    "umbrance": 22115,
    "Ġwor": 1188,
    "Ġincapable": 7423,
    "pans": 13769,
    "Ġhorseman": 19606,
    "Ġcoverage": 4286,
    "Ġbingley": 1674,
    "Ġottoman": 17377,
    "Ġtang": 13813,
    "Ġbale": 7838,
    "gigantic": 15358,
    "Ġirregular": 9864,
    "Ġallow": 1129,
    "Ġwooden": 4730,
    "Ġcollateral": 20070,
    "Ġyarman": 12702,
    "Ġhelmet": 19686,
    "Ġtis": 15464,
    "ationally": 15702,
    "soon": 4026,
    "Ġlent": 21544,
    "Ġfrequented": 16584,
    "aks": 8506,
    "res": 2762,
    "Ġwhence": 5839,
    "Ġmim": 3105,
    "ference": 1882,
    "Ġdeportment": 22606,
    "ogn": 2462,
    "Ġbreathes": 13245,
    "Ġresc": 4503,
    "ee": 1657,
    "dismal": 23497,
    "une": 2787,
    "Ġadrift": 11720,
    "Ġbars": 13896,
    "amaz": 21841,
    "Ġcompromised": 22569,
    "amongst": 24672,
    "Ġsly": 9632,
    "Ġlombardy": 26463,
    "whar": 15925,
    "Ġretribution": 16280,
    "itche": 7578,
    "Ġfavours": 23278,
    "Ġ3": 3984,
    "Ġobserved": 3541,
    "hill": 15361,
    "Ġjohn": 5032,
    "Ġinherit": 25352,
    "animals": 24738,
    "lucky": 24545,
    "rian": 10241,
    "entiating": 3439,
    "Ġaimed": 20249,
    "Ġforeheads": 23447,
    "Ġsymbol": 7716,
    "Ġclin": 14201,
    "tes": 11528,
    "Ġicelandic": 25886,
    "Ġorgans": 15863,
    "fire": 6357,
    "heavenly": 20043,
    "Ġsleeping": 6319,
    "produce": 20281,
    "storm": 9681,
    "ī": 236,
    "Ġemb": 1247,
    "resnet": 4068,
    "Ġrecollect": 8309,
    "rily": 7621,
    "bern": 20774,
    "Ġperished": 11782,
    "coll": 23778,
    "Ġscraping": 13415,
    "Ġdifferently": 10388,
    "Ġspots": 11727,
    "Ġcomprises": 22570,
    "writ": 16552,
    "Ġdimin": 3871,
    "Ġxv": 23405,
    "Ġdis": 695,
    "bro": 4033,
    "Ġobstacles": 19834,
    "irted": 14071,
    "Ġbravery": 23834,
    "Ġastir": 14640,
    "Ġghast": 9209,
    "Ġparade": 18301,
    "Ġleviathans": 8281,
    "erated": 21270,
    "Ġsaluted": 14757,
    "Ġmusk": 7494,
    "verbally": 25360,
    "Ġpleasant": 4170,
    "Ġwards": 17789,
    "Ġtropical": 17065,
    "giana": 7800,
    "Ġjustice": 5111,
    "yonder": 21143,
    "Ġleeward": 6210,
    "Ġinjuries": 11277,
    "Ġpebbles": 16127,
    "Ġwre": 5077,
    "Ġshameful": 19851,
    "Ġmachines": 1775,
    "Ġincom": 9768,
    "stript": 21654,
    "Ġrepul": 16407,
    "anish": 2620,
    "Ġimpelling": 22384,
    "pious": 17633,
    "Ġsympath": 4861,
    "Ġselects": 4382,
    "Ġcro": 4873,
    "Ġashamed": 6403,
    "Ġtransportation": 13641,
    "Ġindications": 14632,
    "Ġentire": 2563,
    "bear": 10314,
    "keys": 15856,
    "Ġscrupulous": 20067,
    "Ġelegance": 11332,
    "ihood": 20921,
    "Ę": 217,
    "Ġdecreasing": 2444,
    "Ġwoodcock": 19162,
    "Ġinsip": 19266,
    "devoted": 20015,
    "inence": 15480,
    "aft": 9583,
    "Ġbarnacled": 25536,
    "oft": 3591,
    "coffin": 10662,
    "Ġhumph": 22881,
    "Ġdish": 6136,
    "Ġsternly": 16715,
    "Ġverbal": 19377,
    "Ġwrought": 11942,
    "edy": 2860,
    "Ġdevoting": 22723,
    "Ġelephants": 9863,
    "Ġeu": 6390,
    "Ġbubb": 12581,
    "ains": 5094,
    "scotch": 25850,
    "Ġforgo": 21770,
    "Ġhedges": 19983,
    "drink": 10595,
    "Ġwhine": 21712,
    "Ġgord": 21597,
    "Ġumb": 11645,
    "pronounce": 25192,
    "Ġatone": 15800,
    "lun": 20945,
    "Ġpantry": 20294,
    "wretched": 10742,
    "Ġflames": 7939,
    "upper": 11538,
    "Ġwhelmed": 25999,
    "Ġreading": 5114,
    "powers": 25410,
    "Ġwire": 13851,
    "actory": 8907,
    "poling": 12217,
    "Ġdiscernible": 15068,
    "Ġtrowsers": 9627,
    "thar": 18217,
    "Ġveins": 8932,
    "Ġprofessors": 14724,
    "Ġharder": 14448,
    "everybody": 8610,
    "Ġnursery": 19749,
    "Ġwillow": 18531,
    "Ġfeast": 10277,
    "Ġdisappearing": 22530,
    "Ġtainted": 21169,
    "Ġassure": 4415,
    "Ġcyp": 21343,
    "whew": 22866,
    "vate": 21108,
    "Ġmorrow": 9342,
    "ust": 495,
    "Ġsexes": 25168,
    "unwilling": 14060,
    "he": 264,
    "Ġvariously": 18653,
    "Ġdeceive": 12719,
    "conda": 18992,
    "Ġpertin": 18450,
    "Ġpoliceman": 15257,
    "Ġfare": 5809,
    "astic": 1868,
    "Ġinquire": 7719,
    "Ġhut": 15616,
    "mantel": 26394,
    "lie": 12480,
    "Ġreminisc": 18726,
    "Ġsecurity": 8977,
    "Ġatonement": 21939,
    "Ġsinful": 18948,
    "Ġwall": 3841,
    "Ġdavis": 25952,
    "Ġringleader": 26212,
    "ht": 375,
    "Ġleech": 24154,
    "accountable": 7109,
    "Ġtickled": 20055,
    "icle": 10834,
    "Ġterrible": 5327,
    "buncle": 13691,
    "parlour": 16389,
    "Ġimpetuously": 20370,
    "Ġtusked": 25426,
    "Ġpatched": 16352,
    "Ġtheories": 13848,
    "Ġreasoned": 23067,
    "chant": 4257,
    "Ġhastily": 5763,
    "Ġimprudence": 10297,
    "Ġthine": 7374,
    "Ġfedallah": 6108,
    "Ġbake": 21380,
    "Ġintric": 9246,
    "Ġqualities": 7533,
    "Ġubiquitous": 26195,
    "Ġfight": 5366,
    "therly": 18346,
    "Ġraised": 4660,
    "osoever": 17342,
    "horrors": 20540,
    "Ġcost": 2506,
    "passage": 11261,
    "unquiet": 21878,
    "Ġsnake": 12059,
    "leads": 21368,
    "Ġsmooth": 2780,
    "÷": 184,
    "Ġjuly": 17236,
    "uteronomy": 15661,
    "Ġinterruptions": 24185,
    "Ġconvivial": 16547,
    "remain": 9837,
    "bearance": 22491,
    "Ġassume": 10515,
    "Ġsolemnisation": 24112,
    "ground": 4671,
    "hello": 13362,
    "abhorred": 17335,
    "knows": 19171,
    "instinct": 19542,
    "names": 16531,
    "¢": 100,
    "dignity": 15344,
    "Ġcl": 553,
    "angel": 5726,
    "Ġdil": 6383,
    "Ġextremities": 19195,
    "Ġwicked": 5960,
    "ļ": 253,
    "Ġshel": 6847,
    "Ġunderstood": 5655,
    "Ġecstasy": 11629,
    "althy": 8431,
    "arding": 22154,
    "vain": 15446,
    "poise": 6171,
    "Ġcompetition": 14267,
    "thank": 4950,
    "Ġsubstit": 19539,
    "Ġsteam": 9352,
    "fr": 4804,
    "Ġbite": 10797,
    "Ġdoleful": 18377,
    "spirited": 19752,
    "Ġchry": 22243,
    "mature": 20966,
    "Ġoverl": 18428,
    "obstructed": 15225,
    "Ġtheme": 16017,
    "Ġstreatham": 17448,
    "whal": 10940,
    "Ġunparalleled": 15851,
    "Ġregularization": 1196,
    "Ġprogress": 5023,
    "Ġbreeze": 5681,
    "scent": 13018,
    "Ġstatements": 7516,
    "Ġrecklessly": 16983,
    "third": 8167,
    "ode": 1454,
    "Ġbull": 7839,
    "ifers": 15779,
    "Ġadvert": 10571,
    "Ġ(_": 3736,
    "Ġlaure": 16909,
    "iquette": 26132,
    "Ġ76": 24262,
    "Ġpronounce": 16968,
    "Ġpolite": 9881,
    "ineffectual": 26507,
    "Ġpeg": 22686,
    "deficient": 23114,
    "ĠarchÃ¦": 22752,
    "ame": 645,
    "aphs": 22333,
    "empl": 5724,
    "Ġattributed": 11831,
    "reated": 10302,
    "inspector": 13645,
    "ex": 624,
    "Ġarrange": 3119,
    "Ġapply": 1776,
    "elev": 12456,
    "farmer": 25899,
    "Ġflood": 7715,
    "Ġlove": 2053,
    "Ġpleases": 16296,
    "Ġsurging": 19133,
    "Ġflip": 11911,
    "Ġgem": 21591,
    "Ġsepul": 14088,
    "smooth": 20247,
    "Ġmurmuring": 23578,
    "Ġpeevish": 26557,
    "wa": 5896,
    "Ġcommonplace": 11096,
    "Ġreaders": 18914,
    "itigated": 23042,
    "Ġhope": 1787,
    "ifferent": 4261,
    "dramatic": 19383,
    "Ġuncles": 23429,
    "Ġwounds": 17790,
    "lover": 18537,
    "wholly": 10941,
    "armon": 23054,
    "Ġ131": 24782,
    "feels": 22509,
    "bler": 11472,
    "mped": 16647,
    "amid": 12721,
    "ctors": 21587,
    "Ġrheumatic": 20704,
    "lift": 15383,
    "Ġunctuousness": 17234,
    "Ġdealing": 14046,
    "Ġguardian": 14941,
    "Ġdevotees": 25376,
    "Ġdad": 12597,
    "Ġcrabs": 19173,
    "iscreet": 20681,
    "Ġcourtship": 24135,
    "Ġrun": 2354,
    "Ġtrip": 16788,
    "Ġpowder": 11275,
    "ioning": 21506,
    "istle": 15868,
    "exactly": 10636,
    "plied": 10255,
    "Ġgn": 8817,
    "Ġvalidation": 2356,
    "lantic": 6363,
    "Ġderived": 8238,
    "winds": 10521,
    "bery": 9786,
    "Ġoff": 902,
    "Ġsemblance": 20733,
    "Ġbarber": 23788,
    "Ġconfidence": 6590,
    "Ġintegrity": 12311,
    "Ġval": 968,
    "nowled": 5470,
    "Ġcompassionate": 24723,
    "Ġvitality": 15171,
    "herds": 22200,
    "Ġguise": 14431,
    "Ġindu": 5293,
    "Ġdin": 3626,
    "Ġreel": 9213,
    "Ġturbid": 23610,
    "ace": 715,
    "Ġregulate": 22585,
    "Ġresearches": 13130,
    "Ġwhereon": 16099,
    "Ġimprovements": 14510,
    "bran": 23573,
    "Ġskylight": 24070,
    "Ġerect": 6143,
    "Ġchiswick": 25560,
    "pine": 13768,
    "mown": 20969,
    "Ġerskine": 17431,
    "Ġlion": 9675,
    "Ġinsensibly": 20074,
    "Ġgoes": 3851,
    "halfway": 24311,
    "Ġig": 3502,
    "Ġreciproc": 20620,
    "elson": 16371,
    "Ġbee": 21746,
    "Ġabundance": 17155,
    "î": 175,
    "imental": 16533,
    "germans": 20564,
    "cc": 472,
    "ynolds": 10035,
    "conversation": 7122,
    "Ġterrify": 19359,
    "resp": 13838,
    "exped": 16524,
    "Ġin": 291,
    "Ġlesson": 7276,
    "Ġinstances": 5568,
    "sal": 8757,
    "blame": 14792,
    "charmed": 21693,
    "Ġindependently": 4245,
    "rison": 13778,
    "originally": 24937,
    "draught": 12087,
    "Ġradney": 6775,
    "hens": 3937,
    "Ġbeget": 9225,
    "Ġinitials": 11014,
    "ersburgh": 18209,
    "wig": 17704,
    "Ġdependencies": 2313,
    "Ġdangers": 12352,
    "Ġnormalizes": 1862,
    "fury": 17547,
    "Ġslime": 23158,
    "Ġsnapped": 9896,
    "mathemat": 19137,
    "Ġexpressions": 7705,
    "emone": 21924,
    "arn": 357,
    "Ġrecre": 22735,
    "Ġexasper": 8466,
    "coast": 10449,
    "advanced": 19587,
    "scorn": 22988,
    "satisfaction": 9991,
    "cou": 13694,
    "Ġhow": 598,
    "Ġsheeted": 19830,
    "Ġcurly": 18843,
    "Ġannouncing": 16754,
    "Ġirksome": 13110,
    "earnest": 12397,
    "acup": 14277,
    "Ġpirates": 9073,
    "Ġrotterdam": 25475,
    "Ġplays": 12035,
    "Ġforming": 7042,
    "Ġdupl": 9953,
    "Ġepsom": 19981,
    "abilizing": 2924,
    "vigorous": 25917,
    "rants": 13777,
    "Ġrobinson": 17463,
    "Ġviolence": 5962,
    "ina": 21178,
    "Ġexclamation": 8698,
    "uity": 12515,
    "Ġhated": 7584,
    "Ġfiled": 15577,
    "Ġvalu": 5039,
    "Ġcircumnav": 12424,
    "luxur": 25822,
    "Ġseizure": 21954,
    "Ġadapt": 1010,
    "Ġillum": 9399,
    "Ġlangsdorff": 15275,
    "Ġderbyshire": 6586,
    "bec": 4051,
    "deemed": 18315,
    "riors": 18183,
    "Ġiii": 7860,
    "decided": 13214,
    "Ġtreat": 3174,
    "intu": 22930,
    "Ġplanned": 14751,
    "Ġunfolded": 10638,
    "Ġdiligently": 11405,
    "mouth": 9130,
    "Ġstranger": 3487,
    "Ġbrixton": 13662,
    "Ġbeauty": 3770,
    "lion": 20943,
    "Ġforgery": 25977,
    "Ġstile": 21729,
    "Ġrejoinder": 24597,
    "Ġbenevolent": 7772,
    "dropped": 12260,
    "Ġbrief": 6976,
    "lighter": 20958,
    "Ġguilt": 6179,
    "othing": 6995,
    "af": 2376,
    "glings": 23849,
    "Ġscotland": 6639,
    "Ġbead": 21747,
    "umber": 5241,
    "phant": 6287,
    "Ġwalled": 15533,
    "copy": 5133,
    "Ġdying": 2135,
    "Ġallusion": 7625,
    "iot": 9600,
    "Ġremoval": 12115,
    "Ġbeard": 11654,
    "Ġencamp": 22798,
    "Ġjen": 9266,
    "Ġroots": 11185,
    "Ġchancery": 20715,
    "Ġfinancial": 23125,
    "Ġportions": 19367,
    "Ġprobability": 1127,
    "Ġmatter": 1735,
    "reliable": 21239,
    "ilated": 18057,
    "desolate": 25703,
    "Ġconsistent": 14527,
    "Ġgood": 1001,
    ",âĢĶâĢĺ": 23801,
    "advice": 12155,
    "Ġbenjamin": 26567,
    "ite": 712,
    "Ġslaves": 23163,
    "Ġattractions": 12913,
    "Ġhappens": 2188,
    "Ġparallelization": 3432,
    "yea": 23085,
    "prejudiced": 17296,
    "resol": 17760,
    "Ġthree": 1372,
    "Ġbaronial": 23792,
    "Ġmagnitude": 1942,
    "althily": 19357,
    "Ġgushed": 21604,
    "prov": 16420,
    "Ġfade": 21405,
    "Ġmoves": 14231,
    "Ġguineas": 16269,
    "equally": 19898,
    "Ġevenly": 4130,
    "erie": 21269,
    "Ġfame": 21404,
    "plutarch": 21960,
    "aried": 10987,
    "mr": 1901,
    "Ġfoundering": 21417,
    "ire": 492,
    "stump": 21650,
    "Ġboys": 5194,
    "arms": 10173,
    "Ġevian": 24292,
    "Ġsteady": 4847,
    "hall": 8084,
    "och": 21000,
    "Ġensue": 18190,
    "Ġinfl": 6893,
    "Ġvariations": 22663,
    "Ġimperson": 14219,
    "Ġnobleman": 19390,
    "Ġfavoring": 2344,
    "Ġdisclosed": 15152,
    "heads": 4095,
    "test": 13791,
    "Ġcandelab": 23846,
    "onial": 11566,
    "independent": 26021,
    "Ġprofuse": 23565,
    "Ġcharacteristically": 23689,
    "ieving": 7031,
    "Ġprinces": 23221,
    "Ġcens": 8412,
    "Ġredeemed": 25789,
    "Ġlanguid": 14213,
    "adventures": 20255,
    "Ġjur": 12831,
    "Ġmaid": 5285,
    "Ġsensibly": 14513,
    "Ġbending": 12582,
    "Ġdeep": 823,
    "has": 4012,
    "Ġcharged": 9853,
    "Ġcompliance": 12112,
    "Ġembra": 6578,
    "Ġdons": 17888,
    "sleet": 20148,
    "charlotte": 6473,
    "Ġfog": 9661,
    "Ġnaked": 8126,
    "jewel": 20345,
    "Ġinexhaustible": 16981,
    "Ġ135": 24785,
    "Ġdeductions": 19732,
    "Ġtall": 4037,
    "Ġbeh": 1802,
    "fee": 12880,
    "Ġcryst": 9916,
    "Ġvital": 9242,
    "Ė": 215,
    "Ġdecrease": 4200,
    "rib": 1944,
    "orum": 12587,
    "Ġwisdom": 11233,
    "Ġvalleys": 14918,
    "Ġand": 295,
    "pen": 1204,
    "Þ": 159,
    "Ġlashing": 11615,
    "Ġfresher": 23207,
    "Ġs": 265,
    "enterprise": 24992,
    "sailed": 17666,
    "Ġopium": 8994,
    "Ġjoky": 18406,
    "Ġbeaches": 18084,
    "ios": 2199,
    "Ġsher": 3764,
    "Ġdespatched": 23827,
    "Ġlimp": 19179,
    "Ġgovernments": 20266,
    "arrange": 23765,
    "Ġhammer": 6093,
    "Ġthirds": 16708,
    "Ġcontro": 1685,
    "Ġdist": 679,
    "Ġhoisted": 5959,
    "pleas": 3850,
    "Ġmanipulation": 10658,
    "Ġswimming": 5507,
    "inexplicable": 25809,
    "Ġeffemin": 18527,
    "judged": 14829,
    "Ġnash": 5819,
    "azore": 23461,
    "Ġgreat": 894,
    "Ġadvers": 4887,
    "Ġfever": 6558,
    "transition": 24513,
    "Ġcry": 3497,
    "Ġmemories": 14541,
    "Ġbedrooms": 19968,
    "Ġoccupant": 16651,
    "Ġpondered": 15165,
    "Ġtreachery": 15100,
    "Ġpaddles": 15146,
    "Ġmoran": 9341,
    "Ġbordering": 17228,
    "Ġgreatly": 5849,
    "ouses": 5163,
    "Ġsunbeam": 23274,
    "Ġtrop": 7565,
    "Ġangels": 11178,
    "carrying": 16712,
    "Ġrig": 4224,
    "Ġwashing": 9704,
    "Ġboth": 1653,
    "mes": 1197,
    "Ġoverlapping": 26238,
    "Ġrele": 2917,
    "uzz": 4521,
    "Ġgeneralization": 983,
    "bedstead": 23847,
    "Ġmorose": 18849,
    "ra": 314,
    "usoid": 4767,
    "relu": 17759,
    "streamed": 25966,
    "Ġinvite": 14563,
    "Ġcertain": 1557,
    "ifiable": 18163,
    "Ġcircum": 8257,
    "Ġcommunic": 5751,
    "carbuncle": 26382,
    "plate": 18207,
    "Ġrepose": 6741,
    "Ġbony": 12584,
    "itable": 5437,
    "Ġtimidly": 11338,
    "Ġprecision": 13186,
    "Ġhandled": 12934,
    "Ġvexation": 10586,
    "fisher": 7547,
    "Ġvapors": 19907,
    "ks": 3145,
    "Ġmiriam": 25273,
    "Ġfowler": 16937,
    "Ġundue": 25993,
    "Ġdesperate": 7776,
    "Ġengaging": 9335,
    "cept": 557,
    "ang": 446,
    "Ġtrout": 22336,
    "Ġignorant": 5343,
    "engineer": 23145,
    "intelligent": 16844,
    "Ġscott": 22278,
    "Ġneural": 618,
    "Ġsoldiers": 8686,
    "sebastian": 21817,
    "hammad": 23262,
    "box": 5749,
    "Ġabandonment": 25603,
    "Ġdisadvantage": 12887,
    "itting": 1152,
    "Ġassemblage": 26351,
    "Ġpainting": 13140,
    "c": 71,
    "Ġsaw": 1351,
    "awake": 14451,
    "Ġsensation": 6895,
    "Ġchocks": 13344,
    "Ġpeas": 8533,
    "Ġmartyr": 26360,
    "Ġmamm": 25090,
    "ne": 648,
    "Ġpo": 737,
    "Ġlengthened": 25958,
    "Ġpiazza": 26450,
    "swear": 16918,
    "Ġcous": 3438,
    "barbaric": 26358,
    "infor": 3042,
    "Ġtreas": 7358,
    "Ġobligation": 13243,
    "Ġaltern": 7394,
    "Ġwheel": 9717,
    "neighboring": 20615,
    "Ġsum": 2703,
    "====": 1483,
    "Ġadmit": 7710,
    "Ġtorment": 8673,
    "Ġcirclings": 26431,
    "Ġdemanded": 8326,
    "Ġaperture": 26160,
    "Ġruffled": 25835,
    "joke": 20929,
    "Ġtree": 5284,
    "Ġtrans": 631,
    "failed": 20862,
    "ondescript": 22912,
    "Ġthen": 664,
    "Ġneatly": 17016,
    "Ġextrem": 2475,
    "Ġfluctuations": 5516,
    "Ġreview": 18030,
    "Ġwont": 9850,
    "âĢĶâĢľ_": 13203,
    "Ġregularizer": 2339,
    "susceptible": 24661,
    "Ġextinguished": 10341,
    "ede": 21503,
    "oration": 2210,
    "kes": 3679,
    "Ġrenewing": 19809,
    "Ġmeditative": 25014,
    "Ġgoble": 14229,
    "Ġ[_": 15460,
    "Ġpoised": 22588,
    "Ġsho": 2246,
    "stranded": 19224,
    "Ġwildly": 9413,
    "jar": 17577,
    "Ġenigmatical": 20596,
    "Ġepit": 18006,
    "wat": 6231,
    "ouched": 4636,
    "temper": 10003,
    "Ġstrang": 4161,
    "Ġinsurance": 23680,
    "mock": 5174,
    "liv": 9607,
    "religion": 20574,
    "itute": 9651,
    "Ġancestry": 25641,
    "twenty": 6607,
    "Ġlinn": 13952,
    "Ġformer": 3324,
    "Ġfancies": 10424,
    "arle": 21438,
    "ojo": 7349,
    "Ġlighten": 23258,
    "shutters": 20310,
    "Ġdesertion": 24787,
    "Ġlane": 5627,
    "'t": 3144,
    "announcement": 24562,
    "cet": 15324,
    "Ġisrael": 21800,
    "Ġevince": 24293,
    "illation": 14141,
    "preserver": 20212,
    "vy": 21106,
    "attached": 11933,
    "misfortunes": 16756,
    "Ġwidower": 24235,
    "clo": 5613,
    "Ġinfancy": 10409,
    "ush": 3633,
    "nings": 9131,
    "Ġshunned": 17292,
    "glasses": 11215,
    "tracks": 19637,
    "causing": 25518,
    "nals": 16397,
    "birth": 15321,
    "Ġbustle": 17227,
    "experience": 17158,
    "Ġbreed": 19073,
    "Ġautoregressive": 3433,
    "Ġwint": 15531,
    "Ġelse": 2480,
    "sleepy": 24729,
    "dislike": 23494,
    "Ġbrawny": 13612,
    "Ġfortifications": 23619,
    "Ġsolicited": 20035,
    "Ġtasks": 1786,
    "st": 316,
    "Ġdow": 17886,
    "mur": 5428,
    "Ġdownst": 3559,
    "Ġacquit": 18897,
    "newsp": 23130,
    "clay": 18930,
    "typewritten": 26038,
    "Ġghostliness": 24651,
    "Ġservants": 6610,
    "Ġbernard": 20683,
    "eprints": 12789,
    "hers": 7635,
    "Ġgiver": 21602,
    "mund": 13757,
    "Ġprogen": 14039,
    "Ġliberties": 19666,
    "Ġaug": 6234,
    "Ġinto": 649,
    "Ġsmall": 891,
    "clearly": 25195,
    "Ġswords": 19896,
    "nx": 17607,
    "ĠlinnÃ¦us": 15274,
    "Ġseals": 11693,
    "Ġdisgra": 18549,
    "Ġbackpropagation": 1280,
    "Ġvault": 8840,
    "vices": 21115,
    "Ġextravag": 11253,
    "Ġfluctuating": 24417,
    "atural": 946,
    "Ġwink": 11568,
    "Ġpoison": 7219,
    "Ġdoing": 3662,
    "Ġunintelligible": 26514,
    "Ġshaft": 18229,
    "Ġrisk": 8038,
    "Ġraptures": 13496,
    "Ġaforethought": 25428,
    "ingale": 21298,
    "Ġconfined": 7465,
    "Ġguid": 2642,
    "bted": 7793,
    "prevailed": 17344,
    "Ġruff": 14348,
    "Ġpursuit": 4733,
    "rine": 21036,
    "Ġdiffused": 12066,
    "connections": 14427,
    "Ġshrugged": 12766,
    "Ġfairer": 20460,
    "Ġunforgiving": 25995,
    "Ġinstigated": 18698,
    "Ġleg": 2335,
    "iature": 8741,
    "Ġrepent": 9862,
    "inkled": 5477,
    "Ġting": 8397,
    "histicated": 20900,
    "Ġcrosses": 23059,
    "Ġcate": 4110,
    "unhesitatingly": 26496,
    "Ġjun": 8505,
    "Ġsqualid": 14365,
    "Ġspouts": 7729,
    "Ġaccuse": 14211,
    "Ġaffording": 14819,
    "Ġaggregated": 25678,
    "Ġexpedite": 24953,
    "Ġround": 1371,
    "Ġgoethe": 22419,
    "yth": 981,
    "ildad": 3532,
    "Ġguilty": 7250,
    "icha": 11736,
    "inity": 5693,
    "impe": 21705,
    "ette": 15656,
    "renew": 24450,
    "orial": 8416,
    "appear": 13195,
    "tout": 21064,
    "Ġforgiveness": 16656,
    "practised": 20246,
    "crop": 20797,
    "Ġsoftmax": 1687,
    "organ": 15571,
    "Ġbremen": 23341,
    "Ġmach": 13856,
    "lovel": 22506,
    "Ġclustered": 25233,
    "Ġaffability": 14386,
    "shriek": 20518,
    "Ġavoid": 5199,
    "ened": 1389,
    "Ġargosy": 24273,
    "Ġlistless": 16475,
    "Ġisles": 8459,
    "consent": 18503,
    "iop": 20918,
    "Ġoverseeing": 22360,
    "ming": 3602,
    "Ġdistended": 16040,
    "Ġadvance": 5484,
    "slanting": 24558,
    "Ġremains": 4908,
    "Ġpotent": 12060,
    "Ġcoffins": 13249,
    "Ġwakeful": 24266,
    "Ġtimid": 6345,
    "Ġinvariable": 13455,
    "Ġprofile": 16487,
    "Ġinfluence": 5515,
    "Ġeluc": 16106,
    "Ġruins": 16156,
    "itia": 11578,
    "Ġthw": 21512,
    "Ġchestnuts": 24381,
    "Ġnooks": 26011,
    "entreaties": 26185,
    "Ġoptimizers": 18628,
    "Ġthoroughfare": 16944,
    "mosphere": 10042,
    "izzy": 3095,
    "Ġdepression": 21838,
    "Ġapparel": 20434,
    "orted": 4600,
    "Ġducking": 17146,
    "hills": 13735,
    "prepare": 20211,
    "Ġintegrated": 13530,
    "Ġjoyful": 13219,
    "Ġactiv": 834,
    "Ġposterity": 17401,
    "Ġskills": 1839,
    "enes": 5218,
    "lifted": 15385,
    "Ġhosea": 17330,
    "ashing": 4824,
    "Ġwatchman": 23667,
    "Ġblessing": 11263,
    "'s": 2470,
    "Ġclenched": 14204,
    "anse": 12572,
    "Ġsqu": 1036,
    "tomorrow": 25914,
    "Ġpol": 2579,
    "Ġhorr": 3188,
    "Ġinquiries": 5678,
    "Ġpierce": 17036,
    "awk": 23111,
    "Ġbelieving": 8224,
    "gathered": 13731,
    "Ġintolerable": 8481,
    "Ġanimating": 23422,
    "Ġclamped": 18426,
    "ruit": 22178,
    "read": 3274,
    "Ġeastern": 11628,
    "striving": 24669,
    "Ġbub": 8117,
    "Ġimm": 3965,
    "Ġdeposed": 16085,
    "Ġrange": 9711,
    "Ġone": 567,
    "bounded": 13438,
    "Ġray": 18642,
    "Ġconsummate": 25310,
    "Ġwidth": 16772,
    "Ġbough": 13893,
    "traversed": 19638,
    "Ġmaze": 23828,
    "Ġdictionary": 15111,
    "Ġsoles": 22082,
    "Ġdick": 3498,
    "houses": 9599,
    "Ġsquared": 1383,
    "volutional": 1934,
    "Ġreconciled": 13586,
    "Ġpot": 2988,
    "Ġmisanthrop": 22757,
    "Ġxlvi": 25590,
    "abilities": 3233,
    "Ġxxxiv": 24967,
    "scr": 16242,
    "position": 15412,
    "loved": 14250,
    "Ġconceal": 5973,
    "elt": 4116,
    "Ġindisposed": 26287,
    "grammar": 6435,
    "elop": 1527,
    "Ġmechanically": 14397,
    "concluded": 11242,
    "rich": 11517,
    "invite": 25088,
    "Ġinformed": 6717,
    "Ġoccupations": 9457,
    "ved": 869,
    "gentleman": 7518,
    "Ġdegenerating": 25799,
    "infl": 15486,
    "Ġ70": 11276,
    "Ġinspector": 6498,
    "Ġgash": 15668,
    "assistance": 20369,
    "Ġembedding": 2104,
    "endent": 15920,
    "Ġhysterics": 26093,
    "uries": 6147,
    "ferences": 10326,
    "fight": 17538,
    "quadr": 15761,
    "Ġachieves": 4376,
    "thur": 7188,
    "mency": 18925,
    "missionary": 24615,
    "Ġaffront": 18788,
    "connected": 1311,
    "itiously": 13870,
    "whatsoever": 18487,
    "Ġdeceit": 13480,
    "Ġ86": 24461,
    "ozy": 17622,
    "perfectly": 9085,
    "Ġhelper": 24023,
    "Ġshan": 9248,
    "ens": 701,
    "Ġandrew": 21504,
    "precip": 14664,
    "Ġswart": 14433,
    "roman": 22001,
    "Ġsoliloquized": 17301,
    "Ġrevolve": 19729,
    "Ġfoolish": 5979,
    "Ġimpenitent": 26548,
    "ioneer": 15629,
    "ĠĠĠĠĠĠĠĠĠĠĠĠĠĠĠĠĠĠĠĠĠĠĠĠĠ": 24442,
    "Ġincommod": 25307,
    "days": 7687,
    "Ġwrithed": 17106,
    "Ġgrimes": 11034,
    "Ġkirwin": 8496,
    "Ġgardener": 19134,
    "springing": 24889,
    "washed": 13043,
    "Ġfills": 12591,
    "pencil": 18827,
    "Ġconception": 10317,
    "Ġwrest": 11570,
    "oughed": 22074,
    "Ġsinister": 8568,
    "Ġhunks": 18935,
    "sincere": 16907,
    "would": 2351,
    "Ġaunt": 3175,
    "flask": 12097,
    "Ġitalian": 12408,
    "Ġsire": 15500,
    "Ġlegitimate": 20641,
    "gone": 6504,
    "Ġtranscend": 25667,
    "tubes": 25211,
    "Ġroasted": 18459,
    "Ġweights": 896,
    "illustration": 2283,
    "Ġincorporated": 25711,
    "Ġtet": 21156,
    "Ġtombed": 25160,
    "Ġcompiled": 22568,
    "stonecraft": 24356,
    "Ġpolar": 9410,
    "Ġquestionable": 19265,
    "ash": 1991,
    "Ġengravings": 15064,
    "ness": 854,
    "Ġconvenience": 11331,
    "Ġhesitation": 13440,
    "Ġcurse": 7666,
    "Ġmarvel": 23032,
    "Ġstump": 7602,
    "Ġfloundered": 18862,
    "etimes": 1986,
    "Ġinsert": 19904,
    "Ġbidding": 9536,
    "unicorn": 21886,
    "sufficiently": 14980,
    "tch": 9141,
    "Ġsangu": 15503,
    "Ġearth": 2852,
    "fes": 20850,
    "besides": 8695,
    "Ġweakness": 9966,
    "Ġimmersed": 19483,
    "stopping": 19348,
    "Ġpervers": 11781,
    "fl": 3601,
    "chronicle": 26480,
    "Ġculprit": 26172,
    "log": 18535,
    "Ġshocking": 10435,
    "Ġdipping": 15589,
    "suspect": 9539,
    "hanging": 10100,
    "icult": 3342,
    "eminence": 20097,
    "Ġeat": 4643,
    "Ġdiverged": 23593,
    "Ġcurvature": 3573,
    "Ġprayer": 16666,
    "oting": 2747,
    "roar": 17952,
    "Ġrattled": 15065,
    "Ġtrades": 8231,
    "Ġclosely": 6488,
    "Ġbart": 17857,
    "Ġtrial": 6634,
    "Ġtangles": 25761,
    "Ġinterp": 16067,
    "Ġdrooping": 9419,
    "wheels": 14380,
    "omitted": 18016,
    "Ġhollows": 19740,
    "onet": 12542,
    "Ġcrowd": 6336,
    "maltese": 24795,
    "Ġtroub": 22337,
    "Ġmadman": 13150,
    "Ġcobb": 14272,
    "Ġtrunks": 15962,
    "around": 12605,
    "sustained": 20567,
    "ortion": 11755,
    "breaths": 25336,
    "Ġcheating": 16367,
    "ah": 1834,
    "Ġloss": 824,
    "Ġfundamentals": 14635,
    "gate": 12464,
    "Ġcom": 368,
    "zen": 5140,
    "prow": 15410,
    "Ġglances": 10372,
    "Ġeddying": 16434,
    "xic": 9145,
    "baron": 24925,
    "Ġstumble": 26482,
    "Ġprofoundest": 16860,
    "Ġcapering": 21352,
    "plexy": 18577,
    "Ġparticle": 18671,
    "Ġprecautions": 23726,
    "Ġphrensy": 25124,
    "Ġgild": 15666,
    "Ġfrancisco": 26064,
    "Ġdomain": 3468,
    "arpaul": 14535,
    "Ġexhausted": 8693,
    "Ġmacey": 12560,
    "Ġfle": 3091,
    "Ġscru": 8190,
    "icit": 3379,
    "stove": 21649,
    "Ġharpoon": 3617,
    "Ġgoal": 10301,
    "Ġform": 1025,
    "Ġexcavating": 23313,
    "Ġstiffest": 24829,
    "floor": 14935,
    "Ġswarm": 23049,
    "Ġmalicious": 10557,
    "andering": 21864,
    "Ġforbe": 8457,
    "Ġstalked": 20427,
    "united": 14059,
    "life": 4932,
    "Ġbegun": 7243,
    "Ġburtons": 19252,
    "intentions": 22936,
    "Ġquote": 18466,
    "Ġbeholding": 8668,
    "Ġdiscove": 16153,
    "Ġrector": 21673,
    "suitable": 18633,
    "Ġshrieked": 9547,
    "Ġterrified": 14671,
    "ieve": 1656,
    "Ġgrieve": 14706,
    "urning": 12914,
    "Ġkeener": 22911,
    "Ġfeminine": 15262,
    "ites": 3898,
    "Ġattorney": 18620,
    "Ġtip": 15470,
    "Ġsavagely": 26323,
    "retirement": 23134,
    "counterpart": 26359,
    "Ġbutt": 14125,
    "Ġworldly": 16329,
    "Ġsickened": 16775,
    "Ġ200": 19294,
    "teen": 6370,
    "Ġpalpable": 15205,
    "Ġblast": 7445,
    "Ġ112": 24437,
    "Ġwound": 4525,
    "treasures": 26152,
    "vicious": 21117,
    "Ġpurposely": 10444,
    "saving": 21058,
    "Ġdigesting": 19808,
    "Ġ75": 19611,
    "Ġlascar": 9199,
    "puzz": 17640,
    "Ġproduct": 3534,
    "Ġstepdaughter": 22610,
    "following": 10572,
    "powerful": 24847,
    "Ġjud": 3359,
    "persuade": 13532,
    "Ġinsist": 9888,
    "wore": 21123,
    "Ġclever": 7054,
    "Ġemptied": 24347,
    "ceed": 1076,
    "Ġwhisky": 23931,
    "dipped": 20836,
    "flight": 15351,
    "aggra": 21903,
    "Ġakin": 15494,
    "magistrate": 19862,
    "Ġdrow": 21424,
    "Ġrev": 6988,
    "Ġyear": 3285,
    "footed": 19688,
    "Ġconquest": 15745,
    "attest": 23116,
    "Ġallies": 18234,
    "Ġsword": 6732,
    "Ġyounger": 5252,
    "dem": 10691,
    "Ġsculpt": 15944,
    "Ġcheerily": 13306,
    "Ġblocked": 19221,
    "ole": 9613,
    "slow": 7810,
    "Ġbricks": 13561,
    "formed": 2558,
    "fthand": 26386,
    "urned": 9305,
    "Ġfragments": 19017,
    "Ġtearless": 24786,
    "ster": 1953,
    "Ġgaiters": 20459,
    "presented": 12989,
    "Ġmonster": 3793,
    "Ġprosper": 10229,
    "Ġcommunicated": 9061,
    "Ġcoach": 6867,
    "Ġsacrificed": 17421,
    "Ġing": 5283,
    "mistakable": 20652,
    "Ġmidnight": 5265,
    "Ġsloping": 11937,
    "zed": 8103,
    "Ġreposing": 23357,
    "Ġmyster": 5925,
    "Ġsurrounding": 12160,
    "Ġtok": 1245,
    "Ġtrusty": 24103,
    "Ġnecessitates": 23926,
    "embarrassed": 20595,
    "tains": 10962,
    "Ġcarcase": 14443,
    "Ġsquaw": 22834,
    "Ġartful": 22607,
    "paradise": 20636,
    "Ġrecent": 7436,
    "bres": 11471,
    "Ġholiday": 12995,
    "Ġhuddled": 20298,
    "Ġmagnet": 10389,
    "Ġframe": 1841,
    "Ġdivert": 23592,
    "drunk": 24659,
    "Ġbackwards": 12924,
    "Ġostens": 25275,
    "Ġtut": 8769,
    "Ġrequisition": 22636,
    "Ġestablish": 9542,
    "loun": 17588,
    "Ġsymmetry": 20364,
    "Ġadmin": 23552,
    "enged": 23144,
    "Ġprimitive": 25061,
    "ethics": 8877,
    "Ġdesire": 3717,
    "Ġliberality": 24377,
    "Ġdz": 4756,
    "here": 2553,
    "Ġrap": 14303,
    "Ġwitty": 21291,
    "Ġdetect": 1213,
    "content": 11197,
    "Ġsubmitted": 11869,
    "Ġcolle": 8923,
    "Ġhandle": 3136,
    "Ġtone": 4038,
    "Ġunclad": 22051,
    "thes": 7391,
    "atum": 21258,
    "Ġremove": 7499,
    "Ġshaken": 10264,
    "Ġinterior": 8895,
    "Ġmichaelmas": 26374,
    "²": 115,
    "driven": 19770,
    "Ġretired": 6070,
    "Ġperform": 1034,
    "Ġphantoms": 13485,
    "afflicted": 23777,
    "Ġunreasonable": 12774,
    "nephew": 26397,
    "Ġminor": 12965,
    "Ġlovel": 10271,
    "Ġpurchas": 19873,
    "ĠĠĠĠĠĠĠĠĠĠĠĠĠĠĠĠĠĠĠĠĠĠĠĠĠĠĠ": 14885,
    "Ġpoisonous": 24887,
    "Ġbunch": 11326,
    "thankful": 16806,
    "Ġug": 8140,
    "indulged": 22372,
    "Ġund": 4120,
    "inev": 21976,
    "inting": 9813,
    "ict": 597,
    "Ġscore": 9737,
    "perai": 10276,
    "_?âĢĿ": 15304,
    "Ġvib": 8164,
    "Ġsparsity": 4207,
    "Ġidler": 16403,
    "idean": 14263,
    "Ġlee": 4222,
    "Ġprice": 10403,
    "slight": 10727,
    "uous": 4145,
    "ppa": 10239,
    "Ġimproving": 1211,
    "rat": 8755,
    "Ġcities": 17827,
    "Ġjabez": 11764,
    "Ġstrasburgh": 18614,
    "Ġbrothers": 13174,
    "princip": 17136,
    "ective": 18174,
    "accessible": 13638,
    "Ġrallied": 14094,
    "Ġtarshish": 12027,
    "Ġobstetrics": 24678,
    "Ġende": 21929,
    "Ġhos": 4942,
    "Ġprognostics": 20557,
    "Ġdarkness": 4276,
    "Ġlower": 2666,
    "skylight": 25623,
    "Ġbountiful": 25944,
    "coburg": 13597,
    "tur": 5688,
    "Ġinstruct": 2866,
    "Ġjamming": 17264,
    "Ġvowed": 14083,
    "rese": 15507,
    "Ġdev": 888,
    "Ġruinous": 24633,
    "Ġstrangers": 8313,
    "Ġcourse": 2130,
    "Ġdiscourage": 3115,
    "tooth": 18581,
    "Ġcumul": 4179,
    "Ġreporting": 24657,
    "shake": 22447,
    "rain": 462,
    "Ġlest": 6395,
    "ope": 4126,
    "Ġvol": 4189,
    "Ġwrecks": 16818,
    "Ġexamining": 8005,
    "Ġ270": 25130,
    "Ġblanket": 8342,
    "Ġunanswerable": 26521,
    "Ġinterpreter": 23213,
    "Ġ95": 19772,
    "Ġ182": 13235,
    "Ġphotograph": 6302,
    "Ġflew": 5588,
    "Ġprying": 15606,
    "Ġcoil": 11816,
    "wished": 13804,
    "Ġaddress": 2271,
    "cob": 10086,
    "Ġcapricious": 20537,
    "iltrated": 19304,
    "rope": 3183,
    "romang": 22002,
    "bull": 13689,
    "inian": 21181,
    "gorge": 22329,
    "Ġresources": 2936,
    "Ġprestige": 22233,
    "Ġperemptorily": 17366,
    "fore": 687,
    "Ġremonstrance": 20621,
    "Ġcabinet": 23859,
    "Ġheads": 3740,
    ".]": 15297,
    "Ġplowdon": 26447,
    "borrowed": 20791,
    "pity": 17627,
    "ĸ": 249,
    "Ġmust": 845,
    "fearing": 18541,
    "offic": 7466,
    "abb": 15736,
    "Ġgases": 21599,
    "Ġbrother": 2752,
    "securing": 19812,
    "biting": 20779,
    "rence": 5555,
    "cle": 3955,
    "Ġslavish": 23170,
    "irons": 10238,
    "Ġvibration": 17099,
    "sneezes": 11446,
    "telescope": 26562,
    "ader": 14011,
    "Ġauthent": 14507,
    "Ġstruggled": 9904,
    "Ġtattooing": 15027,
    "relate": 24008,
    "urmountable": 15278,
    "vac": 15449,
    "ustom": 3789,
    "Ġroast": 18456,
    "iloqu": 11647,
    "Ġincorporate": 20453,
    "certain": 3677,
    "Ġintimacy": 8700,
    "ĠâĢĶ": 13810,
    "Ġcorroborated": 26054,
    "Ġaffirmative": 15221,
    "Ġprairie": 8712,
    "Ġpillar": 21470,
    "hailed": 17565,
    "scythes": 26402,
    "Ġrosy": 18458,
    "Ġmishap": 20575,
    "Ġnations": 8809,
    "ince": 4337,
    "Ġvows": 15806,
    "Ġhandy": 12933,
    "Ġincommunicable": 26611,
    "Ġacquaintance": 4134,
    "finish": 24384,
    "Ġlit": 6246,
    "aders": 21755,
    "unctuous": 21879,
    "N": 50,
    "Ġevents": 4469,
    "Ġacquisition": 18899,
    "Ġ104": 24412,
    "itic": 11577,
    "lesc": 11039,
    "det": 5207,
    "hun": 5210,
    "Ġniagara": 26458,
    "ctic": 8441,
    "sa": 8756,
    "Ġproportional": 2527,
    "Ġfright": 3796,
    "Ġsnarled": 25716,
    "Ġinflu": 4907,
    "descending": 16283,
    "Ġgenerously": 22380,
    "Ġnoah": 10942,
    "Ġtroubles": 19437,
    "Ġmovable": 22432,
    "tured": 13794,
    "Ġprobed": 18734,
    "Ġpeak": 16124,
    "mistak": 16878,
    "Ġtending": 17724,
    "Ġdeliver": 9845,
    "Ġhogshe": 20490,
    "Ġarrogance": 26231,
    "uses": 11759,
    "strained": 21655,
    "Ġ179": 19753,
    "Ġimpropri": 14216,
    "Ġrows": 10561,
    "Ġ101": 24409,
    "Ġsupremacy": 20259,
    "ister": 1297,
    "Ġdowry": 20684,
    "Ġmargin": 11919,
    "Ġstir": 5823,
    "Ġdemeanour": 17336,
    "forbid": 14350,
    "Ġbeloved": 5572,
    "Ġcamel": 25349,
    "Ġsneeze": 24699,
    "Ġsayest": 22773,
    "Ġdoings": 18376,
    "Ġimprisonment": 22386,
    "Ġedition": 16433,
    "Ġswells": 9826,
    "Ġattending": 3284,
    "Ġhurried": 4030,
    "Ġhour": 1812,
    "Ġencourages": 2061,
    "john": 11497,
    "Ġseverest": 14089,
    "nigh": 13762,
    "Ġordered": 5832,
    "Ġmonotonically": 3832,
    "Ġskewer": 19619,
    "Ġrightly": 13062,
    "Ġjutting": 22298,
    "assertion": 22308,
    "grim": 19106,
    "Ġcalm": 3448,
    "replied": 11565,
    "imag": 6990,
    "Ġshave": 21993,
    "Ġbacking": 16115,
    "Ġglowing": 12280,
    "lorious": 17592,
    "pursuit": 20339,
    "vial": 17697,
    "offered": 14517,
    "pudding": 17647,
    "Ġtempted": 9056,
    "Ġnovelist": 24777,
    "insulting": 26055,
    "Ġbumpkin": 20199,
    "rot": 21529,
    "Ġglowed": 24864,
    "µ": 118,
    "Ġlimping": 23545,
    "Ġcobbling": 20521,
    "bourgh": 19103,
    "small": 6472,
    "Ġrecently": 11860,
    "Ġspurn": 18309,
    "arboard": 7266,
    "Ġmart": 10779,
    "Ġmercy": 8998,
    "how": 1641,
    "Ġpace": 9182,
    "±": 114,
    "gentlemen": 9503,
    "points": 14392,
    "Ġlucifers": 16587,
    "Ġdews": 21836,
    "sway": 15423,
    "Ġaims": 15495,
    "drawn": 9912,
    "Ġlash": 8438,
    "worshipping": 16609,
    "rudence": 7092,
    "Ġapprehen": 16829,
    "county": 25396,
    "Ġnieces": 8432,
    "Ġoblivious": 26032,
    "sac": 7140,
    "causes": 20342,
    "profound": 16423,
    "Ġcoppers": 22581,
    "boys": 13358,
    "punishment": 15144,
    "caused": 25519,
    "Ġvigorously": 11299,
    "angle": 22101,
    "Ġcivil": 4678,
    "Ġvisits": 8222,
    "Ġlighting": 13081,
    ":": 30,
    "Ġtimidity": 24687,
    "Ġforeman": 23446,
    "sartain": 25622,
    "Ġutensils": 23514,
    "hereafter": 19215,
    "Ġchairs": 12823,
    "Ġroad": 3880,
    "Ġphant": 7055,
    "Ġvainly": 9923,
    "icing": 9200,
    "Ġcardboard": 19977,
    "Ġstup": 14004,
    "Ġones": 3019,
    "Ġthreaten": 24374,
    "51": 12429,
    "tender": 14472,
    "Ġsimple": 1617,
    "acknowled": 10975,
    "Ġhanged": 17924,
    "naturalist": 23470,
    "continued": 8675,
    "Ġcelest": 9900,
    "Ġtiller": 8965,
    "Ġblocks": 6321,
    "Ġmalacca": 24393,
    "Ġpel": 17902,
    "Ġselected": 9709,
    "Ġchests": 19670,
    "Ġlambton": 10657,
    "Ġsn": 2948,
    "affa": 23775,
    "tackles": 25624,
    "Ġfellows": 8256,
    "encies": 4080,
    "incredible": 16497,
    "ium": 4864,
    "Ġvancouver": 26565,
    "rin": 10121,
    "rennial": 22341,
    "Ġinjunction": 19616,
    "Ġfluttered": 16248,
    "Ġkindness": 4097,
    "Ġbewit": 15725,
    "Ġvertebra": 20180,
    "Ġhussey": 7724,
    "Ġintrospect": 15826,
    "Ġfulfilment": 20186,
    "Ġtem": 805,
    "vius": 23541,
    "Ġoh": 2175,
    "rinted": 21042,
    "tashtego": 9622,
    "âĢĻâĢĶ": 12733,
    "Ġrug": 16155,
    "Ġyawned": 15051,
    "Ġgenerating": 12845,
    "affording": 23776,
    "Ġbegan": 2021,
    "acy": 3954,
    "Ġdiverse": 19208,
    "Ġott": 13865,
    "Ġloudly": 7312,
    "Ġapproximate": 2342,
    "Ġvocabulary": 4995,
    "itude": 1416,
    "find": 6954,
    "Ġcoldly": 14650,
    "Ġvegetables": 15220,
    "Ġcuts": 14607,
    "leave": 7837,
    "application": 12361,
    "Ġstowed": 21733,
    "Ġcounsell": 25384,
    "Ġinterpret": 5490,
    "Ġmemorand": 23403,
    "produ": 10720,
    "Ġsebastian": 11694,
    "Ġsent": 1774,
    "ĠĠĠĠĠĠĠĠĠĠĠĠĠĠĠĠĠĠĠĠĠĠĠĠĠĠĠĠĠĠĠĠĠĠĠĠ": 23665,
    "Ġvanish": 8927,
    "remarked": 12286,
    "Ġslink": 23160,
    "cra": 6354,
    "Ġpaved": 17910,
    "prec": 3199,
    "higher": 20405,
    "efficient": 2872,
    "jonah": 11496,
    "comprehens": 16173,
    "del": 4075,
    "Ġsubsided": 14550,
    "Ġsigh": 10336,
    "Ġtarn": 21157,
    "Ġabundant": 17154,
    "acher": 6868,
    "Ġacceded": 22375,
    "Ġrelinquish": 17346,
    "jabez": 20932,
    "pidation": 18889,
    "preced": 10309,
    "Ġheroines": 19750,
    "Ġbuckets": 17034,
    "gives": 15356,
    "Ġcrawl": 11375,
    "Ġmoles": 22431,
    "wonderful": 16960,
    "excitement": 19668,
    "Ġstep": 753,
    "derstand": 646,
    "Ġbeadle": 26484,
    "author": 9859,
    "Ġvisage": 18766,
    "Ġswish": 23048,
    "maid": 8552,
    "acing": 2720,
    "absent": 21786,
    "Ġauthorities": 11264,
    "Ġquadr": 8199,
    "fit": 6645,
    "Ġquick": 2584,
    "gressive": 2757,
    "Ġevenings": 18753,
    "Ġautom": 3412,
    "tu": 12509,
    "Ġbreathlessly": 24280,
    "Ġvalley": 5850,
    "stains": 11636,
    "Ġmoderately": 22214,
    "assment": 9739,
    "ario": 14247,
    "qual": 8156,
    "Ġimag": 2679,
    "Ġhoney": 12629,
    "Ġhospitable": 17059,
    "Ġencoding": 4774,
    "Ġboun": 21378,
    "critical": 19502,
    "Ġstripped": 10465,
    "Ġcheeks": 5957,
    "feather": 16044,
    "mention": 7214,
    "dropping": 14981,
    "Ġdisk": 22519,
    "Ġnephews": 24713,
    "Ġyoungster": 23176,
    "himself": 3971,
    "Ġrequest": 6050,
    "spiracle": 22732,
    "Ġstaggers": 24653,
    "eties": 10837,
    "Ġremedy": 18725,
    "Ġheading": 8935,
    "ims": 7176,
    "terbury": 21821,
    "Ġglut": 18853,
    "Ġcorporeal": 17359,
    "Ġwonderfully": 10430,
    "ermaid": 14295,
    "Ġaghast": 16045,
    "estim": 14169,
    "Ġcondem": 6338,
    "iards": 17574,
    "Ġsyllable": 9727,
    "Ġreproached": 24891,
    "Ġrepay": 19081,
    "ĠâĢľ": 516,
    "Ġendeavored": 19301,
    "loops": 12879,
    "ov": 15399,
    "Ġstepfather": 7221,
    "dataset": 23205,
    "Ġul": 6828,
    "fallen": 19658,
    "lu": 596,
    "Ġwalk": 1826,
    "Ġsounding": 8264,
    "Ġtens": 17723,
    "Ġhandfuls": 17209,
    "Ġthee": 2627,
    "Ġimpossibility": 20646,
    "appears": 12058,
    "Ġunperceived": 22034,
    "Ġunwell": 22014,
    "Ġgranite": 22805,
    "Ġlogits": 3451,
    "Ġopportunities": 19248,
    "unknown": 10890,
    "Ġconver": 806,
    "consuming": 25674,
    "fifth": 20145,
    "Ġattend": 5035,
    "Ġsoftness": 18917,
    "Ġcunning": 6238,
    "Ġagonized": 25372,
    "ren": 550,
    "developed": 15263,
    "Ġpointed": 4773,
    "Ġchoosing": 19589,
    "Ġweltering": 19584,
    "Ġunjustly": 17126,
    "Ġcomprehended": 11294,
    "Ġhealth": 3903,
    "Ġbarbaric": 10013,
    "Ġstaff": 14005,
    "Ġwindings": 18909,
    "Ġpropos": 7062,
    "Ġsteep": 2890,
    "Ġstudy": 1806,
    "Ġfuture": 1105,
    "fa": 7336,
    "Ġwalks": 8966,
    "however": 4370,
    "eluded": 21572,
    "Ġugl": 12679,
    "Ġconspicuous": 13602,
    "Ġpursued": 6328,
    "Ġconsec": 21802,
    "Ġrepugnant": 26590,
    "chain": 18039,
    "Ġalders": 21781,
    "Ġtrade": 2551,
    "riminately": 16482,
    "object": 6884,
    "Ġcosmopol": 16454,
    "bolt": 25135,
    "aste": 4598,
    "Ġmoritz": 11904,
    "exagger": 22425,
    "orrowed": 19288,
    "Ġamber": 7026,
    "sharp": 10306,
    "Ġinflict": 15001,
    "Ġdexter": 9700,
    "comfort": 5647,
    "hung": 8380,
    "ciousness": 20816,
    "Ġwearer": 21919,
    "proportion": 16182,
    "mechan": 11855,
    "Ġtweezers": 26556,
    "Ġtalents": 15044,
    "Ġlamented": 24991,
    "Ġlengths": 19205,
    "Ġoppress": 13171,
    "utmost": 21585,
    "Ġuntamed": 19163,
    "Ġcompetent": 11814,
    "Ġvictor": 5125,
    "treas": 17679,
    "blo": 6353,
    "Ġpigeon": 9515,
    "Ġxlix": 25860,
    "Ġscreaming": 13422,
    "Ġthe": 270,
    "Ġpharaoh": 26585,
    "seemed": 4302,
    "practical": 17221,
    "perhaps": 4123,
    "Ġsmaller": 1883,
    "Ġrespective": 16342,
    "aguy": 21907,
    "lasting": 8010,
    "Ġunlike": 7004,
    "Ġguess": 4903,
    "dressing": 11481,
    "Ġpoisoned": 24886,
    "anite": 17837,
    "Ġflukes": 5266,
    "lik": 3917,
    "Ġnecess": 3477,
    "ribed": 7692,
    "aint": 2545,
    "Ġboughs": 20487,
    "Ġdesigned": 7740,
    "Ġadditional": 7935,
    "less": 928,
    "Ġcivilised": 24244,
    "Ġteach": 8553,
    "Ġtapped": 11553,
    "Ġlysander": 13138,
    "ighter": 7967,
    "all": 485,
    "Ġrussian": 14349,
    "Ġrecommendation": 17025,
    "Ġmomentary": 11035,
    "ivot": 11716,
    "Ġvictory": 16653,
    "heidelburgh": 21210,
    "Ġvery": 637,
    "Ġwide": 4109,
    "Ġimpressive": 14999,
    "Ġfielding": 16228,
    "Ġstature": 10863,
    "value": 18819,
    "cur": 3269,
    "erringly": 16210,
    "Ġasser": 6257,
    "glory": 23850,
    "chemical": 23807,
    "Ġplug": 17147,
    "Ġrepairing": 25589,
    "Ġmodified": 14167,
    "Ġprompt": 3187,
    "Ġincome": 7916,
    "Ġintrepidity": 25550,
    "Ġexpeditions": 24954,
    "Ġfavourite": 5270,
    "Ġvaluable": 5608,
    "Ġvanity": 7045,
    "'": 11,
    "Ġwel": 4524,
    "despicable": 24636,
    "Ġfortnight": 6200,
    "Ġsoda": 25534,
    "Ġangry": 5498,
    "ipp": 10102,
    "Ġverge": 23885,
    "Ġbeck": 14008,
    "Ġfactor": 19018,
    "Ġsavi": 18325,
    "Ġforged": 12701,
    "ches": 2149,
    "Ġconsole": 8150,
    "web": 18664,
    "crown": 13697,
    "Ġfastening": 16358,
    "ivation": 3109,
    "homage": 25616,
    "Ġreplaced": 13070,
    "wel": 6117,
    "aits": 20765,
    "Ġbear": 3658,
    "Ġmisery": 3813,
    "Ġsnows": 14725,
    "Ġconst": 1910,
    "acqu": 4842,
    "<SOS>": 1,
    "ols": 2414,
    "Ġrazors": 22654,
    "Ġscorching": 20066,
    "Ġacknowledgment": 16957,
    "Ġcarpet": 9355,
    "Ġscreams": 24603,
    "dwelling": 20563,
    "Ġarms": 3966,
    "Ġbristling": 20525,
    "inquiries": 13576,
    "knight": 20939,
    "Ġameric": 3852,
    "Ġbelonging": 8307,
    "gu": 3956,
    "Ġdoomed": 11342,
    ".)": 6783,
    "Ġslaughtered": 26584,
    "Ġslyness": 25266,
    "Ġwindibank": 7256,
    "Ġdiv": 3731,
    "Ġexile": 12713,
    "traced": 19636,
    "Ġbeatrix": 24203,
    "Õ": 150,
    "Ġdrawer": 13265,
    "enges": 13051,
    "sake": 13782,
    "augmented": 26286,
    "ye": 1404,
    "Ġthursday": 12641,
    "Ġchas": 18379,
    "Ġprinc": 4199,
    "Ġquarter": 3976,
    "indifferent": 14208,
    "abound": 15737,
    "Ġtarquin": 23609,
    "ough": 471,
    "Ġsple": 21214,
    "giving": 8738,
    "friends": 8305,
    "Ġdreary": 10408,
    "Ġimpetus": 25569,
    "Ġjogged": 26236,
    "eness": 2290,
    "Ġrouse": 15819,
    "oga": 22705,
    ".âĢĶâĢľ": 20746,
    "Ġeternally": 11369,
    "professional": 20274,
    "Ġpython": 1068,
    "Ġwalker": 23308,
    "ĝ": 222,
    "capt": 3835,
    "qualities": 25043,
    "velope": 17701,
    "Ġmildness": 9943,
    "respective": 19845,
    "Ġawakened": 10453,
    "Ġroyal": 5602,
    "Ġcrammed": 16470,
    "Ġmoluccas": 25629,
    "Ġseating": 18199,
    "destined": 24114,
    "Ġsideboard": 10385,
    "xes": 21139,
    "osures": 22258,
    "remental": 21246,
    "barbar": 20237,
    "Ġric": 18211,
    "Ġmerely": 3771,
    "Ġsaintly": 25931,
    "Ġoaks": 16933,
    "!âĢĿ": 849,
    "Ġdistantly": 18532,
    "Ġcomfits": 21849,
    "narr": 12494,
    "rested": 13073,
    "hereditary": 26419,
    "gloom": 17139,
    "Ġunsc": 22011,
    "Ġdimmed": 24267,
    "Ġlevers": 18077,
    "landlord": 9839,
    "Ġnoisier": 4623,
    "Ġabsent": 7014,
    "antique": 18288,
    "!_": 7329,
    "Ġbade": 9171,
    "Ġoperations": 2299,
    "Ġstormy": 16728,
    "Ġnail": 9195,
    "Ġfowls": 8690,
    "Ġlouisa": 13545,
    "Ġinterposed": 20617,
    "Ġmedical": 9463,
    "hole": 5586,
    "i": 77,
    "dro": 6644,
    "Ġredeem": 20498,
    "Ġkettle": 26232,
    "Ġinvol": 1069,
    "Ġlines": 4531,
    "Ġtrumpet": 9573,
    "Ġencode": 4362,
    "Ġburied": 7718,
    "partner": 19220,
    "grounds": 11151,
    "shook": 19855,
    "Ġanchors": 12610,
    "Ġsunwards": 19014,
    "Ġprincess": 23222,
    "consc": 4840,
    "Ġbits": 11587,
    "Ġcruise": 12047,
    "chariot": 26479,
    "Ġpriest": 7526,
    "_.âĢĿ": 5885,
    "Ġsimil": 2535,
    "Ġspokes": 18313,
    "Ġhast": 3150,
    "Ġnoblest": 13241,
    "osen": 6855,
    "Ġmoderation": 12815,
    "Ġnailed": 10189,
    "Ġgibraltar": 25787,
    "Ġrefusing": 11028,
    "Ġfaintest": 24569,
    "Ġtol": 6675,
    "augment": 18829,
    "Ġmourn": 8703,
    "Ġfaintly": 14914,
    "Ġcomplaints": 12262,
    "Ġtigers": 25758,
    "earth": 6502,
    "Ġirregularity": 25324,
    "Ġmod": 496,
    "us": 532,
    "lude": 6161,
    "Ġsoon": 1228,
    "Ġsang": 12532,
    "zy": 2673,
    "Ġteacher": 22914,
    "Ġrumours": 24598,
    "scratch": 26045,
    "Ġprodig": 6027,
    "Ġquadrant": 11404,
    "Ġ119": 24441,
    "Ġluckily": 16798,
    "wedded": 24339,
    "Ġrain": 5005,
    "Ġwhipcord": 20093,
    "Ġinterests": 14569,
    "¤": 102,
    "teringly": 21820,
    "Ġdancing": 5703,
    "hoist": 23713,
    "Ġlingered": 13504,
    "Ġsands": 14947,
    "Ġdedication": 3289,
    "Ġfranc": 16350,
    "windows": 19533,
    "ric": 1377,
    "Ġod": 4436,
    "Ġsurv": 6081,
    "woods": 13418,
    "Ġfate": 4754,
    "cible": 20805,
    "Ġremembered": 5276,
    "Ġunattended": 15841,
    "Ġde": 365,
    "Ġcrescentic": 20619,
    "Ġcharitable": 23268,
    "Ġfunctions": 1340,
    "Ġwhether": 2000,
    "Ġtwos": 18657,
    "Ġangles": 23587,
    "Ġdiabolism": 25514,
    "indifference": 15980,
    "Ġresistance": 13529,
    ".,": 5987,
    "tawn": 21079,
    "Ġmore": 676,
    "Ġimperfect": 13338,
    "charming": 15703,
    "Ġresid": 22535,
    "Ġsufficient": 2003,
    "Ġwaifing": 25244,
    "Ġtheology": 21275,
    "Ġshift": 2282,
    "left": 6975,
    "Ġtur": 2568,
    "ignified": 14491,
    "bots": 10082,
    "Ġpregn": 22229,
    "Ġheavily": 6740,
    "theirs": 23601,
    "Ġdescribes": 3120,
    "press": 1733,
    "Ġheaded": 11054,
    "Ġ6": 5141,
    "Ġsoothing": 8172,
    "Ġbank": 4877,
    "former": 11746,
    "Ġincomplete": 17208,
    "Ġasiatic": 20428,
    "thing": 1481,
    "Ġsurpl": 19132,
    "Ġprovince": 24188,
    "Ġunh": 9252,
    "folding": 24927,
    "ially": 9245,
    "Ġexempl": 21827,
    "Ġsignificant": 8633,
    "Ġpour": 13913,
    "iciously": 17973,
    "Ġwaiter": 16425,
    "Ġaspired": 25984,
    "Ġgout": 21593,
    "Ġstrung": 22613,
    "shone": 22445,
    "dev": 7631,
    "Ġhooded": 12404,
    "ching": 5156,
    "Ġpanting": 11601,
    "Ġfug": 12592,
    "employ": 10895,
    "vineyard": 25421,
    "laden": 14928,
    "Ġvariety": 8530,
    "aston": 7408,
    "painting": 17046,
    "spent": 12939,
    "Ġwasted": 9703,
    "Ġ25": 13191,
    "Ġcou": 5286,
    "idge": 14013,
    "oided": 11508,
    "Ġadventurous": 16733,
    "Ġreceiving": 4882,
    "Ġpropagating": 20632,
    "Ġendeavours": 8617,
    "observing": 25494,
    "ercely": 12547,
    "Ġcup": 5697,
    "Ġswaying": 15046,
    "Ġ\"": 6119,
    "Ġimplicated": 24875,
    "Ġmultiple": 1186,
    "mult": 8747,
    "Ġmended": 21312,
    "ui": 9144,
    "Ġoverpower": 12840,
    "Ġmaz": 15539,
    "anders": 18152,
    "Ġjunior": 15098,
    "Ġmake": 1288,
    "Ġheightened": 8648,
    "Ġalps": 10870,
    "ifying": 5235,
    "Ġjerk": 16950,
    "Ġclifford": 22353,
    "anted": 5027,
    "harpoone": 6107,
    "Ġintuitions": 17340,
    "pers": 4334,
    "weaknesses": 26030,
    "Ġbudge": 15163,
    "alley": 23021,
    "Ġaccordance": 19496,
    "Ġnearing": 15792,
    "rann": 21043,
    "Ġverd": 6919,
    "erity": 21266,
    "ino": 15478,
    "sey": 5543,
    "Ġvilest": 20099,
    "disappo": 8984,
    "Ġraise": 6166,
    "jets": 20927,
    "Ġby": 383,
    "Ġmustering": 18662,
    "Ġprecipitate": 19940,
    "eks": 4728,
    "Ġsleet": 8975,
    "heaving": 21206,
    "ineer": 11700,
    "Ġprec": 2919,
    "ostentatious": 20651,
    "Ġseethe": 21953,
    "jaw": 13742,
    "Ġere": 3686,
    "Ġallusions": 10906,
    "ŀ": 257,
    "clinging": 20821,
    "Ġgallons": 14816,
    "Ġconceals": 23901,
    "Ġcomprehending": 24445,
    "tenderly": 20529,
    "Ġbehold": 5049,
    "setting": 13284,
    "Ġname": 2084,
    "Ġdeny": 7488,
    "ited": 1750,
    "Ġannoyance": 20661,
    "contain": 18502,
    "Ġexperience": 1348,
    "gest": 5426,
    "fine": 10090,
    "reply": 19721,
    "Ġcravat": 26307,
    "ignity": 4371,
    "Ġworth": 4413,
    "enit": 17779,
    "Ġdiscerning": 25002,
    "ert": 2636,
    "Ġangel": 4852,
    "Ġlestrade": 5825,
    "Ġtraitors": 23076,
    "progra": 9393,
    "Ġinserted": 8355,
    "Ġconclude": 8579,
    "Ġparliament": 18302,
    "Ġduplicate": 17215,
    "Ġglossy": 15226,
    "agers": 5633,
    "Ġbarbarians": 19586,
    "Ġut": 2279,
    "Ġindex": 17049,
    "Ġdiminished": 16665,
    "Ġsmoothed": 23655,
    "Ġinvaluable": 10182,
    "Ġexper": 1267,
    "Ġshilling": 18228,
    "intense": 22933,
    "Ġdivided": 8631,
    "Ġcrossed": 6068,
    "phants": 9319,
    "Ġstrangeness": 16707,
    "bellies": 19972,
    "otherwise": 7670,
    "Ġmiseries": 10344,
    "onday": 6063,
    "subject": 6631,
    "Ġdrawing": 3919,
    "Ġsust": 7006,
    "Ġshy": 10903,
    "Ġveget": 11884,
    "Ġfanc": 6743,
    "Ġcorpulence": 24509,
    "Ġslit": 13054,
    "Ġcommunicates": 24547,
    "Ġoccupies": 24005,
    "Ġsil": 1797,
    "Ġreminiscences": 26269,
    "uit": 8392,
    "Ġkicking": 16901,
    "appearing": 14637,
    "Ġconce": 3424,
    "Ġetern": 7085,
    "Ġlvi": 21550,
    "mortar": 25408,
    "Ġphenomena": 21480,
    "brated": 12025,
    "Ġtrading": 23074,
    "Ġade": 22097,
    "barb": 10080,
    "Ġtroops": 24898,
    "Ġwrithing": 11944,
    "Ġdisagreeable": 9297,
    "Ġunpitying": 25660,
    "Ġobscurely": 20187,
    "fulness": 4308,
    "vember": 10855,
    "Ġjustify": 11072,
    "connection": 18868,
    "Ġbranches": 6776,
    "Ġgorge": 13565,
    "Ġeventually": 8616,
    "quer": 11678,
    "fluttering": 23970,
    "Ġunlab": 3788,
    "ler": 3492,
    "Ġriver": 5411,
    "Ġlimb": 9401,
    "bes": 6641,
    "âĢĺ": 939,
    "Ġ94": 17717,
    "isms": 12577,
    "Ġnotions": 14098,
    "Ġunchanging": 22042,
    "Ġschool": 5512,
    "Ġaloft": 4301,
    "Ġprinciples": 10010,
    "Ġrelentless": 26277,
    "rippling": 24714,
    "irc": 1732,
    "Ġ(`": 12849,
    "aco": 12903,
    "onder": 3779,
    "prodigious": 17466,
    "mell": 20963,
    "Ġtul": 21158,
    "offices": 19063,
    "interview": 19297,
    "Ġintelligent": 1671,
    "Ġav": 3581,
    "Ġheadlands": 22895,
    "13": 20749,
    "antically": 22093,
    "Ġrecover": 9789,
    "persecut": 22186,
    "entering": 17976,
    "Ġboundless": 10495,
    "Ġconjugal": 25101,
    "Ġprovidence": 18745,
    "condesc": 18505,
    "Ġneighbourhood": 5126,
    "Ġblandly": 20322,
    "popular": 26140,
    "Ġabridged": 26540,
    "Ġglimpse": 6944,
    "itu": 1227,
    "Ġdivulged": 16648,
    "Ġfar": 1450,
    "Ġcoils": 9303,
    "Ġnormal": 1203,
    "Ġensure": 23686,
    "Ġhilarious": 20297,
    "Ġbackwoods": 22659,
    "Ġaccomplish": 14875,
    "Ġtig": 13812,
    "Ġpresto": 22227,
    "Ġafraid": 3530,
    "omen": 4086,
    "Ġhinting": 19648,
    "Ġtrivial": 10142,
    "Ġinfatuation": 25858,
    "Ġmaternal": 11058,
    "furthest": 19840,
    "Ġilluminating": 25245,
    "Ġfring": 11127,
    "august": 11071,
    "Ġsap": 18323,
    "erial": 4631,
    "determination": 19943,
    "lab": 3457,
    "Ġawhile": 13829,
    "Ġcommentators": 25229,
    "odings": 4396,
    "Ġexactly": 2770,
    "paus": 13772,
    "Ġrealities": 18981,
    "broad": 8642,
    "âĢĿ": 354,
    "Ġsharper": 17179,
    "altogether": 12636,
    "Ġcharcoal": 19010,
    "ile": 520,
    "educ": 10828,
    "Ġiroqu": 21621,
    "Ġnod": 1888,
    "ob": 1418,
    "Ġspeech": 4608,
    "Ġpotency": 14645,
    "date": 17517,
    "Ġic": 9625,
    "Ġstave": 11650,
    "liness": 8746,
    "Ġvulgarity": 25363,
    "ox": 9133,
    "ifting": 6545,
    "Ġpope": 11600,
    "labour": 23912,
    "Ġencourage": 10380,
    "Ġvirtues": 9935,
    "impression": 15708,
    "society": 9971,
    "Ġtiny": 11552,
    "stern": 8444,
    "Ġpersuading": 19408,
    "ittance": 12842,
    "Ġtoe": 13935,
    "Ġwhatever": 3475,
    "Ġchaldee": 26234,
    "conversations": 24749,
    "Ġtroubling": 26546,
    "intments": 18820,
    "superst": 11325,
    "otence": 14022,
    "val": 1191,
    "lydia": 6826,
    "Ġyork": 11664,
    "intellect": 18821,
    "Ġhesitate": 16946,
    "Ġravine": 18647,
    "Ġburnished": 23995,
    "uncont": 15771,
    "green": 7115,
    "Ġpacific": 5153,
    "Ġswerve": 14436,
    "circumst": 5348,
    "icip": 6389,
    "Ġbreaching": 23343,
    "Ġchar": 1705,
    "ancies": 11583,
    "honor": 19899,
    "Ġvic": 5237,
    "hound": 20894,
    "resting": 23234,
    "Ġstories": 10865,
    "Ġreputation": 11639,
    "Ġcorrupt": 11921,
    "Ġrebellion": 26475,
    "sphere": 22729,
    "Ĳ": 243,
    "notches": 22749,
    "Ġrecollecting": 17113,
    "isance": 17847,
    "Ġquest": 2001,
    "Ġsearching": 13161,
    "Ġtashtego": 4483,
    "Ġgest": 8133,
    "Ġretreating": 19798,
    "Ġensl": 19273,
    "Ġdo": 511,
    "carpet": 25202,
    "Ġvisible": 4777,
    "Ġtwitching": 25683,
    "Ġplow": 21456,
    "ber": 883,
    "reasoning": 9475,
    "Ġtortured": 14923,
    "+": 15,
    "hap": 17559,
    "Ġmumbled": 17807,
    "Ġpaltry": 16692,
    "Ġdrawback": 23987,
    "Ġanalogy": 25639,
    "ĠÂ£": 5006,
    "coming": 3562,
    "Ġgenus": 24429,
    "Ġinsignificance": 20456,
    "Ġsoar": 18282,
    "shall": 4547,
    "Ġshun": 11707,
    "below": 12119,
    "der": 468,
    "Ġgaunt": 11268,
    "Ġrust": 6408,
    "Ġmend": 8405,
    "Ġfinding": 3263,
    "conjectured": 25181,
    "fitzwilliam": 11352,
    "nels": 12493,
    "Ġwallowing": 24040,
    "Ġconv": 2967,
    "ements": 11107,
    "Ġregular": 950,
    "Ġdav": 15587,
    "Ġcalculus": 23980,
    "Ġupdating": 2694,
    "gloves": 25143,
    "Ġseats": 14087,
    "Ġoce": 3028,
    "jerked": 25618,
    "ĠĠĠĠĠĠĠĠĠĠĠĠĠĠĠĠĠĠĠĠĠĠĠĠĠĠĠĠĠĠĠĠĠĠĠĠĠĠĠĠĠĠĠĠĠĠĠĠĠ": 20036,
    "Ġstride": 22611,
    "Ġparis": 8178,
    "Ġtolerably": 8067,
    "Ġmoth": 17802,
    "Ġlances": 6984,
    "03": 20747,
    "Ġlye": 21548,
    "foundered": 20866,
    "Ġinforming": 18741,
    "Ġhesitated": 10001,
    "isc": 6239,
    "bee": 16035,
    "Ġwhistles": 24624,
    "Ġneutral": 12738,
    "inois": 17738,
    "Ġwrenched": 12555,
    "Ġcaring": 23089,
    "erne": 21268,
    "Ġfoolscap": 24157,
    "Ġexcel": 3567,
    "æ": 167,
    "commodore": 20624,
    "Ġclad": 12837,
    "latin": 25258,
    "ounder": 11742,
    "Ġmexico": 15279,
    "Ġscarlet": 13221,
    "Ġra": 810,
    "Ġfejee": 18354,
    "Ġcandle": 8291,
    "smug": 23905,
    "Ġcamberwell": 25350,
    "Ġapartment": 6633,
    "Ġseethings": 26503,
    "Ġspasmodically": 17313,
    "Ġcomplexion": 8210,
    "Ġcorresponding": 13437,
    "Ġpia": 21461,
    "unaffected": 21880,
    "Ġbestirred": 20450,
    "instant": 8651,
    "Ġdraws": 19434,
    "Ġburst": 4377,
    "prior": 21031,
    "Ġstreaked": 19113,
    "kitchen": 17585,
    "quin": 21850,
    "iam": 2509,
    "float": 19804,
    "Ġharsh": 9520,
    "Ġjonah": 3482,
    "Ġinspect": 5963,
    "burnt": 20078,
    "Ġswiss": 18881,
    "emorial": 10243,
    "invested": 17117,
    "Ġeleventh": 23365,
    "marest": 20979,
    "Ġregrets": 18600,
    "teness": 23201,
    "Ġgenial": 12192,
    "ĠcÃ¦sar": 20578,
    "displayed": 20735,
    "Ġoat": 21321,
    "Ġflor": 8561,
    "Ġrecurrent": 1804,
    "credit": 12446,
    "pursued": 17281,
    "Ġkeepers": 23538,
    "moonlight": 25375,
    "pretty": 10621,
    "ousings": 18335,
    "bitts": 26122,
    "Ġballs": 9014,
    "Ġpoles": 11004,
    "Ġshillings": 15833,
    "westward": 25424,
    "Ġrefreshed": 15290,
    "ched": 1546,
    "asted": 4649,
    "Ġi": 312,
    "Ġter": 2050,
    "Ġdevils": 7230,
    "aneously": 4058,
    "antled": 18287,
    "Ġzoology": 22819,
    "Ġjo": 2611,
    "Ġpince": 21468,
    "rival": 12740,
    "ination": 2913,
    "Ġexcellence": 11451,
    "Ġoar": 6236,
    "obtained": 23093,
    "Ġinherited": 25353,
    "oping": 5559,
    "Ġswe": 2289,
    "Ġdiscours": 18718,
    "ount": 1115,
    "gn": 8081,
    "Ġcomprehensive": 15086,
    "Ġaux": 21198,
    "fishermen": 17061,
    "Ġstacked": 21740,
    "fugitive": 26131,
    "hopes": 15368,
    "africa": 26308,
    "Ġunra": 18237,
    "Ġbidden": 24646,
    "trouble": 8295,
    "frequent": 15352,
    "reject": 21235,
    "uring": 819,
    "Ġrascally": 26506,
    "adopt": 25544,
    "denial": 18717,
    "Ġjames": 6419,
    "Ġper": 590,
    "Ġprem": 3428,
    "Ġrecol": 4027,
    "emed": 3381,
    "Ġdivineness": 25724,
    "elze": 21570,
    "Ġequinoctial": 20532,
    "Ġbreckinridge": 14522,
    "Ġsons": 10766,
    "Ġhideous": 5982,
    "warp": 17706,
    "Ġincredulity": 11311,
    "Ġappearance": 3700,
    "nikin": 23253,
    "Ġchewed": 16370,
    "Ġexult": 10228,
    "Ġkeep": 2355,
    "trop": 15435,
    "deception": 22142,
    "Ġdoth": 13907,
    "adequ": 11020,
    "Ġthomson": 26454,
    "Ġentrances": 25834,
    "Ġidentify": 12012,
    "Ġdagger": 21435,
    "Ġadventure": 5980,
    "Ġpeculiarities": 12068,
    "acon": 10681,
    "Ġdirty": 9178,
    "pan": 10716,
    "Ġ500": 24328,
    "Ġmannish": 26237,
    "Ġtren": 17721,
    "Ġdart": 4582,
    "Ġcount": 1816,
    "elope": 14466,
    "wling": 11544,
    "ł": 259,
    "orts": 2559,
    "concluding": 19479,
    "Ġsafety": 6339,
    "that": 852,
    "Ġfleeting": 19326,
    "Ġhind": 9188,
    "Ġimprobable": 9793,
    "Ġmade": 1049,
    "avers": 17480,
    "itement": 7835,
    "Ġtroubled": 6615,
    "oker": 10963,
    "altering": 12637,
    "clock": 3933,
    "Ġsimilar": 4917,
    "improve": 15709,
    "elfth": 22366,
    "Ġfiends": 14826,
    "ctions": 952,
    "ward": 705,
    "Ġentreated": 9950,
    "Ġprocessions": 18438,
    "appo": 3916,
    "Ġwreak": 16817,
    "Ġtangled": 13826,
    "Ġreflection": 6440,
    "Ġswash": 23050,
    "esu": 17918,
    "Ġsustained": 13481,
    "Ġsnap": 11200,
    "distraction": 24199,
    "Ġraven": 16112,
    "fishery": 10031,
    "wrath": 23755,
    "alleging": 23022,
    "Ġwithdra": 6398,
    "Ġwithheld": 18110,
    "axed": 8888,
    "gul": 12463,
    "Ġreplied": 2265,
    "Ġwired": 17786,
    "Ġindeed": 1678,
    "Ġglobal": 2368,
    "Ġsens": 1853,
    "Ġost": 9649,
    "purp": 8090,
    "Ġpaddling": 25285,
    "Ġrubbed": 12952,
    "join": 12111,
    "ition": 653,
    "Ġequator": 7462,
    "Ġsends": 14788,
    "Ġscra": 5840,
    "Ġeffusions": 18526,
    "myself": 5113,
    "ronted": 14876,
    "ructed": 7027,
    "ual": 944,
    "Ġhypocr": 19470,
    "answer": 11730,
    "ostent": 16846,
    "asp": 3341,
    "arabian": 26446,
    "Ġpremises": 10487,
    "orated": 12588,
    "Ġmistifying": 23719,
    "mer": 2835,
    "Ġauto": 23294,
    "?âĢĿ": 699,
    "Ġeconomically": 25288,
    "Ġfleecy": 17023,
    "âĢĶâĢĿ": 3301,
    "Ġopportunity": 4786,
    "Ġidiot": 11970,
    "influ": 9540,
    "Ġexeget": 24083,
    "Ġwreat": 15529,
    "Ġtowing": 9193,
    "Ġwrite": 3820,
    "Ġflee": 7079,
    "mindful": 19598,
    "andes": 18151,
    "Ġneed": 2610,
    "bly": 6110,
    "Ġblooming": 17212,
    "utional": 17983,
    "iogn": 20920,
    "ops": 5247,
    "Ġconsequent": 18113,
    "relations": 14732,
    "Ġpail": 15604,
    "flutter": 23968,
    ";--": 8068,
    "ante": 11719,
    "Ġhoops": 9387,
    "gal": 15354,
    "Ġnavy": 14915,
    "Ġweak": 5098,
    "osque": 22259,
    "Ġlover": 7193,
    "Ġharbour": 19978,
    "monster": 8591,
    "Ġsettled": 3741,
    "apothe": 22332,
    "summoned": 26591,
    "hur": 6648,
    "ses": 3025,
    "Ġmerc": 9425,
    "Ġsparing": 22126,
    "Ġrails": 22650,
    "our": 534,
    "icate": 9201,
    "Ġpyth": 21458,
    "reeling": 21243,
    "Ġam": 660,
    "Ġinquirers": 24962,
    "Ġregal": 16074,
    "Ġhide": 4586,
    "described": 18895,
    "hairs": 20903,
    "natured": 7110,
    "racts": 14354,
    "plex": 708,
    "Ġtreasures": 17047,
    "Ġscriptures": 26235,
    "recl": 15509,
    "verize": 21725,
    "Ġkneel": 14805,
    "upset": 23017,
    "Ġbuying": 23993,
    "reluct": 26163,
    "Ġcultivated": 17363,
    "Ġgracious": 8846,
    "Ġem": 1923,
    "Ġshores": 8847,
    "strong": 6322,
    "Ġcatastrop": 3349,
    "Ġlets": 18076,
    "Ġsaying": 3242,
    "Ġferoc": 14896,
    "iqu": 7802,
    "Ġdynamic": 5122,
    "reel": 21232,
    "displeasure": 23495,
    "Ġarrayed": 25664,
    "Ġens": 2789,
    "Ġsteeply": 23723,
    "Ġthimble": 15634,
    "Ġrest": 1780,
    "mews": 22704,
    "recover": 24622,
    "Ġcanvassed": 19933,
    "Ġit": 339,
    "oky": 8197,
    "remonstr": 23187,
    "Ġcred": 8780,
    "Ġprone": 18968,
    "licted": 20955,
    "Ġcurve": 22965,
    "Ġbales": 21387,
    "Ġsoph": 1623,
    "spade": 10339,
    "relation": 19445,
    "Ġmythologies": 26213,
    "Ġpet": 4583,
    "Ġbetake": 22902,
    "Ġfrench": 4939,
    "mered": 8217,
    "Ġasserted": 16949,
    "breaking": 14763,
    "Ġelectric": 15193,
    "quid": 18146,
    "Ġnotorious": 18223,
    "Ġominous": 12422,
    "Ġciv": 3310,
    "Ġparched": 11725,
    "Ġfab": 15573,
    "makes": 10711,
    "Ġinfluences": 14864,
    "Ġbowels": 9429,
    "Ġsensible": 4976,
    "Ġireland": 17334,
    "atives": 2238,
    "uzza": 11270,
    "mosp": 8088,
    "bedded": 13226,
    "ilight": 12690,
    "inkling": 16090,
    "Ġsuff": 1306,
    "Åĵuvre": 25887,
    "Ġprevented": 5941,
    "Ġannihilation": 15164,
    "bitious": 16669,
    "Ġeveryday": 22768,
    "likeness": 19476,
    "attend": 11101,
    "giv": 13721,
    "ĠĠĠĠĠĠĠĠĠĠĠĠĠĠĠĠĠĠĠĠĠĠĠĠĠĠĠĠĠĠĠĠĠĠĠĠĠĠĠ": 19258,
    "abular": 4762,
    "Ġmiraculous": 13546,
    "capting": 24036,
    "mushroom": 26395,
    "Ġappearing": 9840,
    "Ġunwinding": 22057,
    "Ġmich": 21304,
    "Ġdestroy": 5772,
    "pumps": 21026,
    "Ġpreceded": 13427,
    "Ġmilan": 19534,
    "Ġink": 8802,
    "extreme": 11029,
    "Ġchin": 4891,
    "wherein": 19107,
    "acca": 23596,
    "itals": 17820,
    "Ġspanish": 2830,
    "arken": 18667,
    "Ġwight": 12550,
    "Ġbrahma": 26319,
    "erate": 7149,
    "longbourn": 9895,
    "Ġer": 8104,
    "reeable": 3613,
    "Ġpell": 21453,
    "Ġbarbara": 24818,
    "ickering": 22667,
    "Ġtinge": 25087,
    "Ġevidence": 5269,
    "Ġoppression": 23649,
    "ither": 1547,
    "Ġamiable": 4268,
    "Ġcurrent": 13008,
    "Ġringing": 13330,
    "Ġfleets": 23773,
    "Ġhides": 16263,
    "Ġprob": 971,
    "itiousness": 21332,
    "Ġauthoritative": 19560,
    "Ġdirected": 5579,
    "Ġstrictest": 17042,
    "800": 17476,
    "Ġwhirled": 14959,
    "Ġmagnificent": 9841,
    "Ġcarr": 23088,
    "Ġconcise": 23320,
    "breat": 10077,
    "Ġreadiness": 13047,
    "Ġsouth": 4909,
    "rages": 15678,
    "nursery": 26399,
    "Ġconcealed": 7495,
    "Ġauthority": 7748,
    "Ġpainter": 19167,
    "Ġrelieve": 8223,
    "Ġadieu": 10050,
    "ii": 4013,
    "sometimes": 5971,
    "Ġdrag": 6184,
    "Ġrecursive": 4782,
    "Ġabstraction": 26539,
    "Ġency": 21930,
    "Ġdischarge": 18556,
    "Ġvice": 6548,
    "stupid": 12673,
    "sorting": 17004,
    "Ġshades": 9462,
    "uded": 6286,
    "dread": 8728,
    "question": 5418,
    "Ġevol": 2818,
    "Ġfountain": 7365,
    "answered": 10273,
    "Ġoxen": 19949,
    "Ġulster": 14997,
    "apparat": 22841,
    "Ġsubord": 22784,
    "somewhere": 12011,
    "Ġfloats": 9412,
    "Ġsandwic": 24664,
    "Ġrecede": 25968,
    "poke": 18798,
    "athom": 12936,
    "ph": 935,
    "Ġaids": 12226,
    "Y": 61,
    "Ġtransform": 738,
    "wrinkles": 16554,
    "Ġtube": 15003,
    "Ġshook": 4465,
    "Ġquaint": 18465,
    "Ġwarmup": 3922,
    "Ġproducing": 11897,
    "presents": 18797,
    "Ġgates": 10200,
    "Ġdepress": 14047,
    "Ġharshly": 25249,
    "ryphon": 4163,
    "Ġrecalled": 8537,
    "Ġyet": 1029,
    "Ġmanufactured": 22327,
    "ald": 15622,
    "Ġ-": 1943,
    "aching": 5831,
    "Ġbewildered": 15212,
    "Ġhusband": 3621,
    "itatingly": 25277,
    "Ġnarrowed": 24355,
    "aintance": 3569,
    "Ġcharger": 19008,
    "Ġdimly": 9487,
    "Ġdefinitions": 22941,
    "proves": 23390,
    "Ġhull": 5446,
    "Ġpork": 21454,
    "Ġbathing": 20198,
    "Ġquarrel": 7292,
    "Ġandes": 12638,
    "clair": 18932,
    "whisper": 17083,
    "Ġexcell": 10417,
    "Ġawfulness": 23586,
    "Ġconsequences": 11335,
    "Ġselect": 3998,
    "Ġforefinger": 16443,
    "Ġmorocc": 22976,
    "[": 63,
    "Ġupwards": 7633,
    "Ġpeninsula": 23193,
    "https": 11682,
    "orers": 14102,
    "brill": 16490,
    "Ġworship": 10366,
    "profitable": 17071,
    "Ġladies": 3191,
    "Ġpledge": 11599,
    "Ġsemantic": 1959,
    "Ġq": 1085,
    "ception": 6562,
    "Ġavenue": 13620,
    "tea": 18740,
    "Ġsuperst": 7703,
    "tery": 14036,
    "Ġlabeled": 3718,
    "Ġlad": 2363,
    "cursed": 23841,
    "proceeded": 25190,
    "painter": 24896,
    "Ġcrystal": 17214,
    "Ġconfederate": 17353,
    "etency": 21579,
    "bil": 20770,
    "Ġfiltering": 23923,
    "Ġglimpses": 13431,
    "Ġsepar": 3999,
    "Ġmuscles": 12086,
    "Ġgum": 21592,
    "_,âĢĻâĢĿ": 20399,
    "Ġharp": 17923,
    "Ġspray": 7893,
    "Ġflora": 11416,
    "grin": 19105,
    "illar": 5101,
    "Ġdestructive": 23487,
    "preading": 18499,
    "Ġportion": 7492,
    "cing": 1015,
    "quakes": 21853,
    "Ġjanuary": 13652,
    "Ġdiscussed": 19558,
    "Ġfretfully": 25447,
    "Ġsights": 7472,
    "speaking": 12096,
    "Ġslate": 11936,
    "Ġmccarthys": 19661,
    "Ġpurchased": 12258,
    "Ġthat": 335,
    "Ġpatron": 7461,
    "Ġboy": 3021,
    "Ġdistricts": 20262,
    "ĠĠĠĠĠĠĠĠĠĠĠĠĠĠĠĠĠĠĠĠĠĠĠĠĠĠĠĠĠĠĠĠĠĠĠĠĠĠĠĠĠĠĠĠ": 12151,
    "Ġaffairs": 6877,
    "Ġglac": 9345,
    "ooping": 21006,
    "does": 6194,
    "Ġdestro": 3722,
    "Ġsherlock": 3892,
    "perth": 22182,
    "occasionally": 13520,
    "Ġ9": 5900,
    "Ġpair": 5706,
    "tawny": 26404,
    "Ġrmsprop": 3356,
    "roses": 17956,
    "Ġassoc": 6402,
    "Ġ69": 19660,
    "Ġintegration": 9867,
    "itary": 4751,
    "ouch": 2781,
    "stricken": 9883,
    "Ġconn": 9229,
    "Ġwake": 4749,
    "Ġcust": 11581,
    "a": 69,
    "apply": 18758,
    "Ġeurope": 8061,
    "Ġahoy": 12182,
    "ating": 663,
    "lob": 22502,
    "balanced": 14555,
    "Ġintricacies": 15137,
    "imly": 12684,
    "ampl": 21839,
    "Ġacquired": 13041,
    "Ġthey": 574,
    "cture": 15662,
    "Ġtried": 3648,
    "Ġultimately": 17164,
    "inte": 5144,
    "Ġdines": 21421,
    "Ġclams": 19987,
    "Ġvishnoo": 12748,
    "mist": 5686,
    "tied": 21069,
    "ineff": 21977,
    "Ġchili": 25561,
    "Ġale": 9154,
    "Ġdreadful": 4920,
    "bweb": 20790,
    "calmed": 16203,
    "encounter": 20390,
    "Ġobsole": 22695,
    "Ġmoods": 14950,
    "Ġdam": 2217,
    "Ġwreck": 7314,
    "mor": 4214,
    "omist": 21635,
    "Ġoverwhelm": 25052,
    "Ġstayed": 7997,
    "Ġinvolve": 11046,
    "Ġvacuous": 24344,
    "pervading": 18955,
    "commence": 19990,
    "Ġgentlemanlike": 12064,
    "Ġtopsails": 19193,
    "indirectly": 18436,
    "Ġveter": 15809,
    "Ġcaptains": 7457,
    "cheeked": 19339,
    "Ġdeacon": 18143,
    "robotics": 11306,
    "ate": 421,
    "Ġeaves": 15673,
    "Ġcondu": 18112,
    "Ġlevelled": 11284,
    "Ġigniting": 25070,
    "anct": 21356,
    "ers": 404,
    "Ġdetermined": 2224,
    "Ġmounts": 17806,
    "Ġneglig": 18877,
    "ameter": 2993,
    "Ġice": 3605,
    "ute": 4642,
    "gracechurch": 24581,
    "Ġachieve": 3674,
    "stay": 9680,
    "Ġringle": 18212,
    "Ġantichronical": 26609,
    "Ġdeclining": 23961,
    "Ġsubdivisions": 26037,
    "Ġhurst": 5582,
    "Ġinjury": 10540,
    "Ġmice": 13858,
    "explained": 23137,
    "urious": 21700,
    "Ġcowards": 12570,
    "oring": 1860,
    "affect": 13211,
    "alluring": 18352,
    "Ġmisunderstand": 18701,
    "Ġblush": 14401,
    "overcoat": 19053,
    "Ġinferiority": 17115,
    "pregn": 18500,
    "Ġcoronation": 13332,
    "Ġpiping": 23228,
    "Ġrefresh": 10346,
    "Ġhurling": 19110,
    "gar": 5615,
    "acknowledged": 15201,
    "Ġbulldog": 23857,
    "Ġconstrain": 2633,
    "Ġcalculates": 13264,
    "Ġmix": 7576,
    "Ġlain": 17961,
    "Ġcomforters": 25800,
    "perplex": 18343,
    "lected": 1635,
    "Ġfonder": 17880,
    "ashion": 3858,
    "Ġturnpike": 23026,
    "Ġfurther": 1055,
    "Ġhypothesis": 14780,
    "Ġacquies": 11097,
    "Ġrapidity": 11100,
    "Ġsuperlative": 26074,
    "Ġprojecting": 9984,
    "Ġpitch": 5767,
    "obviously": 25242,
    "Ġtied": 7357,
    "free": 8735,
    "Ġfake": 5810,
    "Ġunden": 22010,
    "Ġalso": 1343,
    "Ġfries": 21413,
    "Ġunfavourable": 17416,
    "Ġtistig": 26413,
    "spring": 7231,
    "eland": 11619,
    "Ġdid": 836,
    "Ġduration": 20352,
    "Ġsorrowful": 10536,
    "Ġphrenologically": 20392,
    "photograph": 16152,
    "strate": 12671,
    "Ġesc": 2253,
    "aside": 10191,
    "tis": 4106,
    "thrasher": 25658,
    "reach": 17757,
    "Ġabed": 22262,
    "Ġfarther": 5954,
    "precisely": 6917,
    "Ġprof": 2460,
    "Ġremorseless": 13450,
    "Ġchoke": 22246,
    "Ġwhites": 21714,
    "Ġgoblets": 20517,
    "Ġferocity": 16866,
    "avering": 24793,
    "Ġsuccess": 3611,
    "Ġtragedy": 10667,
    "adamite": 20591,
    "appalling": 22840,
    "apped": 5395,
    "Ġfounder": 17883,
    "gree": 10701,
    "Ġplat": 8520,
    "Ġsoup": 7067,
    "holding": 7738,
    "Ġthrill": 24541,
    "complain": 14357,
    "Ġsentence": 6187,
    "tears": 11036,
    "kov": 17586,
    "Ġclipping": 2441,
    "tumultuous": 20397,
    "Ġpopulous": 16826,
    "Ġfemale": 8344,
    "deprived": 19897,
    "Ġsupplication": 25491,
    "distant": 13333,
    "Ġbanished": 10616,
    "Ġbucket": 8787,
    "shipped": 18493,
    "twain": 23700,
    "Ġmushroom": 13234,
    "planks": 21957,
    "Ġdirecting": 16298,
    "waiting": 12218,
    "organic": 25946,
    "about": 3586,
    "Ġfolks": 14425,
    "hibited": 17426,
    "//": 11463,
    "Ġrollicking": 24451,
    "upon": 2724,
    "aways": 15309,
    "Ġgentleman": 3039,
    "petulance": 24299,
    "vative": 1650,
    "Ġjiff": 22293,
    "Ġunwillingness": 20030,
    "Ġprofessed": 14723,
    "Ġsim": 733,
    "Ġprofit": 14585,
    "engagements": 25853,
    "ence": 393,
    "Ġreasonably": 11091,
    "Ġfirm": 3870,
    "dropout": 3194,
    "Ġcounty": 9030,
    "Ġsuppress": 13021,
    "must": 3577,
    "Ġspind": 18307,
    "vice": 15448,
    "tram": 19634,
    "landsmen": 25059,
    "Ġsymbols": 2797,
    "Ġrevenue": 26194,
    "granting": 23412,
    "Ġbo": 797,
    "Ġdepos": 11007,
    "locks": 14455,
    "bishop": 13693,
    "adequately": 20318,
    "supposed": 13314,
    "Ġshirr": 18231,
    "Ġphysical": 7522,
    "Ġardour": 8042,
    "unnecessary": 21877,
    "ĠĠĠĠĠĠĠĠĠĠĠĠĠĠĠĠĠĠĠĠĠĠĠĠĠĠ": 13387,
    "Ġsongs": 13419,
    "-": 17,
    "promote": 24727,
    "Ġcongealed": 25981,
    "Ġexecutors": 19532,
    "Ġours": 4610,
    "Ġmutual": 8296,
    "uracy": 1073,
    "Ġunobserved": 18249,
    "Ġhopelessly": 16376,
    "Ġcrop": 10162,
    "enthusiastic": 20691,
    "quaker": 15760,
    "Ġcreate": 2092,
    "spirits": 8054,
    "Î": 143,
    "hearth": 15498,
    "Ġpreach": 14172,
    "call": 8722,
    "inordinate": 21193,
    "Ġmask": 1866,
    "Ġlegit": 16472,
    "Ġfilled": 4391,
    "Ġinsurgents": 26600,
    "Ġwrapt": 24595,
    "Ġfaithful": 9502,
    "Ġye": 900,
    "Ġharriet": 24572,
    "itime": 15545,
    "Ġnapole": 15114,
    "Ġpatchwork": 24140,
    "Ġaccident": 5380,
    "Ġgravesend": 15215,
    "Ġlive": 2738,
    "fatig": 17089,
    "Ġtints": 17727,
    "ide": 721,
    "umberland": 16837,
    "Ġtrick": 7018,
    "Ġspo": 6846,
    "Ġ134": 24784,
    "Ġsluggishly": 25891,
    "Ġcomfortless": 23910,
    "coward": 13699,
    "Ġfast": 1717,
    "Ġrespectfully": 18993,
    "Ġdevelopment": 7061,
    "Ġinsult": 6747,
    "drugg": 20837,
    "Ġbushes": 16398,
    "Ġlucases": 9009,
    "Ġpersist": 16272,
    "Ġmultitud": 18746,
    "bucket": 17493,
    "Ġretire": 10381,
    "Ġsped": 22122,
    "crow": 9590,
    "Ġvict": 3762,
    "Ġarchipelagoes": 14343,
    "Ġinvention": 19951,
    "Ġother": 759,
    "objections": 19915,
    "Ġfin": 1461,
    "Ġex": 360,
    "Ġchanges": 2286,
    "romeda": 17262,
    "Ġsodden": 25535,
    "oftentimes": 19419,
    "concl": 12866,
    "Ġantagonist": 26328,
    "================": 3723,
    "Ġdirector": 18920,
    "flag": 14710,
    "Ġshining": 8171,
    "vitiated": 25754,
    "Ġtenth": 13824,
    "Ġutmost": 5496,
    "ý": 190,
    "excellent": 8043,
    "Ġdominic": 25381,
    "orable": 8119,
    "Ġperfections": 23607,
    "Ġreappeared": 21662,
    "Ġbound": 3519,
    "Ġmaiden": 13385,
    "thoughtfully": 24041,
    "Ġprobable": 5570,
    "sery": 17661,
    "Ġstraighten": 24001,
    "Ġdisturbed": 8671,
    "fedallah": 25522,
    "dishon": 20402,
    "Ġimpious": 15985,
    "Ġrelationship": 2314,
    "Ġcomprising": 16066,
    "Ġmonsie": 11447,
    "Ġpredicts": 2596,
    "older": 15753,
    "abond": 15738,
    "Ġphrenologists": 25608,
    "Ġpurposes": 11168,
    "Ġsympathised": 14861,
    "crack": 19839,
    "Ġfirst": 937,
    "Ġvisual": 5741,
    "clings": 23149,
    "isite": 15560,
    "Ġjoint": 12032,
    "Ġ$": 21149,
    "ulence": 15763,
    "ffy": 18316,
    "Ġimproper": 22745,
    "Ġpurposed": 23551,
    "Ġconsisting": 8971,
    "Ġrecogn": 2654,
    "crum": 17511,
    "tastes": 21095,
    "Ġcrash": 12000,
    "Ġhydraulic": 10063,
    "Ġtheirs": 7024,
    "Ġsuspending": 19242,
    "pret": 7212,
    "Ġallures": 22005,
    "Ġark": 10275,
    "official": 24914,
    "rom": 420,
    "Ġherds": 9715,
    "Ġlarger": 1401,
    "Ġcorrespondent": 19821,
    "Ġthread": 14538,
    "Ġskipper": 22795,
    "Ġexterm": 21826,
    "big": 13684,
    "Ġstudied": 11116,
    "Ġluc": 3312,
    "Ġfinancier": 26583,
    "stars": 18019,
    "flatter": 23964,
    "danced": 20827,
    "aken": 1869,
    "Ġfootsteps": 16571,
    "Ġcheese": 9375,
    "Ġeyebrows": 23515,
    "rets": 12538,
    "ittingly": 18803,
    "Ġgreedily": 18965,
    "ampton": 18144,
    "Ġdoubts": 8578,
    "Ġinnermost": 12158,
    "Ġworking": 5575,
    "Ġdecorated": 22442,
    "Ġstooping": 13059,
    "Ġincurable": 22550,
    "Ġheighten": 19528,
    "Ġsagaciously": 24731,
    "trucks": 25419,
    "Ġcoefficient": 2885,
    "pth": 2381,
    "Ġgale": 5822,
    "Ġphilistines": 26082,
    "offers": 16392,
    "brance": 7284,
    "fortunately": 9449,
    "Ġbad": 3987,
    "wait": 11320,
    "bildad": 9586,
    "neck": 14241,
    "ú": 187,
    "officers": 10627,
    "bent": 15310,
    "Ġspaces": 3110,
    "deser": 10402,
    "Ġstabbed": 25456,
    "Ġsplin": 8618,
    "grass": 23411,
    "exceeded": 24999,
    "bet": 6109,
    "Ġoblique": 20168,
    "Ġparacels": 13666,
    "Ġaxis": 12305,
    "Ġinterruption": 9472,
    "ilies": 18056,
    "Ġagreed": 7029,
    "pot": 10117,
    "fort": 1749,
    "covering": 15333,
    "Ġspectrum": 4471,
    "Ġcoat": 4551,
    "paying": 25411,
    "Ġrecip": 16138,
    "scor": 13017,
    "uned": 21868,
    "Ġshetland": 22156,
    "Ġdreamed": 16629,
    "Ġendangered": 16302,
    "Ġmight": 965,
    "Ġinclude": 1874,
    "Ġkrusen": 20713,
    "child": 5538,
    "Ġfasten": 11132,
    "summon": 23414,
    "Ġri": 3395,
    "wheel": 22867,
    "knives": 14912,
    "Ġfixing": 13155,
    "Ġdelicate": 6480,
    "att": 1457,
    "osite": 4893,
    "alogies": 25158,
    "amous": 15758,
    "ond": 1161,
    "deceiving": 22141,
    "Ġhighlands": 22772,
    "Ġstre": 2108,
    "Ġventil": 8019,
    "string": 15683,
    "Ġmel": 4816,
    "secret": 12234,
    "general": 7489,
    "ribution": 14306,
    "trained": 4238,
    "ri": 390,
    "Ġcircumspection": 25884,
    "ellig": 525,
    "Ġcastle": 14716,
    "cen": 17502,
    "Ġenergetic": 15196,
    "Ġpoured": 8800,
    "induce": 22371,
    "Ġbob": 22633,
    "ĠâĢĺ_": 11117,
    "Ġclank": 15965,
    "Ġspaniards": 25555,
    "conv": 7213,
    "knot": 13744,
    "A": 37,
    "Ġrocky": 13386,
    "Ġchanging": 11751,
    "Ġwhel": 15864,
    "dig": 4929,
    "Ġwriting": 4667,
    "Ġsnarl": 25715,
    "jected": 22711,
    "weep": 22681,
    "Ġdeserts": 10507,
    "elsewhere": 19867,
    "Ġarmed": 9259,
    "specimen": 26605,
    "Ġcrow": 3804,
    "depths": 25663,
    "Ġmislead": 22755,
    "Ġcommonest": 23087,
    "ici": 8439,
    "Ġshocks": 16457,
    "uncomfortable": 18160,
    "Ġbun": 6006,
    "Ġdisguise": 10045,
    "Ġquicker": 16507,
    "Ġslowly": 3619,
    "ro": 301,
    "Ġapartments": 19613,
    "conviction": 19963,
    "Ġplun": 6281,
    "Ġrevelry": 15135,
    "Ġcrocodile": 20739,
    "Ġtobacco": 8366,
    "Ġcognitive": 13633,
    "Ġsleeve": 20139,
    "Ġrelev": 1715,
    "mountains": 15179,
    "Ġethiop": 26155,
    "Ã¦": 4335,
    "Ġhazard": 20430,
    "answ": 15882,
    "Ġbeing": 1163,
    "Ġque": 4159,
    "Ġuncommonly": 7759,
    "Ġfact": 1730,
    "Ġcollection": 8221,
    "Ġscale": 1549,
    "Ġequilibrium": 4141,
    "Ġflamingo": 15099,
    "confirm": 16807,
    "Ġenter": 4028,
    "Ġpads": 21471,
    "Ġticking": 25033,
    "Ġhasn": 12922,
    "inclined": 10639,
    "iony": 9191,
    "pal": 9616,
    "ithmetic": 18061,
    "scar": 9815,
    "iscient": 17851,
    "Ġpunchbowl": 20230,
    "Ġswitzerland": 10379,
    "Ġmagic": 8232,
    "Ġwheeling": 18286,
    "Ġmaintains": 2145,
    "gences": 20876,
    "boast": 23250,
    "narwhale": 17317,
    ":--": 5784,
    "sharpening": 22456,
    "Ġunite": 9253,
    "opening": 10312,
    "Ġoutward": 7903,
    "fen": 20849,
    "Ġinsanity": 12045,
    "istan": 22105,
    "Ġpropose": 9851,
    "Ġaut": 1789,
    "boscombe": 26121,
    "Ġtransfer": 2222,
    "oury": 22301,
    "human": 7088,
    "Ġprobabilities": 4966,
    "twist": 23701,
    "ssing": 3808,
    "kicked": 20942,
    "Ġtobacc": 7852,
    "Ġagonising": 25373,
    "Ġburglar": 17354,
    "Ġdevout": 14328,
    "Ġfloat": 12030,
    "Ġdare": 3545,
    "Ġmeantime": 6206,
    "uel": 6966,
    "Ġdromed": 15594,
    "Ġresisted": 22538,
    "Ġproduces": 2094,
    "Ġfamil": 4318,
    "Ġserve": 9367,
    "rit": 21034,
    "cannibal": 15223,
    "Ġdress": 4019,
    "calm": 8934,
    "Ġbells": 19600,
    "Ġarmchair": 8270,
    "invol": 12527,
    "ugl": 23286,
    "Ġwe": 387,
    "Ġaccounts": 7207,
    "Ġhastened": 9004,
    "Ġprofessor": 11230,
    "dually": 3283,
    "Ġallowed": 4057,
    "lonely": 20956,
    "--------": 14779,
    "Ġpupella": 20420,
    "Ġjackson": 24240,
    "Ġheaved": 9381,
    "iline": 21718,
    "uting": 15657,
    "icious": 7380,
    "vessel": 11377,
    "ried": 926,
    "Ġdays": 2079,
    "aim": 2759,
    "ums": 10272,
    "itating": 9650,
    "ch": 321,
    "Ġeffort": 8201,
    "Ġdisplaying": 16966,
    "uer": 21099,
    "Ġfun": 522,
    "Ġgradu": 15830,
    "Ġcrushed": 9422,
    "Ġsearched": 15814,
    "Ġprophe": 13077,
    "Ġaffecting": 2323,
    "Ġstren": 15717,
    "Ġworker": 23055,
    "Ġunch": 18239,
    "Ġultimate": 12347,
    "Ġbermud": 26439,
    "valued": 2855,
    "Ġexig": 21823,
    "Ġcommended": 18656,
    "sought": 15426,
    "Ġmund": 21317,
    "Ġbenefited": 19396,
    "remembered": 17350,
    "Ġcistern": 17380,
    "Ġchr": 3689,
    "ographical": 16786,
    "compass": 9459,
    "castles": 14636,
    "Ġgardeners": 12118,
    "vint": 21113,
    "Ġwhaler": 7520,
    "desk": 23203,
    "Ġmusty": 22677,
    "detained": 24382,
    "fem": 17537,
    "Ġmoral": 6579,
    "imely": 13997,
    "Ġappetite": 12382,
    "==": 943,
    "Ġvices": 14082,
    "Ġbirds": 5873,
    "iest": 4035,
    "Ġnupt": 13942,
    "Ġcompared": 2231,
    "Ġcreating": 2996,
    "hours": 9124,
    "Ġsitt": 21216,
    "iries": 18169,
    "obvious": 9356,
    "endous": 6850,
    "Ġstepping": 9353,
    "Ġlet": 1113,
    "Ġpeev": 22690,
    "engine": 18926,
    "ores": 2415,
    "wheeler": 16187,
    "Ġprocesses": 3634,
    "Ġchoice": 2165,
    "Ġunfinished": 19508,
    "Ġjust": 1240,
    "Ġpoor": 1710,
    "anyone": 16592,
    "resses": 16149,
    "Ġask": 1495,
    "Ġpartly": 6713,
    "legra": 10789,
    "Ġ61": 24364,
    "alogue": 25159,
    "subs": 14301,
    "Ġinner": 9670,
    "gay": 11488,
    "Ġunful": 22008,
    "Ġstudious": 23232,
    "Ġpoliteness": 8273,
    "ue": 1178,
    "Ġperception": 9749,
    "Ġfris": 23254,
    "stri": 6249,
    "Ġhappening": 14382,
    "Ġmemory": 2275,
    "wherefore": 19108,
    "Ġalexander": 17423,
    "Ġwretchedly": 19505,
    "butter": 11783,
    "_": 67,
    "Ġfantastic": 10058,
    "Ġwilfully": 16766,
    "Ġporpoises": 13381,
    "Ġmoist": 9284,
    "icity": 2543,
    "Ġevanesc": 24294,
    "Ġindelicacy": 25695,
    "Ġtelegram": 15222,
    "ubl": 3595,
    "Ġdisinclined": 22526,
    "Ġcases": 3961,
    "atus": 21259,
    "doesn": 19819,
    "Ġkingdom": 12017,
    "inger": 6812,
    "oman": 2017,
    "Ġclearly": 6896,
    "Ġcircle": 4977,
    "Ġcontrols": 1734,
    "Ġjane": 1756,
    "porary": 14552,
    "jumped": 20245,
    "Ġstrict": 7222,
    "Ġchannels": 26013,
    "dut": 10087,
    "preser": 9759,
    "Ġlongitude": 11011,
    "Ġpovelson": 26552,
    "Ġindignation": 8346,
    "Ġshalt": 18230,
    "Ġgreeks": 20011,
    "Ġeager": 3570,
    "Ġmin": 1027,
    "situ": 9621,
    "Ġpitiable": 9913,
    "Ġmeta": 3267,
    "elled": 3992,
    "Ġkilled": 4955,
    "Ġplanning": 14750,
    "Ġsmothered": 20719,
    "Ġlandscape": 12415,
    "İ": 241,
    "Ġactuated": 18545,
    "sively": 13785,
    "Ġintermix": 22575,
    "Ġident": 2242,
    "Ġspurned": 12794,
    "Ġcet": 6669,
    "canonical": 22960,
    "Ġgrunt": 18736,
    "Ġerie": 20052,
    "Ġloft": 5642,
    "Ġobjective": 3766,
    "Ġtoler": 7588,
    "incess": 15481,
    "fier": 9593,
    "_).âĢĶ": 8681,
    "ils": 3180,
    "Ġdamning": 19139,
    "Ġbroadway": 23981,
    "Ġmaintenance": 17461,
    "loss": 22503,
    "shell": 16285,
    "ality": 2512,
    "Ġtepid": 26412,
    "Ġinvisibly": 24817,
    "Ġrealistic": 5860,
    "Ġseap": 15812,
    "seized": 14034,
    "solut": 3365,
    "Ġspecimens": 18858,
    "Ġjealousy": 13575,
    "Ġreader": 11932,
    "Ġpremeditated": 22231,
    "alot": 15623,
    "Ġfriendless": 23023,
    "Ġmuseum": 15270,
    "Ġflinging": 13584,
    "Ġryder": 10259,
    "nable": 13761,
    "iverse": 13114,
    "orter": 4254,
    "Ġdesired": 4664,
    "Ġagain": 814,
    "secut": 7866,
    "Ġsurmised": 24919,
    "Ġobser": 2072,
    "Ġconsecutive": 20701,
    "difficult": 10057,
    "Ġoverjoy": 15969,
    "illa": 12790,
    "Ġsage": 17752,
    "Ġrealising": 18982,
    "rist": 10122,
    "advantage": 8658,
    "directed": 20403,
    "boards": 23252,
    "Ġamphitheat": 26251,
    "Ġyarns": 15194,
    "Ġbachelors": 24860,
    "Ġeither": 2606,
    "Ġinmost": 17930,
    "Ġplum": 11820,
    "Ġformations": 18748,
    "Ġdirections": 1970,
    "Ġago": 3135,
    "Ġlowering": 7986,
    "í": 174,
    "Ġwhirlp": 16963,
    "Ġmagical": 23096,
    "conjecturing": 20133,
    "Ġfronts": 20530,
    "erect": 20847,
    "grate": 23410,
    "etwork": 443,
    "uning": 1314,
    "Ġfavoured": 16361,
    "Ġalthough": 4151,
    "Ġoverjoyed": 17457,
    "snatched": 24850,
    "Ġreverence": 12057,
    "Ġcomplied": 14733,
    "ensation": 22543,
    "world": 5058,
    "Ġthousand": 2783,
    "ocratic": 17245,
    "Ġchiselled": 25559,
    "Ġbring": 3325,
    "Ġdiligence": 17114,
    "phren": 22775,
    "ulous": 4447,
    "fac": 17541,
    "Ġwillingness": 24910,
    "°": 113,
    "Ġmean": 742,
    "by": 1158,
    "direction": 17524,
    "Ġacquaint": 13042,
    "uted": 7592,
    "Ġmagnetic": 17240,
    "Ġalong": 1978,
    "ð": 177,
    "Ļ": 252,
    "Ġvast": 3298,
    "Ġvari": 833,
    "banish": 20781,
    "Ġtinted": 13821,
    "previously": 17207,
    "Ġtranslation": 3087,
    "Ġtying": 15472,
    "ead": 2602,
    "shabbily": 26246,
    "Ġungenerous": 18266,
    "Ġhammock": 5768,
    "wit": 7817,
    "rowed": 22860,
    "Ġxxxvi": 24969,
    "neying": 22460,
    "Ġlose": 5028,
    "Ġpleated": 16295,
    "Ġcommands": 16588,
    "Ġspeeding": 23563,
    "expressing": 16801,
    "Ġtallest": 15473,
    "Ġfriends": 2658,
    "tomb": 21092,
    "abled": 12791,
    "Ġfaithfully": 14886,
    "desirable": 23204,
    "Ġlatent": 19654,
    "¹": 122,
    "isco": 12578,
    "Ġhappiness": 2944,
    "ises": 3654,
    "Ġcheap": 13088,
    "acquainted": 7313,
    "Ġless": 1937,
    "Ġilluminated": 20174,
    "quite": 4646,
    "rief": 6202,
    "insensibility": 23066,
    "Ġoak": 6128,
    "Ġfanny": 23387,
    "Ġdwelt": 12602,
    "Ġselves": 21221,
    "Ġreap": 18026,
    "Ġlazily": 11380,
    "inative": 15483,
    "Ġslim": 18936,
    "conce": 8510,
    "stating": 21644,
    "Ġag": 685,
    "Ġcan": 470,
    "Ġcatch": 4438,
    "warrior": 24798,
    "Ġtasted": 12526,
    "Ġcharlotte": 3889,
    "deep": 997,
    "appearance": 5333,
    "Ġsom": 1276,
    "Ġremoving": 12114,
    "Ġexactness": 23603,
    "Ġlaughter": 9027,
    "Ġapprehension": 7113,
    "ep": 442,
    "motives": 26137,
    "spot": 9787,
    "unhappy": 10237,
    "Ġdeposited": 25484,
    "Ġgeneric": 18443,
    "Ġloitered": 26525,
    "Ġliberal": 12188,
    "jephro": 26392,
    "Ġfailed": 6671,
    "remorse": 14465,
    "Ġsolved": 8931,
    "Ġlieuten": 13325,
    "Ġrose": 3444,
    "lemency": 21372,
    "Ġstream": 5186,
    "azine": 19130,
    "Ġblend": 14398,
    "beef": 18520,
    "Ġpermit": 9748,
    "Ġdeception": 18142,
    "took": 6164,
    "Ġequality": 16360,
    "Ġpeter": 10535,
    "Ġcommunicate": 10577,
    "Ġomin": 11576,
    "Ġabatement": 22273,
    "come": 2377,
    "Ġquestioning": 10464,
    "Ġpian": 13916,
    "farintosh": 24553,
    "Ġopenshaw": 7954,
    "Ġlonely": 6823,
    "Ġpicked": 6341,
    "Ġconf": 1820,
    "akes": 2220,
    "pend": 6367,
    "pid": 1385,
    "mankind": 14373,
    "Ġturbul": 23611,
    "Ġknitted": 19588,
    "pede": 19843,
    "Ġcolumb": 22853,
    "Ġpronounced": 8350,
    "rie": 2788,
    "bber": 4565,
    "Ġinference": 9671,
    "Ġfins": 9663,
    "Ġcompass": 4405,
    "Ġleisure": 6539,
    "Ġrhine": 12354,
    "Ġpew": 9314,
    "Ġteasing": 11889,
    "Ġconsummation": 17424,
    "Ġtranquil": 7310,
    "Ġjackets": 19601,
    "Ġassembly": 10642,
    "Ġmiz": 10777,
    "Ġprair": 7746,
    "cord": 8723,
    "Ġpredicted": 2043,
    "Ġpromised": 5181,
    "Ġsentinel": 26065,
    "uther": 8816,
    "kings": 17583,
    "Ġwanted": 4968,
    "entric": 11618,
    "Ġequivalent": 4802,
    "Ġjoke": 8868,
    "Ġpolic": 13160,
    "ego": 4034,
    "wich": 11543,
    "Ġabruptness": 25299,
    "Ġliked": 5264,
    "Ġhimself": 1353,
    "Ġcongreg": 8462,
    "retrie": 18922,
    "Ġcompressed": 21847,
    "dared": 13701,
    "Ġincites": 22549,
    "exertion": 16014,
    "escript": 18471,
    "Ġeffusion": 22497,
    "splice": 17170,
    "untary": 9866,
    "Ġfrightful": 7735,
    "Ġmalice": 7152,
    "Ġnetherfield": 3931,
    "shoe": 14966,
    "Ġnat": 12642,
    "invisible": 17740,
    "hatch": 15363,
    "phur": 16151,
    "Ġmutually": 23954,
    "Ġhairs": 13229,
    "Ġvow": 10246,
    "offended": 16394,
    "illed": 2628,
    "Ġtop": 2471,
    "ool": 17618,
    "olerably": 11672,
    "Ġbiting": 17861,
    "Ġsect": 17751,
    "oam": 8751,
    "Ġspeaker": 19148,
    "encoun": 12296,
    "spir": 5738,
    "doom": 23373,
    "steam": 23957,
    "Ġheinous": 18038,
    "Ġhval": 21485,
    "Ġinsects": 25646,
    "Ġdemo": 10880,
    "unreasonable": 18162,
    "Ġconflag": 20334,
    "Ġsubdued": 11030,
    "Ġ113": 19695,
    "smitten": 23906,
    "variance": 2659,
    "ogrand": 26261,
    "mits": 13755,
    "Ġcompare": 9302,
    "ong": 536,
    "Ġentitled": 8538,
    "Ġenlist": 21933,
    "Ġbarrow": 12067,
    "behaviour": 11301,
    "erm": 785,
    "Ġuninter": 18246,
    "uncontrollable": 20594,
    "succeeded": 15174,
    "Ġdepending": 14296,
    "Ġmorsel": 20676,
    "Ġmeadow": 17151,
    "Ġqueerest": 16412,
    "Ġbuild": 6474,
    "Ġtypewriter": 19097,
    "Ġgrate": 12961,
    "icates": 11616,
    "corners": 17367,
    "Ġsplashing": 16549,
    "province": 26072,
    "Ġfearlessness": 19160,
    "Ġdebt": 12165,
    "Ġoptimize": 1652,
    "Ġindestructible": 26572,
    "Ġcreative": 9830,
    "Ġamusing": 11798,
    "com": 998,
    "Ġspectre": 16630,
    "Ġsuperflu": 14554,
    "urged": 18048,
    "Ġawaken": 23585,
    "Ġappro": 667,
    "spark": 18688,
    "advance": 12154,
    "Ġemblematical": 25788,
    "ased": 1269,
    "runs": 25415,
    "Ġinstructions": 11195,
    "armed": 7251,
    "Ġjeopardy": 13595,
    "Ġagric": 22512,
    "Ġgliding": 8560,
    "Ġceases": 19312,
    "Ġtablets": 13154,
    "Ġteased": 18807,
    "Ġoffspring": 16142,
    "Ġlords": 14641,
    "hunsford": 24386,
    "cure": 11474,
    "Ġtemple": 7653,
    "rushed": 10584,
    "aggoo": 5130,
    "Ġendeav": 2953,
    "alone": 10183,
    "Ġgrinning": 9053,
    "irr": 12734,
    "archbishop": 22892,
    "Ġborn": 5224,
    "Ġcinque": 20484,
    "Ġhed": 7387,
    "Ġtwelve": 4963,
    "Ġabruptly": 15149,
    "begone": 12876,
    "hurst": 19878,
    "biqu": 17497,
    "inspect": 11558,
    "Ġcommons": 22669,
    "Ġk": 484,
    "Ġpersu": 3563,
    "cheon": 23802,
    "pect": 1254,
    "Ġrattler": 24995,
    "itories": 15546,
    "nosed": 20991,
    "Ġflitting": 13024,
    "Ġsig": 868,
    "Ġenduring": 16301,
    "Ġcommanded": 6330,
    "etent": 10199,
    "Ġ126": 24471,
    "Ġbulk": 5591,
    "Ġpetticoat": 15294,
    "ical": 754,
    "miniature": 16765,
    "Ġinfiltrated": 23280,
    "Ġmaterials": 11288,
    "Ġimpatiently": 8337,
    "figured": 20121,
    "Ġforswe": 21771,
    "Ġsaint": 15506,
    "Ġkrusenstern": 26377,
    "over": 1847,
    "Ġclim": 8195,
    "Ġhospital": 15039,
    "Ġhair": 3315,
    "blue": 13692,
    "Ġheeds": 24520,
    "shooting": 16965,
    "Ġtit": 8398,
    "Ġforts": 21769,
    "Ġaloud": 6252,
    "Ġemboldened": 22972,
    "Ġaccomp": 4712,
    "Ġreflect": 6575,
    "Ġbegone": 11916,
    "itudes": 3014,
    "Ġexploding": 2109,
    "Ġinviting": 19143,
    "ele": 9114,
    "icuous": 10835,
    "Ġhateful": 19712,
    "Ġcathedral": 17412,
    "berish": 22713,
    "battle": 12440,
    "esy": 9185,
    "Ġgirls": 4278,
    "Ġturned": 2132,
    "condition": 7058,
    "humoured": 11236,
    "Ġvarious": 3510,
    "daughter": 8353,
    "Ġhermits": 22071,
    "Ġwatchful": 16526,
    "Ġdirectly": 2105,
    "Ġskylarking": 19485,
    "design": 18958,
    "Ġhurts": 19111,
    "Ġoil": 3374,
    "Ġgenerate": 1438,
    "B": 38,
    "Ġdive": 10172,
    "dischar": 19151,
    "Ġcheerless": 16694,
    "weakness": 16122,
    "Ġtag": 15467,
    "Ġspikes": 22133,
    "yramid": 8367,
    "baboon": 25516,
    "Ġprairies": 20019,
    "Ġorgies": 18285,
    "Ġwhiff": 21715,
    "Ġfishing": 9662,
    "Ġamendment": 26025,
    "Ġleathern": 15050,
    "oned": 4630,
    "Ġconfessor": 24016,
    "examine": 25477,
    "ason": 1266,
    "Ġostlers": 25276,
    "Ġproduced": 2452,
    "Ġprotracted": 19467,
    "85": 13680,
    "Ġextinction": 14334,
    "Ġsurprised": 3829,
    "Ġsolar": 22883,
    "uated": 10131,
    "Ġneedn": 19227,
    "Ġinterlacing": 22574,
    "Ġunlucky": 10049,
    "Ġtogether": 1879,
    "Ġcurving": 16233,
    "myster": 16262,
    "manners": 16183,
    "Ġchil": 11749,
    "Ġdisaster": 12884,
    "Ġfraud": 19015,
    "Ġpersuade": 5872,
    "Ġphysiogn": 12386,
    "Ġupbraid": 18318,
    "Ġceti": 24773,
    "Ġboisterous": 20441,
    "Ġplane": 11821,
    "ram": 13971,
    "ights": 8474,
    "Ġobstructed": 24677,
    "Ġslope": 14459,
    "Ġspr": 4023,
    "appropri": 22838,
    "Ġintervened": 25481,
    "Ġapparent": 5466,
    "irresist": 21909,
    "impatient": 13639,
    "one": 614,
    "Ġmuch": 922,
    "Ġdeliciousness": 24126,
    "Ġplaint": 10325,
    "Ġvague": 6406,
    "furnish": 25338,
    "Ġbalmy": 22901,
    "Ġbanners": 24858,
    "Ġconvergence": 974,
    "fatal": 17088,
    "Ġshocked": 9400,
    "Ġdoubloon": 6945,
    "Ġpossessed": 5195,
    "Ġseized": 4833,
    "bal": 2155,
    "Ġtents": 13817,
    "rated": 6227,
    "patter": 4518,
    "nobody": 16144,
    "unworthy": 18161,
    "asters": 8433,
    "Ġconcoct": 19047,
    "Ġfelicity": 7260,
    "hammered": 19006,
    "Ġwhereas": 3853,
    "Ġshow": 3403,
    "wil": 8395,
    "Ġstood": 2555,
    "tailed": 17685,
    "Ġapprehens": 5682,
    "Ġleakage": 23458,
    "pacific": 17641,
    "Ġharry": 24571,
    "Ġlazy": 17050,
    "Ġlivelong": 25511,
    "fordshire": 4676,
    "Ġstud": 1627,
    "bular": 15312,
    "Ġdecreed": 18484,
    "Ġluggage": 25957,
    "Ġguessed": 11282,
    "Ġgaff": 17993,
    "Ġharvard": 24573,
    "Ġgospel": 18000,
    "iom": 20914,
    "Ġconsequence": 5542,
    "Ġstamping": 20029,
    "foreign": 18544,
    "Ġdarker": 13118,
    "sc": 1258,
    "Ġgasped": 11372,
    "urns": 10213,
    "Ġadds": 1807,
    "Ġloggerhead": 13656,
    "Ġguiding": 19239,
    "Ġhearers": 15700,
    "brimming": 23576,
    "Ġthose": 1173,
    "Ġorganisation": 23582,
    "Ġencapsulate": 13673,
    "Ġwolves": 25934,
    "hue": 20897,
    "Ġinsular": 19267,
    "Ġunde": 11710,
    "Ġtoils": 10185,
    "Ġgra": 415,
    "Ġplace": 1649,
    "Ġbeyond": 2458,
    "Ġgold": 3277,
    "Ġpractically": 13093,
    "Ġforeboding": 20382,
    "arrested": 15598,
    "spe": 3560,
    "Ġfairly": 6325,
    "Ġclear": 1949,
    "ists": 4000,
    "Ġendless": 7053,
    "Ġhey": 11640,
    "property": 19998,
    "Ġaskance": 23147,
    "Ġaisle": 21200,
    "writhed": 26080,
    "Ġfulf": 6772,
    "ff": 461,
    "G": 43,
    "Ġobtruded": 20721,
    "Ġvehement": 16200,
    "Ġpossible": 2587,
    "Ġathirst": 20597,
    "Ġdisastrous": 16058,
    "Ġsab": 10762,
    "Ġkills": 15904,
    "tube": 20409,
    "Ġthrow": 3783,
    "Ġracket": 22651,
    "ourable": 4967,
    "Ġcuriously": 13009,
    "Ġaffair": 4460,
    "talked": 14984,
    "Ġdeficiencies": 26570,
    "Ġaugmented": 15104,
    "venty": 6427,
    "Ġnetworks": 593,
    "wic": 21119,
    "travel": 24316,
    "saturday": 14857,
    "feren": 766,
    "Ġ130": 24781,
    "Ġpitches": 23899,
    "aving": 2408,
    "tall": 17673,
    "iriously": 18171,
    "Ġbottomless": 12104,
    "Ġproperty": 6450,
    "Ġspeak": 2232,
    "centre": 17087,
    "Ġcame": 1303,
    "Ġbehooves": 20732,
    "Ġgo": 613,
    "Ġexception": 11216,
    "surprise": 9529,
    "Ġunsocial": 18256,
    "Ġimproved": 7656,
    "Ġaccord": 4024,
    "Ġawkwardness": 13486,
    "grampus": 18617,
    "Ġdat": 497,
    "tranqu": 14705,
    "Ġrespectable": 6736,
    "Ġinvective": 26181,
    "Ġmanhat": 22324,
    "gloomy": 25144,
    "Ġbrill": 8549,
    "chancing": 22915,
    "Ġgroaned": 11266,
    "Ġdoor": 1741,
    "Ġevil": 3805,
    "Ġfac": 6381,
    "ificial": 609,
    "Ġvane": 22871,
    "Ġsacri": 18328,
    "gown": 9596,
    "Ġattitude": 8903,
    "Ġenv": 2968,
    "Ġbeaten": 10528,
    "rise": 6226,
    "Ġverses": 17063,
    "Ġpunish": 12157,
    "Ġfrigid": 17352,
    "omet": 3076,
    "Ġheartfelt": 18967,
    "dare": 12451,
    "Ġmorocco": 26573,
    "Ġrejoiced": 8683,
    "Ġconcisely": 19046,
    "Ġgenealogies": 25961,
    "Ġimpulsively": 24880,
    "shuff": 18491,
    "Ġdegra": 2591,
    "Ġthickness": 13276,
    "Ġarguments": 8036,
    "ulated": 6029,
    "Ġdarting": 7756,
    "furnished": 20240,
    "Ġenraptured": 26500,
    "Ġfireside": 23531,
    "Ġlamb": 8812,
    "terror": 18128,
    "aus": 1503,
    "byshire": 6172,
    "christian": 17232,
    "Ġperfume": 25665,
    "Ġfift": 6382,
    "Ġworlds": 11946,
    "rey": 12535,
    "Ġequilib": 4137,
    "data": 2057,
    "Ġflaming": 8563,
    "Ġleatherhead": 20012,
    "Ġthrobbing": 16898,
    "Ġasi": 12729,
    "Ġmon": 1252,
    "Ġvan": 1088,
    "Ġentreaties": 9035,
    "ascertaining": 26460,
    "Ġwhitish": 24866,
    "Ġconversed": 13185,
    "flood": 19805,
    "accurately": 25861,
    "Ġsoothe": 7405,
    "Ġur": 5540,
    "Ġoldest": 12970,
    "gish": 20872,
    "Ġsupernatural": 9872,
    "Ġlovers": 9719,
    "tack": 12510,
    "Ġcensure": 15094,
    "Ġscreening": 25300,
    "ppered": 15788,
    "plexion": 14261,
    "Ġalways": 1695,
    "Ġaccommod": 14212,
    "Ġslay": 16304,
    "Ġvillagers": 19472,
    "gallery": 24693,
    "hab": 1078,
    "Ġunfortunate": 5376,
    "pard": 9618,
    "Ġbab": 5289,
    "Ġknown": 1640,
    "nurse": 15207,
    "Ġdemands": 19642,
    "Ġhart": 17921,
    "Ġhidden": 1376,
    "Ġadventures": 7747,
    "Ġabstained": 25231,
    "Ġbirch": 26174,
    "reat": 619,
    "outside": 12801,
    "Ġsullenly": 17172,
    "rank": 21040,
    "Ġdrawling": 19435,
    "Ġfestoon": 20293,
    "tacit": 21097,
    "Ġorganization": 7983,
    "Ġincarnation": 25573,
    "iag": 20915,
    "Ġforbearing": 25098,
    "Ġerecting": 24652,
    "pulling": 25146,
    "Ġarduous": 26529,
    "Ġantarctic": 19551,
    "umblings": 23927,
    "Ġjapanese": 10632,
    "Ġroving": 22400,
    "followed": 8338,
    "helmsman": 24287,
    "Ġenjoyment": 7300,
    "Ġget": 1619,
    "Ġoffer": 4843,
    "acey": 7649,
    "Ġlid": 6983,
    "Ġpallet": 21478,
    "Ġwandered": 6930,
    "Ġinscriptions": 20007,
    "Ġbressed": 21385,
    "Ġrecurred": 18976,
    "gging": 7696,
    "extensive": 18710,
    "Ġconsecrated": 26488,
    "Ġbutchers": 18272,
    "Ġowners": 7662,
    "Ġquivers": 22410,
    "Ġwis": 3728,
    "Ġhen": 3503,
    "fth": 20855,
    "Ġle": 333,
    "Ġdrifted": 14625,
    "added": 11658,
    "wonder": 6371,
    "Ġconcepts": 4548,
    "excited": 13379,
    "Ġconsumed": 10349,
    "Ġlodged": 11251,
    "Ġcapsized": 20088,
    "Ġbulkhead": 24511,
    "trust": 21077,
    "Ġcommodore": 12393,
    "why": 2831,
    "Ġincluded": 8930,
    "Ġexec": 19491,
    "Ġcurious": 3362,
    "Ġbeauties": 10445,
    "mai": 22910,
    "Ġtossings": 25356,
    "satisfied": 10578,
    "Ġmodesty": 12814,
    "Ġce": 3029,
    "Ġspecies": 5112,
    "Ġspaniard": 20361,
    "pitch": 13297,
    "Ġfe": 490,
    "Ġwatching": 4854,
    "although": 8805,
    "Ġblasted": 7937,
    "Ġtroop": 24897,
    "Ġsuccessfully": 19427,
    "Ġprevailed": 7777,
    "uced": 13799,
    "Ġcommand": 3323,
    "Ġisle": 8832,
    "Ġuntidy": 23522,
    "Ġhypotheses": 4383,
    "Ġtype": 2019,
    "Ġspect": 3552,
    "isition": 11585,
    "Ġcrutch": 23445,
    "bewil": 22495,
    "Ġfurnace": 19438,
    "Ġ1846": 26084,
    "half": 4931,
    "Ġbat": 10795,
    "exp": 2740,
    "Ġtalking": 3857,
    "Ġemployed": 5200,
    "Ġham": 3423,
    "Ġass": 1506,
    "uber": 15444,
    "Z": 62,
    "Ġblinded": 13269,
    "Ġanswered": 2853,
    "port": 10719,
    "vib": 21114,
    "Ġcustomary": 8669,
    "ĠĠĠĠĠĠĠĠĠĠĠĠĠĠĠĠĠĠĠĠĠĠĠĠ": 5321,
    "seamen": 13625,
    "headsman": 16700,
    "Ġsplinter": 23746,
    "Ġwere": 556,
    "ld": 385,
    "Ġcondemn": 13443,
    "continually": 11302,
    "Ġsupply": 6066,
    "pier": 17635,
    "Ġlandlord": 5581,
    "Ġspir": 2430,
    "beat": 10986,
    "inarticulate": 21194,
    "Ġgomorrah": 21612,
    "horr": 14599,
    "listener": 24930,
    "Ġrights": 10396,
    "Ġrelease": 19289,
    "uture": 1098,
    "Ġgradual": 20600,
    "tol": 17672,
    "Ġdocks": 14177,
    "Ġgour": 21595,
    "Ġrolled": 4427,
    "Ġeff": 672,
    "Ġcalculating": 9924,
    "chery": 24551,
    "Ġaccurately": 4071,
    "ated": 729,
    "weaving": 18666,
    "Ġbeds": 14551,
    "Ġcheerfully": 12132,
    "hetically": 21207,
    "Ġcand": 3275,
    "collected": 13212,
    "Ġbigger": 19760,
    "rench": 3967,
    "estation": 15918,
    "Ġwear": 6030,
    "Ġtwig": 11848,
    "Ġph": 1548,
    "batross": 9092,
    "accordingly": 19212,
    "ĠĠĠĠ": 460,
    "Ġbuoy": 8003,
    "Ġshortly": 6196,
    "surely": 10569,
    "osing": 3690,
    "Ġelbowed": 16107,
    "Ġgraphs": 25463,
    "Ġrushing": 7403,
    "Ġvaliant": 9799,
    "Ġtrib": 13818,
    "complaisance": 24811,
    "Ġridic": 7508,
    "assed": 6421,
    "Ġdearly": 10401,
    "dee": 11731,
    "wick": 5362,
    "Ġweighty": 16029,
    "Ġlumps": 21553,
    "joint": 24006,
    "boxes": 16888,
    "Ġglistened": 20171,
    "bation": 9102,
    "ctor": 13959,
    "Ġscruple": 25048,
    "yp": 1044,
    "Ġscrolled": 22281,
    "Ġscrawled": 24580,
    "Ġquar": 3112,
    "mas": 5212,
    "Ġallegor": 25545,
    "Ġprank": 23217,
    "avating": 18568,
    "oon": 6364,
    "descried": 11927,
    "Ġruined": 12951,
    "Ġinvulnerable": 19146,
    "Ġbelong": 3885,
    "het": 5435,
    "eting": 7169,
    "Ġserpents": 13075,
    "Ġdon": 1610,
    "Ġmortar": 19391,
    "fright": 9595,
    "Ġmimic": 3143,
    "Ġcommonplaces": 16287,
    "Ġreduce": 7942,
    "sus": 6228,
    "Ġchambers": 16799,
    "Ġincludes": 2011,
    "Ġgleamed": 17077,
    "Ġretreats": 16928,
    "Ġdeveloped": 16344,
    "Ġminimum": 23037,
    "Ġthereby": 7643,
    "Ġconfid": 7686,
    "Ġtrinity": 22338,
    "ent": 305,
    "Ġwaterward": 23363,
    "Ġgrassy": 24379,
    "hest": 3370,
    "Ġmermaid": 17813,
    "thrown": 8480,
    "Ġporthole": 24399,
    "Ġclamorous": 24909,
    "chor": 6146,
    "comra": 16171,
    "hammock": 16355,
    "(-": 2979,
    "Ġinexperience": 26099,
    "Ġaromatic": 25925,
    "iture": 5696,
    "Ġwant": 1120,
    "Ġnails": 12645,
    "Ġwon": 1662,
    "Ġrenegades": 26476,
    "terr": 8153,
    "Ġimmensity": 25329,
    "ivory": 10269,
    "visual": 24221,
    "claps": 23150,
    "Ġexord": 21824,
    "onse": 21248,
    "fresh": 13391,
    "Ġpikes": 21475,
    "etime": 12656,
    "isely": 4485,
    "Ġbroadened": 23982,
    "Ġendurance": 23140,
    "empty": 23633,
    "Ġdeduce": 8336,
    "Ġunusually": 15844,
    "ain": 343,
    "izer": 2029,
    "cused": 15331,
    "Ġbathe": 25443,
    "ish": 551,
    "backs": 9389,
    "Ġdisgusting": 19893,
    "Ġtumble": 16879,
    "carriage": 9945,
    "Ġfuriously": 9801,
    "Ġ121": 24466,
    "growing": 13732,
    "sex": 12710,
    "doubtful": 24791,
    "Ġradiating": 24335,
    "angling": 14140,
    "Ġfrivolous": 26176,
    "bolts": 11420,
    "Ġresentment": 7530,
    "aurus": 20559,
    "Ġvess": 3297,
    "Ġhudson": 15190,
    "Ġsources": 10147,
    "socket": 22725,
    "fear": 8514,
    "contains": 16028,
    "Ġlam": 21546,
    "Ġmad": 2428,
    "Ġal": 342,
    "Ġbeams": 14631,
    "angels": 22103,
    "attery": 18489,
    "Ġhans": 12623,
    "Ġfreemason": 23208,
    "fifty": 12350,
    "Ġstain": 18064,
    "oug": 431,
    "Ġwitness": 4619,
    "discrimin": 19607,
    "Ġdistur": 5312,
    "Ġdisplay": 6428,
    "treacle": 25148,
    "ricity": 23060,
    "Ġadm": 2404,
    "Ġunsupp": 22018,
    "Ġoriginally": 7304,
    "Ġprimary": 25060,
    "Ġsupper": 4665,
    "Ġfrom": 434,
    "Ġuniversity": 13120,
    "handsome": 13175,
    "asburgh": 15644,
    "unsuitable": 21890,
    "Ġsmells": 8890,
    "englishman": 23675,
    "Ġcomprehensiveness": 25072,
    "Ġchronic": 9928,
    "ashtego": 4103,
    "flagged": 23969,
    "Ġcautiousness": 19865,
    "Ġsing": 3074,
    "Ġcottage": 4734,
    "regarded": 12006,
    "unerative": 21893,
    "Ġallowing": 2173,
    "Ġpennies": 17270,
    "Ġrise": 5637,
    "asets": 2309,
    "ur": 326,
    "Ġboiling": 8525,
    "Ġchaplain": 19911,
    "Ġleave": 2457,
    "Ġhipp": 21489,
    "Ġbount": 15565,
    "Ġtremor": 24768,
    "ĠâĢĺ": 1630,
    "affold": 16561,
    "Ġarthur": 7196,
    "Ġemper": 9860,
    "Ġabrupt": 9735,
    "wonders": 17143,
    "possessed": 9527,
    "Ġpartially": 13121,
    "Ġglorious": 11075,
    "dance": 17519,
    "countless": 24149,
    "Ġautonom": 10415,
    "Ġeffectively": 2624,
    "imagination": 13479,
    "Ġnovember": 11747,
    "Ġregarded": 5762,
    "Ġcolonial": 22855,
    "Ġstr": 756,
    "frank": 7757,
    "Ġspark": 6689,
    "rimsh": 17027,
    "Ġweld": 8111,
    "oub": 1632,
    "Ġrocked": 12853,
    "Ġfriend": 1298,
    "Ġmoderate": 10938,
    "Ġdaugh": 2292,
    "Ġnovel": 6695,
    "Ġfools": 14481,
    "Ġextreme": 2515,
    "utting": 17984,
    "worm": 15452,
    "Ġhumped": 19768,
    "ifies": 6686,
    "Ġdetained": 18372,
    "Ġsails": 5256,
    "Ġbagging": 24539,
    "scence": 14418,
    "Ġnuptial": 25782,
    "Ġgirdled": 19157,
    "Ġsurpassed": 25267,
    "heartily": 24214,
    "Ġexploring": 4303,
    "leful": 17842,
    "Ġelias": 18635,
    "Ġparticulars": 5754,
    "Ġinattention": 17931,
    "Ġunavailing": 26215,
    "umnal": 18300,
    "proper": 7471,
    "dimly": 15345,
    "toss": 22564,
    "Ġohio": 19128,
    "Ġ42": 16678,
    "corrob": 24485,
    "Ġagile": 22510,
    "Ġfangs": 12594,
    "ild": 1154,
    "iding": 3845,
    "cd": 15322,
    "waving": 21130,
    "ss": 396,
    "Ġdirect": 1473,
    "powder": 17645,
    "Ġhearsed": 25039,
    "Ġcoron": 4461,
    "ause": 1315,
    "wise": 2577,
    "Ġalman": 21778,
    "ulating": 10887,
    "Ġimputable": 22170,
    "ĠâĢľâĢĶ": 9733,
    "fs": 17535,
    "iar": 2378,
    "Ġthreatened": 8329,
    "Ġrespons": 2688,
    "ak": 537,
    "iny": 4292,
    "Ġattack": 5478,
    "Ġsignify": 16493,
    "Ġaudits": 24770,
    "Ġcart": 11582,
    "Ġportrait": 10661,
    "ration": 2004,
    "Ġcomplying": 18586,
    "Ġexists": 14037,
    "provided": 13636,
    "Ġraving": 16111,
    "Ġmerited": 23730,
    "Ġaccidentally": 9504,
    "Ġhas": 825,
    "Ġeconomy": 17200,
    "Ġdoubt": 2225,
    "sighted": 19784,
    "ked": 5616,
    "verdict": 21726,
    "kers": 7132,
    "Ġolder": 9326,
    "absence": 12705,
    "Ġpraying": 19553,
    "glancing": 11214,
    "84": 15300,
    "Ġceiling": 7996,
    "glue": 17556,
    "Ġfondness": 16780,
    "sprinkling": 24912,
    "Ġconnexion": 11454,
    "Ġstrata": 26027,
    "Ġgallery": 10524,
    "Ġthunders": 15635,
    "Ġbreaks": 13182,
    "Ġdated": 10939,
    "Ġbalanced": 12988,
    "ileries": 18058,
    "Ġbind": 12579,
    "precision": 4329,
    "pire": 9135,
    "hered": 5623,
    "worship": 19385,
    "pause": 12498,
    "Ġ1807": 26083,
    "),": 1346,
    "Ġfoes": 11950,
    "Ġgulf": 10635,
    "Ġanytime": 12882,
    "trying": 15437,
    "Ġincrease": 9368,
    "Ġshirt": 8848,
    "mess": 13752,
    "piling": 15414,
    "Ġthank": 3791,
    "likelihood": 4992,
    "Ġarticle": 9501,
    "Ġslew": 23379,
    "ckets": 6843,
    "Ġexchange": 15750,
    "omnipotent": 25964,
    "lant": 20946,
    "Ġjinglers": 26018,
    "riving": 21923,
    "oyed": 14368,
    "Ġcharms": 11130,
    "Ġpatagonian": 20531,
    "Ġswamp": 14435,
    "Ġpipes": 9847,
    "Ġdevouring": 11857,
    "Ġshade": 6550,
    "Ġnonce": 23231,
    "convalescence": 24884,
    "Ġclock": 9532,
    "Ġmou": 13854,
    "her": 488,
    "Ġcoopman": 25827,
    "Ġbewil": 11656,
    "Ġheadache": 22896,
    "Ġproject": 5546,
    "Ġhooked": 19079,
    "Ġbonnet": 10655,
    "ross": 808,
    "renewed": 19703,
    "Ġfortitude": 9884,
    "Ġunceasing": 20356,
    "parable": 16388,
    "Ġmogul": 12859,
    "Ġdecent": 10978,
    "Ġcons": 954,
    "Ġsweep": 8265,
    "comrade": 20623,
    "Ġlaughs": 24116,
    "altern": 17941,
    "track": 24314,
    "Ġoakum": 16934,
    "nuee": 17429,
    "Ġexpatiate": 18625,
    "dict": 15338,
    "Ġsilly": 7685,
    "Ġchosen": 7201,
    "disappointed": 25191,
    "Ġpathetic": 19005,
    "Ġchuckled": 10647,
    "ella": 12749,
    "Ġstrictly": 12283,
    "Ġsurviv": 13434,
    "Ġwhole": 1660,
    "bour": 2074,
    "Ġxxi": 24476,
    "Ġschoolmasters": 19719,
    "Ġdispirited": 23880,
    "Ġtidy": 17093,
    "concern": 6099,
    "Ġinterference": 8894,
    "Ġbounding": 19398,
    "Ġquaff": 22411,
    "inconsiderable": 21190,
    "lanterns": 17428,
    "degra": 22138,
    "Ġscandal": 9081,
    "rack": 18010,
    "ralian": 19599,
    "hig": 12472,
    "Ġbird": 3757,
    "sect": 8152,
    "with": 1300,
    "Ġton": 15463,
    "Ġdormouse": 4925,
    "Ġmitigating": 1613,
    "Ġpublicly": 13321,
    "Ġenvironmental": 24113,
    "anke": 15558,
    "pleasure": 5977,
    "prosper": 19100,
    "Ġgoest": 22418,
    "Ġ106": 24414,
    "Ġrelied": 16193,
    "neighbours": 24881,
    "Ġbumps": 21390,
    "Ġold": 1056,
    "Ġcaprice": 14576,
    "Ġsling": 21219,
    "ago": 14064,
    "Ġpersever": 10002,
    "Ġruled": 22782,
    "Ġbelly": 10369,
    "Ġshakes": 10904,
    "fare": 7798,
    "Ġpyramid": 8801,
    "analysis": 26173,
    "ations": 710,
    "cab": 7333,
    "Ġsegmentation": 17339,
    "Ġdefe": 21833,
    "Ġruskin": 25808,
    "Ġmotionless": 8323,
    "Ġgladstone": 23867,
    "Ġcholera": 22250,
    "_âĢĶâĢĿ": 20762,
    "Ġimpression": 5732,
    "coff": 9108,
    "ath": 861,
    "Ġ28": 19293,
    "Ġsubs": 2129,
    "Ġintense": 6157,
    "ounix": 14163,
    "xt": 2082,
    "agged": 9236,
    "Ġhousemaid": 14463,
    "Ġungodly": 26513,
    "Ġperforming": 7927,
    "Ġfrost": 6095,
    "toller": 20671,
    "Ġtemporary": 7980,
    "v": 90,
    "Ġlabours": 8581,
    "canst": 22958,
    "Ġhoars": 19077,
    "oves": 15403,
    "sound": 6799,
    "running": 6797,
    "Ġfa": 4819,
    "Ġmisgivings": 15289,
    "Ġhonourable": 10456,
    "Ġbible": 9318,
    "Ġcin": 13874,
    "Ġconstraints": 2743,
    "Ġtwo": 1041,
    "Ġobedience": 11413,
    "Ġcopper": 7425,
    "pres": 16026,
    ";âĢĶ": 3750,
    "distinguish": 19571,
    "Ġinspire": 11994,
    "Ġtriumph": 5143,
    "inent": 9628,
    "Ġsuffering": 8946,
    "Ġdemocracy": 25458,
    "Ġoutputs": 2887,
    "Ġtransplanted": 22438,
    "Ġbackward": 7654,
    "trivial": 21091,
    "Ġcaptiv": 16257,
    "Ġwearied": 15790,
    "mistress": 14904,
    "Ġpopular": 6216,
    "Ġstash": 18067,
    "Ġnonsense": 6982,
    "pressed": 6588,
    "uff": 2733,
    "Ġfalls": 14644,
    "australian": 20560,
    "ear": 8730,
    "ultaneously": 4193,
    "**:": 4737,
    "Ġnoteworthy": 24161,
    "Ġfidelity": 15240,
    "oarsman": 25261,
    "Ġcredit": 4818,
    "Ġheal": 21678,
    "rol": 5713,
    "Ġfinest": 10392,
    "crimson": 24098,
    "tic": 8390,
    "Ġground": 2848,
    "Ġoperation": 11997,
    "Ġglens": 18854,
    "Ġlives": 4826,
    "Ġupp": 13991,
    "asse": 15642,
    "ivia": 22076,
    "Ġconfide": 13098,
    "Ġbone": 4694,
    "quet": 6835,
    "Ġmounttop": 19976,
    "Ġme": 351,
    "shop": 14236,
    "Ġsimon": 5172,
    "Ġseptember": 18205,
    "Ġarctic": 12807,
    "professor": 17249,
    "arily": 4127,
    "Ġawa": 7713,
    "Ġdevoted": 6573,
    "Ġunconnected": 18242,
    "Ġsincerity": 13677,
    "Ġbashaw": 25633,
    "Ġpretend": 7721,
    "Ġrider": 24184,
    "iasm": 8060,
    "Ġbu": 3683,
    "glad": 9007,
    "point": 6062,
    "ud": 923,
    "Ġspirits": 3698,
    "Ġbright": 3210,
    "lar": 4480,
    "wond": 8767,
    "Ġac": 846,
    "Ġmouthfuls": 20645,
    "people": 7676,
    "Ġfastened": 7065,
    "Ġpossessing": 16574,
    "Ġmosses": 20162,
    "event": 8076,
    "hatches": 19927,
    "Ġaccumulation": 2696,
    "u": 89,
    "Ġintensity": 10015,
    "Ġfreezing": 23881,
    "ilty": 6394,
    "aboard": 21791,
    "Ġgentleness": 8709,
    "ures": 838,
    "trowsers": 17691,
    "quohog": 21855,
    "Ġdepartment": 24241,
    "Ġlandless": 23375,
    "Ġapiece": 16813,
    "grateful": 10428,
    "tps": 11534,
    "Ġpraised": 19552,
    "Ġbrightest": 13223,
    "Ġorder": 1684,
    "clopÃ¦": 13053,
    "datasets": 11945,
    "otics": 10223,
    "Ġcontriv": 9281,
    "born": 7543,
    "Ġprefer": 6416,
    "inferior": 12392,
    "presbyter": 20616,
    "murderers": 25728,
    "strongly": 24684,
    "Ġcandidates": 4331,
    "nered": 18496,
    "Ġsunday": 7270,
    "Ġdenying": 14658,
    "Ġbatt": 13898,
    "Ġassizes": 11108,
    "osh": 18388,
    "past": 8089,
    "Ġcontempl": 6701,
    "incl": 8109,
    "Ġblasp": 14400,
    "folio": 10546,
    "Ġmiracle": 15092,
    "Ġgans": 5821,
    "cheer": 9436,
    "Ġripp": 11219,
    "Ġremainder": 9857,
    "ceptible": 10961,
    "Ġhierarchical": 1926,
    "Ġgodlike": 23353,
    "Ġstairs": 5541,
    "asht": 4084,
    "Ġsuperlatively": 26075,
    "Ġseries": 7059,
    "ball": 7792,
    "rably": 21630,
    "erde": 21267,
    "Ġsigned": 11177,
    "Ġwhoever": 10973,
    "Ġsog": 22081,
    "Ġscenery": 11456,
    "Ġhate": 5445,
    "Ġfearful": 6197,
    "Ġassertions": 19945,
    "Ġthreatens": 24375,
    "Ġpendulous": 25955,
    "Ġplough": 18608,
    "nameless": 19902,
    "Ġburgl": 13172,
    "Ġdesignated": 19520,
    "Ġdel": 1611,
    "win": 6801,
    "possess": 5983,
    "residual": 19261,
    "94": 4803,
    "Ġqueen": 3209,
    "Ġspont": 22128,
    "Ġphantom": 8706,
    "Ġaffliction": 25844,
    "Ġteacup": 16212,
    "Ġori": 8408,
    "semble": 1525,
    "Ġpunctilious": 26352,
    "coal": 12023,
    "determ": 7105,
    "Ġfruitless": 25605,
    "Ġrigger": 19529,
    "yra": 8102,
    "Ġspectator": 19404,
    "Ġcontributes": 15249,
    "Ġcommod": 10333,
    "deliber": 17425,
    "Ġcetace": 14987,
    "only": 3309,
    "Ġrucastle": 5176,
    "anelles": 26434,
    "Ġanom": 12608,
    "Ġundoing": 22032,
    "Ġastern": 6090,
    "Ġz": 1000,
    "hs": 8377,
    "Ġcontinuously": 23202,
    "Ġabutted": 22272,
    "Ġpersonality": 16476,
    "considerably": 13444,
    "oters": 21796,
    "surprised": 9530,
    "Ġpencils": 23192,
    "adru": 15728,
    "phenomenon": 17648,
    "rive": 9706,
    "sloop": 26145,
    "Ġhandspikes": 12935,
    "Ġchron": 19436,
    "Ġhearse": 10420,
    "Ġheedless": 14902,
    "Ġabout": 633,
    "interrupt": 8615,
    "Ġplunder": 22600,
    "eur": 7545,
    "Ġsank": 5076,
    "turbable": 24531,
    "Ġexhilarating": 26337,
    "Ġinjured": 9039,
    "ateur": 22003,
    "Ġdarts": 16768,
    "stave": 21646,
    "Ġnaval": 16899,
    "Ġsatir": 18794,
    "speeches": 25239,
    "courage": 17509,
    "gast": 20870,
    "usive": 8191,
    "Ġfresh": 3671,
    "culiarity": 11142,
    "Ġinaccessible": 13933,
    "drive": 8682,
    "office": 16393,
    "fits": 13717,
    "cushion": 20820,
    "Ġemployment": 8628,
    "Ġlake": 5227,
    "Ġtyro": 16994,
    "Ġmoment": 989,
    "Ġpiercing": 13493,
    "Ġendeavoured": 4918,
    "Ġperfidious": 25666,
    "Ġwritten": 4168,
    "pus": 3416,
    "Ġdine": 7366,
    "Ġsuburban": 17345,
    "Ġdolph": 12378,
    "raction": 8137,
    "Ġpartake": 18670,
    "Ġundeceive": 25552,
    "Ġpsal": 15613,
    "Ġplay": 2630,
    "Ġapt": 9155,
    "ere": 6789,
    "ributed": 8213,
    "Ġpostscript": 14806,
    "Ġupset": 22150,
    "Ġdiscipl": 22781,
    "Ġmaterial": 5178,
    "Ġmanagement": 8192,
    "eyed": 11486,
    "sander": 11526,
    "Ġappointment": 10646,
    "Ġcitations": 25437,
    "expected": 5780,
    "Ġdie": 3962,
    "Ġthirty": 4944,
    "nature": 5359,
    "Ġrevealing": 3925,
    "ognit": 19192,
    "Ġfavour": 3642,
    "knife": 6942,
    "Ġincorrect": 2731,
    "Ġowning": 18744,
    "ogue": 9785,
    "Ġacute": 16121,
    "yourself": 6742,
    "Ġpresently": 5116,
    "E": 41,
    "Ġsem": 1877,
    "Ġwronged": 24247,
    "dear": 6555,
    "Ġscuff": 15940,
    "teous": 16169,
    "Ġexquisite": 12379,
    "lifeless": 24312,
    "dies": 15337,
    "Ġfatality": 12092,
    "iments": 4945,
    "seeing": 7078,
    "Ġswallows": 18882,
    "Ġgrie": 3583,
    "tempered": 13445,
    "Ġbarely": 16936,
    "increased": 20269,
    "umps": 6317,
    "ieces": 4772,
    "metallic": 19879,
    "oat": 13763,
    "constit": 24604,
    "Ġblown": 12083,
    "Ġhighness": 22771,
    "Ġmagazine": 23097,
    "Ġresided": 11809,
    "deacon": 22144,
    "Ġintruding": 21988,
    "rebell": 17763,
    "Ġrevolving": 9982,
    "Ġimmemorially": 25383,
    "Ġwidows": 24236,
    "ogra": 4570,
    ",âĢĻ": 2327,
    "Ġsituations": 10491,
    "Ġvicissitudes": 12417,
    "ney": 2494,
    "ogy": 22706,
    "Ġ221": 25068,
    "Ġunhappily": 18262,
    "Ġschoolboys": 24481,
    "Ġunmannerly": 26517,
    "going": 6313,
    "Ġinsepar": 17933,
    "Ġledge": 19399,
    "Ġdignity": 5704,
    "Ġreceive": 4703,
    "Ġseventeen": 26210,
    "linked": 17593,
    "Ġ7": 4745,
    "ĠĠĠĠĠĠĠĠĠĠĠĠĠĠĠĠĠĠĠĠĠĠĠĠĠĠĠĠĠĠĠĠĠĠĠĠĠĠ": 16525,
    "Ġperil": 5557,
    "Ġworried": 22923,
    "peculiar": 6886,
    "Ġreveal": 11199,
    "----âĢĿ": 13305,
    "Ġtriangular": 14858,
    "Ġindec": 13927,
    "Ġcigarette": 20655,
    "Ġgestures": 13535,
    "Ġsciences": 15942,
    "handled": 19260,
    "Ġneville": 7399,
    "Ġbashee": 19848,
    "charm": 13989,
    "oce": 10714,
    "Ġinfamous": 16365,
    "Ġunthink": 18247,
    "Ġsudden": 1999,
    "Ġinsurg": 23679,
    "Ġincluding": 2849,
    "fashioned": 9570,
    "Ġplunge": 13442,
    "idence": 4300,
    "Ġtoward": 17946,
    "pe": 1437,
    "reduced": 15803,
    "vol": 734,
    "mouthed": 12398,
    "Ġpallid": 12297,
    "½": 126,
    "Ġrattling": 11395,
    "sherlock": 5422,
    "hamlet": 23261,
    "Ġresemble": 15690,
    "Ġfinds": 6299,
    "fortnight": 13086,
    "victim": 25530,
    "Ġstruggles": 16577,
    "embraces": 25805,
    "Ġhumorousness": 25377,
    "Ġcemet": 20679,
    "Ġgravel": 14101,
    "Ġapoplexy": 25265,
    "Ġwail": 21285,
    "moby": 8536,
    "Ġmilitary": 11258,
    "Ġprofessional": 7299,
    "thinks": 16641,
    "Ġdue": 3843,
    "Ġenhancement": 23690,
    "oe": 7552,
    "neglect": 25668,
    "Ġtreating": 4282,
    "Ġnotes": 7189,
    "Ġstra": 2989,
    "response": 25762,
    "Ġrises": 9712,
    "Ġmarvelled": 18873,
    "ots": 3296,
    "eronomy": 15523,
    "Ġnurtured": 19748,
    "Ġruth": 14092,
    "ambition": 13410,
    "Ġrecording": 24434,
    "Ġtennessee": 26596,
    "ascribed": 24708,
    "Ġelated": 18634,
    "Ġpossessor": 23821,
    "Ġrugged": 18720,
    "Ġact": 690,
    "Ġfrosty": 14934,
    "igns": 8447,
    "Ü": 157,
    "sche": 13016,
    "perils": 22184,
    "inferiors": 25346,
    "iness": 1284,
    "Ġcoincidences": 26363,
    "Ġinducement": 16843,
    "Ġbulky": 13227,
    "netherfield": 9812,
    "announce": 24560,
    "express": 4895,
    "war": 6802,
    "ap": 547,
    "queer": 10363,
    "Ġcope": 17830,
    "Ġscroll": 14191,
    "beg": 22484,
    "Ġenjoyed": 8007,
    "Ġcorridor": 10671,
    "Ġball": 3624,
    "Ġflorida": 20658,
    "sufferable": 12174,
    "Ġbillow": 14777,
    "forget": 11032,
    "Ġdevoured": 16134,
    "Ġenable": 686,
    "Ġnumerous": 6920,
    "Ġconjured": 25099,
    "Ġshifting": 12765,
    "Ġneedle": 8274,
    "Ġbegin": 3098,
    "formation": 22210,
    "Ġrecital": 16139,
    "Ġbreathed": 11220,
    "smiles": 14692,
    "Ġeggs": 12340,
    "iluvian": 18060,
    "moil": 22700,
    "arpening": 21441,
    "conspicuous": 26247,
    "Ġuns": 15834,
    "Ġseveral": 2677,
    "Ġworrying": 22924,
    "afterwards": 7484,
    "contriv": 19291,
    "Ġinfallibly": 10040,
    "Ġunintermitted": 26219,
    "cracy": 24690,
    "ahead": 12432,
    "jep": 20925,
    "heavens": 19744,
    "whaler": 20308,
    "cated": 20802,
    "Ġmeetings": 16532,
    "Ġcircling": 19092,
    "Ġbanish": 15567,
    "figure": 13554,
    "handkerchief": 14617,
    "Ġtrust": 4079,
    "icular": 2022,
    "âĢĶâĢĻ": 8187,
    "Ġbridle": 24681,
    "Ġavast": 9919,
    "Ġproxim": 3197,
    "Ġprincipal": 6496,
    "Ġcords": 14878,
    "retch": 4368,
    "Ġbehav": 3540,
    "Ġcloudless": 16668,
    "Ġdecorum": 16019,
    "anx": 8783,
    "Ġnineveh": 13388,
    "Ġorthodox": 22092,
    "Ġperfect": 2560,
    "Ġpoultry": 17440,
    "Ġtorch": 25030,
    "Ġmax": 2006,
    "fuller": 22477,
    "Ġdict": 9175,
    "osely": 9264,
    "Ġleviathan": 3290,
    "Ġdivinest": 25722,
    "Ġaccidents": 10295,
    "Ġreciprocating": 26369,
    "Ġfossils": 20221,
    "Ġrequires": 1017,
    "Ġcoburg": 18595,
    "!": 5,
    "Ġlevel": 5020,
    "Ġfunction": 585,
    "Ġmouse": 4693,
    "Ġrevolved": 9983,
    "Ġmysteries": 11322,
    "Ġgross": 11624,
    "Ý": 158,
    "vit": 13800,
    "Ġmilitia": 13316,
    "Ġdungeon": 16996,
    "itors": 2914,
    "Ġmistress": 8611,
    "garity": 17554,
    "Ġtimber": 13348,
    "red": 397,
    "gan": 2198,
    "Ġbeamed": 23721,
    "Ġcrack": 7709,
    "inex": 14095,
    "Ġinconceivable": 17937,
    "portuguese": 25413,
    "ilege": 22253,
    "Ġeye": 2281,
    "Ġmanifested": 17157,
    "Ġperceive": 6699,
    "Ġtopmost": 14587,
    "Ġpush": 9183,
    "Ġbiggest": 24566,
    "Ġcrate": 19122,
    "Ġledgers": 23935,
    "Ġphyseter": 26586,
    "Ġsupp": 1264,
    "ruded": 15897,
    "Ġbambooz": 26119,
    "Ġimmeas": 18331,
    "civilized": 17075,
    "ison": 3075,
    "Ġidea": 2487,
    "dar": 20823,
    "arris": 13208,
    "iv": 432,
    "deli": 15343,
    "Ġinsp": 2101,
    "Ġpal": 4040,
    "peril": 18342,
    "bun": 12436,
    "naturalists": 23471,
    "ckles": 22086,
    "Ġmaintainable": 12932,
    "C": 39,
    "german": 11491,
    "Ġgas": 8132,
    "vered": 4829,
    "Ġtable": 2500,
    "Ġlongitudes": 22631,
    "iless": 10281,
    "Ġgods": 6454,
    "ined": 1259,
    "cond": 1664,
    "Ġcrotch": 9962,
    "sculpt": 16245,
    "calcul": 12986,
    "Ġdromedary": 17438,
    "Ġstreng": 18070,
    "aviour": 10994,
    "Ġinnoc": 3794,
    "Ġmodel": 512,
    "Ġavert": 14424,
    "fortunate": 4792,
    "Ġdiameter": 19866,
    "Ġclut": 7641,
    "haustible": 16891,
    "cheerful": 13574,
    "rivial": 9433,
    "Ġimposing": 11779,
    "Ġrespect": 1666,
    "Ġmorbid": 16237,
    "Ġquality": 3528,
    "Ġjoppa": 12034,
    "ouri": 21445,
    "Ġdri": 2362,
    "Ġshoes": 7071,
    "bless": 22309,
    "Ġdamps": 23475,
    "pre": 650,
    "Ġidolator": 19996,
    "Ġmid": 2619,
    "rible": 3223,
    "Ġothers": 2585,
    "zz": 4291,
    "meditated": 19069,
    "rolled": 9059,
    "Ġbully": 23854,
    "hval": 20898,
    "appro": 7044,
    "accepting": 20134,
    "battering": 20785,
    "Ġstony": 21737,
    "Ġwides": 17788,
    "imming": 9686,
    "gypt": 8260,
    "Ġrejection": 19982,
    "Ġfits": 8790,
    "Ġharm": 5017,
    "dress": 17520,
    "ring": 1752,
    "esley": 17919,
    "iard": 9601,
    "gment": 4387,
    "assured": 10952,
    "Ġosc": 2837,
    "destro": 13308,
    "Ġadmires": 19684,
    "Ġchained": 16385,
    "Ġwrapped": 8341,
    "Ġspain": 15878,
    "Ġfeatures": 1430,
    "Ġfinny": 23123,
    "Ġhawaiian": 25366,
    "forecastle": 10990,
    "grandfather": 25009,
    "Ġcharmed": 16762,
    "airing": 16176,
    "Ġunbounded": 18259,
    "itz": 6005,
    "Ġenthus": 7232,
    "Ġchace": 14178,
    "Ġstraits": 7993,
    "Ġleaned": 7607,
    "Ġeternity": 12276,
    "occurred": 13336,
    "pleasanter": 24044,
    "robber": 21534,
    "centred": 25017,
    "ards": 2505,
    "icken": 6711,
    "Ġdescried": 7918,
    "Ġsome": 655,
    "Ġbasics": 13447,
    "Ġperch": 10298,
    "Ġstart": 3257,
    "Ġendured": 6072,
    "combe": 7661,
    "Ġslid": 7951,
    "Ġindepend": 3669,
    "Ġtestified": 16325,
    "Ġslaughter": 20729,
    "Ġconsiderably": 7714,
    "Ġoperate": 19115,
    "abetical": 15740,
    "Ġuniform": 2228,
    "Ġcellars": 24665,
    "repressed": 21242,
    "rically": 15416,
    "restoration": 23235,
    "whips": 22235,
    "le": 279,
    "Ġgrecian": 26296,
    "interests": 19707,
    "Ġhereby": 10358,
    "Ġhailed": 6407,
    "Ġanalytical": 22874,
    "leaped": 17843,
    "Ġweighted": 2091,
    "settled": 10506,
    "Ġcool": 5734,
    "duchess": 18463,
    "befriend": 22489,
    "sticking": 21657,
    "Ġamazing": 9976,
    "ament": 2440,
    "clearer": 24065,
    "Ġdisposing": 19373,
    "Ġholidays": 22919,
    "Ġtrailing": 23077,
    "Ġsw": 1357,
    "Ġmississ": 18838,
    "fel": 8733,
    "Ġescaped": 6459,
    "welcome": 10000,
    "Ġinsulated": 23678,
    "Ġscaffold": 18400,
    "americans": 25042,
    "verity": 14000,
    "Ġmeals": 12708,
    "tland": 21072,
    "reen": 21230,
    "Ġbegrimed": 26578,
    "Ġelapsed": 7652,
    "lynes": 15701,
    "Ġshouts": 19536,
    "wanderer": 25423,
    "allowed": 5728,
    "Ġneared": 14072,
    "Ġstriving": 8996,
    "Ġgenteel": 19979,
    "Ġadvanced": 1469,
    "resolved": 9639,
    "sensibility": 25025,
    "Ġpand": 21452,
    "Ġunfathom": 14787,
    "Ġtimely": 19593,
    "ission": 6457,
    "forgive": 18728,
    "Ġcomposition": 1686,
    "avenza": 17103,
    "Ġdiabolically": 25513,
    "Ġbaff": 10799,
    "slipped": 25529,
    "Ġga": 4443,
    "Ġwool": 19431,
    "pets": 17636,
    "Ġphilist": 16600,
    "shaken": 16021,
    "Ġconfidently": 24955,
    "Ġconceited": 12088,
    "Ġcandour": 14672,
    "Ġgobern": 22420,
    "deliver": 19503,
    "devils": 20031,
    "Ġsmelt": 16063,
    "quired": 21852,
    "roused": 16652,
    "Ġindomit": 22952,
    "Ġslackened": 15125,
    "heart": 4523,
    "Ġsemicircular": 26068,
    "latter": 15381,
    "illuminated": 17452,
    "deav": 2678,
    "Ġpreserved": 9261,
    "Ġwoody": 23518,
    "Ġnarrations": 24352,
    "queen": 12724,
    "Ġuncivil": 11155,
    "Ġseeing": 2886,
    "Ġwhims": 12689,
    "Ġ1671": 25005,
    "Ġsmiling": 5475,
    "Ġinstant": 2707,
    "Ġshrine": 19530,
    "permitted": 18345,
    "entions": 17974,
    "eth": 620,
    "Ġmediocr": 24081,
    "gather": 20874,
    "Ġconjecture": 9531,
    "entiful": 10836,
    "Ġrotation": 25474,
    "Ġthoroughfares": 26095,
    "S": 55,
    "Ġencaps": 12959,
    "Ġincorpor": 13164,
    "dan": 17515,
    "honour": 13466,
    "Ġpencil": 11941,
    "towards": 5002,
    "umed": 6554,
    "others": 7669,
    "lp": 899,
    "Ġbred": 9169,
    "baggage": 24926,
    "Ġsuccessful": 9922,
    "Ġsinners": 18949,
    "Ġexcite": 11964,
    "Ġshops": 21998,
    "Ġcomely": 21845,
    "Ġwine": 6810,
    "Ġwiping": 25765,
    "grasp": 16429,
    "Ġbellies": 13354,
    "Ġinfer": 7683,
    "Ġent": 903,
    "Ġdaresay": 14703,
    "matters": 14873,
    "Ġshar": 9249,
    "gris": 8259,
    "pigs": 17140,
    "Ġsnatched": 10471,
    "there": 1422,
    "Ġnumer": 3639,
    "Ġescapes": 23507,
    "Ġthr": 5709,
    "claim": 9834,
    "Ġuncle": 3190,
    "Ġcreases": 22719,
    "vess": 7354,
    "Ġsammy": 24932,
    "Ġgrammars": 11402,
    "likewise": 13104,
    "Ġwaist": 6899,
    "Ġopulent": 23627,
    "Ġbennett": 16323,
    "generosity": 23785,
    "Ġvineyards": 25106,
    "Ġasia": 11681,
    "emotion": 21927,
    "Ġruss": 18719,
    "Ġpreparations": 12308,
    "Ġcommander": 8624,
    "Ġbackground": 18650,
    "Ġmember": 8585,
    "Ġtawn": 13822,
    "Ġsister": 1475,
    "pointed": 9809,
    "Ġahead": 6662,
    "Ġreconciliation": 25292,
    "anthrop": 17381,
    "Ġshoving": 23489,
    "valley": 16218,
    "Ġharpooneers": 4732,
    "news": 23129,
    "iah": 14416,
    "Ġineffable": 17331,
    "Ġrepresents": 4902,
    "\",": 10678,
    "Ġwarmer": 19184,
    "Ġlizard": 12651,
    "boom": 18998,
    "Ġgrateful": 7659,
    "Ġpun": 4584,
    "hing": 980,
    "Ġchurned": 18385,
    "cocks": 23560,
    "Ġdy": 2533,
    "Ġferocious": 17418,
    "Ġcreeping": 18683,
    "Ġhagger": 21488,
    "idirection": 2413,
    "Ġmidst": 7985,
    "explain": 1482,
    "estic": 4956,
    "Ġsinew": 25431,
    "ortment": 22255,
    "Ġwee": 21915,
    "attered": 4017,
    "Ġhelp": 1638,
    "Ġzeros": 3326,
    "Ġsandwiched": 26610,
    "Ġdeclined": 9920,
    "sciss": 18857,
    "barrels": 15041,
    "Ġdecipher": 22443,
    "renched": 7906,
    "iguous": 18044,
    "audible": 17132,
    "Ġdates": 6693,
    "Ġprincipally": 11309,
    "mured": 6960,
    "bitterly": 20336,
    "Ġthorough": 6245,
    "isa": 17845,
    "leading": 15559,
    "Ġmatrim": 11059,
    "Ġregiment": 6432,
    "cast": 2927,
    "ancholy": 5070,
    "Ġmaker": 15540,
    "ai": 2529,
    "Ġsque": 18755,
    "cement": 2862,
    "Ġburg": 23650,
    "Ġ127": 24472,
    "Ġfrowning": 13622,
    "Ġconvers": 2907,
    "Ġskulls": 12957,
    "supers": 22639,
    "depart": 12263,
    "Ġactual": 3737,
    "acled": 16079,
    "sky": 12508,
    "Ġunfl": 22017,
    "activation": 3227,
    "year": 11095,
    "Ġprometheus": 15291,
    "Ġplaced": 3445,
    "Ġdanced": 7842,
    "dil": 11478,
    "stee": 21648,
    "!_âĢĶ": 19971,
    "Ġdetaining": 25818,
    "Ġnook": 15926,
    "Ġexecute": 7505,
    "imson": 12686,
    "Ġarmy": 11739,
    "Ġmildly": 9029,
    ")âĢĶâĢľ": 20742,
    "Ġthomas": 17947,
    "Ġcelebrated": 13593,
    "Ġappropriated": 23485,
    "Ġchanced": 8186,
    "Ġharpo": 1941,
    "nelson": 25620,
    "Ġdepresses": 25797,
    "shapes": 22454,
    "olic": 14041,
    "Ġshows": 8482,
    "rospect": 11611,
    "simply": 20669,
    "Ġmaj": 3927,
    "ask": 857,
    "ply": 6366,
    "Ġhush": 13210,
    "Ġshark": 5550,
    "Ġbelted": 22945,
    "Ġwitnessing": 19597,
    "sentimental": 25681,
    "ived": 1533,
    "Ġflutter": 16247,
    "Ġadaptation": 3155,
    "Ġprofane": 13151,
    "ccarthy": 4888,
    "ways": 1442,
    "measure": 10030,
    "Ġblackstone": 23385,
    ",--": 2477,
    "urg": 8141,
    "ousand": 2431,
    "initions": 21186,
    "didst": 19347,
    "Ġhourly": 23300,
    "Ġfrequently": 4679,
    "Ġcorpor": 23036,
    "angled": 6844,
    "Ġseasons": 9430,
    "Ġlees": 18075,
    "orders": 12870,
    "Ġadmiring": 16479,
    "ink": 757,
    "Ġprecisely": 6466,
    "Ġcheer": 4065,
    "acetti": 13395,
    "Ġmedium": 16681,
    "Ġmathematics": 12071,
    "Ġsoothed": 10028,
    "belais": 24035,
    "cous": 8721,
    "Ġoath": 7833,
    "trunk": 23945,
    "circ": 4385,
    "Ġsocket": 12786,
    "Ġdivision": 19442,
    "Ġhotels": 19535,
    "Ġnostrils": 10943,
    "Ġranks": 21969,
    "osed": 1961,
    "conven": 6162,
    "Ġbath": 9658,
    "Ġcalam": 13031,
    "Ġwes": 8778,
    "Ġevaporate": 26332,
    "Ġsport": 6688,
    "Ġtotally": 9470,
    "Ġnightfall": 23127,
    "Ġodorous": 19565,
    "bread": 10684,
    "Ġwhen": 514,
    "Ġenraged": 10244,
    "Ġrefused": 6715,
    "ab": 345,
    "deformity": 22143,
    "Ġcarter": 18900,
    "Ġgoat": 16004,
    "Ġhaught": 10252,
    "rously": 17654,
    "Ġcynical": 25770,
    "Ġmountainous": 16598,
    "ases": 1523,
    "meas": 7434,
    "rather": 5430,
    "Ġdetails": 6565,
    "zetts": 17714,
    "ast": 473,
    "Ġsor": 4146,
    "ruding": 9723,
    "ortal": 6265,
    "Ġecho": 12663,
    "Ġnigh": 4878,
    "helped": 18923,
    "servants": 15037,
    "scure": 22985,
    "Ġstubborn": 10414,
    "incident": 14591,
    "geons": 15977,
    "Ġsmith": 16062,
    "Ġrepine": 16408,
    "Ġlicense": 20089,
    "declare": 25173,
    "dreams": 12335,
    "Ġencirc": 18732,
    "Ġcompelled": 14266,
    "Ġmeanly": 12906,
    "Ġcuring": 21342,
    "Ġgroans": 14822,
    "tumult": 12421,
    "Ġmeat": 8151,
    "Ġsad": 3867,
    "Ġsnow": 3707,
    "Ġfoolishly": 19781,
    "Ġstall": 12693,
    "Ġdescribing": 19253,
    "ours": 3429,
    "Ġreadability": 2727,
    "Ġcross": 1374,
    "ww": 10737,
    "matic": 4616,
    "Ġscared": 14189,
    "Ġlethargy": 26483,
    "shells": 26056,
    "Ġide": 2122,
    "imately": 12685,
    "Ġsubsiding": 23432,
    "aves": 2547,
    "conceive": 16027,
    "solute": 16597,
    "suspected": 12370,
    "Ġtugged": 17288,
    "Ġshrivelled": 19702,
    "Ġoars": 3897,
    "Ġview": 2764,
    "contrad": 19290,
    "Ġhostile": 19938,
    "voices": 21116,
    "helping": 23135,
    "Ġunwe": 15836,
    "terrible": 8465,
[...]
