{
  "metadata": {
    "vocab_size": 26616,
    "algorithm": "BPE",
    "created_at": "2026-08-28 13:44:51",
    "special_tokens": [
      "<PAD>",
      "<SOS>",
      "<EOS>",
      "<UNK>",
      "<MASK>"
    ]
  },
  "vocab": {
    "Ġroofs": 16987,
    "Ġpainting": 13145,
    "articulate": 17398,
    "Ġrueful": 25582,
    "gentlemanlike": 20005,
    "Ġever": 1179,
    "Ġbent": 5149,
    "Ġstow": 21734,
    "Ġleg": 2330,
    "eks": 4726,
    "indirectly": 18438,
    "Ġdecreas": 1651,
    "Ġpeculiar": 3153,
    "Ġpaces": 13922,
    "temper": 10007,
    "Ġlibrary": 6424,
    "Ġgermans": 25785,
    "net": 1192,
    "Ġemployments": 12107,
    "Ġexposes": 22628,
    "Ġspasmodic": 20401,
    "cket": 3690,
    "Ġequatorial": 13512,
    "Ġlieutenant": 15265,
    "plac": 15820,
    "Ġcorrupt": 11927,
    "gown": 9599,
    "Ġmisunderstood": 18706,
    "rey": 12543,
    "ready": 2354,
    "rebellum": 26166,
    "Ġcl": 551,
    "Ġ&": 6514,
    "I": 45,
    "Ġ29": 23732,
    "Ġshop": 9255,
    "Ġsalted": 14759,
    "piece": 6658,
    "Ġconfidence": 6592,
    "Ġdecapitated": 20619,
    "breaking": 14767,
    "Ġanswering": 7478,
    "Ġprogramming": 1182,
    "================": 3725,
    "Ġinstantly": 3595,
    "Ġfitted": 6245,
    "Ġsupervised": 3245,
    "acute": 22549,
    "mouthed": 12404,
    "quarrel": 20018,
    "Ġasph": 21904,
    "Ġgulf": 10638,
    "lutions": 20952,
    "eternal": 17985,
    "stolidity": 21660,
    "Ġhasn": 12930,
    "dimly": 15350,
    "oing": 15404,
    "Ġcharge": 5325,
    "Ġremoter": 20109,
    "Ġswam": 6449,
    "Ġpeculiarly": 8287,
    "itting": 1151,
    "Ġwestern": 10657,
    "still": 4217,
    "mph": 20974,
    "Ġwilliam": 3484,
    "ceived": 1964,
    "Ġire": 12674,
    "Ġaccident": 5380,
    "unguarded": 23669,
    "Ġrelu": 1047,
    "torn": 17684,
    "Ġcholera": 22257,
    "keepers": 16662,
    "Ġoarsmen": 7738,
    "bal": 2156,
    "Ġlandsc": 11148,
    "tall": 17675,
    "oriental": 23723,
    "canst": 22966,
    "int": 1197,
    "thur": 7188,
    "resses": 16157,
    "uneasy": 23686,
    "Ġpitiless": 19391,
    "Ġwhereby": 11841,
    "greeting": 24554,
    "Ġmagnifying": 16323,
    "Ġcosmopolitan": 20643,
    "knives": 14916,
    "stretched": 10208,
    "flinging": 20870,
    "Ġsharks": 4497,
    "Ġrelevant": 1866,
    "Ġclings": 15967,
    "Ġenglishmen": 19433,
    "Ġgeneralization": 986,
    "Ġstricken": 9779,
    "handed": 7483,
    "clim": 18932,
    "Ġsoar": 18283,
    "Ġedd": 8398,
    "Ġclassical": 22624,
    "Ġplants": 22601,
    "Ġinclusive": 24166,
    "Ġgraces": 18226,
    "forecastle": 10992,
    "fore": 688,
    "parm": 21016,
    "Ġwithdrawn": 10609,
    "Ġ120": 16860,
    "enged": 23149,
    "Ġyes": 2691,
    "vative": 1615,
    "ouching": 13183,
    "bing": 7792,
    "Ġan": 286,
    "abri": 6684,
    "saw": 5895,
    "Ġguitar": 16274,
    "sou": 12510,
    "scho": 8763,
    "Ġrevers": 21667,
    "southern": 20412,
    "Ġtaking": 3251,
    "Ġinterruptions": 24189,
    "Ġforces": 12707,
    "Ġinserted": 8356,
    "attery": 18509,
    "Ġregiment": 6433,
    "queer": 10364,
    "iest": 4036,
    "aged": 2606,
    "Ġinhospit": 25453,
    "Ġclaws": 15970,
    "Ġcovering": 13261,
    "rity": 13779,
    "Ġstripped": 10466,
    "Ġprojecting": 9988,
    "tattoo": 21090,
    "Ġaltitude": 26204,
    "estruct": 22225,
    "Ġtrampled": 20331,
    "Ġexpatiate": 18627,
    "Ġexclusion": 19399,
    "Ġreduces": 2338,
    "Ġconfessed": 8009,
    "tolerably": 21098,
    "Ġanonymous": 26179,
    "Ġtot": 4185,
    "growing": 13736,
    "devils": 20036,
    "Ġroman": 8323,
    "windward": 24163,
    "Ġactuated": 18546,
    "Ġpist": 12620,
    "Ġ44": 16681,
    "Ġ80": 24456,
    "Ġcanoe": 9726,
    "Ġeddystone": 25736,
    "secured": 16940,
    "Ġcounsell": 25385,
    "Ġinsomuch": 23683,
    "sway": 15428,
    "conced": 22478,
    "Ġspilled": 10926,
    "chastic": 2329,
    "Ġready": 3398,
    "thrown": 8483,
    "Ġjavel": 17085,
    "Ġsearching": 13166,
    "Ġencamped": 22804,
    "Ġrenewing": 19813,
    "Ġvariety": 8533,
    "Ġknitting": 24221,
    "Ġwr": 1542,
    "Ġautonomous": 10678,
    "Ġquick": 2581,
    "coat": 5407,
    "Ġconvention": 25547,
    "Ġnatur": 17337,
    "mrs": 3746,
    "Ġdiligently": 11407,
    "changing": 10856,
    "@": 36,
    "came": 4569,
    "menced": 23148,
    "poled": 22912,
    "Ġdocuments": 10026,
    "Ġconstrain": 2627,
    "aloes": 21505,
    "Ġrate": 1062,
    "Ġrat": 4353,
    "Ġdetermine": 3247,
    "gin": 4931,
    "acked": 10976,
    "Ġdevelopment": 7058,
    "Ġmagician": 25061,
    "ody": 1479,
    "Ġglistening": 12369,
    "Ġpractice": 2753,
    "Ġplainpalais": 20739,
    "adays": 14016,
    "Ġantarctic": 19555,
    "Ġcomforters": 25801,
    "Ġmentioned": 4329,
    "Ġtiller": 8968,
    "investigations": 25534,
    "Ġreef": 10851,
    "entrance": 12662,
    "Ġexhibiting": 19841,
    "strained": 21655,
    "boards": 23257,
    "bedroom": 14701,
    "Ġ**": 4719,
    "Ġvoyages": 6908,
    "Ġhelmsman": 10507,
    "bound": 6222,
    "consid": 4925,
    "truck": 15444,
    "Ġaffl": 14389,
    "asked": 8915,
    "Ġages": 7030,
    "Ġafford": 4365,
    "Ġfestival": 25446,
    "Ġmahogany": 20581,
    "Ġstartled": 7084,
    "Ġmention": 2989,
    "Ġminimum": 23045,
    "Ġfathers": 16299,
    "Ġade": 22105,
    "Ġdoing": 3664,
    "paper": 9139,
    "Ġfolding": 19730,
    "romising": 18234,
    "Ġdevote": 10341,
    "Ġsubset": 9873,
    "Ġfairest": 20466,
    "Ġproceeds": 12082,
    "oping": 5559,
    "struck": 7862,
    "Ġcraven": 16471,
    "Ġfattened": 25950,
    "why": 2830,
    "epilogue": 22104,
    "Ġneatly": 17018,
    "Ġdance": 4442,
    "ivities": 22084,
    "Ġexclamation": 8702,
    "complain": 14362,
    "Ġhabits": 6926,
    "ith": 330,
    "Ġnorthumbria": 24174,
    "elder": 21575,
    "velling": 14765,
    "Ġegot": 18010,
    "Ġnothing": 1360,
    "Ġovertook": 18429,
    "inj": 9154,
    "hypothe": 25906,
    "resolution": 17768,
    "Ġslaught": 23169,
    "ents": 1898,
    "Ġlowermost": 23245,
    "sorting": 17006,
    "rior": 12746,
    "Ġsomebody": 7913,
    "hurriedly": 25511,
    "Ġbuoyancy": 20045,
    "Ġresidence": 8207,
    "Ġeat": 4642,
    "th": 407,
    "preading": 18496,
    "Ġgenerating": 12858,
    "Ġcrowds": 14742,
    "pping": 1424,
    "Ġpa": 2992,
    "Ġsiberia": 26162,
    "vii": 13152,
    "hope": 5991,
    "Ġterritories": 23848,
    "Ġrhine": 12360,
    "aples": 20770,
    "Ġtoo": 1164,
    "Ġaggregate": 25678,
    "wr": 3032,
    "aren": 10077,
    "vings": 9754,
    "Ġlong": 796,
    "Ġinstructions": 11197,
    "Ġorganisation": 23585,
    "Ġparagraph": 17457,
    "Ġindifferent": 6176,
    "Ġdetermined": 2221,
    "Ġdams": 16456,
    "Ġaccordance": 19501,
    "Ġreck": 6539,
    "Ġconnect": 799,
    "mme": 22504,
    "compasses": 19461,
    "Ġprodig": 6029,
    "kne": 20937,
    "Ġwhy": 1762,
    "Ġsharing": 3478,
    "Ġbrightly": 13229,
    "Ġcigaret": 16978,
    "draughts": 20391,
    "Ġupset": 22157,
    "Ġneville": 7399,
    "Ġnoah": 10944,
    "velled": 9879,
    "Ġwra": 5907,
    "Ġnonsense": 6983,
    "Ġreasoner": 14445,
    "chor": 6148,
    "Ġforgo": 21777,
    "turbaned": 24532,
    "Ġgrieved": 8298,
    "Ġheredit": 9219,
    "Ġnephews": 24713,
    "marry": 13328,
    "Ġnlp": 3065,
    "mind": 4625,
    "Ġrationally": 18216,
    "Ġyaw": 18097,
    "Ġachieves": 4379,
    "imag": 6991,
    "Ġflamingo": 15104,
    "Ġgermany": 25786,
    "Ù": 154,
    "Ġqueen": 3213,
    "Ġperem": 12937,
    "Ġrepeated": 3833,
    "Ġprob": 969,
    "Ġhorr": 3190,
    "Ġimpulse": 10027,
    "Ġvolume": 6770,
    "surprised": 9534,
    "mistress": 14908,
    "irious": 15790,
    "Ġwast": 21864,
    "Ġod": 4439,
    "Ġnation": 12652,
    "keys": 15862,
    "fishery": 10035,
    "Ġsplendour": 20227,
    "rougham": 15997,
    "Ġharpooneer": 3773,
    "Ġdocument": 15021,
    "culiar": 2821,
    "Ġhandle": 3138,
    "ĺ": 251,
    "Ġanyways": 22524,
    "Ġbeheading": 21758,
    "Ġboats": 2637,
    "doors": 19096,
    "hands": 5968,
    "occupation": 15059,
    "Ġmodes": 22217,
    "Ġmodest": 15919,
    "mming": 1170,
    "Ġleaping": 8341,
    "standard": 22432,
    "oar": 12502,
    "Ġending": 18924,
    "fav": 6649,
    "Ġdeficiencies": 26572,
    "Ġrevealed": 6753,
    "peleg": 16297,
    "Ġgriefs": 16773,
    "saddest": 25528,
    "Ġseparating": 16684,
    "Ġscarcely": 4009,
    "Ġrecent": 7436,
    "Ġbricks": 13566,
    "itable": 5437,
    "Ġno": 510,
    "Ġclos": 4548,
    "indifference": 15986,
    "strils": 10460,
    "Ġhoist": 11981,
    "Ġjudge": 5502,
    "Ġminutes": 3003,
    "Ġcategor": 4139,
    "bears": 22494,
    "Ġunintellig": 22026,
    "Ġpoverty": 9307,
    "Ġsubproblems": 12962,
    "Ġ130": 24780,
    "ras": 21039,
    "throne": 25658,
    "gments": 12474,
    "Ġstormy": 16730,
    "Ġcreamy": 14334,
    "asp": 3342,
    "Ġconstruction": 9388,
    "Ġlowers": 23244,
    "Ġcompliance": 12119,
    "Ġroy": 4226,
    "Ġrogue": 22409,
    "bergs": 18696,
    "ay": 354,
    "awe": 20767,
    "Ġample": 11802,
    "anxiety": 25159,
    "Ġdis": 694,
    "ense": 2051,
    "Ġbeen": 627,
    "crossed": 16635,
    "Ġchall": 10946,
    "Ġcreative": 9833,
    "Ġscheming": 23273,
    "rolled": 9062,
    "magn": 10613,
    "ultaneous": 18584,
    "wag": 21126,
    "Ġdinah": 9457,
    "hering": 12819,
    "Ġcourting": 23296,
    "abhorred": 17339,
    "Ġwarb": 17789,
    "blows": 17168,
    "irra": 15789,
    "laugh": 10111,
    "Ġofficious": 19351,
    "phur": 16155,
    "Ġrachel": 11851,
    "insanity": 23070,
    "Ġindeed": 1682,
    "Ġlabours": 8586,
    "Ġresentment": 7531,
    "Ġforecastle": 5495,
    "want": 8770,
    "Ġtreacher": 8608,
    "faint": 17547,
    "Ġoblivion": 26032,
    "Ġ72": 19614,
    "Ġcharges": 23271,
    "Ġforgive": 8010,
    "ict": 590,
    "Ġcaval": 25770,
    "Ġstumbling": 21746,
    "Ġmonotonous": 13268,
    "Ġknee": 7095,
    "iluvian": 18063,
    "Ġmortified": 14697,
    "hr": 20890,
    "Ġcasual": 11411,
    "oll": 5456,
    "Ġslumbering": 25702,
    "pr": 3175,
    "cou": 13699,
    "epend": 3316,
    "Ġwoe": 4792,
    "Ġdivided": 8635,
    "Ġdismasted": 15255,
    "Ġchannels": 26014,
    "Ġkl": 2737,
    "Ġrazor": 22659,
    "Ġexquisite": 12385,
    "ental": 7169,
    "Ġremoving": 12121,
    "Ġdeliver": 9851,
    "ĠĠĠĠĠĠĠĠĠĠĠĠĠĠĠĠĠĠĠĠĠĠĠĠĠĠĠĠĠĠĠĠĠ": 12047,
    "ord": 667,
    "approve": 19940,
    "·": 120,
    "taught": 17686,
    "Ġdream": 3541,
    "ist": 448,
    "deformity": 22149,
    "Ġbigot": 24566,
    "Ġreside": 22543,
    "Ġchink": 15936,
    "Ġbohem": 8529,
    "Ġhypothe": 4075,
    "Ġrector": 21679,
    "Ġopenly": 8576,
    "buff": 15322,
    "quet": 6835,
    "Ġmerely": 3772,
    "Ġpuff": 6527,
    "Ġhare": 5157,
    "Ġstrokes": 16771,
    "Ġupbra": 22158,
    "Ġdriven": 6200,
    "surgeon": 24217,
    "Ġwaking": 11573,
    "classes": 12140,
    "Ġtemperate": 16167,
    "Â": 131,
    "who": 2444,
    "Ġgrasping": 12170,
    "uttered": 8442,
    "Ġhusband": 3623,
    "perform": 15905,
    "flaming": 23975,
    "pil": 15411,
    "Ġrecre": 22740,
    "eaten": 20347,
    "Ġhandsomely": 25498,
    "Ġmanor": 14199,
    "Ġdashed": 6011,
    "Ġnostrils": 10945,
    "Ġparamount": 15882,
    "jur": 17580,
    "Ġwa": 1756,
    "Ġdolphins": 20399,
    "Ġconscientious": 16729,
    "stretch": 13979,
    "oc": 2836,
    "vel": 2381,
    "Ġcabaco": 13171,
    "bread": 10688,
    "Ġtrustworthy": 24109,
    "Ġbased": 3341,
    "unfearing": 21896,
    "Ġfloats": 9416,
    "mered": 8218,
    "Ŀ": 256,
    "abond": 15745,
    "Ġtrumpet": 9576,
    "venison": 22632,
    "Ġunstructure": 2997,
    "Ġconceited": 12096,
    "Ġrobustness": 18878,
    "sails": 7498,
    "Ġhereabouts": 12982,
    "saving": 21062,
    "Ġdisturbed": 8675,
    "Ġincognita": 26553,
    "Ġeber": 18006,
    "piled": 21017,
    "Ġcame": 1299,
    "Ġmaintain": 856,
    "Ġaloof": 21789,
    "Ġbalancing": 2429,
    "inks": 6869,
    "ipher": 18427,
    "Ġgardiners": 11159,
    "Ġevangel": 11282,
    "scenes": 16245,
    "Ġchestnut": 19675,
    "Ġcleans": 18950,
    "ex": 624,
    "Ġbreaks": 13189,
    "Ġhorizontal": 7783,
    "Ġreligion": 11417,
    "ga": 17552,
    "Ġwhile": 607,
    "Ġwhaling": 2784,
    "**": 4684,
    "Ġpushed": 5911,
    "Ġmidnight": 5266,
    "Ġproudly": 19745,
    "Ġnotes": 7189,
    "unbounded": 21889,
    "Ġstubbs": 23300,
    "Ġstrides": 22620,
    "lesson": 22776,
    "performed": 18345,
    "Ġconspicuous": 13607,
    "Ġjen": 9270,
    "Ġangry": 5498,
    "Ġseeks": 14306,
    "Ġamel": 18511,
    "requiem": 24857,
    "puff": 21024,
    "Ġpredictions": 1455,
    "stool": 23822,
    "Ġchocks": 13350,
    "Ġlory": 12657,
    "Ġdemoniac": 15068,
    "Ġtoilet": 13940,
    "Ġships": 3716,
    "Ġpun": 4586,
    "infall": 21191,
    "Ġcreates": 2008,
    "wheels": 14384,
    "Ġretribution": 16285,
    "Ġunfolded": 10641,
    "Ġmerchant": 6468,
    "Ġintertw": 18590,
    "Ġcomforted": 19394,
    "rying": 3186,
    "assertion": 22315,
    "Ġper": 588,
    "irable": 5776,
    "Ġyears": 1893,
    "ofs": 11834,
    "Ġwaned": 17793,
    "Ġdetect": 1269,
    "Ġdodo": 9075,
    "Ġscreen": 17208,
    "Ġscenes": 5731,
    "scy": 21058,
    "Ġmethods": 3160,
    "ies": 583,
    "Ġstoutest": 24629,
    "Ġadduced": 26526,
    "Ġmargaret": 10379,
    "Ġwax": 10778,
    "Ġwears": 10243,
    "Ġsprawling": 22143,
    "Ġsayest": 22779,
    "asy": 5296,
    "Ġrheumatic": 20707,
    "Ġloveliness": 13612,
    "caut": 20814,
    "windlass": 16723,
    "Ġpitied": 14694,
    "Ġstirs": 14920,
    "Ġdipping": 15596,
    "rate": 2419,
    "Ġcommitted": 7431,
    "plifted": 9713,
    "Ú": 155,
    "Ġjustine": 4970,
    "Ġmerits": 13200,
    "Ġbackwater": 18651,
    "billows": 20239,
    "ceptibly": 22358,
    "Ġconcentrated": 15087,
    "Ġsizes": 1520,
    "Ġlance": 4880,
    "decided": 13219,
    "Ġblotches": 25315,
    "ine": 404,
    "Ġhumbug": 18781,
    "fth": 20858,
    "step": 2456,
    "disputed": 23502,
    "Ġflock": 21414,
    "Ġworse": 4717,
    "ellative": 21949,
    "Ġmeridian": 25713,
    "Ġsatisfy": 6911,
    "Ġringbolts": 24199,
    "adieu": 26202,
    "Ġwedding": 4815,
    "Ġjohn": 5032,
    "Ġglassy": 19563,
    "Ġvainly": 9927,
    "Ġrespects": 7269,
    "Ġconcluded": 5658,
    ";âĢĶ": 3751,
    "declaration": 25176,
    "clo": 5613,
    "Ġheaped": 18040,
    "Ġbolted": 12249,
    "Ġassaults": 15160,
    "Ġtenderness": 12220,
    "untary": 9870,
    "swift": 14855,
    "door": 6195,
    "Ġengrossed": 13002,
    "Ġended": 7950,
    "heed": 15501,
    "enormous": 26167,
    "sust": 15425,
    "Ġelbow": 12926,
    "thinking": 9017,
    "Ġcorpse": 6641,
    "produced": 25415,
    "Ġregimentals": 19860,
    "Ġgul": 7860,
    "Ġtoward": 17949,
    "á": 162,
    "lemency": 21377,
    "Ġspo": 6846,
    "pate": 21012,
    "oker": 10965,
    "berries": 22752,
    "pike": 11517,
    "dismay": 19156,
    "coloured": 7291,
    "medi": 2628,
    "Ġalcoves": 26488,
    "Ġsomething": 1799,
    "Ġinfat": 14503,
    "Ġteasing": 11893,
    "brink": 23578,
    "derment": 22165,
    "races": 21633,
    "hum": 3781,
    "Ġstabilizing": 3660,
    "Ġlanding": 11989,
    "Ġtreacle": 14597,
    "Ġagent": 6279,
    "aulding": 11341,
    "Ġanatomical": 15080,
    "Ġestimation": 11220,
    "Ġsubsets": 2340,
    "loom": 18537,
    "Ġspirits": 3700,
    "gest": 5426,
    "Ġfir": 17879,
    "Ġoptimal": 1859,
    "whether": 5320,
    "vision": 5620,
    "tis": 4106,
    "Ġenumer": 12750,
    "wood": 5899,
    "emy": 14078,
    "Ġprobed": 18734,
    "vain": 15450,
    "Ġalter": 6544,
    "Ġdifference": 1488,
    "Ġlexic": 15728,
    "Ġbegging": 11082,
    "rivial": 9437,
    "Ġfel": 1517,
    "ong": 537,
    "unless": 9238,
    "soundest": 24796,
    "Ġchimer": 24603,
    "Ġseen": 1367,
    "apparently": 15208,
    "occasion": 7754,
    "Ġserene": 8167,
    "ersampling": 18211,
    "Ġmuscles": 12093,
    "strangers": 20339,
    "Ġhired": 10180,
    "Ġrepositories": 23367,
    "Ġpens": 21462,
    "Ġgrateful": 7661,
    "Ġoriginated": 24125,
    "ceive": 3067,
    "Ġposition": 1955,
    "Ġparamore": 22126,
    "Ġaustral": 12177,
    "lanter": 15391,
    "commun": 15036,
    "Ġkicked": 10584,
    "Ġhorseback": 14853,
    "american": 11402,
    "Ġconfirm": 9859,
    "istically": 14146,
    "serpent": 16295,
    "Ġghastly": 10063,
    "Ġfris": 23258,
    "Ġdispleased": 18556,
    "Ġpince": 21473,
    "consist": 14819,
    "Ġquivered": 18468,
    "Ġprows": 19891,
    "prophet": 16185,
    "Ġstrangely": 5677,
    "ribe": 1223,
    "Ġyer": 15738,
    "Ġproceedings": 9910,
    "bl": 4141,
    "sworn": 24259,
    "greatest": 10496,
    "Ġopinions": 9418,
    "Ġpropag": 16351,
    "Ġsalad": 19482,
    "Ġcompan": 2174,
    "swam": 24257,
    "Ġsling": 21223,
    "Ġcover": 3560,
    "thankful": 16808,
    "Ġpretend": 7722,
    "contriv": 19295,
    "Ġblanket": 8343,
    "Ġmodified": 14169,
    "Ġkent": 6693,
    "Ġpenetrated": 13476,
    "operations": 19978,
    "iousness": 4900,
    "Ġexpecting": 10438,
    "Ġirr": 10423,
    "Ġhail": 7400,
    "âĢĻ": 379,
    "Ġfrosts": 19805,
    "Ġcarr": 23093,
    "Ġleft": 1763,
    "Ġreconciliation": 25293,
    "Ġboom": 9313,
    "wis": 12523,
    "eh": 13713,
    "Ġphilips": 5410,
    "Ġgrate": 12969,
    "ized": 1529,
    "Ġsulk": 15048,
    "writhed": 26081,
    "Ġsoutherly": 23338,
    "Ġsands": 14951,
    "ateur": 22075,
    "Ġincantation": 26259,
    "Ġoverall": 4358,
    "Ġthine": 7374,
    "Ġsplintered": 11420,
    "skull": 24488,
    "Ġspat": 2666,
    "ogany": 18680,
    "ench": 21282,
    "Ġconstitution": 20112,
    "with": 1295,
    "Ġsitt": 21220,
    "ackinaw": 22429,
    "Ġdepressed": 10884,
    "Ġsavag": 19377,
    "iv": 432,
    "Ġtitle": 11410,
    "Ġtarget": 2822,
    "Ġcumberland": 21358,
    "Ġhush": 13215,
    "peace": 13054,
    "Ġchim": 5934,
    "Ġbl": 1188,
    "Ġsignificance": 13285,
    "Ġwild": 2601,
    "hoisting": 23719,
    "Ġappeals": 16319,
    "Ġmomentum": 1604,
    "Ġwonder": 2119,
    "asons": 6016,
    "Ġalexander": 17427,
    "Ġpunctilious": 26355,
    "Ġvigorous": 10569,
    "Ġextraction": 11253,
    "wharf": 20609,
    "adru": 15735,
    "Ġcardboard": 19982,
    "Ġdoct": 4455,
    "pop": 17633,
    "heim": 17748,
    "Ġfusion": 21417,
    "Ġcontrivance": 17186,
    "Ġasp": 15788,
    "Ġunkindness": 22042,
    "twain": 23700,
    "izar": 14053,
    "Ġencounters": 19583,
    "Ġadmirers": 19689,
    "Ġword": 1052,
    "university": 25984,
    "continually": 11304,
    "Ġvisibly": 22890,
    "pede": 19932,
    "Ġthrow": 3786,
    "forbidding": 25838,
    "Ġradiating": 24331,
    "Ġverse": 16604,
    "Ġcoff": 3510,
    "Ġcontextual": 3744,
    "ato": 17771,
    "Ġweeks": 4564,
    "Ġstalk": 12702,
    "Ġweaken": 21925,
    "gangway": 20670,
    "lovel": 22514,
    "Ġtones": 8401,
    "Ġnotorious": 18224,
    "type": 16177,
    "outside": 12809,
    "âĢĶâĢĻ": 8188,
    "Ġallows": 3233,
    "archical": 1928,
    "battle": 12446,
    "Ġgrosvenor": 17421,
    "isturbed": 18298,
    "Ġcorrection": 5062,
    "Ġevening": 2653,
    "thirty": 12767,
    "tashtego": 9625,
    "Ġasserted": 16951,
    "Ġindividually": 22962,
    "ĠĠĠĠĠĠĠĠĠĠĠĠĠĠĠĠĠĠĠĠĠĠĠĠĠĠĠĠĠ": 19702,
    "whaling": 7899,
    "ute": 4641,
    "Ġvillages": 14751,
    "Ġfoam": 6891,
    "ees": 13714,
    "Ġinstrument": 7120,
    "Ġcolonies": 14378,
    "Ġperpendicularly": 11376,
    "Ġretreating": 19802,
    "Ġderbyshire": 6588,
    "Ġridge": 14822,
    "Ġstate": 1813,
    "Ġwoven": 9929,
    "Ġgeorgia": 23889,
    "Ġshone": 7404,
    "ru": 478,
    "ission": 6458,
    "Ġexc": 1833,
    "Ġconveyed": 8335,
    "gave": 7800,
    "Ġquest": 1999,
    "trip": 21094,
    "itancy": 21336,
    "Ġcraggy": 23530,
    "Ġsupp": 1264,
    "Ġlaborious": 13108,
    "Ġspeed": 2446,
    "Ġregrets": 18596,
    "Ġdictated": 25219,
    "guarded": 13299,
    "blu": 12444,
    "Ġpublic": 4332,
    "Ġdeploy": 2903,
    "Ġpostp": 12148,
    "Ġprized": 23224,
    "Ġdisgust": 6707,
    "Ġillust": 8263,
    "itious": 8784,
    "ĠĠĠĠĠĠĠĠĠĠĠĠĠĠĠĠĠĠĠĠĠĠĠĠĠĠĠĠĠĠĠĠĠĠĠ": 19261,
    ":--âĢľ": 24550,
    "Ġamelia": 26253,
    "Ġdisinclined": 22533,
    "civility": 17515,
    "Ġoutlined": 22324,
    "Ġplumage": 17301,
    "knot": 13748,
    "Ġflatt": 16251,
    "Ġdriver": 16475,
    "Ġha": 400,
    "humoredly": 26326,
    "yl": 7818,
    "quished": 21852,
    "idge": 14017,
    "Ġhurriedly": 11250,
    "Ġrotterdam": 25476,
    "dwelt": 23874,
    "Ġdrows": 21438,
    "Ġ43": 14772,
    "ante": 11725,
    "Ġadvent": 4356,
    "negro": 18494,
    "a": 69,
    "Ġresembles": 25970,
    "_.âĢĻâĢĿ": 17482,
    "Ġconverse": 11848,
    "Ġheated": 21685,
    "Ġdiscriminator": 3392,
    "Ġprojected": 16873,
    "Ġunlocking": 20708,
    "Ġantilles": 24182,
    "Ġkrusenstern": 26379,
    "ulgent": 18152,
    "outre": 18321,
    ".": 18,
    "globe": 25145,
    "Ġmission": 13011,
    "Ġ1671": 25008,
    "Ġadver": 5641,
    "Ġcounteracted": 19864,
    "Ġmasked": 3697,
    "Ġkeys": 12001,
    "Ġlogger": 11958,
    "actions": 8910,
    "Ġbedford": 7476,
    "little": 3353,
    "ide": 721,
    "elopement": 23114,
    "Ġuncivilized": 25499,
    "Ġclipping": 2439,
    "float": 19808,
    "Ġnobly": 22245,
    "Ġbake": 21385,
    "Ġmarrying": 6179,
    "Ġunsounded": 15853,
    "Ġobstructed": 24678,
    "Ġhoof": 23356,
    "iliary": 21730,
    "hedge": 22503,
    "gor": 548,
    "cordiality": 25140,
    "Ġfurnishing": 16648,
    "bits": 17491,
    "hairs": 20906,
    "apparatus": 26565,
    "uncomfortable": 18163,
    "Ġtells": 9364,
    "Ġintolerable": 8484,
    "¦": 104,
    "lowering": 16035,
    "observation": 17272,
    "Ġsum": 2702,
    "Ġfergus": 16869,
    "Ġrio": 23894,
    "Ġvigilant": 20187,
    "Ġwill": 680,
    "Ġunidirectional": 3426,
    "Ġunpitying": 25661,
    "Ġtimorous": 24228,
    "Ġparacelsus": 15270,
    "Ġexerting": 21836,
    "Ġpads": 21476,
    "Ġdomains": 6617,
    "Ġembedding": 2103,
    "Ġmonstrous": 7790,
    "Ġmounting": 19980,
    "icorn": 15661,
    "Ġdevotees": 25377,
    "Ġbalance": 2019,
    "sche": 13020,
    "Ġrichest": 26213,
    "Ġlinguistic": 12429,
    "Ġrelinquish": 17350,
    "oura": 1059,
    "billiard": 25335,
    "Ġchilian": 25564,
    "Ġprophesied": 26063,
    "Ġseated": 4540,
    "Ġpeddling": 21484,
    "Ġfall": 2990,
    "organic": 25947,
    "Ġpursuits": 12081,
    "õ": 182,
    "nurs": 21001,
    "ar": 285,
    "proportions": 22850,
    "ihood": 20924,
    "jewel": 20349,
    "Ġfrontispiece": 23917,
    "cob": 10089,
    "introdu": 8940,
    "Ġcomprehensiveness": 25075,
    "Ġ69": 19664,
    "Ġprocured": 8680,
    "Ġblasphe": 17410,
    "Ġsubdued": 11032,
    "Ġvinc": 14088,
    "Ġknighthood": 25298,
    "Ġpredef": 18516,
    "Ġoccasioned": 13232,
    "Ġfatigue": 8701,
    "grateful": 10430,
    "enes": 5218,
    "erm": 788,
    "Ġsteals": 23086,
    "Ġabating": 22271,
    "heeded": 13837,
    "vic": 13805,
    "Ġsuns": 23276,
    "iless": 10284,
    "Ġdoll": 10815,
    "Ġpiping": 23235,
    "teen": 6371,
    "Ġcelerity": 17439,
    "Ġopinion": 3143,
    "Ġidol": 7467,
    "ual": 945,
    "Ġlandau": 16422,
    "favouring": 24761,
    "Ġsentence": 6189,
    "avern": 24791,
    "Ġtiny": 11555,
    "Ġgasfitters": 25041,
    "fallen": 19662,
    "Ġpend": 15610,
    "Ġendangered": 16307,
    "bered": 4504,
    "Ġbetrayed": 9564,
    "holloa": 19467,
    "Ġmurderous": 8316,
    "Ġcaution": 11348,
    "anc": 6380,
    "ermaid": 14301,
    "embraced": 25807,
    "Ġwestward": 24389,
    "ger": 1109,
    "Ġfid": 10805,
    "Ġjonah": 3481,
    "Ġsake": 4093,
    "lim": 9609,
    "Ġcoburg": 18601,
    "Ġdilated": 24703,
    "distrustful": 26332,
    "private": 13586,
    "plate": 18200,
    "rop": 539,
    "Ġballasted": 23985,
    "aceti": 7113,
    "Ġletting": 10365,
    "iteness": 4392,
    "tale": 10130,
    "Ġcomputes": 4767,
    "Ã¦st": 24178,
    "engagements": 25855,
    "Ġarticulated": 24433,
    "Ġknew": 2055,
    "confused": 19642,
    "Ġchanc": 18384,
    "Ġpattern": 1334,
    "Ġphysiognomical": 25612,
    "Ġassociations": 14966,
    "Ġpre": 507,
    "orum": 12595,
    "admitted": 18094,
    "delay": 16697,
    "ially": 9249,
    "Ġgeneric": 18454,
    "Ġecstasy": 11633,
    "meanwhile": 10612,
    "Ġbirds": 5875,
    "Ġwolfish": 25936,
    "Ġaux": 21202,
    "Ġdetail": 635,
    "Ġtwenty": 3950,
    "iers": 5992,
    "hurst": 19881,
    "Ġpaddock": 25040,
    "Ġoysters": 20582,
    "Ġbattered": 17864,
    "apes": 9744,
    "Ġreconc": 9686,
    "prove": 11149,
    "Ġintrodu": 1926,
    "Ġdeserts": 10510,
    "Ġself": 1783,
    "Ġledgers": 23942,
    "inois": 17740,
    "ld": 385,
    "mock": 5174,
    "Ġsky": 3970,
    "Ġangular": 19210,
    "ort": 523,
    "baby": 25516,
    "Ġhavoc": 15817,
    "omed": 13982,
    "Ġfang": 21406,
    "Ġterrify": 19364,
    "Ġstatements": 7517,
    "Ġbeaches": 18087,
    "grace": 5847,
    "Ġwail": 21289,
    "Ġgar": 10840,
    "hunted": 16834,
    "turning": 8317,
    "luck": 5733,
    "Ġowe": 8115,
    "Ġrepresentation": 14408,
    "Ġnotice": 4542,
    "Ġsolicit": 22889,
    "Ġfaintly": 14918,
    "R": 54,
    "Ġmah": 15545,
    "ontory": 10461,
    "onde": 21254,
    "effectually": 25131,
    "Ġdolph": 12384,
    "scorched": 25698,
    "Ġorigin": 4120,
    "Ġlanguid": 14223,
    "anean": 7443,
    "Ġdelineate": 26058,
    "bench": 16805,
    "Ġraiment": 22656,
    "Ġre": 317,
    "Ġchamois": 16802,
    "Ġclasp": 9747,
    "under": 3133,
    "Ġentra": 18694,
    "braid": 17497,
    "Ġconsist": 1935,
    "Ġletter": 2198,
    "reserved": 13846,
    "Ġcongratulatory": 19770,
    "spin": 22731,
    ",âĢĿâĢĶ": 14224,
    "ected": 7873,
    "Ġharpooned": 13267,
    "urches": 12690,
    "fool": 9050,
    "jury": 15377,
    "ĠĠĠĠĠĠĠĠĠĠĠĠĠĠĠĠĠĠĠĠĠĠĠĠĠĠĠĠĠĠĠĠĠĠĠĠĠĠ": 16528,
    "Ġgash": 15675,
    "Ġcompens": 14269,
    "Ġgirdled": 19161,
    "etuous": 21586,
    "honour": 13471,
    "Ġvibrated": 25048,
    "Ġlabeled": 3720,
    "orders": 12879,
    "ĠĠĠĠĠĠĠĠĠĠĠĠĠĠĠĠĠĠĠĠĠĠĠĠĠĠĠĠĠĠĠĠĠĠĠĠĠĠĠ": 19262,
    "Ġvent": 3997,
    "rived": 5373,
    "igantic": 5539,
    "Ġcollege": 11426,
    "Ġmatrices": 4969,
    "Ġoccas": 2705,
    "Ġprognostics": 20561,
    "Ġtrous": 10964,
    "Ġmartha": 16266,
    "Ġdep": 745,
    "Ġservox": 23872,
    "ula": 2827,
    "my": 1315,
    "delighted": 10565,
    "Ġgracechurch": 12203,
    "Ġunattended": 15847,
    "Ġdeclining": 23969,
    "Ġconclude": 8584,
    "animate": 12582,
    "Ġspaniards": 25556,
    "iterranean": 15554,
    "bird": 9588,
    "Ġinconceivable": 17940,
    "neighb": 16030,
    "Ġhour": 1814,
    "reference": 13843,
    "departure": 15238,
    "impatient": 13644,
    "pard": 9621,
    "Ġbalm": 22909,
    "Ġvows": 15812,
    "Ġliking": 23593,
    "Ġlime": 13951,
    "Ġcautiousness": 19868,
    "Ġperpetual": 12307,
    "Ġmerryweather": 9525,
    "Ġfires": 16473,
    "mccarthy": 15398,
    "Ġdissu": 18551,
    "Ġcapsized": 20093,
    "Ġperempt": 13677,
    "falgar": 26131,
    "meas": 7434,
    "feeder": 12365,
    "visitor": 15060,
    "Ġearliest": 9834,
    "Ġawfulness": 23589,
    "care": 4929,
    "Ġfrequented": 16588,
    "Ġenvironmental": 23952,
    "Ġassembl": 20064,
    "Ġstraightway": 9020,
    "Ġshag": 9254,
    "Ġgag": 21596,
    "Ġslumbers": 18944,
    "Ġabilities": 8870,
    "inct": 3294,
    "aked": 2014,
    "Ġhoofs": 14529,
    "art": 574,
    "abbering": 21800,
    "Ġsweet": 3467,
    "Ġproximity": 3219,
    "fairly": 17222,
    "Ġworked": 6585,
    "Ġscroll": 14194,
    "Ġbrix": 12588,
    "Ġparson": 6689,
    "bid": 5611,
    "Ġfloundered": 18863,
    "critters": 14778,
    "Ġboun": 21383,
    "Ġtransition": 14245,
    "belief": 13286,
    "majesty": 26282,
    "Ġxlvi": 25591,
    "Ġfuss": 13908,
    "Ġenticing": 22747,
    "Ď": 207,
    "embraces": 25806,
    "Ġoath": 7833,
    "night": 2168,
    "Ġdef": 1199,
    "Ġvalleys": 14922,
    "Ġaltar": 9231,
    "Ġminimizes": 2046,
    "Ġproclaim": 18134,
    "ying": 1448,
    "Ġhol": 1181,
    "Ġacre": 22684,
    "reception": 15517,
    "erns": 8782,
    "Ġforster": 5230,
    "ener": 564,
    "Ġpray": 3901,
    "inordinate": 21197,
    "comple": 7441,
    "cess": 540,
    "Ġimmovable": 15896,
    "considerably": 13449,
    "eze": 20849,
    "ĠĠĠĠĠĠĠĠĠĠĠĠĠ": 22567,
    "holding": 7739,
    "Ġsaxe": 13632,
    "tinted": 17685,
    "Ġseptember": 18208,
    "vellers": 16676,
    "Ġmalignity": 10559,
    "Ġresented": 22547,
    "uous": 4144,
    "ential": 825,
    "Ġcouns": 10523,
    "vess": 7354,
    "irited": 15791,
    "fts": 18701,
    "oes": 4434,
    "Ġcharacter": 2795,
    "listened": 15046,
    "Ġresist": 7916,
    "ibility": 2386,
    "Ġone": 568,
    "provid": 11151,
    "Ġdesperate": 7777,
    "ĕ": 214,
    "Ġconsequence": 5542,
    "calcul": 12992,
    "Ġexpressed": 4467,
    "Ġpitch": 5767,
    "Ġcomplimented": 14907,
    "Ġspence": 22130,
    "Ġbrightness": 16579,
    "reader": 23849,
    "Ġdemon": 7869,
    "Ġloath": 7891,
    "vy": 21110,
    "avo": 8522,
    "Ġalms": 21784,
    "Ġforlorn": 14018,
    "Ġpaste": 23421,
    "Ġinterior": 8899,
    "Ġco": 731,
    "Ġprice": 10405,
    "Ġspake": 18309,
    "female": 20669,
    "Ġroughly": 17041,
    "noon": 5037,
    "Ġrot": 10969,
    "Ġreporting": 24658,
    "Ġallowance": 14393,
    "Ġentities": 11867,
    "dismal": 23499,
    "Ġmalady": 24392,
    "Ġlonging": 14303,
    "Ġdiscomposed": 25581,
    "nable": 13765,
    "tempestuous": 26098,
    "Ġlanguages": 1567,
    "hastily": 19705,
    "Ġrusty": 14967,
    "Ġrecomm": 4996,
    "Ġhistorical": 3649,
    "onom": 9161,
    "Ġwretchedly": 19509,
    "Ġdang": 9177,
    "resistible": 10646,
    "ights": 8478,
    "specific": 10500,
    "possesses": 24617,
    "sensible": 20055,
    "telling": 14442,
    "Ġclair": 6270,
    "Ġunsolved": 22033,
    "Ġneedlessly": 23631,
    "Ġheedless": 14906,
    "Ġ1778": 25730,
    "Ġcreditors": 20133,
    "Ġreasonably": 11096,
    "Ġpatch": 4180,
    "Ġtraversed": 18894,
    "ad": 337,
    "approach": 24834,
    "narr": 12501,
    "Ġutterly": 6102,
    "Ġlob": 7629,
    "Ġautomatically": 3457,
    "um": 454,
    "sprit": 11384,
    "Ġplacing": 8904,
    "Ġshrugged": 12774,
    "Ġwithered": 19468,
    "Ġfuriously": 9805,
    "aswag": 21549,
    "Ġmoreover": 6165,
    "Ġscandalous": 24880,
    "Ġhalf": 1673,
    "Ġspecies": 5112,
    "humor": 19455,
    "formed": 2554,
    "Ġpenalizing": 13096,
    "Ġwhence": 5840,
    "Ġbarque": 23792,
    "Ġrage": 5110,
    "geese": 22371,
    "Ġhumming": 12990,
    "Ġguests": 12291,
    "Ġnovelty": 13467,
    "Ġderived": 8239,
    "inspect": 11561,
    "Ġlistened": 4469,
    "sing": 5138,
    "glow": 20876,
    "Ġcontemplate": 19894,
    "umps": 6319,
    "ationally": 15709,
    "simply": 20673,
    "Ġmedit": 8025,
    "Ġformality": 22832,
    "icilian": 20694,
    "Ġpedd": 17910,
    "Ġk": 484,
    "attacks": 23126,
    "ls": 1289,
    "Ġscramble": 24579,
    "ave": 980,
    "Ġelectric": 15198,
    "Ġtrading": 23080,
    "Ġchin": 4892,
    "Ġtending": 17726,
    "bethinking": 25746,
    "Ġrestrain": 8967,
    "damp": 15347,
    "Ġwails": 21299,
    "Ġ31": 12135,
    "within": 6732,
    "cun": 20797,
    "Ġreminded": 10002,
    "Ġperennial": 22697,
    "Ġexpressions": 7706,
    "Ġsuffers": 2976,
    "tting": 17682,
    "Ġcircumn": 11988,
    "Ġremem": 4313,
    "Ġcarries": 7675,
    "repressed": 21246,
    "Ġepisode": 26349,
    "Ġsickening": 19607,
    "*": 14,
    "Ġinvolved": 8926,
    "Ġtrappings": 23084,
    "drab": 23902,
    "blooded": 20026,
    "Ġray": 18643,
    "mits": 13759,
    "evidence": 25522,
    "Ġ1950": 11361,
    "Ġegyptian": 13590,
    "Ġability": 2766,
    "Ġcombination": 22854,
    "Ġprizes": 13078,
    "Ġwip": 13856,
    "thy": 2935,
    "Ġindications": 14634,
    "linked": 17595,
    "Ġconsol": 3817,
    "Ġunwearied": 20605,
    "fted": 9121,
    "_)âĢĶ": 20147,
    "hoping": 17568,
    "Ġinference": 9674,
    "uttle": 6249,
    "Ġunappalled": 22065,
    "Ġbomb": 17869,
    "Ġsupposed": 4557,
    "gentlemen": 9507,
    "hyena": 24255,
    "Ġreceives": 20357,
    "rist": 10125,
    "Ġentropy": 2029,
    "Ġmeantime": 6208,
    "Ġmantle": 25275,
    "Ġhatter": 4113,
    "scoured": 22991,
    "alions": 21504,
    "Ġshrinking": 14808,
    "Ġlightness": 23263,
    "invol": 12535,
    "Ġinner": 9673,
    "Ġsummar": 3528,
    "Ġcant": 17826,
    "Ġvultures": 25654,
    "Ġfanciful": 24787,
    "archbishop": 22879,
    "Ġbeard": 11658,
    "xt": 2081,
    "Ġ122": 24467,
    "ppers": 7619,
    "luded": 4227,
    "Ġdecorum": 16024,
    "Ġlanded": 7469,
    ".*": 7331,
    "Ġbrief": 6977,
    "search": 8467,
    "Ġmovements": 24359,
    "repeating": 20132,
    "Ġfun": 525,
    "Ġkeen": 4612,
    "Ġbetokened": 18801,
    "Ġattested": 22627,
    "Ġvinegar": 20103,
    "Ġframe": 1854,
    "Ë": 140,
    "Ġcompletely": 4860,
    "Ġbuck": 7158,
    "spiracle": 22736,
    "Ġuseless": 7039,
    "Ġconsent": 5372,
    "orrowed": 19292,
    "retirement": 23144,
    "Ġdey": 11678,
    "cular": 15331,
    "valuable": 8248,
    "Ġshelves": 15000,
    "Ġagency": 11810,
    "Ġpuzzle": 11307,
    "imble": 10860,
    "Ġsubterraneous": 20268,
    "Ġjane": 1760,
    "Ġfully": 6344,
    "fatality": 25022,
    "streamed": 25966,
    "plunging": 25988,
    "perquis": 22194,
    "itz": 6007,
    "Ġtrifles": 16953,
    "Ġlongitudes": 22638,
    "Ġforget": 2634,
    "Ġsteadfast": 8682,
    "Ġnegatived": 23051,
    "msprop": 2623,
    "Ġbulldog": 23861,
    "Ġengineer": 11979,
    "improve": 15716,
    "¾": 127,
    "Ġmassa": 19457,
    "Ġrecursive": 4781,
    "Ġprecautions": 23729,
    "----âĢĿ": 13311,
    "Ġexert": 5722,
    "Ġcure": 21343,
    "Ġatmosphere": 10899,
    "Ġinexpress": 12640,
    "resp": 13842,
    "Ġshades": 9466,
    "Ġrad": 4962,
    "Ġcharted": 22254,
    "smo": 10128,
    "Ġ[\"": 19933,
    "Ġbuoyant": 13535,
    "Ġ27": 8618,
    "Ġallow": 1132,
    "Ġheard": 1398,
    "limp": 20954,
    "Ġsmothered": 20722,
    "Ġgovernment": 15180,
    "Ġscept": 15506,
    "###": 3829,
    "Ġcoco": 11003,
    "Ġvery": 636,
    "spouter": 22734,
    "Ġphr": 2683,
    "ented": 4348,
    "adie": 18091,
    "Ġcocks": 18599,
    "acious": 5561,
    "Ġbarnacled": 25537,
    "sorrows": 17323,
    "Ġnovels": 15933,
    "wart": 17707,
    "Ġ42": 16680,
    "Ġtries": 9153,
    "Ġanxiously": 8290,
    "ckled": 9260,
    "Ġindomitableness": 26573,
    "lantic": 6365,
    "Ġkings": 7197,
    "classification": 4387,
    "Ġbequeathed": 20704,
    "Ġtoken": 2037,
    "Ġdisastrous": 16064,
    "Ġscenarios": 26544,
    "rote": 4591,
    "Ġsolely": 9913,
    "Ġhorsham": 10408,
    "Ġul": 6828,
    "hement": 13835,
    "expectant": 24278,
    "Ġdates": 6695,
    "Ġvast": 3298,
    "ocris": 23711,
    "Ġquiescent": 26244,
    "Ġresnet": 5473,
    "Ġporpoise": 7108,
    "Ð": 145,
    "Ġbon": 8790,
    "unquiet": 21885,
    "hic": 3250,
    "Ġjan": 11766,
    "every": 2811,
    "downward": 16621,
    "itatingly": 25278,
    "duchess": 18464,
    "Ġgardiner": 3239,
    "Ġhemp": 9218,
    "maul": 11896,
    "Ġgateway": 24799,
    "Ġportra": 9012,
    "Ġpleasantness": 24141,
    "pets": 17638,
    "Ġunappe": 22018,
    "Ġimaginations": 16519,
    "combination": 25487,
    "hel": 4813,
    "Ġblubber": 5666,
    "Ġtutored": 20131,
    "idable": 8146,
    "speaks": 19722,
    "Ġtall": 4038,
    "Ġdazz": 11597,
    "Ġisle": 8837,
    "Ġshoals": 13138,
    "Ġbumpkin": 20203,
    "Ġ64": 24367,
    "scotland": 20532,
    "ast": 473,
    "cheerful": 13579,
    "_?âĢĿ": 15309,
    "ficial": 17550,
    "assin": 22309,
    "Ġseals": 11701,
    "Ġ114": 24438,
    "Ġcet": 6672,
    "Ġtempest": 8213,
    "ai": 2527,
    "Ġpack": 5444,
    "Ġmanhat": 22331,
    "Ġscorching": 20071,
    "Ġconception": 10320,
    "Ġpropagating": 20636,
    "Ġinsists": 23678,
    "Ġmillar": 13864,
    "persons": 24177,
    "Ġventing": 19496,
    "Ġwashes": 21865,
    "Ġrumours": 24599,
    "Ġknot": 7013,
    "mouth": 9133,
    "Ġpositions": 2057,
    "Ġball": 3626,
    "Ġcounties": 23306,
    "Ġpot": 2993,
    "Ġcommend": 10337,
    "content": 11200,
    "flies": 19427,
    "Ġconcern": 2657,
    "000": 2560,
    "inkle": 22617,
    "Ġendeavoured": 4919,
    "Ġthumb": 6982,
    "water": 4869,
    "Ġseventeen": 26212,
    "ċ": 204,
    "jolly": 20933,
    "lips": 13753,
    "Ġbrides": 22866,
    "Ġpond": 13919,
    "Ġrains": 24340,
    "Ġcalhoun": 23048,
    "Ġfathom": 17049,
    "Ġimmensity": 25330,
    "Ġplanisp": 24062,
    "Ġdense": 8123,
    "Ġearnest": 3931,
    "Ġlightnings": 16356,
    "irst": 879,
    "ldog": 21921,
    "Ġsuccour": 20438,
    "Ġbranch": 8332,
    "Ġstepmother": 16093,
    "nered": 18493,
    "Ġfleetness": 20182,
    "ered": 1685,
    "Ġheav": 1852,
    "Ġbewit": 15732,
    "Ġchancery": 20718,
    "Ġshipw": 12983,
    "Ġconstraint": 16515,
    "Ġderive": 10397,
    "Ġshut": 3943,
    "Ġsensitivity": 3072,
    "Ġglades": 19375,
    "Ġverd": 6919,
    "gird": 20881,
    "Ġfurnaces": 24010,
    "Ġplunder": 22605,
    "Ġregularization": 1172,
    "bled": 5469,
    "fin": 5209,
    "Ġmari": 6814,
    "Ġmans": 15540,
    "Ġsuperseded": 26225,
    "foundered": 20869,
    "Ġmutable": 23960,
    "city": 15330,
    "Ġsole": 3299,
    "Ġthreaten": 24374,
    "ently": 1618,
    "(_": 7541,
    "Ġoccurred": 4462,
    "Ġfashions": 17887,
    "Ġwreath": 25937,
    "Ġgambler": 26192,
    "Ġvill": 3880,
    "humanity": 24840,
    "ured": 1658,
    "freely": 16856,
    "Ġmuch": 922,
    "Ġcheapside": 23293,
    "}": 97,
    "Ġpant": 10819,
    "astonished": 15035,
    "full": 7420,
    "Ġdesertion": 24786,
    "¼": 125,
    "Ġthursday": 12649,
    "Ġmisanthropic": 26562,
    "Ġiteratively": 3061,
    "Ġmurderer": 4980,
    "Ġbowditch": 19325,
    "Ġmeddling": 21323,
    "lingly": 9776,
    "Ġwhist": 6023,
    "bar": 7542,
    "seas": 14036,
    "Ġrepeating": 11215,
    "Ġbreathe": 9015,
    "Ġtrait": 23076,
    "Ġsalt": 8017,
    "Ġgiants": 25961,
    "ciousness": 20819,
    "Ġstages": 14007,
    "stays": 15692,
    "Ġflit": 23011,
    "Ġtests": 8960,
    "Ġbraced": 16582,
    "geor": 15982,
    "Ġcyl": 15561,
    "Ġout": 543,
    "insensibility": 23071,
    "ospit": 22267,
    "Ġvices": 14086,
    "Ġmichael": 20682,
    "ais": 8071,
    "Ġdel": 1617,
    "bott": 9109,
    "seat": 18128,
    "Ġlunch": 13529,
    "Ġconceal": 5975,
    "ribution": 14307,
    "Ġelevate": 24502,
    "Ġtwelfth": 22681,
    "Ġcent": 3255,
    "Ġperplex": 2717,
    "Ġstud": 1606,
    "Ġscrutiny": 26016,
    "Ġbecome": 3158,
    "got": 6955,
    "Ġretarded": 23074,
    "Ġsevent": 18203,
    "pity": 17629,
    "Ġtrifling": 10605,
    "Ġdoings": 18376,
    "Ġcompar": 4770,
    "idation": 5022,
    "Ġpersuasion": 10501,
    "rasing": 21048,
    "Ġvelvets": 25394,
    "bright": 8992,
    "Ġcelestial": 10070,
    "Ġraptures": 13500,
    "rosc": 17957,
    "Ġconsidered": 4610,
    "Ġafter": 870,
    "beautiful": 10651,
    "iour": 4037,
    "Ġphilosophers": 10554,
    "howling": 18991,
    "Ġspeechless": 13358,
    "Ġsaint": 15510,
    "Ġgallant": 8658,
    "streets": 13399,
    "ary": 989,
    "Ġperformer": 18756,
    "Ġhelped": 7459,
    "sect": 8153,
    "Ġenveloping": 19737,
    "Ġevanesc": 24296,
    "Ġintroduction": 8973,
    "call": 8726,
    "Ġbush": 23340,
    "Ġdesp": 3215,
    "calling": 12454,
    "ureau": 10229,
    "advanced": 19591,
    "Ġignominy": 15089,
    "Ġpolitics": 19227,
    "invincible": 25092,
    "paralleled": 14516,
    "taffrail": 15445,
    "Ġbalanced": 12995,
    "animal": 16980,
    "Ġyear": 3287,
    "Ġuncounted": 19118,
    "vine": 10736,
    "Ġsl": 1497,
    "gra": 768,
    "rell": 11566,
    "Ġexcessive": 3894,
    "Ġauthority": 7749,
    "luding": 6702,
    "Ġscanning": 18401,
    "Ġhonorable": 16878,
    "Ġbench": 7238,
    "help": 1478,
    "destroy": 19513,
    "told": 7811,
    "tired": 21075,
    "Ġbernard": 20687,
    "augment": 18830,
    "Ġgreedy": 3056,
    "Ġglaring": 11912,
    "Ġtrain": 515,
    "Ġpatiently": 19920,
    "raint": 18317,
    "aux": 14291,
    "ingle": 1037,
    "Ġinstruments": 12228,
    "pointed": 9811,
    "keep": 3852,
    "Ġvicinity": 7315,
    "Ġnewspaper": 12368,
    "Ġvelv": 10622,
    "changed": 7176,
    "af": 2371,
    "illa": 12798,
    "Ġfollowed": 1798,
    "Ġpicture": 4856,
    "umn": 5836,
    "ction": 503,
    "mish": 17600,
    "Ġfeverish": 11350,
    "Ġmost": 1020,
    "Ġvolition": 14801,
    "Ġhostile": 19943,
    "mentioned": 10626,
    "ober": 15409,
    "kindly": 14747,
    "Ġpushing": 10821,
    "Ġcolumn": 9331,
    "Ġformer": 3324,
    "Ġspurned": 12802,
    "Ġdistantly": 18533,
    "extending": 22769,
    "Ġprodigious": 8057,
    "left": 6976,
    "path": 10121,
    "composed": 14743,
    "abominable": 20597,
    "state": 13977,
    "Ġrehears": 15704,
    "adel": 15733,
    "tossed": 10999,
    "Ġrome": 12160,
    "Ġest": 2263,
    "Ġislets": 21805,
    "throwing": 11707,
    "Ġcrucial": 9896,
    "spect": 3232,
    "remembered": 17354,
    "unk": 4538,
    "come": 2372,
    "Ġdow": 17888,
    "Ġencountered": 8322,
    "hav": 20899,
    "Ġferry": 24498,
    "Ġcatastrophe": 10486,
    "departed": 24793,
    "Ġdishonoured": 20394,
    "Ġpervading": 20616,
    "Ġalmighty": 18107,
    "Ġtatters": 21180,
    "ively": 1306,
    "Ġdone": 1819,
    "Ġvary": 15811,
    "Ġoblong": 14324,
    "derbyshire": 18322,
    "inite": 6003,
    "Ġtied": 7357,
    "ester": 11606,
    "mbling": 3347,
    "jud": 4481,
    "Ġmislead": 22760,
    "Ġcul": 17824,
    "despairing": 25077,
    "ch": 321,
    "Ġimmediately": 3367,
    "Ġwithstand": 10228,
    "Ġaffecting": 2319,
    "Ġpewter": 17188,
    "Ġaim": 10148,
    "buried": 14852,
    "Ġwretched": 4082,
    "Ġexponentiating": 3446,
    "Ġparsonage": 7125,
    "oons": 12503,
    "Ġreading": 5114,
    "Ġbewildered": 15217,
    "Ġmilan": 19538,
    "Ġcretan": 22727,
    "Ġscud": 14193,
    "Ġvacant": 9498,
    "Ġpassion": 4556,
    "forget": 11034,
    "Ġbundles": 26176,
    "Ġ1825": 25719,
    "Ġarg": 4765,
    "Ġuppermost": 15282,
    "Ġhue": 8430,
    "fixed": 7549,
    "Ġwoods": 5406,
    "answer": 11739,
    "Ġsweetly": 23922,
    "Ġlanguor": 12853,
    "Ġpinch": 15019,
    "Ġpassed": 2009,
    "Ġimag": 2677,
    "erman": 5108,
    "Ġcasualties": 25513,
    "Ġjabbering": 22307,
    "Ġpresto": 22234,
    "armed": 7251,
    "Ġsharp": 2411,
    "desponding": 26343,
    "Ġoriginally": 7304,
    "oglyph": 11021,
    "Ġorganically": 3016,
    "Ġcry": 3499,
    "Ġkeepers": 23539,
    "Ġtruly": 4795,
    "twas": 15440,
    "Ġanchored": 17443,
    "accursed": 20543,
    "Ġessentially": 24925,
    "Ġr": 406,
    "Ġbaleen": 10040,
    "Ġbottle": 7491,
    "mus": 10113,
    "Ġxxiv": 24477,
    "stick": 15688,
    "Ġdeb": 4763,
    "Ġsweetheart": 19398,
    "Ġrenowned": 26195,
    "Ġhieroglyphics": 17306,
    "Ġradiant": 16811,
    "cannot": 5745,
    "Ġtradeoff": 2659,
    "otes": 15748,
    ".âĢĻ": 1720,
    "remarked": 12292,
    "Ġsequences": 1754,
    "teness": 23207,
    "thou": 4707,
    "Ġprejudice": 9078,
    "Ġaghast": 16052,
    "Ġding": 12604,
    "whaleman": 23438,
    "rocket": 13947,
    "Ġbravery": 23839,
    "gunpowder": 25340,
    "reed": 6374,
    "Ġgloom": 4200,
    "Ġseaman": 8642,
    "Ġbuoyed": 20044,
    "Ġmultitude": 9328,
    "Ġ*": 1273,
    "Ġprognost": 15285,
    "Ġpromoting": 3161,
    "Ġmarvelled": 18875,
    "Ġmonsters": 11076,
    "Ġpauper": 26180,
    "gradually": 12920,
    "Ġforesaw": 19128,
    "appeared": 4282,
    "Ġgnarled": 25169,
    "keeping": 8638,
    "Ġinsince": 23679,
    "Ġlvi": 21556,
    "Ġquadr": 8200,
    "Ġagonized": 25373,
    "irresistible": 18174,
    "Ġtimely": 19597,
    "Ġfaintness": 24571,
    "boxes": 16890,
    "Ġsweetest": 13252,
    "Ġeccentric": 13653,
    "Ġskin": 5038,
    "Ġmeanness": 22599,
    "Ġwept": 7184,
    "alcul": 15632,
    "knows": 19174,
    "rot": 21535,
    "Ġfears": 5729,
    "Ġclap": 10958,
    "Ġadventure": 5982,
    "scar": 9819,
    "Ġcruelly": 13379,
    "australian": 20564,
    "Ġdiscrimin": 2546,
    "Ġbackbones": 22664,
    "urch": 3993,
    "philosop": 9570,
    "Ġdiscl": 9800,
    "aternity": 21268,
    "Ġhandled": 12942,
    "pacific": 17643,
    "Ġwhitewashed": 14472,
    "wished": 13808,
    "Ġdisent": 22527,
    "returning": 12210,
    "Ġbedside": 19125,
    "icult": 3343,
    "Ġcucumber": 21359,
    "Ġ>": 21154,
    "greater": 13257,
    "Ġpierce": 17037,
    "savor": 25027,
    "Ġshould": 863,
    "itance": 13871,
    "Ġtemperature": 1004,
    "cture": 15669,
    "exped": 16527,
    "Ġhouses": 6140,
    "Ġopera": 23428,
    "Ġladen": 19179,
    "Ġconsists": 11982,
    "Ġgu": 1329,
    "Ġexagger": 12723,
    "à": 161,
    "toed": 18580,
    "Ġrecovering": 11866,
    "extreme": 11031,
    "flowing": 14561,
    "amused": 21850,
    "rud": 4189,
    "wife": 8101,
    "Ġgirl": 3088,
    "Ġgoverness": 8605,
    "Ġmoccas": 22440,
    "Ġencapsulate": 13678,
    "Ġdear": 1538,
    "connection": 18869,
    "ro": 301,
    "appin": 18759,
    "address": 14884,
    "ogr": 18678,
    "Ġaverse": 11083,
    "Ġremarking": 13129,
    "persecut": 22193,
    "ipotence": 22360,
    "husband": 8042,
    "airs": 2220,
    "Ġappro": 659,
    "Ġplantation": 11425,
    "lur": 13750,
    "test": 13795,
    "lord": 3867,
    "preced": 10311,
    "plans": 21956,
    "depths": 25664,
    "Ġrebounds": 25968,
    "countless": 24153,
    "Ġtho": 21517,
    "azore": 23464,
    "Ġstructures": 2721,
    "Ġunholy": 26220,
    "irts": 9241,
    "Ġandes": 12646,
    "resc": 21241,
    "pless": 6262,
    "Ġpleated": 16300,
    "Ġspans": 18305,
    "Ġuncertain": 4068,
    "lances": 15387,
    "Ġfan": 2034,
    "Ġeighteen": 11240,
    "Ġmelt": 21321,
    "Ġpassages": 12975,
    "Ġsanct": 15065,
    "bs": 3778,
    "Ġfowler": 16939,
    "trust": 21081,
    "Ġgi": 15670,
    "Ġfreed": 7267,
    "Ġtattooings": 24901,
    "Ġharem": 9712,
    "Ġcatching": 9481,
    "Ġslapped": 23173,
    "Ġcorpus": 13037,
    "ivers": 1982,
    "ropol": 10955,
    "Ġphrase": 11189,
    "Ġneur": 811,
    "Ġdevil": 3616,
    "antique": 18288,
    "Ġloudly": 7312,
    "peculiarity": 23112,
    "pect": 1252,
    "Ġkey": 2101,
    "Ġratio": 5066,
    "owers": 12689,
    "Ġshol": 21999,
    "Ġemployer": 19435,
    "Ġlogs": 16350,
    "Ġdeductions": 19736,
    "begin": 8887,
    "Ġfail": 4148,
    "Ġskill": 6872,
    "tie": 21071,
    "\",": 10681,
    "Ġindividuals": 24546,
    "Ġresisted": 22545,
    "Ġimbib": 22179,
    "nineteenth": 26139,
    "obscure": 23100,
    "studies": 25170,
    "networks": 2403,
    "Ġuses": 1208,
    "inaw": 21186,
    "hosmer": 25903,
    "Ġevaporate": 26334,
    "vacancies": 25920,
    "certainly": 5340,
    "Ġretained": 7174,
    "Ġfavoring": 2339,
    "Ġori": 8410,
    "rucastle": 22182,
    "ibank": 6880,
    "brÃ¦": 11177,
    "sent": 760,
    "Ġhag": 12630,
    "Ġpur": 2216,
    "Ġyourself": 2592,
    "whip": 22241,
    "Ġperfume": 25666,
    "que": 1112,
    "Ġunsophisticated": 25993,
    "creature": 5347,
    "Ġtimbers": 14842,
    "Ġarrival": 4729,
    "Ġmonsie": 11449,
    "Ġexploding": 2109,
    "aker": 3666,
    "Ġcad": 12573,
    "Ġscener": 10951,
    "Ġphenomenon": 17917,
    "Ġsnorting": 23743,
    "Ġsunlight": 13089,
    "aky": 18412,
    "Ġrecover": 9796,
    "Ġunlikely": 10909,
    "Ġcanals": 22168,
    "plague": 21957,
    "Ġperfection": 19221,
    "l": 80,
    "Ġbillows": 7503,
    "Ġalb": 14019,
    "Ġ[": 6968,
    "Ġstilly": 25974,
    "Ġaboriginal": 14191,
    "eer": 15351,
    "Ġrighted": 23180,
    "uously": 7353,
    "slide": 24556,
    "Ġdetective": 14423,
    "ested": 3480,
    "lipped": 16220,
    "mble": 1406,
    "Ġcalms": 23046,
    "shut": 10982,
    "resembling": 25933,
    "Ġtrunk": 7206,
    "Ġdeeply": 4715,
    "Ġobliquely": 12366,
    "encouragement": 17426,
    "Ġcompetition": 14272,
    "Ġuninterrupted": 22046,
    "Ġsuitable": 18280,
    "Ġeffected": 14357,
    "erest": 10699,
    "Ġdock": 15934,
    "parted": 21018,
    "Ġorange": 8489,
    "Ġaccomplice": 24376,
    "Ġaft": 5737,
    "ators": 7829,
    "Ġinvoking": 19147,
    "Ġtossing": 8126,
    "Ġtechnically": 12370,
    "Ġvapor": 8703,
    "ferences": 10329,
    "Ġdeliber": 7268,
    "afforded": 25866,
    "Ġclenched": 14206,
    "ivility": 12792,
    "places": 7877,
    "Ġad": 445,
    "Ġoaths": 13527,
    "Ġunho": 18243,
    "etent": 10202,
    "Ġcrystals": 20230,
    "Ġattending": 3286,
    "Ġimpertinence": 11368,
    "Ġchann": 15939,
    "Ġrefill": 18698,
    "Ġasiatic": 20433,
    "Ġgenial": 12199,
    "Ġsooty": 25816,
    "Ġscru": 8192,
    "Ġwarning": 9061,
    "Ġdexterously": 25296,
    "Ġweigh": 10895,
    "Ġreign": 13988,
    "number": 10117,
    "interference": 23740,
    "repe": 8780,
    "missing": 13224,
    "philips": 20038,
    "Ġsmelt": 16072,
    "Ġhowever": 1303,
    "Ġhempen": 13554,
    "Ġstraighten": 24009,
    "Ġtimid": 6347,
    "ieged": 22582,
    "asleep": 21547,
    "Ġanchor": 7368,
    "opement": 10313,
    "Ġkate": 15909,
    "urements": 18126,
    "frankenstein": 11393,
    "Ġherein": 16193,
    "kward": 6958,
    "Ġpain": 2299,
    "Ġvulgar": 13608,
    "description": 11095,
    "Ġrenew": 6147,
    "elab": 21573,
    "dogs": 25403,
    "Ġpersonally": 8602,
    "Ġwriting": 4666,
    "Ġmasterless": 24000,
    "arrangement": 17418,
    "Ġhinges": 15216,
    "Ġblotting": 25314,
    "nearly": 8684,
    "Ġexposure": 16103,
    "Ġidentified": 19152,
    "Ġbrig": 11049,
    "aved": 5476,
    "Ġcontinual": 6778,
    "stoke": 18022,
    "Ġfocused": 16345,
    "burning": 25081,
    "Ġmapp": 2082,
    "Ġstructured": 2974,
    "Ġidentifies": 12019,
    "ology": 1634,
    "construction": 19781,
    "Ġhercules": 14130,
    "Ġverbal": 19382,
    "term": 3759,
    "Ġreplay": 5047,
    "boscombe": 26122,
    "Ġprender": 22239,
    "nihil": 9847,
    "Ġsnowy": 9021,
    "Ġbennett": 16329,
    "spike": 16142,
    "Ġdecipher": 22445,
    "Ġgest": 8134,
    "outh": 2690,
    "Ġinteraction": 7424,
    "Ġvigorously": 11301,
    "Ġhides": 16269,
    "Ġcourse": 2132,
    "hearts": 13349,
    "Ġinsert": 19907,
    "Ġintentions": 10610,
    "÷": 184,
    "isl": 21378,
    "characteristic": 24686,
    "before": 3116,
    "Ġawaken": 23588,
    "isf": 2433,
    "Ġdoctrine": 24200,
    "Ġdra": 1594,
    "Ġcustoms": 19655,
    "Ġbaboon": 19696,
    "ĠĠĠĠĠĠĠĠĠĠĠĠĠĠĠĠĠĠĠĠĠĠĠĠĠĠĠĠĠĠĠĠĠĠĠĠ": 23666,
    "Ġprincipally": 11311,
    "ek": 1908,
    "Ġstrange": 2270,
    "wling": 11547,
    "Åĵ": 10746,
    "Ġshank": 22001,
    "hval": 20900,
    "Ġcrosswise": 18888,
    "ugnance": 12371,
    "hinting": 17571,
    "fresh": 13396,
    "Ġsurging": 19135,
    "Ġskil": 14355,
    "20": 20755,
    "Ġinvade": 19144,
    "Ġpovelson": 26554,
    "pol": 5894,
    "Ġoperations": 2295,
    "though": 2117,
    "Ġsettle": 6295,
    "adventure": 17236,
    "Ġoppression": 23653,
    "distinction": 19574,
    "Ġenjoyment": 7300,
    "Ġtexture": 19162,
    "leton": 5148,
    "ez": 5683,
    "oarsman": 25262,
    "whereby": 23420,
    "Ġreleased": 2981,
    "Ġencouragement": 13048,
    "Ġpennies": 17273,
    "Ġsugg": 4499,
    "ming": 3604,
    "Ġcarpenters": 16754,
    "Ġfettered": 24569,
    "ryder": 18640,
    "Ġmeasurement": 19426,
    "owners": 16090,
    "Ġkettle": 26234,
    "Ġtea": 5041,
    "coo": 11172,
    "naturedly": 24841,
    "Ġguard": 6180,
    "Ġjer": 6268,
    "verse": 9691,
    "shaped": 10310,
    "lacing": 17592,
    "alluring": 18353,
    "Ġphilistines": 26083,
    "Ġintensified": 17020,
    "Ġliked": 5265,
    "Ġpull": 5152,
    "Ġinjunctions": 24272,
    "Ġapparel": 20439,
    "Ġdisturbance": 15015,
    "Ġbowels": 9433,
    "collinses": 19925,
    "wont": 21135,
    "Ġvale": 14085,
    "Ġblocked": 19225,
    "Ġinferior": 8366,
    "remains": 10401,
    "Ġbound": 3522,
    "Ġrmsprop": 3356,
    "Ġdiscrimination": 23607,
    "Ġoccup": 3741,
    "Ġaccommod": 14215,
    "Ġprovoked": 13330,
    "Ġpast": 2098,
    "_:": 17481,
    "Ġmeasureless": 14713,
    "Ġdardanelles": 26445,
    "sav": 8097,
    "use": 2536,
    "Ġqueens": 16705,
    "nikin": 23216,
    "clothed": 19741,
    "Ġ22": 8279,
    "rane": 17655,
    "Ġrekindled": 21680,
    ";âĢĿâĢĶ": 20762,
    "Ġdebt": 12172,
    "Ġincivility": 18574,
    "favourable": 12268,
    "Ġnovelist": 24776,
    "Ġ118": 19701,
    "Ġpointed": 4772,
    "Ġsubstantiated": 25876,
    "Ġsaville": 15893,
    "Ġquill": 12862,
    "Ġwhiskers": 10495,
    "equally": 19901,
    "emptied": 23637,
    "Ġuncl": 22016,
    "Ġmystery": 5509,
    "purposes": 25024,
    "Ġparalle": 1409,
    "Ġboasting": 19939,
    "Ġallured": 14127,
    "Ġparlor": 13543,
    "oubted": 5861,
    "Ġaffectionate": 5585,
    "Ġhistorically": 19381,
    "Ġlimp": 19182,
    "Ġgently": 7172,
    "Ġmaggie": 26293,
    "Ġcathed": 14549,
    "Ġexposing": 11839,
    "Ġled": 3525,
    "Ġorders": 5341,
    "Ġjupiter": 17459,
    "fedallah": 25523,
    "atious": 10154,
    "contrary": 23731,
    "impul": 16558,
    "Ġrefusal": 10347,
    "Ġtelescopes": 25691,
    "Ġirreduc": 5491,
    "incible": 16500,
    "Ġmassachusetts": 24027,
    "in": 262,
    "âĢĻ-": 18175,
    "Ġquarters": 8623,
    "Ġbluff": 16520,
    "Ġcopse": 17069,
    "imly": 12692,
    "Ġabuse": 18393,
    "Ġsinusoidal": 4800,
    "ank": 1365,
    "Ġstatistical": 11107,
    "Ġtoday": 12648,
    "Ġcultured": 25158,
    "Ġagonising": 25374,
    "ullen": 8235,
    "acter": 2508,
    "infant": 19830,
    "contr": 12061,
    "choose": 23673,
    "Ġconcealment": 16916,
    "ty": 1002,
    "Ġfasten": 11134,
    "readiness": 19366,
    "Ġ36": 14770,
    "imet": 21709,
    "Ġstubborn": 10418,
    "Ġtashtego": 4486,
    "Ġscatter": 18399,
    "Ġpals": 13921,
    "Ġjoker": 22302,
    "written": 7995,
    "Ġezekiel": 26194,
    "pronounce": 25193,
    "Ġtendons": 19811,
    "shavings": 22457,
    "Ġoutput": 929,
    "Ġcaves": 15558,
    "stars": 18019,
    "Ġhousemaid": 14468,
    "pardon": 10068,
    "Ġtiar": 21170,
    "Ġwished": 3731,
    "Ġfasc": 12603,
    "mouthful": 25209,
    "Ġpleadings": 25854,
    "Ġembraces": 19874,
    "ustom": 3792,
    "school": 10058,
    "rie": 2788,
    "angles": 18296,
    "Ġlungs": 8362,
    "Ġfulfilled": 11364,
    "Ġpurchases": 24755,
    "Ġtreacherous": 13558,
    "Ġwhims": 12697,
    "Ġburns": 16525,
    "Ġspokes": 18314,
    "Ġsplendidly": 25328,
    "Ġdanes": 25160,
    "augmented": 26288,
    "Ġinvol": 1045,
    "impud": 23762,
    "Ġexcept": 3314,
    "Ġdrawn": 4276,
    "Ġmetropolitan": 17278,
    "Ġcleanse": 24527,
    "Ġnumerous": 6920,
    "Ġchristian": 6480,
    "lad": 5993,
    "jack": 7344,
    "anque": 13891,
    "Ġmish": 15541,
    "cheon": 23805,
    "Ġmemorable": 16448,
    "Ġislanders": 19505,
    "Ġhanded": 8217,
    "nowhere": 18419,
    "onial": 11569,
    "suffer": 24329,
    "Ġhertfordshire": 5377,
    "Ġgable": 15671,
    "Ġburnwell": 13273,
    "Ġintrude": 25991,
    "Ġend": 1474,
    "Ġdoublo": 6079,
    "gh": 3803,
    "id": 338,
    "comfortably": 16877,
    "Ġnobler": 14176,
    "volut": 1560,
    "stee": 21648,
    "Ġeverybody": 4510,
    "helm": 12176,
    "Ġbeast": 7180,
    "instr": 12536,
    "ination": 2914,
    "jah": 17583,
    "Ġbloody": 9893,
    "Ġinsular": 19271,
    "ember": 1957,
    "Ġcollections": 22860,
    "Ġcompanies": 14559,
    ",âĢĻ": 2323,
    "Ġstrolled": 16772,
    "Ġdoub": 1837,
    "Ġturns": 4981,
    "amouch": 21849,
    "Ġ73": 24263,
    "heav": 5694,
    "Ġinglorious": 24424,
    "Ġdorm": 4821,
    "Ġgirls": 4280,
    "Ġreward": 6146,
    "ropout": 1320,
    "Ġtom": 15637,
    "Ġfry": 17881,
    "ameter": 2957,
    "iger": 8448,
    "Ġloves": 10917,
    "Ġcomment": 9235,
    "understanding": 1125,
    "izure": 21845,
    "Ġpaul": 12066,
    "Ġdevils": 7230,
    "ography": 13367,
    "sooner": 14780,
    "evening": 7091,
    "ix": 1804,
    "Ġelevating": 19732,
    "Ġ1000": 3119,
    "Ġbeginning": 4242,
    "Ġ1": 1014,
    "studied": 17152,
    "makers": 20984,
    "Ġunconsciously": 10008,
    "curiosity": 8627,
    "Ġfeast": 10280,
    "declined": 25175,
    ":âĢĶ": 4432,
    "Ġproxim": 3199,
    "Ġexterm": 21833,
    "Ġdecoyed": 18485,
    "Ġlouisa": 13549,
    "Ġsimultaneous": 22592,
    "efficient": 2871,
    "Ġfixed": 2687,
    "Ġslavish": 23175,
    "pleasanter": 24052,
    "complete": 15037,
    "Ġpretty": 3863,
    "Ġsteal": 16287,
    "teous": 16175,
    "tart": 21070,
    "Ġpuzzled": 7317,
    "reproach": 15190,
    "Ġweek": 2828,
    "flitted": 23974,
    "Ġsalutation": 12401,
    "watches": 14950,
    "Ġsandwic": 24665,
    "Ġrenewal": 12239,
    "Ġsort": 1506,
    "Ġsignify": 16497,
    "Ġfreely": 7059,
    "Ġlifts": 25359,
    "stating": 21644,
    "Ġmetaphysical": 26070,
    "Ġslime": 23163,
    "Ġubiquitous": 26197,
    "Ġconstitutes": 13556,
    "Ġprocopius": 19734,
    "cake": 20806,
    "Ġseizure": 21968,
    "Ġrascally": 26509,
    "Ġchoke": 22253,
    "soo": 18686,
    "Ġexpansion": 22630,
    "Ġmerchantmen": 19862,
    "Ġcitizens": 25440,
    "Ġbenjamin": 26569,
    "Ġbought": 8417,
    "ĠâĢľ": 516,
    "Ġounce": 15276,
    "Ġprevent": 757,
    "Ġprotracted": 19472,
    "assure": 9272,
    "Ġnewsp": 9342,
    "Ġexacted": 23605,
    "pos": 15413,
    "pursu": 11394,
    "Ġinclude": 1876,
    "anyone": 16595,
    "mou": 10710,
    "Ġprotecting": 24687,
    "Ġstar": 6024,
    "tastes": 21099,
    "Ġpredefined": 20719,
    "Ġrecounted": 22741,
    "sander": 11529,
    "Ġmantel": 11441,
    "Ġdru": 8423,
    "icity": 2540,
    "Ġahoy": 12189,
    "thes": 7391,
    "Ġ1846": 26085,
    "arpo": 1758,
    "Ġinscrutable": 10675,
    "anted": 5027,
    "hammad": 23266,
    "Ġref": 908,
    "station": 10846,
    "Ġstowing": 18074,
    "hens": 3938,
    "cas": 20796,
    "Ġwalk": 1827,
    "Ġal": 342,
    "iforn": 14067,
    "Ġvexations": 24610,
    "Ġers": 15463,
    "Ġconviction": 6328,
    "ĭ": 238,
    "Ġconfirms": 23312,
    "nour": 20990,
    "breeze": 20565,
    "cim": 8723,
    "Ġforest": 9874,
    "Ġamiable": 4269,
    "Ġbouton": 17870,
    "Ġignorant": 5344,
    "Ġ7": 4744,
    "Ġste": 1388,
    "tasted": 17689,
    "Ġpervers": 11787,
    "Ġindiam": 22958,
    "Ġfollow": 1395,
    "Ġdinnertime": 16721,
    "Ġsagittarius": 24731,
    "oth": 1183,
    "hound": 20897,
    "iosity": 2387,
    "Ġdonkey": 23232,
    "Ġflowed": 10374,
    "Ġ103": 24411,
    "positive": 20570,
    "Ġseventh": 18207,
    "finally": 9502,
    "Ġcouples": 16854,
    "Ġrequested": 14302,
    "Ġwick": 2004,
    "Ġunpleasing": 22055,
    "Ġwhel": 15870,
    "par": 1855,
    "delirious": 19508,
    "Ġwholly": 4447,
    "Ġwhales": 1829,
    "corner": 13401,
    "shot": 2118,
    "jointed": 24015,
    "estation": 15923,
    "Ġrouted": 24908,
    "orts": 2555,
    "Ġarchitects": 18738,
    "Ġinfamous": 16371,
    "Ġblue": 3455,
    "anders": 18155,
    "Ġsuburban": 17349,
    "Ġease": 5629,
    "Ġfolio": 11922,
    "Ġbells": 19604,
    "Ġwitt": 17785,
    "Ġvision": 1656,
    "turned": 7306,
    "Ġinstructed": 19287,
    "Ġeyes": 1336,
    "european": 26373,
    "stock": 13227,
    "Ġanxious": 4517,
    "ophisticated": 22469,
    "Ġ40": 14771,
    "Ġcosine": 2366,
    "ider": 21769,
    "government": 25407,
    "Ġpreser": 6042,
    "Ġsimil": 2532,
    "Ġredeemed": 25790,
    "edded": 8558,
    "Ġdistributions": 1051,
    "Ġcontinuous": 1562,
    "eenth": 12465,
    "Ġgetting": 4066,
    "respectable": 19849,
    "Ġpalpitated": 26086,
    "iracle": 11245,
    "Ġevalu": 3109,
    "claim": 9838,
    "Ġfiver": 22784,
    "Ġgeorgiana": 8629,
    "Ġwillingly": 8888,
    "Ġmorsel": 20680,
    "Ġardently": 9501,
    "Ġemm": 18005,
    "Ġsheer": 14153,
    "Ġunreasonably": 17454,
    "Ġobsc": 7041,
    "devoted": 20020,
    "Ġappar": 7411,
    "easy": 9595,
    "Ġpout": 17906,
    "obst": 11936,
    "finds": 19929,
    "bag": 7543,
    "kindred": 24054,
    "Ġlamps": 14795,
    "Ġpossessed": 5195,
    "Ġillum": 9403,
    "Ġblast": 7445,
    "Ġdecember": 15009,
    "similar": 13457,
    "Ġbraved": 23840,
    "gained": 20883,
    "ellect": 7381,
    "Ġstopped": 5958,
    "steep": 19422,
    "dozen": 23381,
    "difference": 13711,
    "Ġdiff": 3117,
    "ures": 838,
    "Ġwhose": 2007,
    "Ġmoderately": 22218,
    "Ġflattened": 26048,
    "arabian": 26448,
    "Ġplainpal": 19280,
    "Ġlay": 584,
    "Ġmessage": 13526,
    "Ġfrequ": 3329,
    "Ġwindings": 18911,
    "formal": 14173,
    "Ġpiling": 17911,
    "Ġaspire": 21906,
    "Ġindulged": 13421,
    "tered": 2230,
    "Ġtennes": 23549,
    "Ġpots": 9431,
    "Ġspermaceti": 8970,
    "Ġdisplayed": 10611,
    "Ġgrotes": 19566,
    "length": 7136,
    "ppery": 10894,
    "Ġmouths": 7492,
    "Ġinaccessible": 13937,
    "Ġapothe": 12379,
    "Ġex": 360,
    "Ġarmada": 23582,
    "gen": 6504,
    "Ġperplexity": 2756,
    "Ġeveryone": 8921,
    "ush": 3634,
    "Ü": 157,
    "Ġbless": 4342,
    "Ġprize": 11952,
    "Ġlabelled": 23333,
    "weed": 14318,
    "Ġclub": 8877,
    "Ġembodiment": 20531,
    "Ġpauses": 14818,
    "Ġstudents": 23229,
    "prehensible": 12364,
    "tiness": 21074,
    "Ġafar": 14295,
    "Ġrowing": 10303,
    "Ġmusk": 7495,
    "Ġepsom": 19986,
    "rudent": 6483,
    "Ġunrival": 22047,
    "Ġworthless": 19568,
    "Ġbourgh": 5069,
    "Ġmizzen": 20292,
    "Ġdespair": 4010,
    "Ġseparation": 11248,
    "Ġquestionable": 19269,
    "Ġresearches": 13123,
    "Ġdishes": 16054,
    "Ġimpul": 7208,
    "Ġdrawback": 23995,
    "form": 498,
    "fatal": 17089,
    "Ġly": 2266,
    "Ġexpl": 488,
    "Ġsemi": 11973,
    "itative": 13873,
    "warp": 17708,
    "?âĢĻ": 2640,
    "Ġton": 15467,
    "Ġgraze": 18227,
    "seek": 8841,
    "Ġgrant": 11877,
    "exceeded": 25002,
    "remes": 21240,
    "Ġreplete": 15702,
    "Ġowes": 20088,
    "things": 6034,
    "arranged": 19321,
    "Ġoppressively": 25711,
    "Ġrocks": 6863,
    "clay": 18933,
    "Ġprince": 18973,
    "Ġtuck": 10143,
    "results": 20390,
    "Ġexaggerate": 25650,
    "Ġasia": 11687,
    "ken": 2802,
    "Ġcolours": 12979,
    "Ġsplit": 7993,
    "Ġcharacteristically": 23691,
    "Ġprejudices": 13473,
    "Ġtak": 15473,
    "Ġindebted": 8711,
    "Ġglancing": 5399,
    "Ġliberal": 12195,
    "pieces": 8758,
    "yesterday": 10356,
    "Ġtravel": 5954,
    "Ġdoted": 21436,
    "Ġprogno": 14044,
    "Ġtapering": 8775,
    "Ġcheer": 4067,
    "Ġrepay": 19083,
    "Ġsullenly": 17175,
    "waving": 21134,
    "Ġsail": 1676,
    "Ġsublime": 8066,
    "?_": 8070,
    "r": 86,
    "Ġcondemned": 7779,
    "Ġcourses": 10415,
    "vity": 7815,
    "monkey": 19172,
    "Ġmaybe": 12954,
    "Ġundesired": 12783,
    "card": 11477,
    "plendent": 21962,
    "Ġbridal": 14957,
    "caus": 11478,
    "crow": 9593,
    "Ġaint": 17746,
    "discharging": 26306,
    "began": 6427,
    "iz": 365,
    "Ġinanimate": 13936,
    "Ġadmiral": 17308,
    "Ġdodge": 19888,
    "waste": 21137,
    "Ġsmack": 9303,
    "Ġ1828": 25720,
    "Ġdecomposition": 5343,
    "Ġheat": 5453,
    "pall": 17630,
    "dham": 20832,
    "Ġconcerned": 5332,
    "ell": 396,
    "probably": 10023,
    "Ġharsh": 9524,
    "Ġabsolutely": 4857,
    "Ġdarted": 4757,
    "Ġdeliberate": 15025,
    "Ġsupercil": 23455,
    "Ġdimension": 3241,
    "Ġirresistible": 13117,
    "drawn": 9916,
    "sorrow": 12513,
    "Ġmended": 21316,
    "Ġclerical": 25569,
    "Ġbats": 13903,
    "Ġtrembled": 8705,
    "oky": 8198,
    "Ġphilosophy": 7105,
    "chosen": 21698,
    "Ġnarwhales": 24903,
    "Ġsimilar": 4918,
    "Ġjar": 15954,
    "Ġbuckets": 17035,
    "Ġeducated": 16787,
    "Ġchiswick": 25561,
    "roused": 16655,
    "Ġadmired": 7982,
    "successful": 11360,
    "Ġheadlands": 22902,
    "dition": 15342,
    "ied": 941,
    "Ġfascinated": 25636,
    "latter": 15386,
    "Ġarchbishop": 18715,
    "mur": 5428,
    "Ġthinking": 4031,
    "Ġben": 1111,
    "lop": 20950,
    "Ġpaths": 2569,
    "Ġboy": 3026,
    "ivorous": 22086,
    "Ġawait": 17074,
    "Ġdot": 4820,
    "expectation": 14859,
    "tar": 8098,
    "photograph": 16156,
    "Ġslid": 7952,
    "Ġinnumerable": 13356,
    "various": 10400,
    "dances": 17523,
    "Ġdesires": 9460,
    "Ġdefects": 12337,
    "ivance": 22082,
    "Ġringleader": 26214,
    "Ġpy": 21453,
    "Ġdrowning": 19906,
    "Ġconceived": 8150,
    "Ġcrisp": 12007,
    "Ġtallow": 14782,
    "flakes": 23973,
    "acknowled": 10977,
    "Ġconnex": 10668,
    "Ġrelinqu": 12987,
    "Ġillustrious": 17110,
    "Ġpall": 7584,
    "Ġshook": 4468,
    "supposing": 24137,
    "Ġrail": 7226,
    "Ġinquire": 7720,
    "Ġwhipping": 21719,
    "Ġunerringly": 18263,
    "Ġsurprised": 3832,
    "Ġpipe": 4321,
    "esteemed": 26010,
    "difficulty": 12394,
    "Ġkrem": 9729,
    "Ġcannon": 14156,
    "Ġdizzy": 21435,
    "pshaw": 21030,
    "transformers": 8718,
    "Ġslice": 23162,
    "Ġclosely": 6489,
    "rable": 11635,
    "torm": 11533,
    "hew": 5286,
    "Ġlunging": 24992,
    "encing": 21285,
    "kye": 20940,
    "Ġsod": 11564,
    "cho": 2763,
    "Ġinsulated": 23680,
    "Ġsaratoga": 26425,
    "Ġpersonal": 7480,
    "Ġhear": 1965,
    "Ġinconveniences": 24942,
    "Ġretrogression": 26583,
    "Ġjealousy": 13580,
    "Ġsituated": 9451,
    "Ġdispersed": 16599,
    "rible": 3227,
    "alth": 3257,
    "Ġinco": 14265,
    "Ġberry": 19749,
    "Ġlaw": 3658,
    "Ġbene": 2031,
    "ge": 560,
    "Ġgryphon": 4300,
    "enstein": 5800,
    "Ġpresume": 8038,
    "mysterious": 26053,
    "Ġdeaden": 23462,
    "ra": 314,
    "Ġstarry": 16925,
    "Ġapolog": 9046,
    "Ġneck": 4886,
    "discrimin": 19611,
    "Ġcauses": 2561,
    "hanging": 10103,
    "Ġenabling": 1077,
    "Ġmazes": 25941,
    "increasing": 20272,
    "Ġtraveller": 8049,
    "Ġcan": 469,
    "Ġpretension": 23766,
    "Ġconcernment": 23646,
    "Ġlazarus": 15031,
    "ums": 10275,
    "Ġcare": 1641,
    "Ġtelescope": 17351,
    "bre": 3979,
    "arcy": 1274,
    "knew": 9129,
    "Ġcoherent": 3265,
    "Ġprisoner": 8676,
    "Ġpetty": 19598,
    "Ġinconsist": 17938,
    "wrapped": 15213,
    "Ġrever": 6538,
    "strongly": 24685,
    "Ġgrow": 2861,
    "Ġimprove": 1774,
    "Ġappearing": 9844,
    "lads": 20957,
    "contrad": 19294,
    "Ġyanke": 18100,
    "Ġcontempl": 6703,
    "sne": 10127,
    "Ġconfide": 13103,
    "Ġenderby": 13655,
    "Ġcity": 4529,
    "Ġabundant": 17157,
    "traced": 19648,
    "figures": 20125,
    "Ġstarlight": 24627,
    "emper": 18188,
    "Ġguided": 10462,
    "rices": 4558,
    "Ć": 199,
    "due": 22414,
    "Ġsavage": 4011,
    "raise": 18014,
    "Ġasked": 2275,
    "arpening": 21446,
    "Ġcroquet": 9965,
    "oard": 4808,
    "Ġvirgin": 7328,
    "ox": 9136,
    "deceiving": 22147,
    "Ġpatter": 829,
    "itated": 4440,
    "Ġunwillingness": 20035,
    "Ġearnestly": 5980,
    "ignified": 14492,
    "expound": 23663,
    "Ġdiabolical": 20345,
    "Ġintruding": 21995,
    "Ġnicely": 8712,
    "london": 9612,
    "Ġinspiring": 19114,
    "tedious": 22636,
    "Ġcivilly": 19606,
    "mechanical": 25579,
    "Ġdistinguishing": 16499,
    "Ġcandid": 4100,
    "stalls": 26475,
    "Ġdid": 836,
    "breadth": 20279,
    "Ġeverything": 3155,
    "Ġstiffest": 24827,
    "osely": 9268,
    "rig": 7557,
    "Ġcarpent": 4465,
    "Ġmentioning": 9902,
    "atic": 4018,
    "Ġfields": 2143,
    "als": 2041,
    "Ġtresses": 21178,
    "Ġbandaged": 16844,
    "tell": 1377,
    "Ġensuring": 11193,
    "cruise": 24842,
    "ating": 664,
    "ļ": 253,
    "Ġbacking": 16121,
    "Ġwrecks": 16820,
    "Ġgaff": 17996,
    "Ġscant": 22289,
    "arks": 2846,
    "pract": 10122,
    "Ġinches": 5846,
    "Ġiv": 4044,
    "Ġlent": 21550,
    "sl": 5794,
    "ulpt": 10887,
    "rugged": 6849,
    "ensical": 18569,
    "olet": 13769,
    "loops": 12888,
    "Ġsemblance": 20736,
    "Ġsavoury": 23880,
    "Ġwal": 6518,
    "olly": 3225,
    "gently": 13732,
    "Ġprick": 14480,
    "Ġfury": 7662,
    "endous": 6850,
    "Ġdenny": 9004,
    "Ġemployment": 8632,
    "Ġmanagement": 8193,
    "itude": 1418,
    "Ġyore": 21782,
    "Ġcar": 1419,
    "dwell": 15345,
    "seam": 10876,
    "incident": 14593,
    "Ġboiling": 8528,
    "Ġdaniel": 15115,
    "dr": 6223,
    "Ġmaledictions": 26430,
    "presume": 25670,
    "Ġillustrations": 17109,
    "Ġpunct": 8664,
    "Ġdented": 17893,
    "drink": 10598,
    "atus": 21263,
    "expl": 9286,
    "Ġspecimens": 18853,
    "tw": 2812,
    "bu": 5132,
    "Ġsoil": 9258,
    "Ġshocked": 9404,
    "true": 2585,
    "Ġcomely": 21859,
    "sometimes": 5973,
    "Ġcath": 17828,
    "towards": 5003,
    "Ġjenkinson": 11433,
    "Ġintensely": 17019,
    "Ġsoup": 7069,
    "prise": 7727,
    "Ġinquirers": 24965,
    "Ġmat": 1148,
    "Ġindirectly": 8942,
    "Ġlo": 453,
    "Ġpurring": 23477,
    "Ġerred": 21159,
    "book": 4668,
    "ingly": 2136,
    "Ġsinking": 7307,
    "Ġplays": 12041,
    "cloud": 11108,
    "enjoyments": 25434,
    "Ġpr": 1601,
    "Ġcask": 5527,
    "Ġasylum": 13670,
    "Ġwoof": 14724,
    "illum": 15873,
    "Ġfeared": 5932,
    "Ġcommenting": 25229,
    "Ġexhibition": 14960,
    "Ġplaid": 22603,
    "ulty": 22572,
    "Ġaccomplishments": 13383,
    "gems": 20886,
    "Ġpsychology": 11450,
    "Ġsubstances": 24168,
    "reward": 15512,
    "ication": 975,
    "Ġspain": 15884,
    "anks": 3918,
    "Ġhast": 3151,
    "Ġcrawford": 24894,
    "Ġbehind": 2808,
    "adequate": 15207,
    "Ġshrivelled": 19706,
    "strang": 11185,
    "opy": 4458,
    "Ġwarp": 8113,
    "Ġ119": 24441,
    "Ġprophesy": 26062,
    "ind": 567,
    "antarctic": 22103,
    "Ġpositional": 2597,
    "Ġdri": 2357,
    "Ġstory": 2902,
    "Ġach": 2619,
    "Ġdears": 18139,
    "Ġturned": 2134,
    "Ġdiscount": 22785,
    "ascending": 24706,
    "christian": 17235,
    "Ġamazement": 7765,
    "Ġoccupied": 5273,
    "Ġpleas": 1907,
    "ustomed": 6100,
    "Ġmim": 3107,
    "Ġprophetic": 20023,
    "Ġpersonified": 19180,
    "Ġshipmates": 6722,
    "Ġcurbstone": 26047,
    "Ġbreakfast": 3976,
    "Ġsympathised": 14865,
    "Ġunforeseen": 22053,
    "Ġviolation": 23408,
    "Ġprofess": 3701,
    "ullo": 12734,
    "Ġabominable": 12326,
    "Ġremark": 2145,
    "reinforcement": 7826,
    "Ġforebodings": 17307,
    "Ġworkmen": 23043,
    "Ġfortunes": 12183,
    "Ġost": 9652,
    "Ġsoftware": 18920,
    "Ġstanders": 19017,
    "looked": 6084,
    "umblings": 23897,
    "Ġannealing": 1553,
    "Ġenveloped": 12213,
    "iverse": 13120,
    "Ġpent": 17903,
    "avoiding": 25237,
    "Ġdens": 21427,
    "fthand": 26388,
    "dece": 11737,
    "ductive": 23939,
    "gging": 7698,
    "silly": 24422,
    "Ġtou": 15469,
    "Ġunmo": 12777,
    "oct": 7555,
    "attached": 11939,
    "Ġimpose": 22387,
    "stout": 21642,
    "Ġsymmetrical": 20370,
    "Ġcompat": 2939,
    "honor": 19902,
    "Ġcuriosities": 26291,
    "Ġclinch": 18425,
    "Ġplank": 7035,
    "oin": 17619,
    "dles": 11483,
    "leaned": 21372,
    "Ġ156": 20173,
    "usage": 12837,
    "proportion": 16186,
    "met": 6655,
    "venty": 6428,
    "Ġconsider": 2568,
    "Ġrevive": 13483,
    "electricity": 26387,
    "conditionally": 24835,
    "Ġdat": 500,
    "overfitting": 13106,
    "idity": 8835,
    "Ġardu": 22187,
    "Ġconvince": 14644,
    "mother": 5480,
    "otics": 10226,
    "put": 414,
    "tur": 5688,
    "Ġabsolute": 6766,
    "Ġweighted": 2090,
    "Ġmeridians": 17358,
    "Ġselect": 3998,
    "Ġmanager": 11773,
    "Ġunwarrant": 19936,
    "Ġdegradation": 2631,
    "Ġproblem": 1271,
    "Ġsupremacy": 20263,
    "Ġsheet": 6264,
    "Ġwilling": 7421,
    "Ġfals": 15585,
    "ape": 1906,
    "match": 15394,
    "Ġhoe": 23354,
    "Ġconfirmation": 17213,
    "Ġstanding": 3001,
    "Ġrefers": 1565,
    "Ġretain": 7863,
    "Ġdeparted": 5564,
    "Ġflesh": 5970,
    "Ġminds": 6305,
    "Ġmaximizing": 3169,
    "Ġenters": 11027,
    "Ġblemish": 19682,
    "Ġundoubtedly": 8313,
    "rove": 21536,
    "Ġthews": 21280,
    "pun": 9620,
    "Ġbremen": 23348,
    "Ġvenom": 24241,
    "Ġaverages": 2396,
    "arab": 21444,
    "Ġaper": 17745,
    "Ġassid": 18947,
    "Ġboon": 22641,
    "Ġtruthful": 23869,
    "yset": 21148,
    "âĢĻâĢĶ": 12742,
    "Ġunreason": 15846,
    "Ġstarboard": 7606,
    "feeling": 6619,
    "Ġsheets": 9725,
    "gate": 12471,
    "ignorance": 17164,
    "joy": 3337,
    "Ġnorris": 23204,
    "stream": 15690,
    "given": 8377,
    "pure": 17628,
    "oned": 4629,
    "illar": 5101,
    "Ġenvied": 19248,
    "Ġcensus": 15100,
    "scissors": 20729,
    "Ġthoroughly": 8348,
    "ribs": 23368,
    "Ġeste": 6085,
    "yielded": 25757,
    "Ġnowadays": 18547,
    "brit": 19200,
    "Ġstay": 3096,
    "Ġfra": 1744,
    "dripping": 16907,
    "gration": 9124,
    "Ġvintage": 26211,
    "Ġimpersonal": 17400,
    "Ġwilful": 10537,
    "Ġcomforts": 14696,
    "Ġmuff": 8114,
    "Ġchip": 12829,
    "Ġassail": 13068,
    "wh": 508,
    "Ġinduced": 8674,
    "._": 3220,
    "Ġtra": 1383,
    "Ġrese": 2070,
    "Ġnimble": 21531,
    "Ġcust": 11585,
    "Ġfinite": 2320,
    "Ġisinglass": 21806,
    "breeding": 16677,
    "oried": 10804,
    "Ġawa": 7714,
    "Ġassign": 11112,
    "orm": 425,
    "Ġfulfil": 9554,
    "englishman": 23677,
    "Ġimpreg": 15991,
    "Ġmoderate": 10940,
    "Ġbrick": 8929,
    "Ġfought": 12598,
    "Ġfert": 15586,
    "Ġsqueezed": 20039,
    "))": 1515,
    "Ġimpropriety": 17399,
    "inates": 21183,
    "Ġtide": 6661,
    "gage": 13727,
    "Ġradney": 6776,
    "Ġcocoan": 20319,
    "ribed": 7694,
    "cely": 3578,
    "Ġvisitor": 5331,
    "Ġcontrolled": 23253,
    "Ġmixed": 6975,
    "Ġdistingu": 2515,
    "Ġcrusad": 23706,
    "Ġsister": 1475,
    "Ġbetake": 22911,
    "solution": 14688,
    "sub": 4658,
    "Ġbliss": 13006,
    "Ġoutweigh": 22326,
    "apering": 8041,
    "Ġcapst": 8599,
    "sockets": 22730,
    "Ġactions": 6280,
    "Ġthickness": 13282,
    "Ġmarty": 20293,
    "Ġhissed": 15793,
    "Ġnamed": 6141,
    "Ġvector": 1971,
    "educ": 10830,
    "absurd": 21799,
    "Ġmourning": 13482,
    "Ġfellows": 8257,
    "Ġdecorated": 22444,
    "Ġceiling": 7997,
    "Ġhaughty": 11451,
    "Ġfl": 1279,
    "Ġstrictly": 12289,
    "attain": 21264,
    "Ġprofessions": 11233,
    "Ġfrighten": 13283,
    "ops": 5247,
    "Ġbuttoned": 25369,
    "Ġdestructive": 23488,
    "Ġsympt": 7014,
    "idious": 11665,
    "Ġrestless": 10417,
    "swallow": 24260,
    "certain": 3679,
    "Ġfacet": 15589,
    "Ġpupp": 10822,
    "reclining": 20577,
    "Ġthousand": 2783,
    "Ġboasted": 16110,
    "Ġholland": 10368,
    "Ġque": 4158,
    "henomen": 10497,
    "Ġforgiveness": 16659,
    "istered": 14147,
    "othed": 16513,
    "Ġtype": 2018,
    "head": 1435,
    "Ġreveries": 11349,
    "Ġtemporarily": 11169,
    "ighb": 10425,
    "Ġgroom": 13969,
    "Ġcigars": 12257,
    "ena": 11571,
    "Ġpreach": 14175,
    "Ġsaving": 15891,
    "Ġgushed": 21610,
    "darcy": 5208,
    "Ġheading": 8938,
    "Ġcir": 21344,
    "admiration": 11389,
    "Ġ/*": 10142,
    "Ġnantucketer": 6914,
    "Ġsutherland": 10151,
    "Ġhuzza": 12638,
    "Ġpoliceman": 15262,
    "_,": 2800,
    "Ġpand": 21457,
    "Ġdromedary": 17442,
    "bted": 7794,
    "lin": 9606,
    "Ġhatherley": 7849,
    "Ġgreenwich": 19323,
    "Ġbir": 17855,
    "Ġdetached": 10283,
    "Ġexpired": 18625,
    "Ġgrown": 5628,
    "fac": 17543,
    "Ġ10": 5249,
    "appre": 14373,
    "Ġpartially": 13128,
    "Ġwouldst": 18500,
    "instances": 13324,
    "Ġhumorously": 18780,
    "Ġapartments": 19617,
    "Ġhideousness": 16917,
    "Ġpaint": 7708,
    "Ġhatches": 12049,
    "application": 12367,
    "Ġgrenadier": 21619,
    "Ġrejo": 5917,
    "Ġquarter": 3977,
    "Ġcrags": 23529,
    "ske": 13785,
    "Ġmalignant": 14881,
    "Ġdishon": 12235,
    "Ġhabitation": 14806,
    "stad": 7599,
    "Ġoffic": 3187,
    "ffy": 18318,
    "Ġbeach": 6543,
    "Ġmanage": 7642,
    "Ġinst": 913,
    "empt": 2617,
    "unks": 15779,
    "conc": 3948,
    "hee": 10762,
    "Ġpestilent": 25778,
    "Ġmarch": 4083,
    "increased": 20273,
    "violently": 23543,
    "Ġconfluent": 19042,
    "âĢĻ,": 14075,
    "when": 1592,
    "Ġdeclared": 5595,
    "Ġtent": 15470,
    "amp": 2605,
    "Ġheap": 12683,
    "Ġbeaks": 21759,
    "umbent": 12094,
    "Ġtears": 4230,
    "Ġpunctil": 20117,
    "Ġgun": 4700,
    "Ġdelicacy": 6342,
    "unciation": 25983,
    "Ġdisconsol": 18558,
    "ecess": 17534,
    "Ġstationary": 19697,
    "opes": 10312,
    "ingolstadt": 21306,
    "iffs": 9025,
    "etite": 21582,
    "shelf": 20384,
    "frightened": 17198,
    "Ġturks": 14600,
    "iarity": 8747,
    "Ġpretensions": 16560,
    "conven": 6164,
    "Ġwhalemen": 3914,
    "Ġgroans": 14827,
    "mighty": 9469,
    "Ġignited": 25072,
    "ladyship": 14832,
    "unconquerable": 21895,
    "bunger": 20405,
    "Ġpractised": 23323,
    "Ġscandal": 9084,
    "Ġmomentary": 11037,
    "father": 3779,
    "Ġsavannah": 17419,
    "Ġparad": 2844,
    "win": 6802,
    "Ġblankets": 24612,
    "apprehens": 17409,
    "Ġ88": 19714,
    "grieved": 17320,
    "Ġsegment": 12762,
    "Ġfrank": 4420,
    "Ġsick": 4691,
    "lar": 4483,
    "Ġbosoms": 16797,
    "roded": 17958,
    "Ġgardens": 16453,
    "Ġfelt": 1748,
    "ne": 646,
    "Ġcorroborated": 26055,
    "Ġwhatsoever": 18461,
    "Ġappl": 1731,
    "Ġrevolver": 14903,
    "``": 15310,
    "Ġaccidentally": 9508,
    "Ġapproxim": 1219,
    "Ġga": 4446,
    "Ġrav": 14311,
    "Ġcoronet": 6346,
    "Ġmodeling": 2095,
    "subtle": 24246,
    "Ġbank": 4878,
    "won": 8395,
    "oured": 2673,
    "Ġcompacted": 23510,
    "ods": 8840,
    "reason": 4414,
    "Ġlit": 6248,
    "Ġroots": 11187,
    "them": 3023,
    "Ġdollar": 25284,
    "chief": 4643,
    "Ġarrog": 18340,
    "Ġmoulton": 17438,
    "Ġang": 2512,
    "Ġsuspic": 4470,
    "vis": 4576,
    "Ġ184": 16609,
    "Ġsquid": 11882,
    "earthquakes": 24724,
    "Ġstave": 11654,
    "paws": 21031,
    "Ġreposing": 23364,
    "icking": 8914,
    "urer": 18124,
    "dug": 18463,
    "Ġcaprice": 14578,
    "Ġbel": 1216,
    "Ġbrandy": 11051,
    "Ġ110": 24435,
    "Ġdistinguish": 2728,
    "Ġplayfully": 19241,
    "allows": 15911,
    "south": 8762,
    ".--": 20748,
    "ondency": 15273,
    "evid": 11487,
    "Ġoun": 13866,
    "nobody": 16143,
    "Ġlog": 1679,
    "Ġleak": 2160,
    "Ġsquaring": 22841,
    "ĠĠĠĠĠĠĠĠĠĠ": 18579,
    "Ġtrowsers": 9630,
    "Ġpresented": 5183,
    "narrowly": 20350,
    "motion": 17608,
    "murderers": 25728,
    "Ġstren": 15724,
    "gravel": 22622,
    "Ġhatty": 19268,
    "cellar": 20280,
    "Ġflourish": 17163,
    "Ġ65": 24368,
    "shore": 10307,
    "ohn": 4560,
    "vi": 2368,
    "Ġtrial": 6637,
    "Ġbitterness": 8024,
    "Ġcrust": 21354,
    "Ġsparsity": 4206,
    "disappo": 8987,
    "bes": 6644,
    "around": 12613,
    "posture": 16929,
    "Ġhessian": 3551,
    "enari": 21284,
    "Ġfa": 4819,
    "bitt": 17488,
    "leagues": 21376,
    "Ġdusk": 12331,
    "Ġfearfulness": 23514,
    "Ġdrive": 5055,
    "Ġloads": 22118,
    "Ġdau": 21428,
    "Ġser": 1675,
    "eties": 10839,
    "Ġformless": 22831,
    "Ġesc": 2251,
    "Ġrecall": 3857,
    "degrad": 22146,
    "Ġmagnified": 23206,
    "Ġwh": 328,
    "Ġjagged": 18408,
    "unfort": 21880,
    "Ġbreak": 2869,
    "cons": 4309,
    "Ġclients": 19735,
    "Ġcuff": 17831,
    "awakened": 14457,
    "Ġaerial": 21201,
    "sweetly": 25137,
    "Ġoriginate": 24124,
    "sinking": 17670,
    "Ġindelible": 25695,
    "manned": 18765,
    "Ġdisappeared": 5645,
    "Ġremot": 8546,
    "Ġor": 437,
    "Ġbuttoning": 17238,
    "enses": 10997,
    "Ġperturbed": 20443,
    "remental": 21250,
    "cott": 8074,
    "ientific": 6549,
    "bare": 12445,
    "Ġunsupplied": 22043,
    "Ġgesture": 11401,
    "royal": 11395,
    "indulged": 22379,
    "power": 7138,
    "_.": 2212,
    "Ġfinancial": 23132,
    "Ġvapors": 19910,
    "Ġstaving": 21741,
    "arising": 17897,
    "Ġadvantages": 9814,
    "Ġshilling": 18229,
    "Ġed": 2240,
    "Ġejaculation": 20257,
    "Ġfurn": 3712,
    "Ġneedn": 19231,
    "Ġscruples": 15082,
    "Ġsmote": 18576,
    "nings": 9134,
    "ess": 413,
    "pot": 10120,
    "Ġcivil": 4677,
    "Ġse": 402,
    "Ġmenacing": 23110,
    "Ġporus": 24398,
    "nam": 2661,
    "Ġcoals": 16082,
    "Ġorgans": 15869,
    "xible": 13811,
    "Ġconfidently": 24958,
    "lour": 15384,
    "ipagos": 22361,
    "Ġdisconcerted": 18563,
    "terr": 8154,
    "rr": 17652,
    "Ġrevenue": 26196,
    "Ġpatchwork": 24144,
    "Ġcondescension": 10621,
    "plete": 10921,
    "Ġgladness": 16593,
    "Ġphysical": 7523,
    "fee": 12885,
    "Ġfitzwilliam": 5771,
    "Åĵuv": 15186,
    "Ġheroine": 24543,
    "quarried": 24948,
    "Ġjamming": 17267,
    "sadly": 25527,
    "Ġcopies": 24938,
    "Ġinseparable": 20691,
    "Ġtreading": 16507,
    "Ġseparated": 9467,
    "ber": 906,
    "scarcely": 12390,
    "gradient": 2271,
    "Ġtwig": 11854,
    "sto": 3198,
    "Ġeth": 17718,
    "Ġlingered": 13508,
    "Ġ(": 594,
    "Ġexception": 11218,
    "Ġconcre": 16390,
    "Ġvocabulary": 4995,
    "Ġblan": 18818,
    "draul": 9446,
    "eyes": 5684,
    "rap": 21631,
    "Ġserenity": 10031,
    "Ġfamine": 16332,
    "Ġpedro": 15066,
    "collect": 16565,
    "Ġpos": 1010,
    "Ġassumed": 9468,
    "Ġmapple": 11152,
    "clump": 23157,
    "Ġdestruction": 6602,
    "chains": 9688,
    "Ġpleasing": 6192,
    "Ġconstable": 19068,
    "Ġgratified": 8021,
    "Ġliterary": 25166,
    "Ġengravings": 15069,
    "Ġgarden": 3827,
    "fortun": 3542,
    "sam": 21054,
    "cup": 10694,
    "Ġhagger": 21494,
    "vari": 1516,
    "Ġbubb": 12589,
    "nav": 17613,
    "Ġpleaded": 16302,
    "guinea": 16675,
    "Ġvacantly": 16817,
    "Ġtreats": 19347,
    "Ġreven": 18031,
    "Ġcarter": 18902,
    "Ġpronounced": 8351,
    "lesome": 12970,
    "circumstantial": 24444,
    "Ġcapacity": 10442,
    "Ġthreading": 23405,
    "imately": 12693,
    "Ġrespectful": 16349,
    "joined": 13280,
    "Ġdamn": 11160,
    "Ġforming": 7044,
    "icial": 12660,
    "elson": 16377,
    "sin": 21051,
    "dep": 6787,
    "²": 115,
    "Ġdata": 522,
    "Ġapparently": 6779,
    "minutely": 19596,
    "Ġclattering": 22355,
    "hereabouts": 23608,
    "Ġduplicates": 17219,
    "jumping": 20248,
    "Ġaudits": 24769,
    "Ġcongreg": 8464,
    "Ġencoding": 4773,
    "Ġprofundity": 20455,
    "Ġquitting": 7647,
    "Ġcring": 15556,
    "Ġcommonest": 23092,
    "ccarthy": 4889,
    "tranquil": 25871,
    "Ġbrighter": 16190,
    "oles": 21007,
    "Ġriveted": 13622,
    "Ġgrievous": 13266,
    "dÃ¦mon": 17529,
    "Ġsurrender": 16450,
    "shott": 11798,
    "Ġcannibals": 10590,
    "jephro": 26394,
    "Ġsubsisted": 19119,
    "Ġblot": 9815,
    "Ġcrest": 12947,
    "Ġwings": 9166,
    "Ġ60": 14878,
    "Ġejac": 10206,
    "Ġcliffs": 15971,
    "Ġof": 298,
    "Ġpresenting": 18989,
    "principle": 10653,
    "Ġstove": 6735,
    "âĢĶ": 517,
    "Ġburly": 19253,
    "wonders": 17146,
    "terrors": 25044,
    "Ġbegins": 7244,
    "Ġenormity": 19698,
    "meditated": 19072,
    "Ġrespect": 1672,
    "Ġblasphemy": 26116,
    "daughters": 13470,
    "Z": 62,
    "e": 73,
    "Ġwindward": 6885,
    "Ġcorrectly": 9407,
    "amongst": 24673,
    "Ġsoaked": 15866,
    "Ġpirates": 9076,
    "Ġcautiously": 16979,
    "Ġphys": 5653,
    "iss": 2177,
    "Ġworn": 6446,
    "Ġmary": 3845,
    "Ġpro": 361,
    "Ġclustered": 25234,
    "Ġtackle": 9516,
    "ct": 309,
    "Ġinquest": 16549,
    "conf": 4957,
    "Ġmercenary": 17196,
    "Ġuneasy": 8665,
    "Ġpeels": 22694,
    "transom": 19738,
    "del": 4077,
    "christ": 10213,
    "Ġchal": 18378,
    "Ġreverie": 13461,
    "Ġfloundering": 16255,
    "answers": 22154,
    "wooden": 24588,
    "free": 8739,
    "magnetic": 20555,
    "Ġclearly": 6897,
    "cro": 13700,
    "Ġwhe": 439,
    "returns": 23142,
    "Ġupon": 718,
    "etency": 21585,
    "Ġmajest": 24065,
    "ousness": 10277,
    "Ġrigging": 5601,
    "ved": 869,
    "Ġcubic": 20091,
    "touched": 15442,
    "Ġlow": 1650,
    "owal": 13996,
    "factories": 19846,
    "inions": 8403,
    "kicked": 20945,
    "befriend": 22496,
    "Ġscholar": 26112,
    "Ġbutler": 18271,
    "Ġtantalizing": 20417,
    "Ġrifts": 21982,
    "Ġindication": 22957,
    "izon": 18144,
    "ortment": 22261,
    "page": 13775,
    "Ġsaves": 18325,
    "Ġfeeling": 3086,
    "Ļ": 252,
    "Ġproceeding": 9909,
    "Ġcontradicted": 20214,
    "Ġerr": 1321,
    "visit": 7755,
    "Ġrecurrent": 1807,
    "presently": 9810,
    "Ġdepths": 4326,
    "ring": 1755,
    "Ġvacancy": 9047,
    "Ġexerted": 15758,
    "Ġagitates": 22521,
    "Ġrehearsed": 25972,
    "Ġnatures": 16508,
    "Ġrepute": 18037,
    "Ġshamefully": 24715,
    "Ġhug": 6980,
    "intellig": 5321,
    "Ġflash": 8230,
    "yden": 21146,
    "Ġtreatment": 12076,
    "Ġbaron": 19336,
    "Ġspan": 11732,
    "Ġjoyously": 19350,
    "Ġexpressive": 8985,
    "cient": 4568,
    "Ġhap": 18196,
    "ov": 15403,
    "elly": 17982,
    "week": 12936,
    "an": 278,
    "Ġbenediction": 18786,
    "Ġdescended": 7428,
    "thence": 23403,
    "Ġclusters": 25233,
    "oning": 7573,
    "Ġpunctures": 25136,
    "Ġdetermining": 14424,
    "Ġslam": 13063,
    "Ġoptimize": 1568,
    "awed": 10393,
    "diver": 20833,
    "pening": 2833,
    "Ġafresh": 18628,
    "bler": 11474,
    "Ġstoven": 23177,
    "Ġobserv": 8589,
    "heavily": 24534,
    "Ġderision": 16313,
    "Ġ1836": 25721,
    "Ġoce": 3034,
    "Ġintelligences": 12835,
    "press": 1732,
    "beating": 22493,
    "adoes": 11663,
    "Ġlisten": 4672,
    "Ġrepresented": 8941,
    "Ġcarve": 23095,
    "reputable": 15520,
    "Ġvagueness": 25738,
    "Ġun": 421,
    "Ġstop": 2503,
    "lilies": 20963,
    "Ġpale": 4531,
    "Ġproprietor": 12377,
    "distinctive": 25726,
    "Ġnumbers": 2888,
    "Ġwhatever": 3475,
    "Ġseethings": 26505,
    "Ġxxxi": 24969,
    "Ġskirts": 14356,
    "Ġthou": 1812,
    "ppo": 18178,
    "Ġtravelling": 11309,
    "cond": 1666,
    "Ġsle": 2012,
    "âĢĶâĢľ": 2972,
    "Ġassistant": 7298,
    "hent": 12539,
    "Ġclerval": 4652,
    "Ġhoped": 5488,
    "Ġnear": 1719,
    "Ġboxes": 13378,
    "Ġduty": 4072,
    "Ġunimag": 12779,
    "scheme": 15258,
    "ainty": 21791,
    "Ġmantelpiece": 15211,
    "terday": 4703,
    "Ġconfession": 11237,
    "Ġpalpable": 15209,
    "Ġpictures": 5503,
    "Ġwrig": 13073,
    "themselves": 6542,
    "Ġmod": 493,
    "ouble": 2663,
    "Ġcorrespondence": 10597,
    "Ġbestirred": 20454,
    "shooting": 16967,
    "Ġslavery": 16311,
    "Ġbrowne": 13306,
    "nelson": 25621,
    "Ġbackpropagation": 1265,
    "aret": 7417,
    "run": 10723,
    "recovered": 19790,
    "suddenly": 6494,
    "Ġcountrymen": 23597,
    "ouse": 1190,
    "Ġthrills": 24542,
    "Ġcourage": 4632,
    "Ġgait": 13335,
    "earnestly": 17316,
    "Ġkneel": 14810,
    "eldest": 22805,
    "Ġairs": 14514,
    "fs": 17537,
    "Ġhospitals": 24924,
    "hatherley": 17570,
    "Ġanomaly": 25637,
    "Ġdisdained": 15012,
    "Ġweary": 5635,
    "Ġensuing": 12313,
    "Ġturner": 7051,
    "Ġfevers": 22211,
    "attacked": 23125,
    "Ġpreservative": 24630,
    "till": 6966,
    "utely": 8132,
    "chester": 23808,
    "ipotent": 10961,
    "insurance": 18890,
    "expect": 4768,
    "Ġmot": 2988,
    "Ġblinding": 14731,
    "Ġinstigated": 18703,
    "teenth": 11878,
    "Ġsticking": 13431,
    "Ġmedic": 11257,
    "Ġcoin": 9774,
    "Ġblaze": 16223,
    "everything": 6326,
    "rrh": 26145,
    "privilege": 25264,
    "troubled": 17113,
    "quently": 9705,
    "says": 13304,
    "Ġarter": 22186,
    "hammock": 16357,
    "Ġsuppose": 2867,
    "Ġere": 3688,
    "stein": 5505,
    "Ġheadache": 22903,
    "winding": 16722,
    "childhood": 16870,
    "Ġlomb": 21562,
    "interred": 23739,
    "interview": 19301,
    "Ġdisp": 3360,
    "victim": 25531,
    "Ġpatient": 6892,
    "Ġdataset": 12826,
    "Ġdispel": 16598,
    "anded": 5924,
    "Ġinclosed": 19541,
    "Ġdrawled": 23994,
    "Ġ61": 24364,
    "ering": 1266,
    "Ġremnants": 22797,
    "Ġdisgusting": 19896,
    "Ġdevout": 14329,
    "Ġboneless": 19608,
    "guilty": 19486,
    "Ġdry": 5624,
    "frantic": 24285,
    "nals": 16402,
    "ios": 2304,
    "Ġwarring": 16867,
    "Ġvon": 14084,
    "Ġguarded": 9829,
    "perceive": 12817,
    "Ġseal": 10259,
    "Ġsanely": 24983,
    "Ġact": 691,
    "Ġconcentrate": 25066,
    "Ġlandscape": 12421,
    "Ġdemanded": 8327,
    "Ġgaily": 16750,
    "Ġrefreshment": 17242,
    "Ġminiature": 11041,
    "mb": 881,
    "Ġscho": 4436,
    "Ġturnpike": 23031,
    "give": 4687,
    "Ġquestioning": 10465,
    "guard": 12133,
    "tent": 21067,
    "smote": 23913,
    "Ġinvests": 14871,
    "Ġaf": 783,
    "garden": 15028,
    "Ġabruptness": 25300,
    "Ġpacked": 9983,
    "cable": 20799,
    "hence": 16627,
    "Ġmuffled": 10643,
    "intern": 23738,
    "izens": 18146,
    "begging": 22501,
    "Ġpiratical": 24798,
    "Ġdines": 21426,
    "Ġlaboratory": 13616,
    "iration": 4539,
    "Ġcounterpane": 11345,
    "Ġobscured": 15013,
    "Ġevenness": 22837,
    "Ġsaintsbury": 26374,
    "Ġhanged": 17927,
    "Ġridicule": 13515,
    "Ġdated": 10941,
    "Ġunassuming": 20512,
    "Ġsnail": 19302,
    "Ġruinous": 24634,
    "Ġincrust": 22555,
    "Ġcrosses": 23064,
    "Ġavenues": 25430,
    "Ġalche": 21787,
    "soever": 11863,
    "Ġcoiled": 11824,
    "Ġsimilarity": 3167,
    "Ġmut": 3586,
    "Ġappal": 18358,
    "Ġpeasants": 12336,
    "Ġem": 1925,
    "Ġwords": 1325,
    "Ġcloudless": 16671,
    "dissemble": 23494,
    "Ġclerks": 17298,
    "oat": 13767,
    "decl": 8860,
    "Ġby": 383,
    "Ġrescued": 24209,
    "iate": 6506,
    "Ġphrenologist": 25608,
    "withstand": 23029,
    "Ġremorse": 6442,
    "Ġharpo": 1943,
    "Ġowns": 22827,
    "Ġverify": 12092,
    "Ġdrawing": 3919,
    "Ġmarvel": 23038,
    "Ġabusing": 18394,
    "Ġbore": 5079,
    "Ġirregularly": 25324,
    "below": 12126,
    "Ġeternally": 11371,
    "Ġkith": 22196,
    "Ġheaps": 11645,
    "Ġgpt": 4350,
    "Ġarabian": 9093,
    "Ġguinea": 8950,
    "Ġrepulses": 26071,
    "Ġfamed": 16331,
    "Ġaccompanied": 6781,
    "Ġheadlong": 11892,
    "Ġcollected": 2610,
    "Ġinfamy": 14505,
    "Ġscene": 3099,
    "Ġobserve": 4669,
    "Ġargu": 10936,
    "Ġwhiff": 21721,
    "Ġquarrelling": 13502,
    "Ġstreaming": 19676,
    "concerned": 24639,
    "interval": 7991,
    "Ġdissolved": 18555,
    "Ġinclement": 22558,
    "Ġswell": 8952,
    "Ġpuppy": 12409,
    "Ġaccursed": 9450,
    "Ġsymb": 2590,
    "Ġdesisted": 22978,
    "umbling": 6613,
    "Ġemir": 23353,
    "isp": 5528,
    "sudden": 5316,
    "Ġelement": 6898,
    "firm": 10700,
    "Ġbundle": 13430,
    "conscientious": 19629,
    "wered": 2692,
    "onomy": 12552,
    "disgraceful": 26077,
    "books": 8667,
    "confined": 24328,
    "elag": 12663,
    "ulation": 5458,
    "hend": 13258,
    "mag": 6509,
    "Ġstarbuck": 2195,
    "Ġoverlapping": 26240,
    "Ġfloated": 7288,
    "Ġdivers": 9668,
    "Ġtime": 690,
    "Ġintelligible": 15945,
    "protected": 19923,
    "bos": 17486,
    "Ġtranslates": 12055,
    "Ġvegetables": 15225,
    "Ġjacobians": 2893,
    "shriek": 20523,
    "Ġclimbing": 20073,
    "Ġbarbarous": 13480,
    "Ġcharing": 14181,
    "igns": 8449,
    "block": 11472,
    "Ġcorrespond": 6211,
    "antages": 7192,
    "Ġwarrior": 24496,
    "Ġdispositions": 13238,
    "Ġtone": 4039,
    "Ġdecomp": 3813,
    "Ġconceivable": 16615,
    "Ġsimplest": 16338,
    "Ġstained": 11655,
    "Ġstream": 5186,
    "Ġiii": 7861,
    "Ġwouldn": 6048,
    "sell": 13784,
    "Ġjoy": 3184,
    "lant": 20949,
    "cheeks": 23809,
    "Ġcomplexity": 1696,
    "ustry": 18357,
    "Ġglance": 4232,
    "gled": 10701,
    "Ġexcess": 3344,
    "Ġunconnected": 18240,
    "vius": 23542,
    "contact": 23730,
    "Ġrealised": 18982,
    "Ġgravesend": 15220,
    "weeks": 14319,
    "Ġaverted": 16258,
    "Ġrewards": 10850,
    "burn": 8371,
    "ieties": 19030,
    "Ġobjecting": 18897,
    "Ġshad": 3851,
    "eral": 9162,
    "Ġoct": 10161,
    "cri": 17508,
    "laborers": 23919,
    "Ġmisunderstand": 18705,
    "Ġsilk": 11967,
    "Ġlifeless": 8951,
    "Ġseries": 7062,
    "Ġbankers": 24304,
    "buncle": 13696,
    "Ġjanuary": 13657,
    "Ġpaced": 7585,
    "trained": 4238,
    "mis": 4520,
    "period": 15906,
    "ĠâĢľ_": 6698,
    "either": 6792,
    "vocation": 25087,
    "Ġactual": 3739,
    "Ġedges": 3828,
    "ize": 762,
    "Ġburtons": 19256,
    "Ġcanvas": 7784,
    "circle": 16738,
    "odecim": 9835,
    "Ġpreposter": 12827,
    "Ġvolumes": 14803,
    "Ġconcept": 673,
    "Ġfocuses": 8653,
    "Ġrespite": 13158,
    "Ġpensive": 21477,
    "osures": 22265,
    "Ġwet": 6519,
    "observing": 25495,
    "Ġcontribut": 12864,
    "Ġbridges": 24683,
    "Ġprospects": 9962,
    "Ġinsane": 19272,
    "shortened": 24747,
    "Ã¦": 4337,
    "great": 3520,
    "Ġfashioned": 13325,
    "speckled": 23949,
    "Ġhomely": 25220,
    "sion": 8094,
    "Ġarrangements": 16517,
    "Ġleague": 6540,
    "althily": 19362,
    "Ġcuba": 25098,
    "iscient": 17853,
    "regard": 7974,
    "Ġchoicest": 24223,
    "Ġemig": 14526,
    "04": 10682,
    "Ġsprinkled": 19500,
    "Ġindependently": 4245,
    "magnifying": 25393,
    "Ġgradient": 450,
    "Ġtestament": 23210,
    "Ġmidway": 14606,
    "Ġmaintenance": 17464,
    "boom": 18999,
    "fishermen": 17063,
    "bergen": 14342,
    "Ġgentleness": 8713,
    "Ġequivalent": 4801,
    "abern": 21794,
    "supposed": 13320,
    "compan": 7301,
    "Ġway": 1082,
    "Ġdifficulty": 5770,
    "Ġmistaken": 4986,
    "Ġdolphin": 17315,
    "ited": 1752,
    "Ġenv": 2674,
    "Ġpathways": 11155,
    "ouncement": 11749,
    "Ġoppose": 16522,
    "Ġpatron": 7462,
    "note": 14345,
    "oner": 6126,
    "Ġincessantly": 11413,
    "Ġtempestuous": 20074,
    "engine": 18929,
    "Ġbulls": 23860,
    "angible": 22109,
    "Ġrhone": 25231,
    "training": 2518,
    "Ġcommunicative": 24548,
    "Ġcub": 8415,
    "Ġfishe": 15590,
    "Ġdrag": 6186,
    "grew": 17557,
    "atches": 13849,
    "Ġfinanc": 23131,
    "Ġjoining": 13168,
    "aggoo": 5130,
    "Ġembracing": 14983,
    "ego": 4035,
    "agony": 14072,
    "Ġmartial": 20294,
    "Ġmoulded": 16977,
    "Ġbuckle": 17034,
    "abulary": 4799,
    "Ġarrayed": 25665,
    "cing": 1013,
    "Ġoutlast": 22317,
    "Ġabound": 8867,
    "Ġsuppl": 11081,
    "entions": 17977,
    "Ġgrapnels": 25552,
    "Ġamusing": 11804,
    "Ġdigging": 14941,
    "Ġalgorithms": 864,
    "Ġswearing": 16466,
    "Ġfewer": 16227,
    "Ġbritish": 11339,
    "Ġpopulous": 16828,
    "89": 20761,
    "pile": 17631,
    "Ġkidnapping": 26358,
    "Ġmushroom": 13241,
    "umberland": 16839,
    "Ġrobots": 11080,
    "Ġdigest": 24648,
    "Ġmeasures": 1205,
    "Ġeternity": 12283,
    "quis": 7870,
    "Ġchemist": 11136,
    "Ġtattoo": 7359,
    "stri": 6250,
    "Ġshadowed": 24050,
    "Ġkentuckian": 26344,
    "Ġsupplement": 23007,
    "resolved": 9642,
    "Ġberries": 13411,
    "Ġcontext": 1714,
    "Ġultimate": 12353,
    "oblivious": 26584,
    "yonder": 21147,
    "Ġqualities": 7534,
    "Ġappare": 12824,
    "Ġmarket": 7709,
    "ruded": 15901,
    "Ġlook": 880,
    "Ġpolluted": 25594,
    "Ġearls": 18905,
    "Ġ46": 19494,
    "Ġattempts": 10493,
    "doub": 6225,
    "Ġdevilish": 11230,
    "Ġnoisier": 4623,
    "figured": 20126,
    "Ġblades": 11899,
    "Ġgrimesby": 11459,
    "iac": 6227,
    "Ġferocious": 17422,
    "Ġhieroglyph": 11975,
    "Ġservant": 5764,
    "Ġunfortunate": 5376,
    "Ġdiscomp": 11870,
    "Ġreservo": 16833,
    "Ġlovel": 10274,
    "Ġcringing": 25942,
    "cooper": 19191,
    "Ġbree": 5012,
    "pressing": 19016,
    "Ġrestoration": 19032,
    "Ġinspired": 2519,
    "Ġwoodcock": 19165,
    "Ġmerrily": 23734,
    "igators": 18047,
    "Ġcontrasting": 11156,
    "Ġgratify": 19506,
    "unearthly": 19276,
    "Ġfishing": 9665,
    "oriously": 17876,
    "Ġhypothesis": 14787,
    "Ġrequirements": 9791,
    "Ġtig": 13816,
    "Ġshoulder": 5849,
    "Ġalabama": 14022,
    "Ġwintry": 17437,
    "athies": 22703,
    "Ġfluctuating": 24417,
    "Ġerection": 24006,
    "Ġstash": 18070,
    "historian": 25735,
    "Ġromish": 19587,
    "wise": 2574,
    "ersed": 10260,
    "Ġwards": 17791,
    "consum": 12877,
    "Ġfoster": 18992,
    "ceiving": 3904,
    "bolt": 25138,
    "Ġpleasant": 4169,
    "Ġvaults": 17156,
    "Ġtarts": 10755,
    "Ġhigh": 931,
    "nesday": 8706,
    "reasonable": 7752,
    "insufficient": 15492,
    "parad": 16392,
    "Ġadding": 2401,
    "Ġthieves": 15640,
    "ui": 9147,
    "Ġpew": 9318,
    "it": 276,
    "<EOS>": 2,
    "âĢĿ)": 21815,
    "Ġadvertising": 25390,
    "residence": 19266,
    "Ġannoyance": 20664,
    "Ġplaces": 5390,
    "Ġcollins": 2181,
    "Ġgreedily": 18967,
    "ime": 626,
    "Ġmol": 12566,
    "grave": 16098,
    "sleeves": 26110,
    "satisfaction": 9995,
    "Ġpropensity": 18997,
    "acy": 3956,
    "Ġsanta": 26422,
    "foot": 9049,
    "Ġsensitiveness": 23737,
    "Ġgap": 21602,
    "ague": 3908,
    "Ġstiff": 6993,
    "uting": 15664,
    "Ġdawned": 14997,
    "em": 391,
    "Ġrepent": 9866,
    "kes": 3681,
    "timidity": 25754,
    "Ġrevisit": 21673,
    "uccas": 21109,
    "Ġtiresome": 26157,
    "Ġassaulted": 25321,
    "Ġthreatens": 24375,
    "Ġdisgraceful": 15022,
    "Ġwhitened": 24868,
    "twelve": 14624,
    "Ġinve": 17931,
    "Ġbusied": 19066,
    "agreeable": 5830,
    "Ġpelt": 15614,
    "remote": 23193,
    "Ġplayfulness": 23638,
    ").âĢĿ": 20743,
    "Ġconversed": 13192,
    "Ġcolle": 8928,
    "intimate": 22940,
    "eager": 12464,
    "Ġcocksure": 26260,
    "Ġsprang": 5064,
    "Ġmarriage": 3188,
    "diversity": 25898,
    "Ġbewitching": 25977,
    "Ġinsurgents": 26602,
    "pred": 2803,
    "imitably": 21714,
    "Ġenslaved": 26315,
    "Ġmere": 2715,
    "ifers": 15785,
    "alike": 17945,
    "Ġpirate": 14998,
    "Ġdoubloons": 13438,
    "Ġrashly": 20308,
    "Ġassented": 17341,
    "oves": 15406,
    "Ġforesee": 19126,
    "Ġvideo": 25366,
    "Ġexpressing": 12013,
    "allingly": 22203,
    "tumbled": 21093,
    "Ġsuff": 1302,
    "Ġslides": 18941,
    ".âĢĿ": 464,
    "Ġprovidence": 18747,
    "grief": 13734,
    "Ġunexpectedly": 19911,
    "Ġivory": 4476,
    "Ġwindibank": 7257,
    "Ġsenses": 8252,
    "Ġdisturbing": 19949,
    "unteered": 26497,
    "necessities": 24308,
    "Ġcold": 3036,
    "Ġdispelling": 23883,
    "Ġintrospective": 20603,
    "Ġrows": 10563,
    "inarticulate": 21198,
    "fulness": 4310,
    "darker": 24516,
    "Ġemploying": 23983,
    "impat": 11204,
    "Ġtough": 13818,
    "beware": 16044,
    "Ġanecd": 20157,
    "Ġconceive": 8463,
    "wes": 17705,
    "Ġexamination": 8005,
    "kington": 11205,
    "Ġscarcity": 23829,
    "rodden": 21538,
    "Ġports": 10820,
    "romed": 10907,
    "Ġflounders": 23018,
    "Ġfriends": 2655,
    "Ġmicroscopic": 26375,
    "cab": 7333,
    "Ġrelaxed": 12988,
    "Ġpeddler": 26181,
    "Ġtoss": 10187,
    "Ġfarm": 7840,
    "Ġsuccessful": 9926,
    "confidential": 25877,
    "Ġupdating": 2693,
    "Ġconflict": 17276,
    "Ġannoy": 17201,
    "Ġattends": 19653,
    "Ġrepeatedly": 9024,
    "bouton": 17504,
    "Ġgerman": 6143,
    "oam": 8755,
    "Ġcommendation": 13614,
    "Ġindividuality": 14912,
    "Ġcharging": 23270,
    "Ġ45": 14773,
    "Ġbeasts": 10620,
    "Ġvirtue": 4923,
    "Ġcheetah": 14508,
    "Ġstill": 1156,
    "Ġintervened": 25482,
    "Ġcontributed": 16013,
    "rab": 7598,
    "Ġconjecture": 9535,
    "cused": 15335,
    "Ġprecaution": 11199,
    "Ġbillow": 14783,
    "Ġdeduction": 14904,
    "Ġconsidering": 4614,
    "lect": 1222,
    "Ġunable": 4951,
    "Ġreminds": 13435,
    "Ġtruest": 16702,
    "treacle": 25151,
    "occur": 19578,
    "Ġlevel": 5020,
    "Ġslate": 11942,
    "erve": 12554,
    "Ġsurviving": 24637,
    "Ġartfully": 22613,
    "Ġev": 4828,
    "Ġpia": 21466,
    "Ġresemblance": 7970,
    "Ġbattery": 21397,
    "expressing": 16803,
    "Ġlower": 2664,
    "Ġfisheries": 17441,
    "Ġauthoritative": 19564,
    "abez": 10225,
    "Ġtiara": 26417,
    "congenial": 25400,
    "Ġaccompanying": 11306,
    "commod": 16179,
    "Ġheadland": 22901,
    "Ġfuel": 13907,
    "Ġantichron": 24184,
    "Ġsuccessfully": 19432,
    "Ġwand": 4341,
    "inno": 10758,
    "Ġrapid": 1470,
    "Ġcapacious": 19178,
    "Ġinasmuch": 10827,
    "the": 334,
    "Ġcorrid": 9827,
    "Ġinsolent": 13604,
    "Ġwillow": 18532,
    "Ġscientific": 6857,
    "Ġthread": 14541,
    "beat": 10988,
    "asets": 2306,
    "Ġappend": 18359,
    "wers": 12524,
    "dipped": 20839,
    "Ġrealistic": 5862,
    "Ġsebastian": 11702,
    "Ġmultitud": 18748,
    "aning": 2252,
    "Ġsolution": 9808,
    "Ġappetites": 20209,
    "grasping": 20642,
    "Ġyet": 1029,
    "Ġmarched": 18873,
    "Ġsupernatural": 9876,
    "Ġendow": 23138,
    "Ġreception": 9842,
    "Ġyounge": 16291,
    "Ġill": 2194,
    "Ġnails": 12653,
    "ital": 4817,
    "bun": 12442,
    "punctual": 26357,
    "Ġsymphony": 26534,
    "osite": 4894,
    "Ġderiv": 1737,
    "Ġexpand": 9310,
    "oko": 18441,
    "µ": 118,
    "Ġty": 6660,
    "Ġgouge": 26190,
    "king": 3063,
    "crane": 24089,
    "Ġdirectors": 18923,
    "Ġpreprocess": 22237,
    "Ġvestibule": 13540,
    "Ġcomfortably": 16617,
    "prev": 12871,
    "ament": 2437,
    "Ġoil": 3374,
    "Ġterror": 5124,
    "Ġman": 544,
    "Ġagitation": 6865,
    "Ġsimilarly": 24310,
    "ashes": 6017,
    "vers": 1328,
    "Ġways": 5396,
    "sufficient": 6638,
    "Ġswarming": 16277,
    "Ġoverl": 18428,
    "avoid": 9308,
    "spir": 5738,
    "sustained": 20571,
    "quadrille": 20598,
    "cet": 15328,
    "Ġrelated": 3717,
    "Ġdidn": 4362,
    "Ġboots": 5944,
    "find": 6954,
    "Ġcomm": 839,
    "Ġrear": 6537,
    "Ġtorm": 5434,
    "henomenon": 13618,
    "Ġalternative": 19990,
    "Ġhier": 1896,
    "Ġinsincere": 26601,
    "Ġconceals": 23907,
    "moor": 22705,
    "alter": 10828,
    "boo": 16354,
    "handled": 19264,
    "Ġwhitish": 24867,
    "esc": 616,
    "Ġexcavating": 23318,
    "Ġthw": 21518,
    "Ġinserting": 19908,
    "Ġappear": 2484,
    "Ġhumaneval": 25583,
    "Ġdictate": 20154,
    "Ġjewels": 12373,
    "ire": 492,
    "unts": 12736,
    "Ġdarts": 16770,
    "Ġunch": 18237,
    "assault": 22310,
    "Ġbenignity": 18784,
    "Ġfervently": 25878,
    "Ġdeception": 18142,
    "Ġimmortality": 26327,
    "former": 11752,
    "Ġmonoman": 7939,
    "Ġstowed": 21740,
    "oward": 6022,
    "Ġquaff": 22418,
    "Ġpenetration": 19919,
    "escript": 18472,
    "Ġpowerful": 1495,
    "Ġenem": 4706,
    "Ġeels": 21623,
    "Ġgamy": 18001,
    "Ġaffording": 14824,
    "athan": 2958,
    "Ġinsc": 7587,
    "Ġbawling": 25946,
    "accomplished": 17214,
    "Ġacknowledges": 24689,
    "Ġsurrounding": 12167,
    "Ġreasons": 6021,
    "english": 2776,
    "wrong": 13210,
    "Ġcourtship": 24138,
    "Ġascended": 8669,
    "Ġshreds": 12775,
    "estations": 22226,
    "icil": 17974,
    "ele": 9117,
    "Ġmanaged": 7906,
    "Ġplying": 17914,
    "nails": 17616,
    "iny": 4294,
    "Ġname": 2083,
    "Ġumb": 11649,
    "horizon": 23617,
    "Ġrecognised": 8998,
    "Ġemblematical": 25789,
    "mounting": 25208,
    "offers": 16398,
    "Ġascending": 14857,
    "Ġamused": 11803,
    "Ġoctober": 17229,
    "canonical": 22968,
    "Ġbridegroom": 10607,
    "read": 3277,
    "angels": 22110,
    "Ġcorners": 18876,
    "icip": 6390,
    "youth": 11879,
    "Ġmorocco": 26575,
    "Ġperception": 9753,
    "Ġevils": 9023,
    "Ġsheepfold": 25467,
    "Ġshoots": 14570,
    "Ġdeposition": 18612,
    "Ġmember": 8465,
    "amous": 15765,
    "Ġappeal": 16318,
    "Ġcontracting": 16015,
    "Ġtoiling": 15639,
    "Ġglimmer": 15145,
    "Ġdistinctly": 7311,
    "Ġtempted": 9059,
    "Ġner": 1649,
    "Ġaspects": 4173,
    "tend": 17676,
    "Ġwoman": 2383,
    "Ġundertone": 23243,
    "if": 374,
    "string": 15689,
    "Ġrude": 7234,
    "loa": 18535,
    "Ġneurons": 976,
    "joint": 24014,
    "hereafter": 19219,
    "Ġcheever": 23289,
    "Ġwayward": 22872,
    "Ġsakes": 18327,
    "Ġimper": 4501,
    "Ġnomine": 26458,
    "imodal": 17450,
    "Ġavailed": 23957,
    "offended": 16400,
    "topic": 10530,
    "Ġvirtues": 9939,
    "flying": 13724,
    "against": 5872,
    "joice": 9605,
    "Ġrent": 11642,
    "Ġcomplete": 4382,
    "Ġapplications": 4782,
    "Ġtobacc": 7853,
    "ĠâĢĶâĢĶ": 25758,
    "inioned": 19289,
    "reached": 13844,
    "Ġtermination": 16462,
    "ahead": 12438,
    "Ġturk": 6605,
    "Ġinferred": 14504,
    "Ġsammy": 24933,
    "elve": 4640,
    "Ġelud": 22647,
    "delivered": 24103,
    "Ġvisit": 2583,
    "pers": 4336,
    "quakes": 21854,
    "provoke": 26072,
    "Ġimparted": 15992,
    "pervading": 18958,
    "Ġtech": 1611,
    "Ġcaut": 6522,
    "tling": 9145,
    "alogue": 25163,
    "Ġsmith": 16071,
    "aming": 5829,
    "comput": 2030,
    "Ġroof": 6566,
    "mal": 6795,
    "Ġshrimp": 24160,
    "Ġprivately": 19526,
    "worship": 19390,
    "rus": 5931,
    "Ġcrabs": 19176,
    "Ġnowhere": 12891,
    "Ġkingdom": 12023,
    "Ġshel": 6847,
    "judgment": 16755,
    "Ġfortitude": 9888,
    "entered": 8819,
    "Ġsticks": 14934,
    "Ġcognitive": 13638,
    "Ġpyramid": 8806,
    "Ġimposing": 11785,
    "Ġmisgivings": 15295,
    "Ġhorseman": 19610,
    "unalterable": 21890,
    "Ġimbu": 15895,
    "Ġbeget": 9228,
    "Ġbower": 15571,
    "Ġfooting": 14485,
    "Ġhesitate": 16948,
    "trad": 21078,
    "Ġwithdrew": 9699,
    "Ġphilosopher": 12188,
    "Ġhelps": 9371,
    "Ġdurst": 20355,
    "Ġnorm": 763,
    "Ġtarshish": 12033,
    "Ġrevolve": 19733,
    "Ġsoftened": 11103,
    "Ġenthusiasm": 8065,
    "peculiarities": 13475,
    "Ġtangles": 25762,
    "Ġprestige": 22240,
    "Ġinvoked": 19146,
    "Ġbaggy": 24538,
    "Ġhosts": 19942,
    "Ġreappeared": 21668,
    "Ġherbage": 25997,
    "Ġunspeakable": 10059,
    "Ġdepress": 14049,
    "fifth": 20149,
    "Ġdoubt": 2223,
    "astron": 22173,
    "Ġmaz": 15546,
    "Ġcigarette": 20658,
    "Ġsuggestion": 19710,
    "Ġexerc": 6832,
    "kovoko": 20672,
    "Ġchurch": 4709,
    "Ġquietly": 4566,
    "Ġresumed": 11816,
    "Ġproblems": 2849,
    "Ġhighlands": 22778,
    "Ġbath": 9661,
    "bows": 10084,
    "Ġintru": 15831,
    "Ġgazette": 19504,
    "Ġind": 1221,
    "Ġhapp": 1087,
    "hed": 670,
    "tern": 4222,
    "Ġdriving": 3620,
    "Ġrep": 1938,
    "veh": 12686,
    "Ġeast": 5370,
    "Ġcarav": 18903,
    "onym": 14651,
    "Ġency": 21937,
    "matter": 5136,
    "thinness": 25811,
    "Ġsto": 1499,
    "w": 91,
    "lu": 598,
    "Ġredden": 15698,
    "carried": 16713,
    "Ġdair": 17891,
    "hearty": 14837,
    "foreign": 18545,
    "Ġshade": 6552,
    "Ġzoned": 22821,
    "Ġaccord": 4026,
    "Ġlighting": 13087,
    "Ġconfine": 14513,
    "Ġtaught": 6804,
    "Ġdig": 6137,
    "Ġinvestment": 24332,
    "onness": 21257,
    "Ġgrease": 26191,
    "onstrate": 17770,
    "Ġirregular": 9868,
    "Ġfluffy": 19367,
    "Ġpastures": 23422,
    "of": 767,
    "Ġ116": 24440,
    "perishing": 22190,
    "Ġmutually": 23962,
    "sp": 894,
    "Ġcoppers": 22589,
    "jaws": 20934,
    "Ġcurses": 13027,
    "opotam": 22470,
    "Ġerud": 20058,
    "add": 5229,
    "inated": 6805,
    "are": 638,
    "iverer": 11720,
    "Ġreason": 1402,
    "goin": 23406,
    "gence": 877,
    "Ġsummoned": 9914,
    "Ġmoist": 9288,
    "Ġfundament": 2927,
    "Ġreserved": 7516,
    "kinder": 24846,
    "windibank": 24164,
    "hom": 12478,
    "Ġspoiled": 11365,
    "meth": 11505,
    "Ġinterrupting": 19560,
    "beheld": 11805,
    "rabb": 15684,
    "Ġespecial": 26412,
    "ounds": 4156,
    "Ġloathsome": 13531,
    "season": 14037,
    "Ġprotesting": 14744,
    "Ġfragrant": 13091,
    "Ġexclude": 19043,
    "Ġanom": 12616,
    "ks": 3146,
    "Ġraft": 16120,
    "Ġremainder": 9861,
    "gu": 3958,
    "Ġalbertus": 25649,
    "immediately": 10052,
    "Ġpore": 21460,
    "Ġdist": 681,
    "Ġholmes": 1308,
    "Ġpure": 6139,
    "splinter": 25211,
    "dor": 12456,
    "Ġattack": 5478,
    "Ġwithdra": 6399,
    "Ġknitted": 19592,
    "Ġrippling": 17280,
    "Ġdog": 4191,
    "Ġinsepar": 17936,
    "Ġdiverged": 23596,
    "commanded": 16990,
    "Ġmal": 5221,
    "fired": 20862,
    "Ġthrusts": 24350,
    "doubtless": 17004,
    "blow": 9107,
    "Ġreasoning": 2104,
    "akeman": 6269,
    "Ġinterven": 11000,
    "times": 8099,
    "concluding": 19484,
    "Ġquitted": 5312,
    "never": 3152,
    "which": 1709,
    "Ġproportion": 7281,
    "lacings": 26135,
    "Ġaside": 5234,
    "Ġbushes": 16403,
    "Ġchast": 18380,
    "Ġsoftmax": 1691,
    "aves": 3602,
    "herfield": 3633,
    "uesday": 8590,
    "anely": 17838,
    "Ġlanguage": 652,
    "Ġboarded": 13239,
    "Ġbarrowful": 25596,
    "transformer": 25018,
    "Ġpl": 743,
    "Ġprogrammed": 11060,
    "Ġhorrible": 4906,
    "Ġcoronation": 13338,
    "Ġscrupulous": 20072,
    "placed": 7878,
    "anim": 6523,
    "agon": 7871,
    "Ġtranquillity": 7537,
    "watching": 16932,
    "Ġeloquent": 16114,
    "apidated": 22340,
    "learn": 2424,
    "Ġseven": 4541,
    "suspicious": 25391,
    "Ġslices": 23167,
    "Ġfrivolous": 26177,
    "Ġscores": 2716,
    "Ġpredict": 672,
    "Ġfancies": 10426,
    "Ġrudder": 25110,
    "Ġaveraging": 2416,
    "Ġwigwam": 11430,
    "col": 3104,
    "Ġprovided": 6579,
    "Ġgret": 21604,
    "ouched": 4635,
    "algorithm": 3776,
    "Ġwrit": 8242,
    "Ġfade": 21410,
    "irresist": 21916,
    "derness": 11741,
    "Ġexpose": 10330,
    "Ġ106": 24414,
    "Ġamph": 18512,
    "Ġsensibility": 14517,
    "altogether": 12644,
    "els": 1767,
    "Ġannot": 15606,
    "ps": 4573,
    "Ġpoor": 1710,
    "Ġ19": 6721,
    "crews": 15045,
    "poke": 18803,
    "tout": 21068,
    "opened": 7912,
    "insula": 23068,
    "bearer": 18522,
    "Ġtout": 17721,
    "Ġtrotting": 19979,
    "Ġcobweb": 22590,
    "get": 1021,
    "Ġdespaired": 14671,
    "Ã": 132,
    "Ġeconomical": 25288,
    "Ġeasiest": 23538,
    "Ġwager": 17794,
    "entric": 11622,
    "Ġkinds": 14510,
    "Ġarrows": 18339,
    "Ġhabitations": 24788,
    "icate": 9204,
    "whispering": 26104,
    "Ġcomply": 8895,
    "Ġlastly": 16208,
    "cad": 17507,
    "Ġegress": 21624,
    "Ġcashier": 20201,
    "ports": 13777,
    "Ġboys": 5194,
    "order": 1960,
    "trem": 17683,
    "========": 2308,
    "solut": 3365,
    "Ġmartyr": 26362,
    "warrior": 24797,
    "Ġiceland": 15150,
    "Ġgratifying": 13310,
    "bourine": 9399,
    "Ġinaudible": 21502,
    "beh": 5472,
    "measure": 10034,
    "hideous": 25408,
    "Ġaglow": 22518,
    "Ġdiscoloured": 15256,
    "elf": 562,
    "Ġquench": 22423,
    "¿": 128,
    "rants": 13781,
    "smoking": 23914,
    "Ġbestow": 6456,
    "Ġuttering": 16463,
    "screaming": 20328,
    "arest": 4005,
    "brave": 19826,
    "Ġmira": 8408,
    "Ġcruisings": 25865,
    "sick": 13787,
    "ics": 3258,
    "ach": 435,
    "Ġterrible": 5328,
    "Ġbony": 12592,
    "Ġfailing": 12142,
    "Ġinsensible": 12329,
    "Ġextort": 22722,
    "]]": 5205,
    "attempt": 9363,
    "scruple": 26045,
    "Ġgrass": 5177,
    "Ġidler": 16407,
    "Ġbreaches": 14523,
    "ilty": 6395,
    "Ġliar": 22412,
    "Ġlater": 6018,
    "Ġvicissitudes": 12423,
    "Ġinher": 10182,
    "odious": 21819,
    "Ġunexpected": 6841,
    "Ġfloating": 6606,
    "Ġbert": 4581,
    "Ġmostly": 7665,
    "trop": 15439,
    "influence": 13582,
    "fulfilment": 26026,
    "Ġshared": 10266,
    "Ġhandfuls": 17212,
    "Ġdiggings": 24650,
    "Ġsystemat": 18448,
    "Ġsubterr": 10351,
    "Ġshr": 4224,
    "Ġpredicting": 2412,
    "Ġtin": 15466,
    "agation": 1249,
    "ource": 5243,
    "affrail": 11207,
    "Ġargosy": 24276,
    "devil": 7895,
    "tanh": 5204,
    "Ġes": 8773,
    "Ġmarlings": 23039,
    "nurtured": 25525,
    "Ġchristmas": 6924,
    "Ġsubsiding": 23436,
    "Ġtacit": 21177,
    "Ġobjections": 8568,
    "remediable": 26296,
    "wickham": 5885,
    "Ġwedded": 15539,
    "Ġdiscuss": 9477,
    "expense": 22435,
    "impenetrable": 26198,
    "Ġprosperity": 20261,
    "bular": 15317,
    "gaz": 20880,
    "everybody": 8614,
    "Ġdiscoverers": 26037,
    "Ġprovides": 1931,
    "Ġannals": 17900,
    "Ġshells": 20367,
    "Ġsherlock": 3895,
    "completely": 12424,
    "developed": 15268,
    "ement": 1501,
    "Ġeloped": 22649,
    "Ġtwisted": 7228,
    "Ġtransformers": 1124,
    "Ġpatronage": 17054,
    "force": 12963,
    "Ġmissed": 8560,
    "Ġar": 480,
    "dough": 15338,
    "Ġpost": 4272,
    "unc": 15773,
    "shadows": 25480,
    "Ġincoherent": 17403,
    "Ġgore": 17991,
    "Ġdeferred": 18827,
    "Ġsacrifice": 9558,
    "Ġtep": 21164,
    "urously": 18053,
    "Ġstall": 12701,
    "ure": 356,
    "Ġmead": 8839,
    "sympathy": 20545,
    "dropout": 3196,
    "Ġopposing": 12045,
    "Ġpartaking": 22700,
    "footed": 19692,
    "Ġ150": 22829,
    "Ġtingling": 15096,
    "Ġten": 2382,
    "Ġenforced": 21942,
    "aph": 10956,
    "Ġder": 1498,
    "blazing": 24134,
    "Ġadmitted": 8989,
    "acquired": 24298,
    "B": 38,
    "Ġclapped": 9748,
    "Ġruin": 6057,
    "pots": 11516,
    "friendly": 13289,
    "Ġbrixton": 13667,
    "Ġdirty": 9181,
    "Ġcoopers": 20525,
    "Ġdelicately": 24128,
    "Ġrelationships": 2926,
    "Ġacute": 16127,
    "Ġcurric": 23001,
    "bation": 9106,
    "spark": 18689,
    "Ġsnatching": 10474,
    "Ġneighbouring": 12123,
    "excepting": 19709,
    "Ġmarshal": 20222,
    "Ġquaint": 18466,
    "uberance": 25917,
    "Ġintrusion": 12770,
    "ellig": 521,
    "Ġmechanis": 1238,
    "Ġoffended": 7042,
    "Ġstack": 21737,
    "Ġspine": 7407,
    "gypt": 8261,
    "porary": 14552,
    "Í": 142,
    "Ġhoops": 9392,
    "Ġshow": 3402,
    "Ġdiary": 24738,
    "Ġadvocate": 13680,
    "ogn": 2449,
    "Ġinvestigated": 25387,
    "iriously": 18172,
    "Ġumbrell": 13654,
    "Ġsharply": 9406,
    "gaff": 20884,
    "arned": 21821,
    "despair": 8344,
    "Ġfirst": 936,
    "depth": 12805,
    "Ġsings": 15508,
    "penetrating": 25491,
    "Ġsuspending": 19246,
    "Ġwonderful": 4562,
    "Ġindist": 14413,
    "Ġluggage": 25958,
    "legra": 10791,
    "Ġadvis": 9813,
    "Ġholiday": 13003,
    ")âĢĶ": 20744,
    "Ġcurving": 16250,
    "Ġpalsy": 25779,
    "anybody": 12087,
    "eronomy": 15528,
    "orph": 21402,
    "Ġsidel": 9638,
    "apply": 18760,
    "Ġquito": 24408,
    "Ġbodiless": 24229,
    "traversed": 19650,
    "Ġhighest": 3532,
    "Ġgrandfather": 19425,
    "Ġregion": 2269,
    "Ġforenoon": 19127,
    "Ġexeget": 24087,
    "Ġroasted": 18459,
    "Ġbrut": 18769,
    "meditation": 19071,
    "Ġdeem": 18136,
    "Ġwre": 5077,
    "held": 3842,
    "Ġchilly": 25563,
    "Ġlawyers": 25249,
    "Ġexists": 14041,
    "Ġattacking": 24465,
    "Ġgarn": 13966,
    "Ġbehalf": 14512,
    "remind": 23191,
    "extinguish": 22770,
    "Ġdescent": 982,
    "france": 24284,
    "vult": 21116,
    "Ġserving": 14488,
    "ones": 2743,
    "uded": 6288,
    "fering": 17544,
    "Ġbaling": 17861,
    "ropy": 1104,
    "appetite": 22848,
    "Ġsilken": 16385,
    "was": 1421,
    "Ġsubdiv": 16163,
    "cles": 8729,
    "Ġseventy": 7880,
    "Ġinvolve": 11045,
    "Ġfairly": 6327,
    "'re": 12432,
    "Ġdrifted": 14627,
    "Ġdomineer": 23708,
    "Ġhandsome": 4907,
    "Ġiroquois": 26474,
    "Ġsouthwards": 19636,
    "Ġstorm": 4301,
    "Ġmaids": 19694,
    "yard": 5901,
    "Ġmon": 1248,
    "Ġankles": 17901,
    "itu": 1226,
    "Ġberm": 21386,
    "embarrassed": 20667,
    "Ġaven": 10761,
    "Ġla": 5914,
    "smiles": 14695,
    "Ġdraught": 9848,
    "minute": 11276,
    "umphed": 23518,
    "complained": 25840,
    "Ġaust": 4872,
    "(-": 2983,
    "langu": 4806,
    "dled": 9114,
    "Ġunbroken": 18248,
    "Ġhalloa": 13321,
    "Ġserv": 3330,
    "Ġsunrise": 9376,
    "grate": 23414,
    "ishly": 14202,
    "L": 48,
    "antial": 8490,
    "impression": 15715,
    "Ġowest": 25094,
    "continue": 16863,
    "istan": 22112,
    "Ġfootsteps": 16575,
    "vices": 21119,
    "believe": 8304,
    "lashed": 20956,
    "Ġerrors": 2596,
    "ifully": 13190,
    "Ġunconscious": 9550,
    "Ġabusive": 22277,
    "Ġpoint": 2056,
    "Ġtroub": 22369,
    "Ġoccupant": 16654,
    "calabash": 22900,
    "Ġtechniques": 2868,
    "Ġisrael": 21807,
    "conceal": 25117,
    "rix": 1574,
    "Ġwise": 6812,
    "ility": 625,
    "linearity": 1653,
    "Ġban": 7157,
    "egyptians": 25899,
    "Ġsam": 7570,
    "arris": 13213,
    "Ġbiological": 1934,
    "Ġarchangel": 8545,
    "unwholesome": 26499,
    "Ġenjoy": 3761,
    "coarse": 16490,
    "Ġderivative": 3002,
    "Ġzigzag": 26274,
    "nosed": 20994,
    "Ġinterpretation": 19719,
    "reproof": 25433,
    "Ġadorn": 12797,
    "Ġsmite": 22562,
    "Ġfunction": 592,
    "Ġmou": 13858,
    "mm": 675,
    "Ġbubble": 13538,
    "sciss": 18852,
    "Ġscan": 22288,
    "Ġcleansed": 26295,
    "Ġharpooneers": 4730,
    "hawks": 24695,
    "Ġrailway": 15023,
    "Ġnonsensical": 21532,
    "Ġgurg": 15677,
    "Ġsagacious": 14974,
    "Ġstaggering": 20276,
    "Ġringle": 18213,
    "Ġtrue": 1340,
    "Ġpresent": 1644,
    "Ġencode": 4364,
    "tales": 17688,
    "until": 6598,
    "Ġparticle": 18672,
    "distinguished": 10529,
    "Ġsurve": 9877,
    "Ġpressed": 6043,
    "Ġcau": 13884,
    "ue": 1178,
    "tears": 11038,
    "Ġinvented": 17038,
    "Ġgladstone": 23871,
    "Ġfif": 4215,
    "omely": 21662,
    "Ġspy": 22127,
    "Ġconstant": 6311,
    "flung": 16641,
    "harrow": 20910,
    "Ġlistener": 16476,
    "pid": 1414,
    "Ġusages": 15921,
    "Ġactivations": 2722,
    "Ġentail": 9797,
    "Ġing": 5284,
    "Ġdreamy": 14706,
    "Ġconsuming": 22796,
    "Ġhampshire": 15246,
    "Ġlodging": 24097,
    "prejud": 11800,
    "Ġwithheld": 18117,
    "Ġsolve": 4195,
    "Ġchains": 8251,
    "Ġpath": 2115,
    "Ġverdure": 10615,
    "bye": 5951,
    "Ġacknowledge": 13406,
    "Ġengineering": 3029,
    "Ġcopying": 17070,
    "necessary": 5883,
    "Ġwhistles": 24625,
    "ctic": 8443,
    "justice": 7958,
    "quar": 7617,
    "Ġmiser": 18704,
    "Ġaccumulating": 2724,
    "gall": 6361,
    "Ġsouls": 6310,
    "sound": 6800,
    "pillar": 5619,
    "Ġislands": 6767,
    "Ġhappily": 9334,
    "Ġsubordinate": 18723,
    "Ġcheerfulness": 10519,
    "Ġ135": 24784,
    "otted": 14027,
    "Ġmouthfuls": 20648,
    "Ġapproach": 850,
    "Ġhansom": 13668,
    "prec": 3201,
    "Ġrolled": 4430,
    "ois": 9137,
    "accuracy": 9882,
    "Ġjobs": 24833,
    "Ġmag": 1429,
    "Ġflowery": 16236,
    "Ġscreams": 24604,
    "Ġdesperado": 19822,
    "Ġblurred": 22934,
    "Ġengagements": 9981,
    "Ġstudy": 1770,
    "gazing": 12476,
    "wreck": 21139,
    "Ġavalanche": 17436,
    "filled": 9597,
    "Ġbead": 21754,
    "oled": 17621,
    "Ġlizzy": 3549,
    "hob": 20902,
    "Ġmeta": 3452,
    "speeches": 25240,
    "Ġhval": 21491,
    "Ġreaches": 18034,
    "Ġworshipping": 22931,
    "Ġtrophy": 20010,
    "Ġswift": 3672,
    "Ġbrilliantly": 25123,
    "Ġdistributes": 4194,
    "Ġtrick": 7022,
    "Ġhairy": 23867,
    "Ġdick": 3500,
    "Ġhousekeeping": 18946,
    "Ġtorrents": 20059,
    "Ġjoyous": 14666,
    "Ġmagnanimous": 17414,
    "Ġcrystal": 17217,
    "Ġgrammars": 11404,
    "travel": 24337,
    "ane": 1177,
    "Ġ96": 24593,
    "Ġvineyards": 25109,
    "Ġbegun": 7243,
    "Ġtink": 9151,
    "Ġsatur": 1932,
    "resent": 10771,
    "Ġinscriptions": 20012,
    "Ġaquiline": 26160,
    "Ġdeceive": 12727,
    "sius": 13791,
    "fisher": 7548,
    "confirmation": 26090,
    "Ġsuperiors": 23456,
    "Ġmitig": 1337,
    "row": 1064,
    "Ġchanged": 5242,
    "Ġchivalry": 25819,
    "impressed": 12696,
    "Ġpiqu": 21479,
    "legs": 13188,
    "Ġhaste": 9006,
    "Ġoverwhel": 8196,
    "Ġliterally": 15120,
    "Ġnerve": 16344,
    "Ġhorribly": 16346,
    "lotte": 3332,
    "pray": 5429,
    "where": 2092,
    "Ġmining": 22833,
    "Ġro": 596,
    "Ġsmoothe": 23658,
    "Ġrecklessly": 16985,
    "Ġduodecimo": 16769,
    "sales": 17669,
    "pulled": 25148,
    "Ġcountless": 16386,
    "Ġdeny": 7489,
    "ivided": 22085,
    "Ġbingley": 1678,
    "ality": 2513,
    "Ġtw": 841,
    "mare": 17601,
    ".âĢĶ": 4247,
    "Ġbestir": 13114,
    "Ġfisher": 3222,
    "ispiece": 19728,
    "onden": 13847,
    "Ġsig": 868,
    "Ġinmates": 15627,
    "Ġrepublican": 17415,
    "Ġdefilements": 26286,
    "Ġsurpassed": 25268,
    "Ġspleen": 26423,
    "Ġwooing": 19437,
    "seized": 14038,
    "Ġsubjected": 23574,
    "Ġsteel": 3891,
    "maintained": 25023,
    "Ġulster": 14999,
    "Ġpoison": 7219,
    "itters": 10783,
    "Ġrol": 3558,
    "useness": 22286,
    "Ġbows": 4084,
    "Ġhun": 1496,
    "Ġbodily": 6108,
    "Ġkindred": 16381,
    "Ġfrigates": 25707,
    "Ġdrawers": 12110,
    "Ġcalmly": 7734,
    "train": 2033,
    "camp": 15333,
    "Ġeggs": 12346,
    "melted": 25207,
    "Ġdisk": 22526,
    "itute": 9654,
    "Ġhumble": 8554,
    "mediate": 16516,
    "Ġsuffering": 8949,
    "Ġwithal": 18116,
    "amet": 586,
    "mayhew": 23997,
    "Ġdespise": 14668,
    "Ġabraham": 18396,
    "Ġthimble": 15641,
    "blast": 9590,
    "Ġprecipitous": 24836,
    "Ġexulting": 20260,
    "Ġluff": 15657,
    "Ġkeenly": 9488,
    "ob": 1420,
    "Ġsaucer": 20608,
    "Ġretrie": 10385,
    "Ġhandsom": 11126,
    "Ġdusting": 24597,
    "Ġcreate": 2091,
    "Ġconnivance": 25226,
    "Ġpossesses": 19355,
    "Ġrags": 18646,
    "rength": 4102,
    "Ġguernsey": 9354,
    "ognit": 19192,
    "deacon": 22150,
    "Ġcomprehen": 5350,
    "Ġbury": 12046,
    "ô": 181,
    "Ġlash": 8440,
    "know": 2314,
    "Ġdaw": 21432,
    "Ġevenings": 18755,
    "condite": 23250,
    "Ġ_": 840,
    "Ġexistence": 4704,
    "Ġexposed": 8525,
    "gar": 5615,
    "Ġreconsidered": 21676,
    "Ġmerchants": 23735,
    "protection": 19922,
    "Ġninety": 13605,
    "cary": 10693,
    "Ġlurch": 21558,
    "Ġfiftieth": 24702,
    "pip": 6657,
    "Ġstudious": 23228,
    "beryls": 25310,
    "Ġsnaky": 23744,
    "Ġmalays": 19680,
    "sailor": 14718,
    "headers": 23111,
    "Ġthoughtfully": 12984,
    "Ġspots": 11733,
    "Ġpilgrimage": 17311,
    "heaved": 21213,
    "Ġpuzz": 5533,
    "ome": 536,
    "Ġstaircase": 20099,
    "Ġlan": 5821,
    "Ġsuch": 795,
    "imin": 1773,
    "Ġfreshet": 25704,
    "Ġlaughed": 5059,
    "hur": 6651,
    "Ġexceeding": 1580,
    "Ġfold": 5531,
    "Ġauthorities": 11266,
    "imp": 3037,
    "neg": 12869,
    "Ġfishery": 4174,
    "pigs": 17143,
    "Ġthroes": 24575,
    "Ġdefend": 9343,
    "Ġbrutality": 26278,
    "sacrifice": 13496,
    "meet": 11860,
    "Ġstup": 14008,
    "aments": 12730,
    "Ġgrizz": 10355,
    "Ġpreliminary": 10060,
    "alization": 733,
    "Ġdome": 15593,
    "frame": 17117,
    "Ġfaith": 5351,
    "Ġlascar": 9202,
    "Ġexplanation": 6694,
    "Ġaccost": 12850,
    "aited": 12439,
    "Ġphara": 23202,
    "Ġhed": 7387,
    "Ġbeh": 1805,
    "experience": 17161,
    "romeda": 17265,
    "Ġcurrents": 13028,
    "Ġdisguise": 10049,
    "ished": 1426,
    "Ġfish": 2712,
    "urday": 13998,
    "Ġclassifies": 11836,
    "Ġfasting": 16359,
    "schoolmaster": 15165,
    "Ġinvited": 6903,
    "Ġungover": 18253,
    "Ġskeleton": 5514,
    "Ġdidst": 11853,
    "insupportable": 21196,
    "beth": 13692,
    "Ġboisterously": 25683,
    "Ġformerly": 7494,
    "Ġrevolving": 9986,
    "Ġshriek": 6640,
    "eag": 20844,
    "Ġthese": 819,
    "Ġhumorous": 10362,
    "ichron": 22172,
    "Ġtumult": 7116,
    "Ġai": 3129,
    "Ġspir": 2427,
    "Ġconjunction": 25103,
    "vial": 17699,
    "oid": 3128,
    "Ġshakes": 10906,
    "Ġrust": 6409,
    "icked": 10335,
    "drowned": 17372,
    "Ġunreasoning": 15849,
    "vap": 13806,
    "Ġsurgeon": 8984,
    "Ġquee": 1979,
    "Ġagainst": 1700,
    "prof": 7471,
    "Ġmasks": 23331,
    "Ġvigilance": 12375,
    "Ġdrop": 4344,
    "Ġtorments": 13398,
    "Ġslighted": 16570,
    "ieves": 4006,
    "Ġdazed": 15600,
    "Ġkrus": 18350,
    "Ġhauling": 14090,
    "Ġhungry": 10535,
    "inspector": 13650,
    "Ġpeev": 22696,
    "Ġreceptive": 1563,
    "dimensional": 2343,
    "Ġintelligence": 552,
    "Ġadmirals": 20388,
    "Ġfork": 15736,
    "Ġwo": 3654,
    "--": 1041,
    "Ġenticements": 26035,
    "Ġgained": 4534,
    "Ġunlike": 7006,
    "maltese": 24794,
    "Ġsentences": 2684,
    "Ġig": 3504,
    "doing": 8588,
    "Ġsalmon": 24066,
    "determined": 9082,
    "Ġdistances": 22507,
    "Ġsanction": 20029,
    "Ġdarting": 7757,
    "earnest": 12403,
    "Ġpresc": 15929,
    "Ġdarkness": 4278,
    "Ġhowling": 8512,
    "inder": 9155,
    "Ġmallet": 17812,
    "Ġtiger": 11557,
    "Ġcabs": 23642,
    "sea": 4762,
    "Ġsummits": 14685,
    "snap": 24849,
    "respect": 6375,
    "Ġwaved": 9647,
    "Ġcabin": 3304,
    "leading": 15566,
    "Ġpurposes": 11170,
    "Ġsteward": 6586,
    "Ġcompassionate": 24722,
    "Ġsignific": 3830,
    "Ġrelevance": 5184,
    "Ġbrute": 8930,
    "Ġclin": 14203,
    "Ġlump": 21555,
    "Ġrigid": 16718,
    "Ġgrope": 17997,
    "unvarying": 21891,
    "inferiors": 25347,
    "Ġtu": 6969,
    "Ġintact": 21993,
    "Ġprov": 4400,
    "Ġgrated": 22807,
    "favour": 9552,
    "enc": 7575,
    "Ġimpatient": 5603,
    "Ġenlarge": 21939,
    "Ġexhilar": 19686,
    "mercenary": 26316,
    "Ġwhitt": 18057,
    "Ġnovel": 6697,
    "Ġflattered": 10377,
    "backpropagation": 11990,
    ".âĢĻâĢĿ": 6741,
    "Ġintricacies": 15142,
    "robber": 21540,
    "Ġdiverse": 19212,
    "Ġpar": 456,
    "Ġyoke": 18098,
    "Ġharshly": 25250,
    "lotts": 23828,
    "Ġbountiful": 25945,
    "Ġpainful": 6463,
    "Ġbrag": 23836,
    "concerning": 9070,
    "Ġinspirited": 23423,
    "abled": 12799,
    "Ġbeckoning": 20505,
    "proble": 9397,
    "Ġvalidate": 3235,
    "Ġrossum": 3017,
    "eu": 17532,
    "broken": 8020,
    "oforte": 14289,
    "iously": 2679,
    "Ġpreferred": 14969,
    "arms": 10176,
    "bat": 8072,
    "uracy": 1066,
    "Ġunprincipled": 20710,
    "Ġpumps": 8428,
    "Ġwaste": 9237,
    "beholding": 16045,
    "Ġcease": 7078,
    "ouement": 21451,
    "Ġodd": 6627,
    "Ġthomas": 17950,
    "fleece": 19951,
    "Ġann": 4489,
    "Ġseldom": 4628,
    "Ġcirclings": 26433,
    "rods": 21541,
    "ineer": 11703,
    "oro": 21398,
    "Ġlot": 6680,
    "class": 4097,
    "hyp": 15370,
    "Ġsurvivors": 25732,
    "Ġglasses": 9478,
    "oe": 7553,
    "Ġhydraul": 9517,
    "Ġthus": 2035,
    "Ġabhor": 5467,
    "above": 8148,
    "quired": 21853,
    "wra": 11544,
    "Ġargue": 16785,
    "ribbed": 16415,
    "Ġvital": 9246,
    "Ġbennets": 9809,
    "Ġcatholic": 20684,
    "ii": 4015,
    "Ġdeity": 18137,
    "'s": 2469,
    "Ġcheering": 11135,
    "cool": 19189,
    "Ġdiscerning": 25005,
    "swells": 26149,
    "Ġcruellest": 19661,
    "security": 26208,
    "Ġthousands": 6750,
    "Ġdefinition": 14407,
    "yours": 7696,
    "Ġcon": 348,
    "Ġopened": 3515,
    "Ġpurpose": 2710,
    "inclined": 10642,
    "lived": 12491,
    "tural": 21069,
    "Ġmarvellous": 7539,
    "Ġgreece": 17071,
    "<MASK>": 4,
    "Ġduration": 20356,
    "Ġchoose": 5983,
    "Ġconcluding": 9860,
    "ason": 1281,
    "Ġdz": 4755,
    "Ġfacetious": 20587,
    "overing": 6308,
    "Ġarc": 14161,
    "icacy": 15662,
    "Ġemaciated": 20641,
    "flukes": 25206,
    "except": 5383,
    "process": 11150,
    "Ġhurrying": 11999,
    "ij": 7802,
    "Ġtexel": 25924,
    "Ġclosed": 4603,
    "Ġ91": 24590,
    "conducted": 25573,
    "Ġunalterable": 15855,
    "Ġtransient": 18501,
    "Ġpreparations": 12314,
    "Ġimpact": 10299,
    "Ġreverend": 15263,
    "Ġrain": 5005,
    "Ġconcentration": 25065,
    "Ġindomit": 22960,
    "Ġsem": 1879,
    "arily": 4126,
    "Ġregretted": 13404,
    "attering": 7419,
    "Ġdescrying": 18618,
    "Ġdil": 6384,
    "morland": 24156,
    "cheer": 9440,
    "ĠĠĠĠĠĠĠĠĠĠĠĠĠĠĠĠĠĠĠĠĠĠĠĠĠĠĠĠĠĠĠĠĠĠĠĠĠĠĠĠĠĠĠĠĠĠ": 9956,
    "wrath": 23758,
    "Ġthroat": 7771,
    "conditional": 9081,
    "Ġdames": 23475,
    "ued": 7562,
    "pered": 4196,
    "Ġproc": 5545,
    "Ġplaintiffs": 13613,
    "arth": 4443,
    "ylon": 24978,
    "Ġinducement": 16845,
    "Ġkidn": 20208,
    "Ġantichronical": 26611,
    "Ġseem": 914,
    "Ġimpregn": 26023,
    "atiable": 17776,
    "Ġsuspects": 16892,
    "ences": 1263,
    "Ġhooked": 19081,
    "Ġintric": 9250,
    "chel": 11209,
    "contrivance": 26317,
    "Ġapproached": 5844,
    "Ġnantucketers": 9898,
    "ledyard": 22396,
    "Ġlouis": 8357,
    "Ġmassacre": 20550,
    "ituted": 13876,
    "explanation": 12362,
    "Ġpertur": 12855,
    "confirmed": 19643,
    "Ġtyph": 10011,
    "forward": 2187,
    "Ġclapham": 17268,
    "Ġcommonly": 3266,
    "Ġcrash": 12006,
    "Ġ2026": 12339,
    "Ġze": 8547,
    "Ġexertions": 13414,
    "Ġcrater": 16438,
    "Ġfive": 2838,
    "Ġdesert": 6728,
    "Ġequilibrium": 4140,
    "Ġ56": 24320,
    "Ġblows": 5974,
    "Ġimpotent": 18447,
    "Ġquart": 11791,
    "ibule": 13012,
    "Ġworst": 7444,
    "notwithstanding": 22756,
    "Ġsooner": 5573,
    "avers": 17483,
    "Ġramsgate": 18649,
    "Ġintrospect": 15832,
    "Ġperceived": 4712,
    "Ġsouthampton": 24309,
    "unaffected": 21887,
    "omically": 13983,
    "iting": 2157,
    "Ġpredecess": 18518,
    "Ġbutter": 6842,
    "Ġfainter": 14917,
    "Ġpursu": 3240,
    "Ġpolitely": 8996,
    "Ġmansion": 17811,
    "Ġuniformity": 23485,
    "Ġintelligently": 4275,
    "intercourse": 14640,
    "Ġplead": 14459,
    "rel": 3755,
    "Ġdisturb": 7109,
    "Ġstalked": 20432,
    "Ġhack": 12761,
    "Ġconstrained": 19242,
    "Ġamber": 7028,
    "Ġprecipitate": 19945,
    "Ġveracity": 23892,
    "Ġbery": 13901,
    "Ġclanging": 18423,
    "Ġgener": 595,
    "Ġjest": 18404,
    "stationed": 25454,
    "elevating": 20409,
    "Ġminers": 22835,
    "Ġcanall": 10930,
    "Ġleadenhall": 16631,
    "oftentimes": 19424,
    "Ġgull": 15674,
    "ostent": 16848,
    "Ġindestructible": 26574,
    "Ġaccounting": 14574,
    "Ġlowered": 6737,
    "Ġfootmen": 23799,
    "Ġsunbeam": 23278,
    "Ġrem": 956,
    "Ġliable": 14231,
    "supers": 22644,
    "hunt": 20905,
    "neglected": 25669,
    "Ġexchanged": 10880,
    "fleet": 15016,
    "Ġvint": 18195,
    "Ġpatentee": 25587,
    "ĠdÃ¦mon": 7844,
    "ille": 9222,
    "Ġbanished": 10619,
    "Ġflight": 6582,
    "according": 12032,
    "Ġadhes": 22107,
    "possess": 5985,
    "wide": 10140,
    "Ġdummy": 25450,
    "Ġric": 18212,
    "Ġseized": 4833,
    "Ġparticular": 2447,
    "Ġentreating": 24210,
    "on": 267,
    "exhibited": 18479,
    "Ġmottled": 20681,
    "Ġpremium": 23908,
    "Ġwines": 21290,
    "Ġascertained": 25297,
    "admire": 24946,
    "Ġextracted": 16304,
    "hy": 4738,
    "Ġundivided": 24123,
    "Ġra": 823,
    "onent": 21251,
    "Ġpilgr": 12185,
    "Ġseams": 12129,
    "headsman": 16699,
    "Ġpolished": 11184,
    "Ġclim": 8195,
    "slave": 16897,
    "Ġostentatiously": 20472,
    "Ġconnected": 5393,
    "idays": 21774,
    "Ġscales": 4849,
    "Ġinsignificance": 20460,
    "Ġproducts": 5198,
    "sneezes": 11448,
    "Ġ235": 25712,
    "Ġthro": 5818,
    "Ġheartfelt": 18969,
    "Ġwrithing": 11950,
    "Ġblessed": 6931,
    "ana": 15563,
    "Ġirene": 8445,
    "Ġwoodlands": 23522,
    "Ġwho": 612,
    "shish": 11797,
    "Ġforbearing": 25101,
    "Ġblinded": 13275,
    "Ġautonom": 10412,
    "itically": 21333,
    "Ġ112": 24437,
    "ropes": 7903,
    "attending": 18918,
    "Ġsurely": 6309,
    "Ġdin": 3628,
    "Ġsubstituting": 26328,
    "striking": 13444,
    "Ġpeaking": 22693,
    "Ġterr": 3275,
    "Ġsneezes": 24697,
    "labours": 16619,
    "Ġarchitectures": 2911,
    "regarding": 15075,
    "trembling": 17145,
    "kine": 15379,
    "igin": 3659,
    "Ġshipping": 14107,
    "Ġreconcile": 25292,
    "Ġfelicity": 7260,
    "orial": 8418,
    "Ġrepenting": 25323,
    "Ġperiod": 4004,
    "gment": 4390,
    "Ġfather": 1450,
    "Ġtasted": 12534,
    "sunlight": 24852,
    "Ġstockings": 20000,
    "formality": 22228,
    "Ġpowers": 5419,
    "ceiling": 21630,
    "longbourn": 9899,
    "Ġmaintains": 2144,
    "ode": 1453,
    "letons": 14615,
    "kerchief": 7526,
    "Ġintellectual": 11403,
    "Ġdeed": 7868,
    "Ġdes": 1247,
    "clean": 14763,
    "lac": 17591,
    "Ġaccorded": 24093,
    "Ġberth": 8683,
    "Ġdraws": 19439,
    "acted": 11012,
    "Ġcoldly": 14652,
    "Ġsurpl": 19134,
    "Ġspe": 820,
    "Ġens": 2789,
    "Ġconfess": 3768,
    "abomin": 15746,
    "Ġpicturesque": 14897,
    "servant": 15038,
    "Ġelapsed": 7654,
    "Ġath": 15805,
    "preserver": 20216,
    "Ġke": 1154,
    "Ġkn": 4545,
    "Ġhookah": 16972,
    "Ġinitial": 821,
    "Ġirritated": 17244,
    "Ġsweating": 16464,
    "Ġacted": 7422,
    "endent": 15926,
    "Ġothers": 2582,
    "apers": 3482,
    "Ġpreside": 18366,
    "wild": 8771,
    "Ġhipp": 21495,
    "remembrance": 25703,
    "Ġteaching": 10367,
    "Ġhardest": 18914,
    "alizing": 17942,
    "Ġnorton": 12654,
    "reckoning": 25271,
    "ager": 6548,
    "Ġblasphemer": 26117,
    "mitted": 5213,
    "size": 15427,
    "ulance": 15771,
    "weight": 2941,
    "rudence": 7094,
    "Ġscents": 22291,
    "Ġbuilding": 8063,
    "Ġargument": 7100,
    "obvious": 9360,
    "ortations": 22262,
    "inence": 15484,
    "Ġmatrimonial": 25490,
    "Ġcurly": 18855,
    "vicious": 21121,
    "Ġstare": 10866,
    "leads": 21373,
    "Ġtriumph": 5143,
    "Ġbetray": 7442,
    "Ġfriendship": 7246,
    "Ġhisself": 21918,
    "Ġbelshazzar": 16229,
    "Ġbrass": 11050,
    "blue": 13697,
    "Ġbackground": 18650,
    "Ġvariously": 18654,
    "Ġprocure": 9513,
    "missionary": 24616,
    "Ġchamounix": 14867,
    "Ġwhat": 601,
    "Ġcentre": 5123,
    "Ġreveren": 13201,
    "Ġculprit": 26173,
    "Ġoh": 2176,
    "staff": 21653,
    "acquaintance": 6938,
    "Ġmult": 1022,
    "arched": 10817,
    "not": 911,
    "puzzling": 26144,
    "oysius": 14368,
    "ires": 6039,
    "consternation": 16914,
    "Ġyields": 19659,
    "Ġcollect": 7237,
    "Ġcreating": 2999,
    "thus": 5158,
    "Ġtass": 15472,
    "Ġcollectively": 19971,
    "Ġadvisable": 11444,
    "ree": 874,
    "windows": 19537,
    "Ġcontaining": 2231,
    "zwilliam": 5074,
    "Ġfitly": 24004,
    "Ġwont": 9855,
    "Ġpistol": 7847,
    "Ġhereby": 10360,
    "ĳ": 244,
    "Ġmannish": 26239,
    "Ġhogarth": 25781,
    "Ġunreasonable": 12781,
    "Ġmonosy": 18846,
    "Ġfleet": 9435,
    "Ġscarce": 8625,
    "Ġvag": 9711,
    "Ġmadame": 13154,
    "ric": 1374,
    "Ġtrials": 16791,
    "specim": 23948,
    "Ġdistorted": 14252,
    "Ġante": 17898,
    "Ġfedallah": 6110,
    "Ġbold": 5293,
    "Ġthem": 639,
    "aphs": 22339,
    "Ġbands": 14887,
    "Ġsuccor": 25663,
    "turbable": 24531,
    "Ġseething": 18204,
    "fo": 5279,
    "Ġmistakes": 16543,
    "Ġcinque": 20489,
    "erately": 21276,
    "cating": 20804,
    "ations": 710,
    "Ġones": 3024,
    "Ġcravat": 26308,
    "Ġeffusions": 18541,
    "Ġdissuade": 26258,
    "Ġpublisher": 24070,
    "sixteen": 24854,
    "inquiries": 13581,
    "Ġhimself": 1353,
    "subs": 14305,
    "Ġperched": 10302,
    "Ġexempt": 21832,
    "Ġreproachfully": 25252,
    "ggy": 13118,
    "Ġdangerous": 6615,
    "zz": 4293,
    "atement": 17775,
    "Ġhearse": 10422,
    "Ġdaboll": 25951,
    "away": 4624,
    "hilar": 25084,
    "Ġessex": 20130,
    "Ġrascal": 11706,
    "afraid": 10443,
    "Ġcommencement": 12243,
    "abby": 14024,
    "Ġunrolled": 22038,
    "Ġindef": 9192,
    "strom": 15687,
    ",âĢĿ": 580,
    "Ġfrom": 434,
    "Ġcoars": 14277,
    "hoped": 20912,
    "Ġscuffle": 20611,
    "Ġimplac": 24875,
    "Ġflower": 16235,
    "ė": 216,
    "Ġgips": 10843,
    "Ġexhilarating": 26339,
    "Ġunwonted": 15010,
    "Ġstreet": 2959,
    "ø": 185,
    "sufficiently": 14984,
    "Ġloses": 15877,
    "Ġcontents": 7210,
    "ver": 331,
    "Ġap": 5008,
    "Ġofficial": 7083,
    "Ġenergy": 2552,
    "widely": 25344,
    "Ġcombined": 8551,
    "Ġacknowledged": 7535,
    "Ġgoin": 18469,
    "strangely": 17279,
    "Ġtamely": 24980,
    "blades": 24133,
    "Ġpagan": 7119,
    "Ġostentatious": 25737,
    "Ġlab": 1873,
    "distinct": 13340,
    "animation": 16981,
    "Ġfingertips": 24022,
    "Ġpreaching": 15930,
    "Ġoaken": 13868,
    "Ġsnapping": 19303,
    "vable": 10135,
    "chie": 21693,
    "harpoon": 9494,
    "etieth": 21587,
    "Ġcrazy": 8596,
    "Ġbarely": 16938,
    "magnificent": 20277,
    "Ġappropriate": 2248,
    "umpled": 15880,
    "Ġinfernal": 11966,
    "Ġjour": 11768,
    "Ġincreases": 3798,
    "ched": 1546,
    "decan": 22144,
    "Ġblock": 2575,
    "Ġrelish": 14387,
    "publ": 17640,
    "snatched": 24851,
    "touching": 15095,
    "Ġrelieve": 8223,
    "Ġfundamentals": 14637,
    "Ġsunshine": 14496,
    "conception": 22482,
    "erting": 17779,
    "emb": 11693,
    "Ġcentral": 7728,
    "Ġto": 297,
    "Ġresistance": 13533,
    "Ġorlop": 22097,
    "helping": 23145,
    "ushing": 5730,
    "Ġate": 8844,
    "Ġdeadly": 5405,
    "snapping": 24850,
    "Ġhalls": 19528,
    "Ġunconcerned": 20513,
    "Ġdiscovery": 5412,
    "Ġseamen": 5063,
    "Ġgum": 21598,
    "Ġghost": 6144,
    "agery": 21911,
    "ĠĠĠĠĠĠĠĠĠĠĠĠĠĠĠĠĠĠĠĠĠĠĠĠĠĠ": 13392,
    "Ġbolts": 16945,
    "miss": 3174,
    "Ġengraving": 17081,
    "Ġexclam": 6759,
    "harbors": 20151,
    "Ġdumb": 7843,
    "Ġanon": 9669,
    "engthen": 14461,
    "Ġloungers": 24863,
    "Ġaffront": 18790,
    "Ġmonica": 22983,
    "Ġcleaving": 23183,
    "Ġmoses": 21318,
    "superstitious": 17283,
    "norm": 20987,
    "Ġleaning": 5228,
    "ivering": 7699,
    "Ġplaus": 22602,
    "isco": 12586,
    "fooled": 24419,
    "con": 654,
    "Ġartistic": 18613,
    "utmost": 21591,
    "Ġhelping": 3269,
    "went": 6513,
    "charge": 9452,
    "Ġamounted": 18514,
    "isure": 6242,
    "Ġastonishment": 4793,
    "Ġminim": 1324,
    "Ġshillings": 15839,
    "Ġlivel": 11357,
    "Ġspilling": 22141,
    "rift": 11522,
    "Ġweeping": 11690,
    "contrasted": 17309,
    "Ġcomputing": 2219,
    "Ġpermitted": 9281,
    "rip": 9244,
    "Ġcheered": 16375,
    "Ġrapidly": 3489,
    "Ġcarrying": 6073,
    "Ġfrightful": 7736,
    "watch": 6120,
    "Ġjavelins": 26106,
    "itan": 10162,
    "Ġjud": 3359,
    "Ġresigned": 9771,
    "Ġsubject": 2464,
    "Ġindependent": 9019,
    "Ġauger": 21206,
    "idirection": 2408,
    "direction": 17526,
    "tures": 21072,
    "Ġpink": 12623,
    "Ġmule": 13865,
    "Ġpreventing": 885,
    "Ġperseverance": 13601,
    "Ġline": 1851,
    "Ġsculpture": 26017,
    "Ġspectators": 19410,
    "Ġunceasing": 20361,
    "Ġprocedures": 9415,
    "Ġparl": 8178,
    "Ġpersuasions": 16634,
    "Ġinsufficient": 9675,
    "diff": 9116,
    "Ġobed": 8538,
    "Ġorphans": 20207,
    "total": 17253,
    "Ġswept": 7978,
    "Ġkindling": 19035,
    "Ġamid": 4959,
    "requent": 3653,
    "Ġsupreme": 13611,
    "Ġbirch": 26175,
    "cap": 8373,
    "lamp": 9611,
    "Ġcommon": 1412,
    "Ġsucc": 12788,
    "Ġsine": 10765,
    "ribute": 7225,
    "Ġassurance": 7775,
    "Ġsunk": 5752,
    "Ġreproached": 24892,
    "Ġmaker": 15547,
    "inea": 7624,
    "tormented": 13649,
    "Ġmerged": 19299,
    "±": 114,
    "voc": 8394,
    "skelter": 24490,
    "bale": 20776,
    "Ġpreposterous": 13673,
    "Ġindisposed": 26290,
    "fright": 9598,
    "Ġroarings": 25302,
    "Ġinclud": 1511,
    "source": 11528,
    "raged": 9214,
    "penet": 11072,
    "shows": 22450,
    "during": 6788,
    "Ġarrogance": 26233,
    "Ġcontemplated": 13468,
    "sper": 4435,
    "Ġcompunction": 18587,
    "olstadt": 7789,
    "Ġfavoured": 16367,
    "Ġiceberg": 14719,
    "may": 3682,
    "serv": 7451,
    "machine": 990,
    "Ġquartered": 20376,
    "Ġstarted": 4149,
    "Ġcomplement": 23712,
    "Ġrevelations": 25224,
    "Ġapartment": 6636,
    "Ġadrift": 11726,
    "face": 3680,
    "Ġanew": 11432,
    "rabbit": 20594,
    "Ġdifferences": 18714,
    "false": 15358,
    "abash": 18110,
    "Ġbleached": 24396,
    "Ġshores": 8852,
    "species": 13262,
    "acity": 5734,
    "Ġalso": 1346,
    "Ġlatin": 16823,
    "Ġerrand": 11087,
    "wa": 5898,
    "Ġdaggoo": 5441,
    "stains": 11639,
    "Ġmuhammad": 26170,
    "Ġsquatted": 25843,
    "Ġneedless": 19232,
    "Ġgrey": 4512,
    "Ġtrunks": 15980,
    "function": 4859,
    "Ġisol": 8838,
    "Ġvirginia": 13503,
    "Ġconference": 15751,
    "inguished": 6600,
    "Ġcultiv": 13560,
    "Ġunhinged": 26218,
    "Ġpasses": 2681,
    "eryton": 4095,
    "Ġtheoretic": 23314,
    "sax": 21059,
    "Ġitem": 12706,
    "readers": 23850,
    "Ġnatural": 1120,
    "Ġblend": 14401,
    "Ġwoeful": 19622,
    "mole": 22704,
    "Ġswaying": 15049,
    "Ġsending": 8779,
    "Ġarmy": 11745,
    "Ġobjective": 3767,
    "Ġsilent": 3412,
    "Ġparties": 7040,
    "Ġdungeon": 16998,
    "prophecy": 22851,
    "pulling": 25149,
    "sford": 5999,
    "Ġlose": 5028,
    "Ġsketches": 26272,
    "Ġcreditor": 24292,
    "spanish": 14336,
    "appearing": 14639,
    "rec": 6005,
    "lucases": 20213,
    "Ġslappin": 18945,
    "Ġbrawn": 10484,
    "Ġinjuring": 24271,
    "Ġinnocent": 4922,
    "plex": 708,
    "Ġglobu": 23274,
    "Ġcomfort": 3439,
    "Ġshirr": 18232,
    "tallied": 21092,
    "direful": 25897,
    "Ġdumplings": 15194,
    "Ġstaff": 14009,
    "ran": 11518,
    "Ġnum": 1350,
    "Ġsober": 10913,
    "Ġsund": 8249,
    "Ġzig": 18743,
    "arse": 7161,
    "Ġundeceive": 25553,
    "min": 4570,
    "ython": 1030,
    "Ġspr": 4025,
    "Ġconveniently": 20082,
    "Ġyield": 5093,
    "Ġensemble": 1610,
    "Ġfrancisco": 26065,
    "Ġetext": 23955,
    "Ġrecoil": 18691,
    "oqu": 7556,
    "entieth": 17981,
    "Ġdagger": 21440,
    "Ġcour": 1772,
    "precious": 12077,
    "Ġundoing": 22035,
    "pinn": 21028,
    "Ġundergone": 18987,
    "Ġdaughters": 4422,
    "Ġworld": 1599,
    "relics": 24020,
    "ifle": 10893,
    "Ġdisrespect": 18554,
    "Ġwomen": 4749,
    "Ġoccasions": 7988,
    "Ġunseasonable": 26522,
    "Ġwight": 12558,
    "Ġtrucks": 19515,
    "dred": 2528,
    "fri": 20856,
    "Ġe": 311,
    "Ġconsoling": 19460,
    "Ġmoods": 14954,
    "Ġcontinents": 16851,
    "Ġcassock": 20490,
    "Ġoptimizers": 18621,
    "Ġarrow": 10933,
    "Ġsparkled": 13466,
    "Ġpressing": 9264,
    "Ġexclaim": 11223,
    "neighbours": 24882,
    "Ġadult": 18290,
    "ulations": 6030,
    "Ġprom": 1528,
    "Ġdarling": 12609,
    "Ġbarriers": 23796,
    "Ġointment": 21329,
    "Ġvillage": 5774,
    "Ġcounty": 9033,
    "good": 2900,
    "exe": 11793,
    "Ġorb": 22095,
    "rub": 15897,
    "sies": 21057,
    "Ġretrieval": 10677,
    "Ġdistrustful": 25057,
    "Ġunderstanding": 1790,
    "Ġconsec": 21809,
    "Ġwits": 15535,
    "Ġobjectionable": 16993,
    "Ġlegisl": 23535,
    "Ġhopeless": 7463,
    "Ġvictor": 5125,
    "Ġmathemat": 3202,
    "handsome": 13182,
    "itia": 11582,
    "tland": 21076,
    "jub": 20931,
    "Ġretired": 6072,
    "Ġcusack": 26435,
    "Ġpliny": 11829,
    "Ġbreath": 4790,
    "Ġrelent": 18776,
    "versed": 9828,
    "fishers": 24929,
    "audible": 17135,
    "hateful": 20911,
    "Ġstrateg": 1384,
    "Ġwhirled": 14963,
    "Ġwaifing": 25244,
    "Ġaug": 6236,
    "Ġdiverted": 14594,
    "itled": 7579,
    "Ġpeculiarity": 12938,
    "terrific": 25043,
    "Ġsolitary": 5856,
    "jure": 20926,
    "Ġabout": 633,
    "passage": 11263,
    "mund": 13761,
    "Ġarsac": 11746,
    "Ġpause": 5707,
    "Ġdormouse": 4926,
    "mured": 6960,
    "Ġrepugnant": 26592,
    "Ġlogic": 13082,
    "Ġsigned": 11179,
    "ixed": 4851,
    "Ġusurpation": 18362,
    "Ġdefy": 11901,
    "Ġsketch": 16169,
    "ã": 164,
    "âĢĿ": 353,
    "comprehens": 16180,
    "Ġproof": 6155,
    "Ġmiz": 10779,
    "utterly": 20015,
    "Ġladyship": 5046,
    "Ġparc": 10922,
    "Ġperforming": 7928,
    "unworthy": 18164,
    "Ġdispose": 23882,
    "Ġemergency": 25731,
    "Ġbegg": 16257,
    "Ġremarked": 3698,
    "romang": 22009,
    "looking": 4033,
    "Ġbottles": 16573,
    "Ġdinn": 23986,
    "hunter": 10558,
    "Ġlapse": 17123,
    "aboard": 21798,
    "Ġbottomless": 12111,
    "vit": 13804,
    "Ġnormalizes": 1865,
    "Ġtension": 13827,
    "trade": 19647,
    "?âĢĶ": 3469,
    "Ġneeded": 7718,
    "Ġconvinced": 4204,
    "Ġ81": 24457,
    "Ġbusily": 9387,
    "uteronomy": 15668,
    "Ġmorning": 1750,
    "hears": 12538,
    "ellations": 21948,
    "brew": 11475,
    "Ġdefines": 1742,
    "Ġdescribed": 6608,
    "Ġholidays": 22925,
    "Ġsocially": 22091,
    "Ġgets": 10841,
    "Ġtraitors": 23079,
    "black": 6769,
    "represented": 20198,
    "iliar": 15718,
    "Ġhellish": 10553,
    "Ġsincere": 11138,
    "rushed": 10587,
    "gal": 15359,
    "Ġtrouble": 3693,
    "ment": 685,
    "Ġcomprises": 22577,
    "Ġpraised": 19556,
    "barrels": 15044,
    "excellent": 8044,
    "algorithms": 8293,
    "bene": 6114,
    "Ġviciss": 11294,
    "blown": 25202,
    "Ġchr": 3691,
    "ias": 6364,
    "emph": 21932,
    "interrupted": 11419,
    "Ġchina": 8040,
    "procure": 23400,
    "Ġrejection": 19987,
    "Ġsensational": 16395,
    "james": 15376,
    "Ġgrec": 18963,
    "less": 928,
    "Ġknowest": 12868,
    "Ġdeacon": 18143,
    "Ġgallop": 19558,
    "hered": 5623,
    "Ġraise": 6168,
    "Ġrecovery": 11443,
    "hies": 17562,
    "fam": 5990,
    "Ġarbit": 4649,
    "white": 4601,
    "mission": 5971,
    "Ġdiabol": 11455,
    "Ġinside": 5448,
    "Ġpanic": 11288,
    "Ġhonourable": 10458,
    "Ġwired": 17788,
    "Ġdiscerned": 25006,
    "y": 93,
    "Ġhoarsely": 26303,
    "Ġpoultry": 17444,
    "Ġvillainous": 25134,
    "Ġominous": 12428,
    "Ġsnoring": 23742,
    "rue": 1133,
    "itt": 570,
    "Ġeurope": 8062,
    "Ġconce": 3423,
    "horror": 13163,
    "ede": 21509,
    "acknowledging": 25477,
    "Ġevolve": 3005,
    "Ġabridged": 26542,
    "Ġsumm": 3357,
    "eded": 9676,
    "Ġearth": 2851,
    "opÃ¦": 12874,
    "ĠĠĠĠĠĠĠĠĠĠĠĠĠĠĠĠĠĠĠĠĠĠĠĠĠĠĠĠĠĠĠĠĠĠĠĠĠĠĠĠĠĠĠĠĠĠĠĠĠ": 20041,
    "afterwards": 7485,
    "Ġknight": 9730,
    "Ġlooking": 2473,
    "Ġinformed": 6719,
    "Ġbehaviors": 13260,
    "ò": 179,
    "Ġcompass": 4408,
    "waves": 10744,
    "Ġamazed": 14892,
    "Ġmethodic": 23189,
    "Ġgreatness": 12949,
    "Ġapproximate": 2337,
    "ton": 1727,
    "Ġinstructing": 3124,
    "Ġune": 4597,
    "cial": 2649,
    "Ġthrust": 5084,
    "Ġwidest": 24237,
    "Ġjinglers": 26019,
    "Ġbarrel": 23793,
    "Ġravings": 18647,
    "ishmael": 18421,
    "Ġparticularly": 5056,
    "Ġwapping": 21297,
    "Ġmuster": 16126,
    "gely": 10702,
    "Ġsparkling": 11358,
    "Ġreeling": 18035,
    "Ġfaulty": 14910,
    "Ġrescue": 13347,
    "Ġlam": 21552,
    "Ġcomponents": 8897,
    "Ġmowers": 17814,
    "kept": 11721,
    "Ġconcocted": 26300,
    "Ġtongues": 14866,
    "individual": 18437,
    "Ġgrimes": 11036,
    "Ġobvious": 4964,
    "Ġdine": 7366,
    "Ġpitches": 23905,
    "Ġdissatisfied": 14259,
    "Ġdif": 871,
    "hurrying": 14986,
    "Ġmove": 5107,
    "Ġrecording": 24434,
    "Ġhop": 1460,
    "frost": 15110,
    "Ġscenari": 22296,
    "numerous": 17434,
    "ian": 1236,
    "Ġprivate": 5346,
    "Ġbus": 1905,
    "Ġbarbarians": 19590,
    "cks": 3082,
    "Ġungenerous": 18264,
    "Ġsorting": 3234,
    "design": 19343,
    "semicirc": 26493,
    "glo": 8741,
    "Ġfavourably": 16368,
    "Ġlegend": 14576,
    "pad": 13771,
    "acon": 10684,
    "dreadful": 11423,
    "aze": 10078,
    "Ġcentury": 8291,
    "eff": 2535,
    "Ġhedgehogs": 25395,
    "rowsers": 8698,
    "ï": 176,
    "Ġdepend": 784,
    "Ġdecency": 18482,
    "nights": 16449,
    "neville": 22464,
    "Ġamidst": 9497,
    "Ġintended": 5548,
    "Ġindustry": 18839,
    "shown": 22448,
    "Ġlessen": 14534,
    "Ġambergris": 8709,
    "Ġtren": 17723,
    "searching": 25106,
    "univers": 15776,
    "Ġrestricted": 19033,
    "anged": 3591,
    "Ġpowdered": 24240,
    "Ġsarat": 21230,
    "Ġunchanged": 22031,
    "mere": 11859,
    "anter": 9169,
    "Ġtreating": 4284,
    "Ġger": 21594,
    "Ġtents": 13821,
    "phew": 6369,
    "splice": 17173,
    "she": 1396,
    "countenance": 6925,
    "relation": 19450,
    "Ġprescribed": 26011,
    "Ġmortals": 9919,
    "Ġupdate": 2463,
    "Ġletters": 3795,
    "gia": 20878,
    "Ġsailors": 4277,
    "verest": 13994,
    "Ġber": 5698,
    "Ġindic": 2887,
    "tips": 13799,
    "spout": 7923,
    "absent": 21793,
    "Ġenc": 966,
    "Â·": 21152,
    "erxes": 21278,
    "Ġforked": 11667,
    "Ġtuning": 3075,
    "Ġclutched": 13522,
    "icating": 15659,
    "ĠĠĠĠĠĠĠĠĠĠĠĠĠĠĠĠĠĠĠĠĠĠĠĠĠĠĠĠĠĠĠĠ": 2739,
    "Ġparticip": 16135,
    "apping": 5853,
    "Ġmatrim": 11062,
    "whispered": 20037,
    "cr": 4013,
    "Ġcloth": 9746,
    "Ġperusal": 14227,
    "Ġalpha": 13592,
    "Ġantelope": 24183,
    "imely": 14001,
    "Ġtrooped": 24900,
    "darkness": 9515,
    "Ġprofound": 5497,
    "Ġcylinders": 25944,
    "Ġpurchasing": 19877,
    "Ġfeigned": 22212,
    "married": 9952,
    "declare": 25174,
    "Ġprinted": 11953,
    "avier": 2832,
    "Ġmich": 21308,
    "hundreds": 25076,
    "ien": 10104,
    "/(": 2985,
    "Ġhaunts": 18199,
    "Ġsyllables": 25299,
    "Ġnursery": 19753,
    "Ġgurgling": 17449,
    "desper": 13223,
    "Ġconjectured": 10000,
    "Ġsave": 4051,
    "deserted": 19344,
    "or": 282,
    "Ġincreas": 1695,
    "Ġsluggishly": 25892,
    "Ġseeing": 2885,
    "atics": 15526,
    "Ġimpunity": 14219,
    "Ġtheories": 13852,
    "Ġsally": 15505,
    "Ġcommunity": 19011,
    "Ġborder": 10172,
    "Ġdragged": 6889,
    "Ġsires": 21229,
    "becomes": 22500,
    "Ġload": 14148,
    "turner": 19544,
    "six": 7143,
    "ifice": 7198,
    "Ġsees": 8847,
    "ings": 631,
    "Ġpours": 17912,
    "Ġhat": 2774,
    "Ġbackgammon": 22667,
    "/`": 12433,
    "ibly": 2998,
    "sterdam": 19091,
    "up": 1283,
    "uneven": 23685,
    "depend": 9115,
    "Ġuttermost": 19491,
    "advise": 24220,
    "Ġsenor": 20153,
    "Ġthreats": 13381,
    "ceptible": 10960,
    "Ġforce": 5092,
    "Ġinfallible": 15074,
    "Ġfrench": 4939,
    "Ġdyspeps": 16488,
    "Ġoffering": 3010,
    "immediate": 20097,
    "erick": 13851,
    "Ġcrucifix": 26080,
    "swimming": 24261,
    "inging": 5908,
    "wonder": 6372,
    "Ġmysteries": 11324,
    "interests": 19711,
    "Ġcharger": 19007,
    "thodox": 21992,
    "Ġshrill": 12146,
    "reported": 24493,
    "freighted": 14895,
    "Ñ": 146,
    "down": 3470,
    "Ġcontemptuously": 19836,
    "uiperai": 10666,
    "Ġtartar": 17325,
    "vert": 15719,
    "otions": 7181,
    "Ġloun": 7167,
    "Ġyoungster": 23181,
    "Ġsomewhere": 5384,
    "Ġapprove": 12878,
    "raised": 15683,
    "Ġlengths": 19209,
    "Ġdealing": 14048,
    "Ġstrewed": 23424,
    "Ġmischief": 8544,
    "Ġconcrete": 20639,
    "extensive": 18709,
    "accomplishments": 25327,
    "Ġfordham": 21780,
    "Ġshudder": 9053,
    "mathematics": 26305,
    "Ġsar": 21216,
    "Ġadequately": 15202,
    "cerem": 15682,
    "Ġprosper": 10232,
    "18": 20753,
    "ineff": 21970,
    "aking": 974,
    "Ġinfluences": 14868,
    "Ġhappy": 2465,
    "ways": 1441,
    "hatchet": 24819,
    "Ġblasts": 19999,
    "Ġdo": 511,
    "ties": 2760,
    "Ġshrouds": 11346,
    "Ġholds": 7976,
    "Ġbase": 5013,
    "serve": 13052,
    "Ġbachelors": 24861,
    "Ġmedicine": 15210,
    "succeed": 10331,
    "Ġirresolution": 24916,
    "moid": 2448,
    "Ġtread": 9412,
    "Ġmanxman": 9568,
    "finer": 17548,
    "Ġexper": 1297,
    "Ġsubl": 7235,
    "ascended": 24705,
    "Ġpreceding": 7529,
    "between": 5071,
    "Ġchilled": 18382,
    "glad": 9011,
    "cd": 15326,
    "Ġ13": 6720,
    "Ġsashes": 21228,
    "Ġemph": 14527,
    "Ġaqu": 17744,
    "Ġreceive": 4702,
    "Ġwitnessing": 19601,
    "Ġregulate": 22584,
    "Ġruined": 12959,
    "Ġcounted": 12144,
    "disappointment": 11427,
    "Ġphilipses": 24452,
    "Ġheadsmen": 14735,
    "Ġassu": 21903,
    "culous": 11142,
    "Ġnaturalist": 22898,
    "wid": 10137,
    "whisper": 17084,
    "Ġsucceed": 4544,
    "Ġvanquished": 22876,
    "Ġveritable": 19384,
    "Ġbroiled": 18910,
    "aston": 7408,
    "Ġballs": 9018,
    "Ġsudden": 1997,
    "Ġintimidated": 24802,
    "alloyed": 22205,
    "Ġentit": 22745,
    "Ġtragedy": 10670,
    "solely": 19819,
    "iled": 1768,
    "Ġponies": 21478,
    "fetch": 12469,
    "gorge": 22342,
    "entropy": 1437,
    "Ġrosings": 4606,
    "intelligent": 16846,
    "Ġstart": 3260,
    "Ġwallowed": 24047,
    "Ġsofas": 26226,
    "ww": 10739,
    "Ġparade": 18302,
    "Ġrending": 19470,
    "Ġdint": 15595,
    "Ġwounds": 17792,
    "bourn": 3303,
    "bottom": 11428,
    "personal": 24966,
    "Ġhealth": 3905,
    "Ġcataract": 23430,
    "Ġdiscretion": 10350,
    "Ġutil": 4671,
    "Ġloitered": 26527,
    "Ġma": 3254,
    "atiously": 15525,
    "Ġconsisting": 8974,
    "fury": 17549,
    "Ġcoral": 11926,
    "Ġhundreds": 4328,
    "Ġunche": 23431,
    "Ġsalut": 10512,
    "mbl": 5947,
    "Ġunctuousness": 17237,
    "broker": 13309,
    "Ġrolls": 8334,
    "itely": 5365,
    "Ġmoot": 22436,
    "tor": 15435,
    "Ġreciprocating": 26371,
    "forbearance": 22795,
    "reast": 17760,
    "capital": 15092,
    "Ġworm": 9165,
    "Ġmanufact": 22332,
    "paradise": 20640,
    "Ġcannib": 6037,
    "eding": 7166,
    "Ġdrink": 4786,
    "Ġpres": 9735,
    "ago": 14068,
    "racting": 10354,
    "utherland": 9581,
    "rent": 1169,
    "Ġcautious": 12258,
    "further": 7536,
    "Ġspl": 2987,
    "Ġbidirectional": 3756,
    "Ġcomposure": 7217,
    "Ġwarnings": 16883,
    "Ġgovernments": 20270,
    "piteous": 21036,
    "eers": 20845,
    "Ġaccurately": 3954,
    "affection": 7488,
    "Ġderives": 16312,
    "ann": 5803,
    "Ġfe": 490,
    "Ġtraffic": 23085,
    "saturday": 14861,
    "Ġblame": 6447,
    "Ġair": 1836,
    "ches": 2148,
    "Ġlethargy": 26485,
    "cut": 3125,
    "Ġobsole": 22701,
    "Ġframework": 1945,
    "ertips": 23641,
    "iscuit": 10601,
    "likelihood": 4992,
    "Ġide": 2124,
    "Ġstro": 4594,
    "prevailed": 17348,
    "Ġapprovingly": 26252,
    "Ġdenote": 19335,
    "Ġachieve": 3676,
    "Ġbuffalo": 11431,
    "Ġsumatra": 15290,
    "Ġaffectation": 14443,
    "Ġburnished": 24003,
    "Ġdefinitions": 22947,
    "Ġcate": 4110,
    "Ġcombing": 22853,
    "trunk": 23953,
    "benevolent": 15237,
    "condemned": 26061,
    "Ġpostpone": 17310,
    "Ġlightened": 23264,
    "Ġwarped": 25038,
    "Ġlatitude": 8329,
    "sex": 12718,
    "Ġgossip": 18470,
    "ignomin": 23269,
    "Ġgrie": 3587,
    "Ġcontinues": 18810,
    "Ġapothecary": 13663,
    "Ġguido": 2979,
    "works": 6589,
    "Ġdancing": 5703,
    "Ġabstraction": 26541,
    "Ġfilled": 4394,
    "Ġregularizer": 2334,
    "--âĢľ": 12977,
    "fur": 6357,
    "Ġdevouring": 11862,
    "Ġstories": 10867,
    "Ġadmir": 12026,
    "bbing": 6325,
    "teringly": 21827,
    "representing": 25272,
    "Ġhugest": 17017,
    "Ġlounging": 10025,
    "lee": 11588,
    "Ġvexatious": 19784,
    "Ġporing": 21469,
    "Ġbatch": 890,
    "endless": 22230,
    "Ġresiding": 16065,
    "Ġidentical": 10436,
    "Ġtemple": 7655,
    "Ġsix": 3047,
    "Ġnosegay": 24195,
    "Ġcrowd": 6338,
    "Ġnineveh": 13393,
    "hroom": 12481,
    "cially": 3492,
    "Ġdeprec": 15762,
    "Ġmaintainable": 12940,
    "Ġemptied": 24347,
    "itement": 7835,
    "Ġpatroness": 13513,
    "madam": 24421,
    "idy": 21768,
    "atig": 13848,
    "Ġunduly": 25995,
    "Ġpropontis": 17468,
    "itic": 11581,
    "Ġindignantly": 16941,
    "Ġoceans": 7996,
    "Ġcries": 7155,
    "Ġchair": 3665,
    "chorus": 19814,
    "Ġenduring": 16306,
    "Ġcage": 17827,
    "Ġearl": 7677,
    "ail": 563,
    "Ġbruited": 25774,
    "bles": 7019,
    "Ġanalytical": 22905,
    "pride": 11212,
    "Ġvalued": 12187,
    "yder": 10141,
    "chancing": 22924,
    "ably": 1848,
    "Ġdictator": 20156,
    "Ġlexicon": 25975,
    "**:": 4735,
    "acific": 4960,
    "Ġreputation": 11643,
    "Ġferguson": 17472,
    "Ġindolent": 13010,
    "Ġfaithful": 9506,
    "preservation": 25306,
    "rets": 12546,
    "Ġchiselled": 25560,
    "Ġglaciers": 20176,
    "Ġtouches": 20573,
    "Ġcelebrate": 26359,
    "Ġairth": 23321,
    "Ġtransparen": 10544,
    "leman": 21371,
    "Ġtreacherously": 25132,
    "Ġrevolutions": 23844,
    "Ġpagans": 16924,
    "Ġinquirer": 24964,
    "Ġextreme": 2516,
    "Ġvilla": 14750,
    "Ġdrily": 23540,
    "Ġgreeting": 18965,
    "Ġstress": 18069,
    "Ġspades": 12801,
    "Ġfain": 5809,
    "Ġoutsk": 15960,
    "Ń": 260,
    "Ġdegrad": 2588,
    "Ġpromised": 5181,
    "Ġinconsistency": 26184,
    "animated": 14978,
    "Ġaddition": 1147,
    "je": 11498,
    "Ġvalu": 5039,
    "Ġpriority": 19765,
    "Ġvicious": 24403,
    "hib": 15371,
    "Ġwarmed": 12028,
    "Ġroanoke": 22411,
    "Ġconvenience": 11333,
    "ifts": 12737,
    "tub": 9146,
    "Ġtransparency": 10679,
    "compass": 9463,
    "Ġsixth": 16561,
    "84": 15305,
    "Ġclouded": 13295,
    "Ġaccompan": 5513,
    "Ġnearly": 3364,
    "Ġcoding": 8116,
    "tacit": 21101,
    "Ġbind": 12587,
    "consequence": 9766,
    "tt": 13793,
    "Ġbedfellow": 16441,
    "madly": 24420,
    "connections": 14431,
    "using": 5468,
    "Ġcivilized": 8668,
    "girls": 12323,
    "Ġfoss": 9854,
    "Ġinhab": 5083,
    "Ġxliv": 23411,
    "hibited": 17430,
    "Ġhilarious": 20301,
    "snowy": 20286,
    "Ġlatent": 19658,
    "č": 206,
    "Ġscraggy": 24580,
    "Ġexertion": 8054,
    "reach": 17759,
    "wedding": 12526,
    "Ġundeserving": 18266,
    "Ġstig": 14005,
    "vously": 23506,
    "Ġrespected": 11957,
    "Ġsting": 10863,
    "bon": 13688,
    "fail": 17542,
    "fle": 7130,
    "courageous": 26128,
    "Ġtravels": 11931,
    "Ġindisc": 16232,
    "expression": 10550,
    "Ġdearer": 14052,
    "Ġdesk": 11911,
    "llable": 6878,
    "calculating": 25690,
    "Ġmoluccas": 25630,
    "food": 12468,
    "Ġph": 1548,
    "Ġoarsman": 8641,
    "Ġfarther": 5956,
    "Ġgown": 10204,
    "Ġble": 5223,
    "Ġstarts": 16585,
    "alf": 4637,
    "Ġjem": 18403,
    "Ġropes": 10750,
    "Ġmetrics": 19075,
    "Ġproper": 1376,
    "itive": 6671,
    "Ġequal": 4135,
    "Ġspeeding": 23564,
    "rushing": 10021,
    "Ġsincerity": 13682,
    "violent": 14581,
    "Ġventure": 7740,
    "bots": 10085,
    "uced": 13803,
    "qualified": 17099,
    "Ġpulling": 5864,
    "servants": 15040,
    "Ġeddies": 25089,
    "Ġshivered": 14111,
    "do": 1993,
    "Ġcities": 17829,
    "olds": 9314,
    "Ġbody": 2434,
    "Ġcaus": 1725,
    "Ġlecture": 13571,
    "Ġissued": 10602,
    "hood": 2660,
    "Ġver": 3394,
    "Ġharbors": 24902,
    "Ġhistor": 3391,
    "Ġcanvassed": 19938,
    "Ġvineyard": 12334,
    "Ġbro": 1430,
    "ollion": 19718,
    "ulged": 12735,
    "Ġswashing": 23059,
    "Ġvaried": 11852,
    "Ġshrieks": 12204,
    "Ġunprepared": 22050,
    "reck": 9639,
    "Ġfranc": 16355,
    "Ġ1991": 3020,
    "hollow": 24045,
    "desired": 9008,
    "Ġmuttering": 10502,
    "Ġyarman": 12710,
    "pious": 17635,
    "Ġcanaan": 22170,
    "Ġgentlemanlike": 12071,
    "Ġsafie": 6620,
    "Ġvisits": 8224,
    "older": 15760,
    "Ġfitting": 21411,
    "share": 14237,
    "wound": 21129,
    "Ġprofessor": 11232,
    "Ġcriminal": 7538,
    "Ġson": 2986,
    "daugh": 6789,
    "Ġboyhood": 23757,
    "Ġdenying": 14660,
    "Ġwhispered": 5338,
    "Ġswallow": 8953,
    "Ġcarelessness": 13080,
    "Ġpiled": 8426,
    "Ġflush": 14427,
    "xter": 9149,
    "Ġcash": 9655,
    "ibbald": 18843,
    "henry": 16628,
    "Ġpeninsula": 23199,
    "stayed": 25291,
    "ographical": 16788,
    "Ġdavis": 25953,
    "Ġinvitation": 5188,
    "aviour": 11007,
    "Ġprot": 3849,
    "Ġclean": 5652,
    "Ġuniversally": 12004,
    "Ġfift": 6383,
    "Ġscoresby": 10463,
    "actually": 14300,
    "Ġperpetually": 17072,
    "airing": 16178,
    "itary": 4750,
    "Ġspikes": 22140,
    "Ġtechnical": 17194,
    "deep": 1023,
    "Ġbeamed": 23724,
    "tic": 8391,
    "putation": 7626,
    "Ġbroods": 23105,
    "Ġforbid": 7865,
    "Ġdivinest": 25722,
    "moderate": 22886,
    "Ġhereafter": 9333,
    "ambition": 13415,
    "Ġnext": 2140,
    "aimed": 3953,
    "magistrate": 19865,
    "Ġspar": 10923,
    "Ġproportional": 2526,
    "Ġstrasburgh": 18615,
    "Ġcomes": 3424,
    "mies": 20970,
    "Ġmour": 6974,
    "Ġgrudge": 20696,
    "orton": 11760,
    "Ġforts": 21776,
    "Ġmurder": 4281,
    "iably": 13741,
    "Ġuninhabited": 22051,
    "Ġstudent": 14481,
    "staking": 21645,
    "Ġaspect": 3098,
    "blocks": 25518,
    "sort": 6799,
    "Ġdoorway": 14499,
    "provided": 13641,
    "oment": 920,
    "Ġ30": 10514,
    "Ġhummed": 18779,
    "Ġavert": 14428,
    "gue": 12472,
    "Ġfluke": 14676,
    "Ġadam": 2128,
    "hall": 8085,
    "heavenly": 20048,
    "Ġwat": 1286,
    "Ġbutterfly": 19912,
    "Ġartful": 22612,
    "mast": 3605,
    "Ġniag": 21533,
    "fr": 4803,
    "Ġplumber": 16088,
    "Ġlearn": 364,
    "Ġlaurel": 20656,
    "Ġevents": 4472,
    "Ġsmiling": 5475,
    "consideration": 14958,
    "noise": 14339,
    "attention": 2110,
    "Ġreports": 19086,
    "happiest": 19334,
    "Ġthirds": 16710,
    "Ġdare": 3548,
    "naught": 20996,
    "orious": 6009,
    "Ġmaterial": 5178,
    "ñ": 178,
    "hercules": 22209,
    "Ġthundering": 24293,
    "beaten": 20318,
    "Ġexample": 5096,
    "had": 1951,
    "Ġcircumnavigation": 20403,
    "bantering": 25254,
    "Ġthereby": 7645,
    "stem": 571,
    "Ġbor": 5805,
    "itors": 2915,
    "Ġsuffer": 4720,
    "Ġexpectation": 6904,
    "Ġtransfer": 2393,
    "Ġunreliable": 3930,
    "Ġjoist": 19234,
    "upp": 10133,
    "original": 9088,
    "Ġmexic": 14034,
    "ens": 701,
    "Ġjollity": 25567,
    "Ġtight": 8108,
    "forbid": 14354,
    "Ġbugs": 13652,
    "Ġpart": 859,
    "Ġaugmentation": 20119,
    "properly": 24919,
    "Ġproduced": 2451,
    "30": 20756,
    "Ġgoney": 14546,
    "Ġhair": 3315,
    "farm": 15355,
    "overhearing": 19056,
    "non": 9614,
    "built": 16827,
    "Ġowned": 11880,
    "urged": 18051,
    "Ġfancying": 12117,
    "Ġreconciled": 13591,
    "Ġmathematics": 12078,
    "third": 8168,
    "Ġnugent": 26459,
    "Ġer": 8105,
    "Ġexpost": 18626,
    "smallest": 23915,
    "Ġcried": 1486,
    "ock": 15405,
    "Ġperpet": 7646,
    "Ġmanual": 14200,
    "ittance": 12851,
    "gr": 2086,
    "Ġsupport": 6730,
    "cannibal": 15228,
    "Ġteneriffe": 26416,
    "arness": 11674,
    "Ġlitter": 19832,
    "Ġindia": 10373,
    "Ġharbor": 10030,
    "Ġgoodly": 22823,
    "Ġbanqu": 12593,
    "lat": 9607,
    "Ġbox": 5109,
    "Ġwond": 3940,
    "Ġpreviously": 3921,
    "singing": 24363,
    "fields": 14655,
    "Ġkindled": 19034,
    "Ġeaten": 14848,
    "Ġinfer": 7685,
    "Ġcreases": 22726,
    "jer": 12485,
    "Ĵ": 245,
    "Ġhatred": 8612,
    "Ġunf": 4091,
    "Ġincluding": 2852,
    "Ġpolite": 9885,
    ",--": 2477,
    "Ġabrupt": 9739,
    "Ġembark": 8559,
    "lust": 15383,
    "Ġwrithed": 17107,
    "cod": 12448,
    "ost": 5361,
    "Ġrepelled": 19087,
    "Ġimmortal": 8018,
    "Ġslim": 18939,
    "Ġexp": 781,
    "Ġwhisker": 23938,
    "Ġsuite": 18278,
    "Ġgales": 12670,
    "Ġcreaking": 14333,
    "Ġalacrity": 15741,
    "Ġmortification": 12099,
    "Ġcirculation": 16419,
    "Ġdistinct": 4608,
    "ions": 449,
    "bey": 10316,
    "Ġdiving": 12606,
    "by": 1157,
    "Ġunfl": 22020,
    "¬": 110,
    "Ġmac": 15542,
    "Ġinterference": 8898,
    "Ġnarwhale": 12297,
    "founded": 16715,
    "Ġcounters": 24143,
    "Ġobsequ": 14323,
    "Ġproflig": 23569,
    "Ġsoothed": 10032,
    "Ġapprehens": 5682,
    "icher": 9205,
    "Ġhearties": 18968,
    "Ġberg": 24536,
    "Ġsimplicity": 2924,
    "enced": 4296,
    "feelings": 5674,
    "Ġfut": 15579,
    "touch": 8392,
    "inating": 9156,
    "cell": 10689,
    "thumb": 18219,
    "cry": 12450,
    "minutes": 7513,
    "Ġimputed": 12813,
    "Ġhoriz": 4724,
    "Ġconvolutional": 2162,
    "Ġsequence": 1975,
    "Ġconve": 5455,
    "solid": 16384,
    "Ġyonder": 7392,
    "im": 327,
    "Ġhackney": 20436,
    "Ġscolding": 15204,
    "ons": 709,
    "Ġepidemic": 20698,
    "Ġundertaken": 18988,
    "Ġembatt": 18833,
    "Ġcoat": 4553,
    "Ġstooped": 14467,
    "Ġmind": 1622,
    "metals": 24765,
    "ifling": 15786,
    "Ġceremony": 8361,
    "spot": 9792,
    "accepting": 20138,
    "churning": 21700,
    "bulkington": 19927,
    "Ġmakes": 3655,
    "ucket": 2483,
    "Ġmakest": 25436,
    "crown": 13702,
    "Ġfrightens": 24035,
    "ignation": 11130,
    "Ġconsumed": 10352,
    "Ġknowledge": 1445,
    "thole": 21990,
    "Ġgros": 14826,
    "Ġfit": 3687,
    "Ġcanv": 7011,
    "Ġsummer": 4789,
    "Ġdetailed": 12833,
    "entreaties": 26187,
    "Ġhorrid": 7999,
    "Ġobservable": 25129,
    "Ġopulent": 23630,
    "Ġredundant": 16553,
    "Ġcedar": 15192,
    "Ġlatterly": 24086,
    "Ġcongregation": 12333,
    "copy": 5133,
    "Ġhandspike": 22699,
    "Ġfanned": 19101,
    "Ġappeared": 2777,
    "Ġweak": 5098,
    "gust": 6362,
    "powers": 25411,
    "Ġprogram": 12997,
    "Ġgodfre": 14531,
    "showing": 22455,
    "Ġcru": 2824,
    "Ġbambooz": 26120,
    "Ġdistance": 3485,
    "Ġhopeful": 19036,
    "Ġadieus": 25113,
    "Ġparish": 8858,
    "Ġtasks": 1793,
    "Ġproperly": 7945,
    "follow": 5680,
    "Ġweight": 658,
    "Ġstile": 21736,
    "addressed": 13389,
    "nant": 17611,
    "Ġhyperborean": 26341,
    "Ġcloud": 3913,
    "arying": 9804,
    "Ġfrogs": 23927,
    "Ġdeceived": 6546,
    "pe": 1436,
    "presented": 12996,
    "Ġsolid": 6444,
    "companies": 24895,
    "Ġtweed": 22680,
    "Ġrecourse": 22742,
    "ideas": 18583,
    "Ġsqu": 1036,
    "natural": 2454,
    "tawn": 21083,
    "Ġmasterly": 23999,
    "Ġrose": 3443,
    "xic": 9148,
    "vint": 21117,
    "Ġdiscernible": 15073,
    "disgust": 23498,
    "Ġlustre": 15138,
    "Ġsurf": 19133,
    "tailed": 17687,
    "Ġforgotten": 5679,
    "Ġhumanity": 6733,
    "ired": 1444,
    "Ġeduc": 4784,
    "Ġclutch": 15056,
    "Ġjonas": 20612,
    "ing": 273,
    "Ġnaturally": 2466,
    "Ġpaints": 23525,
    "league": 17846,
    "mixed": 17607,
    "Ġrecompense": 14841,
    "abroad": 18111,
    "Ġoccasion": 3248,
    "Ġsherry": 19454,
    "balanced": 14556,
    "neural": 3069,
    "Ġbehoo": 19038,
    "Ġpillar": 21475,
    "mass": 12494,
    "Ġmississippi": 20727,
    "Ġmisconduct": 22761,
    "Ġharder": 14453,
    "Ġsty": 6253,
    "Ġclang": 15966,
    "ighted": 8479,
    "Ġdown": 832,
    "adventurous": 25362,
    "Ġjuggling": 20442,
    "Ġplump": 14285,
    "onged": 18411,
    "gratification": 24348,
    "Ġrewarded": 14943,
    "wondering": 19847,
    "Ġbald": 16210,
    "discoloured": 23500,
    "larking": 17596,
    "Ġdivide": 12115,
    "rich": 11520,
    "arance": 4696,
    "feet": 6570,
    "multiple": 15111,
    "Ġdescends": 14290,
    "Ġxli": 14543,
    "Ġimagenet": 19249,
    "Ġgettest": 23237,
    "Ġsums": 2904,
    "Ġpulled": 5660,
    "Ġarchitecture": 1128,
    "Ġgregarious": 18966,
    "solute": 16600,
    "Ġbrimming": 22867,
    "Ġnecessary": 4473,
    "summit": 23419,
    "transform": 8050,
    "Ġpor": 5225,
    "Ġhills": 6528,
    "ract": 968,
    "Ġblasted": 7937,
    "tiest": 21084,
    "Ġpunish": 12164,
    "pronounced": 12350,
    "casks": 20406,
    "Ġmeditate": 16709,
    "recur": 4437,
    "Ġundet": 16703,
    "proper": 7472,
    "relieved": 13281,
    "Ġaromatic": 25926,
    "avast": 8901,
    "Ġapprobation": 10987,
    "arn": 357,
    "Ġdisliked": 12896,
    "conclusions": 25674,
    "soc": 5175,
    "Ġintegrity": 12317,
    "each": 7335,
    "divers": 15346,
    "relig": 15515,
    "Ġvertical": 16606,
    "meetings": 20381,
    "civilities": 24974,
    "gloomy": 25147,
    "piling": 15418,
    "Ġxx": 5492,
    "Ġgoblet": 25824,
    "uine": 13802,
    "Ġalternating": 15033,
    "Ġbowlines": 19324,
    "Ġtoils": 10188,
    "Ġcomposing": 16074,
    "Ġlany": 21557,
    "Ġdetest": 8504,
    "Ġbegrim": 23020,
    "Ġmercy": 9001,
    "Ġwarmup": 3923,
    "Ġabased": 22272,
    "ploy": 2053,
    "ĠĠĠĠĠĠĠĠĠĠĠĠĠĠĠĠĠĠĠĠĠĠĠ": 18834,
    "Ġallurements": 22074,
    "Ġdesper": 6178,
    "Ġsoft": 1458,
    "Ġmechanism": 2475,
    "54": 15303,
    "Ġmaketh": 15191,
    "Ġcobb": 14278,
    "Ġdiscern": 7926,
    "Ġsleeves": 10663,
    "ials": 11708,
    "ppa": 10242,
    "ate": 424,
    "Ġcoincidence": 25484,
    "Ġsubmitted": 11875,
    "por": 2149,
    "thousands": 16874,
    "province": 26073,
    "Ġquadruped": 20618,
    "Ġapparition": 8067,
    "inhabited": 13624,
    "Ġfretfully": 25448,
    "ise": 707,
    "earthly": 24723,
    "neighbourhood": 10028,
    "Ġhoot": 19078,
    "ilege": 22260,
    "kilt": 4867,
    "Ġprotruded": 19473,
    "Ġlicensing": 20096,
    "Ġinexperienced": 26101,
    "shaken": 16026,
    "\"": 6,
    "Ġhorizont": 6937,
    "Ġthere": 561,
    "Ġalliance": 18269,
    "omination": 21665,
    "Ġcrippled": 25279,
    "Ġtopsails": 19196,
    "Ġaccur": 3483,
    "Ġstubb": 1791,
    "meadow": 18675,
    "rested": 13079,
    "Ġfors": 21775,
    "bonnet": 25743,
    "embers": 21933,
    "Ġstri": 2804,
    "Ġvines": 12756,
    "Ġweather": 3996,
    "gentleness": 24845,
    "Ġforeheads": 23449,
    "emic": 18187,
    "Ġprodigiously": 14935,
    "~": 98,
    "illing": 8175,
    "gainst": 25144,
    "Ġpersistence": 2818,
    "Ġxvi": 19106,
    "reme": 2421,
    "elihood": 4621,
    "Ġwidespread": 20678,
    "Ġbaltic": 18800,
    "passenger": 24169,
    "Ġbiases": 2395,
    "Ġshrink": 14807,
    "Ġweltering": 19588,
    "Ġquery": 2479,
    "oregressive": 3425,
    "sch": 21053,
    "Ġrece": 11641,
    "itively": 21334,
    "Ġcollateral": 20075,
    "whiteness": 18371,
    "Ġdubious": 17386,
    "hair": 9125,
    "Ġattribute": 16101,
    "Ġdundee": 16999,
    "clusion": 16309,
    "Ġspent": 3965,
    "Ġconditions": 8307,
    "izing": 1065,
    "Ġexal": 10879,
    "Ġphant": 7057,
    "d": 72,
    "Ġrepaid": 19084,
    "Ġstung": 21742,
    "Ġmerciless": 25247,
    "meant": 7921,
    "ven": 782,
    "Ġceremonious": 24838,
    "Ġancho": 15607,
    "Ġvoyagings": 19238,
    "erred": 6377,
    "Ġauto": 23288,
    "protest": 24812,
    "therly": 18347,
    "plicable": 10258,
    "Ġoverlooked": 15975,
    "Ġcom": 369,
    "Ġgarments": 15197,
    "Ġpatients": 24810,
    "expressive": 24307,
    "quer": 11681,
    "boiling": 19001,
    "receiving": 12548,
    "Ġqueerest": 16417,
    "Ġ67": 19663,
    "Ġpossess": 3203,
    "tically": 3393,
    "nue": 15400,
    "icable": 6389,
    "sal": 8761,
    "keenest": 25662,
    "Ġdogs": 7742,
    "quee": 4130,
    "Ġantiqu": 12149,
    "ork": 416,
    "Ġperiods": 13308,
    "Ġtwine": 14314,
    "Ġportions": 19372,
    "Ġnobleman": 19395,
    "Ġbunger": 9999,
    "hro": 20893,
    "gates": 20874,
    "Ġreptile": 15281,
    "reng": 4002,
    "complaisance": 24808,
    "Ġmother": 2068,
    "deli": 15348,
    "Ġattentively": 9953,
    "unwho": 21881,
    "rences": 9275,
    "Ġenclosure": 20627,
    "Ġassoc": 6403,
    "Ġantagon": 19553,
    "Ġliberated": 19669,
    "Ġinestim": 15628,
    "Ġskip": 1846,
    "resting": 23239,
    "gpt": 5356,
    "garn": 20872,
    "Ġfled": 6673,
    "iancy": 13014,
    "zed": 8104,
    "Ġreminding": 19800,
    "Ġdepending": 14296,
    "æ": 167,
    "absolutely": 10648,
    "Ġtransformed": 22616,
    "cus": 3980,
    "ors": 854,
    "Ġcomparatively": 9493,
    "Ġmig": 13859,
    "Ġop": 2602,
    "ibilities": 13013,
    "Ġcausing": 16361,
    "arled": 21445,
    "pour": 17632,
    "fatig": 17090,
    "Ġwhir": 6394,
    "ructure": 749,
    "etts": 12665,
    "Ġeasy": 3453,
    "impossible": 8828,
    "Ġrequisite": 18630,
    "Ġdaft": 19666,
    "Ġkeener": 22918,
    "Ġoutrageous": 20613,
    "opard": 9293,
    "asburgh": 15651,
    "idled": 21772,
    "Ġstarve": 24626,
    "roman": 22008,
    "Ġpowder": 11277,
    "Ġknow": 632,
    "Ġbeliefs": 24583,
    "Ġhissing": 15794,
    "Ġblunder": 18820,
    "shudder": 26247,
    "Ġmonoton": 3639,
    "mo": 862,
    "Ġtrapped": 23078,
    "witness": 10038,
    "Ġrampart": 20321,
    "foam": 24418,
    "Ġenable": 687,
    "god": 4864,
    "running": 6798,
    "Ġtissu": 25921,
    "Ġtechni": 1646,
    "Ġvivacious": 19818,
    "Ġprofusion": 23570,
    "Ġmagnitude": 1944,
    "Ġimbued": 17458,
    "https": 11688,
    "Ġslewed": 23388,
    "Ġbrill": 8552,
    "fall": 5135,
    "Ġtold": 2185,
    "00": 1613,
    "Ġalterations": 19873,
    "Ġdetermines": 2361,
    "bear": 10317,
    "analysis": 26174,
    "Ġdismal": 11814,
    "ucumber": 19060,
    "Ġhailed": 6408,
    "Ġinterruption": 9476,
    "Ġminute": 4279,
    "emporary": 15802,
    "pendicular": 6500,
    "Ġshiver": 12772,
    "Ġsurgeons": 23466,
    "Ġflaming": 8567,
    "Ġinclu": 1101,
    "reas": 991,
    "ogene": 18679,
    "ractions": 11636,
    "Ġdefection": 22945,
    "Ġsharper": 17182,
    "Ġbegin": 3100,
    "ased": 1267,
    "elope": 14452,
    "ool": 17620,
    "Ġmagical": 23101,
    "Ġfavourite": 5271,
    "Ġlinked": 15081,
    "Ġconquer": 14030,
    "Ġsideways": 6184,
    "washed": 13051,
    "Ġcomposed": 8896,
    "Ġsuspicions": 9482,
    "anything": 5518,
    "Ġhoney": 12637,
    "Ġwonders": 7501,
    "emotions": 15801,
    "happen": 19333,
    "Ġcommanded": 6332,
    "Ġsharpened": 17368,
    "Ġrest": 1786,
    "Ġmout": 17800,
    "nez": 22460,
    "Ġbond": 21387,
    "Ġsiam": 13841,
    "ondescript": 22919,
    "Ġexamples": 2604,
    "innocent": 20289,
    "perceived": 8862,
    "Ġbeats": 21756,
    "Ġwhitting": 18058,
    "1775": 26380,
    "Ġcaterpillar": 5866,
    "Ġcunning": 6240,
    "Ġ200": 19298,
    "extent": 22767,
    "display": 19158,
    "Ġintrepid": 11710,
    "virt": 15454,
    "Ġyankees": 26203,
    "alled": 5912,
    "Ġcruis": 14626,
    "Ġtistig": 26415,
    "Ġmole": 11795,
    "Ġvic": 5236,
    "Ġlucky": 7759,
    "phants": 9323,
    "lished": 8383,
    "Ġsuperstitions": 17073,
    "Ġpartiality": 9401,
    "olic": 14045,
    "Ġconsequ": 6256,
    "Ġtemptation": 8681,
    "Ġbackwoods": 22665,
    "Ġstruggle": 3678,
    "ales": 3318,
    "Ġaloysius": 15742,
    "Ġlimited": 23545,
    "Ġpraying": 19557,
    "ckets": 6843,
    "possibly": 10546,
    "oop": 10717,
    "Ġstamping": 20034,
    "Ġsecond": 1883,
    "handkerchief": 14620,
    "Ġactor": 16053,
    "edily": 17946,
    "arpaul": 14538,
    "Ġresp": 2495,
    "ertion": 12043,
    "Ġfew": 1195,
    "Ġv": 399,
    "arctic": 12615,
    "Ġneighbors": 25805,
    "ersman": 11704,
    "involuntarily": 20418,
    "island": 10796,
    "Ġbanks": 6815,
    "Ġdrunken": 12054,
    "usation": 18397,
    "scythes": 26404,
    "flask": 12104,
    "owders": 18050,
    "cushion": 20823,
    "Ġtrib": 13822,
    "Ġperilously": 24507,
    "rimin": 2420,
    "Ġlosing": 10918,
    "Ġinject": 2713,
    "Ġchurned": 18385,
    "oga": 22715,
    "Ġtusks": 17256,
    "Ġaff": 1119,
    "Ġcreatures": 4137,
    "Ġfloat": 12036,
    "Ġmediocr": 24142,
    "Ġextremest": 19197,
    "imod": 15714,
    "conjecturing": 20137,
    "Ġshirt": 8853,
    "Ġdab": 15592,
    "ocratic": 17247,
    "beloved": 19464,
    "Ġphilosophical": 26336,
    "details": 19678,
    "Ġimped": 18443,
    "Ġsend": 4108,
    "Ġundeviating": 15221,
    "floated": 24644,
    "Ġformal": 2943,
    "Ġexam": 3713,
    "Ġcollapsed": 15085,
    "stocks": 23823,
    "Ġengaging": 9339,
    "Ġboarding": 12091,
    "Ġpalm": 10516,
    "fro": 8736,
    "Ġextracts": 9365,
    "horner": 23616,
    "cturn": 17989,
    "Ġprovinc": 16744,
    "omach": 11640,
    "Ġhellaswag": 24343,
    "Ġcandles": 9911,
    "Ġadviser": 25313,
    "Ġhooks": 14971,
    "Ġtunnels": 24621,
    "Ġantagonist": 26330,
    "Ġexcited": 5580,
    "Ġproduct": 3537,
    "Ġjudges": 14687,
    "spirits": 8055,
    "Ġthree": 1369,
    "omuch": 21663,
    "Ġwhite": 1537,
    "musket": 25342,
    "andam": 10890,
    "Ġdisquis": 22531,
    "ive": 427,
    "Ġinspection": 14545,
    "Ġpaling": 21464,
    "Ġwelcomed": 9485,
    "Ġassures": 14469,
    "Ġfacil": 16964,
    "uch": 878,
    "Ġworlds": 11951,
    "Ġattract": 11837,
    "Ġpresumably": 19627,
    "angel": 5726,
    "ĠcÃ¦sar": 20583,
    "Ġdissol": 18552,
    "Ġtophet": 23575,
    "Ġredoubled": 23755,
    "Ġbade": 9174,
    "Ġcastles": 16642,
    "Ġhum": 1100,
    "apsed": 6297,
    "Ġstair": 8457,
    "Ġpursue": 6316,
    "Ġmouldings": 24736,
    "iteous": 14267,
    "Ġguess": 4904,
    "is": 280,
    "Ġthence": 8885,
    "Ġanecdote": 26356,
    "Ġdragon": 14947,
    "Ġincensed": 18573,
    "Ġfugitives": 25635,
    "furniture": 20245,
    "Ġskul": 22799,
    "Ġconnecting": 18634,
    "leag": 21369,
    "ral": 4626,
    "sequent": 6831,
    "Ġastonishing": 10504,
    "Ġhose": 12632,
    "Ġcus": 21346,
    "Ġautumn": 14506,
    "Ġhysterical": 26093,
    "look": 2259,
    "oub": 1637,
    "etting": 21583,
    "Ġimaginative": 19250,
    "Ġprofounder": 23571,
    "Ġinvis": 6902,
    "istence": 2273,
    "Ġmaintaining": 1508,
    "Ġstrategies": 1840,
    "pitching": 24079,
    "Ġsuavely": 26525,
    "Ġconstables": 19070,
    "Ġwalks": 8969,
    "draught": 12095,
    "Ġpomp": 12627,
    "lucas": 15155,
    "phere": 21021,
    "Ġcrowned": 16843,
    "Ġne": 390,
    "Ġhim": 476,
    "beauty": 20107,
    "Ġabated": 18391,
    "Ġpap": 8802,
    "Ġninetieth": 25358,
    "Ġlurid": 19684,
    "orate": 10802,
    "Ġenrapt": 21943,
    "barrow": 15324,
    "Ġcolonnades": 26277,
    "me": 867,
    "ssian": 3400,
    "Ġfragmentary": 25857,
    "Ġmarbank": 23040,
    "idean": 14268,
    "Ġglories": 16242,
    "Ġunwritten": 22034,
    "Ġmaria": 7126,
    "uber": 15448,
    "baden": 25616,
    "Ġpollard": 20389,
    "visits": 24226,
    "ë": 172,
    "Ġdisconsolate": 20721,
    "ç": 168,
    "isle": 13895,
    "ronted": 14880,
    "Ġapproving": 18510,
    "Ġshadow": 5596,
    "Ġicebergs": 23980,
    "bermaid": 20792,
    "Ġmichaelmas": 26376,
    "sof": 17659,
    "Ġspecial": 2102,
    "raising": 21635,
    "Ġwant": 1121,
    "Ġlakes": 8131,
    "opol": 12873,
    "Ġbos": 4876,
    "Ġbrimstone": 25687,
    "Ġslain": 8956,
    "Ġtranquil": 7310,
    "Ġconcise": 23327,
    "Ġsympathies": 14864,
    "alle": 1292,
    "Ġrelig": 8553,
    "popular": 26141,
    "Ġdetection": 3766,
    "Ġhovel": 8254,
    "Ġappo": 8501,
    "Ġuser": 15920,
    "otam": 21802,
    "Ġneighbour": 3810,
    "Ġtenants": 23547,
    "Ġpaddington": 17096,
    "Ġeditions": 19154,
    "Ġamusement": 8056,
    "Ġ85": 24460,
    "deserts": 25382,
    "coward": 13704,
    "rumours": 23924,
    "tese": 21086,
    "Ġactivation": 918,
    "Ġdenial": 13218,
    "Ġremorselessly": 16969,
    "august": 11073,
    "Ġbargain": 23794,
    "how": 1647,
    "Ġbeware": 8832,
    "Ġunicorn": 22057,
    "Ġimproved": 7658,
    "master": 5687,
    "poky": 17646,
    "Ġbeaten": 10531,
    "Ġoffence": 12950,
    "Ġtwin": 12933,
    "Ġcolleg": 22858,
    "roll": 9199,
    "tical": 10131,
    "Ġwaits": 23283,
    "doesn": 19823,
    "Ġpurposely": 10446,
    "moran": 24155,
    "orne": 17874,
    "success": 6712,
    "Ġcurtains": 23003,
    "ips": 2591,
    "turkish": 24533,
    "Ġshroud": 6484,
    "Ġtoil": 6533,
    "onse": 21252,
    "hotel": 20053,
    "Ġpilgrim": 25600,
    "Ġdrowsiness": 26447,
    "Ġdrab": 13075,
    "Ġreverber": 19871,
    "smile": 23909,
    "Ġregular": 934,
    "Ġinflexibly": 26372,
    "Ġsable": 15503,
    "boat": 3363,
    "Ġposs": 1619,
    "Ġknots": 15011,
    "Ġstatue": 23151,
    "iries": 18170,
    "twelvemonth": 25863,
    "Ġtill": 1826,
    "Ġprotruding": 16661,
    "stochastic": 3775,
    "garnished": 26390,
    "Ġflowers": 8943,
    "Ġbristling": 20530,
    "Ġteaches": 18797,
    "Ġevolved": 9895,
    "Ġsinister": 8572,
    "Ġtalked": 4421,
    "Ġcrimes": 8591,
    "Ġsettled": 3743,
    "Ġhammock": 5768,
    "kick": 20938,
    "Ġbradstreet": 9579,
    "ushed": 2973,
    "kindness": 10508,
    "Ġprophes": 16352,
    "stud": 8824,
    "Ġbee": 21753,
    "scent": 13022,
    "reement": 15514,
    "Ġrambled": 20171,
    "iantly": 13742,
    "Ġcarpenter": 4683,
    "Ġwee": 21922,
    "sold": 15429,
    "owing": 7603,
    "Ġcatastrop": 3349,
    "Ġindefatigable": 17180,
    "Ġentreat": 4509,
    "Ġwherefore": 8527,
    "Ġassociate": 13454,
    "Ġcumbrous": 26434,
    "Ġpigeon": 9519,
    "Ġreceived": 2952,
    "Ġhitting": 21490,
    "Ġthick": 3785,
    "presence": 18495,
    "Ġret": 1378,
    "Ġpresentiment": 18990,
    "giv": 13725,
    "Ġstrives": 23695,
    "Ġda": 5150,
    "Ġnodes": 1967,
    "gathered": 13735,
    "Ġbitter": 4172,
    "Ġgrassy": 24379,
    "Ġpeeling": 22695,
    "gling": 10100,
    "Ġincapable": 7423,
    "Ġxlix": 25861,
    "Ġbelieving": 8225,
    "Ġchild": 2258,
    "dient": 440,
    "Ġjac": 1899,
    "Ġtidy": 17094,
    "Ġsuppress": 13029,
    "Ġundec": 22019,
    "arious": 10319,
    "anchor": 13892,
    "visible": 10536,
    "din": 8374,
    "Ġobtained": 7432,
    "Ġrepugn": 23366,
    "lid": 20947,
    "Ġvisage": 18782,
    "Ġcalculus": 23988,
    "Ġrenegades": 26478,
    "handedness": 24921,
    "Ġtried": 3651,
    "effort": 19217,
    "disp": 7977,
    "Ġpenetrate": 12274,
    "unicorn": 21893,
    "Ġloom": 7630,
    "Ġgroaned": 11268,
    "deck": 4500,
    "Ġconfeder": 25708,
    "Ġstrengthen": 20703,
    "Ġjuncture": 17132,
    "aloft": 8811,
    "Ġstores": 18071,
    "Ġsple": 21218,
    "Ġspeaks": 11161,
    "arrested": 15605,
    "Ġsandwich": 19831,
    "Ġsuperglue": 23458,
    "onents": 8781,
    "rises": 17657,
    "Ġcompleted": 9000,
    "Ġgid": 13965,
    "Ġchurning": 15941,
    "bones": 8372,
    "laying": 19775,
    "Ġhaving": 1882,
    "metic": 14987,
    "othing": 6996,
    "Ġdeprived": 8210,
    "Ġfreedom": 9085,
    "sh": 642,
    "Ġpeaked": 2292,
    "Ġvenetian": 14850,
    "Ġtraining": 530,
    "rador": 19129,
    "endure": 22229,
    "Ġprior": 11320,
    "unting": 21878,
    "Ġchili": 25562,
    "Ġribbons": 24325,
    "gaze": 17559,
    "belong": 12127,
    "Ġmatches": 14399,
    "Ġvir": 7002,
    "Ġbowing": 10477,
    "Ġcomplying": 18586,
    "Ġlesson": 7276,
    "Ġappointment": 10649,
    "Ġcandelab": 23851,
    "Ġtherefore": 2238,
    "viii": 12025,
    "Ġemploys": 19434,
    "tit": 11530,
    "pin": 13770,
    "levi": 7049,
    "Ġhoarse": 14528,
    "Ġtransparent": 9492,
    "Ġtam": 7821,
    "Ġcontrol": 13084,
    "fel": 8737,
    "Ġsh": 419,
    "gre": 5788,
    "Ġtahit": 10756,
    "Ġdesirable": 8944,
    "Ġfibres": 12956,
    "Ġtear": 6724,
    "ensibility": 22552,
    "Ġswandam": 11091,
    "Ġbrand": 16189,
    "irements": 22216,
    "Ġsaloon": 24067,
    "towing": 17691,
    "Ġwarn": 5695,
    "clinging": 20824,
    "Ġassiduous": 26294,
    "Ġmorrow": 9345,
    "irium": 8162,
    "shaven": 18490,
    "eted": 7593,
    "summoned": 26593,
    "Ġyea": 8919,
    "atisf": 21266,
    "requ": 7149,
    "Ġforefinger": 16443,
    "estion": 18363,
    "Ġperformance": 1307,
    "Ġocc": 887,
    "boats": 6206,
    "les": 1016,
    "Ġroyals": 19535,
    "ivity": 1669,
    "immedi": 8452,
    "Ġexisted": 15756,
    "Ġmarchant": 14789,
    "gins": 12473,
    "Ġchopping": 24222,
    "Ġreneg": 21678,
    "Ġuseful": 3562,
    "angled": 6844,
    "overlooked": 23328,
    "Ġdiscontented": 16063,
    "Ġlanyard": 26463,
    "Ġeu": 6391,
    "ville": 6088,
    "muttered": 13762,
    "Ġlack": 17966,
    "Ġfrolic": 23928,
    "Ġdeposit": 17271,
    "urious": 21706,
    "Ġadvance": 5484,
    "plutarch": 21961,
    "Ġsimulation": 2752,
    "Ġlowly": 11123,
    "atters": 18508,
    "Ġincreased": 2211,
    "Ġappertaining": 26535,
    "Ġupwards": 7635,
    "mira": 20981,
    "Ġbaked": 21389,
    "Ġdisordered": 16059,
    "only": 3309,
    "Ġbeds": 14553,
    "makes": 10713,
    "allowed": 5728,
    "allied": 7410,
    "counters": 25398,
    "Ġperceiving": 8879,
    "meaning": 2909,
    "ism": 4875,
    "Ġchart": 10947,
    "Ġinsol": 10183,
    "Ġbacks": 8531,
    "uncontrollable": 20599,
    "Ġvillains": 14752,
    "ives": 1408,
    "Ġbottom": 3677,
    "Ġstunsail": 25544,
    "Ġmeadow": 17154,
    "crime": 14777,
    "Ġshooting": 11164,
    "Ġhither": 4758,
    "Ġconvivial": 16550,
    "Ġaversion": 18867,
    "aciously": 12901,
    "cried": 8728,
    "Ġfring": 11129,
    "Ġmiguel": 25767,
    "wol": 21125,
    "stupid": 12680,
    "Ġunderground": 18986,
    "effect": 8607,
    "Ġconcl": 5095,
    "Ġshiny": 14109,
    "//": 11465,
    "Ġdamp": 8264,
    "willingness": 24754,
    "Ġcalm": 3447,
    "Ġeveryday": 22775,
    "itten": 3441,
    "Ġblack": 2032,
    "Ġnought": 21525,
    "scand": 18850,
    "Ġveteran": 17453,
    "Ġlearnable": 3995,
    "mmet": 10990,
    "urry": 13997,
    "Ġconcerning": 4069,
    "Ġshrunk": 16720,
    "Ġmate": 3710,
    "obtain": 23096,
    "ter": 359,
    "Ġnew": 1193,
    "concent": 19483,
    "!--": 10680,
    "thoughtfully": 24049,
    "Ġwide": 4109,
    "separately": 25228,
    "Ġmoran": 9344,
    "Ġvincent": 15287,
    "Ġcontr": 1915,
    "Ġnecks": 18186,
    "Ġbreathing": 9448,
    "Ġmasts": 6466,
    "Ġobtain": 8918,
    "âĢĶ(": 15942,
    "Ġvoluntary": 14802,
    "Ġfamilies": 8027,
    "corrupt": 14898,
    "Ġresign": 18565,
    "functions": 11259,
    "ripp": 6405,
    "Ġpantry": 20298,
    "bellies": 19977,
    "ortal": 6267,
    "Ġlaz": 7378,
    "ptic": 21928,
    "Ġexcepting": 14682,
    "Ġdrawer": 13271,
    "Ġprincip": 5600,
    "Ġsuspend": 14610,
    "iloquent": 21729,
    "Ġshort": 2225,
    "hind": 20896,
    "Ġcluster": 13575,
    "Ġ24": 13197,
    "Ġcynical": 25771,
    "ģ": 228,
    "Ġdemoniacal": 20559,
    "Ġdefine": 9818,
    "Ġsleeve": 20143,
    "Ġhenry": 5197,
    "Ġtro": 7356,
    "Ġcruc": 16536,
    "Ġschoolmaster": 16864,
    "Ġcavity": 20491,
    "Ġspangled": 22139,
    "loving": 18539,
    "Ġlurks": 11292,
    "Ġdelayed": 9521,
    "Ġtrespass": 23602,
    "Ġcro": 4874,
    "Ġpreface": 18368,
    "eleg": 20851,
    "Ġcurled": 8227,
    "pires": 13778,
    "Ġtearing": 14392,
    "Ġessentials": 20006,
    "Ġpotency": 14648,
    "Ġbrain": 2088,
    "ouch": 2781,
    "Ġtrample": 20330,
    "Ġje": 4123,
    "Ġjoyful": 13226,
    "Ġimbecile": 17395,
    "Ġshyness": 20309,
    "Ġconsolation": 6210,
    "Ġzero": 1200,
    "arrow": 4179,
    "Ġtheirs": 7026,
    "Ġseems": 2481,
    "Ġflora": 11418,
    "qual": 8157,
    "umer": 9261,
    "entreat": 17978,
    "Ġguardsmen": 20633,
    "Ġawaiting": 11392,
    "lemagne": 26438,
    "Ġglimp": 6067,
    "Ġdoleful": 18377,
    "Ġsatisfied": 4171,
    "wit": 7817,
    ",": 16,
    "death": 6263,
    "Ġgallon": 24187,
    "grasp": 16433,
    "Ġbulky": 13234,
    "libra": 22928,
    "tenham": 16324,
    "Ġshudderings": 25201,
    "Ġacceptable": 16746,
    "uttermost": 24943,
    "wester": 21141,
    "Ġcetacea": 20556,
    "Ġfrenchman": 11285,
    "many": 5250,
    "Ġouthouse": 22318,
    "Ġpresumed": 10547,
    "Ġheroines": 19754,
    "Ġunwe": 15842,
    "Ġenvironments": 23940,
    "Ġland": 1995,
    "Ġnich": 21523,
    "Ġnative": 4639,
    "Ġsenior": 17174,
    "Ġstripping": 23696,
    "Ġdepresses": 25798,
    "Ġstone": 4644,
    "Ġgulp": 20032,
    "grampus": 18617,
    "Ġjo": 2608,
    "Ġjam": 10953,
    "Ġspectacles": 12102,
    "Ġender": 11694,
    "ac": 698,
    "Ġsensibly": 14518,
    "dramatic": 19388,
    "Ġdeserving": 14756,
    "ically": 833,
    "Ġcorn": 9353,
    "uing": 17695,
    "Ġdictionary": 15116,
    "Ġanne": 1530,
    "Ġpreacher": 18370,
    "aug": 1212,
    "Ġscrews": 25178,
    "Ġdrug": 11412,
    "Ġbasis": 16963,
    "Ġmortifying": 13250,
    "Ġvalidation": 2351,
    "Ġtail": 3091,
    "Ġcivility": 4787,
    "Ġgangway": 20161,
    "Ġreiterating": 26476,
    "9": 29,
    "Ġenlar": 15804,
    "Ġ39": 19493,
    "nowadays": 22341,
    "pie": 21013,
    "Ġimmens": 9942,
    "dorff": 15241,
    "Ġontario": 26206,
    "Ġlimbs": 5967,
    "athans": 7433,
    "Ġhappen": 5571,
    "Ġcabal": 23643,
    "Ġsensationalism": 26067,
    "Ġwhipcord": 20098,
    "acency": 12902,
    "Ġ12": 5483,
    "Ġrevolved": 9987,
    "Ġafrica": 12349,
    "Ġsyn": 15917,
    "scot": 14419,
    "instruct": 19545,
    "Ġsuav": 22080,
    "late": 11501,
    "created": 12455,
    "Ġimpropri": 14218,
    "Ġcomb": 1057,
    "breaths": 25337,
    "Ġpersons": 6182,
    "inav": 15486,
    "Ġutensils": 23516,
    "Ġspare": 5102,
    "Ġhiss": 15792,
    "Ġconsecrate": 26491,
    "Ġmoon": 4607,
    "Ġchinese": 14184,
    "bell": 7332,
    "Ġcorps": 13038,
    "Ġextant": 18682,
    "hammer": 14491,
    "Ġdiscourse": 9801,
    "Ġcottages": 14730,
    "Ġenlightened": 12751,
    "Ġspecific": 2000,
    "Ġfeasts": 25370,
    "ius": 5789,
    "ters": 1573,
    "Ġdivert": 23595,
    "Ġmicrosc": 20679,
    "Ġsledge": 8111,
    "ault": 2302,
    "Ġfire": 2328,
    "lude": 6163,
    "Ġmethodology": 2625,
    "Ġapart": 4745,
    "Ġstreamed": 14547,
    "lod": 15382,
    "Ġxxxvi": 24972,
    "Ġunmethodically": 22070,
    "Ġreus": 8826,
    "ify": 1323,
    "Ġparameter": 883,
    "harbor": 13568,
    "Ġarchitect": 983,
    "Ġgills": 17995,
    "Ġreefed": 20305,
    "Ġbark": 10800,
    "ino": 15482,
    "Ġcontest": 18474,
    "Ġbab": 5291,
    "Ġfreshness": 23993,
    "oice": 1382,
    "Ġsurm": 7477,
    "Ġrefresh": 10348,
    "Ġeasier": 11167,
    "situ": 9624,
    "Ġcrab": 13148,
    "angling": 14143,
    "Ġtragic": 15259,
    "Ġtrem": 6662,
    "Ġventured": 7502,
    "Ġscimet": 22297,
    "Ġohio": 19130,
    "Ġjury": 5378,
    "Ġsqualid": 14371,
    "Ġjumbled": 22301,
    "Ġcomfor": 14057,
    "Ġwhisper": 6207,
    "hopper": 23717,
    "Ġlobes": 22119,
    "Ġcountess": 11968,
    "Ġfiendish": 13332,
    "ieces": 4771,
    "Ġnoses": 18373,
    "ull": 1431,
    "etw": 408,
    "Ġsleepy": 8268,
    "Ġvess": 3297,
    "swallowed": 14856,
    "Ġri": 3395,
    "company": 9464,
    "Ġdeaths": 14539,
    "Ġwash": 9706,
    "q": 85,
    "Ġadieu": 10054,
    "Ġstrangest": 14799,
    "Ġabomination": 22282,
    "asting": 12811,
    "Ġcalculate": 13269,
    "Ġrecess": 10849,
    "mentioning": 24886,
    "Ġbear": 3661,
    "impulse": 20647,
    "itching": 21338,
    "Ġwickedness": 9529,
    "Ġwearied": 15797,
    "execut": 13659,
    "Ġtriumphantly": 11289,
    "Ġwhom": 1832,
    "Ġregain": 22583,
    "Ġpaddling": 25286,
    "harpoone": 6109,
    "\"],": 26121,
    "Ġcoach": 6868,
    "Ġtrance": 12849,
    "Ġnods": 19064,
    "iance": 5280,
    "Ġmonument": 16240,
    "Ġeyebrows": 23517,
    "Ġ71": 24262,
    "Ġinsp": 2100,
    "Ġcaress": 16343,
    "Ġuneasily": 24233,
    "ece": 17533,
    "Ġsaints": 20677,
    "Ġplunge": 13447,
    "mic": 12493,
    "arding": 22161,
    "chors": 11647,
    "Ġclubbed": 26548,
    "Ġweights": 899,
    "unnatural": 15777,
    "Ġdoze": 14177,
    "Ġnavies": 16902,
    "Ġtang": 13817,
    "birds": 15148,
    "se": 358,
    "Ġyards": 5371,
    "bet": 6111,
    "Ġinsipid": 26314,
    "Ġcloudy": 19480,
    "Ġgriev": 16637,
    "Ġel": 801,
    "Ġdrinks": 24282,
    "Ġsurv": 6082,
    "hogs": 20085,
    "Ġimaginary": 11188,
    "Ġacross": 1331,
    "Ġdict": 9178,
    "Ġpossessor": 23826,
    "Ġfeedback": 23435,
    "Ġensue": 18191,
    "dev": 7633,
    "striving": 24670,
    "Ġbend": 9173,
    "Ġvictims": 19807,
    "eled": 2352,
    "oss": 10118,
    "passing": 14815,
    "Ġexcl": 3476,
    "Ġsm": 704,
    "Ġaverred": 18866,
    "Ġtelesc": 12993,
    "Ġreced": 15696,
    "Ġmovement": 9971,
    "spond": 5567,
    "Ġcarefully": 6306,
    "vig": 15449,
    "Ġcocaine": 20723,
    "Ġstand": 1736,
    "'": 11,
    "Ġcompromised": 22576,
    "ĠâĢĶâĢľ_": 17720,
    "Ġ1839": 20463,
    "Ġinclinations": 19542,
    "Ġfemin": 13440,
    "Ġyesterday": 5333,
    "mency": 18928,
    "Ġpossessions": 23827,
    "outward": 22164,
    "Ġgrounded": 23714,
    "Ġfaced": 10810,
    "plun": 15819,
    "intosh": 22943,
    "orses": 6053,
    "Ġestates": 16461,
    "Ġwildest": 16512,
    "Ġreference": 2565,
    "Ġcontinu": 1165,
    "Ġgates": 10203,
    "Ġ89": 19715,
    "ruit": 22181,
    "iquette": 26133,
    "yn": 7819,
    "Ġorganizations": 12318,
    "Ġtreasures": 17048,
    "ĠÂ£": 5006,
    "Ġobstinacy": 17424,
    "offices": 19063,
    "Ġincant": 18570,
    "Ġeigenvalues": 4998,
    "much": 3708,
    "Ġsmooth": 2780,
    "Ġschol": 17380,
    "button": 10967,
    "destined": 24117,
    "Ġeloquence": 11846,
    "enhall": 13853,
    "Ġpemberley": 4587,
    "Ġsin": 1513,
    "Ġresponses": 23651,
    "attle": 4466,
    "netherfield": 9816,
    "gish": 20875,
    "Ġadversity": 24305,
    "sailors": 9925,
    "Ġexclusiveness": 23931,
    "Ġsoo": 15865,
    "Ġdireful": 11019,
    "Ġtune": 17727,
    "Ġnom": 21522,
    "ulent": 21866,
    "Ġshot": 4543,
    "Ġfireboard": 23533,
    "¨": 106,
    "consequential": 26251,
    "Ġinexper": 16982,
    "Ġvivid": 8058,
    "Ġplatform": 17134,
    "correct": 24483,
    "Ġpossessing": 16578,
    "dressing": 11484,
    "Ġfrock": 10492,
    "Ġdeadliest": 14558,
    "Ġrocked": 12859,
    "rather": 5430,
    "Ġinstrum": 6056,
    "raltar": 24236,
    "ck": 436,
    "Ġcooking": 16649,
    "itch": 10163,
    "Ġtradesmen": 17106,
    "const": 5940,
    "Ġhood": 10825,
    "Ġensures": 3059,
    "Ġchival": 14183,
    "eler": 1572,
    "Ġassembly": 10645,
    "rolling": 9063,
    "Ġcanted": 17833,
    "Ġhammered": 13245,
    "ward": 705,
    "Ġprime": 10406,
    "Ġagonizing": 17241,
    "Ġborders": 15576,
    "ľ": 255,
    "measureless": 20238,
    "iring": 1708,
    "Ġnavy": 14919,
    "Ġhulls": 13929,
    "infidel": 24664,
    "ilated": 18060,
    "Ġlagged": 21561,
    "Ġpounds": 5368,
    "arnel": 18127,
    "Ġplaster": 16087,
    "ditch": 17530,
    "gle": 20871,
    "Ġisolation": 17153,
    "dest": 4104,
    "Ġmeanwhile": 5736,
    "Ġshore": 4834,
    "Ġdiscours": 18719,
    "enances": 10156,
    "Ġinstruction": 14347,
    "Ġglued": 20592,
    "Ġconducting": 16652,
    "Ġmincer": 14369,
    "Ġprudence": 13923,
    "vanished": 15063,
    "idea": 9304,
    "Ġinspect": 5965,
    "Ġfat": 3463,
    "Ġjaws": 5593,
    "ites": 3900,
    "Ġfolly": 7941,
    "eminently": 25108,
    "barb": 10083,
    "Ġweig": 7620,
    "crimin": 17511,
    "Ġthreat": 5154,
    "Ġalarm": 4047,
    "thanking": 24326,
    "î": 175,
    "ioning": 21512,
    "Ġfin": 1459,
    "Ġbrigs": 20325,
    "Ġharvest": 13419,
    "Ġdeser": 3889,
    "P": 52,
    "inking": 6711,
    "Ġput": 1802,
    "Ġwatchman": 23668,
    "Ġdangerously": 23941,
    "Ġscrolled": 22293,
    "Ġpendulous": 25956,
    "Ġworried": 22929,
    "h": 76,
    "Ġcranes": 20386,
    "ß": 160,
    "eprints": 12796,
    "Ġattention": 1173,
    "inition": 11559,
    "Ġblade": 11897,
    "shr": 10981,
    "Ġforeboding": 20387,
    "vul": 15451,
    "bacc": 7795,
    "Ġconvey": 9984,
    "sir": 5001,
    "Ġslave": 7454,
    "Ġhedge": 8364,
    "Ġheld": 3589,
    "Ġhorror": 3774,
    "begged": 18521,
    "Ġglens": 18849,
    "plain": 1359,
    "mons": 17602,
    "ublic": 11229,
    "murderer": 13397,
    "deser": 10481,
    "occup": 7753,
    "resh": 8405,
    "Ġfiled": 15584,
    "Ġopine": 19230,
    "Ġsubterranean": 13615,
    "imson": 12694,
    "Ġbarbs": 10534,
    "Ġcondescended": 19959,
    "Ġswimmer": 19462,
    "wandering": 20287,
    "Ġuntoward": 19167,
    "Ġpunishment": 9959,
    "Ġurging": 24505,
    "Ġaffidavit": 20726,
    "Ġinte": 2066,
    "warnings": 20354,
    "Ġcranial": 25593,
    "penny": 22948,
    "sharp": 10308,
    "Ġgenerator": 3383,
    "Ġfactory": 23279,
    "Ġpyth": 21463,
    "ctors": 21593,
    "announce": 24561,
    "Ġcorroded": 18877,
    "Ġcaresses": 26060,
    "Ġimpart": 11784,
    "mat": 2200,
    "sa": 8760,
    "Ġmagnanim": 14475,
    "Ġagreeing": 20022,
    "Ġinquired": 7486,
    "holes": 12058,
    "Ġashore": 5352,
    "Ġslabs": 13066,
    "Ġoften": 1956,
    "Ġlamentations": 17077,
    "Ġfrequencies": 4788,
    "Ġdeuteronomy": 15764,
    "revival": 26163,
    "Ġshaster": 22002,
    "inform": 10146,
    "earn": 10698,
    "religion": 20578,
    "bble": 17487,
    "Ġastir": 14642,
    "quiet": 6156,
    "lected": 1640,
    "Ġuntouched": 16467,
    "Ġvancouver": 26567,
    "Ġcrowded": 8012,
    "Ġblushed": 13007,
    "Ġhurling": 19112,
    "Ġstrand": 11832,
    "Ġprimal": 17108,
    "Ġback": 826,
    "Ġforfeit": 21779,
    "postp": 24635,
    "theirs": 23604,
    "Ġsacred": 10932,
    "Ġmisfortune": 5569,
    "desolation": 20462,
    "Ġlye": 21554,
    "Ġupward": 9724,
    "value": 18811,
    "Ġdyspepsia": 20645,
    "oil": 7805,
    "declared": 15122,
    "Ġphysiology": 25333,
    "Ġbeadle": 26486,
    "Ġlie": 4406,
    "morrow": 4571,
    "Ġgree": 7596,
    "distant": 13339,
    "wer": 8396,
    "Ġcond": 3877,
    "ountain": 2919,
    "Ġabsurd": 7202,
    "rossed": 11014,
    "ullied": 23107,
    "Ġempty": 5354,
    "Ġconsume": 12964,
    "Ġineffectual": 17387,
    "probable": 17023,
    "Ġpeaceable": 14726,
    "Ġwidows": 24239,
    "stained": 21652,
    "Ġdismast": 12893,
    "lled": 10110,
    "Ġbreezes": 14872,
    "conscience": 14863,
    "Ġrods": 9756,
    "Ġalphabetical": 17204,
    "Ġeverywhere": 9799,
    "Ġprocessions": 18435,
    "Ġlat": 5087,
    "cabinet": 25080,
    "reds": 12755,
    "ichever": 13960,
    "Ġcruel": 5121,
    "jets": 20930,
    "str": 2577,
    "Ġbellies": 13360,
    "Ġsulky": 13518,
    "Ġemboldened": 22953,
    "Ġblossom": 26313,
    ",*": 17474,
    "beries": 22750,
    "Ġhinge": 25542,
    "Ġglobe": 6077,
    "Ġstatistics": 1684,
    "Ġcoop": 14276,
    "Ġadjusting": 3413,
    "Ġlatest": 16824,
    "younger": 11314,
    "Ġwitnesses": 9489,
    "Ġaval": 15496,
    "missed": 11211,
    "Ġquit": 5246,
    "Ġdozing": 22247,
    "Ġfalsely": 20585,
    "bank": 10082,
    ",--âĢľ": 19199,
    "Ġbedrooms": 19973,
    "Ġparaph": 22124,
    "itchen": 7788,
    "Ġwrite": 3823,
    "Ġventilator": 8717,
    "Ġindifference": 6727,
    "Ġdelusion": 18976,
    "Ġgo": 613,
    "Ġvehement": 16205,
    "Ġrescales": 5068,
    "Ġceaseless": 13492,
    "Ġcleaned": 23184,
    "Ġjerking": 12250,
    "Ġinternal": 2245,
    "Ġtheory": 5799,
    "Ġbroke": 5323,
    "ends": 6040,
    "bro": 4034,
    "pire": 9138,
    "Ġdiffusion": 23784,
    "Ġsuspect": 5758,
    "Ġamerica": 6764,
    "Ġtranscend": 25672,
    "Ġdiscussion": 17197,
    "bearing": 9768,
    "hat": 6956,
    "Ġsmut": 22561,
    "):": 11463,
    "Ġwoollen": 12108,
    "Ġunjustly": 17129,
    "Ġhindoo": 17178,
    "uten": 11625,
    "abhor": 12712,
    "Ġincorrect": 2730,
    "Ġincul": 22554,
    "Ġlim": 2375,
    "ipp": 10105,
    "us": 531,
    "sence": 3308,
    "engaged": 7452,
    "Ġsquad": 22838,
    "Ġassisted": 11113,
    "scr": 16243,
    "Ġcapable": 5054,
    "advice": 12162,
    "Ġsqueeze": 10042,
    "Ġthee": 2621,
    "Ġlxi": 21564,
    "picture": 11409,
    "Ġcursed": 6729,
    "ineas": 15825,
    "girdling": 26391,
    "creator": 26383,
    "Ġded": 2490,
    "tom": 15438,
    "Ġdromed": 15601,
    "Ġbetween": 792,
    "surd": 6934,
    "Ġthickets": 24028,
    "Ġtyro": 16996,
    "Ġladder": 8601,
    "quietude": 24656,
    "Ġopenness": 18959,
    "Ġlane": 5627,
    "Ġbarbara": 24815,
    "Ġmer": 2931,
    "dragging": 16611,
    "mightily": 24106,
    "Ġforced": 4352,
    "ourage": 2450,
    "Ġbarbed": 14838,
    "sm": 3436,
    "Ġdisput": 14258,
    "Ġexcused": 23316,
    "wet": 15455,
    "ems": 5235,
    "oy": 1018,
    "iliating": 12700,
    "recklessly": 25270,
    "Ġdespairing": 14776,
    "Ġmerest": 14033,
    "Ġharrow": 17928,
    "Ġgames": 11629,
    "Ġcrammed": 16472,
    "Ġlabyrinth": 13683,
    "etween": 774,
    "Ġteach": 8555,
    "kings": 17585,
    "Ġspouter": 12803,
    "Ġelig": 9781,
    "Ġstrongly": 5657,
    "Ġruth": 14097,
    "should": 3264,
    "Ġeleven": 9393,
    "suitableness": 26262,
    "Ġbohemia": 10652,
    "Ġcrawling": 17046,
    "village": 25423,
    "Ġconfinement": 19041,
    "Ġbackwards": 12932,
    "Ġopposite": 5120,
    "recl": 15513,
    "ep": 441,
    "narrative": 17322,
    "assist": 11771,
    "misery": 13348,
    "Ġorbs": 22096,
    "Ġhint": 5016,
    "Ġkeeping": 7283,
    "dried": 20829,
    "Ġsummarization": 3650,
    "Ġmors": 17803,
    "Ġinterest": 2247,
    "figure": 13559,
    "Ġmartin": 25437,
    "Ġmonomania": 17086,
    "Ġloafer": 18300,
    "arson": 22753,
    "emin": 8473,
    "returned": 7766,
    "Ġwing": 6668,
    "Ġtwinkle": 12327,
    "aulets": 18620,
    "Ġp": 288,
    "also": 7851,
    "waters": 11335,
    "Ġapologizing": 25198,
    "confess": 12180,
    "Ġisa": 14028,
    "Ġwretch": 6379,
    "believing": 19465,
    "âĢĶâĢĻâĢĿ": 20067,
    "crippled": 26386,
    "Ġadvoc": 12999,
    "Ġscope": 15948,
    "Ġdirection": 1797,
    "Ġcrow": 3807,
    "Ġincarn": 11818,
    "Ġred": 3008,
    "Ġflogged": 23626,
    "Ġiron": 3236,
    "Ġpublicly": 13327,
    "pidation": 18898,
    "pha": 22772,
    "pal": 9619,
    "osition": 1372,
    "retaining": 21248,
    "Ġmultiplication": 2872,
    "binder": 17502,
    "programming": 10066,
    "Ġfaster": 3197,
    "rised": 10126,
    "Ġleviathan": 3291,
    "Ġyourselves": 9031,
    "ă": 196,
    "ols": 2409,
    "octial": 20008,
    "Ġmiraculous": 13551,
    "fitted": 17546,
    "Ġhydraulic": 10067,
    "present": 1140,
    "ulgences": 21869,
    "Ġremote": 8923,
    "Ġinsulted": 14995,
    "eches": 8078,
    "Ġonly": 790,
    "Ġmelancholy": 5606,
    "Ġcontraction": 16012,
    "Ġthenceforth": 25183,
    "----âĢĻ": 24102,
    "Ġwhereof": 16106,
    "Ġzoology": 22822,
    "Ġbeside": 5192,
    "Ġgratitude": 5599,
    "Ġdeceit": 13485,
    "Ġstra": 2994,
    "castles": 14638,
    "Ġpiteous": 17918,
    "prick": 19346,
    "Ġaccusation": 22382,
    "alarmed": 21506,
    "consumed": 25677,
    "commission": 22826,
    "Ġgor": 9209,
    "Ġhated": 7586,
    "ifying": 5252,
    "Ġloosed": 22116,
    "Ġnorth": 4319,
    "peasant": 23113,
    "Ġunfrequ": 19511,
[...]
