{
  "metadata": {
    "vocab_size": 26616,
    "algorithm": "BPE",
    "created_at": "2026-06-05 06:20:50",
    "special_tokens": [
      "<PAD>",
      "<SOS>",
      "<EOS>",
      "<UNK>",
      "<MASK>"
    ]
  },
  "vocab": {
    "Ġhowled": 12853,
    "Ġdispirited": 23883,
    "Ġpirate": 14996,
    "Ġspark": 6689,
    "Ġspending": 10921,
    "apter": 1195,
    "Ġinward": 11605,
    "phere": 21018,
    "expectations": 24279,
    "woods": 13419,
    "Ġhover": 15618,
    "Ġkicked": 10579,
    "ĠlinnÃ¦us": 15274,
    "Ġrifled": 21978,
    "hem": 6663,
    "Ġrendering": 16657,
    "eat": 11481,
    "vering": 15714,
    "rier": 9241,
    "Ġproud": 5654,
    "Ġmeta": 3214,
    "Ġdominant": 12395,
    "Ġanyways": 22520,
    "Ġoutright": 18414,
    "inching": 21188,
    "unity": 4153,
    "Ġbree": 5013,
    "Ġboasting": 19936,
    "Ġcircus": 19093,
    "Ġimbib": 22167,
    "Ġuncork": 23431,
    "Ġinvests": 14867,
    "oct": 7554,
    "Ġabomin": 8188,
    "Ġcalendar": 18877,
    "Ġincurable": 22552,
    "water": 4868,
    "Ġtalents": 15044,
    "Ġregularizer": 2338,
    "Ġmonstr": 7666,
    "Ġexplored": 23518,
    "enth": 6680,
    "Ġlandlord": 5581,
    "Ġazure": 12373,
    "Ġhose": 12625,
    "tend": 17675,
    "headed": 4319,
    "Ġpreprocessing": 26538,
    "Ġident": 2240,
    "Ġrollicking": 24454,
    "Ġsultan": 15183,
    "Ġgregarious": 18965,
    "Ġsheeted": 19832,
    "Ġspiced": 22132,
    "Ġunfl": 22019,
    "mpt": 6653,
    "clinging": 20821,
    "green": 7115,
    "displeasure": 23496,
    "Ġstretching": 10013,
    "penet": 11068,
    "Ġstartled": 7082,
    "oices": 7348,
    "Ġrestored": 7066,
    "concealed": 25119,
    "Ġg": 310,
    "Ġrivals": 20270,
    "Ġspatial": 2733,
    "Ġmagician": 25062,
    "spe": 3562,
    "Ġdesperado": 19820,
    "sc": 1259,
    "Ġcentury": 8290,
    "rudently": 16710,
    "Ġslate": 11936,
    "possession": 12220,
    "clouds": 25499,
    "mind": 4626,
    "Ġsymmetry": 20364,
    "eronomy": 15524,
    "flames": 14711,
    "jewell": 25526,
    "Ġostentatious": 25739,
    "Ġhansom": 13664,
    "insensibility": 23068,
    "Ġmaximizing": 3167,
    "perth": 22184,
    "Ġ98": 24596,
    "satisfied": 10576,
    "culiarity": 11140,
    "Ġanyone": 4458,
    "Ġopium": 8994,
    "wolf": 26411,
    "Ġexceptionable": 25506,
    "Ġbleached": 24399,
    "Ġforeseen": 16443,
    "cape": 13697,
    "hic": 3247,
    "Ġquiver": 16002,
    "Ġraw": 3317,
    "convinced": 10620,
    "several": 5544,
    "access": 11178,
    "Ġeul": 21618,
    "ere": 6789,
    "treacle": 25151,
    "Ġdisappearance": 9296,
    "Ġquito": 24411,
    "sincere": 16907,
    "Ġsnuff": 7991,
    "Ġcrib": 21346,
    "Ġunwarrant": 20133,
    "zek": 16261,
    "Ġcarriages": 11096,
    "Ġstructural": 2801,
    "Ġboys": 5194,
    "Ġsubsequent": 7658,
    "Ġthirds": 16708,
    "interchange": 23739,
    "unbidden": 21893,
    "Ġmorals": 22972,
    "Ġmitig": 1339,
    "Ġstern": 4223,
    "lined": 12482,
    "umberland": 16837,
    "Ġconjectured": 9995,
    "Ġanticipatingly": 26104,
    "Ġsoda": 25537,
    "Ġtongues": 14862,
    "Ġsilk": 11961,
    "Ġsailed": 4888,
    "Ġascertain": 9705,
    "Ġtormenting": 15103,
    "ĠâĢľâĢĻ": 22254,
    "ascertain": 21540,
    "Ġineffect": 13930,
    "Ġpay": 3966,
    "market": 16839,
    "_.âĢĶ": 23474,
    "iments": 4946,
    "Ġirritated": 17242,
    "Ġcosmopolitan": 20640,
    "chor": 6146,
    "Ġgravesend": 15215,
    "Ġlothario": 26186,
    "hawk": 7121,
    "zes": 11547,
    "Ġbow": 3061,
    "Ġhogarth": 25783,
    "um": 453,
    "strength": 13980,
    "ologically": 22874,
    "Ġbathe": 25446,
    "Ġsenior": 17171,
    "reproof": 25435,
    "creat": 20799,
    "Ġmuttered": 7086,
    "Ġendurance": 23145,
    "Ġmassa": 19454,
    "enter": 7857,
    "Ġwestmorland": 24393,
    "answered": 10271,
    "Ġreader": 11932,
    "Ġthrusts": 24353,
    "Ġdecision": 2677,
    "Ġsustain": 11367,
    "Ġmagg": 18906,
    "Ġenh": 3077,
    "Ġcluster": 13571,
    "Ġcontest": 18474,
    "'re": 12427,
    "forward": 2187,
    "preservation": 25308,
    "medium": 23640,
    "Ġstraggling": 23752,
    "mont": 19170,
    "Ġalleghan": 25798,
    "Ġlower": 2663,
    "Ġdirt": 15592,
    "Ġrecommence": 16812,
    "Ġinterpretation": 19717,
    "flesh": 13490,
    "Ġvector": 1972,
    "Ġjumping": 13341,
    "Ġventil": 8019,
    "tack": 12511,
    "wond": 8766,
    "Ġmarshy": 20218,
    ":âĢĶâĢĺ": 24196,
    "Ġyoun": 1406,
    "Ġexpert": 18868,
    "otions": 7180,
    "Ġfiles": 21411,
    "daw": 17522,
    "condem": 16342,
    "fishers": 24932,
    "Ġsoles": 22081,
    "Ġresumed": 11810,
    "Ġconstrued": 26303,
    "Ġincline": 18570,
    "hooked": 23713,
    "elab": 21567,
    "penn": 18827,
    "Ġexclusion": 19396,
    "conve": 14242,
    "Ġpaw": 12618,
    "Ġdarts": 16768,
    "ichever": 13957,
    "Ġexhale": 24405,
    "Ġservant": 5764,
    "Ġmouthfuls": 20645,
    "rig": 7556,
    "Ġprof": 2458,
    "Ġwanting": 6721,
    "nal": 1904,
    "dark": 5614,
    "imagine": 19932,
    "haul": 14764,
    "Ġdiverted": 14592,
    "Ġdolphin": 17311,
    "Ġpluck": 15612,
    "Ġeucl": 24712,
    "Ġimpress": 6861,
    "duchess": 18464,
    "hundred": 8330,
    "ture": 7558,
    "Ġdiscu": 4364,
    "Ġhom": 9186,
    "Ġsurp": 9634,
    "didn": 9006,
    "Ġrudimental": 25112,
    "uesday": 8587,
    "condescended": 26251,
    "itiousness": 21332,
    "Ġprestige": 22235,
    "eon": 8729,
    "Ġgreen": 3053,
    "Ġadieu": 10048,
    "pless": 6260,
    "squall": 13522,
    "âĢĶ_": 3198,
    "Ġrepresent": 1211,
    "Ġsimilarity": 3165,
    "willingness": 24758,
    "Ġprompted": 23817,
    "Ġanaly": 1138,
    "Ġcolour": 4460,
    "Ġassaults": 15155,
    "gigantic": 15358,
    "Ġrealistic": 5860,
    "itives": 17820,
    "ĠĠĠĠĠĠĠĠĠĠĠĠĠĠĠĠĠĠĠĠĠĠĠĠĠĠĠĠ": 9973,
    "Ġbod": 4580,
    "sm": 3434,
    "Ġstepdaughter": 22612,
    "Ġmales": 17806,
    "Ġspinning": 15052,
    "eleg": 20848,
    "outside": 12802,
    "Ġunlikely": 10906,
    "Ġcounted": 12138,
    "Ġfunctional": 3049,
    "Ġafford": 4366,
    "postp": 24637,
    "swallowed": 14852,
    "lo": 682,
    "acknowledged": 15201,
    "copper": 19189,
    "Ġtut": 8768,
    "Ġroasted": 18461,
    "parad": 16378,
    "Ġundeniable": 26512,
    "urable": 8936,
    "Ġinformation": 1047,
    "directed": 20403,
    "Ġrocks": 6863,
    "deacon": 22151,
    "Ġ43": 14768,
    "Ġalex": 15132,
    "Ġcanvas": 7783,
    "address": 14880,
    "Ġpolitic": 23620,
    "Ġbutt": 14126,
    "dared": 13702,
    "teenth": 11872,
    "Ġsurvive": 9066,
    "Ġgaieties": 24198,
    "Ġcoward": 7155,
    "Ġroylott": 7305,
    "Ġnoblest": 13241,
    "Ġunanswerable": 26523,
    "69": 17474,
    "Ġours": 4611,
    "puff": 21021,
    "Ġbolt": 11332,
    "Ġindepend": 3668,
    "lin": 9603,
    "Ġmouth": 3178,
    "anges": 1674,
    "Ġperusal": 14225,
    "garn": 20869,
    "Ġmoulton": 17434,
    "Ġultimately": 17164,
    "Ġslouched": 13057,
    "ased": 1267,
    "alas": 8802,
    "Ġ123": 24471,
    "companions": 15023,
    "ĠĠĠĠĠĠĠĠĠĠĠĠĠĠĠĠĠĠĠĠĠĠĠĠĠĠĠĠĠĠĠĠĠ": 12042,
    "Ġcrowned": 16841,
    "Ġwhen": 513,
    "Ġwhiteness": 5918,
    "Ġimplicated": 24878,
    "Ġleads": 12095,
    "astern": 8581,
    "suggested": 17298,
    "alarms": 21502,
    "Ġrescued": 24209,
    "Ġresponded": 13638,
    "Ġprominence": 18955,
    "Ġsignal": 5944,
    "Ġpossessions": 23825,
    "Ġunhappily": 18262,
    "Ġimpending": 22380,
    "urrection": 12407,
    "Ġbodiless": 24229,
    "Ġunreasonably": 17450,
    "Ġportent": 12080,
    "Ġjac": 1899,
    "fore": 688,
    "Ġmassive": 9930,
    "Ġhabitations": 24792,
    "Ġflit": 23006,
    "icilian": 20690,
    "Ġinserting": 19907,
    "Ġstrateg": 1337,
    "heavens": 19746,
    "Ġvortex": 26210,
    "Ġbridge": 8348,
    "Ġfriendly": 9819,
    "Ġhit": 7163,
    "Ġem": 1925,
    "you": 1006,
    "individual": 18437,
    "netherfield": 9812,
    "veral": 2352,
    "Ġmean": 741,
    "Ġadaptation": 3154,
    "osp": 6854,
    "oring": 1861,
    "Ġcommentaries": 20160,
    "alk": 1150,
    "ivates": 18274,
    "Ġbarrel": 23793,
    "softened": 20408,
    "Ġfinger": 5273,
    "wrinkles": 16555,
    "Ġdiffused": 12067,
    "Ġabode": 7899,
    "backward": 2685,
    "Ġformation": 2944,
    "Ġimpreg": 15985,
    "surround": 16758,
    "crimes": 16697,
    "Ġfull": 2177,
    "Ġrides": 21973,
    "Ġordained": 19445,
    "leading": 15560,
    "tumultuous": 20397,
    "Ġrecess": 10845,
    "avering": 24796,
    "Ġnooks": 26013,
    "Ġredress": 23753,
    "cures": 20804,
    "Ġinterrupting": 19558,
    "Ġgreeks": 20013,
    "odecimo": 11443,
    "Ġcomo": 21846,
    "Ġcolours": 12973,
    "under": 3130,
    "sterdam": 19091,
    "Ġswept": 7977,
    "Ġprimary": 25064,
    "Ġdella": 21437,
    "attributed": 23120,
    "Ġcanopy": 18327,
    "acit": 16079,
    "difference": 13708,
    "Ġfun": 524,
    "Ġoverthrown": 18430,
    "Ġhos": 4942,
    "Ġasiatic": 20428,
    "Ġeverything": 3153,
    "Ġflowers": 8940,
    "Ġpaces": 13919,
    "Ġtill": 1826,
    "Ġtransparency": 10674,
    "Ġopera": 23427,
    "Ġpeleg": 3740,
    "pregn": 18494,
    "Ġcorners": 18875,
    "Ġtackles": 8050,
    "closing": 23157,
    "prim": 23811,
    "iance": 5279,
    "Ġsteep": 2890,
    "Ġshiver": 12765,
    "Ġlowers": 23242,
    "Ġincumbent": 16061,
    "therly": 18346,
    "uction": 15443,
    "Ġretained": 7173,
    "Ġsalutation": 12396,
    "Ġmark": 2330,
    "Ġdisown": 22524,
    "autumn": 23344,
    "Ġshorter": 4498,
    "Ġregularly": 7657,
    "vision": 5620,
    "Ġloath": 7889,
    "Ġdescent": 997,
    "Ġfeeds": 16433,
    "glory": 23853,
    "dan": 17515,
    "owing": 7601,
    "Ġfuel": 13904,
    "Ġoutstretched": 14195,
    "consolatory": 25309,
    "preserver": 20213,
    "Ġelder": 7223,
    "Ġseated": 4540,
    "Ġancest": 12612,
    "Ġdeepest": 8212,
    "Ġmaintaining": 1507,
    "Ġsevered": 18205,
    "Ġinhale": 20299,
    "shunned": 22462,
    "sails": 7497,
    "invest": 11558,
    "arab": 21439,
    "Ġringleader": 26214,
    "Ġeaten": 14844,
    "Ġarrant": 23298,
    "Ġyelled": 9693,
    "Ġsupplies": 20325,
    "Ġhereditarily": 25227,
    "importance": 9987,
    "uzz": 4523,
    "Ġfollowing": 4065,
    "Ġaccents": 14220,
    "Ú": 155,
    "Ġtotally": 9470,
    "Ġlestrade": 5825,
    "Ġwarning": 9058,
    "an": 278,
    "Ġsporting": 16999,
    "mutually": 26138,
    "Ġconveyed": 8334,
    "Ġremembered": 5276,
    "Ġknelt": 12157,
    "convul": 24887,
    "Ġsymph": 22210,
    "Ġconfident": 11136,
    "ouble": 2662,
    "Ġcomplaints": 12263,
    "confusion": 13369,
    "Ġirrespective": 23376,
    "abb": 15737,
    "Ġcategorization": 12135,
    "Ġsullenly": 17172,
    "Ġblotches": 25317,
    "Ġacceptance": 14826,
    "Ġeyebrows": 23516,
    "ashes": 6015,
    "Ġnearer": 5301,
    "Ġpri": 5813,
    "glings": 23852,
    "Ġnorthward": 13321,
    "Ġcompromised": 22571,
    "Ġpolitely": 8993,
    "Ġarve": 15892,
    "Ġpractice": 2911,
    "Ġtrucks": 19513,
    "Ġfurthermore": 1171,
    "slack": 16894,
    "Ġcove": 22582,
    "Ġaudio": 24775,
    "Ġhealthcare": 8015,
    "Ġdre": 1744,
    "Ġaccumulated": 11929,
    "Ġattain": 12745,
    "ĠĠĠĠĠ": 3527,
    "Ġscrewed": 15119,
    "liking": 22924,
    "Ġresisted": 22541,
    "Ġbumps": 21390,
    "Ġnote": 4265,
    "blog": 19840,
    "Ġexhilarating": 26339,
    "igns": 8447,
    "imet": 21704,
    "court": 7511,
    "Ġlurk": 13383,
    "Ġdirectors": 18922,
    "commod": 16169,
    "aul": 6352,
    "Ġcomely": 21847,
    "Ġprehensile": 26536,
    "zetts": 17715,
    "connected": 1308,
    "swimming": 24261,
    "Ġburnwell": 13267,
    ":--": 5784,
    "Ġprayers": 12123,
    "Ġcold": 3033,
    "Ġto": 297,
    "Ġcons": 953,
    "Ġlocations": 12411,
    "amidst": 25655,
    "Ġvariations": 22666,
    "ract": 1002,
    "Ġintervals": 5598,
    "Ġnotion": 7881,
    "Ġcompens": 14263,
    "Ġloathed": 15874,
    "bub": 15315,
    "operations": 19975,
    "Ġtrick": 7020,
    "concent": 19480,
    "Ġmapp": 2082,
    "Ġcreases": 22725,
    "cable": 20796,
    "Ġdrifted": 14625,
    "4": 24,
    "imprisonment": 23763,
    "Ġupbraiding": 26228,
    "Ġdegree": 3703,
    "t": 88,
    "consequential": 26252,
    "aught": 2681,
    "Ġardent": 9968,
    "Ġundoing": 22034,
    "Ġoutward": 7903,
    "Ġswords": 19898,
    "Ġghastly": 10057,
    "Ġalluding": 18236,
    "Ġbinnacle": 8118,
    "goldsmith": 20147,
    "lected": 1635,
    "dut": 10085,
    "disappearing": 23503,
    "Ġacute": 16122,
    "forster": 16165,
    "Ġsuffice": 18870,
    "flex": 24847,
    "teak": 22817,
    "ertips": 23641,
    "Ġkrusenstern": 26379,
    "Ġportra": 9008,
    "Ġbachelor": 7786,
    "Ġkitty": 3911,
    "Ġmarines": 16257,
    "Ġwhole": 1662,
    "removed": 15516,
    "ut": 308,
    "Ġcause": 2407,
    "ans": 459,
    "Ġunwaning": 25173,
    "ethics": 8877,
    "Ġsport": 6688,
    "Ġgener": 587,
    "Ġchalk": 15932,
    "Ġpromote": 23193,
    "antled": 18286,
    "Ġslung": 23169,
    "agitation": 14068,
    "Ġneat": 6999,
    "Ġushered": 18358,
    "Ġbag": 5699,
    "kerchief": 7525,
    "Ġende": 21931,
    "Ġburning": 5976,
    "Ġhearers": 15701,
    "oftentimes": 19421,
    "Ġfreshe": 13069,
    "ath": 862,
    "Ġnative": 4640,
    "Ġreduced": 11922,
    "result": 12043,
    "Ġmule": 13862,
    "Ġency": 21932,
    "aggoo": 5130,
    "devils": 20033,
    "Ġoust": 21322,
    "Ġflesh": 5968,
    "parameter": 2771,
    "ittered": 18440,
    "Ġsecuring": 11991,
    "Ġinexplicable": 12255,
    "contrad": 19293,
    "assist": 11765,
    "yd": 21141,
    "Ġmira": 8406,
    "proble": 9393,
    "Ġrecognised": 8995,
    "ishly": 14199,
    "Ġlawyers": 25251,
    "Ġbroadway": 23986,
    "Ġsubmission": 22790,
    "Ġscalding": 16349,
    "\"],": 26122,
    "sharp": 10304,
    "civility": 17513,
    "strong": 6322,
    "ding": 1230,
    "Ġpupils": 20419,
    "black": 6768,
    "Ġrefresh": 10343,
    "cordiality": 25141,
    "Ġlucerne": 23865,
    "Ġexpressive": 8982,
    "skylight": 25626,
    "fears": 18529,
    "Ġdiabolical": 20341,
    "Ġ>": 21150,
    "Ġseek": 4508,
    "ifer": 11682,
    "Ġreadability": 2728,
    "ldog": 21916,
    "hind": 20893,
    "Ġnocturnal": 20714,
    "Ġpaint": 7707,
    "Ġgobern": 22425,
    "hyme": 19610,
    "antediluvian": 24349,
    "ureau": 10224,
    "Ġdru": 8421,
    "inforcement": 3203,
    "ois": 9134,
    "Ġcasually": 25097,
    "Ġuncle": 3190,
    "Ġcoarse": 14273,
    "whe": 1072,
    "Ġestimable": 23873,
    "allic": 12811,
    "Ġdomes": 23731,
    "represent": 9637,
    "Ġfrantic": 7956,
    "Ġcontextual": 3744,
    "Ġanecd": 20154,
    "Ġ92": 24593,
    "Ġcontrivance": 17183,
    "Ġsurmise": 12294,
    "Ġserious": 4323,
    "Ġdividing": 12110,
    "naturedly": 24844,
    "Ġobscurely": 20188,
    "lacing": 17591,
    "Ġclams": 19989,
    "Ġensure": 23686,
    "Ġnicely": 8708,
    "ders": 8074,
    "Ġchill": 11750,
    "Ġplant": 8899,
    "Ġmaid": 5285,
    "apside": 22960,
    "nial": 20983,
    "Ġfitting": 21406,
    "kilt": 4866,
    "blunder": 24133,
    "Ġmonoton": 3637,
    "Ġviolates": 3163,
    "halfway": 24314,
    "ories": 4752,
    "Ġdreaded": 8288,
    "Ġtouched": 6000,
    "Ġchanced": 8186,
    "Ġcoleman": 22587,
    "Ġsubsided": 14550,
    "sets": 17661,
    "Ġcompassion": 6487,
    "Ġkept": 3343,
    "Ġpitied": 14691,
    "Ġconstru": 19073,
    "uity": 12516,
    "Ġdreams": 7496,
    "haw": 6361,
    "life": 4932,
    "adequ": 11018,
    "Ġsoaked": 15861,
    "log": 18538,
    "Ġimpotent": 18445,
    "contempt": 13190,
    "Ġameric": 3855,
    "Ġsummar": 3526,
    "country": 6103,
    "Ġdepos": 11004,
    "sme": 17659,
    "Ġquietly": 4566,
    "Ġnib": 13940,
    "promontory": 24731,
    "Ġaccomplish": 14875,
    "boats": 6204,
    "Ġignominy": 15084,
    "Ġprobability": 1122,
    "Ġhovel": 8253,
    "affectionate": 24925,
    "£": 101,
    "Ġvouch": 15808,
    "Ġascend": 9958,
    "Ġmoney": 3417,
    "Ġstormy": 16728,
    "sand": 21051,
    "Ġmetropolitan": 17275,
    "Ġhost": 7068,
    "Ġchoice": 2164,
    "Ġsetting": 7046,
    "imp": 3034,
    "ught": 2755,
    "Ġoaths": 13524,
    "Ġdeception": 18139,
    "verity": 14001,
    "Ġfits": 8789,
    "Ġpresentation": 14480,
    "Ġnarrative": 6215,
    "destroyed": 15259,
    "Ġdauntless": 26338,
    "meat": 18679,
    "concerning": 9067,
    "Ġschedule": 2369,
    "Ġdischarge": 18557,
    "15": 12429,
    "Ġvariation": 22665,
    "Ġdusky": 13549,
    "Ġcriminal": 7537,
    "came": 4569,
    "brother": 7091,
    "Ġbelf": 21379,
    "Ġcheerfulness": 10514,
    "ersburgh": 18218,
    "Ġgates": 10198,
    "Ġspots": 11727,
    "Ġvacancy": 9044,
    "Ġdumb": 7843,
    "Ġlic": 8435,
    "Ġcondem": 6338,
    "Ġeffectively": 2693,
    "Ġlife": 1355,
    "outh": 2689,
    "Ġhonestly": 19972,
    "Ġformidable": 8219,
    "adier": 18089,
    "Ġexposes": 22625,
    "Ġcastle": 14716,
    "ĠĠĠĠĠĠĠĠĠĠĠĠĠĠĠĠĠĠĠĠĠĠĠĠĠĠĠĠĠĠĠĠĠĠ": 14614,
    "Ġdelight": 2548,
    "dial": 20824,
    "Ġ1894": 5196,
    "liked": 10506,
    "Ġexcuse": 5861,
    "Ġintrepid": 11704,
    "unning": 4493,
    "Ġaffair": 4462,
    "Ġhelper": 24028,
    "steady": 14708,
    "Ġinsol": 10178,
    "Ġconsumm": 15153,
    "leviathan": 7784,
    "ap": 547,
    "Ġphrase": 11185,
    "K": 47,
    "Ġdepartments": 24245,
    "clothes": 9057,
    "Ġpapers": 4024,
    "Ġevening": 2653,
    "Ġbrides": 22865,
    "ensibility": 22547,
    "Ġrestlessness": 23292,
    "lost": 8887,
    "whel": 7664,
    "Ġtooks": 23326,
    "impotence": 23762,
    "Ġfren": 10804,
    "Ġregained": 18590,
    "¾": 127,
    "Ġreasonable": 7254,
    "Ġhapless": 15811,
    "plutarch": 21956,
    "ordered": 8788,
    "Ġfrequent": 3284,
    "Ġsummoned": 9909,
    "adem": 21756,
    "Ġrumours": 24601,
    "Ġseap": 15816,
    "Ġwarped": 25039,
    "Ġlearns": 2643,
    "Ġacc": 589,
    "Ġappro": 639,
    "Ġdecidedly": 9508,
    "cceed": 4144,
    "sad": 11519,
    "Ġdemocracy": 25461,
    "Ġswelling": 11923,
    "Ġhonor": 5664,
    "Ġhumble": 8551,
    "gentleman": 7518,
    "Ġunprinciple": 18254,
    "ograph": 4798,
    "Ġfrosts": 19803,
    "Ġamounted": 18517,
    "Ġ1000": 3116,
    "Ġcensure": 15094,
    "Ġportcullis": 26605,
    "performed": 18344,
    "Ġrubbing": 9320,
    "Ġchurches": 12825,
    "ry": 807,
    "abbering": 21795,
    "Ġsevere": 6031,
    "Ġbalm": 22903,
    "Ġbreak": 2868,
    "ectual": 21914,
    "ideas": 18584,
    "Ġbackpropagation": 1253,
    "Ġhabits": 6926,
    "Ġsubur": 12954,
    "Ġaccount": 2319,
    "Ġfanciful": 24791,
    "Ġprogramming": 1186,
    "fleet": 15013,
    "single": 10124,
    "Ġcup": 5697,
    "Ġgaining": 9492,
    "troubled": 17112,
    "Ġgoin": 18470,
    "Ġsprang": 5065,
    "lynes": 15702,
    "Ġfrederick": 15585,
    "icip": 6389,
    "Ġabsolute": 6765,
    "ineff": 21965,
    "malice": 17605,
    "rece": 21233,
    "oded": 11669,
    "Ġcable": 11578,
    "Ġmisty": 16538,
    "Ġhusbands": 16642,
    "gener": 3124,
    "Ġ1839": 20458,
    "Ġwalking": 4325,
    "X": 60,
    "considerable": 10546,
    "Ġbodies": 8031,
    "Ġgroaned": 11264,
    "Ġhish": 21912,
    "chose": 18041,
    "Ġenthus": 7232,
    "arat": 9180,
    "broke": 14775,
    "Ġpens": 21458,
    "given": 8376,
    "Ġdiscriminator": 3391,
    "Ġleaking": 21744,
    "instances": 13319,
    "Ġpopularly": 12240,
    "Ġfiftieth": 24706,
    "Ġdisenc": 22526,
    "ump": 2283,
    "asingly": 17961,
    "Ġstealing": 18892,
    "isl": 21373,
    "island": 10793,
    "mil": 13752,
    "swing": 15429,
    "apologizing": 26546,
    "Ġtumbling": 13826,
    "mselves": 2862,
    "onsense": 6431,
    "intments": 18821,
    "Ġincant": 18569,
    "Ġfearful": 6197,
    "Ġmature": 17800,
    "ateg": 1334,
    "leep": 4634,
    "indispensable": 14209,
    "Ġcontr": 1916,
    "Ġoccupied": 5272,
    "Ġbulky": 13228,
    "Ġjohn": 5033,
    "Ġfrankly": 16745,
    "approbation": 11457,
    "Ġreturned": 2892,
    "attendants": 25498,
    "Ġspitzbergen": 15286,
    "Ġintermix": 22579,
    "Ġsuggest": 5417,
    "rates": 21037,
    "ho": 2858,
    "Ġbreakers": 12054,
    "Ġtempestuous": 20071,
    "Ġother": 758,
    "Ġtwilight": 16120,
    "Ġwindibank": 7257,
    "attention": 2110,
    "Ġcritic": 19126,
    "Ġtaurus": 21177,
    "Ġasp": 15779,
    "star": 12670,
    "Ġduty": 4073,
    "entials": 22663,
    "itate": 6667,
    "Ġ181": 23895,
    "Ġtempt": 5565,
    "saddest": 25530,
    "anned": 17840,
    "Ġmamma": 10045,
    "Ġdestroyer": 13413,
    "Ġelij": 8908,
    "Ġtambourine": 9564,
    "Ġgro": 4396,
    "quitted": 21856,
    "elfth": 22369,
    "Ġnormalizes": 1863,
    "Ġvalid": 1695,
    "Ġdisturbing": 19946,
    "Ġmiscellaneous": 17462,
    "Ġfaster": 3195,
    "Ġbarbed": 14834,
    "plan": 15813,
    "Ġvess": 3293,
    "ete": 9203,
    "ignant": 11127,
    "albatross": 15628,
    "Ġscroll": 14191,
    "iscuit": 10596,
    "cross": 3577,
    "Ġrecent": 7436,
    "Ġen": 392,
    "Ġsoutherly": 23333,
    "z": 94,
    "'(": 2980,
    "M": 49,
    "rule": 15895,
    "Ġparlor": 13540,
    "monkey": 19171,
    "acetty": 24467,
    "inese": 12877,
    "Ġdesigned": 7740,
    "Ġreferences": 21672,
    "Ġgirth": 13135,
    "deceit": 25559,
    "reader": 23847,
    "Ġkne": 4268,
    "Ġob": 861,
    "befall": 22495,
    "create": 24162,
    "Ġexceedingly": 4613,
    "Ġoffended": 7040,
    "Ġexcepting": 14680,
    "Ġsunbeam": 23276,
    "Ġbring": 3320,
    "often": 6165,
    "Ġappe": 1543,
    "swell": 17664,
    "Ġnecess": 3474,
    "ayed": 12710,
    "proportion": 16179,
    "Ġeyed": 12667,
    "Ġoverhung": 15971,
    "learned": 8591,
    "Ġrepast": 16411,
    "pursued": 17281,
    "Ġrugged": 18721,
    "passed": 8025,
    "Ġvulture": 17338,
    "gradually": 12913,
    "Ġshock": 6082,
    "pret": 7212,
    "Ġassociation": 24714,
    "Ġrepaired": 13107,
    "gan": 2199,
    "Ġfolded": 7767,
    "Ġspades": 12794,
    "Ġdown": 832,
    "oubtedly": 6943,
    "drove": 16993,
    "Ġdeparture": 6490,
    "Ġbuilt": 8300,
    "Ġmystical": 12131,
    "Ġconvulsive": 19308,
    "Ġderbyshire": 6586,
    "shroud": 20311,
    "Ġcorn": 9349,
    "urns": 10211,
    "plentiful": 21955,
    "Ġclut": 7641,
    "Ġdesolated": 24815,
    "Ġwalked": 3138,
    "Ġscarcely": 4012,
    "Ġanim": 2113,
    "Ġfourth": 7706,
    "occurred": 13337,
    "Ġniag": 21527,
    "Ġcompute": 2906,
    "Ġhearses": 20060,
    "Ġwithheld": 18114,
    "Ġtaught": 6803,
    "Ġoutput": 929,
    "Ġsigns": 2440,
    "ts": 959,
    "Ġvariety": 8530,
    "Ġhaz": 12753,
    "izard": 10881,
    "screaming": 20324,
    "hew": 5364,
    "Ġoh": 2175,
    "Ġobeyed": 12215,
    "mathematics": 26306,
    "Ġfant": 9173,
    "ipotence": 22362,
    "noo": 9792,
    "uplifted": 17696,
    "resnet": 4072,
    "Ġpropagating": 20632,
    "ith": 330,
    "Ġsleeves": 10658,
    "umbered": 22116,
    "Ġlighter": 12651,
    "Ġadvent": 4357,
    "Ġdriver": 16474,
    "ignific": 11954,
    "Ġscimet": 22293,
    "iant": 5427,
    "Ġda": 5150,
    "Ġreliable": 18777,
    "Ġawake": 8271,
    "suffer": 24336,
    "Ġoffing": 16141,
    "Ġcontinual": 6777,
    "onze": 21254,
    "Ġslope": 14460,
    "pedest": 24698,
    "presented": 12988,
    "Ġpugnacious": 26453,
    "Ġmines": 21307,
    "ht": 376,
    "plague": 21952,
    "Ġext": 894,
    "reclining": 20573,
    "Ġimprecations": 25822,
    "Ġmedicine": 15204,
    "Ġlands": 6594,
    "Ġputs": 19034,
    "Ġcrackling": 24962,
    "Ġsallied": 12535,
    "sincerely": 24587,
    "Ġselection": 18204,
    "hastening": 24451,
    "Ġblandly": 20322,
    "Ġdisgusted": 14989,
    "persecut": 22188,
    "unt": 2044,
    "Ġthroat": 7770,
    "inquiry": 15141,
    "Ġworn": 6445,
    "appearing": 14637,
    "Ġtim": 4577,
    "extinguish": 22770,
    "rily": 7621,
    "Ġkill": 4453,
    "Ġgettest": 23233,
    "quent": 2095,
    "ctor": 13960,
    "Ġro": 601,
    "Ġ1": 1016,
    "Ġdirected": 5579,
    "Ġequilibrium": 4142,
    "Ġlinear": 3431,
    "Ġintens": 7003,
    "Ġpreliminary": 10054,
    "Ġacres": 14312,
    "smote": 23910,
    "caus": 11475,
    "Ġautumn": 14510,
    "Ġdet": 512,
    "Ġpledge": 11599,
    "corpse": 24489,
    "Ġban": 7156,
    "Ġconfl": 11135,
    "ssian": 3399,
    "Ġpout": 17907,
    "event": 8076,
    "Ġshouting": 10520,
    "Ġdepressions": 25801,
    "aste": 4600,
    "Ġlowered": 6735,
    "dimensional": 2347,
    "Ġbriefly": 11365,
    "Ġsink": 4341,
    "Ġpell": 21454,
    "bweb": 20790,
    "Ġploughing": 26261,
    "arp": 2028,
    "Ġripple": 25507,
    "Ġtide": 6658,
    "Ġbenefits": 4288,
    "valley": 16212,
    "dripping": 16905,
    "Ġclimes": 12838,
    "Ġmatrimonial": 25492,
    "front": 12169,
    "urg": 8141,
    "combe": 7660,
    "Ġextracted": 16312,
    "hunsford": 24389,
    "Ġenderby": 13651,
    "Ġtroubling": 26549,
    "Ġwhaleman": 4654,
    ",âĢĶâĢľ": 10067,
    "precise": 19351,
    "Ġtwink": 8215,
    "Ġcents": 17829,
    "Ġinstantaneous": 14612,
    "Ġplus": 3884,
    "Ġhing": 11602,
    "always": 5708,
    "Ġinsatiate": 19272,
    "Ġpathways": 11151,
    "anel": 21355,
    "Ġsentence": 6186,
    "Ġposs": 1616,
    "scorched": 25700,
    "Ġfasten": 11130,
    "Ġinconsist": 17936,
    "oars": 9614,
    "acceptance": 25188,
    "Ġconfiding": 19040,
    "Ġpreced": 6039,
    "Ġdilated": 24707,
    "isf": 2432,
    "Ġarrive": 6907,
    "Ġvulgarity": 25365,
    "che": 3169,
    "Ġseventy": 7879,
    "Ġanswers": 7070,
    "Ġapartment": 6633,
    "lakeman": 13751,
    "ology": 1580,
    "Ġshouldn": 14324,
    "Ġbuilded": 24722,
    "Ġupbraid": 18316,
    "whims": 22238,
    "Ġdexterously": 25298,
    "Ġluff": 15651,
    "Ġmanifested": 17157,
    "augh": 1783,
    "Ġreliance": 14384,
    "Ġtolerably": 8067,
    ",)": 9100,
    "Ġcontrive": 16009,
    "Ġmexic": 14031,
    "Ġcomputational": 1624,
    "Ġcreat": 1362,
    "Ġmemorable": 16427,
    "discovery": 12016,
    "pus": 3413,
    "Ġcapric": 14575,
    "thunder": 10259,
    "Ġmeetings": 16531,
    "hus": 5073,
    "Ġfire": 2332,
    "client": 18932,
    "Ġlapl": 19778,
    "dies": 15337,
    "Ġpremeditated": 22233,
    "where": 2093,
    "ger": 1104,
    "wing": 2519,
    "Ġcollect": 7237,
    "arts": 6563,
    "Ġpink": 12616,
    "Ġcabal": 23643,
    "Ġpop": 5151,
    "chastic": 2333,
    "Ġheartily": 6890,
    "Ġinscriptions": 20009,
    "Ġgrappling": 25815,
    "------": 12132,
    "pon": 17626,
    "Ġears": 4490,
    "Ġel": 801,
    "Ġkeys": 11996,
    "Ġgag": 21590,
    "dry": 13703,
    "Ġsynthe": 26009,
    "ots": 3292,
    "Ġadmiring": 16480,
    "entieth": 17979,
    "Ġstubbornness": 25382,
    "Ġvengeful": 14889,
    "Ġterminated": 23510,
    "Ġspeedy": 11170,
    "Ġleathern": 15050,
    "persuade": 13533,
    "ahead": 12433,
    "waistcoat": 17360,
    "Ġextensive": 12941,
    "Ġpattern": 1316,
    "cking": 4267,
    "omn": 15680,
    "Ġinterest": 2247,
    "sen": 21048,
    "Ġindicate": 23720,
    "Ġautonomous": 10673,
    "ĠĠĠĠĠĠĠĠĠĠĠĠĠĠĠĠĠĠĠĠĠĠĠĠĠĠĠĠĠĠĠĠĠĠĠĠĠĠĠĠĠĠ": 24212,
    "int": 1199,
    "stick": 15683,
    "Ġslippers": 19616,
    "allest": 5485,
    "osition": 1373,
    "Ġpainted": 7978,
    "throwing": 11700,
    "hand": 2761,
    "Ġawed": 23587,
    "Ġwarned": 16880,
    "Ġsteadfastly": 10649,
    "Ġprocedures": 9411,
    "Ġseventh": 18206,
    "shake": 22452,
    "Ġunexpl": 22038,
    "Ġhopelessly": 16375,
    "vi": 2373,
    "orers": 14103,
    "sebastian": 21818,
    "ogne": 12938,
    "Ġfringed": 17272,
    "Ġrisk": 8038,
    "Ġstreng": 18070,
    "Ġtranced": 18434,
    "Ġsunday": 7270,
    "ortment": 22256,
    "Ġtant": 12523,
    "Ġdecreasing": 2442,
    "Ġstrongest": 11133,
    "Ġgrounds": 6749,
    "Ġpenet": 6888,
    "riv": 3108,
    "Ġphotograph": 6302,
    "Ġwan": 15527,
    "Ġvinc": 14085,
    "Ġfading": 15582,
    "Ġsunlight": 13084,
    "Ġsequence": 1977,
    "ming": 3602,
    "Ġfollowed": 1795,
    "sudden": 5315,
    "rubber": 12809,
    "histor": 13491,
    "Ġbaked": 21384,
    "Ġtobacco": 8366,
    "Ġoptim": 792,
    "Ġcompliments": 8632,
    "Ġreign": 13985,
    "Ġdaniel": 15110,
    "Ġaccompany": 9486,
    "Ġstrugg": 3215,
    "owners": 16086,
    "Ġeaster": 15673,
    "Ġahoy": 12183,
    "Ġchuckled": 10645,
    "Ġbeth": 9657,
    "Ġprognost": 15280,
    "Ġproportionably": 19971,
    "Ġgleam": 12307,
    "Ġpostmark": 16725,
    "Ġbounded": 16626,
    "ien": 10099,
    "Ġangles": 23590,
    "Ġointment": 21324,
    "Ġassertion": 13489,
    "Ġrepaid": 19084,
    "Ġoccasional": 7289,
    "Ġmembrane": 20502,
    "Ġpossessed": 5195,
    "resembled": 21245,
    "Ġsensible": 4977,
    "Ġequilib": 4138,
    "Ġtenants": 23549,
    "Ġtexel": 25925,
    "Ġincommod": 25310,
    "Ġdrawers": 12104,
    "mad": 5280,
    "ontory": 10457,
    "Ġpapered": 20130,
    "Ġoffices": 14336,
    "Ġshoot": 11159,
    "desired": 8956,
    "irm": 3107,
    "ezes": 9989,
    "Ġsincer": 13064,
    "Ġprodigiously": 14931,
    "Ġnotes": 7189,
    "metallic": 19881,
    "tra": 4934,
    "enstein": 5799,
    "adel": 15727,
    "bale": 20773,
    "Ġconvul": 13203,
    "nose": 17611,
    "lose": 12880,
    "Ġwished": 3730,
    "Ġsmack": 9299,
    "Ġhe": 318,
    "U": 57,
    "Ġgeography": 23373,
    "ence": 393,
    "Ġforthwith": 16618,
    "âĢľ_": 5720,
    "Ġunerring": 15846,
    "unders": 13310,
    "emin": 8470,
    "Ġsolicited": 20037,
    "Ġspear": 9311,
    "Ġfowls": 8690,
    "Ġforce": 5093,
    "Ġjoking": 12835,
    "send": 15423,
    "dishonourable": 26367,
    "Ġdisorder": 16050,
    "Ġmistaking": 23716,
    "relig": 15512,
    "aceti": 7111,
    "Ġwithdrew": 9695,
    "Ġinert": 15620,
    "Ġshipw": 12977,
    "uer": 21099,
    "Ġmurky": 19203,
    "Ġinsulted": 14991,
    "Ġgardens": 16453,
    "versed": 9824,
    "acey": 7649,
    "topp": 22565,
    "scotland": 20527,
    "thoughts": 9933,
    "m": 81,
    "Ġadopt": 10629,
    "Ġdescend": 7427,
    "Ġchuck": 8500,
    "Ġunderground": 18986,
    "Ġconsoled": 18112,
    "Ġraging": 14307,
    "rocious": 21536,
    "Ġdenied": 9000,
    "enge": 21279,
    "ock": 15402,
    "Ġstated": 9688,
    "bowing": 24457,
    "rain": 461,
    "Ġvaguely": 17365,
    "relieved": 13275,
    "Ġreminding": 19798,
    "first": 3936,
    "Ġpitching": 16611,
    "mechan": 11855,
    "language": 5129,
    "Ġdireful": 11016,
    "narwhale": 17317,
    "accur": 14593,
    "curious": 10480,
    "Ġpartake": 18671,
    "cstasy": 11444,
    "Ġfishy": 16523,
    "Ġswiss": 18881,
    "Ġapprehen": 16829,
    "ifying": 5251,
    "Ġsixpence": 19318,
    "Ġfare": 5809,
    "Ġwounded": 8657,
    "Ġcopse": 17067,
    "Ġwarrant": 17795,
    "agrad": 2750,
    "Ġlies": 5295,
    "Ġantiquity": 15229,
    "our": 534,
    "Ġturing": 7566,
    "jury": 15372,
    "mut": 17596,
    "confidential": 25878,
    "ibilities": 13006,
    "unched": 10233,
    "ĠĠĠĠĠĠĠ": 7631,
    "Ġsallow": 12534,
    "judging": 24204,
    "recol": 10148,
    "sw": 4740,
    "inhabited": 13620,
    "Ġdiscern": 7925,
    "Ġworks": 5858,
    "Ġrel": 1094,
    "ile": 522,
    "Ġleave": 2455,
    "Ġbear": 3658,
    "crippled": 26386,
    "Ġrenders": 13282,
    "tarpaulins": 26407,
    "someone": 14563,
    "mo": 863,
    "rudence": 7092,
    "ulls": 8837,
    "ently": 1615,
    "Ġleisure": 6539,
    "mor": 4216,
    "Ġterminating": 23511,
    "Ġbelrive": 18831,
    "assistant": 25570,
    "Ġmisanthropic": 26562,
    "erity": 21266,
    "zed": 8103,
    "wit": 7817,
    "Ġhammer": 6093,
    "Ġattributed": 11831,
    "Ġhairy": 23866,
    "Ġtelegra": 11890,
    "Ġinhaled": 25454,
    "engines": 18928,
    "pass": 4292,
    "ousness": 10272,
    "libr": 22923,
    "Ġwhitened": 24871,
    "neighboring": 20615,
    "Ġdrink": 4787,
    "Ġmankind": 6698,
    "Ġunrel": 14695,
    "ates": 519,
    "Ġjackets": 19603,
    "steelkilt": 10044,
    "Ġforked": 11663,
    "Ġabst": 9265,
    "Ġsize": 1216,
    "Ġyellowish": 24433,
    "Ġtrump": 8196,
    "pall": 17629,
    "Ġrotation": 25477,
    "Ġoverwhelming": 17102,
    "Ġstrung": 22615,
    "feeling": 6616,
    "am": 367,
    "del": 4079,
    "Ġfellow": 2780,
    "Ġhyper": 19740,
    "Ġsurv": 6081,
    "allows": 15906,
    "Ġbeheld": 4492,
    "Ġtranspointed": 22474,
    "ele": 9114,
    "would": 2350,
    "Ġclues": 18422,
    "Ġcorruption": 15224,
    "Ġreynolds": 10207,
    "claps": 23154,
    "Ġtub": 7146,
    "sulphur": 25911,
    "Ġpains": 5964,
    ",âĢĶ": 3168,
    "Ġmorbidness": 20627,
    "Ġfrolic": 23924,
    "Ġcultivation": 17145,
    "Ġstructured": 2974,
    "fort": 1749,
    "Ġblinded": 13269,
    "Ġabhorrence": 9052,
    "Ġbarbaric": 10012,
    "Ġausten": 5880,
    "springing": 24893,
    "Ġfoolscap": 24161,
    "Ġraiment": 22657,
    "Ġprejudiced": 24812,
    "oters": 21798,
    "encountered": 20391,
    "Ġpillow": 10035,
    "towing": 17690,
    "ancholy": 5071,
    "rely": 6123,
    "arness": 11671,
    "Ġarcher": 22178,
    "Ġcompanionship": 14919,
    "Ġstarvation": 19792,
    "Ġorbs": 22091,
    "Ġupset": 22142,
    "Ġboot": 11837,
    "Ġhardware": 4904,
    "lived": 12485,
    "istics": 1628,
    "Ġtraffic": 23082,
    "Ġresnet": 5473,
    "Ġimpatiently": 8337,
    "Ġoutline": 15953,
    "swelled": 19611,
    "Ġsearching": 13162,
    "Ġweaver": 11686,
    "complacency": 19915,
    "promise": 12249,
    "pagans": 25528,
    "rously": 17655,
    "Ġesteem": 7531,
    "Ġmorocco": 26575,
    "Ġtracing": 18888,
    "Ġdelights": 14596,
    "Ġugl": 12680,
    "Ġcompass": 4408,
    "Ġgoethe": 22424,
    "Ġschol": 17376,
    "Ġinglorious": 24427,
    "ved": 869,
    "Ġpoul": 15611,
    "Ġsaying": 3242,
    "fisher": 7547,
    "Ġmorrow": 9341,
    "Ġanecdote": 26356,
    "Ġfrogs": 23923,
    "Ġcrawled": 17044,
    "Ġapprehens": 5682,
    "Ġcyn": 13886,
    "Ġcircumn": 11983,
    "Ġadoption": 24952,
    "Ġparasol": 22120,
    "Ġescape": 2647,
    "Ġunful": 22010,
    "bulkington": 19926,
    "Ġnailed": 10187,
    "Ġhumans": 8928,
    "Ġinventing": 24865,
    "Ġfloor": 4378,
    "incredible": 16498,
    "Ġdarling": 12602,
    "hero": 21203,
    "Ġslewed": 23386,
    "Ġprejudice": 9075,
    "Ġanger": 5442,
    "Ġaccused": 8507,
    "Ġxxv": 19718,
    "library": 12997,
    "Ġwreaths": 25939,
    "sheltered": 25588,
    "Ġwhereupon": 14295,
    "Ġyoungest": 7953,
    "Ġopinion": 3140,
    "Ġwantest": 18790,
    "Ġdiabolically": 25516,
    "consp": 18504,
    "Ġchannel": 26014,
    "Ġelegant": 7532,
    "Ġpoland": 23619,
    "Ġex": 362,
    "Ġcomprehended": 11292,
    "Ġfurnace": 19440,
    "inions": 8401,
    "`": 68,
    "Ġmonstrous": 7789,
    "embarr": 15797,
    "Ġtry": 3132,
    "Ġdism": 9766,
    "closed": 23155,
    "Ġoppress": 13174,
    "simply": 20669,
    "heim": 17747,
    "aspect": 10191,
    "Ġcarries": 7673,
    "Ġpilgrim": 25602,
    "endom": 15917,
    "Ġwaist": 6892,
    "chel": 11205,
    "Ġpatroness": 13510,
    "house": 4080,
    "Ġpatiently": 19919,
    "7": 27,
    "Ġrecommend": 7102,
    "Ġeulogy": 26473,
    "majesty": 26282,
    "Ġinde": 7371,
    "cheerful": 13575,
    "Ġmade": 1048,
    "¯": 112,
    "Ġseen": 1368,
    "rical": 11517,
    "Ġgrows": 4986,
    "boone": 23255,
    "Ġiron": 3234,
    "socket": 22728,
    "precision": 4332,
    "sweetly": 25138,
    "ise": 707,
    "Ġsuperb": 16445,
    "Ġexterior": 19988,
    "Ġfortun": 4983,
    "riers": 18181,
    "Ġinsisted": 12045,
    "objections": 19917,
    "Ġshades": 9461,
    "entiful": 10835,
    "cket": 3687,
    "abular": 4761,
    "Ġprofessors": 14724,
    "objects": 13470,
    "position": 15413,
    "Ġaccusation": 22396,
    "icate": 9201,
    "Ġinfer": 7683,
    "load": 12879,
    "Ġscornful": 25000,
    "Ġsignals": 10583,
    "Ġdishes": 16049,
    "Ġsoc": 3525,
    "Ġfalls": 14644,
    "robust": 19729,
    "bantering": 25256,
    "Ġsituations": 10489,
    "Ġadmeasure": 18293,
    "probable": 17021,
    "Ġpitiless": 19388,
    "Ġarthur": 7196,
    "Ġexcessive": 3893,
    "Ġkrempe": 10667,
    "eld": 970,
    "max": 1684,
    "Ġmonotonically": 3835,
    "Ġlizard": 12652,
    "Ġbald": 16205,
    "spell": 22731,
    "Ġuses": 1209,
    "upright": 23016,
    "Ġnailing": 21524,
    "Ġencourage": 10378,
    "Ġaccost": 12848,
    "Ġrain": 5006,
    "Ġbarrels": 9435,
    "Ġjung": 12834,
    "Ġdynam": 3365,
    "Ġmantelpiece": 15206,
    "Ġtus": 10748,
    "Ġcircumst": 2976,
    "queness": 18147,
    "Ġfortifications": 23622,
    "Ġtowards": 1727,
    "Ġadduced": 26526,
    "Ġhereabouts": 12976,
    "Ġgoble": 14229,
    "Ġhey": 11640,
    "Ġdimens": 3148,
    "prep": 9757,
    "Ġeither": 2603,
    "Ġsnaky": 23742,
    "Ġpecks": 18670,
    "Ġskylight": 24075,
    "ego": 4038,
    "Ġreplen": 11113,
    "Ġcrush": 9421,
    "pequod": 7052,
    "Ġflock": 21409,
    "hall": 8084,
    "rank": 21040,
    "masculine": 24390,
    "v": 90,
    "Ġcomplied": 14733,
    "mansion": 20982,
    "Ġattached": 5392,
    "Ġprovoke": 14825,
    "Ġcult": 8780,
    "Ġwaiting": 4324,
    "Ġhunsford": 6301,
    "Ġdisappeared": 5645,
    "Ġflounders": 23013,
    "oughed": 22085,
    "Ġblo": 2737,
    "engagements": 25855,
    "unts": 12729,
    "rud": 4192,
    "Ġpropose": 9851,
    "²": 115,
    "Ġmonsie": 11446,
    "vap": 13803,
    "hearted": 6970,
    "Ġcleansed": 26295,
    "unwho": 21876,
    "Ġascertained": 25299,
    "Ġcongen": 10871,
    "Ġsurvivors": 25735,
    "Ġenchantment": 24873,
    "Ġcontraction": 16007,
    "Ġparmacetti": 20603,
    "Ġroyals": 19533,
    "itancy": 21331,
    "monster": 8592,
    "Ġblossom": 26314,
    "Ġgenius": 8045,
    "venant": 22628,
    "Ġcommend": 10332,
    "rodu": 1820,
    "antee": 22096,
    "Ġillness": 8589,
    "Ġsave": 4054,
    "Ã": 132,
    "Ġduke": 7755,
    "passion": 11258,
    "Ġmourning": 13478,
    "Ġtricks": 13484,
    "Ġperfectly": 3700,
    "Ġaunts": 21199,
    "Ġboisterously": 25685,
    "Ġjour": 11762,
    "Ġtranslates": 12050,
    "Ġshank": 21996,
    "Ġrepelled": 19087,
    "dered": 2472,
    "conceive": 16028,
    "regards": 23468,
    "Ġinnocent": 4921,
    "correspond": 13398,
    "Ġactuated": 18546,
    "holloa": 19464,
    "Ġsources": 10145,
    "Ġpuzzled": 7317,
    "Ġ550": 19642,
    "depths": 25666,
    "Ġostent": 13584,
    "approach": 24837,
    "Ġsketch": 16163,
    "years": 6883,
    "Ġbarriers": 23796,
    "Ġtumbled": 13406,
    "Ġprophe": 13078,
    "Ġdesper": 6176,
    "Ġimped": 18441,
    "Ġcy": 13874,
    "Ġtoma": 7373,
    "Ġardour": 8042,
    "Ġbuzz": 23999,
    "ection": 4949,
    "lean": 21363,
    "ceptive": 15967,
    "Ġcharmed": 16762,
    "Ġsustained": 13482,
    "Ġimpression": 5732,
    "ay": 354,
    "Ġshed": 8180,
    "Ġstaving": 21736,
    "bbs": 23690,
    "nered": 18490,
    "Ġoccupation": 9929,
    "Ġbeauties": 10443,
    "putable": 10899,
    "incl": 8109,
    "belongs": 25599,
    "Ġbarbarous": 13476,
    "Ġfamous": 5255,
    "Ġnoisier": 4624,
    "python": 4691,
    "Ġarrangement": 2658,
    "tooth": 18580,
    "Ġrainbows": 19649,
    "Ġdaylight": 10348,
    "Ġgroping": 13665,
    "Ġhighlands": 22776,
    "gg": 1997,
    "Ġswim": 3822,
    "Ġbrag": 23834,
    "george": 26021,
    "Ġvalues": 2652,
    "crack": 19841,
    "Ġheart": 1593,
    "aders": 21757,
    "splice": 17170,
    "Ġhuff": 21487,
    "Ġrumors": 11319,
    "ady": 996,
    "idol": 21765,
    "gain": 10697,
    "grant": 10425,
    "pride": 11208,
    "Ġsinister": 8568,
    "slipping": 25531,
    "Ġrelig": 8550,
    "Ġprecipice": 19941,
    "ifference": 5632,
    "iar": 2376,
    "Ġscold": 10948,
    "Ġapparent": 5466,
    "Ġstrive": 23691,
    "Ġhudson": 15190,
    "plish": 18200,
    "stir": 12671,
    "pans": 13770,
    "Ġempire": 11143,
    "Ġfree": 3375,
    "Ġenrapt": 21938,
    "disgust": 23497,
    "Ġhaven": 8473,
    "Ġtorrid": 25036,
    "Ġeffectual": 18734,
    "sneezes": 11445,
    "downward": 16619,
    "iners": 4937,
    "Ġveteran": 17449,
    "break": 6101,
    "despairing": 25078,
    "ancies": 11582,
    "disp": 7975,
    "yed": 3270,
    "ief": 2046,
    "belonged": 25600,
    "Ġdays": 2077,
    "ientific": 6547,
    "Ġoffic": 3185,
    "Ġchristian": 6479,
    "Ġamaz": 5385,
    "determ": 7105,
    "lections": 4751,
    "was": 1420,
    "direful": 25898,
    "paradise": 20635,
    "Ð": 145,
    "Ġruefully": 17300,
    "extreme": 11027,
    "Ġlangsdorff": 15275,
    "ades": 5631,
    "spot": 9787,
    "Ġungodly": 26515,
    "Ġmovement": 9966,
    "Ġmachinations": 25770,
    "Ġboston": 22638,
    "Ġpulled": 5660,
    "retaining": 21244,
    "Ġaffirm": 11885,
    "pictures": 15089,
    "gallery": 24696,
    "Ġhowling": 8509,
    "Ġoceans": 7995,
    "angle": 22102,
    "ys": 3962,
    "Ġtars": 21163,
    "Ġwaits": 23279,
    "operation": 13501,
    "Ġwillingly": 8884,
    "aract": 17895,
    "harpoon": 9490,
    "itute": 9651,
    "contrasted": 17305,
    "Ġworlds": 11946,
    "notwithstanding": 22753,
    "Ġbankers": 24305,
    "upp": 10128,
    "Ġpoised": 22590,
    "proud": 9902,
    "Ġcorroboration": 26055,
    "Ġunass": 14114,
    "Ġvaliant": 9799,
    "Ġenriched": 26501,
    "Ġcass": 13879,
    "icking": 8910,
    "Ġresponses": 23650,
    "Ġfingers": 5672,
    "Ġchapter": 2957,
    "Ġpreprocess": 22232,
    "Ġwedding": 4858,
    "Ġhardest": 18913,
    "residence": 19265,
    "Ġashamed": 6403,
    "scotch": 25852,
    "Ġgrenadier": 21614,
    "Ġsprain": 18305,
    "Ġsuccor": 25665,
    "Ġskeletons": 16791,
    "Ġrelationships": 2926,
    "indef": 17736,
    "september": 14036,
    "Ġhack": 12754,
    "Ġskylarking": 19487,
    "Ġcalmness": 12091,
    "Ġforesight": 13127,
    "Ġgra": 415,
    "Ġloved": 4598,
    "manifested": 20524,
    "word": 2487,
    "Ġcustom": 5079,
    "sec": 6152,
    "ront": 15418,
    "Ġstatements": 7516,
    "Ġconfronted": 23309,
    "Ġiroquois": 26472,
    "Ġprotectors": 9070,
    "k": 79,
    "Ġlimb": 9401,
    "ane": 1180,
    "joice": 9602,
    "Ġfoundation": 4233,
    "ham": 1701,
    "Ġcordage": 19679,
    "Ġhearken": 21683,
    "Ġlangs": 13954,
    "Ġtainted": 21169,
    "Ġportions": 19369,
    "Ġrespectable": 6736,
    "mend": 20965,
    "Ġabundantly": 17156,
    "duct": 3507,
    "ber": 884,
    "Ġmurderous": 8315,
    "Ġpile": 8423,
    "Ġflash": 8229,
    "atmospheric": 17777,
    "Ġcrab": 13144,
    "Ġmirth": 15543,
    "hip": 8739,
    "Ġmedium": 16681,
    "asked": 8911,
    "Ġorganisation": 23585,
    "Ġsurrounding": 12161,
    "whip": 22236,
    "act": 785,
    "cloudless": 20331,
    "Ġconsiderably": 7714,
    "supper": 12918,
    "philosophy": 13580,
    "Ġsweeping": 8985,
    "Ġobliquely": 12361,
    "Ġfalsehood": 10521,
    "Ġstroke": 6936,
    "Þ": 159,
    "Ġattempting": 14696,
    "ogy": 22706,
    "Ġtit": 8398,
    "Ġgrove": 12145,
    "remonstr": 23191,
    "ibid": 18840,
    "unc": 15767,
    "Ġarchangel": 8542,
    "Ġconstitutional": 25129,
    "azore": 23464,
    "Ġfatal": 5871,
    "Ġapothecary": 13659,
    "Ġobserved": 3541,
    "yesterday": 10350,
    "finger": 10091,
    "Ġreached": 4025,
    "Ġextracts": 9364,
    "splash": 25212,
    "Ġdistillation": 16044,
    "aples": 20767,
    "Ġpikes": 21476,
    "seamen": 13626,
    "Ġnegative": 1464,
    "features": 14791,
    "ruit": 22180,
    "Ġcomment": 9232,
    "useness": 22282,
    "Ġcor": 1323,
    "rollable": 13945,
    "Ġlizzy": 3548,
    "adjust": 21759,
    "Ġindefatigable": 17177,
    "Ġocc": 886,
    "Ġgrievances": 20647,
    "ster": 1952,
    "agra": 14066,
    "gee": 15973,
    "Ġburglar": 17354,
    "look": 2260,
    "cooee": 12416,
    "Ġpew": 9314,
    "rice": 13777,
    "Ġbirds": 5873,
    "Ġinterment": 22576,
    "idge": 14014,
    "Ġinch": 7849,
    "Ġdiffusion": 23783,
    "certainly": 5339,
    "Ġhandling": 8912,
    "Ġlanyard": 26463,
    "hurried": 11351,
    "consequence": 9762,
    "Ġinsignificant": 20455,
    "Ġzoology": 22821,
    "Ġisolated": 13559,
    "alously": 15627,
    "ur": 326,
    "ared": 770,
    "inj": 9151,
    "Ġsymptoms": 8704,
    "cleanliness": 25873,
    "tis": 4106,
    "abern": 21788,
    "Ġprofited": 19192,
    "Ġbody": 2433,
    "Ġopt": 791,
    "whew": 22868,
    "transp": 24515,
    "ricted": 15420,
    "Ġtakings": 20571,
    "Ġproves": 14038,
    "acters": 9308,
    "Ġslices": 23166,
    "_--": 20761,
    "Ġinflicted": 11363,
    "ission": 6457,
    "Ġeluc": 16107,
    "Ġbreed": 19075,
    "ologist": 22873,
    "apprec": 22843,
    "insulting": 26057,
    "Ġknighthood": 25300,
    "Ġnonce": 23234,
    "Ġwitt": 17784,
    "give": 4688,
    "Ġreel": 9213,
    "Ġarrives": 23609,
    "uck": 1232,
    "ogue": 9784,
    "pierced": 26143,
    "Ġfeasts": 25371,
    "Ġbegrimed": 26580,
    "Ġranging": 8478,
    "Ġflower": 16230,
    "Ġcrawl": 11374,
    "Ġinequalities": 26455,
    "Ġgem": 21591,
    "Ġidol": 7467,
    "whips": 22237,
    "ssip": 14080,
    "discernible": 20549,
    "Ġmechanism": 2141,
    "rimsh": 17027,
    "emper": 18185,
    "Ġdir": 21419,
    "perpetually": 20511,
    "dwelling": 20563,
    "introduce": 25189,
    "icorn": 15655,
    "Ġlumps": 21553,
    "Ġpiteous": 17918,
    "Ġdistances": 22504,
    "Ġaverse": 11078,
    "Ġgo": 615,
    "Ġpoltroon": 26600,
    "Ġarched": 10930,
    "Ġmin": 1027,
    "Ġrequested": 14308,
    "Ġbased": 3336,
    "horses": 17568,
    "Ġsmiles": 6706,
    "uled": 11535,
    "illity": 18296,
    "Ġvacancies": 24348,
    "._]]": 5334,
    "Ġspouts": 7729,
    "Ġshiny": 14106,
    "Ġsto": 1499,
    "Ġcolds": 23759,
    "Ġslaughtered": 26586,
    "Ġdecide": 9285,
    "Ġpressing": 9260,
    "Ġsunny": 13085,
    "gradu": 18617,
    "Ġcharity": 8862,
    "wide": 10135,
    "Ġcompetition": 14266,
    "andromeda": 21867,
    "thes": 7391,
    "Ġvigil": 9506,
    "Ġdignified": 15596,
    "Ġmountain": 3372,
    "Ġcry": 3496,
    "whisper": 17083,
    "Ġseer": 21958,
    "mother": 5480,
    "daylight": 19055,
    "drab": 23898,
    "Ġwarmup": 3924,
    "Ġunprepared": 22049,
    "Ġfain": 5808,
    "Ġelevation": 14898,
    "ĠĠĠĠĠĠĠĠĠĠĠĠĠĠĠĠĠĠĠĠĠĠĠĠĠĠ": 13388,
    "Ġori": 8408,
    "Ġslumber": 13058,
    "Ġtoward": 17947,
    "Ġwor": 1191,
    "respective": 19847,
    "Ġfitly": 24001,
    "eding": 7165,
    "Ġordered": 5832,
    "Ġrue": 11865,
    "Ġhyster": 16873,
    "useful": 16502,
    "amed": 4447,
    "meant": 7920,
    "duing": 22411,
    "Ġcorrob": 16265,
    "Ġornam": 15863,
    "Ġqueerest": 16414,
    "Ġevidently": 6759,
    "Ġentry": 11024,
    "rown": 2193,
    "Ġloomed": 12300,
    "kick": 20935,
    "Ġwilful": 10532,
    "Ġwhitt": 18055,
    "breakfast": 8687,
    "Ġrelating": 2707,
    "Ġstatement": 5254,
    "Ġdeny": 7488,
    "Ġembedding": 2104,
    "ernity": 18616,
    "ore": 418,
    "pression": 10405,
    "Ġthames": 13938,
    "izarre": 17388,
    "Ġemblazonings": 26044,
    "Ġjustine": 4971,
    "Ġpeeped": 10010,
    "Ġremember": 2679,
    "Ġcatholic": 20680,
    "Ġremainder": 9856,
    "luyt": 18455,
    "otently": 21799,
    "Ġdeclines": 23965,
    "Ġinv": 2225,
    "Ġbridges": 24685,
    "walking": 9980,
    "Ġam": 660,
    "yea": 23087,
    "Ġ42": 16678,
    "§": 105,
    "Ġkl": 2740,
    "Ġpore": 21456,
    "sentiment": 12912,
    "Ġacid": 22682,
    "Ġappre": 5165,
    "Ġunassuming": 20507,
    "Ġlaw": 3655,
    "Ġflour": 8944,
    "Ġproposal": 10016,
    "Ġessentially": 24928,
    "Ġclattered": 22349,
    "Ġsne": 6372,
    "Ġdilig": 8349,
    "Ġfall": 2989,
    "Ġindign": 6173,
    "Ġmerchantmen": 19861,
    "Ġbrother": 2752,
    "Ġmarlings": 23034,
    "each": 7335,
    "Ġacting": 10989,
    "activation": 3230,
    "repro": 10769,
    "Ġthought": 1092,
    "iop": 20918,
    "sleeping": 13454,
    "solution": 14686,
    "mbly": 9793,
    "Ġscandinav": 19961,
    "Ġaddison": 14232,
    "grew": 17555,
    "obedience": 17409,
    "Ġblaze": 16219,
    "Ġowns": 22824,
    "Ġsque": 18759,
    "_;": 6640,
    "ptember": 10891,
    "onies": 6806,
    "Ġunconquerable": 22062,
    "Ġunf": 4092,
    "Ġconflag": 20334,
    "Ġlord": 2968,
    "Ġswings": 11084,
    "Ġcoop": 14269,
    "ē": 212,
    "orous": 5292,
    "ded": 2419,
    "Ġpredestinated": 18512,
    "Ġshook": 4467,
    "Ġsaluted": 14757,
    "Đ": 209,
    "Ġaffliction": 25846,
    "specul": 23945,
    "Ġbush": 23338,
    "ĥ": 230,
    "Ġspain": 15879,
    "Ġworkman": 16271,
    "flatter": 23969,
    "mon": 2308,
    "Ġkeeps": 8266,
    "self": 617,
    "Ġsqueeze": 10036,
    "Ġfaded": 10808,
    "Ġreverence": 12058,
    "Ġhundreds": 4329,
    "Ġpilot": 5984,
    "Ġprotection": 9460,
    "keenest": 25664,
    "Ġt": 261,
    "unctuous": 21881,
    "Ġplaned": 24057,
    "Ġbrighter": 16186,
    "Ġcircular": 13110,
    "Ġinterchange": 16072,
    "Ġconcussion": 26302,
    "proceed": 8976,
    "hur": 6648,
    "eler": 1572,
    "Ġrecoil": 18693,
    "represented": 20195,
    "Ġmiddle": 4140,
    "Ġswain": 18880,
    "alyards": 18785,
    "Ġmac": 15537,
    "Ġ95": 19774,
    "rifice": 12502,
    "world": 5059,
    "ĠĠĠĠĠĠĠĠĠĠĠĠĠĠĠĠĠĠĠĠĠĠĠĠĠĠĠĠĠĠĠĠĠĠĠĠĠĠĠĠĠĠĠĠĠĠĠĠĠĠĠ": 20039,
    "Ġcircumference": 13545,
    "Ġunfeeling": 14119,
    "pp": 383,
    "Ġoptimization": 1411,
    "ual": 946,
    "entle": 1738,
    "abil": 2009,
    "Ġthinner": 24185,
    "dressed": 10693,
    "spout": 7921,
    "fright": 9595,
    "nesday": 8702,
    "Ġcorrespondence": 10592,
    "Ġproportion": 7281,
    "Ġnomine": 26458,
    "Ġbroiled": 18909,
    "Ġexchange": 15754,
    "Ġembalmed": 13656,
    "Ġbelt": 13001,
    "Ġtrans": 653,
    "Ġadversity": 24306,
    "Ġclamped": 18426,
    "Ġintolerable": 8481,
    "Ġagitates": 22517,
    "igators": 18046,
    "constit": 24607,
    "bons": 17486,
    "increasing": 20268,
    "Ġslavish": 23174,
    "Ġvices": 14083,
    "Ġsand": 6235,
    "omical": 9679,
    "Ġtutored": 20127,
    "Ġringle": 18210,
    "Ġpresum": 4837,
    "determine": 19944,
    "Ġevince": 24296,
    "Ġbloodthirsty": 26603,
    "Ġextravagant": 17278,
    "vint": 21113,
    "Ġlunging": 24993,
    "Ġgazes": 24096,
    "Ġcloth": 9742,
    "Ġlack": 17964,
    "ee": 1659,
    "Ġafterwards": 3531,
    "grateful": 10426,
    "Ġboxed": 24363,
    "gether": 1594,
    "Ġsource": 6805,
    "rable": 11631,
    "Ġallowing": 2173,
    "happy": 4424,
    "Ġxlvi": 25593,
    "Ġfullest": 14813,
    "Ġcocked": 12902,
    "telling": 14438,
    "Ġrenewing": 19811,
    "Ġrefreshed": 15289,
    "Ġromans": 16759,
    "Ġtwitching": 25686,
    "°": 113,
    "Ġarithmetic": 18338,
    "bowsprit": 16853,
    "Ġbrim": 12975,
    "unities": 15769,
    "Ġwhisky": 23935,
    "Ġirish": 14534,
    "Ġswimming": 5507,
    "Ġ126": 24474,
    "Ġchimer": 24605,
    "erative": 21271,
    "Ġsil": 1799,
    "Ġsquid": 11876,
    "Ġpumping": 25646,
    "lucas": 15150,
    "Ġdyspeps": 16511,
    "Ġtravelling": 11305,
    "Ġsamuel": 10030,
    "Ġscho": 4435,
    "use": 2536,
    "Ġsensitiveness": 23735,
    "Ġamaze": 22483,
    "Ġfearless": 9873,
    "lleg": 20950,
    "Ġintelligence": 558,
    "Ġsplin": 8618,
    "fellow": 6792,
    "Ġinteraction": 7424,
    "Ġmistress": 8611,
    "Ġdiggings": 24652,
    "Ġbeaver": 18085,
    "visitors": 13348,
    "woe": 21134,
    "opÃ¦": 12871,
    "impenetrable": 26198,
    "tawny": 26406,
    "Ġrand": 1584,
    "rinted": 21042,
    "Ġpra": 4347,
    "Ġtoler": 7588,
    "pond": 21012,
    "Ġmostly": 7663,
    "Ġsinews": 20286,
    "beds": 16586,
    "Ġcircumstance": 4988,
    "Ġready": 3397,
    "plete": 10917,
    "rougham": 15992,
    "Ġachieve": 3673,
    "Ġtend": 6120,
    "towns": 24858,
    "Ġcrutch": 23448,
    "nikin": 23247,
    "prehens": 9287,
    "Ġvectors": 1772,
    "Ġwrig": 13066,
    "Ġsudden": 2000,
    "needle": 20309,
    "Ġsoliloqu": 11883,
    "idirectional": 2418,
    "Ġinconveniences": 24943,
    "Ġclearness": 23184,
    "acquired": 24299,
    "Ġexplanations": 15909,
    "Ġconstit": 8583,
    "Ġrevolutionized": 3367,
    "Ġdol": 9664,
    "Ġsurplus": 26305,
    "Ġwinc": 9642,
    "Ġmontan": 22978,
    "run": 10720,
    "rians": 21924,
    ".*": 7331,
    "Ġsunrise": 9372,
    "immedi": 8450,
    "Ġanswering": 7477,
    "odecimoes": 25321,
    "never": 3150,
    "Ġintend": 12762,
    "Ġunfelt": 24113,
    "Ġleaning": 5228,
    "created": 12449,
    "Ġlazily": 11379,
    "ures": 839,
    "roc": 9674,
    "Ġbes": 2661,
    "Ġdegenerating": 25802,
    "Ġcreate": 2092,
    "Ġtarquin": 23612,
    "Ġpeculiarity": 12931,
    "Ġtaste": 5524,
    "tha": 15822,
    "trap": 24316,
    "showing": 22458,
    "ÿ": 192,
    "Ġswing": 13034,
    "stripped": 16945,
    "argue": 21442,
    "part": 2573,
    "Ġlouder": 13468,
    "Ġspan": 11726,
    "supervised": 1927,
    "Ġstands": 5258,
    "Ġlicensing": 20093,
    "inside": 23064,
    "prodig": 16426,
    "deploy": 22147,
    "Ġcharacter": 2797,
    "Ġzig": 18744,
    "Ġinboard": 17933,
    "Ġpanther": 16819,
    "method": 17284,
    "**": 4685,
    "foundered": 20866,
    "ĠarchÃ¦": 22779,
    "Ġirene": 8443,
    "Ġcoldness": 23760,
    "divers": 15341,
    "Ġeast": 5370,
    "Ġminiature": 11039,
    "onings": 21251,
    "Ġunwarranted": 25174,
    "apidated": 22337,
    "consider": 6348,
    "Ġeats": 15675,
    "off": 1886,
    "Ġpreservation": 24633,
    "_âĢĿ": 20760,
    "Ġwholly": 4446,
    "keys": 15859,
    "ouncing": 8494,
    "Ġeuroclydon": 15295,
    "blu": 12439,
    "amiable": 14053,
    "Ġshame": 6410,
    "Ġprofounder": 23571,
    "irregular": 21910,
    "rumours": 23900,
    "Ġpeaked": 2294,
    "oh": 1577,
    "ulatory": 15766,
    "quakes": 21855,
    "Ġemployer": 19432,
    "Ġtag": 15468,
    "Ġsurely": 6307,
    "Ġimmediately": 3366,
    "Ġhuggins": 24831,
    "Ġkeenest": 12160,
    "Ġ58": 24329,
    "Ġdriving": 3618,
    "Ġconfess": 3768,
    "Ġflirt": 14422,
    "Ġencountered": 8321,
    "Ġobe": 5800,
    "Ġholder": 6724,
    "mysteries": 26052,
    "Ġshudderings": 25203,
    "Ġshrimp": 24160,
    "Ġtawny": 20480,
    "Ġsec": 2075,
    "aded": 3551,
    "appre": 14370,
    "pur": 7806,
    "--------": 14779,
    "Ġhands": 1663,
    "Ġsufferable": 16255,
    "Ġeddy": 13123,
    "instr": 12529,
    "avenue": 25061,
    "anter": 9166,
    "side": 2299,
    "grim": 19108,
    "Ġdemanding": 16805,
    "sil": 5282,
    "Ġheroism": 24547,
    "Ġoverwhelmed": 11402,
    "uncommon": 11680,
    "whiskers": 12310,
    "bitter": 11239,
    "dled": 9110,
    "Ġrepenting": 25325,
    "Ġsuperficial": 23458,
    "dining": 13705,
    "Ġdevote": 10336,
    "Ġmates": 4872,
    "fif": 9116,
    "shook": 19857,
    "crossing": 19411,
    "agony": 14069,
    "Ġnumerous": 6920,
    "Ġessence": 13405,
    "Ġexquis": 9699,
    "sat": 4811,
    "Ġanybody": 5313,
    "racing": 21629,
    "rol": 5713,
    "aunted": 20769,
    "mag": 6508,
    "Ġd": 284,
    "Ġcant": 17825,
    "Ġdry": 5624,
    "Ġere": 3685,
    "Ġlead": 3523,
    "Ġexpansion": 22627,
    "itering": 17819,
    "Ġsurpassing": 20466,
    "Ġanswerable": 23472,
    "Ġlouisiana": 25080,
    "dart": 20825,
    "Ġatone": 15801,
    "Ġunwinding": 22059,
    "Ġtoilet": 13937,
    "situation": 11436,
    "ieving": 7031,
    "Ġescaping": 13134,
    "Ġwrung": 14469,
    "Ġexalted": 12410,
    "Ġtwitch": 22676,
    "Ġspecialized": 3923,
    "disinterested": 23502,
    "Ġheading": 8934,
    "Ġclients": 19733,
    "leo": 21362,
    "Ġwaiter": 16359,
    "Ġhedgehogs": 25396,
    "continue": 16861,
    "Ġprofessional": 7299,
    "Ġmccarthys": 19663,
    "Ġ_": 841,
    "Ġdef": 1201,
    "Ġleviathan": 3286,
    "Ġquant": 6424,
    "Ġfeatureless": 22611,
    "Ġsteer": 10384,
    "crown": 13698,
    "Ġseat": 4950,
    "Ġassociates": 24715,
    "forgive": 18732,
    "Ġpalpit": 16691,
    "ond": 1163,
    "Ġcottages": 14726,
    "Ġwil": 4579,
    "Ġfel": 1515,
    "whence": 23215,
    "science": 11907,
    "Ġcas": 8410,
    "Ġkent": 6691,
    "Ġfleetness": 20179,
    "Ġfifty": 4623,
    "Ġresistance": 13530,
    "Ġrefill": 18699,
    "Ġcoffins": 13250,
    "Ġdoc": 7200,
    "reat": 613,
    "Ġthoughtful": 16190,
    "mediate": 16513,
    "tallied": 21088,
    "Ġforbear": 17121,
    "Ġpursuit": 4732,
    "Ġineff": 12632,
    "Ġriddles": 16732,
    "Ġvenom": 24241,
    "Ġevils": 9019,
    "Ġelated": 18634,
    "Ġindispens": 22954,
    ")âĢĶâĢľ": 20742,
    "Ġswear": 6461,
    "Ġpresent": 1639,
    "croquet": 25750,
    "Ġharness": 17928,
    "Ġconsciousness": 9946,
    "Ġtart": 12525,
    "wrath": 23757,
    "jer": 12479,
    "Ġintervening": 17267,
    "university": 25985,
    "iration": 4539,
    "Ġstrained": 10216,
    "dham": 20829,
    "Ġlocking": 18298,
    "hauteur": 26393,
    "Ġsqueezing": 25010,
    "Ġnibbling": 17384,
    "Ġtreacle": 14595,
    "capting": 24041,
    "Ġtypewriting": 16420,
    "Ġendured": 6072,
    "Ġvoc": 4450,
    "Ġter": 2051,
    "Ġheave": 7599,
    "Ġmechanisms": 1576,
    "Ġdefy": 11895,
    "leagued": 26437,
    "Ġweek": 2828,
    "Ġcollected": 2611,
    "Ġelemental": 19920,
    "gences": 20876,
    "cob": 10084,
    "Ġpipe": 4322,
    "Ġproprietor": 12372,
    "Ġegypt": 9678,
    "ithing": 11648,
    "ibility": 2387,
    "Ġincarnate": 20373,
    "Ġphantom": 8706,
    "octavo": 11384,
    "Ġsisters": 3641,
    "grinder": 23416,
    "bone": 5612,
    "Ġvital": 9242,
    "oin": 17618,
    "Ġlamp": 4115,
    "Â·": 21148,
    "cen": 17502,
    "Ġfilled": 4394,
    "Ġranges": 2884,
    "Ġuncounted": 19118,
    "Ġjenny": 20162,
    "Ġdecaying": 2246,
    "horror": 13159,
    "Ġkramm": 26235,
    "Ġimmut": 13296,
    "sometimes": 5971,
    "Ġfelix": 4848,
    "tolerable": 17689,
    "Ġconcluding": 9855,
    "did": 3193,
    "orified": 21400,
    "encyclopÃ¦dia": 16663,
    "Ġsick": 4692,
    "Ġhated": 7584,
    "Ġattorney": 18621,
    "Ġassailed": 23178,
    "Ġpilgrimage": 17307,
    "Ġenabled": 9295,
    "Ġunwonted": 14125,
    "Ġnot": 413,
    "unsuitable": 21892,
    "wheeler": 16187,
    "Ġperceiving": 8875,
    "Ġfatt": 15577,
    "sub": 4659,
    "Ġconcocted": 26301,
    "musket": 25343,
    "Ġscant": 22285,
    "stochastic": 3775,
    "Ġcurios": 18858,
    "Ġalter": 6542,
    "Ġdang": 9174,
    "Ġinjuring": 24271,
    "Ġcatching": 9477,
    "ĺ": 251,
    "Ġmol": 12559,
    "Ġgri": 17988,
    "Ġwatching": 4854,
    "Ġqualities": 7533,
    "bert": 4662,
    "rob": 5534,
    "ropol": 10951,
    "Ġdecember": 15007,
    "top": 4485,
    "arial": 5532,
    "W": 59,
    "Ġdemands": 19644,
    "Ġarsac": 11740,
    "five": 6356,
    "Ġlargest": 6282,
    "private": 13582,
    "tips": 13796,
    "Ġsecrecy": 7316,
    "une": 2789,
    "Ġlabeled": 3719,
    "darcy": 5208,
    "consumed": 25677,
    "Ġprogeny": 17387,
    "poles": 16208,
    "Ġcask": 5527,
    "Ġknives": 14836,
    "Ġchimneys": 16972,
    "Ġdock": 15929,
    "rrh": 26146,
    "Ġwarbling": 26170,
    "somewhat": 11158,
    "arthy": 4823,
    "Ġevangelical": 25509,
    "irations": 18168,
    "Ġheadsmen": 14731,
    "Ġgain": 4945,
    "dragged": 16608,
    "case": 5206,
    "Ġanatomical": 15075,
    "Ġcholera": 22252,
    "Ġeclipsed": 26378,
    "quarried": 24949,
    "Ġballarat": 14718,
    "vag": 8763,
    "inion": 2875,
    "adv": 4536,
    "helped": 18924,
    "akes": 2220,
    "Ġties": 12526,
    "Ġregulations": 18591,
    "twill": 21073,
    "whalemen": 10429,
    "Ġdisadvantages": 18559,
    "Ġflooring": 23625,
    "ction": 497,
    "Ġgulf": 10633,
    "Ġcapstan": 9098,
    "Ġwhistled": 24626,
    "Ġwow": 15528,
    "congenial": 25401,
    "backs": 9390,
    "Ġreleased": 2979,
    "Ġpunctil": 20114,
    "eous": 13712,
    "Ġwildly": 9413,
    "Ġthereupon": 18435,
    "Ġcharge": 5324,
    "Ġindomitableness": 26573,
    "Ġunfold": 8022,
    "Ġcurbstone": 26048,
    "Ġchurning": 15936,
    "Ġobviously": 16810,
    "grat": 5053,
    "Ġfishing": 9662,
    "Ġfoolish": 5979,
    "Ġmile": 7151,
    "Ġinstrum": 6054,
    "mai": 22914,
    "inspector": 13646,
    "itar": 15545,
    "Ġstains": 21740,
    "heart": 4525,
    "Ġcordon": 24397,
    "assuming": 22310,
    "gay": 11487,
    "city": 15326,
    "Ġvictims": 19805,
    "Ġobsequious": 17403,
    "Ġdank": 21426,
    "uracy": 1159,
    "e": 73,
    "Ġsteeple": 19289,
    "Ġmonoman": 7938,
    "counter": 20277,
    "Ġdraws": 19436,
    "Ġrabbit": 4290,
    "drunk": 24662,
    "Ġwages": 13854,
    "emason": 18186,
    "Ġloses": 15872,
    "Ġconject": 6026,
    "waving": 21130,
    "Ġworm": 9162,
    "Ġturk": 6603,
    "Ġpict": 3499,
    "Ġits": 706,
    "Ġpictures": 5503,
    "Ġkindled": 19027,
    "Ġwound": 4527,
    "bethinking": 25748,
    "Ġbenevol": 5961,
    "garden": 15025,
    "vous": 2250,
    "Ġchival": 14181,
    "truth": 9917,
    "Ġtig": 13813,
    "ips": 2609,
    "Ġcracks": 12019,
    "Ġcubic": 20088,
    "Ġproblems": 2849,
    "hatchway": 25906,
    "Ġsincerely": 7963,
    "Ġjamming": 17264,
    "Ġrisks": 9962,
    "odd": 21813,
    "ieth": 10703,
    "Ġdouble": 4940,
    "Ġassisting": 13257,
    "Ġclothe": 4711,
    "Ġlook": 880,
    "tide": 11531,
    "crowd": 25257,
    "Ġyounge": 16287,
    "Ġimpenet": 14215,
    "atched": 6375,
    "Ġmatches": 14394,
    "behold": 12875,
    "Ġseparation": 11246,
    "mblance": 7323,
    "Ġawaited": 17074,
    "chari": 21687,
    "Ġshag": 9250,
    "Ġcommons": 22672,
    "ables": 7890,
    "Ġshin": 18227,
    "Ġoverfitting": 1545,
    "hence": 16624,
    ";--": 8068,
    "pious": 17634,
    "Ġtusk": 25428,
    "Ġrecollecting": 17113,
    "Ġpomp": 12620,
    "Ġemployed": 5200,
    "Ġanswer": 2598,
    "Ġsweetest": 13246,
    "ê": 171,
    "yours": 7694,
    "angs": 5833,
    "Ġperceptibly": 25823,
    "Ġfiend": 4411,
    "ok": 573,
    "Ġunthink": 18247,
    "scales": 22989,
    "orters": 21399,
    "Ġvalidation": 2355,
    "Ġrequire": 924,
    "othic": 16215,
    "Ġcowards": 12571,
    "Ġavalanche": 17432,
    "Ġenjoying": 11233,
    "Ġyawned": 15051,
    "Ġamerican": 5062,
    "Ġprophets": 20449,
    "Ġknowledge": 1443,
    "Ġwearily": 18177,
    "numer": 15399,
    "Ġeth": 17717,
    "Ġdiscoloured": 15251,
    "Ġsolomon": 11050,
    "Ġheavily": 6740,
    "avery": 13683,
    "Ġpunctually": 17138,
    "stooped": 23822,
    "scattered": 22990,
    "possess": 5983,
    "nineteenth": 26140,
    "Ġfirmest": 16664,
    "Ġextras": 22737,
    "Ġstilly": 25975,
    "Ġcontributes": 15249,
    "linen": 25260,
    "mitted": 5213,
    "Ġlongitudes": 22634,
    "dug": 18463,
    "Ġfoaming": 18993,
    "Ġscalable": 1712,
    "Ġbagging": 24542,
    "Ġpersonal": 7479,
    "Ġapparatus": 24912,
    "Ġriverside": 25250,
    "Ġtorn": 5999,
    "delightful": 12195,
    "Ġrequ": 829,
    "yond": 2329,
    "Ġpond": 13916,
    "Ġlips": 3995,
    "Ġcomparable": 24281,
    "ted": 789,
    "elling": 5830,
    "^{": 15303,
    "corrid": 24487,
    "Ġpoliteness": 8273,
    "Ġwheeled": 14139,
    "Ġmurdering": 14810,
    "Ġsibbald": 21229,
    "camp": 15329,
    "Ġrequirements": 9794,
    "immediate": 20094,
    "Ġunsounded": 15848,
    "tt": 13790,
    "Ġestim": 3345,
    "Ġburnt": 9926,
    "Ġmor": 1249,
    "Ġpieces": 7369,
    "Ġcontinuation": 22918,
    "Ġarray": 12807,
    "Ġspecimens": 18853,
    "Ġvineyarder": 25609,
    "Ġproduces": 2094,
    "Ġseams": 12124,
    "Ġundressed": 19514,
    "Ġwes": 8777,
    "Ġspurned": 12795,
    "bounded": 13439,
    "Ġmount": 7362,
    "fooled": 24422,
    "Ġregent": 18589,
    "doesn": 19821,
    "Ġslack": 8955,
    "Ġaberdeen": 26543,
    "Ġminimizing": 3463,
    "allions": 22197,
    "magn": 10608,
    "Ġnovelties": 24781,
    "Ġellenborough": 26156,
    "Ġnorthumbria": 24174,
    "observing": 25497,
    "Ġimposed": 14210,
    "Ġloftiest": 16874,
    "Ġsung": 23273,
    "Ġaz": 9629,
    "Ġenduring": 16302,
    "four": 6113,
    "err": 1137,
    "Ġphant": 7055,
    "conducted": 25575,
    "traces": 24318,
    "Ġvulgar": 13604,
    "Ġinconsiderable": 21492,
    "runs": 25418,
    "Ġenvirons": 13171,
    "Ġtexture": 19161,
    "Ġharbour": 19980,
    "Ġcreated": 2709,
    "Ġdarcy": 1345,
    "Ġbumpkins": 25284,
    "Ġshooting": 11160,
    "Ġshocked": 9400,
    "angu": 569,
    "Ġimmensities": 25333,
    "Ġblue": 3453,
    "glances": 23854,
    "Ġprimal": 17107,
    "Ġrealities": 18983,
    "Ġenforced": 21937,
    "Ġtreat": 3173,
    "obliged": 20630,
    "Ġdefend": 9339,
    "typewritten": 26040,
    "bushes": 24450,
    "Ġdiscomposure": 20377,
    "Ġcultivated": 17363,
    "darted": 20831,
    "pyramid": 21029,
    "Ġcheered": 16368,
    "ras": 21035,
    "Ġdress": 4023,
    "Ġbrazier": 26322,
    "Ġlandowner": 23382,
    "Ġcrystal": 17214,
    "Ġground": 2847,
    "Ġbanking": 19631,
    "Ġwanted": 4969,
    "figure": 13555,
    "Ġtwitched": 20442,
    "Ġtickets": 17094,
    "Ġencounter": 6627,
    "kicked": 20942,
    "Ġtransp": 4769,
    "Ġlocked": 6034,
    "Ġusual": 3945,
    "Ġwhiskers": 10490,
    "Ġdiscriminative": 4328,
    "lips": 13750,
    "Ġthere": 564,
    "idled": 21767,
    "Ġsafie": 6617,
    "Ġswitching": 23057,
    "gathered": 13732,
    "whole": 6085,
    "Ġindies": 22951,
    "Ġprecaution": 11195,
    "Ġaboard": 6697,
    "Ġextreme": 2515,
    "Ġberths": 20115,
    "Ġstudying": 9842,
    "Ġcontin": 5382,
    "religion": 20574,
    "superst": 11323,
    "ternatural": 12713,
    "Ġdistributions": 1050,
    "Ġunfolding": 17086,
    "Ġinhabited": 12184,
    "Ġbars": 13897,
    "Ġshattered": 7883,
    "urre": 10854,
    "elled": 3996,
    "Ġadro": 15866,
    "Ġtack": 5621,
    "Ġbrimming": 22866,
    "Ġannouncement": 14832,
    "overcoat": 19053,
    "aves": 3600,
    "Ġwr": 1547,
    "Ġforg": 3788,
    "verdict": 21727,
    "Ġmeekly": 26492,
    "lingly": 9772,
    "ised": 1097,
    "Ġrightly": 13063,
    "Ġlongbourn": 3509,
    "Ġpoets": 11819,
    "mpus": 13757,
    "Ġbaron": 19335,
    "cart": 10686,
    "Ġtransitory": 16030,
    "engthen": 14456,
    "Ġwhaler": 7520,
    "Ġexempt": 21828,
    "Ġyawn": 7609,
    "Ġmechanically": 14396,
    "still": 4220,
    "seen": 2881,
    "Ġplainpalais": 20736,
    "ested": 3478,
    "Ġchink": 15931,
    "ims": 7176,
    "fluttering": 23975,
    "Ġexpl": 487,
    "Ġinsensible": 12324,
    "mess": 13753,
    "herself": 4890,
    "Ġtoast": 21509,
    "greek": 25407,
    "Ġloveliness": 13608,
    "have": 2058,
    "blown": 25204,
    "entiating": 3436,
    "Ġproc": 5545,
    "Ġ77": 24266,
    "Ġsuffoc": 18871,
    "Ġrotterdam": 25478,
    "Ġbureau": 11588,
    "Ġgest": 8133,
    "Ġ60": 14874,
    "Ġste": 1387,
    "Ġseasons": 9430,
    "superior": 9524,
    "Ġenjoyment": 7300,
    "Ġfemale": 8344,
    "ampled": 18883,
    "Ġawoke": 7286,
    "}": 97,
    "Ġappl": 1787,
    "agree": 14067,
    "school": 10052,
    "hush": 20905,
    "Ġbrah": 19357,
    "mbling": 3342,
    "thole": 21985,
    "Ġsubjected": 23574,
    "Ġrace": 5847,
    "Ġfordham": 21775,
    "Ġassembly": 10640,
    "leagues": 21371,
    "inv": 8400,
    "breat": 10075,
    "Ġhorizontally": 17012,
    "Ġrabb": 4165,
    "Ġindu": 5293,
    "flour": 23968,
    "Ġxxii": 24481,
    "Ġcongratulate": 9063,
    "widely": 25345,
    "pull": 6796,
    "gerine": 22888,
    "Ġvisions": 12971,
    "Ġbiological": 1934,
    "Ġimprobable": 9788,
    "Ġrighteous": 18946,
    "Ġchiswick": 25563,
    "Ġhabitu": 19529,
    "cked": 2766,
    "unlike": 18156,
    "reward": 15509,
    "?--": 15302,
    "safie": 20347,
    "Ġwood": 2290,
    "Ġscratch": 25567,
    "Ġapproximation": 2340,
    "Ġasserted": 16949,
    "Ġalabama": 14019,
    "hour": 7340,
    "Ġdistrustful": 25058,
    "Ġerected": 12232,
    "Ġpurport": 14581,
    "Ġarguments": 8036,
    "Ġjacobian": 2893,
    "started": 10843,
    "amuse": 14052,
    "Ġdesirous": 8942,
    "Ġhyp": 3874,
    "dying": 10692,
    "urmountable": 15278,
    "Ġplanting": 16085,
    "Ġconcisely": 19046,
    "Ġmel": 4817,
    "gree": 10700,
    "retrospect": 23138,
    "Ġbreadth": 10561,
    "omach": 11633,
    "54": 15298,
    "spears": 23944,
    "diff": 9113,
    "Ġarranging": 11172,
    "Ġsince": 1798,
    "Ġfle": 3091,
    "Ġrefusing": 11026,
    "ividual": 5463,
    "Ġcitadel": 25441,
    "Ġrepublican": 17411,
    "Ġbarrow": 12068,
    "Ġgeneralization": 985,
    "Ġfonder": 17881,
    "ference": 1881,
    "Ġworthy": 7241,
    "Ġeste": 6084,
    "clut": 23152,
    "ĠĠĠĠĠĠĠĠĠĠĠĠĠĠĠĠĠĠĠĠĠĠĠĠĠĠĠĠĠĠĠĠĠĠĠĠĠĠĠĠĠĠĠĠ": 12152,
    "compasses": 19458,
    "reigned": 21241,
    "Ġleaps": 14008,
    "Ġdinners": 23984,
    "ì": 173,
    "paying": 25414,
    "Ġforward": 1838,
    "Ġinvective": 26183,
    "acetti": 13396,
    "Ġmanif": 8870,
    "Ġserving": 14485,
    "Ġpointing": 5661,
    "Ġmoodily": 19835,
    "anth": 13887,
    "Ġeel": 18002,
    "hunt": 20902,
    "ĠĠĠĠĠĠĠĠĠĠĠĠĠĠĠĠĠĠĠĠĠĠĠĠĠĠĠĠĠĠĠĠĠĠĠĠĠĠĠĠĠĠĠĠĠĠĠ": 16755,
    "ato": 17770,
    "Ġuninter": 18246,
    "Ġgemin": 21608,
    "Ġamongst": 8959,
    "Ġascending": 14853,
    "Ġleg": 2334,
    "spirits": 8054,
    "Ġnav": 5818,
    "Ġusefulness": 19408,
    "Ġpriority": 19763,
    "Ġ1820": 25721,
    "Ġgraph": 10900,
    "anse": 12573,
    "Ġlodges": 19500,
    "Ġfinite": 2323,
    "Ġplaces": 5390,
    "gh": 3802,
    "Ġgarments": 15192,
    "Ġvisage": 18764,
    "ensation": 22545,
    "dozen": 23379,
    "began": 6426,
    "Ġjoker": 22298,
    "Ġfondly": 19617,
    "Ġgrievous": 13260,
    "Ġbred": 9169,
    "successfully": 14990,
    "Ġbracelets": 25505,
    "mmet": 10986,
    "Ġma": 3251,
    "Ġremorseless": 13451,
    "Ġpoison": 7219,
    "Ġcrumb": 16440,
    "attending": 18917,
    "Ġfavour": 3642,
    "E": 41,
    "Ċ": 203,
    "ĠĠĠĠĠĠĠĠĠĠĠĠĠĠĠĠĠĠĠĠĠĠĠĠĠĠĠĠĠĠĠĠĠĠĠĠĠĠĠĠĠĠĠĠĠ": 9950,
    "des": 1567,
    "Ġmodeling": 2096,
    "iscient": 17852,
    "Ġhumorousness": 25379,
    "Ġpyramid": 8800,
    "mb": 911,
    "Ġchas": 18378,
    "Ġdashed": 6009,
    "Ġabsent": 7014,
    "brows": 17496,
    "Ġenvy": 13170,
    "Ġinvite": 14562,
    "Ġarising": 10931,
    "Ġsmilingly": 22560,
    "Ġjones": 7204,
    "Ġarguing": 25473,
    "af": 2374,
    "rose": 6013,
    "Ġshaped": 15833,
    "americ": 8155,
    "Ġbattle": 5907,
    "Ġdiscoverers": 26038,
    "culine": 19067,
    "Ġexpanding": 25241,
    "Ġgentleman": 3042,
    "Ġmathematical": 3348,
    "us": 531,
    "Ġlog": 1676,
    "Ġfling": 9660,
    "Ġtransformations": 3484,
    "sensible": 20052,
    "Ġdesperate": 7776,
    "gl": 3288,
    "gentlemanlike": 20002,
    "Ġgrieved": 8297,
    "fearfully": 25120,
    "Ġfairy": 14627,
    "Ġpuzzle": 11303,
    "Ġfarmhouse": 24988,
    "Ġsupple": 22999,
    "elze": 21570,
    "garet": 9597,
    "Ġavailed": 23954,
    "crimin": 17508,
    "Ġpsych": 10174,
    "Ġvort": 18193,
    "Ġneck": 4885,
    "rief": 6202,
    "Ġdiminish": 14744,
    "Ġostlers": 25279,
    "rows": 6442,
    "tery": 14037,
    "Ġreap": 18027,
    "good": 2900,
    "lengths": 24850,
    "honor": 19901,
    "nobody": 16145,
    "mot": 17597,
    "rary": 4574,
    "Ġpo": 737,
    "plex": 708,
    "Ġyarn": 10866,
    "Ġeconomy": 17200,
    "legra": 10788,
    "Ġcongrat": 5827,
    "Ġperforms": 11875,
    "Ġsame": 1344,
    "sleep": 6511,
    "chanced": 18800,
    "Ġwherein": 14294,
    "Ġtoll": 7851,
    "jur": 17579,
    "Ġaway": 1243,
    "Ġgarb": 21600,
    "Ġvalu": 5039,
    "Ġflush": 14423,
    "Ġmicrosc": 20675,
    "Ġentries": 22746,
    "tossing": 18581,
    "introdu": 8937,
    "eli": 3875,
    "manners": 16182,
    "Ġlane": 5627,
    "Ġsharpen": 13569,
    "Ġminim": 1324,
    "Ġanimating": 23425,
    "Ġbloss": 19258,
    "Ġview": 2765,
    "Ġsafer": 22174,
    "soc": 5175,
    "aments": 12723,
    "uding": 16147,
    "Ġnod": 1888,
    "Ġreceive": 4703,
    "destiny": 16702,
    "Ġmariners": 6067,
    "understood": 13216,
    "lev": 1234,
    "Ġprincip": 5600,
    "Ġcran": 12000,
    "forest": 22518,
    "Ġcooper": 16076,
    "Ġcreatures": 4139,
    "network": 1885,
    "tle": 2406,
    "Ġdie": 3965,
    "Ġwhistles": 24627,
    "Ġfavourable": 7958,
    "isturbed": 18297,
    "Ġbias": 1193,
    "ö": 183,
    "Ġmultitude": 9324,
    "Ġeternity": 12277,
    "ther": 482,
    "Ġtalker": 23372,
    "Ġplying": 17914,
    "Ġpress": 5931,
    "Ġbarn": 11585,
    "Ġfleece": 10612,
    "Ġlaughed": 5060,
    "Ġcloud": 3913,
    "observed": 7674,
    "promote": 24730,
    "Ġpia": 21462,
    "_).âĢĶ": 8681,
    "Ġgomorrah": 21613,
    "Ġfundamental": 3016,
    "Ġreading": 5114,
    "Ġrespectively": 23250,
    "adru": 15729,
    "Ġacquit": 18898,
    "Ġparametric": 2393,
    "shel": 11928,
    "hearts": 13344,
    "lee": 11583,
    "Ġapprove": 12862,
    "sinking": 17669,
    "app": 1040,
    "Ġpreparation": 13529,
    "======": 9832,
    "Ġluckily": 16798,
    "Ġalongside": 6311,
    "Ġoperation": 11998,
    "Ġsimulation": 2756,
    "Ġobliter": 14321,
    "tered": 2231,
    "ially": 9245,
    "careful": 14865,
    "Ġmumbling": 11572,
    "Ġcraft": 4376,
    "arman": 11593,
    "Ġcode": 1719,
    "Ġhorns": 11121,
    "itime": 15546,
    "Ġwat": 1286,
    "occupations": 24968,
    "regarded": 12007,
    "Ġjud": 3355,
    "Ġgreyish": 24211,
    "Ġslipping": 13360,
    "Ġwickham": 2207,
    "Ġwishing": 7830,
    "Ġunexplored": 26520,
    "georgiana": 26022,
    "Ġoft": 9194,
    "Ġpondered": 15165,
    "Ġphaeton": 17464,
    "ascended": 24709,
    "gans": 11488,
    "level": 2654,
    "Ġsaville": 15889,
    "Ġtyphoons": 20233,
    "moonlight": 25377,
    "Ġbowels": 9429,
    "twain": 23698,
    "Ġliberties": 19668,
    "inable": 11554,
    "Ġorchard": 22093,
    "Ġcynical": 25773,
    "uated": 10129,
    "Ġungovernable": 20708,
    "atiously": 15521,
    "Ġpetty": 19596,
    "Ġpolite": 9881,
    "Ġherds": 9715,
    "Ġskulls": 12957,
    "Ġcharing": 14179,
    "Ġintended": 5548,
    "whales": 5187,
    "Ġaxis": 12306,
    "chie": 21688,
    "Ġfrighten": 13277,
    "ens": 701,
    "period": 15901,
    "Ġcivilities": 14847,
    "Ġwhither": 10212,
    "nar": 12492,
    "up": 1283,
    "Ġla": 5912,
    "Ġjutting": 22301,
    "Ġleaving": 3906,
    "Ġboard": 3383,
    "sheets": 14441,
    "Ġhandkerchief": 8913,
    "Ġpersisting": 18896,
    "admon": 21760,
    "Ġfurnish": 9018,
    "Ġobjections": 8564,
    "Ġpredomin": 16033,
    "ern": 757,
    "Ġmanner": 2197,
    "Ġrelinquish": 17346,
    "Ġtail": 3089,
    "Ġinsert": 19906,
    "Ġinterview": 9769,
    "Ġadditional": 7934,
    "rim": 7137,
    "Ġpiping": 23246,
    "bruary": 15234,
    "Ġthreaten": 24377,
    "rising": 7557,
    "Ġmode": 8499,
    "Ġbraced": 16579,
    "Ġgoblets": 20517,
    "Ġtablet": 19206,
    "Ġfamilies": 8026,
    "Ġsleep": 2397,
    "sink": 11520,
    "Ġresol": 2667,
    "Ġagric": 22515,
    "Ġcomprised": 14267,
    "Ġairth": 23319,
    "Ġsteady": 4847,
    "Ġpagoda": 19789,
    "Ġdoors": 6418,
    "Ġcigar": 9544,
    "Ġpince": 21469,
    "lect": 1222,
    "Ġgleams": 17309,
    "Ġottoman": 17377,
    "Ġcreations": 18684,
    "Ġenemies": 9038,
    "Ġimpulsive": 19963,
    "Ġcoach": 6867,
    "depart": 12264,
    "Ġdazzling": 15210,
    "Ġeasterly": 25964,
    "reg": 2184,
    "order": 1960,
    "Ġfagged": 17883,
    "Ġplay": 2627,
    "Ġdiversion": 17197,
    "Ġdeduction": 14900,
    "Ġnigh": 4878,
    "Ġbrooded": 23103,
    "Ġcastors": 23978,
    "moral": 14801,
    "actorily": 25579,
    "rie": 2790,
    "Ġrus": 14093,
    "Ġsuppose": 2866,
    "spite": 16136,
    "solid": 16377,
    "Ġregimentals": 19859,
    "Ġgeorge": 3750,
    ".)": 6783,
    "attend": 11098,
    "Ġcomrade": 12282,
    "Ġoce": 3031,
    "Ġsighing": 18677,
    "ogra": 4572,
    "oward": 6020,
    "Ġmott": 17804,
    "Ġ180": 16606,
    "Ġgrassy": 24382,
    "Ġclay": 7018,
    "iluvian": 18061,
    "Ġrelate": 6875,
    "Ġsprawling": 22138,
    "unct": 18154,
    "Ġasse": 8159,
    "hol": 3840,
    "Ġcaught": 3731,
    "Ġventing": 19494,
    "glo": 8736,
    "ute": 4642,
    "Ġsle": 2015,
    "Ġfloating": 6604,
    "Ġdeceit": 13481,
    "Ġdelirium": 10403,
    "Ġmich": 21304,
    "Ġpartially": 13122,
    "Ġweight": 656,
    "abases": 3009,
    "affold": 16562,
    "Ġslashing": 23171,
    "istle": 15869,
    "Ġparsonage": 7123,
    "Ġsauc": 15888,
    "fiercely": 25259,
    "Ġscenari": 22292,
    "mens": 20968,
    "clifford": 23158,
    "Ġpled": 17908,
    "Ġcommunity": 19010,
    "neighb": 16022,
    "Ġhollowly": 24529,
    "Ġbachel": 7158,
    "hearing": 8402,
    "Ġsymb": 2592,
    "Ġaccording": 5508,
    "Ġbarnacled": 25539,
    "Ġthither": 6821,
    "Ġeyford": 10639,
    "alo": 7587,
    "faces": 13720,
    "helping": 23140,
    "leaving": 10790,
    "Ġassistant": 7298,
    "totally": 25420,
    "itt": 570,
    "Ġcircumnav": 12425,
    "Ġterrified": 14671,
    "antucket": 2644,
    "Ġexpedition": 10631,
    "Ġdented": 17892,
    "Ġconfines": 23306,
    "Ġbuckets": 17034,
    "nne": 20988,
    "crowded": 20190,
    "Ġwh": 328,
    "Ġgame": 3629,
    "Ġbroods": 23102,
    "solely": 19817,
    "Ġabating": 22267,
    "Ġgloss": 11956,
    "Ġcrocodile": 20739,
    "quarters": 24950,
    "Ġwarm": 2423,
    "myst": 9821,
    "Ġpredictions": 1455,
    "currents": 23845,
    "script": 11075,
    "comp": 3818,
    "Ġpuffs": 14975,
    "ga": 17550,
    "banked": 25339,
    "Ġaslant": 21900,
    "Ġdeem": 18133,
    "Ġwise": 6811,
    "Ġmonster": 3794,
    "confirmation": 26091,
    "Ġconsolidation": 5061,
    "Ġlimit": 10441,
    "ling": 735,
    "Ġstepmother": 16088,
    "Ġreduces": 2342,
    "Ġtap": 12524,
    "Ġbelongs": 8014,
    "Ġwrap": 24597,
    "Ġdefect": 8554,
    "Ġsepul": 14090,
    "Ġmistaken": 4987,
    "Ġlucky": 7758,
    "Ġbigger": 19762,
    "Ġsord": 21218,
    "accounted": 16501,
    "oman": 2019,
    "follow": 5680,
    "onical": 21252,
    "Ġwaifing": 25246,
    "sculpt": 16242,
    "Ġbabes": 24428,
    "Ġintensified": 17018,
    "sh": 649,
    "Ġacceptable": 16744,
    "Ġcontents": 7210,
    "itted": 2439,
    "Ġ63": 24369,
    "Ġmapple": 11148,
    "fs": 17535,
    "Ġhopes": 4236,
    "Ġprogram": 12989,
    "pair": 21011,
    "prejudice": 25574,
    "Ġowes": 20085,
    "Ġmemorand": 23406,
    "Ġpure": 6137,
    "cas": 20793,
    "izers": 18142,
    "Ġacutely": 14313,
    "Ġjogged": 26238,
    "Ġcondescending": 24872,
    "Ġecl": 18006,
    "ç": 168,
    "Ġqueen": 3210,
    "summit": 23418,
    "Ġpicked": 6341,
    "Ġdrily": 23540,
    "ors": 856,
    "Ġestimation": 11216,
    "including": 23592,
    "Ġfainted": 8790,
    "seeing": 7078,
    "Ġyoked": 15733,
    "rised": 10121,
    "opportunity": 12273,
    "ezing": 10571,
    "Ġshallow": 14393,
    "<SOS>": 1,
    "Ġcolumb": 22854,
    "Ġbreathlessly": 24283,
    "ĠĠĠĠĠĠĠĠĠĠĠĠĠĠĠĠĠĠĠĠĠĠĠĠĠĠĠĠĠĠĠĠ": 2742,
    "Ġundertaken": 18988,
    "Ġbeale": 12697,
    "vedale": 22710,
    "pires": 13775,
    "rot": 21529,
    "Ġdressed": 5082,
    "ls": 1290,
    "Ġbanks": 6814,
    "Ġunderstood": 5655,
    "Ġfeet": 2257,
    "Ġai": 3126,
    "took": 6164,
    "Ġsandwiched": 26612,
    "cet": 15324,
    "indirectly": 18438,
    "Ġrational": 8479,
    "shout": 22449,
    "Ġhuge": 4699,
    "mrs": 3746,
    "Ġdistrust": 8204,
    "Ġcalamity": 17348,
    "suitable": 18632,
    "Ġfleets": 23775,
    "Ġryder": 10256,
    "Ġreligious": 25125,
    "Ġboisterous": 20441,
    "Ġinconvenient": 20010,
    "Ġdrifting": 19281,
    "ersampling": 18219,
    "Ġaware": 5756,
    "proof": 16423,
    "Ġfrequencies": 4789,
    "vict": 11539,
    "Ġcranial": 25595,
    "Ġhur": 2100,
    "ladder": 19785,
    "Ġclass": 776,
    "connections": 14427,
    "Ġhatch": 7847,
    "Ġargued": 13629,
    "Ġimitation": 22163,
    "Ġsiberia": 26163,
    "Ġtinted": 13822,
    "Ġslacked": 25191,
    "Ġhertfordshire": 5377,
    "classification": 4387,
    "Ġheathen": 10563,
    "terns": 21821,
    "Ġbequest": 21752,
    "Ġpebbles": 16128,
    "Ġfails": 13313,
    "Ġtract": 21164,
    "Ġadequately": 15197,
    "repeated": 12338,
    "Ġdiscompose": 25582,
    "reeable": 3613,
    "Ġgriefs": 16771,
    "Ġmultimodal": 18750,
    "Ġtimidly": 11336,
    "Ġdisreputable": 22534,
    "Ġhealth": 3905,
    "alogies": 25161,
    "Ġexceeded": 14432,
    "Ġglowed": 24868,
    "Ġkin": 15903,
    "Ġadaptive": 1279,
    "evid": 11483,
    "Ġflo": 2589,
    "Ġdutch": 6327,
    "Ġinner": 9670,
    "Ġgaff": 17994,
    "Ġcharacteristics": 8609,
    "ppers": 7617,
    "Ġderivatives": 2368,
    "Ġknown": 1640,
    "R": 54,
    "Ġgrazed": 15832,
    "Ġgirls": 4281,
    "Ġbought": 8415,
    "everywhere": 23696,
    "Ġprivacy": 19525,
    "hog": 8379,
    "ortunity": 4403,
    "northern": 23666,
    "Ġtresses": 21174,
    "Ġconsummation": 17424,
    "initely": 7568,
    "dor": 12450,
    "Ġstays": 16561,
    "Ġparr": 22118,
    "mort": 10709,
    "Ġanonym": 17898,
    "Ġvagueness": 25740,
    "Ġeleg": 6192,
    "Ġexisting": 12716,
    "Ġjustify": 11070,
    "Ġtable": 2499,
    "Ġdismally": 20214,
    "alled": 5910,
    "Ġimaginary": 11184,
    "division": 20049,
    "thar": 18215,
    "eff": 2535,
    "Ġvain": 3630,
    "bowl": 14890,
    "fatigue": 20657,
    "Ġpropontis": 17465,
    "evil": 11484,
    "Ġrises": 9712,
    "Ġdeclare": 6614,
    "ourage": 2449,
    "Ġdisquis": 22527,
    "avier": 2832,
    "iple": 4807,
    "Ġlikewise": 5386,
    "peasant": 23110,
    "Ġherd": 7887,
    "Ġdesignated": 19522,
    "Ġdri": 2361,
    "Ġconcentric": 20075,
    "Ġendure": 5955,
    "inte": 5144,
    "Ġstrictest": 17042,
    "Ġemblaz": 16232,
    "Ġmultitud": 18749,
    "Ġhandwriting": 14318,
    "Ġ105": 24416,
    "Ġsaid": 577,
    "frequented": 25902,
    "Ġbu": 3682,
    "aton": 21257,
    "pest": 6964,
    "Ġbreaching": 23348,
    "Ġling": 7377,
    "Ġpanted": 21470,
    "Ġshrivelled": 19704,
    "kshire": 13746,
    "Ġunlimited": 26224,
    "ript": 4154,
    "decl": 8856,
    "ility": 622,
    "Ġornament": 11718,
    "Ġporus": 24401,
    "Ġviolent": 5117,
    "bewil": 22498,
    "rannical": 26403,
    "desirable": 23207,
    "ô": 181,
    "Ġis": 347,
    "Ġcomforted": 19391,
    "Ġwalk": 1827,
    "inquir": 9535,
    "Ġnast": 15637,
    "Ġstru": 2168,
    "Ġexploration": 2335,
    "Ġmachine": 793,
    "Ġthine": 7374,
    "Ġintelligently": 4235,
    "quimaux": 21858,
    "Ġskull": 6288,
    "Ġadventure": 5980,
    "Ġsnar": 13200,
    "Ġliar": 22408,
    "Ġenables": 727,
    "Ġshuddering": 9051,
    "Ġcondemned": 7778,
    "ercely": 12548,
    "yn": 7819,
    "Ġang": 2511,
    "hent": 12532,
    "Ġrustling": 24718,
    "Ġvideos": 13606,
    "Ġentranced": 25835,
    "requent": 3650,
    "Ġ101": 24412,
    "failed": 20862,
    "geons": 15975,
    "osy": 11756,
    "arity": 1301,
    "bore": 13686,
    "Ġsucking": 12786,
    "Ġcreates": 2011,
    "ropy": 1101,
    "Ġgift": 10839,
    "Ġshuddered": 11298,
    "Ġmisconduct": 22761,
    "Ġsooty": 25818,
    "Ô": 149,
    "?_": 8069,
    "Ġemployments": 12101,
    "Ġcomplaisance": 19449,
    "sou": 12504,
    "courage": 17509,
    "Ġtwit": 12927,
    "pressing": 19014,
    "Ġrequiring": 2922,
    "orious": 6007,
    "begin": 8883,
    "Ġclassical": 22623,
    "Ġstra": 2994,
    "erer": 8731,
    "Ġmanhat": 22327,
    "urious": 21701,
    "que": 1135,
    "Ġpursu": 3238,
    "Ġscenarios": 26544,
    "sequ": 2398,
    "Ġshoots": 14567,
    "Ġdoing": 3661,
    "Ġarmchair": 8270,
    "ď": 208,
    "Ġholidays": 22922,
    "Ġdisregarded": 22530,
    "guilty": 19483,
    "Ġtiger": 11553,
    "Ġalbertus": 25651,
    "Ġbolted": 12243,
    "handed": 7482,
    "ights": 8475,
    "Ġprevail": 13442,
    "sentimental": 25684,
    "Ġscientific": 6857,
    "ignity": 4374,
    "Ġbattalions": 25779,
    "nant": 17610,
    "Ġdevice": 1930,
    "Ġissue": 2310,
    "wid": 10132,
    "Ġoccasion": 3244,
    "Ġsuitable": 18283,
    "politeness": 16906,
    "tiger": 13797,
    "lessly": 4555,
    "Ġlump": 21549,
    "Ġsignificant": 8633,
    "Ġlancaster": 26342,
    "Ġsaturday": 6452,
    "ancy": 4393,
    "vate": 21108,
    "point": 6062,
    "Ġinvoluntary": 18748,
    "Ġscratches": 22291,
    "Ġoctavo": 15162,
    "Ġinsp": 2101,
    "madness": 14881,
    "charitable": 23934,
    "geon": 6269,
    "Ġmoves": 14231,
    "Ġimmense": 4953,
    "Ġturning": 3323,
    "Ġbishop": 13902,
    "Ġduly": 13350,
    "aming": 5828,
    "utted": 15659,
    "wail": 21124,
    "Ġoffend": 16142,
    "Ġcolt": 11042,
    "Ġsenor": 20150,
    "Ġmes": 17797,
    "Ġpartial": 2128,
    "Ġvessel": 3800,
    "phew": 6368,
    "pend": 6367,
    "iac": 6225,
    "ions": 448,
    "renched": 7906,
    "Ġnur": 5710,
    "opinion": 10983,
    "Ġsatir": 18794,
    "Ġdepl": 14044,
    "attempt": 9359,
    "ploy": 1981,
    "modern": 1149,
    "arrange": 23767,
    "Ġmutter": 23956,
    "Ġhold": 2243,
    "Ġbrazen": 23840,
    "ense": 2052,
    "Ġsurpassed": 25270,
    "Ġankles": 17900,
    "Ġinquire": 7719,
    "Ġtemptations": 24511,
    "Ġimmortal": 8017,
    "onet": 12543,
    "Ġbursting": 8655,
    "Ġcashier": 20198,
    "sperm": 5203,
    "rigged": 17062,
    "Ġwhirled": 14959,
    "Ġperseus": 10601,
    "Ġund": 4120,
    "Ġbrink": 18771,
    "sailed": 17667,
    "Ġdromed": 15595,
    "something": 4286,
    "Ġsubdued": 11028,
    "Ġtempered": 12921,
    "got": 6955,
    "Ġloaf": 15871,
    "Ġpalsied": 25782,
    "Ġoblivion": 26033,
    "lude": 6161,
    "Ġstride": 22613,
    "bonnet": 25745,
    "iltrated": 19307,
    "Ġfolk": 10373,
    "Ġcompany": 3722,
    "Ġinsect": 12634,
    "Ġpitches": 23902,
    "Ġvehement": 16201,
    "Ġfix": 2508,
    "Ġgemini": 26471,
    "beheld": 11799,
    "Ġq": 1084,
    "ked": 5616,
    "fishing": 20858,
    "Ġwalled": 15534,
    "eye": 6224,
    "ceased": 21624,
    "Ġprotracted": 19469,
    "Ġbanish": 15568,
    "Ġclutching": 24955,
    "Ġgaol": 19568,
    "Ġcurtain": 14419,
    "Ġplaus": 22602,
    "gall": 6359,
    "Ġshoes": 7071,
    "Ġmurderers": 16811,
    "Ġrival": 10483,
    "Ġtopsails": 19195,
    "Ġresolving": 9418,
    "Ġdrows": 21433,
    "Ġscan": 22284,
    "Ġinstructions": 11194,
    "ij": 7801,
    "uff": 2734,
    "Ġperturbation": 20439,
    "tese": 21082,
    "uvian": 12241,
    "chest": 11206,
    "Ġtertiary": 15293,
    "Ġsombre": 18860,
    "Ġbegg": 16251,
    "Ġenjoined": 18191,
    "commanded": 16988,
    "Ġapproaching": 6283,
    "hen": 3518,
    "Ġvehicles": 10657,
    "smeer": 26149,
    "Ġslappin": 18943,
    "Ġgable": 15665,
    "Ġpsalmody": 20583,
    "Ġeavesdroppers": 25965,
    "Ġlays": 15988,
    "Ġborders": 15570,
    "Ġlocks": 11722,
    "Ġshamefully": 24719,
    "character": 6331,
    "_âĢĶâĢĻ": 13682,
    "Ġmusical": 23894,
    "Ġartfully": 22610,
    "girls": 12318,
    "shri": 14235,
    "Ġchurchyard": 16777,
    "Ġthinkings": 22810,
    "Ġcruellest": 19659,
    "Ġfootpaths": 26320,
    "Ġloadstone": 25819,
    "Ġunderwent": 23240,
    "Ġmississ": 18838,
    "Ġinvisibly": 24820,
    "dimens": 2316,
    "agues": 8160,
    "Ò": 147,
    "Ġbloody": 9887,
    "sp": 893,
    "Ġmy": 412,
    "Ġcontingency": 26246,
    "Ġillustrative": 25070,
    "Ġcerem": 7077,
    "Ġknitting": 24221,
    "playing": 19658,
    "beef": 18524,
    "atmosphere": 21263,
    "âĢĶâĢĻâĢĿ": 20064,
    "itioned": 22464,
    "Ġanything": 2186,
    "tu": 12510,
    "Ġeu": 6390,
    "Ġasks": 5115,
    "attest": 23119,
    "Ġcorridor": 10669,
    "Ġgnawed": 25167,
    "Ġaxe": 15061,
    "ells": 5303,
    "comprehend": 14358,
    "Ġaffectionate": 5584,
    "Ġelsewhere": 7712,
    "iture": 5696,
    "Ġslumbers": 18942,
    "Ġhus": 3092,
    "Ġneglect": 7941,
    "rospect": 11610,
    "Ġmasters": 11573,
    "Ġbanker": 8666,
    "Ġglances": 10370,
    "Ġbul": 3291,
    "Ġcat": 2121,
    "Ġsponge": 26005,
    "gaze": 17558,
    "Ġarchitect": 978,
    "nlp": 8749,
    "Ġcister": 13882,
    "disagreeable": 11161,
    "breadth": 20275,
    "Ġdistress": 5844,
    "urean": 18122,
    "singular": 12187,
    "Ġmiser": 18706,
    "Ġgalvan": 21615,
    "Ġdaintiest": 25955,
    "Ġridiculous": 10626,
    "inctions": 17733,
    "Ġadvantageously": 19546,
    "Ġreeds": 15694,
    "arranted": 19321,
    "Ġnecks": 18183,
    "ev": 6952,
    "while": 2936,
    "Ġdecanter": 22439,
    "ave": 981,
    "colour": 9901,
    "Ġblow": 3374,
    "Ġass": 1503,
    "inguished": 6598,
    "Ġmathemat": 3200,
    "Ġwestern": 10652,
    "batch": 1984,
    "spirited": 19754,
    "Ġbouquet": 20682,
    "ĳ": 244,
    "tribute": 21087,
    "turkish": 24536,
    "Ġgardiner": 3237,
    "ilty": 6394,
    "Ġfluctuating": 24420,
    "Ġmaw": 15538,
    "Ġinches": 5845,
    "Ġcooking": 16646,
    "Ġfronted": 25856,
    "Ġcom": 368,
    "Ġskipper": 22798,
    "co": 2431,
    "Ġspiral": 14584,
    "Ġgryphon": 4301,
    "Ġintimate": 6549,
    "Ġconsole": 8150,
    "Ġmuchness": 18709,
    "Ġentreat": 4509,
    "Ġvicinity": 7315,
    "Ġtenth": 13825,
    "Ġnarrowed": 24358,
    "Ġwears": 10238,
    "tur": 5688,
    "Ġabsurd": 7202,
    "Ġmerged": 19298,
    "Ġpreposter": 12820,
    "Ġkinds": 14504,
    "puted": 8845,
    "nothing": 3152,
    "oppressed": 24827,
    "Ġevian": 24295,
    "erring": 11055,
    "ash": 1993,
    "Ġoverlooking": 22355,
    "distressed": 24202,
    "Ġassented": 17337,
    "Ġtaken": 2528,
    "Ġfleet": 9431,
    "Ġreasoned": 23085,
    "Ġheated": 21680,
    "tacit": 21097,
    "liv": 9607,
    "Ġhunting": 7259,
    "Ġjaws": 5593,
    "Ġwriggling": 15256,
    "Ġsurest": 19058,
    "civilized": 17075,
    "achable": 14129,
    "exertion": 16015,
    "Ġabsence": 4894,
    "Ġpallid": 12298,
    "Ġnantucketers": 9892,
    "deserted": 18960,
    "sound": 6799,
    "Ġchance": 3314,
    "iew": 2445,
    "irements": 22217,
    "dangerous": 20239,
    "Ġknowingly": 18480,
    "blue": 13693,
    "Ġlawy": 9453,
    "alot": 15624,
    "consolation": 15151,
    "Ġclos": 4548,
    "Ġaper": 17744,
    "Ġhurling": 19112,
    "representativeness": 25275,
    "Ġcaps": 8414,
    "Ġtelegram": 15222,
    "march": 13755,
    "Ġroughly": 17040,
    "Ġbrains": 2631,
    "sum": 2087,
    "kinson": 10023,
    "Ġrecurring": 23232,
    "pute": 8844,
    "endous": 6850,
    "kill": 13744,
    "unken": 10234,
    "Ġallured": 14113,
    "Ġtons": 11548,
    "Ġadd": 629,
    "osop": 4404,
    "hated": 17562,
    "Ġdeserving": 14752,
    "Ġvent": 4001,
    "Ġdataset": 12815,
    "Ġcountry": 2533,
    "Ġrelu": 1046,
    "Ġprovoked": 13325,
    "Ġburied": 7718,
    "Ġdistinguishing": 16496,
    "Ġskiff": 16162,
    "steps": 9404,
    "wont": 21131,
    "Ġthese": 820,
    "Ġthirty": 4944,
    "Ġbay": 9168,
    "dom": 6222,
    "tailed": 17686,
    "arches": 10815,
    "Ġdangling": 17174,
    "Ġkitchen": 8495,
    ".;": 20743,
    "faint": 17545,
    "Ġpockets": 8895,
    "Ġhimmale": 18334,
    "addressing": 24404,
    "oug": 433,
    "bable": 8718,
    "Ġunnecessary": 8851,
    "lay": 5890,
    "shorn": 22454,
    "Ġingen": 9049,
    "Ġgrain": 15830,
    "Ġscramble": 24581,
    "Ġluckless": 16797,
    "Ġdisputes": 25827,
    "Ġtyp": 1126,
    "Ġmothers": 14540,
    "Ġinscribed": 24942,
    "Ġbast": 21377,
    "tottenham": 25421,
    "Ġcuff": 17830,
    "Ġspouter": 12796,
    "ould": 428,
    "Ġassuredly": 14821,
    "Ġsituated": 9446,
    "Ġvac": 5026,
    "Ġtough": 13815,
    "Ġyoke": 18095,
    "rested": 13074,
    "Ġcommercial": 22674,
    "Ġcharts": 12824,
    "seized": 14035,
    "Ġcetology": 10007,
    "its": 1145,
    "ings": 633,
    "Ġpreserved": 9261,
    "Ġweighted": 2091,
    "veh": 12677,
    "Ġgeneralize": 3100,
    "Ġchanges": 2285,
    "namely": 23747,
    "Ġsheltered": 19912,
    "rably": 21631,
    "Ġmerchants": 23730,
    "Ġcommence": 6167,
    "Ġsanely": 24984,
    "Ġ29": 23727,
    "Ġmagnanim": 14471,
    "ca": 20792,
    "Ġability": 2767,
    "Ġcellars": 24668,
    "ress": 930,
    "Ġtortures": 14922,
    "Ġthereby": 7643,
    "hunted": 16832,
    "Ġemaciated": 20637,
    "akness": 14194,
    "_.,": 14561,
    "Ġseconds": 16398,
    "du": 606,
    "Ġwaters": 3597,
    "Ġscenery": 11455,
    "Ġunfrequ": 19509,
    "Ġattitude": 8903,
    "Ġarrog": 18337,
    "rubbed": 22183,
    "Ġruff": 14348,
    "Ġglassy": 19561,
    "Ġre": 317,
    "Ġimpressive": 14999,
    "Ġoarsmen": 7737,
    "Ġexhilar": 19684,
    "orton": 11754,
    "Ġtests": 8957,
    "henomen": 10492,
    "Ġunwound": 25172,
    "Ġrecover": 9790,
    "Ġoffences": 18694,
    "tem": 6369,
    "into": 3680,
    "luck": 5733,
    "nd": 11502,
    "ct": 309,
    "iftings": 23224,
    "content": 11196,
    "arius": 14248,
    "trust": 21077,
    "Ġedged": 23438,
    "cursed": 23844,
    "Ġpoetical": 25060,
    "Ġpossible": 2586,
    "claim": 9834,
    "Ġinverted": 12635,
    "after": 2897,
    "Ġimposing": 11779,
    "Ġquadrille": 13541,
    "itche": 7578,
    "Ġpierce": 17036,
    "circum": 16737,
    "wanted": 10742,
    "Ġupd": 947,
    "uns": 21869,
    "Ġunaffected": 14122,
    "Ġlod": 4045,
    "likewise": 13104,
    "Ġparallelization": 3429,
    "understanding": 1183,
    "farewell": 12305,
    "Ġboats": 2638,
    "Ġdiversity": 25287,
    "Ġintegrity": 12312,
    "mph": 20971,
    "Ġtri": 4814,
    "esteemed": 26011,
    "Ġmaxim": 3085,
    "Ġhanding": 16129,
    "Ġglanced": 5951,
    "jointed": 24012,
    "Ġcharged": 9852,
    "Ġcompression": 18145,
    "Ġentertained": 9996,
    "Ġcontinues": 18811,
    "sche": 13013,
    "system": 3798,
    "Ġgam": 11622,
    "Ġinterlude": 16071,
    "ason": 1278,
    "Ġpract": 1897,
    "shr": 10979,
    "Ġflattered": 10372,
    "Ġbed": 2144,
    "increase": 20267,
    "isticated": 1537,
    "Ġallurements": 22008,
    "Ġmartial": 20290,
    "shutters": 20312,
    "estation": 15920,
    "stretch": 13981,
    "want": 8764,
    "Ġvocation": 10523,
    "uberance": 25918,
    "Ġtaffrail": 15476,
    "Ġdecently": 22437,
    "Ġinstincts": 16986,
    "urried": 21702,
    "Ġarrived": 3748,
    "descried": 11927,
    "distance": 12151,
    "Ġsepulchral": 25894,
    "ss": 398,
    "dl": 20822,
    "Ġample": 11796,
    "mouthful": 25211,
    "Ġant": 4346,
    "lan": 15376,
    "Ġfierc": 18716,
    "ublic": 11225,
    "Ġuninhabited": 22050,
    "Ġantagonist": 26330,
    "Ġelab": 22642,
    "sex": 12711,
    "Ġcheerily": 13307,
    "Ġlima": 10440,
    "Ġprevailed": 7777,
    "Ġmistifying": 23717,
    "Ġupright": 8493,
    "Ġcanada": 22170,
    "Ġthrust": 5085,
    "antique": 18287,
    "Ġfountain": 7365,
    "scruple": 26046,
    "Ġresounded": 22544,
    "erably": 7573,
    "Ġdined": 9176,
    "Ġflashed": 11911,
    "ractions": 11632,
    "Ġcostume": 16495,
    "wise": 2575,
    "dried": 20826,
    "pretend": 24886,
    "Ġwalks": 8966,
    "Ġderived": 8238,
    "supp": 4163,
    "carefully": 13368,
    "ă": 196,
    "Ġrad": 4963,
    "Ġcam": 10159,
    "Ġcouch": 12569,
    "articulate": 17397,
    "Ġugly": 8715,
    "table": 5795,
    "Ġtorm": 5434,
    "warmly": 25030,
    "Ġsheets": 9721,
    "Ġy": 341,
    "Ġsloop": 25932,
    "Ġdisconcerted": 18563,
    "Ġwronged": 24250,
    "Ġdecayed": 22825,
    "gress": 2215,
    "Ġnewton": 3533,
    "speeches": 25242,
    "story": 9212,
    "Ġchiselled": 25562,
    "oth": 1187,
    "Ġmoderately": 22223,
    "mn": 3578,
    "Ġve": 1105,
    "Ġhatter": 4113,
    "Ġsuck": 15862,
    "riving": 21925,
    "Ġlisten": 4673,
    "Ġcomp": 726,
    "Ġbil": 15563,
    "mindful": 19600,
    "Ġadvantage": 4317,
    "Ġstrang": 4162,
    "onged": 18411,
    "rals": 21041,
    "Ġdoleful": 18376,
    "abling": 1079,
    "Ġuncivil": 11153,
    "ulgent": 18149,
    "rees": 5436,
    "doom": 23378,
    "vices": 21115,
    "Ġlav": 13950,
    "Ġall": 422,
    "Ġburying": 19253,
    "Ġexaggerate": 25652,
    "adventurous": 25363,
    "Ġordinary": 6096,
    "Ġeffusion": 22503,
    "Ġken": 22190,
    "Ġtrunk": 7206,
    "training": 2517,
    "condite": 23249,
    "Ġhymn": 24521,
    "Ġoverheard": 11772,
    "Ġdiminishing": 4210,
    "hereabouts": 23608,
    "ariously": 18528,
    "destro": 13309,
    "tum": 11530,
    "Ġtobacc": 7852,
    "Ġdiscoursing": 26268,
    "anybody": 12081,
    "oriented": 2950,
    "Ġpitiable": 9912,
    "talking": 10005,
    "Ġmanned": 9270,
    "now": 548,
    "distinguish": 19573,
    "ordingly": 18519,
    "Ġforgive": 8009,
    "Ġsmelling": 16065,
    "Ġearthy": 23710,
    "Ġcoiled": 11818,
    "Ġshoulder": 5848,
    "Ğ": 223,
    "uncle": 8158,
    "addition": 13384,
    "Ġduplicity": 25334,
    "ssed": 3736,
    "Ġscott": 22286,
    "afforded": 25867,
    "Ġlug": 15650,
    "Ġintent": 6409,
    "Ġ106": 24417,
    "Ġvers": 7563,
    "inous": 8770,
    "Ġrate": 1064,
    "Ġopulence": 23629,
    "forced": 11029,
    "Ġhark": 8427,
    "asmuch": 10192,
    "Ġsuspicion": 6211,
    "ken": 2804,
    "Ġrefres": 14341,
    "oak": 21002,
    "Ġpages": 15606,
    "Ġmock": 3691,
    "Ġowning": 18745,
    "verted": 10215,
    "Ġgrateful": 7659,
    "Ġaccidents": 10295,
    "kinder": 24849,
    "sailor": 14714,
    "diversity": 25899,
    "Ġhosts": 19939,
    "Ġstationary": 19695,
    "Ġpersons": 6182,
    "Ġacceler": 1609,
    "visible": 10531,
    "Ġknees": 6928,
    "breathing": 25337,
    "Ġhappen": 5571,
    "Ġdownright": 16117,
    "favour": 9548,
    "threat": 10898,
    "Ġblubber": 5666,
    "Ġunhallowed": 17180,
    "Ġconsequent": 18110,
    "ained": 3065,
    "Ġhes": 6250,
    "'s": 2468,
    "Ġgloomy": 7504,
    "Ġclink": 22345,
    "continually": 11300,
    "shapes": 22459,
    "Ġindistinctly": 26119,
    "Ġdevices": 2942,
    "arded": 5030,
    "viii": 12020,
    "Ġtrag": 13037,
    "Ġuncivilized": 25501,
    "Ġwhirlpool": 20654,
    "Ġmeas": 1095,
    "oes": 4433,
    "Ġwilled": 21290,
    "Ġcirculating": 23374,
    "Ġreveal": 11198,
    "Ġcoaxing": 18601,
    "wes": 17704,
    "Ġstout": 6024,
    "Ġcrazed": 19176,
    "Ġfab": 15574,
    "covery": 11169,
    "orphans": 26442,
    "Ġconstraints": 2744,
    "ied": 942,
    "Ġturnpike": 23027,
    "inspect": 11557,
    "Ġartic": 5314,
    "Ġclergyman": 8711,
    "Ġparchment": 13652,
    "Ġbolivia": 24670,
    "Ġfollows": 7672,
    "Ġfair": 2838,
    "Ġdusty": 14924,
    "Ġfinished": 5045,
    "Ġbrighton": 6470,
    "Ġcrumpled": 16442,
    "Ġceases": 19314,
    "Ġscar": 3209,
    "oker": 10961,
    "Ġpoem": 22589,
    "Ġduchess": 4800,
    "Ġpasseng": 12969,
    "ves": 687,
    "Ġplays": 12036,
    "Ġidentified": 19152,
    "Ġgas": 8132,
    "Ġmig": 13856,
    "pad": 13768,
    "Ġcontradict": 12384,
    "onsensical": 18577,
    "substance": 15230,
    "reasonable": 7751,
    "Ġmincing": 18753,
    "requiem": 24860,
    "fortunes": 6332,
    "ipp": 10100,
    "lighted": 23755,
    "Ġsteel": 3890,
    "balls": 12304,
    "Ġreplay": 5048,
    "Ġexpands": 25240,
    "Ġvillains": 14748,
    "Ġsched": 2336,
    "Ġenjoy": 3762,
    "Ġrigid": 16716,
    "tarpaul": 21096,
    "Ġpoltro": 23621,
    "Ġ75": 19613,
    "Ġroofs": 16985,
    "another": 5439,
    "Ġcash": 9652,
    "Ġsche": 1704,
    "Ġdiadem": 24744,
    "Ġpanthe": 19654,
    "Ġheedfully": 24524,
    "Ġnaught": 8127,
    "absolut": 8458,
    "Ġware": 12552,
    "Ġsubmitted": 11869,
    "burn": 8370,
    "Ġfr": 1696,
    "Ġhermit": 15856,
    "sympathy": 20541,
    "Ġsufferer": 16256,
    "Ġindian": 4133,
    "Ġfro": 3469,
    "recur": 4436,
    "Ġpantaloons": 20295,
    "wat": 6231,
    "Ġpaints": 23525,
    "baked": 20778,
    "Ġresearches": 13139,
    "liest": 6294,
    "Ġmentioned": 4330,
    "Ġbeautifully": 13266,
    "Ġfacial": 10603,
    "Ġbehave": 23299,
    "Ġmaggie": 26293,
    "Ġbehind": 2810,
    "middle": 11308,
    "Ġlivelihood": 24777,
    "Ġhiss": 15786,
    "Ġformerly": 7493,
    "Ġselected": 9710,
    "Ġwhereon": 16100,
    "tale": 10125,
    "Ġnormalizing": 1823,
    "Ġencaps": 12959,
    "Ġexception": 11214,
    "Ġhearing": 4760,
    "Ġprom": 1526,
    "izabeth": 907,
    "kne": 20934,
    "Ġdesirable": 8941,
    "Ġcalifornian": 25853,
    "particularly": 8339,
    "Ġcommunicate": 10575,
    "Ġrestraint": 15126,
    "Ġoun": 13863,
    "ralian": 19601,
    "garious": 17559,
    "ationally": 15703,
    "Ġantiqu": 12143,
    "spir": 5738,
    "supportable": 12369,
    "thodox": 21987,
    "Ġmultiplied": 23688,
    "Ġtriumphal": 24374,
    "Ġdifferen": 936,
    "Ġerred": 21155,
    "hunter": 10553,
    "Ġintending": 11703,
    "Ġcomfortable": 6094,
    "replied": 11564,
    "Ġcooked": 13268,
    "Ġoutfits": 22321,
    "Ġpositive": 2295,
    "mariners": 19549,
    "Ġvision": 1519,
    "Ġagonizing": 17238,
    "ourney": 3555,
    "Ġgothic": 18000,
    "Ġsoapstone": 20509,
    "pursuit": 20339,
    "Ġrude": 7234,
    "ommod": 13977,
    "Ġbegin": 3098,
    "ority": 8417,
    "bl": 4143,
    "Ġfrancis": 26065,
    "als": 2042,
    "Ġfurn": 3711,
    "Ġroads": 13287,
    "ize": 772,
    "Ġagree": 7646,
    "Ġsimultaneously": 4312,
    "Ġislands": 6766,
    "ensities": 22546,
    "reproach": 15185,
    "Ġcomfor": 14054,
    "Ġfanc": 6743,
    "collins": 6916,
    "Ġexcursion": 26591,
    "Ġfestoon": 20293,
    "disposition": 10039,
    "Ġcompassionate": 24726,
    "Ė": 215,
    "Ġdecomposition": 5342,
    "Ġas": 374,
    "Ġeducated": 16785,
    "sle": 9138,
    "Ġanyhow": 14254,
    "Ġbreathing": 9444,
    "Ġchair": 3662,
    "respect": 6374,
    "Ġmoran": 9340,
    "Ġdisposed": 7083,
    "itation": 1781,
    "ify": 1338,
    "attachment": 13050,
    "Ġxiii": 25594,
    "heavy": 10572,
    "worshipping": 16610,
    "Ġneglig": 18878,
    "Ġscruple": 25052,
    "clings": 23153,
    "Ġstrand": 11826,
    "Ġnight": 1465,
    "rapid": 12668,
    "Ġdespondency": 16577,
    "Ġyore": 21777,
    "Ġbrave": 6329,
    "Ġtick": 8108,
    "Ġsisterly": 16301,
    "Ġmart": 10778,
    "william": 4561,
    "Ġmungo": 25634,
    "Ġfinny": 23126,
    "Ġfore": 2152,
    "Ġinconvenience": 9563,
    "Ġhooped": 23356,
    "ertain": 1207,
    "baned": 17495,
    "Ġfeedforward": 2325,
    "Ġdolph": 12379,
    "Ġanom": 12609,
    "Ġcelestial": 10064,
    "ree": 874,
    "Ġreception": 9837,
    "pits": 15412,
    "Ġconflagration": 26366,
    "quite": 4646,
    "idate": 21766,
    "O": 51,
    "Ġnic": 7376,
    "Ġdynamic": 5124,
    "rusted": 16506,
    "Ġmishap": 20575,
    "era": 13847,
    "Ġdiscoveries": 13358,
    "helm": 12170,
    "Ġwhereof": 16101,
    "uing": 17694,
    "Ġmister": 22758,
    "Ġbliss": 12999,
    "Ġuntrodden": 23522,
    "Ġunpardonable": 22061,
    "Ġregret": 5561,
    "roman": 22003,
    "coarse": 16487,
    "Ġsavag": 19374,
    "Ġshape": 5639,
    "Ġredu": 1356,
    "Ġbeating": 8144,
    "br": 2477,
    "mistak": 16878,
    "laugh": 10106,
    "arted": 2202,
    "noise": 14338,
    "Ġwedded": 16674,
    "discover": 10537,
    "iable": 3331,
    "Ġharshly": 25252,
    "Ġmountains": 4426,
    "rimshander": 20656,
    "Ġrope": 4339,
    "entreat": 17976,
    "Ġmajority": 13291,
    "greater": 13251,
    "ante": 11719,
    "mission": 5969,
    "fordshire": 4676,
    "Ġdodging": 19888,
    "hedge": 22499,
    "ering": 1266,
    "Ġbeautiful": 3672,
    "Ġmid": 2616,
    "Ġsheaves": 22157,
    "Ġbalmy": 22904,
    "net": 1196,
    "Ġanalogical": 25643,
    "iard": 9601,
    "Ġbearing": 5298,
    "Ġdebated": 9040,
    "Ġlamb": 8811,
    "Ġparson": 6687,
    "Ġaug": 6234,
    "assured": 10950,
    "Ġalthough": 4152,
    "occurrences": 26333,
    "oder": 2457,
    "especially": 3574,
    "Ġhor": 1660,
    "Ġphrenologically": 20392,
    "sole": 6168,
    "Ġmalignity": 10554,
    "handle": 11189,
    "extrem": 18711,
    "Ġwintry": 17433,
    "alth": 3254,
    "Ġcoarsely": 25830,
    "Ġshadowed": 24047,
    "Ġmoored": 11790,
    "varieties": 23187,
    "Ġshaggy": 13570,
    "Ġpleadings": 25854,
    "clusion": 16304,
    "Ġsneer": 13447,
    "Ġsnatch": 14639,
    "surprising": 16919,
    "apsed": 6295,
    "Ġ11": 5318,
    "magistrate": 19864,
    "cat": 15323,
    "Ġfatigue": 8697,
    "Ġmournful": 12335,
    "Ġbosom": 6939,
    "oriously": 17875,
    "Ġsouls": 6308,
    "Ġpunct": 8660,
    "Ġrelief": 6059,
    "Ġarrangements": 16515,
    "Ġimp": 572,
    "Ġdeacon": 18140,
    "corner": 13397,
    "indulged": 22375,
    "Ġwoodlands": 23521,
    "uteronomy": 15662,
    "jected": 22714,
    "Ġmuch": 922,
    "Ġcompromising": 22573,
    "Ġsubs": 2129,
    "Ġtool": 21508,
    "Ġexclaimed": 4682,
    "Ġhot": 4259,
    "Ġdelighted": 5499,
    "Ġcarving": 14442,
    "Ġtist": 21161,
    "Ġgroan": 13324,
    "Ġmeditating": 20043,
    "Ġentertainment": 12221,
    "Ġintelligent": 1446,
    "Ġsailors": 4278,
    "Ġimpertinent": 9077,
    "persecutor": 26532,
    "Ġthrusting": 10550,
    "opard": 9290,
    "irons": 10236,
    "Ġspec": 1262,
    "warp": 17707,
    "estim": 14169,
    "Ġfavourites": 16644,
    "Ġencouraged": 9354,
    "Ġdevelop": 1626,
    "agre": 18164,
    "Ġthou": 1811,
    "Ġan": 286,
    "tackle": 17320,
    "inex": 14092,
    "Ġeleven": 9389,
    "perishing": 22185,
    "Ġretrogression": 26583,
    "cocks": 23563,
    "osity": 14185,
    "dread": 8728,
    "Ġdeified": 18137,
    "Ġglimmered": 20171,
    "Ġathirst": 20597,
    "Ġverd": 6919,
    "Ġsoundings": 13132,
    "threatened": 25465,
    "ses": 3028,
    "ex": 623,
    "humanity": 24843,
    "itage": 17817,
    "Ġendeavours": 8617,
    "vessels": 10623,
    "Ġbright": 3211,
    "Ġplacing": 8900,
    "Ġear": 1421,
    "Ġillust": 8262,
    "queen": 12725,
    "itely": 5365,
    "Ġalert": 18101,
    "Ġvales": 21945,
    "cripp": 20818,
    "murder": 10562,
    "Ġhydraul": 9513,
    "miserably": 24213,
    "angular": 11721,
    "serious": 14447,
    "Ġresources": 2938,
    "Ġunbecoming": 22063,
    "Ġpersonified": 19179,
    "Ġcoachman": 15000,
    "Ġprovidence": 18746,
    "inkle": 22616,
    "ishmael": 18421,
    "bott": 9105,
    "Ġconsideration": 5191,
    "screwed": 17187,
    "Ġincorporated": 25714,
    "Ġwicked": 5960,
    "Ġbrutality": 26278,
    "emorial": 10241,
    "rained": 5162,
    "Ġbadly": 12130,
    "Ġsail": 1673,
    "Ġireland": 17334,
    "Ġvii": 13108,
    "twenty": 6607,
    "henomena": 20271,
    "Ġcombat": 16184,
    "umbling": 6758,
    "loss": 22508,
    "iza": 6255,
    "Ġrow": 5309,
    "Ġrece": 11637,
    "compliment": 11362,
    "whilst": 18371,
    "Ġwollstonecraft": 26427,
    "Ġchemist": 11132,
    "isance": 17848,
    "omin": 4702,
    "Ġquite": 1740,
    "Ġceremony": 8360,
    "Ġdrug": 11409,
    "Ġblooming": 17212,
    "etah": 12659,
    "poke": 18798,
    "Ġabout": 631,
    "Ġbenevolent": 7772,
    "ep": 446,
    "mers": 9610,
    "Ġepo": 21619,
    "Ġprobed": 18733,
    "Ġplum": 11820,
    "Ġtenderly": 11312,
    "Ġdelineate": 26059,
    "Ġincantation": 26259,
    "Ġasking": 5651,
    "Ġenable": 686,
    "Ġelixir": 26557,
    "Ġunlabeled": 3801,
    "Ġpurses": 23478,
    "guilt": 24071,
    "misrepresented": 24214,
    "Ġgroves": 16740,
    "Ġglobular": 19011,
    "carbuncle": 26384,
    "Ġsmo": 2703,
    "Ġparameters": 994,
    "zy": 2671,
    "visual": 24225,
    "iquet": 17576,
    "ried": 925,
    "Ġirregular": 9863,
    "Ġensuring": 11190,
    "errand": 22910,
    "Ġinsulated": 23678,
    "Ġflap": 14421,
    "Ġsacri": 18333,
    "maritime": 24176,
    "pr": 3172,
    "Ġchairs": 12823,
    "mering": 12489,
    "scornful": 26577,
    "hat": 6956,
    "bits": 17488,
    "caps": 20806,
    "Ġwars": 17786,
    "Ġpreside": 18365,
    "rous": 3754,
    "Ġcupidity": 24538,
    "Ġsuffocated": 20727,
    "Ġallev": 18100,
    "Ġperdition": 15991,
    "wantonly": 25152,
    "hither": 11491,
    "separation": 25229,
    "Ġmarvellous": 7538,
    "rious": 11687,
    "Ġprovid": 1008,
    "nder": 20986,
    "Ġplump": 14282,
    "Ġapproach": 819,
    "agos": 21903,
    "undertaking": 23788,
    "Ġquarrelling": 13499,
    "Ġhig": 754,
    "Ġticklish": 25038,
    "Ġangels": 11176,
    "mark": 5281,
    "Ġscript": 18400,
    "Ġ69": 19662,
    "Ġcrosses": 23061,
    "Ġclothing": 18424,
    "Ġlivelong": 25514,
    "endured": 22220,
    "Ġobstructed": 24680,
    "repent": 15513,
    "Ġgenial": 12193,
    "Ġreserved": 7515,
    "Ġanoint": 25540,
    "Ġslyness": 25269,
    "bourgh": 19105,
    "Ġgang": 9207,
    "similar": 13453,
    "Ġpersu": 3565,
    "conduct": 11795,
    "cules": 12390,
    "Ġpossessing": 16575,
    "next": 5891,
    "Ġcaged": 21350,
    "Ġlifted": 6985,
    "Ġbiography": 22765,
    "Ġstirring": 10577,
    "Ġincreasingly": 9370,
    "turned": 7306,
    "Ġkindliness": 23294,
    "Ġnovelist": 24780,
    "intern": 23736,
    "Ġwa": 1753,
    "pudding": 17648,
    "Ġvillages": 14747,
    "manned": 18765,
    "analysis": 26175,
    "nes": 6961,
    "Ġagitated": 7647,
    "Ġreward": 6144,
    "Ġembatt": 18843,
    "Ġquick": 2583,
    "Ġteacher": 22915,
    "Ġnaturalist": 22891,
    "Ġkicking": 16901,
    "Ġit": 339,
    "Ġalbino": 20501,
    "anish": 2617,
    "Ġfought": 12591,
    "Ġyelling": 18096,
    "Ġthyself": 6602,
    "Ġclustered": 25236,
    "ribute": 7224,
    "yield": 13809,
    "Ġseveral": 2674,
    "formal": 14171,
    "Ġqu": 607,
    "Ġbumping": 25283,
    "broken": 8020,
    "Ġabraham": 18396,
    "Ã¦mon": 7094,
    "breeze": 20561,
    "Ġafloat": 9307,
    "Ġohio": 19130,
    "Ġmiriam": 25276,
    "vii": 13148,
    "Ġloathsome": 13528,
    "fo": 5278,
    "Ġjudgment": 5765,
    "Ġresemble": 15691,
    "Ġhorizont": 6937,
    "smiled": 16614,
    "excepting": 19707,
    "walls": 25347,
    "Ġauthors": 10414,
    "Ġselves": 21221,
    "Ġabandoned": 8351,
    "studied": 17149,
    "actually": 14296,
    "Ġtimber": 13349,
    "arent": 4251,
    "histicated": 20900,
    "athom": 12937,
    "Ġcollins": 2180,
    "Ġadmir": 12021,
    "Ġforbidden": 17078,
    "Ġcounting": 13095,
    "Ġchace": 14177,
    "youngest": 19744,
    "Ġobscure": 9553,
    "Ġperry": 22398,
    ".]": 15297,
    "ax": 694,
    "Ġroad": 3882,
    "acles": 8519,
    "sin": 21047,
    "Ġfarthing": 14453,
    "Ġcanaan": 22171,
    "vill": 10734,
    "Ġoverflowing": 17237,
    "acher": 6868,
    "Ġintrospect": 15827,
    "Ġaccountability": 10436,
    "Ġreconciliation": 25295,
    "Ġerr": 1322,
    "Ġparcel": 15198,
    "Ġpower": 1218,
    "affection": 7487,
    "oing": 15401,
    "Ġoccupations": 9456,
    "Ġincarn": 11812,
    "Ġhastily": 5763,
    "Ġexagger": 12717,
    "pire": 9135,
    "Ġchinese": 14182,
    "Ġsure": 1865,
    "abouts": 9451,
    "Ġrecogn": 2651,
    "Ġinh": 10823,
    "slightest": 25419,
    "Ġankers": 21443,
    "Ġalexander": 17423,
    "Ġliked": 5264,
    "Ġvul": 10245,
    "visited": 13347,
    "Ġcasket": 19725,
    "vengeance": 13356,
    "Ġgallery": 10522,
    "Ġsleeps": 10444,
    "Ġrap": 14305,
    "countless": 24153,
    "glorious": 19367,
    "ent": 305,
    "Ġfired": 16153,
    "jour": 20926,
    "Ġseverely": 14932,
    "Ġhomeless": 23388,
    "Ġ16": 7926,
    "obed": 14445,
    "Ġenric": 21933,
    "Ġcity": 4529,
    "Ġphyseter": 26588,
    "orses": 6051,
    "Ġbeggars": 20628,
    "Ġinexpress": 12633,
    "Ġ76": 24265,
    "âĢĻ-": 18172,
    "Ġmug": 21311,
    "Ġsomehow": 4841,
    "Ġdependencies": 2313,
    "Ġhollow": 5648,
    "Ġmoments": 4845,
    "Ġentered": 2846,
    "Ġbrisk": 9802,
    "Ġdeliber": 7268,
    "Ġmonuments": 22979,
    "Ġjournal": 15217,
    "Ġauthent": 14511,
    "Ġblessed": 6931,
    "canst": 22961,
    "Ġenlivened": 26209,
    "hangs": 15367,
    "Ġstrangers": 8313,
    "anged": 3589,
    "Ġmend": 8405,
    "Ġsamples": 2964,
    "pict": 8385,
    "Ġscre": 9736,
    "Ġbenchmarks": 15021,
    "Ġconvince": 14642,
    "rant": 11515,
    "Ġnind": 17950,
    "shipmates": 11926,
    "strugg": 21660,
    "Ġ[_": 15461,
    "Ġhousings": 21490,
    "Ġafric": 8905,
    "fearing": 18530,
    "Ġimpaling": 22379,
    "Ġaffection": 2640,
    "Ġaverages": 2396,
    "Ġfaced": 10807,
    "Ġgeological": 14533,
    "gging": 7696,
    "Ġseem": 914,
    "Ġwar": 5526,
    "Ġcompelled": 14265,
    "pronounce": 25195,
    "Ġclung": 10955,
    "aggra": 21905,
    "Ġaffected": 5577,
    "Ġshrinking": 14804,
    "Ġbegan": 2023,
    "Ġsix": 3045,
    "Ġexterm": 21829,
    "Ġindicates": 3192,
    "Ġtraitors": 23077,
    "Ġcloak": 9533,
    "windibank": 24164,
    "ricity": 23062,
    "Ġhonoured": 9879,
    "dening": 22781,
    "Ġtube": 15003,
    "Ġcracking": 14573,
    "Ġloathing": 15066,
    "Ġpudding": 17916,
    "weight": 2941,
    "Ġtook": 1854,
    "Ġclapping": 14202,
    "Ġcosmopol": 16456,
    "mered": 8217,
    "Ġdiligent": 25079,
    "Ġnook": 15927,
    "entirely": 7781,
    "ulation": 5458,
    "brandy": 19202,
    "<UNK>": 3,
    "Ġrejection": 19984,
    "Ġlass": 15646,
    "ulgences": 21864,
    "fro": 8732,
    "Ġsadness": 13285,
    "Ġrespectability": 14484,
    "vered": 4829,
    "Ġslee": 8974,
    "dece": 11732,
    "Ġfamed": 16325,
    "icy": 6140,
    "Ġsentences": 2684,
    "Ġreplete": 15696,
    "Ġeagle": 13202,
    "iving": 1724,
    "Ġoptimizers": 18629,
    "fth": 20855,
    "Ġ109": 24419,
    "ix": 1802,
    "andering": 21866,
    "attached": 11933,
    "Ġaback": 22266,
    "Ġhistorical": 3646,
    "Ġacross": 1331,
    "Ġdisput": 14255,
    "Ġdollars": 11454,
    "Ġaltern": 7394,
    "resh": 8403,
    "ivering": 7697,
    "Ġinland": 11606,
    "Ġimmortality": 26327,
    "Ġbru": 13895,
    "Ġvalued": 12181,
    "Ġprop": 1680,
    "lection": 3653,
    "Ġtemporary": 7980,
    "Ġmanaging": 22325,
    "lies": 15380,
    "Ġdegra": 2590,
    "agers": 5633,
    "calabash": 22894,
    "Ġconnect": 799,
    "Ġvehicle": 20138,
    "uguese": 20731,
    "Ġbarber": 23791,
    "independent": 26023,
    "Ġtyphoon": 12388,
    "scand": 18850,
    "Ġafresh": 18628,
    "aches": 6570,
    "pl": 401,
    "Ġhug": 6979,
    "Ġcobbling": 20521,
    "ostentatious": 20651,
    "Ġgot": 2279,
    "problem": 25247,
    "Ġblasphemer": 26118,
    "Ġsaleve": 17391,
    "Ġegot": 18008,
    "gressive": 2758,
    "gment": 4390,
    "Ġshortened": 23484,
    "teeth": 10352,
    "Ġbusier": 23339,
    "177": 20751,
    "shaven": 18499,
    "bow": 5424,
    "ĠĠĠĠĠĠĠĠĠĠĠĠĠĠĠĠĠĠĠĠĠĠĠĠĠĠĠĠĠĠĠĠĠĠĠĠĠĠĠĠĠ": 19583,
    "Ġjealous": 9468,
    "narrowly": 20346,
    "Ġvault": 8840,
    "iocr": 20922,
    "Ġsomething": 1797,
    "Ġspasmod": 12412,
    "Ġrange": 9711,
    "udg": 22754,
    "Ġirritation": 20265,
    "anations": 12574,
    "Ġsweetly": 23919,
    "Ġwillingness": 24914,
    "Ġuntutored": 19167,
    "Ġengage": 9334,
    "Ġgouldings": 26189,
    "prairies": 20565,
    "Ġprobably": 4315,
    "imprudent": 14651,
    "iday": 8828,
    "impul": 16556,
    "Ġble": 5223,
    "Ġduc": 4696,
    "momentum": 4992,
    "Ġstation": 5297,
    "Ġaband": 6561,
    "Ġflapped": 23011,
    "Ġbasics": 13448,
    "writes": 4989,
    "ab": 345,
    "Ġflashes": 11913,
    "monsters": 19172,
    "somers": 19368,
    "Ġjets": 10285,
    "Ġyon": 9692,
    "Ġgrated": 22804,
    "disgu": 19155,
    "Ġjar": 15949,
    "alog": 8803,
    "Ġcoloured": 11043,
    "Ġproble": 1107,
    "gno": 13727,
    "Ġsouthwards": 19634,
    "Ġske": 4816,
    "ating": 667,
    "Ġhandspikes": 12936,
    "Ġsadder": 24053,
    "Ġcombined": 8548,
    "Ġledger": 19402,
    "Ġperem": 12930,
    "Ġfocused": 16340,
    "repugnance": 16864,
    "Ġbordering": 17228,
    "iting": 2156,
    "Ġgoug": 17991,
    "Ġmomentous": 16171,
    "Ġillustrations": 17108,
    "Ġsteals": 23083,
    "Ġphrases": 2800,
    "Ġnetworks": 600,
    "xible": 13808,
    "sentence": 2940,
    "forth": 9321,
    "Ġdrawling": 19437,
    "Ġimpregnable": 26025,
    "Ġtrif": 6270,
    "tranquillity": 20545,
    "Ġzeros": 3321,
    "Ġpretence": 13207,
    "germans": 20564,
    "Ġtearing": 14395,
    "Ġdefinitions": 22944,
    "conf": 4958,
    "Ġbab": 5289,
    "handsome": 13178,
    "speps": 14332,
    "Ġquestions": 3976,
    "pow": 10716,
    "piteous": 21032,
    "Ġanomalously": 25641,
    "Ġdisastrous": 16059,
    "Ġcomstock": 21850,
    "Ġcanals": 22169,
    "Ġwapping": 21293,
    "Ġlime": 13948,
    "ui": 9144,
    "Ġgros": 14822,
    "ĠĠĠĠĠĠĠĠĠĠĠĠĠĠĠĠĠĠĠĠĠĠĠĠĠĠĠĠĠĠĠĠĠĠĠĠĠĠĠ": 19261,
    "Ġbeds": 14551,
    "Ġinsolent": 13600,
    "otam": 21797,
    "wil": 8395,
    "================": 3724,
    "Ġreproofs": 24896,
    "Ġidentical": 10432,
    "Ġdemeanour": 17336,
    "Ġrelations": 5852,
    "aguy": 21909,
    "Ġfresh": 3670,
    "thickness": 25369,
    "Ġfeat": 10935,
    "volutions": 16321,
    "iom": 20914,
    "Ġperadventure": 22400,
    "Ġlvi": 21550,
    "Ġsleepers": 13149,
    "Ġhunter": 5401,
    "Ġpattering": 18651,
    "Ġdut": 2990,
    "Ġaddressing": 11162,
    "Ġunprejudiced": 18269,
    "Ġshop": 9251,
    "Ġvia": 2380,
    "Ġmere": 2716,
    "Ġpowers": 5419,
    "permitted": 18345,
    "Ġtelescope": 17347,
    "attent": 9358,
    "inconsiderable": 21190,
    "Ġdesol": 6881,
    "ribed": 7692,
    "Ġagainst": 1698,
    "developed": 15263,
    "unguarded": 23668,
    "import": 5668,
    "Ġcomplying": 18587,
    "Ġbony": 12585,
    "Ġgreater": 3038,
    "Ġpinched": 17035,
    "Ġwield": 21289,
    "Ġreneg": 21673,
    "Ġdogs": 7741,
    "Ġreiterating": 26476,
    "apparatus": 26565,
    "¿": 128,
    "Ġhides": 16260,
    "Ġdecisions": 6702,
    "gabriel": 15359,
    "Ġwired": 17787,
    "Ġassurance": 7774,
    "Ġheeded": 13403,
    "bell": 7332,
    "Ġspurred": 22137,
    "Ġcourt": 4170,
    "Ġvineyards": 25110,
    "Ġunreasoning": 15844,
    "Ġelix": 22644,
    "thyself": 19299,
    "Ġfinishing": 23124,
    "Ġhorrid": 7998,
    "Ġbewit": 15726,
    "Ġcount": 1816,
    "li": 1190,
    "copyright": 5277,
    "20": 20752,
    "Ġwaited": 4908,
    "Ġdownstairs": 11222,
    "Ġarom": 15492,
    "Ġkeepers": 23539,
    "Ġhighly": 4844,
    "lays": 14921,
    "masts": 19425,
    "Ġresignation": 18567,
    "Ġpittance": 15615,
    "anous": 21357,
    "Ġrelied": 16193,
    "should": 3260,
    "u": 89,
    "Ġferrule": 24503,
    "leaped": 17844,
    "Ġfork": 15730,
    "Ë": 140,
    "Ġcherish": 10587,
    "Ġchinks": 22250,
    "orable": 8119,
    "Ġmonth": 2850,
    "oology": 21005,
    "Ġdressing": 7090,
    "special": 14704,
    "Ġdomestic": 6914,
    "www": 17251,
    "Ġscrew": 8867,
    "Ġst": 332,
    "Ġrepugnant": 26592,
    "reasoning": 9475,
    "Ġsuspic": 4469,
    "Ġsubterr": 10346,
    "Ġencoder": 3636,
    "Ġattracted": 8904,
    "ove": 1742,
    "pile": 17630,
    "locked": 7677,
    "advantages": 11269,
    "apes": 9740,
    "Ġchest": 5185,
    "je": 11494,
    "saved": 15431,
    "kered": 18276,
    "maker": 12491,
    "Ġtilted": 20411,
    "Ġirresolute": 24920,
    "Ġneg": 1333,
    "Ġimperial": 9480,
    "Ġfacilitate": 26100,
    "Ġattack": 5478,
    "silly": 24425,
    "87": 20756,
    "ged": 1510,
    "thrasher": 25661,
    "Ġtwinkled": 14311,
    "Ġseas": 3078,
    "hecy": 21205,
    "Ġlongitude": 11009,
    "izings": 14051,
    "Ġamiss": 18516,
    "Ġcausing": 16357,
    "Ġago": 3134,
    "half": 4931,
    "Ġtransition": 14244,
    "beginning": 13561,
    "Ġfrigate": 13081,
    "Ġfanning": 23391,
    "Ġprince": 18974,
    "eager": 12458,
    "ye": 1403,
    "onent": 21247,
    "surprised": 9530,
    "buoy": 7760,
    "smiles": 14692,
    "Ġcombining": 22860,
    "Ġeat": 4643,
    "estic": 4957,
    "anch": 15558,
    "Ġaries": 21196,
    "describe": 1512,
    "uned": 21870,
    "Ġdiscussed": 19560,
    "Ġpre": 506,
    "Ġamsterdam": 22484,
    "Ġcarved": 7946,
    "Ġbrilliantly": 25124,
    "robber": 21534,
    "Ġcomposed": 8891,
    "Ġpurple": 10431,
    "Ġrelieved": 7665,
    "Ġglare": 13011,
    "Ġilluminate": 17192,
    "Ġaverted": 16252,
    "Ġmislead": 22760,
    "cig": 17503,
    "oforte": 14285,
    "Ġhandled": 12935,
    "Ġens": 2791,
    "arth": 4442,
    "Ġrapture": 13496,
    "rosc": 17955,
    "Ġfalse": 4344,
    "breaking": 14763,
    "Ġreverse": 16982,
    "Ġapparently": 6778,
    "float": 19806,
    "Ġpreventing": 883,
    "Ġsalad": 19479,
    "Ġiii": 7860,
    "hereafter": 19217,
    "đ": 210,
    "Ġshut": 3944,
    "yet": 3755,
    "Ġmannish": 26239,
    "Ġmissed": 8555,
    "ari": 673,
    "hopeless": 16917,
    "greatly": 16623,
    "Ġden": 3106,
    "Ġlinked": 15076,
    "Ġdisaster": 12885,
    "uneven": 23683,
    "igh": 2030,
    "Ġtiller": 8965,
    "Ġfobbing": 26443,
    "Ġremote": 8919,
    "Ġcoast": 4655,
    "becoming": 18520,
    "Ġbellies": 13355,
    "Ġredeemed": 25792,
    "apped": 5395,
    "jug": 17581,
    "iage": 17574,
    "Ġconqueror": 25799,
    "Ġremotest": 10049,
    "delirious": 19506,
    "Ġmeantime": 6206,
    "Ġclue": 7019,
    "Ġmakes": 3652,
    "mar": 4336,
    "Ġappellation": 22215,
    "Ġumbrell": 13650,
    "Ġantagon": 19551,
    "Ā": 193,
    "Ġrevolt": 24507,
    "conquerable": 17398,
    "Ġstuff": 5717,
    "Ġskip": 1845,
    "Ġcontempt": 6275,
    "investigations": 25536,
    "Ġdesisted": 22975,
    "Ġinsanity": 12046,
    "Ġuntouched": 16466,
    "mental": 16047,
    "phr": 18704,
    "Ġcontriv": 9281,
    "Ġhellaswag": 24346,
    "astrous": 15886,
    "simultaneously": 19865,
    "ĠâĢľâĢĺ_": 25115,
    "Ġgibberish": 25789,
    "ocation": 14626,
    "Ġdoubtless": 6195,
    "eel": 11482,
    "Ġblot": 9811,
    "Ġfurious": 10351,
    "toed": 18579,
    "Ġfamily": 1967,
    "flying": 13721,
    "Ġdaughter": 2869,
    "Ġhinted": 6011,
    "Ġoily": 13864,
    "Ġvine": 8471,
    "Ġscreaming": 13423,
    "Ġacquaintances": 17349,
    "))": 1513,
    "Ġparadigms": 3057,
    "swept": 19787,
    "utility": 21584,
    "police": 10581,
    "Ġclutch": 15053,
    "Ġglad": 3322,
    "Ġplutarch": 22606,
    "oured": 2673,
    "Ġmonsieur": 12419,
    "Ġpurchas": 19875,
    "Ġbaker": 4695,
    "Ġbradstreet": 9576,
    "Ġclear": 1949,
    "Ġfundamentals": 14635,
    "education": 20300,
    "Ġthomas": 17948,
    "accomplished": 17211,
    "Ġbehoo": 19035,
    "T": 56,
    "drovand": 24763,
    "Ġboundary": 11220,
    "Ġdeb": 4763,
    "Ġlikes": 9407,
    "Ġsundial": 15081,
    "Ġholes": 16408,
    "Ġbeh": 1803,
    "bulk": 19925,
    "Ġdeclaring": 19420,
    "Ġguise": 14431,
    "fedallah": 25525,
    "Ġclimax": 25055,
    "Ġmutual": 8296,
    "hever": 13831,
    "matters": 14873,
    "Ġjonah": 3479,
    "Ġ26": 10467,
    "Ġmonomaniac": 9568,
    "Ġguardianship": 17419,
    "Ġfift": 6382,
    "Ġ1950": 11357,
    "Ġnobler": 14174,
    "Ġtrained": 8502,
    "Ġobjects": 5578,
    "smoke": 17222,
    "southern": 20407,
    "Ġappropriated": 23486,
    "ius": 5789,
    "Ġspeaking": 4030,
    "lone": 11498,
    "ighb": 10421,
    "sutherland": 21061,
    "Ġsimpler": 2048,
    "Ġblotted": 20217,
    "Ġfarewell": 9519,
    "howling": 18991,
    "Ġdaint": 15591,
    "cheerfulness": 20180,
    "east": 9115,
    "Ġsaving": 15887,
    "Ġnoisy": 13318,
    "Ġenglishmen": 19430,
    "Ġknowest": 12861,
    "Ġhurriedly": 11248,
    "brill": 16491,
    "Ġfem": 6134,
    "train": 2035,
    "Ġhousekeeping": 18944,
    "Ġputting": 5326,
    "Ġerskine": 17431,
    "Ġdisgracing": 26257,
    "Ġphiladelphia": 26606,
    "Ġcretan": 22726,
    "bber": 4567,
    "Ġunfor": 15838,
    "Ġsmoke": 4714,
    "Ġinnocently": 24030,
    "Ġcottage": 4733,
    "Ġcham": 4892,
    "spades": 14331,
    "ĠĠĠĠĠĠĠĠĠĠĠĠĠĠĠĠĠĠĠĠĠĠ": 16226,
    "Ġretiring": 16279,
    "Ġinstances": 5568,
    "volous": 18582,
    "Ġdavis": 25954,
    "oblig": 16290,
    "Ġrecur": 1621,
    "Ġpiled": 8424,
    "angered": 16177,
    "generative": 4331,
    "Ġdesiring": 14413,
    "Ġassault": 9836,
    "Ġforests": 13592,
    "elder": 21569,
    "study": 15116,
    "Ġcake": 12568,
    "Ġenorm": 5302,
    "circumstances": 8046,
    "glad": 9007,
    "rip": 9240,
    "Ġnights": 7258,
    "Ġcharles": 11955,
    "Ġunexpected": 6841,
    "ivided": 22077,
    "Ġthus": 2037,
    "Ġlakeman": 6986,
    "Ġlasted": 11051,
    "Ġauthorities": 11262,
    "lant": 20946,
    "chants": 21690,
    "Ġforeman": 23449,
    "admit": 18090,
    "Ġspit": 22123,
    "Ġconver": 806,
    "Ġfilm": 23925,
    "Ġrapid": 1463,
    "endar": 18362,
    "derick": 22162,
    "Ġlock": 5927,
    "Ġcommonplace": 11094,
    "Ġunrestingly": 20359,
    "Ġendeav": 2956,
    "iteness": 4392,
    "Ġinterests": 14568,
    "Ġingenious": 12347,
    "Ġha": 400,
    "Ġpurporting": 19183,
    "Ġhighest": 3529,
    "Ġarches": 14161,
    "Ġswitzerland": 10377,
    "Ġconciliating": 19049,
    "Ġgermans": 25787,
    "overhearing": 19054,
    "ases": 1522,
    "Ġdefine": 9814,
    "raid": 3277,
    "Ġsold": 6002,
    "Ġengineering": 3027,
    "Ġchann": 15934,
    "ompl": 4535,
    "jumped": 20245,
    "bennet": 5352,
    "Ġunexampled": 20358,
    "Ġrecommendation": 17025,
    "Ġdangers": 12353,
    "Ġsinusoid": 4781,
    "Ġcaresses": 26061,
    "ills": 1627,
    "Ġpreferment": 19854,
    "entric": 11617,
    "Ġvigorously": 11297,
    "Ġterm": 2265,
    "new": 1466,
    "Ġwhistle": 9065,
    "Ġunreserved": 19397,
    "Ġcumul": 4181,
    "Ġanomalous": 25640,
    "Ġpray": 3901,
    "Ġcompunction": 18588,
    "crum": 17511,
    "Ġdies": 11591,
    "Ġabsolut": 3912,
    "braces": 24661,
    "Ġvigorous": 10564,
    "archical": 1928,
    "Ġpruning": 18973,
    "omorrah": 18018,
    "Ġheadlong": 11886,
    "\":": 9581,
    "onness": 21253,
    "stricken": 9883,
    "Ġimplicate": 24879,
    "Ġdisp": 3356,
    "Ġindifference": 6725,
    "Ġcollar": 11877,
    "Ġgiving": 4088,
    "Ġattribute": 16096,
    "Ġtransportation": 13642,
    "Ġcrests": 25688,
    "neat": 22443,
    "enjoyments": 25436,
    "Ġtrifles": 16951,
    "Ġtruck": 19512,
    "spermaceti": 12192,
    "Ġducks": 25160,
    "Ġmemory": 2274,
    "boy": 4737,
    "Ġide": 2122,
    "Ġunluckily": 20102,
    "Ġblu": 2688,
    "Ġmultiplication": 2871,
    "sto": 3196,
    "Ġ129": 24477,
    "Ġflaw": 23010,
    "Ġcomm": 840,
    "Ġsurpl": 19134,
    "Ġdest": 2237,
    "lest": 5288,
    "Ġharp": 17924,
    "serve": 13045,
    "Ġcorpulence": 24512,
    "Ġfog": 9661,
    "moil": 22703,
    "Ġrigging": 5601,
    "Ġdrinking": 12167,
    "acc": 2534,
    "!)": 10066,
    "ool": 17619,
    "ober": 15406,
    "Ġ15": 9323,
    "Ġabominable": 12321,
    "Ġprocess": 559,
    "acid": 11003,
    "Ġmember": 8585,
    "aiian": 23594,
    "hatchet": 24825,
    "Ġsockets": 22084,
    "descend": 23084,
    "Ġreassure": 21670,
    "ske": 13782,
    "Ġstriking": 6088,
    "?âĢĻ": 2641,
    "Ġvisitor": 5330,
    "habit": 16188,
    "Ġmention": 2988,
    "Ġtinkling": 25215,
    "Ġremonstrance": 20621,
    "again": 3398,
    "Ġat": 395,
    "omnipotent": 25966,
    "ishness": 22342,
    "confess": 12174,
    "Ġembal": 11903,
    "reported": 24496,
    "Ġlanguid": 14216,
    "Ġspecks": 14303,
    "Ġtwain": 16118,
    "Ġavenues": 25432,
    "plicable": 10253,
    "Ġbulkington": 14677,
    "Ġformations": 18751,
    "Ġthrowing": 6335,
    "Ġwail": 21285,
    "longbourn": 9893,
    "Ġdepended": 9776,
    "Ġbraw": 23835,
    "Ġrender": 8304,
    "Ġmorocc": 22974,
    "Æ": 135,
    "Ġrelish": 14383,
    "Ġanalyze": 1605,
    "perch": 18341,
    ".": 18,
    "pattern": 3956,
    "Ġdarker": 13119,
    "Ġconcerning": 4071,
    "Ġoverjoyed": 17457,
    "Ġgrieve": 14706,
    "threaten": 25464,
    "Ġsire": 15501,
    "Ġsports": 18310,
    "source": 11524,
    "Ġforebodings": 17303,
    "fierce": 25258,
    "Ġstrewed": 23423,
    "Ġstiffest": 24832,
    "Ġfam": 1585,
    "henry": 16625,
    "nam": 2984,
    "Ġassisted": 11108,
    "Ġdep": 742,
    "Ġforces": 12700,
    "Ġdoubled": 19643,
    "expressed": 9041,
    "hears": 12531,
    "Ġmanly": 22324,
    "Ġevanesc": 24297,
    "blast": 9587,
    "Ġnasty": 17442,
    "ential": 827,
    "Ġcramped": 23531,
    "Ġcheer": 4069,
    "Ġcounterpart": 24724,
    "Ġmerited": 23728,
    "Ġreside": 22539,
    "Ġbeckoned": 25796,
    "elihood": 4622,
    "iform": 2201,
    "Ġattach": 14287,
    "ight": 403,
    "Ġweariness": 19795,
    "Ġathe": 17742,
    "Ġwaned": 17792,
    "Ġquestioning": 10461,
    "Ġbermud": 26441,
    "hood": 2660,
    "Ġregular": 931,
    "Ġtoe": 13936,
    "Ġguineas": 16270,
    "Ġlarger": 1399,
    "inking": 6709,
    "Ġconsequence": 5542,
    "Ġspoils": 24811,
    "Ġday": 957,
    "Ġanon": 9666,
    "Ġmad": 2424,
    "Ġintense": 6157,
    "box": 5749,
    "Ġconting": 18473,
    "halloa": 17090,
    "Ġhearty": 9844,
    "aker": 3663,
    "sail": 3604,
    "Ġabominate": 20065,
    "Ġcrimes": 8588,
    "mixed": 15393,
    "Ġwell": 901,
    "Ġimpropri": 14211,
    "Ġponderous": 8354,
    "Ġseeth": 21959,
    "Ġbestir": 13109,
    "dreaded": 25142,
    "nature": 5359,
    "h": 76,
    "aled": 3946,
    "eric": 3468,
    "imag": 6990,
    "stave": 21647,
    "returning": 12204,
    "eyeing": 14945,
    "Ġp": 289,
    "Ġavowed": 16633,
    "Ġdischar": 11806,
    "Ġbottled": 23797,
    "portent": 25415,
    "Ġbankrupt": 16796,
    "centre": 17087,
    "Ġpronounced": 8350,
    "Ġenveloping": 19734,
    "like": 1884,
    "complexion": 14359,
    "pse": 21008,
    "Ġcommonplaces": 16288,
    "affect": 13212,
    "Ġenter": 4033,
    "ipped": 5790,
    "Ġbeen": 626,
    "Ġmeals": 12709,
    "crime": 14781,
    "icted": 5936,
    "devoted": 20017,
    "Ġunknown": 4452,
    "arance": 4697,
    "Ġvelv": 10617,
    "Ġparl": 8177,
    "Ġmartyr": 26362,
    "Ġdews": 21837,
    "onden": 13844,
    "Ġdisagree": 22532,
    "vo": 11538,
    "Ġepid": 18005,
    "flask": 12098,
    "Ġlamps": 14789,
    "Ġadieus": 25114,
    "inclined": 10637,
    "Ġneedlessly": 23631,
    "Ġlunch": 13526,
    "emone": 21926,
    "Ġquarto": 17295,
    "Ġcircumnavigating": 25617,
    "calmly": 20139,
    "Ġpreyed": 18366,
    "Ġcharlotte": 3891,
    "Ġloose": 4648,
    "one": 616,
    "Ġdup": 21425,
    "Ġmaternal": 11057,
    "enchanted": 26426,
    "Ġassoc": 6402,
    "heeded": 13834,
    "Ġdeductions": 19735,
    "etw": 408,
    "alliance": 22199,
    "Ġcrumbs": 20639,
    "Ġsentiment": 6589,
    "sence": 3303,
    "Ġcabs": 23642,
    "Ġjovial": 19234,
    "ĠdÃ¦mon": 7844,
    "hs": 8377,
    "spond": 5567,
    "Ġspam": 7630,
    "Ġprefer": 6416,
    "Ġduration": 20352,
    "Ġmarvelled": 18874,
    "Ġenjoys": 19450,
    "Ġdragg": 23216,
    "Ġsummers": 23874,
    "Ġagitation": 6865,
    "Ġwitness": 4621,
    "ortations": 22257,
    "Ġtre": 2537,
    "Ġhardly": 2430,
    "Ġcleaving": 23182,
    "Ġposition": 1954,
    "Ġdirectly": 2105,
    "slight": 10726,
    "Ġarmitage": 23583,
    "Ġsquad": 22836,
    "Ġjungfrau": 15247,
    "lege": 17842,
    "Ġbreathless": 12168,
    "Ġpleas": 1908,
    "Ġobsole": 22698,
    "Ġfoe": 7679,
    "aken": 1869,
    "Ġclair": 6268,
    "Ġmomentary": 11035,
    "Ġredoubled": 23754,
    "corrob": 24488,
    "gement": 13728,
    "Ġscreen": 17205,
    "Ġverse": 16602,
    "Ġfound": 1245,
    "stating": 21645,
    "mun": 20961,
    "hens": 3939,
    "mate": 5358,
    "collected": 13213,
    "Ġdrenched": 12601,
    "Ġdenomin": 12066,
    "Ġcaves": 15552,
    "Ġromish": 19585,
    "tender": 14472,
    "Ġmercy": 8998,
    "Ġfring": 11125,
    "Ġlarge": 1065,
    "Ġchecked": 9375,
    "Ġmarching": 16699,
    "Ġwont": 9850,
    "Ġsettled": 3743,
    "Ġunaccountable": 7886,
    "Ġraving": 16114,
    "native": 17613,
    "Ġinterpret": 5490,
    "Ġsalt": 8016,
    "Ġpursuing": 9437,
    "Ġromantic": 8030,
    "Ġloomings": 24953,
    "grasping": 20638,
    "Ġaught": 8771,
    "Ġvelvet": 12397,
    "Ġmanners": 3791,
    "Ġzeal": 9097,
    "ynolds": 10033,
    "Ġretired": 6070,
    "Ġscraping": 13416,
    "outward": 22159,
    "ago": 14065,
    "Ġintelligences": 12828,
    "Ġrome": 12154,
    "fortunate": 4792,
    "urous": 10210,
    "raham": 18014,
    "bol": 8717,
    "Ġrestricted": 19026,
    "Ġirre": 7468,
    "Ġbeef": 6830,
    "pered": 4199,
    "Ġswarm": 23054,
    "favourable": 12262,
    "Ġconveniences": 19813,
    "zor": 15458,
    "Ġwith": 349,
    "decease": 25560,
    "thick": 10257,
    "Ġrepel": 23360,
    "so": 890,
    "anxiously": 15109,
    "Ġwearied": 15792,
    "Ġlat": 5088,
    "port": 10718,
    "Ġfacet": 15583,
    "c": 71,
    "Ġentr": 14337,
    "belt": 24037,
    "Ġcruisers": 25865,
    "orting": 9734,
    "Ġaccumulates": 2891,
    "Ġdisapprobation": 16057,
    "hing": 982,
    "Ġstochastic": 3264,
    "Ġframework": 2005,
    "Ġcorpusants": 13677,
    "Ġcarelessness": 13075,
    "eties": 10836,
    "Ġtwins": 16119,
    "Ġsumat": 14137,
    "hammered": 19005,
    "Ġced": 10783,
    "Ġalbert": 12704,
    "elope": 14458,
    "Ġpractical": 3162,
    "Ġtokens": 1773,
    "Ġic": 9625,
    "Ġdoubtfully": 23479,
    "vul": 15448,
    "Ġdesertion": 24790,
    "Ġsolar": 22885,
    "Ġlaug": 3628,
    "Ġoverseeing": 22358,
    "Ġaugmentation": 20116,
    "Ġgunwale": 7325,
    "Ġaccosted": 13672,
    "res": 2763,
    "Ġmystery": 5509,
    "Ġcoleridge": 18768,
    "vinegar": 25423,
    "Ġmajest": 24062,
    "shortly": 12257,
    "Ġpassengers": 13675,
    "Ġpope": 11600,
    "eenth": 12459,
    "Ġcir": 21339,
    "soundest": 24800,
    "Ġvoyages": 6908,
    "neying": 22444,
    "thirds": 25050,
    "Ġsorting": 3233,
    "Ġmodified": 14168,
    "emptied": 23637,
    "Ġunreason": 15841,
    "Ġengra": 7873,
    "Ġaltitude": 26204,
    "Ġunappalled": 22064,
    "osures": 22261,
    "Ġbohemian": 17133,
    "icated": 7590,
    "Ġstove": 6733,
    "Ġpeak": 16125,
    "Ġgap": 21596,
    "Ġalgorithms": 836,
    "Ġswerve": 14436,
    "Ġcolle": 8923,
    "wondering": 19846,
    "Ġunsuccessful": 18257,
    "Ġcertain": 1559,
    "iation": 7343,
    "significant": 25086,
    "Ġchronicled": 25331,
    "Ġsurvived": 14933,
    "Ġforeshad": 23454,
    "Ġexpost": 18625,
    "Ġju": 10284,
    "Ġkeener": 22916,
    "Ġdeformity": 11675,
    "bath": 13689,
    "Ġstand": 1735,
    "Ġcounty": 9030,
    "measureless": 20234,
    "Ġoutrageous": 20609,
    "bpp": 20771,
    "Ġprivilege": 11418,
    "Ġideal": 13120,
    "slide": 24559,
    "Ġtamely": 24981,
    "Ġdearly": 10399,
    "atible": 17773,
    "heav": 5694,
    "Ġborn": 5224,
    "Ġplantation": 11422,
    "steam": 23962,
    "Ġpledged": 20686,
    "Ġbitter": 4174,
    "Ġrejecting": 17051,
    "Ġstarlight": 24629,
    "Ġcomple": 2841,
    "oat": 13764,
    "likes": 18815,
    "ardy": 22155,
    "Ġretrieval": 10672,
    "Ġadroit": 26002,
    "Ġbackward": 7654,
    "Ġalman": 21780,
    "Ġparched": 11725,
    "gown": 9596,
    "places": 7876,
    "Ġslop": 23163,
    "¸": 121,
    "Ġbiases": 2395,
    "Ġobed": 8535,
    "Ġhanded": 8216,
    "Ġbabel": 24429,
    "oses": 3948,
    "fri": 20853,
    "arboard": 7266,
    "admirably": 24948,
    "Ġsteepest": 3088,
    "Ġthoughts": 3136,
    "Ġpeaks": 16127,
    "uttural": 21586,
    "umb": 3477,
    "Ġnumber": 1983,
    "rel": 3756,
    "Ġnam": 17949,
    "Ġbefitting": 15724,
    "Ġdev": 882,
    "provoke": 26073,
    "aneous": 7240,
    "Ġsimplicity": 2924,
    "sim": 6510,
    "wa": 5896,
    "shells": 26058,
    "Ġsable": 15500,
    "Ġhitting": 21485,
    "Ġentire": 2559,
    "gryphon": 15357,
    "Ġengrossed": 12995,
    "Ġdecided": 5471,
    "Ġ73": 24263,
    "Ġmaids": 19692,
    "Ġmainz": 22647,
    "Ġcompacted": 23509,
    "ructed": 7029,
    "ĠcÃ¦": 15553,
    "arch": 1121,
    "Ġbe": 336,
    "Ġdeputation": 21838,
    "heed": 15498,
    "ault": 2305,
    "Ġespecial": 26412,
    "Ġpods": 17915,
    "eight": 9591,
    "illings": 14143,
    "regiment": 16452,
    "autions": 20766,
    "turns": 14905,
    "Ġsingers": 23772,
    "absence": 12706,
    "Ġpoliceman": 15257,
    "Ġomens": 21326,
    "geneva": 13730,
    "Ġsocket": 12783,
    "Ġshapes": 14109,
    "Ġsuspecting": 14909,
    "Ġasyl": 12732,
    "Ġcomforters": 25803,
    "Ġaud": 6661,
    "intolerable": 22938,
    "takes": 21074,
    "Ġshud": 5461,
    "Ġconcern": 2657,
    "sank": 17663,
    "ubb": 1646,
    "Ġblackstone": 23390,
    "Ġconcent": 8249,
    "Ġpatients": 24816,
    "Ġbacking": 16113,
    "Ġscandal": 9081,
    "Ġparticulars": 5754,
    "it": 276,
    "Ġcrescentic": 20619,
    "Ġimputation": 22164,
    "Ġdesist": 16235,
    "right": 2773,
    ")âĢĶ": 20741,
    "Ġpaternal": 16385,
    "Ġchemical": 10408,
    "Ġnodding": 23334,
    "Ġdissipate": 13633,
    "Ġoverl": 18427,
    "¦": 104,
    "bab": 11467,
    "Ġtrade": 2547,
    "Ġinstructive": 19287,
    "Ġprecision": 13189,
    "Ġstayed": 7997,
    "Ġspasmodically": 17313,
    "infernal": 24665,
    "Ġgrandeur": 8627,
    "Ġsuggests": 12199,
    "idav": 18092,
    "Ġtransparen": 10539,
    "shaken": 16025,
    "out": 467,
    "Ġmeeting": 5193,
    "dat": 1629,
    "arter": 17894,
    "permission": 15902,
    "Ġby": 384,
    "axing": 18548,
    "Ġtra": 1383,
    "Ġfl": 1280,
    "Ġdiscourage": 3115,
    "pacing": 21020,
    "Ġorb": 22090,
    "nailed": 20995,
    "common": 4130,
    "chan": 1134,
    "Ġsandwic": 24667,
    "Ġtarshish": 12028,
    "Ġmarch": 4085,
    "_": 67,
    "ľ": 255,
    "Ġtension": 13824,
    "Ġbeak": 18079,
    "Ġbloodless": 19340,
    "practised": 20246,
    "changing": 10852,
    "Ġhalls": 19526,
    "Ġdull": 6384,
    "control": 16542,
    "roots": 15641,
    "Ġclinch": 18425,
    "Ġfinancier": 26585,
    "Ġentreaty": 10527,
    "Ġattentions": 5877,
    "ury": 3308,
    "Ġstomach": 11652,
    "Ġnow": 693,
    "Ġhanover": 20584,
    "Ġmap": 2389,
    "Ġunctuous": 10264,
    "opatra": 22477,
    "Ġtarn": 21157,
    "ers": 407,
    "Ġfootmarks": 19338,
    "Ġhazarded": 25657,
    "folly": 20861,
    "Ġvicious": 24406,
    "charles": 14698,
    "ckles": 22088,
    "Ġsolved": 8930,
    "mechanically": 17299,
    "Ġsuperstition": 15054,
    "Ġpad": 8124,
    "capt": 3838,
    "ofs": 11828,
    "Ġrose": 3441,
    "imately": 12686,
    "Ġoat": 21321,
    "frankenstein": 11390,
    "Ġfates": 15576,
    "Ġpurp": 2390,
    "athered": 6972,
    "Ġtrinity": 22367,
    "Ġhyena": 24522,
    "ff": 460,
    "anyth": 5438,
    "Ġdistorted": 14249,
    "barbs": 20236,
    "Ġtempted": 9056,
    "Ġconsecut": 18111,
    "Ġsworn": 14434,
    "Ġsurviv": 13435,
    "cused": 15331,
    "Ġblankets": 24614,
    "Ġconse": 21803,
    "Ġitalian": 12408,
    "Ġpowder": 11273,
    "Ġscraped": 16903,
    "qu": 369,
    "Ġwarn": 5695,
    "Ġful": 4298,
    "Ġbuoyancy": 20042,
    "Ġram": 11012,
    "armon": 23059,
    "Ġvitality": 15171,
    "Ġmoderation": 12818,
    "Ġbuying": 23998,
    "Ġtables": 9876,
    "social": 11020,
    "Ġreappeared": 21663,
    "Ġcart": 11581,
    "Ġhatchways": 24991,
    "humored": 19453,
    "Ġprone": 18971,
    "Ġing": 5283,
    "Ġhousekeeper": 7456,
    "Ġphrenologists": 25611,
    "Ġprettier": 23766,
    "suppose": 8644,
    "Ġdare": 3546,
    "Ġpunctual": 17137,
    "supers": 22640,
    "_âĢĶâĢĿ": 20762,
    "obli": 23094,
    "Ġ179": 19755,
    "Ġhams": 16612,
    "Ġfreckled": 18961,
    "Ġsides": 4578,
    "Ġdate": 7841,
    "Ġcolony": 18767,
    "solic": 16376,
    "Ġdenominated": 15227,
    "Ġcompress": 21848,
    "Ġsettle": 6293,
    "maj": 18803,
    "Ġsupposing": 6729,
    "hon": 6793,
    "cavity": 26128,
    "Ġsettling": 11060,
    "Ġsap": 18328,
    "Ġfully": 6342,
    "Ġlangu": 574,
    "ins": 1376,
    "Ġderision": 16308,
    "Ġfusion": 21412,
    "Ġgidd": 25786,
    "apolog": 22333,
    "Ġtalks": 23371,
    "Ġunlim": 18253,
    "Ġincisive": 18571,
    "Ġanno": 9667,
    "Ġheadland": 22895,
    "Ġindication": 22952,
    "olent": 8154,
    "Ġelegance": 11330,
    "Ġhalts": 3157,
    "Ġattested": 22622,
    "kindly": 14743,
    "Ġnut": 12644,
    "Ġblock": 2576,
    "ull": 1430,
    "distraction": 24203,
    "Ġvacant": 9494,
    "taken": 7560,
    "principle": 10648,
    "Ġbowsprit": 16560,
    "due": 22410,
    "Ġobservant": 20110,
    "isk": 9167,
    "Ġcylinders": 25945,
    "uy": 21098,
    "magnifying": 25394,
    "Ġaffectionately": 13168,
    "Ġoffering": 3010,
    "Ġontario": 26206,
    "dog": 10690,
    "Ġmadly": 16485,
    "Ġdoub": 1837,
    "tempest": 16959,
    "Ġflourishing": 25190,
    "Ġaids": 12227,
    "Ġflashing": 13026,
    "Ġequalled": 13312,
    "Ġcould": 703,
    "feren": 766,
    "performances": 26008,
    "sun": 7139,
    "Ġrole": 15997,
    "Ġenthr": 22748,
    "Ġquenched": 22417,
    "Ġobstetrics": 24681,
    "Ġobjecting": 18894,
    "Ġdelusion": 18976,
    "athed": 7828,
    "Ġcreative": 9827,
    "A": 37,
    "iancy": 13007,
    "Ġhalf": 1670,
    "Ġassailants": 20447,
    "raise": 18012,
    "Ġgeese": 7693,
    "Ġsideboard": 10383,
    "Ġ67": 19661,
    "disappeared": 14569,
    "Ġstig": 14002,
    "Ġbit": 2966,
    "animal": 16978,
    "labour": 23915,
    "ester": 11596,
    "Ġactionable": 24562,
    "Ġdeft": 21835,
    "sell": 13781,
    "Ġill": 2194,
    "Ġredden": 15692,
    "Ġfads": 21414,
    "reds": 12746,
    "Ġfi": 938,
    "jammed": 25908,
    "sooner": 14774,
    "affording": 23778,
    "Ġcou": 5286,
    "Ġriver": 5411,
    "Ġsomewhat": 4897,
    "projecting": 26075,
    "str": 2578,
    "Ġstart": 3257,
    "accountable": 7109,
    "Ġinsignific": 13182,
    "Ġtam": 7821,
    "Ġrepent": 9861,
    "shazzar": 15288,
    "Ġthrone": 12212,
    "Ġcontemplative": 19894,
    "ĠâĢľ_": 6696,
    "Ġkettle": 26234,
    "Ġsplice": 19310,
    "Ġstirred": 12216,
    "provided": 13637,
    "Ġcommands": 16589,
    "Ġarrested": 9560,
    "Ġbelfry": 26440,
    "Ġblack": 2034,
    "quered": 11054,
    "Ġav": 3583,
    "atively": 2698,
    "unk": 4538,
    "omist": 21636,
    "ads": 5718,
    "Ġescorted": 23507,
    "Ġwrit": 8241,
    "prosperity": 20734,
    "Ġbashee": 19850,
    "dra": 3412,
    "Ġnice": 6676,
    "Ġthistle": 21915,
    "buff": 15317,
    "Ġsnuffing": 25016,
    "Ġtubs": 11369,
    "reast": 17759,
    "affrail": 11203,
    "Ġproviding": 1361,
    "Ġhelter": 24027,
    "Ġpoultry": 17440,
    "Ġunsupp": 22020,
    "nonsense": 17616,
    "Ġwander": 9031,
    "Ġprejud": 6851,
    "Ġink": 8801,
    "Ġk": 484,
    "Ġkings": 7197,
    "Ġarrang": 2467,
    "aloft": 8805,
    "Ġfaltering": 17885,
    "Ġchewed": 16369,
    "perpet": 14162,
    "Ġunmanufactured": 20432,
    "ques": 2842,
    "vings": 9750,
    "Ġdefines": 1741,
    "ingly": 2134,
    "ensity": 11811,
    "rative": 17653,
    "ineer": 11697,
    "Ġdedu": 5586,
    "gged": 3778,
    "Ġell": 17716,
    "ickory": 22669,
    "Ġpractically": 13105,
    "Ġglue": 15672,
    "Ġcrew": 2495,
    "discoloured": 23499,
    "Ġregularization": 1168,
    "Ġfunere": 22259,
    "Ġmarble": 7668,
    "Ġhemis": 21682,
    "Ġproceeded": 5335,
    "plunging": 25989,
    "Ġmariner": 7247,
    "latter": 15381,
    "Ġmockery": 12106,
    "nt": 921,
    "Ġgor": 9206,
    "ending": 1991,
    "Ġspectrum": 4474,
    "ishop": 9741,
    "Ġstanding": 3001,
    "Ġinterlacing": 22578,
    "Ġsails": 5256,
    "Ġgreenhorn": 23769,
    "Ġbulldog": 23860,
    "Ġverte": 9440,
    "lestrade": 9656,
    "Ġwilling": 7421,
    "bishop": 13694,
    "appalling": 22844,
    "Ġveget": 11884,
    "Ġvener": 8163,
    "Ġ32": 19489,
    "Ġinfluenced": 19633,
    "acceler": 23600,
    "Ġknew": 2055,
    "Ġgrimesby": 11456,
    "letter": 6201,
    "Ġobliging": 13242,
    "rah": 8136,
    "mael": 6722,
    "Ġruled": 22786,
    "Ġmultiple": 1189,
    "Ġcoverage": 4289,
    "Ġweak": 5098,
    "Ġleaders": 16627,
    "arr": 3046,
    "Ġlabyrinth": 13679,
    "Ġardu": 22177,
    "Ġpitchpoling": 14910,
    "Ġbounce": 21391,
    "mistakable": 20652,
    "Ġfind": 1457,
    "Ġoxen": 19951,
    "Ġcosine": 2370,
    "Ġhill": 5626,
    "Ġanywhere": 8516,
    "Ġprecipitate": 19942,
    "whispering": 26105,
    "Ġindifferent": 6174,
    "ky": 4519,
    "Ġath": 15800,
    "Ġmole": 11789,
    "Ġ1778": 25733,
    "Ġexponentiating": 3444,
    "Ġpresumption": 10543,
    "sway": 15424,
    "Ġevolve": 3005,
    "Ġrosy": 18460,
    "Ġrecurrent": 1805,
    "Ġshot": 4543,
    "pertaining": 22187,
    "Ġknocking": 10557,
    "Ġsquared": 1381,
    "Ġstatistics": 1682,
    "vac": 15450,
    "ignified": 14490,
    "wait": 11318,
    "ve": 322,
    "entary": 21564,
    "oil": 7805,
    "deficient": 23117,
    "Ġdissolved": 18555,
    "Ġphrenolog": 12333,
    "Ġsacrificial": 24880,
    "Ġpollard": 20384,
    "Ġcoolly": 9771,
    "tremendous": 20672,
    "calmed": 16203,
    "Ġfasting": 16355,
    "Ġ156": 20170,
    "start": 7598,
    "pencil": 18828,
    "thinks": 16641,
    "Ġshocking": 10433,
    "Ġhurry": 4913,
    "Ġinsincere": 26601,
    "humorously": 24022,
    "Ġprofusion": 23570,
    "uger": 21102,
    "overs": 17622,
    "Ġthin": 4348,
    "Ġklux": 22194,
    "Ġmurder": 4282,
    "venth": 9294,
    "master": 5687,
    "evenings": 19463,
    "lur": 13747,
    "Ġmerid": 13195,
    "Ġyounger": 5252,
    "spirit": 11311,
    "arus": 13912,
    "eneva": 5118,
    "nearer": 22445,
    "Ġhovered": 12629,
    "rec": 6003,
    "Ġpopulous": 16826,
    "Ġcoolness": 16886,
    "Ġreconcile": 25294,
    "dun": 17516,
    "Ġdistinction": 8885,
    "disappointed": 25194,
    "Ġhauling": 14087,
    "Ġriggers": 24159,
    "Ġard": 5164,
    "Ġpenny": 16313,
    "1775": 26380,
    "Ġrang": 9244,
    "Ġsucc": 12784,
    "unted": 6998,
    "Ġenveloped": 12206,
    "Ġ221": 25072,
    "Ġappropri": 2228,
    "ulance": 15765,
    "Ġcaress": 16338,
    "Ġamusing": 11798,
    "ogene": 18675,
    "Ġheroine": 24546,
    "Ġassociations": 14962,
    "Ġwinding": 8235,
    "Ġretarded": 23071,
    "Ġneedle": 8274,
    "put": 414,
    "Ġemper": 9859,
    "Ġtheatre": 21277,
    "oubted": 5859,
    "Ġinfinity": 23282,
    "irmed": 9238,
    "Ġmarshal": 20219,
    "Ġwalrus": 14972,
    "Ġpestilent": 25780,
    "Ġcongregational": 25106,
    "irted": 14071,
    "Ġstim": 18064,
    "Ġlawyer": 10666,
    "Ġrecovering": 11861,
    "found": 4215,
    "Ġshadows": 8012,
    "thro": 12759,
    "Ġruddy": 17125,
    "Ġdebt": 12166,
    "Ġteased": 18808,
    "nine": 13761,
    "aco": 12904,
    "Ġauger": 21202,
    "umpled": 15875,
    "Ġastronomy": 25928,
    "Ġchapters": 10471,
    "ily": 1032,
    "Ġdrag": 6184,
    "ffic": 22140,
    "Ġsuggested": 8320,
    "drawing": 10484,
    "conceivable": 17130,
    "daughter": 8353,
    "Ġdiffer": 18678,
    "ĠĠĠĠĠĠĠĠĠĠĠĠĠĠĠĠĠĠĠ": 22950,
    "Ġwhar": 7388,
    "Ġscotch": 12208,
    "Ġhumbly": 16196,
    "Ġconvenient": 8345,
    "Ġanvil": 11595,
    "intense": 22936,
    "Ġ39": 19490,
    "Ġapart": 4745,
    "consid": 4924,
    "Ġcelebrated": 13594,
    "swells": 26150,
    "Ġembracing": 14979,
    "compass": 9458,
    "Ġcedar": 15187,
    "Ġdiffers": 23782,
    "Ġcooped": 22583,
    "companies": 24898,
    "ones": 2746,
    "Ġgently": 7171,
    "stand": 634,
    "Ġchooses": 13346,
    "Ġintricate": 15136,
    "Ġconfluent": 19042,
    "hills": 13736,
    "Ġhospitable": 17059,
    "Ġenlar": 15799,
    "Ġgigantic": 5914,
    "detained": 24385,
    "Ġinquest": 16547,
    "concerns": 24069,
    "Ġplace": 1650,
    "haust": 5777,
    "recover": 24625,
    "î": 175,
    "Ġcells": 13885,
    "Ġprov": 4400,
    "Ġtreacherous": 13554,
    "ierce": 14390,
    "oot": 13765,
    "minutes": 7512,
    "utored": 15661,
    "Ġdisgraceful": 15019,
    "Ġsog": 22080,
    "swear": 16918,
    "Ġsoothe": 7405,
    "charlotte": 6473,
    "Ġdocuments": 10020,
    "Ġincreased": 2212,
    "Ġcomprehending": 24448,
    "Ġhealed": 21681,
    "based": 2962,
    "yes": 986,
    "Ġyojo": 7610,
    "Ġcups": 16882,
    "prepared": 13590,
    "Ġconsult": 6056,
    "draught": 12088,
    "oar": 12496,
    "suspicious": 25392,
    "Ġlimped": 19182,
    "Ġwer": 12550,
    "curiosity": 8623,
    "mates": 5074,
    "Ġchildhood": 13137,
    "rossed": 11010,
    "sweep": 24620,
    "Ġinwards": 15619,
    "mankind": 14373,
    "Ġpel": 17905,
    "Ġwedge": 24072,
    "pping": 1423,
    "older": 15751,
    "Ġdamning": 19141,
    "plifted": 9709,
    "Ġhoist": 11976,
    "Ġveneration": 25048,
    "oup": 2016,
    "ffy": 18314,
    "Ġbillow": 14777,
    "clam": 13053,
    "Ġxxx": 7766,
    "hab": 1077,
    "ine": 404,
    "Ġagency": 11804,
    "Ġacquiesce": 20328,
    "Ġbash": 12584,
    "Ġremoving": 12115,
    "Ġrickety": 26508,
    "]]": 5205,
    "Ġpour": 13914,
    "hoped": 20909,
    "Ġconfounded": 16386,
    "Ġhonest": 7287,
    "Ġtransmit": 10307,
    "rut": 8091,
    "Ġhil": 10820,
    "Ġfowler": 16937,
    "Ġcommunic": 5751,
    "Ġtattered": 21170,
    "hot": 8083,
    "Ġrehearsed": 25973,
    "rushed": 10582,
    "accepted": 20136,
    "!âĢĶ": 2452,
    "ud": 912,
    "Ġtrouble": 3690,
    "request": 21240,
    "Ġfields": 2142,
    "ú": 187,
    "Ġneed": 2607,
    "Ġimplicit": 19958,
    "Ġalders": 21783,
    "Ġpresided": 20207,
    "brought": 7285,
    "Ġopenness": 18957,
    "Ġ52": 24324,
    "orient": 2878,
    "ha": 3984,
    "Ġwearing": 12737,
    "greenland": 10018,
    "Ġwondrously": 24066,
    "Ġalice": 1483,
    "Ġembrace": 16990,
    "Ġtypically": 1538,
    "header": 11931,
    "hr": 20887,
    "Ġbully": 23857,
    "ã": 164,
    "iminished": 19022,
    "Ġrealising": 18984,
    "utarch": 15660,
    "Ġdepartment": 24244,
    "Ġaccurately": 4796,
    "Ġconference": 15745,
    "hors": 9598,
    "Ġjavelins": 26107,
    "elt": 4116,
    "Ġribs": 7101,
    "ste": 3586,
    "commodore": 20624,
    "Ġlanterns": 24580,
    "Ġben": 1106,
    "gorge": 22332,
    "Ġflora": 11415,
    "Ġmutilated": 23961,
    "Ġvote": 21946,
    "Ġsympathies": 14860,
    "Ġ1671": 25009,
    "Ġuttered": 7280,
    "Ġunob": 22014,
    "heavily": 24537,
    "Ġbegone": 11914,
    "Ġprotect": 6337,
    "naturally": 14578,
    "Ġplayers": 12037,
    "wedding": 13371,
    "Ġsober": 10909,
    "thought": 3850,
    "Ġspot": 4156,
    "Ġcrashes": 13125,
    "Ġspade": 9258,
    "zealand": 26054,
    "abash": 18107,
    "speptic": 23948,
    "reference": 13840,
    "pleasure": 5977,
    "mockery": 24381,
    "Ġregion": 2270,
    "Ġhydraulic": 10061,
    "Ġphil": 3385,
    "making": 2572,
    "n": 82,
    "Ġgranite": 22808,
    "Ġresulting": 24201,
    "Ġbeeches": 9226,
    "shock": 19856,
    "Ġhump": 5853,
    "Ġguilt": 6179,
    "chariot": 26481,
    "Ġpetrified": 19597,
    "Ġdeveloped": 16334,
    "Ġbeaches": 18084,
    "Ġgasped": 11371,
    "usive": 8189,
    "Ġyard": 5920,
    "hess": 4746,
    "Ġrecompense": 14837,
    "Ġmortification": 12092,
    "Ġclouded": 13289,
    "Ġpuffing": 12253,
    "ben": 4926,
    "icity": 2540,
    "Ġ275": 20111,
    "Ġexternal": 8364,
    "Ġdenying": 14658,
    "sales": 17668,
    "Ġnone": 3221,
    "Ġcott": 3710,
    "Ġhastened": 9004,
    "Ġgranted": 22807,
    "ization": 486,
    "impression": 15709,
    "everybody": 8610,
    "Ġannesley": 19578,
    "Ġsegmentation": 17339,
    "Ġpervers": 11781,
    "Ġernest": 8716,
    "¹": 122,
    "Ġthreats": 13377,
    "pretty": 10619,
    "Ġearnestness": 12125,
    "Ġhove": 17923,
    "bitterly": 20336,
    "Ġconvincing": 19309,
    "Ġsucceeded": 6105,
    "enchant": 21282,
    "Ġsur": 2183,
    "Ġsect": 17752,
    "urring": 21703,
    "84": 15300,
    "Ġcoals": 16074,
    "sory": 17660,
    "Ġ2026": 12334,
    "arranged": 19320,
    "Ġtimor": 24227,
    "Ġassumptions": 5517,
    "silence": 8044,
    "answers": 22139,
    "cular": 15327,
    "Ġenticements": 26036,
    "Ġcomplexity": 1694,
    "Ġreverie": 13457,
    "Ġprovinc": 16742,
    "astic": 1868,
    "Ġthursday": 12642,
    "relapse": 24018,
    "there": 1422,
    "turbable": 24534,
    "brous": 19200,
    "planks": 21953,
    "Ġalbatross": 10869,
    "icher": 9202,
    "Ġinhabit": 5782,
    "pigs": 17140,
    "Ġabilities": 8866,
    "Ġgrating": 14354,
    "Ġperchance": 15990,
    "Ġpartaking": 22697,
    "ursday": 12275,
    "Ġapril": 13662,
    "isen": 10791,
    "Ġeas": 2351,
    "Ġforetold": 23453,
    "Ġalarmed": 6923,
    "Ġintertw": 18593,
    "culous": 11139,
    "Ġduodecimo": 16767,
    "pronounced": 12345,
    "heaven": 8052,
    "Ġsketches": 26272,
    "Ġwhoa": 22422,
    "Ġwash": 9702,
    "bald": 16447,
    "C": 39,
    "Ġcaut": 6521,
    "Ġclust": 9273,
    "Ġwhirlp": 16963,
    "¬": 110,
    "owal": 13993,
    "Ġfulfilled": 11360,
    "Ġsharing": 3475,
    "Ġfeeling": 3084,
    "Ġconstruction": 9385,
    "Ġoutrages": 18416,
    "Ġturns": 4982,
    "way": 764,
    "Ġdum": 10810,
    "pidation": 18897,
    "Ġproport": 2296,
    "Ġminutely": 14560,
    "Ġmaty": 22912,
    "Ġdrove": 4985,
    "watching": 16930,
    "Ġbingleys": 18997,
    "gossip": 23405,
    "Ġtis": 15465,
    "cott": 8073,
    "Ġashen": 21898,
    "embers": 21928,
    "Ġnobly": 22240,
    "ruck": 6848,
    "Ġbackwards": 12923,
    "Ġfragmentary": 25859,
    "Ġsettlement": 19837,
    "Ġvancou": 22876,
    "Ġsubmerged": 11870,
    "Ġvehem": 22889,
    "hatred": 24824,
    "kward": 6958,
    "Ġsizes": 1520,
    "Ġbaff": 10798,
    "Ġdespised": 14666,
    "Ġdrawback": 23992,
    "Ġsnorting": 23741,
    "istrate": 7406,
    "Ġuncomp": 15840,
    "apan": 6860,
    "Ġtopmost": 14587,
    "Ġpoising": 22591,
    "Ġpert": 22397,
    "Ġspiritual": 9928,
    "Ġpuzzling": 14897,
    "Ġsusp": 2665,
    "idents": 6150,
    "handled": 19263,
    "Ġtransc": 12869,
    "maltese": 24798,
    "lace": 13748,
    "ant": 438,
    "Ġconstantly": 11972,
    "pleas": 3853,
    "staring": 18021,
    "Ġgushed": 21604,
    "Ġweighing": 20016,
    "Ġchildren": 3769,
    "suited": 22639,
    "Ġthousand": 2785,
    "ery": 1268,
    "anning": 10162,
    "Ġworship": 10364,
    "rear": 21231,
    "Ġstall": 12694,
    "Ġobserve": 4670,
    "partner": 19222,
    "Ġinspector": 6498,
    "perquisites": 26533,
    "Ġhint": 5017,
    "%": 9,
    "oment": 920,
    "Ġcon": 348,
    "Ġpresuming": 16793,
    "Ġinfat": 14499,
    "pred": 2805,
    "Ġsymbol": 7716,
    "iction": 4270,
    "equally": 19900,
    "Ġtid": 8106,
    "Ġspong": 15880,
    "Ġfootman": 8287,
    "ifted": 4494,
    "Ġplanned": 14751,
    "Ġunicorn": 22056,
    "Ġjelly": 22300,
    "hidden": 17370,
    "odious": 21814,
    "invincible": 25093,
    "Ġdiscover": 4717,
    "Ġgurglings": 26467,
    "hounds": 20906,
    "za": 13810,
    "Ġpushed": 5909,
    "....": 11314,
    "Ġvect": 1224,
    "Ġpastures": 23421,
    "fowl": 17549,
    "Ġarchitects": 18735,
    "Ġultimate": 12348,
    "Ġdescends": 14286,
    "hro": 20890,
    "Ġlikely": 3599,
    "Ġcurses": 13020,
    "Ġalarm": 4050,
    "Ġspent": 3967,
    "Ġspl": 2986,
    "ender": 9160,
    "uce": 11534,
    "Ġincome": 7916,
    "thanked": 24334,
    "frank": 7757,
    "secur": 18125,
    "sufficient": 6635,
    "Ġnorton": 12647,
    "european": 26373,
    "favourite": 15142,
    "Ġripples": 25508,
    "Ġpretty": 3862,
    "Ġdashing": 8794,
    "ugnance": 12366,
    "Ġvirtues": 9934,
    "Ġsavannah": 17415,
    "Ġgold": 3276,
    "Ġorganically": 3014,
    "Ġunsettled": 14123,
    "goes": 10424,
    "Ġworshippers": 25696,
    "Ġmaritime": 23036,
    "Ġrig": 4226,
    "Ġgirdled": 19159,
    "wishing": 21127,
    "Ġcomplacency": 19448,
    "Ġindisc": 16227,
    "mme": 22500,
    "Ġslackened": 15125,
    "choice": 21689,
    "Ġgone": 2107,
    "Ġjealousy": 13576,
    "felix": 10651,
    "Ġdealing": 14045,
    "Ġlapse": 17120,
    "Ġintellig": 525,
    "him": 1940,
    "Ġyards": 5371,
    "affections": 17356,
    "knight": 20939,
    "forget": 11030,
    "thoroughly": 26510,
    "Ġbountiful": 25946,
    "Ġscaled": 2106,
    "Ġbespeaking": 26312,
    "Ġblocks": 6321,
    "judged": 14830,
    "Ġplunged": 8692,
    "Ġche": 1763,
    "allowance": 16824,
    "teous": 16173,
    "Ġproclaim": 18130,
    "Ġdeterminate": 23004,
    "ifford": 15782,
    "Ġandromeda": 21505,
    "Ġmace": 21308,
    "Ġprot": 3849,
    "Ġsense": 3249,
    "char": 3503,
    "approve": 19937,
    "Ġdived": 9177,
    "Ġpresently": 5116,
    "chard": 21685,
    "Ġincredulous": 9985,
    "trouble": 8295,
    "Ġwing": 6665,
    "Ġ35": 24079,
    "oud": 1942,
    "miserable": 8656,
    "Ġfurrow": 22815,
    "Ġstatistical": 11102,
    "iarity": 8742,
    "Ġpaused": 5416,
    "Ġon": 350,
    "board": 3567,
    "enged": 23147,
    "Ġreputed": 18036,
    "Ġimpenitent": 26550,
    "Ġexpans": 18623,
    "Ġarmada": 23582,
    "Ġtrees": 4204,
    "Ġpinch": 15016,
    "fishermen": 17061,
    "Ġgrate": 12962,
    "º": 123,
    "Ġexamples": 2604,
    "unhappy": 10235,
    "Ġcommotion": 9779,
    "Ġgash": 15669,
    "Ġpsal": 15614,
    "Ġwarmer": 19186,
    "Ġstammered": 26201,
    "Ġmoccas": 22434,
    "Ġalive": 4398,
    "Ġshrink": 14803,
    "ishe": 13891,
    "Ġstudious": 23212,
    "atter": 641,
    "Ġcusack": 26435,
    "Ġaux": 21198,
    "answer": 11730,
    "that": 852,
    "Ġlids": 12274,
    "Ġmaledictions": 26430,
    "Ġdesigns": 13010,
    "atherley": 7220,
    "Ġsoap": 14132,
    "incidentally": 20538,
    "Ġprocession": 11773,
    "profess": 10632,
    "Ġcatastrophic": 3542,
    "Ġseamen": 5064,
    "Ġwip": 13853,
    "Ġandrew": 21504,
    "_).": 5886,
    "ushion": 14719,
    "ocratic": 17245,
    "Ġfighting": 12196,
    "Ġstood": 2551,
    "Ġbrush": 17865,
    "Ġbordeaux": 24567,
    "Ġvivid": 8057,
    "colonel": 8284,
    "Ġgrease": 26191,
    "Ġreluct": 14371,
    "Ġpence": 17906,
    "Ġswore": 10376,
    "Ġstumble": 26484,
    "Ġruined": 12952,
    "Ġ65": 24371,
    "Ġamateur": 22485,
    "Ġener": 10894,
    "Ġsust": 7007,
    "Ġtemporal": 2613,
    "Ġenl": 18188,
    "Ġtrustworthy": 24109,
    "Ġjoints": 12034,
    "Ġleak": 2159,
    "mult": 8746,
    "Ġtrespass": 23602,
    "Ġparaph": 22119,
    "Ġglow": 7170,
    "Ġtransient": 18507,
    "Ġdeficient": 18825,
    "Ġbulge": 23858,
    "ounded": 9746,
    "icult": 3338,
    "Ġzer": 1093,
    "Ġstay": 3094,
    "Ġinquiries": 5678,
    "Ġconnecting": 18633,
    "Ġreverber": 19870,
    "Ġhard": 1440,
    "Ġaffairs": 6877,
    "eng": 1488,
    "inform": 10141,
    "Ġeyeing": 6460,
    "Ġvir": 7001,
    "Ġexecutioner": 12270,
    "Ġsubset": 9868,
    "Ġgrat": 4059,
    "adopt": 25547,
    "rawling": 21634,
    "Ġvow": 10244,
    "Ġsorry": 4211,
    "partiality": 13160,
    "Ġponies": 21474,
    "Ġgriff": 22806,
    "Ġlayer": 1013,
    "ints": 3416,
    "Ġinference": 9671,
    "illar": 5101,
    "forgetting": 25488,
    "Ġinvestigated": 25388,
    "ooped": 17624,
    "Ġcedars": 20291,
    "Ġcrazy": 8593,
    "Ġbuild": 6474,
    "Ġcircumstantial": 14643,
    "Ġesquimaux": 25153,
    "Ġyourself": 2593,
    "Ġdeceived": 6544,
    "Ġmortally": 23917,
    "osis": 18390,
    "ually": 2774,
    "Ġremarking": 13124,
    "Ġwakeful": 24269,
    "Ġtakes": 5008,
    "guinea": 16672,
    "Ġfright": 3797,
    "xt": 2081,
    "Ġrecourse": 22742,
    "ographical": 16786,
    "Ġshalt": 18230,
    "Ġharry": 24574,
    "Ġexamination": 8004,
    "Ġhud": 10821,
    "Ġabsorbing": 17128,
    "Ġhatchway": 13525,
    "Ġcannot": 1666,
    "wheel": 22869,
    "sleepers": 24733,
    "Ġexcept": 3309,
    "suitableness": 26262,
    "atic": 4020,
    "bun": 12437,
    "Ġspermacetti": 19051,
    "Ġinsolence": 20252,
    "heading": 5487,
    "Ġnarrowly": 16820,
    "emotions": 15795,
    "certain": 3676,
    "ī": 236,
    "cim": 8719,
    "ales": 3313,
    "Ġstriding": 16090,
    "Ġsymmetrical": 20365,
    "aze": 10072,
    "Ġtheirs": 7024,
    "pendicular": 6499,
    "humoured": 11235,
    "Ġver": 3393,
    "Ġcin": 13875,
    "Ġinestimable": 17441,
    "Ġoper": 2120,
    "Ġearnest": 3932,
    "oregressive": 3423,
    "scho": 8758,
    "Ġintegration": 9866,
    "Ġeuropean": 20046,
    "Ġtrappings": 23081,
    "Ġgrasped": 8033,
    "Ġdramat": 23217,
    "inger": 6812,
    "Ġexpedite": 24957,
    "schoolmaster": 15160,
    "Ġrode": 15998,
    "Ġapplied": 6187,
    "Ġhesitate": 16946,
    "Ġusing": 709,
    "Ġwhom": 1832,
    "Ġjune": 10286,
    "Ġrafters": 22661,
    "pondicherry": 26402,
    "2": 22,
    "Ġthickness": 13276,
    "irs": 14070,
    "Ġpliny": 11823,
    "Ġstandpoint": 23278,
    "Ġtheory": 5798,
    "dock": 16418,
    "Ġoscill": 2857,
    "creatures": 7517,
    "Ġbuttons": 12779,
    "offing": 23332,
    "Ġexcuses": 19044,
    "Ġsomnambul": 26578,
    "aited": 12434,
    "cle": 3958,
    "Ġglossy": 15226,
    "Ġcouldn": 7648,
    "cious": 6643,
    "laid": 10107,
    "ue": 1181,
    "Ġlashed": 9198,
    "Ġpig": 5705,
    "Ġfed": 5530,
    "iffs": 9021,
    "rises": 17656,
    "polar": 24586,
    "Ġhuzza": 12631,
    "Ġtread": 9408,
    "Ġsmothe": 18574,
    "ositions": 10281,
    "Ġtechnique": 2416,
    "Ġmaiden": 13386,
    "Ġeffects": 7236,
    "Ġseaport": 20598,
    "Ġqueer": 4478,
    "Ġbrawn": 10479,
    "Ġted": 13812,
    "umns": 14148,
    "Ġkeen": 4612,
    "Ġoutsk": 15955,
    "Ġunw": 8849,
    "Ġundeceive": 25555,
    "Ġunconsc": 6552,
    "Ġvarious": 3510,
    "Ġatmosphere": 10895,
    "Ġcomparing": 14264,
    "Ġwoe": 4793,
    "Ġbreach": 11973,
    "Ġbidden": 24649,
    "ising": 2253,
    "moon": 10333,
    "Ġdictator": 20153,
    "Ġdivinest": 25725,
    "Ġspeechless": 13353,
    "Ġvillas": 24055,
    "Ġrocky": 13387,
    "Ġcomplicated": 14734,
    "Ġreason": 1392,
    "Ġpacing": 8425,
    "Ġdance": 4441,
    "Ġunmannerly": 26519,
    "Ġconcentrate": 25067,
    "intention": 10365,
    "Ġtrifled": 24677,
    "Ġpair": 5706,
    "Ġpeaceable": 14722,
    "Ġsymp": 4502,
    "Ġshouted": 5347,
    "Ġacknowledged": 7534,
    "chors": 11643,
    "seemingly": 25364,
    "Ġdistance": 3482,
    "unbounded": 21884,
    "Ġbestowed": 6593,
    "Ġemigrant": 25861,
    "Ġscandinavian": 26346,
    "Ġpassive": 22840,
    "Ñ": 146,
    "wh": 508,
    "Ġconsequ": 6254,
    "Ġweld": 8111,
    "athies": 22700,
    "Ġveins": 8931,
    "Ġwave": 7575,
    "Ġbour": 4876,
    "atics": 15522,
    "recollection": 25350,
    "Ġol": 17815,
    "ignorance": 17161,
    "Ġgarden": 3828,
    "ament": 2436,
    "Ġgunwales": 12239,
    "Ġcripple": 11439,
    "Ġwings": 9163,
    "Ġirons": 7695,
    "Ġasia": 11681,
    "Ġse": 402,
    "daggoo": 13707,
    "Ġincessant": 15096,
    "Ġfolios": 23018,
    "Ġimpulses": 19962,
    "lacings": 26136,
    "Ġproducts": 5198,
    "Ġhinge": 25544,
    "Ġnarrower": 24357,
    "Ġbarmaid": 19336,
    "seems": 10873,
    "Ġcounterbalance": 24725,
    "Ġlargely": 14284,
    "estations": 22225,
    "÷": 184,
    "Ġjonas": 20608,
    "Ġheadstrong": 14387,
    "Ġsale": 14157,
    "Ġproportionate": 17043,
    "Ġhospitality": 13513,
    "Ġworshipped": 25694,
    "Ġtener": 21162,
    "transform": 8049,
    "Ġbenef": 3488,
    "Ġerrone": 14429,
    "Ġconductor": 24009,
    "Ġfounder": 17884,
    "Ġgods": 6454,
    "Ġbam": 15564,
    "ubines": 22959,
    "Ġser": 1672,
    "Ġprematurely": 24008,
    "medical": 23342,
    "Ġgoodness": 6058,
    "uten": 11620,
    "Ġshad": 3851,
    "Ġclumsy": 9579,
    "Ġvon": 14081,
    "number": 10112,
    "remote": 23190,
    "nib": 5214,
    "intellig": 5320,
    "renewed": 19705,
    "sford": 5997,
    "field": 3071,
    "Ġdardanelles": 26445,
    "Ġsyrian": 18354,
    "Ġmazes": 25942,
    "preserve": 25306,
    "Ġretreating": 19800,
    "Ġreg": 729,
    "Ġoozy": 21325,
    "Ġbaling": 17860,
    "Ġexercised": 24806,
    "irst": 879,
    "Ġunbelief": 22048,
    "Ġgarn": 13963,
    "peculiarities": 13471,
    "ill": 447,
    "Ġmum": 13858,
    "Ġ94": 17718,
    "Ġsay": 933,
    "Ġriveted": 13618,
    "Ġrefusal": 10342,
    "Ġguardian": 14941,
    "Ġcongeal": 25982,
    "ckled": 9256,
    "Ġundec": 22018,
    "Ġdrama": 16327,
    "Ġxxxix": 24972,
    "itive": 6668,
    "Ġgreatest": 4095,
    "lish": 1951,
    "Ġlouisa": 13546,
    "Ġbildad": 3782,
    "Ġterror": 5123,
    "Ġomnipotent": 13548,
    "uctive": 17697,
    "Ġcrippled": 25281,
    "fere": 10987,
    "paddington": 20476,
    "Ī": 235,
    "Ġhimself": 1354,
    "oriental": 23718,
    "inst": 4296,
    "isation": 13893,
    "tree": 11532,
    "el": 306,
    "elevating": 20404,
    "opic": 22476,
    "ipper": 13740,
    "involved": 25629,
    "Ġgermany": 25788,
    "benevolently": 25603,
    "agement": 4190,
    "Ġsurrounds": 24234,
    "Ġcritically": 23447,
    "Ġmun": 12560,
    "Ġtriumphant": 12188,
    "Ġlets": 18076,
    "Ġscepticism": 25929,
    "xter": 9146,
    "ars": 905,
    "Ġcopied": 20008,
    "knell": 24558,
    "Ġallegro": 25797,
    "ific": 488,
    "Ġeve": 13970,
    "thinness": 25813,
    "fra": 8374,
    "atig": 13845,
    "Ġburgl": 13175,
    "Ġrecede": 25970,
    "Ġdefe": 21834,
    "Ġaltering": 18102,
    "Ġmightiest": 12958,
    "menced": 23146,
    "Ġtatters": 21176,
    "Ġsalesman": 13668,
    "indifference": 15981,
    "Ġsystematic": 5244,
    "Ġbranch": 8331,
    "Ġmundane": 26431,
    "Ġonset": 12708,
    "Ġmixed": 6974,
    "Ġungrateful": 14121,
    "doublo": 24663,
    "Ġrejoice": 10206,
    "Ġclergy": 7642,
    "Ġspace": 1516,
    "Ġniece": 5712,
    "Ġcommitting": 22673,
    "velling": 14761,
    "ood": 962,
    "all": 485,
    "Ġpregnant": 26537,
    "Ġcriminals": 19923,
    "ced": 697,
    "Ġgentlemanlike": 12065,
    "mr": 1903,
    "Ġindic": 2888,
    "legs": 13184,
    "Ġnecessitates": 23929,
    "Ġthickly": 12114,
    "Ġ0": 1905,
    "Ġmis": 917,
    "phil": 7924,
    "ĠĠĠĠĠĠĠĠĠĠĠĠĠĠĠĠĠĠĠĠĠĠĠĠ": 5321,
    "Ġroving": 22403,
    "Ġcharges": 23269,
    "Ġtraced": 10381,
    "Ġdat": 495,
    "Ġvolcanoes": 24149,
    "clopÃ¦": 13054,
    "mic": 12487,
    "Ġarchly": 22778,
    "Ö": 151,
    "Ġmetaphys": 16392,
    "Ġattendance": 12180,
    "twinkle": 23701,
    "germ": 15355,
    "Ġhindoo": 17175,
    "Ġnat": 12643,
    "fairly": 17219,
    "Ġpaced": 7583,
    "deliber": 17425,
    "/*": 10068,
    "Ġsolitude": 6876,
    "orders": 12872,
    "Ġdraw": 3671,
    "Ġberkshire": 16884,
    "Ġreigned": 13987,
    "concerned": 24641,
    "two": 3861,
    "Ġgrasshopper": 24383,
    "human": 7088,
    "Ġvoluntary": 14798,
    "Ġsen": 9156,
    "Ġfolks": 14425,
    "grow": 10096,
    "solute": 16598,
    "Ġwork": 1353,
    "Ġregiment": 6432,
    "Ġeigenvalues": 4999,
    "Ġtherein": 11774,
    "Ġdense": 8122,
    "Ġsain": 17751,
    "Ġvag": 9707,
    "profitable": 17071,
    "Ġantichronical": 26611,
    "bran": 23576,
    "tstone": 21083,
    "Ġassistants": 9450,
    "https": 11683,
    "Ġfugitives": 25637,
    "Ġgall": 4352,
    "Ġplun": 6281,
    "Ġtwentieth": 18660,
    "ods": 8835,
    "Ġprotested": 9932,
    "Ġlaure": 16909,
    "nect": 665,
    "Ġbeck": 14009,
    "Ġunfortunate": 5376,
    "Ġskin": 5040,
    "Ġexpanse": 14290,
    "Ġstabbing": 20302,
    "accidents": 19213,
    "Ġtranquillize": 24760,
    "Ġhurried": 4035,
    "tie": 21067,
    "glance": 16587,
    "Ġtil": 12522,
    "seas": 14033,
    "grandfather": 25013,
    "Ġcracked": 8594,
    "Ġbanquet": 15239,
    "Ġune": 4597,
    "bles": 7017,
    "spanish": 14330,
    "Ġnearly": 3361,
    "jaw": 13743,
    "Ġunseason": 22051,
    "Ġhowl": 12852,
    "Ġab": 528,
    "bony": 15318,
    "Ġportentous": 15228,
    "caused": 25522,
    "rope": 3183,
    "Ġsurpasses": 25271,
    "Ġsolution": 9804,
    "soft": 12508,
    "irra": 15783,
    "Ġgangs": 21607,
    "Ġcopestone": 24940,
    "later": 20952,
    "fil": 12461,
    "pard": 9618,
    "Ġexpensive": 12916,
    "Ġyour": 632,
    "Ġcharley": 19007,
    "Ġrepeat": 7999,
    "Ġcraggy": 23530,
    "Ġfools": 14481,
    "boys": 13359,
    "Ġsensibly": 14516,
    "Ġcraven": 16470,
    "Ġsmiting": 12896,
    "Ġtranquo": 14842,
    "warrior": 24801,
    "Ġsuperst": 7703,
    "infliction": 25926,
    "pronouncing": 25196,
    "hetically": 21207,
    "Ġterribly": 10423,
    "Ġcrimin": 6901,
    "Ġsow": 17750,
    "Ġwent": 1539,
    "Ġfile": 13903,
    "Ġcommonly": 3262,
    "Ġhiding": 9822,
    "Ġancestors": 25645,
    "alice": 3206,
    "iloqu": 11647,
    "Ġjuggler": 26368,
    "Ġearls": 18904,
    "Ġgiants": 25962,
    "F": 42,
    "Ġaccord": 4029,
    "Ġhotel": 8650,
    "Ġundertake": 14479,
    "idly": 12698,
    "Ġrecl": 16138,
    "dron": 17525,
    "deli": 15343,
    "âĢĻ": 379,
    "stre": 5451,
    "Ġperson": 2366,
    "Ġcherry": 16935,
    "Ġenchant": 7185,
    "behind": 6779,
    "respectable": 19848,
    ",": 16,
    "Ġlimp": 19181,
    "ribe": 1223,
    "Ġdispose": 23880,
    "Ġmout": 17799,
    "Ġblank": 5950,
    "Ġalmost": 1656,
    "Ġpoorly": 9853,
    "Ġlamentations": 17076,
    "Ġadver": 5641,
    "Ġcolonial": 22856,
    "pursu": 11391,
    "Ġentrapped": 26264,
    "enhall": 13850,
    "awn": 3836,
    "Ġdistributed": 18662,
    "umbria": 23931,
    "Ġspecksnyder": 17402,
    "animation": 16979,
    "amped": 12032,
    "mis": 4520,
    "Ġrudeness": 17124,
    "knew": 9126,
    "aur": 15307,
    "Ġwoke": 21288,
    "Ġgrinning": 9053,
    "Ġwhe": 439,
    "cra": 6354,
    "Ġsuccession": 12100,
    "Ġassent": 12731,
    "Ġdevoured": 16134,
    "Ġtepid": 26414,
    "Ġdelivered": 11114,
    "stem": 571,
    "open": 7025,
    "paid": 15414,
    "Ġpromises": 10398,
    "epilogue": 22105,
    "glass": 9907,
    "Ġcasualty": 20340,
    "Ġcorpora": 26582,
    "ination": 2914,
    "omit": 13974,
    "Ġwiping": 25768,
    "named": 9895,
    "dropping": 14981,
    "philosophers": 25255,
    "Ġkrusen": 20713,
    "Ġskewer": 19621,
    "Ġback": 816,
    "nowadays": 22338,
    "ia": 1258,
    "Ġcouples": 16852,
    "Ġemphasis": 20535,
    "Ġjav": 7901,
    "âĢĺ": 941,
    "ĠĠĠĠĠĠĠĠĠĠĠĠ": 12898,
    "Ġsparks": 22131,
    "Ġrephrased": 26479,
    "Ġfake": 5810,
    "Ġsurgeon": 8981,
    "Ġchildish": 13136,
    "dishon": 20402,
    "great": 3517,
    "Ġthews": 21276,
    "heartedness": 24830,
    "Ġseemingly": 9317,
    "Ġsparing": 22128,
    "Ġsplinters": 15101,
    "Ġessex": 20126,
    "Ġcharitable": 23270,
    "ersed": 10260,
    "Ġuns": 15835,
    "glancing": 11212,
    "Ġsul": 7570,
    "heavenly": 20045,
    "algorithms": 8294,
    "Ġoaks": 16933,
    "Ġpainter": 19169,
    "Ġfinds": 6299,
    "previous": 9759,
    "Ġcoincid": 20316,
    "Ġdistraction": 22506,
    "Ġprec": 2920,
    "ouring": 6420,
    "Ġshelves": 14998,
    "adequate": 15202,
    "Ġassembl": 20061,
    "Ġever": 1182,
    "Ġus": 493,
    "Ġphase": 14470,
    "Ġtroops": 24902,
    "nyder": 16686,
    "rally": 17652,
    "Ġremonstr": 16160,
    "commander": 16987,
    "Ġshun": 11707,
    "Ġdevotion": 22718,
    "Ġprecise": 7075,
    "flowing": 14572,
    "telescope": 26564,
    "Ġcirc": 1987,
    "athy": 14322,
    "Ġbohemia": 10647,
    "worth": 8626,
    "Ġhackney": 20431,
    "Ġket": 18347,
    "Ġcrawford": 24897,
    "Ġadequate": 20307,
    "Ġsway": 7571,
    "consuming": 25676,
    "imate": 4222,
    "went": 6512,
    "Ġwearisome": 19796,
    "lotts": 23826,
    "Ġstiffly": 15005,
    "stay": 9680,
    "Ġfriday": 14488,
    "Ġclump": 15964,
    "classes": 12134,
    "á": 162,
    "Ġnewfound": 22932,
    "reflect": 19866,
    "rage": 10841,
    "Ġblasphe": 17406,
    "Ġfield": 1251,
    "Ġcounsel": 13615,
    "masterly": 24533,
    "shall": 4549,
    "ushing": 5730,
    "Ġauthentic": 20533,
    "ensils": 22548,
    "hatches": 19929,
    "Ġclanking": 20610,
    "Ġidiotic": 25591,
    "Ġantarctic": 19553,
    "Ġbrix": 12581,
    "eled": 2356,
    "Ġpunctilious": 26354,
    "Ġproportions": 16468,
    "Ġunquestion": 18248,
    "asy": 5294,
    "maid": 8552,
    "Ġghostliness": 24654,
    "izar": 14050,
    "Ġtraps": 23079,
    "Ġcapture": 3384,
    "Ġsmothered": 20719,
    "pper": 3207,
    "Ġwept": 7184,
    "Ġfearing": 12813,
    "Ġomin": 11575,
    "shuff": 18496,
    "Ġpossesses": 19352,
    "dÃ¦mon": 17527,
    "Ġirregularly": 25326,
    "Ġsheep": 10924,
    "abhorred": 17335,
    "Ġlevi": 3035,
    "Ġpeeled": 14317,
    "Ġsoil": 9254,
    "Ġsparsity": 4209,
    "Ġfelony": 18952,
    "Ġfitzwilliam": 5771,
    "Ġthickest": 16654,
    "erate": 7149,
    "Ġsullen": 9157,
    "poor": 6060,
    "necessity": 13367,
    "awing": 18916,
    "Ġgenus": 24432,
    "squee": 15430,
    "Ġev": 4828,
    "latitude": 25262,
    "bit": 3934,
    "Ġmocking": 24005,
    "Ġcoquet": 22584,
    "Ġhaw": 10249,
    "Ġhideousness": 16915,
    "Ġsitt": 21216,
    "ittle": 811,
    "Ġrecesses": 17260,
    "nowledge": 10287,
    "Ġgid": 13962,
    "Ġelbowed": 16108,
    "calcul": 12985,
    "Ġgrass": 5177,
    "Ġsummarization": 3647,
    "Ġdescribing": 19256,
    "itty": 3556,
    "craft": 12245,
    "phenomenon": 17649,
    "Ġimper": 4501,
    "uncont": 15772,
    "regret": 16451,
    "Ġkeels": 11059,
    "sticks": 25967,
    "Ġuntimely": 16467,
    "deck": 4500,
    "Ġhusband": 3621,
    "Ġsoldiers": 8686,
    "Ġeternal": 5975,
    "Ġvainly": 9922,
    "Ġopposed": 11186,
    "Ġvillainous": 25135,
    "oquent": 12498,
    "Ġidle": 8252,
    "Ġpistols": 17328,
    "Ġpersuade": 5872,
    "Ġampl": 22480,
    "christmas": 20254,
    "Ġpowdered": 24240,
    "urons": 3129,
    "Ġliking": 23593,
    "eaten": 20343,
    "final": 19677,
    "fatal": 17088,
    "Ġaccomplishment": 19666,
    "morning": 4859,
    "Ġcopy": 10161,
    "circumspect": 26088,
    "Ġofficious": 19348,
    "knives": 14912,
    "Ġbones": 4582,
    "isive": 10792,
    "Ġofficial": 7081,
    "wealth": 22688,
    "choose": 23671,
    "Ġeffectually": 16166,
    "war": 6802,
    "seated": 11670,
    "race": 11630,
    "Ġnewsp": 9338,
    "Ġshifted": 14107,
    "infant": 19828,
    "Ġtum": 5692,
    "Ġcontinental": 19706,
    "Ġgames": 11625,
    "Ġadversarial": 5607,
    "Ġsubtlety": 24783,
    "Ġclubbed": 26548,
    "Ġcharging": 23268,
    "otic": 15743,
    "portuguese": 25416,
    "ated": 722,
    "fin": 5209,
    "ą": 198,
    "called": 6292,
    "Ġsanction": 20026,
    "possibly": 10541,
    "Ġincom": 9768,
    "Ġcaused": 5049,
    "seals": 21816,
    "strangers": 20335,
    "Ġprophetic": 20020,
    "Ġanytime": 12883,
    "Ġtravelled": 7771,
    "ß": 160,
    "Ġconsidered": 4610,
    "ainted": 3659,
    "Ġportraits": 20142,
    "Ġlin": 10832,
    "initions": 21186,
    "Ġstaying": 8283,
    "Ġpuff": 6526,
    "ames": 2882,
    "wonders": 17143,
    "murderers": 25731,
    "pick": 17635,
    "Ġour": 1011,
    "Ġwhist": 6021,
    "Ġring": 4451,
    "veil": 18043,
    "Ġmoustache": 20482,
    "Ġhumanity": 6731,
    "Ġwretchedly": 19507,
    "terr": 8153,
    "Ġsubsisted": 19119,
    "bling": 10076,
    "fastened": 19326,
    "Ġdanger": 3520,
    "Ġgratified": 8021,
    "Ġintention": 5638,
    "Ġintermediate": 18595,
    "cheer": 9436,
    "Ġclap": 10954,
    "Ġcleaning": 23181,
    "Ġrefinement": 18701,
    "Ġwherefore": 8524,
    "inev": 21964,
    "Ġnoticing": 18224,
    "Ġsnodhead": 19303,
    "ington": 21300,
    "cor": 5520,
    "Ġsurpr": 2550,
    "Ġdetermines": 2365,
    "Ġsheet": 6262,
    "Ġtwo": 1043,
    "chair": 5916,
    "Ġclipping": 2438,
    "nels": 12494,
    "Ġobjectionable": 16991,
    "ple": 455,
    "none": 6962,
    "Ġcities": 17828,
    "Ġcrest": 12939,
    "Ġstepfather": 7221,
    "Ġtold": 2185,
    "Ġinmates": 15621,
    "Ġpunch": 9953,
    "oarsman": 25264,
    "Ġdreading": 23800,
    "Ġante": 17897,
    "oftener": 23967,
    "broad": 8642,
    "Ġsummer": 4790,
    "binder": 17499,
    "brace": 16942,
    "ainty": 21786,
    "secure": 12234,
    "Ġtheoretically": 3568,
    "Ġmisled": 22759,
    "Ġpardon": 5727,
    "Ġcomfits": 21851,
    "Ġbrightened": 23829,
    "Ġ17": 5740,
    "Ġouthouse": 22314,
    "Ġidentify": 12013,
    "chase": 11644,
    "Ġlessen": 14532,
    "Ġhopeful": 19030,
    "ingale": 21298,
    "Ġdoubloons": 13434,
    "cork": 20795,
    "remembered": 17350,
    "iod": 3841,
    "),": 1349,
    "Ġdefici": 22943,
    "Ġungracious": 18258,
    "ognit": 19194,
    "hideous": 25410,
    "Ġexpose": 10325,
    "finally": 9498,
    "Ġconcer": 23321,
    "etency": 21579,
    "Ġsupp": 1265,
    "Ġroots": 11183,
    "orm": 426,
    "Ġvisits": 8220,
    "Ġwakes": 11570,
    "Ġphenomena": 21481,
    "Ġbreast": 8968,
    "lydia": 6826,
    "Ġair": 1836,
    "Ġintensely": 17017,
    "Ġusage": 9730,
    "hairs": 20903,
    "Ġheaved": 9382,
    "Ġdining": 6977,
    "Ġbrimstone": 25689,
    "gins": 12467,
    "Ġperennial": 22694,
    "Ġpeter": 10533,
    "Ġlif": 10193,
    "collar": 19329,
    "Ġunlocked": 14120,
    "landlord": 9838,
    "ython": 1031,
    "Ġprovided": 6577,
    "Ġimmeas": 18323,
    "Ġplayfulness": 23638,
    "theories": 18078,
    "Ġdel": 1614,
    "Ġacquies": 11095,
    "Ġerection": 24003,
    "Ġhackluyt": 25658,
    "Ġsympathetic": 17358,
    "Ġapologies": 25199,
    "Ġvoy": 2621,
    "Ġwallowing": 24045,
    "Ġbenefactor": 14697,
    "Ġmanufact": 22328,
    "sing": 5138,
    "fulfil": 16036,
    "taining": 7205,
    "Ġty": 6657,
    "nourished": 26400,
    "Ġoverdone": 22357,
    "Ġpant": 10816,
    "asserted": 22309,
    "Ġflu": 3275,
    "ass": 537,
    "astes": 11737,
    "ampl": 21841,
    "Ġgurg": 15671,
    "Ġwind": 1432,
    "Ġremaining": 6188,
    "Ġseverity": 15819,
    "offer": 19062,
    "Ġcontained": 7678,
    "Ġgratify": 19503,
    "Ġboughs": 20487,
    "Ġutensils": 23515,
    "Ġmemories": 14541,
    "Ġillustrate": 25069,
    "Ġhull": 5446,
    "Ġaunt": 3175,
    "loath": 22509,
    "uss": 8762,
    "Ġplaning": 22604,
    "Ġpost": 4274,
    "Ġdynamically": 4472,
    "Ġcolleg": 22853,
    "mysterious": 26053,
    "surely": 10567,
    "Ġplants": 22601,
    "Ġstiggs": 25795,
    "Ġskilful": 25838,
    "Ġpotential": 3620,
    "iquette": 26134,
    "protected": 19922,
    "stove": 21650,
    "riage": 2123,
    "Ġaffectation": 14439,
    "Ġstarve": 24628,
    "bree": 15313,
    "multiple": 15106,
    "Ġenvironment": 3544,
    "Ġtowns": 11171,
    "Ġcousins": 9913,
    "despair": 8343,
    "Ġimaginative": 19248,
    "Ġexasper": 8466,
    "Ġinterval": 4056,
    "Ġrock": 5310,
    "Ġadmon": 15867,
    "brim": 23577,
    "hurry": 24766,
    "Ġprosper": 10226,
    "drink": 10593,
    "Ġturtle": 4205,
    "constellation": 24610,
    "Ġcontention": 22426,
    "Ġmanx": 7904,
    "axed": 8888,
    "Ġdegradation": 2632,
    "ask": 858,
    "wicked": 24452,
    "Ġcommunication": 1870,
    "Ġunhing": 18241,
    "Ġtint": 13817,
    "Ġwhispers": 14699,
    "Ġmust": 846,
    "berish": 22719,
    "cific": 10083,
    "Ġveter": 15810,
    "Ġhairs": 13230,
    "Ġchap": 5933,
    "Ġestates": 16460,
    "horr": 14599,
    "Ġginger": 9210,
    "Ġpipeline": 2484,
    "Ġanimated": 7701,
    "Ġnois": 4269,
    "Ġbelike": 18830,
    "stuff": 15686,
    "upset": 23017,
    "Ġaye": 3350,
    "Ġbrill": 8549,
    "Ġcatastrop": 3344,
    "Ġsmut": 22556,
    "Ġacquitted": 18899,
    "knot": 13745,
    "Ġsauntering": 18332,
    "Ġgardener": 19136,
    "iel": 11492,
    "Ġsincerity": 13678,
    "Ġbubble": 13535,
    "spin": 22730,
    "countenance": 6925,
    "securer": 25605,
    "Ġexasperated": 11411,
    "Ġkneel": 14806,
    "stumps": 21657,
    "Ġimbu": 15884,
    "Ġwis": 3729,
    "Ġcinque": 20484,
    "Ġpositively": 13029,
    "Ġaverage": 3137,
    "Ġgerman": 6141,
    "Ġbidding": 9536,
    "hast": 5357,
    "gr": 2086,
    "igger": 21699,
    "Ġweary": 5635,
    "post": 6061,
    "Ġinvoked": 19146,
    "Ġrestrain": 8964,
    "Ġuser": 15913,
    "Ġchrist": 4075,
    "secut": 7866,
    "idious": 11661,
    "Ġkeel": 6444,
    "Ġheath": 15700,
    "Ġteaching": 10362,
    "Ġton": 15464,
    "Ġsunk": 5752,
    "banish": 20781,
    "verbally": 25362,
    "knowing": 10435,
    "Ġsuspense": 9417,
    "Ġsufficient": 2004,
    "Ġ108": 19685,
    "Ġcapst": 8596,
    "Ġassociate": 13450,
    "Ġcombination": 22859,
    "expose": 23663,
    "Ġcharacteristically": 23689,
    "Ġactiv": 834,
    "Ġfamine": 16326,
    "Ġcomra": 7183,
    "worthy": 7732,
    "Ġeddying": 16435,
    "Ġtree": 5284,
    "Ġbroken": 3446,
    "Ġshouts": 19538,
    "Ġascribe": 16782,
    "publ": 17639,
    "Ġurged": 6781,
    "Ġnosegay": 24195,
    "igning": 12679,
    "Ġfixed": 2687,
    "Ġfirmly": 8013,
    "Ġpause": 5707,
    "floor": 14935,
    "Ġbreat": 3459,
    "Ġanchored": 17439,
    "deep": 1099,
    "Ġhurst": 5582,
    "Ġkicks": 19769,
    "Ġdrowning": 19905,
    "inates": 21179,
    "Ã¦st": 24178,
    "Ġsmoothe": 23657,
    "poise": 6171,
    "semic": 21819,
    "vial": 17698,
    "Ġneedles": 11182,
    "Ġwhereby": 11835,
    "Ġknife": 7309,
    "Ġjumbled": 22297,
    "Ġspanish": 2829,
    "Ġsake": 4094,
    "Ġrapturously": 24892,
    "Ġbackstays": 22653,
    "Ġpantry": 20294,
    "Ġforgiven": 24029,
    "[_": 5131,
    "Ġcontemplation": 11355,
    "Ġclerval": 4653,
    "Ġwrongfully": 24251,
    "icant": 21559,
    "Ġcountess": 11962,
    "impe": 21706,
    "Ġwharf": 9559,
    "Ġliber": 5168,
    "housekeeping": 24105,
    "Ġtops": 14586,
    "Ġmany": 1103,
    "smile": 23906,
    "cloud": 11103,
    "Ġsickening": 19605,
    "secret": 12235,
    "ĠâĢĶ": 13811,
    "Ġhateful": 19714,
    "Ġrevenge": 5452,
    "Ġopen": 1553,
    "D": 40,
    "Ġbargain": 23794,
    "Ġrenounce": 19468,
    "speckled": 23947,
    "osal": 11757,
    "Ġbaggy": 24541,
    "Ġstacks": 18074,
    "grieved": 17316,
    "itories": 15547,
    "archangel": 18793,
    "Ġaver": 1285,
    "pron": 9005,
    "rence": 5555,
    "Ġerud": 20055,
    "Ġafraid": 3530,
    "Ġwhelmed": 26001,
    "Ġwheels": 10910,
    "Ġdispositions": 13232,
    "Ġreturns": 11924,
    "lun": 20945,
    "Ġinjunction": 19618,
    "moved": 9783,
    "Ġharmony": 16814,
    "activity": 22632,
    "transformers": 8714,
    "alloyed": 22200,
    "Ġspring": 4122,
    "Ġarr": 1801,
    "Ġpenetrate": 12268,
    "Ġfervent": 14895,
    "Ġmary": 3845,
    "children": 9055,
    "Ġbuttoned": 25370,
    "Ġaccompl": 5167,
    "pitch": 13297,
    "loving": 18541,
    "ork": 417,
    "artificial": 964,
    "Ġcapsized": 20090,
    "bedded": 13227,
    "Ġdost": 7636,
    "Ġcordially": 16836,
    "Ġquaint": 18466,
    "Ġsqualls": 17020,
    "Ġblunt": 11892,
    "igation": 5917,
    "uteness": 17986,
    "Ġimpressed": 8197,
    "Ġmorass": 22971,
    "Ġdl": 3376,
    "Ġscrape": 14917,
    "earn": 10694,
    "expected": 5780,
    "I": 45,
    "Ġurgent": 16869,
    "Ġencapsulate": 13674,
    "Ġhaze": 18196,
    "Ġelementary": 24817,
    "uling": 2256,
    "globe": 25145,
    "progression": 20380,
    "Ġprivileges": 25136,
    "Ġlounged": 19954,
    "Ġtrappers": 23080,
    "Ġbowl": 11202,
    "feels": 22502,
    "Ġpatentee": 25589,
    "Ġpurplish": 19142,
    "Ġexh": 5232,
    "conv": 7213,
    "Ġcarriage": 3952,
    "Ġsin": 1511,
    "Ġducking": 17146,
    "aly": 1108,
    "Ġwhisper": 6205,
    "Ġdates": 6693,
    "Ġxxxiv": 24971,
    "ounted": 5031,
    "infer": 10142,
    "Ġtissu": 25922,
    "desperate": 17351,
    "exe": 11787,
    "details": 19676,
    "etrics": 21582,
    "opolising": 25679,
    "inquire": 16932,
    "Ġdante": 21436,
    "Ġsearched": 15818,
    "ships": 5486,
    "Ġcertainly": 2496,
    "Ġindestruct": 22958,
    "Ġdeficiencies": 26572,
    "Ġbelief": 5855,
    "oss": 10113,
    "Ġrepresented": 8938,
    "Ġestimate": 19373,
    "Ġinitials": 11011,
    "minutely": 19594,
    "Ġvariously": 18654,
    "Ġcobbler": 25831,
    "rise": 6226,
    "Ġ62": 24368,
    "sor": 7352,
    "Ġdiscernible": 15068,
    "Ġsalutations": 25384,
    "plumed": 21954,
    "coiled": 16486,
    "Ġvines": 12749,
    "biscuit": 17500,
    "Ġchronic": 9927,
    "Ġsaloon": 24064,
    "Ġassur": 6073,
    "Ġsperm": 1843,
    "Ġjustinian": 22967,
    "wn": 723,
    "engine": 18927,
    "Ġspout": 3280,
    "Ġenabling": 1080,
    "Í": 142,
    "Ġsounds": 5190,
    "Ġflag": 7242,
    "borough": 20784,
    "Ġundiscernible": 22067,
    "irth": 5634,
    "Ġdoor": 1739,
    "inder": 9152,
    "Ġmason": 10155,
    "scar": 9815,
    "try": 7812,
    "icting": 12846,
    "Ġbats": 13900,
    "engagement": 14457,
    "al": 292,
    "Ġbut": 424,
    "rimin": 2421,
    "Ġwaning": 15533,
    "Ġroar": 9752,
    "Ġlanguor": 12845,
    "vigorous": 25919,
    "Ġlouis": 8356,
    "Ġinsertion": 26345,
    "subsided": 25832,
    "Ġattempts": 10488,
    "urned": 9305,
    "digger": 24313,
    "Ġmuteness": 19417,
    "disapprobation": 19157,
    "confused": 19645,
    "ateness": 15519,
    "incing": 15485,
    "Ġmonogram": 26576,
    "Ġnurse": 9516,
    "Ġbills": 17861,
    "Ġdoubling": 23320,
    "Ġfrozen": 9012,
    "Ġreminded": 9997,
    "Ġdimension": 3239,
    "Ġlieuten": 13326,
    "taste": 10127,
    "Ġmoses": 21314,
    "erated": 21269,
    "Ġcanall": 10926,
    "Ġpremises": 10485,
    "Ġintrig": 21989,
    "ogrand": 26263,
    "olic": 14041,
    "indust": 18436,
    "Ġupper": 5091,
    "Ġlik": 2522,
    "Ġinattention": 17932,
    "thankful": 16806,
    "Ġmu": 17796,
    "Ġspears": 12924,
    "Ġmoonlight": 9956,
    "Ġanointing": 25542,
    "Ġhissing": 15788,
    "Ġbristol": 14379,
    "elements": 25206,
    "Ġmournfully": 20117,
    "ni": 1654,
    "inqu": 6121,
    "Ġcompliment": 5673,
    "Ġevaporate": 26334,
    "Ġouter": 6859,
    "Ġballasted": 23982,
    "Ġchil": 11749,
    "ateur": 22005,
    "Ġclattering": 22351,
    "leisure": 21369,
    "fe": 678,
    "experienced": 15120,
    "Ġtechn": 9368,
    "âĢĿâĢĶ": 5721,
    "aff": 3101,
    "wrote": 11545,
    "supposing": 24138,
    "Ġcivilised": 24247,
    "Ġhood": 10822,
    "omuch": 21638,
    "Ġcottagers": 6761,
    "Ġbir": 17854,
    "Ġattentively": 9948,
    "Ġdragon": 14943,
    "living": 7133,
    "scores": 22987,
    "Ġthrew": 3977,
    "Ġpoetry": 15079,
    "Ġdistressed": 8514,
    "Ġdegraded": 19227,
    "Ġlifetime": 13602,
    "Ġtru": 4107,
    "mble": 1404,
    "Ġfra": 1792,
    "Ġimprovements": 14503,
    "Ġbass": 17856,
    "bergs": 18683,
    "aphs": 22336,
    "irection": 2385,
    "Ġthousands": 6748,
    "shrouded": 26363,
    "Ġconce": 3421,
    "Ġtrampled": 20327,
    "Ġdiab": 10609,
    "Ġtahitian": 25430,
    "Ġshovel": 23492,
    "jeroboam": 25622,
    "ural": 507,
    "Ġlevelled": 11282,
    "Ġshoe": 14566,
    "cast": 2928,
    "yder": 10136,
    "Ġwaif": 9374,
    "Ġdissembling": 26256,
    "Ġpun": 4586,
    "kindled": 16660,
    "Ġshetland": 22158,
    "Ġlot": 6678,
    "Ġglimmer": 15140,
    "Ġ119": 24444,
    "Ġgratefully": 20443,
    "Ġmail": 17801,
    "Ġwandered": 6930,
    "Ġblocked": 19223,
    "Ġcountryside": 23598,
    "Ġpaddock": 25041,
    "baggage": 24930,
    "Ġunprecedented": 15853,
    "Ġmother": 2067,
    "Ġliberated": 19667,
    "saw": 5893,
    "Ġrmsprop": 3352,
    "surd": 6934,
    "prove": 11145,
    "Ġgruff": 21612,
    "Ġcistern": 17380,
    "Ġincorpor": 13165,
    "Ġfarm": 7840,
    "Ġpenetrated": 13472,
    "Ġcruis": 14624,
    "Ġmeadow": 17151,
    "Ġimpartial": 15218,
    "Ġthrills": 24545,
    "Ġjewelled": 20183,
    "Ġmantel": 11438,
    "Ġbecame": 2694,
    "Ġbeneath": 3236,
    "damn": 20024,
    "Ġuncertain": 4070,
    "Ġpoured": 8799,
    "utional": 17984,
    "direct": 12455,
    "Ġproperty": 6450,
    "Ġminimum": 23040,
    "ote": 4595,
    "preserving": 25307,
    "Ġsurf": 19133,
    "Ġforgo": 21772,
    "Ġintrusion": 12763,
    "Ġraise": 6166,
    "Ġwithdraw": 16964,
    "lik": 3918,
    "Ġinvulnerable": 19148,
    "binary": 20783,
    "Ġpapa": 10654,
    "circumstantial": 24447,
    "hosmer": 25904,
    "Ġcorre": 3889,
    "rences": 9271,
    "Ġcommon": 1413,
    "Ġscales": 4849,
    "whatever": 6694,
    "ashion": 3860,
    "Ġshow": 3401,
    "Ġmaintenance": 17461,
    "Ġlent": 21544,
    "Ġratt": 7880,
    "Ġunconditional": 15843,
    "striving": 24672,
    "Ġcompat": 2939,
    "Ġdire": 866,
    "Ġinsists": 23676,
    "Ġdau": 21423,
    "presbyter": 20616,
    "Ġheel": 9683,
    "Ġdisclosed": 15152,
    "Ġpa": 2991,
    "ishnoo": 10953,
    "apprehension": 26116,
    "istan": 22107,
    "Ġholiest": 18813,
    "Ġindulging": 16904,
    "Ġremoval": 12116,
    "Ġcupboard": 16883,
    "opposite": 19930,
    "Ġarc": 14159,
    "Ġentertaining": 16926,
    "Ġshifting": 12766,
    "Ġtrail": 16281,
    "Ġcryst": 9915,
    "Ġimpo": 3440,
    "uously": 7353,
    "Ġparamount": 15877,
    "desire": 14473,
    "Ġclam": 7416,
    "Ġsilver": 7463,
    "Ġdolphins": 20394,
    "theless": 4262,
    "Ġsequences": 1751,
    "hello": 13363,
    "Ġbloodthirst": 23803,
    "Ġinsult": 6747,
    "Ġshudder": 9050,
    "Ġminds": 6303,
    "Ġomit": 17816,
    "ises": 3654,
    "Ġnear": 1716,
    "Ġactions": 6278,
    "Ġflitting": 13024,
    "Ġquestion": 2781,
    "Ġfruitless": 25608,
    "Ġpuffed": 14976,
    "insist": 23063,
    "Ġcabinets": 23863,
    "Ġmabel": 17323,
    "Ġmeasuring": 22881,
    "Ġshri": 5375,
    "Ġvaluable": 5608,
    "Ġrepining": 23361,
    "sitting": 8386,
    "finished": 10552,
    "Ġsnugness": 20077,
    "happened": 9432,
    "ends": 6038,
    "mushroom": 26397,
    "Ġdi": 6525,
    "Ġdespond": 14667,
    "larking": 17595,
    "Ġevermore": 18812,
    "Ġharpooneers": 4731,
    "Ġgramm": 8170,
    "Ġgilder": 21611,
    "luckily": 19753,
    "Ġfeather": 8859,
    "ogn": 2460,
    "Ġsafely": 9025,
    "Ġdeliverer": 11949,
    "Ġsobs": 14134,
    "rate": 2420,
    "tier": 12513,
    "stands": 22435,
    "Ġworse": 4718,
    "sof": 17658,
    "affected": 10474,
    "dress": 17520,
    "Ġsalary": 13292,
    "Ġhunt": 6183,
    "Ġhist": 2443,
    "Ġringing": 13331,
    "Ġflames": 7939,
    "Ġcompatibility": 2961,
    "Ġmaddened": 17244,
    "Ġunspeakably": 25175,
    "divided": 25022,
    "Ġrelation": 2140,
    "Ġsturgeon": 20590,
    "Ġcollateral": 20072,
    "azing": 7704,
    "subject": 6631,
    "Ġcigarette": 20655,
    "pier": 17636,
    "Ġadored": 18291,
    "artic": 14217,
    "Ġpiazza": 26452,
    "Ġneeds": 6605,
    "ack": 612,
    "beauty": 20104,
    "asp": 3337,
    "Ġworry": 18816,
    "Ġweep": 7619,
    "Ġcompan": 2172,
    "claims": 25322,
    "Ġstupid": 7603,
    "luded": 4229,
    "Ġmeryton": 4437,
    "Ġunclad": 22053,
    "Ġemblem": 20496,
    "Ġamply": 22482,
    "visit": 7754,
    "term": 3760,
    "Ġrev": 6988,
    "mingled": 14712,
    "Ġflights": 24756,
    "Ġexhaled": 19683,
    "Ġdiscipl": 22785,
    "Ġcannibals": 10585,
    "confirmed": 19646,
    "remembrance": 25705,
    "Ġoaken": 13865,
    "ede": 21503,
    "Ġrent": 11638,
    "Ġforeign": 9870,
    "Ġskil": 14350,
    "Ġestab": 6315,
    "Ġpadd": 9669,
    "Ġcamp": 9164,
    "aky": 18413,
    "thed": 8825,
    "phur": 16148,
    "Ġsporty": 19891,
    "relations": 14732,
    "Ġhence": 4990,
    "ignorantly": 25192,
    "strikes": 24673,
    "begged": 18521,
    "Ġblunder": 18819,
    "Ġhaste": 9003,
    "abomin": 15740,
    "Ġnuts": 17952,
    "Ġknave": 11270,
    "Ġdesolate": 10011,
    "course": 6104,
    "ellig": 523,
    "ened": 1386,
    "Ġinfernal": 11959,
    "Ġsculpt": 15946,
    "Ġinsular": 19270,
    "Ġparents": 6752,
    "wants": 21129,
    "Ġbarricade": 14660,
    "estinated": 15921,
    "Ġfrosted": 19804,
    "happiest": 19333,
    "twig": 23697,
    "bordered": 17498,
    "Ġsins": 13837,
    "spect": 3231,
    "ive": 425,
    ":": 30,
    "Ġpovels": 22592,
    "mine": 5618,
    "Ġshutting": 14758,
    "eks": 4727,
    "Ġappearance": 3699,
    "Ġacknowled": 6350,
    "Ġoptimize": 1651,
    "Ġpoverty": 9303,
    "Ġphilipses": 24455,
    "gledy": 25406,
    "Ġcoherent": 3261,
    "Ġach": 2622,
    "those": 4495,
    "Ġsimul": 1809,
    "Ġup": 462,
    "Ġ12": 5483,
    "Ġfolding": 19728,
    "incible": 16497,
    "ective": 18174,
    "Ġfootpath": 19339,
    "Ġhan": 15616,
    "Ġpy": 21449,
    "Ġgiddy": 20495,
    "Ġtun": 5998,
    "Ġcough": 11579,
    "Ġbat": 10794,
    "Ġdescending": 8902,
    "bour": 2072,
    "Ġ50": 24322,
    "Ġimpute": 18324,
    "Ġdeadly": 5405,
    "promised": 12250,
    "Ġcoin": 9770,
    "osoever": 17342,
    "Ġsepulch": 15283,
    "ishment": 3506,
    "conjectures": 25183,
    "Ġlobster": 11388,
    "Ġsal": 3940,
    "Ġaccomplice": 24379,
    "Ġhindrance": 25223,
    "Ġsubst": 4275,
    "Ġdear": 1541,
    "Ġmatted": 22913,
    "Ġchannels": 26015,
    "Ġowned": 11874,
    "treat": 12512,
    "Ġpar": 456,
    "Ġcheck": 7271,
    "Ġdistantly": 18535,
    "Ġphysiogn": 12387,
    "Ġdistension": 22505,
    "belated": 24039,
    "Ġfather": 1450,
    "Ġfisher": 3220,
    "Ġcous": 3435,
    "necessities": 24309,
    "Ġelbow": 12919,
    "Ġshoal": 12015,
    "Ġchr": 3688,
    "dear": 6555,
    "Ġoutcast": 18415,
    "Ġpeaking": 22690,
    "base": 20776,
    "ature": 520,
    "scans": 22984,
    "Ġwarsaw": 26169,
    "Ġquantization": 19855,
    "Ġencourag": 1390,
    "Ġrequired": 7227,
    "Ġguess": 4903,
    "Ġclusters": 25235,
    "Ġprint": 18972,
    "Ġspirits": 3697,
    "sch": 21049,
    "Ġhappening": 14382,
    "Ġapologized": 25201,
    "Ġembattled": 26290,
    "Ġperpet": 7644,
    "tar": 8097,
    "past": 8089,
    "Ġwanderings": 20143,
    "Ġangry": 5498,
    "Ġmanagement": 8192,
    "blow": 9103,
    "Ġvarying": 15809,
    "warmest": 25031,
    "rossing": 18640,
    "quer": 11678,
    "orter": 4257,
    "Ġindignity": 18833,
    "declined": 25177,
    "Ġ96": 24595,
    "Ě": 219,
    "Ġnieces": 8432,
    "Ġfav": 1754,
    "spass": 18688,
    "occasion": 7753,
    "Ġprophecy": 25709,
    "Ġunex": 11711,
    "Ġforeheads": 23450,
    "Ġbraided": 16581,
    "wandering": 20283,
    "ources": 2792,
    "Ġsteam": 9352,
    "Ġshortness": 23483,
    "gument": 20884,
    "Ġstage": 7389,
    "fabulous": 20472,
    "ifle": 10889,
    "Ġencourages": 2061,
    "Ġlivel": 11353,
    "Ġembarked": 17134,
    "times": 8098,
    "influ": 9540,
    "severe": 21817,
    "embow": 21930,
    "Ġlunacy": 20028,
    "Ġlaid": 3943,
    "Ġcataract": 23429,
    "Ġengagements": 9976,
    "representation": 20196,
    "ju": 13741,
    "Ġothers": 2584,
    "hospit": 25905,
    "hid": 13734,
    "Ġhorn": 6185,
    "Ġstartling": 14670,
    "!âĢĶâĢĻ": 23567,
    "Ġadmires": 19686,
    "Ġhandfuls": 17209,
    "scr": 16239,
    "Ġblessings": 24179,
    "contrast": 25597,
    "Ġoath": 7833,
    "Ġentail": 9791,
    "Ġnature": 2539,
    "Ġcling": 11769,
    "Ġtale": 5142,
    "Ġstro": 4594,
    "pra": 15407,
    "salesman": 20670,
    "Ġcrooked": 11279,
    "Ġpersecutor": 26098,
    "hurt": 19879,
    "rush": 7010,
    "Ġunprincipled": 20707,
    "Ġcontentment": 14869,
    "Ġbull": 7839,
    "Ġoperate": 19117,
    "furthest": 19842,
    "embed": 18187,
    "Ġjoists": 19233,
    "Ġresource": 10991,
    "Ġcoldly": 14650,
    "Ġsteadily": 8051,
    "Ġthoroughfares": 26097,
    "Ġinfirmity": 26300,
    "laughing": 15178,
    "Ġsurging": 19135,
    "wherein": 19109,
    "Ġthread": 14539,
    "Ġriv": 10745,
    "Ġentic": 16144,
    "Ġagain": 813,
    "during": 6787,
    "Ġtottenham": 24145,
    "Ġreposing": 23362,
    "commence": 19992,
    "Ġsurveying": 25328,
    "Ġeverywhere": 9795,
    "Ġextract": 1518,
    "Ġpirates": 9073,
    "Ġstooped": 14463,
    "Ġris": 4886,
    "Ġbrewed": 23347,
    "degra": 22145,
    "Ġscarce": 8621,
    "Ġdiana": 21434,
    "Ġbravely": 23839,
    "Ġceaseless": 13488,
    "ge": 561,
    "Ġcust": 11580,
    "sprit": 11381,
    "Ġpres": 9731,
    "Ġcocain": 18599,
    "Ġwretched": 4084,
    "Ġflukes": 5266,
    "Ġunit": 1848,
    "Ġglut": 18848,
    "Ġmatch": 4528,
    "Ġfig": 3625,
    "degree": 12800,
    "Ġli": 602,
    "impressed": 12689,
    "pense": 10366,
    "Ġabove": 2937,
    "conqu": 14243,
    "Ġobtruded": 20721,
    "irting": 11684,
    "Ġinsurmountable": 16530,
    "Ġbeheading": 21753,
    "happ": 3103,
    "wild": 8765,
    "Ġindestructible": 26574,
    "Ġsloping": 11937,
    "cond": 1667,
    "Ġprayed": 16667,
    "conceal": 25118,
    "Ġacquired": 13042,
    "critical": 19504,
    "Ġspouted": 14674,
    "americans": 25046,
    "Ġexerc": 6834,
    "cnns": 3622,
    "Ġparty": 3511,
    "office": 16395,
    "oding": 1461,
    "enormous": 26168,
    "Ġpit": 3419,
    "Ġconvolutions": 21806,
    "Ġexplo": 2284,
    "Ġmetrics": 19057,
    "Ġblend": 14398,
    "agne": 21904,
    "Ġdecreases": 3408,
    "Ġstripped": 10462,
    "Ý": 158,
    "usions": 6159,
    "ments": 1398,
    "achine": 605,
    "Ġnimble": 21525,
    "footed": 19690,
    "Ġpleasantest": 24141,
    "Ġenthusiastic": 19966,
    "Ġchristianity": 19862,
    "Ġimpenetrable": 17396,
    "fingers": 17369,
    "Ġfairest": 20461,
    "Ġimitate": 14155,
    "fig": 8734,
    "Ġalpha": 13588,
    "hyena": 24255,
    "Ġbridle": 24684,
    "Ġpom": 21450,
    "Ġsoon": 1227,
    "Ġcore": 13878,
    "Ġweighed": 8710,
    "Ġincognit": 22554,
    "Ġshops": 22000,
    "plenty": 14088,
    "Ġtransformer": 2637,
    "Ġdeck": 2137,
    "Ġforty": 5719,
    "Ġexe": 3998,
    "Ġwoll": 21292,
    "Ġsimpl": 1579,
    "ishments": 9272,
    "inu": 1113,
    "ist": 449,
    "Ġgraces": 18225,
    "Ġcot": 13877,
    "Ġcontinu": 1167,
    "Ġimpenit": 22384,
    "Ġmyself": 1454,
    "Ġspare": 5102,
    "Ġheedless": 14902,
    "Ġrefused": 6715,
    "cabin": 8362,
    "irited": 15785,
    "exception": 9974,
    "Ġcasc": 15554,
    "viating": 14579,
    "ù": 186,
    "âĢĿ)": 21810,
    "urry": 13994,
    "ued": 7561,
    "racting": 10353,
    "brushing": 20787,
    "calculating": 25692,
    "since": 5894,
    "Ġsnuffed": 15071,
    "advanced": 19589,
    "Ġdevelopment": 7057,
    "Ġrambles": 17184,
    "Ġbottom": 3674,
    "Ġbaw": 15567,
    "Ġheaviest": 23325,
    "command": 6576,
    "Ġcorp": 5574,
    "uring": 818,
    "speed": 19409,
    "Ġtravel": 5952,
    "stains": 11636,
    "Ġforbearance": 12327,
    "Ì": 141,
    "elaborate": 21573,
    "garnished": 26390,
    "sufficiently": 14980,
    "pacific": 17642,
    "atters": 18487,
    "Ġnlp": 3062,
    "Ġbreaches": 14521,
    "Ġaccelerating": 1618,
    "Ġdisagreeable": 9297,
    "Ġconscious": 7743,
    "Ġglistened": 20172,
    "Ġstoner": 7178,
    "Ġsomewhere": 5384,
    "Ġdisease": 14257,
    "Ġalmanac": 26487,
    "Ġdisposing": 19375,
    "pemberley": 9620,
    "Ġthank": 3792,
    "uel": 6966,
    "unnecessary": 21879,
    "consciously": 19626,
    "Ġexceeding": 1581,
    "cible": 20805,
    "Ġmine": 3177,
    "Ġterr": 3271,
    "Ġcovari": 2337,
    "Ġabhorrent": 16856,
    "Ġcows": 15551,
    "Ġgamy": 17999,
    "Ġyouthful": 16723,
    "collecting": 26083,
    "Ġkey": 2102,
    "ilingly": 21721,
    "yingly": 23115,
    "Ġadmeasurements": 26227,
    "Ġapr": 12530,
    "Ġnames": 4532,
    "whether": 5319,
    "tubes": 25214,
    "Ġelasticity": 19559,
    "ivity": 1603,
    "stubb": 6017,
    "Ġfulf": 6772,
    "separ": 9230,
    "Ġdormouse": 4925,
    "Ġproper": 1377,
    "dation": 2614,
    "month": 6463,
    "Ġaristotle": 25820,
    "Ġadrift": 11720,
    "irably": 13294,
    "meal": 22712,
    "moving": 11014,
    "Ġpivot": 13923,
    "lig": 3170,
    "Ġpals": 13918,
    "Ġtak": 15470,
    "Ġwhalebone": 10975,
    "Ġloungers": 24866,
    "Ġciv": 3305,
    "enses": 10992,
    "departure": 15233,
    "husband": 8041,
    "charm": 13990,
    "Ġretreated": 13433,
    "Ġdrawer": 13265,
    "Ġjub": 22295,
    "Ġstepped": 7051,
    "isles": 15562,
    "Ġbatt": 13899,
    "Ġbott": 3147,
    "Ġseizing": 7878,
    "Ġundet": 16704,
    "Ġaccident": 5380,
    "erie": 21270,
    "<EOS>": 2,
    "©": 107,
    "Ġscholars": 26114,
    "Ġcigars": 12251,
    "prepar": 22447,
    "Ġseparating": 16685,
    "intend": 16223,
    "Ġign": 8293,
    "Ġcalculated": 4475,
    "pause": 12499,
    "Ġshore": 4834,
    "silenced": 24426,
    "8": 28,
    "Ġreigns": 21669,
    "Ġdissip": 10990,
    "Ġoverhead": 11771,
    "companion": 9557,
    "Ġwatson": 3598,
    "erately": 21272,
    "trimmed": 23951,
    "âĢĿ--": 21812,
    "Ġdagger": 21435,
    "Ġsucceeding": 16761,
    "Ġhook": 6453,
    "Ġvapors": 19909,
    "thank": 4951,
    "¥": 103,
    "Ġneighbor": 25806,
    "Ġyielded": 14871,
    "ements": 11105,
    "Ġcontinent": 14887,
    "sledge": 21056,
    "Ġgeomet": 3189,
    "Ġprocopius": 19732,
    "Ġsong": 5902,
    "pinn": 21025,
    "Ġblown": 12084,
    "valu": 1664,
    "Ġonce": 1492,
    "Ġbrixton": 13663,
    "ethe": 9676,
    "imely": 13998,
    "helpless": 16790,
    "Ġunpleasing": 22054,
    "Ġnatures": 16505,
    "Ġdoxology": 22243,
    "Ġbennet": 1575,
    "insanity": 23067,
    "Ġgans": 5821,
    "strils": 10456,
    "Ġbending": 12583,
    "Ġinvaluable": 10180,
    "Ġpatted": 16383,
    "atiate": 12546,
    "Ġyou": 366,
    "cherish": 24555,
    "hours": 9124,
    "Ġannum": 24206,
    "Ġbedrooms": 19970,
    "Ġcastaway": 16640,
    "{": 95,
    "umbrance": 22117,
    "shot": 2203,
    "p": 84,
    "Ġlinks": 13955,
    "Ġthrown": 4639,
    "Ġsuccour": 20433,
    "Ġheadlands": 22896,
    "pistol": 17643,
    "://": 11464,
    "Ġcath": 17827,
    "soever": 11858,
    "Ġimpl": 7194,
    "Ġcharcoal": 19008,
    "Ġmorbid": 16233,
    "ginger": 13163,
    "repairing": 24498,
    "supposed": 13315,
    "entimes": 12654,
    "Ġwarnings": 16881,
    "Ġsavor": 23876,
    "slipped": 25532,
    "anx": 8782,
    "fow": 20852,
    "Ġhieroglyphics": 17302,
    "Ġpyramids": 15113,
    "Ġengaging": 9335,
    "worship": 19387,
    "eth": 619,
    "Ġde": 363,
    "Ġeverlasting": 9336,
    "iling": 3093,
    "Ġtorpor": 25035,
    "Ġpath": 2114,
    "unching": 18158,
    "Ġgodly": 19082,
    "Ġheadway": 18792,
    "Ġsituation": 4074,
    "Ġsecretly": 13270,
    "cil": 8720,
    "ĠĠĠĠĠĠĠĠĠĠĠĠĠĠĠĠĠĠĠĠĠĠĠĠĠĠĠĠĠ": 19700,
    "Ġesq": 15107,
    "Ġyonder": 7392,
    "Ġpaths": 2569,
    "Ġlofty": 6217,
    "Ġcyp": 21343,
    "Ġb": 281,
    "nostril": 26561,
    "irts": 9237,
    "Ġtriangular": 14858,
    "Ġwhose": 2010,
    "Ġtrampling": 25495,
    "Ġ66": 24372,
    "game": 11489,
    "Ġye": 900,
    "Ġperiodically": 19495,
    "roof": 17954,
    "overspreading": 26141,
    "Ġfearlessness": 19162,
    "Ġbuffaloes": 25220,
    "Ġseverest": 14091,
    "seven": 8463,
    "Ġeffaced": 18532,
    "Ġdy": 2618,
    "lances": 15382,
    "perv": 1596,
    "Ġsan": 7824,
    "Ġfiner": 13051,
    "Ġdilatory": 24708,
    "crop": 20797,
    "Ġmaz": 15540,
    "Ġenchanting": 17039,
    "Ġsincere": 11134,
    "Ġcemeteries": 26377,
    "Ġelopement": 10327,
    "Ġpenalties": 10410,
    "capable": 13701,
    "ativeness": 15520,
    "Ġimpropriety": 17394,
    "msman": 9269,
    "asets": 2309,
    "friendship": 24050,
    "Ġtrifling": 10600,
    "Ġnineveh": 13389,
    "Ġseethe": 21962,
    "Ġcountenances": 11963,
    "blending": 24132,
    "Ġassum": 4067,
    "step": 2454,
    "ib": 1233,
    "cake": 20803,
    "Ġspeculations": 22993,
    "Ġduncan": 13461,
    "Ġbloodshot": 23801,
    "Ġapparition": 8066,
    "Ġgaiters": 20459,
    "sings": 4253,
    "centred": 25021,
    "Ġinf": 1756,
    "iii": 14773,
    "Ġsugg": 4499,
    "abond": 15739,
    "prophecy": 22835,
    "Ġjury": 5378,
    "feather": 16042,
    "terrors": 25045,
    "Ġantiquities": 25601,
    "Ġdab": 15586,
    "Ġoverpowering": 15248,
    "Ġlined": 15648,
    "Ġnet": 3627,
    "Ġweeds": 21923,
    "Ġunsupplied": 22042,
    "Ġelse": 2479,
    "desolate": 25706,
    "Ġstretched": 5919,
    "Ġconnection": 5479,
    "ssible": 2995,
    "Ġcommission": 6712,
    "carry": 19527,
    "Ġseventeen": 26212,
    "Ġexpressed": 4466,
    "Ġbecher": 18879,
    "Ġlucifers": 16588,
    "Ġpreparing": 8647,
    "Ġtore": 6530,
    "Ġprove": 5231,
    "Ġchaldee": 26236,
    "lop": 20947,
    "Ġautom": 3486,
    "Ġinclusive": 24166,
    "memory": 13617,
    "Ġofficially": 24842,
    "Ġhelped": 7459,
    "ò": 179,
    "Ġfelt": 1745,
    "Ġ(_": 3738,
    "Ġcontinue": 5398,
    "Ġegyptian": 13586,
    "squ": 7809,
    "Ġnour": 10829,
    ");": 7330,
    "Ġspangled": 22134,
    "enances": 10151,
    "Ġdigress": 24651,
    "Ġruffled": 25837,
    "tps": 11533,
    "mouth": 9130,
    "Ġdeformed": 14047,
    "factories": 19844,
    "guest": 19482,
    "Ġvindictiveness": 25741,
    "Ġbeque": 18080,
    "Ġhamper": 19389,
    "etite": 21576,
    "ro": 301,
    "Ġjan": 11760,
    "iles": 2861,
    "Ġscents": 22287,
    "ble": 542,
    "ike": 5001,
    "both": 5785,
    "Ġshakes": 10902,
    "Ġsalisbury": 24065,
    "Ġinterpreter": 23214,
    "Ġrailway": 15020,
    "te": 995,
    "shabb": 18500,
    "Ġfiery": 6871,
[...]
