{
  "metadata": {
    "vocab_size": 26616,
    "algorithm": "BPE",
    "created_at": "2026-05-19 06:06:51",
    "special_tokens": [
      "<PAD>",
      "<SOS>",
      "<EOS>",
      "<UNK>",
      "<MASK>"
    ]
  },
  "vocab": {
    "Ġpleasant": 4169,
    "engagement": 14461,
    "chief": 4645,
    "Ġspreading": 13382,
    "enial": 17782,
    "Ġabandon": 12262,
    "ur": 325,
    "endeavour": 17032,
    "Ġdumb": 7843,
    "Ġpag": 6012,
    "investigations": 25534,
    "Ġabhorrence": 9055,
    "finds": 19929,
    "handled": 19263,
    "before": 3117,
    "urs": 6990,
    "Ġfrequ": 3328,
    "Ġimmemorial": 10513,
    "odd": 21815,
    "degrees": 22153,
    "Ġshipwreck": 20449,
    "retaining": 21248,
    "Ġpacing": 8427,
    "Ġwarmed": 12028,
    "Ġsympathies": 14864,
    "Ġphren": 8575,
    "Ġmig": 13859,
    "Ġimple": 1782,
    "Ġsphynx": 20714,
    "sticking": 21663,
    "Ġyarn": 10870,
    "Ġtraveller": 8049,
    "ith": 330,
    "Ġsplashed": 23750,
    "Ġcathed": 14549,
    "Ġaudits": 24769,
    "irst": 880,
    "Ġabed": 22269,
    "quarrel": 20018,
    "deploy": 22145,
    "islanders": 25443,
    "tem": 6370,
    "Ġpreserving": 19799,
    "Ġstruggling": 12079,
    "if": 376,
    "Ġfretfully": 25448,
    "jub": 20931,
    "cream": 15334,
    "Ġignorantly": 19498,
    "Ġturk": 6605,
    "Ġlithe": 24669,
    "retreat": 23142,
    "deceiving": 22147,
    "stochastic": 3774,
    "Ġstrang": 4160,
    "Ġforward": 1836,
    "discernible": 20553,
    "Ġsentinel": 26066,
    "Ġenable": 685,
    "Ġceremony": 8361,
    "Ġfocus": 4239,
    "Ġawait": 17074,
    "Ġtidy": 17094,
    "Ġplunging": 14955,
    "ersburgh": 18216,
    "Ġerudite": 26353,
    "Ġrights": 10399,
    "indef": 17737,
    "thousand": 5547,
    "Ġoffers": 12950,
    "Ġrod": 9283,
    "urbed": 15713,
    "usual": 5842,
    "İ": 241,
    "Ġscotland": 6642,
    "bre": 3978,
    "Ġanonymous": 26179,
    "Ġans": 1646,
    "Ġpredomin": 16041,
    "anges": 1675,
    "Ġgoverness": 8605,
    "earnestly": 17316,
    "nerable": 16281,
    "valued": 2852,
    "Ġbachelor": 7787,
    "Ġsails": 5257,
    "Ġdeceiving": 21841,
    "Ġcanada": 22172,
    "Ġrelig": 8553,
    "Ġlaying": 7908,
    "Ġaccordingly": 6622,
    "Ġshameful": 19854,
    "otherwise": 7671,
    "recol": 10153,
    "eous": 13715,
    "affect": 13216,
    "Ġdamned": 13136,
    "Ġvalid": 1724,
    "Ġgathers": 24742,
    "oled": 17621,
    "Ġsaluted": 14761,
    "Ġknives": 14840,
    "Ġlingering": 11381,
    "Ġdarcy": 1342,
    "Ġlonged": 6437,
    "goose": 19103,
    "blasted": 20192,
    "Ġmeagre": 21814,
    "irited": 15792,
    "Ġspake": 18309,
    "reserve": 17767,
    "Ġinhuman": 13932,
    "sweetly": 25137,
    "encountered": 20396,
    "Ġtorrent": 17093,
    "itzerland": 9998,
    "lets": 7836,
    "Ġscant": 22284,
    "lascar": 20962,
    "Ġtwee": 22678,
    "Ġproduce": 4370,
    "sorrow": 12513,
    "Ġlungs": 8362,
    "_.": 2213,
    "Ġjogged": 26238,
    "Ġprinc": 4202,
    "âĢ": 294,
    "Ġdrowned": 9555,
    "ribs": 23368,
    "Ġquery": 2479,
    "eding": 7166,
    "ö": 183,
    "Ġhumbled": 16201,
    "onse": 21252,
    "ly": 319,
    "superior": 9528,
    "Ġmedium": 16708,
    "Ġcaptains": 7457,
    "Ġstillness": 12999,
    "Ġvariations": 22669,
    "Ġremaining": 6190,
    "ouse": 1195,
    "Ġobligation": 13249,
    "Ġguidance": 9420,
    "urable": 8928,
    "Ġbeaut": 2393,
    "arat": 9183,
    "Ġlight": 1698,
    "wound": 21129,
    "Ġoutlast": 22317,
    "Ġdevelopment": 7066,
    "Ġdesertion": 24786,
    "scenes": 16248,
    "fts": 18697,
    "Ġsea": 1213,
    "Ġphilosophy": 7105,
    "mm": 676,
    "Ġfowls": 8694,
    "Ġcy": 13877,
    "multiple": 15111,
    "Ġbeamed": 23723,
    "Ġjury": 5378,
    "Ġproofs": 19817,
    "Ġlucifers": 16590,
    "oker": 10965,
    "Ġband": 5292,
    "Ġsermon": 12380,
    "binary": 20786,
    "Ġpromethe": 14470,
    "Ġconcert": 11970,
    "Ġstrain": 6025,
    "Ġgasped": 11374,
    "Ġsucc": 12789,
    "Ġoccasion": 3249,
    "Ġmutually": 23960,
    "Ġdaring": 8121,
    "lounged": 26134,
    "paradise": 20640,
    "angles": 18296,
    "chairs": 21696,
    "Ġrepresentation": 14410,
    "Ġseveral": 2671,
    "Ġincapable": 7423,
    "Ġparched": 11731,
    "Ġeffort": 8203,
    "gratulation": 24349,
    "flakes": 23971,
    "Ġmanilla": 15964,
    "Ġnlp": 3065,
    "Ġslavish": 23176,
    "Ġdexter": 9704,
    "Ġsing": 3076,
    "Ġdiffused": 12073,
    "Ġstone": 4646,
    "Ġspect": 3554,
    "Ġtoast": 21515,
    "Ġmiscell": 16154,
    "Ġunfelt": 24110,
    "Ġcanallers": 13632,
    "Ġharm": 5017,
    "ppery": 10894,
    "Ġstreng": 18076,
    "Ġfishery": 4174,
    "itar": 15552,
    "comed": 8547,
    "Ġseverely": 14936,
    "threshold": 21991,
    "Ġnonsense": 6983,
    "Ġbeauties": 10447,
    "Ġpermanently": 25474,
    "new": 1465,
    "Ġtall": 4036,
    "rie": 2787,
    "expectant": 24278,
    "Ġpra": 4349,
    "Ġslewed": 23388,
    "Ġdeck": 2139,
    "Ġaware": 5756,
    "doub": 6225,
    "istically": 14146,
    "furthest": 19844,
    "gentle": 5357,
    "Ġsaintsbury": 26374,
    "Ġquitted": 5312,
    "Ġodorous": 19569,
    "ls": 1290,
    "Ġrising": 4358,
    "Ġmile": 7152,
    "Ġemerged": 8688,
    "rush": 7012,
    "shrouded": 26363,
    "shirt": 22447,
    "hardly": 6492,
    "Ġconfirmation": 17213,
    "assure": 9272,
    "watching": 16932,
    "cold": 9592,
    "idge": 14017,
    "afforded": 25866,
    "merely": 16139,
    "visitor": 15060,
    "Ġflew": 5588,
    "Ġbounty": 26439,
    "Ġadapted": 11036,
    "Ġslo": 15510,
    "Ġbremen": 23348,
    "Ġblasp": 14406,
    "sle": 9141,
    "Ġfurthermore": 1167,
    "Ġdisdain": 8360,
    "Ġsurgeons": 23468,
    "enjoyment": 17260,
    "Ġinfat": 14501,
    "Ġbedroom": 7277,
    ".}": 20747,
    "Ġpeevish": 26559,
    "onist": 21253,
    "Ġroughly": 17041,
    "Ġreports": 19086,
    "asis": 12655,
    "Ġincrease": 9372,
    "ara": 12611,
    "Ġvictor": 5125,
    "Ġcrucifix": 26080,
    "fair": 10095,
    "Ġcam": 10164,
    "Ġclum": 8876,
    "brown": 15321,
    "Ġpick": 4259,
    "below": 12126,
    "Ġstow": 21737,
    "Ġ15": 9327,
    "Ġpondicherry": 20494,
    "Ġconcise": 23326,
    "Ġrobberies": 23051,
    "deaux": 22151,
    "Ġspaulding": 11735,
    "Ġrapidly": 3384,
    "rary": 4576,
    "behold": 12883,
    "Ġquakers": 22420,
    "Ġnarrower": 24354,
    "agony": 14072,
    "Ġvari": 831,
    "Ġbutler": 18271,
    "Ġundertaken": 18987,
    "Ġthemselves": 3254,
    "itting": 1149,
    "interred": 23738,
    "Ġmoran": 9344,
    "Ġcontinent": 14891,
    "Ġvirt": 3908,
    "ilent": 21723,
    "belais": 24041,
    "Ġapproximation": 2341,
    "ond": 1160,
    "ck": 436,
    "Ġfrancis": 26064,
    "itations": 17819,
    "tically": 3392,
    "Ġbake": 21385,
    "Ġdomineering": 23658,
    "occupations": 24967,
    "Ġavailed": 23955,
    "Ġproof": 6155,
    "Ġnoon": 6561,
    "theirs": 23604,
    "decided": 13219,
    "Ġconstruct": 23344,
    "Ġenveloping": 19737,
    "Ġminutely": 14564,
    "sych": 9892,
    "ette": 15664,
    "Ġoffend": 16149,
    "Ġmanagement": 8193,
    "Ġfossils": 20225,
    "Ġjurors": 17347,
    "kill": 13747,
    "reflection": 13459,
    "Ġoftentimes": 20158,
    "Ġdrifted": 14627,
    "Ġprofessors": 14728,
    "Ġsake": 4089,
    "Ġrecurring": 23232,
    "Ġalgorithms": 853,
    "Ġpeeped": 10015,
    "urous": 10215,
    "Ġguido": 2973,
    "intention": 10370,
    "Ġsucking": 12791,
    "21": 10075,
    "gallery": 24694,
    "oforte": 14289,
    "Ġwhite": 1538,
    "turtle": 12216,
    "Ġoil": 3372,
    "Ġprevailed": 7778,
    "Ġconsolation": 6210,
    "wondrous": 12342,
    "tha": 15828,
    "Ġsequ": 982,
    "94": 4804,
    "uncommon": 11685,
    "Ġsagacity": 16976,
    "think": 3610,
    "Ġassailed": 23180,
    "Ġtoler": 7589,
    "Ġwaving": 8579,
    "Ġunravel": 26216,
    "Ġsiberia": 26162,
    "Ġjoyfully": 19349,
    "ercial": 21277,
    "seldom": 13790,
    "Ġrope": 4341,
    "impatient": 13644,
    "Ġcontents": 7210,
    "Ġinstructions": 11197,
    "Ġserve": 9371,
    "Ġtransplanted": 22473,
    "Ġtwelvemonth": 12182,
    "rict": 8093,
    "Ġundressed": 19516,
    "Ġ199": 3008,
    "Ġwhereby": 11840,
    "Ġmessages": 24984,
    "eline": 2319,
    "revival": 26163,
    "Ġfasten": 11134,
    "Ġtestament": 23226,
    "umst": 2503,
    "onom": 9161,
    "Ġentertainment": 12227,
    "Ġinferred": 14502,
    "Ġcitadel": 25439,
    "Ġmajestic": 8643,
    "itiously": 13874,
    "Ġfog": 9664,
    "windlass": 16723,
    "yond": 2329,
    "Ġsaint": 15511,
    "bourgh": 19105,
    "Ġdeliver": 9851,
    "Ġstruggles": 16581,
    "cils": 20816,
    "Ġscare": 18397,
    "Ġawhile": 13833,
    "Ġgretna": 26470,
    "Ġappears": 5402,
    "fiery": 13585,
    "Ġdarkened": 16436,
    "ptember": 10895,
    "apprec": 22851,
    "Ġblackest": 19100,
    "ensive": 6281,
    "frozen": 25142,
    "pronounced": 12350,
    "Ġwretchedly": 19509,
    "chronicle": 26482,
    "Ġcomfortless": 23916,
    "Ġcabinet": 23864,
    "noo": 9794,
    "ites": 3899,
    "Ġgaol": 19570,
    "Ġimage": 3403,
    "mysterious": 26052,
    "agation": 1206,
    "cheerfulness": 20183,
    "Ġfisheries": 17441,
    "Ġhint": 5016,
    "remains": 10401,
    "hend": 13257,
    "history": 15017,
    "africa": 26309,
    "Ġchoke": 22253,
    "Ġrecip": 16144,
    "Ġunheeded": 18262,
    "Ġcapsizing": 20092,
    "Ġ98": 24594,
    "Ġnames": 4534,
    "ĠcÃ¦": 15560,
    "mown": 20972,
    "abases": 3004,
    "Ġfilthy": 13253,
    "Ġcondescended": 19959,
    "Ġeyes": 1332,
    "Ġfable": 15582,
    "Ġpew": 9318,
    "Ġlanterns": 24578,
    "sunlight": 24852,
    "illustration": 2281,
    "advancing": 14839,
    "ned": 3494,
    "Ġapparel": 20439,
    "Ġpharaoh": 26587,
    "Á": 130,
    "Ġmounted": 7832,
    "Ġintelligent": 1653,
    "Ġtorn": 6001,
    "Ġbarbarians": 19590,
    "Ġstuffed": 13413,
    "Ġrichness": 19312,
    "Ġconfused": 7965,
    "Ġharem": 9712,
    "rigible": 24932,
    "willingness": 24754,
    "ifted": 4496,
    "Ġpratt": 23218,
    "Ġgrasped": 8034,
    "Ġattempts": 10493,
    "Ġgestures": 13539,
    "Ġconstit": 8587,
    "cottage": 9572,
    "dil": 11480,
    "itate": 6670,
    "Ġcommentators": 25230,
    "Ġbathe": 25444,
    "Ġdisplayed": 10611,
    "warm": 8102,
    "boil": 18999,
    "Ġgardiner": 3241,
    "Ġkitchen": 8498,
    "gage": 13726,
    "urpr": 2285,
    "ois": 9137,
    "iza": 6257,
    "Ġthey": 576,
    "Ġsatan": 14393,
    "hilar": 25084,
    "business": 5610,
    "Ġgibberish": 25787,
    "erson": 7003,
    "Ġtatters": 21180,
    "Ġupwards": 7634,
    "Ġcrazy": 8596,
    "levelled": 23645,
    "bantering": 25254,
    "profound": 16430,
    "dissatisf": 26130,
    "Ġgentle": 1892,
    "torn": 17684,
    "Ġserious": 4324,
    "Ġwarmup": 3922,
    "posture": 16929,
    "Ġrumors": 11323,
    "Ġalongside": 6313,
    "despond": 19803,
    "Ġwhirled": 14963,
    "Ġpry": 11603,
    "ĠĠĠĠĠĠĠĠĠĠĠĠĠĠĠĠĠĠĠĠĠĠĠĠĠĠĠĠĠĠĠĠĠĠĠĠĠĠĠĠĠĠĠ": 12159,
    "Ġdesign": 4132,
    "alley": 23025,
    "Ġcontrols": 1730,
    "Ġdecap": 16028,
    "Ġparaphrasing": 26528,
    "Ġexpeditions": 24957,
    "Ġtwice": 4662,
    "orphans": 26442,
    "Ġglue": 15679,
    "thomas": 18220,
    "Ġattentively": 9953,
    "Ġhaz": 12760,
    "Ġprophets": 20453,
    "Ġslumbers": 18944,
    "Ġindoors": 18838,
    "Ġesq": 15112,
    "Ġalmost": 1657,
    "Ġautoregressive": 3431,
    "ming": 3602,
    "conversations": 24748,
    "Ġlabelled": 23333,
    "Ġchase": 3945,
    "shazzar": 15293,
    "Ġsympathising": 24299,
    "Ġmorocc": 22977,
    "solic": 16381,
    "Ġseries": 7061,
    "itor": 12571,
    "ox": 9136,
    "Ġchristians": 13313,
    "including": 23592,
    "Ġu": 324,
    "Ġabsorb": 25115,
    "two": 3861,
    "Ġhoky": 17929,
    "Ġexultation": 15175,
    "Ġrap": 14308,
    "Ė": 215,
    "clopÃ¦": 13061,
    "painting": 17047,
    "fa": 7336,
    "Ġdinnertime": 16721,
    "Ġwel": 4528,
    "sander": 11529,
    "umbria": 23898,
    "Ġshipping": 14107,
    "Ġmember": 8465,
    "wa": 5898,
    "omp": 2471,
    "Ġformer": 3323,
    "Ġwhom": 1829,
    "profitable": 17072,
    "Ġdenomin": 12072,
    "Ġgales": 12670,
    "Ġdespair": 4008,
    "Ġvineyard": 12334,
    "Ġheal": 21684,
    ".": 18,
    "Ġharbors": 24902,
    "danger": 10092,
    "Ġnonsensical": 21532,
    "murderers": 25728,
    "Ġke": 1155,
    "Ġseen": 1371,
    "tranquillity": 20549,
    "Ġunfrequ": 19511,
    "Ġneeds": 6607,
    "living": 7135,
    "gences": 20879,
    "Ġextravagant": 17281,
    "aborate": 14025,
    "factories": 19846,
    "Ġordinary": 6098,
    "Ġmove": 5107,
    "Ġbureau": 11593,
    "Ġvertically": 19383,
    "Ġgenerator": 3381,
    "Ġcour": 1765,
    "ogra": 4574,
    "Ġstim": 18069,
    "Ġ111": 24436,
    "dances": 17523,
    "Ġknowing": 4459,
    "Ġhire": 21488,
    "Ġsepul": 14092,
    "ibid": 18842,
    "Ġchatbots": 11351,
    "smiled": 16616,
    "Ġhowl": 12859,
    "Ġballarat": 14722,
    "Ġobliged": 4288,
    "Ġ33": 16678,
    "grampus": 18618,
    "Ġnumberless": 16420,
    "Ġsli": 4749,
    "Ġcovari": 2338,
    "seemingly": 25363,
    "Ġrural": 21974,
    "Ġparading": 23712,
    "Ġwhale": 627,
    "piece": 6658,
    "anous": 21362,
    "Ġcobbling": 20526,
    "Ġrossum": 3012,
    "Ġrepine": 16414,
    "Ü": 157,
    "Ġcamberwell": 25351,
    "Ġexpansion": 22627,
    "Ġadmiration": 5329,
    "istle": 15875,
    "Ġtranslations": 12056,
    "training": 2516,
    "Ġunhallowed": 17183,
    "Ġconjecture": 9535,
    "ado": 11661,
    "Ġsure": 1867,
    "nnight": 20995,
    "Ġillustrate": 25068,
    "maul": 11894,
    "Ġ179": 19757,
    "Ġglided": 7447,
    "kes": 3678,
    "recovered": 19790,
    "Ġtents": 13821,
    "Ġimpress": 6862,
    "grant": 10429,
    "Ġtrusted": 10520,
    "Ġforbade": 15218,
    "additional": 20467,
    "urp": 1471,
    "Ġstack": 21740,
    "Ġgallied": 19559,
    "Ġwhar": 7388,
    "Ġsteak": 9833,
    "inion": 2874,
    "Ġcinque": 20489,
    "Ġcomputers": 2641,
    "Ġdined": 9179,
    "Ġhapless": 15817,
    "Ġshiver": 12772,
    "cd": 15326,
    "Ġlacey": 10200,
    "Ġpolitic": 23620,
    "Ġhowever": 1304,
    "Ġclasses": 4052,
    "cest": 12449,
    "Ġflight": 6582,
    "Ġexerted": 15760,
    "Ġbones": 4584,
    "Ġve": 1108,
    "dee": 11736,
    "seeing": 7080,
    "Ġpave": 8804,
    "Ġunsub": 22025,
    "acies": 14281,
    "Ġsag": 6515,
    "Ġxiv": 23410,
    "Ġbingleys": 18995,
    "eternal": 17985,
    "Ġheroes": 10579,
    "obst": 11936,
    "stout": 21648,
    "Ġwed": 7575,
    "ode": 1453,
    "Ġgrizzled": 11452,
    "conve": 14246,
    "Ġdemi": 25549,
    "Ġinstincts": 16988,
    "figure": 13559,
    "iner": 2669,
    "Ġpathetic": 19056,
    "ĠĠĠĠĠĠĠĠĠĠĠĠĠĠ": 22567,
    "python": 4692,
    "Ġleaks": 16448,
    "Ġoutdone": 22322,
    "Ġharpo": 1944,
    "bastian": 10676,
    "Ġyounger": 5253,
    "Ġast": 2958,
    "Ġindifferent": 6176,
    "contriv": 19294,
    "allers": 22201,
    "ividually": 22084,
    "much": 3706,
    "pires": 13778,
    "Ġdisrespect": 18554,
    "Ġarc": 14163,
    "isp": 5528,
    "Ġexhibiting": 19841,
    "vell": 3959,
    "Ġvolcanoes": 24148,
    "Ġenvironment": 4176,
    "quee": 4130,
    "Ġgild": 15674,
    "Ġexchanging": 18134,
    "law": 6117,
    "Ġmaledictions": 26430,
    "abilities": 3239,
    "Ġchall": 10946,
    "aling": 1035,
    "bred": 11471,
    "Ġkirwin": 8499,
    "Ġres": 696,
    "Ġinteresting": 4327,
    "Ġunwarrantable": 26346,
    "Ġhawsers": 26504,
    "Ġmagical": 23102,
    "read": 3277,
    "Ġpitched": 9447,
    "Ġjago": 22303,
    "Ġardently": 9501,
    "Ġcommunicates": 24547,
    "Ġimprove": 1809,
    "injury": 25214,
    "Ġtube": 15005,
    "Ġamong": 1668,
    "Ġbeards": 21755,
    "Ġparticle": 18672,
    "Ġvariety": 8533,
    "maltese": 24794,
    "helpless": 16792,
    "neurons": 3138,
    "mile": 17599,
    "Ġcasket": 19727,
    "view": 5897,
    "Ġmasonry": 13603,
    "Ġperse": 6273,
    "agitation": 14071,
    "inlaid": 21193,
    "mer": 2833,
    "ads": 5718,
    "greg": 6650,
    "Ġbehavioral": 11398,
    "Ġ76": 24265,
    "Ġoaths": 13527,
    "Ġbills": 17862,
    "Ġshriek": 6640,
    "Ġcontroverted": 23252,
    "!_âĢĶ": 19976,
    "twinkle": 23705,
    "coward": 13704,
    "Ġoccupies": 24011,
    "exam": 10978,
    "Ġlesson": 7276,
    "to": 713,
    "Ġslouched": 13064,
    "Ġsacr": 7194,
    "ily": 1033,
    "cture": 15670,
    "malice": 17605,
    "Ġpeace": 3693,
    "Ġaband": 6563,
    "Ġcommunicated": 9064,
    "dorff": 15241,
    "compass": 9463,
    "round": 3367,
    "Ġwatched": 6299,
    "Ġug": 8141,
    "Ġpetty": 19598,
    "Ġmembrane": 20507,
    "Ġanother": 1736,
    "Ġeccentric": 13653,
    "Ġunbounded": 18260,
    "ier": 1135,
    "Ġstrings": 11833,
    "Ġtransactions": 18502,
    "Ġoy": 15551,
    "ribute": 7225,
    "Ġincommod": 25308,
    "Ġtrained": 8506,
    "Ġeffect": 970,
    "Ġmonomaniac": 9571,
    "athom": 12944,
    "Ġfamily": 1968,
    "Ġlod": 4040,
    "Ġtranslation": 3090,
    "Ġlizard": 12659,
    "Ġcaught": 3732,
    "Ġpinch": 15019,
    "igations": 18046,
    "Ġbump": 9662,
    "privilege": 25264,
    "ighb": 10425,
    "Ġrevolving": 9986,
    "Ġmistress": 8615,
    "Ġvoyager": 16514,
    "Ġrallied": 14099,
    "fol": 4863,
    "par": 1865,
    "Ġherself": 1567,
    "pro": 2051,
    "Ġsources": 10150,
    "Ġescaped": 6460,
    "degree": 12806,
    "Ġrelish": 14387,
    "remain": 9841,
    "Ġcorrid": 9827,
    "teen": 6371,
    "Ġbenefit": 8294,
    "Ġtruck": 19514,
    "gen": 6504,
    "Ġretrogression": 26583,
    "Ġmermaid": 17815,
    "Ġparamore": 22126,
    "Ġunwearied": 20605,
    "Ġaudacious": 13464,
    "ugal": 19021,
    "due": 22414,
    "security": 26208,
    "sleeves": 26110,
    "ainted": 3659,
    "circumstances": 8047,
    "Ġpurple": 10435,
    "anke": 15566,
    "Ġclergyman": 8715,
    "cheered": 23808,
    "Ġendued": 14080,
    "Ġdistressed": 8517,
    "Ġirksome": 13116,
    "av": 739,
    "Ġdisappears": 18561,
    "Ġhappiness": 2943,
    "Ġrisen": 9496,
    "Ġoakshott": 12234,
    "give": 4689,
    "Ġcombination": 22833,
    "Ġmotionless": 8324,
    "Ġchemistry": 11462,
    "Ġgout": 21599,
    "ienced": 5685,
    "Ġmode": 8502,
    "oro": 21398,
    "Ġlingered": 13508,
    "successful": 11360,
    "Ġsaddest": 16665,
    "ator": 1922,
    "educated": 17262,
    "Ġentrapped": 26264,
    "Ġvalidation": 2357,
    "Ġcarter": 18901,
    "Ġimpatiently": 8338,
    "consternation": 16914,
    "Ġrepay": 19083,
    "steps": 9408,
    "Ġaud": 6664,
    "sor": 7352,
    "Ġspecks": 14311,
    "Ġvineyards": 25109,
    "pulling": 25149,
    "arily": 4126,
    "Ġdrug": 11412,
    "disappointment": 11427,
    "Ġservice": 6472,
    "quired": 21859,
    "Ġbalance": 2023,
    "Ġprofusion": 23570,
    "Ġsurvived": 14937,
    "oftener": 23968,
    "Ġproportionably": 19974,
    "breaking": 14767,
    "han": 12477,
    "hand": 2758,
    "owl": 12689,
    "Ġminutes": 2999,
    "hold": 3981,
    "Ġspace": 1526,
    "Ġpositions": 2058,
    "Ġbre": 1914,
    "Ġwinter": 5220,
    "Ġtints": 17729,
    "Ġsparkling": 11358,
    "arpo": 1753,
    "Ġbodiless": 24229,
    "Ġsan": 7824,
    "Ġinvoluntarily": 8551,
    "Ġpalpitated": 26086,
    "Ġexpressive": 8985,
    "ste": 3586,
    "Ġmuffled": 10643,
    "Ġcomment": 9235,
    "Ġoutermost": 22323,
    "seam": 10876,
    "Ġtolland": 24991,
    "Ġowners": 7663,
    "Ġbedfellow": 16442,
    "Ġlima": 10444,
    "Ġ102": 24410,
    "eth": 621,
    "sensibility": 25026,
    "rib": 1948,
    "jet": 13745,
    "Ġbelf": 21384,
    "determination": 19948,
    "Ġobsole": 22701,
    "umps": 6319,
    "ained": 3068,
    "Ġlug": 15657,
    "Ġhabitual": 24789,
    "Ġcanterbury": 22174,
    "Ġclever": 7056,
    "Ġebb": 21625,
    "commotion": 24914,
    "possibly": 10546,
    "Ġmaximizing": 3172,
    "Ġinterconnected": 1338,
    "odiac": 14035,
    "reached": 13844,
    "Ġbee": 21753,
    "Ġmanner": 2198,
    "ister": 1294,
    "Ġcounted": 12144,
    "Ġmolasses": 25629,
    "Ġrattling": 11397,
    "Ġwager": 17794,
    "Ġmischie": 22767,
    "turkish": 24533,
    "sofa": 26147,
    "Ġsped": 22129,
    "Ġrather": 1494,
    "has": 4012,
    "Ġbeneficial": 23934,
    "anged": 3589,
    "Ġchicha": 15941,
    "burnt": 20083,
    "Ġdri": 2364,
    "Ġdodge": 19888,
    "consc": 4842,
    "Ġwickham": 2207,
    "Ġsimil": 2529,
    "Ġascend": 9963,
    "Ġsufferer": 16261,
    "26": 10076,
    "Ġrested": 9381,
    "rance": 5995,
    "aning": 2253,
    "smiles": 14695,
    "Ġgrec": 18962,
    "very": 501,
    "Ġhorseman": 19610,
    "Ġadventures": 7748,
    "Ġcigar": 9548,
    "ology": 1570,
    "Ġsavagely": 26325,
    "Ġscornful": 24999,
    "Ġgothic": 18002,
    "=": 33,
    "Ġattendance": 12186,
    "Ġsnoring": 23741,
    "iop": 20921,
    "Ġnewcom": 16228,
    "Ġbaboon": 19696,
    "Ġsun": 1718,
    "gover": 10704,
    "urity": 8143,
    "fanc": 20866,
    "eldest": 22806,
    "Ġlie": 4409,
    "maritime": 24176,
    "Ġink": 8807,
    "Ġcalled": 1974,
    "Ġhinges": 15216,
    "rying": 3189,
    "rises": 17657,
    "Ġtraditions": 11445,
    "Ġassured": 4375,
    "nett": 16227,
    "Ġearnestness": 12130,
    "Ġcharacters": 9374,
    "Ġsupre": 10272,
    "stately": 18024,
    "lingly": 9776,
    "Ġcataract": 23430,
    "constant": 11326,
    "Ġmaids": 19694,
    "Ġlull": 15656,
    "Ġabsolute": 6766,
    "Ġdeline": 16337,
    "Ġadmin": 23555,
    "Ġmapple": 11152,
    "emporary": 15803,
    "ech": 4392,
    "rushing": 10021,
    "Ġtram": 11093,
    "Ġindel": 13009,
    "Ġwasn": 6998,
    "Ġnear": 1716,
    "Ġsullenly": 17175,
    "Ġcharm": 4549,
    "Ġlabels": 3289,
    "Ġcommodores": 25375,
    "Ġlowerings": 23648,
    "Ġcosy": 13135,
    "Ġshowed": 4498,
    "Ġimpart": 11784,
    "resh": 8405,
    "comb": 11038,
    "Ġresent": 6050,
    "Ġgu": 1326,
    "Ġpathways": 11155,
    "Ġquiver": 16008,
    "Ġfid": 10805,
    "Ġjuggling": 20442,
    "distant": 13339,
    "origin": 7582,
    "carried": 16713,
    "surround": 16760,
    "Ġunwonted": 15010,
    "Ġdolph": 12384,
    "Ġreply": 4516,
    "Ġpunctual": 17140,
    "till": 6966,
    "Ġintrusion": 12770,
    "Ġwoven": 9929,
    "explain": 1481,
    "Ġfulfilled": 11364,
    "various": 10400,
    "Ġmethodically": 23138,
    "Ġunconsc": 6554,
    "Ġspell": 8859,
    "Ġtell": 1467,
    "inaw": 21186,
    "Ġegyptians": 25290,
    "ĠĠĠĠĠĠĠĠĠĠĠĠĠĠĠĠĠĠĠĠĠĠĠĠĠĠĠĠĠĠĠĠĠĠĠĠĠĠĠĠ": 4518,
    "Ġcompensated": 17404,
    "rative": 17654,
    "impropriety": 21716,
    "emy": 14078,
    "upper": 11541,
    "Ġforcing": 3226,
    "resnet": 4068,
    "Ġfierce": 7437,
    "establish": 17396,
    "Ġrussian": 14354,
    "searching": 25106,
    "Ġcontrad": 9758,
    "irra": 15790,
    "irth": 5634,
    "Ġjuly": 17239,
    "Ġinsect": 12641,
    "lightened": 12069,
    "icirc": 15661,
    "Ġarchitects": 18740,
    "yl": 7818,
    "Ġstudy": 1798,
    "Ġsimpl": 1580,
    "myster": 16265,
    "Ġabruptness": 25300,
    "baked": 20781,
    "Ġcond": 3876,
    "Ġreference": 2562,
    "Ġequilibrium": 4140,
    "whe": 1076,
    "Ġtist": 21165,
    "Ġcircumn": 11988,
    "captain": 3954,
    "Ġtrail": 16287,
    "batt": 20780,
    "Ġintegr": 7969,
    "Ġcrunched": 19122,
    "Ġinfernal": 11965,
    "ek": 1907,
    "Ġark": 10279,
    "Ġsharing": 3479,
    "00": 1613,
    "introdu": 8940,
    "Ġhovered": 12636,
    "sweep": 24618,
    "Ġindia": 10373,
    "Ġrelied": 16199,
    "Ġyellow": 5302,
    "Ġimpute": 18332,
    "Ġchink": 15937,
    "Ġabstra": 22275,
    "gno": 13730,
    "ti": 8390,
    "ite": 712,
    "aug": 1217,
    "respectable": 19849,
    "Ġgleaming": 24996,
    "Ġsurrender": 16451,
    "Ġclaws": 15972,
    "Ġmoving": 1678,
    "Ġbroom": 18908,
    "Ġpuffs": 14979,
    "Ġrationally": 18214,
    "fits": 13721,
    "Ġreport": 6193,
    "riptions": 14797,
    "imely": 14001,
    "Ġbelieving": 8225,
    "Ġhousehold": 8571,
    "remember": 7262,
    "lydia": 6826,
    "Ġmanif": 8874,
    "iless": 10284,
    "crazy": 24692,
    "approb": 11045,
    "prepar": 22465,
    "mering": 12495,
    "Ġresc": 4508,
    "ruction": 4360,
    "K": 47,
    "Ġglobules": 26590,
    "Ġinterest": 2248,
    "Ġcovered": 5171,
    "Ġannals": 17900,
    "Ġkind": 1783,
    "Ġjar": 15955,
    "Ġscandinav": 19964,
    "rian": 10244,
    "Ġmixed": 6975,
    "Ġuncovered": 23434,
    "Ġincredulity": 11313,
    "dough": 15338,
    "sex": 12718,
    "Ġprojecting": 9988,
    "ul": 371,
    "aux": 14293,
    "Ġjonah": 3482,
    "p": 84,
    "Ġsubset": 9873,
    "Ġformed": 3885,
    "Ġalpha": 13592,
    "Ġrippling": 17280,
    "Ġpoisoned": 24887,
    "Ġdecreed": 18489,
    "Ġpalm": 10516,
    "itically": 21333,
    "pit": 3982,
    "Ġabsurd": 7202,
    "convinced": 10625,
    "ave": 977,
    "Ġshower": 11714,
    "Ġwonderful": 4564,
    "Ġrepeating": 11215,
    "secur": 18129,
    "Ġ73": 24263,
    "Ġamused": 11803,
    "Ġthickness": 13282,
    "ure": 356,
    "Ġpurchas": 19876,
    "igned": 5656,
    "night": 2170,
    "ghost": 20889,
    "dreadful": 11423,
    "thirty": 12767,
    "opening": 10315,
    "ared": 772,
    "Ġinf": 1754,
    "Ġdependence": 18620,
    "attempt": 9363,
    "urns": 10216,
    "harpo": 4806,
    "Ġmisunderstand": 18707,
    "Ġcharles": 11962,
    "Ġendeavored": 19304,
    "Ġincline": 18570,
    "Ġobeying": 13418,
    "Ġcracks": 12024,
    "Ġindul": 5858,
    "Ġtwine": 14314,
    "Ġfrequent": 3288,
    "oked": 4310,
    "Ġflushed": 13032,
    "Ġobtained": 7432,
    "opolising": 25677,
    "Ġbordering": 17231,
    "Ġ101": 24409,
    "Ġinsolence": 20256,
    "Ġiroqu": 21627,
    "edd": 1178,
    "Ġsamples": 2959,
    "Ġescort": 23509,
    "luent": 16001,
    "Ġadult": 18290,
    "Ġdealing": 14048,
    "Ġprefer": 6417,
    "gainst": 25144,
    "Ġparadigms": 3059,
    "gloves": 25146,
    "Ġsoutherly": 23338,
    "Ġviolin": 16432,
    "Ġentities": 11867,
    "Ġbal": 1131,
    "Ġinvited": 6903,
    "Ġreturn": 1710,
    "Ġphase": 14473,
    "cleanliness": 25872,
    "Ġiteratively": 3060,
    "Ġcandid": 4098,
    "Ġresnet": 5473,
    "romised": 14115,
    "Ă": 195,
    "Ġxliv": 23411,
    "Ġperv": 15995,
    "Ġrocked": 12861,
    "Ġinjuring": 24271,
    "Ġrevisit": 21673,
    "Ġas": 374,
    "Ġstream": 5186,
    "Ġpavement": 9580,
    "Ġsk": 960,
    "necessary": 5883,
    "Ġintolerable": 8484,
    "kered": 18275,
    "Ġhelplessly": 20081,
    "Ġnoble": 3440,
    "chariot": 26481,
    "Ġpy": 21454,
    "rug": 18346,
    "Ġmazes": 25941,
    "gentleness": 24845,
    "Ġregal": 16081,
    "f": 74,
    "Ġlegal": 10441,
    "wid": 10137,
    "ubines": 22964,
    "Ġveritable": 19384,
    "Ġriggers": 24158,
    "Ġgiants": 25961,
    "Ġstifle": 18079,
    "Ġweapon": 7776,
    "estone": 18365,
    "uberance": 25917,
    "ry": 806,
    "Ġencirc": 18732,
    "Ġembarrassment": 10629,
    "term": 3759,
    "âĢĿâĢĶ": 5721,
    "Ġruled": 22789,
    "Ġsmall": 891,
    "eyes": 5684,
    "Ġdiscipl": 22787,
    "ĠĠĠĠ": 458,
    "Ġfireplace": 13149,
    "Ġaccident": 5380,
    "Ġfinish": 7949,
    "god": 4864,
    "melted": 25207,
    "erc": 5906,
    "Ġhappen": 5571,
    "Ġaccommodate": 20520,
    "Ġjinglers": 26019,
    "Ġsteeple": 19289,
    "Ġestimable": 23875,
    "unteered": 26497,
    "vously": 23508,
    "Ġsettlement": 19839,
    "Ġdine": 7366,
    "Ġopportunities": 19251,
    "18": 20753,
    "Ġdrink": 4788,
    "yed": 3274,
    "Ġghast": 9212,
    "cer": 6645,
    "Ġwhichever": 14003,
    "Ġgor": 9209,
    "Ġrequiring": 2920,
    "Ġmoral": 6581,
    "Ġamb": 9294,
    "Ġstag": 6150,
    "Ġwedding": 4817,
    "Ġimport": 1023,
    "meal": 22715,
    "Ġdecent": 10984,
    "Ġsharp": 2414,
    "Ġspan": 11732,
    "ladder": 19787,
    "icial": 12660,
    "izar": 14053,
    "Ġactor": 16054,
    "south": 8762,
    "Ġanticipation": 17058,
    "Ġexpanded": 14294,
    "port": 10721,
    "Ġetc": 7086,
    "concluding": 19484,
    "Ġincisive": 18571,
    "tahit": 17694,
    "soc": 5175,
    "returned": 7766,
    "Ġprair": 7747,
    "ouri": 21450,
    "Ġdone": 1815,
    "Ġviolet": 19092,
    "heavenly": 20048,
    "we": 847,
    "ders": 8075,
    "fatigue": 20660,
    "Ġdismember": 20218,
    "reds": 12753,
    "Ġwrung": 14472,
    "precious": 12077,
    "paid": 15418,
    "Ġindestruct": 22963,
    "its": 1147,
    "Ġdeclined": 9924,
    "iem": 20919,
    "forget": 11033,
    "quarters": 24949,
    "Ġcolds": 23760,
    "edged": 15636,
    "incom": 21184,
    "alas": 8808,
    "electricity": 26387,
    "ouch": 2780,
    "Ġdesert": 6728,
    "Ġpractically": 13104,
    "Ġseap": 15819,
    "accomplishment": 20226,
    "Ġjenkinson": 11433,
    "atically": 2572,
    "Ġinnovative": 1639,
    "Ġovertook": 18429,
    "sell": 13784,
    "flow": 2150,
    "erest": 10699,
    "Ġfalls": 14646,
    "frock": 20124,
    "getic": 12971,
    "Ġenslaved": 26315,
    "july": 20478,
    "header": 11937,
    "loops": 12888,
    "Ġspectrum": 4476,
    "Ġproflig": 23569,
    "Ġlogic": 13082,
    "passion": 11262,
    "Ġstreat": 15729,
    "Ġjovial": 19235,
    "Ġgravel": 14105,
    "thing": 1480,
    "iates": 13740,
    "Ġinferior": 8366,
    "Ġafter": 871,
    "Ġart": 748,
    "Ġbridge": 8349,
    "Ġsummoning": 23877,
    "Ġexecutors": 19536,
    "attention": 2111,
    "Ġcondescending": 24869,
    "udding": 11869,
    "bird": 9588,
    "Ġamounts": 6706,
    "Ġernest": 8720,
    "alescence": 15929,
    "Ġhoping": 11105,
    "Ġacts": 2293,
    "Ġarrives": 23609,
    "Ġprimal": 17108,
    "Ġpiled": 8426,
    "occ": 4486,
    "cushion": 20823,
    "Ġkilling": 13337,
    "Ġhome": 2030,
    "Ġbehalf": 14508,
    "hum": 3780,
    "Ġauthors": 10419,
    "exhibited": 18478,
    "Ġaffording": 14824,
    "Ġstart": 3261,
    "Ġbordeaux": 24565,
    "Ġjudging": 16597,
    "Ġchecked": 9378,
    "solved": 7685,
    "Ġdesper": 6178,
    "aying": 15755,
    "quished": 21858,
    "Ġlearn": 361,
    "Ġfierc": 18715,
    "acle": 4716,
    "Ġdemeanour": 17340,
    "from": 1993,
    "somerset": 26324,
    "Ġinvoluntary": 18759,
    "sense": 11526,
    "children": 9058,
    "Ġsprang": 5064,
    "Ġdeceived": 6546,
    "Ġdelicacy": 6342,
    "Ġlurked": 11293,
    "Ġbecause": 2211,
    "alling": 6038,
    "Ġtantalizing": 20417,
    "Ġpersistence": 3040,
    "Ġdistur": 5313,
    "shapes": 22451,
    "Ġmemb": 14032,
    "Ġblood": 3171,
    "Ġdab": 15593,
    "Ġdry": 5624,
    "Ġsitt": 21220,
    "pipe": 8700,
    "Ġequator": 7461,
    "Ġchaplain": 19914,
    "Ġoldest": 12979,
    "adm": 7609,
    "Ġsymmetry": 20369,
    "fisher": 7547,
    "Ġtransient": 18501,
    "onsense": 6432,
    "Ġkindest": 23296,
    "deserving": 17248,
    "Ġairy": 23320,
    "fall": 5135,
    "elve": 4642,
    "Ġcister": 13885,
    "Ġcommunity": 19010,
    "Ġthat": 335,
    "Ġpupella": 20425,
    "Ġwindibank": 7257,
    "spending": 18687,
    "Ġhardware": 4905,
    "conven": 6164,
    "Ġstricken": 9779,
    "barrow": 15324,
    "Ġstation": 5299,
    "Ġhereby": 10361,
    "Ġembell": 14403,
    "quake": 11684,
    "Ġstory": 2900,
    "Ġintermission": 18590,
    "Ġ110": 24435,
    "Ġwaggish": 25435,
    "nings": 9134,
    "Ġtouch": 3395,
    "Ġforb": 11666,
    "Ġextending": 11029,
    "unct": 18157,
    "este": 15926,
    "urons": 3134,
    "gul": 12470,
    "they": 1881,
    "Ġpresented": 5183,
    "Ġsimilarity": 3170,
    "resolved": 9642,
    "flames": 14715,
    "Ġornamented": 20365,
    "ip": 554,
    "agatha": 21912,
    "shining": 18484,
    "Ġundergo": 23240,
    "Ġlittle": 867,
    "min": 4572,
    "Ġunimag": 12780,
    "Ġfairer": 20465,
    "Ġpoison": 7219,
    "Ġobe": 5801,
    "gement": 13732,
    "Ġprone": 18969,
    "mystical": 25318,
    "Ġindu": 5295,
    "ĠĠĠĠĠĠĠĠĠĠĠĠĠĠĠĠĠĠĠ": 22955,
    "Ġwednesday": 9087,
    "inder": 9155,
    "toss": 22570,
    "Ġgravesend": 15220,
    "Ġgreatly": 5851,
    "harpooneers": 8693,
    "doors": 19096,
    "honey": 20907,
    "imagination": 13484,
    "Ġdorm": 4823,
    "consist": 14819,
    "crucible": 24843,
    "raham": 18016,
    "ipper": 13743,
    "Ġgrieve": 14710,
    "Ġmonstr": 7667,
    "Ġtreating": 4286,
    "Ġsubterraneous": 20268,
    "Ġweaving": 12745,
    "compared": 24036,
    "Ġraptures": 13500,
    "Ġdict": 9178,
    "madness": 14885,
    "ificant": 22213,
    "Ġsurveying": 25326,
    "Ġreproach": 9559,
    "actor": 11842,
    "Ġentranced": 25836,
    "uble": 21105,
    "Ġprivileges": 25135,
    "tain": 558,
    "stooped": 23825,
    "achusetts": 20712,
    "Ġfaithfulness": 24446,
    "Ġ55": 24319,
    "Ġlect": 9223,
    "Ġcrusad": 23708,
    "ophisticated": 22488,
    "Ġtuileries": 24824,
    "Åĵ": 10746,
    "troubled": 17113,
    "Ġhope": 1788,
    "oy": 1028,
    "uger": 21106,
    "hever": 13834,
    "Ġhydraul": 9517,
    "learning": 2627,
    "Ġaberdeen": 26543,
    "hopper": 23716,
    "Ġseam": 3909,
    "suit": 18630,
    "Ġstony": 21746,
    "oquence": 11388,
    "arabian": 26448,
    "Ġorlop": 22097,
    "Ġmanipulation": 10661,
    "Ġstature": 10865,
    "Ġkeels": 11062,
    "000": 2557,
    "deck": 4502,
    "Ġrudder": 25110,
    "Ġwrist": 8243,
    "Ġenraptured": 26502,
    "Ġfac": 6382,
    "Ġwrite": 3822,
    "Ġpemberley": 4589,
    "Ġlatest": 16824,
    "describe": 1516,
    "Ġunseen": 3525,
    "respectively": 24699,
    "Ġmaker": 15548,
    "Ġjumped": 7098,
    "Ġadventurous": 16735,
    "weave": 22688,
    "Ġpassed": 2012,
    "Ġstanders": 19016,
    "Ġobtru": 18673,
    "Ġori": 8410,
    "Ġsupplied": 8946,
    "Ġskrimshander": 22802,
    "ood": 961,
    "etics": 21584,
    "Ġmerely": 3771,
    "sensations": 20054,
    "Ġweaver": 11691,
    "Ġaspects": 4173,
    "Ġum": 10214,
    "Ġflies": 13030,
    "ses": 3027,
    "ury": 3312,
    "spell": 22727,
    "Ġpar": 456,
    "Ġeighty": 19479,
    "Ġpoetical": 25059,
    "venant": 22628,
    "Ġmarlings": 23039,
    "giving": 8742,
    "Ġbequeathed": 20704,
    "Ġadored": 18292,
    "gardiner": 12295,
    "willingly": 11987,
    "aut": 1912,
    "warp": 17708,
    "circum": 16739,
    "genteel": 19952,
    "Ġfleets": 23777,
    "Ġrooms": 5180,
    "Ġcring": 15557,
    "Ġrocky": 13391,
    "Ġcognitive": 13638,
    "la": 10707,
    "Ġdistinctly": 7311,
    "Ġseizing": 7877,
    "upon": 2723,
    "Ġhighland": 18713,
    "Ġprofits": 16492,
    "express": 4896,
    "umbs": 14692,
    "Ġtinge": 25090,
    "Ġyours": 4124,
    "immense": 18055,
    "Ġsearch": 2587,
    "Ġnursed": 16887,
    "moran": 24154,
    "copyright": 5278,
    "sinking": 17670,
    "Ġeffects": 7236,
    "aces": 2071,
    "Ġglued": 20592,
    "Ġwaited": 4909,
    "Ġcuba": 25098,
    "Ġstraits": 7994,
    "Ġmassive": 9935,
    "Ġworker": 23033,
    "emph": 21932,
    "vision": 5620,
    "haw": 6363,
    "Ġinclement": 22557,
    "Ġtea": 5042,
    "thesize": 24907,
    "Ġexcitement": 9384,
    "enes": 5218,
    "Õ": 150,
    "ricity": 23066,
    "Ġtufted": 17016,
    "Ġodor": 12154,
    "Ġbroadway": 23987,
    "Ġmissed": 8560,
    "Ġsignature": 16496,
    "Ġsnuffing": 25015,
    "nowled": 5470,
    "ee": 1660,
    "Ġconcuss": 19048,
    "ne": 645,
    "vous": 2251,
    "of": 768,
    "Ġaccustomed": 6861,
    "Ġdefined": 11904,
    "Ġcyp": 21348,
    "Ġpurp": 2392,
    "encyclopÃ¦dia": 16666,
    "outs": 7010,
    "undant": 14794,
    "track": 24335,
    "previously": 17210,
    "ships": 5486,
    "Ġflail": 23010,
    "Ġdeg": 3283,
    "irium": 8162,
    "land": 1532,
    "Ġglove": 14493,
    "nam": 3063,
    "dia": 2135,
    "science": 11913,
    "Ġsatisfying": 23699,
    "illation": 14144,
    "ffic": 22155,
    "Ġflashes": 11919,
    "Ġchewing": 23287,
    "bask": 20778,
    "Ġvacuous": 24344,
    "Ġdeficient": 18827,
    "Ġstudied": 11118,
    "stranger": 9886,
    "Ġmilitary": 11260,
    "Ġczar": 12579,
    "ainty": 21791,
    "holding": 7739,
    "Ġalgorith": 559,
    "orney": 17875,
    "hello": 13368,
    "Ġmagg": 18907,
    "Ġheh": 21683,
    "tolerably": 21098,
    "Ġbrushed": 15576,
    "Ġgriefs": 16773,
    "eprints": 12797,
    "seem": 10230,
    "Ġbackpropagation": 1223,
    "Ġcolonel": 3407,
    "Ġoverpowering": 15253,
    "Ġaccidental": 16850,
    "Ġinexperience": 26100,
    "Ġkidn": 20208,
    "Ġdraught": 9847,
    "Ġlofty": 6219,
    "Ġeddystone": 25736,
    "Ġcanvassed": 19938,
    "Ġtahit": 10756,
    "Ġdreamt": 23942,
    "Ġattentions": 5879,
    "dimens": 2316,
    "Ġ74": 24264,
    "Ġposted": 16726,
    "Ġinterview": 9773,
    "Ġexecution": 6927,
    "Ġleague": 6540,
    "inside": 23068,
    "lesome": 12970,
    "Ġequally": 5258,
    "Ġmincer": 14368,
    "Ġpetrified": 19599,
    "Ġupd": 946,
    "Ġteeth": 4166,
    "eager": 12464,
    "ntax": 934,
    "ateral": 19380,
    "Ġconfirmed": 11141,
    "darkness": 9515,
    "Ġwitt": 17785,
    "jewell": 25524,
    "Ġbetokened": 18797,
    "Ġinner": 9673,
    "Ġointment": 21329,
    "Ġcoffins": 13255,
    "ream": 2711,
    "Ġusing": 714,
    "Ġantagonist": 26330,
    "Ġoperated": 14548,
    "Ġclinched": 17397,
    "birds": 15148,
    "Ġ28": 19296,
    "Ġhieroglyph": 11975,
    "Ġdisembow": 22541,
    "Ġberg": 24536,
    "symp": 14622,
    "foreseen": 14256,
    "sac": 7142,
    "Ġjustify": 11074,
    "agery": 21911,
    "Ġboil": 16109,
    "gon": 17554,
    "Ġprudent": 9188,
    "Ġdeeper": 2086,
    "construction": 19781,
    "Ġlongest": 18632,
    "agues": 8161,
    "Ġbulkhead": 24511,
    "Ġconcentric": 20078,
    "draw": 23903,
    "Ġevery": 927,
    "Ġblades": 11901,
    "pudding": 17649,
    "knife": 6942,
    "consider": 6350,
    "Ġvacant": 9498,
    "Ġgate": 6825,
    "Ġprairie": 8716,
    "belated": 24040,
    "Ġirreduc": 5491,
    "Ġheaviest": 23329,
    "Ġjud": 3357,
    "Ġvolition": 14800,
    "Ġimpact": 10299,
    "Ġpequod": 2322,
    "Ġflowery": 16237,
    "Ġdestro": 3724,
    "Ġmcc": 21309,
    "fiend": 13665,
    "income": 15490,
    "Ġstraight": 3703,
    "ific": 490,
    "sto": 3201,
    "Ġconcernment": 23646,
    "Ġconquest": 15753,
    "Ġimbib": 22179,
    "Ġrelieved": 7666,
    "Ġcatching": 9481,
    "cription": 20820,
    "Ġburned": 8634,
    "Ġmystical": 12137,
    "Ġpenny": 16318,
    "oon": 6366,
    "Ġresembled": 18036,
    "Ġhoney": 12637,
    "Ġfanned": 19101,
    "Ġgiant": 13971,
    "Ġdefile": 18826,
    "Ġlobes": 22119,
    "Ġmuhammad": 26170,
    "Ġprimary": 25063,
    "Ġelig": 9781,
    "Ġpatient": 6895,
    "Ġmeant": 3552,
    "Ġpapers": 4020,
    "amped": 12037,
    "paus": 13776,
    "Ġgrounded": 23713,
    "Ġnoblest": 13247,
    "Ġmilitia": 13322,
    "warmest": 25030,
    "Ġperhaps": 1910,
    "Ġupp": 13995,
    "Ġloose": 4649,
    "Ġnotable": 18223,
    "denial": 18717,
    "ish": 551,
    "Ġalbino": 20506,
    "Ġrum": 5925,
    "Ġentertaining": 16928,
    "Ġponies": 21479,
    "sar": 12509,
    "wherein": 19109,
    "Ġcommander": 8628,
    "Ġstrokes": 16771,
    "Ġweary": 5635,
    "Ġhates": 21489,
    "Ġabraham": 18396,
    "Ġrestricted": 19027,
    "Ġdecently": 22455,
    "mercenary": 26316,
    "barbaric": 26360,
    "Ġexist": 9234,
    "Ġdouble": 4940,
    "Ġdripping": 13151,
    "Ġspont": 22135,
    "Ġtossings": 25357,
    "Ġquant": 6425,
    "Ġsincerity": 13682,
    "Ġunaccount": 22029,
    "Ġtart": 12533,
    "Ġlit": 6248,
    "ar": 285,
    "Ġobservation": 6599,
    "Ġpuzzled": 7317,
    "Ġdeplored": 20508,
    "carbuncle": 26384,
    "qualities": 25046,
    "Ġcage": 17827,
    "Ġsurpl": 19134,
    "Ġevent": 2948,
    "ant": 438,
    "disc": 4729,
    "iving": 1723,
    "silence": 8045,
    "Ġcow": 13879,
    "emed": 3379,
    "Ġjokes": 18409,
    "Ġmerit": 9430,
    "Ġappertain": 22218,
    "Ġfangs": 12602,
    "token": 21085,
    "Ġtattoo": 7359,
    "accessory": 25500,
    "==": 944,
    "thur": 7188,
    "Ġattend": 5036,
    "strangely": 17279,
    "ipelagoes": 13675,
    "Ġripples": 25506,
    "cruising": 12284,
    "oding": 1461,
    "Ġfinanc": 23130,
    "Ġthreats": 13381,
    "Ġgoblet": 25824,
    "Ġtransl": 2829,
    "ority": 8419,
    "dr": 6223,
    "Ġmak": 10780,
    "Ġmadame": 13154,
    "Ġaven": 10761,
    "Ġneatness": 19935,
    "united": 14063,
    "Ġcannot": 1666,
    "walton": 20252,
    "Ġthe": 270,
    "Ġcoaxing": 18597,
    "reen": 21234,
    "bench": 16805,
    "angels": 22109,
    "Ġacknowled": 6352,
    "Ġnorthwards": 19549,
    "Ġattentive": 9036,
    "Ġgang": 9210,
    "omas": 12676,
    ");": 7330,
    "ssing": 3810,
    "Ġscript": 18399,
    "Ġcuvier": 9168,
    "Ġfacetious": 20587,
    "Ġcul": 17824,
    "reluct": 26164,
    "silly": 24422,
    "Ġcivilised": 24247,
    "evade": 24817,
    "Ġensue": 18191,
    "Ġcrowded": 8012,
    "vii": 13152,
    "delight": 5345,
    "Ġemigrant": 25860,
    "Ġdeprec": 15763,
    "Ġneighbor": 25804,
    "Ġentail": 9796,
    "weekly": 25685,
    "Ġconcentrate": 25066,
    "liking": 22929,
    "ibule": 13012,
    "Ġscotch": 12214,
    "Ġinto": 646,
    "ientious": 11695,
    "Ġdif": 872,
    "Ġstilly": 25975,
    "Ġarch": 941,
    "beef": 18524,
    "Ġclerval": 4654,
    "Ġverdant": 15004,
    "Ġafrican": 20140,
    "Ġwigwam": 11430,
    "Ġeffected": 14357,
    "Ġdaunt": 19667,
    "buried": 14852,
    "Ġtombed": 25164,
    "ces": 578,
    "Ġshalt": 18231,
    "Ġretort": 23073,
    "scale": 3536,
    "Ġtwin": 12933,
    "reputation": 15519,
    "anybody": 12087,
    "Ġplans": 7918,
    "Ġgeneric": 18454,
    "Ġtraits": 23078,
    "Ġfads": 21419,
    "Ġtubs": 11372,
    "Ġaimed": 20253,
    "Ġsome": 656,
    "Ġsuppress": 13029,
    "Ġflattening": 26049,
    "Ġchains": 8251,
    "Ġbehave": 23301,
    "precisely": 6917,
    "Ġdischarged": 15224,
    "consol": 9765,
    "cceed": 4142,
    "Ġdearest": 5457,
    "also": 7851,
    "Ġwerter": 15243,
    "Ġacutely": 14317,
    "Ġchained": 16389,
    "Ġauxiliary": 26420,
    "½": 126,
    "owner": 18612,
    "quently": 9705,
    "possession": 12226,
    "Ġsauc": 15893,
    "george": 26020,
    "Ġsequel": 14363,
    "voyages": 24856,
    "passage": 11263,
    "complied": 19915,
    "Ġgabriel": 7596,
    "instance": 24171,
    "Ġluff": 15658,
    "houn": 20895,
    "Ġprynne": 25541,
    "Ġconcerning": 4067,
    "Ġjew": 9470,
    "Ġed": 2240,
    "Ġpointing": 5661,
    "regiment": 16453,
    "Ġbelike": 18832,
    "Ġundergone": 18986,
    "unnatural": 15778,
    "Ġfrost": 6097,
    "beards": 22495,
    "inction": 6663,
    "Ġmusic": 5269,
    "Ġfoul": 7160,
    "Ġdiverted": 14594,
    "mb": 873,
    "ander": 6402,
    "Ġwalls": 6763,
    "intellig": 5321,
    "insult": 16284,
    "Ġpole": 6434,
    "latitudes": 17199,
    "Ġ77": 24266,
    "Ġthis": 382,
    "Ġeverlasting": 9340,
    "Ġmarlingspike": 26581,
    "Ġware": 12559,
    "Ġsimulates": 2740,
    "«": 109,
    "Ġlies": 5297,
    "Ġexpressly": 16455,
    "Ġvintage": 26211,
    "Ġauto": 23323,
    "Ġbrahma": 26321,
    "Ġpublished": 11244,
    "Ġloves": 10917,
    "Ġincess": 8432,
    "arrant": 10476,
    "Ġdoomed": 11344,
    "Ġbreat": 3461,
    "tips": 13799,
    "Ġblindly": 12114,
    "ook": 21006,
    "Ġflatter": 9351,
    "Ġbulb": 23858,
    "thanking": 24326,
    "Ġround": 1372,
    "Ġpledged": 20690,
    "Ġpreliminaries": 25177,
    "Ġbetter": 1174,
    "Ġpret": 3035,
    "Ġcloudless": 16671,
    "ulty": 22571,
    "Ġbenediction": 18785,
    "Ġrespecting": 14486,
    "waves": 10744,
    "Ġpassionately": 16766,
    "aid": 1921,
    "Ġsoothed": 10032,
    "Ġespecially": 3936,
    "Ġvilla": 14750,
    "adventures": 20259,
    "Ġcoppers": 22586,
    "Ġbrighton": 6471,
    "ousings": 18336,
    "ben": 4927,
    "cousins": 20121,
    "Ġcreates": 2011,
    "Ġtestified": 16336,
    "scr": 16246,
    "Ġmurmured": 7480,
    "Ġtax": 13819,
    "eries": 6809,
    "violence": 16481,
    "orses": 6053,
    "Ġexceedingly": 4615,
    "Ġuncivilized": 25499,
    "Ġtexture": 19162,
    "Ġsqualidness": 25844,
    "Ġprinces": 23221,
    "Ġsounds": 5190,
    "Ġplanet": 14753,
    "Ġpowerful": 1544,
    "Ġassum": 4063,
    "iana": 7050,
    "supplement": 14799,
    "Ġnewcomer": 26042,
    "abash": 18110,
    "Ġdair": 17891,
    "Ġhummed": 18779,
    "rendering": 22344,
    "row": 1070,
    "significant": 25085,
    "ay": 355,
    "oup": 2016,
    "Ġbring": 3324,
    "Ġshame": 6411,
    "Ġsincere": 11138,
    "Ġspouts": 7730,
    "itu": 1230,
    "Ġpenalizing": 13095,
    "Ġpretence": 13211,
    "ssed": 3736,
    "building": 17312,
    "Ġkeeps": 8267,
    "Ġferoc": 14900,
    "Ġfem": 6136,
    "resistible": 10646,
    "Ġwedged": 24936,
    "Ġesc": 2252,
    "Ġca": 21342,
    "Ġprovided": 6579,
    "Ġpatagon": 14514,
    "Ġinspection": 14545,
    "Ġpasseng": 12976,
    "Ġcases": 3961,
    "Ġaffection": 2636,
    "Ġindependent": 9019,
    "Ġgravely": 7883,
    "matic": 4619,
    "Ġbuoyant": 13535,
    "Ġwick": 2007,
    "Ġseems": 2481,
    "later": 20955,
    "Ġrefuse": 5739,
    "Ġsong": 5904,
    "fields": 14655,
    "Ġcarn": 17823,
    "across": 10327,
    "Ġconsist": 1934,
    "Ġb": 281,
    "Ġafresh": 18629,
    "Ġchimneys": 16974,
    "Ġdisregard": 22532,
    "77": 15304,
    "Ġpipe": 4323,
    "Ġmourn": 8707,
    "programming": 10066,
    "eronomy": 15529,
    "Ġmod": 495,
    "bethink": 25745,
    "star": 12677,
    "ration": 2006,
    "Ġirrespective": 23378,
    "ellation": 12758,
    "Ġearnest": 3930,
    "gallant": 7781,
    "Ġhav": 12759,
    "Ġoctober": 17229,
    "Ġpills": 21469,
    "Ġdep": 738,
    "Ġimpelling": 22389,
    "Ġinfer": 7684,
    "vil": 2733,
    "Ġhealthful": 24061,
    "ĠĠĠĠĠ": 3528,
    "harpooneer": 8692,
    "Ġphrenologically": 20397,
    "ded": 2757,
    "german": 11494,
    "Ġmeanwhile": 5736,
    "Ġsnarled": 25715,
    "Ġworthy": 7241,
    "Ġalluded": 7885,
    "Ġbetween": 793,
    "carries": 19530,
    "Ġled": 3523,
    "cripp": 20821,
    "balls": 12309,
    "foolish": 12351,
    "andromeda": 21872,
    "Ġardu": 22188,
    "Ġpossessed": 5195,
    "Ġagatha": 6866,
    "ribed": 7693,
    "Ġbeggars": 20632,
    "wild": 8771,
    "Ġweighty": 16038,
    "Ġvictim": 6099,
    "ject": 877,
    "Ġabsent": 7016,
    "Ġmouse": 4694,
    "Ġunwritten": 22036,
    "Ġcompens": 14266,
    "rating": 7808,
    "Ġlifelessly": 23053,
    "violently": 23545,
    "Ġport": 3310,
    "Ġwrought": 11948,
    "Ġoccurring": 2792,
    "Ġshouting": 10525,
    "men": 1485,
    "Ġcrocodile": 20742,
    "Ġideal": 13125,
    "person": 7746,
    "alle": 1293,
    "pence": 15413,
    "Ġscrupulous": 20072,
    "Ġ5": 4935,
    "Ġwounds": 17792,
    "Ġplayed": 9419,
    "Ġwafted": 14500,
    "Ġtow": 4398,
    "Ġrestrict": 16378,
    "itated": 4442,
    "Ġorange": 8489,
    "ource": 5244,
    "Ġphysiognomy": 25611,
    "Ġfeasible": 22209,
    "ontory": 10461,
    "Ġsupposed": 4559,
    "Ġhissing": 15795,
    "Ġwarmer": 19187,
    "iftings": 23223,
    "Ġconversations": 9428,
    "Ġsolitudes": 22890,
    "encounter": 20395,
    "Ġconsum": 9802,
    "romang": 22009,
    "prise": 7727,
    "Ġbone": 4695,
    "Ġdivers": 9668,
    "Ġconsiderations": 9413,
    "Ġtissu": 25921,
    "Ġvexatious": 19784,
    "Ġoversampling": 20519,
    "Ġuprising": 12807,
    "Ġseason": 5238,
    "Ġinexper": 16982,
    "Ġparish": 8858,
    "Ġreading": 5114,
    "clergy": 18936,
    "Ġobjecting": 18896,
    "Ġreplied": 2263,
    "bal": 2158,
    "avail": 18606,
    "Ġadaptation": 3158,
    "Ġdinah": 9457,
    "plutarch": 21967,
    "Ġcollecting": 12290,
    "Ġarm": 2492,
    "mate": 5359,
    "bol": 8721,
    ",âĢĶâĢľ": 10073,
    "Ġfeelings": 2453,
    "Ġelephants": 9867,
    "Ġdisappearance": 9300,
    "Ġloggerhead": 13661,
    "nervous": 16282,
    "Ġesteem": 7531,
    "stript": 21660,
    "Ġhearse": 10422,
    "Ġexecuted": 9475,
    "Ġwhat": 599,
    "going": 6315,
    "Ġapologies": 25197,
    "Ġsherlock": 3894,
    "Ġwounding": 19589,
    "aled": 3944,
    "Ġprinciple": 6771,
    "Ġtalents": 15047,
    "dl": 20825,
    "knew": 9129,
    "Ġdevotion": 22738,
    "Ġpants": 21468,
    "Ġdipping": 15597,
    "oe": 7552,
    "Ġgallop": 19558,
    "sory": 17661,
    "pondicherry": 26402,
    "Ġancient": 5443,
    "Ġserpent": 6739,
    "Ġloads": 22118,
    "hush": 20908,
    "Ġplush": 18611,
    "plunging": 25988,
    "Ġmyself": 1454,
    "Ġhogarth": 25781,
    "Ġshutting": 14762,
    "levi": 7049,
    "Ġsolicitude": 10043,
    "Ġrelief": 6061,
    "Ġcreditors": 20133,
    "Ġglac": 9349,
    "complained": 25840,
    "tained": 4408,
    "iag": 20918,
    "yes": 984,
    "Ġexperiments": 23019,
    "Ġdistribution": 2021,
    "Ġknowest": 12868,
    "Ġdevice": 1928,
    "itic": 11581,
    "Ġaberde": 22281,
    "Ġlurid": 19684,
    "til": 17673,
    "Ġlamp": 4114,
    "hours": 9127,
    "Ġinterpret": 5490,
    "paused": 17377,
    "Ġfollowing": 4061,
    "gard": 7339,
    "Ġliving": 3066,
    "et": 307,
    "ium": 4865,
    "Ġsnap": 11202,
    "straight": 9943,
    "Ġswarming": 16277,
    "hurt": 19880,
    "Ġadmiring": 16483,
    "Ġshrunk": 16720,
    "itch": 10163,
    "Ġstable": 2700,
    "Ġlabors": 23332,
    "Ġperiodically": 19497,
    "_,âĢĿ": 6220,
    "quet": 6835,
    "stir": 12678,
    "princip": 17139,
    "arts": 6565,
    "Ġmedic": 11258,
    "Ġgrapple": 25812,
    "Ġguardsmen": 20633,
    "etian": 13962,
    "innacle": 7519,
    "app": 1042,
    "Ġunderneath": 16342,
    "erting": 17779,
    "Ġforked": 11667,
    "Ġoccup": 3741,
    "sufficient": 6638,
    "asion": 5714,
    "Ġeleven": 9393,
    "Ġpen": 1533,
    "pon": 17627,
    "Ġcombing": 22832,
    "Ġheroine": 24543,
    "ó": 180,
    "ushing": 5731,
    "Ġunalterable": 15856,
    "Ġbrutality": 26278,
    "hate": 20894,
    "Ġexamined": 6336,
    "istry": 22113,
    "Ġbrix": 12588,
    "ening": 3108,
    "oder": 2459,
    "shire": 3020,
    "ertips": 23641,
    "Ġdocument": 15021,
    "Ġezekiel": 26194,
    "Ġtour": 9150,
    "whew": 22872,
    "uy": 21102,
    "Ġagricultural": 26552,
    "nour": 20990,
    "wondered": 17118,
    "harb": 9126,
    "Ġaffectation": 14443,
    "Ġwrongfully": 24251,
    "servant": 15038,
    "ouring": 6421,
    "Ġperceived": 4714,
    "impe": 21711,
    "Ġheartfelt": 18968,
    "Ġsuperstitions": 17073,
    "Ġgalvan": 21620,
    "open": 7028,
    "turbable": 24531,
    "Ġgryphon": 4302,
    "perquisites": 26532,
    "commend": 19996,
    "Ġsupplement": 23005,
    "Ġnever": 1019,
    "gings": 7549,
    "Ġlatter": 3988,
    "numbers": 17618,
    "joined": 13280,
    "Ġdon": 1615,
    "Ġbeatrix": 24207,
    "Ġindependently": 4249,
    "Ġgreenhorn": 23770,
    "opinion": 10987,
    "Ġcoherent": 3265,
    "versed": 9828,
    "lotte": 3331,
    "unities": 15776,
    "Ġchallenge": 25472,
    "Ġresidence": 8207,
    "Ġhalting": 16278,
    "mured": 6960,
    "Ġpromontory": 11945,
    "Ġtones": 8401,
    "Ġresemblance": 7974,
    "Ġweld": 8112,
    "sive": 4143,
    "reply": 19725,
    "Ġshilling": 18229,
    "Ġchilly": 25563,
    "Ġcompanionship": 14923,
    "harm": 13738,
    "Ġmalice": 7153,
    "Ġsuccession": 12106,
    "Ġbeside": 5192,
    "Ġseclusion": 18207,
    "itates": 13872,
    "Ġpresenting": 18988,
    "terrible": 8468,
    "Ġcoars": 14274,
    "Ġlim": 2380,
    "Ġshadows": 8013,
    "^{": 15308,
    "Ġpawn": 12067,
    "courage": 17512,
    "phew": 6369,
    "licted": 20958,
    "Ġfatally": 19397,
    "Ġformality": 22837,
    "Ġfare": 5810,
    "Ġgates": 10203,
    "Ġmyth": 18221,
    "impart": 21712,
    "Ġcorrespondent": 19825,
    "pits": 15416,
    "fam": 5990,
    "Ġrecommendation": 17027,
    "Ġbrightly": 13229,
    "ina": 21182,
    "Ġstump": 7606,
    "iguous": 18047,
    "entiful": 10838,
    "Ġsemi": 11973,
    "anthrop": 17385,
    "Â": 131,
    "nailed": 20998,
    "Ġspear": 9317,
    "Ġgrudge": 20696,
    "Ġfood": 5080,
    "Ġquito": 24408,
    "arrangement": 17418,
    "Ġnerve": 16344,
    "Ġembraces": 19874,
    "dart": 20828,
    "Ġevol": 2815,
    "Ġfounder": 17885,
    "asse": 15650,
    "Ġbreaching": 23350,
    "Ġlightness": 23261,
    "Ġuniversally": 12004,
    "Ġcomplex": 747,
    "Ġopens": 23628,
    "Ġlouder": 13472,
    "Ġaver": 1286,
    "persuaded": 15077,
    "Ġresolution": 5500,
    "Ġperishing": 22400,
    "Ġplane": 11827,
    "Ġocc": 886,
    "wretch": 17710,
    "arr": 3047,
    "Ġaffronted": 22897,
    "Ġsurmises": 17056,
    "stained": 21658,
    "yesterday": 10355,
    "Ġfilling": 13412,
    "dismay": 19156,
    "Ġmoisture": 12363,
    "Ġexclaiming": 13645,
    "Ġinestim": 15629,
    "Ġapparition": 8067,
    "itarian": 21340,
    "observed": 7675,
    "Ġpersist": 16279,
    "Ġnut": 12651,
    "Ġwire": 13855,
    "Ġshears": 18320,
    "Ġtanning": 17731,
    "Ġacqu": 1416,
    "Ġjewel": 9945,
    "Ġrummaged": 16912,
    "Ġcouple": 5423,
    "Ġblotches": 25315,
    "Ġsavages": 9915,
    "sixteen": 24854,
    "Ġinfamy": 14503,
    "Ġoptimizer": 5035,
    "Ġif": 697,
    "vere": 4884,
    "Ġblanc": 11067,
    "wel": 6119,
    "Ġunidirectional": 3424,
    "Ġencountering": 11271,
    "springing": 24890,
    "turns": 14909,
    "Ġanyhow": 14257,
    "Ġcoffin": 4431,
    "Ġbeeches": 9229,
    "Ä": 133,
    "robust": 19731,
    "Ġencapsulate": 13678,
    "Ġprior": 11320,
    "Ġstrait": 23752,
    "Ġleak": 2162,
    "eye": 6226,
    "Ġchecking": 23288,
    "Ġinev": 10184,
    "jam": 15375,
    "Ġwrenching": 17326,
    "Ġfabulous": 25949,
    "trop": 15440,
    "brous": 19201,
    "hig": 12479,
    "Ġmadden": 10449,
    "tiest": 21084,
    "Ġpartake": 18671,
    "fi": 12466,
    "ousness": 10277,
    "Ġscra": 5841,
    "lies": 15385,
    "triumph": 15444,
    "Ġassertions": 19950,
    "Ġweek": 2826,
    "irresist": 21916,
    "sound": 6800,
    "ĠâĢľâĢĺ": 8505,
    "Ġ94": 17719,
    "pulous": 15420,
    "Ġprovide": 7750,
    "represented": 20198,
    "parts": 14603,
    "raised": 15684,
    "Ġhawk": 15177,
    "Ġdisdained": 15012,
    "Ġincreases": 3797,
    "inav": 15487,
    "turner": 19544,
    "Ġunite": 9257,
    "Ġskill": 6872,
    "Ġsubsets": 2346,
    "while": 2933,
    "Ġsemicircular": 26069,
    "Ġhandspikes": 12943,
    "windibank": 24164,
    "Ġant": 4348,
    "handsome": 13180,
    "things": 6034,
    "Ġimplicit": 19961,
    "bu": 5132,
    "anything": 5518,
    "written": 7995,
    "sne": 10127,
    "scotch": 25852,
    "Ġsupplication": 25492,
    "Ġprodig": 6029,
    "doc": 23379,
    "sacrifice": 13496,
    "screen": 22999,
    "Ġindeed": 1680,
    ".--": 20748,
    "Ġimprudent": 12853,
    "Ġremarkable": 4916,
    "Ġalternating": 15033,
    "Ġtest": 1610,
    "Ġthree": 1373,
    "liv": 9610,
    "Ġlxi": 21564,
    "uments": 5552,
    "Ġsuddenly": 2642,
    "kins": 7345,
    "germans": 20568,
    "Ġcarpets": 18903,
    "Ġruin": 6057,
    "brow": 15319,
    "Ġprodigious": 8057,
    "sway": 15429,
    "Ġdecoyed": 18491,
    "Ġclust": 9277,
    "Ġpia": 21467,
    "antarctic": 22103,
    "zors": 21150,
    "Ġbodings": 21394,
    "Ġvenetian": 14850,
    "Ġaxis": 12311,
    "compar": 14360,
    "Ġacquies": 11099,
    "well": 1690,
    "Ġwatchful": 16530,
    "fearfully": 25119,
    "Ġtraitors": 23080,
    "Ġbigot": 24566,
    "Ġmajesty": 5201,
    "Ġpulled": 5660,
    "Ġtrousers": 12419,
    "Ġjac": 1898,
    "fle": 7130,
    "Ġmoulton": 17438,
    "Ġjoyously": 19350,
    "Ġmonoman": 7939,
    "Ġzeal": 9101,
    "mortal": 10115,
    "Ġsill": 10767,
    "Ġdevoted": 6575,
    "Ġbet": 1134,
    "Ġbreezes": 14872,
    "Ġinexplicable": 12261,
    "Ġprophesied": 26063,
    "Ġadmeasurements": 26227,
    "aly": 1121,
    "Ġmonarch": 14417,
    "Ġfiercely": 12957,
    "Ġshipmate": 8932,
    "ctions": 952,
    "london": 9612,
    "official": 24915,
    "beautiful": 10651,
    "Ġconstantly": 11977,
    "Ġmakest": 25436,
    "Ġbarbary": 24219,
    "signs": 16541,
    "Ġredu": 1354,
    "Ġfrighted": 24032,
    "unless": 9238,
    "mixed": 17607,
    "Ġcompromised": 22575,
    "awed": 10394,
    "Ġdrugg": 17122,
    "Ġeaten": 14848,
    "Ġoverbearing": 12848,
    "Ġshol": 21999,
    "Ġsuppression": 23003,
    "Ġinherited": 25354,
    "Ġpersonality": 16480,
    "Ġlisten": 4674,
    "dutch": 17221,
    "owal": 13999,
    "protection": 19922,
    "leisure": 21374,
    "Ġsharpened": 17368,
    "Ġcrossing": 7253,
    "trampled": 26335,
    "Ġwrinkled": 7264,
    "pervading": 18949,
    "Ġdecember": 15009,
    "Ġvexations": 24610,
    "Ġsolemnisation": 24114,
    "Ġresigned": 9771,
    "Ġdreary": 10410,
    "Ġgrunted": 16173,
    "Ġcigaret": 16978,
    "Ġselfish": 7272,
    "Ġapplicable": 19004,
    "Ġsubtile": 20383,
    "Ġlimit": 10445,
    "Ġoutstanding": 22320,
    "Ġrug": 16163,
    "Ġpreser": 6042,
    "Ġairth": 23321,
    "Ġexplaining": 15965,
    "Ġashore": 5352,
    "beware": 16045,
    "mend": 20968,
    "Ġcontingency": 26246,
    "Ġjenny": 20165,
    "Ġcongrat": 5828,
    "ze": 1348,
    "Ġdiffidence": 14661,
    "Ġdissimilar": 22535,
    "Ġperfect": 2553,
    "couldn": 23719,
    "kles": 17586,
    "Ġdistrusted": 13545,
    "Ġavoid": 5199,
    "Ġjagged": 18408,
    "Ġconsulting": 13433,
    "Ġprayer": 16669,
    "exped": 16528,
    "awn": 3835,
    "line": 1440,
    "Ġagon": 10323,
    "Ġpartly": 6715,
    "Ġfeeling": 3087,
    "Ġshad": 3850,
    "compl": 6873,
    "Ġunsc": 22016,
    "Ġsix": 3046,
    "provided": 13641,
    "thouse": 21986,
    "Ġblock": 2573,
    "Ġfolds": 12211,
    "Ġapplies": 11960,
    "espe": 3500,
    "Ġpinioned": 21486,
    "ys": 3960,
    "Ġtradeoff": 2654,
    "Ġhard": 1443,
    "Ġsangu": 15508,
    "iest": 4034,
    "Ġenchanting": 17040,
    "Ġpatched": 16391,
    "Ġadvantageously": 19548,
    "Ġeluc": 16114,
    "izure": 21845,
    "rimsh": 17029,
    "af": 2376,
    "Ġplantation": 11425,
    "Ġendeavor": 16547,
    "Ġfishers": 19357,
    "tooth": 18580,
    "Ġconfed": 13102,
    "Ġsavi": 18325,
    "ulpt": 10887,
    "Ġsteering": 10390,
    "Ġstrangeness": 16706,
    "walk": 5523,
    "Ġinert": 15627,
    "Ġwished": 3731,
    "Ġcripp": 9656,
    "Ġporter": 15616,
    "Ġresume": 18566,
    "Ġacquaintance": 4133,
    "Ġtied": 7357,
    "Ġrepaid": 19084,
    "braces": 24659,
    "Ġlizz": 21560,
    "confidential": 25877,
    "Ġships": 3715,
    "Ġstoper": 14465,
    "Ġreported": 11984,
    "Ġapple": 14169,
    "Ġstopped": 5958,
    "Ġelopement": 10332,
    "pause": 12505,
    "Ġmagazine": 23103,
    "flagged": 23975,
    "Ġreproached": 24892,
    "achus": 18284,
    "Ġpains": 5966,
    "fortunately": 9454,
    "Ġmagnitude": 1945,
    "iter": 4394,
    "overing": 6308,
    "Ġsurrounding": 12167,
    "Ġlicensing": 20096,
    "Ġdyspepsia": 20645,
    "Ġfinishing": 23127,
    "Ġharsh": 9524,
    "Ġcircumst": 2971,
    "Ġregards": 16082,
    "pressed": 6589,
    "haz": 17566,
    "Ġcommence": 6169,
    "Ġelevates": 24503,
    "Ġbermud": 26441,
    "ret": 1475,
    "Ġexercise": 8359,
    "Ġdarts": 16770,
    "gh": 3802,
    "Ġcabaco": 13171,
    "unciation": 25983,
    "code": 15332,
    "Ġcarpenter": 4685,
    "Ġcontracted": 12865,
    "Ġrepose": 6743,
    "Ġsunwards": 19012,
    "Ġfurn": 3710,
    "aders": 21762,
    "Ġmenacing": 23111,
    "d": 72,
    "inguished": 6600,
    "atherley": 7220,
    "Ġfeeble": 12288,
    "Ġincalcul": 16068,
    "union": 15775,
    "Ġparc": 10922,
    "Ġlads": 8600,
    "Ġbarque": 23793,
    "allic": 12818,
    "greatest": 10496,
    "sembled": 7263,
    "Ġcombines": 1111,
    "barb": 10083,
    "Ġgrave": 5100,
    "Ġpropag": 16351,
    "Ġspare": 5102,
    "morland": 24155,
    "Ġmamma": 10051,
    "del": 4074,
    "isance": 17849,
    "ful": 670,
    "Ġced": 10786,
    "often": 6167,
    "Ġtwopence": 18661,
    "Ġmother": 2069,
    "Ġweight": 658,
    "Ġcredit": 4820,
    "Ġpairs": 4184,
    "aze": 10078,
    "ees": 13714,
    "shoulders": 16587,
    "Ġdocuments": 10026,
    "Ġrem": 955,
    "Ġdeferred": 18828,
    "Ġsights": 7472,
    "Ġ1836": 25721,
    "hereabouts": 23608,
    "kward": 6958,
    "above": 8148,
    "Ġgross": 11628,
    "ison": 3077,
    "Ġcausing": 16362,
    "uous": 4144,
    "Ġantarctic": 19555,
    "arian": 10319,
    "variety": 23188,
    "Ġdece": 6997,
    "stead": 10848,
    "ubbub": 23245,
    "Ġprecipice": 19944,
    "Ġcler": 11774,
    "Ġentire": 2556,
    "drugg": 20840,
    "Ġmonster": 3795,
    "Ġtuck": 10143,
    "Ġproduces": 2095,
    "Ġbunger": 9999,
    "gate": 12471,
    "Ġeasiness": 23539,
    "Ġigniting": 25073,
    "hil": 8379,
    "Ġbewitching": 25977,
    "uns": 21874,
    "hogs": 20085,
    "Ġhe": 318,
    "Ġcalmed": 16269,
    "icher": 9205,
    "cases": 12452,
    "Ġwhimsical": 20431,
    "Ġbehavior": 8002,
    "axing": 18548,
    "acup": 14282,
    "ular": 716,
    "Ġteneriffe": 26416,
    "obedience": 17413,
    "forming": 15925,
    "Ġvestibule": 13540,
    "Ġutil": 4673,
    "anch": 15565,
    "Ġopposing": 12045,
    "rolling": 9063,
    "Ġfins": 9666,
    "Ġconsec": 21809,
    "Ġhed": 7387,
    "Ġblankets": 24612,
    "Ġwired": 17788,
    "Ġdedicated": 19238,
    "easy": 9595,
    "Ġsmell": 7216,
    "nevertheless": 8286,
    "Ġpattering": 18652,
    "orily": 15578,
    "Ġdoubloon": 6945,
    "original": 9088,
    "Ġfoolishly": 19785,
    "osy": 11762,
    "Ġsty": 6253,
    "Ġ36": 14770,
    "Ġaw": 2509,
    "Ġsche": 1704,
    "Ġhealthcare": 8016,
    "Ġmirth": 15550,
    "Ġapparently": 6779,
    "Ġknitted": 19592,
    "Ġproud": 5654,
    "sometimes": 5973,
    "Ġcalf": 16268,
    "Ġlights": 8963,
    "Ġdispersed": 16599,
    "opes": 10313,
    "Ġcommis": 22674,
    "Ġsparsity": 4210,
    "spoken": 11863,
    "Ġintimacy": 8704,
    "ently": 1427,
    "Ġperiodical": 14775,
    "onts": 15523,
    "Ġeleventh": 23372,
    "Ġdisp": 3358,
    "Ġunlocking": 20708,
    "asol": 21543,
    "Ġbears": 6829,
    "Ġcasts": 19429,
    "bast": 10080,
    "Ġswarm": 23057,
    "inces": 13831,
    "hereafter": 19218,
    "Ġfinger": 5274,
    "Ġbegan": 2024,
    "Ġprovocation": 24194,
    "garnished": 26390,
    "bitious": 16672,
    "cur": 3272,
    "Ġrevolved": 9987,
    "Ġdidn": 4365,
    "cles": 8729,
    "disagreeable": 11165,
    "Ġoust": 21327,
    "Ġclosing": 11776,
    "Ġalert": 18104,
    "Ġlabours": 8586,
    "intolerable": 22943,
    "cape": 13701,
    "ippi": 20247,
    "cross": 3577,
    "Ġshrieks": 12204,
    "Ġsorts": 6887,
    "Ġarom": 15496,
    "Ġcommit": 18656,
    "Ġsubtle": 6718,
    "hung": 8381,
    "striking": 13444,
    "Ġspaces": 3114,
    "ana": 15564,
    "uation": 17696,
    "Ġloudly": 7312,
    "upt": 13801,
    "Ġatmosphere": 10899,
    "Ġgidd": 25784,
    "remembered": 17354,
    "Ġbarnacled": 25537,
    "lie": 12487,
    "Ġthreatened": 8330,
    "rations": 10725,
    "Ġbarrier": 16572,
    "reeling": 21247,
    "Ġvess": 3296,
    "smallest": 23915,
    "Ġdictated": 25219,
    "susceptible": 24662,
    "Ġcumulative": 4213,
    "Ġbid": 6133,
    "able": 451,
    "Ġcorpse": 6641,
    "atoes": 17777,
    "knell": 24555,
    "Ġvelvet": 12402,
    "·": 120,
    "Ġembraced": 10009,
    "iel": 11496,
    "Ġspe": 821,
    "Ġprison": 5403,
    "Ġsmoothe": 23660,
    "Ġweighing": 20019,
    "Ġzigzag": 26274,
    "Ġdelivery": 18975,
    "gressive": 2754,
    "clearly": 25196,
    "Ġchimney": 6498,
    "roded": 17958,
    "uch": 879,
    "Ġflann": 23015,
    "Ġparting": 9786,
    "10": 17475,
    "forks": 26389,
    "Ġproceeds": 12082,
    "beheld": 11805,
    "Ġborrowed": 17232,
    "Ġtightly": 13537,
    "Ġoverfitting": 1542,
    "learn": 2428,
    "Ġrevolver": 14903,
    "arctic": 12615,
    "reserved": 13846,
    "Ġfring": 11129,
    "Ġ34": 16679,
    "Ġretrogress": 23076,
    "shott": 11798,
    "lacings": 26135,
    "accompanied": 12426,
    "Ġweak": 5098,
    "warmth": 20056,
    "Ġnothing": 1358,
    "Ġportable": 19373,
    "matters": 14877,
    "Ġmurderous": 8316,
    "Ġsecretly": 13276,
    "ench": 21282,
    "pleasanter": 24050,
    "Ġaspired": 25985,
    "Ġagrippa": 11811,
    "Ġassoc": 6403,
    "Ġthousands": 6750,
    "ascal": 10195,
    "Ġsleep": 2399,
    "Ġivory": 4478,
    "Ġchaise": 9079,
    "tastes": 21099,
    "Ġcaring": 23095,
    "Ġgrunt": 18736,
    "Ġearlier": 9090,
    "Ġearnestly": 5980,
    "Ġdemocracy": 25459,
    "garden": 15028,
    "Ġderiv": 1735,
    "Ġsuite": 18279,
    "Ġviolence": 5964,
    "Ġa": 263,
    "Ġmexico": 15284,
    "dry": 13707,
    "Ġtechnique": 2709,
    "Ġaffirm": 11891,
    "Ġbegun": 7243,
    "university": 25984,
    "Ġsalutation": 12401,
    "Ġgrammatical": 13542,
    "Ġmanufact": 22332,
    "Ġsupercil": 23457,
    "begged": 18521,
    "?âĢĿ": 700,
    "allah": 5839,
    "Ġtwinkling": 12328,
    "Ġbrig": 11049,
    "Ġnonce": 23234,
    "Ġemph": 14527,
    "voyage": 7786,
    "Ġfries": 21418,
    "kshire": 13749,
    "Ġquiet": 3263,
    "ination": 2912,
    "Ġwreak": 16819,
    "Ġgossip": 18471,
    "jammed": 25907,
    "Ġhomely": 25220,
    "Ġsolve": 4199,
    "Ġpedd": 17911,
    "activation": 3234,
    "Ġemac": 16411,
    "bowing": 24454,
    "peare": 18913,
    "Ġ50": 24315,
    "Ġcoat": 4555,
    "Ġenorm": 5304,
    "Ġindulge": 10585,
    "Ġallev": 18103,
    "Ġbirth": 6525,
    "sentence": 2937,
    "anders": 18155,
    "Ġfoaming": 18992,
    "Ġsoc": 3527,
    "byshire": 6174,
    "Ġexempl": 21834,
    "roads": 17960,
    "Ġsequence": 1978,
    "unearthly": 19275,
    "Ġimitation": 22175,
    "truth": 9922,
    "Ġdepths": 4328,
    "expression": 10550,
    "Ġtakes": 5007,
    "alloyed": 22205,
    "Ġsent": 1772,
    "Ġuproar": 22159,
    "inclination": 20061,
    "Ġmultiplicity": 19277,
    "bearded": 18523,
    "Ġlaid": 3941,
    "Ġrecommend": 7104,
    "Ġhatter": 4112,
    "Ġcondition": 6765,
    "address": 14884,
    "consent": 18504,
    "pane": 10123,
    "zag": 17715,
    "Ġimpatience": 7509,
    "Ġquieted": 23846,
    "alizing": 17942,
    "Ġmemo": 18120,
    "Ġblameless": 19861,
    "simon": 16975,
    "who": 2446,
    "complexion": 14362,
    "Ġcreep": 22720,
    "Ġdecline": 9291,
    "Ġhatch": 7848,
    "Ġcommentaries": 20163,
    "Ġreluctant": 20528,
    "Ġsymptom": 13487,
    "Ġunlo": 22014,
    "Ġtouching": 4681,
    "Ġrespectively": 23249,
    "Ġcruel": 5121,
    "Ġbrigs": 20325,
    "Ġscal": 1492,
    "cont": 2919,
    "aned": 5147,
    "Ġperceptibly": 25822,
    "Ġint": 414,
    "hur": 6651,
    "Ġ100": 14367,
    "stretching": 20502,
    "Ġcakes": 13887,
    "Ġtruest": 16702,
    "Ġworried": 22931,
    "Ġapprove": 12876,
    "Ġdismast": 12893,
    "Ġend": 1473,
    "Ġincorpor": 13169,
    "Ġretarded": 23075,
    "Ġundeviating": 15221,
    "irement": 18356,
    "ellow": 3879,
    "Ġpyramids": 15118,
    "sales": 17669,
    "opportunity": 12279,
    "Ġmost": 1020,
    "Ġrailway": 15023,
    "Ġminim": 1322,
    "Ġdisguises": 25058,
    "Ġbloodshed": 23803,
    "Ġprejud": 6851,
    "intelligent": 16846,
    "sli": 11525,
    "Ġrelinquish": 17350,
    "apers": 3483,
    "Ġirr": 10423,
    "Ġcaress": 16343,
    "Ġscru": 8191,
    "Ġgroom": 13969,
    "Ġprocedure": 2809,
    "Ġstyled": 24672,
    "Ġgrapnels": 25552,
    "Ġexec": 19495,
    "Ġsoon": 1231,
    "preserve": 25304,
    "indispensable": 14212,
    "Ġabruptly": 15154,
    "Ġunduly": 25995,
    "Ġunexplored": 26520,
    "Ġspar": 10923,
    "jol": 20927,
    "Ġago": 3139,
    "Ġglens": 18855,
    "tps": 11537,
    "Ġfebruary": 15916,
    "Ġskirts": 14356,
    "Ġwollstonecraft": 26427,
    "dimensional": 2349,
    "Ġegyptian": 13590,
    "Ġstepfather": 7221,
    "supplemental": 25875,
    "Ġlomb": 21562,
    "could": 2871,
    "Ġcreamy": 14330,
    "involved": 25627,
    "Ġattics": 22630,
    "Ġpursuing": 9441,
    "flight": 15356,
    "irted": 14075,
    "Ġgravity": 9251,
    "Ġpoetry": 15084,
    "Ġworsh": 13005,
    "Ġlargest": 6284,
    "orous": 5294,
    "ney": 2493,
    "impress": 18054,
    "Ġplay": 2622,
    "bottle": 20148,
    "dam": 7798,
    "Ġorgans": 15870,
    "uneven": 23687,
    "Ġoriginate": 24122,
    "Ġtame": 17724,
    "Ġswords": 19899,
    "Ġolive": 12570,
    "Ġprocedures": 9415,
    "horse": 8609,
    "Ġnicely": 8712,
    "Ġearned": 19408,
    "Ġsymb": 2588,
    "feeders": 25236,
    "infidel": 24664,
    "ones": 2743,
    "minute": 11276,
    "Ġstil": 15726,
    "Ġhyp": 3874,
    "Ġdisclosed": 15157,
    "indifference": 15988,
    "Ġshoal": 12020,
    "Ġquit": 5247,
    "Ġislands": 6767,
    "Ġawakened": 10455,
    "midnight": 14905,
    "Ġnormalization": 1243,
    "Ġprized": 23219,
    "Ġlap": 8438,
    "Ġalders": 21788,
    "Ġcommunion": 19009,
    "Ġgi": 15671,
    "Ġalluding": 18237,
    "Ġxlvi": 25591,
    "inced": 3336,
    "Ġpolluted": 25594,
    "irm": 3111,
    "bring": 9108,
    "Ġdangers": 12358,
    "friendly": 13289,
    "Ġcustoms": 19655,
    "pockets": 16214,
    "Ġconst": 1909,
    "neural": 3069,
    "Ġvaults": 17156,
    "rubber": 12817,
    "Ġdownstairs": 11226,
    "dishonourable": 26367,
    "remonstr": 23193,
    "Ġnecess": 3478,
    "ober": 15410,
    "frank": 7758,
    "Ġbenjamin": 26569,
    "red": 396,
    "Ġcomes": 3422,
    "chair": 5918,
    "escript": 18472,
    "Ġdiscomp": 11870,
    "Ġmeekly": 26492,
    "Ġglobu": 23273,
    "sharpening": 22453,
    "apable": 6423,
    "Ġweighted": 2092,
    "Ġre": 317,
    "desper": 13223,
    "christian": 17235,
    "Ġberry": 19749,
    "ick": 835,
    "oped": 6048,
    "Ġmistaken": 4986,
    "Ġreproof": 24891,
    "rowsers": 8698,
    "sequently": 14585,
    "come": 2377,
    "Ġwearisome": 19798,
    "honour": 13471,
    "Ġvisitor": 5331,
    "Ġpaw": 12625,
    "Ġwight": 12558,
    "Ġhad": 445,
    "salesman": 20674,
    "Ġagreeable": 4553,
    "Ġxv": 23409,
    "reated": 10304,
    "Ġpale": 4533,
    "consequence": 9766,
    "Ġprivately": 19526,
    "overspreading": 26140,
    "slipping": 25529,
    "Ġbeckoned": 25794,
    "une": 2786,
    "Ġviol": 2073,
    "arus": 13915,
    "declaration": 25176,
    "Ġneglect": 7942,
    "Ġmann": 18417,
    "Ġdistracted": 11808,
    "Ġdeliber": 7268,
    "Ġpostmark": 16727,
    "Ġrattler": 24998,
    "won": 8395,
    "Ġimprinted": 22393,
    "ches": 2149,
    "Ġpages": 15613,
    "described": 18895,
    "Ġsteelkilt": 5675,
    "mosphere": 10046,
    "Ġtradesman": 20076,
    "feed": 9296,
    "Ġconsisting": 8974,
    "Ġowning": 18746,
    "grate": 23414,
    "Ġplough": 18610,
    "took": 6166,
    "Ġinstrument": 7120,
    "Ġtranquo": 14846,
    "Ġinfrequent": 3825,
    "Ġsluggishly": 25892,
    "Ġpostponed": 20393,
    "lodged": 25908,
    "ets": 1159,
    "Ġflowers": 8943,
    "frau": 15093,
    "Ġtechniques": 2866,
    "Ġbade": 9174,
    "ignified": 14492,
    "Ġlandsc": 11148,
    "Ġcrad": 21352,
    "jar": 17579,
    "Ġcompiled": 22574,
    "Ġdome": 15594,
    "Ġcovent": 16077,
    "Ġdescribes": 3124,
    "Ġcommanded": 6332,
    "Ġscreaming": 13427,
    "Ġceaseless": 13492,
    "sustained": 20571,
    "nor": 2742,
    "Ġstraining": 11329,
    "taken": 7560,
    "Ġmealy": 18121,
    "Ġskilful": 25839,
    "Ġsober": 10913,
    "ĠĠĠĠĠĠĠĠĠĠĠĠĠĠĠĠĠĠĠĠĠĠĠĠĠĠĠ": 14889,
    "Ġhid": 1318,
    "post": 6063,
    "Ġlumber": 13955,
    "Ġagreed": 7030,
    "Ġspiral": 14586,
    "Ġaggreg": 12889,
    "Ġprotection": 9465,
    "Ġimmersed": 19488,
    "Ġharpoone": 2910,
    "valuable": 8248,
    "Ġhilarious": 20301,
    "Ġwalked": 3143,
    "Ġentropy": 2033,
    "Ġsymphony": 26534,
    "Ġsher": 3764,
    "Ġemotions": 8972,
    "Ġrickety": 26508,
    "Ġpursue": 6316,
    "Ġglide": 22989,
    "Ġgreenness": 23769,
    "Ġnearly": 3362,
    "Ġadhes": 22106,
    "Ġanimating": 23426,
    "Ġpadd": 9672,
    "Ġclinging": 10294,
    "Ġfreshness": 23991,
    "Ġcharted": 22254,
    "Ġassociates": 24711,
    "Ġgros": 14826,
    "Ġrelationships": 2924,
    "Ġsocietal": 11438,
    "au": 777,
    "ounder": 11748,
    "Ġwide": 4108,
    "food": 12468,
    "hatches": 19930,
    "Ġrecollection": 6623,
    "Ġinstability": 3814,
    "Ġveil": 7934,
    "Ġsharply": 9406,
    "Ġit": 339,
    "raltar": 24236,
    "Ġslipping": 13365,
    "Ġtemptation": 8681,
    "Ġselects": 4388,
    "Ġacquire": 2725,
    "Ġprecipitous": 24836,
    "Ġhel": 3788,
    "Ġcupboard": 16885,
    "Ġcompromising": 22577,
    "Ġmol": 12566,
    "Ġpan": 5082,
    "contin": 16544,
    "Ġvirtual": 11242,
    "Ġbanished": 10619,
    "digger": 24312,
    "icult": 3341,
    "late": 11501,
    "taining": 7205,
    "Ġgossiping": 26245,
    "Ġgot": 2278,
    "Ġprizes": 13078,
    "Ġchief": 3380,
    "Ġknife": 7309,
    "Ġslack": 8958,
    "enjoyments": 25434,
    "eneva": 5118,
    "Ġcringing": 25942,
    "Ġliberties": 19670,
    "Ġdiscuss": 9477,
    "Ġtarred": 23611,
    "umb": 3402,
    "Ġpunctures": 25136,
    "gives": 15361,
    "Ġluxurious": 17314,
    "Ġjeer": 24124,
    "Ġwrong": 4724,
    "Ġspermacetti": 19051,
    "antediluvian": 24346,
    "discharging": 26306,
    "Ġrecent": 7436,
    "Ġfiss": 21415,
    "Ġbraces": 14672,
    "Ġcompany": 3723,
    "Ġdefault": 3038,
    "tedious": 22638,
    "Ġdeparted": 5562,
    "onical": 21256,
    "Ġfeather": 8863,
    "gs": 7338,
    "Ġpossibilities": 18976,
    "Ġlungless": 24864,
    "Ġelix": 22652,
    "Ġmuttered": 7088,
    "threaten": 25462,
    "hertfordshire": 10939,
    "venison": 22629,
    "Ġ16": 7927,
    "Ġwriter": 11949,
    "Ġspatial": 2731,
    "Ġrevolutionized": 3366,
    "squeezing": 25914,
    "eg": 17531,
    "Ġconstrained": 19242,
    "Ġ99": 10747,
    "volutional": 1936,
    "Ġasser": 6259,
    "ifferent": 4265,
    "ct": 309,
    "attended": 8955,
    "attachment": 13057,
    "igation": 5919,
    "Ġhymn": 24518,
    "Ġoceans": 7996,
    "ë": 172,
    "Ġsalary": 13298,
    "Ġabandonment": 25604,
    "sailors": 9925,
    "Ġdet": 513,
    "Ġsatin": 12993,
    "Ġaddu": 22105,
    "Ġexulting": 20261,
    "olently": 15762,
    "iciously": 17976,
    "ioning": 21512,
    "Ġinflicted": 11367,
    "Ġcomposure": 7217,
    "Ġfacil": 16964,
    "monsters": 19173,
    "gun": 10099,
    "rece": 21237,
    "Ġindependence": 12109,
    "¤": 102,
    "Ġundone": 24118,
    "Ġdawn": 6817,
    "Ġvicinity": 7315,
    "Ġinex": 6529,
    "Ġrib": 4936,
    "Ġrealise": 16341,
    "Ġnat": 12650,
    "Ġbreathed": 11222,
    "ots": 3295,
    "Ġtemporary": 7981,
    "Ġcommended": 18657,
    "lording": 24053,
    "Ġgeneralize": 3104,
    "Ġparameters": 995,
    "Ġsphy": 18312,
    "settle": 16664,
    "vest": 6232,
    "Ġhig": 753,
    "Ġimbec": 14159,
    "Ġhollowly": 24526,
    "protest": 24812,
    "Ġground": 2846,
    "Ġinterp": 16074,
    "intern": 23737,
    "Ġquies": 18465,
    "Ġpubl": 3940,
    "Ġgouldings": 26189,
    "Ġspurn": 18310,
    "Ġmoderate": 10940,
    "Ġstepmother": 16094,
    "Ġwhales": 1826,
    "Ġcausal": 3410,
    "crated": 16685,
    "part": 2570,
    "Ġwont": 9854,
    "Ġentrance": 7233,
    "Ġjudged": 12088,
    "am": 368,
    "Ġunsupervised": 2309,
    "Ġpost": 4275,
    "vari": 1518,
    "Ġpanther": 16821,
    "Ġcolumbus": 26566,
    "Ġfight": 5366,
    "see": 3050,
    "numer": 15403,
    "Ġten": 2386,
    "Ġstrengthen": 20703,
    "Ġcarelessly": 11122,
    "Ġwhole": 1662,
    "Ġrobustness": 18905,
    "xter": 9149,
    "Ġdespatched": 23833,
    "cks": 3083,
    "remes": 21240,
    "Ġsubproblems": 12963,
    "arance": 4698,
    "wart": 17707,
    "Ġexceed": 1344,
    "Ġlangu": 570,
    "considerable": 10551,
    "Ġide": 2123,
    "Ġcompared": 2228,
    "Ġexploit": 19164,
    "Ġconciliating": 19049,
    "Ġadvise": 7936,
    "Ġvolcano": 24149,
    "Ġbuoyed": 20044,
    "Ġfrosts": 19805,
    "Ġfarther": 5956,
    "Ġeight": 3902,
    "Ġaston": 3702,
    "Ġhalf": 1670,
    "Ġliveliest": 24774,
    "Ġfiles": 21416,
    "ĠĠĠĠĠĠĠĠĠĠĠĠĠĠĠĠĠĠĠĠĠĠĠĠĠĠĠĠĠĠĠĠĠĠĠĠĠĠĠ": 19261,
    "Ġknown": 1644,
    "Ġexasperated": 11414,
    "Ġfoe": 7680,
    "taught": 17686,
    "idated": 11664,
    "Ġsplit": 7993,
    "Ġpresume": 8038,
    "destroy": 19513,
    "Ġprofundity": 20455,
    "smooth": 20251,
    "Ġlombardy": 26465,
    "Ġcows": 15558,
    "Ġmatlock": 18801,
    "capt": 3837,
    "Ġwork": 1303,
    "etuous": 21586,
    "Ġby": 383,
    "Ġcouns": 10523,
    "expressive": 24307,
    "Ġtroubling": 26549,
    "oring": 1860,
    "flowing": 14553,
    "drop": 15340,
    "Ġcries": 7155,
    "Ġcoincidences": 26365,
    "cour": 4481,
    "aguy": 21914,
    "Ġclimax": 25054,
    "Ġlosing": 10918,
    "Ġconsummate": 25311,
    "Ġdefects": 12337,
    "ument": 5240,
    "Ġintervene": 25481,
    "Ġcarry": 4780,
    "uber": 15449,
    "Ġsuccor": 25663,
    "Ġbasin": 19850,
    "Ġrefill": 18699,
    "Ġslanting": 23175,
    "tram": 19646,
    "ude": 7562,
    "aud": 8524,
    "ressed": 3023,
    "Ġheaps": 11645,
    "hereditary": 26421,
    "etieth": 21587,
    "Ġfame": 21409,
    "Ġsalad": 19482,
    "Ġsummons": 13236,
    "Ġpledge": 11604,
    "apped": 5395,
    "sorts": 21063,
    "Ġdeceitfulness": 25734,
    "Ġbackwards": 12927,
    "broker": 13309,
    "Ġaloysius": 15743,
    "Ġretire": 10384,
    "vand": 21111,
    "Ġmountainous": 16601,
    "hester": 9634,
    "Ġanim": 2114,
    "Ġmultimodal": 18750,
    "Ġarranged": 9880,
    "surprised": 9534,
    "uteronomy": 15669,
    "sartain": 25623,
    "Ġschool": 5512,
    "Ġpalsy": 25779,
    "###": 3828,
    "Ġwhelm": 25999,
    "Ġpowdered": 24240,
    "Ġglistening": 12369,
    "Ġabilities": 8870,
    "Ġfake": 5811,
    "Ġdirection": 1791,
    "derest": 18315,
    "Ġcaged": 21355,
    "wag": 21126,
    "Ġmanaged": 7906,
    "purse": 20028,
    "Ġshoreless": 24297,
    "iss": 2178,
    "believing": 19465,
    "Ġsagaciously": 24730,
    "Ġdeigned": 18141,
    "hideous": 25408,
    "liable": 3819,
    "swim": 16781,
    "Ġmildness": 9947,
    "ative": 745,
    "Ġdrew": 3538,
    "Ġpeas": 8536,
    "Ġapothecary": 13663,
    "Ġdisease": 14260,
    "Ġcaution": 11348,
    "cask": 12451,
    "agger": 7872,
    "ieged": 22581,
    "Ġslim": 18939,
    "turning": 8317,
    "prevent": 11799,
    "ratulations": 20129,
    "Ġiron": 3238,
    "Ġattention": 1182,
    "Ġultimately": 17167,
    "Ġhare": 5157,
    "Ġcomplacency": 19451,
    "sullenly": 26150,
    "ille": 9222,
    "omen": 4084,
    "onstrate": 17770,
    "lled": 10110,
    "Ġpallidness": 25605,
    "expectations": 24279,
    "Ġextremest": 19197,
    "westward": 25425,
    "Ġbrewed": 23349,
    "travel": 24337,
    "Ġgangs": 21612,
    "Ġcruellest": 19661,
    "Ġanticipatingly": 26103,
    "Ġresided": 11815,
    "Ġtale": 5142,
    "Ġbuckets": 17035,
    "Ġmasked": 3695,
    "Ġstrasburgh": 18615,
    "Ġtransmit": 10312,
    "ezing": 10576,
    "Ġow": 8409,
    "clump": 23158,
    "Ġpray": 3900,
    "rusion": 11325,
    "Ġfrequencies": 4790,
    "blazing": 24132,
    "Ġdoctrine": 24200,
    "mbles": 23092,
    "accident": 11183,
    "Ġvenom": 24241,
    "Ġclassification": 1097,
    "Ġmutiny": 13264,
    "Ġblade": 11899,
    "Ń": 260,
    "Ġwhirlp": 16965,
    "Ġcombat": 16184,
    "chors": 11647,
    "Ġregretted": 13404,
    "Ġinequal": 21500,
    "Ġproblem": 1271,
    "ness": 851,
    "Ġenjoyed": 8008,
    "gain": 8740,
    "Ġsilver": 7463,
    "Ġnind": 17952,
    "Ġlurking": 11291,
    "Ġacknowledge": 13406,
    "l": 80,
    "Ġnapoleon": 20560,
    "suggest": 20379,
    "stay": 9684,
    "used": 3262,
    "wit": 7817,
    "Ġrobinson": 17466,
    "othe": 2610,
    "through": 4022,
    "wick": 5363,
    "spout": 7922,
    "Ġwarbling": 26169,
    "studied": 17152,
    "wing": 2518,
    "Ġapprised": 18359,
    "Ġcentury": 8292,
    "lucas": 15155,
    "Ġgarden": 3826,
    "Ġstupendous": 20504,
    "relig": 15516,
    "Ġquestioned": 14621,
    "Ġranged": 10260,
    "volous": 18587,
    "irection": 2388,
    "Ġswash": 23058,
    "opence": 18514,
    "Ġunique": 12783,
    "Ġjeopard": 9946,
    "Ġoptimal": 1856,
    "Ġornam": 15869,
    "Ġmathematical": 3350,
    "Ġsuspected": 9065,
    "vig": 15450,
    "conjecturing": 20137,
    "_?âĢĿ": 15309,
    "Ġinspired": 2517,
    "Ñ": 146,
    "received": 9641,
    "Ġunluckily": 20105,
    "Ġunspeakably": 25173,
    "Ġprepare": 8650,
    "Ġmethinks": 10393,
    "_)": 9105,
    "Ġsimulation": 2752,
    "Ġhumility": 12990,
    "anoke": 21364,
    "combination": 25487,
    "Ġseeks": 14305,
    "Ġrigger": 19533,
    "T": 56,
    "ent": 305,
    "Ġgodfrey": 15297,
    "increased": 20273,
    "seas": 14036,
    "Ġeaves": 15681,
    "Ġwhistles": 24625,
    "Ġremotest": 10055,
    "Ġreliability": 22885,
    "Ġbreakfast": 3975,
    "Ġapply": 1774,
    "Ġunattended": 15848,
    "Ġfed": 5530,
    "confidence": 16810,
    "plicable": 10259,
    "Ġrevolutions": 23845,
    "Ġmantle": 25275,
    "discrimin": 19611,
    "Ġconscious": 7744,
    "Ġcheerfulness": 10519,
    "Ġtimorous": 24228,
    "Ġordained": 19448,
    "Ġnarrated": 14874,
    "Ġlatitude": 8329,
    "Ġrecede": 25969,
    "Ġfreed": 7267,
    "Ġcommitted": 7431,
    "iom": 20917,
    "Ġgre": 1583,
    "achalot": 15868,
    "Ġunden": 22015,
    "ahit": 9385,
    "castle": 3349,
    "omy": 6250,
    "Ġoverhanging": 22366,
    "eler": 1573,
    "Ġmoustache": 20487,
    "Ġvictoria": 14876,
    "Ġaffecting": 2323,
    "Ġrasc": 21981,
    "Ġfrowning": 13627,
    "ifts": 12740,
    "concluded": 11245,
    "nson": 16093,
    "adding": 21765,
    "Ġinsert": 19907,
    "mechanically": 17303,
    "Ġrests": 13097,
    "hastened": 16847,
    "Ġproceed": 3246,
    "Ġgarnery": 17390,
    "Ġdiab": 10614,
    "Ġunsounded": 15854,
    "Ġdat": 502,
    "possessed": 9531,
    "Ġvia": 2383,
    "Ġnamed": 6141,
    "Ġwester": 25156,
    "Ġsubsided": 14551,
    "royal": 11395,
    "Ġexterm": 21833,
    "atiable": 17776,
    "objects": 13474,
    "Ġconj": 8462,
    "coil": 23561,
    "Ġdear": 1539,
    "ela": 21572,
    "ad": 337,
    "Ġdint": 15596,
    "Ġpeterson": 9486,
    "convul": 24884,
    "Ġtamely": 24980,
    "Ġfeared": 5932,
    "Ġflattering": 13034,
    "Ġsooner": 5573,
    "Ġsubmerged": 11876,
    "Ġcolumn": 9331,
    "Ø": 153,
    "alously": 15634,
    "Ġbecome": 3160,
    "cracy": 24691,
    "Ġtempest": 8214,
    "Ġdistantly": 18535,
    "partner": 19223,
    "presbyter": 20621,
    "Ġcompl": 3760,
    "Ġdam": 2216,
    "Ġrand": 1584,
    "Ġvectors": 1768,
    "Ġdimly": 9491,
    "Ġtells": 9364,
    "Ġtur": 2561,
    "Ġagents": 9769,
    "eting": 7170,
    "snowy": 20286,
    "aye": 3660,
    "Ġoutput": 929,
    "protested": 13478,
    "Ġcluster": 13575,
    "Ġdistress": 5845,
    "Ġdreadful": 4921,
    "Ġplunged": 8696,
    "Ġdiameter": 19869,
    "legged": 10468,
    "government": 25407,
    "horrible": 14602,
    "Ġlabyrinth": 13683,
    "icated": 7591,
    "Ġplutarch": 22609,
    "mbling": 3345,
    "etween": 774,
    "Ġchagrin": 20610,
    "Ġfreely": 7058,
    "þ": 191,
    "Ġreturns": 11930,
    "Ġnarrating": 24351,
    "pacific": 17643,
    "Ġdeactivates": 20706,
    "Ġundulations": 19518,
    "repugnance": 16866,
    "means": 9790,
    "Ġscarcity": 23830,
    "Ġpossess": 3206,
    "plendent": 21968,
    "years": 6883,
    "Ġscandal": 9084,
    "ĠĠĠĠĠĠĠĠĠĠĠĠĠĠĠĠĠĠĠĠĠĠĠĠĠĠĠĠĠĠĠĠĠĠĠĠĠĠĠĠĠĠĠĠĠĠĠ": 16757,
    "Ġforc": 9230,
    "Ġtrick": 7022,
    "Ġtune": 17727,
    "Ġsolemn": 4099,
    "Ġaccorded": 24091,
    "Ġhil": 10823,
    "Ġgiver": 21608,
    "Ġimpaling": 22387,
    "Ġanguish": 5583,
    "whip": 22241,
    "Ġderivative": 2997,
    "rously": 17656,
    "Ġserved": 8246,
    "Ġfished": 21413,
    "rock": 15646,
    "Ġlegit": 16475,
    "Ġcourses": 10413,
    "cooper": 19191,
    "Ġdeceive": 12727,
    "Ġmeryton": 4440,
    "Ġreasonable": 7254,
    "Ġpikes": 21481,
    "Ġfeatures": 1432,
    "Ġdiscretion": 10350,
    "Ġconveying": 19717,
    "Ġpierced": 12286,
    "orient": 2877,
    "full": 7420,
    "Ġungenerous": 18267,
    "thought": 3849,
    "don": 3546,
    "Ġyields": 19659,
    "Ġsample": 3181,
    ",âĢĻâĢĶ": 23530,
    "Ġintegral": 25011,
    "Ġreaped": 18032,
    "Ġpad": 8125,
    "right": 2769,
    "Ġnobler": 14176,
    "Ġacquiesced": 25494,
    "Ġdepartments": 24245,
    "hemat": 3132,
    "Ġengraving": 17081,
    "Ġfinancier": 26585,
    "Ġperforms": 11881,
    "holmes": 4433,
    "pede": 19932,
    "Ġextensive": 12951,
    "Ġpickle": 16724,
    "Ġperceptible": 18451,
    "Ġcraft": 4379,
    "Ġexhibit": 14959,
    "Ġsus": 18278,
    "zas": 17714,
    "avoid": 9308,
    "handed": 7482,
    "taste": 10132,
    "Ġoperation": 12003,
    "Ġmoment": 992,
    "Ġspectacles": 12102,
    "Ġlance": 4880,
    "skill": 24487,
    "Ġcommotion": 9783,
    "Ġtidings": 11399,
    "Ġpruning": 18971,
    "Ġaccounts": 7207,
    "contrast": 25595,
    "Ġswell": 8952,
    "Ġoct": 10161,
    "itche": 7579,
    "Ġrepenting": 25323,
    "poster": 11057,
    "ittarius": 22381,
    "._": 3222,
    "Ġlegisl": 23537,
    "Ġdz": 4757,
    "Ġlongbourn": 3510,
    "Ġestate": 6318,
    "lungs": 26136,
    "Ġbilliard": 16690,
    "Ġconnex": 10668,
    "ashions": 16422,
    "Ġice": 3605,
    "ooped": 17625,
    "Ġbarrowful": 25596,
    "Ġunrelieved": 20548,
    "Ġatrocious": 21947,
    "trivial": 21095,
    "Ġcumberland": 21358,
    "Ġcushion": 17835,
    "chorus": 19814,
    "Ġparted": 5930,
    "Ġmade": 1052,
    "Ġrick": 21977,
    "Ġbuff": 9175,
    "Ġneglig": 18879,
    "Ġdated": 10941,
    "Ġchildhood": 13142,
    "Ġcalcul": 3638,
    "Ġindisc": 16233,
    "Ġinsc": 7586,
    "ufact": 10735,
    "ems": 5236,
    "Ġineff": 12639,
    "Ġhideous": 5984,
    "Ġshare": 1658,
    "somehow": 12016,
    "ww": 10739,
    "that": 849,
    "Ġturns": 4981,
    "Ġhorr": 3193,
    "ik": 17573,
    "Ġstirring": 10582,
    "Ġrestore": 9382,
    "ore": 418,
    "lotts": 23829,
    "Ġstud": 1625,
    "mission": 5971,
    "Ġobst": 6286,
    "Ġjoint": 12038,
    "Ġjamming": 17267,
    "Ġdelayed": 9521,
    "Ġcontemplate": 19894,
    "Ġgifts": 21615,
    "F": 42,
    "shock": 19857,
    "Ġxvi": 19106,
    "Ġunobstructed": 18265,
    "Ġtragedies": 25242,
    "Ġcollected": 2607,
    "Ġmusk": 7494,
    "Ġbashaw": 25634,
    "Ġslammed": 20451,
    "ship": 1392,
    "asmuch": 10197,
    "Ġpaved": 17915,
    "Ġguessed": 11284,
    "Ġfaithful": 9506,
    "Ġdecks": 6900,
    "Ġarchly": 22782,
    "mond": 20976,
    "aunt": 8370,
    "Ġhat": 2772,
    "Ġringing": 13336,
    "cy": 648,
    "burn": 8371,
    "Ġfarthest": 23119,
    "Ġvivacious": 19818,
    "Ġmocking": 24006,
    "Ġdiscipline": 26563,
    "Ġ166": 25007,
    "Ġpitiful": 13243,
    "Ġtuples": 13481,
    "Ġcongratulations": 10583,
    "quiet": 6156,
    "Ġimitated": 18330,
    "ardy": 22160,
    "Ġhove": 17925,
    "Ġgulp": 20032,
    "Ġwas": 370,
    "boo": 16354,
    "cess": 534,
    "owders": 18053,
    "Ġwallowed": 24045,
    "Ġwashington": 17205,
    "tum": 11534,
    "Ġrighted": 23181,
    "Ġdesol": 6881,
    "Ġknights": 15153,
    "Ġidea": 2487,
    "pper": 3212,
    "Ġassistants": 9455,
    "Ġsamuel": 10036,
    "Ġbraced": 16582,
    "rences": 9275,
    "Ġneedless": 19231,
    "Ġgul": 7860,
    "Ġplaced": 3444,
    "Ġwakes": 11575,
    "Ġimpelled": 11786,
    "Ġmahogany": 20581,
    "Ġane": 9184,
    "long": 2911,
    "bordered": 17501,
    "Ġpractised": 23312,
    "deadly": 17101,
    "Ġwits": 15536,
    "Ġtid": 8107,
    "own": 746,
    "transformer": 25018,
    "omical": 9683,
    "Ġtaller": 16689,
    "Ġeurope": 8062,
    "attered": 4017,
    "pate": 21012,
    "angry": 18295,
    "Ġkin": 15909,
    "Ġrevered": 23735,
    "Ġtooks": 23330,
    "Ġstaving": 21744,
    "Ġinterven": 10999,
    "case": 5206,
    "ui": 9147,
    "Ġundertake": 14482,
    "Ġlow": 1648,
    "staking": 21651,
    "brimmed": 14590,
    "Ġcompute": 2905,
    "urring": 21708,
    "orial": 8418,
    "Ġhesitate": 16948,
    "soever": 11862,
    "Ġoblong": 14324,
    "Ġripp": 11221,
    "Ġflea": 23776,
    "pumps": 21029,
    "Ġartfully": 22614,
    "ax": 694,
    "Ġillustrations": 17109,
    "america": 17098,
    "chambers": 25455,
    "Ġdoom": 6418,
    "Ġcalendar": 18878,
    "ernal": 4314,
    "Ġcrabs": 19176,
    "Ġreprehensible": 15704,
    "by": 1157,
    "umul": 1289,
    "ling": 735,
    "Ġletting": 10365,
    "nels": 12500,
    "need": 10985,
    "Ġfarewell": 9523,
    "boys": 13364,
    "Ġdiscontented": 16064,
    "Ġsultan": 15188,
    "derment": 22165,
    "Ġtalk": 1971,
    "akness": 14197,
    "Ġmute": 19419,
    "crown": 13702,
    "drovand": 24759,
    "bildad": 9589,
    "Ġvanished": 6874,
    "rily": 7622,
    "bitt": 17488,
    "mor": 4217,
    "Ġnib": 13943,
    "beholding": 16046,
    "Ġprocession": 11779,
    "Ġbind": 12587,
    "swift": 14855,
    "Ġpolicy": 10459,
    "Ġcoun": 4180,
    "Ġparts": 4164,
    "Ġkills": 15911,
    "Ġbeat": 4493,
    "Ġdexterous": 15152,
    "Ġserves": 4669,
    "Ġnapole": 15119,
    "Ġviciously": 24404,
    "Ġsmile": 4274,
    "Ġentity": 10344,
    "Ġblurred": 22936,
    "Ġkitty": 3910,
    "mast": 3603,
    "Ġhoneymoon": 25646,
    "Ġhave": 446,
    "ignor": 8964,
    "ternatural": 12720,
    "Ġsnow": 3707,
    "surface": 10533,
    "Ġconstraints": 2741,
    "advent": 10223,
    "Ġeffeminacy": 20720,
    "Ġonset": 12715,
    "Ġdog": 4194,
    "Ġsuicide": 12792,
    "qualified": 17099,
    "Ġmaxim": 3088,
    "Ġgrasping": 12170,
    "Ġwast": 21864,
    "removed": 15520,
    "Ġroof": 6566,
    "Ġcounsel": 13619,
    "ructure": 769,
    "Ġpath": 2115,
    "Ġweapons": 10596,
    "ullo": 12734,
    "Ġwrit": 8242,
    "inn": 5364,
    "ersman": 11706,
    "Ġretired": 6072,
    "seems": 10877,
    "Ġterms": 2559,
    "Ġbleeds": 24397,
    "tons": 7559,
    "Ġwantonly": 22898,
    "Ġsignifies": 19206,
    "Ġworldly": 16334,
    "Ġpatagonian": 20538,
    "Ġinterchange": 16076,
    "Ġlikelihood": 16503,
    "toes": 22568,
    "Ġtim": 4579,
    "itt": 571,
    "aming": 5829,
    "Ġdividing": 12116,
    "thousands": 16874,
    "Ġconvincing": 19309,
    "obtained": 23099,
    "Ġmo": 629,
    "Ġlain": 17964,
    "Ġfinancial": 23131,
    "Ġhighness": 22777,
    "irms": 18171,
    "tolerable": 17690,
    "mouthed": 12404,
    "Ġevenings": 18756,
    "Ġarguments": 8037,
    "Ġim": 475,
    "Ġconflag": 20338,
    "Ġnetwork": 452,
    "ography": 13367,
    "Ġreminding": 19800,
    "Ġfloundering": 16254,
    "Ġbedford": 7475,
    "hest": 3368,
    "Ġattempted": 8001,
    "Ġbowditch": 19325,
    "Ġdisabled": 18562,
    "Ġinst": 914,
    "ñ": 178,
    "mantel": 26396,
    "phys": 18712,
    "Ġwherever": 8526,
    "Ġgrain": 15836,
    "Ġfeel": 1261,
    "Ġoutstretched": 14198,
    "Ġdick": 3499,
    "Ġaside": 5234,
    "tw": 2811,
    "mel": 9130,
    "59": 17476,
    "Ġstrained": 10221,
    "character": 6333,
    "Ġfluctu": 5268,
    "Ġsemicirc": 16397,
    "allowed": 5728,
    "Ġ86": 24461,
    "ied": 940,
    "Ġactivity": 7920,
    "vation": 4745,
    "progra": 9398,
    "Ġsurgeon": 8984,
    "doubtful": 24790,
    "Ġdoubt": 2223,
    "±": 114,
    "always": 5708,
    "apparent": 11044,
    "Ġpirates": 9076,
    "twelvemonth": 25863,
    "Ġrecl": 16143,
    "Ġdismay": 11813,
    "Ġimpul": 7208,
    "ruck": 6848,
    "Ġfainting": 16899,
    "avating": 18607,
    "Ġumbrell": 13654,
    "Ġ1825": 25719,
    "Ġwint": 15537,
    "Ġshr": 4228,
    "eric": 3473,
    "Ġplumber": 16090,
    "Ġpun": 4588,
    "Ġlodging": 24095,
    "counterpart": 26361,
    "Ġpacket": 14896,
    "h": 76,
    "Ġbiases": 2397,
    "isis": 12584,
    "Ġlevels": 12701,
    "Ġmurmur": 14591,
    "patient": 25343,
    "Ġinvaders": 23484,
    "Ġstrands": 25575,
    "Ġprodu": 1209,
    "iality": 8848,
    "constantly": 24607,
    "Ġquee": 1982,
    "ingley": 1546,
    "Ĥ": 229,
    "Ġrepining": 23363,
    "Ġpretext": 22233,
    "sterdam": 19091,
    "Ġmistifying": 23721,
    "Ġsobs": 14137,
    "fulfilment": 26026,
    "Ġrattled": 15070,
    "dle": 3306,
    "exception": 9979,
    "superstitiousness": 25509,
    "Ġstaying": 8284,
    "Ġhonoured": 9884,
    "Ġinclu": 1102,
    "Ġrubbed": 12961,
    "Ġactual": 3739,
    "iliating": 12700,
    "inform": 10146,
    "Ġcampa": 17176,
    "Ġtrim": 15979,
    "Ġdrawers": 12110,
    "Ġamazing": 9980,
    "trowsers": 17693,
    "Ġintimately": 24801,
    "rain": 462,
    "heric": 15917,
    "Ġpunishment": 9959,
    "omb": 10208,
    "networks": 2405,
    "Ġdescried": 7919,
    "ouched": 4637,
    "least": 8789,
    "isf": 2436,
    "Ġnose": 4405,
    "Ġname": 2085,
    "sigma": 3001,
    "Ġstrove": 9960,
    "Ġassid": 18947,
    "Ġepid": 18007,
    "pocket": 9812,
    "Ġunusual": 6555,
    "dilig": 17285,
    "Ġwives": 12560,
    "Ġspoilt": 24804,
    "Ġelegant": 7532,
    "xology": 21144,
    "Ġconf": 1817,
    "Ġconnivance": 25226,
    "Ġgallant": 8658,
    "Ġtrespass": 23602,
    "Ġlivel": 11357,
    "befriend": 22496,
    "Ġherd": 7888,
    "Ġanaly": 1146,
    "Ġindepend": 3668,
    "Ġxiii": 25592,
    "terdam": 18132,
    "usages": 22294,
    "inger": 6813,
    "Ġexisting": 12723,
    "Ġinjustice": 9193,
    "fr": 4805,
    "sight": 5996,
    "Ġreminds": 13435,
    "Ġbalm": 22906,
    "Ġconcl": 5095,
    "herald": 22212,
    "Ġsubterranean": 13615,
    "Ġdisclose": 16161,
    "Ġdissembling": 26256,
    "Ġbug": 11592,
    "Ġcorpora": 26582,
    "Ġhealthy": 10853,
    "_,âĢĻ": 12437,
    "useness": 22296,
    "soul": 9143,
    "Ġtinkling": 25213,
    "Ġneskye": 21534,
    "Ġinsupportable": 13935,
    "Ġclear": 1952,
    "glad": 9011,
    "je": 11498,
    "Ġunche": 23431,
    "strange": 6087,
    "Ġindignant": 12244,
    "Ġmoderately": 22224,
    "aract": 17896,
    "izarre": 17392,
    "Ġvinc": 14088,
    "Ġmut": 3584,
    "alt": 12643,
    "Ġlazily": 11382,
    "fired": 20862,
    "Ġtrembled": 8705,
    "Ġmean": 742,
    "ife": 1025,
    "requiem": 24857,
    "Ġlimp": 19182,
    "rusted": 16509,
    "suppose": 8648,
    "swe": 5997,
    "ronted": 14880,
    "Ġnuptial": 25783,
    "Ġaustral": 12177,
    "Ġusually": 6265,
    "usiveness": 22297,
    "Ġ200": 19297,
    "Ġcompressed": 21849,
    "Ġduplicates": 17219,
    "inarticulate": 21198,
    "Ġforever": 14556,
    "mindful": 19602,
    "Ġreserved": 7515,
    "Ġlanguor": 12850,
    "Ġlionel": 25287,
    "Ġlawyers": 25249,
    "Ġabaft": 22278,
    "ellative": 21953,
    "Ġcontest": 18474,
    "ivened": 22970,
    "Ġspeedy": 11174,
    "Ġeber": 18006,
    "Ġgasps": 24866,
    "Ġchapters": 10475,
    "Ġesteemed": 10591,
    "âĢĿ": 354,
    "Ġconfirms": 23310,
    "pat": 10119,
    "Ġlengthwise": 10454,
    "Ġdiscernible": 15073,
    "Ġnest": 10191,
    "Ġcrosswise": 18887,
    "Ġlonging": 14303,
    "plied": 10258,
    "ferred": 16418,
    "Ġholidays": 22924,
    "athan": 2953,
    "tort": 17677,
    "Ġsympt": 7014,
    "Ġsize": 1221,
    "Ġshows": 8485,
    "Ġunbelief": 22051,
    "wl": 17704,
    "Û": 156,
    "Ġsung": 23274,
    "Ġmurdering": 14814,
    "Ġdepose": 22597,
    "traversed": 19650,
    "Ġsisters": 3641,
    "shaw": 6864,
    "Ġbusied": 19066,
    "Ġacquainted": 5179,
    "Ġadversary": 12178,
    "fs": 17537,
    "prejudice": 25572,
    "saturday": 14861,
    "aving": 2406,
    "Ġgrim": 7439,
    "smith": 5669,
    "specific": 10500,
    "Ġbiggest": 24567,
    "Ġdissatisfied": 14259,
    "Ġproducing": 11905,
    "Ġexplored": 23521,
    "Ġserv": 3329,
    "Ġintrusted": 21996,
    "Ġfaithfully": 14890,
    "bene": 6114,
    "Ġenh": 2901,
    "Ġlubber": 17447,
    "Ġsafe": 5103,
    "cooks": 25070,
    "nourished": 26400,
    "Ġ61": 24364,
    "Ġsayest": 22779,
    "tree": 11536,
    "Ġprank": 23217,
    "unt": 2045,
    "Ġrunning": 3951,
    "crime": 14777,
    "pron": 9009,
    "Ġstatement": 5255,
    ",âĢĶ": 3173,
    "hem": 6666,
    "continued": 8679,
    "Ġboy": 3021,
    "Ġthickly": 12120,
    "Ġmerrily": 23733,
    "Ġslink": 23166,
    "Ġsingularly": 12153,
    "Ġseeth": 21957,
    "pread": 7418,
    "iastic": 12484,
    "Ġeffective": 1247,
    "Ġuncertain": 4066,
    "Ġbreaks": 13187,
    "Ġpenetration": 19919,
    "meaning": 2907,
    "plate": 18208,
    "Ġcultivation": 17148,
    "Ġchambers": 16801,
    "properly": 24919,
    "Ġjacob": 1899,
    "Ġturing": 7566,
    "Ġimmured": 24073,
    "Ġfund": 2843,
    "Ġperpet": 7645,
    "Ġsgd": 3133,
    "prim": 23814,
    "Ĳ": 243,
    "ulties": 12906,
    "ool": 17620,
    "Ġtheories": 13852,
    "P": 52,
    "Ġfooting": 14485,
    "crossed": 16635,
    "Ġmainmast": 9782,
    "clo": 5613,
    "Ġbreathing": 9449,
    "whisper": 17084,
    "Ġbanquet": 15244,
    "Ġretribution": 16286,
    "deduction": 23673,
    "hoist": 23715,
    "Ġangry": 5498,
    "unnecessary": 21884,
    "Â·": 21152,
    "Ġstately": 9837,
    "Ġvon": 14084,
    "https": 11687,
    "iscreet": 20685,
    "Ġoffice": 4965,
    "Ġundec": 22021,
    "Ġcooking": 16649,
    "Ġfaster": 3200,
    "Ġsupplies": 20329,
    "Ġtru": 4106,
    "Ġabundance": 17158,
    "Ġpigs": 19750,
    "iousness": 4900,
    "species": 13261,
    "hyp": 15370,
    "Ġwelcomed": 9485,
    "aboard": 21798,
    "inous": 8776,
    "ources": 2789,
    "Ġhelp": 1642,
    "omach": 11637,
    "Ġaloof": 21789,
    "several": 5544,
    "Ġopulent": 23630,
    "large": 6628,
    "Ġnewcastle": 16229,
    "Ġsooty": 25816,
    "performed": 18340,
    "progression": 20385,
    "collecting": 26082,
    "lier": 20951,
    "³": 116,
    "nx": 17609,
    "Ġtempestuous": 20074,
    "apolog": 22337,
    "Ġexceptional": 19374,
    "desponding": 26343,
    "Ġcure": 21343,
    "Ġfinally": 4667,
    "Ġreddening": 25971,
    "agged": 9240,
    "Ġdistinguished": 8273,
    "Ġpenetrated": 13476,
    "Ġmulti": 1046,
    "Ġsubstances": 24168,
    "cre": 4253,
    "riminately": 16486,
    "ssible": 2989,
    "orough": 5700,
    "Ġtarquin": 23612,
    "Ġcontinual": 6778,
    "heading": 5487,
    "date": 17519,
    "Ġquestions": 3972,
    "Ġstript": 23696,
    "scotland": 20532,
    "Ġcoinc": 11003,
    "wouldn": 23538,
    "Ġswamp": 14439,
    "mature": 20969,
    "burned": 25082,
    "Ġav": 3583,
    "Ġrecre": 22732,
    "Ġjobs": 24833,
    "snapping": 24850,
    "Ġbranch": 8332,
    "Ġoftener": 13569,
    "Ġeastern": 11632,
    "Ġquohog": 10974,
    "Ġcynical": 25771,
    "flame": 16640,
    "tish": 17679,
    "puzz": 17642,
    "Ġtrembling": 7481,
    "ignominious": 26589,
    "Ġfig": 3625,
    "Ġwitnessed": 14847,
    "ectual": 21919,
    "hon": 6794,
    "utterly": 20015,
    "Ġconsole": 8151,
    "Ġthroats": 24576,
    "Ġdivided": 8635,
    "Ġfruits": 17121,
    "appear": 13200,
    "ington": 21304,
    "Ġitem": 12706,
    "Ġperem": 12937,
    "Ġpervading": 20616,
    "Ġchronicled": 25329,
    "Ġbird": 3757,
    "Ġgardener": 19136,
    "Ġfrocks": 23926,
    "vicious": 21121,
    "Ġtransition": 14245,
    "Ġmargin": 11924,
    "Ġmercy": 9001,
    "Ġconventional": 25548,
    "Ġsuggestion": 19710,
    "inhabited": 13624,
    "Ġadvent": 4359,
    "ĠĠĠĠĠĠĠĠĠĠĠĠĠĠĠĠĠĠĠĠĠĠĠĠĠĠĠĠĠĠĠĠĠĠĠĠĠĠĠĠĠĠĠĠĠĠĠĠĠĠĠĠĠ": 20043,
    "Ġwe": 388,
    "Ġcanst": 8861,
    "Ġgreen": 3055,
    "Ġderived": 8239,
    "inconsiderable": 21194,
    "Ġdecreas": 1649,
    "appointment": 24062,
    "irregular": 21915,
    "neighbouring": 19967,
    "Ġbridal": 14957,
    "Ġbugs": 13652,
    "Ġsuppl": 11080,
    "general": 7489,
    "deliver": 19507,
    "hangs": 15372,
    "Ġfitting": 21411,
    "Ġfordham": 21780,
    "Ġwitnesses": 9489,
    "Ġarmchair": 8271,
    "Ġburtons": 19255,
    "Ġidiot": 11976,
    "ression": 3405,
    "bestow": 16931,
    "Ġceti": 24772,
    "conclude": 24069,
    "Ġsparkled": 13466,
    "tumult": 12427,
    "ondescript": 22918,
    "reasoning": 9479,
    "Ġsplin": 8622,
    "Ġmuscle": 14691,
    "Ġvaliantly": 22805,
    "Ġshifting": 12773,
    "Ġincommunicable": 26613,
    "iment": 2816,
    "Ġgay": 5535,
    "Ġliv": 6681,
    "Ġreflections": 5948,
    "Ġalt": 18101,
    "Ġhadn": 9722,
    "Ġrebounds": 25968,
    "Ġconsid": 1811,
    "confirmation": 26090,
    "Ġorphans": 20207,
    "Ġshades": 9466,
    "bull": 13694,
    "Ġalive": 4401,
    "icorn": 15662,
    "Ġdarkly": 19116,
    "Ġcaptiv": 16259,
    "Ġinsincere": 26601,
    "Ġmira": 8408,
    "Ġlye": 21554,
    "Ġrational": 8482,
    "Ġguiltless": 16942,
    "rollable": 13948,
    "indul": 22374,
    "uel": 6967,
    "deepest": 22843,
    "unfearing": 21896,
    "keen": 12787,
    "Ġkneeling": 12147,
    "Ġsling": 21223,
    "amidst": 25653,
    "Ġstowing": 18077,
    "Ġzoned": 22823,
    "Ġdepending": 14291,
    "lac": 17591,
    "ologist": 22875,
    "Ġforeb": 12008,
    "recklessly": 25270,
    "Ġjub": 22299,
    "Ġanyone": 4461,
    "Ġpoets": 11825,
    "Ġcomical": 11680,
    "Ġbuttoned": 25369,
    "Ġhogshead": 26369,
    "Ġeloquent": 16116,
    "Ġdirect": 1470,
    "ernity": 18616,
    "thee": 9693,
    "Ġsuitable": 18281,
    "imet": 21709,
    "distinguish": 19575,
    "Ġheroines": 19754,
    "Ġregarded": 5762,
    "Ġcan": 474,
    "supplied": 10522,
    "Ġleaf": 15722,
    "Ġplainer": 23706,
    "enges": 13059,
    "Ġinsatiate": 19272,
    "Ġsuffered": 5649,
    "anite": 17839,
    "fainting": 20476,
    "Ġarist": 14164,
    "soles": 18684,
    "Ġinsertion": 26345,
    "Ġther": 17780,
    "Ġstoke": 10398,
    "Ġmanipulated": 25179,
    "ivered": 7007,
    "noble": 7923,
    "Ġtoilings": 24741,
    "Ġtash": 13823,
    "bul": 6951,
    "compan": 7301,
    "rates": 21041,
    "Ġvoyagings": 19237,
    "Ġheaven": 3364,
    "Ġdamps": 23478,
    "olog": 1085,
    "Ġyour": 635,
    "Ġdimmed": 24270,
    "Ġflapp": 23011,
    "savage": 15079,
    "Ġsanta": 26422,
    "oct": 7554,
    "Ġcupidity": 24535,
    "Ġexcuse": 5863,
    "Ġapplication": 2067,
    "Ġpeev": 22696,
    "bree": 15318,
    "Ġhimmalehs": 26232,
    "Ġdedu": 5584,
    "Ġmischief": 8544,
    "Ġmuseum": 15275,
    "Ġstole": 7953,
    "Ġapr": 12537,
    "Ġab": 527,
    "als": 2043,
    "inking": 6711,
    "83": 13684,
    "Ġenrolled": 21941,
    "Ġperuvian": 18452,
    "ption": 7398,
    "Ġting": 8399,
    "obser": 11101,
    "Ġunchanged": 22033,
    "Ġgoug": 17993,
    "Ġdiscoverers": 26037,
    "hammered": 19005,
    "ape": 1905,
    "Ġfowler": 16939,
    "Ġensu": 7875,
    "hear": 10149,
    "Ġstretching": 10018,
    "remediable": 26296,
    "Ġsl": 1497,
    "Ġalbertus": 25649,
    "Ġmourning": 13482,
    "intellect": 18824,
    "uplifted": 17697,
    "ves": 692,
    "Ġwharves": 13509,
    "Ġinvestigation": 9045,
    "Ġsatisfaction": 5667,
    "Ġ125": 24470,
    "door": 6195,
    "Ġresentful": 24632,
    "Ġbravery": 23840,
    "Ġmaterials": 11290,
    "Ġpin": 7162,
    "Ġshining": 8172,
    "stirring": 20429,
    "Ġlock": 5929,
    "Ġannoyed": 17202,
    "secret": 12241,
    "Ġchowder": 10282,
    "Ġtyp": 1129,
    "inisc": 15492,
    "Ġseas": 3081,
    "Ġunsur": 22024,
    "Ġcosine": 2373,
    "heeded": 13837,
    "scorn": 22994,
    "Ġbenevolence": 9530,
    "Ġglo": 1713,
    "ĭ": 238,
    "Ġemperor": 15162,
    "ak": 538,
    "oons": 12503,
    "Ġadventure": 5982,
    "Ġinboard": 17935,
    "Ġcalculus": 23986,
    "99": 1896,
    "Ġcoins": 11823,
    "Ġconvinced": 4208,
    "======": 9836,
    "tery": 14040,
    "natured": 7112,
    "dream": 8731,
    "Ġ10": 5250,
    "Ġwhitt": 18057,
    "false": 15358,
    "Ġeddy": 13550,
    "subsided": 25832,
    "featured": 24160,
    "misery": 13348,
    "Ġmoccas": 22438,
    "Ġpettic": 14844,
    "illed": 2620,
    "Ġdoleful": 18377,
    "Ġdeliverer": 11954,
    "Ġinspector": 6499,
    "Ġfaintness": 24571,
    "Ġinferiority": 17116,
    "Ġeh": 6988,
    "Ġunprejudiced": 18270,
    "man": 1055,
    "Ġray": 18645,
    "Ġshri": 5375,
    "Ġimagine": 3924,
    "Ġdeb": 4765,
    "Ġthank": 3793,
    "Ġgallery": 10527,
    "Ġgodfre": 14531,
    "Ġembra": 6580,
    "retired": 11940,
    "Ġadoption": 24951,
    "Ġnervous": 2404,
    "alled": 5912,
    "Ġcontemplated": 13468,
    "Ġbulk": 5591,
    "Ġushered": 18360,
    "Ġsoapstone": 20514,
    "Ġdisplay": 6429,
    "Ġskeletons": 16793,
    "Ġwithdra": 6399,
    "Ġenemies": 9041,
    "icil": 17974,
    "Ġwhirlpool": 20657,
    "Ġunaccountably": 26517,
    "Ġsimilar": 4918,
    "Ġgoes": 3854,
    "sav": 8097,
    "Ġisles": 8461,
    "Ġpresent": 1643,
    "consolation": 15156,
    "Ġglobe": 6077,
    "estab": 14173,
    "S": 55,
    "Ġerection": 24004,
    "perceived": 8862,
    "iloquent": 21729,
    "Ġbenef": 3490,
    "Ġinhabit": 5782,
    "shrugged": 22449,
    "Ġpatchwork": 24143,
    "tall": 17675,
    "Ġlunging": 24992,
    "Ġexists": 14044,
    "Ġlater": 6018,
    "Ġserenely": 13510,
    "Ġtistig": 26415,
    "Ġfatig": 6758,
    "Ġobliterated": 17408,
    "Ġexhausted": 8697,
    "Ġbarrels": 9439,
    "Ġfam": 1585,
    "Ġwindows": 4971,
    "ernation": 8212,
    "mock": 5174,
    "Ġconsecutive": 20705,
    "inative": 15488,
    "Ġthus": 2038,
    "Ġday": 957,
    "happening": 16567,
    "Ġconjoined": 21810,
    "Ġdepends": 1063,
    "Ġdischarge": 18557,
    "Ġpul": 2042,
    "Ġen": 392,
    "ia": 1257,
    "Ġbefore": 810,
    "Ġfools": 14484,
    "Ġerect": 6145,
    "ade": 882,
    "Ġpedest": 15067,
    "forward": 2190,
    "Ġhappiest": 11886,
    "Ġp": 289,
    "Ġfigure": 4209,
    "Ġcapital": 7980,
    "Ġgrind": 18735,
    "Ġxxxiv": 24970,
    "Ġtribe": 10753,
    "aphys": 15205,
    "shells": 26057,
    "Ġbridges": 24683,
    "Ġfailure": 13319,
    "Ġextravag": 11255,
    "Ġnursing": 12219,
    "Ġspices": 22134,
    "garious": 17560,
    "Ġinstruct": 2863,
    "conception": 22478,
    "Ġkissed": 10048,
    "doctor": 19097,
    "Ġcharity": 8866,
    "benevolently": 25601,
    "reliable": 21243,
    "Ġfitzwilliam": 5771,
    "Ġerskine": 17435,
    "Ġtipped": 17730,
    "Ġdisliked": 12896,
    "Ġcoff": 3509,
    "visual": 24225,
    "hitherto": 17286,
    "Ġentrances": 25835,
    "plish": 18209,
    "Ġhemis": 21687,
    "Ġjournal": 15222,
    "Ġ-": 1947,
    "loss": 22512,
    "Ġtelegra": 11897,
    "unwillingly": 21888,
    "Ġincor": 2606,
    "Ġmorals": 22975,
    "ingham": 21303,
    "Ġmonth": 2848,
    "ignorantly": 25190,
    "verb": 10219,
    "Ġoctavo": 15167,
    "rifled": 21050,
    "singular": 12193,
    "Ġsmitten": 12904,
    "Ġcautious": 12258,
    "Ġbend": 9173,
    "walking": 9985,
    "Ġroad": 3882,
    "search": 8467,
    "everybody": 8614,
    "elevating": 20409,
    "Ġunconsciously": 10008,
    "Ġpay": 3963,
    "Ġdream": 3539,
    "walked": 10573,
    "Ġbuttoning": 17238,
    "Ġridiculous": 10631,
    "rints": 12507,
    "Ġconcerned": 5332,
    "Ġgeorgia": 23889,
    "Ġslew": 23386,
    "white": 4603,
    "Ġhesitated": 10005,
    "Ġspectre": 16633,
    "Ġalchemists": 26489,
    "Ġneedlessly": 23631,
    "winding": 16722,
    "Ġlucases": 9013,
    "Ġharder": 14452,
    "archangel": 18786,
    "Ġwo": 3651,
    "Ġdesperate": 7777,
    "departed": 24793,
    "omically": 13979,
    "Ġapprehensiveness": 16879,
    "Ġbush": 23340,
    "speeches": 25240,
    "Ġexterior": 19991,
    "esteem": 26009,
    "Ġinstead": 2790,
    "generations": 23788,
    "Ġdefer": 18825,
    "Ġrust": 6409,
    "Ġseparately": 13307,
    "notches": 22755,
    "vity": 7815,
    "title": 17290,
    "Ġblocked": 19224,
    "Ġeyelashes": 26107,
    "Ġredeemed": 25790,
    "Ġimposing": 11785,
    "Ġfelicity": 7260,
    "Ġmorass": 22974,
    "Ġassur": 6075,
    "Ġincrust": 22554,
    "Ġbringing": 5871,
    "uend": 21104,
    "Ġintersect": 22579,
    "Ġhardihood": 23115,
    "Ġintrepid": 11710,
    "bab": 11470,
    "Ġscenery": 11458,
    "occasion": 7754,
    "devil": 7895,
    "Ġtooth": 9195,
    "Ġberth": 8683,
    "tribute": 21091,
    "frequent": 15357,
    "Ġausten": 5882,
    "rr": 17652,
    "Ġpolice": 4675,
    "Ġgenus": 24429,
    "yden": 21146,
    "fig": 8738,
    "Ġdelightfully": 13162,
    "ĩ": 234,
    "Ġrecords": 12200,
    "Ġcherished": 10593,
    "Ġhall": 4186,
    "Ġtrees": 4205,
    "Ġprovoking": 16745,
    "Ġbands": 14887,
    "Ġfearfulness": 23516,
    "sch": 21053,
    "clock": 3933,
    "Ġderision": 16314,
    "tied": 21073,
    "Ġbam": 15571,
    "Ġallusions": 10908,
    "uling": 2256,
    "Ġl": 303,
    "Ġstraw": 9432,
    "Ġwind": 1433,
    "Ġbeads": 18086,
    "Ġunlock": 18244,
    "Ġstool": 14464,
    "Ġunsavory": 20709,
    "Ġneedn": 19230,
    "porpoise": 16438,
    "Ġannual": 14835,
    "irresistible": 18176,
    "Ġwhir": 6394,
    "Ġsermons": 20197,
    "Ġrussia": 26269,
    "verty": 8454,
    "Ġaccidentally": 9508,
    "iple": 4807,
    "Ġloitered": 26527,
    "bern": 20777,
    "Ġtravels": 11931,
    "altogether": 12644,
    "mber": 5850,
    "prove": 11149,
    "Ġpract": 1825,
    "hack": 20898,
    "Ġpersuading": 19413,
    "Ġimperson": 14221,
    "Ġexactly": 2768,
    "Ġsuav": 22086,
    "Ġowe": 8115,
    "battering": 20788,
    "Ġslices": 23168,
    "amaz": 21854,
    "Ġgrowl": 16540,
    "nostr": 22739,
    "utional": 17986,
    "Ġarrested": 9563,
    "Ġberkshire": 16886,
    "fare": 7799,
    "Ġmathematics": 12078,
    "Ġblinded": 13274,
    "wish": 8100,
    "Ġanno": 9670,
    "itives": 17821,
    "Ġpointed": 4774,
    "indirectly": 18438,
    "knot": 13748,
    "Ġequals": 4727,
    "illating": 22111,
    "Ġpencils": 23197,
    "Ġtreatment": 12076,
    "Ġsixty": 7723,
    "Ġegg": 8823,
    "Ġindicated": 10471,
    "Ġincoherent": 17403,
    "Ġpenalties": 10414,
    "ifying": 5235,
    "totally": 25418,
    "Ġpark": 5465,
    "Ġyes": 2687,
    "Ġdepression": 21844,
    "Ġo": 275,
    "Ġbud": 10171,
    "į": 240,
    "approaching": 15014,
    "Ġirritation": 20269,
    "rudential": 16711,
    "Ġwane": 21291,
    "Ġforetold": 23454,
    "Ġ103": 24411,
    "shut": 10981,
    "Ġputting": 5327,
    "dropped": 12267,
    "Ġmarshy": 20221,
    "intended": 11068,
    "swaying": 25911,
    "Ġdyspeps": 16518,
    "Ġportly": 14680,
    "Ġpressed": 6043,
    "Ġfits": 8795,
    "Ġbrown": 6300,
    "Ġdeaden": 23464,
    "Ġfit": 3684,
    "Ġsoothing": 8173,
    "Ġindec": 13931,
    "Ġhovers": 19080,
    "declare": 25174,
    "Ġnavigation": 9996,
    "Ġtrooped": 24900,
    "canonical": 22968,
    "dawson": 26129,
    "Ġcanes": 22170,
    "rid": 5137,
    "photograph": 16157,
    "Ġspo": 6846,
    "Ġcontradictory": 20400,
    "Ġhell": 5019,
    "Ġunharmed": 15143,
    "Ġtropic": 17065,
    "Ġpriest": 7526,
    "Ġclusters": 25233,
    "formed": 2551,
    "Ġmortals": 9919,
    "Ġoverpowered": 15292,
    "igns": 8449,
    "Ġlust": 9200,
    "desolate": 25717,
    "Ġinjunction": 19620,
    "bub": 15320,
    "Ġplain": 2817,
    "Ġgener": 590,
    "Ġvowed": 14087,
    "might": 4076,
    "Ġcommenced": 8534,
    "Ġdanced": 7842,
    "Ġjam": 10953,
    "Ġview": 2762,
    "Ġj": 533,
    "Ġway": 1089,
    "Ġdrown": 6816,
    "Ġflooded": 24962,
    "Ġdumbly": 24988,
    "Ġmyst": 4048,
    "lighted": 23756,
    "Ġxl": 11994,
    "Ġtrophy": 20010,
    "entropy": 1438,
    "Ġtout": 17721,
    "Ġyet": 1029,
    "Ġcircle": 4977,
    "bishop": 13698,
    "pag": 11513,
    "bony": 15323,
    "elop": 1555,
    "wives": 15459,
    "Ġoppress": 13176,
    "Ġtelling": 5747,
    "Ġseven": 4543,
    "Ġcompliments": 8636,
    "resolutions": 26165,
    "eyed": 11489,
    "Ġcetology": 10012,
    "Ġtransparency": 10679,
    "Ġsignificant": 8637,
    "Ġtroubles": 19442,
    "Ġvindict": 13609,
    "great": 3518,
    "problems": 11436,
    "crippled": 26386,
    "Ġclumsy": 9582,
    "Ġheight": 4222,
    "Ġhooks": 14971,
    "Ġrelationship": 2314,
    "Ġefforts": 11806,
    "Ġabatement": 22280,
    "Ġsmaller": 1885,
    "hyme": 19612,
    "Ġimprobable": 9795,
    "atra": 17773,
    "subjects": 19878,
    "Ġsubstit": 19543,
    "Ġinterposed": 20622,
    "bing": 7792,
    "Ġrank": 6260,
    "Ġclam": 7416,
    "treat": 12518,
    "watery": 19829,
    "Ġprobabilities": 4966,
    "hawks": 24695,
    "Ġfuss": 13908,
    "Ġsilently": 6894,
    "Ġsmiting": 12903,
    "Ġfronts": 19002,
    "what": 642,
    "forest": 22522,
    "Ġerred": 21159,
    "Ġnay": 5711,
    "ians": 2360,
    "Ġarticles": 7110,
    "Ġsensibility": 14515,
    "Ġhandy": 12941,
    "ffy": 18317,
    "free": 8739,
    "Ġporthole": 24399,
    "clam": 13060,
    "rom": 420,
    "Ġstamp": 7864,
    "ifies": 6688,
    "Ġfarthing": 14457,
    "Ġencouraging": 2262,
    "bey": 10317,
    "shadows": 25480,
    "Ġinterference": 8897,
    "Ġexponentially": 1444,
    "R": 54,
    "Ġimbalanced": 18334,
    "Ġdom": 2699,
    "Ġlashing": 11619,
    "Ġcomplaint": 24775,
    "Ġentit": 22743,
    "youn": 5690,
    "Ġrushes": 20511,
    "Ġmodes": 22223,
    "Ġchristmas": 6924,
    "Ġclimate": 9278,
    "Ġvillainous": 25134,
    "Ġhal": 1360,
    "Ġfusion": 21417,
    "Ġpython": 1073,
    "Ġprocopius": 19734,
    "winter": 10742,
    "Ġsweep": 8266,
    "Ġcedar": 15192,
    "Ġsunday": 7270,
    "ruin": 22190,
    "Ġplied": 22603,
    "Ġpriority": 19765,
    "Ġcharger": 19006,
    "ripp": 6406,
    "Ġridge": 14822,
    "Ġsuperior": 2753,
    "Ġpantry": 20298,
    "Ġhatches": 12049,
    "Ġland": 1999,
    "Ġaffliction": 25846,
    "render": 10293,
    "Ġiceberg": 14719,
    "Ġinj": 4761,
    "Ġepoch": 26473,
    "tranquil": 25871,
    "Ġstrip": 9424,
    "Ġschools": 9480,
    "Ġelemental": 19921,
    "impetuous": 23765,
    "anned": 17841,
    "Ġaforethought": 25429,
    "Ġlovel": 10274,
    "sig": 2873,
    "pidation": 18897,
    "izes": 885,
    "odings": 4402,
    "Ġrobe": 18460,
    "Ġprec": 2918,
    "Ġplun": 6283,
    "Ġilluminated": 20178,
    "Ġpertin": 18449,
    "Ġmund": 21321,
    "Ġcharge": 5325,
    "Ġoverjoy": 15974,
    "Ġtable": 2499,
    "Ġexile": 12722,
    "Ġbody": 2437,
    "Ġhieroglyphic": 25588,
    "sharks": 14240,
    "oglyph": 11019,
    "accountable": 7111,
    "Ġmouth": 3183,
    "Ġintend": 12769,
    "Ġpeak": 16131,
    "tures": 21072,
    "Ġscre": 9740,
    "pivot": 21033,
    "or": 282,
    "caterpillar": 26385,
    "Ġrazor": 22663,
    "Ġtallest": 15478,
    "Ġtumultuous": 10618,
    "Ġaffidavit": 20726,
    "osop": 4407,
    "endure": 22225,
    "adventure": 17236,
    "b": 70,
    "clinging": 20824,
    "dimly": 15350,
    "Ġresounds": 22546,
    "Ġreigns": 21674,
    "Ġdefiance": 11070,
    "Ġjudge": 5502,
    "Ġwallowing": 24046,
    "vol": 725,
    "Ġsteam": 9356,
    "Ġaug": 6236,
    "finger": 10096,
    "Ġpersecutor": 26097,
    "Ġ37": 24079,
    "Ġsalmon": 24064,
    "uced": 13803,
    "Ġsolving": 2482,
    "Ġseized": 4835,
    "Ġmiracle": 15097,
    "Ġassemblage": 26354,
    "Ġshe": 466,
    "ondency": 15273,
    "Ġhalyards": 21497,
    "Ġcompanion": 3644,
    "Ġstunsail": 25544,
    "Ġwindings": 18911,
    "Ġdispel": 16598,
    "Ġabominable": 12326,
    "Ġdissu": 18551,
    "Ġbackstays": 22648,
    "Ġear": 1421,
    "Ġplants": 22604,
    "Ġrecurred": 18977,
    "eland": 11623,
    "Ġmelancholy": 5606,
    "Ġtrough": 15980,
    "Ġbloody": 9891,
    "both": 5785,
    "Ġdevelopments": 23272,
    "Ġnar": 7375,
    "oriously": 17876,
    "chari": 21692,
    "Ġcasually": 25096,
    "Ġtheoretic": 23314,
    "heav": 5694,
    "Ġdiverged": 23596,
    "Ġclams": 19992,
    "scissors": 20729,
    "Ġhandsom": 11126,
    "Ġspikes": 22140,
    "scar": 9819,
    "Ġcommons": 22675,
    "Ġsale": 14156,
    "Ġgrasshopper": 24380,
    "Ġfold": 5531,
    "Ġprofess": 3699,
    "allet": 11084,
    "Ġwhims": 12697,
    "Ġnovelties": 24777,
    "Ġbeckoning": 20505,
    "ring": 1750,
    "Ġdurst": 20355,
    "prises": 23817,
    "Ġcol": 1060,
    "placidity": 25989,
    "Ġstiggs": 25793,
    "anks": 3917,
    "Ġinflict": 15003,
    "honorable": 19903,
    "Ġcontrolled": 23251,
    "Ġphilipses": 24452,
    "Ġsentence": 6189,
    "pronouncing": 25194,
    "Ġformations": 18751,
    "Ġegotistical": 26193,
    "Ġtowing": 9196,
    "cro": 13700,
    "Ġmomentum": 1601,
    "Ġmeal": 9700,
    "Ġfactory": 23278,
    "Ġplague": 11828,
    "Ġcatastrophic": 3544,
    "breat": 10081,
    "Ġbride": 6293,
    "Ġoutline": 15959,
    "Ġaccidents": 10298,
    "Ġconversed": 13190,
    "ugging": 23292,
    "Ġstuck": 9225,
    "Ġchast": 18380,
    "Ġvi": 1956,
    "Ġwond": 3939,
    "Ġn": 300,
    "Ġbingley": 1676,
    "Ġindicate": 23724,
    "Ġfath": 7364,
    "native": 17614,
    "Ġinfatuation": 25857,
    "Ġst": 333,
    "erness": 6435,
    "dissatisfied": 26614,
    "Ġhorses": 6386,
    "Ġwonderland": 23427,
    "Ġlur": 5226,
    "helmsman": 24289,
    "Ġoccasions": 7988,
    "omorrah": 18020,
    "oundered": 14167,
    "ross": 807,
    "Ġgrow": 2859,
    "_.,": 14565,
    "Ġ71": 24262,
    "Ġlowest": 11124,
    "encoun": 12302,
    "Ġepis": 19985,
    "inery": 17735,
    "Ġmusket": 12300,
    "position": 15417,
    "Ġcruisings": 25865,
    "Ġoverlooked": 15976,
    "Ġsoftness": 18919,
    "derer": 4601,
    "Ġfastidious": 14494,
    "Ġobscured": 15013,
    "Ġcategor": 4139,
    "ement": 1501,
    "buncle": 13696,
    "Ġsol": 1105,
    "Ġconn": 9232,
    "Ġrepressed": 21671,
    "chancing": 22916,
    "ately": 1674,
    "Ġthrusting": 10555,
    "Ġmed": 4179,
    "hurry": 24762,
    "Ġoutsk": 15961,
    "ef": 5134,
    "Ġoppressively": 25711,
    "nesday": 8706,
    "viv": 17700,
    "Ġmodified": 14170,
    "akin": 11771,
    "Ġtransport": 11280,
    "oting": 2745,
    "outer": 9671,
    "Ġexponential": 1059,
    "eral": 9162,
    "bber": 4569,
    "Ġstirs": 14920,
    "intment": 4720,
    "aspect": 10196,
    "Ġobsequious": 17407,
    "despair": 8344,
    "started": 10847,
    "neying": 22462,
    "swam": 24257,
    "Ġlevel": 5020,
    "Ġintellect": 8170,
    "Ġpreferment": 19855,
    "Ġbetray": 7442,
    "mies": 20970,
    "Ġvalidate": 3102,
    "Ġhoe": 23354,
    "abst": 21792,
    "Ġpalmed": 24092,
    "gered": 9279,
    "Ġtartar": 17325,
    "Ġneedles": 11186,
    "catch": 17509,
    "pest": 6965,
    "Ġpursuit": 4733,
    "harpoon": 9494,
    "Ġcollection": 8223,
    "bowl": 14894,
    "Ġwrites": 23200,
    "Ġmeridians": 17358,
    "Ġblocks": 6323,
    "Ġnotes": 7189,
    "Ġrowing": 10303,
    "È": 137,
    "Ġfrenzy": 13626,
    "indust": 18436,
    "iluvian": 18063,
    "being": 3914,
    "Ġsketch": 16170,
    "Ġrains": 24340,
    "slave": 16897,
    "undertaking": 23790,
    "Ġremembered": 5277,
    "Ġpurse": 12015,
    "money": 8753,
    "Ġagreeably": 24955,
    "Ġtrait": 23077,
    "Ġpott": 21471,
    "Ġfragment": 14505,
    "Ġchurning": 15942,
    "Ġcreditor": 24292,
    "Ġtoy": 15639,
    "Ġrejoined": 14930,
    "Ġrelated": 3716,
    "Ġtorrid": 25035,
    "Ġallow": 1126,
    "steaks": 23964,
    "Ġabiding": 22274,
    "hour": 7340,
    "Ġexplo": 2283,
    "cor": 5520,
    "oms": 4594,
    "Ġhelm": 5276,
    "Ġdisgrace": 7215,
    "Ġelephant": 8256,
    "Ġmanufactured": 22334,
    "Ġbaleful": 24985,
    "Ġnegative": 1463,
    "Ġparasol": 22125,
    "oise": 15408,
    "Ġsparks": 22136,
    "Ġlassitude": 20590,
    "ropy": 1104,
    "expense": 22433,
    "Ġgaily": 16750,
    "Ġleap": 5824,
    "ituted": 13876,
    "Ġadds": 1804,
    "reeable": 3613,
    "invite": 25091,
    "distinct": 13340,
    "Ġobliquely": 12366,
    "Ġthoughtless": 16197,
    "za": 13813,
    "Ġestimated": 16596,
    "Ġconsp": 10227,
    "Ġunderstood": 5655,
    "Ġprogen": 14042,
    "Ġmalay": 24391,
    "Ġstammered": 26201,
    "thoughtfully": 24047,
    "Ġmerchant": 6468,
    "Ġprognost": 15285,
    "Ġcomplied": 14737,
    "Ġtaking": 3252,
    "sequ": 2400,
    "stationed": 25454,
    "onent": 21251,
    "Ġclifford": 22358,
    "mar": 4338,
    "Ġho": 1932,
    "Ġvoyage": 3057,
    "Ġseriously": 7062,
    "Ġpleasantly": 14522,
    "Ġroses": 11790,
    "coach": 23562,
    "âĢľ": 344,
    "Ġany": 687,
    "Ġanywhere": 8519,
    "Ġsmiles": 6708,
    "Ġbreckinridge": 14525,
    "ity": 417,
    "Ġprick": 14479,
    "Ġderick": 9367,
    "Ġcalam": 13039,
    "Ġfew": 1180,
    "Ġwhy": 1757,
    "Ġejaculated": 15173,
    "ugnance": 12370,
    "duty": 20242,
    "Ġeloped": 22653,
    "lucky": 24545,
    "Ġphilosopher": 12188,
    "progress": 11992,
    "Ġuntil": 2666,
    "Ġgroping": 13669,
    "Ġpassions": 7930,
    "enemy": 15531,
    "Ġcherub": 23289,
    "Ġpythag": 26450,
    "-": 17,
    "ason": 1275,
    "Ġpausing": 8656,
    "love": 9297,
    "speptic": 23949,
    "high": 6652,
    "Ġjoking": 12842,
    "Ġselfishness": 12293,
    "Ġbust": 10170,
    "Ġwondrous": 4736,
    "Ħ": 231,
    "follows": 24528,
    "Ġcomfortable": 6096,
    "Ġdigging": 14941,
    "Ġreligions": 20111,
    "Ġfibres": 12956,
    "Ġorganisation": 23585,
    "Ġahead": 6665,
    "Ġprehensile": 26536,
    "sombre": 23857,
    "Ġnimble": 21531,
    "Ġwithstand": 10228,
    "Ġcompat": 2936,
    "Ġenjoy": 3761,
    "afford": 14656,
    "Ġdeject": 10882,
    "attracted": 13056,
    "Ġident": 2239,
    "Ġboast": 7036,
    "Ġtumbling": 13828,
    "Ġthinker": 22814,
    "surgeon": 24217,
    "lers": 10109,
    "Ġnecessitates": 23933,
    "15": 12434,
    "ial": 412,
    "Ġrelics": 16200,
    "Ġpair": 5706,
    "Ġpugn": 21483,
    "angu": 563,
    "supportable": 12374,
    "society": 9975,
    "Ġsebastian": 11700,
    "looked": 6084,
    "Ġenormous": 5609,
    "Ġshape": 5639,
    "Ġsturgeon": 20595,
    "Ġcre": 887,
    "tains": 10963,
    "ificial": 616,
    "sentimental": 25682,
    "Ġadjac": 18293,
    "msgate": 18413,
    "Ġcaroline": 7255,
    "Ġescaping": 13139,
    "Ġfiend": 4414,
    "Ġrefreshment": 17242,
    "Ġengaging": 9339,
    "Ġdireful": 11020,
    "Ġstock": 7455,
    "bourne": 19104,
    "Ġbarbed": 14838,
    "wretchedness": 17255,
    "Ġphrenologists": 25609,
    "frightened": 17198,
    "Ġoutlined": 22324,
    "Ġstrives": 23697,
    "Ġriv": 10748,
    "ations": 710,
    "Ġsubord": 22792,
    "Ġasiatics": 20434,
    "Ġadvertisement": 6941,
    "Ġfullest": 14817,
    "Ġwinc": 9645,
    "itely": 5365,
    "Ġconvey": 9984,
    "impenetrable": 26198,
    "Ġhunt": 6185,
    "Ġisrael": 21807,
    "stolen": 13985,
    "Ġhulls": 13929,
    "Ġsubmission": 22794,
    "igators": 18048,
    "Ġaccepted": 7751,
    "Ġmonsieur": 12425,
    "prejudiced": 17300,
    "Ġjonas": 20612,
    "variance": 2651,
    "¿": 128,
    "Ġimplement": 2998,
    "Ġnative": 4641,
    "torm": 11533,
    "Ġimpossible": 3545,
    "pt": 387,
    "Ġswallowed": 7944,
    "Ġvigilant": 20187,
    "Ġphil": 3385,
    "arse": 7161,
    "Ġastronomy": 25927,
    "hyena": 24255,
    "Ġfainted": 8796,
    "Ġhides": 16266,
    "Ġundoing": 22037,
    "ised": 1062,
    "Ġrejo": 5917,
    "Ġsacred": 10930,
    "Ġenvelope": 7319,
    "grown": 10102,
    "Ġknocked": 9503,
    "Ġjeopardized": 20233,
    "powers": 25411,
    "Ġrush": 5926,
    "conditionally": 24835,
    "Ġmungo": 25632,
    "tackles": 25625,
    "g": 75,
    "Ġsimilitude": 19212,
    "Ġrecently": 11864,
    "Ġchips": 14182,
    "Ġresting": 7962,
    "Ġscientific": 6857,
    "Ġbaron": 19336,
    "unvarying": 21891,
    "Ġforbe": 8459,
    "ners": 3273,
    "Ġnews": 3820,
    "Ġsurmis": 23467,
    "Ġassembled": 9239,
    "tender": 14476,
    "suspected": 12376,
    "increase": 20271,
    "kick": 20938,
    "Ġreceives": 20357,
    "quadrille": 20598,
    "Ġcalmer": 23045,
    "Ġdifficulty": 5770,
    "Ġstructured": 2969,
    "Ġdefici": 22948,
    "oard": 4810,
    "Ġpatronage": 17054,
    "Ġsquare": 2396,
    "H": 44,
    "Ġhalloa": 13321,
    "Ġtoe": 13939,
    "Ġdried": 7367,
    "recognised": 15266,
    "concern": 6101,
    "Ġwaterloo": 11985,
    "Ġlose": 5028,
    "Ġalterations": 19873,
    "mish": 17600,
    "Ġaverred": 18867,
    "plumed": 21965,
    "Ġcoleridge": 18769,
    "Ġdarkness": 4280,
    "Ġswam": 6449,
    "Ġoptimizers": 18626,
    "Ġengineer": 11979,
    "Ġamongst": 8962,
    "descried": 11933,
    "either": 6792,
    "Ġclassify": 1614,
    "ification": 1008,
    "Ġvulture": 17342,
    "Ġbeautiful": 3672,
    "uarded": 21108,
    "please": 8177,
    "drunk": 24660,
    "continual": 20646,
    "charlotte": 6474,
    "contrary": 23730,
    "Ġprof": 2460,
    "alluring": 18353,
    "Ġpipeline": 2344,
    "Ġobtaining": 16137,
    "Ġfurled": 22817,
    "Ġdocks": 14178,
    "Ġsquall": 7045,
    "neath": 12870,
    "Ġquote": 18467,
    "Ġhide": 4590,
    "Ġhuff": 21493,
    "Ġgans": 5822,
    "izing": 1071,
    "magnifying": 25393,
    "Ġendowed": 18925,
    "Ġ>": 21154,
    "Ġangels": 11180,
    "Ġtarpaul": 17732,
    "crowded": 20193,
    "Ġemergencies": 17365,
    "Ġclue": 7021,
    "Ġdeficiencies": 26572,
    "Ġidentified": 19152,
    "Ġworms": 25217,
    "istence": 2402,
    "Ġstrangled": 24134,
    "Ġmultiplied": 23692,
    "rive": 9710,
    "atiously": 15526,
    "Ġdes": 1249,
    "Ġ88": 19714,
    "Ġdup": 21430,
    "bering": 18695,
    "Ġlawless": 19438,
    "Ġmem": 2166,
    "Ġsimilarly": 24310,
    "_,âĢĻâĢĿ": 20404,
    "Ġlany": 21557,
    "Ġmelted": 19624,
    "ideas": 18582,
    "Ġscales": 4851,
    "Ġaugmented": 15109,
    "kye": 20940,
    "Ġflickering": 23017,
    "Ġvictims": 19807,
    "apt": 715,
    "bennet": 5353,
    "Ġwarned": 16882,
    "Ġrow": 5246,
    "Ġperadventure": 22401,
    "Ġimplicate": 24877,
    "Ġireland": 17338,
    "Ġcommun": 1705,
    "soled": 14331,
    "Ġdisappo": 4507,
    "Ġclaps": 22351,
    "ving": 593,
    "Ġtattered": 21174,
    "brothers": 17026,
    "Ġancest": 12619,
    "Ġcoop": 14273,
    "cheer": 9440,
    "neither": 9761,
    "Ġfavourably": 16366,
    "Ġbulkington": 14679,
    "Ġdismissed": 12897,
    "Ġscr": 11764,
    "Ġfowl": 11332,
    "Ġsignify": 16497,
    "Ġ(": 594,
    "Ġconducted": 10505,
    "Ġeducated": 16787,
    "spin": 22726,
    "Ġashes": 7617,
    "Ġequatorial": 13512,
    "inferences": 17741,
    "Ġdiscove": 16160,
    "Ġprophe": 13083,
    "Ġ75": 19615,
    "sn": 7140,
    "Ġbushes": 16404,
    "Ġgilt": 21609,
    "Ġpersuade": 5874,
    "rence": 5555,
    "Ġprodigiously": 14935,
    "glances": 23856,
    "Ġbeats": 21756,
    "Ġtesting": 23224,
    "Ġfisher": 3224,
    "porary": 14554,
    "Ġnotorious": 18224,
    "Ġdistances": 22508,
    "Ġinclination": 6626,
    "Ġeigenvalues": 4998,
    "aiian": 23594,
    "Ġscor": 8190,
    "dial": 20827,
    "Ġholiday": 13002,
    "doubtless": 17004,
    "Ġpreceded": 13432,
    "Ġmariners": 6069,
    "oa": 9615,
    "Ġdrow": 21429,
    "employed": 17264,
    "hus": 5072,
    "strip": 19833,
    "Ġhang": 9190,
    "Ġbeginning": 4246,
    "Ġpunchbowl": 20234,
    "Ġadam": 2127,
    "poured": 17639,
    "Ġappal": 18357,
    "Ġthomson": 26456,
    "Ġscrutiny": 26016,
    "Ġkid": 9728,
    "rubbery": 17345,
    "Ġat": 395,
    "Ġsheltered": 19913,
    "Ġmixing": 24937,
    "Ġvide": 10253,
    "Ġapplying": 13096,
    "Ġever": 1181,
    "begone": 12884,
    "tri": 11532,
    "Ġspoils": 24805,
    "Ġtyphoon": 12393,
    "Ġexamination": 8005,
    "//": 11465,
    "Ġjing": 15954,
    "atching": 8202,
    "irwin": 8471,
    "jaws": 20934,
    "Ġstren": 15728,
    "Ġshine": 12771,
    "Ġdiffident": 23786,
    "dling": 15343,
    "brushing": 20790,
    "Ġreader": 11938,
    "Ġornament": 11724,
    "Ġsnug": 8280,
    "Ġleeward": 6212,
    "Ġenabled": 9299,
    "ulent": 21866,
    "Ġimpud": 18445,
    "Ġinsignific": 13184,
    "Ġsensitivity": 3072,
    "pered": 4200,
    "Ġdepressions": 25799,
    "ŀ": 257,
    "voy": 7145,
    "astes": 11743,
    "placed": 7880,
    "Ġrecogn": 2664,
    "Ġbodies": 8032,
    "vess": 7354,
    "Ġgroaned": 11268,
    "whims": 22243,
    "Ġwrapt": 24596,
    "Ġhearts": 4972,
    "Ġmagnificence": 20635,
    "recked": 17764,
    "Ġaccounting": 14575,
    "Ġacute": 16128,
    "mosp": 8089,
    "Ġtraffic": 23086,
    "desolation": 20462,
    "Ġflourish": 17163,
    "Ġfill": 5701,
    "Ġslime": 23164,
    "Ġthirty": 4944,
    "rael": 21632,
    "Ġassuring": 13069,
    "ignant": 11131,
    "Ġsens": 1853,
    "Ġchildren": 3768,
    "Ġdeer": 12725,
    "Ġcommunicative": 24548,
    "unctuous": 21886,
    "fellow": 6793,
    "glo": 8741,
    "Ġrage": 5110,
    "ushed": 2968,
    "enance": 3370,
    "Ġslugg": 15272,
    "trans": 5594,
    "Ġendurance": 23141,
    "Ġindistinctly": 26118,
    "daggoo": 13710,
    "masters": 16836,
    "oid": 3130,
    "ctor": 13963,
    "Ġthroes": 24575,
    "canoes": 16235,
    "output": 4404,
    "obviously": 25243,
    "Ġboon": 22642,
    "deemed": 18316,
    "Ġbelong": 3887,
    "bunger": 20405,
    "Ġgreenwich": 19323,
    "30": 20756,
    "Ġblown": 12090,
    "Ġmermaids": 26171,
    "Ġvault": 8845,
    "mare": 17601,
    "tis": 4105,
    "stating": 21650,
    "Ġancho": 15608,
    "Ġmemory": 2273,
    "Ġletter": 2199,
    "Ġperches": 18448,
    "breakfast": 8691,
    "Ġblasphemer": 26117,
    "reduc": 5459,
    "Ġprize": 11952,
    "linearity": 1651,
    "determ": 7107,
    "Ġerie": 20057,
    "Ġsighing": 18677,
    "Ġadvocate": 13680,
    "Ġadvanced": 1543,
    "Ġvillanous": 24057,
    "Ġsmoky": 22562,
    "Ġembattled": 26283,
    "ornamented": 26597,
    "Ġluck": 4881,
    "ux": 7813,
    "Ġjavel": 17085,
    "Ġmotions": 8281,
    "fellows": 12278,
    "Ġhonestly": 19975,
    "Ġdistingu": 2513,
    "semble": 1525,
    "ign": 1702,
    "Ġpupils": 20424,
    "Ġenriched": 26501,
    "Ġliveliness": 13647,
    "Ġgases": 21605,
    "Ġkrem": 9729,
    "Ġarriving": 19219,
    "nurs": 21001,
    "Ġstrung": 22621,
    "Ġidolator": 20001,
    "laws": 19810,
    "retion": 9365,
    "Ġscold": 10952,
    "Ġgard": 2192,
    "instinct": 19546,
    "âĢĿ)": 21818,
    "aped": 3765,
    "computer": 1940,
    "Ġbale": 7838,
    "ã": 164,
    "tern": 4226,
    "iar": 2378,
    "Ġfigured": 16646,
    "Ġdeem": 18136,
    "Ġwallow": 19469,
    "imming": 9690,
    "Ġmechanical": 7937,
    "Ġessentially": 24925,
    "interrupted": 11419,
    "Ġcloser": 8663,
    "ħ": 232,
    "Ġamendment": 26025,
    "phon": 4127,
    "Ġsatisf": 2806,
    "Ġenhance": 2955,
    "Ġhumble": 8554,
    "sought": 15431,
    "itudes": 3014,
    "inc": 2519,
    "leeward": 15214,
    "band": 3061,
    "Ġwolves": 25935,
    "apothe": 22339,
    "._)": 10483,
    "Ġtemperate": 16168,
    "Ġinconven": 7587,
    "ribe": 1227,
    "ash": 1994,
    "ane": 1177,
    "Ġceler": 15556,
    "lutions": 20952,
    "Ġinterior": 8898,
    "Ġauthor": 4378,
    "Ġcoarsely": 25830,
    "Ġshyness": 20309,
    "Ġdisappointment": 6629,
    ",âĢĶâĢĺ": 23805,
    "Ġinvite": 14566,
    "future": 13720,
    "Ġaut": 1840,
    "Ġauthorized": 16737,
    "interchange": 23740,
    "Ġrelate": 6875,
    "judges": 19576,
    "Ġscanning": 18400,
    "represent": 9640,
    "Ġcontrived": 10306,
    "Ġdistension": 22509,
    "Ġaccomplice": 24376,
    "anter": 9169,
    "colour": 9906,
    "Ġsecluded": 11997,
    "Ġsymp": 4504,
    "matical": 13133,
    "<": 32,
    "coff": 9112,
    "ladies": 9532,
    "jected": 22717,
    "sal": 8761,
    "Ġremark": 2146,
    "chain": 18042,
    "plenty": 14094,
    "Ġje": 4123,
    "zeal": 16276,
    "Ġbumpkin": 20203,
    "leviathans": 19941,
    "Ġsmothe": 18574,
    "Ġavast": 9923,
    "Ġdispositions": 13237,
    "Ġrevolve": 19733,
    "ipagos": 22361,
    "Ġunfeeling": 14122,
    "restored": 18979,
    "Ġpropriety": 10013,
    "opol": 12878,
    "Ġemploys": 19434,
    "Ġsum": 2701,
    "tea": 18743,
    "Ġnow": 691,
    "Ġoccasionally": 5590,
    "Ġanalogy": 25640,
    "Ġslaugh": 18940,
    "momentum": 4991,
    "trouble": 8296,
    "Ġearthquake": 14630,
    "ospel": 17012,
    "spikes": 10342,
    "Ġvancouver": 26567,
    "Ġliber": 5168,
    "ons": 709,
    "sky": 12515,
    "Ġsleepers": 13153,
    "mightily": 24103,
    "Ġtimber": 13354,
    "greatly": 16626,
    "Ġstair": 8457,
    "collected": 13217,
    "quered": 11063,
    "olidity": 18135,
    "bled": 5469,
    "Ġcumbrous": 26434,
    "perfect": 7635,
    "Ġunworthy": 11719,
    "Ġwreck": 7314,
    "sudden": 5316,
    "Ġaudible": 19883,
    "Ġmagistrate": 8234,
    "Ġdearer": 14052,
    "model": 4056,
    "Ġseams": 12129,
    "Ġdragging": 14477,
    "seek": 8841,
    "Ġexplanation": 6694,
    "ern": 765,
    "Ġcynicism": 25772,
    "fixed": 7548,
    "Ġmap": 2391,
    "nades": 20999,
    "Ġinsol": 10183,
    "listened": 15046,
    "rocious": 21542,
    "shame": 16023,
    "Ġacquisition": 18900,
    "Ġnoises": 18374,
    "Ġgrop": 12669,
    "gaff": 20884,
    "Ġtick": 8109,
    "Ġheading": 8938,
    "Ġprecious": 5760,
    "Ġdeposited": 25485,
    "ilities": 6992,
    "neighbour": 7211,
    "Ġcommend": 10337,
    "Ġranges": 2882,
    "Ġ115": 24439,
    "Ġoverflowing": 17240,
    "Ġspecimen": 13028,
    "Ġworlds": 11951,
    "dressing": 11484,
    "Ġflorid": 17138,
    "Ġdegrad": 2586,
    "obli": 23098,
    "Ġrender": 8305,
    "Ġcapt": 1291,
    "ceive": 3067,
    "jep": 20928,
    "Ġstrikes": 13185,
    "Ġorthodox": 22099,
    "speps": 14334,
    "**": 4686,
    "ilburn": 18062,
    "Ġgallows": 12150,
    "Ġproduced": 2452,
    "Ġkneel": 14810,
    "robotics": 11308,
    "Ġundecided": 22050,
    "Ġsharper": 17182,
    "Ġcaravan": 26292,
    "Ġresearch": 3168,
    "Ġconsequently": 8060,
    "Ġfixed": 2684,
    "¹": 122,
    "Ġadler": 8174,
    "Ġclimb": 15083,
    "ago": 14068,
    "orton": 11760,
    "impregn": 21717,
    "itatingly": 25278,
    "Ġparallelization": 3430,
    "Ġsleeves": 10663,
    "announcement": 24563,
    "attempts": 17193,
    "awake": 14455,
    "Ġdemo": 10881,
    "Ġscot": 5643,
    "Ġmeadows": 11424,
    "Ġgreeks": 20016,
    "Ġoce": 3030,
    "ties": 2759,
    "anish": 2612,
    "Ġcolonies": 14378,
    "Ġwithered": 19468,
    "critical": 19499,
    "Ġforce": 5092,
    "Ġlays": 15994,
    "Ġprotested": 9937,
    "Ġaffl": 14389,
    "ippers": 17578,
    "Ġindulged": 13421,
    "trad": 21078,
    "hundreds": 25076,
    "Ġintelligences": 12837,
    "ceiving": 3903,
    "Ġconfess": 3767,
    "Ġchopping": 24222,
    "riers": 18185,
    "Ġdrinks": 24282,
    "Ġnod": 1890,
    "Ġscrupled": 25052,
    "Ġph": 1549,
    "Ġ118": 19701,
    "bent": 15315,
    "rapidly": 15247,
    "Ġhindoo": 17178,
    "sculptured": 26047,
    "Ġillinois": 19138,
    "Ġpriests": 15043,
    "Ġdimin": 3873,
    "invariably": 26418,
    "mountains": 15184,
    "loved": 14253,
    "gigantic": 15363,
    "withdrawn": 23029,
    "Ġriddles": 16734,
    "wife": 8101,
    "decor": 23783,
    "Ġgurg": 15678,
    "Ġhumorous": 10364,
    "holes": 12058,
    "Ġlunatic": 24993,
    "fishery": 10035,
    "sprang": 19994,
    "Ġoccupation": 9934,
    "Ġfairy": 14629,
    "Ġwake": 4750,
    "inent": 9631,
    "Ġstem": 15727,
    "luded": 4230,
    "Ġabound": 8867,
    "Ġinjunctions": 24272,
    "Ġsuperseded": 26225,
    "Ġmovable": 22437,
    "Ġgave": 2218,
    "âĢĶâĢĺ": 7015,
    "Ġpods": 17917,
    "non": 9614,
    "command": 6578,
    "Ġupright": 8496,
    "Ġobservable": 25129,
    "Ġpainter": 19170,
    "zening": 21151,
    "Ġcrows": 24034,
    "Ġunpleasing": 22057,
    "Ġpounds": 5368,
    "?âĢĻâĢĿ": 23644,
    "Ġprofoundly": 16861,
    "Ġforces": 12707,
    "Ġdates": 6695,
    "Ġlayers": 815,
    "keepers": 16662,
    "Ġpoints": 5249,
    "Ġhans": 12631,
    "Ġprivile": 8649,
    "Ġbatch": 888,
    "stra": 4043,
    "Ġimmensely": 13599,
    "Ġpout": 17908,
    "Ġsomebody": 7912,
    "kindly": 14747,
    "diligence": 26111,
    "Ġplight": 14285,
    "Ġgown": 10204,
    "Ġmenaces": 23110,
    "Ġgushed": 21610,
    "inordinate": 21197,
    "Ġ57": 24321,
    "Ġ79": 24267,
    "Ġroarings": 25303,
    "Ġwhereon": 16106,
    "langu": 4808,
    "Ġtone": 4037,
    "Ġvir": 7002,
    "Ġripe": 13239,
    "_âĢĶâĢĻâĢĿ": 25742,
    "Ġmonstrous": 7790,
    "pe": 1436,
    "Ġcalves": 13040,
    "Ġtiresome": 26157,
    "Ġoccupant": 16654,
    "Ġskies": 8924,
    "Ġcrav": 19175,
    "Ġphenomenon": 17919,
    "acet": 5476,
    "tormented": 13649,
    "Ġmanx": 7905,
    "Ġwoll": 21296,
    "Ġwalrus": 14976,
    "yn": 7819,
    "Ġwhirl": 13453,
    "Ġfervour": 19729,
    "communication": 25881,
    "mine": 5618,
    "ried": 926,
    "housekeeper": 24101,
    "Ġdrawer": 13270,
    "Ġsneer": 13451,
    "Ġchalk": 15938,
    "loat": 8890,
    "Ġcraw": 7282,
    "Ġhorror": 3773,
    "âĢĶâĢĺ_": 24832,
    "Ġdesigns": 13017,
    "icates": 11620,
    "Ġconcent": 8250,
    "Ġinnocent": 4922,
    "Ġaffairs": 6877,
    "Ġproves": 14041,
    "Ġsiam": 13841,
    "Ġcate": 4109,
    "Ġmonuments": 22982,
    "Ġpatches": 4241,
    "Ġgaped": 13970,
    "ace": 717,
    "apping": 5853,
    "required": 17031,
    "Ġocean": 3304,
    "Ġportcull": 23866,
    "sher": 5217,
    "handle": 11192,
    "Ġunlike": 7006,
    "stars": 18022,
    "Ġpecks": 18670,
    "Ġrepeat": 8000,
    "cannibal": 15228,
    "acceptable": 25185,
    "Ġputs": 19034,
    "oar": 12502,
    "Ġloathed": 15880,
    "Ġthird": 4189,
    "Ġpreferred": 14969,
    "osp": 6854,
    "Ġsweatings": 25709,
    "abs": 11670,
    "heim": 17748,
    "Ġsaves": 18324,
    "Ġstrainings": 24628,
    "something": 4287,
    "anxious": 15113,
    "Ġupdate": 2463,
    "Ġbusy": 6191,
    "dinah": 20084,
    "ouder": 17902,
    "Ġdoubtful": 19143,
    "Ġvarieties": 14313,
    "bler": 11474,
    "Ġhan": 15623,
    "Ġsam": 7569,
    "quohog": 21862,
    "Ġlottery": 19890,
    "glance": 16589,
    "heartedness": 24825,
    "Ġoutrageous": 20613,
    "Ġdancing": 5703,
    "justified": 19003,
    "Ġprofane": 13156,
    "Ġirrad": 19095,
    "Ġjava": 12316,
    "Ġuncont": 14119,
    "Ġradiating": 24331,
    "Ġbreeze": 5681,
    "decease": 25558,
    "Ġanatomical": 15080,
    "Ġsending": 8779,
    "Ã¦": 4340,
    "Ġmatches": 14398,
    "Ġobey": 9522,
    "scarcely": 12390,
    "Ġgrotesque": 26331,
    "hound": 20897,
    "ition": 652,
    "Ġconversing": 14635,
    "happ": 3107,
    "Ġtroop": 24898,
    "ances": 1336,
    "abil": 2009,
    "stre": 5451,
    "Ġvariance": 1166,
    "Ġargued": 13633,
    "animals": 24737,
    "Ġdart": 4586,
    "Ġstay": 3097,
    "hatchway": 25905,
    "Ġlieutenant": 15265,
    "bits": 17491,
    "Ġextracts": 9368,
    "chosen": 21698,
    "ably": 1847,
    "Ġpoliceman": 15262,
    "blows": 17168,
    "fifth": 20149,
    "Ġscaling": 3632,
    "Ġplatform": 17134,
    "Ġdelineate": 26058,
    "hosmer": 25903,
    "ggy": 13118,
    "Ġ131": 24781,
    "Ġwilson": 6632,
    "ected": 7873,
    "Ġrenowned": 26195,
    "Ġagree": 7647,
    "metallic": 19882,
    "Ġgathered": 8444,
    "lined": 12488,
    "inable": 11558,
    "Ġdoub": 1835,
    "was": 1420,
    "races": 21633,
    "Ġboa": 22640,
    "pers": 4339,
    "erial": 4632,
    "Ġislets": 21805,
    "Ġsmells": 8893,
    "Ġblew": 9048,
    "Ġtech": 1784,
    "Ġflag": 7242,
    "ply": 6367,
    "Ġpepper": 9784,
    "Ġire": 12674,
    "neighbourhood": 10028,
    "Ġcore": 13881,
    "slee": 17171,
    "ctors": 21593,
    "Ġappre": 5165,
    "harpooned": 24288,
    "Ġgobern": 22429,
    "impenet": 18056,
    "Ġthoughtfulness": 18775,
    "Ġwrithed": 17107,
    "orts": 2552,
    "Ġneck": 4886,
    "Ġstrict": 7222,
    "evil": 11488,
    "Ġsuspense": 9421,
    "Ġgrappling": 25813,
    "Ġskil": 14355,
    "haven": 20914,
    "Ġdefray": 22946,
    "Ġrooted": 13173,
    "Ġextant": 18693,
    "Ġdriving": 3618,
    "afternoon": 13189,
    "Ġcomm": 837,
    "Ġantilles": 24182,
    "elev": 12463,
    "Ġguar": 23047,
    "Ġtener": 21166,
    "Ġincidents": 9302,
    "oles": 21007,
    "ree": 876,
    "reinforcement": 7826,
    "haps": 1671,
    "endeav": 7151,
    "lue": 8511,
    "whaler": 20312,
    "ostent": 16848,
    "eter": 11624,
    "visits": 24226,
    "comparison": 25842,
    "lilies": 20963,
    "raction": 8138,
    "consciousness": 13370,
    "Ġmuslin": 19386,
    "cring": 20813,
    "Ġprey": 6416,
    "Ġromish": 19587,
    "Ġnewcomers": 26043,
    "Ġinsist": 9893,
    "overcoat": 19053,
    "Ġdisguise": 10049,
    "Ġwithin": 2165,
    "imony": 12695,
    "Ġbowsprit": 16563,
    "Ġexpand": 9310,
    "Ġtil": 12529,
    "sme": 17660,
    "Ġgunwale": 7325,
    "Ġsuperlative": 26075,
    "awk": 23117,
    "Ġsoft": 1458,
    "animated": 14978,
    "Ġinspire": 12000,
    "equ": 6791,
    "Ġnavel": 24577,
    "Ġplayfully": 19241,
    "Ġasse": 8160,
    "Ġworn": 6446,
    "Ġbowels": 9433,
    "Ġstaggers": 24654,
    "hamlet": 23263,
    "Ġdegrees": 7294,
    "Ġcoverage": 4290,
    "cellar": 20280,
    "ery": 1269,
    "abbering": 21800,
    "Ġlamps": 14793,
    "Ġnantucket": 2838,
    "Ġnug": 21528,
    "Ġbressed": 21390,
    "Ġdivinely": 25723,
    "Ġblush": 14407,
    "Ġadvantage": 4318,
    "Ġwithout": 1122,
    "Ġinitials": 11016,
    "choice": 21694,
    "impossible": 8828,
    "Ġtops": 14588,
    "abez": 10225,
    "Ġxi": 16433,
    "Ġreveal": 11201,
    "Ġbalmoral": 16211,
    "Ġherring": 14129,
    "cob": 10089,
    "ĠâĢľâĢĺ_": 25114,
    "Ġequal": 4135,
    "oura": 1061,
    "erns": 8782,
    "clouds": 25497,
    "Ġtending": 17726,
    "Ġrain": 5005,
    "Ġbr": 1075,
    "utes": 5915,
    "Ġingolstadt": 8333,
    "gallantry": 15061,
    "explanation": 12362,
    "Ġcant": 17826,
    "Ġscorn": 7901,
    "etting": 21583,
    "Ġtuesday": 9629,
    "Ġbravest": 23844,
    "Ġgen": 5298,
    "Ġverd": 6919,
    "Ġcont": 619,
    "Ġaugment": 8695,
    "oqu": 7555,
    "Ġwondered": 11127,
    "excuse": 13385,
    "aurus": 20563,
    "Ġcap": 2363,
    "Ġfulfilment": 20190,
    "Ġworrying": 22932,
    "Ġtranquilly": 12294,
    "Ġlatin": 16823,
    "Ġdownward": 10334,
    "Ġmumbled": 17809,
    "Ġforecastle": 5495,
    "ither": 1548,
    "¸": 121,
    "ble": 542,
    "Ġwreat": 15535,
    "Ġunclasp": 26513,
    "Ġregulate": 22590,
    "Ġpir": 6818,
    "magnitude": 17251,
    "Ġdirections": 1972,
    "Ġstoven": 23178,
    "front": 12175,
    "Ġeaster": 15680,
    "Ġconsider": 2565,
    "cooee": 12422,
    "Ġcode": 1719,
    "Ġindisp": 18836,
    "ġ": 226,
    "bedroom": 14701,
    "isome": 17850,
    "Ġhey": 11644,
    "ĠĠĠĠĠĠĠĠĠĠĠĠĠĠĠĠĠĠĠĠĠĠĠ": 18834,
    "smitten": 23912,
    "Ġsqueeze": 10042,
    "honor": 19902,
    "Ġsettee": 22923,
    "ident": 3378,
    "Ġdirecting": 16304,
    "powder": 17647,
    "isbury": 21380,
    "Ġsealed": 15820,
    "Ġexeget": 24085,
    "daughter": 8354,
    "Ġfru": 8421,
    "Ġdomain": 3435,
    "tacit": 21101,
    "stamp": 21657,
    "Ġold": 1058,
    "Ġspiritual": 9933,
    "Ġunob": 22017,
    "certain": 3676,
    "functions": 11238,
    "Ġuncompromised": 20606,
    "young": 7321,
    "leaning": 10792,
    "Ġlaug": 3628,
    "ittered": 18440,
    "ancies": 11587,
    "Ġflame": 7448,
    "N": 50,
    "Ġmassa": 19457,
    "Ġexpatiate": 18625,
    "Ġsituation": 4070,
    "Ġopened": 3514,
    "pemberley": 9623,
    "Ġsust": 7008,
    "))": 1517,
    "Ġnormalizing": 1819,
    "Ġmerited": 23732,
    "Ġdiscoveries": 13363,
    "Ġsensation": 6896,
    "Ġadapt": 968,
    "cc": 471,
    "!âĢĶ": 2454,
    "Ġwooing": 19437,
    "Ġrover": 18458,
    "Ġsubstituting": 26328,
    "oured": 2670,
    "Ġproportional": 2523,
    "ope": 4125,
    "Ġinferences": 17937,
    "calm": 8937,
    "oted": 4598,
    "Ġaccompanying": 11306,
    "Ġjackal": 24242,
    "deployment": 26529,
    "Ġreach": 4044,
    "const": 5940,
    "ert": 2629,
    "Ġbristling": 20530,
    "Ġwantest": 18791,
    "Ġcrawled": 17045,
    "wore": 21127,
    "caroline": 24151,
    "compliments": 24807,
    "Ġcity": 4531,
    "Ġrefused": 6717,
    "Ġopinion": 3145,
    "old": 799,
    "Ġopp": 2697,
    "Ġcalhoun": 23046,
    "?_âĢĿ": 12320,
    "coo": 11172,
    "teenth": 11878,
    "Ġkramm": 26235,
    "Ġbast": 21382,
    "Ġpulverize": 23396,
    "Ġcr": 2152,
    "falsehood": 25902,
    "ho": 2857,
    "Ġallowed": 4057,
    "ifer": 11688,
    "Ġhardships": 14454,
    "Ġbulge": 23860,
    "adays": 14016,
    "reed": 6374,
    "Ġjewelled": 20186,
    "Ġunwell": 22019,
    "Ġpeering": 8537,
    "Ġdense": 8123,
    "Ġtimbers": 14842,
    "Ġflashing": 13033,
    "Ġhereditarily": 25225,
    "Ġtrailing": 23082,
    "elsewhere": 19870,
    "Ġbewit": 15733,
    "Ġseventh": 18205,
    "regret": 16452,
    "Ġdefendants": 15144,
    "pip": 6657,
    "vint": 21117,
    "Ġlondon": 2839,
    "Ġseats": 14091,
    "failed": 20865,
    "Ġsob": 12793,
    "Ġunreasonable": 12782,
    "Ġyouth": 4264,
    "Ġbrixton": 13667,
    "dripping": 16907,
    "those": 4497,
    "iro": 20916,
    "cook": 8270,
    "Ġadequately": 15202,
    "frequently": 9982,
    "interview": 19300,
    "though": 2117,
    "Ġter": 2052,
    "Ġcocoa": 25483,
    "ĠĊ": 12528,
    "Ġvaguely": 17369,
    "Ġbestir": 13114,
    "Ġelderly": 13498,
    "entrance": 12662,
    "Ġapproxim": 1222,
    "nant": 17611,
    "Ġbroken": 3448,
    "Ġromantic": 8031,
    "Ġeyelids": 26108,
    "Ġprofanely": 23572,
    "Ġserenity": 10031,
    "suff": 4961,
    "inter": 2946,
    "Ġcleared": 6076,
    "Ġuntrodden": 23525,
    "aloes": 21505,
    "mell": 20966,
    "atus": 21263,
    "ror": 7351,
    "trust": 21081,
    "Ġsplice": 19310,
    "Ġentra": 18692,
    "shed": 8095,
    "Ġcontextually": 11957,
    "Ġtierce": 15482,
    "Ġale": 9157,
    "Ġrandomly": 1920,
    "ag": 377,
    "Ġstarts": 16585,
    "na": 13763,
    "narrative": 17322,
    "Ġbeating": 8145,
    "Ġmis": 918,
    "Ġsupports": 3053,
    "irting": 11689,
    "Ġoptim": 780,
    "Ġestimates": 3749,
    "Ġoverdone": 22364,
    "Ġcocked": 12909,
    "Ġexpose": 10330,
    "Ġtreated": 7082,
    "Ġadmirer": 16840,
    "Ġschedules": 3386,
    "Ġsuspend": 14610,
    "Ġwhine": 21718,
    "Ġunpardonable": 22064,
    "Ġstained": 11655,
    "Ġencamped": 22804,
    "Ġdetaining": 25820,
    "Ġsympat": 13345,
    "Ġmartha": 16264,
    "Ġwit": 3842,
    "Ġunprovided": 18261,
    "promised": 12256,
    "feeling": 6619,
    "penetrating": 25491,
    "Ġgloss": 11963,
    "Ġsquad": 22844,
    "Ġspermaceti": 8970,
    "iations": 11497,
    "Ġsurv": 6082,
    "Ġclasping": 20212,
    "Ġapoplexy": 25266,
    "Ġglimmer": 15145,
    "Ġstroke": 6936,
    "Ġbask": 8117,
    "Ġfondly": 19619,
    "Ġobsc": 7041,
    "Ġpallet": 21484,
    "consid": 4925,
    "serpent": 16296,
    "lived": 12491,
    "Ġenticements": 26035,
    "chapter": 1403,
    "Ġpastures": 23422,
    "Ġfork": 15737,
    "Ġabuse": 18393,
    "grass": 23415,
    "blocks": 25518,
    "Ġcretan": 22722,
    "adagrad": 9694,
    "Ġinviting": 19145,
    "Ġdetest": 8504,
    "Ġrepute": 18037,
    "Ġinterfere": 11821,
    "fanning": 20868,
    "Ġpinched": 17036,
    "Ġagent": 6279,
    "concerning": 9070,
    "Ġpresc": 15930,
    "vate": 21112,
    "Ġflock": 21414,
    "balance": 12011,
    "Ġbites": 23745,
    "aloft": 8811,
    "Ġconcluded": 5658,
    "leman": 21371,
    "Ġcruelty": 9972,
    "Ġgolden": 5337,
    "ve": 322,
    "Ġflatt": 16250,
    "poison": 14395,
    "Ġpretended": 19316,
    "screw": 9350,
    "ordinary": 4410,
    "Ġmorose": 18844,
    "Ġinject": 2713,
    "sword": 10728,
    "dispute": 23503,
    "Ġabandoned": 8352,
    "nurtured": 25525,
    "Ġpreternatural": 12828,
    "Ġpersian": 11092,
    "Ġcuriously": 13019,
    "uther": 8821,
    "Ġexcavating": 23318,
    "Ġoccasioned": 13232,
    "passenger": 24169,
    "Ġstraggling": 23753,
    "Ġpredestinated": 18517,
    "Ġbrine": 18771,
    "Ġprelimin": 8864,
    "Ġruth": 14097,
    "Ġdoubloons": 13438,
    "Ġconnexion": 11456,
    "Ġthroughout": 8880,
    "Ġcumul": 4181,
    "Ġspend": 5306,
    "Ġtumble": 16881,
    "Ġsubmitted": 11875,
    "Ġforgetting": 3434,
    "Ġmerchants": 23734,
    "a": 69,
    "Ġapologize": 15132,
    "Ġcased": 21349,
    "sensible": 20055,
    "Ġsuck": 15865,
    "Ġhunting": 7259,
    "acqu": 4844,
    "Ġdeadliest": 14560,
    "itical": 5802,
    "Ġhast": 3153,
    "borrowed": 20794,
    "market": 16841,
    "Ġtie": 10752,
    "Ġcon": 348,
    "knowledge": 7478,
    "Ġmysticetus": 24923,
    "Ġtransformed": 22618,
    "nights": 16450,
    "gained": 20883,
    "Ġremembering": 14612,
    "Ġbacking": 16112,
    "outre": 18321,
    "Ġwomen": 4751,
    "your": 1986,
    "ating": 666,
    "Ġdinn": 23984,
    "Ġfoss": 9853,
    "Ġgaining": 9495,
    "infall": 21191,
    "pleasures": 24049,
    "pict": 8386,
    "Ġanteced": 26178,
    "Ġpublisher": 24068,
    "Ġfearful": 6199,
    "parable": 16395,
    "Ġherb": 15861,
    "ounce": 6559,
    "Ġarchangel": 8545,
    "spanish": 14332,
    "Ġtrepidation": 19217,
    "countryman": 24640,
    "Ġwholly": 4449,
    "ames": 2880,
    "Ġluxur": 12345,
    "Ġreception": 9842,
    "Ġruns": 8598,
    "Ġgeor": 3387,
    "dick": 11481,
    "Ġsurf": 19133,
    "Ġapprehended": 26091,
    "Ġinconsistency": 26184,
    "allied": 7410,
    "creature": 5347,
    "faces": 13723,
    "Ġunconcern": 14120,
    "Ġsallow": 12541,
    "Ġchange": 1996,
    "----âĢĿ": 13311,
    "Ġcatherine": 2813,
    "Ġdiscussed": 19562,
    "sorting": 17006,
    "nns": 1894,
    "Ġglobular": 19011,
    "felicity": 25143,
    "expedition": 26079,
    "Ġflitting": 13031,
    "Ġgpus": 3734,
    "Ġparcel": 15203,
    "eaten": 20347,
    "Ġswearing": 16467,
    "Ġclaimed": 14204,
    "Ġface": 1720,
    "Ġtw": 840,
    "Ġtra": 1385,
    "den": 938,
    "Ġsporting": 17001,
    "Ġnatur": 17337,
    "Ġecon": 9680,
    "worm": 15457,
    "Ġunintelligible": 26516,
    "indisc": 22377,
    "ioneer": 15637,
    "compose": 24035,
    "Ġnosegay": 24195,
    "fluke": 25205,
    "Ġdying": 2137,
    "Ġmur": 2489,
    "Ġclose": 3036,
    "Ġbier": 22768,
    "prejud": 11800,
    "Ġsocket": 12794,
    "romed": 10907,
    "Ġsprinkled": 19500,
    "sticks": 25966,
    "asant": 17961,
    "melancholy": 12357,
    "lemagne": 26438,
    "oused": 6558,
    "Ġminds": 6305,
    "Ġnerves": 2623,
    "Ġwapping": 21297,
    "Ġrock": 5311,
    "Ġintruder": 25992,
    "Ġ\"": 6121,
    "Ġminutest": 14563,
    "nikin": 23280,
    "hearing": 8404,
    "sey": 5543,
    "etw": 408,
    "Ġpred": 664,
    "examine": 25478,
    "Ġinconveniences": 24942,
    "beyond": 8886,
    "Ġreaches": 18034,
    "copy": 5133,
    "Ġnecessitated": 23932,
    "Ġpeleg": 3740,
    "Ġenlarge": 21939,
    "Ġadapts": 3817,
    "advise": 24220,
    "ilder": 15718,
    "chooses": 23676,
    "Ġpredefined": 20719,
    "Ġsuch": 795,
    "Ġerr": 1320,
    "Ġmacy": 19358,
    "rising": 7557,
    "Ġhatchet": 16532,
    "Ġnovelist": 24776,
    "Ġheadache": 22902,
    "Ġside": 1387,
    "rell": 11566,
    "Ġride": 12763,
    "Ġtypewriting": 16425,
    "Ġinvol": 1038,
    "Ġtasks": 1787,
    "historian": 25735,
    "Ġdens": 21427,
    "Ġconfide": 13103,
    "Ġmisfortunes": 7043,
    "Ġ62": 24365,
    "Ġdeformity": 11679,
    "Ġgoble": 14232,
    "wondering": 19847,
    "Ġstumped": 24945,
    "Ġmockery": 12112,
    "Ġempire": 11147,
    "Ġintrepidity": 25551,
    "rossed": 11014,
    "Ġdescend": 7427,
    "Ġtyph": 10011,
    "âĢĶâĢĶâĢĿ": 15944,
    "------": 12138,
    "Ġmodesty": 12823,
    "elfth": 22373,
    "Ġmeas": 1100,
    "Ġ121": 24466,
    "Ġvalleys": 14922,
    "ifling": 15788,
    "meth": 11505,
    "Ġhands": 1664,
    "Ġrevellers": 21681,
    "poise": 6173,
    "alike": 17945,
    "Ġcompletion": 12152,
    "Ġunrecorded": 17470,
    "Ġangles": 23590,
    "Ġnor": 1552,
    "it": 276,
    "Ġexclusion": 19399,
    "Ġdynamically": 4734,
    "Ġsoften": 23126,
    "lemag": 21375,
    "otic": 15750,
    "Ġapprehension": 7115,
    "Ġrevelations": 25224,
    "Ġsteward": 6586,
    "Ġfamil": 4322,
    "game": 11493,
    "erate": 7150,
    "Ġallowance": 14392,
    "Ġtoil": 6533,
    "isition": 11589,
    "Ġrespectful": 16349,
    "Ġdrunken": 12054,
    "tenderly": 20534,
    "cr": 4011,
    "duing": 22415,
    "collar": 19330,
    "ieties": 19024,
    "Ġadvances": 12997,
    "Ġgrope": 17997,
    "acific": 4960,
    "Ġheedfully": 24521,
    "Ġakin": 15499,
    "Ġwarped": 25038,
    "Ġwhenever": 5166,
    "Ġloaf": 15877,
    "Ġanomaly": 25637,
    "perishing": 22181,
    "Ġlavenza": 17973,
    "Ġchemical": 10412,
    "reck": 9639,
    "numerous": 17434,
    "Ġprendergast": 26539,
    "Ġswayed": 15050,
    "Ġexpense": 7652,
    "ol": 363,
    "Ġbales": 21392,
    "Ġtying": 15477,
    "Ġaid": 6124,
    "lover": 18540,
    "Ġallows": 3236,
    "sooner": 14780,
    "Ġcleaving": 23184,
    "Ġranging": 8481,
    "Ġedinburgh": 16459,
    "garn": 20872,
    "ertain": 1212,
    "mes": 1201,
    "effectually": 25131,
    "Ġenduring": 16306,
    "pity": 17629,
    "capting": 24042,
    "Ġsecured": 6747,
    "milk": 20480,
    "Ġevid": 3502,
    "Ġreadily": 5254,
    "Ġhus": 3095,
    "Ġack": 5622,
    "Ġdanger": 3521,
    "chamber": 13629,
    "dham": 20832,
    "Ġproc": 5545,
    "Ġarsac": 11746,
    "Ġcircumnavigation": 20403,
    "Ġdesired": 4665,
    "Ġheadsman": 13279,
    "Ġwood": 2289,
    "Ġoscill": 2856,
    "Ġplaned": 24058,
    "Ġwatching": 4856,
    "Ġpractice": 2694,
    "cking": 4268,
    "Ġreplete": 15703,
    "Ġspokes": 18314,
    "Ġcoopman": 25829,
    "cursed": 23847,
    "É": 138,
    "Ġblow": 3373,
    "Ġtoiling": 15640,
    "Ġsalut": 10512,
    "Ġcrazed": 19177,
    "Ġpiratical": 24798,
    "Ġspile": 22131,
    "terday": 4705,
    "Ġbitter": 4172,
    "Ġhandsome": 4907,
    "Ġfolio": 11922,
    "ctive": 11626,
    "Ġcontro": 1686,
    "Ġgrinned": 16859,
    "Ġprosperity": 20260,
    "Ġparm": 15882,
    "felt": 5890,
    "Ġunmanner": 22031,
    "Ġengrossed": 13001,
    "duck": 22416,
    "weep": 22687,
    "Ġvagabond": 20206,
    "fights": 20867,
    "Ġvanish": 8931,
    "Ġ181": 23899,
    "Ġdistrustful": 25057,
    "Ġvial": 10251,
    "completed": 19997,
    "Ġbeh": 1800,
    "Ġstiffly": 15007,
    "Ġresulting": 24201,
    "Ġprofundities": 20456,
    "saf": 11527,
    "Ġrapt": 7227,
    "Ġpips": 9849,
    "Ġlogits": 3450,
    "mystery": 15159,
    "Ġalleg": 14020,
    "mayhew": 23995,
    "thest": 11657,
    "Ġclouds": 5775,
    "heaving": 21210,
    "Ġissu": 6255,
    "sk": 5521,
    "skin": 10571,
    "audible": 17135,
    "Ġ4": 3985,
    "ptic": 21922,
    "application": 12367,
    "Ġ135": 24784,
    "Ġspades": 12801,
    "ising": 2254,
    "culous": 11142,
    "cket": 3687,
    "Ġbottom": 3674,
    "Ġaffectionately": 13172,
    "Ġwarrior": 24496,
    "oes": 4436,
    "Ġreusability": 13562,
    "Ġtwist": 11855,
    "Ġcry": 3498,
    "prit": 19345,
    "sacred": 17030,
    "Ġrecollecting": 17114,
    "Ġalb": 14019,
    "Ġbreaches": 14523,
    "95": 17480,
    "eluded": 21578,
    "Ġknighthood": 25298,
    "rs": 7807,
    "Ġtresses": 21178,
    "Ġgodlike": 23360,
    "cap": 8373,
    "Ġcustomary": 8673,
    "Ġthither": 6821,
    "Ġdespondency": 16580,
    "Ġpine": 8801,
    "windows": 19537,
    "Ġglimpse": 6944,
    "Ġlooked": 1801,
    "wheeler": 16193,
    "Ġtiller": 8968,
    "Ġinvective": 26183,
    "succeeded": 15179,
    "Ġcheerful": 6624,
    "Ġmood": 6278,
    "§": 105,
    "arers": 12134,
    "istol": 6261,
    "Ġdecision": 2674,
    "ogrand": 26263,
    "Ġdelineations": 26059,
    "Ġsuffers": 2970,
    "Ġforemost": 12009,
    "Ġtranspired": 16786,
    "Ġchallenges": 13634,
    "Ġfert": 15587,
    "Ġthink": 985,
    "landed": 18958,
    "critters": 14778,
    "lynes": 15709,
    "Ġelasticity": 19561,
    "Ġnorthern": 7265,
    "Ġheadsmen": 14735,
    "Ġsig": 868,
    "leagues": 21376,
    "arrang": 14654,
    "inqu": 6123,
    "rim": 7139,
    "ove": 1741,
    "Ġgoverned": 23573,
    "Ġaltern": 7394,
    "!": 5,
    "try": 7812,
    "flung": 16641,
    "brain": 13691,
    "lever": 2930,
    "breathing": 25336,
    "Ġpassion": 4558,
    "Ġrandom": 1587,
    "Ġoften": 1958,
    "receive": 12547,
    "bos": 17486,
    "Ġlodge": 5779,
    "ades": 5631,
    "Ġforesight": 13131,
    "Ġclipping": 2441,
    "ution": 4352,
    "Ġsurmised": 24920,
    "Ġspilled": 10926,
    "Ġexecute": 7505,
    "unbounded": 21889,
    "Ġpur": 2217,
    "Ġcrawford": 24894,
    "Ġelev": 5536,
    "estinated": 15928,
    "Ġprompt": 3192,
    "Ġpistol": 7847,
    "Ġslow": 2379,
    "Ġforenoon": 19127,
    "Ġhundred": 2693,
    "disappo": 8987,
    "Ġmedd": 15544,
    "gentlemanlike": 20005,
    "touching": 15095,
    "Ġdrags": 16943,
    "Ġcet": 6672,
    "classes": 12140,
    "Ġpictured": 16625,
    "Ġacquirement": 19257,
    "tor": 15436,
    "distinguished": 10529,
    "ires": 6039,
    "1775": 26380,
    "Ġcoleman": 22588,
    "ologies": 18774,
    "Ġfacet": 15590,
    "Ġreduces": 2343,
    "examination": 25479,
    "Ġconvenient": 8346,
    "medium": 23640,
    "Ġtendons": 19811,
    "Ġcurse": 7668,
    "compliment": 11366,
    "them": 3018,
    "Ġmeditation": 16707,
    "Ġsons": 10768,
    "eel": 11486,
    "unfortunate": 15782,
    "Ġinvolved": 8926,
    "Ġseamen": 5063,
    "Ġvexed": 9997,
    "Ġstamping": 20034,
    "Ġimpression": 5732,
    "Ġdoctor": 5067,
    "Ġfearing": 12819,
    "Ġretiring": 16285,
    "Ġeducation": 5128,
    "alo": 7588,
    "ķ": 248,
    "Ġvol": 4191,
    "ents": 1897,
    "Ġrag": 18644,
    "Ġhunted": 7453,
    "Ġpossible": 2582,
    "count": 4215,
    "Ġshrine": 19534,
    "suitable": 18631,
    "Ġspeakest": 23489,
    "Ġno": 509,
    "Ġdipped": 15600,
    "Ġreminiscences": 26271,
    "Ġdashed": 6011,
    "Ġdebated": 9043,
    "anum": 17837,
    "Ġtint": 13820,
    "Ġturks": 14600,
    "vo": 11542,
    "Ġpriv": 4185,
    "ensibility": 22551,
    "Ġslashing": 23173,
    "Ġcramped": 23533,
    "&": 10,
    "Ġblunder": 18821,
    "kn": 5791,
    "Ġrefrained": 14346,
    "Ġsuspended": 5665,
    "Ġplace": 1654,
    "ortations": 22262,
    "omeness": 18018,
    "Ġamphitheat": 26254,
    "oubtedly": 6943,
    "Ġdepressed": 10884,
    "Ġadvancement": 24475,
    "Ġaroused": 15903,
    "Ġfrederick": 15592,
    "Ġplatonian": 25121,
    "Ġminers": 22840,
    "bury": 9110,
    "Ġextinction": 14340,
    "Ġarab": 7823,
    "Ġcaused": 5048,
    "Ġeste": 6085,
    "orum": 12595,
    "Ġsuperiors": 23458,
    "Ġdiscol": 12958,
    "practised": 20250,
    "Ġdelicious": 14795,
    "Ġfourteen": 12014,
    "persuade": 13536,
    "anse": 12580,
    "Ġhavoc": 15818,
    "Ġinde": 7371,
    "Ġhes": 6252,
    "sworn": 24259,
    "courageous": 26128,
    "Ġcircumnavigating": 25615,
    "Ġpossibility": 7458,
    "Ġunscrew": 22042,
    "iot": 9603,
    "Ġschedule": 2372,
    "pots": 11516,
    "Ġworshipping": 22933,
    "Ġcontortions": 18477,
    "Ġexplicit": 3590,
    "Ġagreeing": 20022,
    "inquir": 9539,
    "cock": 12030,
    "planks": 21964,
    "barrel": 17061,
    "Ġgrizz": 10354,
    "Ġlog": 1677,
    "Ġrabb": 4163,
    "Ġpeculiar": 3155,
    "Ġfielding": 16241,
    "æ": 167,
    "avenue": 25060,
    "÷": 184,
    "Ġbarbarous": 13480,
    "ional": 1087,
    "sails": 7497,
    "Ġhappier": 10362,
    "Ġburton": 23654,
    "ning": 950,
    "Ġassault": 9840,
    "Ġtickets": 17095,
    "Ġjealous": 9471,
    "Ġscener": 10951,
    "Ġseemed": 1279,
    "commencement": 26350,
    "Ġphilist": 16603,
    "ringle": 21043,
    "hanging": 10103,
    "Ġbackbones": 22646,
    "ware": 3935,
    "Ġstalls": 25648,
    "crawling": 16960,
    "Ġreverend": 15263,
    "invincible": 25092,
    "Ġlagged": 21561,
    "roqu": 21537,
    "Ġaudacity": 19884,
    "pattern": 4177,
    "Ġcirculating": 23376,
    "kington": 11205,
    "--âĢĺ": 22855,
    "Ġdesirous": 8945,
    "Ġmalignity": 10559,
    "Ġunprinciple": 18255,
    "preading": 18496,
    "action": 3728,
    "Ġtranqu": 4606,
    "umbling": 6613,
    "conced": 22474,
    "Ġunprotected": 22069,
    "ĠĠĠĠĠĠĠĠĠĠĠĠ": 12905,
    "Ġgerman": 6143,
    "Ġdescends": 14290,
    "Ġcommenting": 25229,
    "hew": 5286,
    "bec": 4050,
    "Ġroute": 11383,
    "Ġmasses": 10506,
    "ale": 506,
    "Ġsnapped": 9899,
    "ksome": 10107,
    "berish": 22749,
    "Ġdepend": 775,
    "Ġcomposing": 16072,
    "):": 11463,
    "Ġeconomically": 25289,
    "Ġrept": 13986,
    "Ġprosper": 10231,
    "Ġdeposition": 18605,
    "Ġdandy": 17894,
    "arp": 2029,
    "Ġsembl": 19061,
    "lamps": 25261,
    "Ġprem": 3425,
    "historical": 20469,
    "guessed": 25873,
    "page": 13774,
    "gledy": 25404,
    "fool": 9050,
    "Ġdynamic": 5124,
    "Ġbott": 3151,
    "dece": 11737,
    "Ġresolves": 23649,
    "Ġprisoner": 8676,
    "Ġheedless": 14906,
    "Ġimag": 2673,
    "magn": 10613,
    "scrape": 25699,
    "Ġprevail": 13446,
    "Ġgrowth": 14631,
    "Ġverify": 12092,
    "Ġmiraculous": 13551,
    "Ġstayed": 7998,
    "Ġvows": 15813,
    "urned": 9309,
    "Ġdeputation": 21843,
    "Ġsmacking": 20168,
    "Ġexecut": 4250,
    "utting": 17987,
    "Ġwheeled": 14141,
    "Ġcopse": 17068,
    "odox": 21817,
    "Ġ8": 5433,
    "rels": 6667,
    "dipped": 20839,
    "Ġhiss": 15793,
    "Ġdozen": 8186,
    "vener": 21114,
    "Ġsisterly": 16308,
    "Ġchiselled": 25560,
    "Ġfuller": 11158,
    "Ġgrace": 5374,
    "wherever": 13123,
    "Ġdrawing": 3918,
    "Ġhebrew": 13991,
    "ructed": 7031,
    "Ġportion": 7492,
    "Ġinfl": 6893,
    "Ġ117": 19700,
    "Ġcrozetts": 19632,
    "89": 20761,
    "Ġuninjured": 22058,
    "life": 4933,
    ",": 16,
    "Ġbeings": 2490,
    "Ġinjured": 9042,
    "button": 10968,
    "Ġlinen": 12411,
    "Ġarchy": 14350,
    "Ġwade": 17786,
    "Ġconceal": 5975,
    "é": 170,
    "Ġbloodthirsty": 26603,
    "Ġfacts": 2286,
    "attempted": 20177,
    "Ġunlikely": 10910,
    "Ġtangled": 13830,
    "Ġdi": 6526,
    "residence": 19265,
    "unknown": 10892,
    "pse": 21011,
    "related": 24015,
    "Ġherein": 16195,
    "Ġsister": 1474,
    "jabez": 20935,
    "Ġsubsisting": 23437,
    "Ġsaturn": 22904,
    "Ġwoman": 2387,
    "Ġreduced": 11928,
    "Ġensigns": 23691,
    "Ġperennial": 22697,
    "Ġtester": 21175,
    "Ġcryst": 9920,
    "Ġjuicy": 25371,
    "Ġsoph": 1603,
    "Ġpumps": 8428,
    "Ġsplendour": 20227,
    "Ġdoesn": 7438,
    "Ġreap": 18029,
    "Ġrods": 9757,
    "Ġunfor": 15844,
    "Ġtarshish": 12033,
    "Ġsunken": 14495,
    "Ġguilt": 6181,
    "ott": 1874,
    "message": 17375,
    "Ġdoing": 3661,
    "eds": 6531,
    "Ġfacial": 10608,
    "Ġskin": 5038,
    "Ġtotal": 4993,
    "Ġunsophisticated": 25993,
    "Ġforcibly": 10064,
    "Ġundertone": 23242,
    "Ġpretend": 7722,
    "ething": 1599,
    "Ġsecretary": 19445,
    "Ġfascinated": 25636,
    "Ġtransp": 4771,
    "Ġhurts": 19113,
    "Ġjem": 18403,
    "onsible": 22565,
    "emason": 18189,
    "Ġboat": 1278,
    "Ġcabin": 3303,
    "Ġprince": 18972,
    "Ġsuperst": 7704,
    "Ġnobody": 6160,
    "Ġbuilded": 24718,
    "oman": 2019,
    "Ġsoothe": 7405,
    "Ġabhorred": 9511,
    "whaling": 7899,
    "Ġchurchyard": 16779,
    "atiate": 12553,
    "Ġdelight": 2545,
    "hall": 8085,
    "Ġexact": 2540,
    "gris": 8260,
    "stays": 15694,
    "disgust": 23500,
    "Ġbeam": 2878,
    "Ġthousandth": 23686,
    "puted": 8850,
    "Ġignominy": 15089,
    "glimmer": 26323,
    "Ġcommonplace": 11098,
    "Ġwearily": 18180,
    "Ġjoll": 11769,
    "Ġcurtains": 22988,
    "Ġhurst": 5582,
    "Ġburn": 3683,
    "Ġopera": 23428,
    "Ġpenal": 1770,
    "unable": 14062,
    "Ġsalted": 14759,
    "Ġexquisitely": 20205,
    "homage": 25617,
    "Ġtremulous": 14989,
    "many": 5251,
    "Ġcrony": 23442,
    "Ġintricacies": 15142,
    "Ġslate": 11942,
    "Ġejac": 10206,
    "Ġjaw": 3319,
    "Ġallowing": 2176,
    "Ġchooses": 13351,
    "itory": 12572,
    "Ġplayfulness": 23638,
    "Ġaffections": 10387,
    "trying": 15442,
    "centre": 17088,
    "delivered": 24100,
    "Ġsperm": 1842,
    "exceed": 7911,
    "Ġmat": 1145,
    "Ġalley": 15741,
    "footman": 17165,
    "Ġharry": 24572,
    "Ġfir": 17879,
    "raved": 18015,
    "clouded": 20334,
    "madly": 24420,
    "Ġcorre": 3889,
    "writer": 14650,
    "naturalist": 23438,
    "Ġgorgeous": 20470,
    "adieu": 26202,
    "billows": 20239,
    "Ġdescrib": 2720,
    "Ġhy": 5625,
    "zers": 21149,
    "Ġbetrayed": 9564,
    "asleep": 21547,
    "Ġlament": 7857,
    "important": 7114,
    "Ġgould": 17992,
    "Ġstructural": 2798,
    "Ġsubl": 7235,
    "encoura": 15051,
    "Ġsuffocated": 20730,
    "Ġletters": 3794,
    "illum": 15874,
    "Ġrueful": 25582,
    "Ġpolynes": 16084,
    "Ġstrength": 4262,
    "Ġinsensibly": 20079,
    "Ġindirect": 18837,
    "mai": 22915,
    "accepting": 20138,
    "Ġprev": 6266,
    "Ġmer": 2928,
    "Ġresponsible": 9889,
    "Ġquaint": 18466,
    "Ġbegg": 16256,
    "olds": 9314,
    "Ġjo": 2605,
    "Ġreputation": 11643,
    "Ġshivering": 10268,
    "Ġcopy": 10166,
    "Ġcigars": 12257,
    "Ġsymmetrical": 20370,
    "Ġafghan": 22632,
    "fulness": 4312,
    "aswag": 21549,
    "Ġcrew": 2496,
    "Ġspeeding": 23566,
    "larking": 17596,
    "Ġcuff": 17831,
    "Ġporpoises": 13386,
    "Ġahab": 1219,
    "Ġmale": 9651,
    "Ġfootmen": 23800,
    "Ġarri": 2550,
    "vi": 2375,
    "grieved": 17320,
    "Ġdesmarest": 22979,
    "Ġclaw": 22352,
    "Ġobliter": 14325,
    "Ġrejoicing": 13425,
    "Ġnautical": 17389,
    "yt": 17713,
    "Ġemployed": 5200,
    "Ġaccuracy": 1115,
    "Ġuntouched": 16468,
    "Ġraise": 6168,
    "fac": 17543,
    "Ġoffspring": 16150,
    "Ġgag": 21596,
    "Ġliberty": 7762,
    "erred": 6377,
    "corn": 13703,
    "Ġstrand": 11832,
    "Ġunwarranted": 24831,
    "dependence": 17170,
    "Ġkicks": 19771,
    "Ġliking": 23593,
    "va": 4744,
    "Ġscaramouch": 23831,
    "connected": 1308,
    "Ġblanket": 8343,
    "orne": 17874,
    "Ġeng": 1161,
    "ernally": 22622,
    "Ġardour": 8043,
    "geneva": 13733,
    "emotions": 15802,
    "tout": 21068,
    "Ġinsepar": 17936,
    "guilt": 24072,
    "ĠâĢĺ_": 11119,
    "heavens": 19748,
    "Ġbloss": 19258,
    "Ġequinoctial": 20535,
    "brink": 23578,
    "telesc": 22821,
    "ingale": 21302,
    "Ġalph": 9698,
    "Ġfinery": 23128,
    "Ġprejudice": 9078,
    "however": 4376,
    "Ġgene": 15677,
    "fill": 15354,
    "ored": 3896,
    "Ġdiabol": 11455,
    "Ġchanging": 11757,
    "Ġharrow": 17928,
    "Ġcrowder": 19459,
    "Ġpilgr": 12185,
    "Ġmental": 21322,
    "readiness": 19366,
    "Ġmixture": 9565,
    "ban": 9587,
    "fine": 10093,
    "Ġlabel": 14519,
    "wanted": 10745,
    "ĝ": 222,
    "Ġringle": 18211,
    "vocation": 25087,
    "Ġappropri": 2227,
    "imble": 10860,
    "nical": 20993,
    "Ġvivacity": 14944,
    "Ġcreeping": 18682,
    "Ġpapered": 20134,
    "Ġaway": 1244,
    "Ġdollars": 11457,
    "Ġcalmness": 12098,
    "Ġthere": 564,
    "Ġrelaxed": 12989,
    "Ġglimmered": 20174,
    "mechan": 11861,
    "Ġeigen": 4882,
    "Ġtools": 11612,
    "Ġinduce": 7763,
    "Ġlookest": 22718,
    "Ġthrone": 12218,
    "ĠĠĠĠĠĠĠĠĠĠĠĠĠĠĠĠĠĠĠĠĠĠĠĠĠĠĠĠ": 9978,
    "Ġplanning": 14754,
    "bee": 16043,
    "urities": 18051,
    "streamed": 25967,
    "ction": 496,
    "Ġdimension": 3243,
    "fitted": 17546,
    "Ġspinal": 12306,
    "Ġhears": 8139,
    "Ġunseason": 22054,
    "Ġfritters": 23257,
    "anced": 1337,
    "Ġaffront": 18789,
    "cially": 3491,
    "Ġcircumvent": 25067,
    "Ġfilled": 4397,
    "Ġfinny": 23129,
    "Ġhereditary": 10667,
    "ead": 2596,
    "Ġhabitu": 19531,
    "bounded": 13443,
    "regularization": 3516,
    "Ġsuccess": 3611,
    "Ġagonising": 25374,
    "utarch": 15667,
    "Ġicicles": 25265,
    "Ġdemanded": 8327,
    "cher": 5786,
    "Ġburgl": 13177,
    "Ġlone": 11616,
    "Ġencaps": 12967,
    "Ġthen": 667,
    "butt": 15999,
    "told": 7811,
    "Ġblotting": 25314,
    "Ġmetaphysical": 26070,
    "recollect": 17226,
    "engine": 18929,
    "Ġsultanism": 25889,
    "owed": 2268,
    "Ġroaring": 10970,
    "Ġreceive": 4704,
    "Ġsevere": 6033,
    "equally": 19901,
    "pure": 17628,
    "Ġalleged": 17293,
    "Ġpooh": 18604,
    "Ġassuredly": 14825,
    "Ġfigures": 8633,
    "Ġsiamese": 20486,
    "Ġprivate": 5346,
    "Ġessentials": 20006,
    "Ġsubsc": 22793,
    "Ġ83": 24459,
    "Ġazure": 12378,
    "Ġties": 12532,
    "text": 1976,
    "Ġcompetition": 14269,
    "Ġthirdly": 24145,
    "Ġcapstan": 9102,
    "Ġneeded": 7718,
    "Ġcomposition": 1687,
    "so": 889,
    "ĠâĢĶâĢĶ": 25758,
    "Ġfatal": 5873,
    "itary": 4752,
    "Ġbeau": 9227,
    "umber": 5241,
    "Ġinventing": 24862,
    "orand": 21400,
    "Ġsomewhere": 5384,
    "proachable": 23401,
    "Ġnights": 7258,
    "Ġbra": 3257,
    "equal": 14996,
    "Ġrugged": 18722,
    "course": 6106,
    "silent": 9977,
    "Ġrocks": 6863,
    "antically": 22100,
    "iloqu": 11651,
    "Ġbraved": 23841,
    "Ġbitterness": 8024,
    "Ġapparelled": 20440,
    "Ġparch": 11730,
    "Ġfrankly": 16747,
    "Ġdaresay": 14707,
    "iscre": 17852,
    "assembled": 21548,
    "ok": 572,
    "Ġindisposed": 26290,
    "sham": 9760,
    "stopping": 19353,
    "atha": 6574,
    "tting": 17682,
    "icip": 6390,
    "Ġincantation": 26259,
    "burning": 25081,
    "sum": 2089,
    "possesses": 24617,
    "Ġinsanity": 12051,
    "msman": 9273,
    "Ġsickle": 24248,
    "_--": 20764,
    "Ġjollies": 20373,
    "wor": 3415,
    ".;": 20746,
    "rub": 15904,
    "Ġinconceivable": 17940,
    "Ġslay": 16311,
    "Ġproductions": 22951,
    "ingle": 1040,
    "Ġdrive": 5055,
    "around": 12613,
    "du": 604,
    "language": 5129,
    "Ġpreservative": 24630,
    "luckily": 19755,
    "Ġheinous": 18041,
    "feren": 767,
    "careful": 14869,
    "Ġhenceforth": 19645,
    "Ġcounters": 24142,
    "Ġtraced": 10386,
    "extric": 22758,
    "method": 17287,
    "beneath": 9538,
    "falling": 24361,
    "elter": 21574,
    "enger": 10775,
    "Ġexempt": 21832,
    "bourn": 3302,
    "amet": 585,
    "erick": 13851,
    "Ġfaultless": 24540,
    "ableness": 8149,
    "alterable": 13628,
    "imprisonment": 23764,
    "Ġpreventing": 884,
    "Ġpreparing": 8651,
    "Ġinscrut": 10037,
    "ions": 448,
    "tears": 11040,
    "Ġrevolut": 3260,
    "Ġsuperstition": 15057,
    "Ġremorse": 6442,
    "Ġstrive": 23695,
    "Ġfoliage": 18869,
    "walks": 19724,
    "Ġding": 12604,
    "lingering": 18602,
    "Ġfortunately": 12184,
    "ivery": 17575,
    "Ġsnatching": 10474,
    "het": 5435,
    "ked": 5616,
    "Ġcontain": 1553,
    "!âĢĿâĢĶ": 8535,
    "ici": 8441,
    "ousand": 2431,
    "strikes": 24671,
    "present": 1136,
    "Ġjustification": 22971,
    "Ġturkey": 19221,
    "ink": 754,
    "Ġconceivable": 16615,
    "eld": 967,
    "destined": 24115,
    "Ġtalent": 12301,
    "Ġsadder": 24054,
    "vens": 21115,
    "Ġjackson": 24243,
    "Ġdiscredit": 22785,
    "Ġlivelihood": 24773,
    "Ġinexperienced": 26101,
    "Ġforfeit": 21779,
    "z": 94,
    "Ġknowledge": 1446,
    "Ġflukes": 5267,
    "Ġgam": 11627,
    "Ġdeveloped": 16359,
    "Ġfriesland": 26444,
    "Ġbapt": 13899,
    "been": 3344,
    "century": 20050,
    "sad": 11523,
    "Ġreceiving": 4883,
    "Ġvalued": 12187,
    "Ġsolutions": 1949,
    "Ġwail": 21289,
    "Ġcuriosity": 2484,
    "omin": 4703,
    "Ġstages": 14008,
    "Ġcurling": 9346,
    "thick": 10263,
    "Ġshrieked": 9551,
    "Ġmodeling": 2097,
    "Ġpend": 15611,
    "Ġsash": 17756,
    "ifled": 14066,
    "Ġexaggerated": 25651,
    "Ġcared": 8787,
    "pertaining": 22183,
    "Ġwar": 5526,
    "Ġrepresentations": 1877,
    "laughing": 15183,
    "Ġthankful": 14741,
    "Ġbeauty": 3770,
    "Ġfiner": 13058,
    "Ġjewels": 12373,
    "Ġcrushed": 9426,
    "Ġtackle": 9516,
    "pond": 21015,
    "convolutional": 4958,
    "Ġincorrupt": 19236,
    "Ġmariner": 7247,
    "Ġunion": 6839,
    "Ġstubborn": 10416,
    "occasional": 19579,
    "Ġfrankness": 16748,
    "atives": 2235,
    "happiest": 19334,
    "entire": 6824,
    "yellow": 9627,
    "Ġtongues": 14866,
    "lish": 1954,
    "umberland": 16839,
    "Ġarise": 7896,
    "Ġunde": 11716,
    "Ġdictionary": 15116,
    "rents": 5310,
    "Ġconscience": 6929,
    "accents": 19213,
    "gument": 20887,
    "Ġopportunity": 4787,
    "maybe": 23994,
    "Ġvill": 3878,
    "Ġwhatever": 3476,
    "Ġwaylaid": 22878,
    "Ġamusements": 16915,
    "razor": 21640,
    "Ġcongeal": 25981,
    "access": 11182,
    "verse": 9691,
    "Ġcandles": 9911,
    "conc": 3947,
    "Ġdeliberate": 15025,
    "prob": 7071,
    "alogies": 25162,
    "Ġpirate": 14998,
    "fuller": 22490,
    "Ġmystery": 5509,
    "sort": 6799,
    "seals": 21822,
    "Ġjollity": 25567,
    "transp": 24512,
    "Ġefficiently": 4091,
    "Ġseverity": 15822,
    "ravelled": 18017,
    "Ġunnecessary": 8855,
    "Ġdeuteronomy": 15765,
    "Ġanxious": 4519,
    "Ġsanctioned": 26352,
    "delightful": 12201,
    "himself": 3971,
    "Ġcommunication": 1872,
    "promising": 24725,
    "Ġrags": 18648,
    "Ġarid": 22186,
    "Ġsulphur": 24934,
    "Ġacquaintances": 17353,
    "Ġflee": 7081,
    "Ġuntimely": 16469,
    "Ġpreservation": 24631,
    "Ġmorbid": 16238,
    "Ġencourages": 2062,
    "Ġchaff": 18383,
    "seemed": 4306,
    "Ġbenefits": 4289,
    "slight": 10729,
    "Ġmaj": 3927,
    "Ġnomin": 10193,
    "\"": 6,
    "Ġcomely": 21847,
    "Ġdeduction": 14904,
    "ocations": 23709,
    "Ġfuneral": 10285,
    "ple": 455,
    "spot": 9791,
    "Ġclut": 7642,
    "cause": 7796,
    "iosity": 2358,
    "wedged": 24559,
    "inexplicable": 25809,
    "Ġhaste": 9006,
    "cure": 11476,
    "Ġconvivial": 16550,
    "Ġnobleman": 19395,
    "Ġsat": 1130,
    "omon": 10209,
    "inde": 17733,
    "Ġreconciled": 13591,
    "Ġfest": 10806,
    "nur": 11508,
    "Ġrapid": 1452,
    "Ġlivid": 14992,
    "Ġworaciousness": 22934,
    "Ġpillows": 24989,
    "reclining": 20577,
    "eight": 9594,
    "Ġcanvas": 7784,
    "suspect": 9543,
    "Ġpromote": 23195,
    "Ġdefinite": 11071,
    "Ġvehemently": 26040,
    "nostril": 26561,
    "mblance": 7323,
    "Ġhusband": 3621,
    "stranded": 19227,
    "Ġdreadfully": 7726,
    "Ġaccumulation": 2692,
    "Ġportra": 9012,
    "Ġensl": 19276,
    "Ġrash": 10900,
    "Ġcharnel": 22256,
    "anywhere": 14684,
    "excitement": 19672,
    "Ġlux": 8818,
    "Ġodd": 6627,
    "Ć": 199,
    "Ġdoubting": 13105,
    "Ġstrictest": 17043,
    "Ġai": 3131,
    "party": 8995,
    "speaking": 12103,
    "Ġsquares": 11171,
    "etah": 12666,
    "Ġlovers": 9723,
    "84": 15305,
    "Ġappalling": 8501,
    "Ġdesk": 11911,
    "riv": 3112,
    "preservation": 25306,
    "inea": 7623,
    "thy": 2932,
    "sleeping": 13458,
    "Ġslowly": 3619,
    "Ġdisc": 943,
    "Ġstudents": 23236,
    "felix": 10656,
    "Ġarrangements": 16517,
    "befall": 22499,
    "Ġexcess": 3342,
    "ressing": 8922,
    "Ġ129": 24474,
    "Ġtrifle": 10604,
    "Ġpronounced": 8351,
    "oquent": 12504,
    "ilege": 22260,
    "[_": 5131,
    "orns": 12597,
    "Ġterritories": 23849,
    "Ġparties": 7040,
    "Ġknow": 632,
    "Ġscream": 5936,
    "Ġallies": 18235,
    "atherine": 2592,
    "Ġalleviated": 26205,
    "Ġaf": 784,
    "Ġimperilled": 19581,
    "rugg": 15907,
    "Ġgeneralization": 983,
    "lected": 1638,
    "Ġcoin": 9774,
    "Ġregain": 22589,
    "ispensable": 9099,
    "Ġspecific": 2004,
    "Ġdip": 13910,
    "Ġinch": 7850,
    "boats": 6206,
    "Ġgoverning": 2795,
    "sixty": 24853,
    "perfectly": 9089,
    "vid": 917,
    "Ġannot": 15607,
    "homely": 25618,
    "Ġsinking": 7307,
    "Ġnineveh": 13393,
    "Ġharp": 17926,
    "Ġscramble": 24579,
    "Ġhails": 21954,
    "Ġexasperate": 20101,
    "Ġrespectability": 14487,
    "borean": 25744,
    "prick": 19346,
    "Ġprescribed": 26011,
    "ermost": 7430,
    "Ġquoin": 22422,
    "Ġfright": 3798,
    "hearted": 6971,
    "Ġsoul": 2727,
    "inburgh": 15494,
    "Ġgesture": 11401,
    "Ġeconomy": 17203,
    "Ġparagra": 15884,
    "otently": 21804,
    "Ġtemple": 7655,
    "Ġanat": 8124,
    "Ġferrule": 24500,
    "Ġexal": 10879,
    "Ġbabies": 19695,
    "Ġthreshold": 2808,
    "Ġloathing": 15071,
    "Ġlimped": 19183,
    "incl": 8110,
    "Ġal": 342,
    "Ġoffended": 7042,
    "Ġcontemptuously": 19836,
    "Ġ500": 24324,
    "Ġunra": 18238,
    "Ġelect": 10844,
    "empty": 23636,
    "apology": 22338,
    "Ġpleasanter": 19067,
    "Ġzoology": 22824,
    "Ġwishes": 4796,
    "Ġbusier": 23341,
    "Ġmidnight": 5266,
    "adier": 18092,
    "Ġhorrify": 23822,
    "Ġloses": 15878,
    "Ġsays": 3563,
    "Ġstooped": 14466,
    "immediately": 10052,
    "Ġbraided": 16584,
    "Ġmoose": 22435,
    "methodically": 20666,
    "Ġpresence": 5031,
    "Ġelimin": 16113,
    "derick": 22166,
    "Ġscope": 15947,
    "Ġempt": 5051,
    "Ġriver": 5411,
    "Ġphysiology": 25333,
    "Ġoars": 3898,
    "Ġsound": 2241,
    "Ġodious": 12155,
    "impul": 16558,
    "Ġcanoes": 12812,
    "Ġdestroyed": 5272,
    "Ġtranquillize": 24756,
    "sing": 5138,
    "Ġfrayed": 23295,
    "Ġsugg": 4501,
    "resp": 13842,
    "Ġmason": 10160,
    "lestrade": 9659,
    "Ġnightfall": 23133,
    "Ġoat": 21326,
    "Ġdolphin": 17315,
    "Ġcourse": 2131,
    "grace": 5847,
    "Ġicelandic": 25887,
    "execution": 20475,
    "Ġomn": 8411,
    "thar": 18218,
    "Ġdecipher": 22459,
    "Ġinference": 9674,
    "dried": 20829,
    "Ġbrink": 18772,
    "oun": 483,
    "Ġstigma": 25792,
    "Ġuntamed": 19166,
    "Ġraw": 3321,
    "Ġaint": 17746,
    "Ġconstruction": 9388,
    "Ġshrugged": 12774,
    "Ġencoder": 3636,
    "Ġgreeting": 18964,
    "Ġreusable": 13561,
    "Ġimprovements": 14509,
    "Ġjourneys": 19478,
    "india": 22375,
    "Ġsavage": 4009,
    "Ġfear": 2275,
    "Ġperfume": 25666,
    "arranted": 19322,
    "justice": 7958,
    "surd": 6934,
    "Ġmerest": 14033,
    "Ď": 207,
    "iliation": 10862,
    "Ġdegraded": 19228,
    "Ġoily": 13867,
    "1": 21,
    "Ġcomforted": 19394,
    "Ġlearnable": 3993,
    "iard": 9604,
    "Ġserm": 9636,
    "inian": 21185,
    "Ġexperiment": 11921,
    "whaleman": 23440,
    "confid": 14870,
    "Ġtoiled": 12647,
    "Ġstooping": 13067,
    "Ġtwentieth": 18660,
    "Ġkeenly": 9488,
    "ilst": 8144,
    "Ġoffences": 18690,
    "ignity": 4377,
    "Ġspoil": 17009,
    "Ġpangs": 15620,
    "al": 292,
    "Ġpressing": 9264,
    "sleepy": 24728,
    "Ġomit": 17817,
    "owers": 12690,
    "mountain": 10715,
    "Ġfluctuations": 5516,
    "revenge": 13845,
    "Ġflesh": 5970,
    "husband": 8042,
    "Ġblubber": 5666,
    "Ġwilt": 9646,
    "ounts": 4652,
    "Ġmortally": 23920,
    "Ġfeet": 2257,
    "Ġposs": 1617,
    "Ġsprung": 11250,
    "Ġcommod": 10336,
    "Ġdecomposition": 5343,
    "transform": 8050,
    "Ġquivered": 18468,
    "Ġproperty": 6451,
    "secure": 12240,
    "Ġlatitudes": 9499,
    "ă": 196,
    "prevented": 20377,
    "fitzwilliam": 11354,
    "Ġhull": 5446,
    "imprudent": 14653,
    "Ġalso": 1343,
    "Ġtwitch": 22679,
    "Ġappointment": 10649,
    "servants": 15040,
    "bble": 17487,
    "Ġmanifested": 17160,
    "Ġchamois": 16802,
    "iled": 1762,
    "bruary": 15239,
    "Ġtheoretically": 3568,
    "Ġfre": 1572,
    "unworthy": 18164,
    "edily": 17946,
    "scattered": 22998,
    "anzas": 17842,
    "Ġirregularity": 25325,
    "uting": 15665,
    "gall": 6361,
    "covery": 11173,
    "Ġmort": 3460,
    "aired": 8369,
    "Ġover": 555,
    "Ġwarp": 8113,
    "Ġplacid": 11830,
    "Ġincognita": 26553,
    "Ġsurrounds": 24234,
    "claim": 9838,
    "scheme": 15258,
    "Ġbearded": 15732,
    "Ġhis": 380,
    "Ġthreatening": 16830,
    "Ġsacrific": 15020,
    "Ġhoars": 19079,
    "hic": 3251,
    "irious": 15791,
    "throwing": 11707,
    "Ġcellars": 24666,
    "fulfil": 16042,
    "apside": 22965,
    "ifice": 7199,
    "Ġinfamous": 16369,
    "lessness": 5318,
    "Ġfirm": 3872,
    "Ġrocking": 10971,
    "Ġsoldiers": 8690,
    "ouraged": 22863,
    "Ġriveted": 13622,
    "stump": 21656,
    "Ġdegradation": 2628,
    "Ġbraz": 19361,
    "Ġplumage": 17301,
    "ceiling": 21630,
    "Ġjapanese": 10635,
    "uer": 21103,
    "und": 4118,
    "ifle": 10893,
    "Ġblemish": 19682,
    "Ġhypothe": 4072,
    "aintance": 3571,
    "pall": 17630,
    "Ġpeople": 2541,
    "Ġcandidates": 4336,
    "def": 1451,
    "Ġquarrels": 16569,
    "Ġnam": 17951,
    "gener": 3129,
    "ient": 393,
    "Ġfestival": 25446,
    "Ġrokovoko": 22412,
    "Ġintervening": 17270,
    "inkers": 22617,
    "blast": 9590,
    "3": 23,
    "introduced": 15128,
    "Ġallurements": 22011,
    "Ġlowering": 7987,
    "Ġsaved": 6692,
    "insupportable": 21196,
    "Ġelectric": 15198,
    "liter": 11504,
    "Ġadded": 2718,
    "Ġtrades": 8232,
    "partly": 14604,
    "Ġexcited": 5580,
    "pton": 15797,
    "Ġlandless": 23382,
    "Ġsparing": 22133,
    "Ġlowermost": 23244,
    "Ġcrooked": 11283,
    "Ġours": 4613,
    "Ġbreathless": 12174,
    "Ġastern": 6091,
    "Ġhopeless": 7462,
    "03": 20750,
    "û": 188,
    "hedge": 22503,
    "Ġcad": 12573,
    "terogene": 21829,
    "gradually": 12920,
    "Ġrefres": 14345,
    "cott": 8074,
    "quitted": 21861,
    "Ġfeedback": 23435,
    "distinctive": 25726,
    "extensive": 18705,
    "oved": 5215,
    "impression": 15716,
    "introduce": 25187,
    "Ġvirtuous": 14758,
    "Ġclamorous": 24910,
    "tural": 21069,
    "Ġcommodore": 12399,
    "furnished": 20244,
    "Ġlean": 7603,
    "Ġdent": 13909,
    "dared": 13706,
    "Ġpil": 5014,
    "Ġmirror": 12382,
    "Ġdisenc": 22530,
    "Ġscowl": 22289,
    "ont": 2617,
    "affection": 7487,
    "Ġholds": 7976,
    "Ġeagle": 13204,
    "inal": 15484,
    "Ġostentatious": 25737,
    "Ġadver": 5641,
    "oug": 431,
    "Ġlethar": 21735,
    "Ġshipped": 9718,
    "Ġcrevice": 22723,
    "Ġsales": 12811,
    "ultaneously": 4195,
    "bestowed": 12230,
    "Ġzealand": 12354,
    "widows": 25345,
    "Ġhur": 2101,
    "Ġabode": 7900,
    "aked": 2017,
    "Ġyawning": 12304,
    "Ġasleep": 6836,
    "exciting": 19671,
    "pigs": 17143,
    "Ġbecalmed": 18089,
    "©": 107,
    "Ġcontradicted": 20214,
    "Ġ68": 24370,
    "================": 3725,
    "Ġmusty": 22683,
    "unte": 21877,
    "ands": 21870,
    "..": 5783,
    "Ġnapkins": 25165,
    "consumed": 25676,
    "lic": 17589,
    "calmed": 16208,
    "Ġshut": 3942,
    "io": 3803,
    "indifferent": 14211,
    "cely": 3576,
    "Ġnervously": 19186,
    "Ġvenge": 5420,
    "Ġlip": 6534,
    "ries": 3353,
    "Ġprediction": 2144,
    "Ġhud": 10824,
    "quietude": 24656,
    "hue": 20901,
    "Ġlatterly": 24084,
    "Ġsuffer": 4722,
    "Ġbrut": 18770,
    "rador": 19129,
    "embedding": 20360,
    "Ġlion": 9678,
    "Ġinvoked": 19146,
    "Ġlicense": 20094,
    "Ġdialogue": 12408,
    "Ġvary": 15812,
    "Ġhushed": 13928,
    "shadow": 20315,
    "Ġtechn": 9383,
    "Ġemper": 9864,
    "thr": 12765,
    "Ġunreasoning": 15850,
    "Ġ182": 13241,
    "Ġconfident": 11140,
    "reast": 17760,
    "beating": 22493,
    "insist": 23067,
    "Ġbroods": 23106,
    "Ġnur": 5710,
    "Ġunkindness": 22044,
    "Ġshreds": 12775,
    "Ġpaternal": 16392,
    "Ġentreaties": 9038,
    "Ġcottage": 4735,
    "Ġparliament": 18303,
    "Ġimmense": 4952,
    "Ġhospital": 15042,
    "Ġaccosted": 13676,
    "Ġcripple": 11442,
    "ittance": 12851,
    "Ġdeduce": 8337,
    "Ġruss": 18721,
    "Ġ17": 5740,
    "Ġrearing": 12682,
    "Ġconsciousness": 9951,
    "Ġlimbs": 5967,
    "Ġstiffness": 24828,
    "Ġimbedded": 18333,
    "Ġsexes": 25172,
    "Ġnormal": 1207,
    "Ġgayer": 24501,
    "Ġgamb": 18000,
    "Ġflapped": 23014,
    "Ġwa": 1751,
    "vital": 17702,
    "lik": 3916,
    "Ġgriff": 22809,
    "Ġfond": 4756,
    "Ġclicked": 22357,
    "within": 6732,
    "Ġincreasing": 8247,
    "Ġdispelling": 23883,
    "Ġhurtling": 24960,
    "got": 6955,
    "Ġwhistled": 24624,
    "excited": 13384,
    "ented": 4351,
    "Ġbits": 11591,
    "Ġtremble": 6906,
    "Ġleading": 7297,
    "miserable": 8660,
    "Ġsensibly": 14516,
    "Ġfitness": 24003,
    "Ġblu": 2685,
    "Ġscrews": 25178,
    "strength": 13983,
    "Ġfluid": 11214,
    "Ġfain": 5809,
    "Ġstingy": 25456,
    "Ġthews": 21280,
    "shooting": 16967,
    "grand": 7970,
    "already": 6981,
    "astrop": 3316,
    "flying": 13724,
    "Ġselves": 21225,
    "Ġnum": 1349,
    "Ġministers": 22841,
    "shape": 10983,
    "kers": 7134,
    "_âĢĶâĢĻ": 13686,
    "Ġraft": 16122,
    "Ġnominally": 17234,
    "Ġignorance": 6621,
    "pier": 17637,
    "Ġcoach": 6867,
    "liament": 16224,
    "Ġreckon": 19872,
    "Ġirritated": 17244,
    "Ġdesires": 9460,
    "Ġswe": 2287,
    "earliest": 20123,
    "pig": 8756,
    "exper": 8882,
    "Ġcolouring": 16753,
    "Ġbackgammon": 22649,
    "Ġstranger": 3487,
    "Ġtriumph": 5143,
    "Ġsleeve": 20143,
    "Ġcomplement": 23711,
    "Ġenthr": 22746,
    "apes": 9744,
    "Ġsubs": 2130,
    "Ġsweat": 13144,
    "maged": 15397,
    "Ġevermore": 18810,
    "Ġmarking": 16471,
    "Ġbonds": 17871,
    "addressing": 24401,
    "tur": 5688,
    "Ġgenerates": 3664,
    "Ġfo": 1652,
    "Ġmoderation": 12824,
    "uned": 21875,
    "extending": 22759,
    "asked": 8915,
    "plain": 1357,
    "Ġdisgraceful": 15022,
    "Ġamend": 16040,
    "ibility": 2390,
    "Ġenchantment": 24870,
    "Ġunnaturally": 24871,
    "earn": 10698,
    "Ġunbroken": 18251,
    "Ġbiscuit": 12594,
    "_": 67,
    "rodden": 21538,
    "Ġar": 480,
    "Ġfurnish": 9022,
    "iqu": 7803,
    "ifully": 13188,
    "Ġorphan": 12387,
    "you": 1005,
    "nothing": 3156,
    "Ġassiduous": 26294,
    "assistant": 25568,
    "Ġflung": 8566,
    "Ġisol": 8838,
    "Ġdiamond": 15604,
    "Ġwonders": 7500,
    "Ġdivulged": 16651,
    "Ġdependencies": 2313,
    "Ġclutches": 20021,
    "Ġeagerly": 4990,
    "etus": 21581,
    "Ġfoundling": 22973,
    "tempt": 21082,
    "eskye": 21453,
    "Ġfrenchman": 11285,
    "iced": 3901,
    "Ġclutch": 15056,
    "Ġcompliment": 5673,
    "Ġsaville": 15894,
    "Ġparents": 6754,
    "thyself": 19299,
    "Ġimmensity": 25330,
    "Ġsentin": 16376,
    "Ġstronger": 8582,
    "philips": 20038,
    "Ġbluish": 23651,
    "Ġthreads": 13122,
    "spiracle": 22731,
    "Ġbaw": 15574,
    "Ġended": 7950,
    "Ġstories": 10867,
    "Ġgroan": 13329,
    "Ġdr": 2824,
    "Ġperpendicular": 7209,
    "Ġon": 350,
    "Ġoblivious": 26033,
    "Ġlasted": 11055,
    "Ġtamer": 24979,
    "Ġcountless": 16384,
    "oub": 1634,
    "amouch": 21855,
    "Ġrebell": 21672,
    "Ġboth": 1656,
    "national": 21000,
    "inted": 2645,
    "Ġfast": 1715,
    "prisoner": 20546,
    "Ġaudibly": 24770,
    "poky": 17646,
    "Ġmornings": 16239,
    "Ġfixedly": 19250,
    "Ġaloud": 6254,
    "james": 15376,
    "Ġconvenience": 11333,
    "charge": 9452,
    "Ġdoze": 14177,
    "Ġconclude": 8584,
    "longbourn": 9898,
    "Ġlane": 5627,
    "Ġrigid": 16718,
    "Ġwalton": 14975,
    "Ġisolation": 17153,
    "Ġevident": 6615,
    "Ġrelease": 19292,
    "words": 7983,
    "Ġrumpled": 24601,
    "Ġparis": 8179,
    "Ġdealer": 23980,
    "marest": 20982,
    "Ġalleys": 25979,
    "Ġclearly": 6897,
    "Ġhired": 10180,
    "offered": 14521,
    "Ġunreliable": 3929,
    "hoped": 20912,
    "Ġremorseless": 13455,
    "supposing": 24135,
    "moreover": 12974,
    "ilingly": 21727,
    "conviction": 19968,
    "aker": 3663,
    "Ġamericans": 14746,
    "onder": 3781,
    "Ġliberally": 16832,
    "unch": 14061,
    "hearts": 13349,
    "Ġbagging": 24539,
    "Ġhist": 2445,
    "anting": 6413,
    "possess": 5985,
    "dw": 3333,
    "ribbed": 16416,
    "hurried": 11355,
    "Ġgoose": 5939,
    "Ġpurchase": 12264,
    "Ġflank": 8229,
    "reading": 12084,
    "worked": 19015,
    "Ġpence": 17907,
    "Ġmust": 844,
    "Ġbeck": 14012,
    "Ġincorporated": 25710,
    "latter": 15386,
    "Ġskilfully": 20527,
    "Ġreverber": 19871,
    "Ġsharks": 4499,
    "slipped": 25530,
    "Ġcloset": 19594,
    "Ġvomit": 21950,
    "Ġflogged": 23626,
    "Ġbuffaloes": 25218,
    "Ġwonderfully": 10432,
    "Ġpetticoat": 15299,
    "eag": 20844,
    "recollected": 25348,
    "Ġoffence": 12949,
    "Ġeternally": 11371,
    "Ġspoon": 22138,
    "ute": 4643,
    "Ġbiography": 22769,
    "musical": 25341,
    "study": 15121,
    "ab": 345,
    "Ġnail": 9198,
    "Ġsmoothed": 23661,
    "Ġquestioning": 10466,
    "Ġfrigid": 17355,
    "butter": 11789,
    "arboard": 7266,
    "ucy": 15448,
    "Ġoarsmen": 7738,
    "Ġpuff": 6527,
    "Ġbehooves": 20735,
    "stalk": 21653,
    "jumping": 20248,
    "unks": 15780,
    "Ġsluggish": 25891,
    "Ġincreasingly": 9373,
    "Ġlamb": 8817,
    "remembrance": 25703,
    "Ġelement": 6898,
    "Ġclothes": 4997,
    "gu": 3957,
    "greenland": 10024,
    "olera": 21837,
    "Ġretained": 7174,
    "regular": 3044,
    "monster": 8595,
    "shore": 10307,
    "tack": 12517,
    "ton": 1725,
    "Ġbennett": 16329,
    "Ġsounding": 8265,
    "Ġstrolled": 16772,
    "Ġglanced": 5953,
    "names": 15401,
    "Ġdrives": 14580,
    "Ġwhich": 505,
    "Ġperf": 12854,
    "Ġwhitney": 11375,
    "call": 8726,
    "Ġspring": 4121,
    "Ġvagueness": 25738,
    "probably": 10023,
    "Ġdestabilizing": 5053,
    "ckets": 6843,
    "ellest": 21577,
    "Ġsuspicion": 6213,
    "rab": 7597,
    "Ġarmy": 11745,
    "Ġincl": 4273,
    "Ġfive": 2836,
    "idea": 9304,
    "Ġimpass": 15990,
    "stuff": 15693,
    "Ġtrack": 7450,
    "Ġtrans": 653,
    "Ġmarked": 4620,
    "gorith": 549,
    "Ġdead": 2173,
    "whose": 6852,
    "Ġglit": 8563,
    "slightest": 25417,
    "alous": 7372,
    "skinned": 25388,
    "Ġbas": 6381,
    "Ġbarn": 11590,
    "Ġowner": 8925,
    "Ġlingu": 11617,
    "Ġoysters": 20582,
    "Ġtranspointed": 22472,
    "Ġstrat": 16097,
    "Ġimbu": 15896,
    "Ġexternal": 8365,
    "arson": 22753,
    "Ġreferences": 21677,
    "Ġanvil": 11600,
    "Ġwickedness": 9529,
    "Ġmouldy": 14977,
    "iteous": 14264,
    "uits": 21107,
    "niece": 20997,
    "contrad": 19293,
    "creation": 14809,
    "Ġdeprived": 8209,
    "hunting": 24385,
    "Ġsuppressed": 11915,
    "nne": 20991,
    "Ġflora": 11418,
    "Ġleviathans": 8282,
    "chery": 24551,
    "Ġsec": 2077,
    "Ġapproved": 16037,
    "£": 101,
    "Ġling": 7377,
    "Ġindiam": 22958,
    "iffs": 9025,
    ":": 30,
    "Ġemblazonings": 26041,
    "Ġbased": 3339,
    "adequate": 15207,
    "Ġthr": 5709,
    "Ġmeddling": 21323,
    "Ġrepelled": 19087,
    "Ġspite": 4155,
    "Ġhedgehog": 10647,
    "Ġdow": 17888,
    "missed": 11211,
    "xi": 17712,
    "Ġprofessed": 14727,
    "Ġpoles": 11005,
    "Ġtracing": 18890,
    "ancholy": 5070,
    "Ġplaces": 5390,
    "Ġbrazier": 26322,
    "Ġdepress": 14049,
    "ting": 1331,
    "Ġexpiration": 22626,
    "Ġcasement": 25095,
    "Ġdifferently": 10391,
    "renew": 24450,
    "Ġwhitewashed": 14471,
    "iance": 5280,
    "king": 3062,
    "tra": 5002,
    "six": 7143,
    "ph": 930,
    "Ġmate": 3708,
    "ribly": 8255,
    "Ġmelt": 21320,
    "Ġ184": 16609,
    "Ġriverside": 25248,
    "asters": 8435,
    "Ġcro": 4874,
    "ricane": 16283,
    "Ġyourselves": 9031,
    "Ġinduced": 8674,
    "Ġframed": 19029,
    "Ġsloping": 11943,
    "sold": 15430,
    "Ġforster": 5230,
    "Ġspouted": 14677,
    "arent": 4252,
    "Ġlaurel": 20656,
    "Ġfry": 17881,
    "Ġpalms": 8647,
    "Ġmonsters": 11076,
    "Ġlun": 7856,
    "anyone": 16595,
    "Ġreminded": 10002,
    "Ġworm": 9165,
    "otted": 14027,
    "alog": 8809,
    "Ġmanhandle": 22333,
    "Ġexcurs": 23317,
    "hom": 12478,
    "throughout": 24089,
    "Ġdeclare": 6617,
    "Ġtransf": 22469,
    "Ġsteadfastly": 10654,
    "Ġhelped": 7459,
    "Ġevince": 24295,
    "iverse": 13120,
    "Ġclin": 14203,
    "Ġgrie": 3585,
    "Ġchat": 6562,
    "keel": 14131,
    "~": 98,
    "teringly": 21827,
    "iv": 430,
    "Ġcoronation": 13338,
    "Ġstung": 21745,
    "moving": 11018,
    "hospit": 25904,
    "ĠmanÅĵuv": 18418,
    "Ġfloats": 9416,
    "Ġachieves": 4382,
    "stick": 15690,
    "swed": 24256,
    "hurriedly": 25511,
    "Ġpleasing": 6192,
    "acrity": 14283,
    "Ġnobly": 22245,
    "aration": 12612,
    "Ġhitherto": 5881,
    "ingolstadt": 21306,
    "aceti": 7113,
    "running": 6798,
    "iracle": 11246,
    "Ġensued": 11396,
    "Ġunfortunately": 10911,
    "vis": 4578,
    "square": 15062,
    "influence": 13582,
    "wol": 21125,
    "Ġbor": 5805,
    "Ġhated": 7585,
    "fabulous": 20477,
    "dataset": 23237,
    "Ġblandly": 20326,
    "Ġflower": 16236,
    "mass": 12494,
    "Ġcollapsed": 15085,
    "smoke": 17225,
    "Ġremainder": 9861,
    "lonely": 20959,
    "Ġbes": 2656,
    "Ġneg": 1330,
    "ellig": 526,
    "Ġdetailed": 12833,
    "Ġscruple": 25051,
    "Ġtwitched": 20447,
    "Ġlandau": 16424,
    "bacc": 7795,
    "Ġstalked": 20432,
    "billiard": 25335,
    "mess": 13756,
    "Ġsurround": 4618,
    "Ġassociated": 12254,
    "Ġcoils": 9306,
    "Ġutensils": 23518,
    "Ġgrown": 5628,
    "Ġmurder": 4283,
    "Ġungod": 22026,
    "Ġsituations": 10494,
    "aulding": 11341,
    "Ġindirectly": 8942,
    "Ġ66": 24369,
    "connections": 14431,
    "produ": 10722,
    "Ġcalls": 6746,
    "Ġdrab": 13075,
    "agonies": 21913,
    "diff": 9116,
    "luxur": 25823,
    "Ġshoved": 23494,
    "Ġpillar": 21476,
    "Ġcanal": 8182,
    "Ġringleader": 26214,
    "adler": 21766,
    "Ġmorphology": 3009,
    "breadth": 20279,
    "Ġimpenetrable": 17400,
    "rospect": 11615,
    "civility": 17515,
    "Ġsweeping": 8988,
    "âĢĻ": 378,
    "Ġjabez": 11770,
    "Ġreconciliation": 25293,
    "Ġplayful": 19239,
    "Ġspared": 7893,
    "Ġecho": 12671,
    "clever": 20815,
    "nial": 20986,
    "Ġweakness": 9970,
    "Ġbury": 12046,
    "ser": 1425,
    "Ġwidest": 24237,
    "Ġgladly": 14683,
    "Ġseething": 18202,
    "agon": 7871,
    "mat": 2201,
    "isc": 6241,
    "steering": 16638,
    "Ġclatter": 22349,
    "Ġreason": 1390,
    "bots": 10085,
    "Ġbul": 3294,
    "loom": 18539,
    "Ġfilm": 23929,
    "ime": 625,
    "delirium": 14787,
    "Ġdetermination": 9822,
    "Ġdard": 21425,
    "Ġregularity": 22791,
    "Ġmccauley": 26429,
    "buoy": 7761,
    "Ġdel": 1616,
    "Ġdebar": 24274,
    "Ġteasing": 11896,
    "Ġswitzerland": 10382,
    "culiarity": 11143,
    "umn": 5836,
    "lovel": 22515,
    "subs": 14302,
    "Ġindef": 9192,
    "mense": 4781,
    "Ġglare": 13022,
    "Ġintrospect": 15834,
    "Ġsymbolize": 24963,
    "kind": 3865,
    "Ġarchitectures": 2909,
    "Ġhen": 3504,
    "Ġdull": 6385,
    "phil": 7925,
    "Ġweep": 7620,
    "Ġdread": 3165,
    "Ġplump": 14286,
    "quakes": 21860,
    "welcomed": 24645,
    "Ġdimens": 3152,
    "Ġleft": 1758,
    "Ġfulf": 6773,
    "itories": 15554,
    "Ġunmindful": 22068,
    "Ġstarve": 24626,
    "Ġgenius": 8046,
    "pop": 17633,
    "folly": 20864,
    "Ġtire": 17722,
    "Ġmustard": 12935,
    "Ġrev": 6989,
    "Ġask": 1491,
    "Ġsnodhead": 19303,
    "Ġtapping": 10754,
    "ounded": 9751,
    "Ġlaws": 8003,
    "thinness": 25811,
    "Ġelud": 22651,
    "Ġthine": 7374,
    "Ġcottagers": 6762,
    "Ġly": 2267,
    "Ġcoal": 18592,
    "beg": 22491,
    "Ġadequate": 20311,
    "Ġtrading": 23081,
    "Ġinitialized": 3948,
    "Ġwreath": 25937,
    "Ġepit": 18009,
    "Ġused": 2061,
    "Ġmartyr": 26362,
    "Ġgrease": 26191,
    "fif": 9119,
    "addition": 13388,
    "Ġdough": 8422,
    "supposed": 13320,
    "during": 6788,
    "idol": 21770,
    "ory": 1083,
    "ĠĠĠĠĠĠĠĠ": 711,
    "Ġsigmoid": 2462,
    "base": 20779,
    "Ġaudio": 24771,
    "grie": 12475,
    "Ġflurry": 18862,
    "Ġbordered": 24564,
    "Ġconsumm": 15158,
    "dar": 20826,
    "spade": 10341,
    "Ġstarry": 16925,
    "Ġfiendish": 13332,
    "Ġdespaired": 14671,
    "Ġall": 421,
    "Ġmisunderstood": 18708,
    "Ġrat": 4356,
    "Ġslipped": 6493,
    "Ġrumours": 24599,
    "Ġconjugal": 25104,
    "Ġexpands": 25238,
    "Ġfault": 5702,
    "Ġstraps": 19311,
    "Ġbob": 22641,
    "network": 1946,
    "Ġsmilingly": 22564,
    "aken": 1871,
    "aust": 15313,
    "velope": 17703,
    "Ġperforming": 7928,
    "ort": 522,
    "Ġadvertise": 25389,
    "Ġsignification": 19205,
    "Ŀ": 256,
    "abb": 15744,
    "Ġgoney": 14546,
    "overhearing": 19054,
    "inkling": 16095,
    "Ġbad": 3986,
    "Ġtowns": 11175,
    "Ġprophet": 7681,
    "ikes": 8087,
    "eness": 2288,
    "unaffected": 21887,
    "Ġhazarded": 25655,
    "ocr": 10470,
    "Ġtales": 10144,
    "Ġforbearance": 12332,
    "interval": 7991,
    "jury": 15377,
    "bingleys": 19637,
    "Ġtwig": 11854,
    "perpet": 14161,
    "ĠĠĠĠĠĠĠĠĠĠĠĠĠĠĠĠĠĠĠĠĠĠĠĠĠĠĠĠĠĠĠĠĠĠĠĠĠ": 14616,
    "pless": 6262,
    "Ġdiscovered": 4415,
    "Ġcouldn": 7649,
    "ency": 3870,
    "Ġthoughts": 3141,
    "Ġunimaginable": 15250,
    "Ġ51": 24316,
    "ula": 2825,
    "Ġgreatest": 4090,
    "steak": 14711,
    "pin": 13770,
    "instrument": 15242,
    "crossing": 19414,
    "hes": 1398,
    "Ġbudge": 15168,
    "Ġfrogs": 23927,
    "Ġtastes": 15481,
    "dragged": 16610,
    "Ġliterature": 17151,
    "Ġconv": 2966,
    "che": 3174,
    "uzza": 11272,
    "Ġstaple": 26200,
    "istic": 988,
    "Ġfield": 1250,
    "Ġscrolled": 22288,
    "Ġtread": 9412,
    "conditional": 9081,
    "Ġbishop": 13905,
    "Ġfoolish": 5981,
    "promote": 24726,
    "Ġuser": 15920,
    "Ġbegrim": 23018,
    "Ġmeans": 699,
    "Ġenforced": 21942,
    "Ġflash": 8230,
    "fthand": 26388,
    "Ġpewter": 17188,
    "Ġturbul": 23614,
    "Ġinformation": 1050,
    "Ġquebec": 24133,
    "arius": 14251,
    "Ġbreed": 19073,
    "Ġcombined": 8549,
    "anded": 5924,
    "Ġbuying": 23999,
    "Ġchannel": 26013,
    "revol": 12545,
    "Ġinstances": 5568,
    "iet": 1771,
    "stalls": 26475,
    "Ġmerryweather": 9525,
    "seaman": 25458,
    "Ġstripping": 23698,
    "Ġprobably": 4316,
    "Ġnumber": 1983,
    "Ġout": 543,
    "comple": 7441,
    "Ġinfatuated": 20536,
    "Ġanchor": 7368,
    "Ġginger": 9213,
    "Ġmeals": 12716,
    "Ġsupport": 6730,
    "waving": 21134,
    "Ġinter": 729,
    "rennial": 22345,
    "Ġbeliefs": 24583,
    "Ġeternity": 12283,
    "Ġfaults": 12217,
    "Ġwhip": 8453,
    "mund": 13761,
    "Ġmistaking": 23720,
    "utions": 1891,
    "Ġbrigandish": 25488,
    "assist": 11772,
    "Ġgamesome": 17292,
    "plifted": 9714,
    "Ġgeography": 23375,
    "Ġcountries": 13101,
    "Ġunsolved": 22035,
    "Ġtun": 6000,
    "Ġcompre": 4450,
    "Ġgodson": 23361,
    "Ġbecame": 2690,
    "Ġrewards": 10850,
    "Ġgour": 21601,
    "Ġpertur": 12855,
    "Ġ106": 24414,
    "wedding": 12526,
    "Ġ[": 6968,
    "Ġshaded": 14108,
    "ficial": 17550,
    "encies": 4078,
    "Ġgroups": 3721,
    "cart": 10692,
    "Ġexclusiveness": 23931,
    "Ġsuperb": 16445,
    "impulse": 20647,
    "Ġtap": 12531,
    "Ġcomputing": 2220,
    "Ġcred": 8785,
    "Ġinstantaneous": 14613,
    "Ġfortun": 4982,
    "Ġdelic": 4134,
    "Ġchoosing": 19593,
    "play": 5099,
    "Ġhooked": 19081,
    "icy": 6142,
    "Ġmutilated": 23962,
    "oftentimes": 19424,
    "Ġfanning": 23393,
    "Ġtarpaulin": 26158,
    "ldog": 21921,
    "Ġpattered": 19055,
    "confirmed": 19643,
    "Ġxerxes": 23413,
    "Ġindustry": 18839,
    "care": 4929,
    "calcul": 12992,
    "ustry": 18363,
    "Ġsimple": 1621,
    ";âĢĿâĢĶ": 20762,
    "urious": 21706,
    "Ġsoliloquized": 17305,
    "when": 1589,
    "valu": 1700,
    "avings": 12027,
    "Ġglowed": 24865,
    "headed": 4320,
    "Ġgomorrah": 21618,
    "Ġevils": 9023,
    "yra": 8103,
    "Ġmanifold": 13564,
    "ø": 185,
    "Ġmounting": 19980,
    "Ġfleet": 9435,
    "portent": 25413,
    "Ġresentment": 7530,
    "Ġadvised": 16216,
    "Ġdisagree": 22536,
    "ozy": 17624,
    "Ġcarted": 21353,
    "bb": 2800,
    "Ġchambermaid": 24306,
    "Ġscrutin": 26015,
    "Ġfuel": 13907,
    "chest": 11210,
    "fort": 1746,
    "author": 9863,
    "Ġaverage": 3142,
    "Ġincomplete": 17211,
    "Ġdusting": 24597,
    "nered": 18493,
    "comfortableness": 24525,
    "unavoidable": 17393,
    "neg": 12869,
    "Ġsadness": 13291,
    "neighb": 16031,
    "Ġpredictions": 1455,
    "invested": 17120,
    "Ġrouted": 24908,
    "Ġghastly": 10063,
    "Ġproceeding": 9909,
    "è": 169,
    "afer": 17484,
    "Ġlatent": 19658,
    "Ġlike": 669,
    "are": 639,
    "opic": 22486,
    "Ġnupt": 13946,
    "Ġplanisphere": 26609,
    "Ġlighted": 7064,
    "Ġsc": 528,
    "Ġfreshe": 13074,
    "Ġkne": 4269,
    "indulged": 22379,
    "Ġscrewed": 15124,
    "Ġ54": 24318,
    "behind": 6780,
    "Ġcounterpart": 24720,
    "Ġsearched": 15821,
    "Ġsorting": 3237,
    "Ġinnocence": 6478,
    "Ġgrandfather": 19425,
    "Ġfr": 1694,
    "Ġlothario": 26186,
    "timidity": 25754,
    "Ġaddressed": 5263,
    "Ġwooden": 4730,
    "Ġnast": 15644,
    "division": 20052,
    "Ġdearly": 10404,
    "Ġcircum": 8258,
    "Ġthing": 1641,
    "Ġfleecy": 17025,
    "Ġcultivated": 17367,
    "etrics": 21588,
    "Ġextrem": 2475,
    "Ġincred": 5646,
    "Ġvideo": 25366,
    "Ġextremity": 8991,
    "Ġspleen": 26423,
    "reve": 12544,
    "Ġpulling": 5864,
    "Ġclaim": 5106,
    "Ġhurricane": 16435,
    "Ġmorality": 22976,
    "Ġdismal": 11814,
    "Ġcurric": 22986,
    "Ġrepulses": 26071,
    "brought": 7285,
    "ment": 688,
    "ificent": 8184,
    "Ġjuggl": 20441,
    "Ġdaboll": 25951,
    "Ġgrateful": 7660,
    "Ġbull": 7839,
    "pretend": 24883,
    "requirements": 24858,
    "Ġrevenue": 26196,
    "Ġsubjected": 23574,
    "Ġcrowds": 14742,
    "constantinople": 25508,
    "ucumber": 19060,
    "Ġextras": 22748,
    "rices": 4560,
    "egyptians": 25899,
    "existence": 16019,
    "Ġtroublesome": 24005,
    "heaved": 21213,
    "Ġrambles": 17187,
    "Ġaffect": 1386,
    "Ġvolumes": 14802,
    "Ġprincess": 23222,
    "Ġcaulking": 20296,
    "Ġrats": 21980,
    "Ġblight": 18820,
    "Ġwretch": 6379,
    "Ġdismantled": 20219,
    "awful": 23118,
    "uttering": 12667,
    "Ġalche": 21787,
    "Ġjunior": 15103,
    "Ġassistance": 6335,
    "Ġobliv": 16138,
    "Ġspam": 7631,
    "Ġnav": 5819,
    "Ġsledge": 8111,
    "Ġwhaler": 7520,
    "orted": 4604,
    "Ġbeth": 9660,
    "Ġchina": 8040,
    "Ġflattered": 10377,
    "arb": 1565,
    "Ġsustained": 13486,
    "kindness": 10508,
    "Ġsupposing": 6731,
    "Ġcompares": 20169,
    "virt": 15455,
    "Ġnephew": 6405,
    "Ġenough": 1759,
    "values": 4973,
    "Ġquiescent": 26244,
    "Ġpalaces": 24093,
    "Ġtheme": 16027,
    "generosity": 23789,
    "Ġunsav": 18252,
    "intervals": 10640,
    "Ġimprecate": 20521,
    "icket": 22671,
    "account": 5330,
    "fra": 8375,
    "ourselves": 9014,
    "aried": 10989,
    "Ġbeale": 12704,
    "Ġobjection": 6587,
    "Ġrhone": 25231,
    "Ġcommitting": 22676,
    "Ġsatisfied": 4171,
    "lengthwise": 19953,
    "Ġvicious": 24403,
    "Ġeternal": 5977,
    "Ġuncommonly": 7760,
    "bran": 23576,
    "agings": 18168,
    "Ġrival": 10488,
    "protected": 19923,
    "ample": 1362,
    "Ġhimself": 1352,
    "Ġcostume": 16498,
    "coiled": 16489,
    "Ġcups": 16884,
    "Ġoccurs": 1857,
    "ich": 469,
    "Ġcommercial": 22677,
    "Ġassociate": 13454,
    "Ġgaping": 13972,
    "Ġhilariously": 25451,
    "coffin": 10665,
    "Ġstagnant": 24655,
    "Ġcrushing": 20179,
    "naturedly": 24841,
    "Ġpop": 5151,
    "Ġkindling": 19032,
    "Ġearl": 7676,
    "Ġturkish": 12266,
    "Ġetern": 7087,
    "Ġaccommod": 14216,
    "bbs": 23694,
    "evidently": 20348,
    "Ġsoftly": 7948,
    "spect": 3235,
    "Ġresignation": 18567,
    "Ġthrills": 24542,
    "Ġharness": 17930,
    "relations": 14736,
    "Ġwhalers": 8048,
    "rat": 8759,
    "Ġcelebrated": 13598,
    "X": 60,
    "filled": 9597,
    "Ġdeeply": 4717,
    "Ġcomprehensive": 15091,
    "apparatus": 26565,
    "precipitance": 25868,
    "Ġmeasure": 3595,
    "culine": 19065,
    "Ġred": 3003,
    "arted": 2203,
    "Ġextended": 7924,
    "Ġsideways": 6184,
    "Ġnantucketer": 6914,
    "Ġup": 463,
    "Ġxxxvi": 24972,
    "Ġwooded": 23523,
    "omitted": 18019,
    "Ġcongratulated": 19769,
    "rowing": 7931,
    "Ġcircumspect": 15088,
[...]
