{
  "metadata": {
    "vocab_size": 26615,
    "algorithm": "BPE",
    "created_at": "2026-09-14 07:32:28",
    "special_tokens": [
      "<PAD>",
      "<SOS>",
      "<EOS>",
      "<UNK>",
      "<MASK>"
    ]
  },
  "vocab": {
    "Ġme": 351,
    "Ġadmire": 5265,
    "Ġbritannica": 24681,
    "Ġtie": 10752,
    "Ġhaz": 12757,
    "Ġanyone": 4459,
    "Ġplunged": 8697,
    "Ġadvancement": 24478,
    "frozen": 25142,
    "Ġnursed": 16884,
    "Ġresiding": 16063,
    "silenced": 24426,
    "dwelt": 23876,
    "Ġthing": 1633,
    "Ġsaves": 18322,
    "floor": 14935,
    "desolate": 25715,
    "Ġraiment": 22657,
    "Ġsepulchre": 20560,
    "Ġgrateful": 7661,
    "Ġtedious": 15268,
    "Ġimpulses": 19963,
    "rollable": 13944,
    "acca": 23601,
    "Ġride": 12760,
    "Ġattribute": 16099,
    "Ġwalker": 23317,
    "infall": 21188,
    "mystic": 25316,
    "hero": 21204,
    "Ġgenerally": 4157,
    "hatred": 24819,
    "Ġsigns": 2439,
    "explain": 1481,
    "Ġwalrus": 14972,
    "tol": 17672,
    "Ġgrasshopper": 24383,
    "mystical": 25317,
    "Ġboon": 22637,
    "wolf": 26409,
    "uling": 2254,
    "--------": 14781,
    "during": 6790,
    "Ġeu": 6391,
    "\":": 9583,
    "Ġuntrodden": 23527,
    "Ġcaused": 5049,
    "Ġstormy": 16727,
    "Ġencouraged": 9357,
    "Ġperformer": 18754,
    "Ġcedar": 15189,
    "itch": 10163,
    "Ġresisted": 22542,
    "appearance": 5335,
    "ingly": 2133,
    "Ġabsurdities": 24880,
    "Ġproduct": 3536,
    "Ġsurprise": 3832,
    "Ġix": 12670,
    "rote": 4595,
    "Ġacceptable": 16743,
    "exp": 2737,
    "general": 7490,
    "Ġcontraction": 16010,
    "Ġint": 409,
    "Ġdifferences": 18710,
    "Ġyields": 19657,
    "ediction": 17944,
    "Ġwished": 3731,
    "Ġsledge": 8112,
    "nlp": 8755,
    "ul": 371,
    "par": 1865,
    "Ġaspired": 25983,
    "reliable": 21240,
    "Ġfert": 15583,
    "Ġheedfulness": 24525,
    "Ġconvivial": 16547,
    "ads": 5719,
    "Ġgrapnels": 25551,
    "Ġpike": 12625,
    "Ġanalytical": 22897,
    "Ġelbows": 18634,
    "ippi": 20245,
    "Ġskill": 6873,
    "Ġhollow": 5649,
    "Ġenc": 965,
    "Ġarsac": 11745,
    "hes": 1400,
    "Ġcastle": 14716,
    "erate": 7151,
    "prison": 14661,
    "Ġforfeit": 21776,
    "Ġcynicism": 25770,
    "lled": 10110,
    "Ġdisliked": 12893,
    "iage": 17573,
    "ounds": 4158,
    "approbation": 11460,
    "attempt": 9362,
    "Ġfriendship": 7247,
    "Ġafter": 870,
    "inn": 5365,
    "tinted": 17683,
    "Ġabsorbing": 17130,
    "Ġgreeted": 23210,
    "Ġresolutely": 14608,
    "Ġlestrade": 5826,
    "Ġbright": 3212,
    "Ġprep": 4192,
    "Ġsuffer": 4724,
    "Ġobjectionable": 16990,
    "Ġconsecrated": 26489,
    "Ġcongregated": 20098,
    "Ġinch": 7852,
    "Ġalpine": 18105,
    "straw": 24101,
    "Ġbubble": 13534,
    "Ġeels": 21620,
    "splice": 17172,
    "Ġcomputation": 964,
    "acters": 9311,
    "Ġmarbles": 18872,
    "Ġreal": 1627,
    "stairs": 5156,
    "shoulders": 16583,
    "fol": 4864,
    "Ġdesp": 3213,
    "outre": 18319,
    "Ġsubjects": 7075,
    "pier": 17635,
    "observation": 17271,
    "Ġprivacy": 19525,
    "coun": 10690,
    "Ġuses": 1208,
    "nial": 20982,
    "Ġpacket": 14892,
    "Ġlisten": 4676,
    "poke": 18797,
    "Ġmathemat": 3202,
    "consolatory": 25306,
    "Ġwarehouse": 20418,
    "Ġbrazen": 23845,
    "Ġsisterly": 16305,
    "Ġorphans": 20205,
    "Ġget": 1617,
    "pence": 15409,
    "Ġsumatra": 15287,
    "Ġblended": 16220,
    "Ġeurope": 8063,
    "preserve": 25303,
    "Ġcruis": 14622,
    "Ġtwitch": 22676,
    "Ġpremature": 3727,
    "Ġsharing": 3479,
    "onden": 13843,
    "bal": 2155,
    "dead": 8181,
    "ames": 2881,
    "worthy": 7734,
    "usages": 22281,
    "Ġloath": 7892,
    "offer": 19060,
    "belief": 13283,
    "iosity": 2370,
    "Ġcock": 11001,
    "Ġsubstance": 5511,
    "Ġuncont": 14113,
    "Ġtwelve": 4964,
    "Ġmystical": 12136,
    "acid": 11007,
    "Ġwalks": 8969,
    "brill": 16491,
    "Ġearn": 3549,
    "Ġaims": 15496,
    "Ġblinds": 8008,
    "station": 10846,
    "intended": 11068,
    "ster": 1952,
    "Ġannoyance": 20662,
    "Ġcentre": 5122,
    "expressive": 24310,
    "Ġhazarded": 25653,
    "Ġflesh": 5969,
    "Ġmidnight": 5267,
    "Ġsubterr": 10351,
    "Å": 134,
    "girl": 12322,
    "Ġstup": 14003,
    "Ġknowledge": 1446,
    "Ġvows": 15810,
    "Ġmirth": 15546,
    "Ġregulations": 18595,
    "Ġsallies": 21229,
    "Ġadvances": 12994,
    "Ġcontributes": 15251,
    "heaved": 21210,
    "Ġreappearance": 21667,
    "quely": 10234,
    "Ġdock": 15932,
    "Ġdetermination": 9822,
    "Ġweak": 5098,
    "Ġtransparent": 9492,
    "total": 17252,
    "imodal": 17448,
    "Ġclearing": 8241,
    "Ġante": 17897,
    "Ġ95": 19774,
    "Ġanaly": 1121,
    "Ġpol": 2574,
    "Ð": 145,
    "Ġrepose": 6744,
    "Ġbott": 3148,
    "Ġdeceived": 6546,
    "Ġanecd": 20154,
    "Ġlouisiana": 25078,
    "rian": 10244,
    "Ġabsurdly": 19961,
    "apable": 6423,
    "Ġbottles": 16569,
    "Ġbordeaux": 24568,
    "ulpt": 10887,
    "Ġsimilarly": 24313,
    "Ġepid": 18004,
    "immediately": 10052,
    "ahead": 12437,
    "Ġannoyed": 17201,
    "iver": 2048,
    "Ġguineas": 16272,
    "Ġdaybreak": 18724,
    "Ġapproximates": 2416,
    "Ġanew": 11432,
    "Ġincessantly": 11413,
    "alluring": 18350,
    "Ġwan": 15528,
    "avating": 18603,
    "grieved": 17319,
    "Ġsane": 21221,
    "Ġcyn": 13885,
    "ours": 3430,
    "Ġwallow": 19467,
    "Ġyoun": 1410,
    "Ġwondered": 11127,
    "Ġpracticable": 19033,
    "remark": 7262,
    "Ġselects": 4385,
    "ally": 530,
    "iates": 13736,
    "Ġprairies": 20022,
    "moral": 14801,
    "swear": 16917,
    "Ġedition": 16456,
    "Ġcontrivances": 12360,
    "necessary": 5883,
    "Ġsoap": 14130,
    "Ġunheard": 22022,
    "Ġexciting": 23319,
    "ke": 429,
    "oder": 2456,
    "Ġannot": 15603,
    "Ġsketches": 26270,
    "marry": 13326,
    "ousings": 18333,
    "Ġdug": 21430,
    "Ġinconven": 7588,
    "Ġrampart": 20319,
    "Ġtatters": 21177,
    "din": 8375,
    "«": 109,
    "Ġavowed": 16633,
    "Ġfond": 4757,
    "Ġturtles": 19221,
    "Ġsplashing": 16549,
    "dared": 13702,
    "ď": 208,
    "Ġbehind": 2809,
    "Ġunholy": 26218,
    "Ġmach": 13856,
    "rad": 2152,
    "Ġadded": 2717,
    "Ġobliged": 4286,
    "Ġcarcase": 14442,
    "Ġernest": 8721,
    "Ġstim": 18063,
    "Ġexhib": 6351,
    "Ġoil": 3371,
    "Ġ43": 14768,
    "injured": 15133,
    "inked": 12915,
    "Ġrainy": 24344,
    "ne": 647,
    "ancial": 21362,
    "ee": 1657,
    "Ġlone": 11615,
    "Ġloss": 823,
    "Ġexerted": 15757,
    "Ġrecoil": 18686,
    "Ġmarrying": 6179,
    "Ġretribution": 16283,
    "strade": 5066,
    "igating": 21699,
    "osa": 22261,
    "Ġbecalmed": 18086,
    "Ġcontributed": 16011,
    "Ġconcocted": 26298,
    "mistak": 16877,
    "Ġdisgu": 8207,
    "lays": 14921,
    "Ġcovering": 13258,
    "Ġensue": 18188,
    "Ġmonument": 16241,
    "Ġsolved": 8934,
    "Ġdraws": 19437,
    "Ġbenevolent": 7774,
    "Ġposture": 24170,
    "Ġstudying": 9847,
    "carpet": 25201,
    "Ġpersist": 16276,
    "cked": 2763,
    "Ġin": 291,
    "Ġfinished": 5045,
    "glass": 9912,
    "Ġmagg": 18904,
    "Ġfare": 5811,
    "Ġsqueezed": 20037,
    "orte": 14182,
    "Ġorganisation": 23587,
    "roqu": 21533,
    "Ġinscrutable": 10675,
    "amouch": 21846,
    "Ġyojo": 7612,
    "Ġflourish": 17162,
    "enger": 10775,
    "Ġextrem": 2471,
    "Ġcalamity": 17350,
    "Ġselection": 18202,
    "Ġcaucus": 17381,
    "Ġstrainings": 24628,
    "Ġdesert": 6729,
    "Ġlecture": 13567,
    "rusion": 11325,
    "Ġimportance": 4902,
    "conscientious": 19627,
    "Ġwatery": 6298,
    "Ġsequential": 2130,
    "Ġspring": 4122,
    "dragging": 16608,
    "plunging": 25986,
    "Ġfast": 1715,
    "offers": 16396,
    "Ġaux": 21199,
    "Ġarmed": 9262,
    "Ġmapple": 11152,
    "liked": 10511,
    "Ġrazor": 22660,
    "antages": 7193,
    "us": 531,
    "Ġindication": 22953,
    "Ġlxi": 21560,
    "Ġhug": 6981,
    "Ġeccentric": 13649,
    "Ġic": 9627,
    "capital": 15088,
    "Ġhardened": 14450,
    "anum": 17835,
    "aisance": 15074,
    "Ġwallowed": 24049,
    "Ġdescrying": 18615,
    "pred": 2802,
    "thur": 7189,
    "Ġbubbles": 11400,
    "Ġplu": 8804,
    "Ġstrat": 16094,
    "Ġcollapsed": 15081,
    "Ġcognitive": 13634,
    "ckets": 6844,
    "intimate": 22938,
    "Ġbidden": 24647,
    "rope": 3184,
    "ape": 1904,
    "Ġjug": 12837,
    "Ġgasfitters": 25040,
    "prodigious": 17467,
    "ended": 1836,
    "Ġzeros": 3323,
    "Ġsmiting": 12900,
    "Ġarticle": 9505,
    "Ġconcussion": 26299,
    "ernation": 8213,
    "Ġcakes": 13883,
    "Ġvigil": 9510,
    "Ġdeline": 16332,
    "irium": 8163,
    "grow": 10101,
    "verted": 10220,
    "cheeked": 19340,
    "Ġgret": 21600,
    "Ġrecovery": 11443,
    "Ġblock": 2573,
    "throw": 14096,
    "arthly": 8031,
    "squeezing": 25912,
    "Ġobstructed": 24678,
    "lott": 6653,
    "onym": 14647,
    "Ġwhalers": 8049,
    "Ġwedged": 24935,
    "performances": 26005,
    "Ġburning": 5977,
    "ager": 6548,
    "Ġconfirmed": 11141,
    "Ġmending": 17804,
    "porary": 14548,
    "Ġelement": 6899,
    "Ġlydia": 2369,
    "Ġparties": 7041,
    "Ġsneezes": 24697,
    "blind": 16701,
    "Ġblasphemy": 26114,
    "awned": 19461,
    "into": 3683,
    "itering": 17818,
    "Ġshores": 8852,
    "Ġsprings": 16685,
    "attering": 7419,
    "Ġprejudiced": 24807,
    "cooks": 25069,
    "acks": 11791,
    "nosed": 20990,
    "Ġresidence": 8208,
    "europe": 20666,
    "Ġmoney": 3420,
    "Ġripe": 13237,
    "Ġgrip": 11629,
    "taken": 7561,
    "Ġintentions": 10610,
    "bl": 4142,
    "Ġbias": 1190,
    "Ġstoutly": 16923,
    "Ġdeal": 3610,
    "Ġopulent": 23632,
    "omical": 9685,
    "nikin": 23248,
    "Ġbarely": 16935,
    "âĢĻ!âĢĿ": 18173,
    "Ġcountryside": 23600,
    "apparat": 22847,
    "complied": 19913,
    "possible": 5744,
    "jolly": 20929,
    "prosperity": 20735,
    "Ġcrushed": 9426,
    "L": 48,
    "Ġopposition": 16520,
    "Ġcle": 1508,
    "erness": 6436,
    "ullied": 23106,
    "apsed": 6297,
    "Ġpil": 5015,
    "Ġunsav": 18246,
    "Ġcommence": 6169,
    "trick": 19414,
    "ca": 20793,
    "Ġhousekeeping": 18943,
    "Ġapplied": 6188,
    "--âĢľ": 12974,
    "indispensable": 14207,
    "Ġstagnant": 24655,
    "retched": 3069,
    "`": 68,
    "acted": 11012,
    "rets": 12544,
    "Ġplanks": 5564,
    "Ġacquiring": 2767,
    "ditch": 17528,
    "Ġpertur": 12853,
    "afraid": 10443,
    "Ġsar": 21213,
    "Ġjura": 14190,
    "Ġlagged": 21557,
    "Ġconceivable": 16612,
    "connected": 1310,
    "Ġdeposed": 16088,
    "ators": 7831,
    "owders": 18050,
    "ĠĠĠĠĠĠĠĠĠĠĠĠĠĠĠĠĠĠĠĠĠĠĠĠĠĠĠĠĠĠĠĠĠĠĠĠĠĠĠĠĠĠĠĠĠĠĠĠĠ": 20039,
    "rinted": 21042,
    "joint": 24015,
    "lier": 20947,
    "Ġsimultaneously": 4311,
    "Ġsurrounded": 5880,
    "Ġcomput": 606,
    "leaving": 10793,
    "caus": 11478,
    "imaux": 21712,
    "Ġhempen": 13550,
    "aged": 2609,
    "Ġyawned": 15050,
    "Ġunfolded": 10641,
    "Ġplainer": 23708,
    "sure": 5523,
    "Ġprevailed": 7779,
    "Ġsideways": 6184,
    "teous": 16175,
    "tray": 21076,
    "Ġbrighton": 6471,
    "://": 11467,
    "circuit": 24194,
    "Ġtheore": 1832,
    "Ġrobbed": 22960,
    "shooting": 16964,
    "Ġhauling": 14085,
    "otograph": 5827,
    "meadow": 18677,
    "Ġunfailing": 24115,
    "Ġsign": 2492,
    "sequ": 2400,
    "Ġoverboard": 6044,
    "conv": 7214,
    "crack": 19841,
    "Ġtrembled": 8706,
    "Ġexempt": 21829,
    "falsehood": 25900,
    "ron": 5217,
    "bethinking": 25744,
    "pad": 13767,
    "Ġconsummate": 25310,
    "repressed": 21243,
    "Ġrefined": 18694,
    "Ġphant": 7058,
    "Ġazure": 12377,
    "sters": 6392,
    "vacancies": 25918,
    "Ġopenly": 8577,
    "Ġfrightened": 5343,
    "mers": 9612,
    "Ġthickly": 12119,
    "Ġagree": 7648,
    "Ġlens": 8440,
    "nowled": 5471,
    "¼": 125,
    "Ġklan": 23663,
    "Ġfleshy": 24615,
    "Ġmish": 15538,
    "Ġsupposed": 4560,
    "ops": 5249,
    "Ġlif": 10198,
    "Ġcum": 21342,
    "rowing": 7442,
    "play": 5099,
    "telling": 14437,
    "Ġplayfully": 19239,
    "Ġimaginations": 16516,
    "Ġrece": 11640,
    "Ġrole": 15996,
    "Ġbefallen": 12346,
    "such": 3084,
    "st": 315,
    "oftentimes": 19422,
    "Ġhogshe": 20493,
    "Ġbod": 4584,
    "chief": 4647,
    "Ġdood": 22243,
    "Ġ[_": 15461,
    "Ġmeasure": 3594,
    "Ġunh": 9255,
    "Ġbetokened": 18795,
    "able": 454,
    "Ġwillingly": 8888,
    "Ġundoubted": 19515,
    "Ġcooped": 22581,
    "look": 2259,
    "dinah": 20082,
    "glings": 23856,
    "Ġexercise": 8360,
    "hint": 12479,
    "bert": 4665,
    "taller": 26149,
    "Ġbrimming": 22865,
    "residence": 19263,
    "stones": 11637,
    "ĠĠĠĠĠ": 3529,
    "bore": 13686,
    "awe": 20765,
    "Ġconsented": 11297,
    "mole": 22701,
    "ingham": 21300,
    "Ġsulkily": 25880,
    "Ġbanquet": 15241,
    "Ġhast": 3150,
    "Ġsenior": 17173,
    "Ġus": 495,
    "ums": 10275,
    "recurring": 24200,
    "Ġorganically": 3009,
    "Ġdazed": 15597,
    "Ġcrowded": 8013,
    "erial": 4634,
    "Ġve": 1111,
    "Ġundesired": 12780,
    "Ġdivinest": 25720,
    "kindled": 16660,
    "Ġpuffed": 14976,
    "Ġlivelihood": 24774,
    "Ġlasted": 11055,
    "hence": 16624,
    "Ġstring": 11830,
    "Ġforg": 3789,
    "figured": 20124,
    "ĠâĢľâĢĺ": 8507,
    "disgust": 23502,
    "neck": 14232,
    "stars": 18016,
    "Ġkicking": 16900,
    "miserably": 24216,
    "flames": 14711,
    "Ġinformation": 1048,
    "Ġsecure": 4914,
    "Ġairs": 14510,
    "Ġstrides": 22617,
    "Ġshortly": 6198,
    "Ġstand": 1733,
    "Ġunassuming": 20510,
    "Ġrepute": 18034,
    "4": 24,
    "verity": 13999,
    "iana": 7051,
    "ô": 181,
    "impotence": 23765,
    "Ġstaff": 14004,
    "Ġimmensely": 13595,
    "Ġsil": 1799,
    "separ": 9232,
    "minded": 9040,
    "Ġreplied": 2262,
    "attest": 23120,
    "Ġadmission": 23560,
    "philosophy": 13580,
    "Ġsnatch": 14637,
    "gay": 11491,
    "gentle": 5358,
    "enty": 2915,
    "achalot": 15865,
    "Ġbull": 7841,
    "Ġherds": 9719,
    "seek": 8841,
    "strangers": 20337,
    "assault": 22307,
    "Y": 61,
    "Ġevinced": 7103,
    "Ġdissimilar": 22532,
    "rice": 13776,
    "longer": 8617,
    "Ġmalice": 7154,
    "Ġsustaining": 25333,
    "Ġuninterrupted": 22043,
    "Ġunluck": 8488,
    "dispute": 23505,
    "crowd": 25253,
    "Ġtrain": 515,
    "Ġsuch": 795,
    "Ġhousings": 21492,
    "Ġcheeks": 5958,
    "Ġbeaches": 18084,
    "Ġnoses": 18370,
    "alously": 15630,
    "į": 240,
    "Ġindefinite": 17178,
    "Ġand": 295,
    "chance": 6828,
    "Ġbeauty": 3771,
    "Ġvinc": 14083,
    "Ġexamining": 8007,
    "nin": 17608,
    "Ġdomin": 10464,
    "ung": 2746,
    "Ġunexampled": 20360,
    "anter": 9168,
    "Ġstress": 18066,
    "fac": 17541,
    "Ġassistance": 6335,
    "rann": 21043,
    "Ġaltered": 7393,
    "saw": 5895,
    "Ġpeasants": 12335,
    "bless": 22313,
    "Ġtrifled": 24675,
    "Ġevident": 6615,
    "Ġcomplied": 14733,
    "Ġembodiment": 20529,
    "Ġsedentary": 25430,
    "Ġallowed": 4058,
    "Ġunwillingness": 20033,
    "comfort": 5648,
    "meanwhile": 10612,
    "tis": 4106,
    "//": 11465,
    "Ġstoner": 7180,
    "Ġhovering": 10181,
    "ullen": 8236,
    "Ġchange": 1994,
    "Ġprofuse": 23570,
    "Ġshaster": 21999,
    "Ġannesley": 19578,
    "Ġeditions": 19152,
    "Ġ90": 24589,
    "Ġdashes": 21434,
    "Ġlinks": 13953,
    "Ġstature": 10865,
    "Ġexpansion": 22626,
    "Ġbabel": 24429,
    "Ġclutch": 15052,
    "Ġcope": 17830,
    "Ġthundering": 24294,
    "Ġimmured": 24077,
    "Ġencouragement": 13045,
    "Ġquestioning": 10466,
    "Ġhorrible": 4907,
    "Ġluxur": 12344,
    "Ġassertion": 13490,
    "speps": 14330,
    "Ġsummary": 19404,
    "ize": 772,
    "Ġthreatening": 16827,
    "header": 11936,
    "happened": 9436,
    "Ġmusk": 7495,
    "lest": 5291,
    "Ġquestion": 2777,
    "Ġgulf": 10638,
    "favouring": 24761,
    "Ġderision": 16310,
    "Ġanguish": 5585,
    "Ġcelerity": 17437,
    "Ġinexhaustible": 16980,
    "Ġscrupulous": 20070,
    "sax": 21055,
    "Ġfatality": 12099,
    "shipping": 10310,
    "Ġob": 861,
    "ĭ": 238,
    "board": 3598,
    "hurry": 24762,
    "cord": 8728,
    "Ġremembering": 14609,
    "Ġbraces": 14668,
    "Ġsigned": 11179,
    "Ġlewis": 15727,
    "kins": 7346,
    "Ġmarty": 20291,
    "daughter": 8355,
    "elius": 13289,
    "Ġinventing": 24863,
    "Ġunpitying": 25659,
    "ittleness": 22380,
    "Ġsuspic": 4470,
    "Ġwire": 13851,
    "Ġstunsail": 25543,
    "Ġattained": 14076,
    "chairs": 21693,
    "Ġstands": 5260,
    "onings": 21252,
    "Ġsacrificial": 24873,
    "Ġmastery": 23998,
    "question": 5419,
    "¨": 106,
    "Ġskipper": 22799,
    "draught": 12094,
    "Ġyounger": 5254,
    "Ġlances": 6986,
    "Ġinvest": 4979,
    "unte": 21874,
    "come": 2374,
    "Ġtalks": 23375,
    "Ġforbidding": 17079,
    "Ġquenched": 22418,
    "Ġdefines": 1740,
    "Ġsanta": 26420,
    "ming": 3603,
    "replied": 11567,
    "Ġpregnant": 26536,
    "Ġaffliction": 25844,
    "Ġson": 2980,
    "Ġabode": 7902,
    "Ġoverthrow": 18424,
    "Ġformal": 2942,
    "gardiner": 12295,
    "Ġscar": 3210,
    "handedness": 24921,
    "Ġsiam": 13837,
    "Ġaberdeen": 26542,
    "study": 15118,
    "Ġmus": 3396,
    "Ġwrinkles": 8575,
    "tru": 10731,
    "Ġshiver": 12769,
    "studied": 17151,
    "Ġbrought": 2515,
    "Ġfel": 1515,
    "Ġhypocritical": 20738,
    "robotics": 11308,
    "Ġmatrim": 11062,
    "belt": 24042,
    "Ġbills": 17860,
    "confusion": 13372,
    "Ġitalian": 12413,
    "Ġornaments": 17453,
    "supplied": 10522,
    "Ġrecently": 11864,
    "Ġwonderland": 23429,
    "Ġclapham": 17267,
    "inating": 9155,
    "intellig": 5322,
    "Ġshamefully": 24715,
    "Ġesteem": 7532,
    "au": 777,
    "repeating": 20130,
    "Ġcontradictory": 20398,
    "Ġunrel": 14694,
    "Ġcaliforn": 14429,
    "Ġexhibiting": 19839,
    "Ġbulk": 5592,
    "topic": 10530,
    "Ġsad": 3869,
    "Ġtropic": 17063,
    "pronounce": 25191,
    "Ġdistension": 22506,
    "Ġmu": 17795,
    "atered": 22073,
    "Ġinnocent": 4923,
    "Ġ]": 15459,
    "Ġphrenologists": 25607,
    "Ġposter": 14273,
    "Ġthrob": 21517,
    "Ġbeats": 21753,
    "Ġcrouching": 23445,
    "uttered": 8443,
    "queer": 10366,
    "rocket": 13943,
    "standing": 5559,
    "Ġbell": 4638,
    "Ġequator": 7463,
    "Ġvineyarder": 25109,
    "Ġebony": 18008,
    "Ġvales": 21947,
    "iscre": 17850,
    "Ġpert": 22396,
    "Ġreminds": 13432,
    "Ġrain": 5006,
    "girls": 12323,
    "bred": 11471,
    "Ġcircumstantial": 14641,
    "Ġcousin": 3707,
    "Ġfaithful": 9506,
    "Ġbounds": 9921,
    "Ġdrooping": 9423,
    "iliating": 12697,
    "thesize": 24907,
    "stochastic": 3775,
    "Ġemphasis": 20537,
    "icating": 15657,
    "Ġrefrained": 14336,
    "Ġcommendation": 13610,
    "Ġunsupplied": 22040,
    "Ġimpulsive": 19964,
    "see": 3046,
    "maj": 18800,
    "irty": 4049,
    "om": 316,
    "Ġadmin": 23558,
    "^": 66,
    "Ġhour": 1813,
    "Ġspect": 3554,
    "vengeance": 13359,
    "opatra": 22484,
    "Ġdistingu": 2513,
    "je": 11498,
    "Ġabuse": 18390,
    "Ġdenominated": 15229,
    "ight": 403,
    "teak": 22818,
    "yesterday": 10355,
    "abroad": 18108,
    "nailed": 20994,
    "Ġstag": 6150,
    "Ġgoverness": 8606,
    "Ġhalls": 19526,
    "Ġilleg": 21623,
    "Ġingolstadt": 8334,
    "Ġlip": 6534,
    "Ġestimable": 23877,
    "Ġsubfield": 11872,
    "Ġawe": 7149,
    "Ġvect": 1227,
    "Ġvexations": 24610,
    "Ġinjustice": 9192,
    "Ġusage": 9733,
    "Ġringing": 13334,
    "Ġprofoundly": 16858,
    "Ġcoquet": 22582,
    "bye": 5950,
    "indulged": 22376,
    "Ġtart": 12531,
    "Ġhor": 1658,
    "lemag": 21372,
    "Ġambitious": 18509,
    "Ġpencils": 23195,
    "idea": 9303,
    "Ġtastes": 15477,
    "mature": 20965,
    "/`": 12432,
    "larking": 17594,
    "acceptance": 25184,
    "Ġmathematical": 3348,
    "Ġtheirs": 7027,
    "Ġmourn": 8708,
    "Ġdiabolically": 25513,
    "Ġundulating": 19518,
    "Ġintervene": 25480,
    "fits": 13717,
    "Ġbefell": 14008,
    "Ġpreposter": 12824,
    "pil": 15408,
    "Ġbraided": 16580,
    "Ġfortunately": 12184,
    "Ġlid": 6985,
    "leather": 13889,
    "Ġstiffest": 24828,
    "```": 25892,
    "Ġpredecessor": 26253,
    "Ġdenote": 19330,
    "Ġenergy": 2550,
    "Ġcharing": 14178,
    "threat": 10902,
    "Ġnib": 13939,
    "opened": 7915,
    "tumbled": 21089,
    "Ġbrushed": 15572,
    "Ġintric": 9248,
    "histor": 13492,
    "Ġchamp": 18379,
    "Ġhumorousness": 25377,
    "tled": 3460,
    "waste": 21133,
    "Ġordering": 18995,
    "inav": 15484,
    "ishe": 13890,
    "Ġmarshalled": 25315,
    "Ġthirdly": 24148,
    "Ġneur": 814,
    "vand": 21107,
    "Ġcold": 3032,
    "neural": 3067,
    "Ġchast": 18378,
    "Ġelbow": 12924,
    "rally": 17651,
    "Ġslapped": 23172,
    "Ġpowers": 5420,
    "Ġplace": 1650,
    "wholly": 10943,
    "Ġgrowing": 6753,
    "vener": 21110,
    "composure": 24041,
    "Ġprofessors": 14724,
    "unless": 9237,
    "pleasures": 24053,
    "safie": 20348,
    "Ġquote": 18464,
    "rail": 10207,
    "Ġinterruption": 9476,
    "Ġwild": 2604,
    "Ġportcull": 23868,
    "Ġhol": 1181,
    "luck": 5734,
    "difficult": 10061,
    "Ġmouldy": 14973,
    "Ġcardboard": 19980,
    "brary": 5756,
    "Ġtraps": 23081,
    "trembling": 17144,
    "rubber": 12811,
    "Ġships": 3716,
    "province": 26071,
    "Ġfoundling": 22973,
    "Ġcontents": 7211,
    "absent": 21790,
    "Ġspeedy": 11174,
    "ites": 3899,
    "dw": 3331,
    "serv": 7452,
    "Ġlunacy": 20029,
    "amongst": 24673,
    "reds": 12752,
    "immedi": 8453,
    "eldom": 4413,
    "Ġhomeless": 23392,
    "Ġpull": 5153,
    "Ġnewly": 9340,
    "Ġanswered": 2852,
    "Ġbor": 5806,
    "Ġ25": 13196,
    "Ġthousandth": 23688,
    "Ġtown": 2451,
    "eray": 21266,
    "Ġhatches": 12048,
    "Ġantichronical": 26610,
    "philosophers": 25251,
    "Ġquartered": 20373,
    "Ġtrod": 15026,
    "Ġbeak": 18079,
    "Ġappropriated": 23490,
    "Ġgeorge": 3751,
    ")": 13,
    "isions": 6132,
    "unfortunate": 15779,
    "Ġp": 288,
    "Ġconveying": 19715,
    "Ġoffspring": 16147,
    "Ġkindly": 6077,
    "Ġpatience": 2522,
    "Ġsweeter": 23923,
    "olog": 1095,
    "Ġgi": 15668,
    "angered": 16182,
    ":": 30,
    "Ġcrash": 12005,
    "Ġincline": 18567,
    "ellig": 522,
    "ilted": 21723,
    "ury": 3309,
    "yed": 3269,
    "Ġderives": 16309,
    "formality": 22218,
    "smug": 23913,
    "date": 17517,
    "grace": 5847,
    "vely": 3868,
    "Ġrecovered": 5482,
    "obtain": 23095,
    "town": 7145,
    "binnacle": 20787,
    "iter": 4391,
    "gates": 20872,
    "Ġpretending": 19315,
    "!--": 10680,
    "gallant": 7782,
    "requiem": 24858,
    "Ġtand": 21160,
    "Ġkingdom": 12022,
    "Ġtyphoon": 12392,
    "on": 267,
    "precision": 4331,
    "tales": 17686,
    "inced": 3334,
    "Ġtransl": 2830,
    "calling": 12453,
    "whip": 22238,
    "Ġgriff": 22806,
    "Ġclose": 3036,
    "Ġpaints": 23529,
    "Ġtelescope": 17349,
    "footed": 19690,
    "Ġperceptible": 18450,
    "Ġluckless": 16796,
    "Ġemerge": 14927,
    "Ġvow": 10249,
    "Ġho": 1933,
    "Ġdetermined": 2221,
    "inous": 8777,
    "Ġchap": 5934,
    "Ġglorious": 11078,
    "mission": 5970,
    "Ġlump": 21551,
    "Ġmerciless": 25246,
    "Ġmischie": 22766,
    "Ġnote": 4264,
    "ihood": 20920,
    "cules": 12394,
    "Ġmaty": 22912,
    "Ġembal": 11906,
    "Ġsacrifice": 9557,
    "Ġintermission": 18585,
    "Ġgur": 21591,
    "asked": 8915,
    "Ġaglow": 22515,
    "spond": 5568,
    "amiable": 14051,
    "Ġfads": 21416,
    "Ġrepro": 7276,
    "Ġgossip": 18468,
    "ellation": 12751,
    "Ġlinen": 12410,
    "prepared": 13590,
    "ruded": 15899,
    "Ġemployed": 5201,
    "servants": 15037,
    "Ġstarting": 7730,
    "itching": 21335,
    "Ġimm": 3965,
    "comed": 8548,
    "rebellum": 26164,
    "Ġerad": 25030,
    "Ġwholly": 4447,
    "yours": 7696,
    "Ġalien": 14016,
    "Ġorgans": 15867,
    "Ġconsecut": 18111,
    "utterly": 20013,
    "Ġcarefully": 6306,
    "india": 22372,
    "Ġstrata": 26026,
    "Ġmidships": 23637,
    "enge": 21280,
    "proceeded": 25189,
    "inity": 5694,
    "Ġmeddling": 21320,
    "eight": 9593,
    "securer": 25602,
    "Ġbiting": 17861,
    "Ġexcitement": 9384,
    "Ġ550": 19637,
    "Ġjot": 11766,
    "Ġfrozen": 9016,
    "Ġchance": 3316,
    "Ġ15": 9326,
    "Ġtranquillize": 24756,
    "Ġevangel": 11282,
    "Ġlion": 9677,
    "Ġspurn": 18307,
    "Ġrelapses": 26278,
    "âĢĿ;": 11672,
    "Ġoriental": 9100,
    "ser": 1426,
    "Ġsolitary": 5856,
    "female": 20667,
    "tenham": 16321,
    "Ġchaplain": 19912,
    "Ġthomson": 26454,
    "Ġnook": 15930,
    "bohemia": 20731,
    "Ġgaff": 17993,
    "Ġcountenance": 3971,
    "mad": 5282,
    "breaking": 14763,
    "Ġdinners": 23987,
    "Ġindicated": 10471,
    "Ġfath": 7365,
    "sych": 9889,
    "ä": 165,
    "obedience": 17411,
    "Ġmoss": 9286,
    "Ġresentful": 24632,
    "Ġwashington": 17204,
    "Ġmermaid": 17813,
    "Ġlamentations": 17076,
    "Ġfootfalls": 25865,
    "restored": 18976,
    "Ġfumes": 21418,
    "ę": 218,
    "Ġfishers": 19355,
    "Ġswords": 19897,
    "Ġfergus": 16866,
    "strang": 11185,
    "Ġtakings": 20573,
    "uesday": 8591,
    "Ġloses": 15875,
    "Ġprovided": 6579,
    "asant": 17958,
    "Ġinquirers": 24964,
    "Ġvector": 1972,
    "eler": 1566,
    "Ġar": 480,
    "Ġfantastic": 10062,
    "Ġambergris": 8710,
    "Ġnoted": 15832,
    "some": 2233,
    "Ġoath": 7835,
    "output": 4401,
    "ception": 6564,
    "eed": 20841,
    "Ġkrusenstern": 26377,
    "Ġ131": 24782,
    "jumping": 20246,
    "Ġrele": 2916,
    "Ġsoftmax": 1687,
    "fishery": 10035,
    "ispiece": 19726,
    "inuating": 16204,
    "Ġinstructive": 19286,
    "Ġcoins": 11822,
    "Ġmerged": 19297,
    "war": 6660,
    "Ġrecess": 10849,
    "beaten": 20316,
    "oted": 4600,
    "Ġaffronted": 22895,
    "Ġasks": 5115,
    "Ġtash": 13819,
    "Ġassid": 18944,
    "Ġdisposed": 7086,
    "Ġe": 311,
    "anse": 12578,
    "Ġliberal": 12195,
    "Ġthirteen": 15275,
    "Ġquant": 6425,
    "Ġanyhow": 14252,
    "ange": 1019,
    "Ġliver": 14225,
    "purposes": 25023,
    "Ġheaped": 18037,
    "ologies": 18772,
    "Ġess": 5692,
    "lined": 12487,
    "Ġmagnanim": 14469,
    "Ġstacks": 18074,
    "Ġkitchen": 8499,
    "libra": 22926,
    "solution": 14684,
    "Ġessentials": 20004,
    "Ġgush": 10205,
    "Ġfavoring": 2340,
    "Ġdiadem": 24740,
    "Ġpaddles": 15148,
    "Ġreneg": 21675,
    "Ġapparel": 20437,
    "Ġworkmen": 23060,
    "Ġfake": 5812,
    "months": 9074,
    "Ġperemptory": 25739,
    "Ġjudge": 5503,
    "Ġnaturally": 2463,
    "Ġpitied": 14690,
    "Ġgrace": 5375,
    "Ġtranquil": 7311,
    "Ġvacancy": 9047,
    "Ġplus": 3884,
    "Ġravings": 18646,
    "carry": 19527,
    "Ġdo": 512,
    "Ġleader": 14701,
    "Ġcrying": 10788,
    "Ġfairest": 20464,
    "Ġprovision": 14824,
    "Ġhumanity": 6734,
    "Ġroses": 11788,
    "Ġsuits": 22084,
    "Ġbeads": 18083,
    "Ġplain": 2818,
    "Ġinhaled": 25451,
    "view": 5897,
    "Ġadvanced": 1537,
    "Ġmail": 17800,
    "Ġrehears": 15702,
    "aped": 3766,
    "franch": 24289,
    "Ġbeside": 5193,
    "rugged": 6850,
    "aired": 8370,
    "Ġadjust": 2154,
    "Ġtierce": 15478,
    "Ġthoroughly": 8349,
    "tranquil": 25869,
    "terdam": 18129,
    "Ġunreasonable": 12778,
    "no": 887,
    "Ġbreathing": 9449,
    "ercial": 21274,
    "Ġparlour": 12325,
    "Ġexposing": 11837,
    "Ġalow": 18099,
    "Ġrio": 23896,
    "Ġmeth": 1457,
    "Ġphilosophy": 7106,
    "Ġintermediate": 18586,
    "surprise": 9532,
    "acquired": 24299,
    "]]": 5206,
    "Ġgnawed": 25286,
    "banked": 25337,
    "Ġrecollection": 6623,
    "15": 12433,
    "Ġchose": 7413,
    "Ġnooks": 26010,
    "Ġpoland": 23621,
    "visitor": 15056,
    "retrospect": 23140,
    "orange": 21400,
    "ry": 806,
    "Ġinstructions": 11198,
    "side": 2298,
    "Ġprovid": 1006,
    "Ġfootfall": 14659,
    "aret": 7417,
    "Ġinterior": 8898,
    "Ġspare": 5102,
    "Ġdisregard": 22529,
    "Ġsincerely": 7964,
    "Ġimplements": 2483,
    "circum": 16736,
    "wouldn": 23540,
    "Ġrecall": 3858,
    "pockets": 16211,
    "Ġpleasant": 4171,
    "testing": 12519,
    "courageous": 26126,
    "Ġlevelled": 11286,
    "tap": 17676,
    "Ġeddying": 17118,
    "Ġoverheard": 11774,
    "concluded": 11244,
    "Ġadv": 1152,
    "Ġdemon": 7871,
    "bu": 5133,
    "violets": 23548,
    "Ġrush": 5925,
    "Ġconquered": 14024,
    "Ġloth": 17965,
    "completed": 19995,
    "Ġgesture": 11401,
    "Ġconsist": 1935,
    "any": 3336,
    "Ġtoss": 10187,
    "Ġenumer": 12747,
    "Ġbreathless": 12174,
    "Ġpoltroon": 26599,
    "Ġcharacteristically": 23695,
    "Ġoutbreak": 22318,
    "vinegar": 25420,
    "romang": 22006,
    "Ġbouquet": 20684,
    "glanced": 19367,
    "Ġnug": 21524,
    "Ġsmo": 2701,
    "entions": 17974,
    "Ġvertical": 16603,
    "Ġsociet": 9453,
    "Ġpeaking": 22690,
    "Ġdelayed": 9521,
    "Ġcrept": 11023,
    "Ġvarieties": 14308,
    "like": 1886,
    "draul": 9447,
    "Ġcitations": 25437,
    "Ġinh": 10826,
    "surrounded": 26087,
    "Ġharpoons": 5660,
    "Ġoarsman": 8642,
    "illa": 12795,
    "Ġlevi": 3034,
    "peter": 24303,
    "Ġnewcomers": 26040,
    "Ġenglishman": 11231,
    "Ġstalked": 20430,
    "Ġextreme": 2514,
    "amed": 4448,
    "Ġde": 363,
    "enthus": 17977,
    "Ġtag": 15468,
    "ways": 1443,
    "orated": 12594,
    "<PAD>": 0,
    "elevating": 20407,
    "Ġfins": 9665,
    "¯": 112,
    "Ġis": 347,
    "Ġnominal": 15169,
    "Ġleeward": 6212,
    "accomplishment": 20224,
    "Ġcommitted": 7431,
    "Ġjeroboam": 10603,
    "Ġbethinking": 25278,
    "give": 4691,
    "saddest": 25527,
    "Ġreasons": 6020,
    "Ġwouldst": 18497,
    "Ġshrine": 19532,
    "unt": 2043,
    "Ġsoothingly": 25049,
    "spades": 14329,
    "Ġcorrupt": 11926,
    "ountain": 2917,
    "Ġmelbourne": 24292,
    "miraculous": 26396,
    "Ġdissuade": 26256,
    "Ġliked": 5266,
    "neath": 12868,
    "Ġpretence": 13209,
    "ifying": 5236,
    "Ġspile": 22128,
    "Ġliberated": 19667,
    "Ġjuggler": 26366,
    "increased": 20271,
    "owder": 8452,
    "Ġachieved": 13168,
    "pile": 17629,
    "Ġuninhabited": 22048,
    "programming": 10066,
    "using": 5469,
    "Ġsire": 15501,
    "Ġunimportant": 22027,
    "Ġtongs": 9964,
    "Ġunfortunate": 5377,
    "Ġaim": 10148,
    "Ġplaying": 6910,
    "tin": 6117,
    "Ġmr": 659,
    "Ġinteractions": 12905,
    "Ġstatements": 7517,
    "._": 3218,
    "llable": 6879,
    "Ġelapsed": 7655,
    "wail": 21124,
    "Ġlead": 3525,
    "Ġoppressively": 25709,
    "Ġgracious": 8851,
    "Ġheaded": 11056,
    "Ġmerrily": 23735,
    "taste": 10132,
    "Ġcoppers": 22583,
    "Ġworsh": 13002,
    "secure": 12240,
    "yrin": 12525,
    "july": 20476,
    "Ġhates": 21485,
    "Ġrevered": 23737,
    "Ġabridged": 26541,
    "mechan": 11860,
    "rew": 3651,
    "Ġuproar": 22156,
    "hanging": 10103,
    "resist": 8277,
    "\"],": 26119,
    "Ġloved": 4602,
    "lording": 24057,
    "Ġimpelled": 11785,
    "ampton": 18144,
    "Ġchink": 15934,
    "Ġcage": 17825,
    "modesty": 22883,
    "Ġmadam": 5664,
    "omorrah": 18024,
    "Ġpropontis": 17466,
    "Ġdistraction": 22507,
    "Ġones": 3018,
    "Ġexam": 3713,
    "Ġdrinks": 24285,
    "Ġemergencies": 17363,
    "Ġflourished": 15126,
    "Ġboil": 16106,
    "Ġpraise": 6487,
    "inex": 14094,
    "Ġupp": 13990,
    "Ġproduced": 2448,
    "gra": 768,
    "miseries": 16756,
    "Ġpanic": 11288,
    "Ġfainter": 14913,
    "Ġopening": 5046,
    "occupations": 24966,
    "ign": 1701,
    "Ġprehensile": 26535,
    "solut": 3362,
    "Ġsmokes": 22560,
    "Ġexultation": 15172,
    "expense": 22432,
    "Ġannihilation": 15166,
    "Ġwhatsoever": 18458,
    "Ġconcluded": 5659,
    "path": 10121,
    "Ġdates": 6696,
    "Ġdeliriously": 23226,
    "Ġsm": 704,
    "Ġfiercely": 12954,
    "Ġwhere": 785,
    "Ġreceipt": 20355,
    "Ġdisgusted": 14989,
    "blending": 24132,
    "intervals": 10640,
    "Ġfaire": 13367,
    "Ġaccounts": 7208,
    "shazz": 14239,
    "doesn": 19821,
    "Ġdinn": 23986,
    "Ġfundamental": 3011,
    "Ġmccarthy": 5146,
    "Ġimpart": 11783,
    "Ġcriminals": 19922,
    "lers": 10109,
    "Ġsolitudes": 22886,
    "Ġinstituted": 18699,
    "etence": 21576,
    "Ġrect": 18025,
    "Ġsanguinary": 25928,
    "Ġevangelists": 20340,
    "indisc": 22374,
    "eu": 17530,
    "Ġdict": 9177,
    "Ġfollows": 7674,
    "Ġgripping": 26186,
    "Ġshuddered": 11302,
    "Ġsympt": 7015,
    "Ġslu": 13835,
    "abama": 12711,
    "twain": 23704,
    "yl": 7820,
    "strained": 21652,
    "Ġstandards": 19015,
    "Ġsagaciously": 24730,
    "._]]": 5336,
    "Ġsubproblems": 12959,
    "Ġreflect": 6576,
    "Ġmabel": 17325,
    "Ġpity": 4942,
    "Ġreads": 23113,
    "id": 338,
    "rol": 5714,
    "Ġpolished": 11184,
    "ved": 869,
    "Ġtresses": 21175,
    "itic": 11580,
    "secur": 18125,
    "Ġ122": 24470,
    "Ġdisrespect": 18551,
    "Ġbreakers": 12058,
    "Ġinspire": 11999,
    "Ġregions": 10326,
    "Ġtashtego": 4486,
    "Ġresolves": 23651,
    "property": 20001,
    "Ġemergency": 25729,
    "chancing": 22919,
    "Ġmeryton": 4438,
    "itating": 9652,
    "Ġmorning": 1748,
    "Ġmantel": 11441,
    "Ġcirc": 1986,
    "Ġ74": 24267,
    "Ġconsiderably": 7716,
    "sil": 5284,
    "onsense": 6432,
    "locked": 7679,
    "detective": 24386,
    "intments": 18819,
    "aud": 8525,
    "Ġmetaphysical": 26068,
    "Ġriv": 10748,
    "chains": 9688,
    "Ġcombining": 22859,
    "Ġreduces": 2339,
    "Ġpump": 12623,
    "Ġconvolutions": 21808,
    "Ġgore": 17988,
    "Ġunaffected": 14119,
    "pets": 17636,
    "Ġquies": 18462,
    "springs": 24912,
    "which": 1707,
    "Ġmomentous": 16173,
    "Ġhurled": 10431,
    "Ġoblique": 20169,
    "opy": 4458,
    "enched": 10157,
    "Ġrevolt": 24507,
    "Ġwildest": 16509,
    "iom": 20913,
    "cery": 20808,
    "Ġgrap": 11710,
    "simp": 17665,
    "Ġnorm": 762,
    "Ġpallet": 21479,
    "Ġjavelin": 26103,
    "feet": 6570,
    "Ġelevating": 19730,
    "none": 6963,
    "disappointed": 25190,
    "Ġrains": 24343,
    "Ġapplies": 11963,
    "Ġproper": 1380,
    "Ġdest": 2235,
    "Ġwriter": 11948,
    "Ġfestival": 25445,
    "reck": 9638,
    "wat": 6233,
    "Ġincoherent": 17401,
    "Ġpolice": 4677,
    "Ġtumult": 7117,
    "Ġsumat": 14127,
    "Ġsins": 13836,
    "Ġopposing": 12043,
    "uccas": 21105,
    "Ġsw": 1357,
    "Ġsemantic": 1958,
    "Ġomit": 17815,
    "Ġclad": 12845,
    "Ġconvergence": 972,
    "penetrate": 20325,
    "Ġmoonlight": 9961,
    "brave": 19824,
    "Ġbehaves": 23308,
    "Ġalcoves": 26487,
    "Ġfill": 5702,
    "Ġpour": 13914,
    "Ġsleep": 2399,
    "egypt": 15349,
    "published": 26141,
    "Ġshrill": 12146,
    "Ġpopulous": 16825,
    "antingly": 22099,
    "visual": 24228,
    "dense": 18711,
    "Ġoutlaws": 22324,
    "despairing": 25076,
    "Ġrepair": 11982,
    "complete": 15034,
    "Ġbalances": 2336,
    "Ġtoiling": 15636,
    "Ġinherited": 25353,
    "Ġcore": 13877,
    "Ġways": 5397,
    "Ġbestirred": 20452,
    "Ġages": 7031,
    "moby": 8540,
    "Ġalong": 1979,
    "Ġaloud": 6254,
    "bacc": 7796,
    "Ġwheeled": 14136,
    "Ġdum": 10813,
    "begone": 12880,
    "paying": 25411,
    "Ġdoted": 21433,
    "Ġcomprise": 18581,
    "ree": 874,
    "Ġreader": 11937,
    "Ġfade": 21407,
    "chop": 21688,
    "eers": 20843,
    "Ġwonderful": 4565,
    "Ġwolfish": 25934,
    "derstand": 631,
    "ruck": 6849,
    "Ġcompact": 2260,
    "Ġlbs": 11617,
    "Ġsilly": 7687,
    "Ġclouds": 5776,
    "Ġpermit": 9752,
    "Ġmountains": 4426,
    "Ġselling": 21224,
    "Ġdiscrimination": 23609,
    "secondly": 16983,
    "Ġglancing": 5400,
    "prises": 23819,
    "gather": 20875,
    "shaw": 6865,
    "instances": 13322,
    "more": 1035,
    "Ġaband": 6563,
    "Ġstates": 1853,
    "ograph": 4799,
    "Ġnumer": 3641,
    "Ġmerchants": 23736,
    "Ġdeputation": 21840,
    "ith": 330,
    "Ġensigns": 23693,
    "Ġeluc": 16111,
    "Ġautumn": 14504,
    "Ġbequest": 21754,
    "naturalist": 23472,
    "Ġattractive": 25575,
    "Ġcomposing": 16069,
    "Ġenvirons": 13185,
    "Ġcounterbalance": 24721,
    "Ġregarding": 13211,
    "soul": 9142,
    "Ġunctuousness": 17236,
    "Ġqueens": 16702,
    "garn": 20870,
    "circ": 4388,
    "Ġpeasant": 13551,
    "V": 58,
    "Ġrod": 9282,
    "Ġhogshead": 26367,
    "distinct": 13338,
    "Ġbreaches": 14519,
    "elstrom": 17981,
    "beth": 13688,
    "joke": 20928,
    "ste": 3585,
    "dissatisf": 26128,
    "Ġfluctuating": 24420,
    "Ġdwell": 5814,
    "Ġshared": 10266,
    "kl": 4867,
    "Ġclim": 8198,
    "Ġfoiled": 23244,
    "Ġpequod": 2319,
    "pitchpoling": 25723,
    "Ġdost": 7638,
    "Ġdoes": 942,
    "begin": 8887,
    "ors": 853,
    "Ġtool": 21510,
    "pping": 1425,
    "Ġthanking": 18600,
    "solic": 16381,
    "rapid": 12672,
    "Ġfirmly": 8015,
    "aim": 2756,
    "forgive": 18725,
    "Ġponderous": 8356,
    "andish": 18153,
    "Ġconfine": 14508,
    "Ġcomputers": 2647,
    "Ġbrace": 11213,
    "Ġmetal": 9391,
    "Ġgentleness": 8714,
    "Ġweariness": 19795,
    "Ġbraved": 23843,
    "Ġshifting": 12770,
    "ump": 2282,
    "shorn": 22458,
    "instinctively": 26327,
    "Ġheavens": 5051,
    "five": 6358,
    "avenza": 17104,
    "Ġinde": 7372,
    "depth": 12802,
    "Ġundulates": 24122,
    "Ġpolic": 13163,
    "isl": 21375,
    "Ġbrahma": 26319,
    "Ġsmiling": 5475,
    "ceed": 1075,
    "Ġdormouse": 4927,
    "ivered": 7008,
    "Ġtoday": 12645,
    "oman": 2019,
    "Ġreluct": 14370,
    "Ġpalms": 8648,
    "Ġhawk": 15174,
    "Ġsteep": 2889,
    "giv": 13721,
    "Ġdetest": 8504,
    "Ġcommodores": 25374,
    "een": 725,
    "Ġadversarial": 5608,
    "Ġhierarchical": 1929,
    "ornamented": 26596,
    "Ġwhirling": 12253,
    "Ġperch": 10301,
    "Ġengine": 1921,
    "conception": 22475,
    "Ġheading": 8938,
    "Ġsprinkled": 19498,
    "Ġquit": 5248,
    "Ġneglected": 10380,
    "Ġencouraging": 2261,
    "ial": 411,
    "Ġmur": 2486,
    "Ġdiffer": 18675,
    "ver": 331,
    "eenth": 12464,
    "handsome": 13178,
    "mouth": 9133,
    "Ġphren": 8576,
    "certain": 3679,
    "kish": 20932,
    "gate": 12470,
    "Ġwallowing": 24050,
    "Ġconge": 15748,
    "Ġstrings": 11832,
    "Ġwarned": 16879,
    "Ġeng": 1160,
    "stalls": 26474,
    "Ė": 215,
    "Ġremo": 3787,
    "Ġcelebrated": 13594,
    "Ġbegun": 7244,
    "Ġnumerical": 4246,
    "Ġenlarge": 21937,
    "Ġwounds": 17790,
    "Ġcongratulations": 10583,
    "Ġimmutable": 17359,
    "Ġsquares": 11171,
    "Ġreputed": 18035,
    "interference": 23741,
    "Ġchim": 5933,
    "Ġemper": 9864,
    "Ġramad": 8532,
    "Ġdisplay": 6429,
    "Ġsuav": 22083,
    "Ġcommander": 8629,
    "Ġillust": 8264,
    "melancholy": 12356,
    "speckled": 23950,
    "Ġcitizens": 25439,
    "theast": 21749,
    "arrival": 15601,
    "Ġhonor": 5665,
    "elihood": 4625,
    "Ġeasier": 11167,
    "Ġforgotten": 5680,
    "Ġimputation": 22173,
    "Ġimbec": 14154,
    "Ġteaching": 10367,
    "Ġplough": 18606,
    "Ġpossesses": 19353,
    "gr": 2085,
    "looking": 4033,
    "Ġdeclining": 23969,
    "Ġsling": 21220,
    "Ġagents": 9769,
    "Ġdanes": 25160,
    "Ġseparation": 11248,
    "Ġfebruary": 15914,
    "Ġshout": 4265,
    "Ġstair": 8458,
    "Ġintuitions": 17342,
    "ig": 322,
    "Ġperform": 1037,
    "Ġsidelong": 11440,
    "Ġsne": 6373,
    "acher": 6869,
    "Ġperseus": 10606,
    "Ġbrotherly": 16528,
    "Ġdismasted": 15252,
    "carried": 16710,
    "Ġshare": 1655,
    "Ġsched": 2333,
    "Ġshalt": 18228,
    "where": 2091,
    "ulled": 14054,
    "Ġpsalmody": 20586,
    "lection": 3655,
    "Ġcripple": 11442,
    "bewil": 22499,
    "Ġinfamy": 14500,
    "Ġberths": 20116,
    "Ġforeshad": 23455,
    "ivers": 1984,
    "Ġimpropri": 14213,
    "Ġprovinces": 24196,
    "Ġcherry": 16934,
    "Ġelse": 2477,
    "Ġdirector": 18919,
    "uns": 21871,
    "Ġsymp": 4502,
    "Ġjove": 9270,
    "Ġmethinks": 10394,
    "âĢĿâĢĶ": 5722,
    "Ġshelf": 12272,
    "Ġrapturously": 24890,
    "Ġnotorious": 18221,
    "Ġvaluable": 5609,
    "Ġlob": 7629,
    "Ġrender": 8306,
    "Ġclasses": 4054,
    "Ġglobu": 23273,
    "Ġshrieks": 12204,
    "Ġhamper": 19390,
    "Ġvanishing": 1344,
    "darkened": 24520,
    "Ġtruce": 24119,
    "Ġcommanders": 23873,
    "Ġwillingness": 24911,
    "me": 873,
    "Ġfree": 3373,
    "ances": 1336,
    "Ġfairness": 9896,
    "Ġlou": 6823,
    "anely": 17836,
    "Ġtinkling": 25211,
    "Ġlandlord": 5582,
    "ction": 505,
    "overspreading": 26138,
    "wonder": 6372,
    "shore": 10308,
    "ational": 5717,
    "anxiety": 25159,
    "Ġweb": 9242,
    "Ġtranquillity": 7537,
    "Ġprofundity": 20453,
    "Ġexhausting": 24709,
    "ories": 4755,
    "Ġby": 383,
    "Ġaffinity": 18786,
    "Ġdeductions": 19734,
    "Ġjetted": 24434,
    "Ġsimplicity": 2924,
    "Ġwhirlp": 16962,
    "Ġunexpl": 22036,
    "Ġnerve": 16340,
    "discoveries": 25385,
    "follow": 5681,
    "Ġclos": 4551,
    "Ġreposing": 23366,
    "Ġrelated": 3717,
    "Ġsurpr": 2548,
    "imely": 13996,
    "Ġcherub": 23292,
    "Ġunthinkingly": 26220,
    "Ġspeaking": 4027,
    "Ġoriginal": 6103,
    "gish": 20873,
    "uberance": 25915,
    "Ġcrav": 19173,
    "roots": 15644,
    "Ġaccumulates": 2890,
    "browed": 25893,
    "Ġran": 3341,
    "infernal": 24663,
    "Ġconducting": 16649,
    "forever": 22520,
    "Ġthee": 2624,
    "Ġsupremacy": 20261,
    "host": 5869,
    "ouder": 17901,
    "Ġmowers": 17812,
    "Ġprint": 18967,
    "Ġstation": 5300,
    "Ġpatched": 16353,
    "Ġreporting": 24658,
    "Ġferocity": 16865,
    "Ġnewfoundland": 26570,
    "Ġwonderfully": 10432,
    "Ġvague": 6407,
    "storm": 9684,
    "perpendicular": 14160,
    "Ġemma": 20695,
    "Ġ18": 3406,
    "Ġrapidity": 11102,
    "atre": 17770,
    "Ġcringed": 25941,
    "Ġinvincible": 23485,
    "gracious": 11834,
    "Ġministers": 22836,
    "izar": 14048,
    "Ġhammered": 13243,
    "early": 20120,
    "Ġbehooves": 20733,
    "length": 7137,
    "erringly": 16212,
    "Ġgeorgiana": 8630,
    "ibbald": 18841,
    "half": 4933,
    "Ġindic": 2887,
    "xible": 13807,
    "limbs": 20191,
    "wart": 17705,
    "Ġclipping": 2437,
    "unguarded": 23673,
    "earnest": 12402,
    "granting": 23418,
    "Ġjoes": 19231,
    "left": 6977,
    "ortunities": 15942,
    "sails": 7498,
    "rendering": 22341,
    "rus": 5930,
    "visits": 24229,
    "Ġregent": 18593,
    "Ġbold": 5294,
    "Ġclubb": 22362,
    "Ġimpat": 4456,
    "Ġourselves": 5128,
    "Ġsympathetic": 17360,
    "Ġflame": 7449,
    "asht": 4084,
    "Ġbade": 9173,
    "Ġoffice": 4966,
    "settle": 16661,
    "Ġbarmaid": 19335,
    "Ġroom": 1463,
    "È": 137,
    "nihil": 9855,
    "Ġvigorously": 11301,
    "Ġspeed": 2444,
    "Ġobli": 9318,
    "bons": 17487,
    "Ġoverall": 4358,
    "regular": 3042,
    "Ġever": 1178,
    "fatig": 17089,
    "Ġface": 1720,
    "Ġdared": 5441,
    "quarried": 24947,
    "rather": 5431,
    "Ġfow": 6135,
    "Ġmode": 8501,
    "Ġparamore": 22123,
    "Ġarcher": 22185,
    "Ġpreface": 18365,
    "missionary": 24616,
    "Ġconstitutional": 25128,
    "Ġfirst": 936,
    "Ġlard": 15649,
    "Ġmalacca": 24396,
    "Ġdotted": 16791,
    "uctive": 17696,
    "Ġfluttered": 16251,
    "Ġwhen": 514,
    "Ġempty": 5355,
    "Ġunprepared": 22047,
    "hearing": 8405,
    "Ġpods": 17914,
    "Ġcynical": 25769,
    "Ġrepresented": 8941,
    "Ġbarrels": 9439,
    "hearted": 6972,
    "Ġpolitics": 19225,
    "Ġdaintiest": 25952,
    "singing": 24366,
    "Ġvehicles": 10662,
    "tormented": 13645,
    "Ġdisappointing": 19580,
    "peleg": 16295,
    "Ġvideo": 25365,
    "Ġvideos": 13606,
    "Ġsailing": 5325,
    "Ġgaiters": 20462,
    "oes": 4433,
    "Ġestim": 3346,
    "ernal": 4312,
    "agger": 7874,
    "Ġfab": 15577,
    "Ġtheology": 21276,
    "embraces": 25804,
    "Ġfavourable": 7960,
    "Ġfund": 2844,
    "oried": 10804,
    "dost": 14533,
    "Ġbending": 12588,
    "screwed": 17189,
    "allers": 22198,
    "Ġloathsome": 13527,
    "accents": 19212,
    "Ġeaglet": 19305,
    "Ġpersecut": 16951,
    "uity": 12520,
    "Ġnecessarily": 13252,
    "Ġpractice": 2598,
    "Ġvirtuous": 14754,
    "union": 15772,
    "agon": 7873,
    "Ġdecl": 3590,
    "Ġlean": 7607,
    "Ġvisions": 12988,
    "asy": 5297,
    "Ġextravagance": 17281,
    "Ġastronomy": 25925,
    "gorith": 552,
    "Ġchicha": 15938,
    "narrow": 12310,
    "pumps": 21025,
    "stript": 21651,
    "Ġmagnitude": 1943,
    "Ġbuy": 8301,
    "Ġelephant": 8257,
    "ding": 3025,
    "ugnance": 12370,
    "Ġmoth": 17802,
    "regard": 7975,
    "Ġknife": 7310,
    "Ġensl": 19274,
    "Ġcheering": 11135,
    "m": 81,
    "Ġtalker": 23376,
    "Ġapologies": 25195,
    "appo": 3915,
    "Ġsufficient": 2003,
    "Ġgovern": 10452,
    "Ġpiqu": 21475,
    "_.âĢĿ": 5887,
    "ative": 738,
    "westward": 25424,
    "Ġdeliciousness": 24130,
    "Ġschedule": 2367,
    "Ġberyls": 25774,
    "Ġidleness": 11145,
    "Ġpin": 7163,
    "Ġreven": 18028,
    "è": 169,
    "Ġmanipulation": 10661,
    "Ġref": 905,
    "Ġletter": 2198,
    "Ġlabelled": 23335,
    "Ġlesson": 7277,
    "Ġsparsity": 4208,
    "Ġ1890": 23902,
    "Ġdiary": 24738,
    "Ġsincere": 11138,
    "Ġunhing": 18236,
    "allows": 15909,
    "Ġgiven": 1621,
    "acific": 4961,
    "Ġacceler": 1605,
    "mysteries": 26050,
    "aster": 1868,
    "Ġreplen": 11117,
    "Ġstigma": 25790,
    "Ġcommunity": 19009,
    "untarily": 6314,
    "Ġflannel": 26578,
    "weaknesses": 26029,
    "Ġfixing": 13158,
    "passion": 11262,
    "Ġcoiled": 11823,
    "acting": 22631,
    "ulgences": 21866,
    "further": 7536,
    "Ġscrolled": 22290,
    "Ġblank": 5951,
    "Ġhove": 17924,
    "Ġpulpit": 7471,
    "Ġchemical": 10412,
    "Ġaccorded": 24095,
    "atiously": 15522,
    "Ġdistressing": 12223,
    "civility": 17513,
    "Ġottoman": 17379,
    "Ġpetulance": 24233,
    "captain": 3954,
    "Ġleakage": 23462,
    "crew": 7544,
    "Ġfounded": 8562,
    "thine": 15826,
    "Ġtouches": 20571,
    "Ġconfident": 11140,
    "welcome": 10004,
    "amb": 5724,
    "Ġridiculous": 10631,
    "Ġshipwrecked": 25686,
    "Ġwes": 8784,
    "Ġchaff": 18381,
    "Ġhateful": 19714,
    "duchess": 18461,
    "warnings": 20351,
    "Ġproofs": 19815,
    "Ġfrancis": 26062,
    "ales": 3315,
    "Ġ96": 24593,
    "Ġhud": 10824,
    "stirred": 20426,
    "terr": 8155,
    "Ġcloak": 9536,
    "Ġslew": 23388,
    "rubbery": 17343,
    "Ġamongst": 8962,
    "Ġnoiselessly": 22862,
    "fl": 3602,
    "Ġexterm": 21830,
    "ppo": 18175,
    "rene": 5380,
    "um": 453,
    "scorn": 22994,
    "discrimin": 19609,
    "Ġmin": 1029,
    "icate": 9203,
    "Ġwound": 4530,
    "Ġfrederick": 15588,
    "sudden": 5317,
    "likes": 18813,
    "Ġscepticism": 25926,
    "Ġflirting": 16252,
    "unk": 4541,
    "Ġportly": 14676,
    "Ġrepe": 3277,
    "idually": 21770,
    "Ġdrought": 19279,
    "Ġlegend": 14572,
    "cst": 10087,
    "Ġsource": 6807,
    "accidents": 19213,
    "Ġcomrades": 9235,
    "Ġlick": 21549,
    "yder": 10141,
    "arb": 1558,
    "Ġsoldiers": 8691,
    "Ġmilky": 9950,
    "ifting": 6547,
    "Ġicebergs": 23980,
    "Ġpince": 21469,
    "\\": 64,
    "Ġpregn": 22233,
    "Ġderick": 9366,
    "Ġlad": 2360,
    "Ġuncle": 3192,
    "attle": 4466,
    "Ġinsatiate": 19270,
    "Ġdifficulty": 5771,
    "forster": 16165,
    "Ġwilliam": 3484,
    "Ġmicroscopic": 26373,
    "Ġperplexity": 2755,
    "Ġsloping": 11942,
    "Ġdimensions": 16570,
    "Ġbasement": 24701,
    "Ġbesides": 3516,
    "Ġpatiently": 19918,
    "Ġresolve": 13172,
    "Ġheighten": 19530,
    "Ġgeneral": 1862,
    "Ġacquaintance": 4134,
    "Ġfalls": 14642,
    "unlike": 18156,
    "fered": 5561,
    "ared": 771,
    "yden": 21142,
    "Ġforthwith": 16617,
    "umbria": 23900,
    "Ġswerve": 14435,
    "Ġrumors": 11323,
    "Ġfancied": 7327,
    "Ġpersonified": 19179,
    "Ġconsiderations": 9413,
    "Ġoblivion": 26030,
    "Ġhav": 12756,
    "bly": 6111,
    "prov": 16424,
    "Ġmist": 2876,
    "Ġhastily": 5764,
    "Ġaccur": 3380,
    "Ġscrew": 8871,
    "tained": 4405,
    "elope": 14468,
    "athy": 14321,
    "Ġcottagers": 6763,
    "Ġmitigates": 3050,
    "Ġrocks": 6864,
    "offered": 14517,
    "principle": 10653,
    "Ġneatly": 17017,
    "Ğ": 223,
    "Ġimpartial": 15220,
    "Ġsurpl": 19132,
    "Ġtorrents": 20057,
    "Ġspoutings": 14674,
    "Ġsee": 803,
    "Ġsymmetrical": 20367,
    "unken": 10239,
    "Ġcontrol": 13081,
    "Ġrand": 1580,
    "Ġbeauties": 10447,
    "ength": 2310,
    "Ġbacked": 12922,
    "achine": 611,
    "Ġgrampus": 21994,
    "ulent": 21863,
    "itatingly": 25276,
    "Ġcoachman": 14999,
    "Ġhawaiian": 25366,
    "acrity": 14277,
    "examined": 17268,
    "Ġann": 4489,
    "amped": 12036,
    "Ġcommons": 22672,
    "âĢĶ": 517,
    "Ġle": 333,
    "Ġgrew": 5183,
    "Ġphys": 5654,
    "family": 7325,
    "Ġgrooves": 16740,
    "Ġdissembling": 26254,
    "scure": 22991,
    "scap": 22993,
    "Ġventure": 7741,
    "Ġpolitely": 8996,
    "Ġherring": 14124,
    "Ġscr": 11764,
    "Ġuser": 15918,
    "glasses": 11217,
    "rench": 3967,
    "intelligence": 5884,
    "wealth": 22688,
    "iating": 3205,
    "Ġdiving": 12604,
    "anybody": 12086,
    "formal": 14165,
    "violence": 16478,
    "olly": 3223,
    "Ġricher": 12761,
    "Ġprincipally": 11311,
    "snap": 24850,
    "Ġthroats": 24576,
    "Ġfashioned": 13323,
    "upid": 6584,
    "Ġfleece": 10617,
    "Ġprofounder": 23573,
    "shri": 14233,
    "Ġwatson": 3597,
    "Ġforging": 18093,
    "Ġspind": 18305,
    "Ġscor": 8192,
    "ogr": 18672,
    "Ġintegration": 9871,
    "Ġexasperated": 11414,
    "indian": 11781,
    "Ġyielded": 14871,
    "listened": 15042,
    "mr": 1900,
    "cket": 3690,
    "gal": 15355,
    "horr": 14597,
    "smeer": 26146,
    "gaining": 20125,
    "Ġdanger": 3522,
    "Ġgrec": 18958,
    "Ġclair": 6271,
    "Ġwoven": 9929,
    "orting": 9738,
    "Ġomin": 11579,
    "Ġunintermitted": 26219,
    "iasm": 8062,
    "sul": 15421,
    "Ġsurmised": 24920,
    "Ġkeenest": 12166,
    "aples": 20768,
    "Ġassist": 3566,
    "princip": 17138,
    "venant": 22627,
    "Ġhabitations": 24789,
    "Ġsuspicion": 6213,
    "Ġdisguise": 10049,
    "comrade": 18736,
    "Ġawake": 8273,
    "Ġalgorith": 563,
    "Ġpipes": 9852,
    "Ġcase": 1941,
    "ws": 7356,
    "Ġwest": 5220,
    "proves": 23399,
    "keen": 12784,
    "resentment": 15186,
    "Ġvincent": 15284,
    "Ġlevels": 12700,
    "urs": 6991,
    "Ġcanes": 22164,
    "Ġmelted": 19622,
    "Ġapparent": 5467,
    "shipmates": 11931,
    "Ġdisplayed": 10611,
    "existence": 16016,
    "sory": 17659,
    "Ġprophe": 13080,
    "Ġwil": 4583,
    "Ġgathering": 14977,
    "Ġspades": 12798,
    "Ġshad": 3852,
    "Ġbreach": 11977,
    "Ġblessings": 24182,
    "Ġsuspicions": 9482,
    "Ġgardiners": 11159,
    "Ġpenalties": 10414,
    "Ġextraction": 11254,
    "Ġfil": 3475,
    "Ġfeature": 749,
    "Ġhow": 599,
    "larger": 24208,
    "Ġdesol": 6882,
    "Ġtask": 1311,
    "Ġable": 3082,
    "ents": 1896,
    "Ġrate": 1061,
    "Ġreverie": 13458,
    "Ġardu": 22184,
    "Ġsurpass": 13583,
    "Ġdrops": 9035,
    "lin": 9605,
    "methodically": 20664,
    "Ġdig": 6137,
    "saved": 15431,
    "Ġsatin": 12990,
    "Ġungracious": 18253,
    "Ġimitate": 14155,
    "othe": 2616,
    "Ë": 140,
    "Ġuntil": 2669,
    "Ġmeant": 3552,
    "lizzy": 6654,
    "Ġdiminish": 14744,
    "Ġshipped": 9718,
    "steaks": 23966,
    "Ġincluded": 8959,
    "Ġtokens": 1773,
    "arboard": 7267,
    "Ġmeasures": 1205,
    "gan": 2199,
    "Ġvastly": 23865,
    "circumspect": 26085,
    "Ġjewell": 19521,
    "hibited": 17428,
    "Ġjob": 7018,
    "slipped": 25529,
    "spent": 12944,
    "Ġfarewell": 9523,
    "Ġventil": 8020,
    "Ġegot": 18007,
    "Ġlined": 15652,
    "ı": 242,
    "Ġodds": 13332,
    "x": 92,
    "Ġiceberg": 14715,
    "stun": 18015,
    "cut": 3123,
    "Ġspectacle": 10499,
    "helpless": 16789,
    "ench": 21279,
    "Ġoughts": 23906,
    "fitted": 17544,
    "wic": 21119,
    "warrior": 24766,
    "Ġmariners": 6068,
    "Ġspoken": 4838,
    "reputable": 15517,
    "wives": 15455,
    "Ġrequires": 971,
    "aning": 2251,
    "Ġreduced": 11927,
    "imate": 4221,
    "visited": 13350,
    "Ġsch": 13834,
    "Ġwinking": 17793,
    "Ġraven": 16118,
    "iminished": 19023,
    "aloes": 21501,
    "Ġforster": 5231,
    "boom": 18996,
    "Ġcared": 8788,
    "chanced": 18808,
    "Ġkrusen": 20714,
    "enormous": 26165,
    "Ġelsewhere": 7714,
    "nson": 16090,
    "Ġaffected": 5578,
    "irably": 13297,
    "Ġabhor": 5468,
    "Ġstrand": 11831,
    "Ġlived": 3990,
    "wonderful": 16959,
    "Ġprospect": 4708,
    "woman": 5900,
    "Ġwisest": 11234,
    "Ġapprehen": 16828,
    "mouse": 15392,
    "Ġasser": 6259,
    "Ġimpact": 10299,
    "obst": 11935,
    "stige": 21655,
    "aration": 12609,
    "Ġinno": 1396,
    "Ġshow": 3401,
    "Ġsent": 1776,
    "Ġcontext": 1685,
    "Ġresearches": 13126,
    "Ġpoker": 13922,
    "machines": 8386,
    "queg": 1771,
    "Ġadvers": 4889,
    "Ġbill": 4040,
    "Ġwriters": 13542,
    "Ġdaylight": 10353,
    "Ġexamples": 2607,
    "Ġfle": 3092,
    "others": 7671,
    "Ġpuffing": 12259,
    "Ġmonarchs": 25849,
    "hurst": 19879,
    "Ġconting": 18471,
    "valu": 1758,
    "mists": 17604,
    "enance": 3369,
    "ached": 2318,
    "Ġdeduce": 8338,
    "Ġembarked": 17136,
    "Ġissu": 6255,
    "awakened": 14448,
    "ruff": 15897,
    "Ġessex": 20128,
    "Ġchocks": 13348,
    "Ġteaches": 18806,
    "unction": 10237,
    "Ġledge": 19402,
    "Ġherd": 7890,
    "eronomy": 15525,
    "Ġrecounted": 22735,
    "Ġscroll": 14189,
    "Ġasph": 21899,
    "Ġbedrooms": 19971,
    "omited": 21661,
    "unhesitatingly": 26497,
    "mo": 863,
    "Ġbund": 17863,
    "enthusiastic": 20693,
    "Ġpauper": 26178,
    "Ġisrael": 21804,
    "Ġgoes": 3855,
    "Ġstocks": 23177,
    "Ġfresh": 3673,
    "Ġchewed": 16374,
    "¢": 100,
    "Ġfright": 3798,
    "ays": 6686,
    "understanding": 1099,
    "Ġadviser": 25312,
    "Ġreb": 15693,
    "te": 992,
    "Ġunsavory": 20707,
    "abil": 2007,
    "Ġstronger": 8583,
    "application": 12366,
    "Ġrevive": 13480,
    "lane": 10708,
    "Ġyore": 21779,
    "Ġyoungster": 23180,
    "Ġsul": 7571,
    "Ġfoolishly": 19783,
    "Ġforbe": 8460,
    "Ġberg": 24539,
    "Ġruggedness": 26268,
    "Ġunusual": 6555,
    "reinforcement": 7828,
    "Ġintolerable": 8485,
    "Ġvag": 9711,
    "Ġlow": 1643,
    "Ġbeaufort": 13568,
    "Ġcables": 15559,
    "Ġfrankly": 16744,
    "erns": 8783,
    "Ġoutlines": 15959,
    "ler": 3494,
    "mine": 5619,
    "pushed": 21021,
    "Ġdupl": 9957,
    "oqu": 7555,
    "Ġwrath": 16317,
    "Ġclustered": 25232,
    "Ġamount": 8515,
    "Ġfeathers": 15120,
    "Ġunreasoning": 15847,
    "Ġrecalled": 8541,
    "riors": 18182,
    "bishop": 13694,
    "Ġparting": 9786,
    "Ġsurgeon": 8984,
    "Ġmemorand": 23463,
    "Ġfeatureless": 22612,
    "conversation": 7125,
    "Ġelevates": 24506,
    "involuntarily": 20416,
    "Ġgroup": 2037,
    "Ġdarted": 4760,
    "Ġsetting": 7049,
    "Ġsubtle": 6719,
    "'re": 12431,
    "âĢĻ": 379,
    "Ġicelandic": 25885,
    "contrary": 23732,
    "Ġmoisture": 12362,
    "Ġmultiplication": 2871,
    "Ġworks": 5860,
    "suffered": 24333,
    "Ġunp": 12773,
    "Ġtombed": 25164,
    "Ġforge": 8459,
    "trunk": 23953,
    "Ġresent": 6049,
    "Ġsheaves": 22159,
    "Ġbat": 10797,
    "Ġwra": 5906,
    "aders": 21759,
    "Ġrelease": 19291,
    "mortal": 10115,
    "Ġtrustees": 24111,
    "Ġthrobbing": 16897,
    "Ġpeering": 8538,
    "Ġstabbing": 20304,
    "Ġlatitude": 8330,
    "sleep": 6512,
    "Ġwaited": 4910,
    "Ġshrieked": 9550,
    "Ġsallied": 12540,
    "acknowledge": 18466,
    "Ġsanctioned": 26350,
    "mense": 4782,
    "pencil": 18826,
    "Ġbound": 3521,
    "del": 4076,
    "Ġmead": 8839,
    "Ġmiles": 3807,
    "Ġgerm": 13962,
    "withstand": 23028,
    "Ġ102": 24413,
    "strikes": 24671,
    "simple": 13453,
    "accursed": 20541,
    "increas": 10456,
    "Ġshark": 5551,
    "prec": 3201,
    "Ġtuning": 3074,
    "mistake": 24532,
    "Ġcurvature": 3574,
    "Ġboarders": 16599,
    "Ġtre": 2535,
    "Ġcamel": 25349,
    "Ġhob": 12631,
    "peculiarities": 13472,
    "Ġsatur": 1932,
    "stamp": 21648,
    "rr": 17650,
    "presbyter": 20619,
    "Ġrecl": 16142,
    "Ġgossiping": 26243,
    "Ġspiral": 14582,
    "hat": 6957,
    "Ġvivacity": 14940,
    "Ġaerial": 21198,
    "Ġpunctures": 25136,
    "Ġordinarily": 20649,
    "went": 6513,
    "Ġtows": 19563,
    "Ġinternal": 2244,
    "william": 4564,
    "Ġ11": 5320,
    "Ġbales": 21389,
    "Ġbeast": 7181,
    "hun": 5211,
    "Ġbad": 3987,
    "Ġsin": 1511,
    "ince": 4339,
    "Ġfascinating": 17329,
    "Ġinvisibly": 24815,
    "slee": 17170,
    "Ġautoregressive": 3435,
    "Ġprecision": 13191,
    "ppings": 18176,
    "natural": 2191,
    "Ġsentence": 6189,
    "Ġind": 1222,
    "Ġcompassionate": 24722,
    "Ġruff": 14345,
    "Ġspiritual": 9933,
    "ctic": 8444,
    "interred": 23740,
    "sp": 894,
    "Ġsank": 5077,
    "Ġransacked": 26505,
    "Ġdivin": 13275,
    "Ġdissip": 10994,
    "Ġwhoever": 10977,
    "Ġoverlook": 10960,
    "Ġtrib": 13818,
    "Ġinstructing": 3122,
    "Ġties": 12530,
    "Ġimpertinent": 9080,
    "bon": 13684,
    "Ġwhine": 21715,
    "Ġwhistles": 24625,
    "Ġdaugh": 2290,
    "Ġcircle": 4978,
    "Ġlabyrin": 13107,
    "clim": 18929,
    "superstitious": 17282,
    "aurus": 20561,
    "Ġpoets": 11824,
    "ance": 478,
    "Ġceases": 19313,
    "wandered": 20286,
    "Ġpangs": 15616,
    "Ġspine": 7407,
    "Ġkiller": 19569,
    "Ġgor": 9208,
    "appl": 9328,
    "ulus": 21865,
    "ud": 913,
    "Ġsympathising": 24300,
    "Ġfat": 3464,
    "Ġconstrained": 19240,
    "agged": 9239,
    "Ġinteraction": 7424,
    "Ġdesolated": 24810,
    "frost": 15107,
    "Ġornament": 11723,
    "fing": 13712,
    "Ġboomer": 20167,
    "Ġmansfield": 25937,
    "Ġcoun": 4179,
    "Ġpred": 670,
    "Ġhit": 7165,
    "Ġshortness": 23487,
    "Ġrobustness": 18862,
    "Ġbriskly": 25311,
    "Ġtint": 13816,
    "isely": 4488,
    "Ġtalked": 4420,
    "token": 21081,
    "Ġpri": 5815,
    "Ġstepping": 9356,
    "Ġcommunic": 5752,
    "Ġconnecting": 18629,
    "anted": 5028,
    "indifferent": 14206,
    "Ġmonosy": 18844,
    "Ġpail": 15608,
    "Ġentries": 22740,
    "chase": 11647,
    "aswag": 21545,
    "Ġdiscriminative": 4327,
    "Ġkindred": 16379,
    "Ġappearing": 9844,
    "\"]": 17471,
    "il": 329,
    "ber": 904,
    "bone": 5613,
    "Ġvinegar": 20101,
    "behaved": 24466,
    "false": 15354,
    "Ġleviathan": 3285,
    "Ġincom": 9772,
    "tomb": 21092,
    "Ġempt": 5052,
    "Ġyawning": 12303,
    "Ġsprang": 5065,
    "Ġsafie": 6620,
    "thirty": 12764,
    "arded": 5030,
    "benefact": 24642,
    "Ġdiscontented": 16061,
    "Ġhoof": 23358,
    "Ġlunatic": 24992,
    "Ġcomparing": 14262,
    "Ġcontortions": 18475,
    "great": 3519,
    "Ġatlantic": 7002,
    "coming": 3564,
    "recovered": 19788,
    "Ġcabinets": 23867,
    "Ġconstit": 8588,
    "Ġoy": 15547,
    "pointing": 12229,
    "Ġhandy": 12938,
    "gd": 3124,
    "leader": 25351,
    "Ġsounded": 8595,
    "Ġsingle": 1690,
    "approaching": 15011,
    "mill": 13753,
    "Ġground": 2847,
    "ist": 450,
    "Ġcapt": 1293,
    "nearest": 16024,
    "Ġhilariously": 25450,
    "Ġcourage": 4636,
    "Ġbelieving": 8226,
    "Ġbuoyancy": 20043,
    "Ġtipt": 21173,
    "Ġxxxvi": 24971,
    "onse": 21249,
    "Ġblurred": 22932,
    "Ġforesaw": 19126,
    "hither": 11495,
    "Ġwarmest": 16484,
    "Ġstun": 11652,
    "Ġarrival": 4733,
    "eon": 8734,
    "Ġreckoned": 24743,
    "Ġintru": 15829,
    "allied": 7410,
    "Ġnarwhales": 24149,
    "Ġglory": 6065,
    "eag": 20842,
    "youth": 11878,
    "Ġtus": 10751,
    "recked": 17762,
    "Ġvishnoo": 12755,
    "stout": 21639,
    "ĠâĢľâĢĻ": 22255,
    "Ġaccord": 4026,
    "Ġmind": 1614,
    "Ġantelope": 24186,
    "apter": 1192,
    "Ġbackwater": 18631,
    "Ġclanging": 18428,
    "Ġtelegraph": 25583,
    "Ġeffectual": 18729,
    "Ġassociates": 24711,
    "tack": 12515,
    "an": 278,
    "entreaties": 26185,
    "Ġowning": 18743,
    "Ġmasterly": 23999,
    "Ġscener": 10951,
    "whar": 15929,
    "frisco": 16786,
    "Ġeloquence": 11844,
    "endure": 22224,
    "Ġosc": 2835,
    "invisible": 17740,
    "sis": 1837,
    "announcement": 24566,
    "Ġfight": 5367,
    "Ġoffence": 12946,
    "Ġla": 5913,
    "Ġaccent": 10296,
    "Ġreplying": 19582,
    "Ġcopper": 7425,
    "Ġuninjured": 22053,
    "Ġunappalled": 22062,
    "Ġregained": 18594,
    "Ġeveryone": 8921,
    "anging": 3553,
    "Ġlanterns": 24578,
    "Ġwreak": 16816,
    "Ġdummy": 25449,
    "Ġbedfellow": 16439,
    "Ġcoarsely": 25828,
    "Ġdeem": 18133,
    "Ġpurring": 23481,
    "gloves": 25146,
    "Ġbids": 24646,
    "Ġ275": 20112,
    "emb": 11692,
    "topp": 22566,
    "Ġhelped": 7460,
    "Ġback": 800,
    "esteem": 26007,
    "tale": 10130,
    "Ġturks": 14596,
    "beneath": 9537,
    "myself": 5113,
    "Ġscruple": 25050,
    "note": 14337,
    "enterprise": 24994,
    "Ġiceland": 15147,
    "Ġdevoutly": 25832,
    "Ġattic": 16097,
    "Ġdeceiving": 21838,
    "Ġsunk": 5753,
    "orative": 21398,
    "Ġshowing": 7733,
    "Ġsafely": 9028,
    "recursion": 13331,
    "jackets": 24897,
    "mopol": 15395,
    "damp": 15343,
    "new": 1466,
    "Ġconscientious": 16726,
    "Ġwrung": 14466,
    "Ġbored": 16107,
    "Ġdeny": 7489,
    "backward": 2684,
    "Ġglue": 15676,
    "Ġauxiliary": 26418,
    "Ġsummers": 23878,
    "Ġcrew": 2493,
    "Ġtantalizing": 20415,
    "hump": 12481,
    "Ġoccurs": 1858,
    "happiest": 19329,
    "spirits": 8056,
    "Ġimmensities": 25330,
    "nut": 12497,
    "orts": 2553,
    "Ġfold": 5532,
    "stee": 21645,
    "object": 6885,
    "gallantry": 15057,
    "our": 535,
    "Ġsl": 1496,
    "Ġpersisting": 18883,
    "Ġ129": 24477,
    "Ġstake": 14001,
    "thinking": 9017,
    "Ġrefer": 18692,
    "strong": 6324,
    "surely": 10572,
    "Ġphenomenon": 17916,
    "Ġopinions": 9418,
    "una": 21870,
    "hundred": 8332,
    "Ġresounded": 22545,
    "Ġchr": 3691,
    "Ġepo": 21619,
    "Ġexpired": 18621,
    "adequately": 20320,
    "Ġscene": 3098,
    "followed": 8340,
    "Ġhymn": 24521,
    "cursed": 23849,
    "utes": 5914,
    "Ġcondense": 21809,
    "orous": 5295,
    "Ġcheever": 23289,
    "Ġnatures": 16505,
    "Ġinterest": 2246,
    "Ġextraordinary": 5415,
    "Ġinvestig": 10552,
    "vate": 21108,
    "Ġintensified": 17019,
    "Ġstumped": 24944,
    "verd": 21728,
    "Ġchapter": 2954,
    "Ġviv": 6158,
    "ĩ": 234,
    "perse": 15902,
    "Ġxlix": 25859,
    "boil": 18997,
    "everybody": 8615,
    "iard": 9603,
    "Ġcents": 17828,
    "Ġinsights": 13181,
    "oding": 1462,
    "Ġcanall": 10930,
    "Ġcrashes": 13128,
    "finished": 10557,
    "Ġcloset": 19592,
    "Ġshoals": 13136,
    "consent": 18499,
    "inqu": 6123,
    "Ġflukes": 5268,
    "dances": 17521,
    "Ġunche": 23433,
    "weigh": 18663,
    "library": 13001,
    "Ġcoats": 16076,
    "Ġcode": 1719,
    "Ġfettered": 24572,
    "dham": 20830,
    "ideas": 18579,
    "Ġhemp": 9217,
    "Ġoverseeing": 22351,
    "Ġshrubbery": 18230,
    "startled": 24943,
    "Ġmodesty": 12819,
    "Ġattach": 14287,
    "Ġflog": 23626,
    "esc": 615,
    "~": 98,
    "<MASK>": 4,
    "Ġmines": 21308,
    "Ġclouded": 13292,
    "Ġenviron": 3749,
    "sol": 1791,
    "Ġsheltered": 19911,
    "Ġmenaced": 16294,
    "presbyterian": 26368,
    "oses": 3947,
    "Ġsupplied": 8946,
    "hosmer": 25901,
    "Ġmanx": 7907,
    "Ġwide": 4109,
    "Ġrelating": 2706,
    "Ġturk": 6605,
    "Ġwretchedness": 9029,
    "Ġpointed": 4775,
    "Ġmouthful": 16573,
    "Â": 131,
    "victim": 25530,
    "expression": 10550,
    "Ġheiress": 20698,
    "Ġindign": 6175,
    "ff": 461,
    "icity": 2538,
    "Ġhumorous": 10362,
    "nurtured": 25524,
    "Ġconsisting": 8974,
    "lutions": 20948,
    "Ġrequired": 7224,
    "Ġsetbacks": 11065,
    "Ġfinanc": 23128,
    "rospect": 11614,
    "restoration": 23232,
    "Ġaware": 5757,
    "Ġmanned": 9273,
    "Ġapr": 12535,
    "Ġreptile": 15278,
    "Ġintently": 8170,
    "Ġsurging": 19133,
    "Ġate": 8844,
    "Ġpersu": 3565,
    "ylon": 24977,
    "sch": 21049,
    "Ġslain": 8956,
    "Ġcheerfulness": 10519,
    "minute": 11276,
    "uttering": 12664,
    "Ġpillar": 21471,
    "Ġgrowled": 19284,
    "Ġbolivia": 24668,
    "Ġminimizes": 2046,
    "Ġincredulous": 9990,
    "named": 9902,
    "Ġecon": 9680,
    "unicorn": 21890,
    "Ġnarration": 13319,
    "Ġcontriv": 9284,
    "Ġhastening": 19336,
    "ited": 1751,
    "Ġbo": 797,
    "ny": 4016,
    "house": 4077,
    "repeat": 25155,
    "apers": 3483,
    "Ġglanced": 5952,
    "prevent": 11798,
    "Ġdesperately": 24657,
    "Ġstubbornness": 25379,
    "Ġfretfully": 25447,
    "disguise": 26305,
    "mical": 9131,
    "ñ": 178,
    "jack": 7345,
    "Ġsympathise": 16793,
    "Ġdismal": 11813,
    "arness": 11674,
    "Ġimpenitent": 26549,
    "Ġhedges": 19986,
    "Ġsheath": 14149,
    "Ġpounds": 5369,
    "Ġeasy": 3455,
    "Ġinterposed": 20620,
    "Ġepicures": 25878,
    "circumstantial": 24447,
    "ered": 1681,
    "Ġst": 332,
    "enances": 10156,
    "aken": 1870,
    "Ġevap": 19624,
    "Ġscreen": 17207,
    "imming": 9690,
    "ispensable": 9099,
    "Ġste": 1389,
    "itate": 6671,
    "Ġpat": 1697,
    "Ġsal": 3939,
    "encountered": 20393,
    "immense": 18052,
    "longing": 23729,
    "Ġdiet": 13909,
    "Ġsafer": 22171,
    "Ġthroughout": 8880,
    "Ġlug": 15654,
    "Ġboots": 5943,
    "Ġcomely": 21856,
    "Ġrabbit": 4289,
    "Ġduke": 7757,
    "Ġcontinent": 14887,
    "Ġbronze": 22866,
    "insupportable": 21193,
    "Ġsway": 7572,
    "inisc": 15488,
    "Ġsuperhuman": 23456,
    "Ġsteadfastly": 10654,
    "Ġmood": 6278,
    "hies": 17560,
    "Ġtapering": 8776,
    "oriously": 17874,
    "Ġendangered": 16304,
    "Ġbilliard": 16687,
    "Ġresided": 11814,
    "Ġhinted": 6012,
    "ography": 13365,
    "Ġtemptation": 8682,
    "Ġheard": 1401,
    "Ġplead": 14452,
    "leagued": 26435,
    "Ý": 158,
    "fields": 14650,
    "Ġtangles": 25760,
    "Ġdismissed": 12894,
    "order": 1959,
    "slowly": 9092,
    "echo": 15348,
    "Ġmayhap": 18707,
    "Ġanomaly": 25635,
    "niece": 20993,
    "Ġlistened": 4469,
    "Ġconfusing": 23314,
    "gi": 17551,
    "ause": 1314,
    "Ġblack": 2033,
    "erity": 21267,
    "reat": 619,
    "Ġemploying": 23983,
    "Ġthrice": 10578,
    "Ġmutters": 23961,
    "Ġcases": 3961,
    "Ġbushy": 16402,
    "Ġuncompromised": 20604,
    "Ġbab": 5292,
    "Ġpunctual": 17139,
    "Ġfris": 23255,
    "Ġfanny": 23396,
    "Ġquarter": 3977,
    "Ġconveniently": 20080,
    "Ġquaff": 22415,
    "Ġeh": 6989,
    "Ġforced": 4352,
    "illating": 22108,
    "arned": 21822,
    "Ġsincer": 13068,
    "ude": 7563,
    "Ġ1825": 25717,
    "owards": 4597,
    "cus": 3980,
    "urred": 8451,
    "Ġchestnut": 19673,
    "Ġoccupied": 5274,
    "cong": 10691,
    "Ġschool": 5513,
    "furniture": 20243,
    "mention": 7215,
    "Ġdav": 15591,
    "Ġpreparation": 13528,
    "suggested": 17301,
    "Ġshaved": 22003,
    "Ġconcent": 8251,
    "Ġbundles": 26174,
    "ivance": 22076,
    "ringle": 21039,
    "jewell": 25523,
    "Ġextremity": 8991,
    "oda": 15751,
    "Ġsupper": 4668,
    "ostentatious": 20652,
    "Ġmicha": 17811,
    "Ġphilistines": 26081,
    "raham": 18013,
    "Ġluxuriant": 20396,
    "Ġequatorial": 13509,
    "brated": 12030,
    "Ġgracechurch": 12203,
    "cottagers": 20049,
    "Ġvisited": 5948,
    "Ġherbage": 25995,
    "Ġmanipulated": 25177,
    "tains": 10964,
    "ģ": 228,
    "Ġheidelburgh": 11645,
    "Ġcountrymen": 23599,
    "Ġbetter": 1173,
    "Ġprediction": 2258,
    "skirted": 24492,
    "Ġremotest": 10055,
    "particularly": 8341,
    "Ġgobern": 22426,
    "igations": 18042,
    "swiss": 24261,
    "Ġintegrity": 12317,
    "search": 8468,
    "animate": 12580,
    "Ġhelpless": 8303,
    "Ġunful": 22008,
    "truth": 9922,
    "Ġcommod": 10336,
    "icions": 21562,
    "Ġslay": 16307,
    "Ġmysticetus": 24923,
    "Ġlocations": 12416,
    "Ġgrasping": 12170,
    "Ġ36": 14766,
    "Ġpistol": 7849,
    "Ġpilgrim": 25599,
    "desired": 9008,
    "Ġprophecy": 25704,
    "ody": 1479,
    "Ġdespondency": 16576,
    "Ġinsomuch": 23687,
    "rations": 10725,
    "opÃ¦": 12874,
    "cceed": 4143,
    "Ġcook": 3714,
    "oved": 5216,
    "ĠĠĠĠĠĠĠĠĠĠĠĠĠĠĠĠĠĠĠĠĠĠ": 16228,
    "Ġarab": 7825,
    "Ġgle": 7861,
    "Ġequin": 14492,
    "fav": 6649,
    "Ġdecoding": 3083,
    "Ġsolving": 2479,
    "officer": 17054,
    "Ġscreaming": 13424,
    "Ġprof": 2457,
    "Ġpeeped": 10015,
    "Ġgardens": 16451,
    "Ġschemes": 11133,
    "Ġmentioned": 4329,
    "Ġtrip": 16787,
    "Ġponder": 6820,
    "ē": 212,
    "Ġ40": 14767,
    "original": 9088,
    "Ġconverted": 16114,
    "Ġlift": 8816,
    "goose": 19101,
    "Ġnormalization": 1245,
    "Ġegg": 8823,
    "Ġxxxii": 24972,
    "Ġthen": 665,
    "Ġinfiltrated": 23288,
    "Ġweapons": 10596,
    "comprehend": 14357,
    "Ġvirgin": 7329,
    "Ġoblivious": 26031,
    "ouch": 2780,
    "Ġindirectly": 8942,
    "Ġjackson": 24246,
    ":--": 5785,
    "Ġglories": 16242,
    "Ġma": 3249,
    "farm": 15351,
    "retirement": 23141,
    "tut": 15434,
    "Ġfacing": 10174,
    "Ġplaid": 22600,
    "genteel": 19950,
    "Ġenig": 15801,
    "Ġone": 570,
    "Ġtasselled": 25920,
    "Ġbrigs": 20323,
    "racting": 10358,
    "gar": 5616,
    "crated": 16682,
    "Ġfaltering": 17884,
    "Ġroots": 11187,
    "Ġbalancing": 2428,
    "Ġrector": 21676,
    "Ġfrosted": 19804,
    "Ġsagacity": 16973,
    "Ġgrimesby": 11459,
    "Ġperth": 7025,
    "Ġdelineations": 26057,
    "Ġcontextual": 3744,
    "Ġhaunted": 10256,
    "Ą": 197,
    "Ġinconsistency": 26182,
    "Ġdisasters": 16056,
    "Ġjiff": 22297,
    "Ġcreeping": 18679,
    "ises": 3656,
    "Ġmeaning": 1417,
    "Ġeffect": 963,
    "Ġdear": 1534,
    "Ġdistinctions": 18533,
    "Ġ75": 19613,
    "ething": 1597,
    "Ġdelivery": 18973,
    "yth": 979,
    "Ġterminating": 23516,
    "Ġfeebly": 24879,
    "Ġavowal": 19416,
    "mons": 17600,
    "lead": 10168,
    "Ġfled": 6674,
    "Ġhospitality": 13512,
    "better": 7122,
    "Ġlaughs": 24120,
    "Ġimpose": 22383,
    "Ġkindliness": 23299,
    "Ġris": 4888,
    "Ġriots": 23897,
    "whiskers": 12315,
    "Ġimag": 2676,
    "hr": 20888,
    "Ġpsychology": 11450,
    "Ġdedu": 5584,
    "ago": 14063,
    "Ġerroneous": 17410,
    "Ġreciproc": 20623,
    "Ġburtons": 19253,
    "lie": 12486,
    "Ġwearer": 21923,
    "Ġoffer": 4845,
    "fab": 13715,
    "Ġbrutality": 26276,
    "Ġsubmission": 22789,
    "Ġcontented": 9759,
    "pe": 1436,
    "Ġsort": 1505,
    "Ġampl": 22477,
    "Ġembell": 14409,
    "Ġhighland": 18708,
    "ĠĠĠĠĠĠĠĠĠĠĠĠĠĠĠĠĠĠĠĠĠĠĠĠĠĠĠĠĠĠĠĠĠĠĠ": 19258,
    ";--": 8070,
    "manifested": 20527,
    "Ġconfluent": 19042,
    "Ġfoundations": 11076,
    "Ġfor": 340,
    "Ġscold": 10952,
    "Ġmustard": 12932,
    "Ġsuburban": 17347,
    "Ġrepay": 19081,
    "arpaul": 14536,
    "Ġactivation": 919,
    "Ġscolded": 25472,
    "Ġeating": 8137,
    "Ġdangerous": 6616,
    "attention": 2109,
    "worship": 19388,
    "bered": 4504,
    "cannibal": 15225,
    "departed": 24795,
    "nav": 17612,
    "databases": 3023,
    "trip": 21090,
    "Ġtalk": 1970,
    "Ġspoilt": 24805,
    "Ġpray": 3900,
    "fedallah": 25522,
    "Ġstrives": 23699,
    "Ġsatisfy": 6913,
    "Ġentailed": 11028,
    "guilt": 24076,
    "Ġinsisted": 12049,
    "Ġcompre": 4449,
    "Ġbas": 6381,
    "cies": 1815,
    "representativeness": 25271,
    "Ġbawling": 25944,
    "foundation": 16713,
    "lives": 12489,
    "Ġcontrivance": 17185,
    "Ġtears": 4232,
    "nal": 1901,
    "Ġtangled": 13826,
    "Ġsangu": 15504,
    "Ġlaboratory": 13612,
    "Ġimped": 18440,
    "arthur": 14829,
    "pips": 21018,
    "Ġmoral": 6581,
    "Ġdishonor": 25601,
    "penny": 22946,
    "Ġaf": 784,
    "unned": 21879,
    "ateful": 5927,
    "Ġunpardonable": 22059,
    "abond": 15743,
    "Ġexclusiveness": 23933,
    "Ġpolite": 9885,
    "allen": 22197,
    "hunsford": 24389,
    "Ġdespondence": 25868,
    "zwilliam": 5075,
    "sively": 13785,
    "Ġflashing": 13031,
    "iluvian": 18060,
    "ĠĠĠĠĠĠĠĠĠĠĠĠĠĠĠĠĠĠĠĠĠĠĠĠĠ": 24445,
    "ashes": 6016,
    "treas": 17679,
    "sed": 4177,
    "Ġtwig": 11853,
    "Ġjumbled": 22298,
    "Ġgaily": 16747,
    "utch": 21585,
    "Ġphaeton": 17465,
    "honor": 19900,
    "Ġpacing": 8428,
    "Ġsake": 4091,
    "Ġegotistical": 26191,
    "Ġwilled": 21291,
    "Ġflights": 24752,
    "Ġseeming": 8544,
    "Ġdil": 6384,
    "ivory": 10271,
    "Ġwaters": 3596,
    "Ġduodecimo": 16766,
    "Ġboys": 5195,
    "match": 15390,
    "rap": 21628,
    "ring": 1753,
    "carte": 25400,
    "Ġprofund": 13155,
    "Ġpursued": 6330,
    "bable": 8723,
    "Ġbeneath": 3235,
    "Ġwhim": 13997,
    "Ġcom": 369,
    "Ġtwitching": 25682,
    "Ġslee": 8977,
    "Ġdeliverance": 15158,
    "Ġrephrased": 26478,
    "177": 20752,
    "edily": 17943,
    "urday": 13992,
    "irious": 15788,
    "also": 7853,
    "Ġoccasions": 7989,
    "pow": 10719,
    "decl": 8860,
    "Ġhumane": 11887,
    "ryphon": 4163,
    "Ġmorsel": 20678,
    "olic": 14040,
    "Ġrevelation": 25221,
    "Ġappointment": 10649,
    "readiness": 19364,
    "Ġinseparable": 20689,
    "Ġsleeps": 10448,
    "Ġplains": 14621,
    "Ġbrig": 11049,
    "Ġod": 4439,
    "corners": 17369,
    "Ġcontinents": 16848,
    "bounded": 13440,
    "ore": 418,
    "Ġremarkably": 7704,
    "Ġeyes": 1333,
    "Ġengaging": 9338,
    "Ġhailing": 11696,
    "Ġdisposing": 19376,
    "remains": 10401,
    "Ġprofess": 3701,
    "merchant": 10469,
    "Ġtrace": 6183,
    "outside": 12806,
    "Ġwatches": 11084,
    "loath": 22510,
    "Ġ5": 4936,
    "strength": 13973,
    "Ġdesigned": 7742,
    "thunder": 10265,
    "slanting": 24561,
    "Ġneglecting": 25009,
    "Ġconvention": 25546,
    "Ġmethodic": 23146,
    "Ġperiods": 13305,
    "Ġrepented": 23367,
    "Ġsickbed": 24252,
    "Ġround": 1372,
    "Ġredden": 15696,
    "Ġlonged": 6437,
    "overing": 6308,
    "Ġbelong": 3887,
    "Ġushered": 18355,
    "monograph": 23531,
    "Ġremoval": 12121,
    "cab": 7334,
    "Ġowing": 6005,
    "Ġshows": 8486,
    "ĠĠĠĠĠĠĠĠĠĠĠĠĠĠĠĠĠĠĠĠĠĠĠĠĠĠĠĠĠĠĠĠĠĠĠĠĠĠĠĠĠĠĠ": 12159,
    "Ġdistrustful": 25056,
    "Ġrattling": 11397,
    "Ġprender": 22236,
    "Ġdidst": 11852,
    "repid": 11566,
    "trial": 20350,
    "recollect": 17225,
    "Ġhundreds": 4328,
    "Ġgout": 21595,
    "Ġsires": 21226,
    "hours": 9127,
    "Ġlogger": 11957,
    "dilig": 17284,
    "Ġwhile": 605,
    "Ġcalling": 5663,
    "rating": 7810,
    "silence": 8046,
    "Ġrat": 4353,
    "Ġmurderous": 8317,
    "Ġperceiving": 8879,
    "Ġconclusions": 10556,
    "Ġconsidered": 4614,
    "agra": 14064,
    "Ġsurplus": 26302,
    "wrapped": 15210,
    "T": 56,
    "Ġlee": 4223,
    "Ġpaltry": 16690,
    "Ġattention": 1172,
    "Ġgallows": 12150,
    "Ġ177": 13414,
    "Ġrecurred": 18975,
    "Ġimprobable": 9798,
    "ich": 471,
    "Ġseparated": 9467,
    "Ġsuppression": 23003,
    "dropping": 14981,
    "Ġherself": 1561,
    "Ġaffectation": 14438,
    "Ġassurance": 7776,
    "Ġobject": 1397,
    "noted": 22750,
    "Ġtist": 21162,
    "athan": 2955,
    "suppose": 8649,
    "Ġbring": 3322,
    "Ġconv": 2967,
    "confl": 22472,
    "rod": 10833,
    "Ġ92": 24591,
    "Ġchanced": 8188,
    "loom": 18536,
    "Ġimposs": 16615,
    "Ġcuriously": 13018,
    "Ġorb": 22092,
    "Ġdevout": 14331,
    "Ġperfectly": 3703,
    "Ġboasted": 16108,
    "Ġshock": 6082,
    "Ġscraping": 13417,
    "Ġchamounix": 14863,
    "Ġinex": 6529,
    "**": 4688,
    "Ġburg": 23655,
    "Ġhorse": 4727,
    "Ġsakes": 18324,
    "Ġclings": 15974,
    "Ġimbecile": 17393,
    "late": 11501,
    "Ġgently": 7173,
    "Ġripple": 25504,
    "Ġkindness": 4098,
    "Ġhereditary": 10667,
    "Ġbland": 11066,
    "Ġdet": 511,
    "Ġpositional": 2599,
    "Ġremove": 7500,
    "short": 6568,
    "Ġyielding": 12191,
    "Ġfagged": 17882,
    "Ġrefres": 14335,
    "Ġchil": 11754,
    "Ġdrag": 6186,
    "big": 13685,
    "spr": 7435,
    "Ġvalu": 5040,
    "Ġpict": 3501,
    "jeroboam": 25618,
    "Ġhole": 6079,
    "Ġvexation": 10589,
    "Ġdegree": 3706,
    "Ġdeactivates": 20704,
    "Ġdelivered": 11118,
    "dil": 11480,
    "Ġsuppose": 2866,
    "Ġreigning": 15703,
    "Ġrescales": 5069,
    "Ĺ": 250,
    "Ġlocker": 16910,
    "Ġrealising": 18980,
    "Ġfrankenstein": 7098,
    "Ġcramped": 23535,
    "Ġpearl": 20377,
    "Ġtroop": 24899,
    "Ġlikes": 9411,
    "Ġfragmentary": 25857,
    "eminently": 25107,
    "Ġinterlude": 16072,
    "ifications": 9731,
    "decoder": 3647,
    "Ġrifle": 18210,
    "uzz": 4526,
    "africa": 26307,
    "contented": 14632,
    "Ġuplifted": 11649,
    "stranded": 19226,
    "Ġgold": 3275,
    "Ġsilken": 16383,
    "married": 9952,
    "Ġhurry": 4915,
    "infor": 3028,
    "Ġlucifers": 16586,
    "Ġenthusiastic": 19967,
    "Ġengravings": 15065,
    "ending": 1990,
    "¹": 122,
    "Ġspecimen": 13025,
    "utored": 15665,
    "Ġlectures": 17180,
    "Ġprinted": 11952,
    "Ġclearer": 16313,
    "fastened": 19322,
    "Ġwarming": 23562,
    "sius": 13787,
    "missing": 13221,
    "Ġtalent": 12300,
    "means": 9789,
    "Ġgardeners": 12124,
    "Ġcravat": 26306,
    "Ġtrusted": 10520,
    "Ġloun": 7168,
    "Ġriver": 5412,
    "perth": 22186,
    "ituted": 13872,
    "Ġexcept": 3310,
    "willing": 6594,
    "Ġconcrete": 20637,
    "nearly": 8685,
    "dually": 3280,
    "impossible": 8828,
    "shish": 11796,
    "sides": 12510,
    "gration": 9124,
    "umblings": 23899,
    "Ġasc": 4767,
    "Ġadagrad": 2903,
    "Ġapex": 24345,
    "Ġcrown": 5290,
    "gee": 15979,
    "Ġinputs": 842,
    "enses": 10996,
    "Ġsouthwards": 19634,
    "wander": 17709,
    "aching": 5832,
    "Ġinsolent": 13600,
    "Ġfraud": 19034,
    "Ġgn": 9679,
    "ash": 1992,
    "Ġusual": 3944,
    "embraced": 25805,
    "higher": 20408,
    "insanity": 23069,
    "Ġprovides": 1931,
    "Ġfloundering": 16253,
    "tu": 12514,
    "Ġduration": 20353,
    "Ġpastures": 23424,
    "set": 3867,
    "Ġexamination": 8006,
    "!âĢĶ": 2450,
    "Ġdespise": 14664,
    "±": 114,
    "Ġraptures": 13497,
    "Ġemail": 19074,
    "iastic": 12483,
    "Ġentit": 22739,
    "whole": 6085,
    "safety": 20349,
    "cl": 1493,
    "Ġapproved": 16037,
    "Ġblandly": 20324,
    "Ġmaketh": 15188,
    "Ġconflagration": 26364,
    "Ġnour": 10832,
    "conveyed": 20522,
    "nay": 7138,
    "Ġquart": 11790,
    "Ġprestige": 22237,
    "Ġphilipp": 23889,
    "Ġling": 7377,
    "iability": 20918,
    "erting": 17777,
    "Ġbelonged": 6923,
    "Ġstead": 5651,
    "Ġspokes": 18311,
    "Ġbended": 21385,
    "wants": 21129,
    "place": 4154,
    "Ġwithhold": 18115,
    "hill": 15362,
    "Ġauthor": 4375,
    "Ġtension": 13823,
    "unc": 15771,
    "Ġphyset": 23200,
    "matic": 4621,
    "mat": 2200,
    "Ġdromedary": 17440,
    "Ġmust": 843,
    "paddington": 20479,
    "Ġtrif": 6270,
    "Ġinfat": 14498,
    "Ġdraw": 3674,
    "Ġhorr": 3189,
    "regarded": 12011,
    "wrath": 23760,
    "Ġrepul": 16411,
    "Ġhisself": 21915,
    "Ġstuffed": 13411,
    "Ġvery": 637,
    "Ġdey": 11677,
    "thy": 2934,
    "Ġprophesy": 26060,
    "whom": 8186,
    "ú": 187,
    "Ġpre": 507,
    "Ġpunish": 12164,
    "Ġxxii": 24481,
    "devils": 20034,
    "Ġbreed": 19073,
    "chorus": 19812,
    "Ġbullion": 24985,
    "ain": 343,
    "Ġsuperficial": 23459,
    "ccarthy": 4890,
    "terogene": 21826,
    "Ġordained": 19446,
    "cheerfulness": 20180,
    "Ġjurymen": 16846,
    "Ġflap": 14420,
    "viv": 17698,
    "ifer": 11687,
    "ieve": 1656,
    "Ġpanthe": 19654,
    "Ġtufted": 17015,
    "truck": 15441,
    "umbled": 8496,
    "Ġoozy": 21327,
    "ript": 4153,
    "Ġblu": 2687,
    "Ġrest": 1782,
    "¤": 102,
    "Ġmac": 15539,
    "monkey": 19170,
    "Ġprobability": 1128,
    "atiate": 12551,
    "speaking": 12102,
    "Ġconstitution": 20110,
    "othic": 16217,
    "incom": 21181,
    "Ġoriginate": 24125,
    "elfare": 11780,
    "Ġassented": 17339,
    "fatal": 17088,
    "Ġyankees": 26201,
    "Ġsumm": 3353,
    "Ġcheered": 16373,
    "Ġtraitors": 23078,
    "dick": 11481,
    "gaffman": 26390,
    "Ġforeign": 9875,
    "Ġexulting": 20259,
    "Ġheightens": 24160,
    "angle": 22102,
    "Ġretreating": 19800,
    "Ġpicturesqueness": 24483,
    "Ġdoom": 6418,
    "Ġstarted": 4150,
    "help": 1478,
    "art": 590,
    "sledge": 21056,
    "dee": 11736,
    "Ġlife": 1352,
    "tend": 17674,
    "Ġ60": 14874,
    "Ġreliable": 18775,
    "Ġmarry": 4417,
    "games": 20880,
    "Ġdisgrace": 7216,
    "Ġbeh": 1804,
    "Ġrem": 954,
    "Ġproportionably": 19972,
    "hounds": 20906,
    "pening": 2832,
    "boilers": 26296,
    "Ġrules": 1920,
    "Ġinsc": 7587,
    "Ġsuperl": 16443,
    "Ġirregularly": 25323,
    "<EOS>": 2,
    "im": 327,
    "Ġflew": 5589,
    "ity": 417,
    "ersburgh": 18213,
    "Ġtour": 9149,
    "Ġgpus": 3734,
    "Ġexpert": 18858,
    "Ġovertaken": 18422,
    "Ġtrust": 4079,
    "Ġelimin": 16110,
    "osque": 22263,
    "iner": 2672,
    "miss": 3173,
    "Ġnaturalists": 10364,
    "Ġinterference": 8897,
    "gainst": 25144,
    "wherein": 19107,
    "Ġbast": 21379,
    "Ġpreacher": 18367,
    "unsupervised": 10891,
    "aling": 1036,
    "Ġfinger": 5275,
    "Ġray": 18642,
    "Ġauthoritative": 19562,
    "resent": 10771,
    "Ġstanders": 19014,
    "Ġconjured": 25101,
    "err": 1140,
    "party": 8995,
    "51": 12434,
    "Ġshudderings": 25199,
    "Ġpropensity": 18994,
    "istically": 14141,
    "Ġslop": 23163,
    "agement": 4189,
    "wonders": 17145,
    "Ġrese": 2141,
    "Ġleading": 7298,
    "contr": 12060,
    "abeth": 908,
    "Ġpunishment": 9959,
    "Ġgoodness": 6059,
    "nephew": 26397,
    "rubbed": 22181,
    "Ġacquiesced": 25493,
    "ariously": 18528,
    "Ġcistern": 17382,
    "Ġconclusion": 5986,
    "etical": 13956,
    "ulsive": 10236,
    "Ġbrimstone": 25685,
    "Ġfinancial": 23129,
    "Ġcharnel": 22253,
    "placidity": 25987,
    "northern": 23668,
    "Ġfixed": 2686,
    "scand": 18854,
    "imag": 6992,
    "Ġamsterdam": 22481,
    "Ġuseless": 7040,
    "ille": 9221,
    "uled": 11538,
    "violently": 23547,
    "Ġgasped": 11374,
    "Ġgills": 17992,
    "Ġproposal": 10022,
    "ceptive": 15967,
    "Ġencoding": 4776,
    "largely": 19575,
    "Ġtrump": 8196,
    "umer": 9260,
    "tasted": 17687,
    "fine": 10093,
    "misrepresented": 24217,
    "Ġenglishmen": 19431,
    "Ġthereupon": 18432,
    "Ġcommission": 6715,
    "introduced": 15125,
    "Ġadvantage": 4316,
    "repeated": 12342,
    "Ġthreatens": 24378,
    "w": 91,
    "Ġtrepidation": 19216,
    "abases": 3003,
    "turning": 8318,
    "Ġvillas": 24060,
    "Ġcemeteries": 26375,
    "cription": 20818,
    "Ġske": 4816,
    "Ġbough": 13893,
    "Ġard": 5165,
    "Ġimpotently": 22391,
    "Ġpaddock": 25039,
    "ulity": 10888,
    "Ġpenetrate": 12274,
    "Ġsab": 10764,
    "D": 40,
    "Ġsleepers": 13151,
    "fixedly": 24929,
    "Ġhistory": 4007,
    "soft": 12512,
    "sockets": 22723,
    "excellent": 8045,
    "Ġdevelopment": 7066,
    "Ġhan": 15619,
    "Ġavoided": 13261,
    "Ġelated": 18632,
    "term": 3760,
    "secret": 12241,
    "che": 3170,
    "Ġjoppa": 12039,
    "Ġtener": 21163,
    "Ġmachines": 1777,
    "imony": 12692,
    "Ġbecome": 3157,
    "Ġinhabit": 5783,
    "hole": 5588,
    "Ġchamois": 16799,
    "Ġstrenuously": 17449,
    "Ġlur": 5227,
    "flag": 14710,
    "Ġpill": 7848,
    "tea": 18739,
    "tisement": 6769,
    "bering": 18690,
    "red": 398,
    "Ġsoar": 18280,
    "Ġharsh": 9376,
    "terns": 21823,
    "Ġenjoyed": 8009,
    "Ġbuild": 6475,
    "Ġhelmeted": 19689,
    "page": 13770,
    "darted": 20832,
    "Ġticklish": 25036,
    "ĠâĢľ": 516,
    "Ġpreparations": 12314,
    "lect": 1225,
    "shoals": 24716,
    "Ġsharp": 2413,
    "Ġclapping": 14204,
    "Ġloosened": 26001,
    "athies": 22700,
    "Ġnet": 3628,
    "favour": 9551,
    "sounded": 12271,
    "Ġmoored": 11795,
    "Ġfront": 3454,
    "Ġcaged": 21352,
    "yset": 21144,
    "Ġhelping": 3264,
    "Ġende": 21934,
    "Ġcorners": 18874,
    "Ġgraze": 18224,
    "Ġgrotes": 19564,
    "Ġnative": 4643,
    "Ġtapped": 11555,
    "Ġcoils": 9305,
    "disappearing": 23508,
    "nered": 18486,
    "Ġ28": 19295,
    "Ġhes": 6252,
    "Ġlassitude": 20588,
    "Ġevil": 3809,
    "Ġplot": 14278,
    "Ġspaulding": 11734,
    "doublo": 24661,
    "Ġfresher": 23208,
    "van": 7816,
    "Ġtriumph": 5144,
    "Ġcompat": 2938,
    "Ġinjure": 16780,
    "Ġontario": 26204,
    "Ġchopping": 24225,
    "Ġlooks": 4167,
    "Ġanecdote": 26354,
    "Ġfrightful": 7737,
    "alescence": 15926,
    "horrors": 20542,
    "j": 78,
    "Ġfret": 10808,
    "Ġbrink": 18768,
    "Ġsequence": 1976,
    "Ġlav": 13948,
    "Ġroyalty": 19737,
    "tawny": 26404,
    "rue": 1130,
    "Ġchapters": 10475,
    "Ġswims": 12123,
    "Ġknee": 7096,
    "Ġlatin": 16819,
    "Ġwilfully": 16765,
    "gg": 1996,
    "ominy": 13980,
    "misery": 13346,
    "Ġlethar": 21747,
    "Ġportentous": 15230,
    "judges": 19574,
    "springing": 24891,
    "Ġpul": 2040,
    "Ġ*/": 10376,
    "Ġshud": 5462,
    "pretending": 17041,
    "wreat": 21126,
    "enet": 10155,
    "Ġsordid": 26422,
    "tempestuous": 26096,
    "skinned": 25387,
    "Ġalan": 10871,
    "curious": 10485,
    "Ġstraits": 7995,
    "Ġfainting": 16896,
    "Ġshri": 5376,
    "ese": 4444,
    "Ġenticing": 22741,
    "Ġarid": 22182,
    "oise": 15404,
    "ateness": 15520,
    "Ġbowled": 23773,
    "Ġhorror": 3774,
    "Ġdz": 4758,
    "Ġclue": 7023,
    "Ġhooped": 23360,
    "batim": 25018,
    "dress": 17520,
    "treated": 21093,
    "evinced": 19926,
    "isis": 12582,
    "Ġwelcomed": 9485,
    "Ġinject": 2712,
    "Ġdense": 8124,
    "ve": 323,
    "Ġaccident": 5381,
    "assemblies": 25955,
    "Ġspleen": 26421,
    "Ġquadruped": 20616,
    "ashed": 3786,
    "boone": 23253,
    "Ġfetched": 24571,
    "Ġsabbath": 17256,
    "Ġmatted": 22913,
    "Ġjaw": 3317,
    "move": 11857,
    "stand": 618,
    "_:": 17479,
    "Ġlieutenant": 15262,
    "pennies": 26285,
    "Ġwander": 9034,
    ",": 16,
    "bo": 1688,
    "month": 6464,
    "vellers": 16673,
    "unwillingly": 21885,
    "min": 4574,
    "Ġagitation": 6866,
    "gument": 20885,
    "althily": 19360,
    "former": 11751,
    "Ġsect": 17751,
    "âĢĶâĢĻâĢĿ": 20065,
    "isc": 6241,
    "Ġblackstone": 23394,
    "apprec": 22845,
    "ppery": 10894,
    "Ġspray": 7896,
    "Ġvenom": 24244,
    "tuning": 1578,
    "Ġmisanthropic": 26561,
    "Ġespe": 21155,
    "turbable": 24534,
    "Ġwall": 3845,
    "Ġmythologies": 26213,
    "Ġcoal": 18587,
    "Ġglaring": 11912,
    "hated": 17561,
    "Ġwigwam": 11430,
    "sequence": 2856,
    "Ġcoer": 22579,
    "Ġgans": 5822,
    "case": 5207,
    "Ġforeb": 12007,
    "sleepy": 24728,
    "Ġgodfre": 14527,
    "ruit": 22178,
    "believing": 19463,
    "ò": 179,
    "Ġdestructive": 23492,
    "Ġabundant": 17156,
    "Ġinsurg": 23685,
    "Ġbulkington": 14675,
    "Ġincrust": 22551,
    "Ġverdict": 13476,
    "sincerely": 24585,
    "cou": 13695,
    "Ġmaledictions": 26428,
    "Ġchimer": 24603,
    "Ġcreatures": 4138,
    "Ġwhelmed": 25998,
    "Ġextremities": 19196,
    "Ġubiqu": 18046,
    "Ġprosperity": 20258,
    "lived": 12490,
    "î": 175,
    "Ġribs": 7104,
    "Ġarise": 7898,
    "Ġlogs": 16346,
    "sleepers": 24729,
    "Ġunsounded": 15851,
    "Ġbeholding": 8673,
    "chair": 5917,
    "Ġunlim": 18248,
    "Ġmincing": 18750,
    "begins": 18523,
    "eping": 5834,
    "Ġalarm": 4047,
    "Ġspecial": 2102,
    "Ġeffeminacy": 20717,
    "Ġhooded": 12409,
    "consequ": 18502,
    "avish": 22594,
    "Ġvia": 2379,
    "Ġthan": 736,
    "Ġdistinguish": 2727,
    "Ġevent": 2950,
    "Ġhorner": 8961,
    "Ġblending": 14398,
    "scythes": 26402,
    "ilege": 22257,
    "Ġfloats": 9416,
    "alt": 12640,
    "appearing": 14635,
    "Ġmethod": 1487,
    "Ġeth": 17716,
    "Ġoakum": 16933,
    "southern": 20410,
    "joined": 13277,
    "Ġnose": 4402,
    "Ġsaw": 1348,
    "Ġgrim": 7439,
    "Ġwaist": 6894,
    "Ġtranspointed": 22441,
    "Ġplanets": 24063,
    "Ġschools": 9480,
    "Ġacross": 1329,
    "domestic": 19826,
    "osity": 14183,
    "chan": 1167,
    "Ġseal": 10259,
    "Ġrejo": 5916,
    "iature": 8746,
    "knowing": 10439,
    "Ġappeared": 2775,
    "ahawk": 23323,
    "Ġvillagers": 19475,
    "Ġbusy": 6191,
    "ism": 4876,
    "oned": 4633,
    "Ġoctavo": 15164,
    "Ġundressed": 19514,
    "Ġhasty": 10479,
    "Ġstick": 6026,
    "smitten": 23914,
    "Ġensure": 23692,
    "sales": 17667,
    "Ġgangway": 20158,
    "Ġcontact": 9283,
    "Ġhusbands": 16642,
    "Ġaye": 3350,
    "Ġindeed": 1678,
    "Ġver": 3393,
    "ze": 1305,
    "Ġresembling": 4099,
    "ocity": 8279,
    "Ġflounders": 23017,
    "Ġruthless": 15286,
    "Ġitem": 12703,
    "Ġregularity": 22777,
    "ident": 3377,
    "Ġentered": 2846,
    "Ġapril": 13662,
    "Ġinexorable": 12260,
    "ometer": 19323,
    "fitters": 24760,
    "Ġadversity": 24308,
    "Ġsheet": 6264,
    "atics": 15523,
    "pump": 21015,
    "Ġdamn": 11160,
    "Ġreconciled": 13587,
    "Ġangels": 11180,
    "Ġbig": 5807,
    "Ġlet": 1115,
    "Ġringbolts": 24202,
    "striving": 24670,
    "Ġadjac": 18292,
    "Ġchatting": 24746,
    "Ġlest": 6396,
    "Ġphilosopher": 12188,
    "Ġ134": 24784,
    "Ġheedfully": 24524,
    "Ġarrayed": 25663,
    "Ġtangle": 25759,
    "Ġtaste": 5525,
    "apan": 6861,
    "owing": 7603,
    "to": 714,
    "vious": 1784,
    "Ġredoubled": 23756,
    "Ġgate": 6826,
    "Ġslender": 11943,
    "proved": 11990,
    "Ġleisurely": 24745,
    "interruption": 20113,
    "Ġamph": 18506,
    "Ġcomputations": 16006,
    "Ġsec": 2075,
    "quaker": 15765,
    "prick": 19344,
    "Ġthr": 5710,
    "ris": 7556,
    "Ġincurable": 22553,
    "Ġpagans": 16921,
    "Ġunconquerable": 22060,
    "necess": 4898,
    "icide": 11620,
    "Ġsour": 21216,
    "Ġhalloa": 13318,
    "magnet": 14969,
    "yourselves": 24958,
    "Ġgospel": 18000,
    "cruise": 24843,
    "Ġstabilizing": 3660,
    "Ġcounteracted": 19862,
    "unteered": 26496,
    "Ġremorse": 6442,
    "joice": 9604,
    "Ġagonising": 25373,
    "far": 5788,
    "Ġassumpt": 5416,
    "Ġinvestigated": 25386,
    "Ġprime": 10406,
    "Ġryder": 10261,
    "Ġsuperseded": 26223,
    "ined": 1261,
    "Ġbeing": 1162,
    "admit": 18090,
    "accepting": 20135,
    "possibly": 10546,
    "Ġcap": 2357,
    "Ġcleaned": 23183,
    "Ġbohemia": 10652,
    "rear": 21232,
    "Ġoverflow": 10294,
    "Ġprofane": 13154,
    "ractions": 11635,
    "ohog": 9846,
    "colnett": 19327,
    "Ġweighty": 16033,
    "Ġpres": 9735,
    "Ġperiod": 4003,
    "ibilities": 13010,
    "Ġper": 588,
    "Ġgreatest": 4093,
    "thorough": 21986,
    "Ġtalents": 15043,
    "nez": 22448,
    "Ġdemanded": 8328,
    "Ġwithered": 19466,
    "Ġcurb": 16243,
    "Ġplutarch": 22603,
    "Ġthin": 4347,
    "Ġbaggy": 24541,
    "coronet": 16862,
    "Ġproudly": 19743,
    "Ġdang": 9176,
    "ivable": 10912,
    "Ġexclaim": 11223,
    "fee": 12882,
    "persu": 8029,
    "preced": 10312,
    "strils": 10460,
    "Ġlooking": 2470,
    "treatment": 20413,
    "continual": 20644,
    "Ġsculpt": 15949,
    "Ġcommunications": 16359,
    "Ġcollecting": 12290,
    "ot": 346,
    "Ġmour": 6975,
    "sens": 8097,
    "elopement": 23201,
    "xology": 21140,
    "prodig": 16428,
    "Ġrmsprop": 3352,
    "Ġbraced": 16578,
    "Ġwatchman": 23669,
    "Ġoutskirts": 17458,
    "Ġdon": 1608,
    "Ġaggreg": 12886,
    "ility": 625,
    "Ġband": 5293,
    "Ġdispirited": 23887,
    "Ġcertainly": 2495,
    "sit": 13779,
    "othed": 16510,
    "Ġblaming": 22931,
    "Ġoccasional": 7290,
    "Ġimpenit": 22389,
    "Ġbrings": 11883,
    "Ġrecover": 9795,
    "deacon": 22148,
    "Ġlodged": 11253,
    "apering": 8042,
    "Ġ(`": 12855,
    "transform": 8051,
    "Ġimpregn": 26021,
    "situation": 11439,
    "disinterested": 23507,
    "Ġvillages": 14747,
    "Ġseething": 18201,
    "anity": 9656,
    "Ġseats": 14087,
    "Ġstrolled": 16769,
    "inkles": 7426,
    "performed": 18342,
    "Ġmantle": 25273,
    "Ġsurveying": 25325,
    "decor": 23784,
    "convers": 6569,
    "Ġceremony": 8362,
    "Ġcounted": 12143,
    "Ġcommonly": 3260,
    "Ġlima": 10444,
    "equally": 19899,
    "Ġmeadow": 17153,
    "anzas": 17840,
    "ivided": 22079,
    "Ġpractices": 19032,
    "Ġgiving": 4085,
    "unable": 14057,
    "Ġconjecture": 9534,
    "fra": 8376,
    "Ġnay": 5712,
    "**:": 4739,
    "gentleness": 24846,
    "Ġprodigy": 19793,
    "Ġjollity": 25566,
    "never": 3151,
    "erie": 21270,
    "sprang": 19992,
    "Ġparm": 15879,
    "artificial": 1016,
    "Ġmoon": 4611,
    "Ġsensitivity": 3071,
    "Ġprincip": 5601,
    "Ġpelt": 15611,
    "Ġsadly": 7303,
    "ified": 3224,
    "whe": 1072,
    "destiny": 16698,
    "cated": 20803,
    "Ġunimaginable": 15247,
    "Ġident": 2238,
    "Ġlarger": 1403,
    "Ġmassacre": 20548,
    "itled": 7579,
    "Ġlurch": 21554,
    "Ġheh": 21680,
    "Ġcuff": 17829,
    "Ġbattered": 17862,
    "Ġbattle": 5908,
    "Ġdetermines": 2363,
    "derick": 22158,
    "studies": 25168,
    "gle": 20869,
    "Ġ89": 19713,
    "Ġdawn": 6818,
    "Ġembodied": 25846,
    "together": 3558,
    "Ġshutters": 9940,
    "ha": 3981,
    "Ġinspired": 2517,
    "indirectly": 18435,
    "gunw": 17222,
    "Ġpartaking": 22697,
    "ignor": 8964,
    "Ġsensible": 4977,
    "Ġcustody": 13647,
    "Ġalco": 21783,
    "Ġunfor": 15841,
    "inople": 13828,
    "ĠĠĠĠĠĠĠĠĠĠĠĠĠĠĠĠĠĠĠĠĠĠĠĠĠĠĠĠĠĠĠĠĠĠĠĠĠĠĠĠĠ": 19583,
    "utely": 8133,
    "Ġsmelling": 16068,
    "Ġsucc": 12786,
    "Ġsongs": 13421,
    "neurons": 3135,
    "rrh": 26143,
    "Ġalongside": 6313,
    "Ġinv": 2223,
    "storied": 18021,
    "uation": 17694,
    "beyond": 8886,
    "Ġworking": 5576,
    "ð": 177,
    "Ġdeity": 18134,
    "Ġdecisions": 6705,
    "Ġimmovable": 15894,
    "Ġmercy": 9001,
    "Ġprecisely": 6467,
    "Ġhot": 4258,
    "endeavoured": 12285,
    "Ġmodeling": 2094,
    "bat": 8073,
    "Ġbrah": 19358,
    "arken": 18665,
    "sign": 8389,
    "prophecy": 22827,
    "pleasanter": 24054,
    "Ġdriver": 16474,
    "icacy": 15660,
    "Ġinput": 610,
    "Ġcaptains": 7458,
    "Ġimmediately": 3364,
    "Ġvelv": 10622,
    "Ġevenness": 22837,
    "mbl": 5946,
    "Ġyea": 8919,
    "Ġcitadel": 25438,
    "Ġequilibrium": 4141,
    "Ġinquis": 19304,
    "Ġtwink": 8217,
    "laz": 15385,
    "Ġdenny": 9004,
    "Ġecl": 18005,
    "Ġeventually": 8621,
    "Ġtimidity": 24688,
    "free": 8740,
    "Ġne": 390,
    "similar": 13454,
    "own": 746,
    "onze": 21255,
    "mped": 16647,
    "ĠĠĠ": 2114,
    "Ġascertain": 9709,
    "Ġeligible": 10673,
    "bies": 15313,
    "Ġvainly": 9927,
    "Ġfished": 21410,
    "Ġcertain": 1552,
    "Ġd": 284,
    "Ġcherished": 10593,
    "Ġchallenge": 25471,
    "Ġtransf": 22438,
    "Ġfreshly": 23992,
    "Ġdictionaries": 12343,
    "Ġshine": 12768,
    "Ġdouble": 4941,
    "lesson": 22771,
    "Ġexactness": 23608,
    "ocratic": 17246,
    "Ġhearts": 4973,
    "endering": 21284,
    "Ġtelling": 5748,
    "whales": 5188,
    "presented": 12992,
    "Ġprudence": 13920,
    "Ġscolding": 15201,
    "Ġunbecoming": 22061,
    "Ġcobweb": 22584,
    "Ġakin": 15495,
    "Ġchancery": 20716,
    "Ġbloodthirst": 23806,
    "Ġhard": 1452,
    "served": 5044,
    "yield": 13808,
    "already": 6982,
    "sim": 6511,
    "hered": 5624,
    "isp": 5529,
    "Ġbelongs": 8016,
    "Ġcannibal": 7775,
    "eck": 20844,
    "Ġflames": 7941,
    "Ġdeployment": 11194,
    "Ġpapered": 20132,
    "Ġslack": 8958,
    "Ġgliding": 8565,
    "succeed": 10332,
    "happ": 3104,
    "Ġaghast": 16049,
    "Ġcent": 3250,
    "Ġassuring": 13066,
    "itely": 5366,
    "abomin": 15744,
    "detached": 19675,
    "kick": 20934,
    "Ġstrikes": 13183,
    "Ġhermit": 15859,
    "Ġatrocious": 21944,
    "crat": 24090,
    "thither": 21984,
    "umb": 3402,
    "av": 739,
    "Ġamends": 14243,
    "Ġdiscussed": 19560,
    "Ġwaiting": 4323,
    "simon": 16972,
    "Ġaggregate": 25676,
    "Ġwindward": 6886,
    "Ġglobules": 26589,
    "ie": 728,
    "uments": 5553,
    "Ġcares": 9368,
    "Ġapparatus": 24909,
    "avast": 8900,
    "amidst": 25651,
    "Ġpierced": 12286,
    "tarpaul": 21096,
    "Ġfingers": 5673,
    "Ġundertaken": 18984,
    "59": 17474,
    "Ġvaguely": 17367,
    "preserving": 25304,
    "Ġwhite": 1533,
    "inglass": 21302,
    "Ġmomentum": 1598,
    "ĠĠĠĠĠĠĠĠĠĠĠĠĠĠĠĠĠĠĠĠĠĠĠĠĠĠĠĠĠĠĠĠĠĠĠĠ": 23667,
    "penetrating": 25490,
    "Ġmistaken": 4987,
    "Ġofficially": 24840,
    "Ġanalysis": 1905,
    "hos": 15363,
    "Ġomens": 21328,
    "ord": 666,
    "owed": 2267,
    "Ġsnarl": 25712,
    "Ġcheek": 8582,
    "enesis": 24391,
    "Ġelegance": 11334,
    "Ġtormenting": 15105,
    "Ġdarts": 16767,
    "Ġguarded": 9829,
    "Ġneutral": 12746,
    "estation": 15924,
    "burgh": 6775,
    "Ġlod": 4042,
    "produ": 10722,
    "Ġperennial": 22694,
    "inent": 9630,
    "dearest": 11738,
    "vanity": 24976,
    "stays": 15690,
    "reader": 23852,
    "Ġsickened": 16774,
    "Ġjingling": 26016,
    "Ġsubmit": 11873,
    "Ġstrung": 22618,
    "Ġimbalanced": 18331,
    "Ġrises": 9716,
    "Ġdictator": 20153,
    "erated": 21271,
    "Ġbathed": 17865,
    "Ġnic": 7376,
    "Ġcoming": 2619,
    "smo": 10128,
    "col": 3103,
    "Ġheated": 21682,
    "wishes": 13806,
    "Ġamazed": 14888,
    "ancholy": 5071,
    "Ġdiscoursing": 26266,
    "betrayed": 24641,
    "Ġraising": 8913,
    "Ġdenomin": 12071,
    "ounder": 11747,
    "Ġoar": 6238,
    "Ġmassachusetts": 24028,
    "Ġexists": 14039,
    "Ġunconcerned": 20511,
    "Ġunhappy": 5641,
    "Ġlying": 4827,
    "Ġmastiff": 23728,
    "Ġpeered": 18666,
    "cement": 2840,
    "Ġrecognition": 3054,
    "Ġsped": 22126,
    "formity": 10281,
    "Ġpreceded": 13429,
    "shr": 10982,
    "Ġdifficult": 3572,
    "Ġworthy": 7242,
    "Ġbaltic": 18794,
    "Ġannihil": 10177,
    "Ġeach": 892,
    "Ġinstruments": 12228,
    "accessory": 25499,
    "Ġtun": 5999,
    "skill": 24490,
    "ternatural": 12717,
    "Ġspouts": 7731,
    "ishing": 1143,
    "Ġcontrary": 5262,
    "irectly": 6941,
    "Ġcarries": 7675,
    "houn": 20892,
    "peare": 18910,
    "foundered": 20867,
    "Ġrespite": 13156,
    "reluct": 26162,
    "Ġsty": 6253,
    "Ġscreams": 24604,
    "haps": 1668,
    "Ġpure": 6139,
    "Ġhammers": 13244,
    "Ġwester": 25156,
    "remember": 7263,
    "Ġscalding": 16358,
    "ners": 3268,
    "dan": 17515,
    "Ġarrows": 18336,
    "Ġtaurus": 21178,
    "fearfully": 25119,
    "Ġbroadway": 23989,
    "Ġduncan": 13462,
    "Ġstarvation": 19792,
    "hroom": 12480,
    "tables": 19758,
    "Ġsoil": 9257,
    "Ġstealing": 18892,
    "Ġostr": 21325,
    "Ġblame": 6447,
    "\"": 6,
    "Ġgem": 21593,
    "all": 485,
    "Ġlearns": 2645,
    "Ġmoves": 14229,
    "brew": 11475,
    "hend": 13255,
    "Ġwhaleman": 4657,
    "Ġfathers": 16297,
    "Ġterms": 2560,
    "iscreet": 20683,
    "Ġquite": 1739,
    "construction": 19779,
    "garity": 17554,
    "Ġbasis": 16960,
    "Ġbrides": 22864,
    "Ġpattering": 18650,
    "Ġascribed": 14854,
    "dro": 6647,
    "Ġjust": 1243,
    "Ġadaptively": 3970,
    "Ġsoothe": 7405,
    "consciousness": 13368,
    "Ġcrooked": 11283,
    "showing": 22462,
    "Ġintent": 6410,
    "agos": 21905,
    "Ġpettic": 14840,
    "Ġmincer": 14365,
    "whiteness": 18368,
    "Ġpled": 17906,
    "iah": 14415,
    "Ġmid": 2617,
    "court": 7512,
    "Ġcovered": 5172,
    "Ġirene": 8446,
    "doubtful": 24791,
    "Ġmouth": 3179,
    "need": 10981,
    "Ġtrampled": 20329,
    "Ġfeels": 6883,
    "skeleton": 17377,
    "Ġpassive": 22842,
    "Ġwaves": 3919,
    "Ġcreation": 6440,
    "iences": 6958,
    "Ġpicture": 4858,
    "Ġhall": 4184,
    "Ġcatastrophe": 10486,
    "Ġchurch": 4713,
    "angels": 22104,
    "grandfather": 25011,
    "century": 20048,
    "Ġchowder": 10283,
    "Ġguardians": 14942,
    "Ġvii": 13111,
    "Ġpalace": 16688,
    "captains": 12131,
    "Ġmizzen": 20290,
    "account": 5331,
    "Ġvoids": 25806,
    "Ġoptimize": 1607,
    "formation": 22217,
    "Ġxi": 16430,
    "Ġfluid": 11214,
    "Ġgratefully": 20446,
    "Ġwooing": 19435,
    "sailing": 14713,
    "Ġsevere": 6032,
    "Ġlaure": 16908,
    "Ġamounts": 6707,
    "Ġsom": 1276,
    "Ġcrockery": 24306,
    "nantucketer": 24974,
    "Ġcontracted": 12862,
    "Ġcran": 12004,
    "Ġphysical": 7523,
    "Ġdenial": 13215,
    "jer": 12484,
    "Ġincreas": 1691,
    "marching": 25751,
    "Ġcautiousness": 19866,
    "Ġbuckskin": 19953,
    "Ġanticip": 7508,
    "Ġequival": 4785,
    "Ġfalling": 6916,
    "Ġparc": 10922,
    "tro": 15433,
    "perv": 1604,
    "Ġnovelty": 13464,
    "shine": 9290,
    "Ġdisappoint": 24211,
    "Ġregular": 938,
    "Ġ39": 19491,
    "Ġslyness": 25265,
    "eskye": 21483,
    "Ġdisengaged": 12891,
    "Ġunst": 18233,
    "Ġwilling": 7421,
    "ucket": 2480,
    "Ġprodigious": 8058,
    "Ġintruder": 25990,
    "Ġwindibank": 7258,
    "Ġgazes": 24100,
    "words": 7984,
    "Ġaltitude": 26202,
    "ougher": 18274,
    "Ġallies": 18265,
    "Ġastr": 15494,
    "embarrassed": 20665,
    "Ġnom": 21518,
    "doubt": 6784,
    "Ġhastened": 9007,
    "Ġcalculated": 4475,
    "Ġstorm": 4301,
    "Ġburden": 8612,
    "oper": 7348,
    "Ġimmedi": 2904,
    "Ġcongregational": 25104,
    "drop": 15336,
    "Ġdirections": 1971,
    "Ġstrained": 10221,
    "n": 82,
    "Ġspell": 8859,
    "Ġdrawings": 14721,
    "Ġapartments": 19615,
    "Ġpurch": 6601,
    "cous": 8726,
    "changed": 7177,
    "Ġhills": 6528,
    "lo": 682,
    "Ġ49": 24087,
    "ancy": 4393,
    "Ġadvantageously": 19546,
    "Ġnetworks": 597,
    "Ġshaded": 14103,
    "Ġarrange": 3120,
    "Ġartic": 5316,
    "arder": 17894,
    "Ġregression": 4409,
    "Ġdined": 9178,
    "Ġtravelled": 7773,
    "Ġvoracity": 25985,
    "luxur": 25821,
    "perhaps": 4123,
    "Ġannounce": 13341,
    "Ġagency": 11809,
    "_),": 7128,
    "Ġfonder": 17880,
    "Ġinvolve": 11048,
    "Ġmichaelmas": 26374,
    "Ġjet": 5310,
    "sword": 10728,
    "Ġparliament": 18300,
    "deficient": 23117,
    "Ġperplexed": 23662,
    "Ġcross": 1375,
    "Ġdec": 643,
    "linging": 16080,
    "venison": 22628,
    "dl": 20823,
    "affording": 23781,
    "Ġoccupy": 14730,
    "Ġgreyish": 24214,
    "tremble": 17143,
    "Ġreply": 4514,
    "takes": 21075,
    "Ġferguson": 17470,
    "_,": 2799,
    "holding": 7740,
    "Ġregret": 5562,
    "canallers": 22969,
    "Ġutmost": 5497,
    "Ġeaves": 15678,
    "Ġrightly": 13067,
    "Ġmistake": 6205,
    "flood": 19807,
    "sery": 17661,
    "Ġdance": 4442,
    "leman": 21368,
    "Ġinter": 726,
    "Ġraw": 3319,
    "unnecessary": 21881,
    "Ġthus": 2036,
    "afford": 14651,
    "ivorous": 22080,
    "volutions": 16322,
    "Ġmists": 14628,
    "meet": 11859,
    "Ġxxxiv": 24969,
    "wow": 21120,
    "Ġluck": 4882,
    "Ġruins": 16160,
    "Ġsufficiently": 8976,
    "oup": 2014,
    "execution": 20473,
    "ć": 200,
    "lucifer": 25302,
    "Ġlosing": 10918,
    "poverty": 22909,
    "Ġdrugged": 12605,
    "Ġxli": 14539,
    "Ġkate": 15907,
    "und": 4119,
    "Ġhesitate": 16945,
    "benefit": 24643,
    "Ġflinging": 13585,
    "Ġcomprehens": 8321,
    "ob": 1421,
    "ad": 337,
    "ho": 2858,
    "gown": 9598,
    "Ġirresolution": 24916,
    "Ġgra": 415,
    "Ġprayed": 16667,
    "Ġprograms": 7240,
    "companions": 15023,
    "Ġsport": 6691,
    "Ġsaville": 15891,
    "cream": 15330,
    "wed": 5797,
    "Ġidol": 7468,
    "idly": 12702,
    "Ġfiled": 15581,
    "Ġtossings": 25356,
    "Ġstories": 10867,
    "Ġseams": 12128,
    "prospect": 23401,
    "Ġanne": 1526,
    "protested": 13475,
    "Ġungodly": 26514,
    "rederick": 14078,
    "ahab": 4290,
    "evening": 7092,
    "ret": 1476,
    "Ġbewil": 11659,
    "Ġoverbearing": 12843,
    "Ġpiny": 21468,
    "Ġfighting": 12202,
    "Ġid": 1909,
    "Ġneighbors": 25803,
    "prop": 1007,
    "Ġinheriting": 25354,
    "Ġwearisome": 19796,
    "Ġchoked": 9266,
    "ifully": 13188,
    "Ġprivileges": 25135,
    "Ġsomewhat": 4899,
    "Ġcemet": 20681,
    "Ġoverthrown": 18423,
    "Ġsmitten": 12901,
    "Ġkindling": 19029,
    "Ġcaut": 6522,
    "happiness": 6470,
    "Ġshorter": 4498,
    "his": 1414,
    "Ġgraphs": 25463,
    "Ġsanely": 24982,
    "Ġpoorly": 9858,
    "concl": 12871,
    "weight": 2940,
    "Ġlucas": 3835,
    "Ġeighteen": 11240,
    "movement": 25577,
    "Ġaft": 5738,
    "Ġcalifornian": 25851,
    "Ġanomalous": 25636,
    "Ġinferior": 8367,
    "Ġbranded": 14377,
    "send": 15423,
    "particular": 5758,
    "grad": 2565,
    "Ġaccosted": 13672,
    "Ġemperor": 15159,
    "bing": 7793,
    "assment": 9743,
    "Ġplush": 18607,
    "Ġgenerator": 3381,
    "iv": 430,
    "Ġdiscovering": 13360,
    "Ġcoward": 7157,
    "jol": 20923,
    "felix": 10656,
    "Ġscuffle": 20609,
    "sig": 2874,
    "Ġparcels": 25465,
    "ruined": 18335,
    "Ġswimming": 5508,
    "discoloured": 23504,
    "Ġhunsford": 6303,
    "mid": 5618,
    "Ġsorry": 4210,
    "ilations": 21722,
    "Ġaverse": 11083,
    "phys": 18714,
    "Ġobscured": 15010,
    "Ġdeliverer": 11953,
    "Ġfiss": 21412,
    "Ġrepresent": 1210,
    "Ġpsal": 15617,
    "Ġsister": 1475,
    "istol": 6261,
    "pacing": 21019,
    "depths": 25662,
    "Ġinquiry": 6485,
    "Ġflorida": 20659,
    "wont": 21131,
    "Ġinches": 5846,
    "Ġgleams": 17312,
    "Ġamericans": 14742,
    "Ġstrive": 23697,
    "som": 3287,
    "Ġridicule": 13511,
    "Ġprehens": 22232,
    "humoured": 11238,
    "Ġstages": 14002,
    "filled": 9596,
    "Ġenv": 2806,
    "romising": 18231,
    "Ġpell": 21454,
    "Ġabutted": 22276,
    "Ġrecord": 5318,
    "Ġadmired": 7983,
    "tired": 21071,
    "Ġconflag": 20336,
    "Ġintertw": 18584,
    "Ġcurtains": 22990,
    "Ġrewarding": 13438,
    "Ġshipmates": 6723,
    "Ġbiography": 22768,
    "direful": 25895,
    "Ġsurprising": 14595,
    "Ġwerter": 15240,
    "Ġbuilding": 8064,
    "Ġdifferently": 10391,
    "Ġdipping": 15593,
    "sigma": 3000,
    "Ġstaves": 21741,
    "adm": 7610,
    "Ġye": 900,
    "Ġperturbed": 20441,
    "compass": 9463,
    "Ġawhile": 13829,
    "Ġporthole": 24402,
    "Ġcoiling": 12907,
    "benevolently": 25600,
    "Ġgayer": 24504,
    "fect": 2297,
    "resembling": 25931,
    "Ġpunchbowl": 20232,
    "forgotten": 12419,
    "mccarthy": 15394,
    "prepar": 22467,
    "sticks": 25963,
    "Ġsupp": 1265,
    "bulwarks": 12277,
    "Ġpreliminary": 10060,
    "Ġstuff": 5718,
    "Ġpious": 11600,
    "vocation": 25086,
    "diff": 9116,
    "Ġfootpaths": 26317,
    "Ġgrease": 26189,
    "Ġpaddington": 17095,
    "Ġhandkerchief": 8917,
    "vap": 13802,
    "Ġappears": 5403,
    "uteronomy": 15666,
    "rically": 15417,
    "what": 644,
    "simply": 20671,
    "Ġactiv": 834,
    "Ġperceived": 4716,
    "Ġheaving": 7602,
    "Ġ35": 24082,
    "Ġneglig": 18877,
    "ordinary": 4407,
    "Ġcloth": 9747,
    "Ġcompute": 2905,
    "Ġnoble": 3443,
    "Ġtunnel": 14929,
    "?âĢĶ": 3470,
    "Ġagreeable": 4554,
    "caterpillar": 26383,
    "Ġgathered": 8445,
    "Ġcare": 1632,
    "wol": 21121,
    "Ġvillainous": 25134,
    "Ġprocess": 557,
    "pra": 15407,
    "Ġal": 342,
    "Ġremainder": 9861,
    "malice": 17603,
    "Ġamelia": 26250,
    "Ġadvis": 9813,
    "bud": 10686,
    "part": 2571,
    "Ġperiodically": 19495,
    "Ġaccused": 8511,
    "rapidly": 15244,
    "tfordshire": 4812,
    "Ġunexplored": 26519,
    "Ġunite": 9256,
    "mmar": 952,
    "seemingly": 25362,
    "ah": 1835,
    "Ġlodges": 19501,
    "Ġboscombe": 8327,
    "real": 10152,
    "ader": 14010,
    "Ġclub": 8877,
    "Ġceaseless": 13489,
    "hil": 8380,
    "claim": 9838,
    "inv": 8403,
    "dropout": 3196,
    "ugl": 23294,
    "|": 96,
    ".": 18,
    "Ġxxi": 24479,
    "Ġaspire": 21901,
    "Ġinconsiderable": 21494,
    "Ġsupported": 9821,
    "take": 4579,
    "iquet": 17575,
    "Ġtaught": 6805,
    "Ġodious": 12155,
    "across": 10327,
    "Ġfrenchman": 11285,
    "call": 8727,
    "Ġmeditations": 25015,
    "Ġpreprocess": 22234,
    "Ġsuffusing": 23032,
    "Ġdialogue": 12407,
    "Ġaccurately": 3801,
    "Ġpy": 21449,
    "Ġlatitudes": 9499,
    "Ġleaping": 8342,
    "Ġmbpp": 21322,
    "Ġcovariate": 2346,
    "endeavouring": 15015,
    "Ġdens": 21424,
    "Ġventilator": 8718,
    "Ġscrews": 25176,
    "Ġinclu": 1101,
    "Ġtrifle": 10604,
    "Ġmighty": 4230,
    "Ġfossil": 12390,
    "Ġpresence": 5032,
    "Ġhesitated": 10005,
    "ma": 1149,
    "Ġsecrecy": 7317,
    "Ġbarbar": 6936,
    "power": 7139,
    "Ġforces": 12704,
    "Ġpositive": 2294,
    "maintained": 25022,
    "Ġimbedded": 18330,
    "exasper": 22430,
    "specim": 23949,
    "oused": 6558,
    "Ġdaring": 8122,
    "Ġdiscernment": 15068,
    "Ġposition": 1954,
    "Ġinsensible": 12329,
    "Ġdisadvantage": 12892,
    "expose": 23665,
    "Ġsucceeded": 6106,
    "Ġinsane": 19269,
    "Ġsecrets": 9057,
    "gling": 10100,
    "violent": 14577,
    "Ġvacantly": 16814,
    "Ġmomentary": 11038,
    "Ġrepaired": 13110,
    "Ġprev": 6266,
    "biting": 20781,
    "Ġsant": 21214,
    "Ġdat": 497,
    "perai": 10279,
    "injury": 25212,
    "Ġcheer": 4066,
    "Ġreinforcement": 3308,
    "works": 6590,
    "Ġqueer": 4478,
    "capting": 24046,
    "ender": 9162,
    "Ġitems": 9695,
    "gunpowder": 25339,
    "chat": 21686,
    "Ġrudder": 25110,
    "conjectures": 25179,
    "plun": 15817,
    "Ġchinks": 22252,
    "Ġdetail": 636,
    "Ġpass": 1041,
    "ascar": 8437,
    "andering": 21868,
    "Ġrecognised": 8998,
    "sick": 13783,
    "Ġtormented": 8679,
    "bbing": 6325,
    "Ġcalcul": 3640,
    "oors": 17620,
    "occ": 4484,
    "Ġprovince": 24195,
    "etting": 21579,
    "Ġattacks": 12209,
    "Ġhappen": 5572,
    "Ġ[\"": 19931,
    "Ġdevious": 22731,
    "Ġpreser": 6041,
    "infallibly": 26417,
    "Ġheadlong": 11891,
    "Ġleast": 2064,
    "Ġblocks": 6323,
    "Ġcredit": 4820,
    "hoping": 17566,
    "ourney": 3555,
    "inities": 21185,
    "sleeves": 26108,
    "Ġethiop": 26154,
    "Ġmot": 2982,
    "Ġveteran": 17451,
    "olstadt": 7790,
    "walked": 10573,
    "envelope": 17782,
    "Ġrestrained": 16377,
    "omeness": 18022,
    "wharf": 20607,
    "whew": 22867,
    "inces": 13827,
    "intolerable": 22939,
    "readily": 19363,
    "Ġspence": 22127,
    "lotts": 23831,
    "rously": 17654,
    "Ġsecurely": 16801,
    "Ġpondering": 17006,
    "Ġglac": 9347,
    "Ġirr": 10423,
    "Ġunanswerable": 26522,
    "Ġorthodox": 22096,
    "Ġpaid": 5016,
    "undoubtedly": 13313,
    "Ġcrystall": 20227,
    "utarch": 15664,
    "Ġtarred": 23613,
    "Ġsuspected": 9065,
    "Ġsolomon": 11054,
    "Ġexult": 10232,
    "wit": 7819,
    "prudently": 21033,
    "Ġroar": 9754,
    "Ġstarboard": 7606,
    "local": 22511,
    "Ġuncork": 23434,
    "Ġmould": 6520,
    "Ġcommencement": 12243,
    "Ġfors": 21772,
    "Ġfru": 8422,
    "Ġsmoke": 4717,
    "iliary": 21727,
    "Ġcrests": 25684,
    "Ġtooth": 9194,
    "home": 7342,
    "Ġhelplessly": 20079,
    "screw": 9349,
    "Ġfavour": 3644,
    "ht": 375,
    "Ġencourage": 10383,
    "Ġgenerously": 22393,
    "Ġdeceive": 12724,
    "Ġcele": 9903,
    "each": 7336,
    "stopping": 19351,
    "Ġassume": 10518,
    "Ġcomplying": 18582,
    "stranger": 9886,
    "conceive": 16031,
    "operation": 13501,
    "Ġsulky": 13514,
    "aby": 18106,
    "Ġtyros": 26100,
    "Ġdisobedience": 22536,
    "Ġcrozetts": 19630,
    "puzz": 17640,
    "elled": 3992,
    "trad": 21074,
    "Ġperfume": 25664,
    "alarm": 15628,
    "Ġlabyrinth": 13679,
    "isle": 13891,
    "alterable": 13624,
    "Ġcellar": 8060,
    "ear": 8735,
    "foot": 9049,
    "Ġfive": 2836,
    "rants": 13777,
    "ultural": 22569,
    "Ġjackal": 24245,
    "gress": 2213,
    "Ġalbino": 20504,
    "ime": 626,
    "Ġtaller": 16686,
    "Ġleads": 12100,
    "Ġberries": 13409,
    "Ġconsol": 3818,
    "rief": 6204,
    "Ġejac": 10206,
    "Ġstatue": 23150,
    "Ġfearfully": 23517,
    "robustness": 26338,
    "Ġfurnaces": 24010,
    "Ġunwe": 15840,
    "rog": 15641,
    "record": 16920,
    "akened": 7415,
    "Ġtendinous": 16930,
    "forbidding": 25836,
    "rop": 538,
    "successively": 24779,
    "compared": 24040,
    "earthly": 24723,
    "Ġantics": 24184,
    "Ġrefine": 2921,
    "Ġsports": 18308,
    "kind": 3865,
    "Ġlanding": 11988,
    "Ġfest": 10806,
    "Ġnature": 2537,
    "Ġcontrasting": 11156,
    "Ġvicissitudes": 12422,
    "mystery": 15156,
    "Ġgnashed": 20202,
    "Ġappearances": 10453,
    "Ġwhirl": 13450,
    "Ġungod": 22021,
    "scarcely": 12389,
    "Ġmoodily": 19835,
    "Ġloafer": 18297,
    "dwelling": 20565,
    "bury": 9110,
    "Ġmeasured": 9807,
    "Ġdress": 4021,
    "ament": 2436,
    "Ġfashionable": 19545,
    "Ġferrule": 24503,
    "Ġmark": 2327,
    "Ġexercised": 24801,
    "Ġwindpipe": 23107,
    "Ġdecision": 2677,
    "Ł": 258,
    "Ġzealand": 12353,
    "Ġspotted": 12142,
    "antage": 3880,
    "Ġrecompense": 14837,
    "Ġidentifies": 12018,
    "adequate": 15204,
    "oquent": 12502,
    "share": 14234,
    "Ġholder": 6727,
    "Ġpursue": 6316,
    "Ġlounging": 10025,
    "Ġstepdaughter": 22613,
    "death": 6263,
    "Ġindividually": 22958,
    "Ġdism": 9770,
    "liberal": 26281,
    "Ġale": 9156,
    "Ġshrivelled": 19704,
    "Ġrummaged": 16909,
    "Ġhousehold": 8572,
    "irous": 8843,
    "Ġpurporting": 19183,
    "cons": 4309,
    "Ġbricks": 13562,
    "Ġhe": 318,
    "Ġremark": 2143,
    "Ġscaramouch": 23833,
    "Ġanalyze": 1574,
    "flung": 16638,
    "Ġexecutors": 19534,
    "Ġep": 7384,
    "Ġexhibited": 9546,
    "hoisting": 23720,
    "meditation": 19069,
    "Ġsparkling": 11358,
    "etime": 12661,
    "precaution": 23828,
    "ost": 5362,
    "downstairs": 23925,
    "Ġdepl": 14042,
    "Ġcretan": 22720,
    "Ġteasing": 11894,
    "inhab": 10759,
    "Ġwaste": 9236,
    "Ġsagittarius": 24731,
    "Ġfinally": 4669,
    "fourth": 11330,
    "anges": 1672,
    "Ġformed": 3885,
    "oc": 2834,
    "đ": 210,
    "ì": 173,
    "Ġcargo": 16291,
    "gins": 12472,
    "Ġridges": 16730,
    "ribes": 23371,
    "Ġinsurmountable": 16531,
    "Ġtransformer": 2639,
    "Ġwager": 17792,
    "Ġspectacles": 12101,
    "Ġpushing": 10821,
    "itable": 5438,
    "Ġreturns": 11929,
    "Ġinarticulate": 21499,
    "Ġcourting": 23296,
    "Ġsphy": 18309,
    "goodness": 19289,
    "Ġpriests": 15040,
    "Ġwand": 4341,
    "Ġonto": 14026,
    "inquiries": 13577,
    "Ġpleasures": 11144,
    "salesman": 20672,
    "Ġfir": 17877,
    "showed": 16029,
    "Ġthom": 21515,
    "ons": 709,
    "Ġstreams": 12197,
    "pudding": 17647,
    "utherland": 9580,
    "Ġgermany": 25784,
    "Ġonly": 789,
    "asses": 7019,
    "Ġsinging": 7725,
    "Ġexplanatory": 22203,
    "aware": 16296,
    "Ġvari": 833,
    "Ġsofas": 26224,
    "ulnerable": 18150,
    "Ġbudge": 15165,
    "Ġranges": 2883,
    "Ġacc": 569,
    "Ġflashes": 11920,
    "Ġwearing": 12741,
    "Ġprotect": 6339,
    "Ġbare": 6134,
    "Ġeternity": 12283,
    "delightful": 12201,
    "Ġcomstock": 21859,
    "jaw": 13742,
    "Ġcaptivating": 26048,
    "Ġgo": 614,
    "ained": 3066,
    "Ġinterm": 14266,
    "Ġwinter": 5221,
    "Ġadmit": 7712,
    "Ġgipsies": 12411,
    "blog": 19840,
    "Ġexpressly": 16452,
    "Ġslices": 23166,
    "Ġcapable": 5055,
    "Ġrepetition": 8975,
    "Ġlinn": 13951,
    "pleased": 8857,
    "Ġdescribes": 3121,
    "Ġavert": 14423,
    "Ġrank": 6260,
    "Ġbeer": 10222,
    "sies": 21053,
    "Ġstone": 4648,
    "Ġcher": 6131,
    "Ġgrammars": 11404,
    "Ġmixed": 6976,
    "igning": 12682,
    "Ġacknowled": 6352,
    "ta": 13788,
    "_âĢĶâĢĿ": 20763,
    "educ": 10830,
    "Ġcharacteristics": 8614,
    "progra": 9398,
    "Ġbrand": 16187,
    "Ġabusing": 18391,
    "Ġexpiration": 22625,
    "liness": 8751,
    "Ġadhes": 22107,
    "Ġsoaring": 22087,
    "Ġfasc": 12601,
    "gpt": 5357,
    "Ġshattered": 7886,
    "oriented": 2947,
    "Ġrecords": 12200,
    "Ġthre": 2059,
    "Ġprosecut": 9701,
    "Ġpatentee": 25586,
    "Ġpatagonia": 25854,
    "Ġenlivened": 26207,
    "shadow": 20315,
    "Ġvoid": 14084,
    "Ġforemost": 12008,
    "ware": 3936,
    "Ġassu": 21898,
    "Ġreel": 9215,
    "Ġjanuary": 13653,
    "pless": 6262,
    "Ġvivacious": 19816,
    "accomp": 10457,
    "leaped": 17843,
    "cures": 20805,
    "Ġfeeble": 12288,
    "Ġdead": 2170,
    "expressed": 9044,
    "txt": 12518,
    "biscuit": 17501,
    "Ġembatt": 18837,
    "Ġstem": 15721,
    "ampling": 12728,
    "Ġcanvassed": 19936,
    "Ġmorass": 22974,
    "Ġcupboard": 16882,
    "rush": 7013,
    "Ġdistress": 5845,
    "Ġounce": 15273,
    "mit": 4935,
    "electricity": 26385,
    "Ġox": 7155,
    "touched": 15439,
    "unaffected": 21884,
    "Ġrings": 11702,
    "Ġstartled": 7085,
    "Ġevol": 2816,
    "Ġfreed": 7268,
    "advantages": 11273,
    "Ġrasc": 21975,
    "Ġdeeply": 4719,
    "Ġain": 6971,
    "Ġrivers": 9446,
    "Ġretarded": 23073,
    "andy": 8159,
    "Ġaccompanying": 11306,
    "ensed": 10997,
    "Ġnewspapers": 17188,
    "ier": 1136,
    "Ġboards": 14299,
    "Ġ67": 19661,
    "Ġstop": 2500,
    "befall": 22496,
    "Ġdismay": 11812,
    "Ġnoisy": 13321,
    "Ġwomen": 4752,
    "Ġporter": 15612,
    "delay": 16694,
    "Ġquality": 3530,
    "Ġmccarthys": 19663,
    "dancing": 12458,
    "otence": 14021,
    "Ġnoise": 1070,
    "Ġheroes": 10579,
    "Ġarchitect": 1000,
    "Ġvines": 12753,
    "Ġthickets": 24029,
    "Ġarrowy": 25469,
    "Ġmask": 1867,
    "Ġmaternal": 11061,
    "reg": 2183,
    "vex": 21702,
    "Ġrepressed": 21668,
    "Ġdarcy": 1341,
    "Ġflint": 23013,
    "Ġbeat": 4491,
    "Ġhap": 18193,
    "reading": 12083,
    "Ġretreats": 16927,
    "Ġhomage": 12358,
    "contain": 18498,
    "Ġjoining": 13166,
    "Ġcrystals": 20228,
    "Ġtranquo": 14842,
    "ries": 3351,
    "Ġvess": 3291,
    "Ġpartners": 11856,
    "chosen": 21695,
    "ider": 21766,
    "Ġcalves": 13037,
    "Ġhugh": 15003,
    "thole": 21987,
    "Ġsees": 8847,
    "access": 11182,
    "Ġbehold": 5050,
    "beheld": 11805,
    "Ġannihilated": 20253,
    "Ġsermon": 12379,
    "ll": 1139,
    "Ġsolemn": 4101,
    "Ġargue": 16782,
    "Ġthump": 11613,
    "persecutor": 26531,
    "breeding": 16674,
    "Ġglit": 8564,
    "ippers": 17576,
    "draughts": 20388,
    "Ġconcluding": 9860,
    "heard": 5010,
    "Ġjewelled": 20183,
    "harbors": 20148,
    "Ġslammed": 20449,
    "Ġworkflow": 2597,
    "Ġadhering": 14138,
    "leo": 21364,
    "Ġclaimed": 14203,
    "))": 1513,
    "Ġassailants": 20450,
    "Ġbrew": 23349,
    "Ġjoll": 11768,
    "Ġchar": 1702,
    "picture": 11409,
    "is": 280,
    "Ġdrows": 21435,
    "Ġwhither": 10217,
    "Ġfireplace": 13147,
    "Ġbeale": 12701,
    "Ġflattered": 10377,
    "Ġ51": 24319,
    "clam": 13057,
    "Ġdiscompose": 25579,
    "Ġ44": 16678,
    "pton": 15796,
    "Ġsig": 867,
    "Ġallusion": 7627,
    "humored": 19454,
    "ire": 491,
    "Ġunfaltering": 24116,
    "Ġcontentment": 14869,
    "rushing": 10021,
    "elly": 17979,
    "Ġindomit": 22956,
    "Ġrubber": 22786,
    "ried": 926,
    "won": 8396,
    "acup": 14276,
    "renewed": 19705,
    "Ġbelieve": 2144,
    "Ġfrown": 10809,
    "Ġap": 5009,
    "Ġbelly": 10372,
    "Ġstrategies": 1842,
    "Ġspr": 4025,
    "large": 6628,
    "clear": 9027,
    "transformers": 8719,
    "bergs": 18691,
    "Ġshel": 6848,
    "Ġpraised": 19554,
    "Ġassent": 12735,
    "Ġsubsets": 2341,
    "Ġflaming": 8568,
    "rocious": 21538,
    "Ġtrappings": 23083,
    "Ġconcert": 11970,
    "she": 1399,
    "Ġalpha": 13588,
    "Ġguido": 2974,
    "Ġsweating": 16463,
    "levi": 7050,
    "consciously": 19626,
    "Ġdeclaration": 16636,
    "Ġdisappearing": 22534,
    "beaut": 8516,
    "Ġthickest": 16654,
    "Ġhval": 21487,
    "Ġproducts": 5199,
    "Ġinvis": 6903,
    "Ġbasics": 13449,
    "aculate": 16084,
    "Ġannum": 24209,
    "Ġdreaming": 11225,
    "Ġwip": 13852,
    "Ġbrightly": 13226,
    "Ġasking": 5652,
    "Ġcigars": 12257,
    "Ġstriving": 8999,
    "Ġdarkly": 19114,
    "mm": 675,
    "bright": 8992,
    "image": 9689,
    "Ġmich": 21306,
    "Ġunderstanding": 1734,
    "Ġblocked": 19223,
    "Ġaverred": 18865,
    "national": 20996,
    "angs": 5835,
    "Ġthack": 21516,
    "Ġrending": 19468,
    "ĠĠĠĠĠĠĠĠĠĠĠĠĠĠĠĠĠĠĠĠĠĠĠĠĠĠĠĠĠĠĠĠĠĠĠĠĠĠĠĠĠĠĠĠĠĠĠĠĠĠĠĠĠ": 20041,
    "Ġnar": 4188,
    "proper": 7472,
    "Ġdolphins": 20397,
    "Ġfaintness": 24574,
    "Ġdeck": 2136,
    "Ġslips": 23167,
    "Ġtides": 13820,
    "goin": 23408,
    "Ġhails": 21951,
    "vous": 2249,
    "Ġloose": 4651,
    "Ġmankind": 6701,
    "Ġnorris": 23202,
    "endent": 15921,
    "Ē": 211,
    "Ġtold": 2184,
    "listen": 13513,
    "Ġpained": 19167,
    "Ġhatherley": 7851,
    "bil": 20771,
    "Ġtowed": 11267,
    "jephro": 26392,
    "Ġprofessor": 11232,
    "Ġsecured": 6748,
    "pun": 9619,
    "remembrance": 25701,
    "Ġsaws": 23048,
    "Ġdispel": 16595,
    "Ġfools": 14478,
    "Ġaffect": 1386,
    "ication": 968,
    "Ġinhabited": 12190,
    "Ġwraps": 19777,
    "Ġemaciated": 20639,
    "Ġcultured": 25158,
    "erred": 6377,
    "Ġinherent": 4594,
    "Ġsite": 17753,
    "O": 51,
    "hardly": 6492,
    "reen": 21231,
    "Ġintrepid": 11708,
    "joining": 19447,
    "Ġtranscend": 25666,
    "game": 11493,
    "Ġhop": 1461,
    "def": 1451,
    "sufferable": 12181,
    "mathematics": 26303,
    "miniature": 16764,
    "whalebone": 19118,
    "Ġdyspeps": 16514,
    "vering": 15718,
    "Ġparch": 11729,
    "Ġstraw": 9432,
    "Ġra": 813,
    "Ġdetestable": 15099,
    "Ġel": 802,
    "Ġjustify": 11075,
    "Ġimpenet": 14217,
    "Ġbru": 13894,
    "Ġadult": 18289,
    "vert": 15717,
    "Ġpatter": 832,
    "Ġlofty": 6219,
    "hundreds": 25075,
    "Ġfro": 3474,
    "invari": 21184,
    "ksome": 10107,
    "Ġbird": 3758,
    "Ġeverlasting": 9339,
    "paper": 9139,
    "Ġrusty": 14963,
    "Ġunsophisticated": 25991,
    "quis": 7872,
    "strongly": 24685,
    "Ġoverflowed": 20263,
    "Ġblasphe": 17408,
    "Ġpipeline": 2472,
    "Ġachieves": 4379,
    "Ġbarbara": 24816,
    "past": 8091,
    "Ġedged": 23493,
    "Ġgar": 10840,
    "Ġbut": 424,
    "Ġplight": 14279,
    "Ġsevered": 18203,
    "Ġenvironment": 3802,
    "lant": 20945,
    "Ġgets": 10841,
    "Ġliberty": 7763,
    "Ġconvulsively": 25714,
    "Ġadro": 15869,
    "Ġeyed": 12669,
    "Ġpress": 5932,
    "Ġcondesc": 7183,
    "veh": 12683,
    "ladyship": 14828,
    "Ġshun": 11712,
    "Ġeveryday": 22770,
    "Ġincisive": 18568,
    "wheel": 22868,
    "Ġspy": 22124,
    "Ġfeelings": 2449,
    "Ġcorrob": 16267,
    "Ġgallons": 14817,
    "nigh": 13762,
    "consc": 4842,
    "man": 1053,
    "Ġconsequ": 6256,
    "Ġcrocodile": 20740,
    "enough": 6811,
    "Ġpaused": 5417,
    "Ġslavery": 16308,
    "garnished": 26388,
    "Ġunwell": 22014,
    "egyptians": 25897,
    "Ġremonstrate": 22795,
    "escript": 18469,
    "Ġshave": 21997,
    "complained": 25838,
    "Ġtougher": 21176,
    "Ġjagged": 18405,
    "Ġmannish": 26237,
    "Ġwhis": 3507,
    "Ġreproachfully": 25250,
    "insisted": 23068,
    "Ġpopulation": 16826,
    "ĠĠĠĠĠĠĠĠĠĠĠĠĠĠĠĠĠĠĠĠĠĠĠĠĠĠĠĠĠĠĠĠĠĠĠĠĠĠĠĠĠĠĠĠĠĠĠĠĠĠĠ": 20040,
    "Ġadvocate": 13676,
    "Ġpeep": 6871,
    "peace": 13051,
    "Ġopp": 2697,
    "Ġ1883": 23903,
    "grasping": 20640,
    "perform": 15903,
    "Ġdiscerning": 25004,
    "decided": 13216,
    "Ġenvy": 13184,
    "Ġwindigate": 18909,
    "care": 4930,
    "Ġcomprehend": 6495,
    "ister": 1296,
    "Ġroads": 13290,
    "Ġdestro": 3724,
    "fuller": 22501,
    "Ġproceedings": 9910,
    "idav": 18092,
    "hen": 3520,
    "Ġrack": 9314,
    "Ġfearless": 9878,
    "Ġimprudence": 10300,
    "impud": 23764,
    "Ġlink": 8131,
    "thest": 11656,
    "accountable": 7112,
    "Ġerudite": 26351,
    "Ġcottages": 14726,
    "baned": 17496,
    "nameless": 19903,
    "Ġunsafe": 22038,
    "eting": 7171,
    "Ġintimidated": 24803,
    "Ġredness": 19312,
    "aking": 973,
    "Ġnostrils": 10945,
    "Ġinclination": 6626,
    "biqu": 17498,
    "Ġconceive": 8464,
    "concern": 6100,
    "Ġfevers": 22208,
    "mount": 9132,
    "Ġtribes": 20482,
    "Ġpest": 13913,
    "Ġfastened": 7068,
    "Ġstray": 18069,
    "fulfilment": 26024,
    "eer": 15347,
    "Ġspots": 11732,
    "Ġmortar": 19394,
    "Ġhyper": 19740,
    "ressing": 8922,
    "Ġumb": 11648,
    "Ġelementary": 24812,
    "Åĵuvre": 25886,
    "Ġflitting": 13029,
    "Ġpreferred": 14965,
    "Ġpreceding": 7529,
    "ithing": 11651,
    "Ġpluck": 15615,
    "poss": 4780,
    "ann": 5804,
    "Ġcra": 2328,
    "Ġtap": 12529,
    "Ġhalts": 3158,
    "explained": 23144,
    "Ġsymptom": 13484,
    "Ġburglar": 17355,
    "Ġminimum": 23041,
    "Ġmaterials": 11290,
    "cock": 12029,
    "Ġaddress": 2268,
    "atived": 21262,
    "Ġwe": 386,
    "arter": 17893,
    "harm": 13734,
    "Ġpermitted": 9280,
    "Ġscruples": 15078,
    "Ġcrawling": 17045,
    "izzy": 3096,
    "Ġdot": 4822,
    "actually": 14296,
    "ufactured": 15182,
    "descried": 11932,
    "Ġdust": 5909,
    "ech": 4389,
    "Ġvaliantly": 22809,
    "Ġenter": 4030,
    "Ġfemales": 14936,
    "Ġhansom": 13664,
    "uning": 1313,
    "Ġcheers": 16370,
    "Ġdetained": 18373,
    "agreeable": 5830,
    "Ġfloated": 7289,
    "okingly": 22382,
    "Ġcarelessness": 13077,
    "eches": 8079,
    "Ġbubblingly": 25631,
    "steam": 23965,
    "promising": 24725,
    "Ġgamesome": 17291,
    "Ġsummar": 3527,
    "attended": 8955,
    "Ġcompatibility": 2957,
    "entirely": 7783,
    "Ġworrying": 22928,
    "Ġlullaby": 20589,
    "ust": 493,
    "Ġcalm": 3450,
    "Ġdecapitated": 20617,
    "murderer": 13395,
    "Ġspouting": 9442,
    "arer": 3968,
    "Ġsneezing": 12252,
    "marked": 9051,
    "allest": 5486,
    "Ġtended": 21166,
    "thought": 3851,
    "sh": 648,
    "Ġsperm": 1845,
    "bantering": 25252,
    "Ġv": 399,
    "who": 2442,
    "abominable": 20595,
    "Ġcorrection": 5063,
    "Ġcharacter": 2794,
    "conduct": 11800,
    "Ġicicles": 25263,
    "rise": 6228,
    "ouses": 5164,
    "Ġdistributing": 22679,
    "mas": 5213,
    "Ġburnished": 24003,
    "Ġsagacious": 14970,
    "Ġhousekeeper": 7457,
    "ution": 4349,
    "parameter": 3040,
    "ilogue": 21725,
    "Ġric": 18207,
    "Ġplanisphere": 26608,
    "l": 80,
    "Ġendeavor": 16544,
    "Ġindirect": 18833,
    "willingness": 24754,
    "nineteenth": 26137,
    "Ġcott": 3711,
    "Ġblades": 11898,
    "Ġenchanted": 9083,
    "islands": 21376,
    "Ġoceans": 7997,
    "Ġrubbing": 9323,
    "Ġhuman": 1318,
    "Ġdamps": 23480,
    "ensibility": 22548,
    "Ġbraw": 23840,
    "Ġspinning": 15051,
    "Ġeff": 663,
    "Ġhovered": 12633,
    "Ġlabor": 10420,
    "Ġtyrant": 24767,
    "Ġcabs": 23644,
    "blocks": 25517,
    "Ġcloser": 8664,
    "atoes": 17775,
    "Ġrepaid": 19082,
    "Ġwept": 7185,
    "uttle": 6249,
    "lowering": 16034,
    "©": 107,
    "Ġincompetent": 25678,
    "Ġgrop": 12666,
    "Ġoutlined": 22321,
    "Ġobliter": 14320,
    "Ġsilver": 7465,
    "weakness": 16126,
    "wicked": 24452,
    "Ġenh": 3004,
    "imper": 13995,
    "conjecture": 15123,
    "spin": 22724,
    "Ġfortnight": 6202,
    "Ġninety": 13601,
    "appropri": 22844,
    "straight": 9943,
    "Ġmod": 494,
    "Ġdry": 5625,
    "Ġbuckle": 17033,
    "bad": 12439,
    "assured": 10955,
    "Ġpersonages": 23545,
    "directly": 13708,
    "Ġsimulation": 2752,
    "Ġpyth": 21459,
    "comparison": 25840,
    "something": 4285,
    "Ġmenacing": 23109,
    "deal": 12801,
    "reposed": 24495,
    "ferent": 4195,
    "Ġcasks": 7522,
    "Ġtoo": 1163,
    "Ġskul": 22797,
    "Ġsuggestions": 24456,
    "proceeding": 20141,
    "paradise": 20638,
    "Ġdiscovered": 4412,
    "Ġwaking": 11572,
    "Ġfrigid": 17353,
    "Ġour": 1010,
    "whereby": 23422,
    "Ġahab": 1215,
    "Ġshutting": 14758,
    "seriously": 18903,
    "Ġimprovement": 7966,
    "Ġdrink": 4789,
    "Ġimproper": 22747,
    "Ġplied": 22597,
    "Ġprelimin": 8864,
    "Ġorange": 8490,
    "Ġcloudy": 19478,
    "Ġinsists": 23682,
    "Ġglobal": 2365,
    "ue": 1177,
    "Ġbewitched": 25974,
    "barbs": 20238,
    "cannot": 5746,
    "Ġsauntering": 18325,
    "superstitiousness": 25508,
    "ady": 993,
    "Ġwaning": 15534,
    "Ġdeceased": 15005,
    "Ġsunlight": 13086,
    "Ġbashaw": 25632,
    "Ġmaggie": 26291,
    "Ġgreedily": 18962,
    "ĠĠĠĠĠĠĠĠĠĠĠĠĠĠĠĠĠĠĠĠĠĠĠĠĠĠĠĠĠĠĠĠĠĠĠĠĠĠĠĠ": 4516,
    "Ġhapless": 15814,
    "Ġelix": 22648,
    "Ġhissing": 15792,
    "sor": 7353,
    "Ġsignific": 3831,
    "stretch": 13974,
    "Ġdisappearance": 9299,
    "progress": 11991,
    "ascertaining": 26460,
    "Ġwhel": 15868,
    "Ġfrenz": 25446,
    "plain": 1360,
    "streets": 13397,
    "Ġbarbarously": 24817,
    "Ġtoward": 17946,
    "berish": 22743,
    "animated": 14974,
    "Ġnews": 3822,
    "Ġdusky": 13549,
    "Ġbust": 10170,
    "Ġtrick": 7021,
    "Ġbohem": 8530,
    "Ġcontinuing": 14395,
    "Ġcrocod": 19629,
    "atively": 2696,
    "Ġwasting": 12730,
    "varied": 23185,
    "Ġrace": 5848,
    "there": 1424,
    "ivering": 7699,
    "Ġfathoms": 9086,
    "ia": 1259,
    "shed": 8096,
    "crier": 20820,
    "Ġbarbed": 14834,
    "entering": 17976,
    "Ġsple": 21215,
    "Ġmir": 9648,
    "john": 11500,
    "unching": 18158,
    "Ġembellish": 25847,
    "Ġcaptured": 7246,
    "grasp": 16431,
    "rer": 3624,
    "azing": 7706,
    "time": 3146,
    "uated": 10134,
    "Ġsayest": 22774,
    "ersampling": 18214,
    "Ġcranes": 20383,
    "Ġslung": 23169,
    "ess": 410,
    "upp": 10133,
    "Ġnomin": 10193,
    "Ġaverages": 2398,
    "Ġmillion": 14986,
    "unmistakable": 21896,
    "Ġshetland": 22160,
    "Ġjup": 15954,
    "Ġinsincere": 26600,
    "Ġdistressed": 8518,
    "Ġcircumst": 2972,
    "Ġclassifies": 11843,
    "spoken": 11862,
    "Ġhalf": 1667,
    "Ġconqueror": 25795,
    "Ġholmes": 1309,
    "inordinate": 21194,
    "Ġbodies": 8033,
    "Ġassure": 4418,
    "Ġhereford": 22875,
    "Ġwarmed": 12027,
    "Ġsmells": 8893,
    "Ġfishe": 15587,
    "Ġacceptance": 14826,
    "Ġtrough": 15965,
    "Ġstaple": 26198,
    "Ġii": 7385,
    "reclining": 20575,
    "Ġblade": 11896,
    "Ġmessage": 13522,
    "Ġminut": 2204,
    "ested": 3481,
    "Ġplaster": 16085,
    "Ġdisc": 943,
    "Ġuse": 848,
    "hon": 6796,
    "Ġorphan": 12386,
    "Ġ37": 24083,
    "Ġloomings": 24951,
    "Ġincapable": 7423,
    "Ġranging": 8482,
    "renew": 24453,
    "Ġ181": 23901,
    "Ġelusive": 22650,
    "bit": 3933,
    "Ġoriginally": 7305,
    "Ġnest": 10191,
    "itute": 9653,
    "Ġirritation": 20267,
    "Ġcomputes": 4770,
    "reement": 15511,
    "sheet": 16287,
    "Ġprefer": 6417,
    "Ġkelson": 18348,
    "rusted": 16506,
    "Ġformerly": 7494,
    "Ġreluctant": 20526,
    "henomenon": 13614,
    "Ġpreliminaries": 25175,
    "Ġforesight": 13130,
    "Ġsteered": 11094,
    "Ġclicked": 22366,
    "oured": 2673,
    "aned": 5148,
    "Ġcarpet": 9358,
    "haven": 20910,
    "Ġinvolving": 18764,
    "walk": 5524,
    "Ġtwain": 16121,
    "nine": 13760,
    "Ġturnkeys": 23031,
    "Ġexecute": 7506,
    "xim": 1093,
    "Ġfound": 1248,
    "Ġchanged": 5244,
    "Ġstepped": 7054,
    "Ġsettle": 6295,
    "history": 15014,
    "Ġadjacent": 20711,
    "ssian": 3399,
    "zek": 16261,
    "Ġcavity": 20489,
    "Ġexisting": 12720,
    "Ġcatherine": 2814,
    "Ġbloom": 9891,
    "fast": 3072,
    "ority": 8420,
    "Ġremains": 4912,
    "Ġmed": 4178,
    "solid": 16382,
    "deepest": 22828,
    "oney": 3048,
    "ifts": 12737,
    "Ġratio": 5067,
    "arranged": 19332,
    "Ġplucked": 15114,
    "voyage": 7787,
    "Ġheed": 5631,
    "Ġthereof": 22369,
    "Ġloosed": 22113,
    "Ġperadventure": 22399,
    "lightning": 16551,
    "Ġpolluted": 25593,
    "Ġclap": 10962,
    "abez": 10225,
    "glow": 20874,
    "aurs": 20769,
    "fulfil": 16043,
    "Ġcruisers": 25862,
    "plex": 708,
    "moid": 2446,
    "courage": 17510,
    "Ġcarried": 3696,
    "Ġinquire": 7721,
    "withdrawn": 23029,
    "Ġcarved": 7948,
    "Ġdecaying": 2245,
    "Ġpolitical": 19224,
    "sweet": 8690,
    "eminence": 20100,
    "Ġbrighter": 16188,
    "Ġpedro": 15062,
    "eryton": 4094,
    "Ġaud": 6665,
    "Ġmurmuring": 23583,
    "swed": 24259,
    "Ġhaught": 10255,
    "Ġinvaders": 23486,
    "Ġinc": 702,
    "Ġtransformed": 22611,
    "dried": 20827,
    "whilst": 18369,
    "800": 17477,
    "Ġamuse": 5940,
    "Ġgirth": 13138,
    "Ġunshored": 25812,
    "imble": 10860,
    "Ġcounties": 23310,
    "denial": 18712,
    "Ġsy": 492,
    "Ġdu": 4587,
    "Ġpreposterous": 13669,
    "Ġinjection": 3469,
    "jected": 22714,
    "Ġaccompany": 9490,
    "Ġpurpose": 2709,
    "Ġlabels": 3284,
    "eliest": 14745,
    "powers": 25410,
    "abound": 15742,
    "Ġhearse": 10422,
    "Ġinflu": 4911,
    "Ġwails": 21296,
    "inished": 17734,
    "vously": 23510,
    "Ġwell": 901,
    "reported": 24496,
    "1775": 26378,
    "gest": 5427,
    "Ġphiladelphia": 26605,
    "Ġlowly": 11123,
    "Ġtahit": 10756,
    "Ġexperiment": 11916,
    "Ġvote": 21948,
    "Ġunmingled": 18258,
    "Ġmiriam": 25272,
    "acquainted": 7314,
    "âĢĿ": 354,
    "Ġclever": 7057,
    "Ġdilated": 24703,
    "Ġdrow": 21426,
    "Ġpeculiarly": 8288,
    "bolts": 11422,
    "Ġlately": 6388,
    "shell": 16288,
    "owl": 12686,
    "Ġhatty": 19265,
    "Ġefficient": 1020,
    "answer": 11735,
    "Ġinstruct": 2864,
    "Ġcopying": 17067,
    "Ġperception": 9753,
    "danced": 20828,
    "Ġtogether": 1879,
    "Ġbelonging": 8309,
    "Ġvigilance": 12374,
    "Ġgoin": 18467,
    "Ġuncouth": 14546,
    "Ġaccompan": 5514,
    "confined": 24331,
    "Ġdecanter": 22445,
    "Ġinconceivable": 17937,
    "Ġbustle": 17229,
    "Ġinflicted": 11367,
    "Ġreef": 10851,
    "ration": 2004,
    "Ġstalls": 25646,
    "ogne": 12942,
    "Ġgrasped": 8035,
    "collected": 13214,
    "Ġoffers": 12947,
    "Ġspeaker": 19148,
    "Ġsuperior": 2753,
    "Ġreception": 9842,
    "avings": 12026,
    "Ġlurked": 11293,
    "Ġjoking": 12839,
    "rudent": 6483,
    "Ġderivative": 2997,
    "Ġrespond": 11178,
    "mpus": 13756,
    "Ġhospitable": 17059,
    "Ġchronicle": 20229,
    "Ã¦mon": 7097,
    "mush": 20975,
    "depend": 9115,
    "Ġbarber": 23794,
    "Ġoaths": 13523,
    "cially": 3491,
    "Ġuncovered": 23436,
    "ainty": 21788,
    "birds": 15145,
    "narwhale": 17075,
    "Ġlobsters": 13516,
    "Ġwebster": 20161,
    "Ġterritories": 23851,
    "Ġboundary": 11224,
    "Ġchests": 19672,
    "Ġberth": 8684,
    "Ġperformed": 8550,
    "ante": 11724,
    "Ġimpress": 6863,
    "Ġubiquitous": 26195,
    "Ġsuperstition": 15053,
    "Ġencountering": 11271,
    "Ġpork": 21455,
    "Ġfob": 21409,
    "Ġhelper": 24032,
    "Ġener": 10898,
    "Ġpervading": 20614,
    "extinguished": 16151,
    "Ġdeepest": 8215,
    "inj": 9153,
    "then": 2053,
    "Ġfluke": 14672,
    "compar": 14356,
    "Ġfalse": 4343,
    "level": 2655,
    "Ġnails": 12650,
    "Ġwhalebone": 10979,
    "Ġzoned": 22821,
    "Ġnarrating": 24354,
    "Ġepidemic": 20696,
    "Ġinflex": 20635,
    "grim": 19106,
    "Ġmidday": 23636,
    "Ġweave": 21921,
    "Ġtopsails": 19194,
    "Ġrays": 10333,
    "umberland": 16836,
    "Ġought": 3421,
    "cain": 15325,
    "Ġmerits": 13198,
    "Ġchanc": 18382,
    "Ġcrane": 23441,
    "torm": 11532,
    "aciously": 12909,
    "wondered": 17117,
    "Ġprize": 11951,
    "uer": 21099,
    "ieving": 7034,
    "Ġcontaining": 2230,
    "urously": 18049,
    "abode": 21792,
    "clothes": 9060,
    "Ġanticipating": 17058,
    "Ġimprudent": 12850,
    "receiving": 12546,
    "tell": 1381,
    "tree": 11535,
    "housekeeping": 24106,
    "sing": 5139,
    "Ġequalled": 13314,
    "Ġsteadfast": 8683,
    "Ġ91": 24590,
    "Ġcorridor": 10674,
    "Ġvint": 18192,
    "Ġrestricted": 19027,
    "prob": 7072,
    "arn": 358,
    "abs": 11669,
    "Ġcontribut": 12861,
    "wl": 17702,
    "Ġrides": 21972,
    "Ġrhone": 25229,
    "ergy": 2356,
    "Ġbashful": 20421,
    "fur": 6357,
    "chors": 11646,
    "Ġbottle": 7491,
    "Ġsubs": 2128,
    "links": 20956,
    "risonment": 17376,
    "ester": 11605,
    "Ġrepulsive": 14528,
    "odes": 18119,
    "Ġtwice": 4664,
    "Ġcompression": 18147,
    "Ġmoose": 22434,
    "bourn": 3297,
    "bastian": 10676,
    "Ġsubtlety": 24780,
    "Ġnailed": 10192,
    "Ġinscriptions": 20010,
    "Ġwithdra": 6399,
    "Ġfailure": 13316,
    "Ġblasts": 19997,
    "imagine": 19932,
    "Ġpalaces": 24097,
    "chastic": 2330,
    "Ġirre": 7469,
    "Ġshaft": 18227,
    "Ġpromotion": 23194,
    "Ġvac": 5026,
    "succeeded": 15176,
    "bid": 5612,
    "Ġstoop": 16311,
    "Ġmales": 17805,
    "artic": 14222,
    "ubbub": 23243,
    "susceptible": 24662,
    "Ġkentuckian": 26342,
    "Ġindefinitely": 25220,
    "Ġexpanding": 25237,
    "Ġhack": 12758,
    "Ġtemper": 955,
    "yp": 1046,
    "Ġalleg": 14015,
    "Ġunlab": 3790,
    "Ġconstant": 6311,
    "respectively": 24699,
    "Ġsubterranean": 13611,
    "Ġinvulnerable": 19146,
    "Ġwhatever": 3476,
    "quiet": 6156,
    "subjects": 19876,
    "Ġsemicircular": 26067,
    "Ġreach": 4046,
    "society": 9975,
    "Ġcurric": 22988,
    "lying": 7176,
    "phere": 21017,
    "Ġparr": 22120,
    "ickering": 22670,
    "Ġentrapped": 26262,
    "several": 5545,
    "ose": 718,
    "Ġwast": 21861,
    "lung": 17591,
    "Ġinflexibly": 26370,
    "ĠâĢĶ_": 3461,
    "delirium": 14783,
    "Ġwaif": 9378,
    "Ġrefuge": 8543,
    "Ġfidel": 12599,
    "educated": 17261,
    "ilst": 8145,
    "oura": 1059,
    "Ġhousemaid": 14461,
    "animals": 24737,
    "Ġsobbed": 14134,
    "Ġjost": 23634,
    "retch": 4371,
    "Ġhere": 1090,
    "Ġjon": 15950,
    "des": 3171,
    "eldest": 22803,
    "Ġdone": 1818,
    "orn": 2241,
    "visitors": 13351,
    "Ġwherefore": 8528,
    "Ġwhosoever": 21719,
    "Ġjumping": 13344,
    "incl": 8111,
    "dinner": 11408,
    "ophisticated": 22485,
    "Ġdaniel": 15112,
    "Ġpatient": 6893,
    "Ġfamiliarly": 11305,
    "raising": 21632,
    "Ġjun": 8509,
    "Ġangle": 8607,
    "Ġsally": 15502,
    "constellation": 24608,
    "Ġincorrupt": 19235,
    "Ġrossum": 3010,
    "churning": 21697,
    "Ġpossessing": 16574,
    "Ġspoke": 2748,
    "Ġlascar": 9201,
    "Ġincess": 8433,
    "daugh": 6791,
    "Ġinglorious": 24427,
    "Ġmotionless": 8325,
    "treacle": 25151,
    "Ġsimilarity": 3166,
    "Ġrealistic": 5862,
    "Ġmiscellaneous": 17463,
    "orph": 21399,
    "Ġreason": 1394,
    "Ġrage": 5110,
    "Ġnaut": 13940,
    "Ġwicked": 5961,
    "libr": 22924,
    "Ġmurdered": 6465,
    "Ġidentify": 12017,
    "Ġfortunate": 6216,
    "Ġfurnished": 6476,
    "Ġinquiries": 5679,
    "pot": 10120,
    "putation": 7626,
    "okers": 18439,
    "ouraged": 22856,
    "Ġincarn": 11817,
    "Ġtenth": 13825,
    "musical": 25340,
    "Ġdiscoveries": 13361,
    "Ġhyperborean": 26339,
    "inspector": 13646,
    "Ġamendment": 26023,
    "Ġ(": 595,
    "Ġscattered": 6857,
    "observing": 25494,
    "Ġroods": 22403,
    "combined": 20321,
    "tw": 2813,
    "Ġbordered": 24567,
    "dri": 5889,
    "merit": 19282,
    "urg": 8143,
    "Ġsqueezing": 25008,
    "invol": 12533,
    "ing": 273,
    "Ġpleadings": 25852,
    "Ġrotterdam": 25475,
    "Ġvictoria": 14872,
    "mistress": 14904,
    "Ġcomplaisance": 19450,
    "Ġprecipices": 12282,
    "Ġundu": 15839,
    "Ġtemporarily": 11169,
    "Ġvertebra": 20181,
    "Ġchuckled": 10650,
    "Ġusefulness": 19409,
    "Ġpurchas": 19874,
    "ĠĠĠĠĠĠĠĠĠĠĠĠĠĠĠĠĠĠĠĠĠĠĠĠĠĠĠĠĠĠĠĠĠĠ": 14612,
    "trimmed": 23954,
    "extinguish": 22759,
    "Ġdozing": 22244,
    "Ġsuperglue": 23460,
    "Ġgoble": 14227,
    "Ġarrested": 9562,
    "Ġupdates": 1300,
    "pattern": 4520,
    "Ġfancying": 12116,
    "Ġ41": 24085,
    "Ġabhorrent": 16855,
    "ceiling": 21627,
    "Ġcarelessly": 11122,
    "Ġheld": 3586,
    "Ġaxis": 12311,
    "Ġobed": 8539,
    "conven": 6164,
    "Ġanonymous": 26177,
    "Ġjewels": 12372,
    "Ġsails": 5258,
    "gall": 6361,
    "Ġcanst": 8861,
    "Ġhindrance": 25219,
    "Ġripples": 25505,
    "conceivable": 17132,
    "aper": 5000,
    "Ġurging": 24508,
    "abash": 18107,
    "agre": 18164,
    "Ġhook": 6454,
    "õ": 182,
    "Ġdocumentation": 20555,
    "Ġthreading": 23407,
    "Ġeloped": 22649,
    "Ġunfrequent": 24113,
    "Ġmarshy": 20219,
    "Ġshoulder": 5849,
    "quietly": 10595,
    "Ġpeeping": 16129,
    "hooked": 23719,
    "Ġhardly": 2430,
    "Ġpulverize": 23398,
    "Ġtext": 2265,
    "Ġpowder": 11277,
    "Ġinsist": 9893,
    "Ġfears": 5730,
    "Ġfeigned": 22209,
    "species": 13259,
    "Ġbattering": 13900,
    "Ġglassy": 19561,
    "Ġplaguy": 22604,
    "Ġavalanche": 17434,
    "Ġyes": 2689,
    "Ġducking": 17148,
    "Ġwaggish": 25434,
    "Ġsailor": 3538,
    "Ġinitials": 11016,
    "Ġpeculiarity": 12935,
    "Ġjago": 22300,
    "Ġfirmest": 16664,
    "going": 6315,
    "itself": 7836,
    "through": 4024,
    "Ġfishermen": 5971,
    "Ġdepress": 14044,
    "Ġeffusion": 22487,
    "Ġsauc": 15890,
    "Ġassistants": 9455,
    "Ġunwritten": 22031,
    "astrous": 15888,
    "Ġfever": 6560,
    "Ġreserved": 7516,
    "Ġimplement": 3190,
    "Ġplump": 14280,
    "Ġviciss": 11294,
    "mag": 6509,
    "suddenly": 6494,
    "hever": 13830,
    "Ġtypewritten": 16423,
    "venth": 9297,
    "carefully": 13371,
    "Ġ48": 24086,
    "Ġopposite": 5120,
    "Ġmasters": 11577,
    "unwilling": 14059,
    "Ġergo": 25031,
    "umerable": 11728,
    "ë": 172,
    "Ġdaunt": 19665,
    "Ġevid": 3503,
    "Ġsto": 1498,
    "udg": 22755,
    "Ġtract": 21165,
    "adding": 21762,
    "Ġfacility": 19850,
    "Ġtreatment": 12075,
    "Ġflatt": 16249,
    "assembled": 21544,
    "Ġutterly": 6101,
    "Ġexpand": 9309,
    "Ġsomebody": 7914,
    "Ġpreferment": 19853,
    "homely": 25616,
    "Ġmaled": 21314,
    "°": 113,
    "Ġwid": 4635,
    "Ġfeeling": 3085,
    "Ġsocially": 22088,
    "ĠĠĠĠĠĠĠĠĠĠĠĠĠĠĠĠĠĠĠĠĠĠĠĠĠĠĠĠĠ": 19700,
    "Ġsaved": 6693,
    "Ġimbib": 22176,
    "Ġcraft": 4376,
    "iveness": 2464,
    "oot": 13764,
    "quent": 2093,
    "boots": 11128,
    "Ġneat": 7001,
    "hitherto": 17285,
    "Ġaugust": 10600,
    "flaming": 23975,
    "âĢĻ-": 18172,
    "Ġsuicide": 12789,
    "Ġentirely": 3437,
    "Ġunwonted": 15007,
    "buoy": 7762,
    "anx": 8789,
    "Ġalas": 5922,
    "Ġputs": 19037,
    "Ġkinds": 14502,
    "compasses": 19459,
    "spout": 7925,
    "Ġdisagreeable": 9300,
    "Ġwield": 21290,
    "Ġtyph": 10011,
    "Ġundec": 22016,
    "keep": 3853,
    "Ġlass": 15650,
    "vil": 2732,
    "ratches": 20126,
    "Ġgoethe": 22425,
    "deser": 10481,
    "blunder": 24133,
    "conceal": 25117,
    "zed": 8105,
    "Ġpharaoh": 26586,
    "fashioned": 9572,
    "instantly": 7507,
    "eh": 13709,
    "Ġgouge": 26188,
    "Ġgratification": 24102,
    "¡": 99,
    "ies": 581,
    "Ġsh": 419,
    "Ġabomin": 8190,
    "Ġclimax": 25054,
    "net": 1193,
    "Ġwreaths": 25936,
    "Ġprosperous": 15171,
    "anting": 6413,
    ":--âĢľ": 24553,
    "fare": 7800,
    "Ġ6": 5142,
    "Ġrecomm": 4997,
    "Ġcapacity": 10442,
    "allions": 22199,
    "Ġhush": 13212,
    "entials": 22664,
    "information": 12396,
    "Ġdeserted": 8641,
    "Ġlaughed": 5060,
    "Ġbead": 21751,
    "aulding": 11341,
    "Ġearth": 2850,
    "Ġlevel": 5021,
    "Ġbengal": 18783,
    "port": 10721,
    "Ġintroduces": 3266,
    "Ġsinusoidal": 4803,
    "Ġpast": 2098,
    "Ġviolates": 3164,
    "fold": 7546,
    "Ġsweetness": 9450,
    "Ġzer": 1096,
    "irt": 3078,
    "Ġber": 5699,
    "ancies": 11586,
    "Ġans": 1640,
    "ena": 11570,
    "Ġpositives": 4317,
    "Ġtransc": 12866,
    "Ġdispersed": 16596,
    "Ġblossom": 26311,
    "endar": 18360,
    "Ġultimately": 17166,
    "Ġabomination": 22279,
    "teen": 6371,
    "sole": 6170,
    "Ġashamed": 6404,
    "shows": 22457,
    "Ġdomineering": 23672,
    "Ġsoft": 1459,
    "varieties": 23187,
    "assistant": 25567,
    "Ġupbra": 22155,
    "Ġcon": 348,
    "subtle": 24249,
    "Ġsincerity": 13678,
    "Ġdisembow": 22538,
    "classification": 4387,
    "Ġtrial": 6637,
    "Ġrobe": 18454,
    "Ġvalid": 1786,
    "inclination": 20059,
    "message": 17373,
    "Ġdir": 21421,
    "Ġpuffs": 14975,
    "start": 7600,
    "Ġpenny": 16314,
    "þ": 191,
    "Ġtuesday": 9628,
    "Ġabound": 8867,
    "Ġship": 1092,
    "Ġrequested": 14290,
    "tle": 2408,
    "suit": 18638,
    "ooped": 17623,
    "Ġsparing": 22130,
    "Ġcommissionaire": 16999,
    "Ġvehem": 22892,
    "Ġbenignity": 18782,
    "Ġintercourse": 11000,
    "Ġnile": 21520,
    "mare": 17599,
    "Ġpeak": 16128,
    "Ġdistances": 22505,
    "Ġmeditation": 16704,
    "Ġsubsiding": 23438,
    "Ġname": 2082,
    "Ġfamiliar": 5512,
    "Ġpraying": 19555,
    "Ġsubsisting": 23439,
    "completely": 12423,
    "Ġblew": 9048,
    "Ġlighten": 23260,
    "Ġintegrated": 13530,
    "batross": 9096,
    "broad": 8647,
    "Ġshrieking": 24757,
    "fi": 12465,
    "Ġunsuccessful": 18252,
    "Ġintolerably": 15831,
    "Ġmoulded": 16974,
    "jar": 17577,
    "Ġextensive": 12949,
    "Ġrebell": 21669,
    "Ġpenetrating": 17012,
    "Ġconstables": 19068,
    "gus": 13724,
    "Ġtrumpet": 9575,
    "Ġreminisc": 18723,
    "lotte": 3329,
    "Ġvariance": 1165,
    "Ġweaken": 21922,
    "Ġbarren": 11208,
    "Ġclust": 9276,
    "erring": 11058,
    "ezes": 9994,
    "erland": 9642,
    "chiefly": 14845,
    "Ġdigesting": 19810,
    "Ġreaders": 18911,
    "21": 10075,
    "Ġrevolve": 19731,
    "Ġresides": 22541,
    "Ġassumed": 9468,
    "94": 4805,
    "Ġjokes": 18406,
    "Ġpredestinated": 18525,
    "Ġhats": 14617,
    "deprived": 19898,
    "Ġapprobation": 10987,
    "Ġterrors": 6919,
    "vi": 2371,
    "Ġperchance": 15993,
    "mult": 8752,
    "Ġgrie": 3584,
    "ner": 1374,
    "Ġblasted": 7939,
    "Ġmaz": 15543,
    "auley": 22621,
    "Ġsensitiveness": 23738,
    "Ġgettest": 23229,
    "Ġfanciful": 24788,
    "Ġprogramming": 1182,
    "Ġgenerative": 5645,
    "Ġmince": 22834,
    "Ġcostume": 16495,
    "Ġmere": 2714,
    "Ġmenaces": 23108,
    "Ġdod": 6676,
    "Ġhenceforth": 19643,
    "Ġevanesc": 24297,
    "Ġproud": 5655,
    "Ġcontr": 1916,
    "ailed": 3244,
    "Ġslowly": 3620,
    "bar": 6788,
    "apart": 15963,
    "Ġrows": 10563,
    "Ġregiment": 6433,
    "Ó": 148,
    "Ġestimation": 11220,
    "ellect": 7381,
    "Ġapology": 8329,
    "Ġpacifics": 24376,
    "sand": 21051,
    "Ġninetieth": 25357,
    "Ġhumble": 8555,
    "Ġcredited": 25157,
    "Ġgreatness": 12945,
    "knew": 9129,
    "Ġdecided": 5472,
    "ification": 1022,
    "Ġbinnacle": 8120,
    "Ġprompt": 3188,
    "plague": 21954,
    "ompl": 4538,
    "glimmer": 26321,
    "Ġwaterward": 23372,
    "odhead": 18120,
    "Ġargemone": 24280,
    "Ġsurmis": 23467,
    "Ġcultiv": 13556,
    "Ġmeanings": 18605,
    "Ġsor": 4146,
    "Ġiron": 3233,
    "pursu": 11394,
    "jets": 20926,
    "Ġpainted": 7980,
    "Ġhen": 3505,
    "service": 15036,
    "Ġsuited": 12787,
    "Ġdelineate": 26056,
    "Ġunjustly": 17128,
    "chester": 23811,
    "Ġbrag": 23839,
    "telesc": 22819,
    "delights": 19702,
    "rians": 21926,
    "Ġdecanting": 22444,
    "hunt": 20902,
    "nyder": 16684,
    "Ġleathern": 15049,
    "Ġjan": 11765,
    "Ġabusive": 22274,
    "sleet": 20149,
    "Ġsobs": 14132,
    "Ġobliv": 16135,
    "Ġcigaret": 16975,
    "Ġventured": 7502,
    "Ġjobs": 24834,
    "Ġ2": 2929,
    "Ġsyntax": 957,
    "Ġflirt": 14421,
    "Ġdorm": 4823,
    "idelburgh": 10564,
    "noble": 7924,
    "Ġreproof": 24892,
    "anations": 12579,
    "Ġlunch": 13525,
    "tied": 21069,
    "deli": 15344,
    "Ġetc": 7087,
    "Ġdau": 21425,
    "Ġslides": 18938,
    "alarms": 21504,
    "eel": 11486,
    "ned": 3495,
    "Ġchimney": 6498,
    "solved": 7686,
    "Ġrunning": 3952,
    "Ġgregarious": 18961,
    "Ġsaratoga": 26423,
    "pped": 1998,
    "Ġhas": 824,
    "Ġdespairing": 14772,
    "Ġserves": 4671,
    "riot": 18180,
    "Ġislands": 6768,
    "onted": 11569,
    "Ġbag": 5700,
    "load": 12883,
    "tic": 8392,
    "Ġsem": 1878,
    "Ġgreenland": 5762,
    "skin": 10571,
    "lished": 8384,
    "Ġpitches": 23907,
    "written": 7996,
    "Ġnetwork": 451,
    "(": 12,
    "9": 29,
    "Ġfrock": 10492,
    "Ġendeavours": 8622,
    "Ġremain": 1874,
    "ienced": 5686,
    "Ġreverence": 12062,
    "globe": 25145,
    "mar": 4335,
    "true": 2585,
    "Ġlanguages": 1563,
    "Ġhearsed": 25041,
    "Ġpleases": 16299,
    "singular": 12193,
    "Ġunman": 12775,
    "Ġcy": 13873,
    "\",": 10681,
    "Ġhoars": 19077,
    "Ġeconomical": 25287,
    "Ã": 132,
    "Ġpenet": 6889,
    "Ġbountiful": 25943,
    "ical": 755,
    "Ġmorality": 22976,
    "bbs": 23696,
    "Ġlandsmen": 11353,
    "Ġgenuine": 14884,
    "ples": 6846,
    "Ġhero": 5716,
    "intu": 22934,
    "Ġpersever": 10006,
    "jour": 20925,
    "Ġrattler": 24997,
    "recognised": 15263,
    "adel": 15731,
    "Ġgladness": 16590,
    "Ġstudious": 23211,
    "Ġezekiel": 26192,
    "attentive": 17191,
    "Ġunass": 14111,
    "Ġvertically": 19381,
    "atter": 654,
    "Ġbreathlessly": 24286,
    "Ġbumpkin": 20200,
    "woof": 21138,
    "Ġminded": 23227,
    "Ġemails": 13109,
    "hest": 3367,
    "enari": 21281,
    "latitudes": 17198,
    "Ġfiles": 21413,
    "adamite": 20594,
    "Ġcrisp": 12006,
    "finding": 17014,
    "Ġsuggestive": 11299,
    "Ġdepresses": 25796,
    "Ġobeisance": 19759,
    "condition": 7061,
    "reshold": 21239,
    "Ġmarines": 16263,
    "Ġworse": 4721,
    "Ġpistols": 17330,
    "Ġpresume": 8039,
    "atible": 17772,
    "aff": 3102,
    "Ġpumping": 25642,
    "Ġ130": 24781,
    "Ġkiss": 8184,
    "giving": 8743,
    "iform": 2201,
    "ull": 1431,
    "belongs": 25596,
    "Ġpit": 3422,
    "Ġsyrian": 18353,
    "Ġdisappeared": 5646,
    "forward": 2190,
    "Ġburgl": 13175,
    "Ġpictured": 16622,
    "Ġmultitude": 9327,
    "Ġcoleridge": 18763,
    "Ġstandard": 14493,
    "define": 1522,
    "Ġlapse": 17122,
    "fiercely": 25255,
    "rely": 6125,
    "Ġlibraries": 20615,
    "scho": 8764,
    "ids": 21764,
    "Ġentities": 11866,
    "Ġrevealed": 6754,
    "Ġxx": 5493,
    "Ġsolicitude": 10043,
    "dor": 12455,
    "Ġhessian": 3550,
    "leton": 5149,
    "engaged": 7453,
    "Ġunerringly": 18260,
    "Ġvalidation": 2352,
    "thoughts": 9938,
    "ise": 707,
    "Ġblanche": 18818,
    "despond": 19801,
    "Ġnumberless": 16417,
    "Ġgratified": 8022,
    "gammon": 20244,
    "Ġappetites": 20207,
    "Ġquieted": 23848,
    "innocence": 15184,
    "shook": 19856,
    "Ġfitted": 6245,
    "Ġsalary": 13295,
    "consol": 9765,
    "Ġsignification": 19203,
    "young": 7322,
    "Ġpendulous": 25954,
    "Ġberyl": 20491,
    "Ġconver": 805,
    "Ġhed": 7387,
    "algorithm": 4072,
    "limping": 26393,
    "relation": 19448,
    "rifice": 12506,
    "Ġbaptized": 25773,
    "Ġtornado": 24622,
    "Ġger": 21590,
    "pots": 11515,
    "aid": 1923,
    "called": 6294,
    "chambers": 25454,
    "saying": 8645,
    "Ġrounded": 14436,
    "}": 97,
    "Ġanimated": 7703,
    "Ġtones": 8402,
    "Ġalgorithm": 767,
    "per": 481,
    "otics": 10226,
    "remes": 21237,
    "Ġfolk": 10378,
    "robust": 19729,
    "Ġpossibilities": 18974,
    "Ġdecomposition": 5344,
    "Ġdears": 18136,
    "Ġven": 4650,
    "comp": 3819,
    "Ġrepairs": 19083,
    "Ġopinion": 3142,
    "×": 152,
    "bout": 20773,
    "Ġconsoling": 19458,
    "Ġnotice": 4545,
    "Ġsomehow": 4843,
    "sell": 13780,
    "Ġannealing": 1549,
    "Ġhighlands": 22773,
    "Ġ24": 13195,
    "Ġunt": 2291,
    "Ġcolonel": 3407,
    "Ġforehead": 5263,
    "Ġbec": 1347,
    "chose": 18040,
    "Ġroast": 18453,
    "knot": 13744,
    "Ġcomprehen": 5351,
    "Ġbravery": 23842,
    "Ġmor": 1251,
    "special": 14704,
    "rived": 5374,
    "Ġ57": 24324,
    "Ġprompted": 23822,
    "Ġannouncing": 16753,
    "wedding": 12524,
    "Ġgord": 21599,
    "Ġpredicts": 2594,
    "Ġcreamy": 14326,
    "Ġinsignific": 13182,
    "Ġlonely": 6824,
    "Ġhandsomely": 25497,
    "Ġmaking": 1780,
    "Ġappalled": 22222,
    "Ġweighing": 20017,
    "impatiently": 20472,
    "Ġmoonshine": 19598,
    "ford": 2823,
    "announce": 24564,
    "ject": 875,
    "Ġinquired": 7486,
    "pend": 6368,
    "Ġpia": 21462,
    "Ġrepine": 16412,
    "antically": 22097,
    "Ġvolume": 6771,
    "ulty": 22568,
    "ropes": 7905,
    "idious": 11664,
    "#": 7,
    "Ġfainted": 8797,
    "shaken": 16027,
    "arms": 10176,
    "Ġstartling": 14669,
    "Ġunperceived": 22034,
    "Ġessentially": 24925,
    "Ġenric": 21936,
    "vour": 17699,
    "Ġprincely": 24154,
    "acknowled": 10976,
    "Ġrans": 21967,
    "Ġreveal": 11202,
    "Ġcaval": 25768,
    "Ġstowing": 18071,
    "Ġtempor": 2362,
    "Ġpoles": 11005,
    "Ġdinner": 4245,
    "slack": 16893,
    "gin": 4932,
    "Ġverte": 9445,
    "Ġ29": 23733,
    "Ġarc": 14156,
    "Ġmo": 629,
    "fters": 20861,
    "Ġlicence": 25098,
    "Ġobservable": 25129,
    "amous": 15763,
    "Ġtowers": 16737,
    "Ġsibbald": 21230,
    "difficulty": 12393,
    "Ġsprain": 18303,
    "Ġsatisfaction": 5668,
    "Ġawa": 7715,
    "Ġsixpence": 19317,
    "found": 4214,
    "Ġharder": 14495,
    "Ġloc": 10916,
    "Ġadroit": 25999,
    "instance": 24174,
    "Ġtreats": 19345,
    "Ġsuppress": 13026,
    "circle": 16735,
    "tolerably": 21094,
    "Ġconfided": 19039,
    "Ġspir": 2426,
    "merry": 16536,
    "schoolmaster": 15162,
    "toes": 22565,
    "Ġbegan": 2023,
    "ow": 326,
    "Ġmiguel": 25765,
    "Ġwhitney": 11375,
    "Ġemotion": 7691,
    "Ġbottomless": 12110,
    "Ġan": 286,
    "Ġcontempl": 6704,
    "Ġembra": 6580,
    "Ġremem": 4313,
    "Ġfamilies": 8028,
    "Ġvind": 10252,
    "Ġwaits": 23284,
    "Ġwet": 6519,
    "Ġslang": 23160,
    "Ġaccidents": 10298,
    "Ġmess": 7833,
    "gledy": 25403,
    "Ê": 139,
    "Ġshoes": 7074,
    "eral": 9161,
    "Ġgeography": 23377,
    "Ġfault": 5703,
    "Ġmonosyllable": 20726,
    "Ġalthough": 4151,
    "Ġfrank": 4419,
    "ild": 1153,
    "uth": 3016,
    "bedroom": 14697,
    "Ġvigilant": 20184,
    "ade": 882,
    "Ġkl": 2736,
    "iferous": 17293,
    "hering": 12816,
    "Ġcomponents": 8896,
    "Ġdemeanour": 17338,
    "Ġcarriage": 3951,
    "Ġpair": 5707,
    "Ġbreathe": 9015,
    "Ġindulged": 13418,
    "Ġcrystal": 17216,
    "inquiry": 15143,
    "Ġforeshadowing": 26593,
    "Ġexperience": 1355,
    "nib": 5215,
    "Ġfundamentals": 14633,
    "Ġj": 533,
    "ching": 5157,
    "alas": 8809,
    "Ġfortune": 4241,
    "pigs": 17142,
    "Ġbeautifully": 13269,
    "Ġcouns": 10523,
    "Ġresponded": 13638,
    "tain": 559,
    "Ġprivile": 8650,
    "Ġpeace": 3695,
    "Ġgasping": 17038,
    "Ġadding": 2402,
    "Ġhearers": 15705,
    "painting": 17046,
    "Ġdarling": 12607,
    "pair": 21010,
    "Ġrepentance": 15161,
    "Ġ}": 21153,
    "jet": 13741,
    "ibles": 18785,
    "Ġdiabol": 11455,
    "Ġ68": 24373,
    "Ġchildren": 3769,
    "Ġpugn": 21478,
    "ga": 17550,
    "gement": 13727,
    "Ġdrop": 4344,
    "Ġmoderate": 10940,
    "atever": 3080,
    "Ġjavan": 24999,
    "lines": 6960,
    "Ġexceedingly": 4617,
    "Ġscientific": 6858,
    "Ġspeckled": 14307,
    "ositories": 22265,
    "brain": 13687,
    "Ġshaken": 10267,
    "Ġengage": 9337,
    "day": 1859,
    "Ġappeal": 16315,
    "Ġclutched": 13518,
    "seamen": 13626,
    "Ġcler": 11776,
    "Ġviciously": 24407,
    "Ġcharlotte": 3891,
    "Ġcuvier": 9167,
    "Ġincomplete": 17210,
    "rut": 8093,
    "Ġrenegades": 26477,
    "Ġgoblet": 25822,
    "kine": 15375,
    "*": 14,
    "putting": 14098,
    "though": 2115,
    "ease": 12461,
    "Ġmisled": 22762,
    "Ġfrontispiece": 23919,
    "Ġseasonable": 24409,
    "Ġemboldened": 22965,
    "Ġemblaz": 16233,
    "Ġeastward": 13392,
    "Ġwhenever": 5167,
    "frequently": 9982,
    "uplifted": 17695,
    "Ġacutely": 14312,
    "Ġhigh": 931,
    "Ġrevelations": 25222,
    "tenderly": 20532,
    "Ġintend": 12766,
    "Ġtrembling": 7482,
    "beg": 22488,
    "Ġcryst": 9920,
    "rons": 21038,
    "empl": 5725,
    "Ġimagined": 8611,
    "principal": 20660,
    "Ġwint": 15533,
    "Ġfad": 17876,
    "ĉ": 202,
    "Ġlifeless": 8951,
    "Ġnich": 21519,
    "stat": 21638,
    "Ġdescends": 14285,
    "arent": 4250,
    "Ġdislike": 6048,
    "Ġentrances": 25834,
    "Ġoccurring": 2792,
    "doom": 23382,
    "ieth": 10706,
    "Ġimprecate": 20519,
    "Ġhumbug": 18778,
    "sartain": 25621,
    "Ġyoked": 15737,
    "Ġshilling": 18226,
    "Ġbrief": 6978,
    "Ġup": 463,
    "Ġintending": 11707,
    "Ġlie": 4406,
    "outh": 2688,
    "portuguese": 25413,
    "lightened": 12068,
    "belong": 12126,
    "Ġcanterbury": 22168,
    "blows": 17167,
    "Ġundone": 24121,
    "Ġ106": 24417,
    "atching": 8204,
    "Ġcrowds": 14738,
    "eur": 7545,
    "stre": 5452,
    "Ġmostly": 7665,
    "Ġdescrib": 2719,
    "yd": 21141,
    "Ġpostscript": 14807,
    "itional": 22469,
    "respect": 6375,
    "acute": 22595,
    "Ġdeposition": 18608,
    "americans": 25044,
    "ux": 7815,
    "danish": 20833,
    "brim": 23579,
    "Ġaccelerating": 1613,
    "ascertain": 21542,
    "Ġsoothing": 8174,
    "ounts": 4654,
    "Ġunrivalled": 26520,
    "Ġeasily": 3892,
    "iii": 14775,
    "Ġclasping": 20210,
    "poky": 17644,
    "Ġsystematically": 4092,
    "Ġcorresponds": 19822,
    "Ġinquiring": 9002,
    "Ġplan": 3883,
    "âĢĶ(": 15940,
    "Ġmysterious": 7528,
    "eneva": 5118,
    "Ġfidget": 15190,
    "scissors": 20727,
    "accustomed": 13159,
    "Ġvisual": 5742,
    "Ġsends": 14788,
    "Ġjoint": 12037,
    "fishers": 24928,
    "Ġarose": 7361,
    "Ġintervening": 17269,
    "satisfied": 10581,
    "fixed": 7548,
    "attached": 11938,
    "whosoever": 22241,
    "likeness": 19479,
    "Ġcosmopolitan": 20641,
    "Ġlim": 2377,
    "arial": 5533,
    "gence": 876,
    "Ġsharpen": 13569,
    "lar": 4483,
    "Ġsystem": 587,
    "Ġtypewriter": 19097,
    "Ġprofits": 16489,
    "Ġcompany": 3723,
    "Ġse": 402,
    "jerked": 25617,
    "trem": 17681,
    "hands": 5967,
    "oping": 5560,
    "gratification": 24351,
    "abhor": 12709,
    "duty": 20240,
    "Ġmeasureless": 14709,
    "Ġyet": 1031,
    "trop": 15436,
    "hereafter": 19217,
    "Ġdrawing": 3918,
    "Ġhardihood": 23119,
    "Ġgurglings": 26465,
    "Ġarranging": 11176,
    "azine": 19130,
    "Ġconjectured": 10000,
    "Ġfacial": 10608,
    "Ġimport": 1033,
    "Ġrestore": 9383,
    "destro": 13311,
    "Ġopt": 792,
    "ineff": 21981,
    "Ġunrival": 22044,
    "Ġlearning": 387,
    "Ġkeen": 4616,
    "Ġhoarse": 14524,
    "clair": 18932,
    "û": 188,
    "Ġhowl": 12857,
    "Ġcomfortably": 16614,
    "Ġimperson": 14216,
    "necessarily": 19632,
    "Ġvessels": 6758,
    "Ġoverpowered": 15289,
    "Ġgoest": 22424,
    "Ġnarratives": 24356,
    "Ġprovoking": 16742,
    "Ġgrows": 4986,
    "Ġspan": 11731,
    "Ġcorrect": 2429,
    "Ġagitates": 22518,
    "saturday": 14857,
    "unworthy": 18161,
    "mingled": 14712,
    "Ġgretna": 26468,
    "ivial": 15861,
    "scotland": 20530,
    "breat": 10081,
    "ildad": 3534,
    "²": 115,
    "Ġfrightens": 24036,
    "Ġlux": 8819,
    "Ġbald": 16207,
    "clo": 5614,
    "Ġslanting": 23173,
    "Ġfriesland": 26442,
    "Ġsli": 4750,
    "Ġprovoked": 13328,
    "Ġsupers": 18277,
    "Ġchoose": 5982,
    "i": 77,
    "Ġenclosure": 20625,
    "under": 3132,
    "mered": 8219,
    "Ġinaudible": 21498,
    "twinkle": 23707,
    "Ġlye": 21550,
    "Ġr": 404,
    "ollion": 19716,
    "Ġbewitching": 25975,
    "Ġsavoury": 23882,
    "Ġimproved": 7657,
    "Ġunfinished": 19510,
    "Ġoxen": 19952,
    "alive": 10829,
    "Ġembedding": 2103,
    "flo": 6115,
    "Ġlobes": 22116,
    "cold": 9591,
    "Ġk": 484,
    "Ġdrowned": 9554,
    "Ġmothers": 14538,
    "dripping": 16904,
    "Ġceler": 15552,
    "Ġstudents": 23212,
    "Ġturbulence": 26598,
    "cial": 2650,
    "Ġnobler": 14171,
    "Ġdeliberate": 15022,
    "Ġaccommodate": 20518,
    "Ġtoad": 21509,
    "Ġtraits": 23076,
    "Ġinqu": 2963,
    "mp": 3729,
    "Ġzone": 14359,
    "Ġinvesting": 19642,
    "Ġirresolute": 24917,
    "Ġpatients": 24811,
    "whaling": 7901,
    "guard": 12132,
    "Ġindians": 14407,
    "A": 37,
    "kin": 7134,
    "Ġvariously": 18651,
    "Ġpointing": 5662,
    "Ġsurpasses": 25267,
    "promise": 12255,
    "wandering": 20285,
    "Ġworshippers": 25692,
    "_âĢĶ": 11469,
    "Ġsands": 14947,
    "Ġchased": 8865,
    "Ġterrier": 23404,
    "Ġmornings": 16239,
    "nobody": 16137,
    "istics": 1623,
    "Ġdoubloon": 6946,
    "Ġdepartments": 24248,
    "experienced": 15122,
    "Ġplunging": 14951,
    "neighbours": 24883,
    "choose": 23677,
    "ound": 584,
    "Ġcooked": 13271,
    "hunting": 24388,
    "Ġredeem": 20501,
    "Ġburnt": 9931,
    "Ġphyseter": 26587,
    "Ġsuspend": 14607,
    "Ġcapacious": 19176,
    "Ġcompanies": 14555,
    "ining": 3219,
    "Ġtipped": 17728,
    "lude": 6163,
    "Ġdistinction": 8889,
    "Ġserv": 3327,
    "mble": 1409,
    "erne": 21269,
    "Ġbegrimed": 26579,
    "Ġconversed": 13190,
    "Ġsoftware": 18917,
    "lur": 13746,
    "ctive": 11625,
    "likelihood": 4993,
    "ece": 17531,
    "sufficiently": 14980,
    "Ġconviction": 6328,
    "Ġpresc": 15927,
    "procure": 23402,
    "cele": 21625,
    "venerable": 26408,
    "sharks": 14237,
    "Ġindepend": 3671,
    "uine": 13798,
    "Ġentangled": 10345,
    "Ġappet": 9734,
    "Ġauthority": 7750,
    "Ě": 219,
    "Ġgrounded": 23715,
    "Ġchanges": 2284,
    "Ġenrolled": 21939,
    "Ġrespecting": 14480,
    "Ġseizing": 7881,
    "Ġjealous": 9471,
    "musket": 25341,
    "apple": 22843,
    "Ġenemy": 5606,
    "Ġrecesses": 17262,
    "Ġoutset": 15957,
    "Ġunearthly": 9039,
    "Ġunra": 18232,
    "include": 23593,
    "ivia": 22077,
    "Ġempire": 11147,
    "Ġsituations": 10494,
    "chronicle": 26481,
    "Ġpaternal": 16354,
    "Ġhints": 8432,
    "Ġbox": 5109,
    "Ġmediterranean": 12319,
    "Ġsulphur": 24933,
    "Ġabaft": 22275,
    "Ġdoubloons": 13435,
    "Ġmidst": 7987,
    "Ġpondicherry": 20492,
    "cordiality": 25140,
    "sulphur": 25908,
    "instead": 14812,
    "Ġsubset": 9873,
    "Ġcompanions": 5867,
    "Ġnearing": 15798,
    "Ġclinched": 17395,
    "Ġpaces": 13919,
    "inforcement": 3059,
    "Ġinjuries": 11279,
    "Ġsex": 8846,
    "Ġrefreshing": 20265,
    "Ġobey": 9522,
    "Ġoccurred": 4462,
    "can": 1235,
    "Ġtempt": 5566,
    "Ġscared": 14187,
    "save": 13784,
    "amet": 586,
    "leful": 17842,
    "Ġradiance": 13373,
    "naturedly": 24842,
    "oblig": 16292,
    "Ġsworn": 14433,
    "Ġsallow": 12539,
    "Ġinexpress": 12637,
    "Ġbackwoods": 22642,
    "Ġperilously": 24510,
    "Ġfondly": 19617,
    "Ġhence": 4990,
    "Ġerrone": 14428,
    "aract": 17895,
    "tube": 20412,
    "foreign": 18542,
    "Ġmari": 6815,
    "refusal": 24735,
    "Ġrifts": 21976,
    "harpooned": 24302,
    "Ġabout": 634,
    "Ġconcerned": 5333,
    "Ġresting": 7963,
    "eds": 6531,
    "veral": 2349,
    "relapse": 24022,
    "Ġrange": 9715,
    "Ġbenjam": 22893,
    "Ġcusack": 26433,
    "Ġcorre": 3889,
    "Ġglowed": 24866,
    "kept": 11720,
    "Ġclut": 7643,
    "Ġsemicircle": 26066,
    "merely": 16136,
    "Ġbul": 3289,
    "Ġadmiral": 17307,
    "wish": 8101,
    "awed": 10393,
    "itters": 10783,
    "Ġdetected": 18839,
    "intending": 22936,
    "Ġberry": 19747,
    "Ġhadn": 9722,
    "Ġtwine": 14309,
    "ffic": 22152,
    "Ġexcel": 3568,
    "reed": 6374,
    "Ġallowing": 2173,
    "ugging": 23295,
    "Ġsquad": 22838,
    "lux": 14224,
    "Ġbraz": 19359,
    "Ġattended": 5392,
    "Ġboundless": 10498,
    "Ġshining": 8173,
    "Ġbal": 1134,
    "Ġattentively": 9953,
    "Ġfe": 490,
    "itia": 11581,
    "Ġcounterpane": 11345,
    "Ġmant": 9649,
    "rayed": 23567,
    "Ġhumans": 8933,
    "Ġdashing": 8801,
    "Ġtrees": 4203,
    "Ġabating": 22268,
    "Ġ80": 24459,
    "aried": 10989,
    "Ġproced": 2577,
    "Ġstays": 16560,
    "Ġconversation": 3328,
    "Ġunderwent": 23234,
    "Ġromantic": 8032,
    "Ġrifled": 21977,
    "Ġminority": 18752,
    "Ġtragedy": 10670,
    "relations": 14732,
    "ships": 5487,
    "Ġimpending": 22385,
    "Ġ42": 16677,
    "gage": 13722,
    "Ġconfusion": 7274,
    "Ġpersuasions": 16631,
    "ouri": 21446,
    "_.,": 14560,
    "Ġproves": 14036,
    "Ġsustained": 13483,
    "Ġtorments": 13396,
    "Ġvanity": 7048,
    "cadence": 26124,
    "olence": 10233,
    "Ġtheoretically": 3567,
    "bohem": 18999,
    "Ġprocedural": 12034,
    "Ġrequest": 6051,
    "Ġwholesome": 16007,
    "opportunity": 12279,
    "Ġhandsom": 11126,
    "Ġprocessing": 881,
    "Â·": 21149,
    "mentioned": 10626,
    "ubines": 22962,
    "orily": 15574,
    "furthest": 19842,
    "Ġty": 6661,
    "Ġstern": 4222,
    "à": 161,
    "Ġtables": 9881,
    "Ġmuzzle": 21321,
    "Ġdishon": 12235,
    "Ġdeg": 3278,
    "etieth": 21583,
    "Ġerecting": 24653,
    "Ġshake": 6034,
    "Ġinvariable": 13457,
    "Ġchann": 15937,
    "Ġhos": 4943,
    "towing": 17689,
    "Ġnoisier": 4627,
    "Ġcry": 3499,
    "twelve": 14620,
    "Ġpliny": 11828,
    "Ġdefer": 18821,
    "Ġenthusiasm": 8066,
    "Ġinconvenient": 20011,
    "Ġspl": 2981,
    "Ġstrong": 1788,
    "Ġapprehensions": 13406,
    "Ġdiffused": 12072,
    "waiting": 12225,
    "Ġcareful": 2614,
    "butt": 15998,
    "Ġperfection": 19219,
    "Ġunimag": 12776,
    "rown": 2192,
    "Ġfumbled": 17881,
    "âĢĿ--": 21817,
    "Ġdearest": 5458,
    "Ġrash": 10900,
    "playing": 19658,
    "rell": 11565,
    "nett": 16222,
    "Ġinvade": 19142,
    "Ġflowing": 14411,
    "Ġab": 528,
    "Ġpursuit": 4735,
    "âĢĻ,": 14070,
    "Ġbigger": 19762,
    "fly": 13713,
    "Ġpower": 1274,
    "Ġnotable": 18220,
    "englishman": 23681,
    "akeman": 6269,
    "Ġforce": 5092,
    "pass": 4291,
    "Ġthrills": 24545,
    "Ġcomplement": 23713,
    "Ġadieu": 10054,
    "agation": 1199,
    "Ġreconc": 9686,
    "ander": 6402,
    "Ġneedles": 11186,
    "salis": 25150,
    "Ġhypothesis": 14782,
    "Ġplumber": 16086,
    "bulkington": 19925,
    "Ġcurls": 22987,
    "rawling": 21636,
    "priv": 9621,
    "Ġrather": 1494,
    "Ġunsc": 22011,
    "Ġfolks": 14424,
    "Ġtowards": 1726,
    "Ġskirt": 18727,
    "Ġdesiring": 14412,
    "Ġinaccessible": 13933,
    "Ġattendant": 11287,
    "gaff": 20882,
    "Ġhimself": 1351,
    "Ġthrowing": 6337,
    "crown": 13698,
    "Ġcounter": 6482,
    "Ġreign": 13983,
    "ome": 536,
    "Ġbegat": 18863,
    "Ġapothe": 12378,
    "Ġabated": 18388,
    "Ġsticks": 14930,
    "Ġdomestic": 6911,
    "harpooneer": 8693,
    "J": 46,
    "Ġleadenhall": 16628,
    "painful": 13502,
    "dev": 7633,
    "Ġchips": 14179,
    "overcoat": 19053,
    "Ġtrooped": 24901,
    "lone": 11502,
    "Ġfaces": 6009,
    "Ġhandful": 9785,
    "ppered": 15793,
    "rible": 3225,
    "organic": 25945,
    "scattered": 22998,
    "Ġcompassion": 6488,
    "Ġgilder": 21613,
    "Ġforked": 11666,
    "fortunately": 9454,
    "Ġwreath": 25935,
    "tem": 6370,
    "Ġreleased": 2975,
    "Ġvor": 15808,
    "inspect": 11560,
    "Ġloftiest": 16873,
    "Ġoffensive": 18688,
    "taining": 7207,
    "othing": 6997,
    "osp": 6855,
    "Ġdecipher": 22447,
    "Ġsult": 10769,
    "ontory": 10461,
    "Ġfamil": 4320,
    "Ġswelled": 11089,
    "Ġmatters": 4974,
    "extensive": 18702,
    "official": 24915,
    "Ġspoon": 22135,
    "jumped": 20247,
    "plate": 18197,
    "Ġhoisted": 5960,
    "Ġexclamation": 8703,
    "Ġcordial": 16834,
    "Ġbasic": 24700,
    "Ġsweetheart": 19396,
    "Ġoffences": 18687,
    "ucy": 15444,
    "Ġnational": 13941,
    "Ġloomed": 12304,
    "Ġrum": 5924,
    "notwithstanding": 22752,
    "Ġconj": 8463,
    "Ġafghan": 22630,
    "Ġreputation": 11642,
    "chess": 16572,
    "Ġcove": 22580,
    "emic": 18184,
    "Ġbehaved": 13256,
    "endom": 15922,
    "Ġgirdled": 19159,
    "Ġknot": 7014,
    "eastern": 17533,
    "Ġdemand": 4948,
    "aming": 5829,
    "agings": 18165,
    "Ġdrifted": 14623,
    "Ġmouse": 4696,
    "Ġegypt": 9681,
    "Ġengagements": 9981,
    "itations": 17817,
    "Ġexploding": 2108,
    "awake": 14447,
    "Ġproc": 5546,
    "Ġentail": 9796,
    "Ġfortun": 4983,
    "agers": 5634,
    "eded": 9675,
    "Ġplane": 11826,
    "anque": 13887,
    "Ġeffected": 14352,
    "reference": 13839,
    "Ġaway": 1246,
    "affold": 16561,
    "Ġcircling": 19092,
    "aying": 15752,
    ")âĢĶâĢľ": 20743,
    "Ġoutright": 18411,
    "Ġexposure": 16101,
    "embow": 21932,
    "§": 105,
    "burnt": 20081,
    "Ġmediocr": 24144,
    "Ġthey": 575,
    "Ġmonsieur": 12424,
    "Ġgather": 6536,
    "Ġcoral": 11925,
    "smoke": 17224,
    "Ġminuteness": 19138,
    "Ġunjustifiable": 25112,
    "Ġhelm": 5277,
    "spark": 18683,
    "pus": 3417,
    "arson": 22749,
    "Ġchanging": 11756,
    "Ġgrievous": 13263,
    "Ġprophesied": 26061,
    "Ġbow": 3062,
    "peculiar": 6887,
    "Ġwine": 6812,
    "traversed": 19648,
    "Ġsle": 2013,
    "supplementary": 20550,
    "Ġlistener": 16475,
    "stache": 15691,
    "Ġdamp": 8265,
    "Ġbottom": 3677,
    "Ġplumage": 17300,
    "Ġmistifying": 23723,
    "personal": 24965,
    "sullen": 17669,
    "Ì": 141,
    "coach": 23564,
    "Ġtiny": 11554,
    "Ġminds": 6305,
    "Ġterror": 5123,
    "riet": 18179,
    "Ġmuchness": 18706,
    "backed": 9869,
    "legged": 10468,
    "Ġwhitish": 24868,
    "Ġcontrive": 16012,
    "Ġ104": 24415,
    "hurried": 11355,
    "Ġrepublic": 14529,
    "Ġimpious": 15988,
    "Ġconfessor": 24025,
    "Ġresemble": 15695,
    "Ġoverl": 18420,
    "Ġheap": 12680,
    "resum": 17761,
    "tete": 10734,
    "iousness": 4901,
    "Ġ10": 5251,
    "Ġvindication": 25364,
    "Ġvexatious": 19782,
    "Ġhundredth": 16518,
    "Ġstraightened": 12112,
    "Ġgreas": 17991,
    "Ġmerid": 13197,
    "Ġendeavors": 16545,
    "Ġconcoct": 19047,
    "Ġlayers": 817,
    "Ġilliter": 23474,
    "etian": 13957,
    "Ġfidelity": 15242,
    "Ġexord": 21828,
    "isco": 12584,
    "because": 4925,
    "Ġmodels": 753,
    "Ġconnections": 970,
    "horrible": 14598,
    "Ġpitch": 5768,
    "wearing": 22687,
    "Ġshould": 864,
    "Ġannoy": 17200,
    "voyages": 24857,
    "vol": 734,
    "Ġattractions": 12919,
    "Ġcritics": 23446,
    "binder": 17500,
    "ickory": 22669,
    "Ġtempted": 9059,
    "Ġtranslates": 12054,
    "ondon": 2707,
    "ential": 825,
    "declare": 25172,
    "matter": 5137,
    "examine": 25477,
    "Ġendure": 5956,
    "Ġglasses": 9478,
    "factories": 19844,
    "Ġderbyshire": 6588,
    "Ġmarching": 16695,
    "Ġmad": 2424,
    "Ġshuddering": 9054,
    "Ġpromised": 5182,
    "amp": 2608,
    "ogy": 22709,
    "elfth": 22370,
    "Ġamounted": 18508,
    "ivery": 17572,
    "unexpected": 15780,
    "Ġbriefly": 11369,
    "aintance": 3570,
    "Ġelopement": 10331,
    "enjoyment": 17259,
    "prisoner": 20544,
    "Ġsolic": 7934,
    "Ġpossessions": 23830,
    "vic": 13801,
    "Ġire": 12671,
    "Ġstarlight": 24627,
    "Ġparagra": 15881,
    "Ġtranque": 14198,
    "Ġcoarse": 14272,
    "Ġking": 2302,
    "plans": 21953,
    "gryphon": 15358,
    "Ġswarm": 23053,
    "Ġshook": 4468,
    "Ġamel": 18505,
    "Ġtattooed": 11380,
    "nowhere": 18416,
    "Ġmuteness": 19418,
    "haw": 6363,
    "shot": 2179,
    "neither": 9760,
    "guest": 19483,
    "Ġconsulting": 13430,
    "Ġconcernment": 23648,
    "iac": 6227,
    "lascar": 20958,
    "hark": 15365,
    "Ġinfernal": 11965,
    "Ġinterconnected": 1337,
    "Ġstrokes": 16768,
    "Ġmisconduct": 22764,
    "Ġpay": 3963,
    "chooses": 23678,
    "Ġinducement": 16842,
    "Ġmajesty": 5202,
    "Ġgrego": 18959,
    "Ġrevellers": 21678,
    "Ġsmilingly": 22561,
    "istry": 22110,
    "Ġfreemason": 23209,
    "Ġconcepts": 4553,
    "Ġginger": 9212,
    "Ġforegoing": 23452,
    "Ġretire": 10384,
    "Ġdiffusion": 23786,
    "mark": 5283,
    "osc": 18385,
    "Ġon": 350,
    "quimaux": 21854,
    "Ġcries": 7156,
    "Ġhopelessly": 16380,
    "Ġmorphology": 3008,
    "Ġpewter": 17187,
    "Ġconstraints": 2740,
    "fiend": 13661,
    "Ġstrict": 7223,
    "alongside": 19790,
    "Ġpantaloons": 20297,
    "Ġbeen": 627,
    "resnet": 4069,
    "Ġvalleys": 14918,
    "law": 6116,
    "Ġheartfelt": 18965,
    "eng": 1488,
    "Ġderived": 8240,
    "rodu": 1819,
    "batt": 20778,
    "Ġlavater": 20497,
    "Ġgods": 6455,
    "Ġpertaining": 18449,
    "Ġmishap": 20577,
    "swim": 16778,
    "iment": 2817,
    "Ġrounding": 16277,
    "Ġtragic": 15256,
    "Ġrebounds": 25966,
    "Ġflowed": 10374,
    "uttural": 21588,
    "Ġfeeds": 16434,
    "Ġcontrari": 23354,
    "Ġbamboo": 17438,
    "Ġhurrah": 9872,
    "Ġmurmured": 7481,
    "Į": 239,
    "scotch": 25850,
    "Ġunrem": 18239,
    "ension": 6571,
    "Ġphrenologist": 25606,
    "Ġbison": 21388,
    "arrived": 12611,
    "Ġmournful": 12339,
    "ructed": 7030,
    "Ġheroism": 24547,
    "Ġhiding": 9826,
    "Ġaffectionately": 13170,
    "Ġcathedral": 17414,
    "change": 6393,
    "levelled": 23647,
    "Ġcister": 13881,
    "Ġwood": 2289,
    "Ġ30": 10514,
    "Ġmeekly": 26491,
    "Ġdrug": 11412,
    "Ġcoco": 11002,
    "Ġrucastle": 5177,
    "Ġconditions": 8308,
    "Ġbeadle": 26485,
    "âĢĿ)": 21815,
    "Ġfaster": 3197,
    "pardon": 10068,
    "Ġanointing": 25539,
    "Ġdecay": 1013,
    "tailed": 17685,
    "turned": 7307,
    "leagues": 21373,
    "Ġdecency": 18481,
    "Ġwow": 15529,
    "ü": 189,
    "Ġinsatiable": 19272,
    "Ġretreated": 13434,
    "Ġmoran": 9343,
    "Ġobsequious": 17405,
    "separation": 25225,
    "strangely": 17278,
    "Ġdebt": 12172,
    "ints": 3419,
    "Ġsatire": 22902,
    "Ġtex": 15472,
    "son": 2325,
    "pride": 11212,
    "Ġsmite": 22558,
    "ĠĠĠĠĠĠĠĠĠĠĠĠĠĠ": 22564,
    "Ġmem": 2163,
    "Ġmeat": 8153,
    "Ġmisgivings": 15292,
    "Ġbottled": 23800,
    "emason": 18186,
    "Ġsol": 1104,
    "Ġnuts": 17951,
    "illation": 14139,
    "Ġvesture": 20063,
    "pronouncing": 25192,
    "Ġswaths": 23057,
    "Ġtravellers": 11310,
    "Ġwashed": 15767,
    "Ġlaws": 8004,
    "Ġworst": 7445,
    "Ġaffidav": 18788,
    "devilish": 17082,
    "velling": 14761,
    "Ġlaunched": 14925,
    "Ġforbidden": 17078,
    "Ġnocturnal": 20715,
    "Ġfluffy": 19365,
    "Ġbrightness": 16575,
    "Ġventing": 19494,
    "=": 33,
    "aky": 18409,
    "Ġpurposes": 11170,
    "france": 24287,
    "Ġpanther": 16818,
    "buck": 17491,
    "Ġvaried": 11851,
    "Ġencamped": 22802,
    "Ġinsensibly": 20077,
    "Ġrelevant": 1864,
    "Ġmortally": 23922,
    "Ġrue": 11870,
    "Ġdripping": 13149,
    "ousand": 2427,
    "airs": 2220,
    "Ġdespatched": 23835,
    "admiration": 11389,
    "ught": 2751,
    "exposure": 19257,
    "Ġfollowed": 1796,
    "Ġpaint": 7709,
    "Ġcontinuously": 23206,
    "?": 35,
    "Ġenabled": 9298,
    "Ġequinoctial": 20534,
    "dreams": 12340,
    "_,âĢĻâĢĿ": 20402,
    "Ġinfl": 6895,
    "Ġrival": 10488,
    "unavoidable": 17391,
    "Ġwooded": 23525,
    "Ġgin": 13959,
    "Ġobjective": 3767,
    "vac": 15450,
    "Ġintermix": 25825,
    "Ġsparks": 22133,
    "sleeve": 26107,
    "Ġepis": 19983,
    "Ġasyl": 12736,
    "Ġretrogression": 26582,
    "Ġplayfulness": 23640,
    "adventures": 20257,
    "Ġchooses": 13349,
    "Ġencodings": 4777,
    "Ġglared": 13016,
    "angu": 567,
    "Ġtexas": 25921,
    "Ġinstructed": 19285,
    "Ġacre": 22681,
    "Ġcongratulated": 19767,
    "Ġdeduction": 14900,
    "Ġrational": 8483,
    "Ġunlucky": 10053,
    "¦": 104,
    "Ġdiligent": 25077,
    "Ġcrunched": 19120,
    "Ġunthink": 18242,
    "imson": 12691,
    "rights": 23679,
    "Ġgrizzled": 11452,
    "introduction": 15124,
    "Ġfastidious": 14489,
    "Ġshrinking": 14804,
    "Ġdisd": 7033,
    "Ġspecks": 14306,
    "Ġsharpened": 17366,
    "slipping": 25528,
    "Ġslit": 13059,
    "Ġpioneer": 17918,
    "Ġ_": 839,
    "bree": 15315,
    "interesting": 12206,
    "disciple": 16777,
    "Ġlaborers": 19057,
    "Ġleave": 2454,
    "shall": 4552,
    "Ġinvent": 7166,
    "Ġimpass": 15987,
    "yard": 6120,
    "surv": 24219,
    "Ġqueequeg": 2012,
    "Ġdilatory": 24704,
    "hullo": 17570,
    "Ġlighted": 7065,
    "remained": 8574,
    "Ġweedy": 15794,
    "Ġpip": 1641,
    "Ġunwaning": 24831,
    "Ġbits": 11590,
    "Ġbeau": 9226,
    "ÿ": 192,
    "Ġidolator": 19999,
    "glancing": 11216,
    "Ġpianoforte": 15274,
    "Ġdrives": 14575,
    "Ġhaste": 9006,
    "Ġpurse": 12014,
    "Ġweaver": 11690,
    "Ġknocked": 9503,
    "Ġcomp": 723,
    "perquisites": 26532,
    "Ġcompasses": 11269,
    "blo": 6355,
    "Ġunderground": 18982,
    "Ġactive": 7917,
    "intern": 23739,
    "responsible": 25762,
    "cigar": 26123,
    "Ġlend": 17962,
    "Ġtotally": 9474,
    "Ġacknowledges": 24689,
    "irc": 1727,
    "Ġcheerfully": 12138,
    "Ġcows": 15554,
    "Ġwhose": 2008,
    "aviour": 11006,
    "aps": 1231,
    "ks": 3145,
    "Ġbringing": 5871,
    "Ġlibrary": 6424,
    "Ġcalms": 23042,
    "Ġrobes": 16231,
    "Ġhang": 9189,
    "Ġduring": 872,
    "rel": 3756,
    "Ġbanking": 19631,
    "Ġdissipate": 13633,
    "Ġreceptive": 1557,
    "arling": 10816,
    "Ġsqualls": 17021,
    "Ġincalcul": 16065,
    "lads": 20953,
    "Ġtapping": 10754,
    "sailors": 9925,
    "Ġclams": 19990,
    "Ġomitted": 12567,
    "inaw": 21183,
    "Ġstared": 8457,
    "movable": 14322,
    "archical": 1927,
    "Ġimpl": 7196,
    "Ġilliterate": 26595,
    "Ġmottled": 20679,
    "Ġdeserves": 13291,
    "resp": 13838,
    "finger": 10096,
    "Ġ109": 24419,
    "Ġthumb": 6983,
    "idol": 21767,
    "know": 2315,
    "strip": 19831,
    "Ġdoubtful": 19141,
    "Ġretirement": 25378,
    "rit": 21034,
    "onah": 3335,
    "Ġhydraulic": 10067,
    "elsewhere": 19868,
    "Ġfetch": 7771,
    "Ġsavages": 9915,
    "Ġduties": 6611,
    "Ġdiscussing": 5203,
    "Ġsanct": 15061,
    "pressed": 6589,
    "Ġvital": 9245,
    "Ġtradesman": 20074,
    "Ġsupposition": 9820,
    "rador": 19127,
    "Ġhomeward": 9395,
    "Ġexcessively": 9443,
    "Ġoppression": 23654,
    "Ġdepend": 783,
    "land": 1527,
    "consternation": 16911,
    "Ġclattered": 22363,
    "clings": 23153,
    "untary": 9870,
    "ifiable": 18163,
    "Ġlogits": 3453,
    "Ġpret": 3035,
    "began": 6427,
    "Ġsizes": 1517,
    "contrad": 19292,
    "Ġnantucketer": 6915,
    "Ġodd": 6627,
    "otent": 8836,
    "thro": 12763,
    "Ġey": 8136,
    "Ġeducated": 16784,
    "Ġfigured": 16643,
    "dispositions": 25013,
    "ortion": 11760,
    "Ġmarchant": 14784,
    "Ġdownwards": 8533,
    "Ġdisplays": 19857,
    "another": 5440,
    "scenes": 16247,
    "antled": 18284,
    "tee": 16174,
    "Ġlighter": 12655,
    "stocks": 23826,
    "Ġsit": 4216,
    "oin": 17617,
    "stolidity": 21657,
    "Ġgallery": 10527,
    "mate": 5360,
    "rebell": 17763,
    "dug": 18460,
    "Ġwhispers": 14699,
    "notches": 22751,
    "Ġcabin": 3298,
    "dry": 13703,
    "Ġmaintaining": 1506,
    "queness": 18146,
    "zen": 5141,
    "fire": 6359,
    "whenever": 11884,
    "Ġmilitary": 11260,
    "sister": 5140,
    "Ġcapting": 23023,
    "ĺ": 251,
    "neighboring": 20618,
    "Ġbidirectional": 3757,
    "act": 786,
    "Ġimprisonment": 22388,
    "bab": 11470,
    "Ġphrases": 2797,
    "Ġsobbing": 14133,
    "Ġfrequently": 4682,
    "Ġconfound": 23311,
    "Ġstupendous": 20502,
    "Ġpartial": 2127,
    "unknown": 10892,
    "Ġmeek": 21810,
    "Ġyarns": 15196,
    "isters": 11923,
    "gans": 11492,
    "urpr": 2285,
    "Ġpouch": 21467,
    "Ġfalsehood": 10526,
    "expressing": 16800,
    "Ġswelling": 11928,
    "ias": 6364,
    "Ġvon": 14079,
    "Ġworker": 23059,
    "Ġdart": 4588,
    "Ġcategories": 4477,
    "Ġaccomplished": 7107,
    "friendly": 13286,
    "Ġswung": 6450,
    "Ġhatchet": 16529,
    "isbury": 21377,
    "Ġsnorting": 23744,
    "Ġeternal": 5976,
    "Ġdiscrimin": 2544,
    "village": 25422,
    "Ġjourney": 3881,
    "Ġplayed": 9419,
    "underneath": 23793,
    "Ġhabitation": 14802,
    "nings": 9134,
    "paint": 21016,
    "Ġseverest": 14089,
    "brace": 16941,
    "delirious": 19506,
    "Ġperiodical": 14771,
    "since": 5896,
    "Ġstatement": 5256,
    "Ġfunere": 22260,
    "tide": 11534,
    "pp": 384,
    "Ġoffended": 7043,
    "tribute": 21087,
    "inlaid": 21190,
    "gover": 10704,
    "Ġprimary": 25062,
    "Ġ183": 13240,
    "Ġvicinity": 7316,
    "Ġsaxe": 13628,
    "Ġarrang": 2465,
    "Ġwidower": 24241,
    "assisted": 22308,
    "Ġcocks": 18589,
    "ske": 13781,
    "Ġcurve": 22986,
    "parad": 16391,
    "Ġmartyr": 26360,
    "clock": 3934,
    "rabbit": 20592,
    "Ġcapstan": 9102,
    "Ġsadder": 24058,
    "Ġbr": 1071,
    "method": 17286,
    "Ġconsisted": 10421,
    "Ġfift": 6383,
    "desperate": 17358,
    "banish": 20782,
    "Ġcrowding": 13281,
    "Ġinexperienced": 26099,
    "Ġstrangeness": 16703,
    "bweb": 20791,
    "Ġhelen": 16655,
    "Ġbeech": 18082,
    "Ġsolemnity": 9944,
    "scor": 13022,
    "dressing": 11484,
    "Ġpersecutor": 26095,
    "Ġremorseless": 13452,
    "Ġlaz": 7378,
    "pocket": 9812,
    ";âĢĶ": 3752,
    "Ġensuing": 12313,
    "ques": 2841,
    "Ġembattled": 26288,
    "rigible": 24931,
    "Ġconsistence": 23361,
    "Ġeighteenth": 14753,
    "Ġorganize": 8994,
    "oting": 2745,
    "Ġelectric": 15195,
    "agery": 21908,
    "uger": 21102,
    "Ġadopted": 15179,
    "ĠâĢĶ": 13810,
    "Ġreality": 7060,
    "Ġcurves": 18850,
    "Ġresolving": 9422,
    "Ġthames": 13937,
    "Ġ----": 7147,
    "bes": 6644,
    "chari": 21689,
    "varying": 13803,
    "Ġconcl": 5095,
    "Ġseven": 4544,
    "anced": 1334,
    "Ġshe": 466,
    "strom": 15685,
    "Ġmainly": 22654,
    "ineer": 11705,
    "hester": 9633,
    "Ġconcerning": 4068,
    "Ġtitle": 11410,
    "Ġpiling": 17910,
    "Ġsuperb": 16442,
    "Ġfeatures": 1432,
    "Ġintrospective": 20601,
    "Ġformation": 2943,
    "Ġfine": 1317,
    "Ġmeagre": 21811,
    "Ġimpediments": 26240,
    "accordingly": 19214,
    "Ġvapor": 8704,
    "Ġentering": 6287,
    "Ġdeath": 2042,
    "mblance": 7324,
    "Ġarisen": 11746,
    "Ġunmanufactured": 20435,
    "oug": 431,
    "dem": 10695,
    "Ġbreeding": 14520,
    "Ġtambourine": 9566,
    "Ġmug": 21312,
    "incible": 16497,
    "anation": 5805,
    "Ġacquiescence": 20331,
    "obliged": 20632,
    "Ġsmaller": 1884,
    "up": 1286,
    "Ġstrike": 4857,
    "Ġtophet": 23577,
    "Ġdeterm": 1269,
    "dling": 15339,
    "achel": 7035,
    "Ġillness": 8594,
    "earliest": 20121,
    "Ġviolin": 16429,
    "prince": 23820,
    "Ġpoetry": 15080,
    "news": 23133,
    "claps": 23154,
    "holder": 13284,
    "confirmation": 26088,
    "Ġunalterable": 15853,
    "snapping": 24851,
    "P": 52,
    "considerable": 10551,
    "Ġcities": 17827,
    "Ġeas": 2348,
    "coil": 23563,
    "ph": 939,
    "Ġspoiled": 11365,
    "tiest": 21080,
    "glue": 17556,
    "rance": 5994,
    "cott": 8075,
    "Ġfirmness": 11239,
    "Ġ23": 13194,
    "Ġsympathies": 14860,
    "Ġdetermine": 3242,
    "Ġgloves": 8579,
    "deployment": 26528,
    "Ġmodern": 3226,
    "Ġremembered": 5278,
    "securing": 19814,
    "feather": 16045,
    "oblivious": 26583,
    "Ġrelations": 5854,
    "Ġbreast": 8971,
    "bingleys": 19635,
    "Ġrapture": 13496,
    "ages": 827,
    "usual": 5841,
    "eleg": 20849,
    "rified": 15419,
    "ety": 3523,
    "Ġbrazier": 26320,
    "Ġinclud": 1509,
    "Ġkins": 22195,
    "calculation": 25687,
    "Ġall": 422,
    "Ġwater": 1948,
    "Ġdre": 1742,
    "Ġcoloss": 11047,
    "âĢĶâĢĿ": 3295,
    "rumours": 23926,
    "paus": 13772,
    "eness": 2288,
    "delighted": 10565,
    "Ġ166": 25006,
    "Ġconvent": 11670,
    "Ġstrip": 9424,
    "children": 9058,
    "stains": 11638,
    "untering": 15778,
    "ug": 1768,
    "Ġcooking": 16646,
    "Ġstopping": 2750,
    "Ġpleas": 1906,
    "kinder": 24847,
    "03": 20748,
    "ashtego": 4103,
    "Ġvancouver": 26566,
    "masterly": 24533,
    "ce": 313,
    "Ġgraces": 18223,
    "cries": 17511,
    "inserted": 18886,
    "Ġspeedily": 7713,
    "Ġlashing": 11618,
    "Ġladyship": 5047,
    "Ġabstra": 22272,
    "Ġvarious": 3512,
    "Ġchild": 2257,
    "Ġrequire": 879,
    "servant": 15035,
    "ertips": 23643,
    "Ġbackward": 7654,
    "Ġprevious": 2088,
    "did": 3195,
    "Ġda": 5151,
    "solely": 19817,
    "Ġstumble": 26483,
    "shold": 2773,
    "Ġcarpent": 4465,
    "Ġpap": 8803,
    "Ġloft": 5643,
    "described": 18894,
    "ats": 4254,
    "ignantly": 23267,
    "conclusive": 25672,
    "Ġlongitudes": 22634,
    "Ġcareer": 11120,
    "alyards": 18770,
    "estone": 18362,
    "ishop": 9745,
    "Ġvices": 14081,
    "Ġmasterless": 24000,
    "Ġhighly": 4846,
    "Ġmultiplicity": 19275,
    "Ġkrus": 18347,
    "Ġlawyers": 25248,
    "Ġforty": 5720,
    "Ġrepeating": 11215,
    "hammered": 19004,
    "adagrad": 9694,
    "mitted": 5214,
    "disposition": 10045,
    "Ġexposed": 8526,
    "severe": 21819,
    "Ġcandidates": 4333,
    "Ġplague": 11827,
    "Ġproceeds": 12081,
    "suspended": 15178,
    "Ġhurtling": 24959,
    "Ġdavy": 25950,
    "iforn": 14062,
    "Ġsheets": 9725,
    "Ġstrasburgh": 18612,
    "Ġrely": 8825,
    "battering": 20786,
    "Ġsalmon": 24068,
    "Ġtuileries": 24825,
    "Ġinvari": 6530,
    "shake": 22456,
    "Ġprejudices": 13470,
    "Ġclerks": 17297,
    "wait": 11322,
    "Ġfilm": 23931,
    "Ġsiamese": 20484,
    "Ġtube": 15002,
    "Ġcontemplated": 13465,
    "Ġappl": 1747,
    "Ġroot": 2652,
    "Ġtomahawk": 7540,
    "verse": 9691,
    "Ġdeadly": 5406,
    "Ġacquit": 18896,
    "asing": 5912,
    "Ġbeacon": 21757,
    "Ġagony": 5389,
    "Ġcal": 1325,
    "Ġblankness": 24611,
    "Ġfaintest": 24573,
    "Ġxiii": 25591,
    "antediluvian": 24349,
    "bug": 17493,
    "puff": 21020,
    "Ġnoteworthy": 24168,
    "Ġappeased": 23197,
    "Ġdisputes": 25824,
    "olerably": 11675,
    "Ġglitter": 25126,
    "corpse": 24489,
    "Ġprovoke": 14825,
    "persuasion": 20045,
    "Ġnumerous": 6921,
    "Ġstriking": 6088,
    "Ġrespect": 1666,
    "Ġneighb": 14072,
    "etah": 12663,
    "Ġkick": 5838,
    "christian": 17234,
    "anatory": 21363,
    "Ġflung": 8567,
    "constant": 11326,
    "Ġsupre": 10272,
    "Ġharbors": 24903,
    "Ġimper": 4501,
    "Ġwhom": 1833,
    "beheaded": 22494,
    "sive": 4144,
    "vell": 3959,
    "burning": 25080,
    "Ġtiller": 8968,
    "iding": 3849,
    "Ġmerchant": 6468,
    "increasing": 20270,
    "Ġglu": 15670,
    "Ġ1000": 3117,
    "Ġplease": 4725,
    "Ġaccustomed": 6862,
    "odings": 4399,
    "Ġpalp": 11252,
    "mason": 17602,
    "Ġbruised": 25771,
    "Ġhate": 5446,
    "Ġphil": 3384,
    "Ġanswer": 2600,
    "Ġsecret": 3722,
    "Ġheath": 15704,
    "emone": 21928,
    "anish": 2618,
    "finally": 9502,
    "lipped": 16218,
    "Ġdraughts": 20222,
    "Ġprogno": 14038,
    "marest": 20978,
    "offing": 23339,
    "Ġevenly": 4130,
    "Ġenters": 11026,
    "pleas": 3854,
    "Ġtwilight": 16123,
    "Ġleatherhead": 20015,
    "Ġbathing": 20199,
    "ignominious": 26588,
    "Ġchurches": 12830,
    "Ġpet": 4589,
    "Ġpots": 9431,
    "Ġrid": 4354,
    "ban": 9586,
    "Ġsanity": 24981,
    "Ġintended": 5549,
    "Ġswart": 14432,
    "ocation": 14624,
    "Ġsepulchral": 25891,
    "Ġam": 658,
    "Ġdews": 21839,
    "entire": 6825,
    "stolen": 13975,
    "Ġalle": 11668,
    "Ġmatch": 4531,
    "Ġdivision": 19445,
    "Ġalche": 21784,
    "ahit": 9385,
    "Ġspeak": 2228,
    "Ġstru": 2169,
    "Ġchinese": 14181,
    "executed": 25738,
    "Ġactions": 6280,
    "Ġoper": 2119,
    "okened": 15986,
    "dep": 6789,
    "Ġevangelist": 20339,
    "Ġjinglers": 26017,
    "Ġinward": 11609,
    "ger": 1109,
    "Ġcallest": 17832,
    "Ġsolution": 9808,
    "Ġimpulsively": 24882,
    "Ġgust": 21596,
    "alike": 17942,
    "Ġdeft": 21837,
    "Ġrecorded": 11295,
    "Ġhaven": 8477,
    "Ġdelic": 4135,
    "Ġdenying": 14655,
    "Ġunav": 18235,
    "Ġtemples": 18636,
    "Ġsympathy": 6348,
    "ouse": 1191,
    "Ġembedd": 1404,
    "Ġassured": 4372,
    "Ġfunctions": 1339,
    "Ġoverwhel": 8197,
    "Ġunctuous": 10269,
    "Ġvisiting": 10363,
    "Ġpropri": 6741,
    "Ġgiddy": 20498,
    "Ġwherein": 14294,
    "Ġmahogany": 20579,
    "Ġodor": 12154,
    "Ġpresumed": 10547,
    "Ġgranting": 18734,
    "Ġdev": 896,
    "Ġabove": 2936,
    "Ġhunt": 6185,
    "Ġglaciers": 20173,
    "Ġwants": 5743,
    "Ġimmens": 9942,
    "Ġreck": 6539,
    "Ġdestroyed": 5273,
    "Ġdirt": 15595,
    "sle": 9140,
    "events": 12321,
    "kitty": 10108,
    "girdling": 26389,
    "ethics": 8881,
    "Ġahoy": 12189,
    "Ġending": 18921,
    "amplified": 26495,
    "Ġaccount": 2317,
    "Ġconstrain": 2629,
    "clearer": 24075,
    "held": 3843,
    "Ġoutputs": 2886,
    "wrote": 11548,
    "Ġspilling": 22138,
    "Ġterrific": 6757,
    "....": 11318,
    "ġ": 226,
    "Ġpivot": 13923,
    "ari": 672,
    "iters": 21329,
    "airing": 16178,
    "fleet": 15013,
    "arming": 8954,
    "Ġjoy": 3183,
    "fishing": 20859,
    "Ġemir": 23355,
    "ouble": 2663,
    "Ġhag": 12627,
    "Ġconquest": 15750,
    "Ġdevelop": 1699,
    "Ġnotes": 7190,
    "Ġgradu": 15834,
    "pleasure": 5978,
    "aws": 8238,
    "Ġcounsel": 13615,
    "Ġjavelins": 26104,
    "Ġhair": 3311,
    "Ġabstained": 25230,
    "engines": 18927,
    "Ġfacil": 16961,
    "Ġdeaths": 14534,
    "Ġtertiary": 15295,
    "Ġunrestingly": 20361,
    "Ġexcuse": 5863,
    "Ġmundane": 26429,
    "Ġannounced": 9037,
    "Ġindiscriminately": 20628,
    "arches": 10818,
    "Ġsta": 18062,
    "nuts": 15398,
    "Ġoperate": 19115,
    "Ġfiends": 14827,
    "stayed": 25290,
    "Ġmodes": 22214,
    "Ġcurv": 3514,
    "Ġskiff": 16166,
    "Ġrib": 4937,
    "Ġambition": 11434,
    "Ġburying": 19252,
    "description": 11096,
    "Ġpublic": 4332,
    "Ġwrought": 11947,
    "Ġwinchester": 10069,
    "inct": 3288,
    "hastily": 19703,
    "Ġpitching": 16610,
    "oa": 9614,
    "Ġevermore": 18809,
    "Ġmeals": 12713,
    "Ġconfessed": 8010,
    "Ġcolder": 22851,
    "Ġdrowsy": 26444,
    "kingly": 20937,
    "Ġaudacious": 13461,
    "ufact": 10735,
    "umnal": 18298,
    "hung": 8382,
    "Ġruined": 12956,
    "Ġveritable": 19382,
    "Ġabsolutely": 4859,
    "Ġtusks": 17255,
    "irksome": 18170,
    "itche": 7580,
    "stall": 21640,
    "Ġatonement": 21943,
    "Ġclosed": 4608,
    "front": 12175,
    "harpoone": 6108,
    "Ġinvests": 14867,
    "Ġblessing": 11265,
    "Ġdefilements": 26284,
    "Ġresponsiveness": 2897,
    "Ġcrosses": 23063,
    "Ġtestified": 16338,
    "istic": 1004,
    "Ġtorrent": 17092,
    "didst": 19350,
    "Ġprolonged": 8359,
    "circumstances": 8048,
    "Ġ7": 4747,
    "Ġtransom": 22439,
    "Æ": 135,
    "Ġkith": 22193,
    "Ġdiscriminator": 3391,
    "Ġgame": 3630,
    "Ġnast": 15640,
    "b": 70,
    "Ġmanager": 11772,
    "Ġruskin": 25807,
    "Ġdegenerated": 20507,
    "Ġmended": 21313,
    "Ġissued": 10602,
    "Ġlucky": 7760,
    "Ġdominion": 16527,
    "Ġinstrum": 6055,
    "watches": 14946,
    "Ġconfounded": 16385,
    "ead": 2602,
    "Ġwade": 17784,
    "poor": 6061,
    "watery": 19827,
    "Ġundulated": 19517,
    "Ġchains": 8252,
    "Ġdem": 11676,
    "lected": 1629,
    "attain": 21261,
    "at": 268,
    "Ġdisposal": 19377,
    "Ġpeaked": 2293,
    "Ġramadan": 9577,
    "matical": 13131,
    "Ġteacher": 22917,
    "brimming": 23581,
    "rack": 18010,
    "summon": 23420,
    "ishes": 6524,
    "Ġenormousness": 24518,
    "perceived": 8862,
    "Ġprevention": 16093,
    "Ġgaining": 9494,
    "Ġcow": 13875,
    "Ġfable": 15578,
    "Ġpurple": 10435,
    "Ġviews": 7291,
    "Ġlodging": 24099,
    "Ġtopmost": 14585,
    "Ġcordage": 19679,
    "Ġsentiments": 7962,
    "Ġpunctually": 17140,
    "figure": 13555,
    "blame": 14792,
    "(-": 2977,
    "philips": 20036,
    "âĢĶâĢľ_": 13206,
    "semble": 1521,
    "obed": 14444,
    "brow": 15316,
    "actor": 11840,
    "Ġpunct": 8665,
    "laden": 14928,
    "Ġseptember": 18205,
    "igin": 3659,
    "Ġsimpler": 2047,
    "ific": 489,
    "Ġjewel": 9945,
    "Ġhorrid": 8000,
    "Ġcirclings": 26431,
    "Ġindec": 13927,
    "Ġbolt": 11336,
    ".}": 20745,
    "ell": 396,
    "Ġborder": 10172,
    "within": 6733,
    "staring": 18017,
    "Ġkeel": 6445,
    "prehens": 9291,
    "rints": 12505,
    "Ġflattening": 26047,
    "Ġkra": 18346,
    "ipper": 13739,
    "gracechurch": 24582,
    "breckinridge": 24080,
    "Ġjane": 1757,
    "remain": 9841,
    "Ġamb": 9293,
    "adays": 14011,
    "Ġhatch": 7850,
    "Ġcustoms": 19653,
    "Ġrelied": 16195,
    "Ġinherit": 25352,
    "Ġacquisition": 18898,
    "Ġintruding": 21992,
    "drab": 23904,
    "Ġdiverged": 23598,
    "Ġrivals": 20272,
    "Ġcalmness": 12097,
    "paralleled": 14514,
    "Ġcorn": 9352,
    "ked": 5617,
    "Ġaccidental": 16847,
    "Ġdeploy": 2805,
    "Ġrails": 22658,
    "Ġgrieve": 14706,
    "ims": 7178,
    "Ġenjoys": 19451,
    "equ": 6793,
    "Ġadjusts": 8983,
    "Ġextend": 18698,
    "Ġreus": 8826,
    "Ġ64": 24370,
    "Ġbanners": 24860,
    "iments": 4946,
    "Ġproperties": 3118,
    "Ġdata": 519,
    "Ġluc": 3306,
    "omen": 4086,
    "Ġdepartment": 24247,
    "ojo": 7350,
    "Ġhumph": 22881,
    "without": 4848,
    "rosc": 17954,
    "Ġano": 11598,
    "kindly": 14743,
    "wered": 2690,
    "Ġspringing": 10521,
    "Ġorder": 1683,
    "ipt": 12482,
    "constantinople": 25507,
    "infidel": 24664,
    "Ġdow": 17886,
    "midnight": 14901,
    "Ġfavourites": 16644,
    "Ġconcuss": 19048,
    "inkling": 16092,
    "Ġcompress": 21857,
    "esu": 17920,
    "befriend": 22493,
    "emper": 18185,
    "va": 4745,
    "Ġcontribute": 12863,
    "Ġcotton": 17380,
    "employed": 17263,
    "Ġformula": 2865,
    "intentions": 22940,
    "erson": 7004,
    "Ġpiping": 23240,
    "vent": 683,
    "confused": 19640,
    "Ġencoura": 1369,
    "Ġrevolutions": 23847,
    "frantic": 24288,
    "inger": 6814,
    "mitting": 20971,
    "Ġenjoy": 3762,
    "partly": 14600,
    "Ġboot": 11841,
    "Ġmoustache": 20485,
    "stad": 7599,
    "uc": 1877,
    "Ġinquir": 4243,
    "Ġbass": 17855,
    "Ġignor": 4011,
    "Ġbirch": 26173,
    "fortune": 4975,
    "Ġriggers": 24162,
    "Ġmanagement": 8194,
    "Ġdisse": 18546,
    "afterwards": 7485,
    "Ġprovide": 7751,
    "Ġpreaching": 15928,
    "ribute": 7228,
    "Ġacquiesce": 20330,
    "Ġscramble": 24579,
    "Ġrestoration": 19026,
    "ras": 21035,
    "atement": 17773,
    "iety": 2819,
    "borrowed": 20792,
    "petulance": 24304,
    "Ġdut": 2985,
    "Ġauthent": 14505,
    "client": 18931,
    "leeward": 15211,
    "itage": 17816,
    "Ġarbitrary": 4738,
    "ides": 2160,
    "iriously": 18169,
    "firmly": 20281,
    "Ġunpleasant": 7192,
    "Ġshriek": 6640,
    "proof": 16425,
    "ology": 1592,
    "Ġexceeding": 1576,
    "Ġvisible": 4779,
    "Ġdisgracing": 26255,
    "Ġbuilt": 8302,
    "Ġvanished": 6875,
    "aimed": 3953,
    "Ġdisgraceful": 15019,
    "ent": 305,
    "Ġsubdiv": 16161,
    "bird": 9587,
    "Ġinvented": 17037,
    "marks": 7347,
    "ĠĠĠĠ": 460,
    "Ġobsc": 7042,
    "Ġarm": 2489,
    "Ġheredit": 9218,
    "drown": 13704,
    "Ġfrankness": 16745,
    "Ġnick": 21522,
    "polar": 24584,
    "quickness": 19851,
    "Ġdescribed": 6608,
    "Ġproceed": 3240,
    "Ġfoundering": 21419,
    "Ġbol": 6243,
    "Ġcolleg": 22852,
    "isms": 12583,
    "voc": 8395,
    "cu": 10086,
    "Ġwaterloo": 11984,
    "pict": 8387,
    "geor": 15980,
    "onom": 9160,
    "Ġhitherto": 5881,
    "Ġflexible": 23779,
    "Ġmetropolis": 17276,
    "Ġold": 1056,
    "Ġegyptian": 13586,
    "Ġblue": 3457,
    "Ġtreble": 16503,
    "newsp": 23134,
    "flask": 12103,
    "Ġbroad": 3642,
    "idel": 5302,
    "displeasure": 23501,
    "Ġtremendous": 8354,
    "Ġbuildings": 24719,
    "ike": 5001,
    "avers": 17481,
    "catch": 17507,
    "quit": 15764,
    "Ġconveys": 16854,
    "Ġdistantly": 18532,
    "science": 11913,
    "Ġwonder": 2116,
    "fin": 5210,
    "fallen": 19660,
    "Ġintegral": 25010,
    "Ġflutter": 16250,
    "Ġcau": 13880,
    "absolutely": 10648,
    "Ġdigging": 14937,
    "Ġtechnically": 12369,
    "Ġmorose": 18842,
    "Ġlimp": 19181,
    "Ġnewcomer": 26039,
    "Ġguidance": 9420,
    "Ġgolden": 5338,
    "ly": 319,
    "Ġvener": 8165,
    "Ġpeddler": 26179,
    "Ġrejecting": 17051,
    "Ġloaded": 8494,
    "clad": 14456,
    "recollected": 25347,
    "supervised": 1981,
    "Ġwaldman": 11347,
    "Ġval": 980,
    "tra": 5003,
    "Ġgrapes": 15216,
    "asion": 5715,
    "Ġugly": 8720,
    "Ġextravag": 11255,
    "Ġprows": 19889,
    "Ġbubbling": 17327,
    "ric": 1378,
    "Ġenterprise": 8646,
    "Ġheadache": 22901,
    "erde": 21268,
    "Ġgrecian": 26295,
    "Ġunsupp": 22018,
    "Ġmightiest": 12963,
    "canonical": 22968,
    "hom": 12477,
    "ately": 1662,
    "crimin": 17509,
    "tallow": 21084,
    "Ġattentive": 9036,
    "Ġharpooneer": 3773,
    "Ġmelancholy": 5607,
    "Ġplanned": 14751,
    "smoking": 23916,
    "Ġspake": 18306,
    "Ġejaculation": 20255,
    "Ġsusp": 2665,
    "Ġhurriedly": 11251,
    "Ġnations": 8815,
    "Ġmorocco": 26574,
    "Ġwaving": 8580,
    "Ġscrawled": 24581,
    "Ġisa": 14023,
    "isation": 13892,
    "ands": 21867,
    "ick": 836,
    "Ġdecline": 9289,
    "shire": 3019,
    "etwork": 442,
    "Ġloo": 22111,
    "Ġflapped": 23015,
    "Ġcopied": 20009,
    "xic": 9147,
    "grass": 23417,
    "Ġdownst": 3560,
    "Ġapprehension": 7116,
    "Ġsacrificed": 17423,
    "Ġgases": 21601,
    "Ġesq": 15109,
    "Ġlives": 4828,
    "annica": 24565,
    "Ġmagnus": 18956,
    "Ġforeseeing": 23453,
    "Ġducks": 25161,
    "Ġcarn": 17821,
    "Ġcetology": 10012,
    "kee": 18271,
    "Ġgryphon": 4300,
    "Ġquadr": 8201,
    "Ġpron": 6452,
    "opening": 10315,
    "@": 36,
    "urches": 12685,
    "Ġimagenet": 19246,
    "Ġpractical": 3163,
    "ancing": 1760,
    "Ġsteed": 13043,
    "Ġunhappiness": 14115,
    "Ġbeings": 2487,
    "Ġsympath": 4862,
    "Ġdish": 6138,
    "Ġfruitless": 25605,
    "Ġelevated": 7319,
    "Ġportraits": 20142,
    "?_âĢĿ": 12320,
    "Ġchorus": 10948,
    "Ġmira": 8409,
    "Ġdozen": 8187,
    "gabriel": 15360,
    "imagination": 13481,
    "onial": 11568,
    "Ü": 157,
    "Ġhoot": 19076,
    "Ġtomb": 8813,
    "nui": 20998,
    "Ġsoc": 3528,
    "precedented": 15175,
    "contempt": 13192,
    "Ġsteeple": 19288,
    "mem": 10711,
    "Ġburly": 19250,
    "Ġdoctrine": 24203,
    ",âĢĶ": 3169,
    "beauty": 20105,
    "Ġconcealing": 23908,
    "Ġgeneralization": 982,
    "ĠĠĠĠĠĠĠĠĠĠĠĠĠĠĠĠĠĠĠĠĠĠĠĠĠĠĠĠĠĠĠĠĠĠĠĠĠĠĠ": 19259,
    "Ġbled": 17856,
    "Ġdiscre": 2415,
    "slackened": 26093,
    "apidated": 22337,
    "Ġparameters": 991,
    "Ġconnect": 798,
    "Ġlumber": 13950,
    "Ġcontrolled": 23250,
    "Ġroyals": 19533,
    "Ġunreserved": 19398,
    "chest": 11210,
    "opposite": 19929,
    "Ġhy": 5626,
    "Ġprimitive": 25063,
    "Ġdramat": 23216,
    "Ġinfallible": 15070,
    "Ġtempered": 12926,
    "perseus": 26004,
    "Ġupdate": 2460,
    "ultaneously": 4194,
    "Ġmuster": 16124,
    "ied": 941,
    "Ġbone": 4697,
    "gaz": 20878,
    "Ġdeportment": 22608,
    "Ġdis": 694,
    "setting": 13287,
    "wet": 15452,
    "sou": 12508,
    "Ġtarts": 10755,
    "Ġfabric": 25946,
    "Ġhipp": 21491,
    "cil": 8725,
    "Ġoblong": 14319,
    "Ġbuoyed": 20042,
    "Ġclo": 6045,
    "Ġcorpulence": 24512,
    "Ġintelligible": 15943,
    "Ġcopestone": 24938,
    "iguous": 18043,
    "nnight": 20991,
    "evidence": 25521,
    "england": 18928,
    "cheeks": 23812,
    "Ġbomb": 17867,
    "Ġrippling": 17279,
    "eter": 11623,
    "odd": 21812,
    "Ġparts": 4166,
    "Ġ1950": 11361,
    "Ġaccumulating": 2723,
    "nostr": 22716,
    "Ġexasper": 8470,
    "Ġdog": 4193,
    "Ġcompens": 14261,
    "keeping": 8639,
    "ellative": 21946,
    "Ġpoison": 7220,
    "Ġlords": 14639,
    "Ġmuse": 13859,
    "Ġbanker": 8671,
    "Ġmisgiv": 14343,
    "aught": 2681,
    "Ġmanhat": 22328,
    "Ġperhaps": 1911,
    "Ġriveted": 13618,
    "Ġnodding": 23341,
    "expound": 23664,
    "atters": 18503,
    "mosp": 8090,
    "reception": 15514,
    "Ġnone": 3221,
    "Ġimposed": 14212,
    "Ġastern": 6090,
    "Ġincommod": 25307,
    "Ġdetain": 14172,
    "Ġsize": 1217,
    "worse": 14689,
    "Ġunre": 3480,
    "counter": 20279,
[...]
