{
  "metadata": {
    "vocab_size": 26613,
    "algorithm": "BPE",
    "created_at": "2026-07-11 05:12:32",
    "special_tokens": [
      "<PAD>",
      "<SOS>",
      "<EOS>",
      "<UNK>",
      "<MASK>"
    ]
  },
  "vocab": {
    "Ġsensibly": 14515,
    "odes": 18116,
    "Ġserpentine": 11359,
    "Ġstung": 21736,
    "Ġswelling": 11922,
    "rougham": 15990,
    "Ġinvolved": 8922,
    "Ġviol": 2072,
    "quired": 21847,
    "Ġfierce": 7437,
    "Ġfoolishly": 19781,
    "Ġmaterial": 5178,
    "whip": 22235,
    "Ġpenn": 11110,
    "ob": 1420,
    "abhor": 12703,
    "Ġattending": 3283,
    "inated": 6804,
    "caus": 11475,
    "Ġsurvived": 14932,
    "Ġmurderers": 16810,
    "prudently": 21033,
    "impression": 15707,
    "Ġgossiping": 26243,
    "Ġcheck": 7271,
    "Ġbarnacled": 25536,
    "Ġpalpable": 15204,
    "Ġcathed": 14547,
    "Ġaccost": 12841,
    "i": 77,
    "Ġwoeful": 19618,
    "Ġextremity": 8987,
    "Ġtorm": 5434,
    "measured": 19988,
    "Ġsignificance": 13278,
    "character": 6331,
    "Ġshowers": 16604,
    "Ġpitiful": 13236,
    "Ġlater": 6017,
    "hole": 5585,
    "Ġcrib": 21346,
    "Ġclutches": 20016,
    "Ġtestified": 16332,
    "crier": 20819,
    "lyph": 10851,
    "Ġupdating": 2690,
    "violets": 23540,
    "!âĢĿâĢĶ": 8532,
    "ph": 923,
    "entering": 17976,
    "Ġwhistles": 24625,
    "Ġprescribed": 26010,
    "Ġladen": 19176,
    "Ġjenkinson": 11430,
    "Ġrounding": 16272,
    "Ġbegins": 7244,
    "Ġasking": 5651,
    "Ġclamped": 18426,
    "Ġcapital": 7979,
    "¤": 102,
    "resc": 21237,
    "Ġfinds": 6299,
    "Ġirresistible": 13110,
    "lizzy": 6651,
    "Ġestate": 6316,
    "Ġhopes": 4236,
    "Ġunwell": 22015,
    "Ġbreathing": 9443,
    "Ġcelerity": 17434,
    "Ġpicturesqueness": 24479,
    "acute": 22543,
    "Ġsquat": 14366,
    "Ġtoilette": 20491,
    "Ġindividuals": 24545,
    "acon": 10680,
    "humoredly": 26324,
    "Ġpierced": 12278,
    "Ġjar": 15947,
    "Ġdisobey": 18559,
    "these": 3241,
    "winds": 10520,
    "lo": 680,
    "Ġhearses": 20058,
    "Ġenormity": 19694,
    "kins": 7345,
    "sticking": 21652,
    "Ġthis": 382,
    "pidation": 18884,
    "Ġlydia": 2373,
    "Ġpossessed": 5195,
    "Ġsuitable": 18282,
    "Ġwharves": 13504,
    "sloop": 26145,
    "Ġpreternatural": 12819,
    "Ġrobert": 10969,
    "alyards": 18800,
    "robotics": 11305,
    "grieved": 17315,
    "antee": 22095,
    "Ġgoverning": 2794,
    "stirring": 20424,
    "Ġineffect": 13928,
    "Ġup": 463,
    "Ġfood": 5080,
    "Ġcourtiers": 24136,
    "postp": 24635,
    "Ġphilosophers": 10550,
    "Ġtackles": 8051,
    "Ġsimultaneous": 22587,
    "Ġretort": 23069,
    "Ġfootmarks": 19336,
    "Ġscrolled": 22282,
    "aging": 2236,
    "em": 389,
    "Ġtwos": 18657,
    "Ġunusually": 15843,
    "Ġ42": 16677,
    "compar": 14356,
    "estion": 18362,
    "Ġprint": 18971,
    "Ġunfortunate": 5376,
    "Ġunch": 18239,
    "iment": 2815,
    "Ġadding": 2403,
    "Ġdiscours": 18717,
    "intellect": 18822,
    "Ġdeer": 12716,
    "Ġgrinning": 9052,
    "emic": 18179,
    "result": 12041,
    "attributed": 23118,
    "Ġsloop": 25930,
    "Ġsuspicions": 9477,
    "Ġenthusiastic": 19964,
    "Ġattained": 14077,
    "Ġjonas": 20608,
    "omas": 12672,
    "uer": 21099,
    "liking": 22922,
    "Ġ3": 3986,
    "Ġbarrier": 16568,
    "Ġcleaning": 23179,
    "itu": 1225,
    "geons": 15976,
    "Ġtravelled": 7772,
    "Ġspots": 11726,
    "Ġul": 6828,
    "who": 2447,
    "speak": 5504,
    "Ġschoolmasters": 19719,
    "farmer": 25899,
    "clad": 14457,
    "imod": 15706,
    "tern": 4225,
    "riving": 21929,
    "Ġassociates": 24712,
    "fired": 20859,
    "Ġbeth": 9656,
    "Ġbelike": 18830,
    "Ġage": 3896,
    "morrow": 4572,
    "Ġinaudible": 21497,
    "Ġacquitted": 18898,
    "Ġgaunt": 11267,
    "Ġblotches": 25314,
    "ivates": 18278,
    "Ġreconciled": 13585,
    "Ġthink": 984,
    "Ġnooks": 26011,
    "enet": 10151,
    "Ġsurp": 9633,
    "stepfather": 19190,
    ").": 1273,
    "madly": 24419,
    "Ġstatistical": 11103,
    "Ġhelen": 16654,
    "Ġlooks": 4165,
    "Ġabominably": 20064,
    "bethink": 25744,
    "Ġaromatic": 25925,
    "Ġdespise": 14664,
    "_.âĢĻâĢĿ": 17478,
    "Ġcorrupt": 11920,
    "Ġeyed": 12665,
    "and": 372,
    "Ġstreaked": 19113,
    "Ġprincely": 24147,
    "fered": 5559,
    "looking": 4034,
    "affa": 23774,
    "unknown": 10889,
    "itations": 17817,
    "erpillar": 5797,
    "Ġcalmed": 16263,
    "ribed": 7693,
    "Ġallurements": 22007,
    "september": 14034,
    "endeavour": 17030,
    "aming": 5828,
    "cottagers": 20046,
    "Ġfaithful": 9501,
    "Ġemptied": 24346,
    "Ġpassages": 12966,
    "rapid": 12666,
    "Ġtwin": 12924,
    "Ġessence": 13403,
    "ipp": 10101,
    "Ġcraft": 4377,
    "Ġfr": 1697,
    "Ġsustenance": 19932,
    "iting": 2155,
    "Ġdeserts": 10506,
    "Ġrevolve": 19728,
    "ank": 1367,
    "Ġhaughty": 11448,
    "Ġmask": 1866,
    "Ġpitching": 16610,
    "putting": 14098,
    "Ġchiswick": 25560,
    "phants": 9318,
    "Ġexacted": 23602,
    "iii": 14773,
    "stript": 21649,
    "ondency": 15267,
    "narwhale": 17316,
    "Ý": 158,
    "Ġkrem": 9724,
    "the": 334,
    "fixedly": 24929,
    "Ġelopement": 10328,
    "Ġemblaz": 16237,
    "Ġmeanings": 18607,
    "tell": 1380,
    "raise": 18011,
    "lydon": 13987,
    "Ġpoliteness": 8274,
    "izer": 2031,
    "Ġversion": 10628,
    "Ġtormented": 8674,
    "Ġunsupervised": 2429,
    "Ġshivering": 10264,
    "dashing": 20835,
    "Ġobjects": 5577,
    "artic": 14218,
    "Ġoverwhelmed": 11402,
    "ficial": 17547,
    "ived": 1532,
    "Ġproves": 14036,
    "Ġagain": 813,
    "Ġnibbling": 17383,
    "Ġsalut": 10508,
    "Ġworst": 7444,
    "Ġhired": 10176,
    "Ġdivide": 12107,
    "sharpening": 22464,
    "Ġfireplace": 13142,
    "Ġdirest": 22705,
    "Ġfangs": 12593,
    "un": 373,
    "shad": 10981,
    "sigma": 3005,
    "cet": 15323,
    "Ġprying": 15605,
    "Ġcentaurs": 23830,
    "whal": 10939,
    "Ġworse": 4719,
    "Ġmeant": 3548,
    "Ġcorpor": 23037,
    "Ġforger": 15729,
    "Ġclustered": 25233,
    "wander": 17708,
    "anders": 18152,
    "Ġpresentation": 14479,
    "Ġgoodge": 22822,
    "Ġstaff": 14004,
    "kes": 3676,
    "Ġprimitive": 25061,
    "coach": 23558,
    "cigar": 26124,
    "cra": 6354,
    "Ġcelebrate": 26357,
    "Ġharbour": 19978,
    "learning": 2656,
    "relapse": 24014,
    "Ġname": 2083,
    "Ġface": 1723,
    "Ġauthorized": 16734,
    "Ġselfish": 7272,
    "Ġinvective": 26181,
    "Ġgrosvenor": 17416,
    "Ġworshipping": 22926,
    "Ġstrenuously": 17446,
    "Ġdifficulties": 11224,
    "Ġexult": 10229,
    "Ġallow": 1125,
    "description": 11093,
    "wins": 21128,
    "Ġdazzling": 15209,
    "ý": 190,
    "skirted": 24488,
    "meal": 22710,
    "Ġhands": 1666,
    "Ġrake": 18639,
    "Ġeconomical": 25287,
    "Ġshocked": 9399,
    "vere": 4883,
    "ament": 2440,
    "Ġamendment": 26024,
    "train": 2035,
    "endar": 18364,
    "awn": 3835,
    "likeness": 19476,
    "Ġfish": 2709,
    "Ġcalcul": 3636,
    "continually": 11301,
    "Ġdeduce": 8337,
    "Ġtraces": 7946,
    "Ġroving": 22401,
    "Ġprophets": 20449,
    "elihood": 4622,
    "Ġdevelopments": 23242,
    "Ġegyptians": 25289,
    "prec": 3201,
    "Ġmysteries": 11321,
    "Ġrapid": 1419,
    "Ġlad": 2364,
    "Ġworn": 6445,
    "Ġdry": 5624,
    "Ġplatform": 17130,
    "Ġmeekly": 26489,
    "Ġcriminal": 7537,
    "bacc": 7795,
    "Ġethiop": 26155,
    "Ġaperture": 26160,
    "Ġtelescope": 17346,
    "ee": 1663,
    "brow": 15313,
    "Ġcrawling": 17044,
    "arson": 22748,
    "Ġshares": 23245,
    "Ġenvironment": 3979,
    "Ġcommis": 22669,
    "Ġbrought": 2517,
    "Ġsplit": 7993,
    "Ġannotations": 25954,
    "Ġade": 22102,
    "huzza": 20912,
    "dost": 14534,
    "etween": 774,
    "Ġfact": 1729,
    "ceed": 1075,
    "Ġtransactions": 18486,
    "Ġflash": 8230,
    "Ġhundred": 2693,
    "Ġfatality": 12091,
    "bench": 16802,
    "daugh": 6788,
    "Ġsit": 4218,
    "itheat": 21336,
    "Ġdreadfully": 7726,
    "uneasy": 23682,
    "angling": 14138,
    "revival": 26162,
    "Ġliveliest": 24775,
    "Ġegypt": 9677,
    "haust": 5777,
    "Ġ32": 19487,
    "Ġrandomly": 1921,
    "Ġpinioned": 21480,
    "secur": 18126,
    "trained": 4241,
    "raged": 9210,
    "Ġdoctrine": 24196,
    "Ġhook": 6453,
    "Ġunforgiving": 25995,
    "utored": 15659,
    "Ġcustody": 13645,
    "Ġbust": 10166,
    "Ġobtaining": 16129,
    "Ġyou": 366,
    "Ġgroan": 13322,
    "Ġcautiousness": 19865,
    "ij": 7802,
    "Ġhip": 17920,
    "Ġtrouble": 3688,
    "Ġrumors": 11320,
    "stretching": 20497,
    "tacit": 21097,
    "oy": 1029,
    "iv": 432,
    "Ġpantry": 20294,
    "apologizing": 26543,
    "Ġlifelessly": 23049,
    "Ġfriendless": 23023,
    "ifice": 7198,
    "Ġbefore": 810,
    "tend": 17673,
    "isis": 12575,
    "Ġvexations": 24610,
    "Ġunseason": 22050,
    "Ġdisputes": 25825,
    "Ġfancies": 10423,
    "Ġrefinement": 18696,
    "ingale": 21298,
    "Ġgenerating": 12848,
    "card": 11474,
    "ribes": 23365,
    "Ġbrow": 3990,
    "Ġrecognise": 12037,
    "Ġdavy": 25951,
    "Ġcents": 17828,
    "Ġessentials": 20001,
    "Ġconvolutional": 2160,
    "iffs": 9020,
    "Ġblanket": 8343,
    "march": 13753,
    "Ġascertaining": 17202,
    "Ġstables": 23653,
    "Ġstave": 11649,
    "seized": 14033,
    "Ġheavier": 13100,
    "Ġintuitions": 17339,
    "Ġskull": 6288,
    "warmth": 20051,
    "Ġscandal": 9080,
    "Ġtorn": 6000,
    "adventures": 20255,
    "Ġexasper": 8466,
    "arned": 21815,
    "eminent": 25104,
    "Ġperfections": 23607,
    "Ġextravagance": 17278,
    "Ġpriority": 19761,
    "Ġostens": 25275,
    "lucky": 24544,
    "Ġsurround": 4617,
    "examine": 25477,
    "water": 4868,
    "Ġremain": 1873,
    "Ġfoam": 6891,
    "loops": 12878,
    "Ġcompatibility": 2961,
    "Ġaids": 12225,
    "absolutely": 10644,
    "ython": 1030,
    "Ġrap": 14300,
    "Ġegotistical": 26191,
    "Ġsquid": 11875,
    "Ġmildness": 9942,
    "Ġleakage": 23458,
    "ven": 778,
    "grow": 10097,
    "isf": 2436,
    "Ġexplored": 23515,
    "ricity": 23062,
    "Ġwail": 21285,
    "Ġbrigs": 20321,
    "aby": 18106,
    "ivial": 15858,
    "Ġunhallowed": 17179,
    "plun": 15816,
    "Ġtwilight": 16118,
    "contin": 16541,
    "joice": 9601,
    "Ġcrescent": 16134,
    "Ġrequiring": 2923,
    "Ġcondescending": 24868,
    "remained": 8569,
    "derest": 18314,
    "latin": 25258,
    "Ġmasts": 6465,
    "Ġcompunction": 18586,
    "atherine": 2596,
    "Ġdispersed": 16596,
    "Ġbouquet": 20682,
    "Ġrods": 9751,
    "Ġrepairs": 19083,
    "Ġtragedy": 10666,
    "Ġcarted": 21347,
    "Ġnervously": 19183,
    "Ġdeliver": 9848,
    "Ġtroubles": 19437,
    "Ġsunk": 5752,
    "Ġbroods": 23101,
    "ograph": 4797,
    "!_âĢĿ": 11375,
    "Ġexpectantly": 23522,
    "Ġnet": 3625,
    "Ġcomplacency": 19446,
    "Ġmcc": 21304,
    "achine": 610,
    "intim": 22932,
    "ream": 2708,
    "Ġexample": 5096,
    "Ġloops": 8851,
    "Ġbraided": 16580,
    "forbidding": 25837,
    "Ġjovial": 19232,
    "Ġdissuade": 26256,
    "Ġpersonified": 19177,
    "Ġaround": 3609,
    "never": 3151,
    "Ġpermit": 9747,
    "rent": 1168,
    "eldom": 4415,
    "Ġexquisitely": 20201,
    "utility": 21585,
    "Ġjealousy": 13574,
    "Ġlingu": 11612,
    "Ġsubsequently": 16157,
    "madness": 14880,
    "Ġsuspicion": 6211,
    "Ġconveys": 16854,
    "Ġheartily": 6890,
    "isation": 13891,
    "Ġcompare": 9300,
    "rect": 1601,
    "Ġbrut": 18767,
    "cim": 8719,
    "zor": 15456,
    "Ġreap": 18026,
    "ableness": 8149,
    "ription": 5676,
    "Ġque": 4158,
    "Ġconceivable": 16612,
    "Ġworms": 25216,
    "Ġsubstantiated": 25875,
    "fowl": 17548,
    "Ġhussey": 7725,
    "Ġbachel": 7158,
    "Ġaccounts": 7207,
    "Ġdelicious": 14791,
    "Ġgoblets": 20517,
    "Ġhelter": 24023,
    "Ġfull": 2175,
    "utherland": 9577,
    "Ġsharkish": 24502,
    "Ġapple": 14166,
    "Ġjohnson": 18409,
    "Ġconstraint": 16512,
    "oub": 1636,
    "Ġminus": 18749,
    "classification": 4389,
    "exact": 7911,
    "Ġshrivelled": 19702,
    "Ġcrimin": 6901,
    "Ġtasted": 12525,
    "Ġ65": 24367,
    "Ġponder": 6819,
    "in": 262,
    "Ġaffrighted": 13570,
    "Ġrusty": 14962,
    "Ġcarpenters": 16751,
    "quently": 9700,
    "Ġblackest": 19098,
    "Ġtremendous": 8353,
    "Ġsadder": 24049,
    "agonies": 21907,
    "Ġhasn": 12923,
    "Ġvisitors": 7985,
    "exceedingly": 9565,
    "Ġrecording": 24433,
    "Ġenriched": 26498,
    "herself": 4890,
    "Ġken": 22189,
    "¯": 112,
    "Ġconnectivity": 3665,
    "Ġlabrador": 23330,
    "Ġspoilt": 24807,
    "âĢĶ.": 11752,
    "imony": 12686,
    "Ġfooted": 23795,
    "iated": 5890,
    "calmly": 20138,
    "Ġtrack": 7450,
    "Ġeconomy": 17199,
    "Ġsquire": 16179,
    "ayed": 12708,
    "Ġjoists": 19231,
    "Ġeastward": 13388,
    "fold": 7546,
    "quarried": 24945,
    "Ġtreats": 19342,
    "operation": 13499,
    "Ġindividuality": 14907,
    "Ġvit": 10244,
    "Ġmin": 1026,
    "ular": 713,
    "Ġstole": 7953,
    "Ġcoppers": 22584,
    "oked": 4310,
    "interrupted": 11416,
    "mouth": 9129,
    "rised": 10122,
    "Ġspringing": 10517,
    "Ġspilled": 10923,
    "teeth": 10354,
    "Ġpoetic": 17102,
    "Ġpet": 4586,
    "bourine": 9394,
    "Ġhandsomely": 25497,
    "meanwhile": 10608,
    "Ġdiabolically": 25513,
    "Ġbowsprit": 16559,
    "Ġgeomet": 3191,
    "leman": 21366,
    "Ġoccurrence": 14380,
    "uff": 2730,
    "Ġreigns": 21669,
    "Ġkindest": 23291,
    "Ġprecip": 7074,
    "Ġmatch": 4529,
    "Ġpaunch": 23747,
    "ist": 449,
    "Ġgardener": 19134,
    "Ġloggerhead": 13655,
    "Ġloath": 7892,
    "infernal": 24662,
    "Ġsp": 457,
    "rift": 11518,
    "Ġoutskirts": 17455,
    "Ġsignific": 3829,
    "wishes": 13805,
    "Ġunfrequently": 20738,
    "Ġtangle": 25760,
    "Ġmosses": 20162,
    "Ġz": 1000,
    "diversity": 25897,
    "Ġfervently": 25877,
    "Ġinjuries": 11276,
    "Ġantip": 24176,
    "Ġwere": 557,
    "Ġmoot": 22428,
    "mil": 13750,
    "Ġslink": 23161,
    "real": 10148,
    "Ġcharacter": 2793,
    "Ġroman": 8323,
    "Ġexcursion": 26588,
    "sych": 9893,
    "Ġdangerous": 6612,
    "Ġshirr": 18231,
    "hor": 2572,
    "Ġla": 5913,
    "bearded": 18522,
    "Ġdangers": 12351,
    "Ġsnuffed": 15070,
    "Ġchip": 12821,
    "Ġconsecrate": 26488,
    "Ġbelrive": 18831,
    "daylight": 19055,
    "scap": 22985,
    "angle": 22099,
    "Ġearly": 2079,
    "algorithms": 8293,
    "Ġweap": 6155,
    "Ġinjustice": 9189,
    "replied": 11564,
    "Ġaudacious": 13458,
    "Ġimpartial": 15217,
    "Ġmorcar": 13007,
    "belongs": 25596,
    "Ġpenetrated": 13470,
    "Ġcourt": 4169,
    "aswag": 21544,
    "Ġdiscipline": 26560,
    "Ġsphy": 18311,
    "Ġremoter": 20104,
    "to": 714,
    "Ġneighbouring": 12115,
    "Ġindefatigable": 17176,
    "papers": 12498,
    "eric": 3466,
    "umbria": 23928,
    "Ġhedge": 8364,
    "Ġcontemptuous": 24676,
    "Ġbarred": 9001,
    "Ġmeasures": 1205,
    "obser": 11099,
    "Ġprophes": 16346,
    "distraction": 24199,
    "iz": 365,
    "Ġgretna": 26467,
    "zors": 21146,
    "ignominious": 26586,
    "indignation": 18438,
    "powerful": 24847,
    "Ġdish": 6136,
    "irious": 15782,
    "illating": 22105,
    "Ġbanquet": 15238,
    "Ġadjust": 2153,
    "icating": 15651,
    "Ġuniverse": 14122,
    "tal": 17669,
    "Ġundertaking": 8573,
    "Ġscents": 22280,
    "crossing": 19409,
    "Ġfails": 13311,
    "Ġher": 427,
    "Ġpratt": 23219,
    "attempts": 17189,
    "Ġtranslation": 3087,
    "Ġbennets": 9804,
    "Ġadviser": 25312,
    "told": 7812,
    "abash": 18107,
    "youngest": 19742,
    "Ġradiant": 16808,
    "laden": 14927,
    "Ġmarried": 3406,
    "Ġrivals": 20270,
    "hilar": 25081,
    "Ġconstitutes": 13550,
    "Ġinsepar": 17933,
    "getic": 12962,
    "Ġgurglings": 26464,
    "ohnson": 16322,
    "Ġentreating": 24206,
    "Ġstirred": 12214,
    "Ġshoulders": 5565,
    "Ġsurmise": 12292,
    "longbourn": 9894,
    "Ġfervent": 14899,
    "commod": 16167,
    "oubtedly": 6943,
    "possess": 5984,
    "Ġrash": 10897,
    "Ġdock": 15927,
    "Ġaccommod": 14211,
    "omb": 10205,
    "sugg": 11838,
    "Ê": 139,
    "ologically": 22863,
    "path": 10117,
    "Ġscandinavian": 26344,
    "conjecturing": 20133,
    "rises": 17654,
    "contrasted": 17304,
    "iday": 8828,
    "Ï": 144,
    "particular": 5757,
    "ove": 1743,
    "Ġbeliefs": 24581,
    "contemplated": 20457,
    "deserted": 18958,
    "Ġspilling": 22135,
    "hertfordshire": 10935,
    "Ġmeanly": 12905,
    "Ġhealth": 3903,
    "glancing": 11213,
    "ė": 216,
    "Ġriveted": 13616,
    "Ġbeaufort": 13566,
    "Ġsul": 7570,
    "Ġoutrages": 18415,
    "Ġjavan": 24999,
    "Ġshrieked": 9546,
    "stall": 21638,
    "claimed": 9834,
    "ated": 724,
    "remote": 23188,
    "Ġidler": 16403,
    "Ġsolve": 4197,
    "around": 12604,
    "Ġlobes": 22113,
    "bury": 9105,
    "Ġmicroscopic": 26373,
    "grandfather": 25009,
    "retrospect": 23136,
    "Ġobligations": 12088,
    "Ġ1000": 3117,
    "Ġcro": 4873,
    "ipotent": 10956,
    "Ġtow": 4397,
    "Ġbarrowful": 25595,
    "Ġleisure": 6539,
    "bon": 13682,
    "inlaid": 21189,
    "forced": 11030,
    "cig": 17502,
    "Ġyields": 19655,
    "Ġserenity": 10026,
    "iftings": 23224,
    "jub": 20928,
    "Ġ23": 13190,
    "Ġdocumentation": 20553,
    "Ġmr": 661,
    "Ġgateway": 24802,
    "Ġagreed": 7029,
    "enged": 23145,
    "Ġenvied": 19288,
    "Ġfleeting": 19326,
    "hecy": 21205,
    "clouds": 25496,
    "Ġarmed": 9258,
    "Ġcooped": 22582,
    "Ġdisagree": 22530,
    "Ġsong": 5903,
    "Ġoverfitting": 1542,
    "Ġfrenchman": 11282,
    "then": 2053,
    "rennial": 22339,
    "organic": 25946,
    "Ġaccomplish": 14874,
    "abiding": 21791,
    "Ġbre": 1913,
    "Ġsinners": 18949,
    "Ġswift": 3667,
    "Ġtrusted": 10516,
    "Ġpepper": 9779,
    "Ġglim": 9341,
    "Ġric": 18209,
    "brandy": 19200,
    "Ġindomit": 22953,
    "seeing": 7078,
    "Ġcreamy": 14328,
    "Ġgenius": 8046,
    "gladness": 25194,
    "Ġsearching": 13160,
    "erland": 9639,
    "Ġbreak": 2869,
    "Ġmelt": 21316,
    "vag": 8764,
    "rador": 19158,
    "Ġvideos": 13604,
    "kicked": 20942,
    "Ġreced": 15688,
    "gpt": 5355,
    "esu": 17918,
    "esteemed": 26009,
    "Ġearned": 19403,
    "Ġac": 846,
    "Ġcompression": 18147,
    "Ġrus": 14090,
    "Ġsetting": 7046,
    "succeed": 10327,
    "draw": 23896,
    "subs": 14299,
    "Ġbegrim": 23015,
    ":âĢĶâĢĺ": 24192,
    "Ġswerve": 14436,
    "cavity": 26126,
    "impatience": 25500,
    "ights": 8475,
    "Ġthrill": 24540,
    "cies": 1815,
    "Ġpermission": 9277,
    "wonderful": 16959,
    "sentimental": 25681,
    "Ġdeclare": 6613,
    "Ġfaintest": 24568,
    "didn": 9005,
    "Ġdelights": 14595,
    "Ġmorrow": 9340,
    ";âĢĿ": 7791,
    "Ġclubs": 25179,
    "Ġwrapping": 19774,
    "Ġrmsprop": 3354,
    "born": 7543,
    "Ġbegan": 2022,
    "Ġcombines": 1191,
    "Ġreigning": 15697,
    "impressed": 12687,
    "Ġploughing": 26259,
    "illity": 18296,
    "Ġsmart": 11812,
    "ift": 1609,
    "Ġ50": 24318,
    "Ġdev": 886,
    "reputation": 15513,
    "Ġdissimilar": 22529,
    "Ġconsequences": 11334,
    "arman": 11593,
    "glow": 20873,
    "winter": 10739,
    "occ": 4485,
    "Ġamused": 11796,
    "Ġstupendous": 20499,
    ".âĢĿ": 464,
    "continual": 20643,
    "Ġremorseless": 13449,
    "Ġallowed": 4059,
    "shed": 8095,
    "Ġexponentially": 1444,
    "Ġjun": 8505,
    "Ġgospel": 18000,
    "seated": 11670,
    "bre": 3980,
    "del": 4076,
    "net": 1195,
    "preference": 22451,
    "increase": 20267,
    "arranging": 19317,
    "inkle": 22616,
    "rr": 17649,
    "Ġcollapsed": 15079,
    "Ġunsuccessful": 18257,
    "Ġmien": 17808,
    "Ġfeelings": 2454,
    "relative": 24011,
    "Ġwhispered": 5337,
    "Ġconceived": 8150,
    "Ġunerringly": 18265,
    "degrees": 22147,
    "alth": 3255,
    "Ġpossibility": 7458,
    "osen": 6855,
    "du": 604,
    "Ġwis": 3731,
    "reduced": 15799,
    "Ġerad": 25028,
    "ilburn": 18059,
    "Ġabed": 22263,
    ":--": 5784,
    "Ġbeau": 9223,
    "bask": 20775,
    "Ġbit": 2966,
    "Ġfloundering": 16249,
    "Ġsort": 1506,
    "Ġtranquilly": 12287,
    "Ġroarings": 25301,
    "Ġvariations": 22664,
    "cu": 10082,
    "university": 25983,
    "Ġmarty": 20289,
    "condescended": 26248,
    "Ġdigesting": 19808,
    "Ġquaint": 18465,
    "enchant": 21282,
    "Ġartful": 22607,
    "per": 483,
    "Ġwindow": 2999,
    "out": 468,
    "objections": 19915,
    "event": 8077,
    "Ġfinally": 4666,
    "Ġopulence": 23627,
    "Ġindoors": 18836,
    "Ġtaste": 5524,
    "ird": 2428,
    "Ġcases": 3962,
    "Ġbil": 15561,
    "Ġcurses": 13018,
    "Ġstra": 2993,
    "Ġsummoning": 23872,
    "Ġconce": 3420,
    "renched": 7908,
    "mounting": 25207,
    "dish": 12449,
    "detective": 24382,
    "Ġassuring": 13060,
    "Ġplun": 6281,
    "ocris": 23704,
    "Ġess": 5691,
    "Ġrationally": 18213,
    "Ġcheeks": 5958,
    "Ġexile": 12713,
    "Ġinherited": 25353,
    "Ġfins": 9662,
    "Ġclaw": 22349,
    "speckled": 23942,
    "Ġfielding": 16230,
    "alions": 21499,
    "steel": 8299,
    "Ġcre": 888,
    "Ġinvestment": 24335,
    "Ġoccurred": 4463,
    "sherlock": 5422,
    "ediction": 17944,
    "Ġsuddenness": 23380,
    "Ġself": 1779,
    "Ġgrammar": 1062,
    "Ġcountess": 11961,
    "Ġjustine": 4970,
    "Ġfishe": 15582,
    "fulfilment": 26025,
    "rimshander": 20656,
    "Ġsensitivity": 3070,
    "Ġpatterns": 1213,
    "Ġinst": 911,
    "Ġrefer": 18693,
    "Ġcells": 13883,
    "stiff": 12670,
    "gaze": 17556,
    "Ġridicule": 13510,
    "Ġosc": 2834,
    "Ġconference": 15743,
    "Ġgeneration": 2183,
    "rate": 2423,
    "self": 616,
    "Ġreproached": 24891,
    "Ġcomfort": 3436,
    "ments": 1400,
    "Ġamend": 16033,
    "Ġarid": 22179,
    "native": 17610,
    "eye": 6224,
    "cele": 21623,
    "pon": 17624,
    "wol": 21121,
    "solution": 14685,
    "Ġstare": 10863,
    "Ġbrighton": 6470,
    "Ġfur": 988,
    "Ġsurplus": 26303,
    "lest": 5288,
    "heaven": 8053,
    "Ġhopelessly": 16373,
    "mature": 20966,
    "only": 3305,
    "Ġprov": 4402,
    "ree": 874,
    "resolutions": 26164,
    "beam": 16036,
    "ness": 853,
    "Ġuncommon": 5026,
    "pursue": 24975,
    "istered": 14143,
    "mant": 20964,
    "jack": 7344,
    "f": 74,
    "Ġfamilies": 8027,
    "Ġfanned": 19099,
    "ĠâĢĺ_": 11116,
    "Ġoperations": 2297,
    "Ġchains": 8251,
    "orted": 4603,
    "Ġlights": 8959,
    "Ġdivinely": 25723,
    "iction": 4271,
    "content": 11196,
    "ulus": 21862,
    "Ġenables": 725,
    "Ġmarlingspike": 26578,
    "Ġcorps": 13029,
    "foolish": 12344,
    "oes": 4435,
    "Ġunworthy": 11712,
    "Ġbrides": 22859,
    "ĠĠĠĠĠĠĠĠĠĠĠĠĠĠ": 22562,
    "Ġheadland": 22895,
    "latitude": 25259,
    "bolts": 11419,
    "elsewhere": 19867,
    "Ġinterfere": 11814,
    "Ġabode": 7901,
    "Ġwired": 17786,
    "calcul": 12983,
    "Ġnib": 13938,
    "burning": 25078,
    "swallowed": 14851,
    "itar": 15543,
    "Ġmerrily": 23730,
    "Ġpaper": 4285,
    "elson": 16368,
    "Ġcabs": 23640,
    "Ġbarmaid": 19334,
    "Ġtraditions": 11442,
    "such": 3083,
    "ox": 9132,
    "Ġaudits": 24770,
    "wide": 10136,
    "prairies": 20565,
    "Ġbloody": 9886,
    "Ġmug": 21311,
    "Ġoutrage": 15955,
    "Ġendless": 7053,
    "ofs": 11827,
    "hur": 6648,
    "grant": 10426,
    "Ġunravel": 26214,
    "Ġclassical": 22630,
    "popular": 26140,
    "Ġdropped": 4472,
    "Ġprogrammed": 11057,
    "Ġsignals": 10584,
    "Ġhandsomer": 20332,
    "Ġdollar": 25283,
    "Ġlazily": 11379,
    "ingley": 1544,
    "among": 6256,
    "those": 4496,
    "oriented": 2949,
    "roses": 17956,
    "Ġstrives": 23691,
    "Ġdesired": 4664,
    "lost": 8886,
    "Ġdrug": 11409,
    "Ġbeauties": 10444,
    "Ġlodger": 24091,
    "Ġcounties": 23302,
    "par": 1816,
    "Ġwhiteness": 5919,
    "Ġwise": 6811,
    "Ġwre": 5077,
    "Ġunf": 4089,
    "presbyter": 20616,
    "Ġnation": 12643,
    "pane": 10119,
    "Ġhung": 4560,
    "Ġunbroken": 18250,
    "Ġjiff": 22294,
    "Ġevalu": 2814,
    "poise": 6171,
    "emed": 3379,
    "}": 97,
    "precedented": 15172,
    "tolerable": 17687,
    "Ġdiet": 13908,
    "Ġmarvel": 23032,
    "Ġuneasily": 24229,
    "Ġrigid": 16715,
    "Ġcove": 22581,
    "Ġexhausting": 24710,
    "Ġimpute": 18324,
    "finger": 10092,
    "Ġunable": 4951,
    "leaves": 12574,
    "author": 9858,
    "Ġhue": 8429,
    "Ġscene": 3097,
    "Ġapproaching": 6283,
    "weary": 22684,
    "achalot": 15860,
    "Ġpres": 9730,
    "Ġdanced": 7843,
    "Ġcontrive": 16007,
    "Ġgunwales": 12237,
    "Ġjove": 9266,
    "Ġforg": 3789,
    "Ġtasselled": 25921,
    "Ġimposed": 14212,
    "Ġthreading": 23400,
    "dued": 7910,
    "fire": 6357,
    "Ġoverbearing": 12840,
    "art": 576,
    "icit": 3377,
    "expound": 23659,
    "Ġrepelled": 19085,
    "passenger": 24165,
    "ishop": 9740,
    "Ġcareer": 11117,
    "Ġallows": 3233,
    "Ġthings": 1964,
    "Ġdashes": 21433,
    "Ġhardware": 4904,
    "Ġhazard": 20430,
    "Ġextremities": 19195,
    "anded": 5923,
    "Ġneeded": 7718,
    "queg": 1771,
    "Ġupdate": 2465,
    "Ġuntamed": 19163,
    "Ġapologized": 25198,
    "omitted": 18023,
    "Ġemigrant": 25859,
    "bol": 8717,
    "Ġfinery": 23125,
    "wants": 21129,
    "Ġslapped": 23169,
    "Ġmicrosc": 20675,
    "brink": 23575,
    "Ġtending": 17723,
    "Ġstraits": 7994,
    "comput": 1944,
    "ological": 1883,
    "Ġgrap": 11704,
    "Ġwaning": 15531,
    "rages": 15677,
    "ogrand": 26261,
    "Ġstem": 15715,
    "Ġpurport": 14579,
    "Ġshifting": 12764,
    "Ġincessant": 15095,
    "Ġgroup": 2038,
    "etymology": 14699,
    "cru": 7126,
    "Ġovercame": 9744,
    "Ġferguson": 17468,
    "Ġcommunic": 5751,
    "pro": 2050,
    "Ġpeered": 18668,
    "pred": 2801,
    "Ġdawned": 14992,
    "Ġbandaged": 16841,
    "gunwale": 20662,
    ".âĢĻ": 1720,
    "Ġusefulness": 19406,
    "national": 20997,
    "etah": 12657,
    "Ġsubstitute": 16725,
    "traversed": 19638,
    "Ġgorge": 13564,
    "Ġnails": 12644,
    "Ġbehooves": 20732,
    "Ġair": 1837,
    "Ġnarrative": 6215,
    "Ġnar": 7375,
    "Ġprank": 23218,
    "Ġcanopy": 18320,
    "fam": 5989,
    "Ġemm": 18002,
    "Ġalive": 4400,
    "Ġirene": 8444,
    "Ġstupid": 7603,
    "utely": 8132,
    "Ġsermon": 12373,
    "Ġmishap": 20575,
    "Ġcauses": 2563,
    "function": 4386,
    "Ġexhausted": 8693,
    "ě": 220,
    "Ġsavoury": 23875,
    "honey": 20904,
    "bowl": 14889,
    "Ġbelow": 4062,
    "Ġprofoundest": 16859,
    "sharp": 10306,
    "seaman": 25457,
    "searching": 25103,
    "Ġassurance": 7775,
    "prodig": 16424,
    "pine": 13767,
    "Ġswimmer": 19457,
    "social": 11021,
    "Ġroyals": 19531,
    "Ġsandwiched": 26609,
    "Ġpaying": 9936,
    "Ġconsult": 6057,
    "boo": 16348,
    "rep": 5525,
    "Ġdesirable": 8940,
    "idled": 21766,
    "Ġtube": 15002,
    "smoking": 23908,
    "Ġallies": 18234,
    "Ġvolcanoes": 24145,
    "Ġoutdone": 22316,
    "Ġexceeded": 14432,
    "Ġantelope": 24179,
    "Ġborders": 15568,
    "uccas": 21105,
    "Ġprospect": 4706,
    "Ġreferences": 21672,
    "Ġportly": 14677,
    "Ġinevitable": 15165,
    "bedded": 13225,
    "rugged": 6849,
    "Ġfringe": 17270,
    "absent": 21788,
    "Ġdece": 6996,
    "Ġsanguinary": 25929,
    "Ġthre": 2059,
    "Ġsees": 8841,
    "Ġtea": 5041,
    "Ġthither": 6821,
    "castles": 14635,
    "Ġbeamed": 23720,
    "Ġformless": 22826,
    "Ġcomp": 723,
    "dimensional": 2349,
    "Ġrevolved": 9982,
    "hies": 17559,
    "Ġtearless": 24786,
    "Ġfarmhouse": 24986,
    "Ġinnocence": 6477,
    "Ġlanding": 11981,
    "Ġrang": 9243,
    "Ġgoblet": 25823,
    "Ġtorture": 9064,
    "Ġoppress": 13170,
    "Ġwaist": 6892,
    "luent": 15995,
    "orrow": 2917,
    "repeated": 12336,
    "Ġsubsided": 14549,
    "Ġdevote": 10337,
    "1775": 26377,
    "Ġpunchbowl": 20230,
    "L": 48,
    "alliance": 22198,
    "Ġpsychology": 11447,
    "talking": 10005,
    "Ġloc": 10913,
    "Ġblinded": 13268,
    "umns": 14146,
    "Ġfind": 1457,
    "Ġcompass": 4410,
    "maintained": 25020,
    "elfare": 11774,
    "hement": 13830,
    "supportable": 12367,
    "south": 8758,
    "Ġforeb": 12000,
    "Ġconcealing": 23900,
    "Ġwonderful": 4563,
    "foot": 9045,
    "cav": 17506,
    "incidentally": 20538,
    "nel": 11503,
    "Ġnug": 21523,
    "Ġanywhere": 8516,
    "Ġsaw": 1351,
    "treat": 12510,
    "Ġinsist": 9888,
    "Ġautom": 3484,
    "blind": 16704,
    "omorrah": 18024,
    "ended": 1836,
    "Ġmerchants": 23731,
    "suggested": 17297,
    "ences": 1266,
    "Ġnugent": 26456,
    "Ġcorpus": 13028,
    "Ġspears": 12922,
    "Ġowning": 18744,
    "Ġinstead": 2789,
    "witness": 10033,
    "Ġacquaintances": 17348,
    "®": 111,
    "Ġcondense": 21806,
    "Ġintimate": 6549,
    "Ġpowerful": 1493,
    "Ġunconnected": 18242,
    "Ġgladness": 16590,
    "Ġhunting": 7259,
    "alcul": 15624,
    "Ġbru": 13893,
    "Ġswitzerland": 10378,
    "Ġwondered": 11124,
    "Ġvigilance": 12368,
    "affect": 13210,
    "mathematics": 26304,
    "Ġbol": 6241,
    "Ġding": 12595,
    "Ġbringing": 5869,
    "Ġtuning": 3073,
    "Ć": 199,
    "Ġascendency": 20231,
    "Ġscowl": 22283,
    "Ġmol": 12557,
    "Ġacquiescence": 20329,
    "scotch": 25850,
    "Ġscotch": 12206,
    "mutually": 26136,
    "Ġleviathan": 3287,
    "Ġide": 2122,
    "Ġhastily": 5763,
    "ution": 4351,
    "Ġcalamities": 25699,
    "glim": 19363,
    "Ġcorrect": 2433,
    "Ġunfl": 22018,
    "Ġjon": 15945,
    "Ġprojecting": 9983,
    "Ġstrikes": 13179,
    "eli": 3874,
    "Ġtake": 1577,
    "Ġspas": 10921,
    "rmsprop": 4522,
    "Ġpatches": 4239,
    "ker": 5792,
    "Ġdisturbance": 15011,
    "Ġunprotected": 22065,
    "Ġfabulous": 25948,
    "Ġloft": 5642,
    "Ġmutinous": 23955,
    "crucible": 24842,
    "Ġfancying": 12109,
    "Ġinvolves": 1101,
    "Ġmeeting": 5193,
    "Ġseason": 5238,
    "Ġhearers": 15699,
    "lascar": 20959,
    "Ġapprove": 12867,
    "ctions": 952,
    "Ġclean": 5652,
    "Ġencoura": 1368,
    "Ġgarden": 3827,
    "Ġobedience": 11412,
    "Ġgour": 21596,
    "Ġreward": 6144,
    "Ġheads": 3743,
    "gg": 1996,
    "Ġbatch": 889,
    "Ġbattalions": 25776,
    "impud": 23758,
    "across": 10321,
    "Ĳ": 243,
    "Ġrates": 1403,
    "]]": 5205,
    "asburgh": 15643,
    "acceptable": 25183,
    "Ġsuffer": 4722,
    "mangled": 20980,
    "Ġirreparable": 19997,
    "spl": 9138,
    "Ġhorn": 6185,
    "antingly": 22096,
    "Ġgang": 9206,
    "inted": 2649,
    "Ġattach": 14290,
    "Ġrays": 10329,
    "Ġmoulded": 16974,
    "Ġhigh": 930,
    "ipper": 13738,
    "ippers": 17575,
    "ellig": 524,
    "rest": 1635,
    "Ġfrightens": 24028,
    "erc": 5905,
    "800": 17475,
    "Ġcopy": 10162,
    "brave": 19822,
    "Ġdisappears": 18560,
    "opening": 10311,
    "Ġrector": 21674,
    "arded": 5029,
    "Ġemphasis": 20535,
    "Ġoct": 10157,
    "dropped": 12259,
    "Ġbrilliant": 11413,
    "Ġmeas": 1096,
    "Ġsucc": 12782,
    "committed": 18737,
    "zealand": 26054,
    "clerval": 7951,
    "Ġtack": 5620,
    "kward": 6958,
    "ersburgh": 18215,
    "lott": 6650,
    "Ġloveliest": 20260,
    "Ġjealously": 24124,
    "Ġmilliner": 19883,
    "Ġtongues": 14861,
    "notwithstanding": 22751,
    "ape": 1904,
    "vine": 10733,
    "Ġbrighter": 16184,
    "Ġfoul": 7159,
    "Ġalgorith": 562,
    "prodigious": 17465,
    "Ġimmut": 13295,
    "icious": 7380,
    "es": 289,
    "Ġberg": 24535,
    "Ġbeseeching": 26311,
    "mpus": 13755,
    "Ġmedium": 16680,
    "Ġconsequent": 18110,
    "Ġnetwork": 454,
    "Ġheire": 18036,
    "ample": 1365,
    "Ġrom": 4525,
    "glance": 16586,
    "Ġinstantly": 3590,
    "Ġunappalled": 22063,
    "fine": 10089,
    "wait": 11319,
    "Ġdiana": 21435,
    "Ġbigness": 19759,
    "Ġinjunction": 19616,
    "tiger": 13795,
    "Ġbridge": 8349,
    "storied": 18021,
    "orts": 2557,
    "ĠâĢľâĢĺ_": 25111,
    "ong": 536,
    "Ġborder": 10168,
    "Ġpathways": 11152,
    "dying": 10693,
    "Ġrespectively": 23248,
    "eted": 7591,
    "Ġdoctors": 12148,
    "Ġclearly": 6897,
    "est": 501,
    "beings": 12872,
    "Ġdav": 15586,
    "Ġsofas": 26223,
    "Ġwretchedness": 9025,
    "Ġparac": 12791,
    "Ġmirth": 15541,
    "presently": 9805,
    "Ġintrepidity": 25550,
    "Ġdisgu": 8206,
    "Ġfaire": 13362,
    "manners": 16182,
    "crowd": 25254,
    "rue": 1126,
    "Ġsneeze": 24699,
    "noise": 14324,
    "Ġspouted": 14673,
    "hood": 2659,
    "sole": 6168,
    "Ġcetus": 19884,
    "mospheric": 17090,
    "courageous": 26127,
    "invisible": 17739,
    "pardonable": 17216,
    "ouched": 4636,
    "Ġcrater": 16437,
    "chains": 9683,
    "ever": 1076,
    "Ġattempting": 14695,
    "punct": 20191,
    "Ġillinois": 19136,
    "Ġspect": 3551,
    "bouton": 17500,
    "apprehens": 17404,
    "Ġbow": 3061,
    "[_": 5131,
    "Ġphenomena": 21481,
    "Ġ56": 24323,
    "Ġlashings": 25097,
    "Ġspeckled": 14306,
    "aid": 1922,
    "distinctive": 25726,
    "adders": 24399,
    "Ġviii": 16411,
    "Ġcommands": 16588,
    "arled": 21441,
    "Ġabreast": 18394,
    "Ġtheorem": 2326,
    "Ġsway": 7571,
    "©": 107,
    "Ġwatson": 3595,
    "Ġadam": 2126,
    "affections": 17355,
    "Ġcivil": 4679,
    "garnished": 26387,
    "Ġliberties": 19666,
    "anish": 2617,
    "Ġopportunity": 4786,
    "changed": 7175,
    "accuracy": 9877,
    "seam": 10873,
    "Ġcherub": 23285,
    "Ġcommissioned": 19894,
    "Ġskul": 22793,
    "afternoon": 13183,
    "yard": 5900,
    "allet": 11082,
    "ÿ": 192,
    "Ġhangs": 11604,
    "changing": 10853,
    "cabin": 8363,
    "@": 36,
    "Ġcomplex": 746,
    "Ġsignature": 16491,
    "Ġevangelist": 20337,
    "Ġassures": 14464,
    "Ġreaching": 7303,
    "bweb": 20790,
    "Ġrepresentations": 1875,
    "andromeda": 21866,
    "Ġstarted": 4149,
    "tenderly": 20529,
    "idy": 21762,
    "Ġprofits": 16487,
    "Ġasph": 21896,
    "learn": 2456,
    "Ġsentences": 2681,
    "Ġgrind": 18734,
    "angles": 18290,
    "Ġshare": 1661,
    "fs": 17534,
    "convers": 6567,
    "itance": 13866,
    "Ġspeedily": 7712,
    "Ġassid": 18944,
    "Ġtumbling": 13824,
    "Ġbestir": 13107,
    "Ġhearse": 10419,
    "inch": 10754,
    "stones": 11633,
    "Ġabridged": 26539,
    "retrie": 18922,
    "reement": 15509,
    "Ġrattle": 10898,
    "Ġsafie": 6617,
    "ernity": 18613,
    "Ġ73": 24259,
    "Ġexpiration": 22621,
    "Ġspitz": 14147,
    "Ġrecommended": 8667,
    "Ġwithin": 2161,
    "iability": 20919,
    "Ġlosing": 10915,
    "Ġspind": 18307,
    "Ġgrievous": 13258,
    "Ġstandpoint": 23276,
    "fering": 17541,
    "Ġasked": 2276,
    "Ġbroadway": 23981,
    "Ġcharing": 14179,
    "binary": 20783,
    "page": 13769,
    "orrah": 17875,
    "Ġrealised": 18981,
    "innocent": 20285,
    "Ġluxurious": 17309,
    "Ġforlorn": 14013,
    "Ġluckless": 16796,
    "Ġintricacies": 15136,
    "Ġbubble": 13533,
    "ons": 709,
    "Ġminimum": 23039,
    "renadier": 18419,
    "Ġfamily": 1968,
    "Ġcomplaisance": 19447,
    "earthly": 24724,
    "rev": 17755,
    "Ġchooses": 13344,
    "Ġdisregarded": 22528,
    "settle": 16660,
    "Ġconfounded": 16384,
    "ilet": 12825,
    "ov": 15398,
    "Ġbeckoned": 25793,
    "ned": 3489,
    "Ġpolic": 13159,
    "Ġwiser": 14729,
    "Ġxviii": 23408,
    "empl": 5724,
    "Ġminutely": 14559,
    "Ġpharaoh": 26584,
    "Ġintegr": 7969,
    "Ġlect": 9221,
    "Ġgallon": 24183,
    "poison": 14391,
    "Ġsplendour": 20223,
    "iza": 6255,
    "supplied": 10518,
    "planted": 11695,
    "chel": 11206,
    "yielded": 25756,
    "Ġsimilitude": 19209,
    "Ġobsequious": 17402,
    "Ġpursu": 3239,
    "Ġtides": 13819,
    "Ġ59": 24326,
    "Ġkeys": 11993,
    "mole": 22701,
    "desol": 13065,
    "gd": 3125,
    "Ġbeholding": 8668,
    "Ġmourn": 8703,
    "Ġsuck": 15859,
    "Ġextant": 18691,
    "bbles": 13689,
    "Ġroused": 7622,
    "Ġsheer": 14149,
    "Ġeffective": 1250,
    "falling": 24360,
    "Ġremo": 3787,
    "Ġconceal": 5974,
    "chariot": 26478,
    "collar": 19327,
    "Ġpreposterous": 13667,
    "Ġforged": 12700,
    "Ġexhaustion": 14959,
    "stayed": 25290,
    "Ġshipmates": 6720,
    "Ġgrow": 2860,
    "dressed": 10694,
    "Ġwarmer": 19184,
    "Ġabated": 18390,
    "Ġdard": 21421,
    "Ġsanguine": 25928,
    "chooses": 23669,
    "sembled": 7263,
    "owder": 8448,
    "nantucketer": 24974,
    "cceed": 4142,
    "Ġmalay": 24390,
    "Ġpoured": 8799,
    ",âĢĶ": 3169,
    "Ġeluded": 12918,
    "ĠĠĠĠĠĠĠĠĠĠĠĠĠ": 22561,
    "Ġendeavouring": 8035,
    "Ġsubmitted": 11868,
    "Ġidentified": 19150,
    "Ġthreatening": 16827,
    "interests": 19707,
    "related": 24010,
    "atter": 646,
    "Ġruskin": 25808,
    "ssing": 3810,
    "Ġpossess": 3203,
    "ds": 4688,
    "disappointment": 11424,
    "Ġexpatiate": 18623,
    "entiating": 3435,
    "Ġsuspecting": 14908,
    "Ġshadow": 5595,
    "osures": 22259,
    "green": 7115,
    "Ġrid": 4356,
    "ively": 1316,
    "Ġwasn": 6997,
    "Ġchinese": 14182,
    "Ġtester": 21171,
    "Ġbison": 21386,
    "bermaid": 20789,
    "Ġindepend": 3666,
    "downward": 16618,
    "<EOS>": 2,
    "Ġhooks": 14966,
    "Ġendued": 14075,
    "Ġtorment": 8673,
    "Ġsubtlety": 24780,
    "north": 14614,
    "Ġfunctional": 3049,
    "ried": 924,
    "Ġsinew": 25431,
    "slept": 17168,
    "uated": 10130,
    "asingly": 17960,
    "sure": 5522,
    "Ġameric": 3854,
    "Ġlate": 3376,
    "Ġmodes": 22210,
    "Ġbrotherhood": 23666,
    "Ġwestward": 24388,
    "Ġdun": 6673,
    "Ġunsupplied": 22041,
    "Ġrecollect": 8310,
    "althy": 8432,
    "Ġstation": 5297,
    "Ġhighness": 22772,
    "by": 1155,
    "Ġsuccessful": 9921,
    "Ù": 154,
    "ication": 992,
    "mechanically": 17298,
    "Ġsleeper": 8599,
    "Ġsought": 5010,
    "activation": 3231,
    "Ġrefreshment": 17238,
    "Ġcapacious": 19175,
    "Ġadvice": 4901,
    "Ġaccusation": 22376,
    "Ġreverber": 19868,
    "french": 9118,
    "appearance": 5333,
    "pict": 8386,
    "Ġworaciousness": 22927,
    "startled": 24941,
    "Ġpartly": 6713,
    "Ġcovariate": 2351,
    "Ġrivers": 9440,
    "ri": 390,
    "Ġflowery": 16229,
    "Ġhogshe": 20490,
    "Ġexist": 9230,
    "Ġmixed": 6974,
    "Ġhazarded": 25654,
    "Ġvigil": 9505,
    "Ġdownst": 3558,
    "Ġplay": 2626,
    "Ġhearken": 21683,
    "Ġgoodly": 22821,
    "Ġleads": 12093,
    "Ġmanual": 14196,
    "Ġexponential": 1059,
    "Ġconcepts": 4551,
    "Ġenrapt": 21937,
    "Ġprejudiced": 24809,
    "Ġnumbers": 2888,
    "apparat": 22844,
    "Ġcontinuously": 23203,
    "nant": 17608,
    "Ġfolk": 10374,
    "photograph": 16148,
    "bag": 7542,
    "Ġwhoever": 10974,
    "neck": 14233,
    "ict": 588,
    "Ġobstructed": 24677,
    "phon": 4126,
    "consid": 4924,
    "arter": 17893,
    "queness": 18146,
    "gressive": 2752,
    "Ġwarriors": 19722,
    "Ġthus": 2037,
    "diligence": 26110,
    "z": 94,
    "Ġtashtego": 4487,
    "transformers": 8714,
    "ipt": 12475,
    "Ġstripping": 23692,
    "Ġardour": 8043,
    "Ġstay": 3094,
    "spite": 16135,
    "Ġsuperlative": 26074,
    "retirement": 23137,
    "clearer": 24066,
    "Ġoper": 2120,
    "consider": 6348,
    "Ġpacked": 9978,
    "Ġaction": 5796,
    "aceti": 7111,
    "Ġinsignificance": 20456,
    "Ġmatrix": 1608,
    "Ġoutright": 18413,
    "Ġetc": 7084,
    "Ġcrackling": 24960,
    "Ġdiminish": 14744,
    "pulous": 15414,
    "Ġtipped": 17727,
    "play": 5099,
    "Ġtents": 13816,
    "Ġcalamity": 17347,
    "gam": 10094,
    "Ġhing": 11602,
    "Ġfluid": 11211,
    "Ġsinned": 18950,
    "Ġconvulsively": 25717,
    "ollen": 11297,
    "ileries": 18058,
    "Ġnetherfield": 3931,
    "Ġriver": 5411,
    "Ġbarn": 11585,
    "Ġamel": 18513,
    "houn": 20892,
    "Ġabsolutely": 4857,
    "Ġdisturb": 7107,
    "Ġhindoo": 17174,
    "seemingly": 25362,
    "lar": 4484,
    "Ġregard": 3068,
    "alf": 4638,
    "Ġswiftness": 9925,
    "aced": 2415,
    "romang": 22003,
    "short": 6566,
    "Ġ1836": 25721,
    "Ġidly": 16402,
    "Ġcentury": 8291,
    "Ġtempt": 5564,
    "Ġdismay": 11806,
    "Ġcomplying": 18585,
    "reference": 13838,
    "Ġclue": 7019,
    "bree": 15312,
    "Ġroundabout": 23060,
    "Ġalleged": 17289,
    "Ġapolog": 9042,
    "Ġinsufferable": 13929,
    "best": 6111,
    "Ġthw": 21513,
    "health": 13831,
    "Ġfusion": 21413,
    "Ġlaug": 3626,
    "Ġrocky": 13385,
    "Ġregression": 4411,
    "Ġinterests": 14567,
    "uning": 1311,
    "Ġfuture": 1106,
    "Ġilluminating": 25245,
    "Ġadjusted": 23457,
    "rifice": 12500,
    "as": 302,
    "ive": 426,
    "rative": 17651,
    "increasing": 20268,
    "Ġfrom": 434,
    "ginger": 13161,
    "Ġkins": 22192,
    "Ġcoals": 16075,
    "Ġcarried": 3692,
    "Ġbending": 12581,
    "Ġpreserving": 19795,
    "Ġnast": 15635,
    "Ġhunsford": 6301,
    "nose": 17609,
    "Ġbounce": 21391,
    "Ġtelegra": 11886,
    "Ġstup": 14003,
    "Ġalgorithm": 764,
    "Ġlig": 21546,
    "Ġgrace": 5374,
    "hammock": 16351,
    "intended": 11065,
    "onious": 15516,
    "hers": 7635,
    "bearing": 9763,
    "Ġwool": 19431,
    "isa": 17845,
    "lour": 15378,
    "Ġboldness": 24427,
    "Ġmagistrate": 8234,
    "venor": 16094,
    "orm": 425,
    "Ġspaniard": 20361,
    "Ġtranscend": 25667,
    "greater": 13249,
    "Ġadequ": 10912,
    "Ġrounds": 18885,
    "ssible": 2994,
    "Ġlighting": 13080,
    "emotions": 15791,
    "Ġseventeen": 26210,
    "Ġbask": 8117,
    "burnt": 20078,
    "Ġpoul": 15609,
    "Ġeleven": 9388,
    "fatal": 17087,
    "ring": 1753,
    "Ġbildad": 3783,
    "Ġphyseter": 26585,
    "Ġcorpora": 26579,
    "Ġoverflowed": 20261,
    "truck": 15439,
    "Ġmoth": 17802,
    "Ġworkmen": 23048,
    "Ġtresses": 21174,
    "consent": 18503,
    "gue": 12464,
    "owards": 4594,
    "mock": 5174,
    "Ġcocks": 18598,
    "Ġtransferred": 16451,
    "inctions": 17731,
    "Ġjac": 1897,
    "Ġegot": 18007,
    "Ġfairy": 14625,
    "Ġnever": 1018,
    "enthusiastic": 20691,
    "Ġaltered": 7393,
    "Ġsequential": 2131,
    "Ġabroad": 8864,
    "ography": 13360,
    "feature": 3714,
    "itating": 9649,
    "placed": 7881,
    "Ġeclipsed": 26376,
    "Ġnavigators": 19762,
    "Ġleaned": 7607,
    "Ġbount": 15564,
    "Ġhomage": 12352,
    "Ġhinting": 19648,
    "Ġdisinclination": 22534,
    "Ġterminating": 23508,
    "Ġdemoniacal": 20555,
    "Ġstil": 15714,
    "Ġdistended": 16041,
    "Ġright": 1504,
    "pequod": 7052,
    "Ġresnet": 5473,
    "tossing": 18581,
    "Ġfinancier": 26582,
    "chie": 21688,
    "visible": 10532,
    "Ġmoby": 3663,
    "bent": 15309,
    "Ġtru": 4105,
    "Ġghostly": 24650,
    "inkers": 22617,
    "Ġseething": 18201,
    "Ġremot": 8543,
    "¼": 125,
    "Ġapprehensiveness": 16876,
    "Ġdeposit": 17267,
    "Ġsmoking": 6429,
    "Ġ17": 5740,
    "chet": 13215,
    "Ġhogshead": 26367,
    "Ġperpetual": 12300,
    "finish": 24383,
    "Ġvineyards": 25106,
    "Ġpale": 4532,
    "Ġretains": 20028,
    "shunned": 22465,
    "Ġtrail": 16279,
    "Ġwhir": 6393,
    "affection": 7487,
    "Ġdemanded": 8327,
    "Ġprotectors": 9069,
    "Ġdwelling": 7322,
    "olstadt": 7789,
    "therly": 18338,
    "Ġmomentum": 1605,
    "Ġteneriffe": 26413,
    "strained": 21650,
    "Ġ6": 5141,
    "Ġindiscreet": 22954,
    "Ġcaucus": 17378,
    "cular": 15326,
    "Ġaltogether": 4831,
    "apparently": 15202,
    "amouch": 21843,
    "âĢľâĢĶ": 10871,
    "pron": 9004,
    "Ġdeadliest": 14555,
    "Ġadroit": 26000,
    "Ġ1839": 20458,
    "omy": 6249,
    "Ġclaim": 5106,
    "Ġmember": 8585,
    "mare": 17598,
    "doesn": 19819,
    "iod": 3840,
    "Ġemerged": 8684,
    "Ġstartling": 14669,
    "una": 21867,
    "Ġstood": 2553,
    "express": 4895,
    "actorily": 25576,
    "aven": 8209,
    "Ġseize": 8166,
    "Ġcared": 8781,
    "dream": 8727,
    "Ġwitnesses": 9484,
    "Ġmincing": 18750,
    "Ġgowns": 25359,
    "faint": 17544,
    "industrious": 26239,
    "nett": 16218,
    "sou": 12502,
    "Ġidleness": 11142,
    "Ġwrongfully": 24247,
    "Ġball": 3622,
    "Ġeagerly": 4990,
    "crimson": 24099,
    "Ġlimber": 16477,
    "Ġships": 3717,
    "Ġspeeches": 22660,
    "Ġinsure": 13176,
    "said": 4103,
    "bedstead": 23847,
    "tray": 21076,
    "anous": 21357,
    "Ġpeeling": 22690,
    "Ġimpressed": 8198,
    "old": 800,
    "Ġfloundered": 18861,
    "Ġagricultural": 26549,
    "Ġvide": 10249,
    ":âĢĶ": 4433,
    "Ġassisting": 13255,
    "urmountable": 15277,
    "Ġkicking": 16900,
    "Ġaccelerating": 1623,
    "Ġacquaintance": 4132,
    "Ġostlers": 25276,
    "Ġdignity": 5704,
    "Ġhumble": 8551,
    "ondon": 2705,
    "Ġafford": 4367,
    "Ġobjection": 6585,
    "Ġvibration": 17098,
    "Ġemergency": 25731,
    "oon": 6364,
    "Ġpoisonous": 24887,
    "Ġlucases": 9008,
    "iferous": 17290,
    "Ġsuper": 2152,
    "reported": 24492,
    "Ġmaintain": 855,
    "Ġstubborn": 10413,
    "Ġwaterproof": 19088,
    "Ġclass": 788,
    "Ġwandered": 6930,
    "be": 671,
    "unimportant": 18159,
    "rigible": 24931,
    "pshaw": 21027,
    "gn": 8082,
    "finds": 19926,
    "ryphon": 4163,
    "Ġchart": 10944,
    "Ġbrad": 8785,
    "gris": 8260,
    "Ġfow": 6133,
    "Ġlashed": 9197,
    "Ġif": 697,
    "shore": 10305,
    "Ġsoap": 14129,
    "Ġarom": 15490,
    "Ġwedded": 16673,
    "isticated": 1584,
    "Ġimpass": 15981,
    "Ġfirst": 937,
    "Ġtendency": 11328,
    "Ġvial": 10247,
    "Ġaccess": 9745,
    "Ġappointed": 20101,
    "whispering": 26103,
    "send": 15421,
    "Ġparaphrasing": 26525,
    "fingers": 17368,
    "sun": 7139,
    "Ġretention": 23070,
    "omed": 13977,
    "Ġsemantic": 1959,
    "Ġdine": 7366,
    "stock": 13219,
    "writes": 4988,
    "conquerable": 17397,
    "Ġfinishing": 23124,
    "Ġbloodshed": 23799,
    "Ġexasperate": 20096,
    "Ġvictims": 19803,
    "assist": 11765,
    "Ġunass": 14112,
    "Ġimportance": 4900,
    "Ġsolutions": 1948,
    "Ġfair": 2836,
    "entropy": 1438,
    "Ġkentuck": 19890,
    "reliable": 21239,
    "Ġimpet": 11776,
    "ined": 1262,
    "anations": 12572,
    "fears": 18526,
    "Ġgeorge": 3751,
    "umed": 6554,
    "let": 2732,
    "Ġaway": 1245,
    "Ġhus": 3092,
    "doublo": 24660,
    "ĠĠĠĠĠĠĠĠĠĠĠĠĠĠĠĠ": 1219,
    "Ġice": 3602,
    "Ġfanny": 23389,
    "dr": 6221,
    "Ġprecipitous": 24835,
    "Ġfacil": 16961,
    "royal": 11392,
    "utch": 21584,
    "Ġgin": 13959,
    "Ġconfident": 11137,
    "heric": 15909,
    "Ġwax": 10775,
    "Ġlaunched": 14924,
    "iscuits": 24666,
    "Ġclutch": 15052,
    "arch": 1140,
    "Ġobtruded": 20721,
    "Ġdaugh": 2291,
    "Ġmark": 2332,
    "Ġanchors": 12609,
    "Ġlaz": 7378,
    "Ġlongitude": 11010,
    "Ġoffences": 18697,
    "howling": 18990,
    "Ġvigorous": 10565,
    "union": 15766,
    "wouldn": 23532,
    "Ġivory": 4477,
    "Ġb": 281,
    "vessel": 11376,
    "nib": 5214,
    "Ġcomposedly": 25185,
    "itself": 7835,
    "Ġmocking": 24000,
    "Ġamphitheat": 26253,
    "Ġliquid": 22407,
    "prolong": 23393,
    "Ġoccupies": 24006,
    "erer": 8731,
    "Ġchivalry": 25819,
    "Ġkent": 6691,
    "Ġbeg": 1282,
    "cut": 3124,
    "Ġcoleman": 22586,
    "Ġsubaltern": 22789,
    "venty": 6427,
    "Ġmeets": 7396,
    "Ġeager": 3569,
    "Ġ184": 16606,
    "centred": 25017,
    "Ġeaster": 15671,
    "ap": 546,
    "reproof": 25432,
    "needles": 20310,
    "Ġconven": 6151,
    "Ġchancery": 20715,
    "Ġimmediately": 3365,
    "blame": 14792,
    "Ġflooring": 23623,
    "Ġbenjam": 22889,
    "Ġhimmale": 18334,
    "bbed": 6910,
    "Ġwestern": 10653,
    "Ġrenders": 13281,
    "Ġexplained": 5936,
    "Ġnasty": 17441,
    "Ġcouns": 10519,
    "Ġsh": 419,
    "Ġsnail": 19299,
    "lake": 13747,
    "Ġbirth": 6524,
    "Ġpers": 1389,
    "ingolstadt": 21302,
    "Ġhorribly": 16340,
    "Ġsalutations": 25382,
    "Ġparlour": 12318,
    "Ġwa": 1754,
    "Ġgrated": 22802,
    "Ġoverwhel": 8197,
    "Ġsprained": 15880,
    "Ġgallantry": 15101,
    "Ġassailants": 20447,
    "publ": 17637,
    "Ġbill": 4041,
    "Ġreplete": 15694,
    "Ġproceedings": 9905,
    "Ġtusks": 17252,
    "Ġundeviating": 15215,
    "six": 7141,
    "aths": 22699,
    "Ġtu": 6968,
    "astes": 11736,
    "Ġthackeray": 26454,
    "Ġstump": 7602,
    "okingly": 22388,
    "methodically": 20663,
    "upright": 23016,
    "Ġribbons": 24328,
    "pray": 5429,
    "Ġhospitality": 13511,
    "Ġcring": 15548,
    "marvell": 24171,
    "entions": 17974,
    "Ġmanners": 3792,
    "Ġbecome": 3157,
    "Ġintimacy": 8700,
    "mrs": 3747,
    "Ġpolite": 9880,
    "Ġruin": 6056,
    "Ġtattooings": 24900,
    "should": 3261,
    "Ġcarav": 18901,
    "block": 11469,
    "dug": 18462,
    "rs": 7808,
    "Ġboneless": 19604,
    "Ġbless": 4344,
    "regularly": 13206,
    "Ġobliging": 13240,
    "conceive": 16026,
    "Ġconnection": 5479,
    "requiem": 24856,
    "conceivable": 17129,
    "inev": 21977,
    "Ġsqueaking": 26274,
    "mid": 5616,
    "rom": 420,
    "droppers": 24759,
    "Ġwhence": 5839,
    "Ġreports": 19084,
    "Ġbloodshot": 23798,
    "Ġpitchpoling": 14909,
    "Ġglen": 18846,
    "Ġsignification": 19202,
    "Ġfa": 4819,
    "Ġsarat": 21226,
    "leness": 4691,
    "hammered": 19004,
    "Ġaforethought": 25428,
    "Ġcobbling": 20521,
    "Ġprem": 3424,
    "trimmed": 23946,
    "Ġreceipt": 20354,
    "Ġgardens": 16452,
    "Ġincognita": 26550,
    "lat": 9603,
    "otic": 15741,
    "Ġguineas": 16266,
    "acies": 14257,
    "Ġpre": 506,
    "Ġ74": 24260,
    "bald": 16445,
    "Ġslaugh": 18937,
    "Ġwaxed": 21296,
    "Ġbee": 21747,
    "Ġrout": 7402,
    "Ġglimmer": 15139,
    "Ġemperors": 15157,
    "thrill": 25656,
    "alley": 23021,
    "Ġgreen": 3053,
    "Ġbart": 17856,
    "Ġadd": 629,
    "umbers": 10917,
    "ding": 1232,
    "Ġrestlessness": 23290,
    "Ġhams": 16611,
    "Ġchristianity": 19860,
    "Ġcoquet": 22583,
    "Ġjoys": 13217,
    "Ġhoriz": 4726,
    "weed": 14313,
    "Ġdizzy": 21431,
    "Ġreceptacle": 23190,
    "Ġadventures": 7748,
    "waters": 11332,
    "Ġpeculiarity": 12929,
    "Ġphysiognomy": 25610,
    "Ġconfidential": 9086,
    "Ġ86": 24460,
    "ï": 176,
    "Ġimpassable": 20611,
    "places": 7880,
    "muttered": 13757,
    "Ġreinforcement": 3469,
    "ceiving": 3902,
    "terday": 4705,
    "Ġvectors": 1772,
    "Ġwhen": 514,
    "Ġembarks": 22979,
    "Ġelevating": 19727,
    "Ġhoneymoon": 25645,
    "Ġromans": 16758,
    "lacing": 17589,
    "Ġburied": 7719,
    "ents": 1896,
    "Ġsocket": 12780,
    "Ġearnestness": 12122,
    "bunger": 20400,
    "stay": 9678,
    "forever": 22517,
    "visit": 7755,
    "Ġsunday": 7270,
    "Ġoutsk": 15953,
    "flutter": 23968,
    "Ġpott": 21466,
    "Ġeng": 1159,
    "Ġcorre": 3888,
    "cket": 3685,
    "Ġspeaking": 4028,
    "Ġbedfellows": 23437,
    "Ġmund": 21317,
    "Ġforgetting": 3432,
    "successful": 11357,
    "Ġincorruption": 26309,
    "Ġdisappo": 4506,
    "foundation": 16714,
    "ropri": 2177,
    "Ġanimation": 11151,
    "Ġmountains": 4428,
    "Ġsympathetic": 17357,
    "Ġdecomposition": 5342,
    "prince": 23812,
    "cock": 12022,
    "weaving": 18666,
    "ze": 1331,
    "Ġtom": 15629,
    "Ġtokens": 1773,
    "any": 3335,
    "ened": 1387,
    ",*": 17470,
    "Ġcentre": 5123,
    "loat": 8885,
    "iogn": 20920,
    "Ġxxv": 19716,
    "Ġcombat": 16191,
    "Ġtranspired": 16783,
    "Ġears": 4491,
    "Ġpink": 12614,
    "Ġrecollections": 10511,
    "Ġsweat": 13137,
    "Ġattention": 1188,
    "Ġwilt": 9642,
    "Ġspark": 6689,
    "opement": 10310,
    "Ġdoubling": 23320,
    "Ġassist": 3563,
    "adm": 7608,
    "Ġrepublican": 17410,
    "Ġtaffrail": 15474,
    "Ġcet": 6669,
    "irksome": 18172,
    "tomb": 21092,
    "Ġlake": 5227,
    "Ġplanet": 14749,
    "rance": 5994,
    "vial": 17696,
    "Ġparty": 3507,
    "Ġtougher": 21175,
    "breckinridge": 24074,
    "sw": 4741,
    "Ġmisfortune": 5568,
    "Ġ112": 24436,
    "worm": 15451,
    "company": 9459,
    "ians": 2359,
    "ecess": 17531,
    "Ġsmote": 18575,
    "boats": 6204,
    "Ġfollowed": 1793,
    "Ġrolled": 4431,
    "Ġgeneva": 5450,
    "Ġcomplexity": 1696,
    "Ġunmo": 12769,
    "Ġpag": 6011,
    "Ġdiscomposed": 25580,
    "Ġwars": 17785,
    "Ġdominion": 16536,
    "Ġreserves": 19669,
    "windward": 24159,
    "sincere": 16906,
    "Ġxl": 11986,
    "ells": 5303,
    "Ġrefuge": 8538,
    "Ġsly": 9631,
    "Ġundertone": 23239,
    "labour": 23912,
    "Ġobservation": 6597,
    "Ġemperor": 15156,
    "Ġgur": 21590,
    "Ġunidirectional": 3423,
    "Ġmechanis": 1212,
    "Ġcub": 8414,
    "Ġthrew": 3974,
    "relig": 15510,
    "ral": 4627,
    "Ġinconvenience": 9562,
    "Ġreversed": 15693,
    "Ġfinancial": 23128,
    "lever": 2934,
    "ercial": 21273,
    "Ġretiring": 16277,
    "ä": 165,
    "Ġoutline": 15951,
    "Ġrank": 6258,
    "terogene": 21823,
    "Ġcasts": 19424,
    "Ġpassions": 7930,
    "Ġatone": 15801,
    "Ġearning": 23938,
    "Ġunguarded": 15847,
    "hint": 12472,
    "distant": 13332,
    "Ġalfred": 21784,
    "iffe": 21900,
    "Ġovertake": 15970,
    "Ġoffice": 4965,
    "Ġhollowly": 24525,
    "Ġexcused": 23314,
    "granting": 23412,
    "Ġcrumpled": 16440,
    "Ġtranslates": 12048,
    "ulsive": 10232,
    "Ġuniformity": 23482,
    "Ġwidower": 24234,
    "Ġrequisition": 22662,
    "orph": 21397,
    "hens": 3938,
    "Ġoriginated": 24122,
    "ogne": 12932,
    "Ġapparent": 5466,
    "snatched": 24850,
    "Ġbowl": 11203,
    "lab": 3453,
    "Ġjerking": 12242,
    "Ġfield": 1248,
    "Ġnieces": 8433,
    "Ġstep": 751,
    "Ġbalanced": 12986,
    "Ġeyelashes": 26106,
    "Ġguid": 2639,
    "Ġfries": 21414,
    "Ġinsp": 2101,
    "Ġapparently": 6778,
    "Ġconsecrated": 26487,
    "Ġdenote": 19332,
    "leviathans": 19936,
    "fed": 11486,
    "inence": 15479,
    "Ġconflict": 17272,
    "child": 5537,
    "barrow": 15319,
    "ti": 8390,
    "Ġmystic": 7503,
    "empt": 2619,
    "Ġestimate": 19371,
    "Ġoccupant": 16650,
    "marest": 20979,
    "ffic": 22149,
    "Ġoverwhelming": 17101,
    "hidden": 17369,
    "Ġwriggling": 15255,
    "Ġxiii": 25591,
    "Ġthereof": 22366,
    "Ġincensed": 18572,
    "Ġbash": 12582,
    "Ġattics": 22626,
    "robber": 21535,
    "Ġwatches": 11081,
    "stout": 21637,
    "Ġpooh": 18604,
    "Ġlikes": 9406,
    "Ġforty": 5719,
    "Ġelapsed": 7652,
    "Ġsnorting": 23739,
    "inguished": 6598,
    "Ġlegend": 14573,
    "Ġprovinces": 24189,
    "Ġlonged": 6436,
    "Ġlun": 7856,
    "Ġgovernment": 15174,
    "Ġexchange": 15752,
    "Ġplaned": 24053,
    "Ġwanderings": 20142,
    "flinging": 20867,
    "urned": 9304,
    "Ġthrobbing": 16897,
    "Ġautoregressive": 3429,
    "Ġlakeman": 6986,
    "ization": 489,
    "Ġseasons": 9429,
    "confined": 24331,
    "Ġlou": 6822,
    "denial": 18716,
    "Ġseal": 10253,
    "wooden": 24588,
    "Ġdrawer": 13263,
    "Ġremark": 2145,
    "Ġcongratulations": 10579,
    "racts": 14359,
    "wind": 4255,
    "Ġswe": 2288,
    "altern": 17941,
    "Ġcatastrop": 3345,
    "size": 15423,
    "Ġanticipated": 13509,
    "Ġsharp": 2413,
    "Ġmists": 14628,
    "Ġhinted": 6012,
    "Ġring": 4453,
    "Ġpersisting": 18894,
    "Ġnative": 4640,
    "gorge": 22335,
    "Ġhuff": 21488,
    "Ġscreening": 25300,
    "Ġdodo": 9071,
    "Ġfiss": 21411,
    "Ġobstetrics": 24678,
    "anxious": 15107,
    "ifled": 14061,
    "Ġpredefined": 20716,
    "Ġdelivered": 11115,
    "Ġsincer": 13062,
    "Ġestab": 6315,
    "Ġfastidious": 14491,
    "castle": 3348,
    "abound": 15736,
    "Ġunprovided": 18260,
    "Ġinasmuch": 10824,
    "Ġrush": 5925,
    "Ġquivers": 22411,
    "Ġovertaken": 18430,
    "Ġunmanufactured": 20432,
    "visits": 24222,
    "Ġcistern": 17379,
    "Ġprayed": 16666,
    "rather": 5430,
    "atched": 6375,
    "Ġtendinous": 16930,
    "conducted": 25572,
    "Ġmagnus": 18956,
    "superstitious": 17279,
    "swallow": 24256,
    "Ġstepfather": 7221,
    "Ġdoxology": 22242,
    "bread": 10683,
    "Ġimmediate": 6090,
    "Ġhumans": 8928,
    "furthermore": 20002,
    "shiver": 16024,
    "moral": 14800,
    "Ġband": 5290,
    "Ġduodecimo": 16766,
    "rise": 6226,
    "Ġcem": 17823,
    "Ġwind": 1432,
    "Ġnaked": 8127,
    "Ġturner": 7049,
    "Ġteased": 18790,
    "alling": 6037,
    "girdling": 26388,
    "Ġdut": 2989,
    "Ġprevent": 759,
    "Ġlinn": 13951,
    "Ġhark": 8428,
    "Ġblades": 11892,
    "also": 7851,
    "U": 57,
    "Ġbon": 8784,
    "ross": 808,
    "ampl": 21840,
    "K": 47,
    "carried": 16711,
    "Ġswaths": 23057,
    "wondered": 17028,
    "Ġadmirers": 19685,
    "Ġtrue": 1339,
    "Ġabhorrence": 9051,
    "Ġinserting": 19905,
    "Ġground": 2846,
    "Ġtablets": 13153,
    "receive": 12538,
    "Ġhouse": 1501,
    "Ġconcerning": 4069,
    "meet": 11853,
    "ishe": 13889,
    "Ġscent": 10283,
    "Ġwarmed": 12020,
    "Ġanchor": 7368,
    "Ġfeet": 2256,
    "Ġsunwards": 19011,
    "sides": 12504,
    "Ġfo": 1655,
    "Ġreplen": 11113,
    "Ġbare": 6132,
    "Ġwarehouses": 20416,
    "Ġglory": 6065,
    "Ġmiddle": 4137,
    "Ġcompanionship": 14918,
    "Ġpier": 7162,
    "Ġtempestuous": 20069,
    "ugn": 9376,
    "Ġcolossal": 11458,
    "Ġapprobation": 10983,
    "Ġpecks": 18669,
    "Ġmic": 17797,
    "Ġdeveloped": 16338,
    "Ġunavailing": 26215,
    "Ġpleasurable": 23339,
    "Ġtheoretic": 23312,
    "ĠĠĠĠĠĠĠĠĠĠĠĠĠĠĠĠĠĠĠĠĠĠĠĠĠĠĠĠĠĠĠĠĠĠĠĠĠĠĠĠĠ": 19581,
    "Ġstrictest": 17041,
    "Ġboarded": 13231,
    "Ġshirt": 8847,
    "Ġconsequence": 5541,
    "Ġimprove": 1803,
    "Ġunscrew": 22038,
    "Ġheroism": 24543,
    "sprinkling": 24912,
    "Ġschedule": 2371,
    "fol": 4862,
    "Ġswimming": 5507,
    "Ġglued": 20587,
    "mir": 20962,
    "paying": 25411,
    "Ġstream": 5186,
    "Ġdashing": 8794,
    "Ġoil": 3372,
    "Ġclouds": 5775,
    "Ġeyford": 10640,
    "Ġloitered": 26524,
    "Ġrewarded": 14938,
    "Ġmagn": 1554,
    "Ġunreasoning": 15842,
    "Ġhump": 5853,
    "currents": 23842,
    "Ġocc": 887,
    "why": 2828,
    "Ġmoles": 22430,
    "sets": 17659,
    "Ġcircumstance": 4987,
    "Ġdaily": 5987,
    "Ġperturbed": 20438,
    "Ġdiary": 24739,
    "Ġquicker": 16506,
    "aze": 10073,
    "clouded": 20330,
    "between": 5071,
    "Ġcompletion": 12144,
    "elling": 5830,
    "salis": 25147,
    "Ġvexatious": 19780,
    "sect": 8153,
    "Ġundertaken": 18987,
    "turns": 14904,
    "bal": 2154,
    "Ġedged": 23435,
    "Ġundulating": 19516,
    "se": 358,
    "Ġbrist": 14376,
    "ĠâĢĶ_": 3455,
    "unwittingly": 25801,
    "ĠĠĠĠĠĠĠĠĠĠĠĠ": 12899,
    "Ġadoption": 24948,
    "Ġ1869": 19382,
    "lifeless": 24311,
    "Ġsurrounding": 12159,
    "Ġshad": 3850,
    "angel": 5726,
    "upt": 13796,
    "food": 12460,
    "Ġcreations": 18683,
    "Ġimpud": 18443,
    "Ġcausing": 16355,
    "Ġkills": 15903,
    "Ġchilly": 25562,
    "Ġsung": 23271,
    "doubtful": 24791,
    "Ġguardian": 14940,
    "ian": 1238,
    "Ġattack": 5478,
    "gathered": 13730,
    "iard": 9600,
    "Ġactive": 7916,
    "Ġpunctures": 25133,
    "Ġexpands": 25237,
    "extinguished": 16149,
    "Ġmysteriously": 24602,
    "Ġneed": 2608,
    "Ġdiscovered": 4414,
    "`": 68,
    "warnings": 20350,
    "iger": 8446,
    "scruple": 26044,
    "itying": 21992,
    "Ġarrang": 2470,
    "honour": 13465,
    "Ġshutters": 9935,
    "Ġactions": 6278,
    "Ġepistle": 24904,
    "Ġentreaties": 9034,
    "Ġapproximate": 2343,
    "Ġpreserved": 9260,
    "Ġscho": 4437,
    "column": 19328,
    "Ġinside": 5448,
    "Ġprocedures": 9410,
    "edged": 15627,
    "Ġfol": 1287,
    "eminence": 20097,
    "Ġbone": 4695,
    "Ġsperm": 1844,
    "Ġtroubled": 6614,
    "Ġdeposed": 16084,
    "....": 11315,
    "feed": 9291,
    "Ġtailed": 21167,
    "Ġharpooneer": 3774,
    "Ġstuff": 5717,
    "masters": 16833,
    "certain": 3674,
    "Ġfilial": 16619,
    "Ġcontinues": 18809,
    "Ġjury": 5378,
    "Ġdarkness": 4280,
    "herds": 22204,
    "Ġfacetious": 20582,
    "Ġdep": 745,
    "abil": 2007,
    "rences": 9270,
    "immediately": 10047,
    "loaded": 22509,
    "Ġattentive": 9032,
    "terms": 15747,
    "Ġmantle": 25274,
    "coward": 13698,
    "Ġlanguor": 12844,
    "Ġclattering": 22353,
    "Ġplunder": 22600,
    "sweeping": 24619,
    "ues": 2080,
    "mine": 5617,
    "yp": 1046,
    "Ġappellation": 22216,
    "Ġomn": 8410,
    "Ġclose": 3038,
    "bub": 15314,
    "tottenham": 25418,
    "Ġmarshalled": 25315,
    "quickly": 14960,
    "det": 5207,
    "Ġcetology": 10007,
    "Ġpreacher": 18369,
    "Ġfootsteps": 16571,
    "Ġaggreg": 12879,
    "Ġcogn": 11002,
    "ability": 716,
    "licted": 20955,
    "Ġble": 5223,
    "Ġconfound": 23305,
    "Ġslavish": 23171,
    "ruined": 18337,
    "Ġfires": 16470,
    "ancial": 21360,
    "Ġinboard": 17932,
    "Ġrequirements": 9794,
    "ther": 480,
    "Ġtrough": 15967,
    "Ġje": 4122,
    "Ġapples": 22212,
    "powers": 25410,
    "Ġinexorable": 12252,
    "Ġdrugged": 12598,
    "produ": 10719,
    "fearfully": 25116,
    "haut": 20901,
    "Ġlurch": 21553,
    "Ġ4": 3987,
    "Ġdre": 1744,
    "barrels": 15040,
    "Ġ1820": 25718,
    "surgeon": 24213,
    "tes": 11527,
    "pervised": 1616,
    "called": 6292,
    "Ġleeward": 6210,
    "||": 4869,
    "according": 12024,
    "ucket": 2484,
    "Ġbuilt": 8301,
    "king": 3060,
    "Ġshoot": 11160,
    "Ġfulfilled": 11361,
    "utes": 5914,
    "Ġtens": 17722,
    "Ġfisheries": 17436,
    "msman": 9268,
    "Ġimages": 1603,
    "Ġsetbacks": 11062,
    "allowance": 16823,
    "Ġ82": 24457,
    "Ġrazor": 22649,
    "Ġjew": 9466,
    "commodore": 20624,
    "Ġmaps": 2965,
    "Ġ0": 1902,
    "Ġjabez": 11763,
    "fr": 4804,
    "les": 1016,
    "Ġbreath": 4791,
    "Ġmeditate": 16681,
    "Ġcolon": 18764,
    "Ġthough": 989,
    "Ġweal": 21917,
    "Ġaugmentation": 20114,
    "Ġwavering": 23278,
    "Ġcharge": 5324,
    "tubes": 25211,
    "Ġsubmission": 22788,
    "Ġmeryton": 4439,
    "Ġspake": 18308,
    "alterable": 13622,
    "have": 2058,
    "Ġenticements": 26034,
    "attacked": 23119,
    "Ġenter": 4031,
    "drove": 16992,
    "Ġconsumm": 15152,
    "Ġdictated": 25218,
    "Ġimpelling": 22382,
    "tail": 8761,
    "colonel": 8285,
    "Ġdemonstrate": 24996,
    "greg": 6647,
    "moid": 2451,
    "Ġverte": 9439,
    "Ġwisdom": 11232,
    "dar": 20823,
    "Ġstrength": 4262,
    "Ġinitialized": 3949,
    "Ġtent": 15465,
    "Ġpersian": 11092,
    "inked": 12909,
    "rifle": 21045,
    "ume": 4835,
    "ribut": 814,
    "comfort": 5647,
    "errand": 22906,
    "Ġdishonor": 25601,
    "urous": 10211,
    "sculpt": 16242,
    "Ġoctober": 17225,
    "law": 6115,
    "Ġinvade": 19142,
    "Ġacutely": 14312,
    "achable": 14136,
    "stove": 21644,
    "Ġma": 3252,
    "gest": 5426,
    "Ġsatiated": 22900,
    "ourage": 2452,
    "Ġlassitude": 20585,
    "Ġmessages": 24983,
    "Ġturing": 7566,
    "convalescence": 24884,
    "Ġreynolds": 10208,
    "zers": 21145,
    "Ġlarger": 1401,
    "?âĢĶ": 3464,
    "dem": 10690,
    "Ġmau": 21309,
    "Ġcuriosities": 26289,
    "Ġreadily": 5253,
    "Ġquoin": 22416,
    "Ġwithdrawn": 10605,
    "asy": 5294,
    "Ġrinal": 21975,
    "Ġslappin": 18942,
    "Ġcoloss": 11045,
    "absolute": 17121,
    "allow": 5104,
    "rowed": 22856,
    "eneva": 5118,
    "Ġloosened": 26002,
    "Ġmarlings": 23033,
    "Ġcontroverted": 23251,
    "Ġsedentary": 25430,
    "Ġcowards": 12569,
    "Ġpolice": 4674,
    "Ġentire": 2561,
    "likely": 9021,
    "Ġorchard": 22092,
    "inferiors": 25346,
    "Ġsequel": 14354,
    "Ġswear": 6461,
    "Ġprefer": 6416,
    "irations": 18170,
    "ir": 379,
    "Ġglaring": 11906,
    "Ġpen": 1531,
    "engine": 18926,
    "Ġexcuse": 5861,
    "Ġdeclining": 23961,
    "Ġthoughtfully": 12976,
    "lads": 20954,
    "isted": 3297,
    "Ġintentions": 10606,
    "Ġhorsham": 10405,
    "_,âĢĻâĢĿ": 20399,
    "poling": 12216,
    "Ġnights": 7258,
    "hound": 20894,
    "Ġforfeit": 21773,
    "rine": 21036,
    "Ġconsent": 5372,
    "Ġalps": 10869,
    "Ġdimension": 3240,
    "Ġbrass": 11047,
    "Ġfavourite": 5270,
    "Ġbaron": 19333,
    "Ġchim": 5933,
    "Ġquivered": 18467,
    "Ġcastle": 14715,
    "Ġenchanted": 9079,
    "Ġnew": 1196,
    "Ġcocoa": 25482,
    "Ġstake": 14001,
    "Ġimpaling": 22380,
    "racting": 10353,
    "scrape": 25698,
    "Ġjung": 12832,
    "warrior": 24798,
    "Ġdistrusting": 25053,
    "Ġpore": 21456,
    "Ġundiscernible": 22066,
    "Ġnailing": 21525,
    "dischar": 19151,
    "Ġindign": 6173,
    "Ġauger": 21202,
    "hurry": 24763,
    "meas": 7434,
    "gings": 7549,
    "Ġcounsell": 25384,
    "alleled": 14427,
    "Ġimmured": 24070,
    "succeeded": 15173,
    "(": 12,
    "Ġexpense": 7651,
    "Ġentries": 22745,
    "Ġsil": 1796,
    "Ġresounded": 22542,
    "Ġknocked": 9498,
    "Ġuncivil": 11154,
    "Ġbuoy": 8004,
    "minded": 9036,
    "jud": 4482,
    "Ġdru": 8422,
    "Ġgrammatical": 13537,
    "emptied": 23635,
    "Ġunstructure": 2996,
    "Ġpleated": 16294,
    "Ġgoverness": 8601,
    "Ġmoccas": 22432,
    "Ġheaps": 11640,
    "trick": 19411,
    "Ġhierarchical": 1928,
    "epend": 3312,
    "Ġrealise": 16334,
    "ential": 827,
    "Ġsurmised": 24919,
    "slack": 16893,
    "Ġmurmur": 14588,
    "Ġclergy": 7642,
    "tranqu": 14704,
    "Ġprosecuted": 25293,
    "leagues": 21371,
    "Ġauthorities": 11263,
    "Ġshipwrecked": 25687,
    "Ġunsav": 18251,
    "Ġsurpl": 19132,
    "sho": 6425,
    "rog": 15636,
    "machines": 8385,
    "Ġleadenhall": 16627,
    "akin": 11764,
    "Ġmurderous": 8316,
    "wolf": 26408,
    "Ġrecommence": 16811,
    "arr": 3046,
    "Ġlatterly": 24084,
    "Ġprecipice": 19939,
    "Ġgreenwich": 19320,
    "Ġpiratical": 24801,
    "Ġbeque": 18080,
    "kish": 20933,
    "Ġgul": 7860,
    "Ġcattle": 12568,
    "Ġimproves": 22742,
    "Ġwarped": 25035,
    "Ġconcert": 11964,
    "ouses": 5163,
    "Ġdistributed": 18661,
    "Ġbeneath": 3237,
    "iver": 2049,
    "Ġdiscrete": 2477,
    "hair": 9121,
    "Åĵ": 10743,
    "Ġyelling": 18096,
    "eds": 6674,
    "Ġalacrity": 15733,
    "Ġgenerate": 1529,
    "Ġdisliked": 12887,
    "Ġprison": 5403,
    "Ġforbid": 7866,
    "Ġthrusts": 24349,
    "Ġpemberley": 4588,
    "Ġsequences": 1752,
    "Ġlays": 15986,
    "asion": 5714,
    "Ġfrolic": 23921,
    "Ġphilosophy": 7103,
    "nect": 665,
    "Ġoscillations": 2899,
    "Ġyarn": 10867,
    "plague": 21957,
    "Ġpetty": 19594,
    "Ġgrapes": 15213,
    "Ġjoy": 3183,
    "agatha": 21906,
    "Ġcra": 2333,
    "fect": 2298,
    "Ġscraped": 16902,
    "ass": 538,
    "Ġumbrell": 13648,
    "Ġcomfor": 14052,
    "Ġtra": 1384,
    "consp": 18504,
    "human": 7088,
    "Ġaloud": 6252,
    "Ġtorrent": 17091,
    "familiar": 19782,
    "Ġdestroyed": 5271,
    "dawson": 26128,
    "Ġnoting": 18221,
    "Ġinheritance": 25355,
    "Ġwatching": 4854,
    "Ġmaintaining": 1507,
    "Ġnoon": 6559,
    "Ġrefine": 2844,
    "neg": 12861,
    "Ġmen": 1433,
    "Ġspinal": 12299,
    "Ġward": 10154,
    "Ġglimpses": 13430,
    "odecimo": 11443,
    "Ġdear": 1538,
    "Ġpudding": 17913,
    "Ġestablished": 9068,
    "Ġconscious": 7744,
    "Ġdeceiving": 21835,
    "Ġcreated": 2706,
    "capital": 15086,
    "ingham": 21299,
    "wrinkled": 16553,
    "decl": 8855,
    "Ġankles": 17899,
    "respect": 6374,
    "Ġaust": 4871,
    "Ġrome": 12152,
    "Ġriggers": 24155,
    "Ġoverlook": 10960,
    "Ġpope": 11599,
    "Ġspecimens": 18852,
    "Ġindustry": 18837,
    "gments": 12466,
    "Ġunseen": 3521,
    "Ġfundament": 2929,
    "Ġbanners": 24858,
    "Ġmitt": 21306,
    "etian": 13957,
    "ruded": 15894,
    "histicated": 20900,
    "cast": 2930,
    "abern": 21787,
    "Ġcripple": 11439,
    "Ġwitnessing": 19597,
    "Ġmanhandle": 22327,
    "Ġrepining": 23359,
    "Ġunrecorded": 17466,
    "Ġwildest": 16508,
    "Ġdeliber": 7268,
    "Ġhyperborean": 26339,
    "ineer": 11698,
    "Ġreminds": 13429,
    "Ġallures": 22006,
    "vicinity": 20478,
    "Ġprouder": 18974,
    "Ġmarrying": 6177,
    "Ġlabels": 3286,
    "throwing": 11700,
    "banked": 25337,
    "Ġing": 5283,
    "Ġgibraltar": 25787,
    "Ġdevious": 22719,
    "emph": 21924,
    "Ġconverts": 2804,
    "Ġentertained": 9996,
    "brated": 12023,
    "Ġhoars": 19075,
    "Ġattached": 5392,
    "Ġstops": 3165,
    "olog": 1072,
    "Ġchoice": 2163,
    "problem": 25244,
    "Ġactual": 3740,
    "Ġgait": 13328,
    "flagged": 23969,
    "Ġfert": 15578,
    "Ġstumped": 24942,
    "Ġpenetration": 19916,
    "Ġruinous": 24634,
    "Ġphenomenon": 17914,
    "Ġflies": 13021,
    "opposing": 24825,
    "was": 1421,
    "Ġscreams": 24604,
    "Ġabrupt": 9734,
    "Ġhours": 2819,
    "Ġmajest": 24059,
    "Ġcapacity": 10439,
    "entimes": 12652,
    "Ġhumorously": 18778,
    "Ġdug": 21429,
    "Ġbravery": 23834,
    "Ġassertions": 19945,
    "Ġvult": 12748,
    "Ġinn": 4590,
    "recogn": 13423,
    "Ġagents": 9764,
    "Ġtracing": 18889,
    "Ġstubbornness": 25380,
    "Ġpaused": 5416,
    "Ġevenings": 18753,
    "Ġplanisphere": 26606,
    "Ġunprinciple": 18254,
    "Ġmule": 13860,
    "Ġpalsy": 25778,
    "Ġportra": 9007,
    "eth": 619,
    "Ġevents": 4473,
    "awk": 23112,
    "Ġsiber": 17754,
    "Ġnautical": 17384,
    "Ġnetworks": 600,
    "Ġcontingency": 26244,
    "ping": 9614,
    "power": 7136,
    "Ġanat": 8124,
    "Ġanxious": 4518,
    "Ġseeming": 8540,
    "rossed": 11012,
    "Ġresembling": 4097,
    "Ġgranite": 22806,
    "Ġpython": 1069,
    "dripping": 16904,
    "Ġincluded": 8929,
    "Ġheart": 1595,
    "Ġhertfordshire": 5377,
    "enit": 17778,
    "oped": 6047,
    "--âĢĺ": 22846,
    "Ġbecomes": 6396,
    "omeness": 18022,
    "Ġstepdaughter": 22610,
    "Ġbumps": 21390,
    "Ġfrankly": 16744,
    "possibility": 13359,
    "contact": 23726,
    "rubber": 12805,
    "fins": 13717,
    "Ġsplinter": 23745,
    "mortal": 10111,
    "Ġdisclosed": 15151,
    "coun": 10685,
    "glorious": 19365,
    "Ġincites": 22550,
    "bye": 5950,
    "Ġpikes": 21476,
    "don": 3542,
    "Ġsepulchral": 25892,
    "burst": 10536,
    "structure": 2320,
    "Ġtossing": 8126,
    "Ġaloft": 4305,
    "Ġstrand": 11825,
    "Ġcomputations": 16001,
    "inary": 3273,
    "Ġnearing": 15795,
    "Ġdeafened": 25651,
    "france": 24281,
    "Ġbrother": 2747,
    "stir": 12668,
    "Ġprevents": 2559,
    "build": 12184,
    "Ġdisplay": 6428,
    "Ġsill": 10764,
    "particularly": 8340,
    "nut": 12491,
    "Ġeasy": 3449,
    "helped": 18923,
    "liest": 6294,
    "remembrance": 25702,
    "blue": 13691,
    "Ġscalding": 16323,
    "generosity": 23785,
    "Ġrewarding": 13435,
    "Ġbears": 6829,
    "Ġbecher": 18879,
    "Ġdetail": 633,
    "Ġgorgeous": 20465,
    "Ġcollecting": 12283,
    "Ġsurrounded": 5879,
    "Ġshaped": 15831,
    "aurus": 20559,
    "Ġphilosoph": 19650,
    "oubled": 23644,
    "Ġdra": 1592,
    "Ġstructure": 830,
    "gentlemanlike": 20000,
    "Ġsomewhere": 5384,
    "Ġpropag": 16345,
    "Ġvow": 10245,
    "jonah": 11495,
    "Ġcent": 3253,
    "attracted": 13047,
    "Ġminor": 12964,
    "Ġcreativity": 3013,
    "Ġimputed": 12802,
    "Ġchasing": 11751,
    "eh": 13708,
    "Ġhumiliating": 22882,
    "Ġseclusion": 18206,
    "overhearing": 19054,
    "urance": 10856,
    "Ġmaritime": 23035,
    "ampling": 12722,
    "Ġseren": 7401,
    "tackle": 17319,
    "Ġacquit": 18897,
    "Ġdiscomposure": 20377,
    "Ġthrills": 24541,
    "Ġresc": 4507,
    "achment": 5464,
    "uzz": 4524,
    "repid": 11563,
    "Ġgulf": 10634,
    "onial": 11565,
    "Ġdiscourse": 9796,
    "ental": 7168,
    "Ġwave": 7575,
    "itty": 3553,
    "Ġwrap": 24595,
    "gre": 5788,
    "Ġshutter": 16669,
    "Ġtinted": 13820,
    "95": 17476,
    "calm": 8933,
    "Ġsum": 2699,
    "forgotten": 12413,
    "ipelag": 12835,
    "fil": 12459,
    "Ġneedles": 11183,
    "credit": 12445,
    "reflected": 24733,
    "Ġfascinated": 25635,
    "attendants": 25495,
    "Ġdad": 12596,
    "Ġunaccount": 22025,
    "Ġdetached": 10278,
    "Ġcommit": 18655,
    "Ġgrego": 18962,
    "Ġeveryone": 8916,
    "dece": 11730,
    "room": 2176,
    "!âĢĶâĢĻ": 23563,
    "orand": 21395,
    "Ġaristocratic": 20510,
    "still": 4221,
    "Ġdebated": 9039,
    "arising": 17895,
    "**": 4686,
    "Ġten": 2385,
    "$": 8,
    "Ġconsecut": 18111,
    "Ġsupp": 1267,
    "icient": 784,
    "Ġhypothe": 4074,
    "este": 15916,
    "Ġbusier": 23337,
    "Ġenthusiasm": 8065,
    "Ġcredit": 4818,
    "Ġpassing": 4317,
    "gallery": 24693,
    "Ġxxxiv": 24969,
    "awake": 14450,
    "yden": 21142,
    "Ġheartless": 13070,
    "Ġsolitude": 6876,
    "horizon": 23614,
    "Ġsunbeam": 23274,
    "sher": 5217,
    "Ġvaluable": 5607,
    "Ġfeelingly": 22992,
    "Ġdefilements": 26284,
    "Ġdiverged": 23593,
    "Ġdisposed": 7083,
    "Ġvoyage": 3055,
    "Ġkinds": 14502,
    "Ġworship": 10365,
    "ĠâĢĻ": 3044,
    "Ġprognost": 15279,
    "hatchway": 25904,
    "Ġfringed": 17271,
    "Ġgild": 15665,
    "Ġgazed": 6478,
    "Ġskylight": 24071,
    "Ġinvited": 6903,
    "Ġexterior": 19986,
    "Ġgar": 10837,
    "Ġcollege": 11423,
    "Ġimpulses": 19960,
    "heeded": 13832,
    "Ġproportional": 2527,
    "Ġbalmoral": 16205,
    "no": 878,
    "storm": 9679,
    "Ġxliv": 23407,
    "rooms": 10431,
    "Ġoutlined": 22318,
    "Ġpresumed": 10543,
    "Ġverbal": 19377,
    "Ġwrecks": 16817,
    "--": 1042,
    "difficult": 10056,
    "Ġvigorously": 11298,
    "Ġpickle": 16721,
    "expose": 23660,
    "dling": 9110,
    "%": 9,
    "unavoid": 14060,
    "Ġcongratulated": 19765,
    "Ġoperation": 11995,
    "Ġmakes": 3650,
    "Ġgurgling": 17444,
    "isk": 9166,
    "Ġdecreasing": 2445,
    "Ġindecision": 25781,
    "Ġwe": 386,
    "Ġmurdering": 14809,
    "Ġprevail": 13440,
    "Ġcrusad": 23702,
    "adequate": 15201,
    "Ġmix": 7576,
    "subjects": 19875,
    "Ġsalary": 13291,
    "hering": 12810,
    "Ġlimits": 3450,
    "family": 7324,
    "Ġhesitation": 13439,
    "easily": 17533,
    "Ġalleg": 14015,
    "nourished": 26397,
    "Ġpretence": 13205,
    "imely": 13996,
    "Ġbu": 3680,
    "irect": 5552,
    "Ġsay": 931,
    "aration": 12603,
    "score": 18850,
    "Ġnations": 8808,
    "gentlemen": 9502,
    "eches": 8078,
    "Ġmarshy": 20217,
    "plexion": 14262,
    "attered": 4020,
    "idated": 11659,
    "ratches": 20123,
    "Ġyojo": 7610,
    "Ġph": 1547,
    "fl": 3598,
    "Ġdefine": 9813,
    "Ġstrangled": 24133,
    "Ġdais": 24371,
    "Ġstared": 8454,
    "pay": 10717,
    "Ġunimpe": 22070,
    "Ġopenness": 18955,
    "Ġboughs": 20487,
    "Ġassembl": 20059,
    "ceived": 1966,
    "Ġturkey": 19218,
    "Ġbrace": 11210,
    "innocence": 15181,
    "Ġdiligent": 25075,
    "5": 25,
    "lighter": 20958,
    "Ġignor": 4014,
    "tuning": 1580,
    "Ġmizzen": 20288,
    "singular": 12185,
    "Ġnight": 1465,
    "Ġlikely": 3596,
    "dwelling": 20563,
    "aly": 1137,
    "Ġgraphs": 25463,
    "ut": 308,
    "Ġar": 481,
    "Ġbashee": 19848,
    "Ġcaroline": 7255,
    "Ġcertainty": 6734,
    "cong": 10686,
    "intervals": 10636,
    "Ġeccentric": 13647,
    "ounix": 14160,
    "Ġresults": 7308,
    "accomp": 10454,
    "smitten": 23906,
    "Ġblanched": 26282,
    "Ġbrit": 6289,
    "Ġtrifling": 10601,
    "alogies": 25158,
    "stays": 15684,
    "Ġack": 5621,
    "Ġarrival": 4731,
    "Ġgrop": 12660,
    "eluded": 21573,
    "Ġnational": 13940,
    "take": 4576,
    "mists": 17604,
    "sitting": 8387,
    "Ġgoat": 16003,
    "Ġunfathom": 14787,
    "Ġmors": 17801,
    "Ġacquainted": 5179,
    "Ġstands": 5258,
    "Ġrole": 15992,
    "thes": 7391,
    "corners": 17366,
    "Ġ150": 22825,
    "sax": 21055,
    "hawks": 24694,
    "Ġmissing": 6175,
    "toller": 20671,
    "vengeance": 13354,
    "Ġratio": 5066,
    "Ġperceptible": 18451,
    "came": 4570,
    "Ġhud": 10821,
    "Ġresolves": 23646,
    "Ġcut": 2642,
    "Ġarrayed": 25664,
    "Ġchanged": 5243,
    "roots": 15639,
    "Ġbeaks": 21753,
    "Ġalmanac": 26484,
    "sp": 894,
    "circumstances": 8047,
    "Ġflatt": 16245,
    "Ġseaport": 20598,
    "Ġcabman": 14604,
    "Ġmorals": 22970,
    "Ġcakes": 13882,
    "loud": 11499,
    "Ġpropriety": 10008,
    "Ġphaeton": 17463,
    "Ġdevices": 2943,
    "Ġlook": 880,
    "Ġpondering": 17004,
    "ondescript": 22913,
    "Ġstreat": 15717,
    "shake": 22455,
    "Ġduring": 872,
    "standers": 18480,
    "Ġclaret": 22352,
    "Ġoverwhelm": 25052,
    "Ġcataract": 23426,
    "Ġflush": 14422,
    "Ġslate": 11935,
    "Ġ1846": 26084,
    "Ġcalculated": 4476,
    "length": 7134,
    "alid": 13933,
    "hetically": 21207,
    "Ġdan": 8791,
    "Ġinspection": 14543,
    "Ġbridle": 24681,
    "Ġactiv": 834,
    "carb": 20809,
    "Ġgest": 8134,
    "Ġgrat": 4057,
    "acca": 23596,
    "00": 1613,
    "developed": 15262,
    "investigations": 25533,
    "Ġwhilst": 9217,
    "Ġjuggling": 20437,
    "Ġottoman": 17376,
    "Ġst": 332,
    "Ġconscience": 6929,
    "Ġsweetest": 13244,
    "Ġtul": 21158,
    "Ġunimag": 12771,
    "Ġishmael": 7395,
    "Ġwore": 6377,
    "Ġcarries": 7674,
    "Ġmccauley": 26425,
    "Ġyellowish": 24429,
    "Ġclumsy": 9578,
    "pper": 3209,
    "Ġasi": 12728,
    "Ġunjustifiable": 25109,
    "Ġbackwards": 12921,
    "attachment": 13048,
    "Ġheedful": 19739,
    "Ġincredulity": 11310,
    "stopping": 19348,
    "Ġshovel": 23489,
    "Ġfamed": 16324,
    "Ġlose": 5028,
    "ino": 15477,
    "Ġcatastrophic": 3540,
    "Ġstirring": 10578,
    "suspect": 9538,
    "Ġbelief": 5855,
    "spread": 8389,
    "Ġporpoises": 13380,
    "leaning": 10789,
    "Ġmer": 2932,
    "Ġconstantinople": 19836,
    "Ġact": 691,
    "Ġoccur": 1081,
    "Ġdrowsiness": 26444,
    "ounced": 4954,
    "tawny": 26403,
    "Ġhulls": 13924,
    "permission": 15900,
    "Ġprizes": 13071,
    "emy": 14071,
    "Ġmentioning": 9897,
    "Ġfulfilment": 20186,
    "generations": 23784,
    "young": 7321,
    "estab": 14169,
    "Ġvice": 6548,
    "Ġdoom": 6417,
    "Ġcubic": 20086,
    "uy": 21098,
    "Ġnav": 5818,
    "ours": 3425,
    "Ġextinguish": 14335,
    "Ġpeople": 2546,
    "gener": 3126,
    "Ġurgent": 16866,
    "determined": 9078,
    "Ġtang": 13812,
    "unsuitable": 21891,
    "za": 13808,
    "yourselves": 24958,
    "Ġluxury": 20130,
    "Ġterrors": 6918,
    "sit": 13778,
    "Ġminimax": 5857,
    "Ġpoltro": 23618,
    "swam": 24253,
    "Ġ34": 16676,
    "susceptible": 24661,
    "perils": 22185,
    "ann": 5802,
    "Ġhyena": 24518,
    "Ġenumerating": 15242,
    "Ġintended": 5547,
    "Ġcynicism": 25771,
    "Ġvolcano": 24146,
    "blocks": 25517,
    "Ġfeared": 5931,
    "Ġphysiognomically": 25612,
    "iquette": 26132,
    "Ġbrushed": 15567,
    "Ġunimaginable": 15244,
    "ored": 3895,
    "arking": 16122,
    "Ġmult": 1021,
    "plied": 10254,
    "Ġclues": 18422,
    "Ġmeasured": 9802,
    "secondly": 16983,
    "Ġillust": 8263,
    "Ġbelieved": 4369,
    "Ġpron": 6451,
    "il": 329,
    "Ġfore": 2151,
    "Ġgout": 21594,
    "black": 6768,
    "igators": 18045,
    "Ġcorrected": 10447,
    "obscure": 23096,
    "Ġformed": 3884,
    "Ġknots": 15007,
    "berwell": 22717,
    "Ġplow": 21457,
    "Ġboon": 22635,
    "sick": 13782,
    "efficient": 2871,
    "Ġbond": 21382,
    "Ġconsequ": 6254,
    "Ġdiffusion": 23780,
    "side": 2299,
    "completed": 19992,
    "Ġnourishment": 15190,
    "atives": 2234,
    "Ġenchantment": 24869,
    "Ġempire": 11143,
    "Ġimp": 574,
    "Ġnimble": 21526,
    "Ġhopeful": 19028,
    "growing": 13731,
    "Ġmetrics": 19079,
    "Ġpanthe": 19652,
    "Ġmerry": 5868,
    "cat": 15322,
    "Ġgarb": 21601,
    "Ġsymb": 2592,
    "Ġconvalescence": 23744,
    "says": 13297,
    "Ġdishon": 12227,
    "================": 3726,
    "evade": 24820,
    "Ġintelligences": 12826,
    "wholly": 10940,
    "interest": 5421,
    "regiment": 16450,
    "Ġpriv": 4183,
    "darcy": 5208,
    "Ġcreating": 2998,
    "Ġlevelled": 11283,
    "instances": 13317,
    "Ġfiddle": 25444,
    "breaking": 14763,
    "count": 4215,
    "Ġcommon": 1411,
    "Ġskilful": 25836,
    "Ġtax": 13814,
    "Ġsanct": 15063,
    "Ġreal": 1637,
    "Ġprolonged": 8358,
    "ientific": 6547,
    "tit": 11526,
    "oud": 1942,
    "Ġendowed": 18924,
    "Ġaccumulating": 2722,
    "Ġwhine": 21713,
    "get": 1020,
    "hall": 8085,
    "Ġpearl": 20375,
    "Ġoffensive": 18698,
    "Ġsources": 10146,
    "Ġchestnuts": 24380,
    "uttural": 21587,
    "Ġwandering": 8653,
    "âĢľâĢĺ": 1482,
    "became": 10513,
    "olds": 9309,
    "Ġrevelations": 25223,
    "Ġadventurous": 16732,
    "Ġtickled": 20055,
    "Ġfar": 1449,
    "Ġviciously": 24403,
    "guess": 14760,
    "Ġsoundings": 13130,
    "Ġhurriedly": 11249,
    "Ġmorning": 1749,
    "Ġbestow": 6455,
    "Ġfist": 21402,
    "under": 3132,
    "Ġjudging": 16594,
    "Č": 205,
    "Ġfals": 15577,
    "Ġby": 383,
    "riage": 2123,
    "fitted": 17543,
    "Ġmarching": 16698,
    "neighbour": 7211,
    "Ġmealy": 18120,
    "Ġtradesmen": 17104,
    "Ġnaturalists": 10361,
    "langu": 4807,
    "keepers": 16658,
    "Ġdinners": 23979,
    "Ġstruck": 3388,
    "saturday": 14856,
    "Ġalthough": 4150,
    "Ġeurope": 8062,
    "Ġscope": 15940,
    "Ġmortally": 23914,
    "Ġunnear": 22026,
    "acid": 10993,
    "Ġintact": 21987,
    "Ġindebted": 8707,
    "Ġradiating": 24334,
    "Ġcrescentic": 20619,
    "Ġdandy": 17892,
    "Ġbearded": 15723,
    "Ġhumbly": 16195,
    "stuff": 15683,
    "Ġentra": 18699,
    "Ġcirc": 1986,
    "dler": 13704,
    "oled": 17618,
    "Ġlandlord": 5580,
    "Ġmatted": 22910,
    "Ġabsent": 7014,
    "Ġsad": 3868,
    "inioned": 19285,
    "Ġreduces": 2344,
    "Ġpiny": 21468,
    "endent": 15919,
    "Ġadopt": 10630,
    "accurately": 25861,
    "oftener": 23962,
    "Ġdissol": 18551,
    "Ġnobler": 14174,
    "rip": 9239,
    "majesty": 26280,
    "Ġassur": 6074,
    "Ġliberated": 19665,
    "Ġhyper": 19738,
    "Ġrefrain": 12941,
    "Ġnantucket": 2837,
    "forbid": 14351,
    "Ġmortified": 14693,
    "Ġcommunicating": 16888,
    "Ġreverend": 15257,
    "Ġbennet": 1574,
    "Ġpillows": 24988,
    "Ġstaid": 21733,
    "Ġrapt": 7225,
    "Ġdrought": 19277,
    "hos": 15361,
    "Ġrejoinder": 24598,
    "tured": 13793,
    "finer": 17545,
    "Ġbugs": 13646,
    "visitors": 13346,
    "Ġpulled": 5660,
    "G": 43,
    "izard": 10882,
    "duodecimo": 15998,
    "jet": 13740,
    "stra": 4046,
    "Ġafghan": 22625,
    "broker": 13302,
    "chancing": 22914,
    "deceiving": 22141,
    "ubl": 3593,
    "Ġbolivia": 24667,
    "Ġbumpkins": 25281,
    "Ġbrush": 17864,
    "âĢĶ.âĢĿ": 22253,
    "induce": 22372,
    "Ġmister": 22753,
    "presumption": 20440,
    "Ġclothe": 4712,
    "leton": 5148,
    "Ġcommence": 6167,
    "Ġstreets": 5863,
    "Ġripp": 11218,
    "/`": 12426,
    "oder": 2461,
    "Ġcontrad": 9753,
    "Ġvowed": 14082,
    "Ġsor": 4145,
    "Ġdrugg": 17118,
    "foam": 24417,
    "Ġbuzz": 23994,
    "recl": 15508,
    "Ġoccupied": 5272,
    "Ġbanking": 19629,
    "Ġimproved": 7656,
    "(_": 7540,
    "Ġprice": 10402,
    "Ġchorus": 10945,
    "Ġno": 511,
    "interesting": 12198,
    "č": 206,
    "Ġbloodthirsty": 26600,
    "Ġelementary": 24814,
    "elop": 1502,
    "alescing": 23864,
    "Ġluxuriant": 20393,
    "Ġsigmoid": 2464,
    "moor": 22702,
    "Ġshudder": 9049,
    "Ġfountains": 13501,
    "Ġpl": 742,
    "scho": 8759,
    "indef": 17734,
    "lude": 6161,
    "once": 5904,
    "Ġvain": 3628,
    "Ġcouples": 16851,
    "case": 5206,
    "Ġglimmered": 20170,
    "sleeve": 26108,
    "Ġinser": 6820,
    "Ġderived": 8239,
    "Ġremarks": 7474,
    "ifix": 21901,
    "Ġturks": 14597,
    "iam": 2510,
    "Ġthereby": 7643,
    "Ġexecute": 7505,
    "Ġstore": 8453,
    "derer": 4600,
    "Ġburg": 23650,
    "Ġkelson": 18350,
    "Ġwashed": 15761,
    "Ġshadowed": 24043,
    "Ġelijah": 9098,
    "example": 16010,
    "comm": 7440,
    "Ġsolar": 22883,
    "precip": 14663,
    "hatches": 19927,
    "Ġhand": 858,
    "Ġbodily": 6106,
    "Ġhailed": 6407,
    "Ġhoky": 17926,
    "sombre": 23852,
    "Ġbaby": 6636,
    "Ġcontinental": 19704,
    "Ġwaistcoat": 12267,
    "Ġcovering": 13253,
    "Ġdoctor": 5067,
    "unworthy": 18161,
    "quit": 15758,
    "ositions": 10282,
    "onent": 21247,
    "collect": 16562,
    "Ġumbrella": 15263,
    "kn": 5791,
    "Ġencamp": 22798,
    "Ġrh": 9242,
    "Ġpugnacious": 26450,
    "aret": 7417,
    "Ġrooted": 13167,
    "Ġcomplained": 16997,
    "Ġslyness": 25266,
    "Ġflesh": 5969,
    "Ġes": 8768,
    "burn": 8371,
    "ortunities": 15937,
    "12": 20748,
    "Ġunrelieved": 20544,
    "Ġunfit": 14785,
    "sad": 11519,
    "Ġamerican": 5061,
    "Æ": 135,
    "Ġhovel": 8254,
    "Ġhorizontal": 7783,
    "Ġclients": 19730,
    "Ġpossessions": 23822,
    "uns": 21868,
    "Ġheld": 3584,
    "Ġconsummate": 25310,
    "baggage": 24926,
    "Ġvill": 3878,
    "Ġnearer": 5301,
    "Ġpistol": 7847,
    "ract": 993,
    "recklessly": 25269,
    "Ġbabel": 24425,
    "Ġgeological": 14532,
    "themselves": 6540,
    "Ġxlvi": 25590,
    "atious": 10150,
    "Ġwick": 2005,
    "Ġcoarse": 14275,
    "Ġcabaco": 13165,
    "bitter": 11239,
    "Ġtrampling": 25492,
    "Ġrecover": 9789,
    "Ġborrowed": 17228,
    "Ġbaggy": 24537,
    "Ġripples": 25505,
    "Ġnewspaper": 12361,
    "kers": 7132,
    "Ġadvertisement": 6941,
    "mild": 15389,
    "Ġhandful": 9781,
    "elzebub": 26463,
    "Ġpoising": 22590,
    "ackled": 22418,
    "capable": 13699,
    "Ġdew": 14041,
    "Ġsecluded": 11989,
    "Ġmagnifying": 16317,
    "Ġtickets": 17093,
    "Ġclubb": 22350,
    "Ġdisgusting": 19893,
    "Ġtok": 1246,
    "Ġnoticed": 5548,
    "Ġroses": 11783,
    "invincible": 25089,
    "Ġperennial": 22692,
    "answered": 10272,
    "token": 21081,
    "Ġajar": 21201,
    "Ġoverjoy": 15969,
    "vent": 681,
    "eline": 2274,
    "Ġcure": 21338,
    "boscombe": 26121,
    "Ġtyro": 16993,
    "Ġscarce": 8621,
    "mical": 9127,
    "Ġjavel": 17083,
    "glings": 23849,
    "Ġsmall": 893,
    "Ġbuoyed": 20039,
    "Ġcongratulatory": 19766,
    "Ġsighing": 18676,
    "Ġwhimsical": 20426,
    "rowsers": 8694,
    "Ġsacrifice": 9554,
    "meat": 18678,
    "Ġjen": 9265,
    "Ġhonor": 5664,
    "Ġspire": 18306,
    "irm": 3108,
    "Ġsizes": 1519,
    "Ġsultan": 15182,
    "odox": 21809,
    "Ġmarvellous": 7538,
    "Ġmar": 1310,
    "Ġpraised": 19552,
    "mond": 20972,
    "worthy": 7733,
    "Ġinexplicable": 12253,
    "Ġmccarthy": 5145,
    "impe": 21706,
    "xter": 9145,
    "Ġrept": 13981,
    "Ġjanuary": 13651,
    "blooded": 20021,
    "Ġunalterable": 15848,
    "Ġcurrents": 13019,
    "·": 120,
    "dÃ¦mon": 17526,
    "Ġblasts": 19994,
    "Ġstarry": 16922,
    "Ġunforeseen": 22051,
    "Ġalbert": 12702,
    "Ġlean": 7605,
    "Ġflourishing": 25187,
    "Ġflukes": 5266,
    "Ġannihil": 10173,
    "Ġfired": 16151,
    "Ġcircumstantial": 14642,
    "Ġsuffered": 5649,
    "Ġoverladen": 22364,
    "ustry": 18355,
    "Ġpatience": 2926,
    "Ġargosy": 24272,
    "wed": 5003,
    "Ġryder": 10257,
    "Ġmonomania": 17084,
    "afford": 14653,
    "Ġwing": 6665,
    "Ġwheeling": 18288,
    "Ġsteed": 13036,
    "waving": 21130,
    "Ġbluff": 16515,
    "Ġflannel": 26576,
    "Ġutterance": 14762,
    "Ġsovere": 9254,
    "Ġdistributes": 4196,
    ".": 18,
    "unctuous": 21880,
    "felicity": 25140,
    "Ġthickly": 12112,
    "Ġpostp": 12140,
    "Ġissu": 6253,
    "Ġinclusive": 24162,
    "orders": 12870,
    "Ġstoner": 7178,
    "Ġinforming": 18742,
    "acceler": 23597,
    "Ġpurses": 23475,
    "Ġmusical": 23891,
    "coiled": 16484,
    "isite": 15559,
    "becoming": 18519,
    "Ġavoided": 13256,
    "Ġdramat": 23214,
    "Ġblotting": 25313,
    "Ġcharms": 11129,
    "Ġbast": 21377,
    "apse": 14197,
    "kept": 11714,
    "manifested": 20524,
    "usable": 22287,
    "atmosphere": 21263,
    "Ġdistrustful": 25054,
    "Ġpsalmody": 20583,
    "Ġwhipping": 21714,
    "Ġbusks": 23338,
    "common": 4127,
    "Ġstruct": 2783,
    "iciously": 17973,
    "adru": 15727,
    "Ġthreaten": 24373,
    "ban": 9583,
    "aim": 2754,
    "ushion": 14718,
    "Ġhearts": 4972,
    "Ġpack": 5444,
    "Ġinfamy": 14500,
    "Ġhumped": 19768,
    "Ġchimney": 6497,
    "Ġpist": 12611,
    "Ġstooped": 14461,
    "Ġcould": 703,
    "Ġstamped": 13525,
    "alluring": 18352,
    "Ġeuropean": 20044,
    "awed": 10390,
    "Ġsimpleton": 16331,
    "increas": 10453,
    "income": 15484,
    "tout": 21064,
    "Ġthundering": 24290,
    "Ġways": 5396,
    "itely": 5365,
    "Ġrelevant": 1864,
    "Ġmilitia": 13315,
    "Ġdef": 1200,
    "Ġbasic": 24701,
    "Ġenslaved": 26314,
    "Ġslid": 7952,
    "lock": 1470,
    "Ġjust": 1240,
    "springs": 24911,
    "ladder": 19783,
    "Ġsat": 1129,
    "thouse": 21980,
    "limbs": 20190,
    "Ġcountry": 2535,
    "degra": 22138,
    "olerable": 7182,
    "earthquakes": 24725,
    "rat": 8755,
    "Ġpend": 15602,
    "justine": 7683,
    "e": 73,
    "Ġsufferings": 7513,
    "Ġharpooneers": 4732,
    "Ġglut": 18847,
    "Ġneedle": 8275,
    "Ġbunger": 9994,
    "Ġgrecian": 26296,
    "Ġlion": 9674,
    "unless": 9233,
    "mal": 6794,
    "Ġtoad": 21508,
    "Ġdoor": 1740,
    "Ġcapering": 21352,
    "aces": 2069,
    "Ġcyp": 21343,
    "Ġarising": 10932,
    "Ġplug": 17146,
    "pennies": 26285,
    "Ġlif": 10194,
    "Ġfall": 2988,
    "cious": 6643,
    "Ġ35": 24076,
    "Ġwealthy": 18178,
    "contained": 22470,
    "Ġbiographical": 22761,
    "compasses": 19456,
    "Ġsketch": 16161,
    "ided": 2784,
    "Ġabsurdly": 19958,
    "Ġmum": 13856,
    "put": 414,
    "Ġbelong": 3886,
    "fish": 3513,
    "Ġamateur": 22483,
    "Ġdiscoursing": 26266,
    "Ġapex": 24341,
    "Ġrevered": 23732,
    "Ġricher": 12755,
    "Ġsafer": 22173,
    "Ġspasmodic": 20396,
    "extric": 22768,
    "Ġundet": 16703,
    "Ġtalents": 15043,
    "Ġbulkhead": 24507,
    "Ġintroducing": 11972,
    "uarded": 21104,
    "Ġsand": 6235,
    "conjecture": 15120,
    "Ġnews": 3820,
    "aked": 2015,
    "Ġfanning": 23388,
    "spin": 22729,
    "Ġprey": 6415,
    "Ġrefrained": 14337,
    "Ġsupposing": 6729,
    "asional": 17959,
    "Ġmolasses": 25628,
    "Ġdesolate": 10011,
    "Ġcreative": 9828,
    "Ġcave": 10784,
    "Ġprogen": 14037,
    "member": 20974,
    "Ġmuseum": 15269,
    "oration": 2208,
    "Ġheaded": 11054,
    "Ġweedy": 15788,
    "Ġsheath": 14150,
    "Ġalcoves": 26485,
    "Ġstoke": 10394,
    "machine": 1025,
    "pity": 17626,
    "Ġunrestrained": 25554,
    "Ġluck": 4880,
    "erting": 17776,
    "omit": 13976,
    "Ġpanegyric": 26448,
    "Ġlively": 5449,
    "Ġbitterness": 8025,
    "Ġassertion": 13487,
    "Ġinsipid": 26313,
    "Ġfathers": 16293,
    "Ġunb": 10906,
    "Ġvoc": 4452,
    "else": 6533,
    "Ġconcernment": 23621,
    "Ġmortifying": 13242,
    "Ġmythologies": 26213,
    "despicable": 24637,
    "Ġsinful": 18948,
    "Ġensued": 11393,
    "ga": 17549,
    "Ġsec": 2076,
    "thar": 18217,
    "oquence": 11385,
    "engthen": 14455,
    "Ġdreading": 23797,
    "Ġunwound": 25169,
    "Ġoblique": 20168,
    "Ġbattle": 5908,
    "Ġsolitudes": 22884,
    "Ġpropont": 16347,
    "Ġwalled": 15532,
    "Ġmadden": 10446,
    "bar": 7541,
    "Ġknighthood": 25297,
    "Ġasse": 8160,
    "luyt": 18459,
    "Ġhelplessness": 25071,
    "Ġreason": 1323,
    "Ġlying": 4825,
    "Ġhabitual": 24790,
    "Ġsalesman": 13666,
    "Ġexcl": 3471,
    "Ġmassacre": 20546,
    "quite": 4646,
    "Ġproceeding": 9904,
    "Ġuniformly": 19147,
    "poverty": 22905,
    "Ġadler": 8174,
    "Ġgloom": 4203,
    "batch": 1983,
    "unlike": 18156,
    "Ġwilderness": 14838,
    "Ġbadge": 16682,
    "Ġtooth": 9191,
    "Ġgift": 10839,
    "Ġnursery": 19749,
    "vious": 1784,
    "squall": 13520,
    "Ġmaled": 21313,
    "Ġsacri": 18333,
    "Ġlists": 11165,
    "Ġrefres": 14336,
    "wretched": 10740,
    "Ġlangs": 13952,
    "Ġwhaleman": 4654,
    "Ġjapan": 7639,
    "equ": 6790,
    "harmony": 25750,
    "ements": 11106,
    "azing": 7705,
    "Ġtechniques": 2867,
    "Ġnineveh": 13387,
    "Ġinvulnerable": 19146,
    "access": 11179,
    "greeting": 24553,
    "Ġdiadem": 24741,
    "onical": 21252,
    "Ġmountain": 3371,
    "joke": 20929,
    "Ġunfrequent": 24109,
    "Ġplanning": 14750,
    "Ġbritannica": 24680,
    "Ġpest": 13911,
    "Ġapproximation": 2342,
    "ampton": 18144,
    "Ġpotency": 14645,
    "Ġclatter": 22346,
    "Ġnorthwards": 19545,
    "lingly": 9771,
    "Ġoccupation": 9929,
    "ert": 2632,
    "Ġpost": 4275,
    "Ã": 132,
    "morland": 24152,
    "Ġstreamed": 14545,
    "inders": 15977,
    "avery": 13681,
    ",--âĢľ": 19196,
    "pan": 10715,
    "Ġaccept": 4412,
    "Ġsuperficial": 23455,
    "Ġyonder": 7392,
    "Ġsupernatural": 9871,
    "originally": 24937,
    "Ġthoroughfare": 16943,
    "Ġmowers": 17812,
    "Ġuprising": 12798,
    "Ġtour": 9146,
    "Ġfeeling": 3084,
    "oug": 430,
    "trowsers": 17690,
    "condesc": 18505,
    "Ġexcurs": 23315,
    "etch": 9203,
    "Ġmalignity": 10555,
    "Ġbelly": 10368,
    "quarter": 11387,
    "Ġaspects": 4174,
    "ructive": 18538,
    "Ġaided": 17744,
    "Ġboxes": 13372,
    "Ġabominate": 20063,
    "reng": 4004,
    "cheerful": 13573,
    "Ġpomp": 12618,
    "Ġtied": 7357,
    "isons": 17849,
    "Ġbingleys": 18995,
    "ourselves": 9009,
    "Ġleft": 1762,
    "twas": 15435,
    "pretend": 24882,
    "idate": 21765,
    "Ġ103": 24410,
    "conduct": 11794,
    "dislike": 23492,
    "knight": 20939,
    "Ġwalls": 6762,
    "Ġclimax": 25051,
    "Ġfriends": 2654,
    "Ġcumberland": 21353,
    "satisfied": 10577,
    "Ġsustaining": 25333,
    "Ġsecret": 3723,
    "sight": 5995,
    "Ġour": 1010,
    "dimens": 2317,
    "Ġoccasionally": 5589,
    "Ġsoftly": 7948,
    "Ġroast": 18455,
    "Ġlo": 452,
    "triumph": 15438,
    "Ġlookest": 22714,
    "beh": 5472,
    "Ġinsert": 19904,
    "glad": 9006,
    "Ġunrecord": 16620,
    "Ġmetropolitan": 17274,
    "Ġformality": 22827,
    "kindly": 14743,
    "Ġmessage": 13521,
    "Ġsanctioned": 26349,
    "Ġconnected": 5393,
    "Ġrace": 5847,
    "travellers": 24317,
    "Ġbeggars": 20628,
    "Ġveil": 7934,
    "Ġillum": 9398,
    "Ġlieu": 19563,
    "specific": 10496,
    "Ġalluding": 18236,
    "Ġshriek": 6637,
    "Ġpersecut": 16951,
    "Ġtopmost": 14586,
    "swed": 24252,
    "Ġshol": 21993,
    "ogr": 18670,
    "iding": 3847,
    "Ġdiscipl": 22781,
    "Ġantiquity": 15228,
    "ul": 371,
    "Ġpreliminary": 10055,
    "rosings": 15640,
    "tru": 10728,
    "Ġfugitive": 17325,
    "ortal": 6265,
    "Ġunusual": 6553,
    "Ġsettle": 6293,
    "Ġideas": 5494,
    "desponding": 26341,
    "ierce": 14390,
    "Ġsaucer": 20604,
    "phew": 6368,
    "make": 5793,
    "murderer": 13391,
    "berg": 11855,
    "Ġmagical": 23097,
    "Ġfiend": 4413,
    "Ġpasses": 2678,
    "Ġvir": 7001,
    "Ġefforts": 11804,
    "necessarily": 19630,
    "Ġdismally": 20213,
    "Ġmagic": 8233,
    "int": 1198,
    "cain": 15324,
    "Ġwester": 25152,
    "violent": 14578,
    "Ġdipping": 15588,
    "uzzle": 19582,
    "encies": 4080,
    "Ġnobody": 6158,
    "Ġbusied": 19064,
    "nui": 20999,
    "Ġparched": 11724,
    "Ġexplicit": 3587,
    "bular": 15311,
    "Ġgriefs": 16770,
    "Ġshrouds": 11343,
    "Ġtum": 5692,
    "Ġmusk": 7494,
    "Ġshave": 21994,
    "\":": 9580,
    "maybe": 23988,
    "occasionally": 13519,
    "Ġecho": 12664,
    "stolen": 13975,
    "Ġabased": 22266,
    "Ġintrusion": 12761,
    "Ġincorpor": 13163,
    "Ġtro": 7356,
    "requirements": 24857,
    "nt": 920,
    "Ġanaly": 1165,
    "Ġsnatches": 16543,
    "Ġinnocently": 24026,
    "but": 593,
    "Ġlaugh": 4112,
    "Ġdeprec": 15754,
    "Ġdishes": 16047,
    "Ġmill": 6666,
    "n": 82,
    "frequently": 9977,
    "hist": 7130,
    "Ġcruise": 12046,
    "Ġimparts": 18444,
    "Ġrec": 895,
    "tons": 7559,
    "passed": 8026,
    "Ġintent": 6409,
    "Ġgust": 21595,
    "Ġtil": 12520,
    "Ġxavier": 2854,
    "Ġregained": 18593,
    "Ġcharted": 22248,
    "Ġbrah": 19355,
    "phia": 22764,
    "Ġfel": 1516,
    "Ġspectacle": 10495,
    "ath": 861,
    "itor": 12562,
    "Ġblessing": 11262,
    "Ġsax": 10928,
    "Ġstroll": 13350,
    "Ġunprincipled": 20707,
    "instrument": 15236,
    "Ġast": 2963,
    "points": 14392,
    "Ġreasons": 6020,
    "Ġphotograph": 6302,
    "all": 485,
    "Ġimpertin": 6933,
    "div": 8076,
    "Ġstartled": 7082,
    "escaped": 14229,
    "Ġliberally": 16829,
    "miraculous": 26395,
    "Ġpierce": 17035,
    "ibule": 13003,
    "ibly": 2997,
    "Ġdisplayed": 10607,
    "icacy": 15654,
    "ĠâĢľâĢĶ": 9732,
    "Ġsalisbury": 24062,
    "acle": 4715,
    "ù": 186,
    "Ġpuzz": 5532,
    "txt": 12512,
    "Ġwheel": 9716,
    "Ġhowl": 12851,
    "ittered": 18439,
    "sleepy": 24729,
    "Ġsorrows": 13352,
    "Ġminers": 22830,
    "sorting": 17003,
    "Ġbeneficial": 23929,
    "Ġantics": 24177,
    "aphys": 15199,
    "Ġmarsh": 9819,
    "ifers": 15778,
    "Ġdilig": 8350,
    "rived": 5373,
    "Ġeve": 13968,
    "Ġwhich": 503,
    "Ġfossils": 20221,
    "Ġsobs": 14131,
    "uits": 21103,
    "Ġtags": 20570,
    "Ġbald": 16204,
    "Ġwilful": 10533,
    "untering": 15772,
    "driven": 19770,
    "kill": 13742,
    "Ġsend": 4106,
    "ighter": 7968,
    "hing": 978,
    "Ġwomen": 4750,
    "declared": 15116,
    "Ġmanilla": 15956,
    "Ġunexpectedly": 19908,
    "empty": 23634,
    "Ġemblazonings": 26042,
    "bowing": 24453,
    "ten": 1555,
    "Ġplate": 8897,
    "Ġdesolation": 12265,
    "acc": 2536,
    "Ġfork": 15728,
    "Ġhostile": 19938,
    "Ġwrench": 12553,
    "onze": 21254,
    "Ġhumbled": 16194,
    "Ġdecline": 9285,
    "Ġsupplication": 25491,
    "satisfy": 16891,
    "oof": 15403,
    "Ġendeavor": 16544,
    "Ġholiday": 12994,
    ",": 16,
    "Ġregarding": 13208,
    "Ġhere": 1087,
    "Ġpictures": 5503,
    "Ġinquest": 16546,
    "Ġliterature": 17147,
    "Ġrind": 21967,
    "Ġpaced": 7583,
    "izens": 18143,
    "Ġevent": 2952,
    "Ġhundreds": 4330,
    "coming": 3561,
    "Ġchildhood": 13135,
    "Ġferocious": 17417,
    "thorough": 21983,
    "Ġbenjamin": 26566,
    "inde": 17730,
    "ppers": 7617,
    "fisher": 7547,
    "Ġparr": 22117,
    "unned": 21876,
    "Ġendeavoured": 4918,
    "Ġvent": 3999,
    "Ġconfession": 11234,
    "nades": 20996,
    "Ġjune": 10287,
    "Ġtrophy": 20005,
    "move": 11851,
    "Ġany": 688,
    "Ġincomplete": 17207,
    "Ġflail": 23007,
    "cape": 13695,
    "Ġfunere": 22257,
    "Ġliving": 3063,
    "Ġsolicited": 20035,
    "fit": 6645,
    "Ġdominant": 12393,
    "advise": 24216,
    "Ġrevolutions": 23839,
    "ocity": 8278,
    "oline": 6833,
    "Ġreign": 13983,
    "attending": 18916,
    "Ġvictoria": 14871,
    "Ġdense": 8123,
    "Ġgam": 11622,
    "Ġprocedure": 2808,
    "Ġdances": 10811,
    "home": 7341,
    "hard": 4690,
    "scissors": 20726,
    "Ġbeginning": 4245,
    "itement": 7836,
    "Ġplush": 18609,
    "Ġreserved": 7515,
    "Ġbedfellow": 16435,
    "Ġsworn": 14434,
    "á": 162,
    "Ġexulting": 20257,
    "sor": 7352,
    "homage": 25616,
    "Ġnovember": 11746,
    "Ġlaure": 16908,
    "wr": 3029,
    "avating": 18606,
    "Ġthreatened": 8330,
    "opolising": 25676,
    "Ġpromised": 5181,
    "Ġdistur": 5312,
    "isson": 23460,
    "Ġsquaw": 22837,
    "ball": 7793,
    "Ġ15": 9322,
    "Ġconfining": 23307,
    "Ġhog": 13922,
    "fro": 8732,
    "gir": 8083,
    "Ġsits": 10767,
    "Ġclerical": 25568,
    "farm": 15349,
    "Ġhaste": 9002,
    "mill": 13752,
    "Ġevinced": 7100,
    "her": 490,
    "ozy": 17621,
    "Ġoccupations": 9456,
    "Ġcompliment": 5673,
    "Ġirreproachable": 24917,
    "flu": 9116,
    "Ġtumbled": 13404,
    "complied": 19912,
    "Ġloite": 22109,
    "Ġboone": 11837,
    "money": 8749,
    "Ġfolio": 11915,
    "Ġhardihood": 23110,
    "Ġdecl": 3588,
    "Ġprevention": 16089,
    "Ġmedicine": 15203,
    "game": 11489,
    "Ġtruly": 4796,
    "Ġpersisted": 13038,
    "ledyard": 22390,
    "Ġcandidates": 4335,
    "deav": 2673,
    "Ġtroop": 24897,
    "Ġthickness": 13275,
    "Ġwilliam": 3479,
    "Ġgate": 6825,
    "Ġter": 2051,
    "ods": 8833,
    "finished": 10553,
    "hoping": 17565,
    "Ġschemes": 11130,
    "prot": 6899,
    "Ġfilthy": 13245,
    "Ġabundance": 17154,
    "Ġgentle": 1889,
    "Ġslipping": 13358,
    "Ġbear": 3656,
    "ainty": 21785,
    "Ġconnect": 799,
    "hamed": 6305,
    "Ġdus": 8423,
    "acted": 11009,
    "Ġsenses": 8252,
    "past": 8090,
    "Ġspend": 5304,
    "iscuit": 10597,
    "xic": 9144,
    "Ġlane": 5627,
    "Ġknowledge": 1446,
    "Ġswayed": 15046,
    "Ġcruc": 16533,
    "Ġopulent": 23628,
    "wantonly": 25149,
    "Ġdenying": 14657,
    "persuasion": 20042,
    "iary": 15368,
    "irs": 14069,
    "99": 1894,
    "Ġmoody": 8201,
    "Ġessays": 19743,
    "Ġjet": 5307,
    "Ġforces": 12698,
    "Ġpoetry": 15078,
    "Ġpatter": 826,
    "Ġungodly": 26512,
    "gainst": 25141,
    "Ġfrankness": 16745,
    "Ġunrival": 22045,
    "Ġrelease": 19290,
    "50": 6784,
    "Ġorgan": 2504,
    "ena": 11566,
    "elze": 21571,
    "Ġof": 298,
    "ific": 486,
    "cheap": 23803,
    "ustomed": 6099,
    "Ġwithstand": 10224,
    "ildad": 3530,
    "Ġopposing": 12038,
    "iscreet": 20681,
    "Ġwoes": 23983,
    "sensations": 20049,
    "Ġhogarth": 25780,
    "Ġimprudent": 12843,
    "Ġadie": 8488,
    "espe": 3496,
    "Ġy": 341,
    "Ġhen": 3499,
    "ine": 405,
    "Ġprecisely": 6466,
    "Ġsovereign": 10060,
    "Ġlullaby": 20586,
    "Ġbier": 22759,
    "Ġseeking": 7036,
    "fortunate": 4792,
    "Ġalb": 14014,
    "Ġbutts": 15852,
    "Ġtried": 3646,
    "der": 473,
    "Ġdepartment": 24240,
    "Ġfacing": 10170,
    "sur": 4523,
    "acquired": 24295,
    "Ġzigzag": 26272,
    "dening": 22777,
    "Ġchanges": 2284,
    "Ġforever": 14552,
    "Ġbrutality": 26276,
    "milk": 20475,
    "Ġgroaned": 11265,
    "oky": 8199,
    "gely": 10699,
    "urning": 12912,
    "Ġting": 8398,
    "Ġconstantly": 11969,
    "iah": 14414,
    "Ġapprised": 18358,
    "decease": 25557,
    "network": 1912,
    "Ġpervers": 11780,
    "Ġlanyard": 26460,
    "Ġdecide": 9284,
    "Ġcuriously": 13017,
    "Ġoccupy": 14730,
    "Ġbequeathed": 20700,
    "Ġseriously": 7061,
    "flitted": 23966,
    "Ġtimely": 19593,
    "roll": 9195,
    "Ġsche": 1707,
    "Ġbree": 5012,
    "chase": 11643,
    "Ġclothes": 4997,
    "Ġcontact": 9279,
    "ifford": 15780,
    "increased": 20269,
    "sized": 15426,
    "ension": 6570,
    "Ġboats": 2638,
    "Ġarabic": 24980,
    "ortment": 22254,
    "Ġimpulse": 10022,
    "Ġte": 1120,
    "sweetly": 25134,
    "Ġ60": 14873,
    "destroyed": 15258,
    "Ġmushroom": 13233,
    "sufficiently": 14979,
    "sutherland": 21061,
    "Ġfeedforward": 2327,
    "Ġreaction": 15691,
    "fireside": 24692,
    "Ġdanish": 21430,
    "Ġmidships": 23633,
    "Ġcerem": 7077,
    "Ġsurviving": 24638,
    "Ġimpressions": 9551,
    "Ġbrigandish": 25487,
    "obtain": 23092,
    "proachable": 23396,
    "Ġslugg": 15266,
    "Ġdz": 4756,
    "Ġmerit": 9425,
    "Ġrequesting": 24633,
    "Ġcustoms": 19651,
    "halloa": 17089,
    "Ġamuse": 5940,
    "exe": 11786,
    "iations": 11493,
    "Ġbeautiful": 3670,
    "Ġanytime": 12881,
    "Ġsaves": 18329,
    "fiery": 13579,
    "51": 12428,
    "Ġadrift": 11720,
    "Ġmatches": 14394,
    "apply": 18759,
    "ide": 721,
    "Ġforenoon": 19126,
    "Ġbarrow": 12066,
    "Ġtottenham": 24141,
    "Ġgallied": 19555,
    "Ġoakum": 16933,
    "Ġcart": 11581,
    "akeman": 6267,
    "Ġlofty": 6217,
    "Ð": 145,
    "distrust": 19569,
    "discredit": 24249,
    "mitted": 5213,
    "hun": 5210,
    "shooting": 16964,
    "Ġdecap": 16016,
    "merit": 19280,
    "abled": 12790,
    "Ġentertaining": 16925,
    "Ġpaw": 12616,
    "Ġquadru": 16000,
    "steak": 14706,
    "Ġharrow": 17925,
    "Ġhiding": 9821,
    "_.âĢĶ": 23471,
    "Ġdefines": 1742,
    "Ġassail": 13059,
    "nin": 17607,
    "Ġguidance": 9415,
    "Ġunconscious": 9545,
    "Ġglades": 19370,
    "Ġtugged": 17287,
    "Ġitself": 2523,
    "mark": 5281,
    "Ġperu": 14222,
    "Ġsmells": 8889,
    "ulnerable": 18150,
    "Ġspermaceti": 8966,
    "Ġ98": 24594,
    "Ġevolved": 9889,
    "approve": 19935,
    "Ġray": 18638,
    "Ġgreatly": 5849,
    "Ġreplaced": 13069,
    "Ġslumbering": 25701,
    "Ġcanted": 17831,
    "ative": 734,
    "Ġsky": 3970,
    "abetical": 15739,
    "albatross": 15626,
    "hauteur": 26390,
    "Ġpondered": 15164,
    "odhead": 18117,
    "drown": 13702,
    "Ã¦mon": 7094,
    "suit": 18630,
    "Ġhairs": 13228,
    "Ġstruggles": 16577,
    "Ġtypewriting": 16418,
    "Ġadversary": 12170,
    "myself": 5113,
    "left": 6975,
    "Ġsavor": 23873,
    "iven": 1237,
    "unaffected": 21881,
    "Ġerred": 21155,
    "Ġimitated": 18322,
    "flex": 24843,
    "Ġdebt": 12164,
    "lamps": 25260,
    "Ġelucidated": 26029,
    "Ġmistifying": 23718,
    "miniature": 16764,
    "Ġpretensions": 16557,
    "Ġfolios": 23018,
    "Ġresumed": 11809,
    "Ġgarn": 13961,
    "Ġhousehold": 8567,
    "Ġimplicated": 24874,
    "Ġcorrob": 16261,
    "Ġtheirs": 7024,
    "eastward": 15127,
    "Ġplenty": 6708,
    "Ġincivility": 18573,
    "Ġlit": 6246,
    "Ġwound": 4528,
    "Ġlibrary": 6423,
    "Ġdanger": 3517,
    "Ġcont": 620,
    "Ġworth": 4418,
    "new": 1466,
    "Ġruth": 14091,
    "Ģ": 227,
    "Ġbeaten": 10527,
    "Ġdefendants": 15138,
    "Ġretreat": 6070,
    "ced": 743,
    "Ġwriters": 13541,
    "awing": 18915,
    "Ġbreeds": 23347,
    "oment": 919,
    "Ġadvantageously": 19544,
    "Ġmaintains": 2144,
    "Ġoutweigh": 22320,
    "apsed": 6295,
    "avern": 24792,
    "live": 7550,
    "Ġsmitten": 12898,
    "Ġreve": 2935,
    "oniously": 21256,
    "Ġimmersed": 19483,
    "ither": 1546,
    "rinted": 21042,
    "Ġcaring": 23090,
    "Ġaslant": 21899,
    "Ġaddress": 2269,
    "aught": 2679,
    "vis": 4577,
    "Ġadvised": 16212,
    "inex": 14094,
    "semicirc": 26490,
    "ilities": 6991,
    "Ġsket": 18727,
    "shattered": 22459,
    "Ġjetted": 24430,
    "Ġused": 2060,
    "Ġfrancis": 26063,
    "Ġsolicitude": 10038,
    "Ġthirt": 13937,
    "amuse": 14050,
    "hereditary": 26418,
    "Ġwickedness": 9524,
    "agged": 9235,
    "rove": 21531,
    "Ġbounds": 9916,
    "Ġextravag": 11253,
    "Ġrudder": 25107,
    "Ġpupils": 20419,
    "Ġpubl": 3941,
    "reader": 23844,
    "Ġfonder": 17880,
    "Ġtogether": 1878,
    "Ġplunging": 14950,
    "remind": 23186,
    "Ġimmortal": 8018,
    "Ġdoll": 10812,
    "hurriedly": 25510,
    "Ġpromote": 23191,
    "Ġtap": 12522,
    "gone": 6504,
    "Ġforgo": 21771,
    "Ġcaged": 21350,
    "infliction": 25924,
    "lean": 21363,
    "Ġtamely": 24979,
    "Ġflowing": 14409,
    "ends": 6039,
    "iant": 5427,
    "Ġartfully": 22608,
    "Ġsoon": 1227,
    "Ġchamounix": 14862,
    "ĥ": 230,
    "Ġropes": 10747,
    "wretch": 17707,
    "Ġstunsail": 25543,
    "eed": 20840,
    "Ġcrockery": 24300,
    "Ġdomineer": 23714,
    "Ġtoy": 15630,
    "pered": 4198,
    "Ġbedside": 19121,
    "Ġearth": 2850,
    "Ġpendulous": 25955,
    "Ġplainpalais": 20736,
    "Ġtheme": 16015,
    "allions": 22196,
    "jaws": 20931,
    "tures": 21068,
    "Ġreplace": 14474,
    "ca": 20792,
    "lutions": 20949,
    "Ġcottages": 14725,
    "inative": 15481,
    "divided": 25018,
    "Ġbales": 21387,
    "orns": 12588,
    "mons": 17599,
    "Ġbeauty": 3772,
    "Ġinterconnected": 1338,
    "Ġstuffed": 13407,
    "u": 89,
    "Ġkid": 9723,
    "_,âĢĿ": 6218,
    "Ġneutral": 12740,
    "iality": 8842,
    "Ġwives": 12551,
    "Ġslender": 11937,
    "Ġpockets": 8895,
    "Ġplays": 12034,
    "erringly": 16209,
    "Ġpopulation": 16826,
    "aster": 1867,
    "Ġexpectations": 13140,
    "Ġpopular": 6216,
    "Ġsuspending": 19242,
    "attest": 23117,
    "kine": 15373,
    "flag": 14709,
    "appo": 3914,
    "Ġincome": 7918,
    "Ġinference": 9670,
    "rupt": 3210,
    "agreeable": 5829,
    "Ġmiscellaneous": 17461,
    "Ġhalts": 3158,
    "point": 6063,
    "isters": 11916,
    "Ġcab": 2633,
    "rospect": 11610,
    "ĠĠĠĠĠĠĠĠĠĠĠĠĠĠĠĠĠĠĠĠĠĠĠĠĠĠĠĠĠĠĠĠĠ": 12040,
    "bery": 9786,
    "Ġrainy": 24340,
    "Ġallowance": 14388,
    "obey": 11508,
    "Ġsab": 10761,
    "Ġinquis": 19303,
    "germans": 20564,
    "thousands": 16869,
    "ieved": 3230,
    "bud": 10681,
    "using": 5468,
    "Ġdeposition": 18611,
    "ads": 5718,
    "progress": 11984,
    "Ġvehem": 22888,
    "Ġbrightly": 13221,
    "question": 5418,
    "Ġelderly": 13493,
    "Ġcaptains": 7457,
    "Ġpapered": 20129,
    "izure": 21839,
    "Ġblowing": 10483,
    "yond": 2331,
    "excellent": 8044,
    "Ġhers": 7890,
    "rod": 10830,
    "Ġmultiplied": 23686,
    "Ġencoder": 3634,
    "Ġinstance": 2547,
    "Ġspangled": 22133,
    "ack": 612,
    "26": 10071,
    "gus": 13723,
    "borrowed": 20791,
    "hammad": 23262,
    "Ġpresc": 15922,
    "Ġkidn": 20204,
    "Ġdispositions": 13230,
    "Ġfoundling": 22966,
    "flame": 16636,
    "Ġeffusion": 22515,
    "Ġmoreover": 6163,
    "properly": 24918,
    "Ġamusements": 16912,
    "killing": 20941,
    "Ġcrazy": 8592,
    "scythes": 26401,
    "Ġlodge": 5779,
    "Ġpliny": 11822,
    "vitiated": 25754,
    "Ĕ": 213,
    "Ġavailed": 23949,
    "Ġsooty": 25815,
    "Ġsplice": 19308,
    "mingled": 14711,
    "balanced": 14554,
    "×": 152,
    "Ġroot": 2650,
    "lop": 20947,
    "Ġuninhabited": 22049,
    "bene": 6112,
    "ø": 185,
    "Ġbackstays": 22658,
    "Ġharder": 14447,
    "semic": 21819,
    "Ġrambled": 20167,
    "Ġneville": 7399,
    "Ġindians": 14408,
    "construction": 19777,
    "holloa": 19462,
    "Ġfamiliarity": 16728,
    "bbings": 19275,
    "horr": 14598,
    "Ġhigher": 1823,
    "Ġcombing": 22874,
    "Ġchecked": 9374,
    "Ġscru": 8191,
    "ú": 187,
    "Ġinc": 702,
    "Ġessex": 20125,
    "3": 23,
    "Ġdines": 21422,
    "gment": 4392,
    "headsman": 16699,
    "Ġelectric": 15192,
    "attention": 2110,
    "Ġpolitics": 19223,
    "iceland": 21564,
    "Ġglowing": 12279,
    "Ġplacing": 8899,
    "Ġacted": 7422,
    "Ġaccomplishment": 19664,
    "nursery": 26398,
    "Ġowned": 11873,
    "Ġprofound": 5497,
    "sciss": 18851,
    "Ġwell": 903,
    "Ġconvince": 14641,
    "Ġdemig": 20355,
    "Ġreligions": 20106,
    "whale": 2139,
    "bingley": 4927,
    "Ġimaginations": 16514,
    "Ġdominic": 25381,
    "unched": 10234,
    "Ġfairest": 20461,
    "pl": 402,
    "inian": 21181,
    "Ġreneg": 21673,
    "Ġmapple": 11149,
    "Ġshortened": 23481,
    "Ġlog": 1680,
    "Ġwasting": 12724,
    "Ġcandid": 4098,
    "Ġflorid": 17134,
    "ter": 359,
    "roof": 17953,
    "etting": 21578,
    "Ġspacious": 18312,
    "aimed": 3953,
    "Ġservox": 23868,
    "Ġrevive": 13477,
    "Ġsanity": 24981,
    "Ġreliably": 22878,
    "Ġfetched": 24566,
    "thumb": 18218,
    "general": 7489,
    "Ġbeams": 14629,
    "Ġrigging": 5600,
    "preserver": 20212,
    "arding": 22155,
    "nine": 13759,
    "Ġmart": 10778,
    "total": 17249,
    "Ġpra": 4348,
    "riet": 18183,
    "Ġaccordance": 19496,
    "itated": 4441,
    "hind": 20893,
    "Ġunlocked": 14118,
    "Ġsticks": 14929,
    "office": 16392,
    "number": 10113,
    "Ġmogul": 12858,
    "Ġcondesc": 7181,
    "maid": 8553,
    "Ġsund": 8249,
    "Ġindulgence": 11318,
    "covering": 15332,
    "Ġbearing": 5298,
    "Ġportent": 12078,
    "Ġbashaw": 25633,
    "foundered": 20866,
    "Ġtrait": 23073,
    "pronounce": 25192,
    "untary": 9865,
    "subtle": 24242,
    "Ġfrank": 4421,
    "dropping": 14980,
    "Ġconstant": 6309,
    "æ": 167,
    "Ġpertur": 12847,
    "Ġwee": 21916,
    "Ġresided": 11808,
    "Ġterti": 14537,
    "Ġtarshish": 12025,
    "pres": 16021,
    "Ġcongenial": 12408,
    "Ġevanesc": 24293,
    "Ġcheese": 9375,
    "deep": 990,
    "Ġstrokes": 16768,
    "sence": 3304,
    "ercely": 12546,
    "adventure": 17232,
    "Ġforest": 9869,
    "Ġliked": 5264,
    "Ġmuchness": 18706,
    "Ġadapted": 11039,
    "pow": 10716,
    "althily": 19357,
    "Ġleak": 2158,
    "Ġflutter": 16246,
    "buried": 14847,
    "Ġthunder": 4823,
    "Ġfleet": 9430,
    "invariably": 26415,
    "ands": 21864,
    "Ġsensitive": 13197,
    "ooped": 17622,
    "momentum": 4991,
    "Ġbriony": 9327,
    "Ġdead": 2168,
    "Ġduck": 8792,
    "Ġconfirm": 9854,
    "collins": 6916,
    "nor": 2740,
    "thickness": 25367,
    "digger": 24309,
    "spending": 18689,
    "ighb": 10422,
    "blow": 9102,
    "Ġpaces": 13917,
    "Ġproducing": 11896,
    "Ġquench": 22417,
    "Ġidentifies": 12011,
    "cases": 12444,
    "Ġwearer": 21920,
    "anter": 9165,
    "bucket": 17492,
    "Ġcrystal": 17213,
    "Ġsmelt": 16065,
    "Ġfly": 3870,
    "Ġillustrations": 17107,
    "Ġmans": 15533,
    "second": 6543,
    "esley": 17919,
    "Ġdespondency": 16576,
    "Ġcircumnav": 12423,
    "Ġnash": 5819,
    "Ġunbecoming": 22062,
    "Ġpredicted": 2045,
    "tide": 11531,
    "Ġtowed": 11264,
    "Ġviolates": 3164,
    "Ġe": 312,
    "Ġoptimize": 1614,
    "Ġbodiless": 24225,
    "Ġxi": 16427,
    "bows": 10080,
    "transform": 8050,
    "ahit": 9380,
    "Ġlurk": 13381,
    "unw": 14055,
    "Ġforesee": 19125,
    "Ġdorm": 4821,
    "Ġdisturbed": 8671,
    "Ġmarvels": 11083,
    "Ġwouldn": 6046,
    "Ġhit": 7163,
    "staring": 18017,
    "Ġindicate": 23721,
    "Ġdamned": 13129,
    "bone": 5611,
    "lun": 20945,
    "ira": 3958,
    "addition": 13382,
    "inordinate": 21193,
    "Ġswept": 7977,
    "Ġinevitably": 17229,
    "Ġthieves": 15632,
    "Ġgenerates": 3662,
    "mouthful": 25208,
    "Ġdetermination": 9817,
    "Ġstring": 11824,
    "Ġinclination": 6623,
    "Ġprocessions": 18433,
    "daughters": 13464,
    "Ġbent": 5149,
    "Ġmatters": 4974,
    "Ġcreat": 1413,
    "conveyed": 20519,
    "gravel": 22618,
    "Ġhorsey": 24248,
    "he": 264,
    "Ġtus": 10748,
    "away": 4625,
    "reclining": 20573,
    "bber": 4568,
    "Ġlist": 2365,
    "whe": 1073,
    "Ġtenderly": 11313,
    "consum": 12866,
    "Ġnic": 7376,
    "Ġaveraging": 2418,
    "lied": 6507,
    "Ġmagnificent": 9840,
    "Ġvalidate": 3000,
    "Ġdissolved": 18554,
    "sip": 10724,
    "Ġpremium": 23902,
    "Ġlightly": 13081,
    "orious": 6008,
    "Ġmacey": 12559,
    "walks": 19720,
    "Ġaffl": 14384,
    "Ġspeculations": 22993,
    "lacings": 26134,
    "Ġarrant": 23296,
    "representing": 25271,
    "Ġsoftmax": 1691,
    "search": 8464,
    "people": 7677,
    "Ġcau": 13879,
    "apable": 6422,
    "Ġrevenue": 26194,
    "bergs": 18681,
    "several": 5543,
    "Ġconsort": 18723,
    "oury": 22302,
    "Ġcorrectly": 9402,
    "Ġcorporeal": 17358,
    "Ġjoints": 12032,
    "keel": 14127,
    "Ġinexperience": 26099,
    "Ġ1828": 25720,
    "ic": 304,
    "crop": 20797,
    "thank": 4950,
    "knew": 9125,
    "Ġstate": 1811,
    "uberance": 25916,
    "ĠâĢĶâĢĶ": 25757,
    "Ġhuzza": 12629,
    "Ġunquestion": 18248,
    "Ġarisen": 11740,
    "Ġsnap": 11199,
    "Ġtradeoff": 2658,
    "bitts": 26122,
    "inspect": 11557,
    "ude": 7562,
    "Ġemb": 1254,
    "Ġcounty": 9029,
    "Ġache": 18663,
    "smith": 5669,
    "Ġru": 947,
    "):": 11460,
    "sullen": 17668,
    "Ġarrows": 18339,
    "Ġalt": 18098,
    "Ġintric": 9245,
    "Ġoakshott": 12226,
    "Ġcomical": 11678,
    "knives": 14911,
    "Ġdisd": 7030,
    "sis": 1960,
    "Ġescapes": 23505,
    "Ġuntouched": 16464,
    "moreover": 12965,
    "Ġelement": 6898,
    "Ġshaster": 21996,
    "unmistakable": 21893,
    "bted": 7794,
    "Ġpractical": 3163,
    "Ġspar": 10920,
    "strom": 15679,
    "estruct": 22221,
    "Ġven": 4647,
    "Ġrelief": 6060,
    "Ġmaintained": 12930,
    "causing": 25518,
    "Ġdignified": 15594,
    "Ġl": 303,
    "totally": 25417,
    "spersed": 22733,
    "Ġyanke": 18097,
    "Ġnowadays": 18546,
    "Ġreceived": 2953,
    "Ġcul": 17822,
    "Ġvinc": 14083,
    "Ġtombed": 25160,
    "oyed": 14363,
    "Ġannouncement": 14831,
    "presented": 12987,
    "Ġimagine": 3923,
    "Ġspirit": 3727,
    "Ġcondem": 6338,
    "Ġclasping": 20208,
    "mus": 10109,
    "Ġeditions": 19120,
    "Ġhurtling": 24959,
    "influ": 9539,
    "Ġcushion": 17833,
    "âĢĿ--": 21814,
    "opol": 12868,
    "mbling": 3342,
    "Ġinconsist": 17935,
    "Ġrobustness": 18870,
    "enthus": 17977,
    "Ġsusp": 2663,
    "Ġtimidly": 11337,
    "Ġlistener": 16473,
    "christ": 10209,
    "Ġpeninsula": 23194,
    "month": 6463,
    "Ġlionel": 25286,
    "special": 14703,
    "Ġlitter": 19828,
    "Ġhoney": 12628,
    "Ġvariously": 18653,
    "semble": 1523,
    "Ġgirl": 3086,
    "Ġrevol": 5536,
    "parad": 16380,
    "Ġalabama": 14017,
    "Ġpushing": 10818,
    "Ġoarsman": 8637,
    "Ġhed": 7387,
    "Ġdiminishing": 4211,
    "Ġblack": 2034,
    "whar": 15924,
    "ille": 9218,
    "Ġarrangement": 2657,
    "Ġtattooing": 15026,
    "Ġleap": 5824,
    "Ġcircumstances": 3926,
    "stood": 4115,
    "nowled": 5470,
    "Ġmurder": 4283,
    "Ġrevolutionized": 3366,
    "Ġinland": 11606,
    "Ġstretching": 10013,
    "Ġmoving": 1681,
    "bad": 12433,
    "charitable": 23930,
    "Ġremorse": 6441,
    "Ġmrs": 1467,
    "Ġoaths": 13522,
    "pe": 1437,
    "well": 1693,
    "fic": 20851,
    "ail": 566,
    "onents": 8776,
    "Ġstrainings": 24628,
    "Ġlandless": 23377,
    "Ġscenarios": 26541,
    "Ġripple": 25504,
    "Ġchristendom": 16694,
    "ishnoo": 10954,
    "got": 6955,
    "Ġability": 2761,
    "conviction": 19963,
    "nantucket": 7805,
    "civility": 17512,
    "aud": 8521,
    "Ġinstructions": 11194,
    "Ġepicurean": 20554,
    "liter": 11500,
    "Ġdodging": 19886,
    "tee": 16171,
    "Ġstillness": 12989,
    "Ġfollies": 16253,
    "end": 502,
    "Ġarabian": 9088,
    "Ġeddy": 13121,
    "thinking": 9012,
    "Ġtemporary": 7980,
    "clair": 18932,
    "helmsman": 24286,
    "Ġcur": 1265,
    "ren": 549,
    "Ġmarked": 4619,
    "Ġinterrupted": 6343,
    "Ġfashion": 4300,
    "thy": 2936,
    "iancy": 13005,
    "Ġexcessive": 3892,
    "Ġshepherd": 14151,
    "Ġdozing": 22241,
    "m": 81,
    "Ġath": 15800,
    "Ġmissionary": 25696,
    "Ġscornful": 24998,
    "ificent": 8184,
    "Ġglad": 3323,
    "istry": 22107,
    "Ġfet": 5807,
    "drop": 15335,
    "Ġfronted": 25854,
    "Ġcelest": 9899,
    "Ġsafety": 6339,
    ".âĢĶ": 4251,
    "Ġobservable": 25126,
    "Ġratt": 7882,
    "deed": 1517,
    "Ġcondu": 18109,
    "Ġprepared": 5877,
    "mysterious": 26051,
    "Ġnarr": 5085,
    "account": 5329,
    "mblies": 24609,
    "ĠĠĠĠĠĠĠĠĠĠĠĠĠĠĠĠĠĠĠ": 22948,
    "Ġtrappings": 23081,
    "erably": 7573,
    "Ġdefence": 11066,
    "Ġsoftened": 11101,
    "lod": 15376,
    "Ġremoved": 5274,
    "Ġandromeda": 21506,
    "mend": 20965,
    "Ġattempted": 8001,
    "dick": 11478,
    "lish": 1953,
    "bble": 17483,
    "Ġindelicacy": 25695,
    "Ġsee": 804,
    "Ġrabbit": 4291,
    "ougher": 18275,
    "osed": 1963,
    "Ġkettle": 26232,
    "oology": 21005,
    "Ġcrust": 21349,
    "Ġenem": 4708,
    "Ġgigantic": 5915,
    "itates": 13867,
    "Ď": 207,
    "Ġpeak": 16123,
    "Ġincludes": 2011,
    "Ġbudge": 15162,
    "Ġdiabol": 11452,
    "Ġinfat": 14498,
    "Ġfishy": 16521,
    "wilful": 25086,
    "Ġbrawny": 13611,
    "Ġnest": 10187,
    "Ġane": 9180,
    "danish": 20832,
    "housekeeping": 24102,
    "warm": 8102,
    "Ġdividing": 12108,
    "stool": 23817,
    "laid": 10108,
    "Ġreproofs": 24892,
    "dation": 2614,
    "!âĢĿ": 848,
    "Ġrival": 10484,
    "mits": 13754,
    "unavoidable": 17388,
    "afterwards": 7484,
    "Ġeastern": 11627,
    "rah": 8137,
    "Ġgloomily": 14799,
    "Ġindul": 5856,
    "ives": 1407,
    "orphans": 26439,
    "des": 1564,
    "Ġheard": 1399,
    "Ġcad": 12564,
    "Ġpulpit": 7470,
    "showing": 22461,
    "puzz": 17639,
    "war": 6802,
    "Ġconjectured": 9995,
    "Ġcosmopol": 16454,
    "ction": 495,
    "Ġsuppression": 23000,
    "Ġinfatuation": 25856,
    "Ġoxford": 11370,
    "r": 86,
    "Ġglacier": 11432,
    "Ġuncovered": 23430,
    "Ġlimping": 23542,
    "Ġnotwithstanding": 9712,
    "follows": 24527,
    "Ġhermits": 22072,
    "Ġinstigated": 18702,
    "anxiety": 25155,
    "**:": 4737,
    "Ġuntutored": 19165,
    "Ġdangerously": 23934,
    "Ġworrying": 22925,
    "ateful": 5927,
    "Ġstript": 23690,
    "Ġgayer": 24497,
    "arrant": 10473,
    "Ġupbra": 22152,
    "Ġstreng": 18070,
    "Ġfarewell": 9518,
    "Ġstumbling": 21740,
    "worship": 19385,
    "N": 50,
    "Ġvacant": 9493,
    "03": 20747,
    "Ġgroves": 16739,
    "Ġverdant": 15001,
    "Ġineffable": 17330,
    "Ġafternoon": 6053,
    "Ġdistinctly": 7311,
    "pressed": 6587,
    "commer": 22807,
    "inv": 8401,
    "least": 8783,
    "Ġrage": 5110,
    "bus": 5354,
    "assumed": 22306,
    "Ġproposal": 10017,
    "Ġindulging": 16903,
    "Ġundoubtedly": 8313,
    "appalled": 18760,
    "Ġappropriated": 23483,
    "Ġusing": 719,
    "shall": 4550,
    "leeward": 15208,
    "din": 8374,
    "Ġattitudes": 16096,
    "seldom": 13785,
    "mand": 3894,
    "seventy": 10875,
    "Ġsaintly": 25931,
    "À": 129,
    "tt": 13788,
    "Ġunchanged": 22029,
    "Ġmumbling": 11572,
    "Ġneighbors": 25806,
    "rimin": 2424,
    "Ġsigned": 11176,
    "Ġmines": 21307,
    "road": 6677,
    "supplement": 14795,
    "ribute": 7226,
    "county": 25396,
    "Ġ48": 24080,
    "Ġvesture": 20060,
    "Ġglistened": 20171,
    "buttons": 22400,
    "Ġburning": 5977,
    "88": 20757,
    "Ġprev": 6264,
    "Ġfluctuating": 24416,
    "Ġfolly": 7941,
    "Ġexpecting": 10435,
    "Ġprivacy": 19523,
    "Ġeating": 8136,
    "Ġhapp": 1088,
    "Ġerrand": 11084,
    "coat": 5407,
    "experienced": 15119,
    "Ġhero": 5715,
    "Ġcurly": 18854,
    "Ġfoundering": 21418,
    "Ġ131": 24782,
    "hullo": 17569,
    "Ġcombining": 22876,
    "rec": 6004,
    "Ġsaxon": 25468,
    "staff": 21648,
    "urg": 8142,
    "Ġold": 1058,
    "Ġisol": 8832,
    "sailor": 14713,
    "°": 113,
    "Ġtracks": 18890,
    "Ġexquis": 9698,
    "Ġwreck": 7314,
    "prospect": 23394,
    "ithing": 11647,
    "smile": 23903,
    "Ġstaying": 8284,
    "Ġimpotently": 22387,
    "ckles": 22087,
    "meaning": 2910,
    "Ġdecently": 22435,
    "Ġcats": 8978,
    "pening": 2831,
    "Ġplutarch": 22601,
    "Ġplaid": 22598,
    "Ġengaged": 3427,
    "lins": 2027,
    "Ġsimil": 2533,
    "Ġabhorred": 9506,
    "orney": 17873,
    "Ġtreachery": 15099,
    "Ġaffront": 18786,
    "Ġthyself": 6602,
    "Ġrib": 4936,
    "Ġforemost": 12001,
    "ibid": 18840,
    "Ġclams": 19987,
    "ocratic": 17244,
    "Ġhate": 5445,
    "unteered": 26494,
    "pet": 4867,
    "Ġconsidering": 4615,
    "hailed": 17564,
    "Ġmaketh": 15185,
    "Ġcosmetic": 23470,
    "hinting": 17568,
    "Ġabsorbing": 17127,
    "july": 20473,
    "mmed": 7915,
    "Ġinvests": 14866,
    "Ġconceive": 8461,
    "]": 65,
    "Ġcrane": 23438,
    "Ġrustling": 24715,
    "Ġunhe": 22008,
    "hastened": 16844,
    "male": 15386,
    "Ġsickening": 19603,
    "Ġrailway": 15019,
    "hon": 6793,
    "Ġbeating": 8145,
    "Ġsuppl": 11078,
    "marks": 7346,
    "Ġrichness": 19310,
    "unalterable": 21884,
    "savagery": 25025,
    "Ġdepend": 787,
    "Ġtweed": 22675,
    "Ġbinnacle": 8119,
    "Ġoughts": 23898,
    "propriety": 14365,
    "Ġlikened": 16498,
    "inous": 8771,
    "Ġashore": 5351,
    "Ġpronouncing": 16968,
    "Ġfrowning": 13621,
    "Ġsag": 6514,
    "Ġnowhere": 12882,
    "Ġbeacon": 21754,
    "Ġjoist": 19230,
    "Ġaband": 6561,
    "Ġhistories": 14686,
    "lan": 15375,
    "utted": 15657,
    "tempted": 26402,
    "Ġperceived": 4714,
    "Ġspiracle": 14148,
    "Ġcant": 17824,
    "beat": 10985,
    "borough": 20784,
    "Ġsucked": 14135,
    "Ġhedgehogs": 25394,
    "Ġpent": 17901,
    "hyp": 15364,
    "joint": 24007,
    "Ġjo": 2609,
    "sper": 4436,
    "tar": 8098,
    "ff": 462,
    "Ġgallop": 19554,
    "Ġstoven": 23173,
    "him": 1940,
    "Ġdog": 4193,
    "Ġmerged": 19296,
    "alizing": 17939,
    "orously": 8419,
    "Ġpiled": 8425,
    "apering": 8041,
    "Ġoutbreak": 22315,
    "Ġraw": 3318,
    "Ġabandonment": 25603,
    "Ġcoincidence": 25483,
    "Ġfears": 5729,
    "Ġgloomy": 7504,
    "Ġjudge": 5502,
    "Ġreach": 4047,
    "Ġlids": 12272,
    "legra": 10788,
    "Ġcontrary": 5260,
    "Ġcombinations": 22877,
    "Ġclasp": 9742,
    "Ġ156": 20169,
    "unnatural": 15769,
    "Ġmoonshine": 19596,
    "shook": 19855,
    "atch": 675,
    "itute": 9650,
    "Ġgradually": 3399,
    "Ġhood": 10822,
    "Ġallegor": 25545,
    "pilot": 25908,
    "ror": 7351,
    "Ġkingdom": 12015,
    "Ġmonstrous": 7790,
    "animate": 12573,
    "Ġarched": 10931,
    "assisted": 22305,
    "Ġirrespective": 23373,
    "qual": 8157,
    "progra": 9393,
    "venerable": 26407,
    "Ġbat": 10794,
    "gown": 9595,
    "Ġinsisted": 12043,
    "Ġdetested": 14173,
    "esc": 618,
    "children": 9054,
    "Ġkilling": 13330,
    "Ġcommenced": 8531,
    "Ġnoah": 10941,
    "Ġbackbone": 22655,
    "solving": 3100,
    "Ġwashington": 17201,
    "Ġenough": 1763,
    "Ġcoin": 9769,
    "Ġinvincible": 23478,
    "Ġjub": 22293,
    "what": 642,
    "Ġhenceforth": 19646,
    "contracting": 19293,
    "Ġfra": 1797,
    "Ġdispleasure": 16049,
    "ensation": 22544,
    "tattoo": 21086,
    "Ġrain": 5005,
    "Ġlug": 15648,
    "Ġforbe": 8457,
    "Ġunwearied": 20601,
    "Ġdiscoverer": 26035,
    "Ġdesert": 6726,
    "Ġfirm": 3871,
    "Ġdamning": 19139,
    "despair": 8344,
    "Ġbubblingly": 25632,
    "perpetually": 20511,
    "insufficient": 15487,
    "Ġconviction": 6326,
    "Ġsalad": 19477,
    "Ġambition": 11431,
    "Ġmouse": 4694,
    "sorts": 21059,
    "ishes": 6523,
    "Ġaisle": 21200,
    "raising": 21630,
    "Ġsmiles": 6706,
    "ootiful": 17371,
    "Ġpatagon": 14509,
    "Ġwhenever": 5166,
    "Ġadmir": 12018,
    "Ġcond": 3875,
    "Ġsavagely": 26323,
    "Ġyield": 5093,
    "plac": 15817,
    "Ġtrick": 7020,
    "Ġeats": 15673,
    "Ġstur": 15713,
    "especially": 3571,
    "Ġdoubly": 16386,
    "Ġqu": 605,
    "serious": 14446,
    "tired": 21071,
    "Ġmaggie": 26291,
    "Ġbracelets": 25502,
    "Ġross": 2762,
    "irr": 12733,
    "Ġens": 2787,
    "Ġprotruded": 19468,
    "erm": 783,
    "Ġmunro": 25630,
    "Ġgrizz": 10350,
    "Ġducking": 17145,
    "Ġatlantic": 7000,
    "verest": 13989,
    "Ġpass": 1039,
    "Ġtarpaulin": 26157,
    "Ġscrupulous": 20067,
    "Ġintegrated": 13529,
    "ari": 674,
    "Ġinterrupting": 19556,
    "Ġforebodings": 17302,
    "Ġundressed": 19512,
    "nay": 7135,
    "Ġtwink": 8216,
    "Ġlash": 8439,
    "simple": 13450,
    "Ġpail": 15603,
    "fishermen": 17060,
    "measureless": 20234,
    "reposed": 24491,
    "Ġtrials": 16788,
    "Ġlurking": 11288,
    "former": 11745,
    "icip": 6389,
    "resting": 23235,
    "Ġoutrageous": 20609,
    "idays": 21768,
    "Ġwhittingham": 26197,
    "Ġsudden": 1999,
    "fted": 9117,
    "Ġjaw": 3316,
    "Ġrecur": 1626,
    "direct": 12453,
    "Ġ36": 14766,
    "Ġirrevocably": 15295,
    "Ġbluish": 23648,
    "Ġnick": 21521,
    "over": 1847,
    "ashtego": 4101,
    "Ġstaple": 26198,
    "Ġbats": 13898,
    "k": 79,
    "entieth": 17978,
    "Ġcarpent": 4466,
    "unities": 15767,
    "Ġmeddling": 24082,
    "ben": 4926,
    "ac": 698,
    "Ġbarque": 23789,
    "countenances": 24150,
    "fra": 8375,
    "clever": 20812,
    "Ġinhab": 5083,
    "Ġwhirl": 13447,
    "Ġagonising": 25373,
    "inquiry": 15140,
    "alarm": 15623,
    "showed": 16025,
    "Ġlower": 2662,
    "covered": 11476,
    "oid": 3127,
    "Ġinexpress": 12631,
    "Ġallusions": 10905,
    "Ġeverything": 3154,
    "Ġindirect": 18835,
    "warrant": 21136,
    "Ġungenerous": 18266,
    "Ġtinker": 15129,
    "talked": 14983,
    "Ġelixir": 26554,
    "Ġclaimed": 14200,
    "Ġabsor": 8504,
    "Ġlive": 2734,
    "eyeing": 14944,
    "Ġwhist": 6022,
    "rut": 8092,
    "Ġstuck": 9219,
    "Ġwhiskers": 10491,
    "bres": 11470,
    "Ġseverest": 14088,
    "Ġendwise": 23142,
    "Ġharsh": 9519,
    "bation": 9101,
    "iners": 4937,
    "Ġcretan": 22725,
    "Ġwhereas": 3855,
    "descending": 16282,
    "Ġbri": 21376,
    "Ġimpul": 7208,
    "Ġseveral": 2672,
    "ll": 1138,
    "Ġsuperst": 7704,
    "Ġvan": 1086,
    "Ġcreeping": 18684,
    "Ġbourgh": 5069,
    "lungs": 26135,
    "Ġnods": 19062,
    "bride": 19199,
    "Ġdinner": 4246,
    "Ġmann": 18416,
    "Ġtransformations": 3481,
    "ifle": 10890,
    "Ġpip": 1593,
    "Ġpall": 7582,
    "Ġparasol": 22119,
    "Ġdispelling": 23878,
    "Ġassurances": 9998,
    "Ġeliza": 6437,
    "Ġal": 342,
    "bbing": 6323,
    "Ġden": 3107,
    "Ġobjective": 3768,
    "god": 4863,
    "Ġbrawn": 10480,
    "Ġdecision": 2675,
    "conception": 22472,
    "nonsense": 17614,
    "Ġwalk": 1828,
    "Ġremarked": 3694,
    "wandered": 20284,
    "Ġsm": 704,
    "Ġaccompany": 9485,
    "Ġjourneys": 19473,
    "ĠĠĠĠĠĠĠĠĠĠĠĠĠĠĠĠĠĠĠĠĠĠ": 16223,
    "Ġperempt": 13671,
    "perquis": 22188,
    "devilish": 17081,
    "Ġ177": 13410,
    "wives": 15453,
    "Ġsubordinate": 18722,
    "Ġdiscernment": 15053,
    "Ġcrowded": 8012,
    "ples": 6845,
    "uding": 16145,
    "agery": 21905,
    "Ġgenerous": 6273,
    "Ġphysiognomical": 25611,
    "Ġcemet": 20679,
    "arity": 1300,
    "Ġeffectively": 2764,
    "Ġbraw": 23832,
    "fearing": 18527,
    "Ġdaylight": 10349,
    "Ġechoed": 20422,
    "Ġglimpse": 6944,
    "Ġtwopence": 18660,
    "Ġprobed": 18732,
    "Ġprivileges": 25132,
    "Ġunflinching": 26511,
    "Ġmac": 15535,
    "Ġvillainous": 25131,
    "Ġentangled": 10344,
    "pole": 9331,
    "Ġfrocks": 23919,
    "Ġargument": 7098,
    "Ġcoinc": 11001,
    "Ġdiscover": 4718,
    "Ġstart": 3258,
    "Ġimpenet": 14217,
    "Ġnuptial": 25782,
    "Ġtalked": 4422,
    "servant": 15034,
    "azed": 9397,
    "nuts": 15396,
    "Ġjudged": 12080,
    "bly": 6110,
    "ham": 1704,
    "Ġpurring": 23474,
    "Ġcruelly": 13373,
    "Ġmonotonically": 3834,
    "yt": 17710,
    "Ġsuperstition": 15055,
    "Ġq": 1083,
    "Ġcow": 13874,
    "Ġscores": 2714,
    "ollion": 19714,
    "Ġgrammars": 11401,
    "Ġghast": 9208,
    "stick": 15680,
    "İ": 241,
    "Ġtransformer": 2636,
    "Ġconstitutional": 25125,
    "Ġrepel": 23358,
    "encoun": 12295,
    "Ġlashing": 11614,
    "Ġfreed": 7267,
    "Ġpan": 5082,
    "Ġpit": 3418,
    "Ġhealthy": 10850,
    "Ġepoch": 26471,
    "haw": 6361,
    "Ġrans": 21964,
    "Ġinvestigated": 25386,
    "Ġcoil": 11815,
    "Ġtimber": 13347,
    "Ġdelicate": 6480,
    "Ġdub": 13907,
    "signs": 16538,
    "vanished": 15061,
    "icking": 8909,
    "Ġboiling": 8525,
    "Ġnarrow": 5086,
    "Ġfragment": 14504,
    "Ġselection": 18202,
    "Ġfortunately": 12176,
    "atre": 17769,
    "Ġidentical": 10433,
    "Ġoriginal": 6102,
    "convenient": 12234,
    "Ġsharks": 4498,
    "indebted": 26158,
    "intosh": 22938,
    "Ġable": 3081,
    "Ġungrateful": 14119,
    "Ġsuggestive": 11296,
    "Ġpurposes": 11167,
    "acious": 5560,
    "Ġfron": 14486,
    "anyth": 5438,
    "Ġtossed": 5815,
    "Ġdevil": 3611,
    "mming": 1169,
    "Ġheed": 5630,
    "Ġchoking": 15931,
    "borean": 25743,
    "Ġhorses": 6385,
    "Ġpurchasing": 19874,
    "Ġdepending": 14295,
    "Ġedge": 5188,
    "Ġedition": 16432,
    ");": 7330,
    "Ġetern": 7085,
    "top": 4486,
    "confirmation": 26089,
    "Ġineffectual": 17382,
    "ige": 12676,
    "verity": 13999,
    "Ġdaresay": 14702,
    "Ġmyth": 18220,
    "brad": 20780,
    "ificial": 601,
    "Ġshelves": 14997,
    "Ġcapsizing": 20087,
    "Ġignorant": 5343,
    "sequ": 2401,
    "Ġdagger": 21436,
    "Ġresistance": 13528,
    "Ġplains": 14621,
    "bottom": 11425,
    "Ġready": 3396,
    "Ġtwinkle": 12320,
    "rix": 1573,
    "Ġgentlemen": 3641,
    "Ġnewsp": 9337,
    "Ġalleys": 25978,
    "vain": 15445,
    "gazed": 15359,
    ",âĢĶâĢľ": 10068,
    "Ġclank": 15962,
    "fred": 20854,
    "halfway": 24310,
    "ources": 2788,
    "Ġcrimes": 8588,
    "wig": 17703,
    "blasted": 20188,
    "Ġreckon": 19869,
    "Ġcorrespond": 6209,
    "Ġgush": 10201,
    "Ġfellow": 2775,
    "Ġconfirmed": 11138,
    "stands": 22433,
    "filled": 9593,
    "gardiner": 12288,
    "Ġtroubling": 26546,
    "ach": 435,
    "Ġquestioned": 14618,
    "ilege": 22256,
    "agation": 1242,
    "cient": 4569,
    "Ġvanquished": 22872,
    "accompl": 9878,
    "Ġembarked": 17133,
    "Ġmap": 2392,
    "countryman": 24639,
    "ially": 9244,
    "embraced": 25804,
    "aulets": 18619,
    "Ġsorts": 6887,
    "asters": 8434,
    "Ġheroes": 10575,
    "ites": 3898,
    "ositories": 22262,
    "Ġtraitors": 23077,
    "Ġbranches": 6776,
    "Ġsash": 17753,
    "Ġautomation": 13247,
    "ilogue": 21722,
    "Ġambitious": 18517,
    "pleased": 8852,
    "Ġepidemic": 20694,
    "darted": 20831,
    "Ġprove": 5231,
    "Ġabandoned": 8352,
    "instinctively": 26327,
    "Ġpersu": 3562,
    "Ġexploring": 4307,
    "pil": 15406,
    "grate": 23410,
    "Ġmonomaniac": 9567,
    "Ġquote": 18466,
    "gast": 20870,
    "Ġwhaling": 2782,
    "Ġterms": 2564,
    "Ġvict": 3765,
    "Ġplates": 11005,
    "umblings": 23927,
    "ividual": 5463,
    "forgot": 11032,
    "screwed": 17186,
    "Ġsilly": 7686,
    "Ġfavourable": 7959,
    "begins": 18525,
    "Ġprudential": 17917,
    "Ġounce": 15270,
    "Ġprotection": 9460,
    "observing": 25494,
    "Ġvig": 5460,
    "Ġsends": 14788,
    "Ġsolution": 9803,
    "Ġloud": 4701,
    "Ġlegendary": 20536,
    "Ġcanall": 10927,
    "apt": 733,
    "Ġnavy": 14914,
    "Ġut": 2277,
    "Ġlucifers": 16587,
    "Ġfitly": 23996,
    "dropout": 3196,
    "Ġdefects": 12330,
    "aks": 8506,
    "hears": 12529,
    "Ġhanged": 17924,
    "Ġ41": 24079,
    "Ġmeagre": 21811,
    "atever": 3079,
    "glasses": 11214,
    "necessities": 24305,
    "ras": 21035,
    "Ġrede": 13982,
    "Ġchaff": 18383,
    "oried": 10801,
    "Ġpleasant": 4170,
    "Ġtract": 21164,
    "Ġsticking": 13425,
    "low": 657,
    "ologies": 18770,
    "Ġpleasing": 6190,
    "Ġdistantly": 18531,
    "Ġobvious": 4964,
    "Ġcapting": 23019,
    "Ġimpro": 899,
    "Ġost": 9648,
    "//": 11462,
    "Ġcalifornia": 20528,
    "Ġclever": 7054,
    "Ġhesitating": 16946,
    "Ġblown": 12082,
    "pression": 10406,
    "Ġterra": 13114,
    "Ġilluminate": 17191,
    "Ġtreacle": 14594,
    "Ġcolt": 11043,
    "Ġeavesdroppers": 25963,
    "Ġoblong": 14319,
    "Ġfern": 21405,
    "condem": 16341,
    "Ġmainland": 22654,
    "Ġanom": 12607,
    "Ġdough": 8421,
    "answer": 11732,
    "arus": 13910,
    "ops": 5247,
    "Ġed": 2142,
    "ľ": 255,
    "Ġbengal": 18782,
    "isp": 5528,
    "Ġseverely": 14931,
    "Ġinquiry": 6484,
    "ffy": 18317,
    "Ġdraughts": 20220,
    "Ġincisive": 18571,
    "Ġmonsters": 11074,
    "Ġbur": 2697,
    "Ġmistress": 8611,
    "Ġmarble": 7669,
    "listener": 24930,
    "Ġsucceed": 4545,
    "¢": 100,
    "danger": 10088,
    "correspond": 13396,
    "Ġspatial": 2729,
    "Ġfed": 5529,
    "andering": 21865,
    "phr": 18708,
    "Ġforgery": 25977,
    "Ġeducation": 5128,
    "Ġapproached": 5843,
    "footman": 17161,
    "Ġsafe": 5103,
    "Ġhospital": 15038,
    "ske": 13780,
    "Ġdiscre": 2416,
    "condite": 23247,
    "Ġpole": 6433,
    "Ġultimately": 17163,
    "Ġpill": 7846,
    "Ġevol": 2813,
    "Ġhowled": 12852,
    "battering": 20785,
    "Ġn": 300,
    "Ġweighty": 16028,
    "heads": 4094,
    "eck": 20843,
    "ement": 1500,
    "Ġret": 1381,
    "Ġsomewhat": 4897,
    "Ġhackney": 20431,
    "Ġvoice": 2189,
    "Ġbenchmarks": 15020,
    "Ġtreatment": 12068,
    "meryton": 10110,
    "disgu": 19153,
    "Ġdrows": 21434,
    "desper": 13066,
    "started": 10844,
    "Ġtexture": 19159,
    "Ġcalmly": 7734,
    "Ġuns": 15833,
    "Ġwild": 2602,
    "gledy": 25403,
    "straight": 9938,
    "Ġaccomp": 4713,
    "both": 5785,
    "Ġobe": 5800,
    "pond": 21012,
    "scar": 9814,
    "Ġsped": 22123,
    "urpr": 2285,
    "Ġsant": 21213,
    "Ġexposes": 22620,
    "dron": 17524,
    "pierced": 26141,
    "Ġsilence": 3267,
    "resemblance": 25933,
    "Ġcalendar": 18877,
    "Ġconsiderable": 4009,
    "sus": 6228,
    "Ġproxim": 3199,
    "Ġunsounded": 15846,
    "Ġcandles": 9906,
    "idly": 12696,
    "retion": 9360,
    "erated": 21269,
    "Ġmutilated": 23956,
    "Ġpri": 5813,
    "confidence": 16807,
    "Ġans": 1648,
    "Ġheav": 1852,
    "ucumber": 19058,
    "Ġless": 1939,
    "Ġfinest": 10391,
    "Ġlic": 8436,
    "Ġhereby": 10357,
    "Ġdented": 17891,
    "ws": 7355,
    "Ġhourly": 23301,
    "partner": 19220,
    "Ġin": 291,
    "Ġ=": 1074,
    "endous": 6850,
    "Ġmeals": 12707,
    "object": 6884,
    "advance": 12153,
    "Ġram": 11011,
    "Ġsorrow": 4628,
    "ife": 1024,
    "Ġwhale": 627,
    "Ġslippery": 12163,
    "Ġsobbing": 14132,
    "Ġsemblance": 20733,
    "Ġunden": 22011,
    "Ġpanelled": 19653,
    "!âĢĻâĢĿ": 16591,
    "lower": 8879,
    "Ġinsolence": 20252,
    "Ġinseparable": 20687,
    "Ġcuff": 17829,
    "istrate": 7406,
    "Ġpersonal": 7479,
    "Ġmat": 1147,
    "Ġembodied": 25847,
    "directed": 20403,
    "yl": 7819,
    "augh": 1783,
    "Ġoftener": 13563,
    "liber": 18813,
    "Ġsuppressing": 23001,
    "Ġpalace": 16689,
    "desp": 6076,
    "Ġphrenologically": 20392,
    "mp": 3730,
    "client": 18931,
    "small": 6472,
    "Ġcharley": 19006,
    "quitted": 21849,
    "Ġintervals": 5597,
    "restrained": 16333,
    "Ġtranquil": 7310,
    "Ġstabbing": 20302,
    "scarcely": 12383,
    "hunters": 16832,
    "Ġflashed": 11911,
    "Ġstall": 12692,
    "ants": 1390,
    "hearted": 6970,
    "ast": 474,
    "erect": 20847,
    "wonder": 6371,
    "Ġmak": 10777,
    "Ġrejoiced": 8683,
    "Ġshreds": 12766,
    "Ġsuckling": 25997,
    "officers": 10626,
    "Ġbelt": 12999,
    "commotion": 24913,
    "Ġcolumb": 22852,
    "Ġhereford": 22873,
    "Ġfret": 10805,
    "Ġcrucifix": 26079,
    "Ġpremature": 3728,
    "Ġgliding": 8560,
    "Ġele": 1965,
    "Ġ76": 24261,
    "Ġbohem": 8526,
    "ompl": 4536,
    "balance": 12003,
    "devil": 7896,
    "Ġdair": 17889,
    "Ġevince": 24292,
    "Ġgiven": 1631,
    "atoes": 17774,
    "disciple": 16777,
    "ould": 428,
    "alously": 15625,
    "Ġtucked": 12389,
    "Ġaffords": 16733,
    "Ġkneel": 14805,
    "nings": 9130,
    "Ġcheek": 8577,
    "Ġunnatural": 7190,
    "Ġcruis": 14622,
    "Ġdy": 2522,
    "elter": 21569,
    "older": 15749,
    "going": 6313,
    "µ": 118,
    "becomes": 22494,
    "quarrel": 20013,
    "tinted": 17682,
    "ator": 1923,
    "p": 84,
    "volutional": 1935,
    "Ġflee": 7079,
    "Ġpretension": 23762,
    "Ġuntimely": 16465,
    "Ġmira": 8407,
    "exerc": 16012,
    "beheld": 11798,
    "Ġvapor": 8699,
    "Ġneck": 4885,
    "Ġmovement": 9966,
    "omuch": 21658,
    "Ġjeer": 24123,
    "henomenon": 13612,
    "Ġliver": 14226,
    "Ġbeaches": 18084,
    "ority": 8418,
    "Ġawkward": 7073,
    "conce": 8510,
    "intentions": 22937,
    "Ġdews": 21836,
    "inition": 11555,
    "÷": 184,
    "Ġconcer": 23321,
    "Ġlighter": 12649,
    "Ġnatives": 17950,
    "Ġignorantly": 19494,
    "Ġcraw": 7282,
    "Ġskil": 14349,
    "Ġsuspic": 4471,
    "Ġ125": 24469,
    "Ġowing": 6005,
    "Ġdivision": 19442,
    "Ġunst": 18238,
    "jewell": 25523,
    "Ġlichen": 20090,
    "Ġabilities": 8865,
    "Ġpitched": 9442,
    "Ġ182": 13234,
    "Ġthoughtful": 16188,
    "instead": 14811,
    "osh": 18388,
    "Ġcetace": 14986,
    "Ġexpressions": 7706,
    "Ġcasting": 12097,
    "Ġavenues": 25429,
    "Ġdestined": 7974,
    "Ġquarter": 3977,
    "Â": 131,
    "Ġresigned": 9766,
    "yn": 7820,
    "Ġroughly": 17039,
    "atered": 22005,
    "Ġadjac": 18294,
    "Ġwoven": 9924,
    "Ġtasks": 1788,
    "Ġlandlady": 10421,
    "Ġaye": 3351,
    "bec": 4053,
    "Ġcruisings": 25864,
    "voy": 7143,
    "othing": 6995,
    "Ġpartake": 18673,
    "Ġmusky": 19380,
    "abated": 14018,
    "Ġinnermost": 12157,
    "Ġprojected": 16868,
    "yet": 3756,
    "Ġviolin": 16426,
    "sol": 1790,
    "Ġagonized": 25372,
    "Ġanimate": 23421,
    "binnacle": 20786,
    "inspector": 13644,
    "Ġheh": 21678,
    "astron": 22172,
    "Ġunconsciously": 10003,
    "avor": 14277,
    "bat": 8072,
    "ital": 4817,
    "ountain": 2920,
    "Ġseek": 4509,
    "Ġparmacetti": 20603,
    "Ġah": 5075,
    "Ġmarks": 6746,
    "Ġtertiary": 15292,
    "Ġvillain": 8635,
    "Ġluc": 3308,
    "clearly": 25195,
    "Ġugl": 12678,
    "bran": 23573,
    "recognised": 15260,
    "Ġwear": 6031,
    "ckery": 22088,
    "stubb": 6018,
    "Ġnathan": 21524,
    "cred": 9106,
    "Ġdisabled": 18561,
    "Ġseizing": 7878,
    "Ġfault": 5702,
    "Ġfurnished": 6475,
    "Ġloth": 17965,
    "Ġlowers": 23240,
    "ice": 589,
    "gee": 15974,
    "Ġspite": 4155,
    "some": 2233,
    "Ġsallow": 12532,
    "lust": 15377,
    "Ġfrivolous": 26176,
    "lances": 15381,
    "Ġcommand": 3319,
    "walton": 20248,
    "Ġcomponents": 8892,
    "ue": 1177,
    "us": 532,
    "deception": 22142,
    "wor": 3414,
    "Ġterribly": 10424,
    "sleeping": 13452,
    "pre": 648,
    "istic": 976,
    "Ġsnaky": 23740,
    "Ġclergyman": 8711,
    "assure": 9267,
    "Ġweeks": 4565,
    "Ġdevotedly": 24750,
    "=": 33,
    "Ġbrill": 8548,
    "Ġrachel": 11842,
    "lux": 14225,
    "leep": 4634,
    "Ġtoll": 7852,
    "ighted": 8476,
    "pton": 15790,
    "leaned": 21367,
    "couldn": 23716,
    "Ġsensible": 4976,
    "Ġhusbands": 16641,
    "dramatic": 19383,
    "Ġcurtains": 22998,
    "Ġflooded": 24961,
    "Ġdost": 7636,
    "Ġexceeding": 1579,
    "expanded": 23661,
    "autumn": 23342,
    "Ġexclamation": 8698,
    "Ġcorpore": 13399,
    "Ġuplifted": 11645,
    "âĢĻ-": 18166,
    "strikes": 24670,
    "purse": 20023,
    "chief": 4644,
    "Ġframed": 19030,
    "Ġcobweb": 22585,
    "Ġcatching": 9476,
    "Ġhunt": 6183,
    "Ġpoignant": 22592,
    "Ġmeasuring": 22880,
    "Ġimprudence": 10296,
    "inqu": 6121,
    "Ġagonizing": 17237,
    "Ġcaved": 21351,
    "Ĉ": 201,
    "Ġsallies": 21228,
    "aned": 5147,
    "hunsford": 24385,
    "fierce": 25255,
    "gin": 4930,
    "¾": 127,
    "Ġsoil": 9253,
    "Ġneighbor": 25805,
    "Ġreverie": 13455,
    "herent": 2531,
    "unable": 14057,
    "Ġsho": 2242,
    "Ġrescales": 5068,
    "Ġriverside": 25247,
    "Ġcolder": 22850,
    "Ġautumnal": 19034,
    "Ġinsatiate": 19269,
    "sequently": 14581,
    "ontory": 10458,
    "ty": 1003,
    "Ġchance": 3315,
    "nue": 15395,
    "aug": 1211,
    "Ġopine": 19226,
    "Ġrelinquish": 17345,
    "Ġunreliable": 3929,
    "Ġhelping": 3266,
    "tumbled": 21089,
    "further": 7535,
    "Ġlinear": 3430,
    "Ġlesson": 7276,
    "Ġinv": 2223,
    "Ġeffect": 973,
    "Ġeaglet": 19304,
    "Ġfable": 15573,
    "Ġfishers": 19352,
    "encing": 21281,
    "Ġjail": 22292,
    "host": 5866,
    "Ġconge": 15742,
    "Ġparaph": 22118,
    "Ġcollins": 2178,
    "bell": 7332,
    "difference": 13706,
    "Ġnook": 15925,
    "akness": 14193,
    "Ġselected": 9708,
    "Ġgeometric": 3219,
    "utterly": 20010,
    "Ġsalmon": 24060,
    "Ġdriving": 3615,
    "Ġsnow": 3708,
    "Ġbacking": 16114,
    "Ġpurchase": 12256,
    "Ġcordial": 16834,
    "Ġdreams": 7496,
    "doc": 23374,
    "Ġbolts": 16942,
    "tstone": 21083,
    "Ġga": 4447,
    "Ġconsequently": 8060,
    "Ġstarlight": 24627,
    "Ġwand": 4343,
    "kin": 7131,
    "Ġvisited": 5948,
    "Ġpoint": 2056,
    "vocation": 25084,
    "trem": 17680,
    "Ġwoe": 4793,
    "Ġdeft": 21834,
    "Ġqualified": 14948,
    "Ġrepose": 6741,
    "Ġbenefits": 4289,
    "whips": 22236,
    "Ġstudying": 9847,
    "addressing": 24400,
    "Ġthee": 2623,
    "Ġfainter": 14912,
    "_âĢĶâĢĻâĢĿ": 25741,
    "Ġflying": 5413,
    "ancient": 9654,
    "scores": 22987,
    "eling": 6681,
    "likewise": 13103,
    "Ġpeeled": 14316,
    "Ġeyebrows": 23513,
    "Ġseap": 15811,
    "shoals": 24717,
    "Ġsurvivor": 17361,
    "Ġdipped": 15591,
    "approb": 11041,
    "Ġglided": 7447,
    "Ġfranc": 16349,
    "Ġmovements": 24358,
    "Ġarch": 948,
    "Ġtreasures": 17046,
    "Ġanvil": 11595,
    "riors": 18186,
    "Ġincapable": 7423,
    "Ġprotested": 9932,
    "Ġfacilitate": 26098,
    "Ġits": 706,
    "Ġcastor": 19425,
    "Ġsustain": 10015,
    "Ġattendance": 12178,
    "buttoned": 13630,
    "Ġrelevance": 5184,
    "Ġneeds": 6605,
    "Ġreflection": 6440,
    "Ġasp": 15777,
    "Ġmankind": 6698,
    "phantoms": 24679,
    "Ġbenevol": 5962,
    "Ġowe": 8115,
    "Ġforetold": 23450,
    "utmost": 21586,
    "deliver": 19503,
    "Ġalley": 15732,
    "Ġforbidding": 17078,
    "Ġrelatives": 12978,
    "Ġconver": 806,
    "type": 16174,
    "Ġshop": 9250,
    "securing": 19812,
    "Ġtrappers": 23080,
    "Ġcandour": 14671,
    "Ġtestimony": 14477,
    "rollable": 13943,
    "picture": 11406,
    "Ġignorance": 6618,
    "Ġfort": 2579,
    "Ġhandspike": 22696,
    "gement": 13726,
    "Ġunderneath": 16335,
    "mic": 12485,
    "Ġrevelation": 25222,
    "Ġlowerings": 23645,
    "xim": 1090,
    "admire": 24943,
    "Ġwhar": 7388,
    "lucas": 15149,
    "slo": 17655,
    "Ġrollicking": 24450,
    "lording": 24048,
    "Ġwhalebone": 10976,
    "Ġdinah": 9451,
    "Ġwant": 1118,
    "Ġwill": 678,
    "Ġcarrying": 6072,
    "compliment": 11363,
    "Ġfrighten": 13276,
    "oriously": 17874,
    "Ġwanting": 6721,
    "Ġsisterly": 16299,
    "Ġblueprints": 13169,
    "hypothe": 25905,
    "Ġsculpt": 15943,
    "Ġamours": 22479,
    "Ġchallenge": 25471,
    "otam": 21796,
    "Ġirish": 14533,
    "Ġlightning": 5750,
    "Ġulster": 14996,
    "Ġofficers": 4427,
    "Ġmediocr": 24083,
    "kitty": 10104,
    "Ġindefinitely": 25221,
    "sustained": 20567,
    "Ġjungfrau": 15246,
    "readers": 23845,
    "Ġsparsity": 4210,
    "Ġash": 4832,
    "illuminated": 17451,
    "unching": 18158,
    "Ġcin": 13873,
    "orative": 21396,
    "Ġmapp": 2082,
    "Ġlittle": 866,
    "ergy": 2361,
    "Ġdining": 6977,
    "Ġfritters": 23256,
    "province": 26072,
    "Ġcrossing": 7253,
    "Ġencouraging": 2261,
    "Ġministers": 22831,
    "iliar": 15710,
    "lipped": 16214,
    "Ġtam": 7822,
    "Ġbrief": 6976,
    "bony": 15317,
    "grand": 7970,
    "Ġincessantly": 11410,
    "Ġpumps": 8427,
    "Ġspices": 22128,
    "expect": 4769,
    "adventurous": 25361,
    "Ġcircle": 4977,
    "Ġbale": 7839,
    "Ġpreventing": 883,
    "Ġcups": 16881,
    "Ġpertaining": 18450,
    "Ġcrests": 25685,
    "Ġquarrel": 7292,
    "circum": 16736,
    "luded": 4230,
    "Ġbir": 17853,
    "Ġkidnapping": 26356,
    "Ġwithdraw": 16963,
    "Ġpathetic": 19036,
    "Ġthrees": 23399,
    "Ġexerc": 6834,
    "Ġunited": 6840,
    "Ġexcel": 3566,
    "elt": 4114,
    "ante": 11718,
    "Ġcrossed": 6069,
    "leather": 13888,
    "Ġspade": 9257,
    "Ġcavity": 20486,
    "Ġrealistic": 5860,
    "descried": 11926,
    "Ġstrict": 7222,
    "capting": 24037,
    "porary": 14551,
    "Ġdiscrimin": 2548,
    "etimes": 1988,
    "gan": 2197,
    "pudding": 17646,
    "Ġanyone": 4460,
    "Ġmarched": 18871,
    "ground": 4671,
    "impress": 18051,
    "thither": 21981,
    "Ġpreposter": 12818,
    "Ġatt": 780,
    "Ġsepulchre": 20558,
    "Ġnail": 9194,
    "Ġventil": 8020,
    "Ġsupposition": 9815,
    "Ġtass": 15468,
    "Ġsutherland": 10147,
    "Ġhaul": 11689,
    "repairing": 24494,
    "Ġexpressing": 12005,
    "Ġresolute": 19243,
    "kings": 17582,
    "ancing": 1760,
    "Ġsect": 17750,
    "aggo": 5097,
    "iteous": 14263,
    "Ġlining": 13949,
    "Ġhandwriting": 14317,
    "indul": 22368,
    "partiality": 13158,
    "uts": 8814,
    "Ġolder": 9325,
    "Ġrealities": 18982,
    "Ġproduced": 2453,
    "Ġcoolness": 16885,
    "Ġimpart": 11777,
    "Ġrepented": 23361,
    "amb": 5723,
    "immedi": 8450,
    "Ġsmoke": 4716,
    "Ġskill": 6872,
    "Ġprovide": 7750,
    "Ġbarrel": 23790,
    "Ġepsom": 19981,
    "Ġobtain": 8913,
    "Ġperched": 10298,
    "Ġbucket": 8786,
    "Ġdetermining": 14419,
    "wich": 11542,
    "Ġmonsieur": 12418,
    "Ġcoronet": 6344,
    "Ġsprawling": 22137,
    "Ġdozen": 8186,
    "arranged": 19318,
    "fulness": 4312,
    "did": 3195,
    "Ġire": 12663,
    "Ġhab": 4220,
    "Ġrevolver": 14896,
    "Ġanimal": 2500,
    "infallibly": 26416,
    "Ġsluggish": 25890,
    "ening": 3105,
    "Ġharmless": 9963,
    "sartain": 25622,
    "Ġoceans": 7996,
    "ĠĠĠĠĠĠĠĠĠĠĠĠĠĠĠĠĠĠĠĠĠĠĠĠĠĠĠĠĠĠĠĠĠĠĠĠĠ": 14613,
    "Ġfattened": 25949,
    "Ġsaints": 20673,
    "european": 26371,
    "Ġsource": 6805,
    "Ġshade": 6550,
    "j": 78,
    "rear": 21231,
    "grass": 23411,
    "father": 3778,
    "Ġalter": 6542,
    "history": 15013,
    "fee": 12875,
    "Ġsmite": 22556,
    "Ġhappens": 2187,
    "Ġdisquiet": 18552,
    "Ġlives": 4826,
    "tin": 6116,
    "strugg": 21654,
    "Ġunderwent": 23238,
    "Ġsoda": 25534,
    "Ġdon": 1617,
    "Ġ63": 24365,
    "Ġhawk": 15171,
    "Ġunderstanding": 1850,
    "Ġcy": 13872,
    "Ġusage": 9729,
    "Ġsaid": 580,
    "achel": 7031,
    "Ġskin": 5038,
    "aft": 9582,
    "arnel": 18124,
    "Ġdl": 3375,
    "Ġsentimental": 24754,
    "Ġhousemaid": 14462,
    "Ġanswerable": 23469,
    "cable": 20796,
    "cc": 469,
    "backs": 9389,
    "fight": 17537,
    "idge": 14012,
    "Ġgambler": 26190,
    "Ġstre": 2108,
    "Ġresidence": 8207,
    "proble": 9392,
    "Ġsurrender": 16448,
    "Ġempt": 5051,
    "uvier": 9067,
    "Ġchannels": 26013,
    "Ġpos": 1011,
    "Ġdefici": 22941,
    "rd": 17648,
    "Ġherds": 9714,
    "Ġalleviated": 26203,
    "Ġunintelligible": 26513,
    "Ġwhims": 12688,
    "Ġtranqu": 4605,
    "barr": 15318,
    "Ġpersuaded": 5769,
    "went": 6512,
    "Ġrespective": 16342,
    "Ġsprinkled": 19495,
    "Ġeels": 21620,
    "Ġuntrodden": 23519,
    "Ġloom": 7628,
    "Ġcrows": 24029,
    "Ġhunger": 8566,
    "Ġimprec": 14215,
    "writ": 16552,
    "ser": 1425,
    "ame": 644,
    "ela": 21567,
    "Ġ]": 15457,
    "Ġdiagon": 24740,
    "Ġlong": 794,
    "Ġmistaken": 4986,
    "Ġlock": 5928,
    "thence": 23398,
    "flaming": 23967,
    "Ġkeels": 11060,
    "society": 9970,
    "Ġcor": 1322,
    "thyself": 19297,
    "Ġgibberish": 25786,
    ")(": 2982,
    "Ġashamed": 6403,
    "saved": 15429,
    "Ġmotionless": 8324,
    "Ġ7": 4745,
    "Ġinexpressible": 17331,
    "Ġoverl": 18428,
    "ay": 355,
    "Ġporthole": 24398,
    "wow": 21120,
    "embarrassed": 20595,
    "Ġhonour": 3922,
    "Ġpain": 2301,
    "oss": 10114,
    "Ġhelmsman": 10503,
    "Ġstatement": 5254,
    "Ġnocturnal": 20714,
    "igned": 5656,
    "shroud": 20311,
    "Ġpieces": 7369,
    "othed": 16509,
    "sters": 6391,
    "Ġgleamed": 17076,
    "christian": 17231,
    "Ġlux": 8812,
    "Ġgu": 1328,
    "Ġsmelling": 16066,
    "atical": 10770,
    "Ġcarcase": 14442,
    "Ġlick": 21548,
    "Ġpagoda": 19787,
    "Ġflorida": 20658,
    "Ġentered": 2845,
    "Ġmeaning": 1414,
    "valley": 16210,
    "ĠvertebrÃ¦": 11434,
    "Ġvenetian": 14845,
    "Ġintolerable": 8481,
    "Ġhopeless": 7462,
    "Ġswash": 23054,
    "Ġcrazed": 19174,
    "Ġwolves": 25934,
    "Ġsteamer": 17187,
    "itics": 13870,
    "Ġharshly": 25249,
    "Ġensu": 7876,
    "Ġdecidedly": 9507,
    "ryder": 18646,
    "Ġimpertinence": 11365,
    "Ġassisted": 11109,
    "Ġinnumerable": 13349,
    "henomena": 20271,
    "Ġduc": 4697,
    "Ġcorroded": 18876,
    "Ġexultation": 15169,
    "ellent": 3764,
    "concl": 12865,
    "Ġdialogue": 12401,
    "ago": 14063,
    "Ġgoring": 21602,
    "pitching": 24075,
    "Ġundulates": 24118,
    "iquet": 17574,
    "Ġbackground": 18648,
    "Ġtransom": 22441,
    "Ġpang": 15601,
    "smug": 23905,
    "batt": 20777,
    "Ġchili": 25561,
    "ethics": 8876,
    "oriental": 23719,
    "ean": 20839,
    "noble": 7923,
    "bitious": 16668,
    "Ġstop": 2503,
    "Ġgratitude": 5598,
    "Ġphrensy": 25124,
    "gl": 3289,
    "Ġrabb": 4162,
    "networks": 2405,
    "Ġbrave": 6329,
    "Ġfasten": 11131,
    "Ġprudence": 13918,
    "haps": 1675,
    "Ġslit": 13053,
    "Ġconfirmation": 17209,
    "Ġnapoleons": 25885,
    "Ġwhit": 7177,
    "Ġneuron": 1809,
    "icle": 10833,
    "oms": 4593,
    "Ġdreadful": 4920,
    "Ġbloodthirst": 23800,
    "vius": 23538,
    "Ġinte": 2066,
    "shark": 14238,
    "Ġly": 2267,
    "forks": 26386,
    "perceived": 8857,
    "Ġdependencies": 2314,
    "Ġpewter": 17184,
    "Ġcrags": 23525,
    "Ġrecip": 16138,
    "Ġtwenty": 3950,
    "Ġbathing": 20198,
    "Ġlace": 13947,
    "Ġfold": 5530,
    "Ġpluck": 15610,
    "Ġshouting": 10521,
    "âĢĶâĢĺ": 7013,
    "Ġdrove": 4984,
    "Ġpalaces": 24090,
    "Ġshy": 10902,
    "Ġsevent": 18200,
    "flatter": 23964,
    "avering": 24793,
    "Ġjump": 4504,
    "ris": 9136,
    "Ġpivot": 13921,
    "Ġ80": 24455,
    "Ġliar": 22406,
    "Ġdistinguished": 8273,
    "ĠĠĠĠĠĠĠĠĠĠĠĠĠĠĠĠĠĠĠĠĠĠĠĠĠĠĠĠĠĠĠĠĠĠĠĠĠĠĠĠ": 4517,
    "Ġgentlemanly": 19315,
    "Ġsuperl": 16444,
    "Ġteasing": 11885,
    "Ġbrim": 12972,
    "Ġhidden": 1376,
    "Ġlanterns": 24576,
    "itals": 17820,
    "Ġmiracle": 15091,
    "last": 3804,
    "games": 20879,
    "Ġinterpre": 1589,
    "Ġber": 5698,
    "savor": 25024,
    "Ġthenceforth": 25182,
    "Ġchap": 5934,
    "silence": 8045,
    "Ġhugest": 17014,
    "?_": 8070,
    "Ġexperience": 1417,
    "Ġabruptly": 15148,
    "Ġexpressly": 16453,
    "Ġmerely": 3773,
    "Ġparalle": 1408,
    "ges": 2874,
    "Ġdistingu": 2515,
    "Ġblocked": 19221,
    "Ġlimited": 23541,
    "fell": 6953,
    "Ġmississippi": 20724,
    "Ġguiding": 19239,
    "Ġpostponed": 20388,
    "rights": 23670,
    "Ġvalid": 1703,
    "glo": 8737,
    "reflect": 19864,
    "Ġrelig": 8550,
    "Ġglide": 22981,
    "aws": 8237,
    "Ġbreadth": 10562,
    "gale": 13722,
    "Ġinput": 609,
    "Ġrifts": 21973,
    "Ġacknowled": 6350,
    "pled": 7893,
    "Ġfiner": 13049,
    "lant": 20946,
    "Ġopenly": 8572,
    "Ġfates": 15574,
    "Ġlacepede": 20493,
    "cab": 7333,
    "Ġreporting": 24657,
    "ixed": 4851,
    "Ġfurlong": 18739,
    "Ġdeception": 18139,
    "Ġinitial": 822,
    "Ġaustrian": 24299,
    "Ġattacked": 10566,
    "Ġmeditation": 16679,
    "washed": 13042,
    "antucket": 2644,
    "¶": 119,
    "Ġconj": 8460,
    "makes": 10710,
    "Ġeuroc": 14957,
    "Ġprovoking": 16742,
    "gloom": 17138,
    "Ġkeener": 22912,
    "ĠdÃ¦mon": 7845,
    "voice": 7817,
    "Ġfrequented": 16584,
    "ows": 1916,
    "Ġprayers": 12120,
    "opatra": 22475,
    "icing": 9199,
    "Ġdromed": 15593,
    "Ġsleep": 2400,
    "Ġstat": 1488,
    "ricade": 13034,
    "[": 63,
    "Ġconsec": 21803,
    "Ġunless": 4090,
    "Ġrewards": 10847,
    "pect": 1257,
    "counterpart": 26359,
    "ivities": 22081,
    "ripp": 6404,
    "Ġillustration": 19135,
    "quiet": 6154,
    "Ġgraze": 18226,
    "Ġplane": 11820,
    "alogue": 25159,
    "Ġstout": 6025,
    "Ġfrosted": 19802,
    "Ġapparition": 8067,
    "Ġsensationalism": 26066,
    "Ġheidelburgh": 11641,
    "ece": 17530,
    "Ġmerciless": 25246,
    "spot": 9787,
    "Ġremembered": 5276,
    "Ġlaw": 3653,
    "Ġimperson": 14216,
    "Ġnecessitates": 23926,
    "Ġestimates": 3750,
    "Ġ(_": 3739,
    "Ġsordid": 26421,
    "transferred": 24510,
    "Ġprejudices": 13467,
    "Ġconvenience": 11330,
    "follow": 5680,
    "Ġsplend": 9896,
    "Ġreiter": 21664,
    "Ġvelvet": 12395,
    "Ġformidable": 8220,
    "Ġ62": 24364,
    "Ġjunk": 15950,
    "oned": 4630,
    "Ġstarvation": 19790,
    "Ġcircumst": 2976,
    "Ġshrieking": 24758,
    "warks": 5004,
    "ivered": 7005,
    "Ġascertained": 25296,
    "jumping": 20244,
    "Ġplying": 17911,
    "Ġladyship": 5046,
    "Ġdemoniac": 15064,
    "onde": 21250,
    "gaz": 20877,
    "Ġcontained": 7679,
    "Ġglancing": 5399,
    "Ġparameter": 882,
    "Ġevid": 3498,
    "Ġbern": 17858,
    "osite": 4893,
    "Ġfreemason": 23209,
    "forecastle": 10989,
    "Ġlogs": 16344,
    "zes": 11547,
    "convolutional": 4958,
    "aking": 972,
    "irts": 9236,
    "later": 20952,
    "Ġpeasant": 13549,
    "Ġavenue": 13619,
    "Ġint": 410,
    "white": 4602,
    "Ġwolfish": 25935,
    "Ġpurposely": 10443,
    "Ġpositions": 2057,
    "rubbery": 17340,
    "Ġbay": 9167,
    "Ġ[_": 15459,
    "Ġcommunication": 1870,
    "Ġnewly": 9336,
    "Ġexcessively": 9438,
    "Ġfoundation": 4234,
    "culous": 11139,
    "Ġandes": 12637,
    "Ġcaulking": 20292,
    "Ġfam": 1585,
    "Ġcapstan": 9097,
    "Ġgordon": 26466,
    "Ġprof": 2462,
    "Ġbrixton": 13661,
    "Ġmasked": 3693,
    "unguarded": 23665,
    "Ġstair": 8455,
    "itted": 2442,
    "Ġthro": 5817,
    "Ġcetacean": 25878,
    "Ġirregularity": 25324,
    "Ġpredecess": 18512,
    "Ġcream": 22722,
    "Ġjacobian": 2892,
    "Ġembraces": 19871,
    "Ġcastles": 16638,
    "consternation": 16911,
    "ourably": 14375,
    "honorable": 19900,
    "Ġdeclares": 16991,
    "Ġpresented": 5183,
    "onely": 6516,
    "Ġbead": 21748,
    "Ġweave": 21918,
    "Ġaston": 3701,
    "Ġacknowledges": 24688,
    "gossip": 23402,
    "bert": 4662,
    "Ġentertain": 6054,
    "Ġthousandth": 23680,
    "Ġattributed": 11832,
    "Ġsolely": 9908,
    "when": 1590,
    "itage": 17816,
    "Ġexcited": 5579,
    "Ġnow": 692,
    "Ġpatch": 4181,
    "Ġvertu": 23888,
    "Ġgeorgiana": 8625,
    "iscre": 17850,
    "from": 1991,
    "web": 18664,
    "Ġtribute": 15473,
    "passion": 11259,
    "Ġaccidents": 10294,
    "Ġgrasped": 8034,
    "idable": 8146,
    "Ġconverse": 11844,
    "Ġpolitely": 8992,
    "row": 1067,
    "âĢĿ": 354,
    "nothing": 3153,
    "zen": 5140,
    "female": 20665,
    "inferences": 17738,
    "Ġbristling": 20525,
    "Ġangel": 4852,
    "Ġinattention": 17931,
    "Ġsnuffing": 25012,
    "icate": 9200,
    "Ġaugmented": 15103,
    "Ġprettier": 23763,
    "Ġanoint": 25537,
    "wore": 21123,
    "Ġimparted": 15984,
    "Ġpractically": 13095,
    "greatest": 10492,
    "Ġhaunted": 10252,
    "Ġfinding": 3264,
    "Ġlub": 15645,
    "soles": 18686,
    "court": 7511,
    "Ġcoupled": 16850,
    "Ġheinous": 18038,
    "ria": 15794,
    "Ġscream": 5935,
    "Ġhoping": 11102,
    "Ġrecre": 22735,
    "Ġraving": 16109,
    "Ġelder": 7223,
    "Ġangles": 23587,
    "seek": 8835,
    "Ġpulse": 13112,
    "meant": 7922,
    "mency": 18925,
    "Ġimpertinent": 9076,
    "Ġcrushing": 20175,
    "Ġbuttons": 12777,
    "Ġdegener": 14046,
    "Ġclosely": 6488,
    "Ġthreatens": 24374,
    "Ġspoon": 22132,
    "rians": 21928,
    "Ġconqueror": 25796,
    "idual": 1558,
    "asions": 12647,
    "Ġinf": 1757,
    "dings": 2190,
    "ourney": 3552,
    "Ġunderground": 18985,
    "alongside": 19788,
    "jur": 17577,
    "van": 7815,
    "yth": 979,
    "Ġcarn": 17821,
    "Ġvisiting": 10356,
    "Ġunworth": 22034,
    "Ġprofile": 16486,
    "Ġ57": 24324,
    "Ġperfume": 25665,
    "safe": 10052,
    "crews": 15041,
    "onday": 6064,
    "conjectured": 25181,
    "goodness": 19287,
    "impul": 16555,
    "H": 44,
    "Ġdisgust": 6705,
    "employ": 10894,
    "Ġcoherent": 3262,
    "Ġimplac": 24873,
    "Ġshow": 3400,
    "Ġsal": 3939,
    "Ġengland": 3857,
    "stooped": 23819,
    "Ġassented": 17336,
    "adoes": 11658,
    "Ġsocks": 14130,
    "Ġexclam": 6757,
    "Ġrecall": 3856,
    "Ġcoff": 3504,
    "Ġers": 15458,
    "Ġunwinding": 22058,
    "Ġdire": 865,
    "Ġintervene": 25480,
    "î": 175,
    "completely": 12417,
    "Ġsearched": 15813,
    "A": 37,
    "Ġcordon": 24393,
    "copyright": 5277,
    "Ġbeheaded": 11654,
    "Ġunfathomable": 20547,
    "breathing": 25335,
    "Ġmomentarily": 22811,
    "Ġchambermaid": 24303,
    "Ġfiver": 22775,
    "Ġrol": 3554,
    "Ġsubst": 4276,
    "bringing": 17165,
    "whaler": 20308,
    "Ġspeed": 2449,
    "arians": 18528,
    "Ġwedged": 24069,
    "discovery": 12013,
    "aits": 20765,
    "Ġbet": 1132,
    "neath": 12862,
    "Ġcrammed": 16469,
    "Ġintermission": 18588,
    "eng": 1486,
    "Ġwits": 15529,
    "Ġdevoted": 6573,
    "spermaceti": 12190,
    "Ġapoplexy": 25265,
    "Ń": 260,
    "Ġpunish": 12156,
    "Ġunctuous": 10265,
    "rence": 5554,
    "Ġremarking": 13122,
    "Ġdisplaying": 16965,
    "Ġunearthly": 9035,
    "Ġscraping": 13414,
    "Ġdark": 2112,
    "Ġvisage": 18772,
    "square": 15060,
    "Ġtells": 9359,
    "mology": 12488,
    "Ġpedestrian": 25879,
    "insula": 23065,
    "Ġlandlessness": 23378,
    "Ġinhaled": 25451,
    "Ġgaz": 4044,
    "Ġleghorn": 13143,
    "ohog": 9842,
    "Ġsim": 735,
    "Ġbower": 15563,
    "Ġcanvas": 7784,
    "idually": 21767,
    "ied": 941,
    "Ġpredef": 18510,
    "Ġunsupp": 22019,
    "Ġdidst": 11846,
    "ippi": 20243,
    "oured": 2671,
    "Ġhos": 4942,
    "Ġwert": 12552,
    "Ġscrew": 8866,
    "Ġling": 7377,
    "gr": 2086,
    "orily": 15569,
    "brew": 11472,
    "Ġafter": 870,
    "Ġlinen": 12404,
    "Ġpotent": 12061,
    "pents": 11511,
    "Ġacceptable": 16743,
    "globe": 25142,
    "Ġswords": 19896,
    "plendent": 21962,
    "Ġcash": 9651,
    "ą": 198,
    "share": 14236,
    "stad": 7597,
    "ked": 5615,
    "ms": 542,
    "Ġsucking": 12784,
    "eryton": 4093,
    "Ġmelting": 24287,
    "Ġmouth": 3179,
    "requent": 3648,
    "Ġshield": 21997,
    "cils": 20813,
    "Ġanteced": 26177,
    "Ġstoutly": 16923,
    "Ġ110": 24434,
    "itical": 5801,
    "Ġchill": 11749,
    "Ġbird": 3759,
    "Ġconcise": 23323,
    "Ġcl": 554,
    "Ġadver": 5641,
    "limping": 26392,
    "X": 60,
    "Ġchis": 11747,
    "Ġmight": 963,
    "bl": 4141,
    "onet": 12541,
    "disappo": 8983,
    "Ġcrumb": 16438,
    "Ġpillar": 21471,
    "upon": 2721,
    "Ġgoes": 3853,
    "Ġestim": 3346,
    "Ġapplies": 11952,
    "Ġended": 7950,
    "fainting": 20471,
    "Ġunduly": 25994,
    "ily": 1031,
    "Ġpondicherry": 20489,
    "77": 15298,
    "Ġpromoting": 3160,
    "Ġdisengaged": 12885,
    "Ġimmensely": 13593,
    "Ġscept": 15501,
    "Ġyouth": 4264,
    "Ġdr": 2824,
    "Ġelbow": 12917,
    "Ġjacobians": 2893,
    "aloud": 17940,
    "conqu": 14243,
    "Ġmannish": 26237,
    "8": 28,
    "Ġsweeter": 23915,
    "Ġmichigan": 26426,
    "Ġdeclaration": 16635,
    "Ġknave": 11271,
    "Ġphrenolog": 12331,
    "cible": 20805,
    "Ġutility": 23511,
    "eight": 9590,
    "71": 20755,
    "discharging": 26305,
    "Ġdestroy": 5772,
    "Ġmoul": 15540,
    "Ġblacks": 23386,
    "Ġflamingo": 15098,
    "Ġharmony": 16813,
    "Ġbunch": 11325,
    "mixed": 15392,
    "sing": 5138,
    "Ġtravell": 5575,
    "Ġocean": 3302,
    "Ġhush": 13209,
    "Ġpel": 17902,
    "Ġgazette": 19499,
    "Ġchest": 5185,
    "Ġdeduction": 14897,
    "importance": 9987,
    "Ġvisibly": 22869,
    "ately": 1715,
    "Ġfath": 7364,
    "Ġto": 297,
    "Ġextending": 11023,
    "Ġpremeditated": 22232,
    "Ġthickest": 16653,
    "Ġbreaks": 13181,
    "Ġbritain": 16955,
    "Ġproof": 6153,
    "Ġerror": 1767,
    "Ġupdates": 1297,
    "Ġcurt": 18853,
    "Ġhap": 18195,
    "```": 25893,
    "itiously": 13869,
    "Ġaz": 9628,
    "Ġdress": 4022,
    "ladyship": 14827,
    "Ġinvestig": 10548,
    "itering": 17818,
    "Ġcav": 13878,
    "ilations": 21720,
    "Ġkilburn": 18351,
    "burgh": 6773,
    "Ġpalms": 8643,
    "Ġlift": 8809,
    "Ġchained": 16388,
    "ented": 4350,
    "Ġresolve": 13168,
    "mont": 19168,
    "Ġindic": 2887,
    "Ġcommentaries": 20159,
    "Ġdid": 835,
    "Ġoar": 6236,
    "lives": 12482,
    "Ġhandsomest": 20333,
    "Ġmightiest": 12956,
    "Ġordering": 18997,
    "jets": 20927,
    "Ġunsolved": 22031,
    "Ġpacifics": 24372,
    "elfth": 22367,
    "adler": 21760,
    "Ġmoose": 22429,
    "Ġregularizer": 2340,
    "resnet": 4070,
    "Ġsuffers": 2975,
    "Ġarrowy": 25469,
    "Ġh": 290,
    "Ġabusing": 18393,
    "Ġcurved": 18856,
    "Ġthigh": 10185,
    "Ġlandsc": 11145,
    "Ġplot": 14278,
    "clings": 23150,
    "Ġpetrified": 19595,
    "Ġpursue": 6314,
    "Ġmorocc": 22972,
    "Ġsuns": 23272,
    "cries": 17509,
    "eliest": 14745,
    "Ġdelivery": 18976,
    "Ġmort": 3456,
    "Ġshrinking": 14803,
    "Ġdurst": 20351,
    "arming": 8950,
    "Ġpardon": 5727,
    "Ġsmo": 2700,
    "Ġthoughts": 3138,
    "stretch": 13974,
    "Ġincalcul": 16063,
    "Ġsqueezed": 20034,
    "python": 4692,
    "ickory": 22667,
    "Ġfurther": 1057,
    "batim": 25016,
    "Ġsitting": 3603,
    "Ġamid": 4959,
    "Ġchast": 18380,
    "brÃ¦": 11174,
    "Ġrugged": 18719,
    "Ġoccasions": 7988,
    "Ġgl": 1258,
    "hear": 10145,
    "Ġgestures": 13534,
    "Ġwin": 9640,
    "Ġlingering": 11378,
    "Ġchall": 10943,
    "Ġabstra": 22269,
    "exceeded": 25001,
    "Ġbrothers": 13173,
    "Ġreplying": 19580,
    "Ġthrusting": 10551,
    "Ġlifting": 10195,
    "sed": 4177,
    "ertion": 12036,
    "Ġsympt": 7012,
    "Ġpunch": 9953,
    "superiority": 20184,
    "Ġbulge": 23855,
    "irited": 15783,
    "og": 857,
    "zwilliam": 5074,
    "Ġtransported": 11278,
    "objection": 19914,
    "glimmer": 26321,
    "Ġsain": 17749,
    "Ġattachment": 6050,
    "Ġo": 275,
    "oric": 21394,
    "wheels": 14379,
    "irous": 8837,
    "Ġkeeps": 8267,
    "wat": 6231,
    "Ġalternate": 19984,
    "auley": 22619,
    "Ġscant": 22278,
    "Ġawfulness": 23586,
    "pus": 3412,
    "Ġtechni": 1640,
    "oons": 12495,
    "breeding": 16674,
    "Ġsir": 1569,
    "mast": 3600,
    "Ġpoets": 11818,
    "Ġinstruct": 2864,
    "relieved": 13274,
    "ezing": 10572,
    "hob": 20899,
    "pigs": 17139,
    "Ġcoachman": 14999,
    "Ġyork": 11663,
    "Ġbehav": 3538,
    "angular": 11719,
    "headers": 23107,
    "Ġinhospit": 25452,
    "Ġevils": 9018,
    "ply": 6366,
    "Ġfatal": 5871,
    "Ġelated": 18633,
    "Ġcoleridge": 18766,
    "display": 19154,
    "mccarthy": 15393,
    "Ġgidd": 25783,
    "cou": 13693,
    "Ġjer": 6266,
    "ache": 8517,
    "quietude": 24655,
    "Ġtones": 8400,
    "few": 8202,
    "Ġfruitless": 25605,
    "Ġtransient": 18485,
    "Ġprick": 14476,
    "Ġbridges": 24682,
    "Ġskeleton": 5514,
    "Ġhints": 8430,
    "lings": 8745,
    "definition": 23116,
    "Ġdownstream": 3777,
    "eronomy": 15522,
    "lasting": 8011,
    "Ġrealism": 18984,
    "Ġsher": 3766,
    "ify": 1495,
    "Ġgangs": 21607,
    "Ġj": 533,
    "Ġanimated": 7702,
    "Ġrushed": 4087,
    "omical": 9680,
    "Ġsmaller": 1882,
    "Ġpacket": 14891,
    "investments": 25532,
    "species": 13254,
    "Ġclapped": 9743,
    "boxes": 16887,
    "Ġcountryside": 23595,
    "Ġvicissitudes": 12416,
    "Ġgallant": 8654,
    "kind": 3864,
    "Ġsubsisting": 23433,
    "Ġpassengers": 13673,
    "Ġaroused": 15896,
    "belated": 24035,
    "ai": 2528,
    "ef": 5134,
    "Ġvol": 4190,
    "Ġostr": 21323,
    "ieces": 4772,
    "Ġgleam": 12305,
    "Ġfootpaths": 26318,
    "develop": 13516,
    "Ġcynical": 25770,
    "Ġintercept": 14270,
    "Ġneedn": 19227,
    "Ġbreezes": 14867,
    "chery": 24550,
    "Ġrelinqu": 12979,
    "clump": 23153,
    "Ġjuicy": 25370,
    "Ġglue": 15670,
    "Ġconjecture": 9530,
    "impregnable": 26480,
    "accounted": 16500,
    "rival": 12738,
    "isance": 17847,
    "ulation": 5458,
    "friendly": 13282,
    "ornament": 23486,
    "Ġdivinest": 25722,
    "Ġstrong": 1787,
    "Ġsemantics": 2894,
    "pets": 17635,
    "matic": 4618,
    "Ġhail": 7400,
    "Ġdiabolism": 25514,
    "Ġsuperb": 16443,
    "mistakable": 20652,
    "Ġconceited": 12087,
    "Ġlizzie": 26461,
    "Ġgrateful": 7660,
    "ary": 985,
    "Ġbiography": 22760,
    "Ġtot": 4186,
    "Ġstro": 4595,
    "opÃ¦": 12869,
    "doing": 8584,
    "Ġjustly": 11900,
    "Ġrad": 4962,
    "Ġclanging": 18423,
    "Ġlived": 3992,
    "Ġsecrets": 9053,
    "Ġcomplet": 4424,
    "Ġxvi": 19104,
    "Ġfortun": 4982,
    "Ġcott": 3710,
    "Ġdedu": 5584,
    "Ġmouthful": 16573,
    "elizabeth": 1987,
    "Ġontario": 26204,
    "sell": 13779,
    "commun": 15032,
    "Ġdromedary": 17437,
    "Ġcherished": 10589,
    "late": 11497,
    "Ġperceive": 6699,
    "Ġthrown": 4639,
    "Ġexplanations": 15907,
    "Ġmission": 13002,
    "Ġthence": 8880,
    "ishness": 22340,
    "Ġcostume": 16493,
    "Ġheated": 21680,
    "Ġdisrespect": 18553,
    "vig": 15444,
    "Ġqueens": 16705,
    "Ġstranded": 9773,
    "class": 4095,
    "Ġbands": 14882,
    "Ġtook": 1856,
    "Ġro": 595,
    "Ġcruel": 5121,
    "Ġtwitched": 20442,
    "Ġdivergence": 2727,
    "Ġport": 3307,
    "involved": 25626,
    "Ġbeckoning": 20500,
    "Ġtheology": 21275,
    "Ġ75": 19611,
    "gi": 17550,
    "Ġclassify": 1641,
    "Ġblazing": 11893,
    "Ġwhites": 21715,
    "Ġclung": 10958,
    "mightily": 24103,
    "iar": 2377,
    "tempered": 13444,
    "Ġwails": 21295,
    "Ġretreats": 16927,
    "Ġmingling": 20196,
    "Ġexamples": 2605,
    "Ġcontrast": 2118,
    "Ġfleecy": 17022,
    "Ġhereditary": 10663,
    "Ġargu": 10933,
    "mediterranean": 16401,
    "iber": 6506,
    "suspected": 12369,
    "Ġbumpkin": 20199,
    "ward": 705,
    "hors": 9597,
    "Ġtrains": 10946,
    "compliments": 24810,
    "Ġgiver": 21603,
    "Ġrescued": 24205,
    "winding": 16719,
    "Ġpromethe": 14466,
    "Ġparents": 6752,
    "Ġrud": 8477,
    "hereafter": 19215,
    "listen": 13512,
    "Ġpressed": 6042,
    "Ġsheltered": 19910,
    "Ġdocile": 19957,
    "Ġjoker": 22296,
    "ber": 884,
    "japan": 15372,
    "verbally": 25360,
    "owed": 2268,
    "kov": 17585,
    "useless": 14593,
    "Ġtur": 2566,
    "Ġdollars": 11454,
    "omin": 4703,
    "Ġcroquet": 9960,
    "Ġpoltroon": 26597,
    "Ġpaus": 4301,
    "Ġrele": 2919,
    "Ġintently": 8169,
    "ĠâĢľâĢĻ": 22252,
    "century": 20045,
    "Ġelab": 22640,
    "Ġsling": 21219,
    "Ġdecaying": 2245,
    "Ġuttered": 7280,
    "Ġejaculation": 20253,
    "hill": 15360,
    "Ġembalmed": 13654,
    "performances": 26006,
    "asmuch": 10193,
    "Ġchests": 19670,
    "Ġsta": 18062,
    "Ġdesolated": 24812,
    "plainly": 11089,
    "Ġadduced": 26523,
    "ĠĠĠĠĠĠĠĠĠĠĠĠĠĠĠĠĠĠĠĠĠĠĠĠĠĠĠĠĠĠĠĠĠĠĠĠĠĠĠĠĠĠĠ": 12151,
    "impressions": 20697,
    "Ġlent": 21545,
    "scy": 21054,
    "Ġbelieves": 14406,
    "inforcement": 3205,
    "ene": 2166,
    "perse": 15897,
    "Ġbroadened": 23982,
    "chair": 5917,
    "Ġburns": 16520,
    "imagination": 13478,
    "copper": 19187,
    "Ġsen": 9155,
    "Ġindicates": 3194,
    "Ġfest": 10803,
    "mmet": 10988,
    "Ġwestmorland": 24389,
    "securer": 25602,
    "cept": 551,
    "aled": 3945,
    "Ġpreparation": 13527,
    "Ġembarkation": 25122,
    "um": 453,
    "Ġthought": 1091,
    "estinated": 15918,
    "appropri": 22841,
    "itive": 6668,
    "Ġresult": 4461,
    "Ġevaluation": 16531,
    "saying": 8640,
    "Ġli": 602,
    "prejudiced": 17295,
    "dy": 3862,
    "Ġshiny": 14104,
    "Ġhurled": 10428,
    "Ġwinc": 9641,
    "Ġassembled": 9234,
    "Ġadhering": 14139,
    "gle": 20868,
    "Ġgrieved": 8298,
    "Ġmass": 3782,
    "orses": 6052,
    "Ġstabbed": 25456,
    "Ġpoor": 1711,
    "Ġundersampling": 19517,
    "Ġslightly": 7293,
    "Ġderision": 16306,
    "happy": 4426,
    "Ġabsence": 4894,
    "urn": 775,
    "pul": 8753,
    "Ġw": 272,
    "Ġnaut": 13939,
    "idence": 4304,
    "scans": 22984,
    "argue": 21443,
    "Ġindomitableness": 26570,
    "officer": 17053,
    "ĠĠĠĠĠĠĠĠĠĠĠĠĠĠĠĠĠĠĠĠĠĠĠĠĠĠĠĠĠĠĠĠĠĠĠĠĠĠĠĠĠĠ": 24208,
    "Ġhid": 1318,
    "Ġindispens": 22952,
    "nameless": 19902,
    "Ġbewil": 11655,
    "Ġano": 11594,
    "tolerably": 21094,
    "hand": 2755,
    "Ġstolen": 14005,
    "Ġoath": 7834,
    "Ġdisguise": 10044,
    "opic": 22474,
    "boast": 23252,
    "Ġdistributing": 22677,
    "Ġhousekeeper": 7456,
    "Ġcatch": 4442,
    "sought": 15425,
    "Ġdestructive": 23485,
    "Ġusual": 3944,
    "Ġhumbug": 18779,
    "Ġso": 431,
    "contains": 16027,
    "Ġrelish": 14382,
    "Ġheeded": 13401,
    "Ġrecom": 4555,
    "Ġsquint": 22836,
    "Ġmidst": 7986,
    "Ġpretext": 22227,
    "Ġbrink": 18769,
    "Ġtopsails": 19193,
    "Ġgeneric": 18453,
    "Ġunspeak": 8849,
    "otion": 4946,
    "act": 782,
    "Ġarrog": 18340,
    "task": 13791,
    "Ġfunctions": 1340,
    "Ġbitter": 4173,
    "Ġgot": 2278,
    "Ġforgot": 4684,
    "Ġpassenger": 14368,
    "igation": 5918,
    "Ġomens": 21326,
    "thought": 3849,
    "Ġdirt": 15590,
    "ana": 15555,
    "Ġsangu": 15502,
    "Ġmail": 17800,
    "Ġrepulses": 26070,
    "choice": 21689,
    "remediable": 26294,
    "Ġrecess": 10846,
    "ruction": 4359,
    "Ġaudio": 24772,
    "Ġdisasters": 16051,
    "Ġsurvey": 13591,
    "Ġshrubbery": 18232,
    "Ġdreaming": 11222,
    "lemency": 21372,
    "Ġknew": 2055,
    "Ġdeceased": 15005,
    "Ġtortures": 14921,
    "Ġ84": 19708,
    "wh": 509,
    "iguous": 18044,
    "ague": 3906,
    "onian": 17766,
    "Ġdeacon": 18140,
    "Ġallowing": 2171,
    "Ġjenny": 20161,
    "Ġgerm": 13962,
    "Ġserviceable": 24718,
    "ĠĠĠĠĠĠĠĠĠĠĠĠĠĠĠĠĠĠĠĠĠĠĠĠĠĠĠĠ": 9973,
    "Ġincorporated": 25711,
    "riers": 18185,
    "Ġestablishment": 13577,
    "cordiality": 25137,
    "rosc": 17954,
    "Ġwith": 349,
    "Ġgi": 15662,
    "Ġcorresponding": 13436,
    "Ġredoubled": 23751,
    "reck": 9635,
    "Ġunshored": 25813,
    "Ġpreliminaries": 25176,
    "Ġinquirer": 24963,
    "Ġtranspointed": 22443,
    "Ġbristles": 25843,
    "Ġschedu": 1826,
    "erxes": 21274,
    "Ġmagnified": 23201,
    "Ġutterly": 6100,
    "ility": 621,
    "Ġarve": 15895,
    "rudently": 16710,
    "pur": 7807,
    "Ġda": 5150,
    "Ġgoose": 5938,
    "Ġmerryweather": 9520,
    "Ġberm": 21381,
    "Ġtart": 12523,
    "odiac": 14026,
    "Ġthumb": 6981,
    "Ġdropt": 23671,
    "ow": 325,
    "tawn": 21079,
    "customary": 25895,
    "Ġbottom": 3672,
    "Ġ21": 11197,
    "Ġcaw": 13881,
    "ensions": 14260,
    "Ġraiment": 22646,
    "exagger": 22426,
    "Ġkissed": 10043,
    "Ġtex": 15470,
    "wild": 8766,
    "Ġgentlemanlike": 12063,
    "Ġstockings": 19995,
    "easy": 9591,
    "Ġsequence": 1977,
    "Ġrecital": 16139,
    "Ġtrivial": 10141,
    "Ġseasonable": 24405,
    "Ġknee": 7093,
    "Ġfergus": 16871,
    "Ġbrisk": 9801,
    "erred": 6376,
    "Ġparcel": 15197,
    "Ġstove": 6733,
    "Ġclearing": 8240,
    "Ġledger": 19400,
    "Ġcomposed": 8891,
    "Ġcolumbus": 26563,
    "Ġintim": 6838,
    "Ġwake": 4749,
    "Ġcrush": 9420,
    "promise": 12247,
    "adequately": 20318,
    "evidence": 25521,
    "Ġthoroughly": 8348,
    "Ġprocuring": 16867,
    "Ġharem": 9707,
    "broke": 14775,
    "Ġdespair": 4012,
    "Ġswiftly": 5670,
    "Ġsubstant": 14807,
    "Ġder": 1497,
    "Ġreckoning": 14977,
    "oforte": 14284,
    "Ġblu": 2686,
    "fits": 13716,
    "Ġsweep": 8266,
    "Ġprobable": 5569,
    "operations": 19973,
    "wound": 21125,
    "w": 91,
    "Ġsed": 10760,
    "proportions": 22833,
    "Ġjoyfully": 19344,
    "Ġdenny": 9000,
    "vigorous": 25917,
    "aneously": 4060,
    "Ġtoilings": 24742,
    "marked": 9047,
    "Ġtease": 18789,
    "Ġcurls": 22995,
    "anoke": 21359,
    "Ġireland": 17333,
    "Ġprophet": 7681,
    "Ġinspector": 6498,
    "Ġdaw": 21428,
    "Ġathirst": 20597,
    "tub": 9142,
    "chosen": 21693,
    "Ġtestament": 23233,
    "Ġassure": 4420,
    "Ġrevel": 9213,
    "nephew": 26396,
    "Ġpractice": 2682,
    "Ġindignant": 12236,
    "Ġopposition": 16518,
    "Ġchat": 6560,
    "Ġclaps": 22348,
    "Ġresuming": 12889,
    "besides": 8695,
    "tled": 3454,
    "Ġraptures": 13495,
    "Ġproportions": 16466,
    "amidst": 25652,
    "ships": 5486,
    "Ġsagaciously": 24731,
    "Ġscruple": 25048,
    "Ġbasin": 19847,
    "Ġweigh": 10892,
    "Ġkey": 2102,
    "etts": 12656,
    "mass": 12486,
    "Ġamidst": 9492,
    "matter": 5136,
    "Ġadm": 2402,
    "Ġjumbled": 22295,
    "Ġhides": 16260,
    "Ġtravel": 5953,
    "excited": 13378,
    "Ġreport": 6191,
    "Ġhousings": 21491,
    "Ġrebounds": 25967,
    "dington": 11898,
    "letter": 6201,
    "Ġinscriptions": 20007,
    "cloud": 11104,
    "Ġenlivened": 26207,
    "Ġappl": 1699,
    "uring": 819,
    "Ġguinea": 8946,
    "urns": 10212,
    "staking": 21640,
    "Ġpriests": 15039,
    "rocket": 13942,
    "Ġdeserve": 8309,
    "berish": 22715,
    "Ġmiserable": 3633,
    "Ġcous": 3434,
    "Ġrev": 6988,
    "Ġhumaneval": 25582,
    "precisely": 6917,
    "ual": 945,
    "Ġhammer": 6094,
    "Ġtapping": 10751,
    "Ġsociet": 9447,
    "highest": 20406,
    "Ġextraction": 11252,
    "lur": 13745,
    "Ġfamine": 16325,
    "lesson": 22766,
    "Ġcounting": 13093,
    "urring": 21703,
    "goin": 23401,
    "fresh": 13390,
    "Ġfingers": 5672,
    "gang": 17552,
    "ouring": 6420,
    "ĠĠĠĠĠĠĠĠ": 711,
    "mansion": 20982,
    "Ġshaggy": 13568,
    "Ġcirclings": 26430,
    "oper": 7347,
    "determ": 7105,
    "Ġjesty": 18405,
    "Ġapology": 8328,
    "versed": 9823,
    "Ġpop": 5151,
    "burg": 16772,
    "Ġselects": 4387,
    "ordinate": 12871,
    "Ġevian": 24291,
    "egypt": 15347,
    "ans": 459,
    "Ġtherein": 11773,
    "Ġretained": 7173,
    "bet": 6109,
    "Ġbetake": 22903,
    "Ġfinished": 5044,
    "erest": 10696,
    "Ġappend": 18357,
    "Ġdelight": 2550,
    "icism": 13954,
    "Ġabstained": 25231,
    "Ġbaltic": 18795,
    "derbyshire": 18327,
    "jac": 8382,
    ".âĢĻâĢĿ": 6739,
    "Ġrespects": 7269,
    "Ġpow": 4637,
    "Ġdo": 512,
    "Ġduly": 13348,
    "Ġcriminals": 19921,
    "Ġwrapped": 8342,
    "ching": 5156,
    "Ġsofa": 10267,
    "interruption": 20110,
    ".;": 20743,
    "igen": 4830,
    "Ġgrapnels": 25551,
    "nervous": 16274,
    "Ġfountain": 7365,
    "due": 22408,
    "Ġirresolute": 24916,
    "concealed": 25115,
    "chastic": 2335,
    "scr": 16239,
    "Ġscarcity": 23824,
    "Ġsisters": 3639,
    "Ġmanoir": 22329,
    "Ġfootman": 8288,
    "bastian": 10672,
    "ore": 418,
    "Ġczar": 12570,
    "oa": 9611,
    "Ġsecond": 1890,
    "Ġorb": 22089,
    "performed": 18345,
    "Ġdiffused": 12065,
    "Ġprairie": 8712,
    "iom": 20914,
    "Ġpick": 4259,
    "Ġaunt": 3176,
    "ingly": 2134,
    "crippled": 26383,
    "Ġirksome": 13109,
    "Ġpon": 10174,
    "Ġspot": 4154,
    "Ġfell": 1978,
    "Ġaffected": 5576,
    "Ġpace": 9181,
    "Ġigniting": 25070,
    "Ġprobably": 4316,
    "Ġdumbly": 24987,
    "know": 2318,
    "Ġmoments": 4845,
    "Ġhauling": 14085,
    "Ġadvertise": 25388,
    "bitterly": 20336,
    "influence": 13576,
    "Ġtweezers": 26555,
    "Ġobsole": 22698,
    "Ġsadness": 13284,
    "Ġsymmetry": 20364,
    "drifting": 19823,
    "speps": 14332,
    "Ġentities": 11861,
    "hetic": 12200,
    "Ġpays": 13294,
    "Ġhatty": 19264,
    "solely": 19815,
    "assault": 22304,
    "Ġve": 1109,
    "Ġcurling": 9345,
    "thr": 12756,
    "ogra": 4573,
    "Ġwhispers": 14698,
    "sided": 17663,
    "Ġtrain": 515,
    "Ġretarded": 23071,
    "Ġeloped": 22643,
    "Ġbold": 5291,
    "Ġgloves": 8574,
    "man": 1056,
    "Ġheroic": 14906,
    "travelling": 24316,
    "Ġcomrades": 9553,
    "ial": 409,
    "âĢĶâĢĺ_": 24831,
    "reast": 17757,
    "tall": 17672,
    "Ġeighty": 19474,
    "Ġprincipally": 11308,
    "Ġdressing": 7090,
    "Ġmoderate": 10937,
    "Ġexpect": 2303,
    "Ġtunnels": 24621,
    "ite": 712,
    "Ġbeheading": 21752,
    "headed": 4320,
    "mechanical": 25578,
    "Ġproposals": 10612,
    "Ġoffering": 3009,
    "gether": 1596,
    "usage": 12829,
    "mr": 1900,
    "pr": 3173,
    "rael": 21627,
    "Ġstraighten": 24001,
    "Ġschol": 17375,
    "Ġloos": 15868,
    "Ġaffirm": 11884,
    "Ġ122": 24466,
    "Ġ1": 1015,
    "Ġcalled": 1974,
    "fright": 9594,
    "Ġreproach": 9555,
    "Ġgra": 415,
    "Ġglorious": 11075,
    "Ġridic": 7508,
    "Ġoutset": 15952,
    "Ġswaying": 15045,
    "izes": 885,
    "vard": 21109,
    "Ġdoorway": 14496,
    "otted": 14022,
    "Ġlull": 15647,
    "adagrad": 9689,
    "Ġdetect": 1192,
    "Ġmungo": 25631,
    "Ġdance": 4443,
    "Ġstationary": 19693,
    "bowsprit": 16852,
    "Ġplaint": 10324,
    "Ġunlikely": 10907,
    "coarse": 16485,
    "uv": 6229,
    "Ġconsist": 1934,
    "Ġcounterpane": 11342,
    "Ġtriumphantly": 11286,
    "Ġdefinitions": 22942,
    "Ġmodel": 508,
    "allied": 7410,
    "ribution": 14304,
    "Ġwhom": 1833,
    "Ġtortured": 14922,
    "Ġharvest": 13413,
    "Ġintervening": 17266,
    "Ġsystematic": 5245,
    "inced": 3333,
    "Ġwakeful": 24265,
    "Ġword": 1054,
    "Ġlanguages": 1567,
    "Ġtrag": 13035,
    "Ġhawaiian": 25366,
    "hogs": 20080,
    "something": 4287,
    "crazy": 24691,
    "Ġpipes": 9845,
    "Ġate": 8838,
    "Ġmemorable": 16425,
    "Ġvillages": 14747,
    "Ġaboard": 6697,
    "cond": 1671,
    "wail": 21124,
    "Ġpicture": 4856,
    "Ġtrample": 20326,
    "Ġflat": 8228,
    "Ġaccusations": 22375,
    "Ġcontains": 2792,
    "Ġsenior": 17170,
    "private": 13580,
    "Ġcascade": 20579,
    "ash": 1992,
    "ped": 6365,
    "Ġcasked": 24496,
    "Ġstraightway": 9015,
    "prise": 7727,
    "laughing": 15177,
    "eks": 4728,
    "Ġforgiveness": 16655,
    "Ġcharming": 6628,
    "Ġfailing": 12134,
    "driver": 14919,
    "Ġfathoms": 9082,
    "Ġsickened": 16774,
    "Ġfingertips": 24015,
    "Ġgould": 17989,
    "Ġaint": 17743,
    "tasted": 17686,
    "Ġstory": 2903,
    "Ġincommunicable": 26610,
    "favourable": 12260,
    "Ġrambling": 18640,
    "Ġfisherman": 12072,
    "Ġhinges": 15210,
    "Ġrumbling": 18211,
    "Ġsparing": 22127,
    "Ġdeeper": 2084,
    "Ġextras": 22740,
    "Ġpointed": 4773,
    "Ġlouis": 8357,
    "Ġtelescopes": 25690,
    "Ġunlock": 18243,
    "Ġconductor": 24005,
    "reply": 19721,
    "ally": 530,
    "liberal": 26281,
    "resolved": 9638,
    "alter": 10825,
    "Ġcomplexion": 8211,
    "Ġenl": 18188,
    "akened": 7415,
    "Ġspaulding": 11728,
    "clusion": 16302,
    "Ġtreas": 7358,
    "Ġlegisl": 23531,
    "jep": 20925,
    "shell": 16284,
    "Ġaccuracy": 1063,
    "Ġsord": 21218,
    "aciousness": 18567,
    "flow": 2329,
    "itud": 2933,
    "Ġgrasshopper": 24379,
    "gloomy": 25144,
    "Ġpacing": 8426,
    "noticed": 14341,
    "Ġforgetfulness": 14605,
    "Ġfade": 21406,
    "asily": 13944,
    "Ġenchant": 7185,
    "Ġantarctic": 19551,
    "magistrate": 19862,
    "Ġurging": 24501,
    "Ġfragmentary": 25857,
    "passing": 14810,
    "Ġvector": 1973,
    "Ġvel": 7186,
    "Ġconcentration": 25062,
    "Ġunansw": 22056,
    "Ġnonsensical": 21527,
    "Ġhatherley": 7849,
    "orers": 14101,
    "aract": 17894,
    "Ġthank": 3793,
    "Ġ94": 17716,
    "Ġquaff": 22412,
    "fishery": 10030,
    "Ġout": 543,
    "collected": 13211,
    "parameter": 2868,
    "Ġpurplish": 19140,
    "Ġstanzas": 21742,
    "Ġbulwarks": 5591,
    "prevented": 20372,
    "uous": 4144,
    "Ġstilly": 25973,
    "Ġeyes": 1335,
    "Ġbody": 2437,
    "umbered": 22115,
    "ieties": 19022,
    "Ġformal": 2944,
    "dee": 11729,
    "Ġcurve": 22994,
    "pride": 11209,
    "Ġobliged": 4288,
    "affold": 16561,
    "Ġlodgings": 8312,
    "Ġwhole": 1665,
    "maj": 18804,
    "state": 13972,
    "Ġpromotion": 23192,
    "hent": 12530,
    "Ġfacility": 19849,
    "Ġbulk": 5590,
    "medium": 23638,
    "Ġpersuasions": 16630,
    "Ġruff": 14345,
    "Ġequival": 4784,
    "unch": 14056,
    "Ġbrains": 2630,
    "Ġsavages": 9910,
    "Ġoffered": 5816,
    "Ġrendered": 5773,
    "syntax": 5867,
    "Ġket": 18347,
    "meetings": 20376,
    "mo": 862,
    "&": 10,
    "savage": 15073,
    "Ġdrawers": 12102,
    "lection": 3651,
    "ode": 1452,
    "Á": 130,
    "Ġaspire": 21898,
    "Ġcircumspect": 15082,
    "practical": 17220,
    "Ġunhing": 18241,
    "Ġinterference": 8893,
    "profess": 10633,
    "americans": 25042,
    "Ġbehaviour": 4385,
    "Ġglimp": 6066,
    "reception": 15512,
    "Ġzealand": 12347,
    "Ġhurt": 7701,
    "Ġlevi": 3035,
    "first": 3935,
    "arthur": 14828,
    "Ġthinking": 4032,
    "Ġinclosed": 19537,
    "Ġmarshal": 20218,
    "Ġmaterials": 11287,
    "Ġplaced": 3441,
    "eur": 7545,
    "bbs": 23688,
    "Ġcontriv": 9280,
    "Ġabsorb": 25112,
    "Ġresides": 22538,
    "ariously": 18529,
    "Ġshocking": 10434,
    "Ġtruest": 16702,
    "?âĢĿ": 700,
    "Ġfrightened": 5341,
    "Ġvalued": 12179,
    "bs": 3753,
    "±": 114,
    "Ġvomit": 21946,
    "intu": 22931,
    "Ġcosy": 13128,
    "Ġheavily": 6740,
    "Ġranged": 10256,
    "Ġmates": 4872,
    "Ġlocks": 11721,
    "vess": 7354,
    "insufferable": 21191,
    "Ġmouldy": 14972,
    "Ġattractive": 25575,
    "Ġperils": 6272,
    "Ġwoods": 5406,
    "Ġbusy": 6189,
    "Ġdispel": 16595,
    "ignific": 11953,
    "brother": 7091,
    "despairing": 25074,
    "quer": 11676,
    "onist": 21249,
    "Ġveteran": 17448,
    "Ġvitality": 15170,
    "Ġsqualid": 14367,
    "georgiana": 26020,
    "Ġtag": 15466,
    "Ġcrystals": 20226,
    "Ġengage": 9333,
    "eag": 20841,
    "Ġgermans": 25784,
    "anyone": 16592,
    "Ġmeantime": 6206,
    "drowned": 17367,
    "sheets": 14440,
    "Ġobsolete": 26557,
    "impatiently": 20469,
    "Ġrem": 955,
    "el": 306,
    "Ġgips": 10840,
    "Ġcoefficient": 2884,
    "Ġcling": 11768,
    "vast": 10735,
    "Ġuncles": 23429,
    "Ġwealth": 7620,
    "Ġbaker": 4696,
    "ta": 13787,
    "manner": 6170,
    "Ġthemselves": 3251,
    "horses": 17566,
    "moil": 22703,
    "Ġerskine": 17430,
    "Ġsneer": 13445,
    "Ġcanterbury": 22162,
    "Ġdisreputable": 22532,
    "Ġhearsed": 25039,
    "Ġimage": 3401,
    "Ġsister": 1473,
    "Ġdotted": 16791,
    "Ġrattled": 15066,
    "Ġoccurring": 2791,
    "Ġcloset": 19590,
    "Ġstaggers": 24653,
    "Ġloaf": 15869,
    "considering": 12171,
    "kered": 18274,
    "Ġorganisation": 23582,
    "stamp": 21646,
    "prove": 11146,
    "Ġhammers": 13238,
    "Ġ**": 4721,
    "Ġdreamed": 16628,
    "Ġsleepers": 13147,
    "unc": 15765,
    "Ġspo": 6846,
    "Ġpand": 21453,
    "Ġexec": 19491,
    "apart": 15958,
    "Ġfixing": 13154,
    "Ġinquiring": 8998,
    "Ġcountenance": 3971,
    "ĠâĢĶâĢľ_": 17717,
    "free": 8735,
    "Ġvigilant": 20183,
    "inously": 21185,
    "Ġkeeping": 7283,
    "ising": 2252,
    "strange": 6087,
    "Ġa": 263,
    "Ġlandscape": 12414,
    "Ġbishop": 13900,
    "Ġsixty": 7723,
    "Ġconfid": 7687,
    "icken": 6711,
    "harpooneer": 8688,
    "Ġfeatures": 1431,
    "ots": 3293,
    "Ġinserted": 8356,
    "Ġcherry": 16934,
    "Ġweaving": 12736,
    "Ġmechanism": 2310,
    "rail": 10203,
    "Ġrefresh": 10342,
    "Ġpaddles": 15145,
    "izzy": 3095,
    "Ġplayfully": 19237,
    "Ġinco": 14261,
    "ios": 2306,
    "Ġgained": 4535,
    "Ġsternly": 16708,
    "Ġimm": 3966,
    "Ġcontinu": 1164,
    "wond": 8767,
    "posterity": 25488,
    "Ġardent": 9968,
    "Ġhas": 825,
    "Ġsubsc": 22787,
    "fury": 17546,
    "Ġemblematical": 25788,
    "eting": 7169,
    "Ġsystems": 792,
    "Ġcolleg": 22851,
    "ope": 4124,
    "Ġpercept": 14223,
    "cords": 25136,
    "Ġnobly": 22239,
    "harb": 9122,
    "Ġsnoring": 23738,
    "Ġceases": 19312,
    "mmar": 953,
    "Ġunconsc": 6552,
    "ternatural": 12711,
    "13": 20749,
    "Ġcontemplate": 19891,
    "stocks": 23818,
    "velling": 14761,
    "Ġlapl": 19776,
    "Ġhearties": 18966,
    "Ġsuccession": 12098,
    "Ġnam": 17948,
    "Ġreasoner": 14429,
    "Ġfigure": 4208,
    "Ġacknowledge": 13400,
    "Ġtumble": 16878,
    "diver": 20830,
    "ounder": 11741,
    "Ġgrudge": 20692,
    "Ġrattling": 11394,
    "Ġlabours": 8582,
    "Ġthroughout": 8875,
    "Ġunfailing": 24111,
    "Ġcrunched": 19123,
    "Ġrotation": 25474,
    "heading": 5487,
    "pitchpoling": 25725,
    "iracle": 11243,
    "Ġthreads": 13115,
    "Ġtelegram": 15221,
    "Ġdusky": 13547,
    "congenial": 25399,
    "Ġtenement": 23544,
    "Ġbun": 6007,
    "Ġserving": 14484,
    "Ġcirculating": 23371,
    "forbearance": 22800,
    "Ġmummy": 25768,
    "Ġreusable": 13555,
    "Ġgap": 21597,
    "Ġconnivance": 25225,
    "Ġescorted": 23504,
    "leader": 25351,
    "races": 21628,
    "Ġdull": 6384,
    "leo": 21362,
    "Ġoccurs": 1858,
    "Ġtrade": 2549,
    "istically": 14142,
    "Ġmince": 22829,
    "render": 10289,
    "Ġfireboard": 23529,
    "Ġendeavour": 4678,
    "Ġtotally": 9469,
    "Ġchronicled": 25328,
    "rucastle": 22176,
    "Ġgaff": 17993,
    "cused": 15330,
    "Ġequ": 1735,
    "Ġcitizens": 25439,
    "Ġhemp": 9214,
    "Ġtransform": 753,
    "Ġanim": 2113,
    "Ġdeck": 2137,
    "Ġchagrin": 20606,
    "behind": 6779,
    "Ġmanner": 2195,
    "Ġhouses": 6138,
    "circumstance": 7764,
    "heedful": 20572,
    "Ġtimidity": 24687,
    "Ġexerted": 15753,
    "'(": 2980,
    "Ġacts": 2293,
    "Ġenvelope": 7319,
    "Ġirritated": 17241,
    "freighted": 14890,
    "Ġwor": 1186,
    "Ġi": 311,
    "venison": 22624,
    "entire": 6824,
    "Ġunclad": 22052,
    "ming": 3599,
    "ceiling": 21625,
    "instant": 8651,
    "Ġovercome": 6044,
    "cousins": 20116,
    "ura": 1033,
    "Ġlovers": 9718,
    "Ġbrain": 2088,
    "reat": 617,
    "Ġnot": 413,
    "Ġjeopard": 9941,
    "Ġbottled": 23794,
    "Ġindependence": 12101,
    "dham": 20829,
    "Ġpains": 5965,
    "Ġiter": 2954,
    "Ġcompact": 2260,
    "Ġtoiled": 12638,
    "Ġsle": 2013,
    "Ġimmemorial": 10509,
    "rations": 10722,
    "laugh": 10107,
    "Ġstren": 15716,
    "elag": 12654,
    "Ġhysterics": 26093,
    "Ġflanks": 11912,
    "commence": 19990,
    "Ġgallery": 10523,
    "Ġcomputes": 4768,
    "Ġdirectly": 2105,
    "Ġrolls": 8334,
    "mur": 5428,
    "speed": 19407,
    "Ġroughs": 19955,
    "Ġintimidated": 24805,
    "unquiet": 21879,
    "Ġwhaler": 7520,
    "luckily": 19751,
    "grew": 17554,
    "mis": 4521,
    "Ġvouch": 15806,
    "verted": 10216,
    "hibited": 17425,
    "?âĢĿâĢĶ": 12894,
    "imin": 1770,
    "Ġfruit": 12323,
    "judges": 19572,
    "Ġbattering": 13899,
    "Ġcontinue": 5398,
    "Ġscheme": 7064,
    "Ġdestination": 19149,
    "Ġreveries": 11346,
    "Ġgrunted": 16165,
    "Ġdependent": 14296,
    "needle": 20309,
    "Ġwho": 613,
    "hauled": 20667,
    "Ġheaving": 7600,
    "fairly": 17218,
    "acled": 16060,
    "ving": 594,
    "Ġgravesend": 15214,
    "ok": 575,
    "Ġsubterranean": 13609,
    "rudence": 7092,
    "Ġnovels": 15926,
    "Ġcomstock": 21856,
    "Ġaccompl": 5167,
    "Ġhypothesis": 14780,
    "upset": 23017,
    ",âĢĿ": 582,
    "Ġobeying": 13412,
    "Ġsprain": 18305,
    "approaching": 15010,
    "taffrail": 15440,
    "Ġmeasurement": 19421,
    "Ġsmokes": 22558,
    "Ġchambers": 16798,
    "thomas": 18219,
    "Ġceasing": 23755,
    "benefit": 24642,
    "has": 4015,
    "Ġbarrens": 25501,
    "fig": 8734,
    "sake": 13781,
    "Ġobsequ": 14318,
    "ersman": 11699,
    "Ġuniversally": 11996,
    "oran": 8787,
    "Ġ2": 2931,
    "bounded": 13437,
    "Ġdoct": 4456,
    "socket": 22727,
    "Ġsensibility": 14514,
    "Ġsigh": 10335,
    "Ġzones": 22818,
    "Ġperish": 8873,
    "naturalist": 23554,
    "Ġebony": 18008,
    "Ġtelesc": 12984,
    "Ġparadise": 11193,
    "Ġsport": 6688,
    "Ġprogeny": 17386,
    "Ġcondescension": 10617,
    "Ġshrill": 12138,
    "Ġmeasure": 3592,
    "weakness": 16121,
    "eternal": 17982,
    "overcome": 19052,
    "Ġunfavourable": 17415,
    "Ġperilously": 24503,
    "Ġreasoning": 1920,
    "nment": 20989,
    "rier": 9240,
    "Ġworking": 5574,
    "Ġfearfully": 23509,
    "greatly": 16622,
    "Ġswitching": 23056,
    "pulling": 25146,
    "dman": 10087,
    "Ġinfinity": 23280,
    "Ġhimself": 1353,
    "light": 3019,
    "iliating": 12691,
    "Ġemployer": 19430,
    "appear": 13196,
    "dreaded": 25138,
    "based": 2962,
    "Ġgaiety": 16748,
    "Ġaffair": 4464,
    "Ġparson": 6687,
    "Ġalike": 8147,
    "Ġjogged": 26236,
    "cruise": 24841,
    "otently": 21798,
    "Ġcritically": 23444,
    "belled": 24034,
    "Ġunh": 9251,
    "umul": 1288,
    "Ġconsciousness": 9946,
    "inea": 7623,
    "Ġ12": 5483,
    "threat": 10899,
    "Ġdistinguish": 2726,
    "Ġberth": 8679,
    "Ġcrabs": 19173,
    "Ġpredomin": 16031,
    "fab": 13714,
    "Ġbeds": 14550,
    "Ġcrate": 19122,
    "worse": 14689,
    "conversations": 24749,
    "Ġmethods": 3159,
    "brilliancy": 26077,
    "deacon": 22144,
    "Ġcordially": 16835,
    "Ġminister": 18751,
    "Ġnotable": 18222,
    "contented": 14633,
    "Ġwol": 15527,
    "Ġfolds": 12203,
    "hroom": 12473,
    "Ġwrought": 11941,
    "Ġincidents": 9297,
    "Ġsings": 15503,
    "Ġbrougham": 17870,
    "Ġubiqu": 18046,
    "Ġsauntering": 18332,
    "Ġcollectively": 19966,
    "Ġinterval": 4054,
    "Ġequality": 16356,
    "qu": 368,
    "Ġoutstanding": 22314,
    "Ġunmingled": 18263,
    "Ġsleeve": 20139,
    "Ġhypotheses": 4388,
    "Ġexploitation": 2348,
    "Ġdecreases": 3407,
    "oro": 21393,
    "Ġ1991": 3018,
    "Ġfugitives": 25634,
    "gish": 20872,
    "Ġbuoyancy": 20040,
    "initely": 7568,
    "Ġfleshy": 24615,
    "Ġshattered": 7885,
    "Ġmanor": 14195,
    "prepared": 13588,
    "Ġpresto": 22228,
    "meantime": 9090,
    "walked": 10569,
    "Ġcommodore": 12392,
    "everywhere": 23694,
    "Ġsinusoid": 4781,
    "Ġsgd": 3130,
    "ruit": 22175,
    "escape": 16004,
    "Ġoccas": 2702,
    "ctors": 21588,
    "rol": 5713,
    "ken": 2800,
    "than": 4088,
    "Ġshamefully": 24716,
    "Ġrecord": 5316,
    "erately": 21272,
    "Ġleviathanic": 12077,
    "Ġcat": 2121,
    "extending": 22769,
    "Ġpersuading": 19408,
    "Ġoutlast": 22311,
    "Ġ69": 19660,
    "Ġsteepest": 3088,
    "estic": 4956,
    "nals": 16397,
    "Ġinclude": 1874,
    "swinging": 25912,
    "Ġsheepfold": 25466,
    "onden": 13842,
    "ricted": 15418,
    "Ġbewitched": 25975,
    "illustration": 2281,
    "america": 17096,
    "Ġexhilar": 19682,
    "circ": 4390,
    "Ġsc": 531,
    "Ġnewcomers": 26041,
    "large": 6625,
    "Ġfossiliferous": 25609,
    "Ġconstable": 19068,
    "Ġbrood": 23099,
    "Ġenormousness": 24511,
    "attain": 21260,
    "Ġ135": 24785,
    "mira": 20978,
    "Ġburying": 19250,
    "pun": 9616,
    "Ġincorrect": 2728,
    "rogress": 21534,
    "Ġpursuit": 4733,
    "Ġdarting": 7757,
    "Ġstrangely": 5677,
    "mason": 17602,
    "Ġpensive": 21473,
    "Ġabatement": 22274,
    "Ġalteration": 9544,
    "Ġeasiest": 23534,
    "extent": 22767,
    "Ġcan": 467,
    "ppings": 18176,
    "iamond": 14589,
    "Ġrejecting": 17050,
    "precise": 19349,
    "Ġdevouring": 11856,
    "Ġslammed": 20446,
    "ky": 4520,
    "rudent": 6482,
    "Ġsteering": 10386,
    "masterly": 24529,
    "ructure": 752,
    "Ġwilled": 21290,
    "Ġcoach": 6868,
    "composed": 14739,
    "cially": 3487,
    "Ġfortifications": 23619,
    "oning": 7572,
    "Ġmaria": 7124,
    "Ġperth": 7022,
    "Ġcrept": 11020,
    "Ġfailure": 13312,
    "exercise": 17458,
    "ego": 4036,
    "Ġsouthwards": 19632,
    "allingly": 22197,
    "Ġaugust": 10596,
    "smiles": 14691,
    "entitled": 21566,
    "spr": 7435,
    "Ġbraced": 16578,
    "rit": 21034,
    "Ġprotect": 6337,
    "promontory": 24728,
    "ada": 14009,
    "expense": 22427,
    "goodbye": 12053,
    "Ġembal": 11905,
    "brimming": 23576,
    "hardly": 6491,
    "Ġwages": 13852,
    "secret": 12233,
    "Ġprosecution": 12378,
    "whispered": 20032,
    "Ġtarget": 2821,
    "Ġuncontrollable": 25814,
    "Ġshabby": 14109,
    "flood": 19805,
    "esteem": 26008,
    "withdrawn": 23025,
    "Ġcosine": 2372,
    "igms": 3047,
    "Ġuncompromised": 20602,
    "Ġburgl": 13171,
    "olently": 15750,
    "Ġdesiring": 14410,
    "Ġyellow": 5300,
    "ansion": 10924,
    "desk": 23204,
    "Ġtools": 11607,
    "Ġpawn": 12060,
    "Ġsublime": 8066,
    "Ġlastly": 16203,
    "Ġgros": 14821,
    "Ġhun": 1494,
    "Ġcleared": 6075,
    "imet": 21704,
    "Ġdifferences": 18714,
    "Ġramsgate": 18644,
    "Ġcalculus": 23980,
    "Ġklan": 23658,
    "Ġconsume": 12954,
    "interchange": 23737,
    "Ġhawsers": 26501,
    "Ġmorphology": 3012,
    "Ġlifted": 6985,
    "nets": 9131,
    "neys": 23581,
    "Ġscr": 11757,
    "Ġprized": 23220,
    "Ġconsternation": 9857,
    "Ġhunts": 23156,
    "ade": 881,
    "arris": 13207,
    "Ġruefully": 17299,
    "shadow": 20313,
    "eon": 8729,
    "ition": 651,
    "Ġaverage": 3139,
    "husband": 8042,
    "sne": 10123,
    "Ġent": 905,
    "volume": 18591,
    "abling": 1078,
    "fort": 1750,
    "links": 20957,
    "Ġmadness": 6601,
    "lounged": 26133,
    "Ġinstability": 3814,
    "Ġobedient": 20103,
    "Ă": 195,
    "forget": 11031,
    "Ġcomprehensive": 15085,
    "ev": 6952,
    "Ġshowed": 4497,
    "Ġdiscompose": 25579,
    "acters": 9307,
    "westward": 25424,
    "rugg": 15893,
    "Ġeveryday": 22765,
    "Ġ37": 24077,
    "Ġensures": 3056,
    "Ġrokovoko": 22404,
    "Ġmanxman": 9564,
    ")âĢĶ": 20741,
    "Ġpeasants": 12329,
    "mistaken": 12207,
    "ellow": 3877,
    "Ġastonishing": 10500,
    "aintance": 3568,
    "Ġbreast": 8967,
    "vel": 2384,
    "adjust": 21758,
    "visited": 13345,
    "elve": 4641,
    "Ġreplied": 2262,
    "tanh": 5204,
    "Ġlaboratory": 13610,
    "windlass": 16720,
    "Ġshalt": 18230,
    "Ġdexterous": 15146,
    "iece": 3229,
    "Ġhoarse": 14525,
    "ancy": 4395,
    "Ġtwitch": 22674,
    "Ġmembrane": 20502,
    "Ġvaried": 11845,
    "Ġwantest": 18788,
    "ullen": 8235,
    "Ġmoisture": 12356,
    "ifully": 13182,
    "Ġfibres": 12947,
    "baby": 25515,
    "Ġloo": 22108,
    "Ġsympathy": 6346,
    "Ġhollow": 5648,
    "ĠĠĠĠĠĠĠĠĠĠĠĠĠĠĠĠĠĠĠĠĠĠĠĠĠĠĠĠĠĠĠĠĠĠ": 14612,
    "Ġquebec": 24132,
    "Ġkiss": 8183,
    "Ġdivineness": 25724,
    "Ġnext": 2138,
    "Ġwept": 7184,
    "Ġopened": 3509,
    "Ġabout": 631,
    "Ġenviron": 3924,
    "ouri": 21446,
    "on": 267,
    "Ġnor": 1550,
    "quod": 2162,
    "Ġpoland": 23616,
    "Ġdynamic": 5122,
    "Ġregretted": 13398,
    "Ġupbraiding": 26226,
    "produce": 20281,
    "Ġhardly": 2434,
    "Ġsilk": 11959,
    "Ġerr": 1321,
    "Ġsweetheart": 19393,
    "Ġcastaways": 19426,
    "Ġviv": 6156,
    "pendicular": 6499,
    "Ġbrag": 23831,
    "Ġshift": 2280,
    "add": 5229,
    "ouraged": 22855,
    "raved": 18012,
    "Ġlatent": 19654,
    "precision": 4333,
    "Ġfarthing": 14452,
    "Ġmovable": 22431,
    "Ġchas": 18379,
    "Ġtram": 11090,
    "Ġcomplete": 4383,
    "Ġdeterminate": 23004,
    "scure": 22983,
    "Ġsentry": 19023,
    "ivot": 11715,
    "Ġkra": 18348,
    "lob": 22504,
    "sleepers": 24730,
    "ictions": 14221,
    "tim": 13789,
    "Ġhypocritical": 20737,
    "truth": 9917,
    "ales": 3314,
    "Ġcontinuing": 14395,
    "Ġflushed": 13023,
    "Ġmist": 2877,
    "Ġorder": 1688,
    "Ġmargaret": 10375,
    "Ġraved": 22645,
    "Ġandrew": 21505,
    "Ġniece": 5712,
    "Ġquill": 12853,
    "Ġbegone": 11914,
    "eked": 16400,
    "arp": 2028,
    "Ġresignation": 18566,
    "Ġtwine": 14309,
    "wra": 11540,
    "Ġcows": 15549,
    "Ġtongs": 9959,
    "Ġcircling": 19092,
    "Ġfrosts": 19801,
    "adr": 6994,
    "Ġwholesome": 16002,
    "Ġarter": 22180,
    "Ġimple": 1727,
    "Ġphys": 5653,
    "Ġbars": 13895,
    "Ġburn": 3681,
    "Ġincorrupt": 19233,
    "sey": 5542,
    "fate": 17538,
    "Ġcourtship": 24135,
    "Ġpeculiarly": 8287,
    "likes": 18814,
    "Ġamusing": 11797,
    "Ġcarpet": 9354,
    "Ġvaults": 17152,
    "^{": 15302,
    "Ġfive": 2835,
    "Ġspeedy": 11171,
    "ild": 1152,
    "Ġcurse": 7668,
    "etite": 21577,
    "Ġsaving": 15886,
    "Ġone": 569,
    "Ġvessels": 6755,
    "works": 6588,
    "Ġpray": 3899,
    "Ġleading": 7297,
    "Ġsauc": 15887,
    "Ġtusk": 25425,
    "Ġhastened": 9003,
    "Ġconf": 1822,
    "Ġchisel": 20366,
    "Ġorganically": 3014,
    "lone": 11498,
    "Ġundergone": 18986,
    "cottage": 9568,
    "Ġmant": 9646,
    "Ġepaulets": 24905,
    "Ġcursory": 18858,
    "causes": 20342,
    "Ġcane": 10926,
    "Ġlaying": 7909,
    "Ġungovernable": 20708,
    "Ġdirection": 1792,
    "itect": 991,
    "transp": 24508,
    "sometimes": 5972,
    "mble": 1405,
    "Ġpossession": 5588,
    "ple": 455,
    "histor": 13489,
    "observed": 7675,
    "pt": 388,
    "Ġvane": 22870,
    "Ġgret": 21599,
    "Ġdictionaries": 12337,
    "Ġexpenses": 11830,
    "derstand": 663,
    "Ġpulley": 2977,
    "Ġnoise": 1070,
    "Ġtear": 6722,
    "plexy": 18576,
    "omn": 15686,
    "allowed": 5728,
    "dinner": 11405,
    "were": 2560,
    "aneous": 7240,
    "Ġruffled": 25835,
    "canoes": 16227,
    "Ġacknowledged": 7534,
    "oblig": 16288,
    "Ī": 235,
    "Ġstarts": 16581,
    "iop": 20918,
    "Ġlord": 2968,
    "Ġannoyance": 20661,
    "nurs": 20998,
    "Ġindications": 14630,
    "placidity": 25988,
    "otions": 7180,
    "Ġincom": 9767,
    "information": 12390,
    "Ġintelligible": 15938,
    "acency": 12893,
    "Ġinsight": 16528,
    "Ġembeddings": 2203,
    "Ġsuffering": 8945,
    "Ġmappings": 2147,
    "Ġinstruments": 12220,
    "Ġrefusal": 10341,
    "cool": 19186,
    "single": 10125,
    "Ġforefinger": 16442,
    "Ġrobberies": 22968,
    "Ġboot": 11836,
    "Ġmons": 10155,
    "Ġcough": 11579,
    "ifferent": 4265,
    "Ġinsip": 19266,
    "Ġsubur": 12952,
    "Ġminute": 4281,
    "Ġsaturn": 22899,
    "Ġprocopius": 19729,
    "Ġunthinkingly": 26220,
    "Ġgilder": 21611,
    "Ġpromising": 10398,
    "seriously": 18904,
    "Ġig": 3497,
    "thinks": 16640,
    "Ġantique": 19550,
    "jackets": 24895,
    "Ġplied": 22595,
    "0": 20,
[...]
