{
  "metadata": {
    "vocab_size": 26613,
    "algorithm": "BPE",
    "created_at": "2026-09-12 06:50:15",
    "special_tokens": [
      "<PAD>",
      "<SOS>",
      "<EOS>",
      "<UNK>",
      "<MASK>"
    ]
  },
  "vocab": {
    "pervised": 1653,
    "Ġreven": 18028,
    "Ġmeditation": 16679,
    "Ġacc": 573,
    "nature": 5359,
    "noted": 22747,
    "Ġactionable": 24558,
    "Ġastonished": 7087,
    "'s": 2471,
    "Ġoxford": 11370,
    "Ġtraining": 528,
    "farm": 15349,
    "mises": 20977,
    "pt": 386,
    "Ġhint": 5016,
    "Ġrichest": 26211,
    "Ġ49": 24081,
    "Ġprofundities": 20452,
    "ĠĠĠĠĠĠĠĠĠĠĠĠĠĠĠĠĠĠĠĠĠĠĠĠĠĠĠĠĠĠĠĠĠĠĠĠĠĠĠĠĠĠĠĠĠĠ": 9951,
    "Ġvinc": 14083,
    "Ġgilder": 21611,
    "Ġnuts": 17951,
    "Ġbirch": 26174,
    "Ġimplement": 3022,
    "Ġintelligent": 1712,
    "Ġobstin": 14951,
    "Ġpupella": 20420,
    "insisted": 23065,
    "enemy": 15524,
    "Ġforlorn": 14013,
    "usions": 6159,
    "perse": 15897,
    "itated": 4440,
    "argue": 21443,
    "Ġcasually": 25093,
    "Ġhighly": 4844,
    "Ġallies": 18234,
    "spark": 18688,
    "Ġpatronage": 17052,
    "Ġexec": 19491,
    "Ġespe": 21154,
    "shook": 19855,
    "Ġperv": 15987,
    "Ġpenetration": 19916,
    "Ġopening": 5045,
    "Ġsuperiority": 14616,
    "Ġdoubloon": 6945,
    "_;": 6640,
    "magnitude": 17247,
    "ougher": 18278,
    "Ġplate": 8897,
    "pushed": 21022,
    "anch": 15556,
    "Ġdrags": 16940,
    "Ġblasted": 7937,
    "Ġsuspend": 14608,
    "planks": 21958,
    "Ġtables": 9876,
    "Ġpertin": 18450,
    "Ġreckoning": 14977,
    "Ġapplication": 2106,
    "ciousness": 20816,
    "Ġga": 4446,
    "100": 11463,
    ").âĢĿ": 20740,
    "Ġvener": 8164,
    "Ġmajority": 13290,
    "chery": 24550,
    "combination": 25486,
    "Ġtenderly": 11313,
    "icult": 3339,
    "Ġvector": 1970,
    "Ġcompetent": 11814,
    "indispensable": 14208,
    "Ġgreece": 17068,
    "voyage": 7786,
    "Ġdim": 4757,
    "reck": 9635,
    "ignomin": 23265,
    "Ġdistributes": 4197,
    "Ġcoin": 9769,
    "Ġpressure": 13420,
    "july": 20473,
    "Ġengagements": 9976,
    "Ġdisappointing": 19578,
    "Ġwithdrawing": 11339,
    "Ġused": 2059,
    "Ġmatch": 4529,
    "Ġpedro": 14993,
    "Ġmay": 925,
    "Ġcurving": 16232,
    "Ġdecorum": 16018,
    "Ġcomplied": 14733,
    "Ġsewing": 21952,
    "pure": 17625,
    "Ġmate": 3706,
    "Ġvehicle": 20137,
    "inconsiderable": 21190,
    "outh": 2689,
    "Ġpracticable": 19063,
    "ching": 5156,
    "Ġtigris": 25759,
    "Ġpend": 15602,
    "thole": 21984,
    "violently": 23542,
    "belief": 13279,
    "Ġtrem": 6659,
    "Ġh": 290,
    "Ġassociations": 14961,
    "Ġmanipulation": 10657,
    "laz": 15383,
    "Ġembrace": 16989,
    "Ġcask": 5527,
    "regulated": 23466,
    "Ġtended": 21165,
    "iet": 1773,
    "ifiable": 18163,
    "Ġsuppose": 2864,
    "Ġfuller": 11155,
    "Ġdiscount": 22780,
    "Ġjavelins": 26105,
    "critters": 14782,
    "proceed": 8975,
    "Ġwade": 17784,
    "token": 21081,
    "ical": 753,
    "miserable": 8656,
    "Ġdew": 14043,
    "breat": 10076,
    "uced": 13798,
    "oil": 7806,
    "Ġoccupied": 5272,
    "utral": 12659,
    "Ġbuying": 23994,
    "Ġcity": 4530,
    "Ġattent": 4360,
    "ume": 4835,
    "Ġ9": 5901,
    "class": 4097,
    "Ġinexperienced": 26100,
    "Ġcloset": 19590,
    "Ġdictator": 20152,
    "Ġwool": 19431,
    "seems": 10874,
    "er": 269,
    "encouragement": 17421,
    "turns": 14904,
    "Ġhoary": 23353,
    "Ġvenom": 24237,
    "Ġconfided": 19033,
    "tout": 21064,
    "Ġfle": 3090,
    "Ġboarded": 13231,
    "Ġagreement": 18539,
    "Ġgriff": 22804,
    "glad": 9006,
    "Ġresponded": 13636,
    "regiment": 16451,
    "Ġplug": 17146,
    "Ġsuspecting": 14908,
    "Ġforce": 5092,
    "Ġhovering": 10177,
    "Ġwakes": 11570,
    "#": 7,
    "Ġunkindness": 22038,
    "onical": 21252,
    "typewritten": 26038,
    "orse": 5806,
    "Ġdiscrimin": 2547,
    "Ġcoupled": 16850,
    "Ġundertaking": 8573,
    "Ġcreeping": 18683,
    "Ġproport": 2300,
    "Ġtumultuous": 10614,
    "Ġdemoniacal": 20555,
    "Ġguitar": 16268,
    "Ġmasks": 23324,
    "Ġanxiously": 8290,
    "icide": 11617,
    "useful": 16501,
    "ww": 10736,
    "inal": 15478,
    "Ġforces": 12698,
    "blazing": 24131,
    "Ġstabilizing": 3656,
    "adm": 7608,
    "pens": 17631,
    "borrowed": 20791,
    "Ġreceive": 4703,
    "named": 9888,
    "Ġcautiously": 16976,
    "front": 12168,
    "nnight": 20992,
    "rote": 4592,
    "erness": 6434,
    "Ġunlimited": 26222,
    "Ġtriumphant": 12187,
    "Ġshattered": 7885,
    "Ġindisp": 18834,
    "bath": 13687,
    "Ġcauldron": 25441,
    "ek": 1908,
    "functions": 11240,
    "aste": 4601,
    "Ġparameter": 885,
    "Ġcritical": 7475,
    "Ġsubdued": 11029,
    "Ġintensity": 10014,
    "Ġspout": 3280,
    "odecim": 9830,
    "Ġsuitable": 18282,
    "umerable": 11723,
    "Ġins": 2780,
    "Ġtwisting": 18658,
    "Ġclubb": 22349,
    "exerc": 16012,
    "Ġgl": 1256,
    "swed": 24252,
    "Ġstand": 1735,
    "Ġdejected": 20303,
    "Ġviii": 16411,
    "ĵ": 246,
    "Ġincredible": 9513,
    "Ġlashes": 17966,
    "atives": 2238,
    "digger": 24309,
    "splice": 17169,
    "Ġrus": 14090,
    "ize": 773,
    "thar": 18217,
    "four": 6113,
    "Ġbrad": 8785,
    "Ġorb": 22089,
    "Ġsolemnly": 8024,
    "Ġconfidence": 6590,
    "Ġskirting": 22794,
    "igating": 21698,
    "Ġrags": 18647,
    "Ġinev": 10180,
    "orns": 12589,
    "Ġjones": 7204,
    "Ġrestraint": 15125,
    "langu": 4807,
    "scythes": 26401,
    "Ġirresolute": 24916,
    "shuff": 18491,
    "poured": 17636,
    "Ġguido": 2973,
    "ific": 491,
    "Ġsum": 2701,
    "shaped": 10307,
    "turtle": 12209,
    "}": 97,
    "nest": 10112,
    "calm": 8933,
    "Ġobject": 1392,
    "Ġretiring": 16278,
    "Ġrebell": 21667,
    "Ġvilest": 20099,
    "Ġdeclared": 5594,
    "Ġ48": 24080,
    "Ġmanilla": 15956,
    "mechanical": 25578,
    "Ġhereabouts": 12973,
    "Ġgaz": 4046,
    "fters": 20860,
    "congratulations": 20278,
    "Ġsiber": 17754,
    "Ġcripple": 11439,
    "Ġleader": 14700,
    "uated": 10130,
    "Ġplaster": 16080,
    "Ġpassing": 4315,
    "Ġbrisk": 9801,
    "Ġcrutch": 23445,
    "Ġswiftly": 5670,
    "Ġhope": 1788,
    "desired": 8955,
    "ferred": 16388,
    "Ġscale": 1547,
    "Ġportcullis": 26602,
    "perfect": 7634,
    "Ġoverheard": 11772,
    "ee": 1661,
    "Ġascending": 14852,
    "Ġrepugnant": 26589,
    "itu": 1226,
    "welcomed": 24644,
    "general": 7489,
    "lings": 8745,
    "Ġheap": 12674,
    "Ġcurios": 18846,
    "occasional": 19575,
    "reclining": 20573,
    "Ġhampshire": 15240,
    "Ġverily": 16602,
    "Ġexe": 3999,
    "Ġbeaufort": 13566,
    "garn": 20869,
    "Ġemployer": 19430,
    "geon": 6270,
    "Ġbodings": 21389,
    "-": 17,
    "Ġschooner": 16746,
    "Ġlent": 21545,
    "bedded": 13225,
    "Ġpair": 5706,
    "Ġanew": 11429,
    "Ġjonah": 3477,
    "Ġcucumber": 21354,
    "umbria": 23928,
    "Ġtidings": 11396,
    "Ġcommendation": 13608,
    "levi": 7047,
    "Ġdespised": 14665,
    "Ġknowledge": 1445,
    "Ġthunders": 15634,
    "Ġattraction": 18619,
    "Ġrepel": 23355,
    "Ġcelebrate": 26357,
    "Ġrapidity": 11102,
    "deserts": 25379,
    "ma": 1152,
    "yourself": 6742,
    "vigorous": 25917,
    "Ġcivilised": 24243,
    "Ġlatterly": 24084,
    "Ġconv": 2966,
    "susceptible": 24661,
    "Ġtamely": 24979,
    "Ġsecurely": 16801,
    "Ġpitied": 14690,
    "Ġknitted": 19588,
    "Ġticking": 25033,
    "grant": 10426,
    "Ġnarwhale": 12291,
    "Ġanimated": 7702,
    "int": 1198,
    "Ġenig": 15796,
    "puff": 21021,
    "iest": 4039,
    "idirection": 2413,
    "particular": 5757,
    "Ġcomfort": 3437,
    "ality": 2515,
    "chairs": 21691,
    "specul": 23941,
    "Ġklan": 23661,
    "Ġcommunicative": 24547,
    "Ġinsol": 10179,
    "ucy": 15442,
    "riminately": 16481,
    "Ġcopying": 17067,
    "leaning": 10789,
    "after": 2895,
    "boom": 18998,
    "Ġpail": 15603,
    "neighbours": 24881,
    "Ġlosing": 10915,
    "Ġwrites": 23196,
    "Ġcondescending": 24868,
    "Ġpeculiarities": 12068,
    "delights": 19700,
    "larger": 24201,
    "Ġbinnacle": 8119,
    "Ġmanaging": 22323,
    "fort": 1749,
    "Ġincorpor": 13163,
    "Ġfacing": 10170,
    "Ġknave": 11271,
    "triumph": 15438,
    "Ġbehooves": 20732,
    "choice": 21689,
    "Ġgryphon": 4300,
    "Ġreprehensible": 15695,
    "Ġglimmering": 25240,
    "Ġcondensed": 24051,
    "Ġsubaltern": 22789,
    "Ġbalm": 22900,
    "Ġfoundling": 22971,
    "Ġblood": 3167,
    "Ġknight": 9725,
    "Ġprinc": 4201,
    "Ġgets": 10838,
    "Ġhousings": 21491,
    "asp": 3338,
    "brimmed": 14587,
    "Ġinterpreted": 1710,
    "card": 11474,
    "ishing": 1145,
    "af": 2375,
    "Ġsurrounds": 24230,
    "Ġawaken": 23585,
    "Ġleadenhall": 16627,
    "Ġcoff": 3505,
    "Ġbree": 5012,
    "ify": 1473,
    "irements": 22210,
    "required": 17029,
    "moored": 22702,
    "Ġhissing": 15786,
    "leo": 21362,
    "Ġglorious": 11074,
    "Ġcatholic": 20680,
    "iply": 22362,
    "Ġalgorithm": 755,
    "grained": 20882,
    "uguese": 20731,
    "Ġwhistled": 24624,
    "Ġmemb": 14028,
    "Ġburied": 7719,
    "Ġbrotherhood": 23669,
    "exception": 9974,
    "ĠâĢĶ": 13809,
    "Ġstead": 5650,
    "Ġgratefully": 20443,
    "inspect": 11557,
    "Ġballasted": 23978,
    "Ġlung": 7167,
    "plun": 15816,
    "Ġcausal": 3406,
    "Ġdemonstrate": 24996,
    "Ġjoll": 11763,
    "vely": 3869,
    "Ġhearts": 4972,
    "prove": 11146,
    "Ġcomputes": 4768,
    "Ġmerits": 13194,
    "cils": 20813,
    "Ġauto": 23308,
    "vest": 6230,
    "inquiries": 13575,
    "rised": 10122,
    "stock": 13219,
    "ifford": 15780,
    "Ġcelest": 9899,
    "ibles": 18786,
    "Ġperpendicular": 7209,
    "Ġunfrequ": 19507,
    "Ġstiffness": 24830,
    "forks": 26386,
    "Ġthem": 640,
    "Ġnick": 21521,
    "Ġswallow": 8949,
    "cellar": 20276,
    "liber": 18813,
    "inaw": 21182,
    "loved": 14249,
    "umbent": 12093,
    "Ġlumber": 13950,
    "Ġsle": 2013,
    "ĠcÃ¦sar": 20578,
    "likewise": 13102,
    "build": 12185,
    "Ġlife": 1352,
    "mense": 4780,
    "Ġsmiting": 12894,
    "rmsprop": 4522,
    "Ġwithin": 2165,
    "Ġshud": 5461,
    "Ġknitting": 24217,
    "Ġmitt": 21306,
    "Ġgentlemanlike": 12064,
    "Ġapologized": 25198,
    "Ġpaces": 13917,
    "Ġperiodically": 19493,
    "claimed": 9834,
    "Ġyale": 21777,
    "Ġabhorrence": 9051,
    "zed": 8104,
    "Ġimmovable": 15889,
    "5": 25,
    "atoes": 17774,
    "door": 6193,
    "ulations": 6029,
    "by": 1159,
    "agos": 21902,
    "december": 25558,
    "Ġdo": 511,
    "cod": 12441,
    "Ġpenetrating": 17010,
    "women": 15454,
    "Ġmal": 5221,
    "Ġtreacle": 14594,
    "surf": 24211,
    "cock": 12023,
    "Ġsteward": 6584,
    "Ġcryst": 9915,
    "uled": 11535,
    "Ġ0": 1904,
    "Ġtuples": 13475,
    "Ġincompetent": 25679,
    "castles": 14635,
    "pron": 9004,
    "Ġbrotherly": 16526,
    "Ġquantity": 6948,
    "Ġdrag": 6184,
    "Ġwarped": 25035,
    "Ġperceptible": 18452,
    "iforn": 14062,
    "Ġserpents": 13074,
    "Ġnight": 1463,
    "Ġcrew": 2497,
    "Ġundaunted": 24119,
    "Ġado": 7626,
    "sen": 21048,
    "Ġoxen": 19949,
    "Ġsurp": 9633,
    "Ġhon": 2539,
    "sell": 13779,
    "Ġwestmorland": 24389,
    "Ġinhab": 5083,
    "ĠâĢľâĢĶ": 9732,
    "Ġcomparatively": 9488,
    "Ġaccount": 2321,
    "parts": 14600,
    "security": 26206,
    "Ġhunger": 8566,
    "Ġsins": 13835,
    "Ġinstantly": 3591,
    "Ġboneless": 19604,
    "Ġmaintenance": 17460,
    "Ġsaluted": 14757,
    "grace": 5846,
    "Ġadmitting": 19182,
    "nineteenth": 26138,
    "Ġcushion": 17833,
    "Ġgnawed": 25164,
    "Ġspectacle": 10495,
    "brother": 7091,
    "Ġbutts": 15852,
    "fre": 5425,
    "Ġclattering": 22352,
    "emotion": 21926,
    "meant": 7922,
    "Ġthreatening": 16827,
    "Ġcrags": 23528,
    "Ġunwe": 15835,
    "owing": 7601,
    "relative": 24011,
    "Ġsnarled": 25716,
    "Ġexploit": 19161,
    "Ġshortly": 6196,
    "aits": 20765,
    "stately": 18021,
    "Ġcontour": 18474,
    "Ġflapp": 23006,
    "roused": 16651,
    "Ġstarts": 16581,
    "co": 2436,
    "urch": 3998,
    "expense": 22427,
    "Ġdetails": 6565,
    "Ġgloves": 8574,
    "eager": 12457,
    "vapor": 25755,
    "flagged": 23970,
    "perplex": 18344,
    "Ġfunctional": 3046,
    "Ġ(âĢľ": 15992,
    "stretch": 13979,
    "Ġmassachusetts": 24020,
    "Ġgills": 17992,
    "Ġtou": 15464,
    "Ġgateway": 24802,
    "Ġrelinqu": 12978,
    "deser": 10401,
    "Ġtyp": 1130,
    "Ġmotioned": 19591,
    "Ġblush": 14399,
    "Ġloomed": 12299,
    "Ġadviser": 25312,
    "¥": 103,
    "Ġswallows": 18881,
    "anesc": 21358,
    "rudential": 16709,
    "Ġencoun": 4512,
    "Ġdenomin": 12065,
    "library": 12995,
    "Ġdaugh": 2294,
    "Ġcast": 3605,
    "Ġa": 263,
    "Ġabstraction": 26538,
    "Ġcries": 7154,
    "skull": 24487,
    "Ġwarb": 17787,
    "Ġveget": 11884,
    "promise": 12248,
    "fluke": 25204,
    "Ġchaos": 17008,
    "ately": 1727,
    "alization": 732,
    "Ø": 153,
    "Ġjutting": 22299,
    "eminent": 25104,
    "Ġwander": 9030,
    "Ġwardrobe": 17224,
    "sight": 5995,
    "Ġrummaged": 16909,
    "Ġbecher": 18878,
    "Ġchurches": 12824,
    "Ġprejudices": 13467,
    "foremost": 14251,
    "connected": 1311,
    "Ġsuggests": 12198,
    "lie": 12480,
    "gue": 12465,
    "content": 11196,
    "arnel": 18124,
    "Ġelect": 10841,
    "Ġbusied": 19066,
    "Ġcouple": 5423,
    "ermost": 7430,
    "Ġweek": 2825,
    "Ġexploitation": 2347,
    "Ġslaught": 23165,
    "apes": 9739,
    "ighb": 10422,
    "Ġparch": 11724,
    "ived": 1530,
    "Ġcobbler": 25829,
    "Ġcum": 21340,
    "Ġsphy": 18311,
    "Ġdemig": 20355,
    "thern": 4953,
    "Ġloitering": 22114,
    "cob": 10085,
    "Ġspace": 1561,
    "Ġaverred": 18864,
    "peleg": 16291,
    "ositories": 22261,
    "Ġhoe": 23350,
    "igate": 8821,
    "Ġreassure": 21670,
    "pounds": 21024,
    "Ġinte": 2064,
    "Ġlessened": 19087,
    "Ġthickest": 16653,
    "undertaking": 23786,
    "Ġdeaden": 23459,
    "ourselves": 9009,
    "Ġfill": 5701,
    "Ġcordially": 16835,
    "transform": 8050,
    "Ġjav": 7903,
    "Ġreports": 19083,
    "mediate": 16511,
    "Ġhatchways": 24989,
    "Ġveteran": 17448,
    "Ġpainting": 13139,
    "confused": 19643,
    "Ġlaug": 3626,
    "jolly": 20930,
    "restoration": 23236,
    "recollection": 25348,
    "dishon": 20402,
    "Ġprobed": 18734,
    "Ġgurg": 15669,
    "waiter": 24587,
    "ingham": 21299,
    "Ġcentury": 8291,
    "avor": 14274,
    "falgar": 26130,
    "Ġarc": 14157,
    "damn": 20022,
    "Ġlabeled": 3716,
    "Ġintent": 6409,
    "Ġboth": 1656,
    "adieu": 26200,
    "Ġdavis": 25952,
    "Ġundoubtedly": 8313,
    "Ġpound": 12612,
    "Ġhandsome": 4906,
    "distraction": 24199,
    "Ġshrunk": 16717,
    "Ġbetrayed": 9560,
    "Ġshrieked": 9546,
    "Ġnum": 1348,
    "guilt": 24068,
    "Ġshine": 12762,
    "Ġcheers": 16363,
    "Ġtemperate": 16159,
    "Ġscene": 3096,
    "type": 16173,
    "awake": 14450,
    "Ġpenny": 16310,
    "Ġdamned": 13129,
    "ront": 15416,
    "Ġslu": 13834,
    "Ġunfaltering": 24112,
    "Ġconcre": 16385,
    "harmony": 25750,
    "Ġmig": 13854,
    "Ġcents": 17828,
    "Ġconstruction": 9384,
    "Ġmagical": 23097,
    "limping": 26392,
    "mouthful": 25208,
    "Ġforget": 2637,
    "Ġtremor": 24768,
    "Ġmovements": 24358,
    "Ġnorthumbria": 24170,
    "Ġdiana": 21435,
    "pair": 21011,
    "Ġjem": 18402,
    "Ġdeceased": 15005,
    "Ġuniversal": 2236,
    "Ġexhibit": 14954,
    "Ġtell": 1466,
    "Ġarmada": 23579,
    "mess": 13751,
    "jewel": 20345,
    "Ġcoat": 4554,
    "Ġbrix": 12580,
    "Ġpolynesian": 26026,
    "Ġundersampling": 19517,
    "ermaid": 14294,
    "ine": 406,
    "Ġnimble": 21526,
    "Ġconsummate": 25310,
    "Ġlifting": 10195,
    "harpoon": 9489,
    "Ġ90": 24589,
    "chess": 16571,
    "Ġsang": 12532,
    "Ġpubl": 3945,
    "Ġwearily": 18177,
    "anche": 10787,
    "Ġcombines": 1157,
    "grass": 23411,
    "madly": 24419,
    "cannibal": 15222,
    "party": 8991,
    "rip": 9239,
    "arding": 22154,
    "ardy": 22153,
    "Ġhearers": 15699,
    "Ġ105": 24412,
    "Ġcoopers": 20520,
    "irwin": 8468,
    "recur": 4437,
    "Ġconvulsively": 25717,
    "Ġelusive": 22645,
    "Ġlimber": 16477,
    "Ġcommitting": 22671,
    "Ġscanning": 18400,
    "Ġidentify": 12011,
    "Ġfestoon": 20293,
    "atches": 13844,
    "Ġreiter": 21664,
    "Ġneighbor": 25805,
    "Ġwooing": 19432,
    "Ġdreaminess": 23937,
    "doubted": 17525,
    "Ġwriters": 13541,
    "Ġwat": 1288,
    "Ġpresented": 5183,
    "Ġstare": 10863,
    "Ġeffusions": 18543,
    "Ġdolphin": 17310,
    "rent": 1171,
    "Ġfiftieth": 24703,
    "uarded": 21104,
    "Ġassid": 18944,
    "Ġrushes": 20506,
    "abomin": 15738,
    "beings": 12873,
    "ideas": 18581,
    "Ġheavy": 3742,
    "Ġcommunion": 19007,
    "impotence": 23759,
    "Ġlustrous": 20155,
    "Ġhosea": 17329,
    "Ġrationally": 18213,
    "Ġmoods": 14949,
    "Ġclutch": 15052,
    "Ġenjoying": 11233,
    "Ġoverwhelmed": 11402,
    "ace": 720,
    "Ġsent": 1775,
    "Ġshrew": 21998,
    "Ġcas": 8411,
    "Ġassisted": 11109,
    "elf": 565,
    "Ġdischar": 11806,
    "Ġsail": 1673,
    "Ġdishon": 12228,
    "\"],": 26120,
    "Ġdisagreeable": 9296,
    "Ġcalculated": 4476,
    "Ġobsc": 7039,
    "Ġreve": 2931,
    "Ġoccurs": 1858,
    "Ġpyramids": 15112,
    "Ġspoilt": 24807,
    "Ġincludes": 2009,
    "Ġsheath": 14150,
    "colonel": 8285,
    "Ġfert": 15578,
    "Ġwonders": 7500,
    "Ġicebergs": 23973,
    "Ġdear": 1535,
    "she": 1395,
    "Ġtarred": 23608,
    "Ŀ": 256,
    "Ġpicked": 6341,
    "Ġlangu": 572,
    "butter": 11783,
    "Ġwho": 613,
    "Ġenchanting": 17038,
    "Ġarri": 2554,
    "Ġpoliteness": 8274,
    "Ġboat": 1277,
    "Ġphantoms": 13484,
    "minutely": 19592,
    "ĠâĢľ": 516,
    "Ġtags": 20570,
    "twig": 23698,
    "Ġsublim": 19965,
    "Ġpropose": 9851,
    "Ġbraved": 23835,
    "Ġleaders": 16626,
    "tremble": 17140,
    "Ġadmirers": 19685,
    "Ġclassify": 1609,
    "Ġcrowding": 13277,
    "Ġgovernor": 16488,
    "Ġrewarded": 14938,
    "import": 5668,
    "measured": 19988,
    "Ġscuff": 15940,
    "Ġbott": 3148,
    "retch": 4370,
    "Ġmariners": 6068,
    "Ġfact": 1728,
    "Ġloveliness": 13606,
    "Ġamber": 7026,
    "Ġimmemorial": 10509,
    "Ġsanction": 20024,
    "ilt": 2965,
    "strike": 14947,
    "Ġsacrificial": 24871,
    "senses": 25022,
    "factories": 19842,
    "Ġshiver": 12763,
    "protested": 13472,
    "Ġexcel": 3567,
    "Ġpitiful": 13236,
    "Ġexponentiating": 3444,
    "hills": 13734,
    "braid": 17493,
    "Ġarch": 926,
    "rapt": 13971,
    "Ġruins": 16155,
    "Ġindelible": 25694,
    "Ġey": 8135,
    "twas": 15435,
    "feature": 3554,
    "Ġsideboard": 10384,
    "Ġexcitement": 9380,
    "Ġclinging": 10290,
    "Ġexam": 3709,
    "Ġxx": 5492,
    "Ġhood": 10822,
    "true": 2587,
    "Ġminimum": 23040,
    "Ġtop": 2472,
    "Ġwintry": 17432,
    "Ġwal": 6517,
    "Ġjetted": 24430,
    "stern": 7862,
    "Ġundulating": 19516,
    "Ġdepicted": 14282,
    "Ġphrenologist": 25607,
    "posted": 24636,
    "Ġplanisphere": 26606,
    "Ġunrel": 14694,
    "µ": 118,
    "ands": 21864,
    "Ġrecollecting": 17112,
    "afternoon": 13185,
    "iem": 20916,
    "Ġnightfall": 23128,
    "athom": 12935,
    "ksome": 10103,
    "Ġhay": 11604,
    "Ġunfathomable": 20547,
    "Ġparty": 3508,
    "Ġbrooks": 25700,
    "Ġagree": 7646,
    "Ġemm": 18002,
    "eping": 5833,
    "Ġmanage": 7640,
    "Ġfathom": 17047,
    "Ġbuilded": 24719,
    "Ġrightly": 13061,
    "Ġdepos": 11006,
    "Ġseren": 7401,
    "tranquil": 25870,
    "attracted": 13047,
    "Ġunimag": 12771,
    "Ġchoking": 15931,
    "Ġanyone": 4460,
    "Ġhackney": 20431,
    "Ġdynam": 3203,
    "Ġrefusing": 11027,
    "high": 6649,
    "Ġdemeanour": 17335,
    "Ġphant": 7055,
    "Ġaff": 1119,
    "Ġbaker": 4695,
    "Ġrecommended": 8667,
    "begone": 12875,
    "Ġredoubled": 23751,
    "51": 12429,
    "Ġanger": 5442,
    "Ġcogn": 11001,
    "Ġaversion": 18865,
    "Ġmodified": 14166,
    "gia": 20875,
    "Ġlouisa": 13544,
    "Ġimage": 3399,
    "Ġoozy": 21325,
    "Ġbe": 336,
    "Ġoun": 13861,
    "Ġhorribly": 16339,
    "Ġscand": 7203,
    "Ġofficially": 24838,
    "inging": 5907,
    "hur": 6648,
    "indeed": 4488,
    "idy": 21762,
    "Ġhumorousness": 25377,
    "Ġhug": 6979,
    "Ġacquaintances": 17348,
    "Ġsecluded": 11990,
    "Ġsoot": 14128,
    "nament": 11505,
    "Ġpleated": 16294,
    "theirs": 23601,
    "painting": 17045,
    "dr": 6221,
    "Ġhunt": 6183,
    "Ġjapanese": 10631,
    "ĠĠĠĠĠĠĠĠĠĠĠĠĠĠĠĠĠĠĠĠĠĠĠĠĠĠĠĠĠĠĠĠĠĠĠĠĠĠĠĠĠĠĠĠĠĠĠĠĠĠĠ": 20037,
    "Ġshow": 3398,
    "threaten": 25461,
    "Ġwhe": 439,
    "Ġpretended": 19313,
    "thed": 8825,
    "hyme": 19608,
    "absolute": 17121,
    "Ġretreating": 19798,
    "Ġris": 4886,
    "Ġcasc": 15552,
    "Ġxxii": 24477,
    "Ġhostile": 19938,
    "Ġrelics": 16193,
    "istol": 6259,
    "shame": 16021,
    "Ġsucking": 12784,
    "Ġtrifle": 10600,
    "Ġathe": 17740,
    "hurried": 11352,
    "atching": 8203,
    "give": 4688,
    "Ġfigured": 16642,
    "Ġsound": 2243,
    "Ġdeformed": 14047,
    "59": 17472,
    "Ġearnestness": 12123,
    "gam": 10094,
    "Ġsap": 18323,
    "Ġfabulous": 25948,
    "Ġfl": 1280,
    "Ġworshipping": 22926,
    "Ġcharts": 12823,
    "ra": 314,
    "Ġsamples": 2959,
    "Ġimpatience": 7509,
    "Ġdoleful": 18377,
    "Ġgases": 21600,
    "Ġtigers": 25758,
    "anybody": 12080,
    "Ġbreezes": 14867,
    "Ġwig": 9160,
    "rels": 6664,
    "Ġcares": 9364,
    "Ġassur": 6074,
    "classification": 4388,
    "Ġgranted": 22805,
    "ary": 988,
    "âĢĶ_": 3198,
    "ă": 196,
    "Ġreb": 15687,
    "Ġfilters": 3931,
    "Ġrugged": 18720,
    "Ġaccomplish": 14874,
    "Ġasyl": 12730,
    "Ġregularizer": 2339,
    "Ġparadigms": 3055,
    "Ġslain": 8952,
    "Ġadvisable": 11441,
    "Ġserious": 4322,
    "boats": 6204,
    "Ġrevealing": 3928,
    "21": 10070,
    "scar": 9814,
    "epilogue": 22101,
    "Ġrecovering": 11861,
    "Ġrejecting": 17050,
    "pos": 15408,
    "Ġ107": 24414,
    "Ġflinging": 13583,
    "Ġphilipp": 23882,
    "Ġgrievous": 13257,
    "Ġrolling": 5975,
    "Ġprobabilities": 4966,
    "mysteries": 26050,
    "Ġfellows": 8257,
    "details": 19674,
    "Ġfeel": 1261,
    "lins": 2025,
    "Ġstern": 4189,
    "travellers": 24317,
    "Ġwounds": 17790,
    "illity": 18296,
    "ope": 4127,
    "Ġscho": 4436,
    "shapes": 22460,
    "Ġdisobedience": 22533,
    "Ġunfrequently": 20738,
    "Ġuttered": 7280,
    "Ġremember": 2679,
    "fold": 7546,
    "ersed": 10258,
    "rippling": 24713,
    "Ġgoblet": 25823,
    "elaborate": 21574,
    "worshipping": 16609,
    "acled": 16078,
    "Ġbordeaux": 24563,
    "Ġgush": 10201,
    "Ġimbec": 14155,
    "stumps": 21657,
    "whispered": 20032,
    "Ġmountains": 4427,
    "Ġowes": 20083,
    "Ġcry": 3492,
    "ele": 9113,
    "Ġenveloping": 19732,
    "Ġslave": 7454,
    "seen": 2879,
    "Ġorganizations": 12312,
    "Ġchemist": 11133,
    "verse": 9686,
    "Ġungover": 18255,
    "Ġcut": 2645,
    "Ġsailor": 3534,
    "bottle": 20144,
    "Ġminute": 4279,
    "march": 13753,
    "kinder": 24845,
    "Ġsli": 4748,
    "Ġsunny": 13083,
    "Ġreceived": 2949,
    "Ġcharmed": 16761,
    "viii": 12018,
    "Ġreminds": 13429,
    "bale": 20773,
    "Ġlub": 15645,
    "Ġjan": 11760,
    "Ġdangling": 17173,
    "iltrated": 19305,
    "two": 3860,
    "Ġsnorting": 23739,
    "Ġregained": 18587,
    "Ġfinger": 5273,
    "ggy": 13111,
    "Ġones": 3016,
    "admire": 24943,
    "Ġtoast": 21510,
    "Ġoutrageous": 20609,
    "Ġexplained": 5936,
    "Ġsteadfast": 8678,
    "uvian": 12240,
    "iro": 20913,
    "unknown": 10889,
    "Ġcraft": 4375,
    "discoveries": 25385,
    "ething": 1600,
    "Ġancient": 5443,
    "Ġwantonly": 22892,
    "«": 109,
    "Ġfarmhouse": 24986,
    "Ġnantucketer": 6914,
    "Ġexposed": 8522,
    "Ġ33": 16675,
    "venge": 4658,
    "Ġcompany": 3719,
    "column": 19328,
    "Ġimplac": 24874,
    "anced": 1302,
    "Ġtroop": 24897,
    "ory": 1079,
    "Ġvertu": 23888,
    "Ġsentence": 6187,
    "ozy": 17621,
    "Ġchival": 14181,
    "skylight": 25623,
    "Ġexchange": 15750,
    "Ġbiography": 22763,
    "rical": 11517,
    "Ġtapped": 11552,
    "nades": 20996,
    "Ġcollinses": 19129,
    "Ġart": 749,
    "Ġembraces": 19871,
    "Ġdrama": 16326,
    "Ġimpose": 22380,
    "Ġrecognition": 3053,
    "nable": 13760,
    "ales": 3315,
    "good": 2898,
    "iliar": 15710,
    "Ġmistaking": 23717,
    "footed": 19688,
    "score": 18855,
    "Ġlull": 15647,
    "ember": 1955,
    "Ġutensils": 23515,
    "attered": 4022,
    "Ġyou": 366,
    "Ġbermud": 26438,
    "feren": 768,
    "Ġoptimizer": 5036,
    "Ġwont": 9850,
    "Ġclasped": 17205,
    "Ġexpensive": 12914,
    "condite": 23246,
    "ĠvertebrÃ¦": 11434,
    "Ġsituated": 9445,
    "ĠĠĠĠĠĠĠĠĠĠĠĠĠĠĠĠĠĠĠĠĠĠĠĠĠĠĠĠĠĠĠĠĠ": 12041,
    "Ġark": 10274,
    "Ġpersonality": 16475,
    "partiality": 13158,
    "rear": 21231,
    "Ġspangled": 22134,
    "Ġinsomuch": 23682,
    "Ġonce": 1491,
    "spee": 9315,
    "Ġcasual": 11408,
    "blind": 16704,
    "elect": 20845,
    "Ġutmost": 5496,
    "verted": 10216,
    "Ġpole": 6433,
    "continual": 20643,
    "ocity": 8278,
    "Ġsuffusing": 23030,
    "Ġgettest": 23232,
    "sent": 761,
    "Ġdismast": 12884,
    "Ġmeant": 3548,
    "experience": 17157,
    "Ġmottled": 20677,
    "entials": 22662,
    "turbaned": 24531,
    "Ġsteadfastly": 10650,
    "marest": 20979,
    "apparent": 11040,
    "throt": 25659,
    "Ġpreferred": 14964,
    "came": 4570,
    "Ġsuperflu": 14554,
    "Ġdrawling": 19435,
    "Ġhandkerchief": 8912,
    "lee": 11583,
    "amuse": 14051,
    "Ġcomely": 21841,
    "ader": 14010,
    "Ġdevice": 1928,
    "Ġhull": 5446,
    "Ġbarb": 4531,
    "Ġthirteen": 15272,
    "bond": 17488,
    "ected": 7874,
    "sp": 894,
    "Ġinv": 2227,
    "Ġidea": 2488,
    "Ġjac": 1899,
    "Ġfaire": 13362,
    "90": 12430,
    "yellow": 9623,
    "harpoons": 24284,
    "Ġconsistent": 14527,
    "iliation": 10859,
    "Ġsubsisted": 19117,
    "finds": 19926,
    "Ġmerchants": 23731,
    "gno": 13725,
    "characteristic": 24685,
    "Ġrepast": 16406,
    "Ġceasing": 23755,
    "77": 15298,
    "Ġcoming": 2620,
    "Ġleathern": 15049,
    "Ġsequence": 1974,
    "breast": 11245,
    "Ġdesolated": 24812,
    "Ġginger": 9209,
    "balls": 12303,
    "Ġmisanthrop": 22760,
    "elter": 21569,
    "Ġmosses": 20162,
    "Ġhut": 15615,
    "Ġmediocr": 24083,
    "Ġemerge": 14926,
    "Ġaveraging": 2420,
    "Ġcustoms": 19651,
    "Ġparched": 11725,
    "Ġlegisl": 23534,
    "Ġwee": 21917,
    "ners": 3269,
    "Ġatmosphere": 10896,
    "Ġprograms": 7239,
    "clam": 13051,
    "impatience": 25500,
    "Ġwon": 1665,
    "Ġmake": 1286,
    "soon": 4031,
    "conf": 4957,
    "Ġoffice": 4965,
    "Ġsiamese": 20481,
    "Ġrejoiced": 8683,
    "Ġcapstan": 9097,
    "Ġdons": 17888,
    "Ġdistrusted": 13540,
    "beat": 10986,
    "pigs": 17139,
    "spite": 16135,
    "Ġautumnal": 19039,
    "Ġjurymen": 16846,
    "mock": 5174,
    "Ġconfines": 23302,
    "arthy": 4822,
    "Ġap": 5008,
    "Ġnibbling": 17383,
    "ading": 5091,
    "sli": 11521,
    "oub": 1632,
    "Ġsympathies": 14859,
    "Ġroylott": 7305,
    ").": 1272,
    "terrible": 8465,
    "Ġjen": 9265,
    "Ġmoby": 3664,
    "Ġendeavoured": 4918,
    "Ġethiopian": 26612,
    "Ġtackle": 9511,
    "Ġ74": 24260,
    "Ġsanct": 15063,
    "anish": 2619,
    "Ġwoes": 23984,
    "Ġsure": 1866,
    "Ġhalf": 1670,
    "spr": 7435,
    "Ġhaught": 10251,
    "Ġfire": 2333,
    "explain": 1481,
    "Ġtops": 14585,
    "cav": 17506,
    "Ġcapst": 8596,
    "Ġwoodlands": 23521,
    "ing": 273,
    "Ġpublisher": 24065,
    "Ġthrust": 5084,
    "igin": 3655,
    "Ġcin": 13873,
    "Ġind": 1221,
    "Ġoaks": 16932,
    "Ġenvelopes": 24506,
    "annica": 24560,
    "Ġtalking": 3858,
    "nlp": 8750,
    "seamen": 13624,
    "ivery": 17571,
    "Ġdeprec": 15754,
    "Ġevil": 3806,
    "Ġamused": 11797,
    "uther": 8815,
    "Ġoffered": 5816,
    "Ġspears": 12922,
    "erpillar": 5797,
    "ivable": 10909,
    "oniously": 21256,
    "Ġthigh": 10185,
    "ashion": 3859,
    "Ġfrigate": 13079,
    "ilies": 18056,
    "darcy": 5208,
    "Ġstartled": 7082,
    "spanish": 14330,
    "Ġnursed": 16884,
    "Ġmerely": 3769,
    "ui": 9143,
    "Ġwrig": 13064,
    "Ġprotruded": 19468,
    "displeasure": 23496,
    "Ġintolerably": 15827,
    "Ġhiss": 15784,
    "onial": 11565,
    "Ġreverse": 16981,
    "augmented": 26286,
    "ientious": 11689,
    "Ġprejudiced": 24809,
    "Ġmartial": 20290,
    "meantime": 9090,
    "piled": 21014,
    "attempt": 9358,
    "Ġbinding": 20417,
    "lipped": 16214,
    "ron": 5216,
    "Ġaccounting": 14572,
    "Ġlicensing": 20091,
    "Ġpale": 4532,
    "meas": 7434,
    "caves": 20815,
    "Ġprobability": 1126,
    "doms": 20834,
    "shore": 10304,
    "anqu": 4112,
    "vision": 5619,
    "Ġgrimesby": 11456,
    "Ġhugh": 15003,
    "Ġmurmured": 7480,
    "Ġperceptibly": 25821,
    "offices": 19061,
    "seaman": 25457,
    "Ġbeaut": 2392,
    "Ġslouched": 13055,
    "Ġstem": 15715,
    ".*": 7331,
    "Ġobstinate": 11335,
    "Ñ": 146,
    "Ġfrantically": 23257,
    "uc": 1878,
    "private": 13580,
    "Ġdomineer": 23650,
    "Ġdegradation": 2633,
    "Ġreal": 1633,
    "Ġintensely": 17016,
    "mopol": 15394,
    "countless": 24149,
    "sweetly": 25134,
    "Ġhere": 1087,
    "mouthed": 12398,
    "Ġleaping": 8341,
    "Ġinsert": 19904,
    "pressed": 6587,
    "diver": 20830,
    "Ġsobbed": 14133,
    "barbs": 20236,
    "Ġ131": 24782,
    "Ġspeaks": 11158,
    "assault": 22304,
    "travel": 24315,
    "inglass": 21301,
    "Ġcondition": 6764,
    "Ġgroans": 14822,
    "Ġarmy": 11739,
    "the": 334,
    "Ġsurviv": 13433,
    "dece": 11732,
    "Ġbut": 423,
    "Ġliber": 5168,
    "Ġmanagement": 8193,
    "Ġsmote": 18574,
    "clings": 23150,
    "Ġshaped": 15831,
    "Ġgirdle": 19156,
    "Ġfrequencies": 4789,
    "Ġslope": 14458,
    "whispering": 26103,
    "Ī": 235,
    "istic": 972,
    "tland": 21072,
    "Ġassurances": 9998,
    "quake": 11679,
    "Ġbaleful": 24984,
    "Ġpyth": 21460,
    "deceiving": 22142,
    "Ġtre": 2538,
    "Ġblight": 18817,
    "boy": 4738,
    "Ġshining": 8172,
    "Ġoct": 10157,
    "Ġsustain": 10015,
    "Ġunthinkingly": 26220,
    "million": 25751,
    "Ġflea": 23772,
    "Ġsimul": 1807,
    "mix": 20973,
    "Ġdistraction": 22503,
    "compliments": 24810,
    "Ġelapsed": 7652,
    "Ġcaterpillar": 5864,
    "oons": 12496,
    "de": 459,
    "Ġdignified": 15594,
    "Ġbeaches": 18084,
    "Ġdarkly": 19114,
    "uish": 5431,
    "Ġlads": 8597,
    "bedstead": 23847,
    "Ġindian": 4133,
    "clu": 20798,
    "Ġaccumulation": 2694,
    "Ġanswers": 7070,
    "Ġmed": 3991,
    "Ġengraving": 17079,
    "Ġhardly": 2435,
    "Ġravines": 25831,
    "Ġfiss": 21411,
    "coff": 9107,
    "Ġsheeted": 19830,
    "goin": 23401,
    "conversation": 7122,
    "brous": 19197,
    "Ġgiven": 1624,
    "Ġsangu": 15502,
    "condescended": 26248,
    "gate": 12464,
    "Ġseaward": 22945,
    "Ġquadrille": 13539,
    "lounged": 26133,
    "Ġimitate": 14156,
    "Ġsorts": 6887,
    "Ġimpenetrable": 17395,
    "cating": 20801,
    "mate": 5358,
    "Ġvibrating": 13536,
    "Ġkl": 2737,
    "Ġprison": 5403,
    "Ġsad": 3870,
    "swells": 26148,
    "allen": 22194,
    "Ġtrifles": 16950,
    "between": 5071,
    "Ġcope": 17830,
    "Ġsuch": 793,
    "reed": 6373,
    "Ġapartments": 19613,
    "Ġgeorge": 3747,
    "Ġsignal": 5945,
    "mission": 5970,
    "Ġreplenished": 13634,
    "Ġsignals": 10584,
    "Ġports": 10817,
    "concern": 5875,
    "rodden": 21533,
    "Ġholds": 7975,
    "gratulation": 24348,
    "Ġupright": 8493,
    "strate": 12670,
    "rat": 8755,
    "flukes": 25205,
    "Ġemb": 1264,
    "Ġwreck": 7314,
    "Ġterti": 14537,
    "ultural": 22566,
    "seek": 8835,
    "suggest": 20374,
    "colour": 9901,
    "precaution": 23820,
    "Ġcongenial": 12409,
    "Ġeas": 2352,
    "oglyph": 11016,
    "Ġpattern": 1345,
    "dependence": 17166,
    "ruction": 4357,
    "Ġwisely": 13269,
    "Ġacqu": 1416,
    "Ġattentions": 5878,
    "urrection": 12407,
    ".--": 20745,
    "oldened": 22639,
    "Ġstops": 3165,
    "most": 1257,
    "Ġcall": 2074,
    "unconquerable": 21889,
    "thousands": 16869,
    "appl": 9324,
    "ĠmanÅĵuv": 18417,
    "Ġ24": 13191,
    "Ġassertions": 19945,
    "Ġsnows": 14725,
    "enit": 17778,
    "©": 107,
    "Ġladies": 3191,
    "advanced": 19587,
    "Ġbeware": 8826,
    "fooled": 24418,
    "inter": 2946,
    "Ġhoisted": 5960,
    "Ġtrade": 2548,
    "Ġprint": 18969,
    "Ġoriginal": 6102,
    "Ġsain": 17749,
    "Ġmagnus": 18956,
    "Ġwing": 6665,
    "becoming": 18518,
    "Ġwound": 4528,
    "verity": 13999,
    "Ġfloundered": 18861,
    "Ġdialogue": 12402,
    "Ġentitled": 8538,
    "itage": 17816,
    "Ġhosmer": 6774,
    "Ġprofession": 6207,
    "Ġsteering": 10386,
    "Ġgeneric": 18448,
    "Ġinno": 1408,
    "vishnoo": 21118,
    "which": 1707,
    "Ġunfolded": 10637,
    "ĠĠĠĠĠĠĠĠĠĠĠĠĠĠĠĠĠĠĠĠĠĠĠĠĠĠĠĠĠĠ": 24442,
    "Ġsal": 3943,
    "Ġpron": 6451,
    "Ġphenomenon": 17916,
    "Ġreluctant": 20523,
    "Ġpurchase": 12257,
    "Ġconvent": 11667,
    "Ġhall": 4185,
    "Ġunconcern": 14115,
    "idel": 5299,
    "Ġtrod": 15025,
    "ascertaining": 26459,
    "Ġnugent": 26456,
    "Ġidentified": 19150,
    "Ġindividual": 5744,
    "ia": 1258,
    "Ġruth": 14091,
    "Ġgaping": 13967,
    "Ġmetaphys": 16382,
    "Ġbar": 3147,
    "Ġsystematic": 5245,
    "Ġbery": 13896,
    "sicilian": 21062,
    "Ġscandinavian": 26344,
    "Ġconfiding": 19034,
    "Ġbetween": 789,
    "Ġse": 401,
    "whalemen": 10430,
    "Ġclever": 7054,
    "profound": 16423,
    "Ġaper": 17742,
    "Ġegyptians": 25289,
    "ē": 212,
    "ories": 4753,
    "wander": 17708,
    "Ġsled": 21217,
    "perquisites": 26530,
    "Ġslily": 23162,
    "disp": 7976,
    "Ġrosings": 4607,
    "Ġheal": 21679,
    "Ġcrust": 21349,
    "Ġtest": 1566,
    "Ġkn": 4546,
    "Ġtraps": 23079,
    "recurrent": 4994,
    "Ġuneasy": 8661,
    "Ġexal": 10876,
    "Ġpenalties": 10411,
    "scales": 22990,
    "gaz": 20877,
    "Ġpossessing": 16573,
    "Ġcensure": 15093,
    "Ġapprove": 12869,
    "ĠĠĠĠĠĠĠĠĠĠĠĠĠĠĠĠĠĠĠĠĠĠĠĠĠĠĠĠĠĠĠĠĠĠ": 14613,
    "Ġneighbouring": 12116,
    "Ġdistracted": 11801,
    "Ġdelightfully": 13156,
    "Ġservices": 11216,
    "qualified": 17097,
    "Ġeagle": 13200,
    "Ġ81": 24456,
    "Ġducks": 25157,
    "Ġsingularly": 12146,
    "Ġ94": 17716,
    "Ġchry": 22244,
    "Ġhear": 1964,
    "Ġcharger": 19004,
    "okes": 9275,
    "âĢĿ": 354,
    "trust": 21077,
    "custom": 15331,
    "Ġfetched": 24566,
    "Ġtheology": 21275,
    "riers": 18185,
    "Ġmalays": 19676,
    "against": 5870,
    "Ġwave": 7575,
    "Ġbarrens": 25501,
    "Ġhearing": 4761,
    "yt": 17710,
    "Ġdreading": 23797,
    "Ġflat": 8228,
    "usages": 22278,
    "Ġlicence": 25096,
    "Ġdromed": 15593,
    "vo": 11538,
    "Ġchoke": 22247,
    "Ġprotested": 9932,
    "shabb": 18495,
    "Ġtarshish": 12026,
    "Ġnaturalist": 22877,
    "Ġsympath": 4861,
    "us": 531,
    "Ġexeget": 24085,
    "helm": 12169,
    "Ġenvelop": 5586,
    "Ġpress": 5932,
    "Ġfarthest": 23114,
    "agre": 18164,
    "Ġtrespass": 23599,
    "Ġconsid": 1813,
    "Ġclaps": 22347,
    "Ġrounds": 18884,
    "³": 116,
    "Ġpersistence": 3020,
    "Ġrelates": 12976,
    "simon": 16972,
    "Ġquarrel": 7292,
    "withstand": 23026,
    "Ġsubstantial": 14808,
    "Ġgardeners": 12118,
    "Ġfootpath": 19337,
    "Ġ125": 24469,
    "oo": 7553,
    "Ġimaginary": 11185,
    "Ġkiller": 19567,
    "Ġmaintaining": 1507,
    "peare": 18911,
    "Ġnoise": 1069,
    "Ġinternal": 2247,
    "one": 616,
    "Ġgown": 10200,
    "organ": 15570,
    "Ġeffemin": 18544,
    "âĢĶâĢĺ": 7013,
    "antediluvian": 24345,
    "impenetrable": 26196,
    "volous": 18599,
    "Ġgrapp": 14099,
    "Ġfare": 5809,
    "Ġtemples": 18638,
    "Ġlap": 8437,
    "Ġconsiderable": 4011,
    "arpo": 1755,
    "ional": 1083,
    "Ġtransom": 22436,
    "ving": 592,
    "output": 4402,
    "Ġangle": 8602,
    "Ġunspeakable": 10054,
    "romised": 14110,
    "cru": 7126,
    "Ġlaure": 16908,
    "Ġhue": 8429,
    "buffalo": 20562,
    "Ġlab": 1873,
    "Ġreign": 13983,
    "Ġwolfish": 25935,
    "Ġassigned": 16308,
    "Ġdru": 8422,
    "Ġopt": 782,
    "Ġrevelation": 25222,
    "Ġaright": 11738,
    "Ġinconsistency": 26182,
    "Ġliking": 23590,
    "Ġbales": 21387,
    "Ġsociety": 3982,
    "maul": 11890,
    "Ġhaving": 1882,
    "Ġcompliments": 8632,
    "Ġprofoundly": 16858,
    "Ġtreading": 16503,
    "emed": 3377,
    "Ġpott": 21467,
    "Ġorganize": 8990,
    "they": 1881,
    "Ġspecks": 14303,
    "omination": 21640,
    "Ġdecline": 9285,
    "subs": 14299,
    "iety": 2816,
    "Ġdoc": 7200,
    "malicious": 19901,
    "Ġarea": 14185,
    "pleased": 8852,
    "Ġgang": 9206,
    "isticated": 1538,
    "Ġomit": 17815,
    "Ġprevents": 2558,
    "disagreeable": 11162,
    "Ġhitting": 21485,
    "Ġaltar": 9227,
    "Ġstature": 10862,
    "Ġastonishing": 10500,
    "Ġdomes": 23649,
    "thereby": 14445,
    "Ġbenches": 18782,
    "Ġdomin": 10460,
    "Ġsea": 1207,
    "Ġfinished": 5044,
    "fro": 8732,
    "Ġspanish": 2826,
    "Ġfeverish": 11347,
    "Ġsymbolize": 24962,
    "`": 68,
    "Ġnamely": 20688,
    "Ġvor": 15803,
    "Ġvaulted": 25167,
    "Ġconsummation": 17423,
    "Ġyarns": 15193,
    "Ġconverts": 2804,
    "Ġmid": 2618,
    "Ġappropriated": 23486,
    "isl": 21373,
    "Ġstyled": 24671,
    "Ġencountered": 8322,
    "ogr": 18673,
    "Ġencodings": 4775,
    "Ġleviathan": 3287,
    "cture": 15661,
    "Ġcontented": 9754,
    "Ġboats": 2641,
    "Ġblown": 12083,
    "Ġpromising": 10398,
    "oarsman": 25261,
    "ay": 355,
    "Ġscaramouch": 23825,
    "unaccountable": 15775,
    "tone": 8762,
    "Ġreiterating": 26473,
    "Ġwarehouses": 20416,
    "Ġportable": 19368,
    "Ġjungfrau": 15246,
    "specific": 10496,
    "charles": 14697,
    "Ġforgetfulness": 14606,
    "jump": 10102,
    "umul": 1290,
    "Ġtorm": 5434,
    "Ġcholera": 22251,
    "Ġretain": 7864,
    "Ġnuptials": 20492,
    "Ġforbearing": 25098,
    "Ġallegor": 25545,
    "Ġinstructing": 3122,
    "Ġislets": 21799,
    "Ġforth": 3460,
    "Ġtoe": 13934,
    "Ġinitial": 823,
    "Ġwhirlwinds": 20463,
    "Ġmy": 411,
    "bweb": 20790,
    "iated": 5890,
    "skinned": 25387,
    "Ġrobes": 16254,
    "ravity": 21633,
    "Ġearth": 2848,
    "Ġbeholding": 8668,
    "Ġadagrad": 2902,
    "Ġmultiple": 1186,
    "Ġnegative": 1462,
    "Ġengaging": 9334,
    "Ġperverseness": 13652,
    "Ġnobly": 22239,
    "Ġbrave": 6329,
    "Ġnantucketers": 9893,
    "Ġcanaan": 22164,
    "Ġapprehending": 26090,
    "Ġ----": 7145,
    "Ġvib": 8165,
    "ining": 3219,
    "ashions": 16415,
    "Ġadduced": 26523,
    "Ġconsidering": 4615,
    "Ġquaker": 10970,
    "Ġsatisfied": 4174,
    "Ġsens": 1854,
    "Ġthreads": 13115,
    "Ġconscious": 7744,
    "Ġjuggling": 20437,
    "aned": 5147,
    "purposes": 25021,
    "resemblance": 25933,
    "Ġears": 4491,
    "treas": 17678,
    "Ġnarwhales": 24902,
    "advise": 24216,
    "Ġseasoned": 24404,
    "heavens": 19744,
    "Ġpequod": 2323,
    "Ġconsented": 11294,
    "Ġdomain": 3410,
    "perfectly": 9084,
    "Ġfluctuations": 5516,
    "Ġdisdain": 8360,
    "rential": 22916,
    "shelf": 20379,
    "ident": 3376,
    "Ġstudies": 7956,
    "âĢĿ]": 21813,
    "Ġcalmness": 12090,
    "Ġinn": 4590,
    "shiver": 16023,
    "Ġinfamous": 16362,
    "Ġeveryday": 22772,
    "Ġdiagon": 24740,
    "Ġdelights": 14595,
    "Ġmira": 8407,
    "Ġapples": 22216,
    "Ġsuffer": 4722,
    "Ġuniformly": 19147,
    "Ġcomfortable": 6095,
    "Ġgross": 11624,
    "office": 16391,
    "Ġmoustache": 20482,
    "Ġdolphins": 20394,
    "stupid": 12672,
    "rimsh": 17026,
    "Ġfocus": 4237,
    "inion": 2874,
    "degra": 22139,
    "repid": 11563,
    "lass": 5993,
    "Ġcasement": 25092,
    "Ġloc": 10913,
    "Ġforc": 9226,
    "chemical": 23807,
    "script": 11076,
    "oting": 2745,
    "Ġtraverse": 18891,
    "Ġmole": 11789,
    "icate": 9200,
    "Ġwarsaw": 26167,
    "Ġplanning": 14750,
    "Ġcomforters": 25800,
    "Ġanimating": 23422,
    "Ġkidnapping": 26356,
    "bons": 17485,
    "Ġcontemptuous": 24676,
    "baked": 20778,
    "Ġcho": 4547,
    "Ġearthy": 23711,
    "Ġhulls": 13924,
    "Ġabominable": 12320,
    "Ġlady": 1585,
    "Ġwhelm": 25998,
    "another": 5439,
    "inking": 6709,
    "Ġboisterously": 25682,
    "Ġabused": 22267,
    "Ġaggreg": 12880,
    "theless": 4261,
    "Ġplays": 12035,
    "shazz": 14240,
    "ear": 8730,
    "Ġsensit": 2944,
    "Ġsober": 10910,
    "commence": 19990,
    "Ġevid": 3498,
    "holes": 12052,
    "finish": 24383,
    "oline": 6834,
    "Ġmultipl": 2790,
    "Ġscaling": 3631,
    "Ġdiminish": 14744,
    "alive": 10826,
    "proble": 9392,
    "crazy": 24691,
    "Ġenvirons": 13182,
    "desol": 13065,
    "threshold": 21985,
    "Ġdistinguishing": 16495,
    "Ġmaterial": 5178,
    "Ġscattered": 6856,
    "unimportant": 18159,
    "Ġimpediments": 26240,
    "iday": 8828,
    "Ġfirmest": 16663,
    "Ġmerry": 5868,
    "asingly": 17960,
    "ated": 721,
    "Ġdependencies": 2315,
    "apped": 5395,
    "Ġalongside": 6311,
    "Ġremorselessly": 16966,
    "Ġcot": 13875,
    "Ġalgorithms": 854,
    "Ġsalutations": 25382,
    "grim": 19106,
    "Ġatlantic": 7000,
    "Ġy": 341,
    "leeward": 15208,
    "etition": 7382,
    "Ġtore": 6530,
    "united": 14058,
    "Ġunsuccessful": 18257,
    "Ġbolts": 16942,
    "icular": 2022,
    "sea": 4763,
    "uous": 4147,
    "Ġseize": 8166,
    "ime": 625,
    "Ġsatisfying": 23696,
    "ro": 301,
    "Ġinsens": 8277,
    "Ġjealously": 24124,
    "ateful": 5927,
    "Ġcolt": 11043,
    "Ġcharacter": 2793,
    "Ġtophet": 23572,
    "ure": 356,
    "Ġprestige": 22234,
    "repeated": 12337,
    "Ġplowdon": 26446,
    "presents": 18797,
    "Ġhorr": 3188,
    "Ġfruits": 17117,
    "ased": 1268,
    "hamlet": 23261,
    "bell": 7332,
    "Ġmapp": 2081,
    "ling": 735,
    "Ġmyself": 1453,
    "Ġexerted": 15751,
    "Ġsouthampton": 24306,
    "Ġalive": 4399,
    "hever": 13829,
    "Ġchina": 8040,
    "Ġunwell": 22013,
    "touched": 15437,
    "ersburgh": 18215,
    "¼": 125,
    "Ġvoice": 2192,
    "Ġexercise": 8359,
    "aux": 14287,
    "Ġburden": 8607,
    "Ġlurk": 13381,
    "Ġpetersburgh": 24227,
    "bye": 5950,
    "Ġcommitted": 7431,
    "embraces": 25803,
    "lished": 8383,
    "Ġpromise": 4200,
    "Ġtermination": 16459,
    "Ġundec": 22015,
    "Ġdarling": 12601,
    "Ġsecure": 4912,
    "slack": 16893,
    "kerchief": 7525,
    "smiles": 14691,
    "Ġangular": 19206,
    "ago": 14063,
    "wic": 21119,
    "Ġfondness": 16779,
    "methodically": 20663,
    "presbyterian": 26368,
    "Ġglobules": 26587,
    "dings": 2252,
    "Ġwilson": 6629,
    "Ġholder": 6724,
    "study": 15115,
    "sets": 17659,
    "inst": 4295,
    "hurrying": 14981,
    "burn": 8371,
    "Ġinvisible": 7327,
    "Ġit": 339,
    "iment": 2814,
    "lested": 14881,
    "Ġunob": 22011,
    "Ġden": 3107,
    "tolerably": 21094,
    "_": 67,
    "Ġboard": 3380,
    "relate": 24009,
    "Ġcalmed": 16266,
    "Ġforbear": 17120,
    "Ġheaviest": 23322,
    "Ġstepped": 7051,
    "Ġupper": 5090,
    "stave": 21647,
    "Ġprepar": 7898,
    "sustained": 20567,
    "ctic": 8442,
    "Ġassistants": 9449,
    "dischar": 19151,
    "ulation": 5458,
    "Ġpotential": 3618,
    "supplement": 14795,
    "Ġseven": 4542,
    "Ġadmirable": 8269,
    "Ġsh": 419,
    "Ġhabitual": 24790,
    "adopt": 25544,
    "Ġregain": 22572,
    "downstairs": 23917,
    "Ġmurdering": 14809,
    "Ġfavoring": 2344,
    "Ġinexper": 16979,
    "Ġhesitate": 16945,
    "slanting": 24557,
    "hark": 15363,
    "tling": 9141,
    "Ġherb": 15853,
    "approached": 13483,
    "Ġ1869": 19382,
    "Ġtougher": 21175,
    "Ġleaped": 8824,
    "pets": 17635,
    "Ġsnail": 19299,
    "Ġenrolled": 21935,
    "emberley": 4173,
    "Ġgrud": 17995,
    "ho": 2855,
    "Ġcoun": 4179,
    "Ġassociates": 24712,
    "block": 11469,
    "byter": 16211,
    "Ġdiscol": 12949,
    "etus": 21576,
    "Ġ120": 16857,
    "ledyard": 22389,
    "Ġnod": 1890,
    "Ġsutherland": 10147,
    "Ġlabels": 3285,
    "Ġcondem": 6338,
    "iscuit": 10597,
    "ht": 375,
    "pidation": 18902,
    "Ġcoopman": 25827,
    "Ġovertook": 18428,
    "servant": 15034,
    "Ġmud": 11571,
    "osing": 3688,
    "Ġargemone": 24273,
    "sideways": 14571,
    "Ġfeels": 6882,
    "Ġsil": 1797,
    "onsense": 6431,
    "and": 372,
    "Ġloved": 4599,
    "Ġrephrased": 26476,
    "Ġregular": 935,
    "Ġdoubt": 2224,
    "leagued": 26434,
    "Ġmention": 2982,
    "Ġrepublican": 17410,
    "Ġmotion": 4566,
    "Ġglimpse": 6944,
    "piteous": 21032,
    "received": 9637,
    "Ġexpiration": 22623,
    "Ġcoral": 11920,
    "Ġrestless": 10412,
    "Ġcruelty": 9967,
    "Ġpierced": 12279,
    "ghan": 19453,
    "woof": 21138,
    "Ġemperor": 15156,
    "ism": 4874,
    "Ġunresting": 25553,
    "Ġoutskirts": 17455,
    "Ġallures": 22004,
    "Ġchapter": 2953,
    "Ġsqualidness": 25842,
    "engines": 18927,
    "Ġfiends": 14826,
    "nihil": 9846,
    "liest": 6294,
    "threadbare": 25989,
    "Ġlick": 21548,
    "eck": 20843,
    "whisper": 17082,
    "Ġlac": 17964,
    "Ġstress": 18066,
    "ĠĠĠĠĠĠĠĠĠĠĠĠĠĠĠĠĠĠĠĠĠĠĠĠĠĠĠĠĠĠĠĠĠĠĠĠĠĠĠĠĠĠĠĠĠĠĠĠĠĠĠĠĠ": 20038,
    "Ġportent": 12079,
    "Ġexempt": 21826,
    "Ġemployments": 12100,
    "verb": 10215,
    "Ġprobably": 4314,
    "Ġheroes": 10575,
    "Ġalleged": 17289,
    "Ġreusable": 13555,
    "Ġcreator": 7254,
    "Ġdusty": 14923,
    "met": 6652,
    "Ġnation": 12643,
    "Ġwalking": 4324,
    "Ġconvalescence": 23744,
    "Ġbefall": 8827,
    "bench": 16802,
    "parad": 16407,
    "Ġcreep": 22719,
    "Ġjest": 18403,
    "Ġabstained": 25231,
    "su": 796,
    "Ġburglar": 17353,
    "Ġpassionately": 16763,
    "scrape": 25698,
    "fering": 17541,
    "Ġgrind": 18735,
    "needle": 20309,
    "Ġfrederick": 15583,
    "Ġwithdraw": 16963,
    "Ġturing": 7566,
    "Ġopinion": 3141,
    "Ġwast": 21862,
    "aries": 6244,
    "Ġcontest": 18473,
    "Ġreciprocating": 26369,
    "Ġtobacc": 7853,
    "restrained": 16333,
    "Ġmiracle": 15091,
    "Ġtenderest": 23549,
    "Ġfactory": 23275,
    "Ġsworn": 14433,
    "Ġground": 2844,
    "Ġtom": 15629,
    "invest": 11558,
    "Ġdawn": 6816,
    "Ġpolicy": 10456,
    "Ġbattered": 17862,
    "Ġserpentine": 11359,
    "Ġschedu": 1825,
    "engagement": 14456,
    "Ġnature": 2540,
    "Ġwip": 13851,
    "Ġbecome": 3157,
    "Ġsouthern": 7689,
    "Ġwreath": 25936,
    "pe": 1436,
    "Ġfeedback": 23431,
    "ĠĠĠĠĠĠĠĠ": 712,
    "Ġintroduced": 7691,
    "Ġbarber": 23788,
    "rumours": 23897,
    "offended": 16392,
    "Ġdoxology": 22242,
    "Ġspoils": 24808,
    "Ġvirtues": 9934,
    "Ġabhorred": 9506,
    "Ġstaircase": 20094,
    "Ġtrouble": 3689,
    "entions": 17974,
    "istically": 14142,
    "Ġendwise": 23142,
    "Ġsymbol": 7717,
    "Ġpipeline": 2499,
    "Ġdepend": 790,
    "Ġrespects": 7269,
    "Ġvaluable": 5607,
    "Ġvehement": 16199,
    "Ġwidely": 8033,
    "scissors": 20726,
    "ift": 1606,
    "Ġbroom": 18906,
    "iving": 1723,
    "Ġgruff": 21612,
    "Ġfurthest": 22812,
    "Ġallowed": 4061,
    "country": 6103,
    "Ġfirmly": 8014,
    "social": 11021,
    "Ġah": 5075,
    "Ġstar": 6023,
    "Ġalice": 1483,
    "Ġharpoone": 2909,
    "Ġexcell": 10416,
    "vous": 2253,
    "adequately": 20318,
    "ssian": 3396,
    "despicable": 24637,
    "hamed": 6305,
    "Ġbaling": 17859,
    "Ġwaterward": 23366,
    "Ġcapacious": 19175,
    "Ġfor": 340,
    "prepare": 20211,
    "circumstantial": 24443,
    "Ġintroduces": 3267,
    "paradise": 20637,
    "inforcement": 3142,
    "Ġinterlacing": 22576,
    "Ġmildly": 9028,
    "Ġshuddering": 9050,
    "oin": 17616,
    "tort": 17674,
    "Ġvigorously": 11298,
    "Ġarrows": 18336,
    "iosity": 2280,
    "Ġloathed": 15872,
    "hos": 15361,
    "Ġdeployment": 11201,
    "Ġthrill": 24540,
    "Ġoutrages": 18415,
    "Ġambition": 11431,
    "Ġoccur": 1082,
    "Ġfashioned": 13318,
    "Ġisol": 8832,
    "moran": 24151,
    "Ġabove": 2934,
    "Ġrelig": 8550,
    "Ġpor": 5225,
    "adier": 18089,
    "Ġinterests": 14569,
    "Ġday": 956,
    "trap": 24312,
    "Ġeu": 6390,
    "licted": 20955,
    "Ġhook": 6453,
    "Ġprefers": 20512,
    "Ġlistless": 16474,
    "Ġfearfully": 23512,
    "Ġsite": 17752,
    "Ġcamel": 25349,
    "whims": 22237,
    "ernity": 18613,
    "ogne": 12936,
    "incess": 15480,
    "lighter": 20958,
    "cripp": 20818,
    "Ġrelent": 18774,
    "Ġwallowed": 24040,
    "pursuit": 20339,
    "Ġimbedded": 18332,
    "Ġmodern": 3209,
    "Ġquar": 3113,
    "Ġlies": 5295,
    "Ġforked": 11663,
    "wedded": 24338,
    "Ġbrood": 23099,
    "leful": 17842,
    "Ġansw": 2205,
    "daggoo": 13705,
    "eps": 12787,
    "Ġfren": 10804,
    "flying": 13719,
    "constit": 24605,
    "Ġraving": 16112,
    "Ġjung": 12832,
    "Ġeclipsed": 26376,
    "Ġeasy": 3450,
    "Ġhomage": 12353,
    "expectant": 24274,
    "Ġpa": 2985,
    "Ġhellaswag": 24342,
    "Ġfortnight": 6200,
    "rossed": 11011,
    "has": 4017,
    "Ġimpregn": 26022,
    "opportunity": 12272,
    "Ġpag": 6011,
    "Ġrambled": 20167,
    "Ġlose": 5028,
    "Ġsubur": 12952,
    "bbed": 6911,
    "Ġfoster": 18991,
    "Ġmastiff": 23723,
    "uer": 21099,
    "Ġernest": 8716,
    "Ġ104": 24411,
    "clouds": 25496,
    "Ġderivative": 2997,
    "Ġsprain": 18305,
    "Ġbushes": 16396,
    "Ġenjoyed": 8008,
    "Ġseldom": 4629,
    "Ġwer": 12549,
    "](": 11465,
    "Ġfainting": 16896,
    "Ġregrets": 18589,
    "luding": 6700,
    "ken": 2800,
    "Ġtranquillize": 24757,
    "Ġcover": 3556,
    "54": 15297,
    "luded": 4229,
    "Ġimpetus": 25569,
    "Ġdiction": 8793,
    "Ġsupplement": 23000,
    "Ġcurv": 3509,
    "harpooned": 24285,
    "Ġthou": 1809,
    "chel": 11206,
    "Ġramble": 9312,
    "atics": 15520,
    "Ġcrockery": 24300,
    "_,âĢĻ": 12431,
    "Ġsuspense": 9416,
    "Ġyears": 1894,
    "Ġrumors": 11320,
    "Ġforbe": 8457,
    "buff": 15316,
    "expression": 10546,
    "Ġimpreg": 15984,
    "Ġworthless": 19564,
    "Ġcheerless": 16693,
    "Ġmaz": 15538,
    "exact": 7911,
    "Ġissue": 2312,
    "skirted": 24488,
    "Ġgoverned": 23570,
    "pper": 3207,
    "discrimin": 19607,
    "Ġtomb": 8806,
    "ynolds": 10034,
    "handed": 7482,
    "Ġauthoritative": 19560,
    "Ġindign": 6173,
    "Ġspots": 11728,
    "Ġcomputational": 1623,
    "Ġhandspike": 22694,
    "Ġdank": 21427,
    "rising": 7557,
    "romising": 18233,
    "perpetually": 20511,
    "Ġchivalry": 25819,
    "Ġpreprocess": 22231,
    "Ġdetect": 1209,
    "Ġstaggering": 20272,
    "Ġsingle": 1691,
    "Ġheroic": 14906,
    "Ġshalt": 18230,
    "Ġabsolute": 6765,
    "Ġconsists": 11977,
    "Ġmouse": 4693,
    "Ġlimit": 10442,
    "Ġvul": 10246,
    "Ġdispatched": 23879,
    "Ġcup": 5697,
    "warm": 8102,
    "impe": 21706,
    "Ġtackles": 8051,
    "Ġfever": 6558,
    "Ġgipsies": 12406,
    "Ġestimates": 3746,
    "Ġforgive": 8010,
    "Ġhinted": 6012,
    "Ġchim": 5933,
    "mary": 8748,
    "wantonly": 25149,
    "Ġspool": 24806,
    "Ġbreed": 19073,
    "Ġdance": 4442,
    "sufferable": 12174,
    "Ġbook": 2703,
    "elves": 2160,
    "jug": 17579,
    "owners": 16083,
    "Ġrang": 9243,
    "Ġxavier": 2852,
    "promised": 12249,
    "Ġsquatted": 25841,
    "rived": 5373,
    "Ġvastly": 23858,
    "eteenth": 20156,
    "chan": 1180,
    "Ġbo": 795,
    "weed": 14313,
    "hunters": 16832,
    "dient": 441,
    "Ġnearest": 8470,
    "Ġinserted": 8356,
    "Ġsus": 18279,
    "idate": 21765,
    "Ġdardanelles": 26442,
    "este": 15916,
    "Ġundiscernible": 22064,
    "mits": 13754,
    "reflection": 13453,
    "necessarily": 19630,
    "olen": 9698,
    "neck": 14233,
    "had": 1950,
    "87": 20756,
    "Ġheel": 9682,
    "Ġnut": 12642,
    "Ġsupplies": 20325,
    "Ġdespond": 14666,
    "Ġcalifornian": 25851,
    "Ġseriously": 7060,
    "fastened": 19324,
    "Ġglance": 4234,
    "rer": 3621,
    "Ġvalidation": 2356,
    "Ġheedless": 14901,
    "coloured": 7291,
    "solved": 7685,
    "Ġinferior": 8366,
    "Ġunsur": 22018,
    "ootiful": 17371,
    "Ġlabour": 7274,
    "Ġbowlines": 19321,
    "Ġconducted": 10501,
    "Ġfins": 9662,
    "ta": 13787,
    "Ġdeity": 18137,
    "knowledge": 7478,
    "Ġjago": 22297,
    "Ġcatherine": 2811,
    "Ġdiameter": 19866,
    "velling": 14761,
    "arn": 357,
    "lun": 20945,
    "ference": 1883,
    "example": 16010,
    "Ġsoliloqu": 11883,
    "awned": 19458,
    "sharks": 14238,
    "Ġdaring": 8121,
    "Ġroman": 8323,
    "Ġ122": 24466,
    "Ġhypothesis": 14780,
    "Ġcrackling": 24960,
    "Ġstop": 2503,
    "Ġxi": 16427,
    "Ġtranslation": 3086,
    "99": 1897,
    "Ġstrong": 1786,
    "Ġburg": 23653,
    "Ġsevent": 18200,
    "akin": 11766,
    "Ġshudderings": 25200,
    "Ġfaithfully": 14885,
    "Ġstreaming": 19672,
    "search": 8464,
    "Ġinhabitants": 7524,
    "Ġcursed": 6726,
    "Ġlieutenant": 15259,
    "Ļ": 252,
    "Ġserene": 8167,
    "bask": 20775,
    "Ġwhine": 21713,
    "stalk": 21648,
    "nder": 20986,
    "Ġjumping": 13339,
    "Ġringle": 18210,
    "retired": 11934,
    "Ġmutable": 23953,
    "Ġglare": 13013,
    "Ġgangway": 20157,
    "iting": 2159,
    "ĠâĢĺ": 1630,
    "ques": 2839,
    "Ġnavigation": 9991,
    "Ġforeb": 12001,
    "enstein": 5799,
    "Ġliked": 5264,
    "diminished": 20838,
    "robber": 21535,
    "Ġdelirium": 10404,
    "Ġwrought": 11942,
    "Ġfleet": 9430,
    "cull": 20808,
    "Ġadieu": 10049,
    "Ġinvol": 1055,
    "excitement": 19668,
    "Ġdisgraceful": 15018,
    "reds": 12744,
    "Ġgrew": 5182,
    "rolling": 9059,
    "rie": 2786,
    "Ġknocking": 10558,
    "Ġlangs": 13952,
    "term": 3757,
    "Ġindignity": 18833,
    "Ġtrinity": 22343,
    "Ġcab": 2636,
    "Ġcrushing": 20175,
    "Ġpadded": 25036,
    "Ġpettic": 14839,
    "Ġquietude": 19358,
    "Ġastir": 14639,
    "þ": 191,
    "thr": 12756,
    "tranquillity": 20545,
    "Ġcumul": 4180,
    "seam": 10873,
    "Ġgreatest": 4094,
    "Ġcommun": 1704,
    "Ġcorrection": 5062,
    "Ġline": 1851,
    "Ġbritish": 11336,
    "Ġquickly": 4242,
    "lar": 4484,
    "Ġcompanies": 14557,
    "Ġpuff": 6526,
    "Ġpilgrimage": 17306,
    "Ġconsecrated": 26487,
    "Ġjove": 9266,
    "Ġdashing": 8794,
    "Ġhooded": 12404,
    "Ġascend": 9958,
    "ureau": 10225,
    "Ġrespectability": 14483,
    "Ġramad": 8528,
    "usually": 10283,
    "Ġpredictions": 1454,
    "Ġentreating": 24206,
    "Ġlaud": 17967,
    "Ġnewsp": 9337,
    "Ġedinburgh": 16434,
    "Ġgifted": 17996,
    "Ġ39": 19488,
    "Ġprey": 6415,
    "Ġpill": 7846,
    "Ġdefinitions": 22942,
    "Ġclearly": 6897,
    "Ġamericans": 14742,
    "expressing": 16800,
    "ĠĠĠĠĠĠĠĠĠĠĠĠĠĠĠĠĠĠĠĠĠĠĠĠĠĠĠĠĠ": 19698,
    "ipher": 18432,
    "Ġimpud": 18445,
    "itheat": 21336,
    "Ġeligible": 10669,
    "twill": 21073,
    "ificial": 608,
    "despond": 19799,
    "amped": 12031,
    "Ġperse": 6272,
    "acknowledge": 18468,
    "Ġpractised": 23332,
    "Ġconceivable": 16612,
    ")": 13,
    "image": 9684,
    "Ġtearless": 24786,
    "ield": 2410,
    "Ġidolator": 19996,
    "Ġcontraction": 16005,
    "Ġanticipated": 13509,
    "Ġyellowish": 24429,
    "rey": 12535,
    "ern": 751,
    "Ġbreeds": 23347,
    "Ġrods": 9752,
    "p": 84,
    "absolut": 8458,
    "aneously": 4062,
    "Ġmarshy": 20217,
    "Ġadam": 2127,
    "Ġpos": 1011,
    "Ġcornelius": 13571,
    "Ġincom": 9767,
    "Ġachieved": 13164,
    "Ġthankful": 14737,
    "too": 4508,
    "ilogue": 21722,
    "Ġto": 297,
    "Ġapothe": 12373,
    "Ġshrivelled": 19702,
    "Ġdesigns": 13012,
    "elt": 4117,
    "eldest": 22799,
    "Ġvoyage": 3052,
    "Ġwickedness": 9524,
    "Ġlabrador": 23328,
    "necessities": 24305,
    "Ġreconciliation": 25292,
    "commanders": 16988,
    "hip": 8740,
    "Ġbureau": 11588,
    "W": 59,
    "max": 1684,
    "object": 6884,
    "Ġmot": 2981,
    "shrugged": 22458,
    "arest": 4009,
    "Ġans": 1644,
    "Ġmau": 21309,
    "Ġveiled": 16198,
    "plendent": 21962,
    "idean": 14261,
    "İ": 241,
    "Ġinstinct": 6575,
    "Ġlodging": 24092,
    "ienced": 5685,
    "nep": 20985,
    "Ġexamining": 8006,
    "reputable": 15515,
    "intervals": 10636,
    "guest": 19480,
    "Ġpurport": 14580,
    "uv": 6229,
    "Ġcoincidences": 26363,
    "Ġvulgarity": 25363,
    "should": 3260,
    "Ġnorthwards": 19545,
    "raved": 18012,
    ">": 34,
    "Ġanointing": 25539,
    "Ġaside": 5234,
    "Ġsavage": 4015,
    "inement": 11556,
    "Ġcetology": 10007,
    "mad": 5280,
    "Ġchapel": 9521,
    "tale": 10126,
    "Ġcan": 469,
    "elfare": 11775,
    "iven": 1236,
    "Ġscheme": 7064,
    "Ġsine": 10762,
    "Ġcontemporary": 16009,
    "orative": 21396,
    "Ġadapts": 3816,
    "Ġcompetition": 14265,
    "Ġpoised": 22588,
    "Ġplantation": 11422,
    "negro": 18489,
    "Ġabsent": 7014,
    "xi": 17709,
    "Ġgrow": 2857,
    "Ġstrat": 16089,
    "Ġoakshott": 12227,
    "sides": 12505,
    "Ġmounttop": 19976,
    "Ġadroop": 26001,
    "ind": 569,
    "Ġslender": 11938,
    "buttons": 22399,
    "bits": 17487,
    "grin": 19105,
    "left": 6975,
    "Ġbending": 12582,
    "Ġcrews": 8989,
    "foreign": 18540,
    "Ġcattle": 12569,
    "Ġgeomet": 3189,
    "forgot": 11032,
    "Ġeverybody": 4511,
    "Ġtide": 6658,
    "--âĢĺ": 22846,
    "Ġdra": 1590,
    "Ġdevotion": 22728,
    "Ġbrook": 13044,
    "Ġfetching": 16895,
    "helmsman": 24286,
    "Ġhelper": 24024,
    "Ġpictures": 5503,
    "Ġfreshet": 25704,
    "ipper": 13738,
    "plans": 21956,
    "Ġsends": 14788,
    "izens": 18135,
    "Ġamput": 16032,
    "Ġreposing": 23357,
    "Ġmuchness": 18708,
    "important": 7112,
    "correspond": 13396,
    "Ġmechanism": 2454,
    "avo": 8517,
    "Ġrely": 8819,
    "lier": 20948,
    "Ġfeathers": 15117,
    "Ġwoeful": 19618,
    "Ġbee": 21747,
    "commencement": 26347,
    "Ġmostly": 7664,
    "fatigue": 20657,
    "Ġoriginated": 24122,
    "ices": 2138,
    "wall": 10135,
    "Ġscholar": 26111,
    "Ġrelative": 11881,
    "Ġadmire": 5263,
    "bidden": 19735,
    "Ú": 155,
    "accomplishment": 20222,
    "need": 10978,
    "Ġextinct": 14337,
    "often": 6165,
    "Ġgestures": 13534,
    "Ġfedallah": 6108,
    "ed": 293,
    "Ġfreedom": 9081,
    "Ġpall": 7582,
    "Ġju": 10285,
    "Ġhumans": 8928,
    "Ġhereditary": 10663,
    "india": 22369,
    "Ġlaborers": 19057,
    "Ġconsol": 3815,
    "ishment": 3503,
    "Ġsupposing": 6729,
    "Ġcaprice": 14576,
    "Ġconcluded": 5658,
    "Ġmourn": 8703,
    "befall": 22495,
    "Ġblast": 7445,
    "aker": 3662,
    "lung": 17590,
    "Ġdestroyer": 13411,
    "Ġpoising": 22589,
    "Ġexercised": 24803,
    "Ġnarratives": 24352,
    "||": 4869,
    "Ġrevolut": 3256,
    "barb": 10079,
    "====": 1482,
    "spin": 22729,
    "Ġforefinger": 16443,
    "Ġbeckoning": 20500,
    "Ġreality": 7057,
    "Ġmichaelmas": 26374,
    "elopement": 23192,
    "Ġmapple": 11149,
    "Ġseparate": 5778,
    "hew": 5364,
    "simp": 17664,
    "arranted": 19319,
    "Ġpreceding": 7528,
    "Ġprosecut": 9696,
    "Ġfilthy": 13245,
    "Ġcheery": 16365,
    "Ġdisturbing": 19944,
    "Ġcontrari": 23348,
    "Ġswelling": 11923,
    "hot": 8084,
    "ancing": 1758,
    "Ġclient": 5555,
    "Ġreminded": 9997,
    "Ġstreams": 12190,
    "Ġarrange": 3120,
    "Ġpossessed": 5195,
    "Ġexpenses": 11833,
    "Ġsympathise": 16793,
    "lion": 20943,
    "silence": 8045,
    "Ġcurves": 18844,
    "ø": 185,
    "atively": 2697,
    "Ġcurvature": 3573,
    "Ġerror": 1765,
    "Ġvitality": 15170,
    "odhead": 18118,
    "Ġdescribe": 2765,
    "Ġdisastrous": 16057,
    "Ł": 258,
    "Ġflurry": 18860,
    "acon": 10680,
    "ke": 429,
    "itig": 1332,
    "Ġreefed": 20301,
    "drawers": 19384,
    "Ġleviathans": 8282,
    "fered": 5559,
    "Ġmors": 17801,
    "ans": 457,
    "Ġevolved": 9890,
    "float": 19804,
    "Ġaz": 9628,
    "Ġnest": 10187,
    "Ġhero": 5715,
    "Ġidly": 16400,
    "weather": 7229,
    "ssed": 3732,
    "Ġfaintly": 14913,
    "Ġstarted": 4152,
    "pire": 9134,
    "Ġrect": 18025,
    "dil": 11477,
    "ring": 1752,
    "Ġintentionally": 24522,
    "perquis": 22188,
    "Ġquadruped": 17457,
    "Ġadds": 1806,
    "Ġswearing": 16463,
    "Ġtornado": 24622,
    "Ġdetaining": 25818,
    "Ġrange": 9710,
    "Ġpersonally": 8599,
    "Ġepoch": 26471,
    "ouri": 21446,
    "Ġnoteworthy": 24161,
    "Ġlandsman": 11349,
    "Ġambergris": 8705,
    "Ġconcealment": 16913,
    "Ġcontributes": 15248,
    "Ġlapl": 19776,
    "Ġsenseless": 12076,
    "Ġinitialization": 1254,
    "warks": 5004,
    "www": 17250,
    "Ġunnear": 22024,
    "Ġrapturously": 24888,
    "Ġformerly": 7493,
    "bearings": 25371,
    "Ġbalance": 2020,
    "Ġdifference": 1489,
    "Ġourselves": 5127,
    "calmly": 20138,
    "Ġlizzie": 26461,
    "addressing": 24400,
    "Ġsalt": 8017,
    "Ġdisputing": 25824,
    "parm": 21013,
    "greenland": 10019,
    "Ġdot": 4820,
    "Ġswish": 23051,
    "sitting": 8387,
    "Ġpositions": 2056,
    "Ġgrizzled": 11449,
    "Ġtrop": 7565,
    "Ġphiladelphia": 26603,
    "hard": 4689,
    "shortened": 24748,
    "mody": 16181,
    "Ġsane": 21220,
    "Ġmining": 22828,
    "imate": 4223,
    "Ġret": 1379,
    "Ġproof": 6153,
    "Ġwatchful": 16525,
    "Ġinstructive": 19285,
    "ul": 370,
    "Ġconcentrated": 15081,
    "icting": 12849,
    "Ġheads": 3739,
    "Ġsy": 489,
    "plate": 18207,
    "Ġimitation": 22169,
    "Ġjudging": 16594,
    "Ġamongst": 8958,
    "Ġchopping": 24218,
    "Ġlimb": 9400,
    "Ġcoolly": 9770,
    "Ġauthorized": 16734,
    "ece": 17530,
    "luckily": 19751,
    "Ġbackbone": 22649,
    "Ġaston": 3700,
    "Ġsaintsbury": 26372,
    "Ġut": 2281,
    "ged": 1510,
    "Ġstrife": 18614,
    "Ġcapacity": 10439,
    "Ġsnarl": 25715,
    "Ġjumbled": 22295,
    "ppings": 18176,
    "Ġinseparable": 20687,
    "Ġcandles": 9906,
    "Ġsurging": 19133,
    "imental": 16532,
    "đ": 210,
    "Ġeagerly": 4990,
    "Ġslight": 3119,
    "Ġvindictiveness": 25738,
    "Ġupbraiding": 26226,
    "mens": 20968,
    "Ġjourney": 3882,
    "Ġfinery": 23123,
    "safety": 20348,
    "Ġfaculties": 14956,
    "Ġshock": 6083,
    "Ġrobust": 1369,
    "batross": 9091,
    "musket": 25341,
    "Ġlovers": 9718,
    "trees": 10730,
    "irous": 8837,
    "Ġcalhoun": 23043,
    "rown": 2193,
    "Ġnew": 1196,
    "Ġhonestly": 19970,
    "Ġclang": 15962,
    "vit": 13799,
    "Ġpow": 4637,
    "Â": 131,
    "awing": 18915,
    "udding": 11863,
    "Ġstoutly": 16923,
    "R": 54,
    "Ġsimilar": 4917,
    "Ġlevers": 18077,
    "angs": 5834,
    "Ġtubs": 11369,
    "Ġvesuvius": 26500,
    "introduce": 25186,
    "chari": 21687,
    "Ġclo": 6043,
    "Ġinex": 6528,
    "Ġprim": 8244,
    "irt": 3076,
    "aloft": 8805,
    "Ġfrontispiece": 23911,
    "Ġminor": 12964,
    "deceptive": 22147,
    "Ġlight": 1698,
    "Ġsixty": 7723,
    "declare": 25173,
    "thrasher": 25658,
    "lamps": 25260,
    "Ġmonica": 22981,
    "Ġcommodore": 12393,
    "rier": 9240,
    "Ġsuspected": 9061,
    "rue": 1128,
    "Ġconvolutional": 2164,
    "unless": 9233,
    "uel": 6966,
    "Ġexclamation": 8698,
    "smitten": 23906,
    "broker": 13302,
    "Ġlaughed": 5059,
    "Ġtremulous": 14984,
    "ener": 562,
    "Ġbelieve": 2150,
    "iards": 17573,
    "whe": 1072,
    "bitterly": 20336,
    "agged": 9235,
    "meal": 22712,
    "refuge": 24734,
    "Ġbible": 9318,
    "opposite": 19928,
    "Ġincorporate": 20453,
    "Ġduchess": 4799,
    "ifference": 5632,
    "rises": 17654,
    "hun": 5210,
    "Ġdispirited": 23880,
    "Ġ119": 24440,
    "Ġclumsy": 9578,
    "Ġdignity": 5704,
    "laborers": 23913,
    "Ġretreat": 6070,
    "Ġslaves": 23167,
    "oward": 6021,
    "ell": 399,
    "Ġsoil": 9253,
    "Ġdissatisfied": 14255,
    "fearing": 18517,
    "Ġhusband": 3619,
    "fra": 8375,
    "cask": 12444,
    "naturally": 14562,
    "Ġimmersed": 19483,
    "Ġcommunication": 1871,
    "beating": 22489,
    "encyclopÃ¦dia": 16662,
    "Ġpy": 21450,
    "station": 10843,
    "asons": 6015,
    "Ġdiggings": 24649,
    "Ġremark": 2149,
    "Ġhardships": 14449,
    "chers": 11316,
    "Ġpropriet": 9548,
    "jumped": 20245,
    "Ġcretan": 22721,
    "instances": 13317,
    "Ġjail": 22292,
    "seeking": 17151,
    "Ġpenet": 6888,
    "Ġsurprise": 3829,
    "Ġcourse": 2132,
    "uments": 5551,
    "ilib": 4119,
    "Ġundeviating": 15215,
    "Ġcolleg": 22855,
    "Ġchronicled": 25328,
    "ellative": 21947,
    "Ġspirit": 3722,
    "poling": 12217,
    "Ġinhaled": 25451,
    "Ġexpect": 2307,
    "Ġapart": 4746,
    "sper": 4435,
    "ustom": 3787,
    "Ġmischie": 22761,
    "draughts": 20386,
    "Ġleyden": 21745,
    "leaving": 10790,
    "Ġacceded": 22376,
    "terogene": 21823,
    "Ġdestroying": 14728,
    "Ġchristians": 13306,
    "wor": 3414,
    "iers": 5991,
    "liked": 10507,
    "sword": 10725,
    "Ġslashing": 23168,
    "accurately": 25861,
    "Ġfri": 17878,
    "Ġawake": 8272,
    "aking": 978,
    "earthquakes": 24725,
    "Ġpitiable": 9912,
    "pol": 5893,
    "Ġmari": 6813,
    "affa": 23775,
    "Ġenduring": 16300,
    "nant": 17608,
    "Ġembellish": 25849,
    "unted": 6998,
    "ched": 1544,
    "Ġlets": 18076,
    "arned": 21815,
    "lleg": 20950,
    "Ġpanel": 13370,
    "Ġhorsey": 24248,
    "Ġdaunt": 19663,
    "flitted": 23967,
    "Ġsumm": 3353,
    "Ġdrily": 23539,
    "Ġsenor": 20149,
    "informed": 17735,
    "Ġflirting": 16246,
    "Ġresolutely": 14609,
    "Ġbreathed": 11219,
    "Ġdilated": 24704,
    "Ġbarrel": 23790,
    "Ġtransl": 2828,
    "comprehend": 14358,
    "utted": 15657,
    "Ġpeering": 8534,
    "Ġnarrating": 24350,
    "Ġselecting": 16683,
    "È": 137,
    "Ġchick": 22245,
    "poss": 4778,
    "Ġrueful": 25581,
    "Ġpondering": 17004,
    "Ġrefrained": 14341,
    "bolt": 25135,
    "stars": 18019,
    "transp": 24508,
    "enthusiastic": 20691,
    "Ġmortals": 9914,
    "Ġroofs": 16984,
    ",_": 11461,
    "Ġcomforter": 20505,
    "waistcoat": 17359,
    "Ġsimilitude": 19209,
    "Ġemac": 16402,
    "Ġexcited": 5579,
    "Ġescort": 23506,
    "prosper": 19100,
    "eral": 9158,
    "mosp": 8089,
    "Ġknowest": 12860,
    "Ġsentiments": 7961,
    "Ġeffusion": 22518,
    "Ġhoriz": 4726,
    "Ġrenegades": 26475,
    "Ġagreeable": 4552,
    "contrasted": 17304,
    "Ġviews": 7290,
    "¸": 121,
    "erted": 7361,
    "Ġcool": 5734,
    "Ġcondemn": 13442,
    "Ġsurmisings": 26592,
    "quod": 2166,
    "Ġcongrat": 5827,
    "rings": 10721,
    "draught": 12087,
    "batt": 20777,
    "Ġmilk": 6485,
    "Ġslipper": 24264,
    "gravel": 22618,
    "Ġsalisbury": 24063,
    "Ġboston": 22636,
    "ouement": 21447,
    "Ġperformer": 18755,
    "Ġdistressing": 12216,
    "Ġdimin": 3874,
    "Ġbam": 15562,
    "ishmael": 18420,
    "Ġwhalers": 8048,
    "Ġagents": 9764,
    "Ġjewell": 19519,
    "Ġspile": 22126,
    "Ġkilled": 4955,
    "Ġarchly": 22765,
    "ctions": 951,
    "Ġhapless": 15809,
    "fury": 17546,
    "Ġtempt": 5564,
    "Ġco": 731,
    "Ġanalysis": 1822,
    "Ġrobots": 11082,
    "Ġhaunted": 10252,
    "Ġpope": 11601,
    "fo": 5278,
    "Ġrheumatic": 20704,
    "Ġpossess": 3201,
    "Ġtartar": 17320,
    "Ġporter": 15607,
    "little": 3349,
    "Ġstriving": 8995,
    "Ġirritated": 17241,
    "Ġchanging": 11751,
    "Ġrubbing": 9319,
    "Ġ130": 24781,
    "hap": 17558,
    "Ġburying": 19251,
    "Ġapprised": 18360,
    "Ġgasps": 24865,
    "crucible": 24842,
    "Ġknees": 6928,
    "Ġprofoundest": 16859,
    "Ġextra": 4058,
    "passing": 14810,
    "Ġ93": 24592,
    "Ġevanesc": 24293,
    "Ġalchemists": 26486,
    "Ġ1828": 25720,
    "bul": 6951,
    "string": 15682,
    "Ġpapa": 10655,
    "Ġhuman": 1319,
    "iftings": 23225,
    "Ġneur": 812,
    "Ġupon": 719,
    "letons": 14612,
    "Ġminimax": 5858,
    "Ġassum": 4067,
    "mushroom": 26394,
    "sam": 21050,
    "scence": 14415,
    "irms": 18168,
    "Ġmisery": 3814,
    "Ġintrusion": 12761,
    "pardonable": 17216,
    "Ġimpul": 7208,
    "bouton": 17500,
    "Ġsupports": 3048,
    "Ġretrogression": 26580,
    "Ġpauses": 14813,
    "Ġreluct": 14370,
    "deserving": 17240,
    "Ġgreedily": 18964,
    "varieties": 23184,
    "blot": 20782,
    "rowed": 22860,
    "Ġinvaders": 23482,
    "indifference": 15980,
    "searching": 25103,
    "Ġchronicle": 20227,
    "imely": 13996,
    "dom": 6222,
    "iction": 4269,
    "Ġ150": 22825,
    "Ġconcil": 23319,
    "Ġtattered": 21170,
    "Ġlocket": 22111,
    "Ġfanciful": 24788,
    "capitals": 25080,
    "Ġgrazed": 15830,
    "Ġupd": 947,
    "aled": 3949,
    "Ġabstract": 17180,
    "Ġcolours": 12970,
    "Ġseconds": 16394,
    "Ġsuffering": 8945,
    "Ġjob": 7015,
    "discovery": 12014,
    "Ġxii": 11988,
    "Ġparlor": 13538,
    "Ġsofa": 10268,
    "Ġtallow": 14776,
    "outward": 22158,
    "tedious": 22631,
    "Ġted": 13810,
    "shorn": 22455,
    "read": 3273,
    "Ġremained": 3140,
    "idents": 6150,
    "Ġexploded": 15906,
    "Ġmist": 2875,
    "Ġmajesty": 5201,
    "Ġresearch": 3409,
    "swing": 15427,
    "henry": 16624,
    "Ġdragged": 6889,
    "Ġsorrows": 13352,
    "chie": 21688,
    "tri": 11528,
    "Ġthen": 666,
    "Ġdiab": 10610,
    "prolong": 23393,
    "mo": 863,
    "Ġannounced": 9033,
    "ocr": 10467,
    "Ġbouquet": 20682,
    "Ġradiance": 13368,
    "pagans": 25525,
    "Ġsparing": 22128,
    "Ġgobern": 22423,
    "overfitting": 13097,
    "Ġerudite": 26350,
    "nuts": 15396,
    "ugging": 23288,
    "lances": 15381,
    "Ġequality": 16356,
    "Ġtech": 1660,
    "Ġknob": 24406,
    "Ġconfessor": 24017,
    "Ġpierce": 17035,
    "receiving": 12540,
    "complaisance": 24811,
    "legged": 10465,
    "uteronomy": 15660,
    "ision": 1855,
    "dest": 4105,
    "lig": 3171,
    "Ġsentin": 16369,
    "till": 6965,
    "Ġschol": 17375,
    "Ã¦us": 14815,
    "Ġmel": 4816,
    "Ġperf": 12846,
    "Ġinsignific": 13178,
    "vious": 1783,
    "Ġentangled": 10341,
    "Ġcapable": 5054,
    "Ġposture": 24163,
    "sust": 15420,
    "Ġabominate": 20063,
    "sensibility": 25023,
    "Ġtruly": 4796,
    "Ġcontrolled": 23250,
    "Ġoccasioned": 13224,
    "Ġblaming": 22928,
    "Ġreflecting": 24751,
    "Ġbroods": 23101,
    "ab": 345,
    "Ġpersuading": 19408,
    "Ġwoodcock": 19162,
    "Ġgigantic": 5915,
    "Ġdowry": 20684,
    "Ġglit": 8558,
    "exper": 8877,
    "Ġoccupant": 16650,
    "osa": 22257,
    "urried": 21702,
    "ifers": 15778,
    "swept": 19785,
    "Ġstarry": 16922,
    "Ġchapters": 10472,
    "tol": 17671,
    "Ġaboriginal": 14187,
    "proposal": 18754,
    "higher": 20405,
    "Ġaccumul": 1411,
    "ocean": 12399,
    "inno": 10755,
    "Ġune": 4598,
    "Ġdistrustful": 25054,
    "ias": 6362,
    "Ġdir": 21420,
    "dict": 15337,
    "Ġdiscomp": 11864,
    "speps": 14332,
    "Ġdwelt": 12602,
    "avers": 17479,
    "âĢĶâĢĺ_": 24831,
    "blow": 9102,
    "Ġnarrations": 24351,
    "brevi": 24073,
    "Ġrevolver": 14896,
    "Ġincensed": 18571,
    "ifying": 5235,
    "Ġdefence": 11066,
    "Ġhammers": 13238,
    "Ġprofound": 5497,
    "Ġquito": 24407,
    "Ġmonarchs": 25846,
    "Ġconvers": 2905,
    "arman": 11594,
    "adagrad": 9689,
    "Ġtruthful": 23865,
    "Ġphilosophers": 10550,
    "Ġswam": 6448,
    "Ġunable": 4951,
    "Ġsafe": 5103,
    "evil": 11484,
    "overcoat": 19050,
    "Ġwire": 13850,
    "Ġdiscipl": 22783,
    "Ġrunning": 3956,
    "Ġtiresome": 26156,
    "oriental": 23719,
    "ą": 198,
    "Ġpattering": 18652,
    "Ġprivileges": 25132,
    "Ġchamounix": 14862,
    "Ġth": 299,
    "ouching": 13175,
    "Ġmarine": 23033,
    "wait": 11319,
    "Ġzones": 22815,
    "Ġdel": 1612,
    "enial": 17779,
    "Ġbarn": 11585,
    "Ġargue": 16782,
    "hearty": 14832,
    "Ġfemales": 14935,
    "lance": 12479,
    "cket": 3686,
    "Ġmeanest": 12906,
    "Ġindel": 13000,
    "Ġboom": 9308,
    "Ġmeta": 3068,
    "Ġbuildings": 24720,
    "revival": 26162,
    "strom": 15680,
    "Ġprice": 10402,
    "Ġpatches": 4238,
    "Ġresting": 7962,
    "Ġamazement": 7765,
    "Ġfinally": 4666,
    "olstadt": 7789,
    "ppered": 15787,
    "Ġfol": 1289,
    "powder": 17644,
    "Ġheated": 21680,
    "ĠĠ": 352,
    "izes": 884,
    "Ġgraces": 18225,
    "Ġegotistical": 26191,
    "Ġboarding": 12084,
    "Ġblessed": 6931,
    "Ġprogen": 14037,
    "Ġseverest": 14088,
    "Ġmer": 2927,
    "Ġparacelsus": 15264,
    "Ġnormalizes": 1863,
    "Ġroad": 3883,
    "Ġkind": 1784,
    "Ġforcibly": 10059,
    "Ġfulfilled": 11361,
    "french": 9118,
    "Ġcrests": 25685,
    "Ġleaning": 5228,
    "Ġremembrance": 8318,
    "con": 655,
    "Ġoriginate": 24121,
    "Ġunprejudiced": 18269,
    "Ġwaiting": 4323,
    "impud": 23758,
    "Ġevaporate": 26332,
    "Ĳ": 243,
    "Ġlistening": 6318,
    "pressing": 19013,
    "reference": 13838,
    "Ġsqu": 1038,
    "Ġcarelessly": 11119,
    "Ġrequested": 14300,
    "income": 15484,
    "Ġliterature": 17147,
    "rob": 5533,
    "Ġboyhood": 23753,
    "nerable": 16274,
    "Ġwhiff": 21716,
    "Ġdifficulty": 5770,
    "Ġbottle": 7490,
    "prisoner": 20542,
    "oop": 10714,
    "Ġdoes": 943,
    "Ġamph": 18511,
    "Ġprize": 11946,
    "Ġwhisper": 6205,
    "Ġshrugged": 12765,
    "Ġsettles": 22917,
    "Ġburnt": 9926,
    "ici": 8440,
    "Ġknowing": 4458,
    "polar": 24584,
    "Ġrifle": 18212,
    "Ġimpo": 3440,
    "war": 6802,
    "cially": 3486,
    "perv": 1626,
    "Ġjohnson": 18409,
    "Ġoffer": 4843,
    "ĠĠĠĠĠĠĠĠĠĠĠĠĠĠĠĠĠĠĠĠĠĠĠĠĠĠĠĠĠĠĠĠĠĠĠĠĠĠĠĠĠ": 19581,
    "Ġsan": 7825,
    "Ġhorns": 11122,
    "Ġag": 683,
    "Ġrespectively": 23247,
    "Ġjeopardized": 20229,
    "Ġbefriend": 18081,
    "Ġremarkably": 7703,
    "Ġguided": 10459,
    "Ġperilously": 24503,
    "Ġcontinents": 16848,
    "away": 4625,
    "conced": 22468,
    "have": 2057,
    "Ġgloom": 4203,
    "voyages": 24855,
    "Ġdeb": 4764,
    "Ġmouthfuls": 20645,
    "century": 20045,
    "deeply": 16175,
    "Ġnot": 412,
    "Ġfrequ": 3326,
    "Ġborders": 15568,
    "Ġ166": 25004,
    "Ġhover": 15616,
    "Ġmem": 2068,
    "Ġforms": 6397,
    "lips": 13748,
    "rise": 6226,
    "unities": 15767,
    "band": 3057,
    "moments": 19410,
    "Ġexcursion": 26588,
    "ting": 1334,
    "Ġ41": 24079,
    "Ġpleasantness": 24138,
    "Ġaccuse": 14211,
    "Ġdeclines": 23961,
    "garity": 17553,
    "Ġcabman": 14605,
    "presence": 18496,
    "Ġquakers": 22414,
    "Ġtren": 17720,
    "Ġgrove": 12144,
    "itors": 2912,
    "rences": 9270,
    "xim": 1091,
    "Ġdie": 3967,
    "Ġpallidness": 25604,
    "Ġdetestation": 17126,
    "Ġvelvet": 12396,
    "/`": 12427,
    "hast": 5357,
    "Ġplunging": 14950,
    "Ġtraversed": 18892,
    "Ġrecomm": 4996,
    "turn": 4292,
    "Ġarve": 15890,
    "Ġproduces": 2092,
    "Ġemperors": 15157,
    "Ġtruce": 24115,
    "Ġfeelings": 2455,
    "Ġwhims": 12688,
    "Ġstrangely": 5677,
    "Ġghostliness": 24651,
    "Ġshrimp": 24156,
    "Ġfidelity": 15239,
    "fourth": 11327,
    "Ġarranging": 11173,
    "ha": 3985,
    "Ġbones": 4583,
    "¹": 122,
    "Ġheeds": 24519,
    "crack": 19839,
    "Ġbestow": 6455,
    "Ġdent": 13904,
    "Ġtweezers": 26555,
    "Ġwooded": 23520,
    "Ġ&": 6513,
    "Ġelementary": 24814,
    "Ġoutlaws": 22321,
    "aples": 20767,
    "john": 11496,
    "Ġperfidious": 25666,
    "former": 11746,
    "bull": 13688,
    "Ġdanes": 25156,
    "libr": 22921,
    "Ġamong": 1668,
    "became": 10513,
    "Ġstript": 23693,
    "quet": 6835,
    "ols": 2414,
    "ended": 1837,
    "Ġdivulged": 16647,
    "Ġdismally": 20213,
    "Ġcarry": 4779,
    "Ġmeetings": 16531,
    "Ġlawy": 9452,
    "Ġdismal": 11808,
    "ored": 3898,
    "Ġsee": 803,
    "Ġdecisive": 18485,
    "Ġwinter": 5220,
    "Ġlengthen": 15650,
    "west": 10738,
    "dress": 17519,
    "Ġexpectation": 6904,
    "prison": 14661,
    "iv": 430,
    "necessary": 5882,
    "Ġstupendous": 20499,
    "Ġrocky": 13385,
    "tooth": 18579,
    "Ġinvisibly": 24817,
    "Ġfrowning": 13621,
    "Ġbridges": 24682,
    "Ġrepeat": 8000,
    "continu": 5501,
    "Ġempires": 19075,
    "lets": 7837,
    "Ġbadge": 16682,
    "maltese": 24795,
    "Ġsne": 6372,
    "dy": 3864,
    "Ġruss": 18719,
    "Ġantagonist": 26328,
    "responsible": 25763,
    "Ġconsisting": 8971,
    "_.,": 14561,
    "cuniary": 26378,
    "Ġcrucifix": 26079,
    "pad": 13766,
    "Ġdefray": 22939,
    "urable": 8921,
    "Ġchoked": 9262,
    "Ġrecounted": 22736,
    "teen": 6370,
    "Ġextend": 18696,
    "Ġlearns": 2646,
    "Ġtwisted": 7228,
    "painted": 17638,
    "der": 468,
    "Ġdocumentation": 20553,
    "Ġ2": 2926,
    "elihood": 4622,
    "barbar": 20237,
    "Ġbelted": 22946,
    "Ġtumbled": 13404,
    "ĠĠĠĠĠĠĠĠĠĠĠĠĠĠĠĠĠĠĠĠĠĠĠĠĠĠ": 13386,
    "efficient": 2869,
    "Ġpropag": 16345,
    "Ġnap": 8807,
    "Ġexecuted": 9470,
    "gress": 2215,
    "Ġbug": 11587,
    "Ġattribute": 16094,
    "Ġante": 17896,
    "hurt": 19877,
    "Ġrolled": 4430,
    "Ġhessian": 3546,
    "mend": 20965,
    "Ġendeavor": 16543,
    "Ġlocations": 12411,
    "Ġchill": 11750,
    "experienced": 15119,
    "rut": 8092,
    "Ġpolar": 9409,
    "Ġtransported": 11278,
    "Ġinfant": 11958,
    "fi": 12459,
    "comprehens": 16172,
    "Ġhogarth": 25780,
    "order": 1958,
    "died": 10692,
    "Ġtranquilly": 12288,
    "azed": 9397,
    "Ġcorpusants": 13675,
    "Ġdull": 6384,
    "Ġfund": 2841,
    "illuminated": 17451,
    "Ġgrey": 4513,
    "Ġsolid": 6443,
    "Ġstared": 8454,
    "evident": 25520,
    "Ġ550": 19640,
    "Ġterritories": 23843,
    "sat": 4810,
    "osis": 18389,
    "Ġrefinement": 18700,
    "Ġhip": 17920,
    "Ġodious": 12148,
    "Ġwillingly": 8883,
    "Ġlun": 7856,
    "Ġrogue": 22403,
    "answer": 11726,
    "weave": 22683,
    "representing": 25271,
    "parsee": 14530,
    "Ġpresume": 8038,
    "Ġgentleness": 8709,
    "Ġcons": 953,
    "Ġexcepting": 14679,
    "Ġconquered": 14024,
    "wreck": 21135,
    "Ġhorrid": 7999,
    "Ġpip": 1654,
    "Ġvariation": 22663,
    "Ġ109": 24415,
    "Ġwedded": 16673,
    "press": 1731,
    "Ġfolded": 7768,
    "Ġshe": 466,
    "Ġdebt": 12165,
    "Ġpref": 14170,
    "Ġrejoinder": 24598,
    "suitableness": 26260,
    "ath": 862,
    "Ġapologies": 25196,
    "cord": 8723,
    "from": 1988,
    "Ġupdating": 2692,
    "Ġgroping": 13663,
    "Ġapproximates": 2419,
    "get": 1022,
    "Ġbl": 1189,
    "Ġshave": 21994,
    "\"": 6,
    "lo": 681,
    "Ġmustard": 12926,
    "Ġmorality": 22974,
    "lish": 1951,
    "masterly": 24529,
    "Ġmitig": 1336,
    "rous": 3751,
    "pennies": 26285,
    "Ġmanual": 14196,
    "Ġcountless": 16380,
    "Ġdaughter": 2868,
    "ctors": 21588,
    "Ġeloped": 22644,
    "Ġhurrying": 11992,
    "Ġflow": 1238,
    "Ġattitude": 8902,
    "Ġtrusted": 10516,
    "Ġshillings": 15832,
    "cracy": 24690,
    "Ġinclinations": 19538,
    "steady": 14708,
    "Ġrecommend": 7102,
    "hercules": 22202,
    "Ġeasier": 11164,
    "tem": 6369,
    "Ġvideo": 25365,
    "Ġvile": 8472,
    "Ġimpression": 5732,
    "ages": 828,
    "Ġwhist": 6022,
    "Ġincreases": 3796,
    "Ġattends": 19649,
    "Ġear": 1422,
    "Ġegyptian": 13584,
    "Ġpsalmody": 20583,
    "Ġassizes": 11107,
    "tail": 8761,
    "untary": 9865,
    "unction": 10233,
    "Ġjudgment": 5765,
    "falling": 24360,
    "Ġunstructure": 2991,
    "Ġhalloa": 13314,
    "Ġtechniques": 2865,
    "Ġlips": 3996,
    "cursed": 23841,
    "oning": 7572,
    "Ġdubious": 17381,
    "Ġsubtile": 20378,
    "Ġintrusted": 21990,
    "Ġglanced": 5952,
    "narr": 12494,
    "Ġsufferings": 7513,
    "Ġbrid": 6290,
    "Ġfrighted": 24027,
    "Ġcommit": 18655,
    "Ġlig": 21546,
    "bee": 16036,
    "justified": 19002,
    "Ġlargest": 6282,
    "son": 2329,
    "Ġaristotle": 25817,
    "oking": 4606,
    "assment": 9737,
    "Ġsubterranean": 13609,
    "Ġlivers": 18461,
    "ian": 1237,
    "Ġmorrow": 9341,
    "Ġprogeny": 17386,
    "james": 15370,
    "Ġconcentric": 20073,
    "Ġhuge": 4699,
    "button": 10965,
    "bon": 13682,
    "Ġartic": 5314,
    "Ġerrors": 2598,
    "Ġdecent": 10977,
    "Ġlam": 21547,
    "Ġties": 12524,
    "Ġeating": 8136,
    "Ġhoot": 19076,
    "Ġstrange": 2274,
    "Ġpat": 1794,
    "feather": 16035,
    "Ġcreated": 2709,
    "gentlemanlike": 20000,
    "Ġdoom": 6417,
    "Ġcracks": 12017,
    "Ġbattery": 21392,
    "Ġreasonably": 11090,
    "Ġestimated": 16593,
    "Ġsalut": 10508,
    "barrow": 15319,
    "dogs": 25402,
    "Ġeducation": 5128,
    "¾": 127,
    "Ġmak": 10777,
    "Ġthinker": 22807,
    "meanwhile": 10608,
    "Ġjeopard": 9941,
    "Ġvide": 10249,
    "Ġkilling": 13330,
    "Ġskilfully": 20522,
    "Ġvalues": 2654,
    "etimes": 1985,
    "Ġhospitals": 24923,
    "Ġbenefit": 8293,
    "pro": 2049,
    "Ġunion": 6839,
    "Ġassail": 13059,
    "Ġcosine": 2372,
    "Ġwedding": 4858,
    "Ġviolently": 6456,
    "fair": 10091,
    "Ġbreadth": 10562,
    "Ġintelligible": 15938,
    "Ġdents": 13909,
    "Ġcells": 13883,
    "Ġare": 525,
    "pagan": 17284,
    "Ġfronts": 20530,
    "Ġsemantic": 1957,
    "Ġpreposter": 12818,
    "Ġfriendship": 7246,
    "Ġinsist": 9889,
    "Ġhud": 10821,
    "Ġservant": 5764,
    "presum": 12864,
    "thunder": 10261,
    "utch": 21584,
    "altering": 12636,
    "Ġradiant": 16808,
    "follows": 24527,
    "Ġsell": 7826,
    "omnipotent": 25964,
    "Ġglided": 7446,
    "Ġnaturally": 2468,
    "Ġmoved": 4839,
    "4": 24,
    "Ġassailed": 23175,
    "Ġcove": 22580,
    "material": 13127,
    "Ġspiced": 22132,
    "Ġslid": 7952,
    "transformers": 8714,
    "Ġunfathomably": 25873,
    "Ġchilian": 25563,
    "resc": 21237,
    "Ġed": 2145,
    "Ġbath": 9657,
    "Ġxlix": 25860,
    "Ġmemorable": 16425,
    "shock": 19854,
    "prejud": 11794,
    "tr": 3579,
    "Ġof": 298,
    "Ġcrosswise": 18886,
    "tum": 11530,
    "Ġbored": 16102,
    "Ġperfection": 19217,
    "Ġafric": 8904,
    "classes": 12133,
    "ć": 200,
    "antarctic": 22097,
    "Ġkindness": 4098,
    "Ġcatches": 23425,
    "Ġchar": 1702,
    "veil": 18042,
    "lydia": 6826,
    "sound": 6799,
    "finished": 10553,
    "Ġrecovered": 5481,
    "Ġthunder": 4823,
    "cules": 12389,
    "Ġgift": 10839,
    "Ġsadness": 13284,
    "belonged": 25597,
    "Ġhummed": 18777,
    "======================================================================": 10066,
    "Ġgrappling": 25812,
    "Ġbitten": 21388,
    "less": 930,
    "Ġ65": 24367,
    "Ġturbul": 23611,
    "bottom": 11425,
    "Ġprouder": 18972,
    "Ġebony": 18008,
    "divided": 25018,
    "Ġdecomposition": 5342,
    "Ġplanks": 5562,
    "Ġfancies": 10423,
    "vable": 10131,
    "iant": 5427,
    "Ġcheshire": 13087,
    "Ġensure": 23687,
    "$": 8,
    "Ġbulkington": 14676,
    "Ġwearing": 12735,
    "apan": 6860,
    "rocket": 13942,
    "althy": 8432,
    "bill": 10074,
    "Ġpuffs": 14974,
    "league": 17844,
    "Ġinsists": 23677,
    "Ġshepherd": 14151,
    "Ġunallied": 22028,
    "company": 9459,
    "Ġtottenham": 24141,
    "Ġscent": 10284,
    "limbs": 20190,
    "preced": 10308,
    "Ġprometheus": 15290,
    "Ġactivation": 920,
    "Ġdilatory": 24705,
    "Ġenchanted": 9079,
    "Ġasiatic": 20428,
    "Ġpod": 15600,
    "Ġpretext": 22227,
    "Ġdisplay": 6428,
    "Ġarchbishop": 18710,
    "Ġduring": 872,
    "Ġable": 3080,
    "geor": 15975,
    "Ġresults": 7308,
    "Ġspouter": 12794,
    "Ġdaily": 5987,
    "Ġnewfound": 22930,
    "Ġunspeak": 8849,
    "younger": 11311,
    "Ġhamper": 19387,
    "Ġcraggy": 23529,
    "Ġpremature": 3723,
    "Ġfascinated": 25635,
    "does": 6194,
    "Ġopposition": 16519,
    "Ġcreating": 2993,
    "ech": 4390,
    "affairs": 14655,
    "Ġwaits": 23277,
    "Ġharb": 7370,
    "Ġunprovided": 18260,
    "yours": 7695,
    "Ġhereford": 22876,
    "tures": 21068,
    "Ġtrampling": 25492,
    "Ġglassy": 19559,
    "Ġgrapes": 15213,
    "Ġdesire": 3715,
    "Ġremedy": 18724,
    "intolerable": 22936,
    "Ġcombing": 22850,
    "Ġmemorand": 23403,
    "gether": 1593,
    "lest": 5288,
    "Ġbestir": 13107,
    "Ġsequel": 14354,
    "Ġproclaim": 18130,
    "Ġfang": 21401,
    "steps": 9403,
    "etuous": 21581,
    "car": 4214,
    "ium": 4864,
    "Ġcanes": 22161,
    "teak": 22813,
    "ishly": 14198,
    "Ġdividing": 12109,
    "Ġdictionary": 15110,
    "spir": 5738,
    "Ġbounce": 21391,
    "many": 5250,
    "?âĢĻ": 2644,
    "rents": 5308,
    "Ġrecollection": 6620,
    "Ġsporty": 19889,
    "Ġconvul": 13201,
    "teenth": 11872,
    "Ġfeasts": 25369,
    "Ġpersist": 16272,
    "Ġaccordance": 19496,
    "Ġdenny": 9000,
    "disciple": 16777,
    "smile": 23903,
    "entreat": 17975,
    "Ġhercules": 14126,
    "Ġmantel": 11438,
    "Ġexhibiting": 19837,
    "Ġwatson": 3596,
    "binnacle": 20786,
    "axen": 22519,
    "suffered": 24333,
    "Ġgeneralize": 3099,
    "consuming": 25674,
    "Ġdescribing": 19253,
    "iasm": 8061,
    "Ġsometimes": 2169,
    "onsible": 22559,
    "Ġevian": 24291,
    "Ġtig": 13811,
    "Ġcopies": 24935,
    "ibid": 18840,
    "servants": 15036,
    "Ġfordham": 21774,
    "Ġbuttoning": 17234,
    "Ġrippling": 17276,
    "Ġlazily": 11379,
    "chair": 5917,
    "Ġbag": 5699,
    "Ġdeline": 16329,
    "ots": 3293,
    "wonders": 17142,
    "Ġconfirms": 23306,
    "question": 5418,
    "removed": 15514,
    "Ġgrown": 5628,
    "ame": 645,
    "melancholy": 12351,
    "Ġoblig": 3443,
    "Ġbold": 5291,
    "Ġswung": 6449,
    "Ġreverence": 12057,
    "Ġgoodly": 22818,
    "cu": 10082,
    "shadow": 20313,
    "Ġaccordingly": 6619,
    "Ġterrified": 14670,
    "year": 11094,
    "tranqu": 14705,
    "Ġquiet": 3259,
    "Ġwearied": 15790,
    "Ġtwinkling": 12322,
    "Ġappearances": 10450,
    "Ġmain": 809,
    "Ġmast": 2899,
    "orand": 21395,
    "Ġsacrific": 15016,
    "Ġsim": 734,
    "yset": 21144,
    "Ġcongratulations": 10579,
    "buckets": 26123,
    "vously": 23505,
    "Ġmilitia": 13315,
    "iard": 9600,
    "ruit": 22179,
    "Ġclubbed": 26546,
    "ared": 772,
    "calculating": 25689,
    "sisters": 13374,
    "Ġpour": 13912,
    "ires": 6038,
    "understanding": 1141,
    "rough": 588,
    "vine": 10733,
    "traces": 24314,
    "fron": 24280,
    "Ġrenow": 18027,
    "igen": 4830,
    "Ġrevolving": 9981,
    "vy": 21106,
    "Ġattend": 5035,
    "Ġexposes": 22622,
    "clopÃ¦dia": 15254,
    "rushing": 10016,
    "wonted": 13491,
    "agonies": 21907,
    "Ġoperation": 11996,
    "Ġhuff": 21488,
    "est": 499,
    "Ġmadame": 13148,
    "Ġdial": 10809,
    "Ġfoliage": 18866,
    "iffe": 21900,
    "Ġdivineness": 25724,
    "Ġlurch": 21553,
    "anders": 18152,
    "grateful": 10427,
    "Ġhonorable": 16875,
    "Ġwheelbarrow": 17203,
    "Ġexcessive": 3894,
    "oak": 21002,
    "countenances": 24150,
    "alleled": 14427,
    "ahab": 4290,
    "Ġkid": 9723,
    "ractions": 11632,
    "Ġbrit": 6289,
    "Ġsavi": 18325,
    "Ġfearless": 9873,
    "Ġblinds": 8007,
    "Ġfolio": 11915,
    "Ġgoring": 21602,
    "paws": 21028,
    "Ġdinnertime": 16718,
    "Ġshown": 5159,
    "ari": 672,
    "Ġjealous": 9467,
    "withdrawn": 23027,
    "Ġinstability": 3813,
    "Ġmrs": 1465,
    "bearance": 22494,
    "Ġarmitage": 23580,
    "rec": 6004,
    "Ġhump": 5853,
    "Ġcontrive": 16007,
    "Ġdrooping": 9418,
    "Ġvoids": 25807,
    "masculine": 24386,
    "imprudence": 16555,
    "po": 1139,
    "Ġboasting": 19934,
    "Ġsab": 10761,
    "Ġutterance": 14762,
    "Ġrachel": 11845,
    "Ġrecommence": 16811,
    "Ġagonies": 14250,
    "Ġalps": 10869,
    "Ġfielding": 16230,
    "Ġsubject": 2466,
    "Ġanteced": 26177,
    "ackled": 22418,
    "fearfully": 25116,
    "95": 17476,
    "adel": 15725,
    "Ġpatent": 11960,
    "Ġpalsy": 25778,
    "Ġfigures": 8629,
    "cried": 8724,
    "Ġcaptured": 7245,
    "pieces": 8754,
    "comes": 5394,
    "Ġdispleasure": 16049,
    "imes": 1303,
    "Ġrambling": 18646,
    "Ġplaning": 22599,
    "Ġxxxiv": 24969,
    "jour": 20926,
    "wester": 21137,
    "Ġkept": 3344,
    "sail": 3602,
    "ation": 320,
    "Ġdeclares": 16991,
    "Ġexpost": 18624,
    "instinct": 19542,
    "somewhere": 12010,
    "fl": 3599,
    "Ġwint": 15530,
    "Ġsigmoid": 2464,
    "Ġmol": 12558,
    "Ġcal": 1327,
    "ught": 2751,
    "spike": 16136,
    "Ġang": 2514,
    "Ġcompose": 12898,
    "Ġsword": 6732,
    "Ġinstrum": 6055,
    "longing": 23724,
    "points": 14391,
    "Ġcongen": 10872,
    "'re": 12426,
    "Ġmales": 17805,
    "Ġchances": 9261,
    "rimin": 2425,
    "Ġcaresses": 26059,
    "wandering": 20283,
    "where": 2091,
    "intending": 22933,
    "Ġhanded": 8217,
    "unicorn": 21887,
    "Ġinfallible": 15068,
    "Ġtrustees": 24107,
    "Ġdevelopment": 7061,
    "Ġacquirement": 19254,
    "miseries": 16756,
    "Ġbrixton": 13661,
    "Ġlounging": 10020,
    "quakes": 21854,
    "scans": 22985,
    "garnished": 26387,
    "ollen": 11297,
    "Ġvery": 636,
    "~": 98,
    "be": 670,
    "Ġcologne": 12971,
    "tch": 9140,
    "all": 486,
    "nigh": 13761,
    "rocious": 21537,
    "Ġdoorway": 14496,
    "prehens": 9287,
    "À": 129,
    "ä": 165,
    "assure": 9267,
    "Ġsprout": 24087,
    "deadly": 17099,
    "networks": 2406,
    "Ġfragmentary": 25858,
    "hoisting": 23715,
    "stri": 6249,
    "Ġintruder": 25991,
    "greatest": 10492,
    "Ġlawyer": 10667,
    "unable": 14057,
    "Ġiroquois": 26469,
    "Ġsa": 474,
    "Ġowns": 22822,
    "bad": 12434,
    "lot": 3205,
    "snow": 10723,
    "truck": 15439,
    "Ġhat": 2772,
    "peddling": 24696,
    "gment": 4391,
    "ird": 2429,
    "Ġoccas": 2704,
    "system": 3926,
    "Ġleaving": 3907,
    "Ġvainly": 9922,
    "Ġheat": 5453,
    "thyself": 19297,
    "wling": 11543,
    "Ġsails": 5256,
    "Ġlogs": 16344,
    "L": 48,
    "ingale": 21298,
    "gammon": 20242,
    "married": 9947,
    "Ġbanished": 10615,
    "Ġfrightened": 5341,
    "nants": 17612,
    "reflect": 19864,
    "Ġthews": 21276,
    "chance": 6827,
    "Ġnoticing": 18224,
    "soc": 5175,
    "Ġ179": 19753,
    "Ġtangle": 25760,
    "Ġrowing": 10299,
    "whaleman": 23434,
    "Ġassured": 4371,
    "Ġreynolds": 10208,
    "Ġfulfilment": 20186,
    "intim": 22932,
    "hus": 5072,
    "unvarying": 21885,
    "gradu": 18617,
    "first": 3939,
    "Ġturtles": 19219,
    "Ġchains": 8251,
    "Ġinspection": 14544,
    "Ġeach": 892,
    "fam": 5989,
    "Ġpregnant": 26534,
    "Ġphilipses": 24451,
    "Ġdiscrimination": 23604,
    "Ġmeanwhile": 5736,
    "Ġmor": 1250,
    "Ġscorn": 7902,
    "Ġpunch": 9953,
    "Ġkeel": 6444,
    "Ġpitches": 23899,
    "Ġfairly": 6325,
    "europe": 20664,
    "Ġgra": 415,
    "Ġdash": 8122,
    "Ġharbour": 19978,
    "Ġsuspending": 19243,
    "Ġgenealogies": 25961,
    "Ġeul": 21618,
    "Ġdigress": 24648,
    "omn": 15678,
    "ascended": 24706,
    "cher": 5786,
    "lungs": 26135,
    "story": 9211,
    "Ġcopse": 17066,
    "Ġlocal": 1199,
    "Ġridicule": 13510,
    "Ġreasonable": 7253,
    "Ġbarely": 16935,
    "Ġemploy": 3614,
    "Ġreducing": 1956,
    "Ġguiding": 19240,
    "Ġcoding": 8116,
    "ty": 1004,
    "Ġtopic": 9404,
    "Ġprocedure": 2808,
    "stra": 4048,
    "antingly": 22096,
    "rannical": 26400,
    "Ġknife": 7309,
    "imming": 9685,
    "Ġplatonian": 25118,
    "ighbour": 3385,
    "Ġduodecimo": 16766,
    "oftener": 23963,
    "Ġvertical": 16603,
    "Ġimpro": 904,
    "pread": 7418,
    "Ġenormous": 5608,
    "begins": 18524,
    "Ġunchanging": 22041,
    "Ġexperiments": 23031,
    "Ġprecautions": 23725,
    "prospect": 23394,
    "unteered": 26494,
    "Ġtuileries": 24826,
    "Ġreceives": 20353,
    "13": 20749,
    "_,": 2798,
    "animal": 16977,
    "Ġinsensibility": 17109,
    "Ġrejected": 12292,
    "Ġtendinous": 16930,
    "bring": 9103,
    "Ġcommend": 10333,
    "Ġwrongfully": 24247,
    "Ġideal": 13118,
    "assist": 11765,
    "Ġimposed": 14213,
    "orm": 425,
    "Ġwanted": 4968,
    "Ġpratt": 23220,
    "ork": 416,
    "joining": 19444,
    "Ġsheer": 14149,
    "Ġcooped": 22581,
    "Ġneighbour": 3808,
    "Ġtantamount": 25625,
    "Ġworn": 6445,
    "Ġvolume": 6769,
    "Ġcele": 9898,
    "Ġtransparent": 9487,
    "atlantic": 15521,
    "Ġdeposit": 17267,
    "Ġprynne": 25540,
    "ote": 4596,
    "greek": 25404,
    "Ġjohn": 5032,
    "post": 6062,
    "Ġindividually": 22955,
    "Ġ182": 13234,
    "request": 21240,
    "Ġoscillations": 2897,
    "Ġdeftly": 26492,
    "Ġtoiling": 15631,
    "50": 6784,
    "Ġcontempt": 6275,
    "pless": 6260,
    "bbles": 13689,
    "Ġmatlock": 18803,
    "want": 8765,
    "Ġnear": 1716,
    "ail": 568,
    "la": 10704,
    "Ġbelfry": 26437,
    "Ġinheriting": 25354,
    "sincere": 16906,
    "Ġdestroy": 5772,
    "Ġskeletons": 16790,
    "Ġlangsdorff": 15274,
    "Ġletter": 2198,
    "Ġsleeps": 10445,
    "Ġimmortal": 8018,
    "linging": 16075,
    "Ġdiscredit": 22781,
    "Ġultimately": 17163,
    "Ġadvantage": 4316,
    "Ġherds": 9714,
    "Ġdirection": 1792,
    "Ġinvoluntary": 18763,
    "Ġdivert": 23592,
    "Ġlestrade": 5825,
    "Ġpled": 17907,
    "scot": 14414,
    "Ġunwound": 25169,
    "Ġformidable": 8220,
    "ariously": 18526,
    "likelihood": 4992,
    "Ġcred": 8779,
    "Ġbeautifully": 13264,
    "Ġchink": 15929,
    "growing": 13731,
    "asted": 4649,
    "Ġtweed": 22675,
    "Ġpersuasions": 16630,
    "Ġthy": 2516,
    "Ġur": 5539,
    "ance": 478,
    "Ġcomplacency": 19446,
    "Ġviolence": 5963,
    "consist": 14814,
    "Ġfeminine": 15261,
    "Ġwoll": 21292,
    "Ġantelope": 24179,
    "icial": 12651,
    "Ġvapor": 8699,
    "Ġanimate": 23421,
    "Ġkeels": 11060,
    "·": 120,
    "Ġmanly": 22322,
    "bounded": 13437,
    "Ġsignature": 16491,
    "ublic": 11226,
    "comple": 7441,
    "poor": 6061,
    "Ġtooks": 23323,
    "Ġinfluences": 14863,
    "Ġbroadened": 23983,
    "Ġpay": 3968,
    "extrem": 18711,
    "Ġfurnishes": 19439,
    "Ġwinc": 9641,
    "----âĢĿ": 13304,
    "single": 10125,
    "Ġscener": 10948,
    "bringing": 17165,
    "Ġmidst": 7986,
    "Ġsuff": 1305,
    "Ġstreatham": 17447,
    "ancholy": 5070,
    "himself": 3976,
    "Ġargu": 10933,
    "banish": 20781,
    "Ġdeterm": 1270,
    "ishes": 6523,
    "Ġrender": 8305,
    "precious": 12070,
    "Ġkicked": 10580,
    "Ġmuscles": 12086,
    "Ġtrample": 20326,
    "Ġunremitting": 26217,
    "eding": 7165,
    "Ġreliability": 22879,
    "Ġshirt": 8847,
    "highest": 20406,
    "Ġpervading": 20612,
    "Ġconsist": 1935,
    "Ġhunks": 18935,
    "Ġselfish": 7272,
    "dden": 1804,
    "snatched": 24850,
    "ropy": 1101,
    "Ġslaugh": 18937,
    "Ġgums": 21609,
    "Ġcanaller": 25467,
    "Ġconfound": 23301,
    "Ġcommunicate": 10576,
    "Ġinsensible": 12323,
    "Ġanother": 1737,
    "ual": 946,
    "Ġdivided": 8631,
    "wid": 10133,
    "Ġsteps": 2861,
    "Ġfamed": 16323,
    "ording": 9762,
    "Ġpreventing": 882,
    "Ġcontinuously": 23203,
    "Ġfilled": 4395,
    "Ġmalicious": 10556,
    "Ġindestructible": 26571,
    "Ġincreasingly": 9369,
    "carry": 19525,
    "Ġcompanions": 5865,
    "ong": 538,
    "inated": 6804,
    "https": 11682,
    "Ġwrists": 11111,
    "apter": 1193,
    "aping": 8194,
    "Ġentropy": 2030,
    "pierced": 26141,
    "Ġhead": 1125,
    "Ġchoosing": 19589,
    "Ġanat": 8124,
    "Ġsto": 1499,
    "mmar": 952,
    "Ġflattened": 26047,
    "Ġink": 8801,
    "Ġimpulsive": 19961,
    "Ġcounty": 9029,
    "Ġcharmingly": 24220,
    "idays": 21768,
    "Ġnomine": 26455,
    "otted": 14022,
    "Ġleft": 1760,
    "Ġchimer": 24603,
    "Ġremarked": 3694,
    "pent": 3489,
    "Ġscreaming": 13421,
    "Ġimplies": 24873,
    "join": 12111,
    "Ġaccost": 12843,
    "Ġocean": 3302,
    "guessed": 25872,
    "frock": 20119,
    "Ġlifted": 6985,
    "Ġproblems": 2846,
    "Ġneg": 1333,
    "Ġdeliberation": 19967,
    "Ġgloomy": 7504,
    "arched": 10814,
    "police": 10582,
    "solid": 16375,
    "Ġspecimen": 13019,
    "orn": 2244,
    "Ġsoldier": 16919,
    "Ġvisiting": 10360,
    "Ġle": 333,
    "Ġskulls": 12955,
    "inces": 13826,
    "idea": 9299,
    "rock": 15637,
    "agony": 14067,
    "adie": 18088,
    "Ġbatch": 888,
    "fine": 10089,
    "teness": 23202,
    "Ġcrumb": 16439,
    "Ġtens": 17722,
    "Ġsperma": 19047,
    "Ġsituation": 4074,
    "ic": 304,
    "Ġstocks": 23174,
    "Ġextensive": 12942,
    "Ġinterpre": 1587,
    "Ġkitchen": 8495,
    "danger": 10088,
    "Ġsi": 21211,
    "Ġemigrant": 25859,
    "Ġbolted": 12242,
    "joint": 24007,
    "mort": 10709,
    "Ġmes": 17796,
    "aisance": 15072,
    "Ġplank": 7033,
    "Ġcompos": 22567,
    "sticking": 21658,
    "Ġwest": 5219,
    "Ġinduce": 7763,
    "Ġbites": 23741,
    "scruple": 26044,
    "individual": 18436,
    "willingness": 24755,
    "Ġsuffers": 2970,
    "insupportable": 21192,
    "deceit": 25556,
    "Ġpredefined": 20716,
    "Ġcigarette": 20655,
    "ample": 1361,
    "Ġhailing": 11691,
    "Ġdramatic": 4850,
    "Ġrainbows": 19647,
    "Ġretains": 20028,
    "ĠĠĠĠĠĠĠĠĠĠĠĠĠĠĠĠĠĠĠĠĠĠĠĠĠĠĠĠĠĠĠ": 19699,
    "±": 114,
    "excellent": 8044,
    "Ġlodger": 24091,
    "Ġmercenary": 17192,
    "Ġt": 261,
    "Ġattractions": 12912,
    "Ġapprehended": 26091,
    "(-": 2976,
    "Ġcharacters": 9370,
    "Ġmansion": 17809,
    "Ġtar": 2564,
    "Ġdart": 4585,
    "Ġamaze": 22482,
    "length": 7134,
    "returned": 7766,
    "Ġexchanged": 10877,
    "Ġgrasped": 8034,
    "Ġhorn": 6185,
    "Ġcrush": 9420,
    "yl": 7819,
    "Ġstile": 21730,
    "Ġconstru": 19071,
    "Ġcreation": 6439,
    "Ġfurniture": 6476,
    "Ġrossum": 3009,
    "shining": 18492,
    "<EOS>": 2,
    "Ġtrousers": 12413,
    "recognised": 15260,
    "visible": 10532,
    "Ġdashed": 6010,
    "Ġitalian": 12408,
    "Ġstraining": 11326,
    "Ġcolon": 18764,
    "immedi": 8450,
    "light": 3013,
    "Ġmood": 6276,
    "Ġembedding": 2103,
    "apparently": 15202,
    "Ġost": 9648,
    "pedest": 24695,
    "hunter": 10554,
    "Ġambiguous": 20163,
    "alizing": 17939,
    "Ġchemistry": 11459,
    "sure": 5522,
    "Ġdropping": 7483,
    "Ġincor": 2612,
    "Ġodds": 13327,
    "Ġindispensable": 11898,
    "ugal": 19018,
    "persuade": 13531,
    "ugl": 23287,
    "Ġtrust": 4081,
    "Ġoutsk": 15953,
    "Ġalbino": 20501,
    "never": 3151,
    "steel": 8299,
    "Ġmahogany": 20576,
    "ists": 4005,
    "lose": 12878,
    "Ġfreshe": 13067,
    "Ġsax": 10928,
    "Ġjupiter": 17454,
    "Ġlabours": 8582,
    "Ġcoiled": 11818,
    "ified": 3225,
    "Ġcared": 8781,
    "Ġhindoo": 17174,
    "Ġsuddenly": 2649,
    "Ġidentifies": 12012,
    "xes": 21139,
    "pardon": 10063,
    "Ġquies": 18464,
    "Ġimpl": 7195,
    "Ġjoyous": 14662,
    "Ġmode": 8497,
    "Ġessentially": 24924,
    "Ġaint": 17743,
    "Ġdisposition": 5409,
    "control": 16541,
    "Ġconfounded": 16381,
    "Ġevangelist": 20337,
    "ceremony": 20588,
    "Ġlizzy": 3544,
    "Ġartificial": 792,
    "Ġbehold": 5049,
    "Ġconsequent": 18110,
    "ise": 707,
    "skill": 24486,
    "commanded": 16987,
    "Ġrevol": 5536,
    "Ġgiant": 13966,
    "began": 6426,
    "oct": 7554,
    "Ġbeckoned": 25793,
    "importance": 9987,
    "Ġstingy": 25455,
    "Ġwitnesses": 9484,
    "Ġrequ": 799,
    "Ġuntoward": 19164,
    "Ġpermanent": 13629,
    "Ġinnoc": 3795,
    "Ġworker": 23013,
    "Ġfalsely": 20580,
    "proper": 7471,
    "Ġinvulnerable": 19146,
    "Ġconvey": 9979,
    "verize": 21726,
    "Ġsquire": 16179,
    "Ġsplendour": 20223,
    "specim": 23942,
    "grasp": 16428,
    "Ġlungs": 8362,
    "Ġmistress": 8611,
    "Ġmainly": 22647,
    "jephro": 26391,
    "non": 9610,
    "Ġenquired": 21938,
    "Ġweig": 7618,
    "Ġsord": 21218,
    "Ġlaboratory": 13610,
    "Ġemptied": 24346,
    "hroom": 12474,
    "rary": 4575,
    "Ġcleat": 18946,
    "thrill": 25656,
    "esting": 7412,
    "Ġbarricade": 14659,
    "Ġprivilege": 11418,
    "ones": 2743,
    "Ġsat": 1131,
    "Ġvillagers": 19472,
    "Ġcollections": 22857,
    "fortune": 4975,
    "Ġeludes": 26553,
    "Ġmur": 2490,
    "Ġsweeter": 23915,
    "fourths": 25509,
    "Ġlanterns": 24576,
    "Ġsir": 1569,
    "Ġrepentance": 15158,
    "Ġoverall": 4358,
    "Ġmould": 6519,
    "stayed": 25290,
    "Ġdesponding": 25868,
    "Ġwhaler": 7520,
    "Ġunfinished": 19508,
    "Ġdespite": 19351,
    "Ġcasts": 19424,
    "Ġconversations": 9423,
    "Ġprocession": 11773,
    "Ġtranscend": 25667,
    "Ġstrands": 25574,
    "Ġexcurs": 23312,
    "Ġdrunken": 12048,
    "drawing": 10485,
    "Ġperpendicularly": 11373,
    "dancing": 12452,
    "Ġtrip": 16787,
    "Ġaverage": 3138,
    "ior": 2038,
    "Ġredress": 23750,
    "Ġkirwin": 8496,
    "Ġell": 17714,
    "puzzling": 26143,
    "maker": 12490,
    "Ġproductions": 22944,
    "Ġlassitude": 20585,
    "Ġsings": 15503,
    "lascar": 20959,
    "ratches": 20123,
    "Ġunanswerable": 26520,
    "Ġmicha": 17811,
    "Ġincluded": 8929,
    "continue": 16860,
    "Ġrepelled": 19084,
    "despair": 8344,
    "Ġshop": 9250,
    "Ġfoundering": 21418,
    "sixty": 24852,
    "tfordshire": 4811,
    "Ġexp": 778,
    "Ġbeaver": 18085,
    "Ġuncle": 3190,
    "Ġthoroughfares": 26095,
    "Ġstroll": 13350,
    "Ġpeddler": 24800,
    "Ġdiscl": 9795,
    "ney": 2494,
    "tottenham": 25418,
    "Ġministers": 22831,
    "Ġcards": 7580,
    "Ġnearing": 15795,
    "Ġcocks": 18595,
    "Ġpray": 3902,
    "who": 2447,
    "ĠâĢľâĢĺ": 8503,
    "Ġinfall": 7960,
    "Ġaghast": 16044,
    "Ġtru": 4108,
    "Ġassiduous": 26292,
    "Ġparallelization": 3429,
    "Ġparallel": 1414,
    "Ġunknown": 4453,
    "Ġsprang": 5064,
    "Ġscrews": 25177,
    "Ġnecks": 18187,
    "Ġpau": 17908,
    "examination": 25478,
    "Ġtambourine": 9563,
    "Ġadventures": 7748,
    "Ġshilling": 18228,
    "Ġspeeches": 22654,
    "Ġinterrupt": 4359,
    "Ġways": 5396,
    "Ġcanst": 8856,
    "Ġnational": 13940,
    "pents": 11511,
    "Ġbeaten": 10527,
    "Ġtennes": 23548,
    "amples": 1824,
    "etent": 10198,
    "firm": 10697,
    "S": 55,
    "Ġmethodically": 23133,
    "Ġhardship": 18913,
    "Ġsplin": 8618,
    "Ġsalutation": 12395,
    "conjecture": 15120,
    "Ġslip": 8953,
    "Ġsciences": 15942,
    "qualities": 25043,
    "Ġstream": 5186,
    "Ġdeal": 3607,
    "Ġhopelessly": 16373,
    "Ġintimate": 6549,
    "Ġwink": 11567,
    "Ġpermitted": 9276,
    "Ġtablets": 13153,
    "pense": 10367,
    "conc": 3952,
    "pans": 13768,
    "promote": 24727,
    "Ġshar": 9248,
    "conceivable": 17129,
    "Ġorphans": 20203,
    "Ġsphynx": 20711,
    "prep": 9757,
    "Ġwrap": 24595,
    "Ġdefy": 11895,
    "Ġmultiplied": 23689,
    "Ġthinner": 24181,
    "appro": 7044,
    "beth": 13686,
    "Ġ37": 24077,
    "Ġcreases": 22720,
    "Ġappeals": 16312,
    "Ġoriental": 9095,
    "simultaneously": 19863,
    "Ġtint": 13815,
    "knell": 24554,
    "commotion": 24913,
    "Ġaverages": 2398,
    "Ġwitt": 17783,
    "scent": 13017,
    "Ġchild": 2262,
    "Ġtrooped": 24899,
    "ray": 2439,
    "Ġlingu": 11613,
    "securer": 25602,
    "Ġrelief": 6060,
    "Ġwolves": 25934,
    "smoke": 17221,
    "Ġunreserved": 19395,
    "lik": 3918,
    "bread": 10683,
    "Ġdisappoint": 24204,
    "Ġlays": 15986,
    "islanders": 25442,
    "Ġbowl": 11203,
    "Ġplaited": 14281,
    "interruption": 20110,
    "Ġsullenly": 17171,
    "caroline": 24148,
    "didn": 9005,
    "Ġabide": 14186,
    "Ġassistant": 7298,
    "Ġprosper": 10227,
    "hurriedly": 25510,
    "Ġrichness": 19310,
    "Ġdears": 18139,
    "Ġlizard": 12650,
    "Ġjealousy": 13574,
    "Ġbackwoods": 22651,
    "Ġdun": 6673,
    "Ġtrif": 6268,
    "irons": 10237,
    "Ġpossibility": 7458,
    "orus": 10800,
    "Ġfrenchman": 11282,
    "Ġtale": 5142,
    "tles": 10729,
    "Ġlacey": 10196,
    "Ġraise": 6166,
    "Ġpagoda": 19787,
    "Ġaspire": 21898,
    "bes": 6641,
    ":": 30,
    "Ġglobular": 19009,
    "Ġconsiderations": 9408,
    "Ġsmoothed": 23658,
    "Ġtricks": 13482,
    "Ġreported": 11976,
    "afric": 19178,
    "Ġsuffoc": 18869,
    "Ġtist": 21161,
    "appears": 12058,
    "iple": 4806,
    "Ġdiscours": 18718,
    "locks": 14454,
    "Ġbrilliantly": 25120,
    "bergen": 14324,
    "Ġunlo": 22008,
    "Ġthird": 4188,
    "Ġvancou": 22874,
    "umnal": 18300,
    "imaux": 21710,
    "Ġmarrying": 6177,
    "rights": 23674,
    "dish": 12450,
    "Ġlanguage": 637,
    "Ġcloudless": 16667,
    "Ġtranquillity": 7536,
    "Ġhas": 825,
    "Ġstrewed": 23420,
    "isf": 2437,
    "Ġtaller": 16687,
    "Ġdreamt": 23936,
    "Ġyore": 21776,
    "ection": 4948,
    "Ġattacks": 12202,
    "Ġdeeds": 15755,
    "ool": 17617,
    "movement": 25577,
    "Ġimparted": 15985,
    "atum": 21258,
    "spirited": 19752,
    "carriage": 9944,
    "reduc": 5459,
    "Ġcommerce": 11014,
    "Ġdocks": 14176,
    "ufactured": 15179,
    "Ġseals": 11693,
    "investments": 25532,
    "ician": 21563,
    "Ġhabitu": 19527,
    "vex": 21696,
    "fain": 13713,
    "poverty": 22907,
    "quickly": 14960,
    "unusual": 21877,
    "published": 26142,
    "Ġcrocod": 19627,
    "Ġdutch": 6327,
    "Ġnasty": 17441,
    "andering": 21865,
    "lotts": 23823,
    "feet": 6568,
    "Ġawakened": 10452,
    "estruct": 22221,
    "Ġprofits": 16487,
    "Ġclerval": 4653,
    "Ġshouts": 19536,
    "Ġinvented": 17036,
    "Ġguarded": 9824,
    "Ġoat": 21321,
    "Ġweb": 9238,
    "Ġinland": 11607,
    "months": 9070,
    "Ġabruptly": 15148,
    "jee": 17578,
    "Ġscandinav": 19959,
    "Ġgirth": 13133,
    "Ġcontinental": 19704,
    "Ġapple": 14167,
    "Ġdams": 16455,
    "sence": 3305,
    "Ġvestibule": 13535,
    "Ġreus": 8820,
    "Ġaxis": 12305,
    "faces": 13718,
    "Ġbecalmed": 18086,
    "Ġbour": 4876,
    "Ġshowers": 16604,
    "mole": 22699,
    "Ġensued": 11393,
    "ost": 5360,
    "Ġpythag": 26447,
    "Ġknee": 7093,
    "mastod": 23972,
    "Ġdomestic": 6910,
    "Ġbennets": 9804,
    "orrowed": 19289,
    "tering": 3807,
    "Ġscrutiny": 26015,
    "Ġwand": 4341,
    "ault": 2308,
    "ooped": 17622,
    "streets": 13393,
    "Ġtranqu": 4604,
    "effectually": 25128,
    "utored": 15659,
    "Ġomen": 11574,
    "oved": 5215,
    "Ġclass": 780,
    "Ġperhaps": 1912,
    "shish": 11791,
    "Ġgetting": 4068,
    "_:": 17477,
    "Ġconcerning": 4071,
    "Ġvon": 14079,
    "Ġbitterly": 8315,
    "Ġcompassionate": 24723,
    "Ġork": 18284,
    "Ġunreliable": 3932,
    "ĠĠĠĠĠĠĠĠĠĠĠĠĠĠĠĠ": 1220,
    "Ġther": 17777,
    "Ġundisturbed": 19518,
    "corner": 13395,
    "Ġcapsized": 20088,
    "Ġreadability": 2726,
    "oppressed": 24824,
    "barn": 17481,
    "Ġreminding": 19796,
    "sincerely": 24585,
    "Ġconjectures": 16924,
    "Ġeber": 18003,
    "Ġcorrespondent": 19821,
    "Ġcanvassed": 19933,
    "mund": 13756,
    "icirc": 15652,
    "Ġtattooing": 15026,
    "ailing": 7021,
    "Ġelastic": 4361,
    "ĠĠĠ": 2115,
    "Ġtail": 3088,
    "iless": 10280,
    "Ġcompromising": 22571,
    "ces": 579,
    "Ġsystems": 791,
    "Ġhumming": 12981,
    "Ġhanover": 20584,
    "itia": 11577,
    "Ġuncont": 14114,
    "Ġvir": 7001,
    "Ġpromised": 5181,
    "Ġroute": 11380,
    "Ġmans": 15533,
    "Ġwholly": 4447,
    "Ġscenari": 22290,
    "buttoned": 13630,
    "Ġunp": 12768,
    "considered": 9579,
    "Ġpass": 1040,
    "second": 6543,
    "Ġlysander": 13136,
    "Ġslackened": 15124,
    "Ġpennies": 17269,
    "Ġstill": 1158,
    "excuse": 13379,
    "Ġ}": 21152,
    "Ġweight": 657,
    "Ġeffect": 971,
    "rist": 10121,
    "Ġcash": 9651,
    "ptember": 10892,
    "enchant": 21282,
    "Ġbuy": 8300,
    "Ġwealth": 7620,
    "quar": 7615,
    "occurred": 13335,
    "rayed": 23562,
    "deprived": 19897,
    "Ġindebted": 8707,
    "Ġkicks": 19767,
    "Ġbenevolent": 7773,
    "accidents": 19211,
    "Ġstreamed": 14546,
    "Ġinquired": 7485,
    "sle": 9137,
    "Ġdynamic": 5122,
    "Ġcompass": 4409,
    "ivot": 11716,
    "Ġrepugnance": 19085,
    "Ġsuffered": 5649,
    "Ġspect": 3550,
    "dro": 6644,
    "icilian": 20690,
    "ignorance": 17160,
    "lighted": 23752,
    "Ġcontribut": 12855,
    "Ġmichigan": 26425,
    "Ġvicissitudes": 12417,
    "Ġbaw": 15565,
    "Ġmail": 17800,
    "definition": 23116,
    "Ġwaited": 4908,
    "Ġharder": 14447,
    "blending": 24128,
    "Ġguinea": 8946,
    "bs": 3749,
    "Ġbottomless": 12104,
    "ivered": 7005,
    "Ġpistols": 17327,
    "Ġcultivated": 17362,
    "embedding": 20703,
    "Ġstructure": 841,
    "drew": 7334,
    "tart": 21066,
    "to": 714,
    "Ġbrighton": 6470,
    "Ġinflexibly": 26370,
    "Ġpatentee": 25586,
    "Ġunfolding": 17085,
    "ikes": 8087,
    "Ġapiece": 16812,
    "Ġsimpler": 2047,
    "Ġhell": 5019,
    "Ġpulpit": 7470,
    "Ġbravely": 23836,
    "itable": 5437,
    "Ġquieted": 23840,
    "Ġfile": 13901,
    "Ġliberties": 19666,
    "alot": 15622,
    "cowardly": 25749,
    "Ġsimpl": 1578,
    "Ġtowering": 16738,
    "Ġmeal": 9695,
    "Ġtashtego": 4487,
    "Ġbru": 13893,
    "Ġstubbornness": 25380,
    "Ġseasonable": 24405,
    "Ġpulling": 5862,
    "Ġcongeal": 25980,
    "Ġsteelkilt": 5675,
    "practised": 20246,
    "Ġembod": 14417,
    "Ġattacking": 24464,
    "Ġsta": 18062,
    "Ġburly": 19249,
    "Ġshovel": 23492,
    "Ġdolph": 12378,
    "protruding": 24816,
    "disappo": 8983,
    "Ġcontradicted": 20210,
    "Ġaccelerate": 23226,
    "ieties": 19021,
    "ĺ": 251,
    "Ġmeekly": 26489,
    "Ġtimidly": 11337,
    "ricted": 15418,
    "ortment": 22255,
    "bold": 17486,
    "cop": 20800,
    "delivered": 24100,
    "Ġopportunities": 19248,
    "wick": 5362,
    "Ġnich": 21518,
    "Ġcommonly": 3262,
    "Ġlibraries": 20613,
    "Ġirrespective": 23373,
    "Ġhomeless": 23385,
    "Ġdollar": 25283,
    "conda": 18993,
    "Ġsur": 2184,
    "Ġim": 475,
    "li": 1187,
    "Ġposs": 1613,
    "faith": 15023,
    "Ġmodels": 760,
    "se": 358,
    "Ġeconomy": 17199,
    "Ġsorrow": 4628,
    "deserted": 18958,
    "Ġadversary": 12171,
    "generally": 9433,
    "Ġembarks": 22995,
    "Ġrosy": 18459,
    "Ġvirt": 3910,
    "Ġrealism": 18984,
    "Ġindignantly": 16938,
    "Ġbled": 17856,
    "Ġpretensions": 16556,
    "herfield": 3629,
    "Ġloathsome": 13526,
    "rible": 3226,
    "observation": 17268,
    "neighbour": 7211,
    "Ġcostume": 16493,
    "Ġgall": 4351,
    "Ġfrank": 4420,
    "tuesday": 17689,
    "Ġfertile": 20581,
    "Ġisle": 8831,
    "paused": 17372,
    "Ġaudience": 24769,
    "unsupervised": 10888,
    "Ġmonsieur": 12419,
    "must": 3577,
    "Ġadd": 630,
    "ologist": 22869,
    "Ġexciting": 23310,
    "Ġsemantics": 2893,
    "othic": 16213,
    "bl": 4143,
    "Ġtracks": 18890,
    "Ġthrusts": 24349,
    "Ġgomorrah": 21613,
    "Ġtreatment": 12069,
    "Ġlighting": 13080,
    "Ġpoker": 13920,
    "Ġwrapt": 24596,
    "saved": 15429,
    "Ġbrazier": 26320,
    "master": 5687,
    "Ġalb": 14014,
    "Ġshort": 2228,
    "fur": 6355,
    "tears": 11036,
    "brown": 15315,
    "Ġosc": 2833,
    "Ġvigorous": 10565,
    "Ġbarbaric": 10012,
    "Ġdread": 3162,
    "Ġdwell": 5812,
    "Ġwight": 12550,
    "Ġcautious": 12251,
    "Ġinexpressible": 17331,
    "inate": 6233,
    "living": 7133,
    "uits": 21103,
    "heaved": 21209,
    "Ġjovial": 19233,
    "etency": 21580,
    "ife": 1025,
    "Ġtrous": 10955,
    "fleece": 19946,
    "Ġwronged": 24246,
    "waves": 10741,
    "Ġclients": 19730,
    "Ġmont": 8557,
    "Ġremarks": 7474,
    "!âĢĶâĢĻ": 23564,
    "Ġexpanding": 25238,
    "allowed": 5728,
    "ang": 444,
    "Ġcruc": 16533,
    "Ġmassacre": 20546,
    "short": 6566,
    "softened": 20408,
    "Ġreceipt": 20354,
    "Ġsched": 2337,
    "header": 11931,
    "Ġobeisance": 19757,
    "Ġimpenet": 14218,
    "frequent": 15351,
    "article": 22392,
    "mutually": 26136,
    "language": 5129,
    "circumstances": 8047,
    "Ġpleasure": 2696,
    "Ġberyl": 20488,
    "Ġanaly": 1104,
    "Ġbashful": 20418,
    "eldom": 4414,
    "Ġstratag": 26028,
    "Ġminers": 22830,
    "mansion": 20982,
    "oured": 2673,
    "metallic": 19879,
    "games": 20879,
    "Ġottoman": 17376,
    "Ġabsorbed": 12329,
    "Ġvisits": 8224,
    "gans": 11488,
    "fif": 9115,
    "Ġdistension": 22502,
    "Ġpockets": 8894,
    "Ġfashionable": 19543,
    "anely": 17836,
    "Ġslightly": 7293,
    "Ġate": 8838,
    "Ġsepar": 4004,
    "Ġmarked": 4619,
    "considerable": 10547,
    "Ġintellect": 8170,
    "Ġphaet": 16314,
    "perhaps": 4124,
    "mere": 11853,
    "Ġsealed": 15812,
    "Ġjustine": 4970,
    "describe": 1512,
    "Ġpower": 1190,
    "Ġpork": 21456,
    "main": 8088,
    "X": 60,
    "Ġagrippa": 11804,
    "Ġbounty": 26436,
    "Ġ1894": 5196,
    "Ġmeet": 2803,
    "necess": 4896,
    "behold": 12874,
    "Ġsolicitude": 10038,
    "Ġmerchant": 6467,
    "Ġrallied": 14093,
    "derness": 11735,
    "Ġfortunes": 12176,
    "Ġfun": 524,
    "Ġopp": 2698,
    "Ġgreenhorn": 23767,
    "ane": 1178,
    "Ġcompliance": 12112,
    "Ġcaution": 11345,
    "rifled": 21046,
    "umbled": 8492,
    "rily": 7621,
    "Ġmeantime": 6206,
    "Ġtone": 4042,
    "Ġsoo": 15857,
    "Ġvocabulary": 4995,
    "aks": 8506,
    "Ġinterruption": 9471,
    "Ġlane": 5627,
    "----âĢĻ": 24096,
    "ounds": 4159,
    "teringly": 21821,
    "lively": 12482,
    "unavoidable": 17388,
    "Ġunceasing": 20356,
    "Ġseem": 915,
    "Ġcomo": 21840,
    "mut": 17594,
    "85": 13679,
    "Ġneuron": 1808,
    "dared": 13700,
    "Ġchas": 18379,
    "Ġwhilst": 9217,
    "Ġgame": 3627,
    "Ġmomentous": 16166,
    "Ġsupremacy": 20259,
    "Ġrepeated": 3831,
    "pra": 15405,
    "Ġaid": 6122,
    "Ġmines": 21307,
    "Ġnumerous": 6920,
    "Ġindulgence": 11318,
    "mews": 22713,
    "house": 4079,
    "hend": 13249,
    "Ġdeclaring": 19418,
    "Ġdetermine": 3243,
    "Ġselling": 21223,
    "plain": 1356,
    "ppo": 18175,
    "bear": 10314,
    "Ġkuiperai": 10934,
    "Ġfootman": 8288,
    "Ġusher": 22211,
    "wondering": 19844,
    "Ġbankrupt": 16795,
    "Ġmust": 844,
    "Ġfeat": 10936,
    "hateful": 20908,
    "£": 101,
    "Ġsmile": 4272,
    "touching": 15089,
    "Ġpre": 507,
    "Ġnapkins": 25161,
    "ounded": 9746,
    "houn": 20892,
    "dun": 17515,
    "Ê": 139,
    "Ġswimmer": 19457,
    "hammer": 14488,
    "Ġresulting": 24197,
    "Ġencl": 16163,
    "Ġdecreasing": 2445,
    "shall": 4550,
    "Ġwallet": 21297,
    "Ġguise": 14430,
    "Ġdissipate": 13631,
    "Ġminded": 23230,
    "totally": 25417,
    "down": 3466,
    "Ġrussia": 26267,
    "Ġwarn": 5695,
    "Ġriggers": 24155,
    "ulatory": 15763,
    "Ġvexatious": 19780,
    "Ġwow": 15526,
    "saddest": 25527,
    "capital": 15086,
    "imprisonment": 23760,
    "drink": 10594,
    "Ġextracted": 16325,
    "urday": 13993,
    "Ġrolls": 8334,
    "Ġceler": 15547,
    "undant": 14790,
    "Ġ118": 19697,
    "Ġmatrimonial": 25489,
    "zealand": 26052,
    "Ġrecumbent": 22738,
    "Ġveins": 8931,
    "latitude": 25259,
    "erate": 7149,
    "throw": 14096,
    "revolver": 25627,
    "theories": 18078,
    "influence": 13576,
    "Ġhart": 17921,
    "unks": 15771,
    "hum": 3776,
    "mean": 6438,
    "innocent": 20285,
    "deficient": 23115,
    "Ġoverflowing": 17236,
    "Ġgen": 5296,
    "impressions": 20697,
    "Ġinstance": 2546,
    "Ġcosy": 13128,
    "â": 163,
    "change": 6392,
    "Ġdupl": 9952,
    "Ġdedication": 3100,
    "Ġpastures": 23418,
    "Ġtent": 15465,
    "Ġlining": 13949,
    "Ġtravellers": 11307,
    "Ġstars": 6149,
    "Ġtons": 11548,
    "Ġbene": 2031,
    "Ġbeamed": 23720,
    "Ġital": 10865,
    "Ġwidth": 16771,
    "Ġaugment": 8691,
    "Ġstrikes": 13179,
    "ome": 535,
    "Ġpained": 19166,
    "Ġfling": 9659,
    "Ġter": 2050,
    "admirably": 24944,
    "Ġdisplayed": 10607,
    "Ġdanger": 3517,
    "isp": 5528,
    "Ġdeadly": 5405,
    "Ġdistinctly": 7311,
    "ships": 5486,
    "Ġfood": 5080,
    "punishment": 15143,
    "Ġdependent": 14296,
    "yet": 3752,
    "Ġpathetic": 19029,
    "ann": 5802,
    "english": 2774,
    "ullen": 8235,
    "Ġshipped": 9713,
    "Ġunf": 4091,
    "Ġharp": 17923,
    "Ġdesert": 6727,
    "Ġindispens": 22952,
    "urp": 1472,
    "Ġentailed": 11025,
    "Ġhaz": 12751,
    "Ġsighs": 22707,
    "Ġ8": 5433,
    "Ġxiv": 23406,
    "Ġmemo": 18119,
    "Ġsoda": 25534,
    "Ġfunction": 593,
    "Ġwashington": 17201,
    "about": 3586,
    "Ġsole": 3296,
    "odiac": 14027,
    "Ġnoblest": 13239,
    "Ġdoub": 1839,
    "âĢĶâĢĿ": 3298,
    "lemency": 21372,
    "limp": 20951,
    "Ġduplicates": 17215,
    "Ġinterior": 8893,
    "tled": 3455,
    "Ġ180": 16605,
    "Ġgour": 21596,
    "Ġgallons": 14816,
    "Ġtus": 10748,
    "lected": 1635,
    "comb": 11037,
    "Ġinverted": 12633,
    "load": 12877,
    "Ġsecrets": 9053,
    "Ġpuzz": 5532,
    "Ġram": 11013,
    "queness": 18147,
    "Ġlightness": 23259,
    "cousin": 10651,
    "Ġdetermination": 9817,
    "Ġincredulity": 11310,
    "Ġprocessing": 875,
    "Ġintact": 21987,
    "Ġpol": 2577,
    "shabbily": 26246,
    "Ġburned": 8630,
    "Ġbumpkins": 25281,
    "contracting": 19293,
    "Ġalle": 11665,
    "desolate": 25703,
    "Ġfet": 5807,
    "Ġscandal": 9080,
    "queequeg": 4334,
    "Ġmetropolis": 17273,
    "Ġswashing": 23054,
    "Ġbehaves": 23298,
    "Ġthackeray": 26454,
    "Ġdiscreet": 16480,
    "clearer": 24067,
    "surface": 10529,
    "Ġsurvey": 13591,
    "etts": 12656,
    "Ġvalley": 5850,
    "Ġsoldiers": 8686,
    "Ġtrowsers": 9626,
    "mountains": 15178,
    "Ġprogressive": 5024,
    "Ġmountainous": 16598,
    "Ġburn": 3682,
    "Ġremarking": 13122,
    "effort": 19213,
    "web": 18664,
    "Ġintu": 12759,
    "rece": 21233,
    "Ġreaching": 7303,
    "Ġdeclaration": 16635,
    "giana": 7801,
    "isc": 6239,
    "supplied": 10518,
    "coast": 10448,
    "Ġdisordered": 16052,
    "drown": 13702,
    "Ġcoachman": 14999,
    "seriously": 18904,
    "Ġinstructions": 11194,
    "ecess": 17531,
    "Ġterm": 2268,
    "Ġhymn": 24517,
    "creature": 5346,
    "Ġexacted": 23602,
    "moon": 10334,
    "Ġblanket": 8343,
    "Ġgallop": 19554,
    "rap": 21626,
    "Ġinconceivable": 17937,
    "Ġwood": 2293,
    "Ġmermaid": 17813,
    "Ġindecision": 25781,
    "ulated": 6030,
    "iousness": 4899,
    "Ġfishe": 15582,
    "nour": 20987,
    "uplifted": 17694,
    "possible": 5743,
    "Ġconveniently": 20077,
    "Ġholy": 6591,
    "Ġdisposing": 19373,
    "Ġhyperborean": 26339,
    "Ġhouse": 1502,
    "han": 12470,
    "othed": 16509,
    "Ġdecaying": 2248,
    "Ġhilarious": 20297,
    "homely": 25617,
    "Ġindomitableness": 26570,
    "lessly": 4556,
    "Ġvary": 15804,
    "Ġfierceness": 26265,
    "Ġsquee": 7929,
    "Ġemblazonings": 26046,
    "Ġploughing": 26259,
    "oyed": 14363,
    "Ġtriumphal": 24370,
    "others": 7670,
    "Ġforming": 7042,
    "Ġinsufficient": 9671,
    "Ġ40": 14767,
    "Ġtimes": 2304,
    "Ġagony": 5388,
    "Ġcommonplace": 11095,
    "useness": 22280,
    "Ġdist": 680,
    "Ġinitials": 11012,
    "overed": 2851,
    "esley": 17902,
    "ierce": 14389,
    "curious": 10481,
    "Ġabsorb": 25112,
    "reflected": 24733,
    "Ġcleaning": 23178,
    "Ġsubsided": 14550,
    "bony": 15317,
    "Ġdetective": 14403,
    "Ġbeginning": 4244,
    "Ġterrific": 6754,
    "Ġimpenitent": 26547,
    "ep": 442,
    "accounted": 16500,
    "Ġswells": 9825,
    "aren": 10072,
    "beries": 22715,
    "Ġpersisted": 13033,
    "Ġinert": 15618,
    "Ġslugg": 15266,
    "Ġconveys": 16854,
    "Ġcord": 5222,
    "hilar": 25081,
    "Ġjustinian": 22965,
    "supposed": 13313,
    "ittle": 811,
    "Ġhistorically": 19376,
    "Ġopposed": 11187,
    "ik": 17570,
    ",âĢĶâĢľ": 10068,
    "Ġalbatross": 10870,
    "Ġinfallibly": 10039,
    "Ġconsumm": 15152,
    "Ġcircumn": 11981,
    "Ġsaturation": 2061,
    "relics": 24013,
    "Ġanatomical": 15074,
    "support": 9468,
    "ines": 673,
    "Ġbran": 5251,
    "isions": 6130,
    "reve": 12536,
    "Ġexhilarating": 26337,
    "assured": 10951,
    "Ġsubs": 2131,
    "Ľ": 254,
    "Ġlard": 13945,
    "feed": 9291,
    "Ġfuture": 1114,
    "Ġvisit": 2584,
    "done": 6500,
    "friendly": 13282,
    "ven": 779,
    "Ġcommand": 3320,
    "Ġcentrally": 23829,
    "Ġscott": 22284,
    "Ġdeny": 7488,
    "Ġsaved": 6690,
    "Ġdinners": 23980,
    "Ġappointment": 10645,
    "landsmen": 25059,
    "restored": 18979,
    "rippa": 11340,
    "į": 240,
    "cerem": 15674,
    "Ġthat": 335,
    "Ġlip": 6532,
    "Ġann": 4490,
    "Ġcathedral": 17411,
    "Ġbare": 6132,
    "pard": 9617,
    "te": 996,
    "Ġhave": 446,
    "poises": 11887,
    "Ġlead": 3520,
    "Ġfails": 13311,
    "ctu": 5088,
    "Ġzeal": 9096,
    "bles": 7017,
    "elop": 1526,
    "Ġimproved": 7655,
    "peasant": 23109,
    "dimens": 2318,
    "Ġshared": 10262,
    "Ġreporting": 24657,
    "Ġdescribed": 6606,
    "Ġjeopardy": 13594,
    "Ġoversampling": 20514,
    "Ġfamiliarity": 16728,
    "Ġfocused": 16338,
    "Ġimpossibility": 20646,
    "vacancies": 25919,
    "Ġswayed": 15046,
    "P": 52,
    "ware": 3940,
    "Ġmuster": 16119,
    "coffin": 10661,
    "Ġspade": 9257,
    "Ã¦": 4337,
    "tumultuous": 20397,
    "local": 22507,
    "Ġconn": 9228,
    "Ġpetticoat": 15293,
    "Ġoffended": 7040,
    "imper": 13995,
    "Ġvulgar": 13602,
    "hors": 9597,
    "Ġwhaleboats": 18478,
    "Ġfrock": 10488,
    "Ġattendance": 12179,
    "rop": 541,
    "abashed": 21790,
    "Ġgraphs": 25463,
    "Ġbranded": 14377,
    "Ġpalpable": 15204,
    "res": 2759,
    "Ġblot": 9810,
    "Ġherein": 16188,
    "Ġachieve": 3672,
    "expose": 23663,
    "augment": 18829,
    "act": 785,
    "Ġkiss": 8183,
    "pulled": 25145,
    "Ġtimorous": 24224,
    "Ġgle": 7859,
    "ouder": 17900,
    "Ġhues": 21487,
    "rifle": 21045,
    "Ġabundance": 17154,
    "rin": 10120,
    "because": 4923,
    "Ġconciliating": 19046,
    "Ġflapped": 23009,
    "Ġrecognise": 12040,
    "Ġhumane": 11882,
    "Ġreplay": 5047,
    "law": 6115,
    "Ġcontemplated": 13462,
    "Ġplumage": 17296,
    "col": 3102,
    "Ġattractive": 25575,
    "Ġjustification": 22964,
    "Ġsuburban": 17344,
    "ibly": 2992,
    "Ġcreat": 1397,
    "nay": 7135,
    "erm": 786,
    "``": 15304,
    "permission": 15900,
    "Ġwished": 3727,
    "Ġsurmise": 12293,
    "aph": 10953,
    "isson": 23460,
    "Ġdidst": 11847,
    "Ġluxuries": 25163,
    "Ġcheat": 19017,
    "Ġerected": 12231,
    "Ġsulky": 13513,
    "Ġenhancement": 23764,
    "suff": 4961,
    "Ġodd": 6624,
    "Ġproble": 1110,
    "squeezing": 25913,
    "ign": 1701,
    "Ġmealy": 18120,
    "bur": 4686,
    "Ġcustomary": 8669,
    "sleet": 20148,
    "andam": 10887,
    "Ġunsatisfied": 22040,
    "Ġency": 21931,
    "Ġsymphony": 26531,
    "Ġger": 21589,
    "Ġquality": 3525,
    "Ġlookest": 22711,
    "Ġample": 11796,
    "Ġtragedy": 10666,
    "much": 3704,
    "prior": 21031,
    "Ġapproaching": 6283,
    "Ġsinister": 8568,
    "Ġhigher": 1820,
    "Ġretrie": 10381,
    "velope": 17700,
    "Ġjoined": 4564,
    "Ġidler": 16401,
    "elag": 12654,
    "Ġaudible": 19880,
    "eye": 6224,
    "Ġrucastles": 18721,
    "protection": 19919,
    "Ġregard": 3065,
    "Ġjewelled": 20182,
    "Ġminuteness": 19138,
    "Ġwreak": 16816,
    "unctions": 18155,
    "Ġtrump": 8195,
    "quietude": 24655,
    "jur": 17577,
    "Ġdisagree": 22530,
    "Ġshallow": 14392,
    "Ġtastes": 15475,
    "luc": 9750,
    "confidential": 25876,
    "Ġfifth": 11256,
    "Ġwinding": 8236,
    "acceler": 23597,
    "Ġcor": 1324,
    "Ġexcl": 3471,
    "fanc": 20863,
    "Ġrandomly": 1921,
    "etieth": 21582,
    "Ġpantry": 20294,
    "Ġlif": 10194,
    "tained": 4406,
    "Ġinclination": 6623,
    "jer": 12478,
    "extending": 22769,
    "...": 24548,
    "Ġfootmarks": 19336,
    "Ġrepressed": 21666,
    "handedness": 24920,
    "Ġamusing": 11798,
    "wishes": 13805,
    "Ġdisturbance": 15011,
    "Ġaccompl": 5167,
    "screen": 22992,
    "whom": 8185,
    "Ġpresumably": 19623,
    "enter": 7858,
    "Ġthoroughly": 8348,
    "¶": 119,
    "Ġcoefficient": 2882,
    "oing": 15399,
    "Ġtranquo": 14841,
    "Ġredundant": 16549,
    "together": 3555,
    "Ġdagger": 21436,
    "Ġgodlike": 23362,
    "Ġgrateful": 7660,
    "Ġthistle": 21914,
    "invested": 17116,
    "nurtured": 25524,
    "Ġconstruct": 23341,
    "Ġbrain": 2087,
    "walking": 9980,
    "Ġnose": 4403,
    "sense": 11522,
    "serpent": 16289,
    "laugh": 10107,
    "des": 1565,
    "archical": 1926,
    "Ġglimpses": 13430,
    "ears": 20844,
    "Ġprovince": 24188,
    "surd": 6934,
    "Ġdiabolically": 25513,
    "dem": 10690,
    "Ġlibrary": 6423,
    "anct": 21356,
    "rity": 13774,
    "desper": 13066,
    ".": 18,
    "Ġmiscellaneous": 17461,
    "ridge": 9495,
    "Ġblankness": 24611,
    "Ġarithmetic": 18338,
    "Ġnecessity": 7296,
    "Ġconsort": 18723,
    "Ġflashing": 13024,
    "Ġhungry": 10531,
    "orum": 12587,
    "Ġpalm": 10512,
    "Ġnone": 3221,
    "consol": 9760,
    "Ġriverside": 25247,
    "othing": 6995,
    "greeting": 24553,
    "Ġdeact": 18138,
    "Ġcranes": 20381,
    "screwed": 17186,
    "Ġlongbourn": 3506,
    "corners": 17366,
    "Ġofficious": 19346,
    "Ġid": 1910,
    "Ġlabelled": 23327,
    "Ġunexpected": 6841,
    "Ġexternal": 8365,
    "Ġhemp": 9214,
    "cil": 8720,
    "converse": 22473,
    "Ġexpert": 18870,
    "moid": 2451,
    "calcul": 12983,
    "Ġye": 900,
    "Ġtransformations": 3481,
    "Ġbreaches": 14518,
    "imp": 3030,
    "Ġcontinually": 5042,
    "Ġrenounce": 19466,
    "Ġostentatiously": 20467,
    "speak": 5504,
    "jol": 20924,
    "wherefore": 19108,
    "Ġrecover": 9789,
    "lacing": 17589,
    "Ġvariants": 1791,
    "Ġmists": 14629,
    "Ġutility": 23514,
    "Ġderive": 10393,
    "prepar": 22465,
    "matters": 14872,
    "turbable": 24530,
    "inea": 7623,
    "Ġlodgings": 8312,
    "Ġoblique": 20168,
    "Ġgrandeur": 8627,
    "Ġtroubled": 6615,
    "doubtless": 17001,
    "islands": 21374,
    "Ġoverwhelm": 25052,
    "Ġlastly": 16202,
    "Ġcassock": 20485,
    "Ġvol": 4191,
    "Ġmutters": 23954,
    "irth": 5634,
    "Ġepo": 21619,
    "bling": 10077,
    "Ġcachalot": 17834,
    "Ġhaws": 21949,
    "redit": 3878,
    "Ġdashes": 21433,
    "Ġpout": 17906,
    "oam": 8751,
    "Ġreveal": 11198,
    "anyth": 5438,
    "Ġin": 291,
    "Ġwoman": 2385,
    "Ġcom": 367,
    "Ġz": 1000,
    "================================": 5671,
    "uncont": 15770,
    "ulent": 21858,
    "Ġolder": 9325,
    "Ġobliterated": 17403,
    "Ġintens": 7003,
    "Ġplough": 18608,
    "Ġunaccountable": 7888,
    "Ġatt": 775,
    "Ġcigaret": 16975,
    "Ġfamiliar": 5511,
    "Ġanticipating": 17057,
    "neglect": 25668,
    "latter": 15380,
    "Ġmentioned": 4329,
    "Ġstrongest": 11134,
    "Ġspo": 6846,
    "Ġpiteous": 17917,
    "Ġcollege": 11423,
    "Ġimpertin": 6933,
    "Ġcashier": 20197,
    "socket": 22724,
    "Ġslay": 16303,
    "ertain": 1206,
    ",*": 17470,
    "sof": 17656,
    "Ġmeaning": 1415,
    "Ġcottage": 4734,
    "Ġrecognised": 8994,
    "Ġshel": 6847,
    "Ġdin": 3624,
    "crawling": 16957,
    "Ġprofited": 19190,
    "Ġintruding": 21989,
    "ceptibly": 22355,
    "rooms": 10431,
    "Ġsinews": 20286,
    "alone": 10182,
    "enstern": 17781,
    "Ġstrateg": 1405,
    "Ġblushed": 12998,
    "derick": 22160,
    "olet": 13764,
    "Ġundulates": 24118,
    "Ġappetite": 12382,
    "antucket": 2647,
    "Ġnames": 4533,
    "Ġmuttering": 10498,
    "Ġpractically": 13103,
    "Åĵuvre": 25887,
    "bulkington": 19924,
    "Ġafter": 870,
    "alarmed": 21501,
    "Ġdisaster": 12883,
    "Ġsmack": 9298,
    "Ġadvised": 16205,
    "Ġgin": 13959,
    "Ġinequal": 21495,
    "Ġunfit": 14785,
    "Ġpours": 17911,
    "Ġscaled": 2105,
    "Ġvowed": 14082,
    "Ġforehead": 5261,
    "onent": 21247,
    "halloa": 17089,
    "throne": 25657,
    "Ġsling": 21219,
    "astic": 1869,
    "Ġconnectivity": 3666,
    "Ġstumped": 24942,
    "telesc": 22814,
    "Ġvacant": 9493,
    "20": 20752,
    "abroad": 18108,
    "Ġgrap": 11705,
    "Ġpagan": 7117,
    "certain": 3675,
    "Ġimpressive": 14998,
    "Ġautomatically": 3863,
    "Ġprosperity": 20256,
    "Ġkick": 5837,
    "Ġbottles": 16568,
    "patched": 17642,
    "Ġlandlord": 5580,
    "rugg": 15895,
    "Ġunwritten": 22030,
    "Ġilluminated": 20174,
    "Ġ71": 24258,
    "Ġprudent": 9184,
    "Ġsig": 868,
    "violent": 14579,
    "Ġfamiliarly": 11302,
    "Ġgpt": 4350,
    "watching": 16929,
    "Ġburnished": 23996,
    "Ġpreser": 6041,
    "ives": 1409,
    "ğ": 224,
    "Ġlightly": 13081,
    "oof": 15403,
    "esy": 9181,
    "Ġhellish": 10549,
    "Ġ5": 4935,
    "Ġmild": 4149,
    "ousand": 2432,
    "thoughts": 9933,
    "aspect": 10192,
    "watch": 6118,
    "Ġvain": 3628,
    "Ġtow": 4396,
    "Ġbelrive": 18831,
    "Ġintervening": 17266,
    "_?âĢĿ": 15303,
    "Ġtied": 7357,
    "Ġfunny": 7637,
    "iful": 2880,
    "suspicious": 25390,
    "Ġteneriffe": 26413,
    "Ġbalanced": 12985,
    "Ġpersonal": 7479,
    "Ġpilgr": 12178,
    "inridge": 11559,
    "word": 2489,
    "takes": 21074,
    "Ġgeneration": 2129,
    "dire": 15334,
    "appear": 13196,
    "Ġimagine": 3927,
    "bug": 17491,
    "circumst": 5348,
    "Ġcape": 5146,
    "Ġdeserve": 8309,
    "Ġafraid": 3527,
    "Ġsisters": 3639,
    "Ġdefer": 18822,
    "iron": 3502,
    "atible": 17771,
    "sis": 1774,
    "Ġabundant": 17153,
    "eronomy": 15522,
    "Ġod": 4439,
    "Ġpunctually": 17137,
    "gan": 2199,
    "Ġfoiled": 23243,
    "hinting": 17568,
    "obtained": 23094,
    "Ġreplaced": 13069,
    "footman": 17161,
    "Ġinterrupted": 6343,
    "Ġugl": 12678,
    "acing": 2719,
    "mming": 1172,
    "Ġbear": 3657,
    "Ġanimal": 2500,
    "'m": 9581,
    "Ġadditionally": 1175,
    "Ġgraves": 11706,
    "Ġbusks": 23338,
    "Ġscream": 5935,
    "Ġnewcomers": 26041,
    "justine": 7683,
    "destined": 24114,
    "shold": 2773,
    "speed": 19407,
    "Ġhyena": 24518,
    "urements": 18123,
    "Ġluck": 4880,
    "Ġoughts": 23898,
    "recked": 17761,
    "Ġinforming": 18741,
    "gorith": 548,
    "ist": 448,
    "Ġlanc": 19763,
    "magnet": 14968,
    "fer": 1865,
    "inative": 15481,
    "pool": 16206,
    "Ġallow": 1127,
    "Ġnatur": 17332,
    "Ġtheore": 1833,
    "Ġcrystall": 20225,
    "Ġinjuring": 24267,
    "Ġunbelief": 22045,
    "fish": 3513,
    "Ġtight": 8108,
    "Ġincred": 5646,
    "aswag": 21544,
    "spiracle": 22734,
    "ative": 738,
    "formity": 10277,
    "Ġtrim": 15959,
    "Ġtout": 17718,
    "Ġentity": 10340,
    "affrail": 11204,
    "Ġassoc": 6402,
    "thine": 15821,
    "Ġroundabout": 23059,
    "Ġworm": 9161,
    "ĠĠĠĠĠĠĠĠĠĠĠĠĠĠĠĠĠĠĠĠĠĠĠĠĠĠĠĠĠĠĠĠĠĠĠĠĠĠĠĠĠĠĠĠĠ": 9950,
    "Ġpainfully": 13140,
    "Ġcem": 17823,
    "Ġmidway": 14603,
    "Ġgoverning": 2794,
    "Ġfootmen": 23796,
    "allow": 5104,
    "answers": 22121,
    "Ġsurely": 6307,
    "Ġtyros": 26101,
    "ten": 1553,
    "Ġtouch": 3392,
    "Ġlack": 17963,
    "Ġillness": 8589,
    "Ġincredulous": 9985,
    "Ġmonogram": 26573,
    "Ġweap": 6155,
    "Ġcour": 1767,
    "ignantly": 23264,
    "wake": 11544,
    "hed": 671,
    "dipped": 20836,
    "impetuous": 23761,
    "Ġpurely": 12229,
    "lengthwise": 19948,
    "Ġfail": 4151,
    "favourite": 15141,
    "Ġuses": 1208,
    "Ġaboard": 6697,
    "Ġdouble": 4940,
    "Ġhospitable": 17058,
    "Ġincidentally": 16953,
    "Ġiv": 4047,
    "volutional": 1936,
    "norm": 20984,
    "¢": 100,
    "Ġsquad": 22835,
    "Ġlouisiana": 25076,
    "Ġtransactions": 18481,
    "Ġthickness": 13274,
    "Ġrushing": 7403,
    "Ġblasphemy": 26115,
    "Ġstony": 21737,
    "Ġwillingness": 24910,
    "Ġnative": 4640,
    "Ġknots": 15007,
    "Ġinfluenced": 19631,
    "vings": 9749,
    "ellow": 3880,
    "Ġunfeeling": 14117,
    "Ġhospital": 15038,
    "ority": 8418,
    "Ġord": 3733,
    "imately": 12684,
    "torn": 17681,
    "inferior": 12392,
    "Ġpugnacious": 26450,
    "mortal": 10111,
    "eskye": 21449,
    "Ġrecom": 4555,
    "Ġpaths": 2570,
    "dashed": 12453,
    "Ġinterview": 9768,
    "phon": 4129,
    "recollect": 17222,
    "Ġprevention": 16087,
    "div": 8076,
    "Ġgout": 21594,
    "Ġoftentimes": 20154,
    "Ġpersecutor": 26096,
    "Ġcomposing": 16064,
    "shop": 14236,
    "Ġeucl": 24709,
    "Ġvexations": 24610,
    "cake": 20803,
    "abbering": 21794,
    "why": 2827,
    "Ġhandled": 12933,
    "erity": 21266,
    "Ġpavement": 9576,
    "goodness": 19288,
    "Ġtomorrow": 21511,
    "committed": 18743,
    "Ġspire": 18306,
    "Ġdispute": 16053,
    "Ġbrim": 12972,
    ".,": 5988,
    "bushes": 24446,
    "str": 2578,
    "Ġgirdled": 19157,
    "Ġwhatsoever": 18455,
    "Ġnewcom": 16219,
    "Ġprinciple": 6770,
    "Ġthrown": 4639,
    "standing": 5557,
    "Ġprofess": 3697,
    "Ġnewcomer": 26040,
    "source": 11524,
    "photograph": 16147,
    "Ġbubblingly": 25632,
    "code": 15327,
    "Ġdomains": 6611,
    "furniture": 20241,
    "Ġbucket": 8786,
    "algorithm": 3895,
    "Ġvindication": 25364,
    ".âĢĶâĢľ": 20746,
    "Ġsunken": 14492,
    "Ç": 136,
    "Ġfalse": 4343,
    "Ġgrat": 4059,
    "Ġunhe": 22006,
    "jabez": 20932,
    "Ġexped": 7650,
    "Ġyourself": 2595,
    "ided": 2784,
    "instant": 8651,
    "moderate": 22848,
    "Ġmorbidness": 20627,
    "aire": 10679,
    "Ġtired": 9148,
    "Ġ30": 10510,
    "Ġlabor": 10417,
    "Ġwhitt": 18054,
    "Ġgladly": 14680,
    "Ġpoetry": 15078,
    "icable": 6388,
    "Ġconsideration": 5191,
    "Ġcomple": 2838,
    "Ġimprecations": 25820,
    "entropy": 1437,
    "Ġwinchester": 10064,
    "considering": 12172,
    "oms": 4593,
    "Y": 61,
    "Ġprizes": 13071,
    "Ġinsipid": 26313,
    "Ġcould": 703,
    "Ġpresent": 1640,
    "gown": 9595,
    "Ġniece": 5712,
    "Ġelopement": 10328,
    "ons": 709,
    "Ġassaulted": 25320,
    "Ġcorpor": 23039,
    "Ġhorrors": 10478,
    "Ġeth": 17715,
    "quarters": 24946,
    "Ġvict": 3760,
    "Ġfancying": 12110,
    "frightened": 17194,
    "Ġhel": 3784,
    "Ġramsgate": 18650,
    "Ġfan": 2034,
    "iries": 18169,
    "ntax": 937,
    "test": 13790,
    "Ġtul": 21158,
    "Ġanatomy": 12318,
    "Ġphilips": 5410,
    "Ġgur": 21590,
    "Ó": 148,
    "Ġswe": 2291,
    "Ġnarrated": 14869,
    "Ġpriest": 7526,
    "oided": 11507,
    "happening": 16562,
    "Ġplun": 6281,
    "esty": 4306,
    "Ġancho": 15599,
    "Ġheavily": 6740,
    "Ġsundial": 15080,
    "Ġv": 398,
    "birth": 15320,
    "Ġadvertised": 17246,
    "machines": 8385,
    ")âĢĶ": 20741,
    "onder": 3777,
    "prosperity": 20734,
    "nut": 12492,
    "vener": 21110,
    "Ġspl": 2980,
    "Ġportly": 14677,
    "Ġwhereupon": 14292,
    "Ġpull": 5152,
    "offing": 23330,
    "asions": 12647,
    "unavoid": 14060,
    "Ġbagging": 24538,
    "Ġdeliriously": 23228,
    "aving": 2408,
    "Ġeyel": 17095,
    "ence": 393,
    "Ġegg": 8817,
    "Ġqualities": 7533,
    "Ġhor": 1662,
    "Ġdirest": 22705,
    "bery": 9785,
    "Ġcontrol": 13077,
    "Ġcompassion": 6487,
    "observed": 7675,
    "soever": 11857,
    "Ġenterprise": 8641,
    "ously": 2492,
    "Ġfathoms": 9082,
    "gigantic": 15357,
    "Ġlists": 11165,
    "Ġgenteel": 19979,
    "Ġwouldst": 18501,
    "Ġfru": 8420,
    "Ġ221": 25068,
    "Ġfinish": 7949,
    "Ġinqu": 2962,
    "Ġremembered": 5276,
    "Ġtraffic": 23082,
    "Ġeconomical": 25287,
    "Ġincognit": 22552,
    "Ġcapsizing": 20087,
    "Ġappals": 22218,
    "Ġgpus": 3730,
    "Ġobscure": 9552,
    "Ġbale": 7839,
    "Ġbridle": 24681,
    "anous": 21357,
    "Ġbigot": 24564,
    "Ġjunior": 15097,
    "Ġrepine": 16405,
    "Ġweakened": 16822,
    "flood": 19805,
    "Ġminut": 2204,
    "asiness": 8129,
    "reement": 15509,
    "Ġ3": 3989,
    "Ġbutterfly": 19909,
    "direct": 12454,
    "Ġcauses": 2562,
    "Ġcaps": 8415,
    "liament": 16215,
    "Ġpostp": 12141,
    "drifting": 19823,
    "Ġemergencies": 17360,
    "oughed": 22084,
    "hauteur": 26390,
    "illum": 15866,
    "Ġalso": 1343,
    "Ġbritannica": 24680,
    "impart": 21707,
    "Ġgun": 4701,
    "Ġaddressing": 11163,
    "congreg": 25398,
    "icest": 21562,
    "borean": 25743,
    "Ġcommended": 18656,
    "Ġextinguished": 10342,
    "Ġpantaloons": 20295,
    "rese": 15506,
    "Ġenjoy": 3759,
    "Ġfi": 936,
    "Ġdungeon": 16995,
    "Ġstranded": 9773,
    "Ġfob": 21408,
    "Ġoutstanding": 22314,
    "nett": 16218,
    "Ġhelter": 24023,
    "ondency": 15267,
    "Ġbull": 7840,
    "Ġexplored": 23518,
    "Ġlocker": 16910,
    "ralian": 19599,
    "âĢĶ.": 11753,
    "Ġtailed": 21167,
    "Ġassumptions": 5517,
    "Ġworshipper": 25692,
    "Ġreference": 2567,
    "Ġreligions": 20106,
    "confess": 12173,
    "Ġfrosted": 19802,
    "Ġvalued": 12180,
    "Ġ$": 21149,
    "hab": 1076,
    "Ġrevolution": 3304,
    "Ġelegance": 11331,
    "Ġanchored": 17438,
    "Ġmeans": 699,
    "Ġcanoe": 9721,
    "dor": 12449,
    "ics": 3255,
    "equally": 19898,
    "Ġrecently": 11860,
    "silver": 19689,
    "Ġstep": 752,
    "calculation": 25688,
    "retrospect": 23136,
    "Ġwalked": 3139,
    "Ġperiods": 13301,
    "Ġeagerness": 6608,
    "Ġskill": 6872,
    "Ġacre": 22679,
    "tt": 13788,
    "Ġevangel": 11279,
    "inguish": 9395,
    "Ġwrithing": 11944,
    "Ġacquiring": 2766,
    "Ġshows": 8482,
    "injured": 15130,
    "Ġbleeding": 14878,
    "large": 6625,
    "Ġerection": 23999,
    "Ġprovid": 1009,
    "Ġdeficiencies": 26569,
    "Ġreputation": 11639,
    "Ġportcull": 23861,
    "Ġsister": 1475,
    "Ġwatched": 6297,
    "Ġasp": 15777,
    "Ġconnect": 797,
    "Ġfogs": 25282,
    "distance": 12150,
    "ually": 2770,
    "find": 6954,
    "Ġacquaintance": 4135,
    "Ġborrow": 10169,
    "Ġsuspect": 5758,
    "ilingly": 21721,
    "Ġstove": 6733,
    "os": 523,
    "Ġaccuracy": 1093,
    "cheer": 9435,
    "Ġspine": 7407,
    "cl": 1493,
    "Ġpittance": 15613,
    "gy": 2095,
    "Ġuniversally": 11997,
    "Ġcareful": 2614,
    "clothes": 9056,
    "Ġcare": 1636,
    "ct": 309,
    "Ġintricate": 15135,
    "Ġrailway": 15019,
    "Ġoffences": 18691,
    "Ġmuffled": 10639,
    "entary": 21565,
    "entire": 6824,
    "allowing": 24357,
    "ucket": 2485,
    "Ġimpetuous": 25570,
    "Ġtranquill": 6630,
    "tical": 10127,
    "Ġmah": 15537,
    "Ġappro": 660,
    "low": 651,
    "Ġsubmitted": 11869,
    "Ġdrowned": 9550,
    "Ġwithdra": 6398,
    "Ġgenerous": 6271,
    "baboon": 25516,
    "Ġpatter": 831,
    "Ġentra": 18693,
    "gers": 8376,
    "luxur": 25822,
    "mortals": 25409,
    "Ġrepairing": 25589,
    "Ġfra": 1872,
    "Ġsing": 3073,
    "prudently": 21033,
    "Ġconvincing": 19307,
    "laughing": 15177,
    "Ġpledged": 20686,
    "Ġinsinuating": 19270,
    "pract": 10118,
    "Ġimmut": 13295,
    "expanded": 23664,
    "oke": 1860,
    "mir": 20962,
    "Ġlinen": 12405,
    "orne": 17872,
    "Ġobservant": 20108,
    "Ġbump": 9658,
    "Ġdoors": 6418,
    "Ġemblem": 20496,
    "Ġtypewriting": 16418,
    "Ġcritics": 23443,
    "Ġafloat": 9306,
    "drugg": 20837,
    "itancy": 21331,
    "Ġflesh": 5969,
    "backpropagation": 11983,
    "Ġsatire": 22897,
    "trained": 4240,
    "Ġproportion": 7281,
    "gration": 9120,
    "Ġsallow": 12533,
    "olidity": 18132,
    "Ġfavourites": 16643,
    "Ġinhale": 20299,
    "Ġstowing": 18071,
    "Ġchap": 5934,
    "Ġalexander": 17422,
    "Ġmounts": 17806,
    "kily": 20936,
    "accompl": 9878,
    "osal": 11757,
    "Ġcant": 17824,
    "Ġsk": 960,
    "Ġsuspicions": 9477,
    "Ġrecovery": 11440,
    "Ġimproper": 22744,
    "nson": 16088,
    "Ġloaf": 15869,
    "Ġpigs": 19746,
    "Ġstation": 5297,
    "Ġstupidity": 15048,
    "Ġtem": 804,
    "Ġbreathes": 13243,
    "smote": 23907,
    "diff": 9112,
    "Ġingrat": 16839,
    "Ġensue": 18190,
    "rew": 3648,
    "Ġenter": 4033,
    "Ġhus": 3091,
    "Ġpercept": 14222,
    "Ġinconven": 7586,
    "Ġhigh": 933,
    "Ġvernal": 23886,
    "Ġrank": 6258,
    "Ġstart": 3257,
    "Ġmontan": 22979,
    "lost": 8886,
    "Ġerr": 1323,
    "Ġsake": 4093,
    "christmas": 20254,
    "Ġbil": 15561,
    "lantern": 17426,
    "illed": 2626,
    "Ġposition": 1953,
    "vanity": 24976,
    "Ġengland": 3857,
    "Ġ[_": 15459,
    "Ġagainst": 1696,
    "Ġtarpaul": 17729,
    "Ġcrowder": 19454,
    "Ġshivered": 14106,
    "tically": 3389,
    "Ġdiscriminative": 4327,
    "Ġtarquin": 23609,
    "Ġoccasions": 7988,
    "ufact": 10732,
    "kindness": 10504,
    "Ġsurve": 9872,
    "Ġcaptivating": 26049,
    "meditated": 19069,
    "Ġgather": 6534,
    "revol": 12537,
    "fin": 5209,
    "Ġtribute": 15473,
    "vain": 15445,
    "body": 2309,
    "Ġdiscoverer": 26035,
    "Ġconf": 1819,
    "marvell": 24171,
    "Ġdeaths": 14536,
    "Ġfiery": 6871,
    "shoe": 14965,
    "Ġgenerates": 3663,
    "Ġdrove": 4984,
    "Ġindec": 13926,
    "neg": 12861,
    "igms": 3043,
    "atig": 13843,
    "Ġconsult": 6057,
    "Ġindustry": 18837,
    "inuating": 16200,
    "Ġstup": 14003,
    "Ġbefore": 810,
    "Ġdiffers": 23780,
    "Ġriotous": 20543,
    "Ġgeological": 14532,
    "attendants": 25495,
    "Ġallows": 3232,
    "oc": 2832,
    "Ġtertiary": 15292,
    "Ġnotes": 7189,
    "Ġrecent": 7436,
    "iscreet": 20681,
    "Ġshelf": 12265,
    "aff": 3101,
    "Ġshell": 11734,
    "sych": 9884,
    "Ġsire": 15499,
    "Ġwad": 13849,
    "Ġtransition": 14232,
    "embra": 14072,
    "Ġprying": 15605,
    "Ġclutched": 13517,
    "Ġannoyance": 20661,
    "Ġsultan": 15182,
    "Ġsublime": 8066,
    "Ġplates": 11005,
    "Ġnoiselessly": 22861,
    "Ġconsum": 9797,
    "ration": 2002,
    "Ġno": 510,
    "Ġconfirming": 25321,
    "decided": 13213,
    "holland": 24039,
    "Ġlodges": 19498,
    "Ġwindigate": 18910,
    "gl": 3289,
    "Ġfreezing": 23881,
    "display": 19154,
    "ordingly": 18515,
    "Ġlagged": 21556,
    "Ġguardsmen": 20629,
    "cceed": 4144,
    "Ġarchitectures": 2908,
    "uting": 15656,
    "Ġstings": 21732,
    "Ġgarments": 15191,
    "Ġlandless": 23377,
    "Ġsloop": 25930,
    "ieth": 10703,
    "Ġsteersman": 13038,
    "Ġcrop": 10161,
    "Ġevap": 19622,
    "Ġalley": 15732,
    "ter": 359,
    "idence": 4302,
    "Ġflatter": 9346,
    "Ġchanced": 8187,
    "Ġentertaining": 16925,
    "morning": 4859,
    "felicity": 25140,
    "onde": 21250,
    "yn": 7820,
    "Ġsales": 12803,
    "Ġvaliantly": 22797,
    "Ġsucceed": 4545,
    "ice": 589,
    "transom": 19733,
    "Ġopen": 1548,
    "Ġaxe": 15062,
    "chosen": 21693,
    "ending": 1987,
    "Ġjourneying": 25565,
    "ittance": 12841,
    "Ġmam": 8405,
    "Ġiroqu": 21617,
    "Ġreasoning": 2046,
    "Ġshivering": 10264,
    "Ġpoet": 8208,
    "Ġtransferred": 16436,
    "Ġ16": 7927,
    "Ġripples": 25505,
    "Ġsluggish": 25890,
    "Ġcinque": 20484,
    "uncommonly": 25549,
    "foolish": 12345,
    "Ġsecondly": 14516,
    "georgiana": 26020,
    "Ġ68": 24369,
    "Ġinestimable": 17440,
    "orders": 12870,
    "Ġwidower": 24234,
    "Ġknot": 7011,
    "Ġastern": 6091,
    "Ġairs": 14510,
    "alogies": 25158,
    "alid": 13933,
    "Ġcontract": 18475,
    "Ġportents": 14678,
    "Ġregularity": 22777,
    "Ġankles": 17899,
    "crum": 17510,
    "Ġmiss": 1229,
    "estate": 12817,
    "Ġepaulets": 24905,
    "Ġpoland": 23616,
    "Ġempty": 5353,
    "Ġfewer": 16222,
    "obser": 11098,
    "pth": 2380,
    "hester": 9630,
    "Ġox": 7153,
    "Ġarriving": 19216,
    "Ġimminent": 11244,
    "Ġdestiny": 8982,
    "Ġhelm": 5275,
    "Ġguardianship": 17418,
    "bran": 23573,
    "Ġintending": 11703,
    "Ġfriends": 2657,
    "bellies": 19972,
    "Ġlearnedly": 23384,
    "Ġsymptoms": 8704,
    "Ġlandsmen": 11350,
    "locked": 7678,
    "oysius": 14364,
    "Ġforeign": 9870,
    "Ġsimilarly": 24307,
    "Ġtufted": 17013,
    "Ġoccurred": 4463,
    "unciation": 25982,
    "orial": 8417,
    "Ġboxed": 24359,
    "Ġencourag": 1390,
    "Ġwives": 12552,
    "erman": 5108,
    "Ġsought": 5010,
    "Ġvisitors": 7985,
    "Ġdesolation": 12266,
    "Ġairth": 23316,
    "sive": 4146,
    "Ġgeneral": 1862,
    "Ġsubsequently": 16157,
    "Ġdecanter": 22442,
    "shavings": 22461,
    "Ġal": 342,
    "Ġquarrelling": 13497,
    "Ġrecorded": 11292,
    "forget": 11031,
    "Ġwashes": 21863,
    "Ġtoil": 6531,
    "Ġdisappearing": 22531,
    "itan": 10158,
    "confirmation": 26089,
    "Ġsprawling": 22138,
    "Ġfavourite": 5270,
    "Ġstriking": 6089,
    "Ġturkish": 12259,
    "Ġauxiliary": 26417,
    "Ġunnearable": 26515,
    "utmost": 21586,
    "Ġspan": 11727,
    "his": 1412,
    "reasoning": 9474,
    "yed": 3270,
    "Ġdoctors": 12149,
    "Ġticklish": 25034,
    "assistance": 20369,
    "acle": 4715,
    "Ġunattended": 15840,
    "Ġdanish": 21430,
    "Ġfifty": 4623,
    "Ġgravel": 14100,
    "!âĢĿ": 847,
    "Ġcomparison": 7099,
    "warnings": 20350,
    "Ġheathenish": 13614,
    "osure": 5306,
    "Ġheavens": 5050,
    "Ġvillain": 8635,
    "Ġdisputes": 25825,
    "quely": 10230,
    "Ġreckless": 13456,
    "aped": 3763,
    "Ġsupplied": 8942,
    "luent": 15993,
    "Ġdiversity": 25284,
    "shaw": 6864,
    "stead": 10845,
    "ples": 6845,
    "Ġbounds": 9916,
    "Ġarranged": 9875,
    "Ġmilky": 9945,
    "namely": 23673,
    "Ġsufferer": 16257,
    "withstanding": 8944,
    "abominable": 20592,
    "ode": 1452,
    "Ġpoll": 12027,
    "Ġcommander": 8624,
    "omics": 21641,
    "Ġmazes": 25940,
    "Ġactive": 7916,
    "N": 50,
    "Ġfarm": 7841,
    "Ġsoothing": 8173,
    "indul": 22368,
    "Ġprints": 16328,
    "Ġalways": 1695,
    "sw": 4741,
    "alas": 8802,
    "Ġwriggling": 15255,
    "Ġbursting": 8655,
    "Ġreview": 18030,
    "finger": 10092,
    "Ġpia": 21463,
    "circumspect": 26086,
    "ais": 8071,
    "Ġhappiness": 2943,
    "Ġperforms": 11875,
    "flowing": 14541,
    "warn": 11541,
    "Ġsince": 1796,
    "again": 3395,
    "ove": 1743,
    "Ġdairy": 20685,
    "Ġworst": 7444,
    "Ġsociet": 9447,
    "Ġstairs": 5540,
    "Ġnarrow": 5086,
    "presently": 9807,
    "Ġphren": 8571,
    "Ġpassengers": 13673,
    "Ġpremeditated": 22232,
    "Ġalien": 14016,
    "glo": 8737,
    "Ġwhistling": 19789,
    "icient": 808,
    "Ġconfed": 13094,
    "Ġconcentrate": 25063,
    "seals": 21816,
    "Ġdecapitated": 20614,
    "Ġsympathy": 6346,
    "Ġhurst": 5581,
    "Ġpartake": 18670,
    "trop": 15434,
    "pshaw": 21027,
    "uously": 7353,
    "Ġloosed": 22110,
    "Ġmute": 19414,
    "circumamb": 26087,
    "Ġstores": 18068,
    "Ġblackest": 19098,
    "Ġcens": 8413,
    "Ġreverber": 19868,
    "bitter": 11239,
    "Ġpivot": 13921,
    "Ġdistingu": 2517,
    "Ġash": 4832,
    "affections": 17355,
    "Ġoars": 3900,
    "Ġbeside": 5192,
    "ander": 6401,
    "future": 13715,
    "weaknesses": 26030,
    "enjoy": 10773,
    "tempted": 26402,
    "Ġperched": 10298,
    "ineer": 11700,
    "seven": 8463,
    "i": 77,
    "meadow": 18679,
    "Ġpresc": 15922,
    "Ġgrie": 3583,
    "Ġsubjected": 23571,
    "ances": 1337,
    "Ġsearching": 13160,
    "Ġcourage": 4633,
    "eting": 7169,
    "Ġhonest": 7287,
    "squall": 13520,
    "hid": 13732,
    "Ġfocuses": 8649,
    "Ġconstraint": 16512,
    "*": 14,
    "Ġremonstrate": 22792,
    "Ġfate": 4754,
    "Ġeffective": 1249,
    "Ġpreparing": 8647,
    "Ġdy": 2513,
    "cottagers": 20046,
    "accepted": 20135,
    "Ġshares": 23245,
    "Ġevenness": 22832,
    "Ġnurtured": 19748,
    "Ġpurch": 6599,
    "Ġdismasted": 15249,
    "Ġbeneficial": 23929,
    "otes": 15740,
    "enched": 10153,
    "ben": 4926,
    "arab": 21440,
    "Ġfields": 2143,
    "inese": 12876,
    "appe": 2942,
    "Ġsupreme": 13605,
    "Ġconceals": 23901,
    "Ġdared": 5440,
    "Ġsol": 1102,
    "uge": 4020,
    "Ġnightmare": 18919,
    "maged": 15391,
    "Ġarchipelagoes": 14345,
    "Ġbreaths": 14855,
    "Ġcommission": 6712,
    "Ġobvious": 4964,
    "Ġdeck": 2139,
    "Ġcupidity": 24534,
    "Ġmerciless": 25246,
    "Ġvexed": 9992,
    "Ġinspect": 5964,
    "Ġelemental": 19918,
    "arrow": 4181,
    "Ġswap": 23050,
    "voices": 21116,
    "renewed": 19703,
    "Ġunh": 9251,
    "Ġnewspapers": 17185,
    "umpled": 15873,
    "Ġvote": 21943,
    "eg": 17528,
    "Ġfain": 5808,
    "Ġevangelical": 25506,
    "Ġtro": 7356,
    "painter": 24896,
    "Ġexpressions": 7706,
    "attest": 23117,
    "Ġadvis": 9805,
    "Ġtreating": 4284,
    "Ġperplexed": 23660,
    "Ġskewer": 19619,
    "speeches": 25239,
    "Ġprogra": 1146,
    "eneva": 5118,
    "Ġfastened": 7065,
    "unworthy": 18161,
    "dles": 11479,
    "Ġpurposes": 11167,
    "straw": 24094,
    "le": 279,
    "Ġfour": 2216,
    "Ġfris": 23255,
    "Ġhoky": 17926,
    "Ġresentful": 24632,
    "subtle": 24242,
    "Ġcapture": 3381,
    "abb": 15735,
    "fen": 20849,
    "\"]": 17469,
    "Ġcomforted": 19389,
    "Ġfounded": 8556,
    "Ġquest": 1998,
    "Ġped": 6817,
    "Ġstraits": 7994,
    "Ġzer": 1094,
    "Ġimportance": 4900,
    "william": 4562,
    "Ġconge": 15742,
    "Ġexquisitely": 20201,
    "itzerland": 9993,
    "spoke": 11022,
    "scornful": 26574,
    "jury": 15371,
    "earth": 6502,
    "Ġentertain": 6054,
    "riage": 2124,
    "onel": 3089,
    "absolutely": 10644,
    "comfortably": 16874,
    "Ġstages": 14002,
    "levelled": 23643,
    "Ġab": 527,
    "asing": 5912,
    "Ġdaft": 19662,
    "linearity": 1649,
    "devouring": 24950,
    "Ġpainful": 6462,
    "but": 590,
    "Ġimpressions": 9551,
    "Ġtrying": 4838,
    "Ġrattler": 24997,
    "ames": 2951,
    "Ġskills": 1841,
    "Ġcellars": 24665,
    "Ġdrop": 4344,
    "honey": 20904,
    "Ġwicked": 5961,
    "Ġlounged": 19952,
    "erland": 9639,
    "ought": 829,
    "ulpt": 10884,
    "Ġconvivial": 16546,
    "Ġfonder": 17880,
    "Ġmark": 2331,
    "boo": 16348,
    "Ġmaster": 3680,
    "Ġcontroverted": 23251,
    "embers": 21925,
    "books": 8663,
    "gish": 20872,
    "Ġthickening": 24022,
    "merry": 16535,
    "Ġcus": 21341,
    "Ġtrades": 8232,
    "Ġlik": 2525,
    "Ġoutward": 7905,
    "xology": 21140,
    "Ġchilly": 25562,
    "Ġimpassable": 20611,
    "Ġoblong": 14319,
    "Ġcanopy": 18322,
    "Ġaccusation": 22378,
    "Ġdropt": 23675,
    "Ġtongs": 9959,
    "Ġtreatise": 19343,
    "Ġ_": 839,
    "propagation": 1243,
    "Ġyours": 4126,
    "Ġtalents": 15043,
    "Ġcolonies": 14373,
    "sebastian": 21818,
    "Ġlucerne": 23862,
    "Ġconfidential": 9086,
    "bbings": 19275,
    "Ġbits": 11586,
    "Ġdifferent": 1427,
    "Ġwildness": 14602,
    "Ġadvise": 7935,
    "call": 8722,
    "Ġcrimes": 8588,
    "Ġstates": 1853,
    "Ġchallenge": 25471,
    "Ġserves": 4668,
    "tish": 17676,
    "Ġoceans": 7996,
    "remorse": 14464,
    "boast": 23252,
    "hood": 2661,
    "Ġqualified": 14948,
    "3": 23,
    "Ġdrinks": 24278,
    "commun": 15032,
    "Ġsubmit": 11868,
    "inclination": 20056,
    "twenty": 6607,
    "Ġcrumbs": 20639,
    "Ġavoided": 13255,
    "Ġposterity": 17400,
    "Ġthine": 7374,
    "Ġextrem": 2476,
    "Ġobjects": 5577,
    "Ġfuss": 13903,
    "Ġroods": 22402,
    "glasses": 11214,
    "Ġnorton": 12645,
    "Ġpunish": 12157,
    "Ġelias": 18635,
    "Ġafrica": 12343,
    "sprinkling": 24912,
    "Ġunited": 6840,
    "ources": 2788,
    "Ġpince": 21470,
    "._)": 10479,
    "Ġtuck": 10139,
    "Ġalleys": 25978,
    "Ġcramped": 23530,
    "bohemia": 20730,
    "echo": 15346,
    "Ġfinancier": 26582,
    "Ġdisapprobation": 16055,
    "anean": 7443,
    "Ġadvertising": 25389,
    "Ġbulb": 23853,
    "istle": 15867,
    "Ġfobbing": 26440,
    "gus": 13723,
    "Ġluxurious": 17309,
    "Ġglowed": 24864,
    "stretching": 20497,
    "Ġmeets": 7396,
    "ú": 187,
    "Ġglobe": 6077,
    "ashes": 6016,
    "oir": 21001,
    "1775": 26377,
    "Ġreceptacle": 23189,
    "Ġsummarization": 3646,
    "eaten": 20343,
    "neighbouring": 19962,
    "forest": 22515,
    "Ġdisclosed": 15151,
    "Ġchimney": 6497,
    "Ġunjust": 8483,
    "bbing": 6323,
    "Ġpeaceable": 14722,
    "Ġcorner": 4369,
    "Ġpursuing": 9436,
    "Ġcorners": 18874,
    "Ġstore": 8453,
    "judging": 24200,
    "Ġmumbling": 11572,
    "Ġawoke": 7286,
    "Ġperson": 2368,
    "Ġfretfully": 25447,
    "ithmetic": 18061,
    "gracechurch": 24580,
    "Ġthese": 821,
    "Ġturks": 14597,
    "Ġsuper": 2156,
    "Ġschedule": 2371,
    "Ġappears": 5402,
    "Ġassure": 4419,
    "Ġendured": 6073,
    "Ġcapting": 23019,
    "exclaimed": 11788,
    "stirring": 20424,
    "Ġhipp": 21490,
    "Ġdil": 6383,
    "better": 7119,
    "conduct": 11795,
    "83": 13678,
    "lucky": 24544,
    "Ġinspirited": 23419,
    "Ġcampa": 17172,
    "Ġder": 1498,
    "Ġpract": 1889,
    "Ġtenants": 23546,
    "persecut": 22187,
    "Ġheiress": 20696,
    "dissatisfied": 26611,
    "Ġappe": 1536,
    "sus": 6228,
    "lacings": 26134,
    "Ġcontin": 5382,
    "open": 7025,
    "tick": 17677,
    "sub": 4659,
    "Ġconqueror": 25796,
    "Ġmorocc": 22975,
    "Ġdisco": 3427,
    "convenient": 12235,
    "Ġmoonshine": 19596,
    "Ġregarded": 5762,
    "Ġannals": 17898,
    "scattered": 22991,
    "scratch": 26043,
    "onement": 21255,
    "ologically": 22870,
    "Ġescape": 2650,
    "Ġtoken": 2037,
    "Ġcrony": 23439,
    "Ġdamps": 23473,
    "Ġwhittingham": 26197,
    "Ġslightest": 6093,
    "Ġtrading": 23075,
    "Ġwishing": 7831,
    "Ġbehav": 3538,
    "Ġdella": 21438,
    "within": 6730,
    "given": 8377,
    "Ġgrimly": 17051,
    "lorious": 17591,
    "ities": 1829,
    "Ġyarman": 12701,
    "Ă": 195,
    "Ġsculpt": 15944,
    "unsuitable": 21891,
    "Ġgulp": 20027,
    "Ġsurveying": 25325,
    "Ġshadowed": 24043,
    "Ġindeed": 1680,
    "Ġbanker": 8666,
    "grinder": 23413,
    "Ġemaciated": 20636,
    "Ġdepresses": 25797,
    "camp": 15328,
    "uttural": 21587,
    "Ġextravagant": 17277,
    "Ġstowed": 21734,
    "Ġinsure": 13176,
    "Ġlengthwise": 10451,
    "caterpillar": 26382,
    "Ġpri": 5813,
    "despatched": 19800,
    "Ġminus": 18749,
    "Ġseizure": 21955,
    "underneath": 23787,
    "omist": 21636,
    "Ġproportions": 16466,
    "ally": 529,
    "Ġenglishman": 11228,
    "sentence": 2937,
    "Ġfatally": 19392,
    "Ġlion": 9674,
    "Ġhauling": 14085,
    "Ġsnugness": 20075,
    "Ġremem": 4313,
    "Ġsakes": 18326,
    "Ġav": 3581,
    "Ġhearsed": 25039,
    "Ġderanged": 23172,
    "Ġcustom": 5078,
    "aret": 7417,
    "Ġunderneath": 16335,
    "Ġele": 1962,
    "Ġwanderings": 20142,
    "Ġenvironments": 24046,
    "Ġpudding": 17915,
    "Ġshaded": 14103,
    "Ġnaval": 16898,
    "Ġbravery": 23834,
    "ounce": 6557,
    "tribute": 21087,
    "Ġquench": 22417,
    "omas": 12667,
    "client": 18931,
    "ĠĠĠĠĠĠĠĠĠĠĠĠĠĠĠĠĠĠĠĠĠĠĠĠĠĠĠĠĠĠĠĠĠĠĠĠĠĠĠĠĠĠĠĠĠĠĠĠĠ": 20036,
    "Ġpar": 456,
    "Ġfrocks": 23919,
    "umer": 9256,
    "contains": 16028,
    "Ġsemblance": 20733,
    "Ġprofundity": 20451,
    "Ġstra": 2987,
    "dissemble": 23493,
    "Ġoverwhelming": 17101,
    "Ġsprung": 11248,
    "lands": 8241,
    "Ġship": 1090,
    "aside": 10190,
    "ulating": 10886,
    "gn": 8082,
    "»": 124,
    "dying": 10693,
    "Ġdeep": 802,
    "Ġwag": 10774,
    "appeared": 4282,
    "mor": 4217,
    "hem": 6663,
    "iece": 3228,
    "Ġdire": 866,
    "Ġdripping": 13145,
    "cular": 15326,
    "Ġejaculated": 15167,
    "Ġkidn": 20204,
    "Ġincapable": 7423,
    "yrin": 12519,
    "Ġnet": 3625,
    "Ġushered": 18356,
    "Ġwalrus": 14971,
    "Ġrays": 10329,
    "Ġvacuous": 24343,
    "shortly": 12256,
    "Ġnormal": 1202,
    "Ġinner": 9669,
    "Ġacquiesce": 20328,
    "themselves": 6540,
    "Ġverd": 6919,
    "Ġstagnant": 24654,
    "Ġrepresentation": 14404,
    "ł": 259,
    "Ġimprec": 14216,
    "cry": 12443,
    "greater": 13248,
    "Ġmallet": 17810,
    "foreseen": 14252,
    "dock": 16416,
    "tis": 4107,
    "tend": 17673,
    "Ġgoose": 5938,
    "Ġtelescopes": 25690,
    "attain": 21260,
    "generative": 4330,
    "Ġ11": 5318,
    "ification": 1001,
    "Ġwants": 5742,
    "Ġenhance": 3039,
    "prick": 19341,
    "Ġcommanded": 6330,
    "ribution": 14302,
    "Ġhasn": 12923,
    "Ġresol": 2667,
    "Ġread": 1446,
    "Ġordained": 19443,
    "Ġvictim": 6098,
    "Ġinwards": 15617,
    "yarn": 15455,
    "Ġappo": 8498,
    "Ġspark": 6689,
    "Ġ1671": 25005,
    "Ġrepresentations": 1877,
    "Ġneat": 6999,
    "Ġexercising": 19906,
    "captains": 12125,
    "landlord": 9838,
    "Ġthread": 14538,
    "mat": 2200,
    "oration": 2210,
    "Ġmasters": 11573,
    "Ġbeque": 18080,
    "Ġscimet": 22291,
    "deliber": 17424,
    "Ġexcellent": 4239,
    "Ġquick": 2582,
    "anation": 5803,
    "Ġhollowly": 24525,
    "Ġoptimize": 1627,
    "Ġguardian": 14940,
    "fanning": 20865,
    "Ġyer": 15730,
    "Ġparis": 8179,
    "Ġhumor": 11050,
    "flask": 12097,
    "Ġcompunction": 18585,
    "makers": 20981,
    "Ġsatisfy": 6912,
    "Ġearnestly": 5979,
    "Ġpunishment": 9954,
    "Ġcamp": 9163,
    "Ġbrill": 8549,
    "Ġstormy": 16727,
    "anges": 1674,
    "list": 7551,
    "adamite": 20591,
    "Ġsights": 7472,
    "above": 8148,
    "Ġon": 350,
    "Ġmann": 18416,
    "keen": 12778,
    "embed": 18182,
    "task": 13791,
    "Ġfamous": 5255,
    "Ġcanal": 8182,
    "Ġobligations": 12089,
    "perishing": 22184,
    "Ġpsych": 10175,
    "Ġ66": 24368,
    "ien": 10100,
    "officer": 17053,
    "edged": 15627,
    "dead": 8180,
    "Ġhopeful": 19027,
    "carbuncle": 26381,
    "prints": 23810,
    "batch": 1980,
    "Ġburning": 5977,
    "magnifying": 25392,
    "Ġdepressed": 10882,
    "Ġwounding": 19585,
    "Ġfoundations": 11072,
    "Ġcirclings": 26430,
    "Ġaffrighted": 13570,
    "Ġtransport": 11277,
    "Ġsandwiched": 26609,
    "Ġobserve": 4670,
    "Ġtormented": 8674,
    "(_": 7540,
    "accuracy": 9877,
    "paper": 9135,
    "Ġintervened": 25481,
    "matter": 5136,
    "Ġwheeled": 14137,
    "instr": 12528,
    "ġ": 226,
    "harpooneers": 8689,
    "user": 5105,
    "secure": 12233,
    "Ġmale": 9647,
    "Ġscare": 18397,
    "Ġheld": 3585,
    "Ġhatty": 19264,
    "Ġwater": 1948,
    "saying": 8640,
    "Ġextremity": 8987,
    "Ġknow": 632,
    "Ġgeorgiana": 8625,
    "Ġpaltry": 16691,
    "ill": 447,
    "Ġsummar": 3523,
    "Ġpatients": 24813,
    "Ġmagnificence": 20631,
    "Ġard": 5164,
    "Ġdreaming": 11222,
    "Ġscra": 5841,
    "Ġabound": 8862,
    "entitled": 21566,
    "ilight": 12689,
    "Ġlens": 8438,
    "Ġ(`": 12848,
    "Ġdone": 1817,
    "Ġjustly": 11901,
    "Ġliberal": 12188,
    "benevol": 12224,
    "Ġassociate": 13448,
    "hint": 12473,
    "Ġabuse": 18392,
    "Ġwork": 1283,
    "Ġexhibition": 14955,
    "heedful": 20572,
    "ego": 4038,
    "vens": 21111,
    "Ġweakness": 9965,
    "ning": 949,
    "Ġramadan": 9574,
    "Ġrigger": 19529,
    ".}": 20744,
    "Ġsynd": 22204,
    "Ġexcuses": 19041,
    "appearance": 5333,
    "Ġride": 12754,
    "Ġsubsc": 22787,
    "Ġlexicon": 25974,
    "Ġjup": 15949,
    "ested": 3476,
    "Ġdevils": 7230,
    "Ġnotice": 4543,
    "Ġbruited": 25773,
    "Ġadieus": 25110,
    "Ġproject": 5545,
    "stript": 21655,
    "Ġholding": 4979,
    "sooner": 14774,
    "Ġjunk": 15950,
    "Ġappre": 5165,
    "itate": 6667,
    "humour": 7498,
    "Ġinsect": 12632,
    "gies": 13724,
    "Ġmirror": 12376,
    "Ġwiser": 14729,
    "isive": 10792,
    "trucks": 25419,
    "Ġfollies": 16252,
    "Ġstubborn": 10413,
    "atically": 2588,
    "ble": 542,
    "Ġreg": 728,
    "Ġclue": 7020,
    "oubtedly": 6943,
    "Ġshaking": 6551,
    "Ġtranspointed": 22438,
    "Ġawaiting": 11389,
    "Ġhansom": 13662,
    "Ġenthusiasm": 8065,
    "raising": 21630,
    "Ġconfessed": 8009,
    "Ġpacific": 5153,
    ";âĢĶ": 3748,
    "Ġpriests": 15039,
    "mong": 15387,
    "expressive": 24304,
    "nor": 2742,
    "Ġnoon": 6559,
    "Ġswell": 8948,
    "Ġpeaceful": 9453,
    "Ġprotect": 6337,
    "Ġdeclining": 23962,
    "Ġremembering": 14610,
    "Ġflew": 5587,
    "Ġornament": 11718,
    "Ġsacrifice": 9554,
    "Ġindiscriminately": 20626,
    "Ġbehavior": 8002,
    "companions": 15022,
    "Ġstate": 1810,
    "won": 7144,
    "Ġ82": 24457,
    "Ġtresses": 21174,
    "pay": 10717,
    "onsensical": 18576,
    "waters": 11332,
    "Ġheaped": 18037,
    "Ġcanvas": 7784,
    "Ġlad": 2364,
    "Ġdeserved": 7737,
    "exertion": 16013,
    "Ġhatchway": 13523,
    "Ġstood": 2552,
    "itudes": 3011,
    "murder": 10563,
    "Ġdodging": 19886,
    "Ġsummers": 23871,
    "Ġinstances": 5567,
    "Ġinsp": 2099,
    "Ġpiqu": 21476,
    "Ġedward": 19119,
    "create": 24158,
    "consequential": 26249,
    "apologizing": 26543,
    "Ġteasing": 11888,
    "Ġharris": 13925,
    "Ġsally": 15500,
    "incible": 16496,
    "phia": 22755,
    "hailed": 17564,
    "Ġunbroken": 18250,
    "warp": 17705,
    "Ġsocially": 22082,
    "Ġencouraged": 9353,
    "Ġconcrete": 20635,
    "otions": 7180,
    "practical": 17220,
    "hearted": 6970,
    "Ġl": 303,
    "ye": 1404,
    "Ġsinful": 18948,
    "Ġpupils": 20419,
    "Ġwounded": 8657,
    "Ġnatural": 1089,
    "Ġinitialized": 3953,
    "Ġroared": 7023,
    "Ġbohem": 8526,
    "Ġdanced": 7843,
    "Ġprogress": 5023,
    "attering": 7419,
    "Ġnonsense": 6982,
    "Ġsche": 1703,
    "feit": 16034,
    "Ġlurid": 19680,
    "Ġbedfellow": 16435,
    "uff": 2732,
    "Ġgleam": 12306,
    "engineer": 23146,
    "!âĢĶ": 2456,
    "kin": 7131,
    "Ġabated": 18390,
    "Ġenlarged": 25985,
    "antique": 18287,
    "uend": 21100,
    "Ġdisturbed": 8671,
    "Ġpolynes": 16076,
    "Ġtune": 17724,
    "slipped": 25529,
    "Ġcold": 3029,
    "ouched": 4636,
    "Ġremonstrance": 20621,
    "waist": 13416,
    "ward": 705,
    "sterdam": 19090,
    "ilst": 8144,
    "Ġextent": 7656,
    "Ġdeduction": 14897,
    "Ġamuse": 5940,
    "witness": 10033,
    "purp": 8091,
    "Ġshank": 21995,
    "Ġrespond": 11175,
    "original": 9083,
    "Ġont": 18116,
    "Ġalternate": 19984,
    "Ġfinds": 6299,
    "Ġinterchange": 16070,
    "Ġbubbles": 11397,
    "Ġpallet": 21480,
    "trowsers": 17690,
    "Ġcommunications": 16352,
    "Ġbrute": 8925,
    "hours": 9123,
    "Ġimages": 1599,
    "Ġnods": 19064,
    "Ġwhat": 599,
    "Ġinst": 914,
    "miss": 3172,
    "developed": 15262,
    "Ġbroken": 3446,
    "ĠĠĠĠĠĠĠĠĠĠĠĠĠĠĠĠĠĠĠĠĠĠĠĠĠĠĠĠĠĠĠĠĠĠĠĠĠĠĠĠĠĠ": 24208,
    "acceptable": 25184,
    "dishonourable": 26365,
    "Ġoverl": 18427,
    "Ġdivers": 9664,
    "gird": 20878,
    "Ġinconstant": 21494,
    "Ġprehens": 22229,
    "ce": 313,
    "them": 3015,
    "european": 26371,
    "Ġcoll": 8221,
    "Ġirritation": 20265,
    "either": 6791,
    "Ġarctic": 12806,
    "Ġtugged": 17287,
    "throughout": 24086,
    "exhibited": 18477,
    "Ġoppress": 13170,
    "Ġpleasant": 4172,
    "Ġunperceived": 22033,
    "Ġblanc": 11064,
    "circumstance": 7764,
    "Ġplanting": 16082,
    "Ġresided": 11809,
    "Ġbead": 21748,
    "-------": 20387,
    "kindly": 14743,
    "publ": 17637,
    "wise": 2575,
    "Ġroused": 7622,
    "Ġwithal": 18113,
    "Ġecho": 12664,
    "Ġunfav": 14786,
    "Ġgives": 5018,
    "metals": 24766,
    "Ġwildly": 9412,
    "Ġhands": 1664,
    "Ġclaimed": 14201,
    "Ġawful": 6199,
    "text": 1972,
    "Ġbern": 17858,
    "Ġshrieks": 12197,
    "headers": 23107,
    "Ġcoer": 22579,
    "approbation": 11457,
    "garet": 9596,
    "colnett": 19329,
    "those": 4496,
    "Ġagreed": 7028,
    "Ġisn": 7867,
    "Ġperadventure": 22397,
    "Ġfault": 5702,
    "thomas": 18219,
    "invisible": 17739,
    "Ġentries": 22741,
    "commendation": 26348,
    "Ġbroiled": 18908,
    "Ġhaw": 10250,
    "Ġwickham": 2206,
    "adders": 24399,
    "Ġponies": 21475,
    "ial": 410,
    "ioneer": 15628,
    "city": 15325,
    "Ġfe": 490,
    "abled": 12790,
    "Ġcarav": 18900,
    "Ġhappens": 2190,
    "Ġdefilements": 26284,
    "Ġtraditions": 11442,
    "ler": 3487,
    "Ġvocation": 10524,
    "Ġenem": 4707,
    "Ġdough": 8421,
    "Ġpurporting": 19181,
    "Ġdiscontented": 16056,
    "Ġforgery": 25977,
    "answering": 26003,
    "Ġreading": 5114,
    "entle": 1738,
    "Ġfisherman": 12073,
    "Ġconcocted": 26299,
    "Ġjustice": 5111,
    "izure": 21832,
    "jumping": 20244,
    "Ġmiz": 10776,
    "standers": 18479,
    "Ġbelong": 3888,
    "Ġobstacles": 19834,
    "showing": 22459,
    "Ġforeman": 23446,
    "Ġmuff": 8114,
    "Ġdodo": 9071,
    "Ġtriangular": 14857,
    "Ġunderwent": 23238,
    "icket": 22666,
    "Ġorgan": 2504,
    "owders": 18047,
    "crowd": 25254,
    "alleging": 23022,
    "Ġdine": 7366,
    "Ġtradesman": 20071,
    "Ġembarkation": 25123,
    "Ġrough": 7187,
    "renew": 24449,
    "Ġstriding": 16090,
    "pips": 21019,
    "mates": 5073,
    "Ġaltern": 7394,
    "retirement": 23137,
    "Ġdepth": 2440,
    "onden": 13842,
    "ivity": 1639,
    "near": 5842,
    "Ġsexes": 25168,
    "firmly": 20279,
    "Ġadvances": 12986,
    "Ġbestirred": 20450,
    "Ġsaddest": 16661,
    "iguous": 18044,
    "Ġsentiment": 6588,
    "Ġstrangers": 8314,
    "Ġmeridian": 25714,
    "consum": 12866,
    "Ġalt": 18098,
    "iony": 9190,
    "Ġdomineering": 23651,
    "Ġwindings": 18909,
    "fitters": 24761,
    "Ġadvertise": 25388,
    "ourers": 21448,
    "straight": 9938,
    "cary": 10688,
    "ientific": 6547,
    "Ġlurking": 11288,
    "Ġdish": 6136,
    "Ġfurrow": 22811,
    "Ġmiseries": 10345,
    "Ġsentences": 2683,
    "Ġcollect": 7237,
    "Ġbishop": 13900,
    "considerably": 13443,
    "ford": 2821,
    "Ġreproached": 24891,
    "Ġprehensile": 26533,
    "solic": 16374,
    "Ġphiladel": 23883,
    "exceeded": 25001,
    "Ġgayer": 24497,
    "Ġrubbed": 12951,
    "niece": 20994,
    "Ġneatness": 19931,
    "avern": 24792,
    "use": 2537,
    "Ġdoubts": 8579,
    "Ġwrithed": 17105,
    "Ġspat": 2666,
    "Ġwhim": 13997,
    "Ġcomical": 11676,
    "ass": 537,
    "Ġaforethought": 25428,
    "Ġs": 265,
    "Ġprone": 18968,
    "Ġsleek": 23382,
    "gods": 13364,
    "Ġbeheading": 21752,
    "Ġunseason": 22048,
    "produ": 10719,
    "Ġimbued": 17453,
    "rets": 12538,
    "Ġfeet": 2260,
    "Ġtopmost": 14586,
    "Ġsquare": 2396,
    "Ġcongratulatory": 19766,
    "Ġbathing": 20198,
    "Ġupheld": 22149,
    "emy": 14071,
    "Ġhobbling": 25644,
    "poled": 22906,
    "stains": 11636,
    "proceeding": 20140,
    "Ġspoon": 22133,
    "Ġdug": 21429,
    "chant": 4259,
    "Ġcreatures": 4139,
    "!âĢĻ": 3330,
    "hearse": 17747,
    "Ġcoroner": 7510,
    "departed": 24794,
    "Ġfringe": 17270,
    "leader": 25351,
    "attentions": 13572,
    "Ġdedu": 5583,
    "mightily": 24103,
    "ians": 2359,
    "Ġreward": 6144,
    "Ġchannel": 26012,
    "Ġrepresent": 1211,
    "Ġclothed": 19605,
    "alling": 6037,
    "earnest": 12397,
    "paid": 15412,
    "Ġclapped": 9743,
    "Ġtheoretic": 23309,
    "ios": 2207,
    "Ġstatue": 23147,
    "Ġgreeting": 18962,
    "childhood": 16865,
    "farewell": 12304,
    "Ġanswer": 2601,
    "rank": 21040,
    "pre": 650,
    "Ġinasmuch": 10824,
    "gage": 13721,
    "Ġdeft": 21835,
    "Ġfilial": 16619,
    "o": 83,
    "Ġmincing": 18750,
    "Ġvanish": 8926,
    "Ġcarcase": 14442,
    "Ġsoar": 18277,
    "keepers": 16658,
    "Ġpads": 21473,
    "Ġcannibal": 7774,
    "Ġenergetic": 15195,
    "Ġencirc": 18732,
    "Ġfriendless": 23023,
    "Ġmedit": 8019,
    "Ġreciproc": 20620,
    "asht": 4086,
    "Ġscal": 1621,
    "Ġcyp": 21343,
    "Ġbass": 17855,
    "Ġlayers": 815,
    "coll": 23778,
    "ullo": 12724,
    "path": 10117,
    "Ġcherished": 10589,
    "Ġpassion": 4557,
    "alike": 17942,
    "Ġbranch": 8332,
    "Ġtongues": 14861,
    "walton": 20248,
    "Ġheadache": 22896,
    "proved": 11984,
    "promising": 24726,
    "Ġhemisphere": 26477,
    "Ġlongest": 18629,
    "robe": 15638,
    "Ġsqueezing": 25006,
    "endous": 6850,
    "Ġwarp": 8113,
    "delightful": 12194,
    "Ġexclaiming": 13639,
    "extraordinary": 9093,
    "Ġdarting": 7757,
    "Ġhelmsman": 10503,
    "Ġexposure": 16096,
    "Ġbewil": 11656,
    "desire": 14472,
    "nervous": 16275,
    "Ġcovari": 2338,
    "Ġthreshold": 2807,
    "Ġconsole": 8151,
    "Ġdonkey": 23227,
    "sford": 5998,
    "Ġfurnace": 19438,
    "oss": 10114,
    "Ġaunt": 3175,
    "Ġfidgeted": 25889,
    "Ġslavery": 16304,
    "Ġrefill": 18698,
    "Ġfossils": 20221,
    "Ġexpressive": 8981,
    "sin": 21047,
    "eded": 9672,
    "igations": 18043,
    "ensed": 10994,
    "rest": 1631,
    "Ġspeaker": 19148,
    "Ġgrieved": 8298,
    "sky": 12508,
    "sul": 15419,
    "Ġreduces": 2343,
    "Ġpunctil": 20112,
    "Ġsuck": 15859,
    "Ġvideos": 13604,
    "Ġlouis": 8357,
    "Ġdarted": 4758,
    "nikin": 23234,
    "operation": 13499,
    "agree": 14065,
    "machine": 976,
    "Ġledgers": 23935,
    "Ġnoah": 10941,
    "powerful": 24847,
    "erest": 10696,
    "bers": 2571,
    "Ġanimals": 8977,
    "Ġsuggestive": 11296,
    "acet": 5476,
    "Ġperpet": 7644,
    "preserver": 20212,
    "Ġexhilar": 19682,
    "Ġnotwithstanding": 9712,
    "inform": 10142,
    "correct": 24482,
    "Ġlawn": 7379,
    "Ġsweating": 16461,
    "Ġsovere": 9254,
    "ipt": 12476,
    "cannon": 22960,
    "chiefly": 14844,
    "Ġrelease": 19290,
    "hastening": 24447,
    "kicked": 20942,
    "Ġdownstairs": 11223,
    "Ġcomposed": 8890,
    "Ġeaster": 15671,
    "Ġproduct": 3531,
    "ison": 3074,
    "consequence": 9761,
    "Ġyoked": 15731,
    "irations": 18170,
    "ula": 2824,
    "Ġinscribed": 24938,
    "Ġ1": 1016,
    "heim": 17745,
    "rive": 9705,
    "fool": 9046,
    "Ġpaid": 5015,
    "Ġself": 1778,
    "Ġliterary": 25162,
    "Ġverses": 17062,
    "Ġferule": 24515,
    "tee": 16167,
    "Ġclustered": 25233,
    "abling": 1077,
    "Ġyawning": 12298,
    "###": 3827,
    "Ġembellished": 25850,
    "Ġindirect": 18835,
    "Ġinsular": 19267,
    "Ġdivide": 12108,
    "ired": 1444,
    "determine": 19942,
    "attending": 18916,
    "Ġharvest": 13413,
    "Ġinj": 4760,
    "late": 11497,
    "ah": 1836,
    "shriek": 20518,
    "Ġincessantly": 11410,
    "¬": 110,
    "Ġpeered": 18668,
    "wound": 21125,
    "idious": 11661,
    "Ġcorps": 13029,
    "boots": 11125,
    "foundered": 20866,
    "Ġconstable": 19070,
    "Ġdeprived": 8211,
    "Ġworaciousness": 22927,
    "canst": 22959,
    "Ġspecific": 2000,
    "Ġgames": 11625,
    "elling": 5830,
    "cares": 24308,
    "Ġbeggar": 9347,
    "Ġenglishmen": 19428,
    "Ġcaged": 21350,
    "volutions": 16318,
    "iquet": 17574,
    "Ġrepute": 18034,
    "Ġbeadle": 26483,
    "Ġjuggler": 26366,
    "Ġalfred": 21784,
    "Ġghostly": 24650,
    "Ġsinging": 7724,
    "intercourse": 14637,
    "soled": 14328,
    "Ġ177": 13410,
    "Ġsher": 3762,
    "circled": 24186,
    "Ġloading": 15871,
    "Ġstirring": 10578,
    "Ġslopes": 18940,
    "Ġinarticulate": 21498,
    "Ġpraises": 16729,
    "Ġtoller": 9089,
    "Ġmcc": 21305,
    "recursion": 13326,
    "plutarch": 21961,
    "Ġlancaster": 26340,
    "anning": 10163,
    "Ġpomp": 12618,
    "Ġprocedural": 12028,
    "Ġspreading": 13376,
    "Ġmitigating": 1614,
    "fatal": 17087,
    "itous": 13865,
    "Ġabruptness": 25299,
    "Ġolive": 12562,
    "mbling": 3343,
    "Ġbowls": 23769,
    "semicirc": 26490,
    "quick": 6400,
    "startled": 24941,
    "Ġsyntax": 957,
    "Ġgot": 2282,
    "Ġkramm": 26233,
    "Ġprisoner": 8672,
    "slide": 24555,
    "Ġsave": 4054,
    "adding": 21757,
    "omical": 9678,
    "closing": 23154,
    "conclusive": 25673,
    "Ġstab": 10861,
    "bourine": 9394,
    "Ġlean": 7605,
    "Ġechoed": 20422,
    "bows": 10080,
    "Ġtahiti": 13617,
    "melted": 25206,
    "Ġmocking": 24001,
    "vari": 1514,
    "solving": 3098,
    "ogra": 4573,
    "Ġpoltro": 23618,
    "Ġperry": 22395,
    "Ġaught": 8772,
    "Ġstartling": 14669,
    "Ġnonsensical": 21527,
    "Ġkindling": 19026,
    "ulous": 4450,
    "wont": 21131,
    "Ġallowance": 14387,
    "actory": 8906,
    "Ġstout": 6025,
    "Ġimpotently": 22388,
    "possessed": 9526,
    "disinterested": 23502,
    "Ġpolitical": 19223,
    "pow": 10716,
    "egyptians": 25898,
    "Ġunlocked": 14118,
    "Ġunclasp": 26510,
    "Ġacquies": 11096,
    "Ġinterval": 4056,
    "shad": 10981,
    "kovoko": 20668,
    "Ġmuch": 924,
    "rudence": 7092,
    "Ġsolely": 9908,
    "Ġdischarge": 18556,
    "odings": 4400,
    "inating": 9152,
    "Ġsable": 15498,
    "eminence": 20097,
    "cent": 8073,
    "v": 90,
    "Ġlifelessly": 23048,
    "right": 2769,
    "ribe": 1223,
    "Ġcontention": 22424,
    "atisf": 21262,
    "Ġsavann": 14683,
    "Ġjollies": 20368,
    "apply": 18759,
    "asting": 12802,
    "Ġwas": 371,
    "cheerfulness": 20179,
    "Ġtwenty": 3954,
    "Ġgrowth": 14628,
    "Ġ1820": 25718,
    "Ġtiger": 11553,
    "Ġfastidious": 14491,
    "tent": 21063,
    "Ġaimed": 20249,
    "duchess": 18463,
    "Ġrand": 1583,
    "Ġryder": 10257,
    "Ġcats": 8978,
    "Ġunder": 1634,
    "Ġtoler": 7588,
    "Ġaverted": 16251,
    "Ġstrenuously": 17446,
    "Ġbuffaloes": 25217,
    "refusal": 24736,
    "Ġsay": 934,
    "satisf": 5781,
    "likes": 18814,
    "Ġwalk": 1827,
    "Ġshall": 1144,
    "Ġgrows": 4985,
    "sutherland": 21061,
    "historical": 20464,
    "st": 316,
    "prophet": 16177,
    "Ġcollected": 2613,
    "Ġ117": 19696,
    "Ġcircum": 8258,
    "beg": 22487,
    "Ġspacious": 18312,
    "Ġstubb": 1785,
    "Ġbase": 5013,
    "ĠĠĠĠ": 460,
    "Ġtrans": 631,
    "hro": 20890,
    "erce": 6126,
    "olic": 14040,
    "Ġladder": 8598,
    "Ġsundering": 23273,
    "Ġresponsiveness": 2896,
    "reposed": 24491,
    "cond": 1667,
    "henomen": 10493,
    "plicable": 10255,
    "itively": 21329,
    "Ġhaughty": 11448,
    "Ġpalpit": 16690,
    "Ġcomra": 7183,
    "Ġissuing": 16947,
    "Ġbiographical": 22764,
    "of": 769,
    "arboard": 7266,
    "Ġdetached": 10278,
    "Ġoperations": 2301,
    "innocence": 15181,
    "Ġcomprise": 18583,
    "Ġtelesc": 12990,
    "Ġpolitely": 8992,
    "Ġsadly": 7302,
    "Ġclut": 7641,
    "Ġlulled": 17968,
    "Ġcontradictory": 20395,
    "Ġtwentieth": 18659,
    ",": 16,
    "uneasiness": 23686,
    "Ġdeceitful": 25733,
    "uns": 21868,
    "Ġmodeling": 2094,
    "Ġlumps": 21554,
    "due": 22408,
    "Ġfolds": 12204,
    "Ġremembr": 24169,
    "harpo": 4805,
    "ers": 405,
    "Ġhanging": 5447,
    "Ġfancy": 3744,
    "toller": 20671,
    "Ġpace": 9182,
    "liv": 9606,
    "Ġfaultless": 24539,
    "Ġrever": 6536,
    "Ġopposing": 12038,
    "Ġoptimization": 1383,
    "Ġswerve": 14435,
    "æ": 167,
    "Ġsombre": 18859,
    "Ġgoug": 17990,
    "======": 9831,
    "Ġfugitives": 25634,
    "Ġbackward": 7654,
    "filled": 9593,
    "Ġnewton": 3530,
    "Ġgrassy": 24378,
    "danced": 20827,
    "Ġtowards": 1729,
    "Ġsurtout": 23464,
    "Ġresignation": 18566,
    "Ġmenaced": 16290,
    "Ġfirm": 3873,
    "Ġwatch": 2744,
    "seventy": 10875,
    "jewell": 25523,
    "Ġinvestigated": 25386,
    "Ġbelly": 10368,
    "Ġassign": 11108,
    "atmospheric": 17775,
    "Ġchiselled": 25559,
    "Ġabout": 633,
    "jub": 20928,
    "Ġacquiesced": 25493,
    "Ġadded": 2718,
    "Ġbreeding": 14519,
    "Ġhailed": 6407,
    "Ġswallowed": 7944,
    "sy": 2634,
    "Ġrenewing": 19809,
    "Ġpreserving": 19795,
    "Ġilliter": 23467,
    "savage": 15073,
    "Ġcapt": 1292,
    "Ġuppermost": 15276,
    "Ġmurderer": 4980,
    "Ġjabez": 11764,
    "mish": 17597,
    "grat": 5052,
    "conside": 9288,
    "Ġgently": 7171,
    "tains": 10961,
    "skelter": 24489,
    "ured": 1655,
    "Ġcalves": 13031,
    "uccas": 21105,
    "inav": 15482,
    "Ġouthouse": 22312,
    "olds": 9309,
    "Ġdesk": 11904,
    "Ġcelerity": 17434,
    "ighted": 8476,
    "Ġtheirs": 7024,
    "Ġinquir": 4243,
    "Ġix": 12662,
    "Ġdistur": 5312,
    "Ġlivid": 14987,
    "Ġcommis": 22669,
    "Ġsquint": 22836,
    "Ġlongitude": 11010,
    "Ġarray": 12805,
    "repeating": 20127,
    "/`)": 13658,
    "gyric": 19109,
    "Ġcra": 2332,
    "Ġevermore": 18811,
    "Ġseemingly": 9316,
    "Ġglass": 4368,
    "Ġcuring": 21342,
    "thur": 7188,
    "Ġcontinual": 6777,
    "Ġsallied": 12534,
    "Ġventil": 8020,
    "Ġunsub": 22019,
    "urned": 9304,
    "thinks": 16640,
    "Ġdreadful": 4920,
    "dening": 22779,
    "Ġbloodshed": 23799,
    "Ġmortally": 23914,
    "Ġsubstances": 24164,
    "ilburn": 18059,
    "notice": 16144,
    "Ġvictims": 19803,
    "Ġlory": 12648,
    "Ġgest": 8134,
    "herds": 22201,
    "Ġsocietal": 11435,
    "Ġdoran": 9178,
    "bar": 7541,
    "destro": 13307,
    "Ġmus": 3393,
    "Ġundoing": 22031,
    "Ġimpass": 15982,
    "covering": 15332,
    "Ġaye": 3350,
    "Ġharness": 17927,
    "Ġheadsmen": 14731,
    "Ġdozing": 22241,
    "Ġtrees": 4204,
    "dripping": 16904,
    "Ġexplain": 546,
    "worked": 19032,
    "loaded": 22509,
    "Ġoffending": 22739,
    "Ġaqu": 17741,
    "Ġtortures": 14921,
    "Ġphrenologists": 25608,
    "remaining": 20219,
    "midnight": 14898,
    "Ġtrack": 7450,
    "Ġplunder": 22600,
    "Ġwane": 21287,
    "Ġparamount": 15875,
    "bingley": 4927,
    "Ġscruples": 15076,
    "Ġmaker": 15539,
    "Ġcalifornia": 20528,
    "overlooked": 23321,
    "slackened": 26094,
    "Ġblossom": 26312,
    "swift": 14850,
    "Ġformality": 22827,
    "idge": 14012,
    "Ġexplanations": 15907,
    "saf": 11523,
    "Ġstrict": 7222,
    "Ġdetermined": 2223,
    "pursu": 11391,
    "rubbed": 22182,
    "Ġcoop": 14268,
    "lue": 8508,
    "disappearing": 23503,
    "hom": 12471,
    "soo": 18684,
    "Ġadvice": 4901,
    "Ġfishy": 16522,
    "castle": 3347,
    "Ġwindibank": 7257,
    "Ġwelcome": 5603,
    "Ġparents": 6752,
    "learn": 2226,
    "Ġspermaceti": 8966,
    "Ġattentively": 9948,
    "ĠĠĠĠĠĠĠĠĠĠĠĠĠĠĠĠĠĠĠĠĠĠĠĠĠĠĠĠĠĠĠĠĠĠĠ": 19257,
    "Ġ63": 24365,
    "indian": 11776,
    "fly": 13712,
    "inous": 8771,
    "Ġcaucus": 17378,
    "Ġdetailed": 12820,
    "Ġcurt": 18842,
    "Ġincome": 7918,
    "Ġprophesy": 26061,
    "cely": 3574,
    "Ġjournal": 15216,
    "Ġfluke": 14672,
    "Ġwhiskers": 10491,
    "Ġenjoined": 18191,
    "Ġengage": 9333,
    "Ġtread": 9407,
    "Ġinsulted": 14990,
    "Ġurged": 6781,
    "queen": 12723,
    "Ġquarter": 3981,
    "Ġcomprising": 16065,
    "wers": 12517,
    "Ġbount": 15564,
    "Ġsickly": 16773,
    "studies": 25166,
    "Ġimpregnable": 26023,
    "Ġheredit": 9215,
    "Ġpressed": 6042,
    "ases": 1520,
    "pede": 19843,
    "Ġai": 3127,
    "Ġsliding": 9361,
    "based": 2957,
    "Ġunprecedented": 15851,
    "Ġfat": 3459,
    "comp": 3817,
    "ety": 3518,
    "Ġsays": 3560,
    "Ġthinking": 4034,
    "------": 12131,
    "Ġuns": 15833,
    "Ġovercame": 9744,
    "garious": 17557,
    "Ġsurvived": 14932,
    "Ġlinear": 3431,
    "talk": 6656,
    "Ġtiny": 11551,
    "Ġantiquities": 25598,
    "Ġcourt": 4171,
    "Ġpiny": 21469,
    "Ġestablished": 9068,
    "Ġrapture": 13494,
    "Ġrestlessness": 23290,
    "Ġmarks": 6746,
    "Ġglue": 15670,
    "Ġbarque": 23789,
    "Ġcop": 7579,
    "inkled": 5477,
    "Ġarduous": 26528,
    "Ġunappalled": 22061,
    "Ġdece": 6996,
    "Ġseaport": 20598,
    "myster": 16260,
    "ose": 718,
    "Ġglistening": 12363,
    "Ġepis": 19980,
    "Ġpallor": 13514,
    "whaler": 20308,
    "mankind": 14372,
    "Ġcause": 2412,
    "Ġarrangements": 16513,
    "Ġempt": 5051,
    "iber": 6506,
    "ĠĠĠĠĠĠĠĠĠĠĠĠĠĠĠĠĠĠĠ": 22948,
    "Ġtwitching": 25683,
    "Ġpropensity": 18996,
    "ß": 160,
    "aboard": 21792,
    "Ġacutely": 14312,
    "Ġcaus": 1722,
    "Ġclothe": 4711,
    "indifferent": 14207,
    "niest": 18978,
    "tubes": 25211,
    "Ġsilent": 3407,
    "impression": 15707,
    "Ġspent": 3969,
    "Ġfishing": 9661,
    "ounts": 4651,
    "Ġtemptation": 8677,
    "beaut": 8513,
    "resol": 17759,
    "tim": 13789,
    "settle": 16660,
    "edy": 2856,
    "Ġmort": 3457,
    "particularly": 8340,
    "Ġrebellion": 26474,
    "Ġeyebrows": 23516,
    "Ġphara": 23197,
    "ump": 2286,
    "arth": 4443,
    "ger": 1106,
    "bergs": 18681,
    "onze": 21254,
    "ache": 8518,
    "during": 6787,
    "seas": 14031,
    "Ġlikewise": 5386,
    "Ġmaiden": 13384,
    "side": 2303,
    "nourished": 26397,
    "Ġprofuse": 23565,
    "perceive": 12808,
    "bow": 5424,
    "Ġnobleman": 19390,
    "Ġinclosed": 19537,
    "Ġtypewritten": 16419,
    "Ġthrows": 14736,
    "recover": 24623,
    "Ġfall": 2983,
    "extensive": 18712,
    "houses": 9598,
    "vered": 4829,
    "pha": 22753,
    "**:": 4737,
    "Ġtraits": 23074,
    "ict": 595,
    "ald": 15621,
    "Ġextravag": 11253,
    "Ġdelineate": 26057,
    "Ġsow": 17748,
    "loving": 18537,
    "Ġwages": 13852,
    "idation": 5022,
    "Ġpledge": 11600,
    "intellig": 5320,
    "globe": 25142,
    "Ġpapered": 20129,
    "Ġcham": 4892,
    "Ġson": 2979,
    "Ġcomrades": 9553,
    "outre": 18320,
    "Ġinvoluntarily": 8548,
    "Ġsmite": 22555,
    "Ġingratitude": 17467,
    "Ġcaptiv": 16253,
    "Ġrouted": 24907,
    "Ġinherited": 25353,
    "Ġrescue": 13340,
    "Ġplans": 7919,
    "het": 5435,
    "Ġimmense": 4952,
    "help": 1478,
    "Ġmeas": 1096,
    "Ġregimentals": 19857,
    "Ġwilderness": 14838,
    "Ġscraping": 13414,
    "pped": 1995,
    "Ġpostmark": 16724,
    "arial": 5531,
    "Ġswift": 3668,
    "Ġexterm": 21827,
    "Ġdozen": 8186,
    "alty": 17938,
    "Ġsepulch": 15282,
    "beloved": 19459,
    "Ġdesc": 766,
    "Ġhelps": 9365,
    "terrors": 25041,
    "iary": 15368,
    "Ġconnections": 974,
    "heading": 5487,
    "recovered": 19786,
    "veh": 12675,
    "Ġinclined": 6622,
    "eli": 3876,
    "Ġirksome": 13109,
    "Ġrol": 3553,
    "haust": 5777,
    "Ġdoctor": 5067,
    "Ġestate": 6316,
    "jerked": 25618,
    "lutions": 20949,
    "confirm": 16806,
    "supers": 22638,
    "Ġstrangled": 24133,
    "Ġstreets": 5863,
    "Ġmisty": 16538,
    "Ġfell": 1975,
    "aken": 1870,
    "isely": 4489,
    "Ġupbraid": 18317,
    "itute": 9650,
    "Ġgret": 21599,
    "connect": 1293,
    "Ġfring": 11126,
    "paralleled": 14531,
    "Ġmagnanimous": 17409,
    "Ġevident": 6612,
    "Ġrage": 5110,
    "Ġunbecoming": 22060,
    "Ġunparalleled": 15850,
    "Ġveracity": 23887,
    "reader": 23844,
    "chased": 18041,
    "Ġremoved": 5274,
    "Ġquitting": 7645,
    "discovered": 8325,
    "vius": 23541,
    "Ġug": 8141,
    "18": 20750,
    "Ġdev": 891,
    "feels": 22486,
    "Ġlocks": 11722,
    "Ġoverboard": 6045,
    "ĠâĢĶ_": 3456,
    "arying": 9799,
    "¿": 128,
    "Ġabrid": 22270,
    "Ġheeded": 13401,
    "Ġmuhammad": 26169,
    "sixteen": 24853,
    "âĢĶâĢľ": 2967,
    "Ġworsh": 12996,
    "Ġruggedness": 26268,
    "Ġshears": 18319,
    "nur": 11504,
    "Ġsocial": 7006,
    "Ġcheerily": 13305,
    "beh": 5472,
    "Ġbelieves": 14406,
    "Ġthieves": 15632,
    "Ġgrant": 11871,
    "itar": 15543,
    "Ġindulge": 10581,
    "hypothe": 25905,
    "Ġsplinters": 15100,
    "Ġphase": 14469,
    "Ġfallen": 5968,
    "carried": 16711,
    "Ġgardiner": 3237,
    "Ġshoreless": 24294,
    "Ġcomprehending": 24444,
    "explanations": 25234,
    "answered": 10272,
    "Ġpieces": 7369,
    "Ġdishes": 16047,
    "contents": 12056,
    "Ġmarried": 3404,
    "Ġvisions": 12982,
    "thickness": 25367,
    "how": 1643,
    "Ġcurbstone": 26042,
    "accustomed": 13155,
    "Ķ": 247,
    "cherries": 19755,
    "Ġsolace": 16197,
    "Ġmean": 742,
    "pillar": 5618,
    "Ġneedle": 8275,
    "Ġrevelry": 15134,
    "Ġprevail": 13440,
    "Ġunsav": 18251,
    "oquence": 11385,
    "mouth": 9129,
    "crews": 15041,
    "imet": 21704,
    "!_âĢĿ": 11375,
    "dance": 17518,
    "uesday": 8587,
    "ridden": 24361,
    "apprec": 22842,
    "isation": 13891,
    "Ġcloud": 3914,
    "Ġnerve": 16337,
    "wishing": 21127,
    "Ġinaudible": 21497,
    "Ġfrightens": 24028,
    "Ġpartner": 6714,
    "Ġyoke": 18095,
    "30": 20753,
    "Ġmeditate": 16681,
    "vess": 7354,
    "angles": 18295,
    "9": 29,
    "Ġwishes": 4795,
    "Ġrake": 18645,
    "marks": 7346,
    "Ġmerchantmen": 19859,
    "stad": 7597,
    "building": 17307,
    "Ġincarnation": 25573,
    "Ġluc": 3309,
    "Ġobedient": 20103,
    "Ġtropical": 17064,
    "Ġworse": 4719,
    "flies": 19422,
    "Ġcuvier": 9164,
    "Ġanalogical": 25640,
    "Ġutter": 3979,
    "Ġchildish": 13134,
    "draw": 23896,
    "Ġcalm": 3445,
    "Ġdetest": 8500,
    "Ġminister": 18751,
    "star": 12668,
    "itive": 6668,
    "dawson": 26128,
    "Ġ]": 15457,
    "grees": 20885,
    "Ġrepro": 7275,
    "Ġalluding": 18236,
    "ribut": 814,
    "ricane": 16276,
    "Ġadvertisement": 6941,
    "erc": 5905,
    "sh": 648,
    "Ġcompatibility": 2956,
    "Ġallowing": 2176,
    "Ġunharmed": 15137,
    "Ġrobins": 16255,
    "Ġleading": 7297,
    "je": 11494,
    "Ġsemicircle": 26068,
    "Ġdeath": 2041,
    "asily": 13944,
    "bishop": 13692,
    "bit": 3936,
    "Ġsetbacks": 11062,
    "Ġerskine": 17430,
    "consp": 18504,
    "Ġpassers": 18757,
    "Ġhunsford": 6301,
    "founded": 16713,
    "Ġfant": 9172,
    "horr": 14598,
    "agation": 1240,
    "flu": 9116,
    "Ġdiscernment": 15053,
    "aught": 2681,
    "Ġwhether": 1997,
    "eprints": 12788,
    "Ġfaintness": 24569,
    "Ġhom": 9185,
    "Ġbast": 21377,
    "shake": 22453,
    "iverer": 11714,
    "Ġprodig": 6028,
    "Ġatonement": 21940,
    "Ġdistinction": 8884,
    "winter": 10739,
    "ival": 4228,
    "Ġdisasters": 16051,
    "Ġover": 555,
    "Ġjuncture": 17128,
    "Ġmere": 2715,
    "Ġrelinquish": 17345,
    "Ġgrunt": 18736,
    "Ġtolerable": 6949,
    "Ġplush": 18609,
    "week": 12927,
    "Ġninety": 13599,
    "Ġplat": 8520,
    "Ġfloundering": 16247,
    "Ġreader": 11932,
    "itoring": 21330,
    "Ġeffects": 7236,
    "Ġcapabilities": 4376,
    "Ġthrowing": 6335,
    "verdict": 21727,
    "raction": 8138,
    "liable": 3818,
    "Ġobjection": 6585,
    "Ġbegrimed": 26577,
    "Ġacquit": 18896,
    "Ġinsensibly": 20074,
    "Ġarrangement": 2659,
    "feelings": 5674,
    "Ġwhole": 1663,
    "Ġdrive": 5055,
    "case": 5206,
    "Ġbigger": 19760,
    "Ġwhereon": 16098,
    "Ġlegendary": 20536,
    "Ġgroan": 13322,
    "educated": 17258,
    "Ġdriver": 16472,
    "Ġyellow": 5300,
    "itic": 11576,
    "settled": 10505,
    "bler": 11471,
    "Ġenergies": 25459,
    "Ġconquest": 15744,
    "Ġcork": 12566,
    "Ġbidirectional": 3754,
    "Z": 62,
    "fully": 2203,
    "Ġlegible": 23533,
    "itering": 17818,
    "iteness": 4393,
    "Ġmusky": 19380,
    "unched": 10234,
    "Ġunderstand": 833,
    "Ġbeg": 1284,
    "Ġunluck": 8484,
    "aye": 3659,
    "Ġlanded": 7469,
    "variance": 2658,
    "Ý": 158,
    "tiest": 21080,
    "Ġtransportation": 13640,
    "Ġscales": 4849,
    "safie": 20347,
    "striving": 24669,
    "_.âĢĿ": 5886,
    "Ġinhospit": 25452,
    "Ġcongratulated": 19765,
    "lac": 17588,
    "Ġbristles": 25843,
    "Ġapolog": 9042,
    "Ġenumerating": 15242,
    "reach": 17756,
    "Ġoccupations": 9455,
    "pect": 1255,
    "cour": 4480,
    "Ġalarming": 14778,
    "Ġloath": 7891,
    "Ġintersect": 22575,
    "cries": 17509,
    "Ġcredit": 4818,
    "utter": 7593,
    "Ġunquestionable": 26221,
    "als": 2040,
    "Ġpillow": 10036,
    "ella": 12748,
    "comprehensive": 20625,
    "Ġarg": 4766,
    "Ġval": 961,
    "Ġcombination": 22851,
    "tray": 21076,
    "Ġtantalizing": 20412,
    "Ġhuzza": 12629,
    "Ġornam": 15861,
    "Ġcrisis": 13124,
    "Ġacquisition": 18898,
    "Ġdearly": 10400,
    "Ġbubbling": 17324,
    "Ġhandling": 8911,
    "ond": 1162,
    "Ġ76": 24261,
    "Ġresponses": 23647,
    "youn": 5690,
    "wed": 5003,
    "oforte": 14285,
    "akened": 7415,
    "inder": 9151,
    "sip": 10724,
    "obliv": 23095,
    "room": 2180,
    "Ġstirred": 12215,
    "Ġshoulder": 5848,
    "Ġcontrivance": 17182,
    "Ġxxx": 7767,
    "Ġjoyfully": 19344,
    "Ġfatt": 15575,
    "Ġoblivious": 26032,
    "Ġblocked": 19222,
    "gover": 10701,
    "extent": 22767,
    "cous": 8721,
    "Ġbon": 8784,
    "Ġliver": 14226,
    "itect": 959,
    "endeav": 7150,
    "Ġmalacca": 24392,
    "Ġthreatens": 24374,
    "Ġamusement": 8056,
    "izings": 14042,
    "Ġoutrid": 22313,
    "Ġcomm": 838,
    "clever": 20812,
    "Ġtrailing": 23078,
    "Ġgib": 13963,
    "inger": 6812,
    "Ġrelationship": 2316,
    "ulus": 21860,
    "duct": 3504,
    "Ġcetacean": 25878,
    "Ġreigning": 15697,
    "bantering": 25253,
    "remem": 13063,
    "Ġsimil": 2533,
    "partly": 14601,
    "Ġobjectionable": 16990,
    "cks": 3079,
    "Ġpreservative": 24630,
    "rosc": 17954,
    "vitiated": 25754,
    "Ġfading": 15580,
    "Ġdigging": 14936,
    "Ġknighthood": 25297,
    "atre": 17769,
    "Ġasylum": 13664,
    "Ġmelt": 21316,
    "Ġwield": 21289,
    "Ġopera": 23424,
    "Ġsenses": 8252,
    "Ġwholesome": 16002,
    "Ġriddles": 16731,
    "Ġbank": 4877,
    "Ġhedgehogs": 25394,
    "Ġraptures": 13495,
    "Ġsympt": 7012,
    "arpaul": 14535,
    "Ġneglig": 18877,
    "Ġthre": 2058,
    "even": 3837,
    "green": 7115,
    "Ġinhuman": 13927,
    "Ġwill": 678,
    "Ġcher": 6129,
    "Ġplainly": 4380,
    "Ä": 133,
    "marry": 13321,
    "uts": 8814,
    "bourn": 3300,
    "Ġarguments": 8037,
    "suitable": 18631,
    "Ġdistress": 5844,
    "Ġhowling": 8509,
    "Ġfortunate": 6214,
    "Ġlocked": 6035,
    "Ġsociable": 19401,
    "counter": 20277,
    "Ġmisunderstood": 18707,
    "Ġcarter": 18899,
    "Ġusage": 9728,
    "Ġartist": 12908,
    "abond": 15737,
    "Ġflank": 8229,
    "sacrifice": 13490,
    "Ġbreathless": 12167,
    "oy": 1032,
    "Ġargument": 7098,
    "Ġelsewhere": 7713,
    "aws": 8237,
    "Ġdisk": 22520,
    "Ġwaking": 11568,
    "Ġpreface": 18367,
    "peculiarity": 23108,
    "Ġpotency": 14645,
    "Ġeleventh": 23367,
    "Ġvictory": 16652,
    "ld": 385,
    "later": 20952,
    "believing": 19460,
    "Ġhieroglyphics": 17301,
    "Ġimport": 1028,
    "saturday": 14856,
    "Ġreply": 4515,
    "Ġtranspired": 16783,
    "hounds": 20906,
    "Ġgrasp": 4663,
    "Ġdeeply": 4716,
    "Ġflushed": 13023,
    "lifeless": 24311,
    "Ġneck": 4885,
    "Ġgripping": 26186,
    "Ġdiffusion": 23781,
    "Ġdevotees": 25376,
    "Ġconcise": 23320,
    "Ġsaturday": 6452,
    "retreat": 23134,
    "Ġinnocently": 24026,
    "Ġindomit": 22953,
    "Ġconceit": 7295,
    "idelburgh": 10559,
    "Ġbidding": 9535,
    "Ġdoing": 3660,
    "Ġprojected": 16868,
    "fast": 3070,
    "Ġshouldn": 14323,
    "Ġeffort": 8205,
    "Ġthomson": 26453,
    "fedallah": 25522,
    "Ġglut": 18852,
    "Ġclattered": 22350,
    "Ġbuff": 9171,
    "Ġcet": 6669,
    "Ġbrigs": 20321,
    "scorched": 25697,
    "Ġconcent": 8250,
    "Ġunimportant": 22026,
    "!_âĢĶ": 19971,
    "pronounce": 25192,
    "Ġvast": 3295,
    "88": 20757,
    "latin": 25258,
    "Ġthick": 3780,
    "Ġnails": 12644,
    "oused": 6556,
    "##": 2317,
    "Ġsuns": 23272,
    "Ġparaphrasing": 26525,
    "glorious": 19365,
    "atiable": 17773,
    "Ġloom": 7628,
    "Ġscor": 8191,
    "humiliation": 24019,
    "ckets": 6843,
    "Ġturbulence": 26596,
    "Ġgid": 13960,
    "Ġlately": 6387,
    "Ġthirty": 4944,
    "retrie": 18922,
    "tahit": 17691,
    "Ġunconquerable": 22059,
    "pot": 10116,
    "Ġsandwic": 24664,
    "mindful": 19598,
    "south": 8758,
    "Ġtypewriter": 19097,
    "Ġpatch": 4182,
    "kes": 3677,
    "windows": 19533,
    "Ġagon": 10319,
    "Ġvillages": 14747,
    "Ġfibres": 12947,
    "Ġsurpass": 13581,
    "Ġscant": 22283,
    "iot": 9599,
    "Ġmaggie": 26291,
    "Ġsweetly": 23916,
    "gradient": 2275,
    "Ġfix": 2510,
    "Ġcalled": 1971,
    "Ġcircumspect": 15082,
    "Ġjet": 5307,
    "Ġcomply": 8889,
    "requirements": 24857,
    "news": 23130,
    "Ġgerman": 6141,
    "arter": 17893,
    "itional": 22466,
    "Ġcasting": 12098,
    "Ġexclam": 6757,
    "Ġabatement": 22274,
    "ically": 846,
    "sn": 7138,
    "immortal": 21708,
    "Ċ": 203,
    "agement": 4190,
    "mentioned": 10622,
    "telescope": 26561,
    "Ġhyster": 16872,
    "plentiful": 21960,
    "Ġjudiciously": 23876,
    "Ġ78": 19612,
    "Ġrisks": 9962,
    "pulling": 25146,
    "Ġprematurely": 24004,
    "past": 8090,
    "aited": 12433,
    "profess": 10633,
    "Ġlectures": 17177,
    "sherlock": 5422,
    "Ġtreas": 7358,
    "Ġwarrant": 17794,
    "Ġsoothed": 10027,
    "Ġbeggars": 20628,
    "Ġimbalanced": 18333,
    "Ġsloping": 11937,
    "Ġgrating": 14353,
    "Ġnaut": 13939,
    "erial": 4631,
    "Ġinfirm": 19016,
    "Ġgorge": 13564,
    "ividually": 22078,
    "ceptive": 15968,
    "disappeared": 14570,
    "ads": 5718,
    "Ġskylarking": 19485,
    "Ġran": 3341,
    "Ġgestic": 21606,
    "Ġveter": 15808,
    "seated": 11671,
    "Ġeaglet": 19304,
    "Ġthroats": 24574,
    "Ġaccumulates": 2889,
    "Ġphaeton": 17463,
    "Ġperiodical": 14771,
    "hairs": 20903,
    "Ġapprehension": 7113,
    "Ġfumes": 21417,
    "rix": 1573,
    "umb": 3475,
    "pain": 7350,
    "Ġas": 374,
    "ounced": 4954,
    "satisfaction": 9990,
    "_,âĢĻâĢĿ": 20399,
    "hedge": 22499,
    "Ġwarring": 16864,
    "Ġnodes": 1966,
    "Ġfrequently": 4679,
    "belais": 24036,
    "Ġleaking": 21743,
    "Ġirre": 7468,
    "Ġwakeful": 24265,
    "Ġstraightened": 12106,
    "ely": 621,
    "Ġdealer": 23975,
    "Ġwollstonecraft": 26424,
    "Ġrue": 11865,
    "Ġqueen": 3211,
    "Ġthought": 1092,
    "descend": 23084,
    "Ġmonsie": 11446,
    "keel": 14127,
    "Ġconscience": 6929,
    "log": 18534,
    "Ġdusting": 24597,
    "Ġneared": 14073,
    "Ġabounding": 12342,
    "Ġmenacing": 23106,
    "Ġeleven": 9388,
    "Ġscaffold": 18401,
    "Ġargosy": 24272,
    "Ġgaze": 6932,
    "opard": 9289,
    "ugn": 9376,
    "Ġviciously": 24403,
    "spass": 18687,
    "Ġbrush": 17864,
    "Ġdismantled": 20215,
    "oubted": 5859,
    "narrow": 11506,
    "Ġ1883": 23894,
    "Ġerud": 20053,
    "beholding": 16039,
    "Ġtowers": 16737,
    "ins": 1375,
    "Ġroutine": 13506,
    "Ġbir": 17853,
    "Ġcordage": 19677,
    "Ġnar": 7375,
    "suspect": 9538,
    "papers": 12499,
    "bethinking": 25745,
    "Ġlike": 669,
    "ension": 6569,
    "Ġderived": 8239,
    "Ġschools": 9475,
    "Ġvirtue": 4922,
    "yra": 8103,
    "Ġunerringly": 18265,
    "Ġborn": 5224,
    "reinforcement": 7827,
    "Ġbolivia": 24667,
    "Ġranges": 2881,
    "Ġsplashed": 23746,
    "Ġelder": 7224,
    "Ġwedge": 24069,
    "Ġevangelists": 20338,
    "Ġskin": 5038,
    "Ġrepulsive": 14525,
    "Ġmathematics": 12071,
    "Ġdistinct": 4609,
    "Ġrecord": 5316,
    "field": 3071,
    "Ġglo": 1713,
    "Ġbra": 3253,
    "present": 1138,
    "kitty": 10104,
    "Ġpasses": 2680,
    "Ġepsom": 19981,
    "remed": 18952,
    "compassion": 12366,
    "abouts": 9450,
    "Ġcavity": 20486,
    "Ġ1950": 11358,
    "gh": 3801,
    "Ġexecutors": 19532,
    "incom": 21180,
    "sol": 1789,
    "persons": 24173,
    "Ġranging": 8478,
    "Ġ87": 19709,
    "Ġconceived": 8150,
    "stepfather": 19189,
    "madness": 14880,
    "understood": 13214,
    "Ã": 132,
    "paint": 21017,
    "Ġeffaced": 18542,
    "apsed": 6295,
    "Ġhealth": 3906,
    "Ġpursued": 6328,
    "Ġsmaller": 1884,
    "Ġsilly": 7686,
    "Ġorgans": 15862,
    "Ġhotels": 19535,
    "affectionate": 24921,
    "Ġvinegar": 20098,
    "Ġfurnaces": 24003,
    "op": 659,
    "Ġmurmur": 14588,
    "lies": 15379,
    "Ġphilosophical": 26334,
    "Ġsupper": 4665,
    "cords": 25136,
    "Ġripp": 11218,
    "Ġindefatigable": 17176,
    "Ġdived": 9176,
    "Ġkne": 4267,
    "clear": 9022,
    "Ġroads": 13286,
    "Ġjingling": 26017,
    "ect": 380,
    "txt": 12513,
    "Ġ(_": 3734,
    "Ġliveliness": 13641,
    "Ġmonster": 3794,
    "Ġnotable": 18222,
    "Ġfiltering": 23923,
    "lingering": 18601,
    "Ġtick": 8109,
    "Ġdefection": 22940,
    "Ġsockets": 22083,
    "Ġcontrary": 5260,
    "Ġstaple": 26198,
    "Ġpurplish": 19140,
    "Ġmeasures": 1205,
    "moor": 22700,
    "Ġrevolt": 24500,
    "Ġstagger": 10590,
    "Ġmimic": 3143,
    "Ġcorrupt": 11921,
    "Ġimpertinence": 11365,
    "Ġbillows": 7502,
    "Ġingenious": 12346,
    "Ġsumatra": 15284,
    "Ġdepicting": 22607,
    "Ġexterior": 19986,
    "Ġpoignant": 22591,
    "Ġbind": 12579,
    "Ġslipping": 13358,
    "Ġchronicler": 20228,
    "runs": 25415,
    "placed": 7881,
    "say": 3988,
    "cleanliness": 25871,
    "icts": 22400,
    "volut": 1557,
    "convolutional": 4958,
    "Ġshipw": 12974,
    "Ġsketch": 16161,
    "hand": 2757,
    "Ġconject": 6027,
    "Ġunsocial": 18256,
    "Ġcharming": 6628,
    "Ġproving": 15748,
    "Ġsteam": 9351,
    "emason": 18181,
    "Ġdrown": 6815,
    "Ġinputs": 843,
    "Ġanonymous": 26178,
    "swimming": 24257,
    "Ġsoftly": 7948,
    "Ġobserv": 8586,
    "Ġfry": 17879,
    "Ġmethodology": 2404,
    "Ġaccomplishments": 13377,
    "berish": 22714,
    "Ġplanet": 14749,
    "Ġappointed": 20101,
    "Ġparc": 10919,
    "Ġlarge": 1063,
    "Ġattracted": 8903,
    "Ġdumbly": 24987,
    "Ġrefined": 18699,
    "Ġrefreshing": 20263,
    "Ġdome": 15585,
    "Ġmach": 13855,
    "Ġinfidel": 13085,
    "ameter": 3227,
    "lord": 3867,
    "german": 11490,
    "ties": 2758,
    "cape": 13695,
    "toes": 22562,
    "Ġduplicity": 25331,
    "azing": 7705,
    "Ġhack": 12752,
    "Ġexert": 5722,
    "Ġloungers": 24862,
    "Ġtrial": 6634,
    "tide": 11531,
    "Ġglu": 15664,
    "surv": 24212,
    "Ġunra": 18237,
    "amiable": 14052,
    "bout": 20772,
    "inary": 3272,
    "Ġtomahawk": 7539,
    "Ġadopted": 15176,
    "othe": 2617,
    "Ġnorth": 4319,
    "ouble": 2663,
    "Ġwhal": 5454,
    "kindred": 24048,
    "Ġthoughtfully": 12975,
    "Ġultimate": 12347,
    "Ġprior": 11317,
    "Ġhardy": 8565,
    "avoid": 9303,
    "Ġtranslations": 12050,
    "otherwise": 7671,
    "Ġasph": 21896,
    "Ġrudimental": 25108,
    "ompl": 4536,
    "Ġla": 5913,
    "isition": 11584,
    "Ġintimately": 24804,
    "Ġ101": 24408,
    "Ġblasphemer": 26116,
    "Ġrush": 5925,
    "Ġshoving": 23490,
    "Ġelevated": 7318,
    "Ġmarlingspike": 26578,
    "Ġagain": 813,
    "Ġcounterbalance": 24722,
    "arb": 1560,
    "))": 1513,
    "^": 66,
    "Ġde": 365,
    "Ġweighted": 2089,
    "Ġmoored": 11790,
    "Ġexertions": 13408,
    "Ġchagrin": 20606,
    "Ġbustle": 17226,
    "Ġexactly": 2767,
    "A": 37,
    "Ġcitations": 25437,
    "burning": 25078,
    "scorn": 22987,
    "Ġbrushed": 15567,
    "Ġovercome": 6044,
    "lemagne": 26435,
    "Ġbluish": 23648,
    "Ġant": 4345,
    "Ġoffspring": 16142,
    "haz": 17563,
    "unwilling": 14059,
    "Ġregal": 16066,
    "Ġcastaway": 16639,
    "Ġcaliforn": 14429,
    "Ġunravel": 26214,
    "Ġleakage": 23458,
    "thirst": 15822,
    "olets": 21007,
    "ess": 409,
    "Ġobey": 9517,
    "utions": 1891,
    "mill": 13752,
    "Ì": 141,
    "librarian": 26567,
    "Ġet": 3580,
    "Ġtexel": 25923,
    "Ġclerks": 17293,
    "Ġtoiled": 12638,
    "Ġapothecary": 13657,
    "ileries": 18058,
    "ultaneously": 4195,
    "azz": 8262,
    "Ġabroad": 8864,
    "Ġdressed": 5081,
    "endent": 15919,
    "orated": 12588,
    "professional": 20274,
    "Ġincess": 8431,
    "âĢ": 294,
    "Ġsmothe": 18573,
    "Ġmason": 10156,
    "Ġvomit": 21944,
    "flakes": 23966,
    "Ġanswered": 2849,
    "maybe": 23989,
    "Ġevinced": 7100,
    "medium": 23638,
    "Ë": 140,
    "Ġbread": 5404,
    "Ġparchment": 13650,
    "Ġtraged": 9350,
    "Ġbubb": 12581,
    "Ġhath": 12624,
    "Ġuniversity": 13119,
    "nav": 17611,
    "hooked": 23714,
    "helped": 18923,
    "addition": 13382,
    "various": 10396,
    "ctive": 11622,
    "ostent": 16845,
    "®": 111,
    "Ġfre": 1570,
    "dearest": 11733,
    "arus": 13910,
    "threat": 10899,
    "Ġmccarthy": 5145,
    "inkling": 16086,
    "Ġalterations": 19870,
    "pered": 4199,
    "Ġawe": 7147,
    "ivened": 22963,
    "Ġaudacity": 19881,
    "âĢĶâĢĻ": 8188,
    "Ġknock": 9971,
    "hands": 5967,
    "Ġspires": 11729,
    "Ġmanner": 2197,
    "ow": 325,
    "yingly": 23058,
    "hauled": 20667,
    "Ġbelonging": 8308,
    "additional": 20462,
    "Ġdirty": 9177,
    "Ġkindliness": 23292,
    "upright": 23016,
    "ced": 695,
    "returning": 12203,
    "zz": 4293,
    "Ġacquired": 13040,
    "Ġentering": 6285,
    "patter": 4145,
    "Ġpast": 2097,
    "Ġcharles": 11954,
    "marrying": 19546,
    "Ġadie": 8488,
    "Ġspeak": 2232,
    "Ġrighteous": 18945,
    "fail": 17539,
    "infl": 15485,
    "beautiful": 10647,
    "Ġgrand": 3592,
    "Ġleads": 12094,
    "Ġshould": 864,
    "Ġledge": 19399,
    "Ġroving": 22401,
    "Ġfab": 15572,
    "Ġdrowsiness": 26444,
    "Ġmonkey": 8227,
    "Ġexploring": 4305,
    "quality": 10231,
    "permitted": 18346,
    "Ġgrasping": 12163,
    "pots": 11512,
    "Ġstack": 21731,
    "Ġhold": 2245,
    "Ġmanufact": 22326,
    "hatchet": 24822,
    "hopeless": 16916,
    "owal": 13991,
    "missing": 13216,
    "Ġpleasures": 11142,
    "peculiarities": 13469,
    "always": 5708,
    "blubber": 15234,
    "Ġwisdom": 11232,
    "Ġwipe": 25764,
    "Ġtravels": 11925,
    "elizabeth": 1984,
    "Ġaback": 22264,
    "Ġgum": 21593,
    "intern": 23734,
    "Ġplacing": 8899,
[...]
