{
  "metadata": {
    "vocab_size": 26615,
    "algorithm": "BPE",
    "created_at": "2026-05-04 05:33:24",
    "special_tokens": [
      "<PAD>",
      "<SOS>",
      "<EOS>",
      "<UNK>",
      "<MASK>"
    ]
  },
  "vocab": {
    "Ġres": 695,
    "Ġmeantime": 6207,
    "altering": 12644,
    "Ġrueful": 25582,
    "Ġcharley": 19007,
    "Ġperseus": 10605,
    "Ġopenness": 18958,
    "Ġcre": 887,
    "Ġinsens": 8278,
    "Ġago": 3135,
    "le": 279,
    "phant": 6288,
    "Ġlanes": 19768,
    "organ": 15577,
    "Ġceasing": 23760,
    "allingly": 22204,
    "Ġscener": 10950,
    "Ġsqueeze": 10041,
    "lydon": 13991,
    "disposition": 10044,
    "roses": 17959,
    "nature": 5360,
    "confirmation": 26090,
    "Ġtransf": 22442,
    "adagrad": 9693,
    "Ġrestoration": 19028,
    "Ġbumpkin": 20203,
    "circumamb": 26088,
    "Ġtranslation": 3086,
    "Ġsleep": 2403,
    "speech": 10668,
    "Ġinnocent": 4921,
    "03": 20750,
    "grinder": 23418,
    "japan": 15377,
    "Ġlicensing": 20096,
    "sphere": 22742,
    "Ġmalicious": 10559,
    "seen": 2880,
    "Ġpill": 7847,
    "Ġnecks": 18182,
    "characteristic": 24686,
    "Ġones": 3018,
    "Ġdomains": 6612,
    "Ġhaul": 11695,
    "Ġcalm": 3447,
    "Ġship": 1091,
    "eness": 2293,
    "Ġelement": 6897,
    "Ġintend": 12768,
    "nameless": 19905,
    "Ġanomalously": 25639,
    "Ġswain": 18882,
    "Ġways": 5396,
    "Ġcomplain": 6686,
    "Ġmagical": 23103,
    "idav": 18095,
    "Ġwaned": 17793,
    "Ġassociations": 14965,
    "Ġgripping": 26188,
    "Ġtoiled": 12646,
    "water": 4868,
    "Ġante": 17898,
    "Ġpew": 9317,
    "Ġbarbar": 6934,
    "Ġworkmen": 23025,
    "Ġtidings": 11398,
    "Ġpal": 4041,
    "Ġruff": 14351,
    "Ġkindled": 19033,
    "Ġoccupation": 9933,
    "Ġcrazy": 8596,
    "Ġstrongly": 5657,
    "Ġdeact": 18138,
    "Ġinsect": 12640,
    "Ġhusbands": 16644,
    "oforte": 14288,
    "Ġgoal": 10303,
    "Ġafghan": 22634,
    "oct": 7554,
    "Ġchann": 15938,
    "catherine": 7128,
    "¤": 102,
    "rifle": 21049,
    "imprudent": 14652,
    "Ġvesture": 20065,
    "airs": 2224,
    "keys": 15861,
    "holland": 24044,
    "istence": 2463,
    "exposure": 19259,
    "whel": 7666,
    "ig": 322,
    "Ġgenus": 24428,
    "cigar": 26125,
    "ac": 698,
    "anation": 5804,
    "gaze": 17558,
    "Ġjig": 15954,
    "Ġpure": 6138,
    "rated": 6228,
    "Ġhandspike": 22702,
    "Ġg": 310,
    "compasses": 19461,
    "Ġbeat": 4490,
    "repeating": 20132,
    "cused": 15334,
    "Ġrussia": 26269,
    "Ġcivilized": 8668,
    "Ġshrunk": 16719,
    "Ġgrasped": 8035,
    "Ġnoiselessly": 22867,
    "Ġdeeps": 16110,
    "Ġcontribute": 12865,
    "Ġscholar": 26112,
    "attered": 4019,
    "Ġdreamy": 14705,
    "pal": 9618,
    "confirm": 16808,
    "forgot": 11034,
    "Ġstren": 15723,
    "Ġoverhear": 15978,
    "Ġde": 363,
    "Ġhypotheses": 4386,
    "Ġrepent": 9865,
    "Ġshrivelled": 19706,
    "Ġlooking": 2476,
    "trick": 19416,
    "Ġstupidity": 15051,
    "Ġaper": 17744,
    "manif": 14375,
    "Ġarrog": 18338,
    "Ġ51": 24315,
    "Ġimmedi": 2903,
    "Ġfault": 5702,
    "Ġfelt": 1747,
    "finger": 10095,
    "Ġcounted": 12143,
    "Ġfog": 9663,
    "clouded": 20334,
    "harmony": 25751,
    "À": 129,
    "Ġsolace": 16202,
    "Ġfaces": 6010,
    "Ġengaged": 3429,
    "turn": 4291,
    "Ġbeeches": 9228,
    "Ġaghast": 16050,
    "idge": 14016,
    "look": 2265,
    "Ġgap": 21603,
    "Ġhistorically": 19381,
    "Ġreserve": 9973,
    "Ġsunny": 13089,
    "Ġinjection": 3467,
    "Ġtraps": 23085,
    "Ġnets": 21528,
    "Ġfavoring": 2345,
    "Ġniagara": 26459,
    "Ġseeing": 2884,
    "linging": 16085,
    "Ġbedford": 7475,
    "Ġmarshy": 20221,
    "Ġaccurately": 4175,
    "Ġ[\"": 19933,
    "Ġhan": 15621,
    "jackets": 24896,
    "Ġcould": 703,
    "miniature": 16766,
    "Ġglacier": 11434,
    "heavens": 19748,
    "Ġwell": 901,
    "hastily": 19705,
    "2": 22,
    "Ġcontro": 1688,
    "Ġtreading": 16506,
    "quiet": 6155,
    "Ġoverflowing": 17239,
    "harpo": 4805,
    "Ġerrone": 14432,
    "precise": 19354,
    "Ġemblaz": 16233,
    "Ġsafe": 5102,
    "Ġheading": 8937,
    "Ġfath": 7363,
    "Ġcommand": 3323,
    "many": 5250,
    "inking": 6710,
    "half": 4931,
    "Ġprehens": 22236,
    "Ġdebility": 24274,
    "Ġoct": 10160,
    "Ġunrivalled": 26520,
    "threw": 21989,
    "thing": 1482,
    "thomas": 18220,
    "Ġflatter": 9350,
    "Ġprobably": 4313,
    "Ġmarines": 16263,
    "Ġimpropriety": 17398,
    "urs": 6989,
    "impregnable": 26482,
    "Ġlatitude": 8330,
    "Ġbloodthirst": 23804,
    "Ġnarwhale": 12296,
    "latitudes": 17198,
    "Ġenvelopes": 24506,
    "Ġnight": 1467,
    "Ġowns": 22828,
    "Ġhy": 5625,
    "Ġjoke": 8871,
    "Ġhatty": 19267,
    "icken": 6712,
    "Ġcage": 17827,
    "Ġliberties": 19670,
    "Ġapproached": 5844,
    "Ġcrib": 21351,
    "bushes": 24446,
    "Ġenlarge": 21940,
    "Ġdeduced": 12211,
    "Ġunspeakably": 25173,
    "Ġremo": 3786,
    "agree": 14069,
    "Ġplayfulness": 23639,
    "jolly": 20933,
    "hat": 6955,
    "bouton": 17503,
    "Ġbreathless": 12173,
    "Ġprodigies": 19796,
    "Ġteneriffe": 26415,
    "Ġhate": 5445,
    "ifference": 5632,
    "Ġworshipping": 22932,
    "Ġqualifications": 24676,
    "Ġdut": 2987,
    "perfectly": 9088,
    "6": 26,
    "immedi": 8452,
    "propriety": 14369,
    "Ġobsequious": 17406,
    "Ġsaint": 15509,
    "Ġtunes": 24621,
    "Ġmoulded": 16976,
    "Ġglue": 15677,
    "Ġconstraints": 2740,
    "Ġcreature": 2385,
    "Ġpresc": 15928,
    "Ġproducts": 5197,
    "Ġcontemptuous": 24677,
    "merc": 19282,
    "Ġrepay": 19083,
    "Ġvortex": 26210,
    "Ġleave": 2459,
    "Ġhosmer": 6774,
    "Ġobstetrics": 24679,
    "ulnerable": 18153,
    "orient": 2878,
    "Ġelixir": 26556,
    "Ġconjunction": 25103,
    "Ġdisregard": 22533,
    "ilty": 6394,
    "Ġsights": 7472,
    "m": 81,
    "Ġdoze": 14176,
    "tempestuous": 26098,
    "Ġnominally": 17233,
    "Ġevils": 9022,
    "deserted": 19344,
    "Ġdrugged": 12606,
    "Ġnatur": 17336,
    "Ġterrified": 14673,
    "Ġmore": 676,
    "Ġcompute": 2904,
    "Ġinfant": 11964,
    "Ġdisquis": 22532,
    "Ġbravery": 23840,
    "Ġdestruction": 6601,
    "thankful": 16807,
    "Ġstoutly": 16925,
    "Ġcl": 553,
    "Ġcalamity": 17351,
    "Ġdeceived": 6545,
    "Ġderanged": 23178,
    "inno": 10757,
    "Ġdelights": 14597,
    "ctu": 5087,
    "Ġappropriate": 2253,
    "Ġenvied": 19286,
    "Ġunder": 1637,
    "Ġrifled": 21981,
    "fra": 8376,
    "shr": 10979,
    "Ġfootpath": 19340,
    "Ġwanting": 6722,
    "chancing": 22910,
    "obtain": 23098,
    "Ġmel": 4817,
    "uned": 21876,
    "Ġcaps": 8417,
    "Ġantelope": 24182,
    "aling": 1035,
    "scot": 14420,
    "Ġlessen": 14533,
    "enc": 7574,
    "Ġlances": 6984,
    "Ġcanada": 22170,
    "sway": 15426,
    "rat": 8759,
    "Ġincumbent": 16068,
    "quakes": 21855,
    "Ġpolynesian": 26027,
    "monsters": 19173,
    "Ġdesire": 3719,
    "Ġinsatiable": 19274,
    "rief": 6203,
    "Ġperseverance": 13600,
    "metallic": 19882,
    "dis": 2254,
    "Ġexperience": 1407,
    "Ġcompliment": 5673,
    "Ġpurchase": 12263,
    "Ġbiases": 2401,
    "invol": 12534,
    "Ġsex": 8845,
    "Ġpurchas": 19876,
    "ĠĠĠĠĠĠĠĠĠĠĠĠĠĠĠĠĠĠĠĠĠĠĠĠĠĠ": 13391,
    "advancing": 14838,
    "Ġtrustworthy": 24107,
    "ina": 21182,
    "Ġstochastic": 3267,
    "Ġblade": 11896,
    "Ġsuspense": 9420,
    "amp": 2605,
    "sych": 9893,
    "Ġceremonious": 24838,
    "18": 20753,
    "Ġimmensity": 25330,
    "idents": 6151,
    "foundered": 20869,
    "Ġregretted": 13403,
    "Ġsideways": 6183,
    "orses": 6053,
    "arpening": 21447,
    "Ġposterity": 17404,
    "Ġmoustache": 20487,
    "Ġprofoundest": 16861,
    "Ġintimidated": 24802,
    "Ġinvariably": 8065,
    "Ġvariants": 1793,
    "greek": 25405,
    "Ġgratefully": 20448,
    "Ġlaurel": 20656,
    "Ġutilize": 4798,
    "Ġsurm": 7476,
    "entiating": 3438,
    "cano": 18840,
    "Ġconsecutive": 20705,
    "Ġpurp": 2396,
    "aphs": 22341,
    "Ġvener": 8165,
    "Ġchagrin": 20610,
    "Ġbarrier": 16571,
    "Ġmicha": 17813,
    "Ġincurable": 22558,
    "ye": 1403,
    "Ġexasper": 8468,
    "Ġpictures": 5503,
    "suspect": 9542,
    "baden": 25616,
    "seemed": 4303,
    "social": 11024,
    "success": 6711,
    "Ġbern": 17860,
    "Ġcreatures": 4136,
    "Ġstrip": 9423,
    "Ġclaim": 5105,
    "doors": 19096,
    "rough": 590,
    "Ġloads": 22119,
    "ostent": 16847,
    "ny": 4016,
    "Ġprecipitous": 24836,
    "lightened": 12068,
    "belled": 24039,
    "Ġhelmsman": 10506,
    "Ġtruck": 19514,
    "Ġaside": 5233,
    "Ġslightest": 6093,
    "Ġclassify": 1586,
    "Ġboxes": 13377,
    "Ġ121": 24465,
    "successfully": 14993,
    "Ġvelvet": 12401,
    "Ġdens": 21428,
    "Ġmodeling": 2096,
    "Ġcrutch": 23447,
    "Ġtransient": 18481,
    "Ġboast": 7035,
    "Ġsailed": 4888,
    "sides": 12511,
    "Ġoverwhelming": 17102,
    "centred": 25020,
    "?âĢĻâĢĿ": 23645,
    "Ġreced": 15695,
    "Ġmob": 16020,
    "steady": 14711,
    "beards": 22496,
    "Ġvertical": 16605,
    "Ġnor": 1549,
    "bewil": 22503,
    "Ġcomplied": 14736,
    "binnacle": 20789,
    "Ġgrudge": 20696,
    "·": 120,
    "Ġveritable": 19384,
    "Ġbacked": 12928,
    "ears": 20847,
    "Ġwall": 3843,
    "Ġknew": 2055,
    "context": 3405,
    "ator": 1924,
    "Ġassiduous": 26294,
    "sixteen": 24854,
    "pedest": 24823,
    "Ġconvict": 23747,
    "aced": 2418,
    "Ġproceeded": 5335,
    "leviathans": 19941,
    "Ġnay": 5711,
    "Ġimbu": 15894,
    "sentiment": 12918,
    "Ġintended": 5547,
    "story": 9214,
    "Ġmysteriously": 24603,
    "ĠĠĠĠ": 459,
    "Ġbelonged": 6921,
    "wanderer": 25424,
    "deal": 12803,
    "Ġrender": 8306,
    "Ġfin": 1461,
    "Ġpoint": 2056,
    "Ġfloating": 6605,
    "says": 13303,
    "accuracy": 9881,
    "Ġvehicles": 10661,
    "kins": 7344,
    "Ġtormented": 8678,
    "Ġfamily": 1968,
    "Ġbursting": 8659,
    "Ġlegendary": 20540,
    "prehend": 14244,
    "ider": 21770,
    "Ġfumes": 21422,
    "Ġscalable": 1611,
    "Ġimprobable": 9796,
    "Ġrapt": 7225,
    "queequeg": 4333,
    "Ġendowed": 18925,
    "isting": 5550,
    "iscient": 17853,
    "Ġlancaster": 26342,
    "Ġundoubtedly": 8314,
    "Ġconsoled": 18115,
    "cool": 19190,
    "wickham": 5885,
    "sky": 12514,
    "Ġweaken": 21926,
    "Ġblows": 5974,
    "Ġvalued": 12186,
    "Ġeager": 3571,
    "watson": 12247,
    "Ġautomatically": 3622,
    "Ġemerg": 13427,
    "Ġdeficiency": 14405,
    "Ġdoubtfully": 23479,
    "rus": 5931,
    "Ġkinds": 14506,
    "Ġfails": 13317,
    "Ġcabs": 23643,
    "Ġsire": 15503,
    "Ġlongitudes": 22638,
    "Ġinnoc": 3795,
    "Ġspecies": 5111,
    "Ġalbatross": 10872,
    "Ġdictated": 25219,
    "absence": 12712,
    "rative": 17653,
    "Ġsunbeam": 23279,
    "Ġshowed": 4495,
    "Ġcolumns": 14378,
    "Ġdaw": 21433,
    "Ġpuppy": 12408,
    "prot": 6898,
    "Ġroast": 18456,
    "broken": 8021,
    "Ġsequences": 1754,
    "point": 6064,
    "Ġlatent": 19658,
    "Ġimpass": 15988,
    "Ġtrem": 6661,
    "connect": 1292,
    "Ġauthorized": 16736,
    "deduction": 23674,
    "Ġderives": 16311,
    "Ġpurplish": 19142,
    "Ġtire": 17721,
    "Ġfathoms": 9085,
    "Ġsqualls": 17021,
    "Ġsewing": 21966,
    "Ġsworn": 14437,
    "Ġ79": 24266,
    "Ġn": 300,
    "iciously": 17976,
    "bonnet": 25743,
    "Ġdeath": 2043,
    "ender": 9162,
    "Ġswallowed": 7945,
    "avish": 22602,
    "Ġfelicity": 7259,
    "ww": 10738,
    "Ġgrimes": 11035,
    "Ġpowers": 5419,
    "hook": 12056,
    "securer": 25603,
    "hatchet": 24819,
    "Ġinflexibly": 26372,
    "Ġsallied": 12541,
    "Ġwit": 3842,
    "Ġbrigandish": 25488,
    "Ġunerring": 15850,
    "Ġaccident": 5380,
    "Ġgreatest": 4092,
    "Ġtested": 23218,
    "Ġbarbara": 24815,
    "ourers": 21453,
    "judgment": 16754,
    "renched": 7909,
    "enges": 13058,
    "tree": 11535,
    "Ġslopes": 18943,
    "Ġaccuracy": 1133,
    "Ġstra": 2990,
    "Ġungovernable": 20711,
    "were": 2557,
    "Ġdevice": 1931,
    "Ġbestowed": 6594,
    "Ġceaseless": 13491,
    "tumultuously": 25614,
    "ascribed": 24707,
    "oub": 1635,
    "Ġtenants": 23549,
    "Ġdispirited": 23885,
    "bbings": 19278,
    "Ġnantucketer": 6913,
    "th": 408,
    "wrinkled": 16555,
    "Ġirritation": 20269,
    "Ġtyph": 10010,
    "Ġconcer": 23324,
    "Ġscrew": 8870,
    "Ġalleged": 17292,
    "startled": 24944,
    "Ġabomin": 8190,
    "Ġirritated": 17243,
    "ub": 1226,
    "Ġdisconcerted": 18563,
    "observation": 17271,
    "ĠĠĠĠĠĠĠĠĠĠĠĠĠĠĠĠĠĠĠĠĠĠĠĠĠĠĠĠĠĠĠĠĠĠĠĠĠĠĠĠĠĠĠĠĠĠĠĠĠĠĠ": 20042,
    "Ġcirc": 1986,
    "Ġfeeding": 7973,
    "repid": 11566,
    "whispering": 26104,
    ".}": 20747,
    "impat": 11203,
    "appear": 13201,
    "Ġplight": 14284,
    "Ġbrix": 12587,
    "returning": 12209,
    "Ġperdition": 15995,
    "bergs": 18684,
    "Ġwhalebone": 10978,
    "Ġsinister": 8571,
    "Ġcrouched": 23442,
    "magnificent": 20277,
    "Ġrocking": 10970,
    "otently": 21805,
    "Ġreducing": 1959,
    "Ġspectacle": 10498,
    "Ġbreckinridge": 14524,
    "Ġdisadvantage": 12894,
    "Ġunique": 12782,
    "Ġpaddle": 20062,
    "confidential": 25877,
    "Ġreflecting": 24750,
    "Ġskip": 1844,
    "float": 19808,
    "Ġcoats": 16082,
    "Ġneedle": 8276,
    "poled": 22912,
    "Ġdistricts": 20266,
    "semicirc": 26492,
    "Ġsent": 1777,
    "shining": 18486,
    "abash": 18110,
    "Ġrepe": 3282,
    "Ġdistinctions": 18536,
    "Ġvisions": 12981,
    "intim": 22938,
    "Ġundivided": 24121,
    "antled": 18287,
    ".;": 20746,
    "Ġremoter": 20109,
    "Ġpromises": 10402,
    "ered": 1685,
    "Ġjost": 23633,
    "Ġhack": 12760,
    "erated": 21273,
    "ä": 165,
    "pumps": 21029,
    "Ġattacking": 24464,
    "lilies": 20963,
    "Ġdispel": 16597,
    "problems": 11435,
    "Ġsooner": 5572,
    "professional": 20278,
    "iffs": 9024,
    "savagery": 25028,
    "Ġdest": 2241,
    "Ġexpressly": 16454,
    "Ġcoldly": 14651,
    "Ġpoet": 8210,
    "Ġ134": 24783,
    "regularization": 3515,
    "warrior": 24797,
    "Ġapprehen": 16830,
    "Ġrallied": 14097,
    "Ġcelebrate": 26359,
    "Ġloops": 8855,
    "Ġtranslations": 12055,
    "._)": 10482,
    "bowsprit": 16854,
    "animals": 24737,
    "Ġbra": 3256,
    "olera": 21838,
    "Ġsen": 9158,
    "Ġcher": 6130,
    "Ġstates": 1851,
    "Ġrecords": 12199,
    "distant": 13338,
    "furnished": 20244,
    "married": 9951,
    "Ġincreases": 3796,
    "Ġblu": 2685,
    "Ġapparel": 20439,
    "since": 5896,
    "Ġrepeating": 11214,
    "Ġreiterating": 26475,
    "ag": 377,
    "Ġthrill": 24540,
    "Ġsounding": 8266,
    "/`": 12432,
    "Ġresponsible": 9888,
    "Ġsple": 21218,
    "storied": 18027,
    "Ġsensibility": 14516,
    "Ġmidday": 23635,
    "phia": 22775,
    "source": 11527,
    "folly": 20864,
    "Ġtwisting": 18659,
    "Ġaccustomed": 6860,
    "Ġexposed": 8524,
    "aging": 2242,
    "Ġattracted": 8907,
    "Ġstruggled": 9907,
    "greater": 13255,
    "Ġentreating": 24209,
    "coarse": 16488,
    "Ġtechnique": 2326,
    "Ġseparated": 9466,
    "Ġfortun": 4981,
    "Ġhundredth": 16520,
    "Ġbrazen": 23843,
    "conqu": 14246,
    "Ġspouter": 12802,
    "Ġparsonage": 7124,
    "Ġcongenial": 12414,
    "Ġidentify": 12016,
    "Ġambergris": 8709,
    "furn": 10093,
    "mult": 8751,
    "arily": 4124,
    "Ġswell": 8951,
    "Ġcovent": 16080,
    "Ġmaze": 23834,
    "helm": 12175,
    "sounded": 12270,
    "Ġlurid": 19684,
    "Ġcorre": 3888,
    "Ġexpectantly": 23526,
    "Ġsolitary": 5855,
    "Ġstomach": 11655,
    "Ġsettled": 3743,
    "great": 3517,
    "Ġerror": 1768,
    "fiery": 13584,
    "Ġantiquities": 25599,
    "Ġmontan": 22987,
    "glad": 9010,
    "scent": 13025,
    "Ġbutcher": 18272,
    "Ġprocedural": 12033,
    "Ġbelongs": 8016,
    "intosh": 22944,
    "whiskers": 12314,
    "Ġbusied": 19066,
    "imely": 14000,
    "85": 13684,
    "Ġyears": 1893,
    "content": 11198,
    "row": 1067,
    "Ġbutton": 10269,
    "Ġwindlass": 7254,
    "sto": 3200,
    "Ġsignific": 3829,
    "tps": 11536,
    "Ġdecayed": 22829,
    "Ġbeasts": 10619,
    "Ġrapidity": 11101,
    "deeply": 16188,
    "Ġoak": 6129,
    "Ġprejudiced": 24806,
    "Ġintrusted": 21997,
    "breeze": 20565,
    "sford": 5999,
    "Ġcheating": 16372,
    "Ġpatagonian": 20536,
    "Ġconceive": 8463,
    "._": 3222,
    "Ġclang": 15968,
    "Ġvir": 7001,
    "Ġrambling": 18645,
    "Ġpersian": 11092,
    "exhibited": 18478,
    "Ġvestige": 20066,
    "harrow": 20910,
    "mselves": 2861,
    "ual": 946,
    "Ġdrugg": 17121,
    "Ġinadequate": 17939,
    "Ġassemblage": 26354,
    "Ġlomb": 21563,
    "traces": 24335,
    "verse": 9690,
    "oses": 3947,
    "dogs": 25403,
    "Ġagonizing": 17240,
    "Ġexchanging": 18134,
    "Ġharpooned": 13265,
    "Ġsalted": 14758,
    "Ġassigned": 16314,
    "www": 17253,
    "stalk": 21654,
    "Ġparting": 9786,
    "longer": 8616,
    "Ġdiscount": 22786,
    "Ġsol": 1101,
    "¦": 104,
    "rospect": 11614,
    "Ġprivilege": 11420,
    "edd": 1222,
    "Ġexpon": 967,
    "Ġmelted": 19624,
    "Ġubiqu": 18049,
    "Ġlashed": 9200,
    "children": 9057,
    "Ġrefreshing": 20267,
    "Ġquote": 18467,
    "Ġwrought": 11947,
    "ivility": 12793,
    "Ġply": 21456,
    "Ġheartless": 13076,
    "leaped": 17845,
    "iability": 20922,
    "Ġdelicate": 6480,
    "Ġmechanism": 2119,
    "Ġpropagating": 20636,
    "Ġphyset": 23204,
    "Ġunhappy": 5640,
    "whaleman": 23439,
    "dispute": 23501,
    "neath": 12870,
    "iocr": 20925,
    "Ġstaid": 21740,
    "Ġfarthing": 14456,
    "Ġeasy": 3452,
    "Ġpalpit": 16691,
    "Ġmouldy": 14976,
    "Ġdeceiving": 21842,
    "urpation": 16304,
    "Ġbrisk": 9805,
    "Ġcured": 21350,
    "wood": 5899,
    "Ġwatson": 3598,
    "bered": 4503,
    "scale": 3536,
    "church": 8141,
    "cous": 8725,
    "steaks": 23964,
    "Ġchowders": 18387,
    "Ġnewly": 9340,
    "ourage": 2453,
    "chance": 6826,
    "firmly": 20283,
    "straw": 24098,
    "Ġpeddler": 26181,
    "Ġausten": 5882,
    "encounter": 20395,
    "Ġheap": 12682,
    "Ġobstacle": 16956,
    "breaths": 25337,
    "sister": 5138,
    "oid": 3126,
    "Ġaffectionately": 13171,
    "rud": 4191,
    "Ġplank": 7034,
    "xic": 9147,
    "Ġparents": 6753,
    "Ġwarmth": 6904,
    "Ġphrenologists": 25609,
    "Ġsuckling": 25998,
    "Ġsenate": 25215,
    "Ġme": 351,
    "iety": 2817,
    "us": 532,
    "isms": 12584,
    "Ġlug": 15655,
    "Ġwearily": 18180,
    "confess": 12179,
    "eds": 6530,
    "cary": 10692,
    "fired": 20862,
    "boom": 18999,
    "ici": 8442,
    "Ġpeered": 18669,
    "Ġschoolmaster": 16863,
    "hew": 5285,
    "delay": 16696,
    "Ġale": 9156,
    "Ġpresence": 5030,
    "Ġharb": 7369,
    "Ġpapers": 4022,
    "semble": 1524,
    "Ġaz": 9631,
    "Ġmyth": 18221,
    "alluring": 18353,
    "germans": 20568,
    "stirring": 20429,
    "Ġcharts": 12831,
    "Ġsubstantial": 14812,
    "Ġscor": 8191,
    ".)": 6783,
    "spass": 18691,
    "Ġmediterranean": 12318,
    "henomenon": 13617,
    "Ġconsisting": 8973,
    "Ġenderby": 13654,
    "Ġstreets": 5864,
    "Ġhatherley": 7850,
    "ington": 21304,
    "ok": 571,
    "ette": 15662,
    "Ġseize": 8167,
    "ingale": 21302,
    "member": 20977,
    "astern": 8584,
    "hammock": 16356,
    "Ġcomparative": 10544,
    "currents": 23848,
    "Ġdoubling": 23323,
    "aze": 10077,
    ".,": 5989,
    "Ġfundamentals": 14636,
    "`": 68,
    "Ġperemptorily": 17369,
    "Ġspace": 1533,
    "Ġmarks": 6747,
    "experience": 17160,
    "days": 7689,
    "Ġleading": 7296,
    "Ġshuddering": 9053,
    "striving": 24670,
    "lording": 24054,
    "Ġsiam": 13840,
    "amid": 12728,
    "Ġpig": 5705,
    "Ġreusability": 13561,
    "Ġcontain": 1550,
    "surpr": 5998,
    "Ġinevitable": 15170,
    "Ġprognostics": 20561,
    "Ġridges": 16732,
    "Ġdance": 4441,
    "Ġhumbled": 16199,
    "account": 5329,
    "Ġhypothe": 4073,
    "chant": 4258,
    "Ġxlvi": 25591,
    "Ġboys": 5193,
    "Ġmilliner": 19886,
    "Ġwicked": 5962,
    "known": 3569,
    "Ġof": 298,
    "Ġdiligent": 25078,
    "cig": 17505,
    "lier": 20951,
    "began": 6426,
    "Ġdistantly": 18535,
    "Ġapothe": 12378,
    "Ġsulphur": 24934,
    "Ġnoticed": 5548,
    "Ġdismasted": 15254,
    "Ġdiscernment": 15056,
    "terr": 8155,
    "lingering": 18604,
    "rift": 11521,
    "Ġfurled": 22818,
    "yond": 2331,
    "awful": 23119,
    "Ġcorrob": 16267,
    "Ġportcullis": 26604,
    "Ġacquit": 18899,
    "let": 2732,
    "Ġpomp": 12626,
    "es": 289,
    "Ġclergyman": 8715,
    "olen": 9702,
    "pool": 16210,
    "Ġbehoo": 19038,
    "Ġrealise": 16339,
    "gal": 15358,
    "Ġplacing": 8903,
    "Ġdata": 515,
    "Ġbeads": 18086,
    "Ġcoun": 4178,
    "rinted": 21046,
    "Ġincant": 18570,
    "dataset": 23232,
    "azing": 7705,
    "Ġnav": 5819,
    "Ġmonotonous": 13266,
    "Ġnervous": 2407,
    "Ġmedium": 16707,
    "Ġamazed": 14891,
    "thed": 8830,
    "Ġprudence": 13922,
    "Ġexeget": 24086,
    "ums": 10274,
    "various": 10399,
    "bo": 1691,
    "nikin": 23239,
    "Ġconcisely": 19046,
    "Ġvanquished": 22882,
    "_.âĢĿ": 5887,
    "male": 15391,
    "Ġjung": 12840,
    "Ġnecessarily": 13253,
    "Ġfill": 5701,
    "Ġlocal": 1201,
    "Ġgrasp": 4663,
    "Ġjinglers": 26019,
    "Ġuniformity": 23485,
    "ĠâĢľ_": 6697,
    "Ġtoller": 9093,
    "Ġjoists": 19234,
    "Ġbreakers": 12058,
    "Ġcrucifix": 26080,
    "Ġyoun": 1406,
    "guard": 12132,
    "Ġintens": 7003,
    "Ġincivility": 18574,
    "fore": 686,
    "Ġalph": 9697,
    "dead": 8181,
    "Ġarchitect": 988,
    "Ġtit": 8401,
    "anything": 5518,
    "Ġadequately": 15201,
    "Ġcontraction": 16011,
    "Ġignor": 4012,
    "Ġscraping": 13419,
    "compan": 7300,
    "Ġpeep": 6869,
    "information": 12396,
    "Ġunreasoning": 15848,
    "Ġreminiscences": 26271,
    "Ġaristocratic": 20515,
    "tormented": 13648,
    "Ġmortal": 4681,
    "Ġann": 4488,
    "stat": 21648,
    "$": 8,
    "Ġarranging": 11175,
    "Ġprovoke": 14828,
    "Ġmuchness": 18709,
    "Ġrods": 9755,
    "strikes": 24671,
    "Ġbecher": 18881,
    "Ġknocking": 10561,
    "ã": 164,
    "Ġconceivable": 16614,
    "Ġpleased": 4063,
    "Ġchas": 18380,
    "own": 746,
    "Ġpatience": 2680,
    "Ġissues": 9544,
    "Ġbeggar": 9351,
    "Ġsqueezed": 20039,
    "Ġtroubling": 26547,
    "Ġhed": 7386,
    "Ġappal": 18358,
    "otes": 15747,
    "Ġheath": 15705,
    "Ġstories": 10866,
    "tw": 2811,
    "Ġdistribut": 840,
    "ĠĠĠĠĠĠĠĠĠĠĠĠĠĠĠĠĠĠĠĠĠĠĠ": 18833,
    "hypothe": 25906,
    "Ġbud": 10170,
    "Ġwashing": 9707,
    "onel": 3089,
    "Ġrustic": 14967,
    "Ġmaster": 3683,
    "Ġdismember": 20218,
    "Ġfainter": 14916,
    "Ġnantucketers": 9897,
    "Ġfathom": 17048,
    "Ġfanned": 19101,
    "Ġumb": 11648,
    "iac": 6226,
    "Ġsouthampton": 24308,
    "Ġbuck": 7157,
    "Ġscolding": 15203,
    "bug": 17494,
    "Ġwindow": 2995,
    "Ġunflinching": 26513,
    "Ġshout": 4264,
    "figures": 20125,
    "Ġfreely": 7057,
    "Ġrespectable": 6737,
    "fain": 13717,
    "Ġfielding": 16238,
    "Ġcontempl": 6702,
    "smith": 5669,
    "Ġchestnuts": 24380,
    "igate": 8826,
    "iar": 2380,
    "Ġfusion": 21418,
    "Ġjiff": 22301,
    "schoolmaster": 15164,
    "rers": 14720,
    "Ġcarbuncle": 14447,
    "Ġincidentally": 16955,
    "ern": 750,
    "Ġunattended": 15846,
    "rived": 5373,
    "Ġbeacon": 21761,
    "Ġobli": 9318,
    "Ġundisturbed": 19522,
    "ious": 769,
    "allow": 5103,
    "Ġapologies": 25197,
    "pockets": 16212,
    "Ġchaff": 18384,
    "Ġdeuteronomy": 15763,
    "Ġcour": 1770,
    "Ġnavies": 16901,
    "Ġnamed": 6140,
    "Ġoun": 13865,
    "Ġdu": 4584,
    "romised": 14114,
    "icient": 778,
    "vint": 21117,
    "Ġdeference": 10882,
    "count": 4214,
    "conviction": 19968,
    "Ġbreakfast": 3976,
    "Ġheathenish": 13619,
    "Ġput": 1800,
    "Ġins": 2780,
    "assist": 11770,
    "Ġfootfall": 14662,
    "Ġviolates": 3165,
    "Ġpump": 12625,
    "70": 17477,
    "furnish": 25339,
    "wished": 13807,
    "ckles": 22094,
    "ap": 547,
    "Ġautonom": 10416,
    "¨": 106,
    "Ġpom": 21455,
    "Ġshillings": 15838,
    "Ġamaz": 5385,
    "ructure": 762,
    "ribes": 23370,
    "occup": 7753,
    "Ġafford": 4364,
    "Ġtorrents": 20059,
    "Ġusages": 15920,
    "Ġpaul": 12065,
    "why": 2828,
    "Ġowned": 11879,
    "Ġordering": 18998,
    "Ġundone": 24118,
    "Ġscience": 1487,
    "lynes": 15707,
    "Ġeas": 2353,
    "Ġburnt": 9930,
    "Ġcongratulatory": 19770,
    "awing": 18917,
    "original": 9087,
    "Ġcrystals": 20230,
    "Ġpolic": 13164,
    "hic": 3250,
    "Ġgaiety": 16750,
    "ocr": 10469,
    "brother": 7092,
    "Ġgen": 5297,
    "hangs": 15371,
    "dressed": 10696,
    "Ġsailing": 5323,
    "anging": 3552,
    "Ġapprehens": 5682,
    "Ġtorrent": 17092,
    "Ġpicturesqueness": 24479,
    "Ġsebastian": 11701,
    "waters": 11334,
    "after": 2895,
    "Ġquill": 12861,
    "flood": 19809,
    "abetical": 15746,
    "Ġapplication": 2108,
    "pping": 1423,
    "Ġinvis": 6901,
    "web": 18665,
    "according": 12030,
    "Ġanswer": 2598,
    "Ġattention": 1184,
    "Ġsuffoc": 18871,
    "Ġcollect": 7236,
    "Ġdir": 21425,
    "Ġhelplessness": 25074,
    "Ġhissed": 15792,
    "Ġjollity": 25567,
    "hauled": 20671,
    "Ġgrego": 18963,
    "Ġsamples": 2961,
    "Ġinve": 17931,
    "despond": 19803,
    "Ġpainting": 13144,
    "unched": 10237,
    "Ġbrah": 19360,
    "confined": 24327,
    "Ġspotted": 12142,
    "ility": 624,
    "Ġunwillingness": 20035,
    "Ġjulia": 22307,
    "ancy": 4393,
    "awned": 19463,
    "win": 6801,
    "Ġprophesied": 26063,
    "Ġloungers": 24863,
    "Ġcrawford": 24894,
    "fierce": 25256,
    "plish": 18201,
    "Ġnapoleon": 20560,
    "Ġrepresentation": 14407,
    "owe": 15711,
    "uff": 2729,
    "approaching": 15013,
    "rapid": 12674,
    "é": 170,
    "26": 10075,
    "illity": 18297,
    "Ġfervour": 19741,
    "Ġflame": 7447,
    "trade": 19647,
    "Ġproof": 6154,
    "racting": 10353,
    "Ġsanction": 20029,
    "Ġdoubt": 2227,
    "Ġunfathom": 14791,
    "Ġtransferred": 16452,
    "Ġcanoe": 9725,
    "narrative": 17321,
    "etymology": 14703,
    "ment": 688,
    "contracting": 19296,
    "increased": 20273,
    "misfortunes": 16757,
    "Ġasph": 21903,
    "Ġdemoniac": 15069,
    "Ġexploring": 4304,
    "Ġradiance": 13374,
    "Ġdev": 890,
    "Ġloc": 10915,
    "rifice": 12507,
    "Ġpun": 4587,
    "moored": 22710,
    "belt": 24038,
    "g": 75,
    "ada": 14013,
    "tumultuous": 20402,
    "Ġwhaleboats": 18479,
    "gratulation": 24348,
    "animate": 12581,
    "odhead": 18123,
    "determine": 19947,
    "ah": 1832,
    "Ġhardly": 2434,
    "marching": 25753,
    "Ġmister": 22764,
    "ishing": 1144,
    "ingolstadt": 21306,
    "putting": 14102,
    "Ġdupl": 9956,
    "interests": 19711,
    "reel": 21236,
    "kily": 20939,
    "Ġnuptials": 20497,
    "rabb": 15683,
    "elect": 20848,
    "Ġreplay": 5046,
    "struck": 7864,
    "mount": 9131,
    "nment": 20992,
    "Ġgive": 1715,
    "Ġlover": 7192,
    "Ġfet": 5808,
    "Ġwalton": 14974,
    "projecting": 26074,
    "alization": 732,
    "Ġnailing": 21531,
    "Ġgenealogies": 25962,
    "Ġunwillingly": 15851,
    "Ġorthodox": 22100,
    "furthest": 19844,
    "bingley": 4927,
    "uns": 21875,
    "hos": 15366,
    "whaler": 20312,
    "Ġburst": 4379,
    "Ġrecollect": 8311,
    "Ġartic": 5314,
    "Ġsincer": 13070,
    "else": 6534,
    "Ġlistless": 16477,
    "inea": 7624,
    "completed": 19997,
    "Ġworthless": 19568,
    "Ġori": 8411,
    "hatherley": 17569,
    "mistakable": 20655,
    "inv": 8403,
    "itors": 2913,
    "Ġregrets": 18594,
    "Ġcheetah": 14504,
    "augment": 18830,
    "Ġbony": 12591,
    "interest": 5421,
    "Ġpropontis": 17467,
    "Ġwheels": 10913,
    "Ġdis": 694,
    "Ġmirth": 15548,
    "ption": 7397,
    "Ġcomforters": 25801,
    "Ġgar": 10839,
    "Ġcorrected": 10449,
    "Ġroy": 4228,
    "unching": 18161,
    "Ġoutlandish": 12842,
    "Ġgulf": 10637,
    "Ġashen": 21904,
    "Ġmaintainable": 12939,
    "hyena": 24254,
    "Ġgaunt": 11268,
    "Ġbehaviors": 13258,
    "Ġlurking": 11290,
    "soles": 18690,
    "Ġmunro": 25631,
    "Ġriot": 14689,
    "Ġoccasionally": 5589,
    "Ġ119": 24440,
    "freighted": 14894,
    "Ġveteran": 17452,
    "Ġforeign": 9874,
    "Ġturbulence": 26598,
    "whosoever": 22245,
    "Ġcultivated": 17366,
    "Ġpitched": 9446,
    "Ġcarried": 3696,
    "Ġcoleridge": 18768,
    "figure": 13558,
    "Ġ(âĢľ": 15998,
    "vity": 7816,
    "Ġspermaceti": 8969,
    "brown": 15320,
    "sprinkling": 24913,
    "bearer": 18522,
    "Ġdeaden": 23462,
    "illum": 15872,
    "umbria": 23898,
    "Ġsulkily": 25882,
    "Ġaimed": 20253,
    "Ġfinny": 23130,
    "Ġbureau": 11592,
    "Ġdismally": 20217,
    "Ġfiver": 22781,
    "Ġwolfish": 25936,
    "Ġsanguine": 25929,
    "Ġduke": 7756,
    "used": 3261,
    "Ġcapting": 23027,
    "Ġthenceforth": 25183,
    "ableness": 8150,
    "ary": 987,
    "Ġimper": 4500,
    "Ġjing": 15952,
    "Ġaware": 5756,
    "Ġheeded": 13406,
    "urg": 8143,
    "Ġappl": 1728,
    "Ġjeopardy": 13599,
    "wharf": 20609,
    "Ġrelatives": 12986,
    "Ġbug": 11591,
    "Ġrelaxed": 12988,
    "Ġbreaking": 6311,
    "stache": 15693,
    "Ġmultiplicity": 19277,
    "Ġbreathlessly": 24282,
    "Ġasiatics": 20434,
    "Ġlory": 12656,
    "Ġsympath": 4861,
    "Ġaveraging": 2421,
    "Ġseeking": 7036,
    "globe": 25145,
    "gon": 17553,
    "Ġforgo": 21778,
    "Ġlevel": 5019,
    "Ġclutching": 24954,
    "bidden": 19739,
    "Ġsubtle": 6717,
    "Ġnominal": 15171,
    "Ġrequested": 14305,
    "Ġrigged": 16718,
    "Ġadvance": 5484,
    "mind": 4626,
    "Ġcommands": 16590,
    "Ġburn": 3685,
    "Ġfreezing": 23886,
    "Ġoperated": 14549,
    "hot": 8085,
    "Ġslip": 8956,
    "orous": 5293,
    "Ġdawn": 6816,
    "Ġbolted": 12248,
    "Ġfierce": 7436,
    "Ġinoffensive": 21502,
    "took": 6165,
    "Ġirregularly": 25324,
    "Ġdevoted": 6574,
    "Ġwavering": 23284,
    "Ġtherefore": 2243,
    "Ġchat": 6561,
    "speaking": 12102,
    "Ġcosmopol": 16455,
    "rum": 3470,
    "Ġdoubting": 13103,
    "Ġaromatic": 25926,
    "Ġwindsor": 16888,
    "Ġflip": 11916,
    "Ġexpected": 3699,
    "Ġrooms": 5179,
    "Ġeuropean": 20049,
    "pow": 10718,
    "relics": 24018,
    "://": 11466,
    "crime": 14776,
    "ades": 5631,
    "omitted": 18019,
    "Ġfragments": 19032,
    "sailed": 17667,
    "Ġarchitectures": 2908,
    "Ġpear": 11855,
    "Ġrescue": 13346,
    "Ġbuttoned": 25369,
    "Ġmeas": 1097,
    "intend": 16227,
    "Ġwhereas": 3855,
    "Ġsympathies": 14863,
    "Ġbulkhead": 24507,
    "Ġdifferently": 10390,
    "Ġbirds": 5874,
    "Ġriveted": 13621,
    "Ġheighten": 19532,
    "accomplishment": 20226,
    "Ġturn": 1297,
    "Ġkrusenstern": 20716,
    "ibbald": 18843,
    "Ġconfounded": 16386,
    "Ġinsulted": 14994,
    "Ġobser": 2071,
    "county": 25397,
    "Ġwhirled": 14962,
    "Ġamong": 1667,
    "Ġannouncement": 14835,
    "Ġkitty": 3909,
    "Ġmodular": 12823,
    "Ġethere": 23954,
    "anxious": 15112,
    "Ġsepar": 3999,
    "oug": 430,
    "Ġmatrix": 1607,
    "combination": 25487,
    "Ġmasks": 23330,
    "Ġapplicable": 19013,
    "ppa": 10241,
    "Ġmeddle": 20580,
    "reached": 13843,
    "Ġlocations": 12416,
    "Ġscreamed": 9526,
    "Ġtortures": 14925,
    "shout": 22447,
    "Ġmisunderstand": 18707,
    "Ġweep": 7620,
    "mbly": 9795,
    "Ġorbs": 22097,
    "header": 11936,
    "phere": 21021,
    "âĢĻâĢĶ": 12740,
    "Ġnantucket": 2837,
    "Ġnoise": 1070,
    "Ġclamorous": 24910,
    "Ġ133": 24782,
    "Ġmagnificent": 9844,
    "Ġcoach": 6867,
    "Ġmeditations": 25016,
    "axing": 18548,
    "ished": 1425,
    "umns": 14149,
    "Ġrenegades": 26477,
    "without": 4847,
    "Ġstreet": 2957,
    "regarding": 15074,
    "Ġshrieked": 9550,
    "Ġflood": 7716,
    "Ġexe": 3994,
    "Ġballs": 9017,
    "Ġjurors": 17346,
    "Ġhardship": 18915,
    "Ġev": 4829,
    "yards": 9625,
    "Ġdiscoursing": 26268,
    "Ġbrine": 18770,
    "Ġdoted": 21437,
    "friendly": 13288,
    "Ġpreserved": 9264,
    "Ġseethe": 21968,
    "Ġspin": 7630,
    "Ġcheers": 16371,
    "Ġaccounts": 7206,
    "feelings": 5674,
    "Ġugl": 12686,
    "Ġdol": 9666,
    "Ġseat": 4948,
    "procure": 23400,
    "ortal": 6266,
    "Ġweapons": 10595,
    "magnetic": 20555,
    "Ġmass": 3781,
    "Ġlim": 2382,
    "Ġmomentum": 1604,
    "volous": 18601,
    "Ġpossibly": 4512,
    "Ġretrie": 10384,
    "oa": 9614,
    "ĭ": 238,
    "falsehood": 25902,
    "Ġfert": 15585,
    "/(": 2981,
    "Ġdumbly": 24990,
    "Ġattendance": 12185,
    "Ġdistributions": 1050,
    "Ġflaw": 23016,
    "Ġstrings": 11832,
    "Ġexplanations": 15913,
    "ource": 5243,
    "government": 25407,
    "Ġcordage": 19681,
    "pursue": 24978,
    "Ġhams": 16613,
    "disapprobation": 19159,
    "Ġwounded": 8661,
    "Ġunintermitted": 26221,
    "Ġcoefficient": 2883,
    "Ġarabic": 24983,
    "Ġridge": 14821,
    "Ġresearches": 13131,
    "isticated": 1591,
    "uesday": 8590,
    "ission": 6457,
    "Ġviewing": 19266,
    "Ġtowards": 1731,
    "Ġgasfitters": 25041,
    "Ġdisconnected": 22530,
    "Ġcoincidence": 25484,
    "Ġaggregate": 25678,
    "Ġsuns": 23277,
    "Ġallow": 1125,
    "Ġshore": 4835,
    "Ġdefilements": 26286,
    "Ġhandful": 9785,
    "description": 11095,
    "Ġprevailed": 7778,
    "Ġsleek": 23387,
    "ous": 477,
    "manner": 6171,
    "arance": 4697,
    "Ġ107": 24414,
    "Ġapproximation": 2342,
    "Ġintricacies": 15141,
    "mixed": 17606,
    "Ġconsequently": 8061,
    "Ġbathe": 25444,
    "Ġscorching": 20071,
    "Ġpuzz": 5532,
    "Ġdamp": 8265,
    "oce": 10715,
    "unch": 14060,
    "Ġsupplement": 23008,
    "Ġbegg": 16256,
    "erting": 17778,
    "incl": 8111,
    "title": 17289,
    "ceased": 21630,
    "ulent": 21867,
    "Ġgros": 14825,
    "oquence": 11387,
    "Ġabstra": 22276,
    "posterity": 25489,
    "match": 15393,
    "Ġstrong": 1789,
    "Ġenlivened": 26209,
    "separ": 9232,
    "adequately": 20322,
    "ceived": 1966,
    "Ġprodigiously": 14934,
    "adieu": 26202,
    "Ġextracting": 11102,
    "Ġsentimental": 24753,
    "Ġgratifying": 13309,
    "Ġprepared": 5878,
    "Ġ52": 24316,
    "Ġboisterously": 25683,
    "anean": 7442,
    "Ġbrooded": 23108,
    "iveness": 2470,
    "entering": 17979,
    "Ġcapture": 3385,
    "Ġcamp": 9166,
    "Ġdisclosed": 15156,
    "umbers": 10919,
    "Ġdownstream": 3775,
    "oup": 2015,
    "Ġexaggerate": 25650,
    "entire": 6823,
    "itia": 11581,
    "Ġnail": 9197,
    "ade": 881,
    "Ġplaning": 22608,
    "retreat": 23143,
    "Ġprocessing": 892,
    "Ġtattooings": 24901,
    "Ġchace": 14180,
    "Ġtint": 13819,
    "Ġlayers": 818,
    "Ġinsurg": 23684,
    "Ġpunctilious": 26355,
    "Ġcombination": 22856,
    "recogn": 13428,
    "Ġacqu": 1415,
    "list": 7551,
    "sighted": 19788,
    "Ġplentiful": 12915,
    "Ġproviding": 1360,
    "Ġenhance": 3024,
    "Ġsurve": 9876,
    "meditation": 19071,
    "Ġgrated": 22808,
    "Ġdeactivates": 20706,
    "Ġlonely": 6822,
    "Ġvigil": 9509,
    "Ġfring": 11128,
    "Ġshakes": 10905,
    "Ŀ": 256,
    "Ġwhence": 5840,
    "Ġincommod": 25308,
    "Ġhil": 10822,
    "buttoned": 13635,
    "tumult": 12426,
    "Ġeleven": 9392,
    "Ġsets": 8778,
    "sorrows": 17322,
    "Ġcanal": 8183,
    "contrast": 25595,
    "Ġdetail": 636,
    "tenderly": 20534,
    "Ġbirth": 6524,
    "Ġpirates": 9075,
    "Ġdemean": 12727,
    "Ġsandwiched": 26611,
    "Ġclinched": 17396,
    "opÃ¦": 12877,
    "observing": 25495,
    "Ġstolen": 14009,
    "Ġtraffic": 23088,
    "ensils": 22554,
    "raise": 18014,
    "combe": 7662,
    "oundering": 11749,
    "Ġwished": 3731,
    "Ġdash": 8123,
    "Ġfollowing": 4062,
    "Ġparadise": 11195,
    "union": 15773,
    "Ġpuffs": 14978,
    "Ġiii": 7862,
    "Ġsupported": 9820,
    "Ġapparelled": 20440,
    "Ġdecreases": 3410,
    "wherever": 13122,
    "usation": 18402,
    "Ġge": 1979,
    "av": 739,
    "Ġresolves": 23652,
    "Ġunrecorded": 17469,
    "Ġclenched": 14206,
    "Ġstalls": 25648,
    "Ġrewards": 10849,
    "cerem": 15681,
    "Ġfruitless": 25606,
    "captain": 3955,
    "Ġconnect": 796,
    "Ġdeceased": 15007,
    "Ġload": 14147,
    "mar": 4334,
    "shazz": 14242,
    "Ġpenetrate": 12273,
    "Ġinmost": 17933,
    "avail": 18607,
    "Ġfro": 3472,
    "Ġmons": 10158,
    "Ġable": 3080,
    "ellest": 21578,
    "Ġexpressive": 8984,
    "Ġbraces": 14671,
    "Ġcooper": 16083,
    "nt": 922,
    "arle": 21444,
    "cloudless": 20335,
    "pron": 9008,
    "Ġexcluded": 16387,
    "divided": 25021,
    "ggling": 19098,
    "bedded": 12446,
    "eration": 10773,
    "Ġmarlingspike": 26580,
    "tell": 1379,
    "_.âĢĻâĢĿ": 17481,
    "emptied": 23638,
    "Ġcandidates": 4332,
    "Č": 205,
    "Ġboughs": 20492,
    "table": 5795,
    "Ġreplenished": 13639,
    "Ġclay": 7020,
    "unwillingly": 21889,
    "planted": 11699,
    "Ġpos": 1012,
    "Ġcobb": 14277,
    "Ġpreviously": 3919,
    "wich": 11545,
    "quee": 4129,
    "Ġhump": 5854,
    "Ġbeamed": 23724,
    "Ġtravelling": 11308,
    "run": 10722,
    "Ġvisible": 4777,
    "Ġrattling": 11396,
    "aking": 973,
    "Ġdishonoured": 20394,
    "uine": 13801,
    "share": 14237,
    "caroline": 24151,
    "Ġdaughter": 2868,
    "Ġtwenty": 3950,
    "delights": 19704,
    "Ġimprove": 1852,
    "earn": 10697,
    "ad": 337,
    "once": 5905,
    "gardiner": 12294,
    "enit": 17780,
    "Ġtransplanted": 22446,
    "ulgent": 18152,
    "america": 17097,
    "Ġkeels": 11062,
    "apparent": 11042,
    "Ġeffort": 8204,
    "grandfather": 25012,
    "Ġamongst": 8961,
    "Ġholes": 16411,
    "biscuit": 17502,
    "surely": 10571,
    "Ġstaring": 8828,
    "Ġblocks": 6322,
    "Ġresuming": 12897,
    "fee": 12884,
    "Ġeighty": 19479,
    "Ġdiscussed": 19562,
    "Ġsom": 1276,
    "sect": 8154,
    "should": 3263,
    "âĢĶâĢľ": 2970,
    "Ġpraises": 16731,
    "unsuitable": 21898,
    "Ġbrewed": 23350,
    "Ġperforms": 11880,
    "Ġbub": 8119,
    "Ġbandages": 24426,
    "chamber": 13628,
    "satisfied": 10580,
    "ency": 3869,
    "Ġshutter": 16672,
    "uth": 3016,
    "geons": 15982,
    "poises": 11892,
    "unting": 21879,
    "rol": 5713,
    "Ġscot": 5643,
    "'t": 3144,
    "drawn": 9915,
    "Ġinscriptions": 20012,
    "Ġzodiac": 16177,
    "ong": 537,
    "Ġhorizont": 6936,
    "tes": 11530,
    "Ġsince": 1798,
    "son": 2330,
    "Ġrabb": 4163,
    "Ġorgan": 2504,
    "Ġcivilised": 24246,
    "Ġbits": 11590,
    "iality": 8847,
    "Ġhogshe": 20495,
    "Ġlangsdorff": 15279,
    "society": 9974,
    "ography": 13366,
    "ugal": 19023,
    "Ġconstant": 6310,
    "bearded": 18523,
    "Ġfears": 5729,
    "ahit": 9384,
    "igns": 8449,
    "Ġdarkly": 19116,
    "Ġtissu": 25921,
    "Ġinstantaneous": 14612,
    "adem": 21762,
    "Ġawaiting": 11391,
    "Ġlaborious": 13107,
    "ying": 1366,
    "Ġincompatible": 25681,
    "remediable": 26296,
    "Ġhandsome": 4906,
    "Ġundertone": 23244,
    "Ġcorrection": 5061,
    "Ġhig": 754,
    "Ġextensive": 12945,
    "Ġrevellers": 21682,
    "Ġclimb": 15082,
    "Ġwired": 17788,
    "neurons": 3134,
    "wled": 15456,
    "jol": 20927,
    "presence": 18499,
    "Ġcelerity": 17438,
    "Ġexponential": 1059,
    "gates": 20874,
    "Ġparson": 6688,
    "str": 2576,
    "absurd": 21800,
    "Ġgangs": 21613,
    "Ġnaturalist": 22897,
    "Ġemergency": 25731,
    "Ġcoer": 22586,
    "Ġpeculiar": 3152,
    "Ġidea": 2489,
    "dwelling": 20567,
    "Ġmothers": 14541,
    "Ġseamen": 5062,
    "Ġsprout": 24091,
    "ge": 560,
    "Ġmortifying": 13249,
    "adoes": 11662,
    "absent": 21795,
    "wer": 8397,
    "Ġthews": 21280,
    "lat": 9606,
    "Ġnobler": 14175,
    "Ġconcuss": 19048,
    "written": 7996,
    "Ġpens": 21463,
    "Ġinvent": 7164,
    "Ġstables": 23659,
    "Ġcomb": 1056,
    "Ġseized": 4834,
    "ortions": 10949,
    "Ġensigns": 23692,
    "Ġportcull": 23866,
    "Ġbriskly": 25312,
    "recur": 4436,
    "animal": 16979,
    "Ġremote": 8922,
    "Ġsh": 419,
    "Ġ54": 24317,
    "Ġrecollecting": 17113,
    "Ġtyro": 16995,
    "Ġimpersonal": 17399,
    "hotel": 20053,
    "Ġtimorous": 24227,
    "Ġcheerless": 16694,
    "asper": 7856,
    "accustomed": 13160,
    "Ġinfinitely": 8965,
    "Ġmayhew": 12954,
    "Ġuncivil": 11156,
    "Ġpr": 1601,
    "flukes": 25206,
    "fab": 13718,
    "Ġhovered": 12635,
    "Ġvill": 3878,
    "ilt": 2967,
    "prise": 7727,
    "Ġmed": 4177,
    "Ġcynicism": 25772,
    "Ġgeorge": 3750,
    "pect": 1256,
    "Ġgambler": 26192,
    "Ġcabman": 14606,
    "Ġthanking": 18605,
    "Ġpreser": 6042,
    "Ġspear": 9316,
    "representing": 25272,
    "Ġunnatural": 7189,
    "Ġpian": 13919,
    "Ġseams": 12128,
    "Ġphaeton": 17466,
    "Ġcourtiers": 24138,
    "culous": 11141,
    "Ġpau": 17908,
    "definition": 23122,
    "dragging": 16610,
    "Ġtattooing": 15029,
    "Ġmournfully": 20120,
    "Ġlucases": 9012,
    "Ġ200": 19298,
    "ch": 321,
    "complaisance": 24808,
    "Ġmyst": 4050,
    "Ġconfused": 7965,
    "reduced": 15808,
    "movement": 25578,
    "Ġenrolled": 21942,
    "Ġnights": 7257,
    "raising": 21636,
    "herald": 22211,
    "Ġrustling": 24714,
    "§": 105,
    "Ġache": 18664,
    "til": 17672,
    "iastic": 12483,
    "Ġvicious": 24402,
    "torture": 26152,
    "Ġmediocr": 24141,
    "combined": 20323,
    "Ġinjurious": 24272,
    "Ġreligious": 25124,
    "du": 605,
    "Ġragged": 11849,
    "Ġcalculated": 4474,
    "ferred": 16401,
    "Ġprecaution": 11197,
    "Ġflogged": 23627,
    "Ġ{": 21155,
    "archbishop": 22896,
    "sought": 15429,
    "fen": 20852,
    "Ġantilles": 24181,
    "Ġalarming": 14783,
    "Ġdense": 8124,
    "Ġconstables": 19070,
    "Ġtickled": 20060,
    "Ġrealising": 18984,
    "13": 20752,
    "Ġfris": 23259,
    "Ġunb": 10908,
    "Ġunctuousness": 17236,
    "Ġelig": 9780,
    "oso": 12835,
    "leave": 7838,
    "Ġoppose": 16521,
    "quid": 18148,
    "Ġwooden": 4729,
    "Ġbooks": 4675,
    "Ġsatisfaction": 5667,
    "god": 4863,
    "Ġintrepidity": 25551,
    "Ġstark": 7389,
    "Ġlighted": 7064,
    "Ġoffer": 4844,
    "Ġphilipses": 24451,
    "Ġpresumption": 10547,
    "for": 969,
    "Ġnecessitated": 23932,
    "Ġambitious": 18515,
    "rise": 6227,
    "Ġ57": 24320,
    "aped": 3765,
    "Ġspeeches": 22667,
    "Ġmissionary": 25697,
    "Ġgifted": 17999,
    "ĠĠĠĠĠĠĠĠĠĠĠĠĠĠĠĠĠĠĠĠĠĠĠĠĠĠĠĠĠĠĠĠĠĠĠĠĠĠĠĠĠĠĠĠĠĠ": 9955,
    "Ġlengthen": 15657,
    "inex": 14098,
    "Ġtides": 13823,
    "Ġimprec": 14221,
    "Ġtortoise": 16909,
    "lose": 12886,
    "Ġesteem": 7531,
    "Ġshow": 3402,
    "Ġwarring": 16866,
    "Ġupheld": 22157,
    "ution": 4348,
    "elope": 14469,
    "wail": 21128,
    "thouse": 21987,
    "par": 1853,
    "Ġbower": 15570,
    "Ġgeneva": 5450,
    "Ġmeekly": 26491,
    "kinder": 24846,
    "Ġrushes": 20511,
    "objection": 19917,
    "gyric": 19111,
    "Ġprogram": 12996,
    "Ġhospitality": 13515,
    "Ġunmethodically": 22075,
    "Ġsend": 4106,
    "verize": 21733,
    "Ġproportionably": 19974,
    "Ġgri": 17990,
    "Ġcruises": 23708,
    "Ġcanvassed": 19938,
    "Ġflag": 7241,
    "Ġrefrain": 12951,
    "zza": 24169,
    "shape": 10982,
    "Ġcork": 12573,
    "Ġhunt": 6184,
    "Ġboom": 9312,
    "Ġdown": 831,
    "Ġsec": 2076,
    "Ġwoollen": 12107,
    "cong": 10690,
    "Ġhyper": 19742,
    "Ġpoky": 21482,
    "Ġflorida": 20661,
    "Ġcents": 17830,
    "ividually": 22093,
    "Ġclapping": 14205,
    "matter": 5135,
    "Ġaffirm": 11890,
    "Ġgracious": 8850,
    "Ġjokes": 18409,
    "Ġmoderately": 22233,
    "Ġwheelbarrow": 17206,
    "Ġnods": 19064,
    "Ġconstantly": 11975,
    "Ġwhale": 627,
    "Ġlanding": 11987,
    "Ġgulp": 20032,
    "Ġirons": 7697,
    "Ġitem": 12705,
    "Ġflutter": 16251,
    "Ġresumed": 11815,
    "correct": 24482,
    "opy": 4457,
    "andish": 18156,
    "rods": 21542,
    "ixed": 4852,
    "Ġastir": 14641,
    "urring": 21709,
    "Ġceler": 15554,
    "articulate": 17397,
    "Ġwhelm": 25999,
    "Ġdismissed": 12896,
    "seas": 14035,
    "Ġnotion": 7884,
    "Ġmurderers": 16812,
    "Ġembell": 14413,
    "appropri": 22846,
    "indeed": 4486,
    "isp": 5528,
    "alter": 10827,
    "Ġembattled": 26290,
    "¹": 122,
    "Ġcontrolled": 23254,
    "Ġmodes": 22232,
    "Ġdiscomposed": 25581,
    "leader": 25352,
    "Ġahead": 6664,
    "removing": 17765,
    "Ġthirt": 13941,
    "Ġangle": 8606,
    "name": 6795,
    "abilities": 3237,
    "Ġmonosyllable": 20728,
    "cripp": 20821,
    "Ġunpitying": 25661,
    "p": 84,
    "bull": 13693,
    "clifford": 23161,
    "behind": 6779,
    "Ġessays": 19747,
    "ogra": 4573,
    "voyage": 7786,
    "Ġwig": 9163,
    "Ġallude": 12775,
    "splinter": 25211,
    "Ġexasperate": 20101,
    "raltar": 24235,
    "ellig": 521,
    "Ġcachalot": 17836,
    "gan": 2202,
    "Ġsacrifice": 9557,
    "vac": 15452,
    "Ġbestirred": 20454,
    "Ġkicking": 16902,
    "provoke": 26072,
    "bestowed": 12229,
    "Ġgroan": 13328,
    "Ġcarter": 18902,
    "stubb": 6019,
    "Ġaccountability": 10439,
    "Ġguessed": 11283,
    "Ġyon": 9695,
    "Ġvengeful": 14892,
    "ediction": 17947,
    "Ġahoy": 12188,
    "Ġsafer": 22175,
    "consuming": 25675,
    "Ġmanaging": 22330,
    "Ġmatters": 4973,
    "particularly": 8341,
    "Ġactually": 5389,
    "Ġfinally": 4666,
    "Ġdiscourage": 3114,
    "Ġbeautifully": 13271,
    "Ġroutine": 13510,
    "Ġfren": 10806,
    "Ġgore": 17991,
    "ian": 1240,
    "pur": 7807,
    "Ġstunsail": 25544,
    "Ġtoils": 10187,
    "Ġadver": 5641,
    "Ġburying": 19254,
    "Ġeaves": 15679,
    "Ġexhilar": 19686,
    "Ġscent": 10286,
    "Ġcommenting": 25229,
    "ð": 177,
    "phants": 9322,
    "ghan": 19458,
    "oury": 22309,
    ",--": 2479,
    "Ġscra": 5841,
    "thou": 4708,
    "future": 13719,
    "Ġshiver": 12771,
    "Ġshipwrecked": 25688,
    "Ġbearing": 5299,
    "Ġvol": 4190,
    "itty": 3555,
    "Ġpleasanter": 19067,
    "Ġroarings": 25302,
    "relations": 14735,
    "gate": 12470,
    "tail": 8765,
    "Ġhieroglyph": 11973,
    "Ġunwarrantable": 26346,
    "ister": 1294,
    "Ġevalu": 3044,
    "fortunate": 4792,
    "Ġgips": 10842,
    "Ġcheery": 16373,
    "charitable": 23936,
    "inate": 6234,
    "shoulders": 16586,
    "suppose": 8648,
    "Ġpresently": 5115,
    "Ġdummy": 25450,
    "onical": 21256,
    "Ġrehears": 15703,
    "cest": 12448,
    "attending": 18918,
    "Ġmiserably": 12952,
    "cery": 20810,
    "widows": 25345,
    "Ġgossip": 18471,
    "contained": 22477,
    "Ġcommunic": 5751,
    "aswag": 21550,
    "Ġacc": 574,
    "Ġsighing": 18677,
    "ately": 1714,
    "Ġvolition": 14800,
    "Ġreversed": 15700,
    "mand": 3894,
    "Ġdeparted": 5562,
    "Ġbrowne": 13305,
    "resses": 16156,
    "windows": 19537,
    "Ġmidships": 23636,
    "Ġpursuing": 9440,
    "otherwise": 7672,
    "Ġunlocked": 14122,
    "Ġneatness": 19935,
    "Ġresembles": 25970,
    "histor": 13494,
    "led": 581,
    "Ġostent": 13587,
    "Ġsch": 13837,
    "Ġkilburn": 18352,
    "±": 114,
    "Ġturban": 23615,
    "Ġpursued": 6329,
    "Ġsteeply": 23726,
    "Ġcompetition": 14271,
    "Ġinsufficient": 9674,
    "Ġseek": 4507,
    "Ġye": 900,
    "Ġswallow": 8952,
    "Ġspinning": 15054,
    "Ġimpotent": 18447,
    "Ġready": 3398,
    "addition": 13387,
    "numerous": 17433,
    "Ġmentioned": 4328,
    "Ġtypically": 1535,
    "inc": 2521,
    "obli": 23099,
    "sembled": 7262,
    "nihil": 9852,
    "Ġajar": 21205,
    "pret": 7211,
    "Ġcared": 8786,
    "Ġpenny": 16316,
    "attacks": 23126,
    "Ġnetworks": 596,
    "âĢĶ": 518,
    "Ġ=": 1073,
    "Ġskil": 14353,
    "Ġordinary": 6098,
    "taught": 17685,
    "Ġsignificant": 8637,
    "Ġart": 747,
    "Ġride": 12762,
    "atch": 672,
    "Ġclank": 15970,
    "Ġ100": 14365,
    "Ġsyn": 15916,
    "obliged": 20634,
    "Ġgaping": 13971,
    "Ġstooping": 13066,
    "ifications": 9730,
    "Ġcanaan": 22171,
    "Ġmoreover": 6164,
    "Ġevery": 927,
    "Ġhypothesis": 14785,
    "Ġrising": 4354,
    "Ġbegin": 3097,
    "Ġdriving": 3618,
    "Ġdeline": 16335,
    "Ġhid": 1319,
    "Ġchuckled": 10649,
    "cart": 10691,
    "ns": 758,
    "Ġnumerical": 4245,
    "Ġmaelstrom": 19359,
    "Ġline": 1849,
    "Ġthrills": 24541,
    ".âĢĶ": 4248,
    "Ġspeakest": 23487,
    "ĠâĢĶ_": 3458,
    "particip": 23618,
    "Ġsize": 1217,
    "Ġmoving": 1677,
    "pe": 1434,
    "ressed": 3021,
    "Ġpresented": 5182,
    "Ġcruisings": 25865,
    "cowardly": 25750,
    "diss": 17524,
    "Ġupbraid": 18319,
    "assistance": 20374,
    "Ġdiffusion": 23785,
    "Ġgoodge": 22827,
    "Ġarcher": 22184,
    "ped": 6963,
    "cring": 20813,
    "Ġvisitors": 7986,
    "Ġlowest": 11123,
    "Ġapprovingly": 26252,
    "Ġbuffaloes": 25218,
    "equally": 19901,
    "Ġexpert": 18875,
    "falgar": 26131,
    "hereabouts": 23608,
    "eter": 11623,
    "nament": 11508,
    "Ġunwe": 15841,
    "Ġhonourable": 10457,
    "Ġclasping": 20212,
    "Ġwarb": 17789,
    "Ġfriend": 1295,
    "Ġsteadfast": 8682,
    "Ġscope": 15946,
    "Ġlambton": 10659,
    "Ġprobed": 18733,
    "motives": 26138,
    "Ġschemes": 11132,
    "Ġclergy": 7643,
    "pipe": 8700,
    "Ġpianoforte": 15276,
    "Ġgilder": 21617,
    "warn": 11544,
    "Ġhurrying": 11997,
    "ital": 4818,
    "merry": 16538,
    "Ġpostscript": 14810,
    "lod": 15381,
    "Ġdestructive": 23488,
    "abern": 21794,
    "Ġgroans": 14826,
    "ì": 173,
    "Ġmarred": 23037,
    "Ġsupplies": 20329,
    "Ġriots": 23895,
    "Ġsupply": 6068,
    "whose": 6851,
    "ushes": 22296,
    "hero": 21207,
    "Ġsoothing": 8174,
    "Ġotherwise": 4657,
    "Ġaxe": 15065,
    "Ġsnar": 13203,
    "Ġhandspikes": 12943,
    "Ġceiling": 7998,
    "Ġdescends": 14289,
    "gle": 20871,
    "totally": 25418,
    "derness": 11740,
    "loss": 22513,
    "ari": 671,
    "porary": 14553,
    "oppressed": 24821,
    "Ġleeward": 6211,
    "Ġpeaking": 22694,
    "Ġclutch": 15055,
    "Ġeclipsed": 26378,
    "forecastle": 10991,
    "Ġinseparable": 20691,
    "Ġsuperiority": 14617,
    "Ġprofess": 3701,
    "Ġgallows": 12149,
    "pening": 2831,
    "Ġgest": 8135,
    "jammed": 25907,
    "Ġabsor": 8506,
    "Ġimposs": 16617,
    "Ġpret": 3034,
    "culiar": 2820,
    "Ġwhine": 21719,
    "Ġsegmentation": 17342,
    "Ġfavourably": 16367,
    "foremost": 14254,
    "idly": 12704,
    "Ġsquire": 16183,
    "Ġabraham": 18396,
    "trained": 4239,
    "Ġacceptable": 16745,
    "Ġwithdrawn": 10608,
    "Ġvit": 10247,
    "sme": 17659,
    "Ġpractice": 2819,
    "crippled": 26385,
    "Ġwra": 5907,
    "tempered": 13449,
    "rib": 1948,
    "iple": 4806,
    "Ġcure": 21343,
    "Ġphr": 2679,
    "Ġtistig": 26414,
    "absolutely": 10647,
    "Ġbulk": 5590,
    "Ġchalk": 15936,
    "pursued": 17283,
    "Ġprovoked": 13329,
    "Ġwrenching": 17325,
    "Ġstructure": 848,
    "declared": 15121,
    "omin": 4702,
    "Ġtouched": 6002,
    "Ġsomewhat": 4897,
    "Ġapartments": 19617,
    "dances": 17522,
    "onged": 18411,
    "hit": 20891,
    "sk": 5521,
    "Ġgladstone": 23872,
    "Ġmodern": 3213,
    "Ġconfound": 23308,
    "droppers": 24758,
    "general": 7489,
    "lun": 20948,
    "Ġimperfectly": 25727,
    "Ġfaithfully": 14889,
    "iff": 3905,
    "Ġbusy": 6190,
    "Ġtahitian": 25428,
    "Ġauthors": 10417,
    "Ġnice": 6677,
    "Ġhear": 1967,
    "snowy": 20286,
    "visitors": 13352,
    "Ġmagg": 18907,
    "disgust": 23498,
    "Ġliked": 5264,
    "Ġhel": 3787,
    "Ġlip": 6533,
    "Ġchin": 4891,
    "Ġflashed": 11917,
    "Ġboasting": 19939,
    "Ġasia": 11685,
    "bride": 19202,
    "ners": 3273,
    "misery": 13347,
    "smeer": 26148,
    "entered": 8818,
    "Ġimpenitent": 26549,
    "solic": 16382,
    "ated": 725,
    "Ġtrampling": 25493,
    "Ġamid": 4958,
    "arrived": 12613,
    "Ġstuck": 9222,
    "Ġsedentary": 25431,
    "Ġimaginations": 16518,
    "olets": 21010,
    "ssible": 2991,
    "Ġancestry": 25642,
    "Ġjetted": 24430,
    "Ġtil": 12528,
    "Ġanoints": 25539,
    "stooped": 23825,
    "Ġlapse": 17122,
    "orified": 21405,
    "Ġconscious": 7744,
    "Ġpalsied": 25780,
    "Ġsigmoid": 2465,
    "Ġhead": 1122,
    "prev": 12871,
    "ast": 472,
    "fl": 3601,
    "Ġrecover": 9791,
    "Ġhebrew": 13990,
    "raint": 18316,
    "Ġdegree": 3706,
    "upright": 23022,
    "mil": 13754,
    "gazing": 12475,
    "Ġgardiner": 3239,
    "Ġitalian": 12413,
    "rell": 11565,
    "Ġpervading": 20616,
    "Ġaffection": 2638,
    "ding": 3025,
    "aulding": 11340,
    "fourth": 11329,
    "Ġdancing": 5703,
    "Ġrestless": 10414,
    "Ġplainly": 4381,
    "Ġenviron": 3861,
    "Ġcemeteries": 26377,
    "Ġmarchant": 14787,
    "iate": 6505,
    "Ġfreshe": 13073,
    "utral": 12667,
    "Ġjove": 9270,
    "Ġglimmering": 25241,
    "Ġstay": 3093,
    "culiarity": 11142,
    "Ġprophe": 13082,
    "pennies": 26287,
    "Ġreason": 1373,
    "Ġlassitude": 20590,
    "Ġconcoct": 19047,
    "Ġprecautions": 23729,
    "ernally": 22617,
    "died": 11481,
    "Ġyielding": 12190,
    "Ġimpulsive": 19966,
    "Ġslumbering": 25702,
    "Ġengravings": 15070,
    "Ġimbued": 17457,
    "Ġcomputers": 2644,
    "Ġfrankness": 16747,
    "aset": 10833,
    "Ġcocoanuts": 26364,
    "Ġassembled": 9238,
    "Ġolive": 12569,
    "asant": 17961,
    "Ġfaultless": 24539,
    "Ġchannel": 26013,
    "expected": 5780,
    "Ġscandal": 9083,
    "lets": 7837,
    "Ġchosen": 7200,
    "Ġappare": 12821,
    "innocent": 20289,
    "Ġcomfortless": 23916,
    "Ġwond": 3940,
    "ank": 1364,
    "romed": 10906,
    "Ġrefined": 18700,
    "Ġhellish": 10552,
    "Ġtrad": 9830,
    "Ġverily": 16604,
    "Ġpredicts": 2594,
    "sen": 21052,
    "Ġrusty": 14966,
    "Ġvac": 5024,
    "term": 3759,
    "stains": 11639,
    "nne": 20991,
    "Ġaffability": 14389,
    "scarcely": 12389,
    "Ġtastes": 15479,
    "from": 1992,
    "Ġdataset": 12820,
    "Ġfringe": 17273,
    "metic": 14986,
    "night": 2171,
    "Ġtim": 4578,
    "Ġfamiliarity": 16730,
    "Ġwrecks": 16819,
    "Ġimpart": 11783,
    "Ġinert": 15625,
    "Ġattempted": 8002,
    "Ġextract": 1457,
    "Ġklan": 23665,
    "Ġhouses": 6139,
    "Ġclosed": 4605,
    "Ġtong": 4870,
    "ep": 445,
    "Ġphilosophy": 7104,
    "Ġsal": 3939,
    "Ġkissed": 10047,
    "Ġvic": 5236,
    "Ġpython": 1069,
    "Ġentrances": 25835,
    "elizabeth": 1987,
    "suffered": 24329,
    "Ġintermediate": 18590,
    "uced": 13802,
    "Ġintric": 9248,
    "Ġexacted": 23605,
    "Ġbrilliantly": 25123,
    "Ġ86": 24460,
    "Ġwed": 7575,
    "Ġhurled": 10430,
    "ividual": 5463,
    "Ġdock": 15933,
    "Ġessence": 13408,
    "Ġendeared": 26499,
    "bony": 15322,
    "pay": 10719,
    "Ġadjac": 18293,
    "Ġce": 3030,
    "Ġindulged": 13420,
    "Ġvindictive": 20473,
    "et": 307,
    "Ġrespects": 7268,
    "icide": 11620,
    "Ġunreserved": 19400,
    "Ġwickedness": 9528,
    "Ġbeside": 5191,
    "Ġetern": 7086,
    "Ġparticle": 18675,
    "Ġlies": 5296,
    "ston": 15686,
    "Ġarri": 2552,
    "Ġavoided": 13262,
    "Ġexcitement": 9383,
    "imaux": 21716,
    "erce": 6127,
    "tered": 2234,
    "Ġevenings": 18755,
    "Ġrefers": 1563,
    "Ġsufficiently": 8975,
    "ā": 194,
    "any": 3339,
    "Ġcopper": 7424,
    "wise": 2573,
    "incredible": 16500,
    "Ġcongreg": 8464,
    "Ġdyspepsia": 20645,
    "Ġcommander": 8628,
    "indef": 17736,
    "Ġoffensive": 18695,
    "Ġsovereign": 10064,
    "Ġprompted": 23820,
    "Ġb": 281,
    "fainting": 20476,
    "drawing": 10488,
    "Ġyork": 11667,
    "speed": 19412,
    "dut": 10089,
    "cott": 8075,
    "Ġneighbourhood": 5125,
    "belais": 24041,
    "ture": 7558,
    "Ġfingertips": 24020,
    "Ġfifteen": 6946,
    "laden": 14931,
    "×": 152,
    "Ġpaying": 9940,
    "Ġvices": 14085,
    "life": 4932,
    "Ġparl": 8179,
    "lings": 8749,
    "Ġremotest": 10054,
    "fun": 4570,
    "xi": 17711,
    "cruet": 17027,
    "Ġdue": 3845,
    "Ġinfirm": 19021,
    "join": 12117,
    "Ġcaution": 11347,
    "ouching": 13180,
    "Ġtorment": 8677,
    "grief": 13733,
    "arrival": 15603,
    "Ġonly": 788,
    "charm": 13992,
    "Ġflour": 8946,
    "lone": 11501,
    "ĠĠĠĠĠĠĠĠĠĠĠĠĠĠĠĠĠĠĠĠĠĠ": 16229,
    "serv": 7450,
    "vative": 1630,
    "Ġknows": 4159,
    "Ġhers": 7891,
    "Ġfinds": 6300,
    "Ġputting": 5326,
    "Ġgourmand": 26467,
    "grace": 5847,
    "supposed": 13319,
    "uttered": 8443,
    "Ġcomple": 2840,
    "Ġvess": 3296,
    "Ġvort": 18194,
    "networks": 2408,
    "Ġtransported": 11280,
    "illings": 14144,
    "Ġreaders": 18916,
    "Ġvishnoo": 12757,
    "Ġserpent": 6738,
    "Ġxxx": 7767,
    "Ġplunged": 8696,
    "daggoo": 13709,
    "hint": 12479,
    "Ġeating": 8137,
    "vessel": 11378,
    "Ġportion": 7492,
    "conf": 4956,
    "oo": 7553,
    "Ġlean": 7606,
    "Ġwreath": 25937,
    "Ġwaves": 3918,
    "val": 1167,
    "ark": 847,
    "Ġreputed": 18038,
    "commendation": 26351,
    "itzerland": 9997,
    "Ġtartar": 17324,
    "neighboring": 20620,
    "keen": 12786,
    "Ġcaused": 5047,
    "Ġble": 5222,
    "gave": 7800,
    "Ġgorgeous": 20470,
    "Ġpir": 6817,
    "Ġmight": 963,
    "Ġmoney": 3418,
    "plainly": 11090,
    "Ġdesist": 16241,
    "vellers": 16675,
    "Ġexquisitely": 20205,
    "believed": 9935,
    "unable": 14061,
    "Ġregardless": 19326,
    "airing": 16179,
    "Ġforeshadowing": 26593,
    "almost": 4942,
    "Ġthreatened": 8331,
    "Ġnegative": 1465,
    "rougham": 15996,
    "Ġankers": 21449,
    "Ġearnest": 3930,
    "Ġidiot": 11974,
    "Ġrail": 7224,
    "per": 482,
    "mospheric": 17091,
    "imagination": 13483,
    "quest": 4536,
    "Ġsuspect": 5758,
    "Ġbrightness": 16578,
    "Ġblind": 3718,
    "difficult": 10060,
    "Ġenumer": 12749,
    "Ġmoves": 14233,
    "dutch": 17220,
    "athed": 7829,
    "Ġaquiline": 26160,
    "eties": 10838,
    "Ġ115": 24438,
    "buried": 14851,
    "Ġforeshad": 23454,
    "calculation": 25689,
    "«": 109,
    "piece": 6657,
    "proof": 16426,
    "Ġpolitic": 23620,
    "Ġpovels": 22600,
    "Ġgash": 15674,
    "Ġmalady": 24391,
    "ghost": 20889,
    "hundred": 8332,
    "encies": 4079,
    "aid": 1923,
    "Ġsequentially": 4914,
    "aster": 1868,
    "Ġblood": 3168,
    "Ġlizz": 21561,
    "Ġsheeted": 19834,
    "Ġnarrowly": 16821,
    "eleg": 20851,
    "Ġprecise": 7076,
    "Ġgreas": 17994,
    "orns": 12596,
    "eked": 16405,
    "thrust": 10263,
    "Ġshield": 22004,
    "Ġthickly": 12119,
    "Ġruthless": 15288,
    "compose": 24035,
    "Ġbowditch": 19325,
    "Ġhypocr": 19475,
    "Ġnin": 10189,
    "vent": 683,
    "Ġglo": 1716,
    "Ġfretfully": 25448,
    "Ġreading": 5113,
    "Ġful": 4296,
    "luc": 9756,
    "luyt": 18460,
    "eastern": 17534,
    "pressed": 6588,
    "ained": 3064,
    "ensibility": 22553,
    "Ġrope": 4337,
    "Ġreputation": 11642,
    "Ġoutside": 5553,
    "gloves": 25146,
    "eternal": 17985,
    "Ġindist": 14410,
    "ooping": 21009,
    "darkness": 9514,
    "restored": 18980,
    "Ġ38": 24081,
    "visible": 10535,
    "tide": 11534,
    "narr": 12500,
    "eff": 2534,
    "Ġslu": 13838,
    "palms": 25263,
    "Ġstory": 2900,
    "Ġsurveying": 25326,
    "Ġbatt": 13901,
    "irited": 15790,
    "Ġtw": 839,
    "Ġguns": 16777,
    "agonies": 21914,
    "Ġbundle": 13429,
    "Ġmission": 13010,
    "revealed": 20419,
    "Ġsalisbury": 24068,
    "gin": 4930,
    "Ġshel": 6846,
    "handedness": 24921,
    "Ġbridge": 8350,
    "either": 6791,
    "Ġappearance": 3702,
    "Ġbetter": 1175,
    "Ġavenues": 25430,
    "subsided": 25832,
    "atters": 18497,
    "Ġnorris": 23205,
    "Ġsins": 13839,
    "eck": 20846,
    "Ġfejee": 18354,
    "Ġprovinc": 16743,
    "dart": 20828,
    "erably": 7573,
    "recovered": 19790,
    "ohog": 9845,
    "madam": 24420,
    "Ġbeheading": 21759,
    "Ġcaught": 3732,
    "Ġhumane": 11887,
    "Ġperceiving": 8878,
    "msman": 9272,
    "Ġharpooning": 23982,
    "isome": 17850,
    "Ġbowels": 9432,
    "do": 1996,
    "Ġsubst": 4273,
    "Ġgrizzled": 11451,
    "Ġcringing": 25942,
    "Ġpag": 6012,
    "Ġstall": 12700,
    "attempted": 20177,
    "Ġsaith": 14157,
    "pshaw": 21030,
    "irene": 15917,
    "Ġinexpressible": 17335,
    "Ġcyn": 13888,
    "Ġpoltroon": 26599,
    "Ġabsolute": 6765,
    "Ġexped": 7651,
    "Ġconnecting": 18630,
    "reflections": 24734,
    "Ġnowadays": 18547,
    "Ã": 132,
    "stars": 18022,
    "Ġfolks": 14428,
    "resemblance": 25934,
    "gainst": 25144,
    "Ġscaling": 3633,
    "Ġtones": 8402,
    "Ġhugest": 17016,
    "reng": 4002,
    "Ġpassing": 4314,
    "Ġbullion": 24988,
    "Ġartist": 12916,
    "Ġpistol": 7848,
    "Ġconsistent": 14529,
    "Ġmerit": 9429,
    "generally": 9437,
    "Ġsmitten": 12906,
    "Ġnose": 4402,
    "contain": 18503,
    "barbaric": 26360,
    "Ġdetest": 8502,
    "linked": 17594,
    "Ġrequisition": 22654,
    "oin": 17618,
    "Ġomit": 17817,
    "Ġtriumph": 5142,
    "Ġswift": 3671,
    "uits": 21107,
    "Ġnormalizes": 1863,
    "Ġbount": 15571,
    "horrible": 14601,
    "Ġejac": 10205,
    "Ġcordiality": 24394,
    "cuniary": 26380,
    "Ġhare": 5156,
    "Ġimbib": 22180,
    "¡": 99,
    "Ġagatha": 6865,
    "dest": 4102,
    "Ġconverse": 11847,
    "Ġrel": 1096,
    "Ġmusket": 12299,
    "Ġglories": 16243,
    "Ġgrassy": 24378,
    "anger": 2175,
    "leness": 4690,
    "shot": 2102,
    "sho": 6425,
    "Ġwint": 15535,
    "Ġnind": 17952,
    "bag": 7542,
    "fleet": 15015,
    "Ġmagnet": 10391,
    "Ġrecovering": 11863,
    "Ġnatures": 16507,
    "Ġclock": 9535,
    "spond": 5566,
    "ention": 859,
    "Ġdiverse": 19211,
    "swallowed": 14855,
    "Ġque": 4158,
    "aited": 12438,
    "othing": 6995,
    "Ġmolasses": 25629,
    "Ġmout": 17800,
    "Ġparalle": 1409,
    "merit": 19283,
    "track": 24334,
    "approb": 11043,
    "Ġper": 589,
    "summoned": 26592,
    "shortened": 24747,
    "Ġsaxe": 13631,
    "Ġopen": 1548,
    "Ġdiscovery": 5412,
    "Ġrebellion": 26476,
    "enes": 5217,
    "Ġanecd": 20157,
    "Ġcoroner": 7510,
    "Ġmoluccas": 25630,
    "Ġsnapping": 19303,
    "housekeeping": 24103,
    "sprit": 11383,
    "Ġjabez": 11769,
    "jur": 17579,
    "Ġedges": 3827,
    "threaten": 25462,
    "Ġaccounting": 14573,
    "Ġlethargy": 26484,
    "stonecraft": 24355,
    "asiness": 8130,
    "X": 60,
    "Ġvegetables": 15224,
    "Ġdem": 11676,
    "Ġlegisl": 23535,
    "Ġmarsh": 9823,
    "Ġfollows": 7674,
    "Ġrev": 6988,
    "Ġjuggling": 20442,
    "Ġstab": 10863,
    "Ġresponsiveness": 2896,
    "sm": 3436,
    "Ġdistributing": 22683,
    "overed": 2852,
    "Ġwounding": 19589,
    "secret": 12240,
    "inary": 3276,
    "asting": 12810,
    "Ġjuly": 17238,
    "Ġtheirs": 7025,
    "influence": 13581,
    "Ġgathers": 24742,
    "Ġbri": 21381,
    "Ġearly": 2079,
    "south": 8762,
    "observed": 7676,
    "Ġpleaded": 16302,
    "Ġcit": 10784,
    "hitherto": 17285,
    "Ġwas": 370,
    "perth": 22190,
    "discern": 14853,
    "oted": 4597,
    "Ġpeaceable": 14725,
    "Ġstaff": 14008,
    "L": 48,
    "conject": 8883,
    "Ġdungeon": 16997,
    "Ġauthority": 7749,
    "ell": 395,
    "numbers": 17617,
    "umb": 3403,
    "âĢĶâĢĿ": 3301,
    "pper": 3211,
    "Ġperches": 18450,
    "Ġpictured": 16624,
    "slee": 17170,
    "Ġannihilated": 20255,
    "arrang": 14653,
    "Ġnumbers": 2887,
    "arms": 10175,
    "Ġvillainous": 25134,
    "famous": 16917,
    "Ġnast": 15642,
    "batross": 9095,
    "Ġperfume": 25666,
    "Ġunce": 11714,
    "Ġdiscretion": 10349,
    "Ġharvest": 13418,
    "attery": 18498,
    "ps": 4574,
    "Ġedged": 23489,
    "Ġfurlong": 18742,
    "irable": 5776,
    "Ġstepfather": 7220,
    "Åĵ": 10745,
    "Ġlangu": 576,
    "Ġcoff": 3508,
    "Ġcoals": 16081,
    "address": 14883,
    "<UNK>": 3,
    "Ġmen": 1432,
    "Ġhaunts": 18199,
    "Ġvinegar": 20103,
    "Ġrelied": 16197,
    "Ġcripple": 11441,
    "Ġdisabled": 18562,
    "Ġspire": 18307,
    "ullo": 12733,
    "thereby": 14449,
    "Ġmanor": 14198,
    "mped": 16649,
    "Ġconfl": 11138,
    "neighbourhood": 10027,
    "Ġstandards": 19018,
    "Ġunche": 23432,
    "Ġdeacon": 18143,
    "ross": 808,
    "Ġnation": 12651,
    "Ġmastery": 23996,
    "Ġgovernesses": 25130,
    "Ġforces": 12706,
    "assistant": 25568,
    "judges": 19576,
    "forget": 11033,
    "constellation": 24609,
    "endous": 6849,
    "poor": 6062,
    "Ġfifty": 4623,
    "Ġlistened": 4468,
    "Ġnervously": 19187,
    "Ġcolouring": 16752,
    "Ġroving": 22408,
    "orange": 21403,
    "Ġprincely": 24150,
    "Ġwife": 2587,
    "Ġperpendicularly": 11375,
    "aper": 4998,
    ",)": 9103,
    "Ġdescend": 7426,
    "pence": 15411,
    "Ġgas": 8134,
    "Ġcomfortably": 16616,
    "Ġslips": 23170,
    "Ġvehem": 22893,
    ")âĢĶ": 20744,
    "Ħ": 231,
    "Ġrestrained": 16378,
    "ootiful": 17375,
    "acid": 10995,
    "poison": 14394,
    "Ġim": 475,
    "wrong": 13209,
    "ance": 478,
    "Ġpawnbroker": 13661,
    "Ġloud": 4700,
    "ication": 993,
    "prehensible": 12363,
    "Ġvaliantly": 22799,
    "Ġreluct": 14374,
    "isco": 12585,
    "Ġliberality": 24376,
    "Ġperv": 15993,
    "signed": 21064,
    "conc": 3948,
    "Ġsteamer": 17190,
    "Ġindividual": 5744,
    "Ġforms": 6397,
    "Ġinter": 728,
    "Ġscoresby": 10463,
    "Ġresemble": 15696,
    "Ġresponded": 13641,
    "ivory": 10272,
    "Ġfleeting": 19329,
    "fulfilment": 26025,
    "Ġadaptive": 1316,
    "dinah": 20084,
    "immediate": 20097,
    "Ġoutweigh": 22327,
    "Ġintrude": 25991,
    "anchor": 13891,
    "cause": 7796,
    "Ġve": 1105,
    "Ġproducing": 11902,
    "argue": 21448,
    "Ġimpl": 7194,
    "rannical": 26402,
    "Ġcomrade": 11683,
    "Ġdeliber": 7267,
    "Ġinterest": 2252,
    "representativeness": 25273,
    "Ġdents": 13913,
    "Ġniece": 5712,
    "Ġchemical": 10411,
    "departed": 24793,
    "vings": 9753,
    "Ġthro": 5818,
    "Ġawe": 7147,
    "Ġprocessions": 18434,
    "rably": 21637,
    "Ġvanish": 8929,
    "complete": 15036,
    "Ġscheme": 7065,
    "Ġnoiseless": 10358,
    "papers": 12505,
    "ĠĠĠĠĠ": 3528,
    "Ġbumping": 25281,
    "abled": 12798,
    "vanity": 24979,
    "sleet": 20152,
    "Ġpie": 13917,
    "achusetts": 20712,
    "Ġmadam": 5663,
    "Ġbasis": 16962,
    "Ġbulge": 23860,
    "Ġadduced": 26525,
    "Ġgold": 3280,
    "Ġacquiescence": 20333,
    "Ġperfections": 23610,
    "iza": 6256,
    "Ġnobody": 6159,
    "100": 11465,
    "Ġexamination": 8006,
    "undertaking": 23790,
    "Ġoars": 3897,
    "Ġdent": 13908,
    "approbation": 11459,
    "Ġgreek": 10633,
    "reck": 9638,
    "Ġgener": 588,
    "Ġens": 2787,
    ",": 16,
    "Ġensure": 23691,
    "spout": 7925,
    "Ġfathers": 16298,
    "Ġgrappling": 25813,
    "Ġbashee": 19851,
    "ember": 1958,
    "Ġlock": 5929,
    "Ġagent": 6278,
    "Ġpassers": 18759,
    "rity": 13778,
    "^{": 15307,
    "Ġairs": 14512,
    "country": 6104,
    "Ġhydraulic": 10066,
    "Ġmoral": 6580,
    "Ġspent": 3965,
    "Ġchildren": 3768,
    "Ġawful": 6200,
    "backpropagation": 11988,
    "iloqu": 11650,
    "Ġsod": 11563,
    "Ġlarger": 1400,
    "chief": 4644,
    "Ġopening": 5044,
    "Ġdecent": 10983,
    "Ġpurple": 10434,
    "frequently": 9981,
    "Ġprivacy": 19527,
    "Ġcrawled": 17044,
    "Ġsafety": 6340,
    "Ġharpo": 1944,
    "Ġungrateful": 14123,
    "Ġperverseness": 13657,
    "Ġpalp": 11250,
    "concerning": 9066,
    "Ġoppressively": 25711,
    "Ġjogged": 26238,
    "Ġshrouded": 14971,
    "Ġbelted": 22952,
    "Ġbathing": 20202,
    "Ġshan": 9251,
    "liness": 8750,
    "rank": 21044,
    "limbs": 20194,
    "pread": 7418,
    "dro": 6646,
    "Ġliberally": 16831,
    "Ġradiating": 24330,
    "Ġexploit": 19164,
    "Ġshoreless": 24296,
    "sized": 15430,
    "Ġwelcomed": 9484,
    "Ġhence": 4988,
    "appalled": 18762,
    "centre": 17087,
    "Ġformality": 22832,
    "Ġhammer": 6095,
    "Ġsho": 2249,
    "pense": 10370,
    "Ġblades": 11898,
    "mentioned": 10625,
    "Ġcollectively": 19971,
    "Ġoccasional": 7288,
    "Ġtradesman": 20076,
    "Ġleaky": 2347,
    "mystic": 25317,
    "urance": 10858,
    "alliance": 22205,
    "omeness": 18018,
    "tically": 3393,
    "Ġindestruct": 22962,
    "shud": 18484,
    "ĠĠĠĠĠĠĠĠĠĠĠĠĠĠĠĠĠĠĠĠĠĠĠĠĠ": 24441,
    "Ġwisdom": 11234,
    "surface": 10532,
    "Ġimpropri": 14219,
    "Ġprogressive": 5023,
    "ave": 977,
    "Ġdesmarest": 22985,
    "Ġsolution": 9807,
    "oes": 4433,
    "Ġscru": 8192,
    "Ġswimming": 5507,
    "Ġdoomed": 11343,
    "_.,": 14563,
    "Ġrabbit": 4288,
    "indignation": 18439,
    "quickness": 19853,
    "itional": 22473,
    "somewhat": 11161,
    "Ġhoisting": 9864,
    "Ġpenal": 1775,
    "Ġcubs": 20090,
    "oldened": 22645,
    "Ġencamp": 22804,
    "eldest": 22806,
    "noticed": 14343,
    "Ġescape": 2646,
    "dischar": 19155,
    "Ġs": 265,
    "club": 26381,
    "Ġruminated": 24601,
    "resting": 23240,
    "Ġmosses": 20166,
    "gover": 10703,
    "Ġdoubted": 7966,
    "pop": 17632,
    "Ġdub": 13911,
    "cription": 20820,
    "Ġard": 5163,
    "awake": 14454,
    "Ġavowal": 19418,
    "pierced": 26142,
    "Ġattended": 5391,
    "Ġembraced": 10008,
    "precip": 14666,
    "Ġegypt": 9680,
    "Ġtiresome": 26157,
    "visit": 7755,
    "Ġconvolutional": 2165,
    "Ġpoliteness": 8275,
    "Ġpreaching": 15929,
    "Ġmanipulation": 10660,
    "Ġdiscerned": 24959,
    "exceedingly": 9568,
    "Ġmouthfuls": 20648,
    "Ġrevolve": 19732,
    "conspicuous": 26249,
    "beware": 16043,
    "heading": 5487,
    "pots": 11515,
    "Ġguests": 12290,
    "Ġlaug": 3629,
    "gigantic": 15362,
    "izz": 7614,
    "ifled": 14065,
    "Ġcondescended": 19959,
    "Ġtakings": 20575,
    "Ġinsects": 25647,
    "ld": 385,
    "ie": 729,
    "shire": 3019,
    "Ġthreads": 13121,
    "Ġscept": 15505,
    "retirement": 23146,
    "mission": 5971,
    "Ġtol": 6676,
    "endeavouring": 15017,
    "Ġliveliness": 13646,
    "Ġdesignated": 19524,
    "Ġgu": 1329,
    "repro": 10771,
    "Ġsnuff": 7993,
    "leading": 15565,
    "ribution": 14309,
    "Ġornament": 11723,
    "Ġornam": 15867,
    "jet": 13744,
    "itute": 9653,
    "Ġrand": 1580,
    "Ġminim": 1325,
    "sam": 21054,
    "Ġplace": 1653,
    "Ġwallowing": 24046,
    "Ġfowl": 11331,
    "erative": 21275,
    "rann": 21047,
    "Ġ183": 13241,
    "convers": 6568,
    "Ġcabaco": 13170,
    "Ġwails": 21299,
    "Ġdispositions": 13236,
    "Ġdilig": 8351,
    "Ġtrowsers": 9629,
    "Ġlovel": 10273,
    "Ġdorm": 4822,
    "Ġcontemporary": 16015,
    "fatig": 17089,
    "Ġcrocod": 19631,
    "Ġgarden": 3826,
    "illation": 14143,
    "Ġveracity": 23892,
    "Ġovertaken": 18431,
    "regards": 23468,
    "aside": 10193,
    "Ġadmiral": 17307,
    "Ġterrify": 19364,
    "ause": 1312,
    "Ġsnap": 11202,
    "Ġprot": 3848,
    "ela": 21573,
    "Ġimport": 1047,
    "Ġheels": 10851,
    "Ġswandam": 11089,
    "Ġdramat": 23223,
    "Ġlodges": 19503,
    "Ġbuildings": 24719,
    "diff": 9115,
    "Ġ93": 24593,
    "Ġespecial": 26411,
    "icirc": 15659,
    "Ġlav": 13952,
    "Ġallured": 14115,
    "Ġplantation": 11424,
    "business": 5609,
    "Ġcontinual": 6777,
    "rible": 3229,
    "verty": 8454,
    "Ġstarvation": 19794,
    "quaker": 15766,
    "Ġstarts": 16584,
    "bling": 10684,
    "residence": 19265,
    "terms": 15754,
    "Ġviol": 2072,
    "ane": 1179,
    "hurt": 19880,
    "Ġdiffident": 23786,
    "bacc": 7795,
    "Ġunderstood": 5655,
    "Ġspots": 11733,
    "Ġtarquin": 23612,
    "itable": 5437,
    "Ġdisconsol": 18558,
    "mouth": 9132,
    "Ġregarding": 13213,
    "Ġtashtego": 4485,
    "Ġplug": 17149,
    "Ġplaited": 14286,
    "Ġgoing": 2067,
    "Ġperchance": 15994,
    "Ġparis": 8180,
    "Ġmodesty": 12824,
    "Ġinteraction": 7423,
    "_.)": 7277,
    "sculptured": 26047,
    "Ġreeds": 15699,
    "ĠĠĠĠĠĠĠĠĠĠĠĠĠĠĠĠĠĠĠĠĠĠĠĠĠĠĠĠĠĠ": 24442,
    "Ġsect": 17752,
    "Ġporter": 15614,
    "Ġfirm": 3871,
    "Ġicebergs": 23978,
    "Ġtelegram": 15226,
    "alously": 15632,
    "Ġveiled": 16203,
    "Ġencircling": 26273,
    "painting": 17046,
    "Ġinj": 4759,
    "dire": 15338,
    "Ġcontracted": 12864,
    "Ġarc": 14160,
    "Ġuniformly": 19149,
    "Ġslouched": 13063,
    "lege": 17843,
    "Ġincantation": 26259,
    "Ġgestures": 13538,
    "Ġstraits": 7995,
    "lass": 5994,
    "Ġappeal": 16317,
    "Ġhousekeeping": 18946,
    "Ġeast": 5370,
    "Ġtilted": 20416,
    "Ġexempt": 21833,
    "Ġperfidious": 25667,
    "verity": 14003,
    "Ġintroduced": 7692,
    "Ġcherished": 10592,
    "symp": 14621,
    "cturn": 17989,
    "uttering": 12666,
    "erxes": 21278,
    "Ġirreducible": 5519,
    "ager": 6547,
    "izure": 21846,
    "Ġeigen": 4881,
    "Í": 142,
    "Ġsecrecy": 7315,
    "meetings": 20381,
    "Ġvulture": 17341,
    "Ġdundee": 16998,
    "bib": 17493,
    "bu": 5131,
    "Ġsoftly": 7949,
    "sof": 17658,
    "quent": 2095,
    "Ġanimation": 11153,
    "Ġphrenologist": 25608,
    "Ġlocked": 6036,
    "sixty": 24853,
    "Ġsidel": 9637,
    "ographical": 16787,
    "imming": 9689,
    "Ġaqu": 17743,
    "Ġyou": 366,
    "Ġsubsc": 22793,
    "Ġhaving": 1882,
    "Ġtick": 8110,
    "values": 4972,
    "Ġstrangest": 14798,
    "Ġaudibly": 24770,
    "speaks": 19722,
    "**:": 4736,
    "Ġleaps": 14010,
    "Ġwater": 1950,
    "inks": 6868,
    "mine": 5617,
    "fedallah": 25523,
    "matic": 4618,
    "regarded": 12010,
    "Ġfrequented": 16587,
    "Ġcease": 7077,
    "Ġpent": 17903,
    "Ġsoldiers": 8690,
    "Ġur": 5539,
    "Ġaway": 1247,
    "Ġbecoming": 4397,
    "Ġservices": 11218,
    "gorith": 552,
    "Ġslope": 14462,
    "Ġemails": 13110,
    "conjectured": 25182,
    "bes": 6643,
    "Ġexper": 1318,
    "Ġfewer": 16224,
    "Ġmont": 8561,
    "Ġaberdeen": 26542,
    "Ġlandlessness": 23383,
    "Ġshocks": 16459,
    "ism": 4874,
    "Ġlar": 765,
    "Ġentries": 22749,
    "lott": 6652,
    "uniform": 18160,
    "Ġgrinning": 9055,
    "comple": 7440,
    "riv": 3107,
    "Ġaffrighted": 13575,
    "Ġdecide": 9289,
    "Ġabiding": 22275,
    "rippa": 11342,
    "Ġbetrayed": 9563,
    "uzzle": 19586,
    "Ġfinishing": 23128,
    "Ġtake": 1575,
    "Ġmourn": 8707,
    "Ġviews": 7289,
    "Ġimpregnable": 26024,
    "71": 20758,
    "taining": 7205,
    "Ġpetersburgh": 24230,
    "Ġrosy": 18458,
    "Ġlonger": 3360,
    "ouring": 6420,
    "Ġed": 2245,
    "Ġsparkled": 13465,
    "afternoon": 13190,
    "knows": 19174,
    "Ġthief": 11612,
    "Ġimpenet": 14223,
    "Ġmau": 21313,
    "lant": 20949,
    "Ġdecember": 15008,
    "loo": 10321,
    "maid": 8555,
    "ousand": 2431,
    "Ġdebt": 12171,
    "Ġunidirectional": 3425,
    "Ġanytime": 12889,
    "draught": 12094,
    "Ġimplements": 2488,
    "dangerous": 20243,
    "Ġdire": 867,
    "Ġcrevice": 22730,
    "ames": 2952,
    "ruck": 6847,
    "trouble": 8297,
    "Ġmaimed": 21319,
    "Ġattend": 5034,
    "spell": 22741,
    "three": 5238,
    "Ġsteeple": 19290,
    "Ġgrowl": 16539,
    "blame": 14796,
    "Ġtender": 5753,
    "Ġplate": 8901,
    "don": 3545,
    "Ġruns": 8598,
    "Ġcounty": 9032,
    "inkled": 5477,
    "Ġherd": 7890,
    "Ġtun": 6000,
    "elze": 21577,
    "Ġsmoke": 4715,
    "Ġwhich": 503,
    "angled": 6843,
    "ically": 853,
    "Ġsymphony": 26533,
    "Ġresc": 4505,
    "cked": 2762,
    "Ø": 153,
    "Ġwhen": 513,
    "Ġbully": 23859,
    "Ġgravel": 14104,
    "conception": 22479,
    "wanted": 10744,
    "Ġdoth": 13910,
    "hap": 17560,
    "Ġunless": 4090,
    "ague": 3906,
    "Ġboneless": 19608,
    "Ġjerked": 19835,
    "Ġscenery": 11457,
    "benefact": 24642,
    "Ġnick": 21527,
    "Ġsumatra": 15289,
    "itious": 8783,
    "Ġsplitting": 4383,
    "Ġhammock": 5768,
    "Ġconcocted": 26300,
    "Ġtrifles": 16952,
    "Ġreser": 5169,
    "Ġbaboon": 19696,
    "Ġinstigated": 18703,
    "Ġscaramouch": 23831,
    "Ġinexhaustible": 16982,
    "Ġdefiance": 11069,
    "Ġinco": 14264,
    "Ġresolve": 13173,
    "Ġshook": 4467,
    "Ġwinc": 9644,
    "bru": 12442,
    "Ġeng": 1163,
    "needle": 20316,
    "Ġoverlooking": 22365,
    "Ġgenteel": 19984,
    "decl": 8859,
    "Ġcables": 15561,
    "Ġimperial": 9483,
    "och": 21003,
    "Ġcoinc": 11003,
    "Ġadvocate": 13679,
    "Ġexclusion": 19399,
    "post": 6063,
    "acency": 12901,
    "Ġdesires": 9459,
    "Ġhanged": 17927,
    "Ġclout": 22351,
    "educated": 17261,
    "ters": 1570,
    "Ġbressed": 21390,
    "Ġvicinity": 7314,
    "Ġby": 383,
    "hearing": 8405,
    "answer": 11731,
    "Ġpremises": 10489,
    "Ġtiller": 8967,
    "richard": 17288,
    "come": 2379,
    "Ġimbedded": 18333,
    "itement": 7836,
    "Ġplanks": 5563,
    "ured": 1655,
    "onom": 9160,
    "Ġvacantly": 16816,
    "acey": 7650,
    "Ġrally": 21973,
    "Ġ60": 14877,
    "ryder": 18639,
    "Ġoverjoyed": 17460,
    "Ġesteemed": 10590,
    "Ġconclusions": 10555,
    "Ġpreserve": 7529,
    "Ġmemories": 14542,
    "Ġhappier": 10361,
    "Ġliterary": 25166,
    "Ġsorting": 3235,
    "Ġhouse": 1503,
    "icle": 10835,
    "nineteenth": 26139,
    "Ġweek": 2826,
    "Ġaverse": 11082,
    "holes": 12057,
    "Ġroughly": 17040,
    "Ġdefici": 22947,
    "lays": 14924,
    "ther": 481,
    "wholly": 10942,
    "Ġseedy": 21967,
    "Ġrare": 7037,
    "mark": 5281,
    "related": 24015,
    "philosop": 9569,
    "Ġplants": 22605,
    "Ġbrill": 8551,
    "lur": 13749,
    "Ġtunnel": 14932,
    "suspicious": 25391,
    "scho": 8763,
    "ger": 1104,
    "Ġunquestion": 18249,
    "Ġtypes": 8938,
    "Ġcoding": 8117,
    "bud": 10685,
    "ame": 644,
    "Ġdaylight": 10352,
    "Ġscr": 11763,
    "stool": 23823,
    "Ġpatron": 7461,
    "asy": 5295,
    "marvell": 24174,
    "Ġinterconnected": 1338,
    "Ġebb": 21626,
    "humoured": 11237,
    "Ġinstrum": 6056,
    "Ġelephants": 9866,
    "Ġemployed": 5199,
    "Ġbenefits": 4286,
    "idel": 5300,
    "Ġfirmly": 8015,
    "Ġgratified": 8022,
    "Ġbree": 5011,
    "Ġrefill": 18699,
    "Ġcedars": 20295,
    "Ġdais": 24371,
    "Ġindividuals": 24545,
    "eenth": 12464,
    "Ġconstit": 8586,
    "ipelagoes": 13674,
    "Ġdab": 15591,
    "Ġnightgown": 23137,
    "discovered": 8326,
    "Ġforming": 7043,
    "vi": 2377,
    "instead": 14815,
    "Ġshipwreck": 20449,
    "Ö": 151,
    "taking": 5689,
    "landsmen": 25062,
    "usage": 12837,
    "fic": 20854,
    "maritime": 24175,
    "Ġcircumference": 13547,
    "Ġpupils": 20424,
    "Ġslides": 18941,
    "Ġreneg": 21679,
    "R": 54,
    "Ġapparent": 5466,
    "vanished": 15064,
    "Ġfairy": 14628,
    "Ġdisd": 7031,
    "Ġsuff": 1302,
    "expanded": 23668,
    "idable": 8147,
    "inferiors": 25347,
    "promise": 12254,
    "Ġbaltic": 18795,
    "flex": 24844,
    "berwell": 22724,
    "Ġveter": 15814,
    "Ġhelm": 5275,
    "Ġpush": 9185,
    "introdu": 8939,
    "destiny": 16700,
    ";âĢĶ": 3751,
    "onings": 21255,
    "Ġsabbath": 17256,
    "letons": 14613,
    "Ġpotential": 3620,
    "base": 20779,
    "Ġunperceived": 22042,
    "unks": 15778,
    "Ġmusky": 19385,
    "Ġcontinue": 5398,
    "Ġaspect": 3095,
    "Ġdissimilar": 22536,
    "Ġerud": 20058,
    "Ġnomine": 26457,
    "produced": 25415,
    "Ġthieves": 15639,
    "Ġpane": 21466,
    "art": 575,
    "Ġxavier": 2853,
    "Ġalternating": 15032,
    "Ġord": 3737,
    "clearer": 24072,
    "blown": 25202,
    "Ġensl": 19276,
    "Ġmorphology": 3008,
    "Ġra": 813,
    "Ġstandpoint": 23281,
    "Ġjack": 4652,
    "Ġbodiless": 24228,
    "harpoone": 6108,
    "Ġpage": 6978,
    "Ġcor": 1324,
    "Ġmatlock": 18805,
    "Ġcriminal": 7537,
    "Ġmonosy": 18853,
    "Ġquivers": 22418,
    "breathing": 25336,
    "Ġknotted": 17020,
    "v": 90,
    "sor": 7351,
    "Ġalbino": 20506,
    "respond": 12548,
    "Ġdecipher": 22465,
    "idy": 21769,
    "farewell": 12309,
    "Ġfrequent": 3288,
    "Ġhampshire": 15245,
    "Ġowe": 8116,
    "Ġoverboard": 6046,
    "Ġplumber": 16088,
    "Ġiter": 2951,
    "ren": 549,
    "Ġledge": 19404,
    "Ġfalsehood": 10525,
    "final": 19679,
    "fool": 9049,
    "Ġtug": 11552,
    "Ġdistur": 5312,
    "Ġgallant": 8658,
    "Ġbountiful": 25945,
    "unless": 9237,
    "Ġpredecessor": 26255,
    "intimate": 22941,
    "Ġadmires": 19688,
    "Ġlabour": 7273,
    "feit": 16045,
    "Ġhedgehog": 10646,
    "Ġpleas": 1908,
    "Ġdecomp": 3811,
    "Ġoperate": 19117,
    "Ġdoom": 6417,
    "Ġscruple": 25051,
    "backward": 2682,
    "superstitiousness": 25509,
    "Ġwaifing": 25244,
    "reshold": 21242,
    "Ġvul": 10249,
    "Ġnecess": 3476,
    "Ġgoethe": 22429,
    "fireside": 24693,
    "Ġinser": 6819,
    "posture": 16928,
    "cially": 3489,
    "Ġregularity": 22782,
    "waiter": 24588,
    "Ġmus": 3397,
    "talked": 14987,
    "Ġwhatever": 3474,
    "icacy": 15661,
    "nerable": 16276,
    "Ġgrain": 15834,
    "our": 534,
    "Ġseveral": 2671,
    "Ġcoiling": 12912,
    "west": 10740,
    "Ġbreed": 19073,
    "sl": 5794,
    "ĩ": 234,
    "Ġdeclaration": 16638,
    "Ġarmchair": 8272,
    "Ġpre": 507,
    "usual": 5842,
    "sey": 5542,
    "between": 5070,
    "rolling": 9062,
    "audible": 17134,
    "Ġ95": 19776,
    "Ġtea": 5040,
    "Ġnear": 1719,
    "elfare": 11780,
    "Ġsympathise": 16795,
    "Ġprev": 6265,
    "Ġconfidently": 24960,
    "Ġnile": 21525,
    "Ġconsume": 12962,
    ",âĢĻ": 2329,
    "Ġbeget": 9227,
    "Ġsullen": 9159,
    "idered": 4552,
    "Ġraved": 22655,
    "acknowledge": 18469,
    "Ġointment": 21329,
    "Ġtwinkling": 12327,
    "agger": 7874,
    "ante": 11724,
    "Ġreasons": 6021,
    "Ġscandinavian": 26347,
    "Ġlinn": 13955,
    "umbling": 6613,
    "desolate": 25717,
    "Ġjudgment": 5765,
    "Ġpeeled": 14320,
    "Ġeduc": 4785,
    "Ġgouldings": 26189,
    "finds": 19929,
    "Ġenlarged": 25986,
    "impulse": 20647,
    "Ġdetermining": 14423,
    "aggoo": 5129,
    "Ġtapped": 11555,
    "Ġschedule": 2374,
    "Ġturnkeys": 23035,
    "Ġrecital": 16141,
    "onym": 14650,
    "shore": 10307,
    "Ġfug": 12599,
    "Ġmajor": 13295,
    "Ġhelmeted": 19691,
    "Ġpenalty": 1840,
    "vid": 916,
    "ezes": 9993,
    "Ġunden": 22018,
    "Ġstalked": 20432,
    "unhappy": 10239,
    "note": 14342,
    "squee": 15432,
    "Ġspasmodically": 17316,
    "Ġshank": 22002,
    "wing": 2520,
    "Ġmccarthys": 19665,
    "Ġghast": 9211,
    "Ġwhis": 3504,
    "Ġhears": 8140,
    "cating": 20804,
    "Ġtigers": 25759,
    "Ġcamel": 25350,
    "Ġemploys": 19434,
    "ested": 3479,
    "response": 25763,
    "chers": 11318,
    "Ġmethodology": 2394,
    "Ġfemin": 13439,
    "metal": 24764,
    "Ġtout": 17720,
    "concluding": 19484,
    "Ġtig": 13815,
    "Ġphantoms": 13489,
    "Ġclap": 10958,
    "ands": 21871,
    "umbled": 8494,
    "Ġguineas": 16272,
    "Ġbloody": 9891,
    "Ġestablishment": 13582,
    "Ġserpents": 13080,
    "Ġthose": 1174,
    "Ġcounsell": 25385,
    "insupportable": 21196,
    "Ġuneasiness": 9486,
    "Ġaccomplished": 7105,
    "Ġmagnitudes": 3823,
    "Ġimpertinent": 9079,
    "streets": 13398,
    "Ġobligation": 13248,
    "inked": 12917,
    "Ġparallel": 1413,
    "Ġdistributed": 18662,
    "itate": 6669,
    "Ġaccompany": 9489,
    "Ġrejoiced": 8687,
    "Ġdrop": 4343,
    "arious": 10318,
    "Ġshri": 5375,
    "Ġ26": 10471,
    "Ġjoining": 13167,
    "weary": 22690,
    "Ġyarman": 12709,
    "Ġscenes": 5730,
    "warks": 5003,
    "Ġkneeling": 12146,
    "Ġenvironmental": 24065,
    "Ġglobular": 19011,
    "Ġbeseeching": 26312,
    "Ġfoe": 7681,
    "shaken": 16024,
    "Ġexceptional": 19374,
    "Ġfeared": 5932,
    "Ġrubbing": 9323,
    "hastening": 24447,
    "irra": 15788,
    "Ġsmut": 22562,
    "Ġflexible": 23778,
    "Ġendured": 6074,
    "smote": 23913,
    "compassion": 12371,
    "Ġrambled": 20171,
    "Ġfidelity": 15244,
    "Ġelderly": 13497,
    "Ġcalculates": 13268,
    "Ġdint": 15594,
    "Ġinboard": 17935,
    "Ġnoses": 18373,
    "assure": 9271,
    "wretch": 17709,
    "ask": 857,
    "Ġspake": 18309,
    "reproof": 25433,
    "mmed": 7916,
    "joy": 3336,
    "Ġaven": 10760,
    "Ġforwards": 12707,
    "Ġsimul": 1808,
    "Ġdead": 2174,
    "plex": 714,
    "Ġfuss": 13907,
    "Ġjustify": 11073,
    "Ġheeds": 24519,
    "Ġknowledge": 1447,
    "game": 11492,
    "coll": 23782,
    "Ġissue": 2312,
    "Ġrushing": 7402,
    "doubt": 6782,
    "rations": 10724,
    "Ġjav": 7904,
    "Ġhistory": 4007,
    "oding": 1463,
    "Ġrector": 21680,
    "Ġincl": 4270,
    "Ġperpetually": 17071,
    "Ġtranspointed": 22445,
    "Ġcoast": 4655,
    "anter": 9168,
    "arer": 3969,
    "frau": 15092,
    "highly": 24763,
    "ason": 1266,
    "15": 12433,
    "degrad": 22149,
    "Ġstupid": 7604,
    "Ġplane": 11826,
    "Ġindependent": 9018,
    "Ġunsophisticated": 25993,
    "Ġfreed": 7266,
    "stud": 8823,
    "met": 6654,
    "Ġhinted": 6013,
    "Ġgrowing": 6751,
    "Ġinconstant": 21500,
    "belonged": 25598,
    "mes": 1199,
    "Ġunprecedented": 15857,
    "erve": 12553,
    "inserted": 18888,
    "Ġanalysis": 1907,
    "accursed": 20543,
    "ilent": 21724,
    "Ġgenerates": 3666,
    "Ġalgorithms": 862,
    "Ġhackluyt": 25656,
    "contin": 16543,
    "Ġaston": 3704,
    ",âĢĻâĢĶ": 23528,
    "Ġexal": 10878,
    "Ġsle": 2014,
    "Ġswung": 6449,
    "Ġbubbling": 17328,
    "Ġexpressing": 12011,
    "Ġmusk": 7494,
    "Ġchinks": 22256,
    "Ġcompetent": 11819,
    "Ġnatural": 1113,
    "ay": 354,
    "opius": 18510,
    "Ġrotation": 25475,
    "Ġhabit": 6771,
    "Ġdrowsy": 26445,
    "icism": 13958,
    "som": 3292,
    "iring": 1708,
    "Ġstrategy": 2370,
    "Ġwound": 4526,
    "Ġtapering": 8775,
    "Ġcherry": 16936,
    "Ġannounced": 9036,
    "Ġinvestment": 24331,
    "Ġadoption": 24951,
    "Ġblasp": 14403,
    "Ġrevisit": 21674,
    "Ġchased": 8864,
    "yp": 1044,
    "Ġutterly": 6101,
    "Ġlabels": 3289,
    "ray": 2439,
    "Ġnaut": 13943,
    "olidity": 18135,
    "bless": 22317,
    "©": 107,
    "death": 6262,
    "Ġinterruption": 9475,
    "Ġhates": 21490,
    "Ġbedfellows": 23448,
    "iously": 2675,
    "Ġwedge": 24935,
    "Ġpainful": 6462,
    "Ġcanst": 8860,
    "Ġcoarse": 14279,
    "mat": 2203,
    "Ġdegenerated": 20509,
    "Ġdamps": 23476,
    "Ġgleam": 12311,
    "formal": 14168,
    "Ġtrous": 10957,
    "island": 10795,
    "Ġpipe": 4320,
    "Ġdine": 7365,
    "Ġinfernal": 11965,
    "Ġtradeoff": 2656,
    "Ġkitchen": 8497,
    "Ġjohnson": 18410,
    "ium": 4864,
    "orted": 4603,
    "Ġswish": 23057,
    "Ġtwos": 18658,
    "esu": 17921,
    "Ġmathematics": 12077,
    "Ġestate": 6317,
    "examine": 25478,
    "bergen": 14331,
    "arpo": 1758,
    "Ġdeterminate": 23010,
    "Ġaction": 5797,
    "riages": 10244,
    "redit": 3877,
    "Ġdevotedly": 24749,
    "]]": 5204,
    "Ġrational": 8481,
    "Ġbrit": 6290,
    "plain": 1358,
    "Ġprophets": 20453,
    "Ġrelapses": 26280,
    "Ġwithdrawing": 11341,
    "Ġrepresents": 4902,
    "ourable": 4966,
    "Ġfresh": 3672,
    "Ġinsinuating": 19273,
    "convalescence": 24885,
    "21": 10074,
    "Ġlo": 453,
    "izabeth": 907,
    "Ġincline": 18571,
    "inst": 4294,
    "ailed": 3249,
    "Ġassured": 4371,
    "iop": 20921,
    "Ġchoked": 9266,
    "Ġoverflow": 10294,
    "Ġfailure": 13318,
    "Ġdesigned": 7741,
    "iday": 8833,
    "Ġcoars": 14276,
    "Ġruddy": 17127,
    "ician": 21569,
    "carbuncle": 26383,
    "Ġcet": 6671,
    "Ġscimet": 22293,
    "Ġcunning": 6239,
    "howling": 18991,
    "æ": 167,
    "appetite": 22850,
    "Ġplease": 4722,
    "Ġturned": 2137,
    "illed": 2623,
    "t": 88,
    "Ġsuffering": 8948,
    "Ġkentuckian": 26344,
    "Ġhusband": 3621,
    "Ġbrides": 22869,
    "Ġresidence": 8208,
    "ria": 15799,
    "Ġfaculties": 14960,
    "lion": 20946,
    "Ġdauntless": 26338,
    "Ġawait": 17073,
    "utted": 15664,
    "Ġlany": 21558,
    "?âĢĿ": 700,
    "hav": 20899,
    "ared": 770,
    "walked": 10572,
    "returned": 7766,
    "ips": 2592,
    "Ġconstraint": 16514,
    "Ġoutputs": 2885,
    "Ġbuckle": 17033,
    "Ġeffaced": 18529,
    "Ġgrievous": 13264,
    "Ġembod": 14412,
    "possibly": 10545,
    "mered": 8219,
    "Ġbeaks": 21760,
    "Ġofficio": 23819,
    "Ġmake": 1285,
    "Ġred": 3003,
    "Ġmarching": 16697,
    "bb": 2799,
    "Ġtending": 17725,
    "Ġach": 2620,
    "Ġtestimony": 14477,
    "Ġren": 3846,
    "Ġnative": 4640,
    "Ġclouded": 13294,
    "Ġunicorn": 22062,
    "illustration": 2286,
    "Ġdrug": 11411,
    "Ġbegun": 7242,
    "Ġcrew": 2498,
    "=": 33,
    "Ġarchangel": 8544,
    "Ġstaggered": 9541,
    "chants": 21696,
    "Ġvexatious": 19784,
    "clergy": 18936,
    "Ġindistinctly": 26118,
    "Ġmoran": 9344,
    "Ġreadability": 2722,
    "Ġresides": 22545,
    "Ġcorporeally": 25729,
    "Ġconvulsively": 25716,
    "Ġvoc": 4450,
    "Ġsuppl": 11080,
    "Ġrh": 9246,
    "Ġdelightful": 6321,
    "Ġcorridor": 10673,
    "ivered": 7006,
    "Ġcovers": 18596,
    "Ġintense": 6158,
    "Ġrhone": 25231,
    "Ġflourishing": 25188,
    "Ġwrote": 5010,
    "Ġrig": 4225,
    "dried": 20829,
    "Ġserenely": 13509,
    "Ġunsocial": 18257,
    "enances": 10155,
    "pooh": 18801,
    "Ġromans": 16760,
    "Ġrelentless": 26279,
    "Ġcivil": 4678,
    "ameter": 2955,
    "Ġhadn": 9721,
    "Ġcler": 11773,
    "ssip": 14081,
    "based": 2959,
    "Ġmiguel": 25767,
    "Ġcrozetts": 19632,
    "Ġoverdone": 22367,
    "Ġretirement": 25379,
    "bank": 10081,
    "Ġseverity": 15823,
    "Ġliquid": 22414,
    "Ġmadly": 16486,
    "Ġrelease": 19293,
    "Ġgibe": 25960,
    "Ġlandlord": 5580,
    "Ġlabrador": 23335,
    "Ġwhipping": 21720,
    "Ġmeanwhile": 5736,
    "eray": 21269,
    "Ġsickened": 16776,
    "Ġswiss": 18883,
    "disappointed": 25192,
    "leagues": 21376,
    "unconquerable": 21896,
    "Ġproc": 5544,
    "Ġprovinces": 24192,
    "Ġinequal": 21501,
    "Ġdashes": 21438,
    "Ġunsav": 18252,
    "Ġdie": 3963,
    "Ġdescent": 996,
    "Ġtrail": 16285,
    "bers": 2569,
    "road": 6678,
    "Ġanswers": 7071,
    "Ġislets": 21806,
    "surd": 6933,
    "Ġsadder": 24055,
    "Ġother": 759,
    "Ġdiffused": 12072,
    "Ġmutinous": 23961,
    "Ġwaggish": 25435,
    "derbyshire": 18322,
    "Ġasse": 8161,
    "Ġtrapped": 23081,
    "cles": 8729,
    "pious": 17634,
    "ining": 3223,
    "Ġnothing": 1359,
    "Ġyields": 19659,
    "fer": 1897,
    "Ġcrags": 23529,
    "Ġbranded": 14381,
    "Ġanecdote": 26356,
    "Ġheavenly": 12088,
    "Ġconsisted": 10420,
    "uberance": 25917,
    "hyme": 19612,
    "afford": 14655,
    "!_": 7328,
    "restrained": 16338,
    "Ġsituated": 9449,
    "Ġaccomplishments": 13382,
    "Ġdeception": 18142,
    "itation": 1782,
    "Ġapiece": 16814,
    "leman": 21371,
    "Ġ31": 12134,
    "sorts": 21063,
    "floated": 24644,
    "cooks": 25070,
    "xt": 2082,
    "measured": 19993,
    "catch": 17508,
    "Ġmourning": 13481,
    "Ġmast": 2899,
    "lascar": 20962,
    "net": 1195,
    "Ġcosy": 13134,
    "Ġpardon": 5727,
    "frankenstein": 11392,
    "Ġsufferings": 7513,
    "oot": 13767,
    "folio": 10548,
    "starbuck": 6020,
    "Ġ91": 24591,
    "antediluvian": 24345,
    "Ġjoy": 3184,
    "anguish": 15986,
    "Ġplanning": 14753,
    "Ġdere": 21839,
    "Ġsecretly": 13275,
    "Ġdisadvantages": 18559,
    "izar": 14052,
    "Ġlistener": 16476,
    "Ġcleanse": 24526,
    "Ġspoils": 24805,
    "Ġfastened": 7066,
    "dashed": 12459,
    "agged": 9239,
    "Ġlanguages": 1566,
    "vap": 13805,
    "Ġlad": 2365,
    "Ġheedless": 14905,
    "Ġbald": 16208,
    "Ġspiritual": 9932,
    "Ġjudges": 14686,
    "Ġling": 7376,
    "Ġnetherfield": 3931,
    "Ġabused": 22274,
    "ively": 1311,
    "Ġsuav": 22081,
    "Ġbier": 22770,
    "Ġhold": 2248,
    "received": 9640,
    "Ġfinish": 7950,
    "Ġfinding": 3266,
    "Ġuneasily": 24232,
    "Ġ104": 24411,
    "Ġmetropol": 11146,
    "Ġcrawling": 17045,
    "agery": 21912,
    "Ġtucked": 12395,
    "blunder": 24131,
    "Ġpecks": 18670,
    "descending": 16287,
    "presume": 25671,
    "Ġshowers": 16606,
    "Ġcheshire": 13093,
    "unned": 21883,
    "Ġstated": 9691,
    "Ġbottled": 23798,
    "Ġknock": 9975,
    "tan": 4741,
    "Ġobstinacy": 17423,
    "Ġblaze": 16222,
    "Ġseaward": 22951,
    "Ġengland": 3857,
    "Ġdisappoint": 24207,
    "Ġprem": 3426,
    "Ġwhittingham": 26199,
    "veh": 12685,
    "#": 7,
    "Ġprometheus": 15295,
    "iom": 20917,
    "oors": 17621,
    "hospit": 25904,
    "alous": 7371,
    "Ġlistening": 6319,
    "afterwards": 7484,
    "Ġjane": 1760,
    "Ġlives": 4827,
    "Ġenticing": 22750,
    "Ġ30": 10513,
    "Ġhertfordshire": 5377,
    "Ġtons": 11551,
    "vex": 21706,
    "ckets": 6842,
    "Ġmod": 502,
    "Ġpeas": 8535,
    "Ġchall": 10945,
    "Ġlandscape": 12420,
    "Ġfriday": 14489,
    "Ġarch": 942,
    "Ã¦us": 14819,
    "gratification": 24347,
    "Ġpeleg": 3740,
    "Ġdardanelles": 26444,
    "Ġreporting": 24658,
    "Ġheathen": 10567,
    "Ġeverybody": 4509,
    "Ġslime": 23165,
    "quished": 21853,
    "merchant": 10468,
    "forward": 2191,
    "ittered": 18440,
    "Ġfidgeted": 25890,
    "Ġma": 3254,
    "Ġhier": 1895,
    "Ġvariety": 8532,
    "bs": 3776,
    "Ġlocks": 11727,
    "rimsh": 17028,
    "Ġkneel": 14809,
    "oring": 1861,
    "Ġoptim": 802,
    "mechanically": 17302,
    "xter": 9148,
    "Ġallowed": 4058,
    "10": 17474,
    "Ġcrows": 24034,
    ",âĢĿ": 580,
    "acher": 6866,
    "Ġunmingled": 18264,
    "Ġtyros": 26102,
    "erable": 1918,
    "umphed": 23518,
    "Ġghostliness": 24652,
    "Ġcounters": 24142,
    "function": 5350,
    "ices": 2141,
    "Ġscraggy": 24579,
    "licted": 20958,
    "Ġedward": 19153,
    "inations": 7567,
    "Ġperil": 5556,
    "Ġrespectability": 14486,
    "Ġboats": 2636,
    "ascal": 10194,
    "Ġpipeline": 2278,
    "ascar": 8437,
    "expense": 22434,
    "Ġshol": 22000,
    "Ġspeedy": 11173,
    "Ġopened": 3513,
    "arers": 12133,
    "Ġboundary": 11223,
    "transform": 8051,
    "======================================================================": 10070,
    "Ġtries": 9152,
    "Ġesquimaux": 25154,
    "Ġspermacetti": 19051,
    "Ġcruis": 14625,
    "perplex": 18345,
    "pent": 3493,
    "Ġjeopardized": 20233,
    "pudding": 17648,
    "imony": 12694,
    "Ġdiffer": 18678,
    "Ġpleasures": 11143,
    "Ġ$": 21153,
    "ledge": 1330,
    "Ġlondon": 2838,
    "theirs": 23604,
    "sil": 5282,
    "Ġscratching": 20372,
    "90": 12435,
    "Ġgettest": 23237,
    "Ġfurrow": 22819,
    "remaining": 20223,
    "Ġcanals": 22169,
    "ising": 2258,
    "hullo": 17571,
    "ouble": 2660,
    "Ġrobinson": 17465,
    "Ġexecuted": 9474,
    "Ġsorely": 17258,
    "ç": 168,
    "pse": 21011,
    "moving": 11018,
    "Ġreel": 9215,
    "Ġexperiences": 13035,
    "atching": 8203,
    "Ġafterwards": 3532,
    "Ġlatest": 16823,
    "B": 38,
    "Ġindulgence": 11320,
    "ć": 200,
    "drop": 15339,
    "Ġliking": 23593,
    "Ġdiadem": 24740,
    "Ġindignation": 8348,
    "Ġsublime": 8067,
    "Ġimperson": 14222,
    "Ġspaces": 3109,
    "Ġgruff": 21618,
    "Ġseam": 3908,
    "Ġgardeners": 12124,
    "Ġwillow": 18534,
    "Ġpiteous": 17918,
    "Ġascend": 9962,
    "Ġecc": 11630,
    "Ġagile": 22518,
    "alas": 8807,
    "Ġproport": 2300,
    "often": 6166,
    "Ġsaleve": 17393,
    "Ġhardships": 14453,
    "Ġxxi": 24475,
    "Ġlengths": 19208,
    "brilliancy": 26078,
    "ohnson": 16327,
    "Ġproduced": 2454,
    "examined": 17268,
    "Ġcourage": 4633,
    "Ġblasphemy": 26116,
    "Ġfaster": 3199,
    "oured": 2670,
    "Ġfuture": 1055,
    "rivial": 9436,
    "Ġbanqu": 12592,
    "rium": 3132,
    "iracle": 11244,
    "Ġconsol": 3815,
    "Ġlessened": 19089,
    "Ġaddressed": 5262,
    "Ġwondrously": 24069,
    "Ġworst": 7443,
    "Ġaided": 17746,
    "Ġnecessary": 4472,
    "Ġheire": 18039,
    "parsee": 14514,
    "Ġhighly": 4845,
    "Ġeh": 6987,
    "sim": 6510,
    "de": 462,
    "Ġpleasantness": 24140,
    "Ġmillion": 14989,
    "binary": 20786,
    "Ġconventional": 25548,
    "Ġwager": 17794,
    "Ġcrashes": 13128,
    "Ġartfully": 22615,
    "Ġottoman": 17380,
    "Ġtormenting": 15107,
    "Ġsatire": 22905,
    "Ġtamely": 24982,
    "Ġpromise": 4199,
    "Ġbitten": 21393,
    "taller": 26151,
    "aim": 2755,
    "Ġxi": 16432,
    "Ġgloom": 4202,
    "Ġrendering": 16659,
    "istry": 22114,
    "Ġbeautiful": 3674,
    "Ġdict": 9177,
    "Ġstiffest": 24827,
    "Ġimpelling": 22392,
    "eminently": 25108,
    "Ġadieus": 25113,
    "orn": 2247,
    "Ġconcussion": 26301,
    "Ġbulky": 13232,
    "Ġconsequ": 6255,
    "interred": 23739,
    "Ġ35": 24079,
    "Ġsur": 2186,
    "perv": 1558,
    "deprived": 19900,
    "Ġmarched": 18872,
    "spect": 3233,
    "Ġvacuous": 24343,
    "craft": 12250,
    "brÃ¦": 11176,
    "Ġtowns": 11174,
    "zwilliam": 5073,
    "Ġpersever": 10005,
    "Ġ]": 15461,
    "Ġcomputational": 1627,
    "larger": 24204,
    "breeding": 16676,
    "Ġindulging": 16905,
    "Ġabsurdities": 24879,
    "kl": 4865,
    "Ġtables": 9880,
    "hilar": 25084,
    "Ġbehavioral": 11397,
    "Ġtokens": 1774,
    "Ġwindward": 6884,
    "Ġenjoys": 19453,
    "Ġoptimal": 1857,
    "those": 4494,
    "Ġremonstrance": 20626,
    "Ġsplash": 16550,
    "aits": 20768,
    "Ġeastern": 11631,
    "Ġorb": 22096,
    "ilet": 12833,
    "Ġunfaltering": 24113,
    "skeleton": 17378,
    "Ġgrooves": 16742,
    "atig": 13847,
    "sacrifice": 13495,
    "Ġphysiognomically": 25613,
    "Ġbillow": 14782,
    "Ġfeels": 6881,
    "ni": 1628,
    "Ġbecome": 3158,
    "Ġchurned": 18386,
    "Ġtraced": 10385,
    "Ġcrammed": 16472,
    "Ġac": 843,
    "Ġrecurrent": 1805,
    "Ġgloomy": 7504,
    "animated": 14977,
    "ĠĠĠĠĠĠĠĠĠĠĠĠĠĠĠĠĠĠĠĠĠĠĠĠĠĠĠĠĠĠĠ": 19703,
    "ourney": 3554,
    "jephro": 26393,
    "Ġcaged": 21355,
    "Ġfugitive": 17329,
    "Ġkey": 2103,
    "Ġinsol": 10182,
    "Ġitaly": 10868,
    "tre": 8764,
    "Ġdry": 5624,
    "Ġrooted": 13172,
    "Ġprocopius": 19733,
    "Ġwhenever": 5165,
    "Ġmuff": 8115,
    "Ġlicence": 25099,
    "unwillingness": 25803,
    "Ġangel": 4853,
    "Ġrecl": 16139,
    "Ġproving": 15755,
    "Ġassailed": 23181,
    "Ġimproves": 22757,
    "Ġindirect": 18836,
    "(": 12,
    "Ġincommun": 25309,
    "mouthed": 12403,
    "isive": 10794,
    "Ġcallest": 17834,
    "Ġrequired": 7223,
    "Ġshelf": 12271,
    "Ġapologize": 15131,
    "hetic": 12207,
    "abama": 12713,
    "Ġenl": 18190,
    "Ġvision": 1614,
    "dial": 20827,
    "Ġproportionate": 17043,
    "immediately": 10051,
    "necessity": 13371,
    "Ġinclination": 6625,
    "Ġeyes": 1335,
    "got": 6954,
    "Ġruefully": 17303,
    "Ġmum": 13860,
    "Ġfrigid": 17354,
    "Ġwaters": 3597,
    "Ġstranger": 3485,
    "Ġcumberland": 21358,
    "ick": 835,
    "stead": 10847,
    "Ġ82": 24457,
    "Ġcurds": 22974,
    "Ġgrateful": 7661,
    "Ġshone": 7403,
    "pride": 11211,
    "racing": 21635,
    "itatingly": 25278,
    ".âĢĶâĢľ": 20749,
    "Ġarve": 15896,
    "Ġglobu": 23275,
    "dirty": 20836,
    "Ġawaited": 17074,
    "Ġdepend": 774,
    "Ġencamped": 22805,
    "accompan": 11453,
    "wind": 4252,
    "Ġwhiskers": 10494,
    "âĢĶâĢĻâĢĿ": 20067,
    "Ġsacrific": 15019,
    "Ġmisled": 22765,
    "unavoid": 14064,
    "Ġtore": 6531,
    "nosed": 20994,
    "Ġoctavo": 15166,
    "Ġ275": 20114,
    "Ġalleghan": 25796,
    "varying": 13806,
    "Ġvapor": 8703,
    "poster": 11057,
    "Ġindefatigable": 17179,
    "Ġdevices": 2940,
    "Ġsummoned": 9913,
    "Ġpossibilities": 18977,
    "necessary": 5883,
    "Ġunstructure": 2993,
    "rather": 5430,
    "Ġpreserving": 19799,
    "Ġobservable": 25129,
    "Ġguess": 4903,
    "Ġcatastrop": 3348,
    "Ġwhispered": 5337,
    "ralian": 19603,
    "Ġunravel": 26216,
    "Ġchilled": 18383,
    "agony": 14071,
    "Ġgryphon": 4299,
    "Ġcrossed": 6070,
    "Ġstyled": 24672,
    "Ġmagnetic": 17242,
    "Ġbrighter": 16190,
    "el": 306,
    "Ġdet": 511,
    "Ġbelieve": 2149,
    "Ġdistillation": 16048,
    "ipt": 12482,
    "Ġoriginal": 6103,
    "jeroboam": 25620,
    "jour": 20929,
    "Ġdiscours": 18719,
    "painful": 13504,
    "admiration": 11388,
    "Ġswaths": 23062,
    "Ġreck": 6538,
    "Ġyear": 3287,
    "Ġescort": 23507,
    "Ġtrump": 8196,
    "particulars": 11316,
    "83": 13683,
    "dance": 17520,
    "mbl": 5947,
    "Ġview": 2761,
    "Ġwilliam": 3482,
    "Ġincorpor": 13168,
    "Ġoxford": 11372,
    "Ġcontrasting": 11155,
    "Ġanyways": 22525,
    "ĠĠĠĠĠĠĠĠĠĠĠĠĠĠĠĠĠĠĠĠĠĠĠĠĠĠĠĠĠĠĠĠĠĠĠĠĠĠĠĠĠĠĠĠĠĠĠĠĠĠĠĠĠĠĠĠĠĠĠĠ": 19262,
    "Ġflattered": 10376,
    "breath": 15165,
    "Ġexample": 5095,
    "Ġpunct": 8664,
    "loom": 18539,
    "rubber": 12815,
    "fail": 17541,
    "Ġbake": 21385,
    "rimshander": 20659,
    "Ġdanger": 3520,
    "Ġthoroughly": 8349,
    "Ġterminated": 23511,
    "Ġcalam": 13038,
    "beaten": 20318,
    "z": 94,
    "Ġforeseen": 16442,
    "Ġspind": 18308,
    "irresist": 21917,
    "Ġecl": 18008,
    "injury": 25214,
    "Ġcontrari": 23353,
    "Ġmoonlight": 9960,
    "Ġcommended": 18657,
    "gentlemen": 9506,
    "Ġvib": 8166,
    "ilib": 4116,
    "ounced": 4953,
    "gradu": 18617,
    "brous": 19201,
    "Ġenvirons": 13187,
    "eastward": 15132,
    "Ġrevived": 11369,
    "Ġinsc": 7586,
    "Ġchildish": 13140,
    "fro": 8736,
    "ercely": 12554,
    "Ġtin": 15465,
    "Ġtail": 3088,
    "Ġinstantaneously": 23662,
    "gra": 768,
    "Ġmask": 1866,
    "physiogn": 26266,
    "Ġscrupled": 25052,
    "Ġacross": 1331,
    "hopper": 23717,
    "Ġgour": 21602,
    "Ġshifted": 14109,
    "Ġinsincere": 26600,
    "oided": 11510,
    "always": 5708,
    "Ġconcentric": 20078,
    "Ġfashioned": 13324,
    "spent": 12947,
    "asher": 15649,
    "Ġdedu": 5583,
    "iminished": 19025,
    "Ġlottery": 19890,
    "Ġrequires": 1031,
    "Ġtightly": 13536,
    "continu": 5501,
    "han": 12476,
    "historical": 20469,
    "possible": 5743,
    "thodox": 21993,
    "Ġrespective": 16346,
    "Ġindependence": 12108,
    "Ġgoodly": 22826,
    "Ġaloysius": 15741,
    "Ġdim": 4756,
    "Ġshine": 12770,
    "Ġmember": 8588,
    "fields": 14654,
    "Ġshortly": 6197,
    "skull": 24487,
    "alk": 1153,
    "Ġemblematical": 25789,
    "Ġcountenances": 11968,
    "Ġhessian": 3549,
    "acted": 11011,
    "Ġcompare": 9304,
    "Ġadmirals": 20388,
    "calculating": 25690,
    "Ġdearly": 10403,
    "twinkle": 23706,
    "Ġdeaf": 12725,
    "Ġsystematic": 5244,
    "Ġpropont": 16352,
    "Ġwis": 3730,
    "Ġhomeless": 23390,
    "Ġdrily": 23540,
    "benevol": 12230,
    "Ġglossy": 15230,
    "Ġtenderness": 12219,
    "Ġindia": 10372,
    "\",": 10680,
    "crawling": 16959,
    "Ġpower": 1196,
    "Ġbouton": 17870,
    "Ġcondescension": 10620,
    "Ġ23": 13195,
    "snatched": 24851,
    "Ġwee": 21923,
    "explained": 23149,
    "Ġsemantic": 1960,
    "Ġwink": 11571,
    "ree": 875,
    "forehead": 8517,
    "Ġburied": 7719,
    "Ġblubber": 5666,
    "Ġpilot": 5986,
    "Ġslight": 3118,
    "moderate": 22854,
    "u": 89,
    "Ġproceedings": 9909,
    "made": 4808,
    "Ġmute": 19419,
    "anelles": 26435,
    "unken": 10238,
    "Ġdevotion": 22737,
    "adventures": 20259,
    "Ġfished": 21414,
    "Ġrespected": 11956,
    "Ġresolution": 5500,
    "Ġpa": 2988,
    "passed": 8027,
    "unfortunate": 15780,
    "temper": 10006,
    "Ġrecol": 4028,
    "shaped": 10310,
    "Ġvide": 10252,
    "eric": 3471,
    "Ġdoubtful": 19143,
    "Ġopt": 801,
    "Ġplata": 25120,
    "Ġholds": 7977,
    "errand": 22914,
    "Ġobsolete": 26559,
    "Ġcrouching": 23444,
    "Ġslugg": 15271,
    "Ġside": 1387,
    "speak": 5504,
    "Ġspit": 22130,
    "Ġloosed": 22117,
    "Ġcoil": 11821,
    "perquisites": 26532,
    "Ġadvert": 10573,
    "Ġtropical": 17066,
    "iced": 3900,
    "lucky": 24544,
    "Ġsuffice": 18870,
    "Ġmerry": 5869,
    "Ġcadiz": 17327,
    "suitable": 18632,
    "Ġint": 409,
    "mopol": 15398,
    "Ġdep": 735,
    "Ġintroduces": 3270,
    "Ġterms": 2561,
    "ive": 426,
    "Ġlongest": 18629,
    "wl": 17703,
    "Ġappre": 5164,
    "Ġdangerously": 23940,
    "Ġaerial": 21201,
    "Ġnovelties": 24777,
    "prior": 21035,
    "Ġcharge": 5324,
    "================": 3725,
    "evenings": 19466,
    "Ġdissu": 18551,
    "ellation": 12752,
    "Ġmir": 9648,
    "Ġ1828": 25720,
    "whole": 6086,
    "Ġsticking": 13430,
    "Ġsaturday": 6452,
    "nder": 20989,
    "Ġsuggests": 12204,
    "Ġconvention": 25547,
    "Ġprison": 5403,
    "Ġstings": 21739,
    "intellig": 5320,
    "vul": 15450,
    "Ġdeceitful": 25733,
    "fortunes": 6333,
    "rubbed": 22189,
    "Ġnamely": 20692,
    "rises": 17656,
    "adays": 14015,
    "Ġislands": 6766,
    "Ġpace": 9184,
    "Ġjoes": 19232,
    "Ġevid": 3500,
    "Ġheavens": 5049,
    "Ġextinct": 14328,
    "Ġconsequent": 18113,
    "sebastian": 21824,
    "Ġsn": 2948,
    "ference": 1884,
    "Ġwinchester": 10068,
    "Ġhumanity": 6732,
    "Ġalchemists": 26488,
    "attempt": 9363,
    "Ġjun": 8507,
    "Ġlewis": 15728,
    "Ġequator": 7460,
    "Ġcontracting": 16014,
    "Ġanchors": 12617,
    "generative": 4329,
    "Ġoffers": 12950,
    "allen": 22201,
    "entle": 1741,
    "epend": 3316,
    "Ġirreparable": 20002,
    "Ġcap": 2363,
    "Ġaccosted": 13675,
    "Ġberg": 24535,
    "ships": 5486,
    "Ġthoughtful": 16194,
    "Ġdisposed": 7084,
    "relieved": 13280,
    "Ġdisreputable": 22539,
    "Ġinexorable": 12259,
    "Ġmechan": 1150,
    "Ġresurrection": 12898,
    "gris": 8261,
    "aken": 1870,
    "imodal": 17449,
    "wander": 17710,
    "Ġunimpeachable": 26523,
    "Ġprolonged": 8359,
    "Ġpresto": 22235,
    "calcul": 12991,
    "ascending": 24706,
    "_âĢĶâĢĿ": 20765,
    "glancing": 11215,
    "Ġbackstays": 22665,
    "buck": 17492,
    "ription": 5676,
    "Ġevangelical": 25507,
    "Ġringleader": 26214,
    "Ġantagon": 19553,
    "Ġfeed": 2132,
    "Ġunresting": 25554,
    "Ġcapsized": 20093,
    "multiple": 15110,
    "Ġfascinated": 25636,
    "Ġduty": 4070,
    "Ġtransform": 745,
    "Ġobjective": 3766,
    "arming": 8953,
    "ho": 2856,
    "ses": 3026,
    "Ġdefendants": 15143,
    "\"],": 26121,
    "Ġbarb": 4529,
    "Ġseeming": 8542,
    "ingle": 1038,
    "barn": 17484,
    "cket": 3689,
    "Ġimpose": 22389,
    "namely": 23664,
    "Ġloos": 15874,
    "onies": 6806,
    "Ġbenediction": 18785,
    "Ġyouthful": 16724,
    "Ġcontinued": 2921,
    "urrection": 12412,
    "apes": 9743,
    "Ġmassac": 14738,
    "Ġcomputing": 2222,
    "Ġostentatiously": 20472,
    "doesn": 19823,
    "Ġcombines": 1164,
    "Ġdisk": 22527,
    "stock": 13226,
    "Ġloveliness": 13611,
    "abulary": 4800,
    "infallibly": 26418,
    "Ġmanaged": 7908,
    "Ġcompasses": 11267,
    "Ġcul": 17824,
    "Ġstupendous": 20504,
    "Ġbraced": 16581,
    "laughed": 20284,
    "Ġphysical": 7522,
    "nep": 20988,
    "Ġsyllables": 25299,
    "lu": 598,
    "ulpt": 10886,
    "Ġsax": 10930,
    "Ġfresher": 23211,
    "voyages": 24856,
    "Ġ24": 13196,
    "Ġreplying": 19584,
    "Ġtransition": 14235,
    "really": 6971,
    "Ġthink": 985,
    "Ġbark": 10799,
    "Ġlaws": 8004,
    "ise": 707,
    "Ġthroes": 24574,
    "Ġepis": 19985,
    "Ġtelegra": 11894,
    "Ġmyself": 1455,
    "Ġbalances": 2341,
    "custom": 15335,
    "Ġunho": 18246,
    "Ġneskye": 21535,
    "Ġworks": 5858,
    "Ġengagement": 5397,
    "saved": 15433,
    "Ġarise": 7898,
    "Ġwaits": 23283,
    "Ġquiver": 16005,
    "warmth": 20056,
    "Ġsarat": 21230,
    "ij": 7802,
    "Ġmorris": 18852,
    "wild": 8771,
    "Ġmeanings": 18609,
    "Ġextending": 11022,
    "Ġdecreed": 18491,
    "Ġsibbald": 21233,
    "broke": 14780,
    "Ġcaress": 16341,
    "Ġsix": 3042,
    "Ġwallow": 19469,
    "abroad": 18111,
    "limin": 8385,
    "ptic": 21929,
    "Ġnorm": 763,
    "Ġimpossibility": 20649,
    "Ġcomposition": 1689,
    "_,âĢĻâĢĿ": 20404,
    "violets": 23544,
    "Ġbracing": 16582,
    "Ġhellaswag": 24342,
    "Ġslaugh": 18940,
    "Ġsurviv": 13438,
    "Ġcomputation": 964,
    "Ġdisturbed": 8675,
    "Ġdumplings": 15193,
    "Ë": 140,
    "tut": 15436,
    "Ġrecounted": 22732,
    "amuse": 14054,
    "recollected": 25348,
    "Ġincreasing": 8248,
    "Ġhurtling": 24962,
    "Ġrepeated": 3832,
    "greatest": 10495,
    "Ġcolours": 12978,
    "Ġsettles": 22924,
    "Ġremedy": 18725,
    "fishery": 10034,
    "court": 7511,
    "arius": 14250,
    "alo": 7588,
    "inglass": 21305,
    "Ġopinion": 3142,
    "Ġsurvey": 13596,
    "Ġshooting": 11163,
    "endeav": 7150,
    "Ġlofty": 6218,
    "Ġoaks": 16934,
    "cry": 12449,
    "Ġhotels": 19539,
    "Ġcrow": 3805,
    "Ġblackest": 19100,
    "Ġorders": 5340,
    "Ġages": 7028,
    "banked": 25338,
    "94": 4803,
    "Ą": 197,
    "Ġsledge": 8112,
    "dressing": 11483,
    "Ġkiller": 19571,
    ".âĢĿ": 464,
    "sig": 2874,
    "inder": 9154,
    "included": 19210,
    "Ġbiography": 22771,
    "Ġcommanders": 23871,
    "Ġprudential": 17920,
    "Ġmembrane": 20507,
    "spl": 9141,
    "Ġbuoyant": 13534,
    "Ġdearest": 5457,
    "pard": 9620,
    "Ġsteal": 16286,
    "rap": 21632,
    ",*": 17473,
    "Ġpaddock": 25040,
    "ou": 287,
    "Ġpounds": 5368,
    "Ġdrawn": 4275,
    "Ġthickness": 13281,
    "itioned": 22474,
    "Ġpurposely": 10445,
    "Ġparade": 18302,
    "Ġabatement": 22281,
    "Ġtwinkle": 12326,
    "asp": 3341,
    "age": 505,
    "zors": 21150,
    "Ġ39": 19493,
    "change": 6392,
    "Ġprecipitate": 19945,
    "Ġgroup": 2038,
    "Ġinexperienced": 26101,
    "Ġtinker": 15134,
    "abilizing": 2923,
    "Ġun": 423,
    "Ġgentleman": 3039,
    "rusion": 11324,
    "igin": 3657,
    "Ġassistance": 6334,
    "Ġinfants": 16369,
    "arched": 10816,
    "Ġsuccession": 12105,
    "Ġunguarded": 15853,
    "Ġassisted": 11112,
    "Ġamerican": 5060,
    "Ġdecks": 6899,
    "Ġbleeding": 14882,
    "stick": 15688,
    "Ġfriendship": 7245,
    "Ġaisle": 21204,
    "hastened": 16846,
    "Ġmaz": 15545,
    "Ġbewildered": 15216,
    "parted": 21018,
    "enge": 21283,
    "Ġy": 341,
    "Ġabed": 22270,
    "Ġveins": 8934,
    "Ġroaring": 10969,
    "Ġgor": 9208,
    "Ġarist": 14161,
    "lesc": 11040,
    "Ġscrutin": 26015,
    "eze": 20849,
    "Ġsteelkilt": 5675,
    "estic": 4955,
    "Ġhardened": 14452,
    "Ġgro": 4396,
    "Ġindelicacy": 25696,
    "mate": 5359,
    "render": 10292,
    "locks": 14458,
    "bour": 2073,
    "Ġbenjamin": 26568,
    "Ġhalloa": 13320,
    "clopÃ¦dia": 15259,
    "Ġcooked": 13273,
    "Ġparts": 4164,
    "Ġattempting": 14698,
    "Ġintently": 8170,
    "Ġwhereon": 16104,
    "ede": 21510,
    "search": 8466,
    "Ġlive": 2734,
    "Ġsurrey": 14560,
    "iverse": 13119,
    "Ġstile": 21737,
    "plifted": 9712,
    "Ġtemporary": 7982,
    "down": 3469,
    "Ġblanket": 8344,
    "call": 8726,
    "Ġquietly": 4566,
    "Ġengine": 1921,
    "agings": 18168,
    "Ġspinal": 12305,
    "details": 19678,
    "âĢĶ.": 11758,
    "Ġrevolut": 3259,
    "Ġpod": 15607,
    "ented": 4347,
    "Ġpilgr": 12184,
    "suspected": 12375,
    "footman": 17164,
    "enced": 4295,
    "egyptians": 25899,
    "Ġthrust": 5083,
    "Ġtying": 15475,
    "user": 5104,
    "Ġopposed": 11189,
    "Ġrevive": 13482,
    "extinguish": 22762,
    "consolation": 15155,
    "Ġgarnery": 17389,
    "Ġscratches": 22291,
    "Ġmari": 6813,
    "insanity": 23073,
    "Ġreduces": 2344,
    "Ġi": 312,
    "Ġgayer": 24497,
    "Ġracket": 22658,
    "Ġpe": 851,
    "Ġlashes": 17969,
    "mistress": 14907,
    "Ġyards": 5371,
    "dispositions": 25014,
    "arrow": 4180,
    "Ġsubstantiated": 25876,
    "rows": 6442,
    "Ġcaptain": 1605,
    "Ġrecur": 1623,
    "Ġmerchantmen": 19862,
    "Ġconstrained": 19242,
    "Ġcabinet": 23864,
    "Ġ63": 24365,
    "humoredly": 26326,
    "Ġshame": 6410,
    "olly": 3227,
    "Ġceased": 6468,
    "Ġrealistic": 5861,
    "ace": 716,
    "cture": 15668,
    "Ġ48": 24083,
    "forest": 22523,
    "Ġman": 544,
    "Ġrestrictions": 20638,
    "Ġresembled": 18036,
    "ilege": 22261,
    "Ġformal": 2941,
    "Ġtingling": 15095,
    "branch": 23580,
    "Ġjuggler": 26368,
    "Ġsupports": 3050,
    "Ġminimize": 7051,
    "aunted": 20772,
    "Ġeastward": 13393,
    "rely": 6124,
    "Ġreverse": 16983,
    "Ġtide": 6660,
    "Ġavalanche": 17435,
    "Ġshaped": 15837,
    "Ġpallor": 13518,
    "elling": 5831,
    "resembled": 21249,
    "results": 20390,
    "acting": 22635,
    "Ġfreer": 23210,
    "Ġgrinned": 16858,
    "ģ": 228,
    "dwell": 15344,
    "lad": 5993,
    "Ġlucy": 17972,
    "oir": 21004,
    "bulkington": 19927,
    "Ġsecretary": 19445,
    "bounded": 13442,
    "Ġreassure": 21676,
    "Ġlullaby": 20591,
    "Ġfled": 6672,
    "Ġhedgehogs": 25395,
    "common": 4127,
    "Ġkindred": 16380,
    "unct": 18157,
    "riety": 12748,
    "Ġtwitched": 20447,
    "Ġcondescend": 19958,
    "Ġvolume": 6769,
    "Ġadmir": 12024,
    "Ġimposed": 14218,
    "vain": 15449,
    "colnett": 19332,
    "Ġprofanely": 23572,
    "ivided": 22091,
    "Ġinclusive": 24165,
    "head": 1433,
    "aying": 15752,
    "Ġaffright": 9334,
    "georgiana": 26021,
    "Ġbehind": 2807,
    "Ġirre": 7467,
    "Ġchances": 9265,
    "Ġanat": 8125,
    "enorm": 17782,
    "pot": 10119,
    "mph": 20974,
    "Ġarthur": 7195,
    "hearted": 6970,
    "Ġalabama": 14021,
    "Ġgre": 1579,
    "Ġascertain": 9708,
    "Ġunre": 3478,
    "Ġpencil": 11946,
    "Ġnormalization": 1245,
    "liament": 16220,
    "distinguish": 19575,
    "gor": 546,
    "Ġlodged": 11251,
    "luded": 4229,
    "Ġdepressed": 10883,
    "Ġsupposition": 9819,
    "Ġrevolutions": 23845,
    "Ġhousemaid": 14466,
    "ergy": 2362,
    "Ġsink": 4339,
    "Ġfacts": 2291,
    "Ġcous": 3437,
    "Ġencouragement": 13047,
    "Ġearl": 7677,
    "Ġclipping": 2442,
    "maul": 11895,
    "Ġris": 4886,
    "steam": 23963,
    "threshold": 21992,
    "magnifying": 25393,
    "somerset": 26324,
    "ources": 2788,
    "Ġwanted": 4967,
    "drown": 13707,
    "absolut": 8460,
    "Ġunfit": 14789,
    "ified": 3228,
    "Ġconquest": 15751,
    "Ġbowsman": 11254,
    "Ġshorter": 4497,
    "Ġdevotees": 25377,
    "Ġbill": 4040,
    "Ġhero": 5715,
    "period": 15905,
    "girls": 12322,
    "Ġoffspring": 16148,
    "Ġarrives": 23609,
    "Ġinconvenient": 20013,
    "aked": 2016,
    "mare": 17600,
    "vinegar": 25421,
    "800": 17478,
    "Ġconcentrated": 15086,
    "ituted": 13875,
    "stone": 5088,
    "expl": 9285,
    "aternity": 21268,
    "ock": 15404,
    "Ġut": 2282,
    "Ġenric": 21939,
    "Ġdaboll": 25951,
    "accurately": 25862,
    "Ġbrother": 2748,
    "Ġpath": 2116,
    "flinging": 20870,
    "Ġreckon": 19872,
    "true": 2586,
    "Ġcontention": 22431,
    "Ġrelev": 1717,
    "Ġmich": 21308,
    "Ġacknowledges": 24689,
    "gale": 13726,
    "Ġoctober": 17228,
    "Ġpsych": 10178,
    "brevi": 24076,
    "viv": 17699,
    "lesome": 12969,
    "ached": 2322,
    "Ġofficer": 6754,
    "Ġforced": 4351,
    "Ġnavigation": 9995,
    "Ġindecision": 25782,
    "Ġweary": 5635,
    "Ġalcoves": 26487,
    "Ġobtruded": 20724,
    "Ġextant": 18681,
    "arb": 1562,
    "standing": 5557,
    "Ġchowder": 10282,
    "Ġcapricious": 20541,
    "Ġgladly": 14682,
    "Ġtink": 9150,
    "Ġverd": 6918,
    "Ġask": 1494,
    "°": 113,
    "Ġrecklessness": 24744,
    "Ġuns": 15839,
    "Ġob": 863,
    "Ġgentleness": 8713,
    "grieved": 17319,
    "Ġhas": 826,
    "Ġroad": 3881,
    "Ġ156": 20173,
    "eline": 2259,
    "Ġcover": 3558,
    "having": 5210,
    "ripp": 6405,
    "Ġelder": 7222,
    "ques": 2839,
    "Ġmode": 8501,
    "Ġbalmy": 22909,
    "romang": 22010,
    "pitchpoling": 25725,
    "imod": 15713,
    "Ġenough": 1764,
    "inces": 13830,
    "\":": 9583,
    "Ġtiara": 26416,
    "brandy": 19203,
    "Ġretiring": 16283,
    "Ġdarcy": 1342,
    "oder": 2461,
    "Ġpat": 1753,
    "Ġboasted": 16109,
    "lifted": 15389,
    "lik": 3915,
    "trip": 21094,
    "Ġbosoms": 16796,
    "Ġlengthwise": 10453,
    "Ġbudge": 15167,
    "Ġdepending": 14290,
    "Ġstate": 1811,
    "rals": 21045,
    "process": 11149,
    "Ġpall": 7583,
    "gentlemanlike": 20005,
    "Ġannum": 24205,
    "evening": 7090,
    "guest": 19485,
    "yset": 21148,
    "Ġ47": 14773,
    "/*": 10073,
    "Ġcerem": 7078,
    "ĠâĢĶâĢĶ": 25758,
    "score": 18858,
    "acquainted": 7312,
    "Ġjeer": 24124,
    "Ġclapped": 9747,
    "tur": 5688,
    "direct": 12460,
    "icy": 6141,
    "Ġbone": 4694,
    "Ġclam": 7415,
    "Ġmitt": 21310,
    "Ġmotives": 7486,
    "================================================================": 9992,
    "Ġflee": 7080,
    "ifling": 15786,
    "Ġbrid": 6291,
    "Ġpersonal": 7479,
    "Ġ62": 24364,
    "patter": 4142,
    "Ġinstructive": 19288,
    "Ġdetected": 18850,
    "Ġslate": 11941,
    "Ġball": 3625,
    "Ġtwin": 12932,
    "Ġriddle": 14822,
    "horner": 23616,
    "Ġbasic": 24700,
    "Ġcurtain": 14414,
    "und": 4086,
    "recollection": 25349,
    "Ġgunwale": 7324,
    "Ġyawned": 15053,
    "Ġapr": 12536,
    "apsed": 6296,
    "swe": 5997,
    "kes": 3680,
    "Ġforbe": 8459,
    "Ġpark": 5465,
    "Ġinestim": 15627,
    "Ġelasticity": 19561,
    "Ġdances": 10813,
    "Ġtattooed": 11379,
    "successful": 11359,
    "Ġpemberley": 4588,
    "Ġcaved": 21356,
    "Ġsuicide": 12790,
    "Ġobjects": 5577,
    "handled": 19263,
    "gaz": 20880,
    "Ġgradient": 450,
    "iteness": 4392,
    "Ġcausal": 3411,
    "Ġ18": 3407,
    "hogs": 20085,
    "Ġbids": 24646,
    "allions": 22203,
    "ĠâĢĻ": 3041,
    "Ġdesol": 6880,
    "Ġtune": 17726,
    "eks": 4727,
    "sleeve": 26109,
    "Ġbrawny": 13616,
    "Ġfluffy": 19367,
    "shock": 19857,
    "Ġjoist": 19233,
    "we": 846,
    "ulties": 12908,
    "affrail": 11206,
    "listened": 15045,
    "Ġideas": 5494,
    "Ġpur": 2219,
    "ckinridge": 11722,
    "ease": 12461,
    "oves": 15405,
    "Ġdrowsiness": 26446,
    "ads": 5718,
    "Ġstreamed": 14548,
    "Ġher": 427,
    "Ġonset": 12714,
    "ractions": 11635,
    "Ġrepressed": 21672,
    "blooded": 20026,
    "expect": 4768,
    "Ġgeological": 14534,
    "ufactured": 15184,
    "Ġexercising": 19909,
    "Ġinte": 2066,
    "ashions": 16420,
    "hering": 12818,
    "Ġholiday": 13002,
    "Ġstrategies": 1839,
    "stuff": 15691,
    "rawling": 21640,
    "Ġcrocodile": 20742,
    "Ġsketches": 26272,
    "henomen": 10496,
    "Ġevenly": 4128,
    "Ġverse": 16603,
    "âĢĻ": 378,
    "Ġscientific": 6856,
    "tain": 559,
    "historian": 25735,
    "Ġlikened": 16501,
    "Ġsexes": 25172,
    "Ġmaintaining": 1508,
    "Ġconfessed": 8010,
    "ram": 13974,
    "Ġtrespass": 23602,
    "Ġlit": 6247,
    "Ġstraighten": 24007,
    "cd": 15325,
    "creature": 5346,
    "Ġarguing": 25471,
    "bable": 8722,
    "Ġjoyously": 19350,
    "Ġcomparatively": 9492,
    "Ġcondescending": 24869,
    "independent": 26022,
    "Ġwantest": 18791,
    "Ġimpressed": 8200,
    "T": 56,
    "Ġpince": 21474,
    "expectant": 24277,
    "seeking": 17154,
    "entieth": 17981,
    "Ġappend": 18359,
    "alled": 5912,
    "Ġsporty": 19892,
    "Ġseizing": 7881,
    "grow": 10100,
    "appeared": 4281,
    "por": 2152,
    "Ġreproach": 9558,
    "Ġhuff": 21494,
    "Ġpiece": 5367,
    "Ġreceiving": 4882,
    "aff": 3100,
    "garden": 15027,
    "Ġbottles": 16572,
    "ece": 17532,
    "shoals": 24716,
    "Ġrepresentations": 1877,
    "Ġoxen": 19954,
    "Ġmoles": 22437,
    "chairs": 21697,
    "Ġcandle": 8293,
    "Ġnobleman": 19395,
    "Ġreached": 4023,
    "Ġwhistles": 24626,
    "Ġdescribed": 6607,
    "hee": 10761,
    "aud": 8523,
    "Ġframed": 19031,
    "Ġreminded": 10001,
    "assertion": 22316,
    "rosc": 17957,
    "Ġobserve": 4670,
    "Ġpreposter": 12826,
    "Ġaccounted": 10296,
    "inously": 21189,
    "Ġtrousers": 12418,
    "Ġfru": 8422,
    "Ġfaintness": 24570,
    "Ġcronies": 23443,
    "Ġsoliloqu": 11888,
    "Ġqualities": 7533,
    "Ġfinished": 5043,
    "Ġbreathing": 9447,
    "ify": 1452,
    "Ġlearning": 388,
    "»": 124,
    "changing": 10855,
    "Ġforeseeing": 23452,
    "fiend": 13664,
    "Ġshores": 8851,
    "thinking": 9016,
    "Ġexpect": 2307,
    "Ġgales": 12669,
    "Ġantiqu": 12148,
    "Ġaffectation": 14443,
    "Ġtight": 8109,
    "Ġeleg": 6193,
    "Ġcried": 1489,
    "Ġclanging": 18424,
    "blo": 6354,
    "iber": 6506,
    "Ġirrad": 19095,
    "presents": 18799,
    "Ġcomparing": 14269,
    "Ġhunters": 6301,
    "batch": 1983,
    "ľ": 255,
    "Ġexhale": 24401,
    "Ġhove": 17925,
    "ust": 493,
    "Ġinh": 10825,
    "Ġpequod": 2323,
    "Ġcommonplaces": 16291,
    "Ġfruit": 12329,
    "apped": 5395,
    "Ġringing": 13335,
    "soundest": 24796,
    "aces": 2069,
    "Ġto": 297,
    "Ġbreeze": 5681,
    "Ġstript": 23697,
    "thine": 15827,
    "Ġleviathanic": 12084,
    "Ġadaptation": 3155,
    "lipped": 16219,
    "Ġunconsciously": 10007,
    "Ġargosy": 24275,
    "Ġyet": 1028,
    "icilian": 20694,
    "befriend": 22497,
    "Ê": 139,
    "Ġdeserving": 14755,
    "shark": 14239,
    "Ġted": 13814,
    "Ġcondensed": 24056,
    "Ġgifts": 21616,
    "Ġpulley": 2975,
    "?âĢĿâĢĶ": 12902,
    "twice": 14622,
    "gradient": 2277,
    "Ġneedles": 11185,
    "Ġken": 22196,
    "Ġmisty": 16541,
    "Ġairth": 23322,
    "ase": 1160,
    "finished": 10556,
    "consequence": 9765,
    "Ġcrossing": 7251,
    "Ġconsum": 9801,
    "Ġfits": 8794,
    "Ġaloft": 4302,
    "Ġjob": 7016,
    "distinguished": 10528,
    "Ġlimb": 9404,
    "Ġsolicited": 20040,
    "zeal": 16279,
    "Ġforgot": 4683,
    "hatred": 24818,
    "Ġsomeone": 6704,
    "Ġbroke": 5322,
    "Ġunluckily": 20105,
    "Ġnurtured": 19752,
    "Ġthee": 2622,
    "Ġdependencies": 2315,
    "Ġcommenced": 8533,
    "Ġcough": 11583,
    "Ġboone": 11843,
    "Ġdeceitfulness": 25734,
    "bur": 4686,
    "darkened": 24513,
    "swing": 15431,
    "whal": 10941,
    "gences": 20879,
    "cures": 20807,
    "Ġassailants": 20452,
    "distance": 12156,
    "Ġrepaid": 19084,
    "Ġdignity": 5704,
    "Ġconflict": 17275,
    "uv": 6230,
    "Ġideal": 13124,
    "Ġrandom": 1588,
    "Ġsitting": 3606,
    "Ġprejudices": 13472,
    "Ġbugs": 13651,
    "ĠĠĠĠĠĠĠĠĠĠĠĠĠĠĠĠĠĠĠĠĠĠĠĠĠĠĠĠĠĠĠĠĠĠĠĠĠĠĠĠĠĠĠĠ": 12157,
    "Ġoce": 3029,
    "Ġbelshazzar": 16228,
    "77": 15303,
    "Ġwaist": 6892,
    "Ġway": 1086,
    "Ġrelics": 16198,
    "coiled": 16487,
    "Ġdun": 6675,
    "Ġsnorting": 23743,
    "ipp": 10104,
    "Ġardour": 8044,
    "Ġmustering": 18663,
    "quohog": 21857,
    "otion": 4945,
    "feren": 766,
    "Ġstrives": 23698,
    "Ġinvoked": 19146,
    "Ġconfided": 19039,
    "Ġleathern": 15052,
    "itudes": 3013,
    "esting": 7411,
    "Ġfeelingly": 23003,
    "Ġassembl": 20064,
    "Ġlee": 4223,
    "Ġutensils": 23516,
    "Ġcro": 4873,
    "Ġcordial": 16836,
    "Ġring": 4451,
    "weight": 2939,
    "dismay": 19156,
    "Ġrind": 21974,
    "Ġscarce": 8625,
    "Ġleaves": 5020,
    "underneath": 23791,
    "Ġfluttered": 16252,
    "Ġsprinkled": 19500,
    "ample": 1363,
    "Ġtolerably": 8069,
    "Ġgenius": 8047,
    "occurrences": 26333,
    "owed": 2273,
    "Ġvale": 14084,
    "Ĩ": 233,
    "Ġtrif": 6269,
    "Ġtimely": 19597,
    "Ġmessage": 13525,
    "î": 175,
    "Ġsilent": 3412,
    "billiard": 25335,
    "Ġbranches": 6776,
    "Ġraised": 4660,
    "onents": 8781,
    "moid": 2452,
    "snow": 10725,
    "Ġcontrol": 13083,
    "Ġtunnels": 24622,
    "ports": 13776,
    "Ġdoes": 943,
    "uation": 17695,
    "_âĢĿ": 20763,
    "Ġtrifled": 24675,
    "Ġsearching": 13165,
    "Ġsake": 4091,
    "Ġwayward": 22877,
    "Ġwelcome": 5603,
    "Ġsummary": 19406,
    "Ġtime": 690,
    "method": 17286,
    "Ġcalms": 23047,
    "nest": 10115,
    "Ġel": 803,
    "oved": 5214,
    "Ġbeating": 8146,
    "Ġstoutest": 24630,
    "Ġwandered": 6929,
    "prophecy": 22839,
    "Ġconvey": 9983,
    "Ġventilator": 8717,
    "Ġsuspicions": 9481,
    "Ġfrantic": 7958,
    "allet": 11084,
    "Ġvor": 15809,
    "vour": 17700,
    "Ġharvard": 24573,
    "izer": 2030,
    "Ġloun": 7166,
    "Ġpassion": 4556,
    "Ġblinding": 14730,
    "Ġjam": 10952,
    "Ġwebster": 20164,
    "Ġbiting": 17863,
    "sleep": 6511,
    "Ġmanual": 14199,
    "Ġwants": 5742,
    "begging": 22502,
    "token": 21085,
    "Ġpersons": 6181,
    "Ġthoroughfares": 26096,
    "blacksmith": 17002,
    "Ġimmovable": 15895,
    "Ġcloudless": 16670,
    "Ġtoma": 7372,
    "Ġlowered": 6736,
    "Ġser": 1671,
    "uring": 820,
    "nowled": 5470,
    "Ġmeridians": 17357,
    "Ğ": 223,
    "umst": 2505,
    "Ġwho": 613,
    "minutely": 19596,
    "every": 2810,
    "Ġhanding": 16133,
    "Ġshuttle": 12130,
    "pling": 8476,
    "Ġresiding": 16064,
    "Ġbagging": 24538,
    "µ": 118,
    "print": 23815,
    "numer": 15401,
    "Ġanticip": 7507,
    "Ġbadly": 12135,
    "--âĢľ": 12976,
    "Ġredeem": 20503,
    "Ġchemist": 11135,
    "Ġagainst": 1698,
    "Ġagonies": 14253,
    "Ġdemocracy": 25459,
    "incom": 21184,
    "riot": 18184,
    "Ġslit": 13061,
    "imet": 21710,
    "Ġupward": 9723,
    "Ġpeaks": 16131,
    "Ġgriefs": 16772,
    "Ġpatches": 4237,
    "Ġbusily": 9386,
    "Ġjon": 15951,
    "Ġlife": 1353,
    "gaffman": 26391,
    "Ġkirwin": 8498,
    "----âĢĻ": 24100,
    "Ġpaced": 7584,
    "discharging": 26306,
    "Ġcynical": 25771,
    "Ġsim": 734,
    "Ġsurely": 6308,
    "Ġmarty": 20293,
    "Ġcastors": 23979,
    "enched": 10156,
    "Ġthank": 3792,
    "Ġoblivious": 26033,
    "Ġbattering": 13903,
    "likely": 9025,
    "Ġpatroness": 13512,
    "Ġbaling": 17861,
    "excellent": 8045,
    "Ġglide": 22990,
    "ineas": 15825,
    "confirmed": 19643,
    "Ġpipes": 9847,
    "favour": 9551,
    "Ġforemast": 12008,
    "excepting": 19709,
    "Ġwhoa": 22427,
    "stepfather": 19193,
    "Ġnovel": 6696,
    "become": 14248,
    "Ġelab": 22646,
    "scure": 22994,
    "sir": 5000,
    "Ġjog": 18405,
    "rich": 11519,
    "Ġroots": 11186,
    "news": 23138,
    "Ġeurope": 8063,
    "fingers": 17372,
    "Ġhardest": 18914,
    "Ġger": 21595,
    "mariners": 19551,
    "Ã¦": 4336,
    "lake": 13751,
    "ġ": 226,
    "enborough": 21288,
    "Ġdeduction": 14901,
    "Ġappalled": 22223,
    "Ġdifficulties": 11226,
    "def": 1453,
    "Ġsells": 21226,
    "Ġhastening": 19338,
    "land": 1530,
    "Ġlima": 10443,
    "Ġslim": 18939,
    "ived": 1532,
    "Ġoozy": 21330,
    "Ġpassive": 22844,
    "unte": 21878,
    "Ġgerman": 6142,
    "wid": 10136,
    "Ġbespeaking": 26311,
    "Ġpers": 1380,
    "Ġrear": 6536,
    "Ġunrelieved": 20548,
    "Ġeat": 4643,
    "Ġgood": 1003,
    "Ġwhiting": 10860,
    "âĢĶâĢľ_": 13207,
    "ass": 536,
    "Ġconnex": 10667,
    "intment": 4719,
    "Ġsteel": 3889,
    "Ġ116": 24439,
    "Ġwarbling": 26169,
    "Ġmartyr": 26362,
    "Ġunlike": 7005,
    "strils": 10459,
    "Ġfif": 4218,
    "Ġsickly": 16775,
    "Ġbars": 13899,
    "Ġincarnation": 25574,
    "scratch": 26045,
    "ady": 998,
    "Ļ": 252,
    "Ġdipped": 15598,
    "opp": 6962,
    "Ġbitterness": 8025,
    "Ġ97": 19777,
    "heredit": 21212,
    "cules": 12394,
    "mankind": 14376,
    "Ġbeen": 626,
    "Ġspecialized": 3920,
    "Ġflight": 6581,
    "Ġgenerously": 22400,
    "Ġ105": 24412,
    "tle": 2411,
    "alarmed": 21507,
    "arts": 6564,
    "Ġdiscovered": 4412,
    "asis": 12654,
    "Ġcrimin": 6900,
    "Ġopportunities": 19251,
    "Ġpursuers": 13230,
    "bey": 10315,
    "luckily": 19755,
    "Ġpiling": 17911,
    "Ġdiscriminator": 3392,
    "heidelburgh": 21214,
    "Ġassembly": 10644,
    "Ġgush": 10204,
    "ly": 319,
    "Ġmortar": 19396,
    "Ġelements": 2665,
    "cop": 20803,
    "amiable": 14055,
    "mem": 10710,
    "Ġdisquiet": 18553,
    "Ġtweed": 22681,
    "ornament": 23490,
    "Ġrash": 10899,
    "Ġpatent": 11963,
    "eded": 9675,
    "itime": 15551,
    "viii": 12023,
    "Ġeclips": 20699,
    "shudder": 26247,
    "Ġframework": 1991,
    "Ġtwain": 16122,
    "Ġpreach": 14174,
    "Ġcentury": 8292,
    "Ġappearing": 9843,
    "Ġexcell": 10418,
    "Ġdisappointing": 19582,
    "awed": 10393,
    "Ġdecidedly": 9511,
    "Ġluxury": 20135,
    "È": 137,
    "disappeared": 14571,
    "Ġcart": 11585,
    "strangers": 20339,
    "oat": 13766,
    "attributed": 23124,
    "Ġmetallic": 19076,
    "Ġheav": 1850,
    "Ġshattered": 7886,
    "cain": 15328,
    "Ġinsensibility": 17110,
    "Ġimmortality": 26327,
    "wat": 6232,
    "Ġendued": 14079,
    "stays": 15692,
    "trem": 17682,
    "Ġyellow": 5301,
    "ĠĠĠĠĠĠĠĠĠĠĠĠĠĠĠĠĠĠĠĠĠĠĠĠĠĠĠĠĠĠĠĠĠĠĠĠĠĠ": 16528,
    "ogue": 9784,
    "Ġdecay": 1014,
    "Ġerred": 21159,
    "Ġprisoner": 8676,
    "omb": 10207,
    "Ġanalyzing": 18810,
    "thr": 12764,
    "downward": 16620,
    "Ġgravely": 7885,
    "jerked": 25619,
    "kinson": 10028,
    "Ī": 235,
    "Ġstrokes": 16770,
    "Ġmonth": 2847,
    "Ġeu": 6390,
    "Ġsecuring": 11994,
    "ingley": 1543,
    "ient": 394,
    "wit": 7818,
    "batim": 25019,
    "Ġmasterly": 23997,
    "py": 17625,
    "Ġcatches": 23430,
    "tim": 13793,
    "tart": 21070,
    "Ġimpulses": 19965,
    "Ġlightly": 13087,
    "Ġmutiny": 13263,
    "eyes": 5684,
    "Ġadmirers": 19689,
    "wheels": 14383,
    "ton": 1729,
    "Ġwaving": 8578,
    "Ġgravesend": 15219,
    "Ġrails": 22657,
    "Ġbremen": 23349,
    "eous": 13714,
    "Ġturning": 3328,
    "rics": 13041,
    "eronomy": 15527,
    "Ġmutual": 8298,
    "hunted": 16833,
    "Ġremorseless": 13454,
    "Ġboard": 3384,
    "blocks": 25518,
    "Ġseething": 18204,
    "Ġaf": 783,
    "learning": 2639,
    "Ġdrink": 4787,
    "pale": 13774,
    "Ġomens": 21331,
    "fect": 2302,
    "Ġcircumnav": 12429,
    "Ġexperienced": 6584,
    "justine": 7684,
    "Ġtranslates": 12054,
    "repressed": 21246,
    "Ġ1839": 20463,
    "Ġboister": 12923,
    "Ġmingled": 12380,
    "blot": 20785,
    "pointed": 9810,
    "Ġjoking": 12841,
    "lovely": 16049,
    "gust": 6361,
    "Ġvolat": 24146,
    "commence": 19995,
    "Ġsolomon": 11053,
    "Ġintegr": 7970,
    "weaving": 18667,
    "Ġannoyance": 20664,
    "Ġattics": 22632,
    "creation": 14808,
    "Ġdisagreeable": 9300,
    "Ġshells": 20367,
    "Ġelucidated": 26030,
    "Ġdefects": 12336,
    "Ġnarrowed": 24354,
    "hailed": 17566,
    "Ġbambooz": 26120,
    "turtle": 12215,
    "Ġenriched": 26500,
    "hued": 20913,
    "Ġstripping": 23699,
    "Ġexercised": 24800,
    "antically": 22101,
    "Ġpagoda": 19791,
    "atered": 22012,
    "rints": 12506,
    "Ġproceed": 3244,
    "ioneer": 15635,
    "Ġfam": 1581,
    "additional": 20467,
    "considering": 12178,
    "Ġwent": 1536,
    "Ġdiary": 24738,
    "uncontrollable": 20599,
    "steak": 14710,
    "Ġdeed": 7870,
    "Ġcarpet": 9358,
    "handkerchief": 14618,
    "Ġhearses": 20063,
    "ott": 1874,
    "Ġextreme": 2516,
    "haven": 20914,
    "bitts": 26123,
    "Ġphilosop": 5056,
    "Ġ33": 16677,
    "Ġexile": 12721,
    "perfect": 7635,
    "Ġar": 479,
    "Ġremnants": 22797,
    "Ġhobbling": 25645,
    "Ġrecent": 7434,
    "umes": 10918,
    "ashion": 3859,
    "Ġlvi": 21557,
    "Ġtempor": 2367,
    "Ġprophecy": 25706,
    "Ġassumpt": 5415,
    "Ġphysiogn": 12391,
    "gage": 13725,
    "dor": 12455,
    "ike": 4999,
    "incible": 16499,
    "Ġshirr": 18232,
    "Ġreal": 1636,
    "Ġlimits": 3453,
    "Ġindispens": 22958,
    "ulty": 22573,
    "kempt": 20943,
    "Ġprop": 1681,
    "Ġfronted": 23261,
    "Ġlatterly": 24085,
    "Ġindestructible": 26573,
    "Ġunduly": 25995,
    "baron": 24926,
    "İ": 241,
    "camp": 15332,
    "eliest": 14748,
    "probable": 17022,
    "hro": 20893,
    "otence": 14025,
    "rugged": 6848,
    "Ġallen": 5159,
    "consid": 4924,
    "Ġeasily": 3891,
    "rog": 15643,
    "Ġfaded": 10810,
    "Ġdisplays": 19859,
    "considerably": 13448,
    "Ġagreeable": 4551,
    "Ġcaptured": 7244,
    "Ġfid": 10804,
    "impatience": 25501,
    "everlasting": 18773,
    "Ġsituations": 10493,
    "Ġabilities": 8869,
    "Ġheh": 21684,
    "spot": 9792,
    "Ġscenarios": 26543,
    "quit": 15765,
    "tubes": 25212,
    "Ġfinancier": 26584,
    "Ġsuperiors": 23457,
    "Ġeight": 3901,
    "Ġcomprehensiveness": 25075,
    "¿": 128,
    "Ě": 219,
    "Ġsweat": 13143,
    "Ġboisterous": 20446,
    "you": 1008,
    "Ġflint": 23015,
    "Ġnearer": 5302,
    "Ġanticipation": 17058,
    "Ġkeeps": 8268,
    "Ġcongregated": 20100,
    "Ġmasked": 3697,
    "miss": 3174,
    "entitled": 21572,
    "Ġcommunity": 19010,
    "s": 87,
    "halloa": 17090,
    "Ġdozing": 22248,
    "Ġexult": 10231,
    "Ġquaff": 22419,
    "Ġincommunicable": 26612,
    "scence": 14421,
    "Ġdeck": 2142,
    "Ġcocoa": 25483,
    "Ġdespond": 14669,
    "Ġpeople": 2543,
    "Ġsilk": 11966,
    "ercial": 21277,
    "Ġnursed": 16886,
    "rocious": 21543,
    "Ġfir": 17879,
    "snap": 24849,
    "Ġrow": 5245,
    "sided": 17665,
    "Ġshrimp": 24159,
    "paradise": 20640,
    "Ġreasonably": 11091,
    "Ġquadrille": 13543,
    "gy": 2097,
    "vedale": 22714,
    "Ġcucumber": 21359,
    "discoloured": 23500,
    "Ġhitherto": 5881,
    "boilers": 26298,
    ".]": 15301,
    "Ġmounttop": 19981,
    "uttermost": 24943,
    "text": 1975,
    "Ġseason": 5237,
    "back": 2017,
    "buckets": 26124,
    "sively": 13788,
    "Ġcha": 6852,
    "Ġpocket": 4898,
    "goes": 10427,
    "_;": 6642,
    "Ġstudy": 1748,
    "Ġpadd": 9671,
    "blubber": 15239,
    "Ġdrunkard": 20180,
    "fa": 7335,
    "Ġquarters": 8623,
    "Ġconnectivity": 3669,
    "Ġtornado": 24623,
    "rah": 8138,
    "Ġsow": 17750,
    "Ġcoincidences": 26365,
    "Ġwhaler": 7520,
    "burgh": 6773,
    "Ġcigars": 12256,
    "bones": 8373,
    "burn": 8372,
    "irty": 4049,
    "ě": 220,
    "Ġmaker": 15546,
    "âĢĿ--": 21818,
    "Ġscared": 14191,
    "Ġtragic": 15258,
    "Ġmyster": 5927,
    "Ġyard": 5922,
    "aren": 10076,
    "Ġempires": 19075,
    "Ġmoul": 15547,
    "Ġberyl": 20493,
    "Ġcamberwell": 25351,
    "omy": 6249,
    "Ġfaltering": 17886,
    "Ġberkshire": 16885,
    "oration": 2212,
    "Ġhappiness": 2944,
    "Ġfuller": 11157,
    "represented": 20198,
    "alot": 15629,
    "Ġphotograph": 6303,
    "Ġkind": 1787,
    "Ġagonising": 25374,
    "Ġpious": 11600,
    "situ": 9623,
    "Ġrepugnant": 26591,
    "australian": 20564,
    "Ġoutcast": 18415,
    "buoy": 7761,
    "Ā": 193,
    "ulates": 14057,
    "ú": 187,
    "Ġgame": 3630,
    "Ġemblem": 20501,
    "Ġoakum": 16935,
    "ourably": 14379,
    "âĢĶâĢĻ": 8189,
    "Ĥ": 229,
    "romising": 18234,
    "Ġtrample": 20330,
    "Ġsnodhead": 19304,
    "ladyship": 14831,
    "Ġchanged": 5242,
    "vic": 13804,
    "Ġgilt": 21610,
    "window": 7743,
    "Ġparadigms": 3056,
    "Ġquench": 22424,
    "ains": 5093,
    "Ġscorn": 7903,
    "Ġlizard": 12658,
    "chet": 13220,
    "ov": 15402,
    "Ġexecution": 6926,
    "Ġflourish": 17162,
    "united": 14062,
    "Ġgramm": 8172,
    "Ġimitate": 14159,
    "visitor": 15061,
    "Ġnook": 15931,
    "Ġhonest": 7286,
    "Ġpushed": 5911,
    "Ġsole": 3299,
    "Ġabhorrent": 16857,
    "Ġentities": 11867,
    "Ġreco": 9790,
    "spirited": 19756,
    "Ġbreathes": 13250,
    "Ġwafted": 14500,
    "rece": 21237,
    "Ġpit": 3420,
    "Ġcove": 22587,
    "lan": 15380,
    "round": 3369,
    "secre": 18129,
    "Ġmoods": 14953,
    "Ġdelivered": 11117,
    "Ġglac": 9348,
    "Ġpettiness": 24231,
    "Ġlie": 4406,
    "Ġadequate": 20311,
    "Ġtrophy": 20010,
    "ieth": 10705,
    "Ġpierce": 17036,
    "Ġinconsist": 17938,
    "Ġpale": 4530,
    "thinness": 25811,
    "away": 4625,
    "instance": 24170,
    "Ġglowed": 24865,
    "study": 15120,
    "Ġtransparen": 10543,
    "Ġpoured": 8804,
    "houses": 9601,
    "Ġharbour": 19983,
    "itu": 1227,
    "Ġfaint": 5812,
    "rossing": 18640,
    "blows": 17167,
    "elastic": 17983,
    "ford": 2822,
    "Ġtiar": 21170,
    "Ġprofane": 13155,
    "Ġcut": 2641,
    "Ġassures": 14467,
    "Ġhigh": 931,
    "Ġliterature": 17150,
    "ateg": 1351,
    "Ġmurdered": 6464,
    "shoulder": 16585,
    "Ġsurviving": 24638,
    "Ġaudible": 19883,
    "face": 3679,
    "tone": 8766,
    "Ġcoldness": 23762,
    "Ġbrutality": 26278,
    "duck": 22417,
    "Ġperse": 6273,
    "Ġsick": 4692,
    "tack": 12516,
    "vial": 17698,
    "Ġglass": 4368,
    "lives": 12489,
    "moonlight": 25376,
    "princip": 17138,
    "Ġovertook": 18430,
    "certain": 3678,
    "Ġbast": 21382,
    "Ġcorroded": 18878,
    "Ġdisp": 3359,
    "Ġbesee": 19245,
    "Ġreus": 8825,
    "Ġvirtue": 4922,
    "carp": 9112,
    "unpardonable": 21895,
    "Ġarisen": 11746,
    "Ġunsafe": 22046,
    "tale": 10129,
    "Ġcling": 11774,
    "Ġsucked": 14132,
    "tstone": 21087,
    "oysius": 14367,
    "Ġinsensibly": 20079,
    "Ġappropri": 2231,
    "Ġmiss": 1230,
    "Ġagreement": 18543,
    "Ġquestions": 3973,
    "fuller": 22481,
    "Ġhyperborean": 26341,
    "Ġhide": 4589,
    "iana": 7049,
    "baboon": 25517,
    "Ġdependen": 1828,
    "Ġpossibility": 7457,
    "Ġberth": 8683,
    "halfway": 24312,
    "icular": 2023,
    "oper": 7346,
    "reflection": 13458,
    "ommod": 13979,
    "Ġpilgrim": 25600,
    "tackle": 17323,
    "](": 11467,
    "Ġindolence": 16231,
    "disappo": 8986,
    "Ġwrest": 11573,
    "Ġthroats": 24575,
    "Ġrattler": 25000,
    "preservation": 25306,
    "ators": 7830,
    "Ġrocks": 6862,
    "surprising": 16920,
    "Ġhides": 16266,
    "alleled": 14431,
    "Ġswayed": 15049,
    "englishman": 23680,
    "Ġgunw": 6213,
    "Ġfitly": 24002,
    "Ġpaintings": 15059,
    "ines": 673,
    "Ġcinque": 20489,
    "soled": 14335,
    "pitching": 24078,
    "iquet": 17576,
    "Ġvibrated": 25048,
    "slackened": 26095,
    "satisfactory": 16894,
    "Ġportentous": 15232,
    "Ġ181": 23899,
    "stop": 11637,
    "Ġexpanded": 14293,
    "levi": 7048,
    "affect": 13215,
    "Ġshy": 10904,
    "Ġfoster": 18992,
    "Ġwritten": 4167,
    "pulous": 15418,
    "Ġrese": 2194,
    "Ġjet": 5308,
    "Ġwin": 9643,
    "Ġplague": 11827,
    "erial": 4631,
    "ĠĠĠĠĠĠĠĠĠĠĠĠĠĠĠĠĠĠĠĠĠĠĠĠĠĠĠĠĠĠĠĠĠĠĠĠĠĠĠĠĠĠĠ": 12158,
    "|": 96,
    "ome": 535,
    "anse": 12579,
    "Ġbalance": 2021,
    "Ġcol": 1061,
    "grin": 19107,
    "bill": 10078,
    "Ġtraitors": 23082,
    "Ġsli": 4747,
    "Ġsilver": 7463,
    "Ġyelled": 9696,
    "Ġfilm": 23929,
    "mo": 865,
    "Ġga": 4445,
    "Ġaccess": 9749,
    "ide": 722,
    "mming": 1173,
    "Ġhowling": 8511,
    "entrance": 12661,
    "unavoidable": 17392,
    "esc": 617,
    "Ġbump": 9661,
    "Ġtugged": 17290,
    "Ġdisgra": 18550,
    "Ġrowing": 10302,
    "Ġpunctually": 17140,
    "Ġnearing": 15798,
    "Ġdeject": 10881,
    "ats": 4253,
    "Ġspeech": 4610,
    "brew": 11474,
    "ification": 1002,
    "Ġvirtual": 11240,
    "Ġinquired": 7485,
    "rings": 10723,
    "Ġwarp": 8114,
    "Ġrumours": 24600,
    "Ġdon": 1615,
    "Ġstately": 9836,
    "Ġandes": 12645,
    "stun": 18021,
    "Ġfreshness": 23991,
    "Ġsecurely": 16803,
    "Ġgale": 5823,
    "omited": 21645,
    "Ġsus": 18277,
    "Ġunst": 18239,
    "Ġmalays": 19680,
    "later": 20955,
    "ificent": 8185,
    "tomahawk": 25916,
    "Ġhaggerston": 26453,
    "Ġcontemptuously": 19836,
    "Ġaccompanied": 6780,
    "Ġchap": 5935,
    "Ġvanishing": 1345,
    "igen": 4830,
    "painter": 24897,
    "Ġpend": 15609,
    "terbury": 21829,
    "Ġduchess": 4799,
    "hammered": 19005,
    "Ġcons": 954,
    "Ġbull": 7840,
    "Ġglances": 10374,
    "task": 13795,
    "pun": 9619,
    "exp": 2736,
    "Ġtickets": 17094,
    "ist": 449,
    "Ġdante": 21442,
    "Ġmastiff": 23727,
    "Ġguar": 23050,
    "pronounce": 25193,
    "Ġtaken": 2528,
    "hroom": 12480,
    "Ġscrolled": 22289,
    "Ġreliability": 22885,
    "arying": 9803,
    "eyed": 11488,
    "Ġcourtship": 24137,
    "Ġalthough": 4150,
    "Ġcetacean": 25879,
    "knives": 14915,
    "Ġnews": 3819,
    "Ġunforgiving": 25996,
    "ominy": 13980,
    "Ġgeneral": 1862,
    "Ġbust": 10169,
    "Ġtr": 551,
    "Ġresignation": 18567,
    "Ġwarned": 16881,
    "main": 8089,
    "add": 5228,
    "Ġbeach": 6542,
    "blister": 24129,
    "trimmed": 23952,
    "Ġmusty": 22684,
    "Ġdistrusting": 25056,
    "Ġmarlings": 23041,
    "Ġcy": 13876,
    "aux": 14292,
    "Ġincompetent": 25680,
    "Ġreport": 6192,
    "author": 9862,
    "lace": 13750,
    "zag": 17714,
    "forming": 15918,
    "Ġknighthood": 25298,
    "Ġsentences": 2681,
    "imper": 13999,
    "Ġ1778": 25730,
    "Ġcombined": 8549,
    "Ġbliss": 13005,
    "Ġconfining": 23310,
    "Ġphara": 23203,
    "material": 13133,
    "bureau": 20791,
    "merely": 16137,
    "Ġpenetration": 19919,
    "presbyter": 20621,
    "cru": 7127,
    "Ġunsc": 22019,
    "ct": 309,
    "Ġzero": 1203,
    "Ġbended": 21388,
    "Ġquartered": 20376,
    "Ġstring": 11830,
    "Ġemerge": 14930,
    "sur": 4521,
    "proachable": 23401,
    "ensions": 14263,
    "Ġdispleased": 18556,
    "Ġrecomm": 4995,
    "Ġfowls": 8694,
    "Ġmichael": 20682,
    "Ġduplicity": 25332,
    "performances": 26007,
    "Ġmodels": 772,
    "Ġmoulton": 17437,
    "form": 495,
    "rench": 3968,
    "Ġrepairs": 19085,
    "tails": 21089,
    "Ġflann": 23018,
    ":--âĢľ": 24549,
    "Ġrepelled": 19087,
    "oky": 8199,
    "strange": 6087,
    "Ġno": 509,
    "Ġmelbourne": 24290,
    "faith": 15026,
    "Ġsocially": 22086,
    "hog": 8381,
    "Ġmercenary": 17195,
    "Ġilleg": 21627,
    "Ġoutbreak": 22322,
    "Ġinforming": 18744,
    "Ġconfeder": 25708,
    "thinks": 16643,
    "ighter": 7969,
    "infant": 19830,
    "Ġcommendation": 13613,
    "eminence": 20102,
    "Ġwaved": 9646,
    "Ġparcel": 15202,
    "quely": 10233,
    "Ġrot": 10968,
    "onah": 3338,
    "Ġnicely": 8712,
    "Ġclatter": 22352,
    "Ġcomp": 724,
    "Ġwheeled": 14140,
    "Ġorganization": 7985,
    "aurs": 20771,
    "such": 3082,
    "Ġupp": 13994,
    "Ġstole": 7954,
    "Ġdiscol": 12957,
    "scy": 21058,
    "thoughts": 9937,
    "Ġensuing": 12312,
    "M": 49,
    "Ġcensure": 15098,
    "Ġdisgraceful": 15021,
    "ructed": 7030,
    "ignomin": 23270,
    "Ġsumat": 14131,
    "perceive": 12816,
    "father": 3777,
    "Ġunhinged": 26218,
    "Ġfood": 5079,
    "thirty": 12766,
    "Ġsuited": 12788,
    "Ġworried": 22930,
    "different": 6501,
    "Ġshaster": 22003,
    "Ġgod": 1938,
    "Ġcooking": 16648,
    "Ġflash": 8231,
    "tallied": 21092,
    "Ġimpediments": 26242,
    "on": 267,
    "Ġaccompanying": 11305,
    "Ġvenetian": 14849,
    "Ġresent": 6050,
    "ishness": 22347,
    "Ġheaped": 18040,
    "Ġconfid": 7688,
    "Ġgranite": 22812,
    "gammon": 20246,
    "ipped": 5790,
    "Ġwes": 8782,
    "perch": 18343,
    "Ġweaver": 11690,
    "riptions": 14797,
    "Ġisa": 14027,
    "Ġpap": 8801,
    "Ġcrushed": 9425,
    "Ġgroping": 13668,
    "unbidden": 21899,
    "umul": 1289,
    "Ġresting": 7963,
    "Ġperceived": 4713,
    "aged": 2606,
    "Ġaugmentation": 20119,
    "Ġscand": 7202,
    "Ġalluded": 7887,
    "Ġdiction": 8798,
    "Ġboun": 21383,
    "Ġpurposes": 11169,
    "Ġdriver": 16475,
    "Ġterra": 13120,
    "Ġshining": 8173,
    "grand": 7971,
    "Ġimbecile": 17394,
    "wrinkles": 16556,
    "Ġsheep": 10927,
    "Ġexecutors": 19536,
    "Ġexpost": 18624,
    "Ġseven": 4540,
    "Ġdazed": 15599,
    "farintosh": 24552,
    "rigging": 20009,
    "aches": 6570,
    "Ġbodily": 6107,
    "Ġpreternatural": 12827,
    "Ġpress": 5933,
    "approached": 13488,
    "means": 9788,
    "nothing": 3153,
    "Ġsaving": 15889,
    "conceivable": 17132,
    "vo": 11541,
    "wrote": 11548,
    "Ġhun": 1497,
    "Ġtheology": 21279,
    "propagation": 1235,
    "dog": 10695,
    "Ġlin": 10834,
    "Ġ1846": 26085,
    "Ġdischarge": 18557,
    "Ġscud": 14192,
    "Ġavoid": 5198,
    "enses": 10996,
    "Ġfancying": 12116,
    "ieving": 7033,
    "visual": 24224,
    "iam": 2510,
    "Ġpuzzled": 7316,
    "owers": 12688,
    "aky": 18412,
    "brimmed": 14589,
    "Ġintending": 11707,
    "atter": 646,
    "Ġtended": 21169,
    "Ġpuff": 6526,
    "Ġjunior": 15102,
    "contented": 14635,
    "Ġmagnified": 23207,
    "Ġtreacherous": 13557,
    "Ġprayer": 16668,
    "tiness": 21074,
    "bid": 5610,
    "Ġbutler": 18271,
    "Ġsales": 12811,
    "whims": 22244,
    "Ġboa": 22639,
    "crown": 13701,
    "Ġans": 1646,
    "Ġheadsmen": 14734,
    "impenet": 18056,
    "Ġfind": 1459,
    "Ġinclud": 1511,
    "cas": 20796,
    "Ġware": 12558,
    "Ġferocious": 17421,
    "Ġindistinct": 17410,
    "apering": 8042,
    "Ġstain": 18067,
    "bus": 5355,
    "Ġscramble": 24578,
    "Ġwhereupon": 14298,
    "ould": 428,
    "Ġfatig": 6757,
    "Ġedition": 16457,
    "shri": 14236,
    "otent": 8835,
    "lights": 13208,
    "Ġhell": 5018,
    "nurs": 21001,
    "tained": 4405,
    "Ġreigns": 21675,
    "carte": 25401,
    "Ġencourag": 1392,
    "dden": 1806,
    "Ġsoot": 14133,
    "wishing": 21131,
    "suggest": 20379,
    "Ġstout": 6026,
    "Ġwhatsoever": 18461,
    "Ġtheoretically": 3567,
    "Ġleaf": 15726,
    "_,âĢĻ": 12436,
    "mb": 904,
    "cheerfulness": 20183,
    "yarn": 15459,
    "Ġforgetting": 3435,
    "Ġbows": 4082,
    "Ġdreadful": 4920,
    "kind": 3864,
    "Ġ74": 24263,
    "ire": 492,
    "Ġworry": 18817,
    "dient": 441,
    "âĢĶ_": 3202,
    "pips": 21022,
    "Ġsupervised": 3298,
    "Ġaverted": 16258,
    "Ġass": 1504,
    "flames": 14714,
    "undant": 14788,
    "Ġlog": 1676,
    "Ġdestroy": 5772,
    "Ġdepicting": 22595,
    "'d": 12430,
    "complied": 19915,
    "Ġlips": 3991,
    "Ġreplace": 14479,
    "Ġcarpenter": 4684,
    "found": 4215,
    "Ġarrive": 6906,
    "imprisonment": 23765,
    "Ġhabitu": 19531,
    "Ġblot": 9814,
    "Ġletting": 10363,
    "Ġobstin": 14955,
    "carrying": 16714,
    "riet": 18183,
    "Ġcontextual": 3744,
    "Ġhumaneval": 25583,
    "Ġsolar": 22889,
    "pro": 2050,
    "niece": 20997,
    "Ġmanhat": 22332,
    "Ġenormous": 5608,
    "slipped": 25530,
    "dually": 3285,
    "use": 2535,
    "Ġmam": 8407,
    "Ġheavy": 3745,
    "Ġpasses": 2677,
    "youn": 5690,
    "Ġquarter": 3977,
    "please": 8178,
    "Ġslop": 23166,
    "Ġwindigate": 18912,
    "inside": 23070,
    "acter": 2508,
    "Ġpathways": 11154,
    "Ġpapered": 20134,
    "Ġsteadily": 8053,
    "iriously": 18174,
    "worship": 19390,
    "Ġeffects": 7235,
    "Ġleft": 1763,
    "Ġrestore": 9382,
    "killed": 15379,
    "Ġpractically": 13106,
    "stopping": 19353,
    "Ġthistle": 21921,
    "Ġaccusations": 22385,
    "Ġstubborn": 10415,
    "Ġface": 1724,
    "Ġfunere": 22264,
    "Ġwrung": 14472,
    "fears": 18532,
    "discover": 10541,
    "mblance": 7322,
    "continuing": 24478,
    "arman": 11597,
    "mense": 4780,
    "Ġcontents": 7209,
    "was": 1420,
    "Ġconvalescence": 23748,
    "shroud": 20313,
    "Ġrepulsive": 14531,
    "admitted": 18094,
    "Ġglad": 3327,
    "Ġblackness": 9395,
    "quadr": 15767,
    "Ġspy": 22129,
    "aloft": 8810,
    "Ġvales": 21951,
    "linen": 25258,
    ";âĢĻ": 15305,
    "Ġsoil": 9257,
    "Ġleisurely": 24745,
    "Ġplays": 12041,
    "========": 2313,
    "Ġformed": 3884,
    "Ġopinions": 9417,
    "volutions": 16324,
    "hurried": 11354,
    "^": 66,
    "scotland": 20532,
    "Ġlocker": 16912,
    "Ġmere": 2711,
    "Ġbellies": 13359,
    "Ġdiana": 21440,
    "Ġtipt": 21176,
    "Ġslackened": 15129,
    "Ġblasts": 19999,
    "Ġstature": 10864,
    "Ġoptimization": 1475,
    "least": 8788,
    "Ġtrucks": 19515,
    "poured": 17638,
    "caps": 20809,
    "handsome": 13179,
    "human": 7089,
    "Ġwont": 9854,
    "Ġallegro": 25795,
    "Ġrespite": 13157,
    "boone": 23257,
    "convinced": 10624,
    "è": 169,
    "cheeked": 19342,
    "?": 35,
    "bury": 9109,
    "rocket": 13946,
    "Ġwhirl": 13452,
    "Ġdepos": 11005,
    "repairing": 24494,
    "Ġconfusing": 23311,
    "masculine": 24386,
    "Ġbatch": 888,
    "Ġdistressed": 8516,
    "Ġapparition": 8068,
    "Ġgrammatical": 13541,
    "uck": 1233,
    "ssian": 3400,
    "Ġiceland": 15149,
    "Ġamidst": 9496,
    "Ġrough": 7186,
    "Ġboot": 11842,
    "Ġbeaver": 18088,
    "Ġextravagant": 17280,
    "Ġkiss": 8184,
    "iably": 13740,
    "enjoyments": 25434,
    "Ġmatted": 22917,
    "named": 9889,
    "pyramid": 21032,
    "cruise": 24842,
    "Ġvenge": 5420,
    "Ġreally": 2162,
    "Ġpertur": 12855,
    "Ġsympathetic": 17361,
    "Ġcalmness": 12097,
    "Ġshaking": 6552,
    "Ġup": 463,
    "Ġpulse": 13118,
    "Ġdan": 8796,
    "Ġparasol": 22126,
    "fair": 10094,
    "effectually": 25131,
    "persuasion": 20047,
    "battering": 20788,
    "ead": 2599,
    "Ġplainpalais": 20739,
    "Ġlent": 21551,
    "digger": 24311,
    "Ġtalents": 15046,
    "Ġembellish": 25849,
    "pede": 19932,
    "Ġjoosy": 23634,
    "Ġilluminate": 17194,
    "Ġtrop": 7565,
    "unguarded": 23672,
    "Ġinvari": 6529,
    "plunging": 25988,
    "Ġcivilities": 14850,
    "Ġshift": 2285,
    "Ġdeclared": 5594,
    "Ġbird": 3757,
    "ntax": 933,
    "Ĵ": 245,
    "cent": 8074,
    "Ġstrangeness": 16705,
    "Ġenergy": 2551,
    "Ġcategorization": 12140,
    "Ġsoftened": 11104,
    "advanced": 19591,
    "Ġboarding": 12090,
    "ffy": 18315,
    "range": 3494,
    "published": 26143,
    "ulgences": 21870,
    "Ġcomfits": 21864,
    "rennial": 22346,
    "ces": 579,
    "Ġcorrespondent": 19825,
    "onted": 11569,
    "iliary": 21731,
    "Ġensures": 3055,
    "mile": 17598,
    "conclude": 24071,
    "Ġconvul": 13206,
    "desperate": 17359,
    "Ġalighted": 18106,
    "Ġcorrupt": 11926,
    "Ġdiscipline": 26562,
    "Ġemer": 5960,
    "avier": 2830,
    "Ġprivileged": 20116,
    "Ġdifference": 1491,
    "Ġhaws": 21956,
    "clothes": 9059,
    "warm": 8103,
    "Ġvaliant": 9802,
    "Ġ67": 19663,
    "Ú": 155,
    "Ġliv": 6680,
    "Ġevermore": 18813,
    "Ġtechni": 1699,
    "Ġuntamed": 19166,
    "Ġlove": 2054,
    "Ġpenetrating": 17012,
    "Ġfrenzy": 13625,
    "iluvian": 18063,
    "Ġclearer": 16315,
    "yder": 10140,
    "Ġmiz": 10778,
    "rimin": 2425,
    "doms": 20837,
    "Ń": 260,
    "á": 162,
    "ferences": 10328,
    "Ġthack": 21521,
    "Ġinwards": 15624,
    "Ġdoor": 1742,
    "renew": 24449,
    "ober": 15408,
    "Ġcopies": 24938,
    "prit": 19345,
    "Ġquieted": 23846,
    "Ġexhilarating": 26339,
    "reply": 19725,
    "Ġbacking": 16120,
    "Ġholding": 4978,
    "Ġemig": 14525,
    "gs": 7337,
    "Ġpunctures": 25136,
    "Ġcon": 348,
    "Ġlimping": 23546,
    "c": 71,
    "horrors": 20544,
    "elter": 21575,
    "Ġformula": 2864,
    "Ġbind": 12586,
    "Ġdefect": 8556,
    "Ġoccurs": 1858,
    "inated": 6804,
    "Ġcommunications": 16357,
    "Ġvaguely": 17368,
    "board": 3566,
    "Ġdusk": 12330,
    "Ġplush": 18611,
    "Ġoftener": 13568,
    "Ġefficiently": 3695,
    "Ġdisinclination": 22541,
    "oused": 6557,
    "Ġspaniards": 25556,
    "Ġknow": 633,
    "Ġinjuries": 11278,
    "archical": 1927,
    "Ġrests": 13096,
    "remember": 7261,
    "Ġsmiles": 6707,
    "Ġencirc": 18731,
    "asily": 13948,
    "Ġpays": 13300,
    "Ġsympathy": 6347,
    "Ġxerxes": 23414,
    "¼": 125,
    "Ġdecorum": 16028,
    "Ġdecoyed": 18493,
    "powers": 25411,
    "perils": 22192,
    "unts": 12735,
    "Ġmoritz": 11909,
    "U": 57,
    "Ġdisown": 22529,
    "Ġquies": 18465,
    "Ġamused": 11802,
    "Ġjoll": 11768,
    "Ġcaptive": 14429,
    "Ġshr": 4226,
    "Ġstruck": 3390,
    "Ġnut": 12650,
    "cloud": 11107,
    "offended": 16399,
    "Ġapproaching": 6284,
    "Ġvest": 8164,
    "geese": 22372,
    "Ġsurtout": 23467,
    "utility": 21591,
    "iew": 2449,
    "ollen": 11299,
    "althily": 19362,
    "dear": 6556,
    "Ġvehic": 8935,
    "boy": 4737,
    "Ġcusack": 26434,
    "Ġworth": 4416,
    "Ġthis": 382,
    "imens": 1749,
    "Ġinhabit": 5782,
    "Ġdishon": 12234,
    "mpt": 6655,
    "Ġanalogy": 25640,
    "Ġformerly": 7493,
    "Ġdeceit": 13484,
    "inating": 9155,
    "Ġwriters": 13545,
    "ighb": 10424,
    "assembled": 21549,
    "Ġtophet": 23575,
    "Ġhawsers": 26503,
    "Ġwa": 1756,
    "irted": 14074,
    "Ġexhaustion": 14963,
    "Ġcontemplated": 13467,
    "scattered": 23001,
    "Ġcentaurs": 23836,
    "Ġrelated": 3717,
    "Ġoverheard": 11777,
    "Ġneuron": 1809,
    "destruction": 11255,
    "bastian": 10675,
    "determination": 19948,
    "concl": 12873,
    "Ġoptimize": 1625,
    "Ġalien": 14020,
    "Ġwomen": 4749,
    "Ġensemble": 1609,
    "Ġnour": 10831,
    "Ġfr": 1696,
    "Ġaudacious": 13463,
    "Ġage": 3896,
    "Ġantip": 24179,
    "Ġtypewritten": 16424,
    "Ġfugitives": 25635,
    "Ġsharks": 4496,
    "Ġclouds": 5775,
    "Ġantagonist": 26330,
    "Ġit": 339,
    "Ġwar": 5526,
    "Ġsmoking": 6429,
    "Ġassent": 12737,
    "Ġconting": 18473,
    "mansion": 20985,
    "Ġkindly": 6078,
    "Ġsadness": 13290,
    "typewritten": 26039,
    "Ġsubordinate": 18723,
    "frisco": 16788,
    "Ġtoler": 7589,
    "Ġsentence": 6188,
    "inspector": 13649,
    "hair": 9124,
    "fly": 13716,
    "Ġschool": 5512,
    "Ġramble": 9315,
    "rem": 1521,
    "Ġstubb": 1788,
    "Ġwantonly": 22899,
    "aboard": 21799,
    "l": 80,
    "continual": 20646,
    "Ġqueen": 3215,
    "servants": 15039,
    "seized": 14037,
    "Ġnoted": 15833,
    "Ġcapstan": 9101,
    "pushed": 21025,
    "Ġridiculous": 10631,
    "Ġomitted": 12568,
    "Ġeagerness": 6609,
    "Ġpattern": 1320,
    "Ġwish": 2098,
    "Ġsummons": 13235,
    "Ġbeheaded": 11658,
    "Ġleviathan": 3290,
    "Ġshades": 9465,
    "ruct": 689,
    "pertaining": 22193,
    "stall": 21650,
    "Ġfloor": 4377,
    "Ġsymb": 2591,
    "Ġpra": 4345,
    "Ġanyhow": 14256,
    "Ġdegrees": 7293,
    "Ġexp": 780,
    "proposal": 18756,
    "Ġdestroyer": 13416,
    "Ġrobert": 10971,
    "Ġtreacle": 14596,
    "Ġexc": 1831,
    "Ġsupercil": 23456,
    "niest": 18979,
    "Ġconsists": 11980,
    "Ġeffusions": 18530,
    "inative": 15486,
    "Ġalman": 21786,
    "arrested": 15604,
    "Ġintrig": 21995,
    "Ġunfrequent": 24110,
    "Ġorphans": 20207,
    "necessities": 24307,
    "horr": 14600,
    "Ġseverest": 14093,
    "Ġmess": 7832,
    "Ġcathedral": 17415,
    "Ġaudits": 24769,
    "itten": 3441,
    "Ġfamiliarly": 11304,
    "tled": 3457,
    "Ġstorms": 11262,
    "hither": 11494,
    "Ġhabitation": 14805,
    "Ġcongen": 10874,
    "Ġtinkling": 25213,
    "nine": 13763,
    "Ġunluck": 8486,
    "Ġcroquet": 9964,
    "Ġbottle": 7490,
    "Ġtot": 4186,
    "Ġperhaps": 1912,
    "Ġsgd": 3129,
    "Ġlimited": 23545,
    "Ġhorsham": 10407,
    "reach": 17758,
    "dia": 2138,
    "Ġblame": 6446,
    "gunw": 17222,
    "Ġimp": 582,
    "Ġdetested": 14179,
    "ex": 622,
    "Ġdisembow": 22542,
    "Ġcompunction": 18587,
    "Ġcollateral": 20075,
    "anque": 13890,
    "Ġrepro": 7274,
    "Ġounce": 15275,
    "attended": 8954,
    "Ġsweating": 16464,
    "escaped": 14232,
    "chain": 18042,
    "critters": 14777,
    "Ġpenn": 11113,
    "Ġeventually": 8620,
    "Ġdeafened": 25652,
    "similar": 13456,
    "Ġhapp": 1090,
    "okes": 9279,
    "Ġdatasets": 2391,
    "complain": 14360,
    "Ġbeam": 2879,
    "Ġhearsed": 25042,
    "ĠdÃ¦mon": 7845,
    "Ġknocked": 9502,
    "rown": 2196,
    "Ġtok": 1248,
    "Ġfeathers": 15122,
    "flesh": 13493,
    "igantic": 5538,
    "rate": 2424,
    "Ġunwarrant": 19936,
    "Ġknown": 1644,
    "Ġslide": 10395,
    "emone": 21932,
    "akened": 7414,
    "âĢĶâĢĶâĢĿ": 15942,
    "est": 500,
    "itates": 13871,
    "Ġminimizing": 3464,
    "Ġunmannerly": 26518,
    "Ġ36": 14769,
    "dem": 10694,
    "Ġdeclaring": 19423,
    "ale": 506,
    "Ġresp": 2496,
    "shrouded": 26363,
    "Ġcruisers": 25864,
    "Ġmechanical": 7937,
    "Ġcustoms": 19655,
    "Ġvernal": 23891,
    "Ġglittering": 10055,
    "nx": 17608,
    "tomorrow": 25915,
    "dying": 15343,
    "scissors": 20729,
    "Ġbreathed": 11221,
    "somewhere": 12015,
    "Ġparticular": 2451,
    "Ġloth": 17968,
    "Ġfatal": 5872,
    "eping": 5834,
    "Ġinstruments": 12227,
    "Ġforfeit": 21780,
    "Ġtra": 1384,
    "prevailed": 17347,
    "Ġvalleys": 14921,
    "Ġchiswick": 25561,
    "wedged": 24558,
    "Ġdat": 494,
    "Ġhit": 7163,
    "public": 17647,
    "contrivance": 26317,
    "Ġdiscrete": 2478,
    "Ġencounters": 19583,
    "Ġfun": 525,
    "Ġskylarking": 19490,
    "sy": 2802,
    "concluded": 11243,
    "Ġdeadliest": 14558,
    "Ġkeel": 6444,
    "Ġscold": 10951,
    "Ġacre": 22685,
    "gracious": 11834,
    "anced": 1350,
    "erpillar": 5798,
    "Ġstrain": 6025,
    "overcoat": 19053,
    "bedroom": 14700,
    "Ġbenignity": 18783,
    "Ġyourselves": 9030,
    "Ġantiquity": 15233,
    "Ġprecipice": 19944,
    "Ġhollow": 5648,
    "Ġstrictest": 17042,
    "Ġcontemptible": 16954,
    "Ġ34": 16678,
    "Ġsits": 10769,
    "acks": 11791,
    "Ġinterpret": 5490,
    "Ġsched": 2338,
    "Ġchatting": 24746,
    "bolt": 25138,
    "Ġbeatrix": 24206,
    "Ġgradually": 3401,
    "Ġlowers": 23245,
    "Ġsanctified": 25883,
    "charles": 14701,
    "Ġwedded": 15538,
    "Ġbigness": 19763,
    "Ġhawk": 15176,
    "Ġemerging": 24614,
    "Ġpurporting": 19185,
    "itself": 7835,
    "searching": 25106,
    "Ġhugh": 15005,
    "Ġcommissioned": 19897,
    "Ġ81": 24456,
    "Ġcanv": 7010,
    "Ġgn": 8821,
    "Ġbritish": 11338,
    "Ġenigmatical": 20600,
    "Ġparad": 2841,
    "asleep": 21548,
    "humorously": 24023,
    "Ġconcealing": 23906,
    "Ġfeet": 2262,
    "Ġplump": 14285,
    "Ġsheer": 14152,
    "sitting": 8388,
    "Ġowen": 15097,
    "chase": 11647,
    "Ġcombing": 22855,
    "Ġflights": 24752,
    "Ġgrim": 7438,
    "Ġrelinqu": 12987,
    "Ġaccompaniments": 24481,
    "deploy": 22148,
    "Ġbackwater": 18651,
    "infor": 3242,
    "Ġdelirium": 10406,
    "Ġhill": 5626,
    "Ġjourneys": 19478,
    "Ġstretch": 6993,
    "Ġwonderful": 4562,
    "ract": 968,
    "haul": 14767,
    "Ġconfessor": 24022,
    "hur": 6650,
    "Ġarms": 3967,
    "Ġdoings": 18376,
    "Ġferry": 24514,
    "Ġclearly": 6896,
    "Ġintegrated": 13533,
    "ods": 8839,
    "Ġgeneralization": 982,
    "lyph": 10853,
    "Ġungod": 22029,
    "Ġregent": 18591,
    "ays": 6684,
    "Ġdevoid": 18688,
    "Ġshunned": 17295,
    "Ġextremely": 2667,
    "puff": 21024,
    "uncommon": 11684,
    "coward": 13703,
    "Ġrevolutionized": 3368,
    "erred": 6376,
    "Ġpreservative": 24631,
    "Ġafter": 871,
    "verest": 13993,
    "avoiding": 25237,
    "Ġmultimodal": 18749,
    "Ġsenior": 17173,
    "report": 13402,
    "Ġork": 18285,
    "Ġnations": 8813,
    "Ġquadr": 8201,
    "indulged": 22380,
    "ount": 1109,
    "eld": 966,
    "ban": 9586,
    "Ġgirdle": 19160,
    "Ġrivals": 20274,
    "Ġsliding": 9366,
    "Ġpled": 17907,
    "Ġern": 8398,
    "cushion": 20823,
    "sex": 12717,
    "discovery": 12019,
    "Ġket": 18348,
    "Ġrecesses": 17262,
    "philosophy": 13583,
    "Ġbroad": 3641,
    "Ġoverwhel": 8198,
    "Ġreddening": 25971,
    "remained": 8572,
    "antic": 1606,
    "angs": 5835,
    "Ġdesolation": 12272,
    "Ġsystems": 792,
    "Ġclerks": 17297,
    "threat": 10901,
    "Ġblaming": 22934,
    "leather": 13892,
    "Ġremarkable": 4915,
    "objects": 13473,
    "inching": 21192,
    "Ġfocus": 4236,
    "Ġfates": 15581,
    "ded": 2756,
    "Ġmisfortune": 5568,
    "Ġaltar": 9230,
    "Ġcontentment": 14872,
    "peculiarity": 23114,
    "Ġworld": 1598,
    "Ġacutely": 14316,
    "Ġbenefited": 19401,
    "Ġglim": 9346,
    "endar": 18363,
    "culine": 19065,
    "Ġodd": 6626,
    "ogany": 18673,
    "Ġhours": 2818,
    "Ġincrust": 22556,
    "Ġhidden": 1375,
    "cl": 1495,
    "ended": 1833,
    "Ġintercourse": 11000,
    "Ġsums": 2901,
    "ineer": 11705,
    "Ġvigour": 24461,
    "Ġfancy": 3747,
    "Ġcontradict": 12388,
    "Ġanxious": 4516,
    "Ġastonishment": 4794,
    ".âĢĻâĢĿ": 6740,
    "Ġgoblets": 20522,
    "Ġpeculiarity": 12937,
    "recurrent": 4993,
    "Ġinstituted": 18702,
    "Ġplu": 8802,
    "Ġlose": 5027,
    "Ġagitation": 6864,
    "Ġautomation": 13245,
    "washed": 13050,
    "Ġstrangled": 24135,
    "Ġcounterpart": 24720,
    "ound": 585,
    "Ġgenerative": 5644,
    "Ġtask": 1308,
    "danish": 20835,
    "keeper": 5596,
    "Ġresort": 18564,
    "plan": 15817,
    "preading": 18500,
    "Ġtwice": 4661,
    "Ġremark": 2148,
    "unctions": 18158,
    "depth": 12804,
    "Ġhumorousness": 25378,
    "granting": 23417,
    "ensities": 22552,
    "Ġfounder": 17885,
    "ely": 623,
    "purp": 8092,
    "Ġsisterly": 16307,
    "Ġbenjam": 22894,
    "Ġcreditors": 20133,
    "cannib": 11905,
    "Ġtall": 4038,
    "bourne": 19104,
    "Ġprepar": 7899,
    "Ġquarrel": 7291,
    "interruption": 20115,
    "Ġuninterrupted": 22051,
    "apping": 5852,
    "fulness": 4309,
    "peculiarities": 13474,
    "Ġcannon": 14155,
    "Ġmun": 12566,
    "Ġenorm": 5303,
    "Ġprimal": 17107,
    "ake": 749,
    "measure": 10033,
    "Ġdiligence": 17114,
    "Ġhandsom": 11125,
    "Ġhavoc": 15816,
    "arted": 2205,
    "avoid": 9307,
    "petulance": 24300,
    "knowledge": 7478,
    "including": 23592,
    "Ġbethinking": 25280,
    "beg": 22492,
    "Ġneighb": 14076,
    "jected": 22718,
    "Ġloaf": 15875,
    "swam": 24256,
    "Ġsneezes": 24697,
    "oker": 10964,
    "Ġvigilance": 12374,
    "hound": 20897,
    "Ġdivineness": 25724,
    "Ġacted": 7421,
    "monkey": 19172,
    "Ġexactly": 2768,
    "Ġtreacherously": 25132,
    "Ġnephews": 24712,
    "Ġpool": 5172,
    "Ġ15": 9326,
    "Ġconstruction": 9387,
    "ce": 313,
    "Ġdreaming": 11224,
    "âĢĺ": 940,
    "robust": 19730,
    "crooked": 25747,
    "Ġexpedition": 10636,
    "Ġshocked": 9403,
    "Ġmet": 1929,
    "Ġendeavors": 16547,
    "inferences": 17740,
    "Ġpitching": 16612,
    "y": 93,
    "Ġrelation": 2145,
    "Ġclassical": 22626,
    "Ġdynam": 3141,
    "Ġalbert": 12710,
    "Ġtransformations": 3484,
    "Ġfi": 934,
    "Ġstubbs": 23300,
    "caus": 11477,
    "possess": 5985,
    "Ġlegal": 10440,
    "Ġconcert": 11970,
    "â": 163,
    "Ġrejected": 12297,
    "Ġavert": 14427,
    "Ġ2026": 12338,
    "germ": 15359,
    "Ġobserver": 11991,
    "ipagos": 22364,
    "Ġpalmy": 19502,
    "shabbily": 26248,
    "cks": 3079,
    "Ġmoved": 4840,
    "ihood": 20924,
    "Ġdefinitions": 22948,
    "bbles": 13694,
    "Ġdisobey": 18560,
    "Ġsensational": 16394,
    "Ġunbounded": 18260,
    "Ġfoolish": 5981,
    "Ġgrease": 26191,
    "brary": 5755,
    "urpr": 2290,
    "Ġenables": 726,
    "ases": 1522,
    "Ġpaused": 5416,
    "mouse": 15395,
    "umnal": 18301,
    "ultaneous": 18584,
    "ength": 2314,
    "sentimental": 25682,
    "reposed": 24491,
    "uneasiness": 23690,
    "thyself": 19300,
    "Ġtemperature": 1007,
    "Ġcomstock": 21863,
    "Ġstaple": 26200,
    "Ġblandly": 20326,
    "lively": 12488,
    "mast": 3603,
    "Ġattributed": 11839,
    "Ġprovince": 24191,
    "Ġabode": 7902,
    "Ġdoc": 7199,
    "assed": 6421,
    "Ġwindows": 4970,
    "Ġslowly": 3619,
    "Ġregulations": 18593,
    "Ġ110": 24434,
    "Ġhoary": 23358,
    "Ġlobster": 11390,
    "Ġpromontory": 11944,
    "Ġsubjects": 7073,
    "usions": 6160,
    "Ġannotations": 25955,
    "Ġfarm": 7841,
    "Ġcomo": 21859,
    "rim": 7138,
    "Ġwreat": 15533,
    "Ġinvaders": 23482,
    "Ġtwopence": 18661,
    "Ġincognit": 22560,
    "Ġlobes": 22120,
    "urmount": 13998,
    "Ġarticulated": 24432,
    "Ġadmits": 23556,
    "Ġenveloping": 19736,
    "anders": 18155,
    "Ġpotency": 14647,
    "Ġscepticism": 25928,
    "Ġdoublo": 6079,
    "Ġwearied": 15796,
    "Ġattic": 16101,
    "Ġelastic": 4360,
    "Ġcatherine": 2812,
    "Ġirish": 14535,
    "ath": 864,
    "Ġwilfully": 16767,
    "Ġdoing": 3662,
    "house": 4076,
    "Ġruinous": 24635,
    "Ġwits": 15534,
    "brance": 7283,
    "Ġpondering": 17006,
    "usive": 8193,
    "pocket": 9811,
    "Ġsultanism": 25889,
    "Ġshows": 8484,
    "Ġlangs": 13956,
    "Ġdanes": 25160,
    "cher": 5786,
    "ojo": 7348,
    "Ġinform": 999,
    "Ġbriefly": 11368,
    "short": 6567,
    "Ġtass": 15471,
    "presented": 12994,
    "Ġmamma": 10050,
    "Ġardu": 22183,
    "Ġexclaim": 11222,
    "handed": 7482,
    "Ġfalsely": 20585,
    "Ġunfitted": 24109,
    "steering": 16637,
    "Ġsober": 10911,
    "Ġstumbling": 21747,
    "Ġtag": 15470,
    "Ġrapturously": 24889,
    "etition": 7381,
    "rudence": 7093,
    "heaved": 21213,
    "Ġplum": 11825,
    "Ġparc": 10921,
    "Ġstacks": 18077,
    "Ġbed": 2154,
    "Ġelijah": 9102,
    "revenge": 13844,
    "Ġcalmer": 23048,
    "Ġrec": 889,
    "polar": 24585,
    "increas": 10455,
    "strength": 13982,
    "Ġjabbering": 22308,
    "erately": 21276,
    "Ġuneasy": 8665,
    "Ġmultitud": 18748,
    "Ġmariner": 7246,
    "Ġalleg": 14019,
    "Ġalgorithm": 761,
    "Ġcomposing": 16073,
    "Ġsalut": 10511,
    "Ġpassionately": 16765,
    "Ġlunacy": 20031,
    "Ġshark": 5549,
    "Ġguardsmen": 20633,
    "Ġwhitewashed": 14471,
    "troubled": 17112,
    "gained": 20883,
    "dw": 3334,
    "Ġflying": 5413,
    "Ġmagnus": 18959,
    "Ġquest": 2002,
    "Ġcuvier": 9167,
    "Ġalt": 18101,
    "ieve": 1659,
    "amples": 1822,
    "Ġrekindled": 21681,
    "Ġfreshet": 25704,
    "Ġdirect": 1473,
    "orse": 5807,
    "perceived": 8861,
    "Ġschooner": 16748,
    "Ġwert": 12560,
    "Ġsmokes": 22565,
    "sutherland": 21065,
    "Ġjourney": 3880,
    "Ġlandsc": 11147,
    "presumption": 20445,
    "Ġinspirited": 23424,
    "Ġbristles": 25845,
    "Ġsmells": 8893,
    "apart": 15964,
    "Ġcuriously": 13014,
    "Ġhag": 12629,
    "Ġobserved": 3542,
    "willingly": 11985,
    "throw": 14100,
    "Ġleaned": 7608,
    "above": 8149,
    "Ġcannibals": 10589,
    "Ġgild": 15672,
    "Ġgreatness": 12948,
    "Ġwhistled": 24625,
    "Ġillust": 8264,
    "Ġskrimshander": 22803,
    "second": 6544,
    "as": 302,
    "balance": 12009,
    "indebted": 26159,
    "Ġinner": 9672,
    "Ġoutrages": 18416,
    "reflected": 24732,
    "rob": 5533,
    "artificial": 953,
    "Ġdoleful": 18377,
    "Ġmovement": 9970,
    "Ġswelling": 11928,
    "Ġcrush": 9424,
    "Ġincisive": 18572,
    "Ġeaten": 14847,
    "Ġgans": 5822,
    "Ġattachment": 6051,
    "Ġbennett": 16326,
    "Ġassault": 9839,
    "Ġcomplained": 16999,
    "Ġcompares": 20169,
    "Ġcreation": 6439,
    "_,âĢĿ": 6219,
    "Ġlords": 14642,
    "Ġkingdom": 12021,
    "Ġvineyards": 25109,
    "derer": 4600,
    "Ġrecall": 3856,
    "Ġmystical": 12136,
    "icuous": 10836,
    "Ġgained": 4533,
    "Ġpestilent": 25778,
    "Ġundiscovered": 18253,
    "Ġdeparture": 6490,
    "Ġfiltering": 23930,
    "Ġtash": 13822,
    "piling": 15417,
    "mentioning": 24886,
    "Ġpossible": 2584,
    ":": 30,
    "morning": 4859,
    "Ġpanther": 16820,
    "Ġugliness": 20430,
    "Ġauthorities": 11264,
    "grown": 10101,
    "Ġinsipid": 26314,
    "renadier": 18420,
    "Ġcanoes": 12809,
    "Ġeber": 18006,
    "medi": 2628,
    "eddling": 11904,
    "Ġthin": 4346,
    "rior": 12746,
    "Ġ41": 24082,
    "Ġreturning": 5325,
    "Ġserm": 9635,
    "crazy": 24692,
    "iform": 2204,
    "Ġgeese": 7695,
    "Ġceremony": 8362,
    "Ġbrook": 13052,
    "Ġinstinctively": 13462,
    "Ġtipped": 17729,
    "aunt": 8371,
    "Ġflorid": 17137,
    "Ġbarely": 16937,
    "Ġvalue": 2086,
    "Ġcarn": 17823,
    "Ġdrawings": 14724,
    "about": 3588,
    "Ġrelating": 2703,
    "Ġforster": 5229,
    "happ": 3102,
    "Ġdom": 2659,
    "adequ": 11021,
    "sure": 5522,
    "him": 1941,
    "pil": 15410,
    "Ġindustry": 18838,
    "Ġlingered": 13507,
    "Ġunnecessary": 8854,
    "abounding": 25980,
    "ipelag": 12846,
    "Ġvolcanoes": 24148,
    "Ġcolon": 18766,
    "Ġgradients": 611,
    "Ġineffect": 13932,
    "Ġjenkinson": 11432,
    "Ġslumbers": 18944,
    "Ġturks": 14599,
    "soft": 12513,
    "Ġdeliriously": 23234,
    "Ġwarmest": 16485,
    "Ġgave": 2220,
    "Ġorganisation": 23585,
    "Ġvincent": 15286,
    "apothe": 22340,
    "unerative": 21901,
    "Ġmisfortunes": 7042,
    "Ġfading": 15587,
    "Ġ*/": 10375,
    "Ġdwelt": 12609,
    "Ġdomestic": 6909,
    "Ġevangelist": 20341,
    "Ġpliny": 11828,
    "Ġconclude": 8583,
    "crow": 9592,
    "Ġblush": 14404,
    "Ġcountess": 11967,
    "behaviour": 11302,
    "Ġstigma": 25792,
    "Ġdisliked": 12895,
    "bit": 3933,
    "Ġconverts": 2805,
    "Ġchristians": 13312,
    "Ġgaped": 13969,
    "Ġairy": 23321,
    "disinterested": 23503,
    "boards": 23258,
    "Ġsl": 1498,
    "Ġbeggars": 20632,
    "meant": 7923,
    "Ġunclad": 22059,
    "passing": 14814,
    "franch": 24285,
    "Ġknob": 24406,
    "embedding": 20360,
    "Ġcrests": 25686,
    "Ġvalley": 5851,
    "Ġcaravan": 26292,
    "Ġcocked": 12911,
    "Ġbye": 12742,
    "Ġgi": 15669,
    "Ġincredible": 9517,
    "Ġpaints": 23525,
    "Ġconse": 21809,
    "otograph": 5827,
    "Ġhope": 1791,
    "Ġploughing": 26261,
    "intervals": 10639,
    "Ġdrive": 5054,
    "Ġfills": 12598,
    "erate": 7149,
    "Ġinde": 7370,
    "time": 3146,
    "yes": 984,
    "imitably": 21715,
    "Ġrud": 8479,
    "fre": 5425,
    "dilig": 17284,
    "rosings": 15647,
    "Ġimaginary": 11187,
    "Ġlogic": 13081,
    "Ġpole": 6433,
    "embow": 21936,
    "Ġmes": 17798,
    "quarried": 24948,
    "irect": 5552,
    "sec": 6153,
    "croquet": 25748,
    "omely": 21643,
    "ocratic": 17246,
    "Ġnoting": 18222,
    "waiting": 12224,
    "Ġweb": 9242,
    "bery": 9789,
    "Ġhaven": 8475,
    "Ġwool": 19436,
    "Ġirreproachable": 24918,
    "Ġskilfully": 20527,
    "Ġseemingly": 9320,
    "inu": 1115,
    "ifford": 15787,
    "Ġcontemplate": 19894,
    "loaded": 22517,
    "Ġgrasping": 12169,
    "Ġfactory": 23280,
    "osing": 3691,
    "Ġcontinues": 18812,
    "Ġwight": 12557,
    "conclusion": 25672,
    "Ġcontract": 18476,
    "Ġdesperate": 7777,
    "Ġimplicit": 19961,
    "ureau": 10228,
    "ational": 5716,
    "just": 1700,
    "distinctive": 25726,
    "ustration": 2263,
    "Ġcarelessly": 11121,
    "herfield": 3632,
    "dan": 17516,
    "Ġrags": 18646,
    "ezing": 10575,
    "Ġconfirmation": 17212,
    "Ġdeliberation": 19972,
    "Ġdream": 3539,
    "by": 1158,
    "Ġcontrive": 16013,
    "Ġunp": 12776,
    "Ġcharacter": 2793,
    "Ġener": 10897,
    "occurred": 13341,
    "umbrance": 22123,
    "Ġduring": 874,
    "Ġdamning": 19141,
    "Ġguiltless": 16941,
    "Ġstumble": 26483,
    "thin": 14099,
    "arthly": 8031,
    "Ġnuts": 17954,
    "Ġcustody": 13650,
    "doom": 23380,
    "https": 11687,
    "Ġcirculation": 16419,
    "Ġbuilt": 8302,
    "Ġconsideration": 5190,
    "Ġwaited": 4908,
    "Ġsadly": 7301,
    "Ġcrowd": 6337,
    "Ġdeterm": 1271,
    "iltrated": 19308,
    "arthy": 4823,
    "beer": 22493,
    "hairs": 20906,
    "Ġwhites": 21721,
    "Ġvenerable": 9096,
    "Ġfamous": 5255,
    "begone": 12882,
    "boiling": 19001,
    "travelling": 24337,
    "Ġwriting": 4667,
    "Ġpreventing": 883,
    "Ġindign": 6174,
    "Ġthread": 14540,
    "early": 20122,
    "pity": 17628,
    "entirely": 7782,
    "decease": 25558,
    "Ġepisode": 26349,
    "Ġmiles": 3804,
    "rained": 5161,
    "apparat": 22849,
    "appre": 14373,
    "Ġdines": 21427,
    "Ġdevelopments": 23252,
    "Ġtorn": 6001,
    "Ġlight": 1701,
    "spears": 23945,
    "classes": 12139,
    "obey": 11511,
    "Ġaudacity": 19884,
    "Ġlimber": 16480,
    "Ġsomehow": 4842,
    "ext": 917,
    "super": 5945,
    "Ď": 207,
    "inct": 3293,
    "Ġparties": 7039,
    "Ġlungless": 24864,
    "prob": 7070,
    "atically": 2731,
    "Ġdy": 2481,
    "Ġbal": 1130,
    "Ġpledge": 11602,
    "Ġstrainings": 24629,
    "Ġthomson": 26455,
    "paper": 9138,
    "Ġfiery": 6870,
    "past": 8091,
    "Ġamply": 22488,
    "Ġstriking": 6089,
    "unlike": 18159,
    "Ġacres": 14315,
    "Ġangelic": 19630,
    "Z": 62,
    "Ġcoming": 2617,
    "Ġenquired": 21945,
    "Ġheads": 3742,
    "alleging": 23030,
    "Ġindisc": 16230,
    "skirted": 24488,
    "Ġexerted": 15758,
    "Ĳ": 243,
    "Ġpyramids": 15117,
    "Ġfar": 1450,
    "!âĢĿâĢĶ": 8534,
    "Ġloves": 10916,
    "proportion": 16182,
    "large": 6627,
    "ten": 1554,
    "complained": 25840,
    "Ġbanish": 15573,
    "loud": 11502,
    "Ġdaring": 8122,
    "Ġpositives": 4316,
    "fully": 2206,
    "Ġplacid": 11829,
    "stem": 572,
    "Ġexpose": 10329,
    "Ġtooth": 9194,
    "Ġanguish": 5582,
    "Ġan": 286,
    "iners": 4936,
    "Ġrent": 11641,
    "eland": 11622,
    "Ġexordium": 26493,
    "door": 6194,
    "Ġxxxii": 24975,
    "Ġjug": 12839,
    "circumstance": 7764,
    "cad": 17506,
    "anche": 10789,
    "Ġoily": 13866,
    "ber": 884,
    "Ġlavater": 20499,
    "Ġforgotten": 5679,
    "Ġhing": 11606,
    "Ġstudded": 18967,
    "harpooneer": 8692,
    "quis": 7872,
    "creator": 26382,
    "drawers": 19389,
    "Ġchief": 3382,
    "Ġblue": 3454,
    "Ġdazz": 11596,
    "Ġblackstone": 23392,
    "itous": 13869,
    "station": 10845,
    "Ġinquiries": 5678,
    "ounding": 22398,
    "Ġstudent": 14476,
    "Ġporpoise": 7107,
    "Ġdirection": 1794,
    "Ġruins": 16161,
    "achel": 7032,
    "Ġintrusion": 12769,
    "sne": 10126,
    "Ġbehold": 5048,
    "Á": 130,
    "ius": 5789,
    "Ġes": 8773,
    "Ġdominion": 16517,
    "Ġsung": 23276,
    "Ġdriven": 6199,
    "Ġvillains": 14751,
    "ondescript": 22921,
    "Ġscenari": 22292,
    "Ġbroadened": 23988,
    "Ġthunders": 15641,
    "rel": 3755,
    "roads": 17960,
    "iasm": 8062,
    "coat": 5407,
    "ithmetic": 18064,
    "qu": 368,
    "madly": 24419,
    "Ġaims": 15498,
    "const": 5940,
    "Ġconn": 9231,
    "Ġtestament": 23219,
    "amous": 15764,
    "Ġincom": 9771,
    "Ġrack": 9314,
    "Ġeither": 2603,
    "Ġderision": 16312,
    "achment": 5464,
    "Ġdec": 641,
    "re": 266,
    "inople": 13831,
    "iny": 4293,
    "favourite": 15146,
    "Ġsolicitude": 10042,
    "Ġpri": 5814,
    "Ġbucket": 8791,
    "distinction": 19574,
    "Ġnewfound": 22936,
    "Ė": 215,
    "bedstead": 23935,
    "Ġfret": 10807,
    "Ġbending": 12589,
    "ol": 362,
    "ariously": 18528,
    "Ġpugnacious": 26452,
    "Ġastr": 15496,
    "Ġmirror": 12381,
    "Ġinput": 609,
    "Ġcolt": 11045,
    "Ġchewed": 16375,
    "Ġapt": 9157,
    "Ġscornful": 25001,
    "Ġglobe": 6077,
    "achine": 612,
    "Ġhardy": 8568,
    "conjectures": 25181,
    "hors": 9600,
    "Ġdeliciousness": 24128,
    "Ġomen": 11578,
    "Ġalow": 18102,
    "Ġspare": 5101,
    "Ġident": 2244,
    "wam": 10137,
    "attached": 11938,
    "bolts": 11421,
    "Ġpages": 15611,
    "Ġchamois": 16801,
    "Ġcommunicating": 16890,
    "van": 7815,
    "Ġmccarthy": 5144,
    "occupations": 24969,
    "enesis": 24387,
    "Ġstowing": 18074,
    "grammar": 6435,
    "Ġbounds": 9920,
    "orers": 14105,
    "Ġqueens": 16704,
    "involved": 25627,
    "irmed": 9241,
    ".--": 20748,
    "ampling": 12730,
    "Ġhatter": 4111,
    "Ġflowers": 8942,
    "Ġbackbone": 22662,
    "kington": 11204,
    "fanc": 20866,
    "Ġmar": 1309,
    "prep": 9761,
    "Ġprofession": 6208,
    "Ġfavours": 23285,
    "Ġsporting": 17000,
    "Ġtomorrow": 21517,
    ",âĢĶâĢĺ": 23805,
    "Ġmeek": 21814,
    "Ġallegor": 25546,
    "Ġteased": 18803,
    "Ġstabilizing": 3658,
    "insula": 23071,
    "excuse": 13384,
    "Ġequality": 16361,
    "kin": 7132,
    "algorithm": 3929,
    "Ġsoliloquized": 17304,
    "Ġblack": 2033,
    "Ġcam": 10163,
    "Ġanomaly": 25637,
    "adr": 6994,
    "Ġtension": 13826,
    "Ġunc": 2129,
    "Ġskull": 6289,
    "Ġaint": 17745,
    "Ġsculpture": 26017,
    "Ġthings": 1964,
    "Ġblock": 2574,
    "Ġpapa": 10658,
    "Ç": 136,
    "Ġshaping": 22008,
    "ations": 709,
    "Ġboxed": 24359,
    "enger": 10774,
    "Ġsuperstitious": 13522,
    "Ġharm": 5016,
    "revol": 12544,
    "Ġrevenge": 5452,
    "Ġbl": 1191,
    "ccess": 3183,
    "mutually": 26137,
    "Ġhorribly": 16344,
    "Ġcig": 6520,
    "Ġfacet": 15588,
    "Ġdownst": 3560,
    "Ġcharm": 4546,
    "enance": 3372,
    "purse": 20028,
    "Ġaustrian": 24301,
    "Ġarrowy": 25470,
    "Ġregularization": 1178,
    "sleeves": 26110,
    "elstrom": 17984,
    "something": 4284,
    "Ġwore": 6377,
    "Ġtremendous": 8354,
    "Ġsweetest": 13251,
    "hus": 5071,
    "Ġisol": 8837,
    "ich": 470,
    "Ġwisest": 11233,
    "Ġcheap": 13092,
    "Ġflavor": 16255,
    "atively": 2694,
    "Ġchannels": 26014,
    "requiem": 24857,
    "Ġwestern": 10656,
    "Ġlays": 15992,
    "impetuous": 23766,
    "tum": 11533,
    "nights": 16448,
    "jacket": 12295,
    "Ġcontroverted": 23255,
    "Ġundec": 22024,
    "cost": 19189,
    "Ġsinks": 19552,
    "Ġdimmed": 24269,
    "Ġconversation": 3331,
    "Ġall": 422,
    "Ġmention": 2985,
    "Ġexactness": 23606,
    "Ġjumped": 7097,
    "lop": 20950,
    "Ġquitted": 5311,
    "Ġtread": 9411,
    "ck": 436,
    "Ġberyls": 25776,
    "treat": 12517,
    "Ġtacit": 21177,
    "abri": 6683,
    "uture": 1049,
    "Ġserious": 4321,
    "Ġcurses": 13015,
    "winding": 16721,
    "esley": 17922,
    "Ġquar": 3111,
    "Ġdust": 5910,
    "precedented": 15177,
    "Ġdefinition": 14406,
    "'m": 9584,
    "leisure": 21374,
    "Ġcurrents": 13016,
    "Ġforenoon": 19127,
    "Ġfate": 4753,
    "Ġadmiration": 5328,
    "Ġnarrative": 6216,
    "emed": 3381,
    "Ġproceeds": 12081,
    "Ġimagenet": 19248,
    "Ġang": 2512,
    "uy": 21102,
    "Ġvintage": 26211,
    "Ġcashier": 20201,
    "Ġinattention": 17934,
    "Ġexhausted": 8697,
    "go": 2063,
    "caterpillar": 26384,
    "Ġyoungster": 23183,
    "ca": 20795,
    "whis": 7900,
    "tort": 17676,
    "Ġfeeds": 16436,
    "Ġlouder": 13471,
    "Ġduplicate": 17217,
    "Ġalluding": 18237,
    "Ġnearly": 3363,
    "Ġwaylaid": 22878,
    "Ġinquisitive": 26318,
    "Ġmercy": 9000,
    "Ġunnearable": 26517,
    "Ġdisposing": 19378,
    "Ġbiggest": 24566,
    "specim": 23947,
    "particular": 5757,
    "Ġfired": 16157,
    "Ġvictory": 16655,
    "Ġacquies": 11098,
    "Ġhatchway": 13527,
    "Ġhoped": 5488,
    "Ġstri": 2803,
    "se": 357,
    "Ġlethar": 21751,
    "Ġlacepede": 20498,
    "Ġnum": 1347,
    "lies": 15384,
    "iles": 2860,
    "Ġinconvenience": 9565,
    "jaw": 13745,
    "Ġhob": 12633,
    "elag": 12662,
    "capable": 13704,
    "Ġobject": 1394,
    "Ġfeeble": 12287,
    "Ġresemblance": 7975,
    "Ġtossings": 25357,
    "Ġconst": 1911,
    "fisher": 7547,
    "Ġdrawling": 19440,
    "Ġhedges": 19988,
    "tural": 21069,
    "Ġproxim": 3201,
    "Ġhopkins": 23133,
    "Ġtaller": 16688,
    "Ġomn": 8412,
    "ifiable": 18166,
    "Ġsoftmax": 1690,
    "Ġmust": 842,
    "Ġextremities": 19198,
    "Ġhospitals": 24924,
    "Ġblanche": 18821,
    "Ġslaughter": 20732,
    "Ġunfelt": 24111,
    "flame": 16639,
    "Ġclimax": 25054,
    "requ": 7148,
    "utherland": 9580,
    "Ġreveries": 11348,
    "crane": 24088,
    "arians": 18527,
    "Ġknee": 7094,
    "Ġunusually": 15849,
    "ision": 1855,
    "Ġimmensities": 25331,
    "Ġsqualidness": 25844,
    "Ġcetace": 14990,
    "admit": 18093,
    "elopement": 23196,
    "aint": 2541,
    "Ġsymmetrical": 20370,
    "Ġoutlaws": 22328,
    "Ġmuch": 923,
    "Ġinduced": 8674,
    "Ġinstructions": 11196,
    "âĢĿ": 353,
    "Ġheedful": 19743,
    "spread": 8390,
    "Ġgodfre": 14530,
    "Ġmarked": 4619,
    "Ġmottled": 20681,
    "anatory": 21366,
    "Ġfisherman": 12079,
    "Ċ": 203,
    "Ġshudderings": 25201,
    "Ġcolder": 22859,
    "Ġgoat": 16009,
    "Ġpitiless": 19391,
    "Ġwards": 17791,
    "Ġpromote": 23197,
    "counters": 25398,
    "Ġlittle": 868,
    "reast": 17759,
    "shuff": 18485,
    "Ġhatchet": 16531,
    "Ġpebbles": 16132,
    "Ġhailing": 11696,
    "Ġassociation": 24710,
    "deepest": 22865,
    "ience": 791,
    "Ġwakes": 11574,
    "Ġcobbler": 25831,
    "Ġspitz": 14150,
    "Ġflap": 14424,
    "Ġslammed": 20451,
    "Ġsped": 22131,
    "Ġbrains": 2629,
    "carpet": 25203,
    "Ġwhither": 10216,
    "Ġdraw": 3673,
    "Ġrecorded": 11294,
    "ę": 218,
    "Ġrenew": 6146,
    "bbed": 6910,
    "Ġincalcul": 16069,
    "Ġappears": 5402,
    "Ġdissuade": 26258,
    "mell": 20966,
    "Ġdil": 6383,
    "Ġbelly": 10371,
    "Ġencourage": 10382,
    "Ġlun": 7857,
    "Ġhabitations": 24788,
    "Ġjew": 9469,
    "Ġusual": 3944,
    "Ġprosecuted": 25294,
    "Ġspurn": 18310,
    "Ġrespectively": 23251,
    "Ġadmeasurements": 26227,
    "emic": 18187,
    "Ġburns": 16524,
    "portent": 25413,
    "Ġdeposit": 17270,
    "Ġhilarious": 20301,
    "Ġdiffidence": 14660,
    "Ġholmes": 1306,
    "forty": 9376,
    "wr": 3027,
    "Ġly": 2272,
    "Ġreverend": 15262,
    "Ġnarrow": 5085,
    "pres": 16031,
    "ayed": 12716,
    "instinct": 19546,
    "Ġthreshold": 2808,
    "remote": 23193,
    "wedding": 12525,
    "ricade": 13042,
    "Ġscowl": 22290,
    "magn": 10612,
    "elsewhere": 19870,
    "Ġretort": 23075,
    "Ġluc": 3312,
    "Ġjobs": 24833,
    "Ġpostponed": 20393,
    "Ġtinted": 13824,
    "Ġproposals": 10615,
    "Ġpop": 5150,
    "Ġknowingly": 18483,
    "Ġantichron": 24183,
    "killing": 20944,
    "Ġboomer": 20170,
    "tacit": 21101,
    "Ġthrees": 23404,
    "Ġplanted": 9776,
    "Ġturner": 7050,
    "Ġdusty": 14927,
    "empty": 23637,
    "readily": 19365,
    "beloved": 19464,
    "Ġfaced": 10809,
    "Ġnerve": 16342,
    "Ġnourishment": 15195,
    "scra": 13026,
    "decided": 13218,
    "torm": 11532,
    "opard": 9293,
    "enjoyment": 17259,
    "naught": 20996,
    "civility": 17514,
    "Ġcomprehended": 11295,
    "inuating": 16205,
    "Ġadroop": 26002,
    "Ġtossed": 5816,
    "hen": 3518,
    "abez": 10224,
    "anthrop": 17384,
    "Ġleaving": 3904,
    "Ġworshipped": 25692,
    "Ġvers": 7563,
    "Ġinsurgents": 26601,
    "cut": 3123,
    "Ġhandsomest": 20337,
    "Ġfootpaths": 26319,
    "Ġquoted": 22420,
    "Ġpul": 2041,
    "Ġrotterdam": 25476,
    "Ġgrec": 18962,
    "Ġsoft": 1460,
    "Ġtro": 7355,
    "Ġdavy": 25952,
    "Ġproposal": 10021,
    "crowning": 25749,
    "Ġ73": 24262,
    "pencil": 18829,
    "Ġleaning": 5227,
    "Ġcrown": 5288,
    "pon": 17626,
    "Ġaunt": 3177,
    "Ġequ": 1737,
    "Ġinexperience": 26100,
    "Ġmarry": 4417,
    "etuous": 21587,
    "affection": 7487,
    "Ġdeft": 21841,
    "Ġfolio": 11921,
    "enth": 6681,
    "Ġcountryside": 23598,
    "orial": 8419,
    "Ġsmoky": 22564,
    "itory": 12571,
    "cat": 15326,
    "Ġoutward": 7906,
    "bow": 5424,
    "Ġpatter": 828,
    "Ġcoat": 4553,
    "Ġpartner": 6715,
    "Ġrecollected": 8312,
    "Ġlearnedly": 23389,
    "Ġvoy": 2619,
    "lid": 20947,
    "Ġpoints": 5248,
    "obser": 11100,
    "Ġeddy": 13549,
    "Ġtransparent": 9491,
    "deli": 15347,
    "Ġeste": 6085,
    "Ġdirected": 5578,
    "penetrating": 25491,
    "Ġopportunity": 4786,
    "fury": 17548,
    "Ġmut": 3583,
    "Ġcowardice": 17032,
    "razor": 21641,
    "Ġgreenland": 5761,
    "Ġstern": 4188,
    "comrade": 18739,
    "Ġ25": 13197,
    "Ġcensured": 25097,
    "Ġlibraries": 20617,
    "jewel": 20349,
    "Ġwade": 17786,
    "Ġsleet": 8977,
    "Ġtand": 21163,
    "acled": 16066,
    "Ġbennets": 9808,
    "Ġimmersed": 19488,
    "Ġsemicirc": 16395,
    "sentence": 2938,
    "Ġlitter": 19832,
    "humour": 7498,
    "Ġmoonshine": 19600,
    "Ġnosegay": 24194,
    "Ġprogramming": 1185,
    "Ġenveloped": 12212,
    "Ġimmense": 4951,
    "Ġshares": 23249,
    "scenes": 16248,
    "stranger": 9885,
    "congreg": 25399,
    "Ġdetermination": 9821,
    "Ġpepper": 9783,
    "Ġcoppers": 22590,
    "flour": 23969,
    "Ġstrata": 26028,
    "Ġtobacco": 8368,
    "Ġimputed": 12812,
    "icherry": 15138,
    "Ġintroduce": 3207,
    "Ġfrom": 434,
    "Ġoldest": 12977,
    "Ġroot": 2649,
    "groom": 8743,
    "Ġlets": 18079,
    "ste": 3585,
    "oled": 17620,
    "Ġrecogn": 2582,
    "Ġguilty": 7249,
    "lovel": 22516,
    "Ġdl": 3377,
    "Ġtribes": 20484,
    "Ġsupers": 18279,
    "Ġcontinental": 19708,
    "Ġtheore": 1829,
    "Ġunearthly": 9038,
    "Ġheedfulness": 24521,
    "zetts": 17715,
    "create": 24161,
    "Ġinev": 10183,
    "Ġpowdered": 24239,
    "Ġupdates": 1298,
    "Ġuncounted": 19118,
    "Ġpluck": 15617,
    "Ġsain": 17751,
    "Ġjem": 18403,
    "Ġavenue": 13624,
    "Ġhandsomer": 20336,
    "Ġcity": 4528,
    "Ġdrawer": 13270,
    "Ġenglishman": 11230,
    "Ġobserv": 8589,
    "Ġreturn": 1712,
    "Ġsatisfied": 4171,
    "consist": 14818,
    "simp": 17666,
    "Ġentitled": 8540,
    "eu": 17531,
    "Ġtransc": 12867,
    "Ġlinen": 12410,
    "Ġparm": 15880,
    "Ġvancou": 22881,
    "Ġastronomy": 25927,
    "burnt": 20083,
    "Ġmic": 17799,
    "am": 367,
    "Ġincident": 6281,
    "Ġreligions": 20111,
    "Ġexplained": 5937,
    "engine": 18929,
    "Ġoff": 902,
    "Ġexamples": 2604,
    "Ġfishes": 11593,
    "pleasant": 5875,
    "suggested": 17301,
    "Ġpost": 4272,
    "Ġperceptible": 18453,
    "je": 11497,
    "Ġfixedly": 19250,
    "Ġsympt": 7013,
    "Ġadvancement": 24474,
    "Ġsay": 932,
    "aver": 6785,
    "...": 24548,
    "tram": 19646,
    "Ġpon": 10177,
    "shone": 22448,
    "Ġburg": 23656,
    "Ġunrestingly": 20364,
    "ily": 1032,
    "france": 24283,
    "Ġsummits": 14684,
    "Ġrenewal": 12238,
    "commod": 16172,
    "passenger": 24168,
    "Ġentrapped": 26264,
    "Ġpurch": 6600,
    "Ġunbroken": 18251,
    "ef": 5133,
    "Ġfought": 12597,
    "Ġflat": 8229,
    "Ġfluctuating": 24416,
    "Ġunprotected": 22072,
    "maltese": 24794,
    "Ġimbalance": 22179,
    "stiff": 12679,
    "erness": 6434,
    "supervised": 1930,
    "Ġassure": 4418,
    "Ġsullenly": 17174,
    "entric": 11621,
    "discernible": 20553,
    "Ġamuse": 5941,
    "Ġrefusing": 11029,
    "Ġdeserts": 10509,
    "springs": 24912,
    "silence": 8046,
    "54": 15302,
    "accomplishments": 25327,
    "Ġconcerning": 4068,
    "Ġrejection": 19987,
    "Ġcommon": 1412,
    "Ġdecision": 2674,
    "gro": 10096,
    "Ġfire": 2334,
    "med": 1915,
    "itaries": 21339,
    "Ġexclaiming": 13644,
    "nearer": 22469,
    "ulged": 12734,
    "my": 1314,
    "Ġjapanese": 10635,
    "rival": 12747,
    "meditated": 19072,
    "Ġasks": 5114,
    "Ġforged": 12708,
    "Ġrain": 5004,
    "tedious": 22637,
    "Ġtreatise": 19348,
    "Ġbell": 4635,
    "Ġsaucer": 20608,
    "Ġclubs": 25180,
    "Ġdreaded": 8290,
    "ornamented": 26596,
    "'(": 2978,
    "Ġjavelins": 26106,
    "ĠÂ£": 5005,
    "pair": 21014,
    "Ġmoss": 9286,
    "orus": 10802,
    "etite": 21583,
    "causes": 20346,
    "Ġdecided": 5471,
    "Ġresisted": 22546,
    "Ġpart": 860,
    "Ġtumb": 21172,
    "sius": 13790,
    "reputable": 15519,
    "Ġben": 1106,
    "Ġcaprice": 14577,
    "footsteps": 25200,
    "foam": 24417,
    "race": 11633,
    "Ġsqueaking": 26276,
    "Ġblessings": 24178,
    "Ġdespise": 14667,
    "Ġwrong": 4723,
    "Ġchili": 25562,
    "Ġsettle": 6294,
    "Ġarab": 7824,
    "Ġreposing": 23365,
    "unbe": 21877,
    "Ġpyth": 21464,
    "ctic": 8444,
    "Ġathirst": 20601,
    "Ġoffices": 14340,
    "afraid": 10442,
    "Ġresearch": 3193,
    "Ġwiping": 25766,
    "anxiously": 15113,
    "Ġequilib": 4135,
    "Ġpott": 21471,
    "Ġsleepers": 13152,
    "Ġdetached": 10281,
    "Ġfairer": 20465,
    "Ġpublished": 11242,
    "Ġsurrounded": 5880,
    "Ġbrist": 14380,
    "Ġmerid": 13198,
    "suff": 4960,
    "Ġweaving": 12744,
    "elson": 16376,
    "detached": 19677,
    "Ġevap": 19626,
    "sat": 4810,
    "cence": 9590,
    "slo": 17657,
    "Ġrivers": 9444,
    "Ġmightiest": 12964,
    "Ġtells": 9364,
    "commencement": 26350,
    "flutter": 23974,
    "Ġhandy": 12941,
    "matlock": 23471,
    "Ġcurly": 18845,
    "Ġpredecess": 18519,
    "Ġhedge": 8365,
    "Ġincreased": 2214,
    "Ġrides": 21976,
    "Ġdiff": 3113,
    "Ġscheduling": 2350,
    "sombre": 23857,
    "Ġvehemence": 26567,
    "angling": 14142,
    "Ġbetake": 22911,
    "Ġadjacent": 20713,
    "consider": 6349,
    "grey": 14914,
    "acup": 14261,
    "Ġspades": 12800,
    "Ġinfamy": 14503,
    "Ġjealousy": 13579,
    "Ġfilial": 16621,
    "Ġcath": 17828,
    "Ġbegged": 8232,
    "akers": 9742,
    "itude": 1416,
    "Ġtemporarily": 11168,
    "Ġagony": 5388,
    "arat": 9182,
    "brim": 23577,
    "Ġtearing": 14396,
    "Ġgross": 11627,
    "lleg": 20953,
    "Ġnecessity": 7295,
    "trees": 10732,
    "Ġseen": 1367,
    "Ġdownstairs": 11225,
    "uling": 2261,
    "Ġ49": 24084,
    "ubbub": 23247,
    "Ġsight": 2113,
    "Ġbloodless": 19341,
    "Ġdiagon": 24739,
    "Ġcame": 1299,
    "Ġtruce": 24116,
    "screen": 23002,
    "vig": 15448,
    "Ġsupp": 1267,
    "Ġsinging": 7724,
    "mccarthy": 15397,
    "Ġpurchasing": 19877,
    "Ġreminding": 19800,
    "Ġhurling": 19112,
    "Ġswords": 19899,
    "alle": 1293,
    "neys": 23584,
    "apan": 6859,
    "ception": 6563,
    "roqu": 21538,
    "spirit": 11314,
    "Ġafforded": 8030,
    "Ġagrees": 22521,
    "etence": 21581,
    "Ġfragment": 14505,
    "ordinary": 4407,
    "Ġpaths": 2568,
    "Ġcom": 369,
    "Ġdiscomp": 11869,
    "iline": 21725,
    "Ġgnashed": 20136,
    "Ġcollected": 2610,
    "moved": 9787,
    "Ġparent": 14646,
    "Ġorlop": 22098,
    "anations": 12580,
    "Ġpushing": 10820,
    "Ġwhir": 6393,
    "Ġpence": 17905,
    "Ġmankind": 6699,
    "Ġfrequencies": 4789,
    "Ġenthusiastic": 19969,
    "lled": 10109,
    "Ġassoc": 6402,
    "Ġdisclose": 16159,
    "Ġdivin": 13277,
    "Ġstarting": 7729,
    "abular": 4761,
    "along": 6014,
    "ato": 17770,
    "very": 499,
    "Ġenumerating": 15247,
    "assuming": 22315,
    "utes": 5915,
    "elaborate": 21580,
    "murderer": 13396,
    "Ġsings": 15507,
    "Ġstarlight": 24628,
    "Ġcaucus": 17382,
    "bourine": 9398,
    "Ġdisapprobation": 16061,
    "Ġmerely": 3771,
    "Ġwhitt": 18057,
    "Ġfrigates": 25707,
    "compliment": 11365,
    "Ġstrugg": 3219,
    "Ġdying": 2140,
    "Ġsquatted": 25843,
    "black": 6768,
    "recollect": 17225,
    "Ġreplen": 11116,
    "Ġfiled": 15583,
    "Ġsongs": 13423,
    "Ġfamilies": 8028,
    "sander": 11528,
    "Ġbolts": 16944,
    "Ġobsc": 7040,
    "henomena": 20275,
    "produce": 20285,
    "Ġsemantics": 2893,
    "Ġbeheld": 4491,
    "Ġdeficiencies": 26571,
    "Ġsurrounding": 12166,
    "igation": 5919,
    "Ġczar": 12578,
    "classification": 4387,
    "Ġadapted": 11038,
    "cod": 12447,
    "ensing": 12903,
    "interval": 7992,
    "Ġh": 290,
    "Ġrelates": 12985,
    "Ġdelusion": 18975,
    "Ġtrack": 7449,
    "Ġwidespread": 20678,
    "Ġsubterranean": 13614,
    "useless": 14595,
    "Ġane": 9183,
    "Ġdaybreak": 18727,
    "Ġindignity": 18834,
    "Ġinglorious": 24423,
    "Ġhalts": 3159,
    "Ġindelible": 25695,
    "Ġhangs": 11608,
    "Ġblacksmith": 6596,
    "Ġnormal": 1204,
    "Ġallows": 3234,
    "operation": 13503,
    "Ġ1869": 19387,
    "Ġcompat": 2937,
    "waist": 13421,
    "Ġtars": 21167,
    "Ġrugged": 18721,
    "powerful": 24848,
    "Ġconfirming": 25322,
    "Ġhorror": 3773,
    "Ġcuriosities": 26291,
    "Ġcigar": 9547,
    "Ġfoot": 3162,
    "Ġgibberish": 25787,
    "Ġafore": 10759,
    "Ġcommencement": 12242,
    "path": 10120,
    "reliable": 21243,
    "_.âĢĶ": 23474,
    "Ġperson": 2371,
    "Ġkra": 18349,
    "Ġbil": 15568,
    "Ġtops": 14587,
    "Ġbound": 3519,
    "embraces": 25806,
    "Ġ50": 24314,
    "Ġhagger": 21495,
    "Ġevince": 24294,
    "Ġproofs": 19817,
    "Ġgurg": 15676,
    "fatality": 25022,
    "atiable": 17775,
    "americ": 8157,
    "Ġstratag": 26029,
    "Ġclasses": 4054,
    "telescope": 26563,
    "Ġbillows": 7502,
    "Ġwardrobe": 17227,
    "una": 21874,
    "Ġjan": 11765,
    "ougher": 18276,
    "ful": 658,
    "entreaties": 26187,
    "etent": 10201,
    "damn": 20027,
    "Ġpedd": 17910,
    "Ġoverthrow": 18433,
    "Ġalan": 10870,
    "Ġcaliforn": 14433,
    "Ġplaymate": 23640,
    "Ġabsolutely": 4858,
    "Ġheaven": 3365,
    "Ġpublic": 4331,
    "reporting": 24493,
    "Ġbubbles": 11399,
    "io": 3802,
    "peddling": 21034,
    "spite": 16143,
    "Ġbedroom": 7276,
    "enthus": 17980,
    "Ġlogits": 3450,
    "Ġdelineate": 26058,
    "Ġhar": 5815,
    "Ġsinew": 25432,
    "test": 13794,
    "Ġease": 5629,
    "Ġredu": 1354,
    "anxiety": 25159,
    "Ġgrat": 4056,
    "Ġcake": 12574,
    "nostril": 26560,
    "histicated": 20903,
    "ernity": 18614,
    "shipmates": 11931,
    "oment": 921,
    "ache": 8519,
    "Ġregal": 16078,
    "Ġwake": 4748,
    "urried": 21708,
    "Ġmanilla": 15962,
    "Ġburgled": 23658,
    "Ġsemicircle": 26068,
    "Ġandrew": 21511,
    "gabriel": 15363,
    "Ġutterance": 14765,
    "Ġazure": 12377,
    "Ġfellows": 8258,
    "Ġinex": 6528,
    "oard": 4809,
    "opening": 10314,
    "Ġtech": 1654,
    "outside": 12808,
    "jaws": 20934,
    "acknowledged": 15205,
    "Ġstrangely": 5677,
    "Ġmitigates": 3051,
    "lucas": 15154,
    "ama": 11679,
    "Ġcharnel": 22257,
    "viating": 14579,
    "Ġgreenness": 23770,
    "Ġwait": 4907,
    "isl": 21378,
    "Ġbefell": 14012,
    "Ġbattered": 17864,
    "Ġoverl": 18429,
    "Ġrate": 1065,
    "Ġfreshly": 23990,
    "Ġuttering": 16463,
    "Ġberths": 20118,
    "Ġshamefully": 24715,
    "Ġintermission": 18589,
    "Ġdrenched": 12607,
    "isted": 3300,
    "peaceful": 20450,
    "Ġpaunch": 23751,
    "Ġjury": 5378,
    "Ġuniversally": 12002,
    "Ġstead": 5650,
    "Ġconveyed": 8336,
    "Ġhop": 1462,
    "Ġcommun": 1707,
    "Ġbridegroom": 10606,
    "pled": 7894,
    "================================": 5671,
    "arus": 13914,
    "tomb": 21096,
    "Ġsocks": 14135,
    "asons": 6016,
    "Ġidentical": 10435,
    "Ġwearing": 12743,
    "nlp": 8754,
    "Ġpyramid": 8805,
    "Ġglobules": 26589,
    "eon": 8733,
    "bots": 10084,
    "Ġyawn": 7610,
    "ging": 2600,
    "biqu": 17499,
    "====": 1484,
    "uses": 11764,
    "itive": 6670,
    "Ġhorr": 3190,
    "whenever": 11884,
    "Ġencl": 16168,
    "Ġunfulfilled": 26510,
    "rebellum": 26166,
    "Ġwooing": 19437,
    "trans": 5593,
    "rious": 11691,
    "Ġcontingency": 26246,
    "Ġstrateg": 1355,
    "Ġspecial": 2104,
    "self": 616,
    "Ġattaining": 15806,
    "deav": 2672,
    "Ġtexture": 19162,
    "ply": 6366,
    "Ġsimpleton": 16337,
    "inexplicable": 25810,
    "Ġlinks": 13957,
    "Ġ(`": 12856,
    "Ġguide": 3218,
    "joice": 9604,
    "Ġwildest": 16511,
    "Ġravings": 18647,
    "Ġroofs": 16986,
    "Ġfinal": 5400,
    "Ġpovelson": 26553,
    "âĢĶ(": 15941,
    "Ġdeeper": 2085,
    "ortion": 11760,
    "Ġocean": 3305,
    "Ġmoody": 8202,
    "ches": 2151,
    "Ġsublimity": 26348,
    "Ġelias": 18635,
    "Ġsimpler": 2048,
    "Ł": 258,
    "Ġasc": 4764,
    "Ġ}": 21156,
    "Ġpaltry": 16692,
    "Ġdecomposes": 5506,
    "Ġund": 4117,
    "Ġ56": 24319,
    "Ġpredicted": 2045,
    "Ġperformance": 1305,
    "acet": 5474,
    "Ġtalk": 1971,
    "Ġreceive": 4703,
    "Ġseems": 2484,
    "pires": 13777,
    "Ġromish": 19587,
    "aphys": 15204,
    "Ġconcentration": 25065,
    "Ġvelv": 10621,
    "first": 3935,
    "Ġinsanity": 12050,
    "angle": 22109,
    "itching": 21338,
    "osed": 1963,
    "_?âĢĿ": 15308,
    "Ġordered": 5833,
    "Ġtul": 21162,
    "inlaid": 21193,
    "oul": 4698,
    "Ġbedrooms": 19973,
    "Ġspanish": 2827,
    "Ġpewter": 17187,
    "Ġshade": 6551,
    "Ġtransparency": 10678,
    "Ġunhappily": 18263,
    "Ġswallows": 18884,
    "ings": 631,
    "supernatural": 19782,
    "omist": 21642,
    "partner": 19223,
    "Ġnarr": 5084,
    "Ġvalidation": 2358,
    "inders": 15983,
    "twelve": 14623,
    "nns": 1894,
    "Ġscream": 5936,
    "acters": 9311,
    "calling": 12453,
    "Ġventure": 7740,
    "edy": 2857,
    "Ġgrieved": 8299,
    "Ġpersist": 16282,
    "this": 1439,
    "Ġfaulty": 14909,
    "Ġdears": 18139,
    "Ġinstrument": 7119,
    "Ġfeather": 8862,
    "Ġreeling": 18035,
    "Ġbaw": 15572,
    "liberal": 26283,
    "tribute": 21091,
    "ă": 196,
    "dishonourable": 26367,
    "ds": 4687,
    "dman": 10090,
    "Ġcreaking": 14332,
    "endured": 22228,
    "Ġshoot": 11162,
    "Ġillinois": 19138,
    "both": 5785,
    "Ġlearnt": 7615,
    "Ġforcibly": 10063,
    "disp": 7978,
    "blades": 24132,
    "tch": 9143,
    "neighbours": 24882,
    "Ġnon": 1626,
    "Ġscarcity": 23830,
    "Ġsord": 21222,
    "Ġthinkings": 22816,
    "Ġneglig": 18880,
    "Ġmending": 17806,
    "Ġinfidel": 13091,
    "Ġdexter": 9703,
    "obedience": 17412,
    "Ġpurely": 12235,
    "testing": 12520,
    "recognised": 15265,
    "Ġoar": 6237,
    "_:": 17480,
    "Ġont": 18119,
    "Ġderived": 8240,
    "pra": 15409,
    "iest": 4036,
    "Ġvoyagings": 19238,
    "cupboards": 25402,
    "Ġfireside": 23532,
    "Ġlurk": 13386,
    "surv": 24215,
    "Ġfainted": 8795,
    "Ġtoss": 10186,
    "Ġpigs": 19750,
    "Ġamiss": 18513,
    "Ġcran": 12003,
    "alike": 17945,
    "Ġbewil": 11659,
    "ainted": 3660,
    "Ġcertainty": 6735,
    "Ġhieroglyphic": 25588,
    "Ġavowed": 16635,
    "Ġmemory": 2279,
    "spir": 5738,
    "Ġunprovided": 18261,
    "sooner": 14779,
    "Ġcircumnavigating": 25615,
    "useness": 22297,
    "Ġchivalry": 25820,
    "Ġcomplying": 18586,
    "scene": 14422,
    "ills": 1631,
    "Ġfiends": 14830,
    "Ġgroaned": 11266,
    "Ġbarbary": 24218,
    "Ġinstances": 5567,
    "Ġrag": 18642,
    "apter": 1194,
    "ibilities": 13012,
    "pillar": 5618,
    "eps": 12795,
    "Ġphant": 7056,
    "dream": 8731,
    "Ġfavour": 3643,
    "resolved": 9641,
    "Ġhated": 7585,
    "Ġplying": 17914,
    "Ġmach": 13859,
    "Ġpropag": 16350,
    ")": 13,
    "tranqu": 14708,
    "Ġdressing": 7091,
    "Ġcries": 7154,
    "Ġjewels": 12372,
    "Ġvultures": 25654,
    "nels": 12499,
    "Ġconflagration": 26366,
    "detective": 24382,
    "Ġcontrad": 9757,
    "erring": 11058,
    "Ġevangel": 11281,
    "Ġstained": 11654,
    "Ġhookah": 16971,
    "Ġwer": 12556,
    "Ġpillow": 10040,
    "Ġintrospective": 20603,
    "itably": 10783,
    "Ġundiscernible": 22073,
    "oubtedly": 6942,
    "beings": 12880,
    "Ġlandowner": 23384,
    "caut": 20814,
    "choose": 23676,
    "Ġdrunk": 9426,
    "Ġancest": 12618,
    "plenty": 14090,
    "Ġowes": 20088,
    "Ġunfl": 22025,
    "Ġwield": 21293,
    "fishermen": 17062,
    "Ġvineyarder": 25607,
    "pervised": 1587,
    "Ġoffences": 18694,
    "Ġramadans": 25122,
    "bath": 13692,
    "Ġeffectively": 2766,
    "throne": 25658,
    "pinn": 21028,
    "woods": 13422,
    "Ġbones": 4583,
    "Ġincorruption": 26310,
    "Ġcastles": 16641,
    "sufficient": 6637,
    "Ġexposing": 11836,
    "itor": 12570,
    "strongly": 24685,
    "find": 6953,
    "Ġhesitation": 13444,
    "informed": 17737,
    "Ġinterlacing": 22582,
    "andering": 21872,
    "Ġowner": 8924,
    "Ġwaxed": 21300,
    "Ġintervening": 17269,
    "Ġmerits": 13199,
    "iards": 17575,
    "exper": 8881,
    "Ġinfat": 14501,
    "Ġenthusiasm": 8066,
    "pidation": 18895,
    "Ġexposure": 16099,
    "ading": 5090,
    "Ġrighted": 23182,
    "Ġinstruct": 2863,
    "Ġchron": 19441,
    "Ġhark": 8430,
    "Ġfunctions": 1340,
    "Ġminutest": 14561,
    "Ġw": 272,
    "Ġgret": 21605,
    "Ġdomineer": 23648,
    "Ġfootman": 8289,
    "ieved": 3231,
    "Ġag": 684,
    "Ġgardens": 16453,
    "ientiously": 21946,
    "twill": 21077,
    "Ġdispersed": 16598,
    "tips": 13798,
    "wore": 21127,
    "measureless": 20238,
    "Ġpalm": 10515,
    "endom": 15922,
    "Ġmud": 11575,
    "Ġspectator": 19409,
    "Ġmixed": 6974,
    "ibility": 2393,
    "Ġrighteous": 18948,
    "nnight": 20995,
    "Ġethics": 15464,
    "mency": 18928,
    "Ġfields": 2146,
    "Ġcele": 9902,
    "ined": 1262,
    "anywhere": 14683,
    "Ġramad": 8529,
    "Ġbruised": 25773,
    "Ġvariation": 22669,
    "Ġlastly": 16207,
    "Ġminimizes": 2047,
    "Ġcoleman": 22592,
    "Ġgangway": 20161,
    "apse": 14200,
    "Ġacts": 2297,
    "Ġlook": 880,
    "Ġjones": 7203,
    "icit": 3379,
    "Ġwelfare": 12563,
    "Ġjournal": 15221,
    "Ġbrightened": 23832,
    "Ġsoc": 3527,
    "Ġmedicine": 15209,
    "Ġdrove": 4983,
    "_).âĢĶ": 8685,
    "Ġflesh": 5970,
    "Ġmiscellaneous": 17464,
    "Ġstrand": 11831,
    "Ġwasn": 6997,
    "Ġgazing": 5877,
    "ertion": 12043,
    "Ġwail": 21289,
    ".": 18,
    "angry": 18295,
    "Ġdevilish": 11229,
    "Ġdestroying": 14731,
    "raved": 18015,
    "Ġplaned": 24059,
    "Ġcontradictory": 20400,
    "ooped": 17624,
    "Ġtowed": 11265,
    "unhes": 21880,
    "Ġcompensated": 17403,
    "Ġintellig": 524,
    "Ġdur": 11594,
    "Ġpossessed": 5194,
    "Ġcask": 5527,
    "Ġweeks": 4564,
    "Ġhansom": 13667,
    "antly": 1989,
    "seam": 10875,
    "Ġbit": 2963,
    "Ġviciss": 11293,
    "Ġvoids": 25808,
    "Ġdeductions": 19735,
    "rowing": 7932,
    "haustible": 16892,
    "Ġdependency": 3487,
    "Ġmulti": 1043,
    "usually": 10287,
    "Ġsavor": 23878,
    "Ġprodigy": 19795,
    "prises": 23817,
    "Ġfetched": 24567,
    "Ġcrystall": 20229,
    "Ġchaos": 17010,
    "Ġlongbourn": 3509,
    "Ġdetective": 14416,
    "Ġdreamed": 16631,
    "Ġchanges": 2289,
    "Ġcrash": 12004,
    "Ġradiant": 16810,
    "writer": 14649,
    "Ġvalu": 5037,
    "hatches": 19930,
    "Ġfangs": 12601,
    "Ġislanders": 19505,
    "Ġmilitia": 13321,
    "bos": 17485,
[...]
