{
  "metadata": {
    "vocab_size": 26613,
    "algorithm": "BPE",
    "created_at": "2026-07-02 05:57:38",
    "special_tokens": [
      "<PAD>",
      "<SOS>",
      "<EOS>",
      "<UNK>",
      "<MASK>"
    ]
  },
  "vocab": {
    "Ġclap": 10955,
    "Ġemploy": 3612,
    "Ġhumped": 19768,
    "Ġdesc": 772,
    "Ġclung": 10956,
    "continue": 16860,
    "Ġbus": 1905,
    "foreign": 18544,
    "oo": 7553,
    "fulness": 4309,
    "pl": 401,
    "Ġchambers": 16798,
    "Ġobliter": 14320,
    "Ġdynam": 3267,
    "heat": 15495,
    "Ġinst": 914,
    "hur": 6648,
    "buck": 17489,
    "Ġbo": 795,
    "Ġaghast": 16044,
    "fra": 8375,
    "asets": 2311,
    "Ġselves": 21221,
    "88": 20757,
    "Ġaside": 5234,
    "felt": 5889,
    "Ġhairs": 13228,
    "moonlight": 25375,
    "Ġrecognition": 2727,
    "ituted": 13871,
    "Ġcame": 1298,
    "aside": 10190,
    "Ġcompatibility": 2956,
    "Ġelemental": 19918,
    "Ġgeorge": 3747,
    "frantic": 24282,
    "Ġresnet": 5473,
    "Ġgentlemen": 3639,
    "hue": 20898,
    "Ġsurpr": 2552,
    "ĠĠĠĠĠĠĠĠĠĠĠĠĠĠĠĠĠĠĠĠĠĠĠĠĠĠĠĠĠĠĠĠĠĠ": 14613,
    "Ġcoer": 22579,
    "Ġvindictive": 20468,
    "meditated": 19069,
    "Ġresume": 18565,
    "Ġreport": 6191,
    "isc": 6239,
    "ĠlinnÃ¦us": 15273,
    "Ġlink": 8130,
    "sa": 8756,
    "Ġbasics": 13446,
    "Ġnewton": 3531,
    "Ġaffecting": 2324,
    "Ġraft": 16111,
    "mers": 9609,
    "Ġacquiescence": 20329,
    "Ġdeputation": 21838,
    "assertion": 22309,
    "Ġwinter": 5220,
    "ister": 1293,
    "Ġslippery": 12163,
    "ignorantly": 25189,
    "ca": 20792,
    "perai": 10275,
    "i": 77,
    "fortunate": 4792,
    "Ġshaded": 14103,
    "Ġpondicherry": 20489,
    "Ġproduct": 3532,
    "Ġtrance": 12837,
    "libra": 22923,
    "Ġlogits": 3447,
    "laz": 15383,
    "Ġconsist": 1934,
    "Ġinfallible": 15068,
    "sombre": 23852,
    "ounted": 5030,
    "Ġappetite": 12381,
    "Ġliberties": 19666,
    "Ġthinks": 6169,
    "Ġinsulated": 23678,
    "Ġsticks": 14929,
    "Ġobey": 9517,
    "Ġassuming": 16692,
    "Ġpasseng": 12967,
    "Ġpoints": 5248,
    "tastes": 21095,
    "Ġclust": 9272,
    "Ġexh": 5232,
    "Ġontario": 26205,
    "Ġpods": 17914,
    "Ġquite": 1742,
    "Ġfearfully": 23511,
    "magnificent": 20273,
    "Ġslighter": 18939,
    "Ġmor": 1247,
    "Ġglad": 3324,
    "Ġvalley": 5850,
    "Ġallowed": 4059,
    "aits": 20765,
    "Ġserene": 8167,
    "bro": 4035,
    "Ġenchanting": 17038,
    "Ġrecall": 3855,
    "Ġsuccor": 25662,
    "Ġtongs": 9959,
    "Ġtarget": 2821,
    "Ġign": 8295,
    "Ġkrus": 18349,
    "ver": 331,
    "taught": 17683,
    "Ġperman": 10962,
    "Ġeasterly": 25962,
    "Ġsanction": 20024,
    "Ġgamming": 25542,
    "wed": 5003,
    "aim": 2757,
    "Ġbeads": 18083,
    "Ġwondered": 11123,
    "break": 6101,
    "Ġrival": 10484,
    "bitts": 26122,
    "tra": 4934,
    "according": 12025,
    "Ġdefe": 21834,
    "Ġtransformations": 3482,
    "Ġeyeing": 6460,
    "strang": 11181,
    "Ġlazily": 11378,
    "Ġafforded": 8029,
    "determination": 19943,
    "Ġfuss": 13903,
    "acquainted": 7313,
    "clearer": 24064,
    "Ġglimpse": 6944,
    "Ġgaping": 13967,
    "Ġjing": 15946,
    "eded": 9672,
    "Ġwhichever": 13998,
    "Ġfootpath": 19337,
    "Ġordinary": 6097,
    "Ġwheel": 9716,
    "Ġguiding": 19240,
    "Ġtea": 5041,
    "street": 6495,
    "Ġdepartment": 24240,
    "heartedness": 24827,
    "Ġwondrous": 4735,
    "bert": 4663,
    "Ġexperiments": 23036,
    "Ġfingertips": 24014,
    "consuming": 25674,
    "Ġchips": 14180,
    "gun": 10095,
    "Ġele": 1962,
    "fever": 22499,
    "Ġdirty": 9177,
    "Ġimposed": 14209,
    "Ġalternate": 19984,
    "Ġdiminished": 16664,
    "Ġremain": 1873,
    "udding": 11862,
    "Ġbanners": 24858,
    "yth": 983,
    "gged": 3775,
    "soldiers": 25911,
    "Ġannihilation": 15163,
    "Ġdomin": 10461,
    "Ġjewels": 12366,
    "Ġaright": 11737,
    "Ġmeanings": 18607,
    "Ġperry": 22394,
    "ues": 2081,
    "asis": 12646,
    "8": 28,
    "ifted": 4495,
    "Ġcoaxing": 18600,
    "Ġreturning": 5325,
    "Ġcamp": 9163,
    "Ġflower": 16229,
    "Ġclimb": 15077,
    "Ġdifficulties": 11223,
    "ip": 556,
    "Ġtelegra": 11885,
    "Ġcheek": 8577,
    "Ġlatin": 16820,
    "Ġsequentially": 4914,
    "Ġflashes": 11913,
    "Ġoppressive": 20454,
    "please": 8177,
    "sorrows": 17318,
    "Ġwater": 1947,
    "wealth": 22686,
    "Ġquee": 1981,
    "cause": 7796,
    "Ġshoreless": 24294,
    "moor": 22702,
    "numbers": 17615,
    "ief": 2046,
    "Ġsatire": 22900,
    "locked": 7678,
    "quickly": 14960,
    "Ġearls": 18903,
    "Ġbale": 7839,
    "Ġunfitted": 24106,
    "Ġalb": 14014,
    "Ġpleadings": 25852,
    "rule": 15891,
    "Ġfaces": 6009,
    "Ġcontrive": 16007,
    "Ġrecorded": 11291,
    "Ġscandinavian": 26344,
    "Ġtrifling": 10601,
    "fts": 18698,
    "inaw": 21182,
    "ilated": 18057,
    "Ġswallows": 18883,
    "Ġgreedy": 3051,
    "rum": 3412,
    "Ġnasty": 17441,
    "Ġinstrument": 7118,
    "cast": 2925,
    "Ġinnovative": 1651,
    "plumed": 21953,
    "principal": 20659,
    "Ġhun": 1495,
    "ý": 190,
    "Ġlifted": 6985,
    "enchant": 21282,
    "Ġ6": 5141,
    "unwilling": 14059,
    "peculiar": 6886,
    "athies": 22700,
    "g": 75,
    "divided": 25018,
    "bec": 4053,
    "Ġyes": 2690,
    "Ġjustify": 11070,
    "aching": 5831,
    "watery": 19825,
    "Ġvolcanoes": 24143,
    "Ġanalog": 12608,
    "Ġeff": 684,
    "Ġkeenly": 9483,
    "oldened": 22637,
    "Ġgreedily": 18965,
    "usal": 7638,
    "aught": 2681,
    "drowned": 17367,
    "Ġhomeless": 23385,
    "Ġnine": 5369,
    "method": 17283,
    "Ġtort": 5902,
    "Ġvarying": 15807,
    "Ġlydia": 2375,
    "neath": 12862,
    "Ġshortened": 23483,
    "Ġhydraul": 9512,
    "ouching": 13175,
    "Ġsenseless": 12075,
    "Ġhelpless": 8302,
    "Ġloomings": 24949,
    "iron": 3806,
    "aware": 16292,
    "Ġstill": 1156,
    "Ġendeavors": 16544,
    "authority": 13589,
    "Ġstrasburgh": 18614,
    "Ġirre": 7468,
    "Ġdisd": 7030,
    "dev": 7632,
    "Ġtag": 15466,
    "Ġbroom": 18906,
    "Ġastonished": 7087,
    "surprising": 16918,
    "princ": 8620,
    "Ġdumplings": 15188,
    "Ġhumble": 8550,
    "Ġutter": 3973,
    "Ġmarred": 23029,
    "Ġcrumpled": 16440,
    "Ġenemies": 9037,
    "Ġsneering": 24697,
    "Ġwhaler": 7520,
    "Ġdeb": 4764,
    "cele": 21623,
    "Ġ22": 8279,
    "frightened": 17194,
    "ter": 359,
    "Ġmartyr": 26360,
    "intimate": 22935,
    "Ġprecise": 7075,
    "merchant": 10466,
    "tracks": 19637,
    "iable": 3332,
    "Ġshine": 12762,
    "Ġxiv": 23406,
    "Ġincarnate": 20373,
    "Ġcreaking": 14328,
    "Ġapproach": 854,
    "Ġcountryside": 23595,
    "Ġtables": 9876,
    "Ġpile": 8424,
    "arians": 18526,
    "acceptable": 25184,
    "Ġpresuming": 16792,
    "Ġretains": 20028,
    "cottagers": 20046,
    "Ġcare": 1639,
    "Ġrendered": 5773,
    "Ġunwell": 22015,
    "Ġcurios": 18853,
    "anted": 5027,
    "Ġclerks": 17293,
    "coarse": 16485,
    "Ġplat": 8520,
    "Ġdoomed": 11340,
    "Ġproportions": 16466,
    "Ġbutterfly": 19909,
    "ney": 2495,
    "Ġunconsciously": 10003,
    "Ġviolates": 3164,
    "ellent": 3760,
    "uring": 818,
    "ontory": 10458,
    "Ġrnns": 2396,
    "Ġcutting": 4983,
    "Ġspind": 18307,
    "Ġwants": 5742,
    "Ġindifference": 6725,
    "oton": 3604,
    "Ġacquaintances": 17348,
    "Ġunabated": 15849,
    "Ġintermix": 22575,
    "maltese": 24795,
    "ios": 2280,
    "flies": 19422,
    "Ġwonderful": 4564,
    "oquent": 12496,
    "Ġhome": 2029,
    "achel": 7032,
    "Ġfashions": 17885,
    "Ġpricking": 23223,
    "danish": 20832,
    "ember": 1955,
    "Ġmeddling": 24079,
    "Ġsurmisings": 26592,
    "Ġservant": 5764,
    "Ġexpost": 18624,
    "fatig": 17088,
    "itance": 13866,
    "iences": 6957,
    "Ġmaddening": 17242,
    "Ġecon": 9676,
    "Ġshoot": 11159,
    "phology": 3004,
    "Ġsof": 18275,
    "nearer": 22448,
    "Ġxvi": 19104,
    "Ġpaws": 13919,
    "Ġscholar": 26111,
    "Ġpregn": 22226,
    "Ġsqueeze": 10037,
    "mbles": 23087,
    "adr": 6994,
    "Ġremorselessly": 16966,
    "Ġheadsman": 13272,
    "akness": 14193,
    "Ġhorizont": 6937,
    "echo": 15346,
    "Ġthen": 665,
    "urre": 10854,
    "Ġutilize": 4798,
    "Ġgods": 6454,
    "Ġcloud": 3910,
    "Ġmaintains": 2145,
    "Ġverses": 17062,
    "Ġamply": 22476,
    "suitable": 18635,
    "code": 15327,
    "Ă": 195,
    "whip": 22235,
    "fo": 5278,
    "Ġbewitched": 25975,
    "aze": 10073,
    "Ġpunctual": 17136,
    "Ġplaguy": 22602,
    "Ġactions": 6278,
    "four": 6113,
    "farewell": 12303,
    "far": 5787,
    "Ġmercifully": 20177,
    "Ġgurglings": 26464,
    "decoder": 3641,
    "Ġfreshet": 25704,
    "abulary": 4800,
    "merely": 16131,
    "Ġcanoe": 9721,
    "less": 930,
    "Ġprogen": 14037,
    "diminished": 20838,
    "pal": 9615,
    "beaut": 8512,
    "Ġhappy": 2468,
    "Ġchamounix": 14862,
    "sales": 17666,
    "Ġfath": 7364,
    "aming": 5828,
    "ugues": 19023,
    "Ġthickest": 16653,
    "Ġmariner": 7247,
    "drown": 13702,
    "illar": 5101,
    "gaining": 20122,
    "Ġsly": 9631,
    "otograph": 5826,
    "Ġgoes": 3852,
    "Ġejaculation": 20253,
    "admirably": 24944,
    "Ġpallid": 12296,
    "Ġunde": 11709,
    "getting": 12963,
    "Ġdistrusting": 25053,
    "Ġfurthest": 22814,
    "mystical": 25317,
    "dearest": 11732,
    "Ġinnumerable": 13349,
    "desk": 23208,
    "escape": 16004,
    "nnight": 20992,
    "umbling": 6758,
    "Ġcourt": 4167,
    "Ġcemet": 20679,
    "Ġprime": 10403,
    "Ġstaff": 14004,
    "Ġcocked": 12900,
    "Ġ91": 24590,
    "Ġexclam": 6757,
    "Ġdisgracing": 26255,
    "Ġalso": 1345,
    "Ġsubmitted": 11868,
    "21": 10070,
    "Ġchemist": 11132,
    "Ġfertile": 20581,
    "Ġuniformly": 19147,
    "Ġalche": 21781,
    "consult": 24167,
    "Ġbund": 17863,
    "Ġauxiliary": 26417,
    "Ġrepresented": 8937,
    "Ġreusable": 13555,
    "meth": 11500,
    "vanity": 24976,
    "Ġendow": 23141,
    "Ġapoplexy": 25265,
    "mblance": 7323,
    "Ġbox": 5109,
    "actually": 14293,
    "Ġhams": 16611,
    "Ġintimately": 24804,
    "vent": 682,
    "Ġexception": 11214,
    "sensible": 20050,
    "isk": 9166,
    "lest": 5288,
    "robust": 19726,
    "Ġheedfully": 24520,
    "Ġpalms": 8643,
    "Ġpoland": 23616,
    "Ġoccupant": 16650,
    "ed": 293,
    "Ġ1": 1016,
    "Ġpeaceful": 9454,
    "Ġcorrespondence": 10593,
    "âĢĶâĢĻ": 8188,
    "Ġepistle": 24904,
    "kicked": 20942,
    "Ġresented": 22541,
    "Ġeigenvalues": 4998,
    "Ġapothe": 12372,
    "!âĢĿâĢĶ": 8532,
    "Ġvisitors": 7985,
    "Ġdromedary": 17437,
    "Ġdeemed": 7614,
    "Ġscrewing": 20207,
    "dirty": 20833,
    "Ġcrater": 16437,
    "Ġtent": 15465,
    "cstasy": 11443,
    "Ġsticking": 13425,
    "Ġcobb": 14270,
    "olog": 1077,
    "Ġinno": 1446,
    "convolutional": 4958,
    "Ġsouth": 4911,
    "Ġoffences": 18693,
    "Ġear": 1421,
    "Ġnetherfield": 3929,
    "startled": 24941,
    "Ġcomo": 21852,
    "Ġtrous": 10957,
    "Ġspite": 4154,
    "ourselves": 9009,
    "Ġwas": 370,
    "Ġfour": 2216,
    "Ġfamily": 1966,
    "increas": 10453,
    "Ġfa": 4819,
    "Ġbored": 16102,
    "Ġinsensibility": 17109,
    "ek": 1908,
    "Ġghastly": 10058,
    "Ġinvented": 17036,
    "humoured": 11234,
    "romising": 18233,
    "tomb": 21092,
    "Ġtelescope": 17346,
    "Ġdelicacy": 6340,
    "herfield": 3627,
    "Ġoffered": 5816,
    "Ġdedicated": 19220,
    "Ġamerican": 5061,
    "Ġcommenced": 8531,
    "otence": 14021,
    "stealthily": 23959,
    "Ġgard": 2189,
    "Ġcounter": 6481,
    "elastic": 17980,
    "cheeks": 23806,
    "Ġgilt": 21604,
    "Ġexordium": 26491,
    "Ġrescue": 13340,
    "ructed": 7027,
    "Ġ23": 13188,
    "lott": 6650,
    "desc": 1393,
    "Ġsporting": 16998,
    "Ġafghan": 22628,
    "coiled": 16484,
    "Ġsanguine": 25928,
    "lins": 2027,
    "Ġappar": 7411,
    "driven": 19770,
    "Ġcoroner": 7510,
    "Ġpennies": 17269,
    "asion": 5714,
    "Ġ29": 23728,
    "Ġease": 5629,
    "ounts": 4652,
    "Ġsphere": 15879,
    "Ġsp": 457,
    "satisfy": 16891,
    "Ġlabels": 3285,
    "Ġspades": 12792,
    "umps": 6317,
    "Ġestablished": 9068,
    "Ġconcent": 8250,
    "flying": 13719,
    "Ġ76": 24261,
    "Ġcharley": 19007,
    "Ġplacing": 8899,
    "max": 1685,
    "Ġpolitely": 8993,
    "twelve": 14621,
    "Ġwildly": 9412,
    "amuse": 14050,
    "Ġforgotten": 5679,
    "larger": 24201,
    "Ġmalady": 24391,
    "Ġdiffer": 18679,
    "about": 3584,
    "Ġshan": 9247,
    "Ġunprofitable": 18267,
    "Ġcupboard": 16882,
    "tered": 2231,
    "Ġlustre": 15132,
    "Ġbestowing": 16970,
    "hereabouts": 23605,
    "Ġnovel": 6695,
    "Ġequilib": 4135,
    "ises": 3650,
    "Ġundergone": 18986,
    "Ġcetacea": 20552,
    "judging": 24200,
    "accomplishment": 20222,
    "Ġpaid": 5015,
    "Ġflu": 3275,
    "Ġnoah": 10940,
    "Ġabruptly": 15148,
    "Ġgenealogies": 25961,
    "Ġdignity": 5704,
    "Ġstrife": 18613,
    "tinted": 17682,
    "Ġjabez": 11763,
    "Ġdenny": 9000,
    "ench": 21278,
    "happened": 9431,
    "Ġcomputers": 2648,
    "Ġviolet": 19089,
    "Ġtemperate": 16159,
    "Ġnaval": 16898,
    "Ġmincer": 14364,
    "Ġconfining": 23305,
    "Ġclaw": 22346,
    "oce": 10713,
    "Ġsmitten": 12895,
    "Ġtipped": 17727,
    "Ġcaulk": 25440,
    "Ġworship": 10365,
    "Ġskill": 6872,
    "Ġspoken": 4836,
    "Ġjanuary": 13651,
    "Ġplaying": 6909,
    "Ġserpents": 13074,
    "Ġwoe": 4793,
    "50": 6784,
    "Ġdisastrous": 16056,
    "Ġje": 4122,
    "Ġconsume": 12954,
    "mind": 4627,
    "freely": 16853,
    "Ġgate": 6825,
    "Ġiterate": 13197,
    "Ġtremulous": 14984,
    "Ġyellowish": 24429,
    "Ġterribly": 10424,
    "Ġfogs": 25282,
    "Ġlim": 2383,
    "figure": 13553,
    "complacency": 19913,
    "reasoning": 9474,
    "Ġskilfully": 20522,
    "Ġdistinctions": 18533,
    "Ġobstin": 14951,
    "Ġnearer": 5301,
    "Ġtroubled": 6615,
    "Ġexplore": 15906,
    "desirable": 23209,
    "Ġharpooning": 23976,
    "achusetts": 20709,
    "claims": 25319,
    "Ġcrucial": 9891,
    "Ġconn": 9228,
    "wearing": 22685,
    "Ġholmes": 1306,
    "Ġmanifold": 13558,
    "Ġbars": 13895,
    "win": 6801,
    "Ġboots": 5943,
    "peculiarities": 13469,
    "Ġadduced": 26523,
    "treasures": 26152,
    "Ġexploration": 2336,
    "lected": 1637,
    "ashing": 4824,
    "Ġgravel": 14100,
    "Ġcontinent": 14886,
    "base": 20776,
    "Ġdominion": 16526,
    "sacred": 17027,
    "hob": 20899,
    "interred": 23735,
    "Ġalphabetical": 17200,
    "ooping": 21006,
    "Ġasking": 5651,
    "Ġlinear": 3430,
    "Ġfleet": 9430,
    "ental": 7168,
    "Ġcustody": 13645,
    "fen": 20849,
    "Ġconversation": 3328,
    "oration": 2209,
    "Ġeditions": 19120,
    "Ġcollinses": 19129,
    "lipped": 16214,
    "sick": 13782,
    "Ġinterp": 16066,
    "brain": 13685,
    "Ġlabours": 8582,
    "Ġbriskly": 25311,
    "Ġbreath": 4791,
    "Ġimmort": 19482,
    "os": 526,
    "Ġadvertise": 25388,
    "Ġbankers": 24301,
    "yond": 2330,
    "Ġvenom": 24237,
    "Ġilliter": 23467,
    "Ġmartin": 25436,
    "Ġemployment": 8628,
    "Ġinterests": 14568,
    "Ġmonoman": 7939,
    "Ġdevilish": 11226,
    "hook": 12050,
    "Ġchoosing": 19589,
    "Ġbitterly": 8315,
    "sof": 17656,
    "Ġimprudently": 22380,
    "Ġju": 10285,
    "Ġglanced": 5952,
    "Ġhumans": 8928,
    "reputable": 15515,
    "Ġphilist": 16600,
    "Ġattraction": 18619,
    "yellow": 9623,
    "cav": 17506,
    "Ġtermination": 16459,
    "Ġshadow": 5595,
    "Ġasse": 8160,
    "âĢľ_": 5720,
    "erred": 6376,
    "Ġlabeled": 3717,
    "Ġkrusenstern": 20713,
    "Ġrelics": 16192,
    "arity": 1300,
    "Ġwhirling": 12245,
    "flagged": 23969,
    "Ġfar": 1450,
    "Ġescapes": 23507,
    "arily": 4125,
    "Ġelephants": 9862,
    "leg": 2814,
    "ickering": 22668,
    "Ġrescales": 5068,
    "idious": 11660,
    "ighted": 8476,
    "Ġobsc": 7039,
    "Ġrevenue": 26194,
    "Ġchimney": 6497,
    "Ġpolitics": 19224,
    "ilities": 6991,
    "nns": 1893,
    "Ġweld": 8112,
    "Ġshipwreck": 20444,
    "Ġbounded": 16625,
    "icorn": 15653,
    "Ġbought": 8416,
    "Ġpersuasions": 16630,
    "Ġpermanent": 13629,
    "Ġseized": 4833,
    "engagements": 25853,
    "swift": 14850,
    "Ġemergencies": 17360,
    "Ġott": 13864,
    "Ġtremor": 24768,
    "Ġinfluences": 14863,
    "bular": 15311,
    "Ġpreyed": 18365,
    "aways": 15308,
    "Ġwharf": 9558,
    "spoke": 11022,
    "fool": 9046,
    "ingu": 2120,
    "Ġinherit": 25352,
    "cture": 15661,
    "bowed": 10682,
    "Ġcelerity": 17434,
    "Ġjot": 11760,
    "Ġfetched": 24566,
    "Ġhollow": 5648,
    "Ġmans": 15533,
    "hearse": 17747,
    "Ġheadland": 22897,
    "Ġrare": 7037,
    "welcomed": 24644,
    "Ġped": 6817,
    "rowing": 7931,
    "Ġpatentee": 25586,
    "Ġflock": 21410,
    "Ġaust": 4871,
    "Ġwor": 1188,
    "blazing": 24129,
    "Ġwhether": 2001,
    "Ġoverhead": 11770,
    "lat": 9603,
    "Ġ1836": 25721,
    "Ġreser": 5170,
    "irm": 3106,
    "Ġlur": 5226,
    "Ġunsolved": 22031,
    "Ġjenkinson": 11429,
    "Ġtierce": 15476,
    "ibbald": 18841,
    "Ġrepresentations": 1875,
    "Ġsophisticated": 1510,
    "Ġsafer": 22173,
    "small": 6472,
    "questions": 16759,
    "Ġhiding": 9821,
    "Ġassur": 6074,
    "elf": 565,
    "rr": 17649,
    "jar": 17576,
    "Ġrelapses": 26278,
    "Ġuppermost": 15276,
    "Ġsuggest": 5417,
    "Ġdesp": 3214,
    "offended": 16390,
    "Ġprompted": 23814,
    "rium": 3131,
    "Ġnaturalist": 22879,
    "Ġsufferer": 16256,
    "accents": 19210,
    "Ġright": 1504,
    "several": 5543,
    "Ġgorge": 13564,
    "inte": 5144,
    "Ġcease": 7076,
    "surd": 6934,
    "steering": 16634,
    "heav": 5694,
    "ught": 2752,
    "Ġbeef": 6830,
    "Ġnupt": 13941,
    "Ġundaunted": 24117,
    "Ġimpatient": 5602,
    "Ġtuesday": 9625,
    "Ġabridged": 26539,
    "Ġsurgeon": 8980,
    "Ġsarat": 21226,
    "Ġsmoke": 4715,
    "Ġtask": 1308,
    "Ġmartial": 20290,
    "age": 501,
    "iii": 14773,
    "Ġstrides": 22613,
    "Ġresults": 7308,
    "Ġent": 904,
    "mistress": 14903,
    "Ġpretended": 19312,
    "han": 12469,
    "Ġ1000": 3115,
    "Ġlikelihood": 16498,
    "embra": 14072,
    "Ġdefault": 3034,
    "Ġdiscover": 4718,
    "Ġ235": 25713,
    "Ġtoward": 17946,
    "Ġshri": 5375,
    "ased": 1265,
    "worthy": 7733,
    "Ġpictured": 16621,
    "Ġunlock": 18243,
    "boast": 23250,
    "Ġtasselled": 25921,
    "Ġsaints": 20673,
    "eliest": 14744,
    "Ġensl": 19273,
    "ilies": 18056,
    "Ġgleaming": 24995,
    "Ġloft": 5642,
    "Ġangrily": 9405,
    "Ġsacrilege": 26229,
    "east": 9114,
    "Ġinquir": 4240,
    "Ġattentively": 9948,
    "Ġwinds": 5746,
    "Ġdraughts": 20220,
    "Ġhorizontally": 17011,
    "Ġlandau": 16417,
    "nuts": 15396,
    "nin": 17607,
    "urous": 10211,
    "etime": 12655,
    "Ġfire": 2333,
    "ote": 4597,
    "rably": 21631,
    "overlooked": 23323,
    "sculptured": 26046,
    "'": 11,
    "datasets": 11955,
    "Ġaudio": 24772,
    "Ġsho": 2245,
    "Ġmus": 3394,
    "Ġprocedural": 12028,
    "Ġnarrations": 24351,
    "Ġdarcy": 1344,
    "Ġpitied": 14690,
    "Ġpriests": 15039,
    "Ġhues": 21487,
    "Ġdreamed": 16628,
    "Ġindependent": 9014,
    "Ġshade": 6550,
    "Ġprinciples": 10009,
    "Ġboasted": 16103,
    "Ġinitials": 11012,
    "Ġpractice": 2572,
    "lying": 7174,
    "Ġtruck": 19510,
    "salesman": 20670,
    "«": 109,
    "af": 2379,
    "enged": 23145,
    "Ġrepel": 23358,
    "ĠĠĠĠĠĠĠĠĠĠĠĠĠĠĠĠĠĠĠĠĠĠĠĠĠĠĠĠĠĠĠĠ": 2740,
    "Ġdictator": 20152,
    "í": 174,
    "elsewhere": 19867,
    "Ġanat": 8124,
    "depart": 12262,
    "under": 3130,
    "ina": 21178,
    "Ġobvious": 4964,
    "ream": 2710,
    "Ġheaved": 9381,
    "Ġrevolve": 19728,
    "Ġreusability": 13556,
    "Ġswaths": 23057,
    "cru": 7126,
    "blows": 17164,
    "Ġendeavouring": 8035,
    "Ġgrimes": 11032,
    "drovand": 24760,
    "Ġvolley": 24142,
    "acted": 11008,
    "Ġdragon": 14942,
    "oney": 3046,
    "Ġsquad": 22835,
    "hit": 20888,
    "'m": 9581,
    "Ġcruellest": 19657,
    "Ġeludes": 26553,
    "Ġrecomm": 4996,
    "Ġtheoretically": 3564,
    "sleepers": 24730,
    "sequ": 2404,
    "darcy": 5208,
    "Ġunwarrantable": 26353,
    "Ġstairs": 5540,
    "nue": 15395,
    "ouncement": 11742,
    "Ġknitted": 19588,
    "Ġchis": 11747,
    "valued": 2852,
    "Ġcirculation": 16414,
    "Ġdecayed": 22823,
    "angular": 11720,
    "towards": 5002,
    "Ġmanor": 14195,
    "Ġsupplying": 19797,
    "retaining": 21244,
    "ave": 980,
    "Ġstrolled": 16769,
    "Ġcatch": 4440,
    "Ġpartner": 6714,
    "decease": 25557,
    "Ġcrumb": 16438,
    "Ġentertainment": 12219,
    "Ġwatches": 11080,
    "Ġpervers": 11780,
    "Ġbasic": 24701,
    "Ġalmighty": 18104,
    "idated": 11659,
    "Ġinterference": 8892,
    "ĳ": 244,
    "entieth": 17978,
    "spades": 14332,
    "dÃ¦mon": 17526,
    "inglass": 21301,
    "favourable": 12260,
    "collected": 13211,
    "Ġdrunkard": 20176,
    "d": 72,
    "oes": 4433,
    "Ġspires": 11727,
    "Ġpledge": 11598,
    "Ġscraps": 16901,
    "oid": 3125,
    "Ġtestimony": 14472,
    "Ġsurviv": 13433,
    "Ġforetold": 23450,
    "fare": 7799,
    "Ġ1883": 23894,
    "Ġrummaged": 16909,
    "Ġoutrage": 15955,
    "mistak": 16877,
    "took": 6164,
    "Ġmethodically": 23133,
    "Ġsimpl": 1581,
    "Ġinterest": 2248,
    "hic": 3246,
    "Ġpromethe": 14465,
    "Ġissu": 6253,
    "Ġcontemporary": 16009,
    "aw": 1449,
    "permission": 15900,
    "natured": 7110,
    "Ġvacant": 9493,
    "Ġwretchedly": 19505,
    "elevating": 20404,
    "investigations": 25533,
    "Ġremarkable": 4915,
    "Ġsquaring": 22838,
    "am": 367,
    "lashed": 20953,
    "Ġsucceed": 4546,
    "Ġwith": 349,
    "Ġtusked": 25426,
    "5": 25,
    "Ġeffects": 7236,
    "french": 9118,
    "Ġdestitute": 14565,
    "Ġtroub": 22354,
    "Ġsqualls": 17019,
    "ban": 9583,
    "Ġother": 760,
    "Ġspiritual": 9928,
    "fishers": 24928,
    "Ġcommunicative": 24547,
    "Ġdistantly": 18532,
    "Ġclergyman": 8711,
    "Ĥ": 229,
    "moving": 11015,
    "pity": 17626,
    "augh": 1784,
    "ink": 755,
    "Ġthirst": 7589,
    "Ġprodu": 1204,
    "Ġetern": 7085,
    "------": 12130,
    "cripp": 20818,
    "Ġeight": 3900,
    "Ġintu": 12759,
    "spouting": 25002,
    "function": 4520,
    "Ġmisery": 3813,
    "velled": 9874,
    "Ġlikeness": 11177,
    "Ġcomforts": 14692,
    "Ġcrew": 2498,
    "Ġkitchen": 8495,
    "Ġzodiac": 16172,
    "eff": 2536,
    "Ġearnestness": 12122,
    "Ġpassion": 4558,
    "_:": 17477,
    "conced": 22468,
    "Ġcomparable": 24277,
    "Ġremembering": 14610,
    "wor": 3413,
    "Ġlabelled": 23328,
    "Ġsurplus": 26303,
    "Ġfre": 1572,
    "ĠcÃ¦sar": 20578,
    "Ġreaders": 18914,
    "Ġfashioned": 13318,
    "Ġnearly": 3361,
    "Ġbreach": 11970,
    "encoun": 12295,
    "veil": 18042,
    "cavity": 26126,
    "intosh": 22938,
    "Ġcommunications": 16352,
    "earn": 10695,
    "Ġhinted": 6012,
    "final": 19675,
    "Ġmoot": 22428,
    "Ġomn": 8410,
    "Ġjeopard": 9941,
    "Ġfidget": 15187,
    "Ġout": 543,
    "Ġrespons": 2685,
    "Ġnapkins": 25161,
    "discoveries": 25385,
    "Ġconfidently": 24957,
    "ĠĠĠĠĠĠĠĠĠĠ": 18577,
    "Ġwick": 2006,
    "syntax": 5866,
    "extreme": 11027,
    "Ġsequel": 14355,
    "Ġbench": 7238,
    "Ġadmirers": 19685,
    "awakened": 14451,
    "buoy": 7761,
    "lu": 597,
    "ost": 5360,
    "Ġjuggler": 26366,
    "Ġcommun": 1708,
    "Ġimmemorial": 10509,
    "Ġtowed": 11263,
    "Ġunsupervised": 2571,
    "Ġspake": 18308,
    "triumph": 15438,
    "Ġequatorial": 13507,
    "Ġvalu": 5039,
    "Ġblue": 3451,
    "Ġuncouth": 14548,
    "Ġweep": 7619,
    "Ġutmost": 5496,
    "ruction": 4357,
    "Ġirresolution": 24915,
    "Ġloathsome": 13526,
    "ĠâĢĻ": 3038,
    "wretched": 10740,
    "altering": 12636,
    "ces": 579,
    "Ġgroom": 13964,
    "omnipotent": 25966,
    "rospect": 11609,
    "mate": 5358,
    "ripp": 6404,
    "Ġscatter": 18398,
    "slouched": 24556,
    "superst": 11323,
    "chemical": 23807,
    "Ġreasoning": 1983,
    "Ġdisposition": 5409,
    "Ġunique": 12774,
    "Ġdelicately": 24123,
    "ldog": 21915,
    "eties": 10836,
    "Ġsteadfast": 8678,
    "ĠĠĠĠ": 459,
    "Ġadaptation": 3154,
    "Ġbaker": 4696,
    "Ġirrevocably": 15295,
    "favourite": 15141,
    "clean": 14758,
    "crooked": 25746,
    "Ġpattern": 1354,
    "mosp": 8089,
    "Ġdangers": 12351,
    "Ġlaug": 3624,
    "Ġsuperst": 7704,
    "Ġpeep": 6870,
    "Ġrode": 15994,
    "grasping": 20638,
    "Ġavenue": 13619,
    "Ġnantucketer": 6914,
    "Ġern": 8397,
    "itoring": 21330,
    "ong": 537,
    "burnt": 20078,
    "laughing": 15177,
    "Ġlibrary": 6423,
    "Ġfee": 7199,
    "Ġstartling": 14669,
    "dwelt": 23869,
    "Ġcamberwell": 25350,
    "Ġhal": 1364,
    "Ġpossession": 5588,
    "Ġlanguage": 638,
    "importance": 9987,
    "leness": 4691,
    "Ġchall": 10942,
    "humoredly": 26324,
    "Ġbigness": 19759,
    "Ġxxxii": 24972,
    "Ġequality": 16356,
    "Ġla": 5913,
    "piled": 21014,
    "Ġmacro": 25939,
    "rench": 3966,
    "Ġgirdled": 19157,
    "urring": 21703,
    "melted": 25206,
    "Ġlumber": 13950,
    "Ġdair": 17889,
    "Ġprojected": 16868,
    "enderby": 25215,
    "Ġcondescension": 10617,
    "Ġentreated": 9949,
    "Ġveins": 8931,
    "Ġmodern": 3210,
    "Ġelevated": 7318,
    "alled": 5911,
    "Ġedinburgh": 16434,
    "Ġpropriet": 9548,
    "Ġanchored": 17438,
    "Ġhug": 6979,
    "Ġgale": 5822,
    "Ġlouisa": 13544,
    "estruct": 22221,
    "exciting": 19667,
    "Ĉ": 201,
    "Ġoldest": 12969,
    "ĠĠĠ": 2116,
    "fortune": 4975,
    "Ġnorton": 12645,
    "Ġimminent": 11242,
    "Ġweighing": 20014,
    "Ġconstantinople": 19836,
    "windibank": 24159,
    "Ġ77": 24262,
    "atived": 21261,
    "upon": 2722,
    "fig": 8734,
    "Ġanon": 9665,
    "Ġhardships": 14449,
    "Ġby": 383,
    "Ġmodel": 511,
    "Ġcheck": 7271,
    "Ġaisle": 21200,
    "Ġknights": 15147,
    "ford": 2822,
    "Ġdeparted": 5563,
    "Ġderbyshire": 6586,
    "Ġdinners": 23979,
    "Ġharmless": 9963,
    "Ġsideboard": 10384,
    "Ġcombines": 1201,
    "Ġhumbug": 18778,
    "hend": 13249,
    "Ġporpoise": 7106,
    "Ġdispersed": 16596,
    "crimin": 17507,
    "Ġrib": 4936,
    "Ġgryphon": 4299,
    "Ġdiscrimin": 2547,
    "Ġmeans": 699,
    "Ġledger": 19400,
    "punishment": 15143,
    "Ġunfav": 14786,
    "Ġshoal": 12012,
    "visible": 10532,
    "Ġmechanism": 2356,
    "bly": 6110,
    "Ġrespect": 1669,
    "Ġtaken": 2530,
    "Ġpunch": 9953,
    "Ġpurplish": 19140,
    "ement": 1500,
    "Ġice": 3601,
    "Ġvan": 1085,
    "Ġpea": 14315,
    "Ġscepticism": 25927,
    "pain": 7350,
    "mouse": 15390,
    "sory": 17658,
    "Ġresolves": 23646,
    "ument": 5240,
    "already": 6980,
    "Ġirresistible": 13110,
    "Ġlingered": 13503,
    "Ġlost": 2639,
    "Ġlightened": 23258,
    "Ġscrews": 25177,
    "Ġliar": 22406,
    "Ġsynd": 22200,
    "Ġhandsomest": 20333,
    "unable": 14057,
    "shirt": 22456,
    "Ġpretensions": 16556,
    "Ġtraverse": 18892,
    "Ġinterven": 10995,
    "Ġbottom": 3670,
    "Ġrepresent": 1210,
    "ternatural": 12711,
    "Ġ125": 24469,
    "Ġloitered": 26524,
    "Ġhovel": 8254,
    "endeavour": 17030,
    "bond": 17488,
    "waste": 21133,
    "Ġselected": 9709,
    "Ġidleness": 11142,
    "Ġhatty": 19264,
    "Ġcoldness": 23758,
    "Ġauthentic": 20533,
    "Ġchecking": 23285,
    "Ġswore": 10377,
    "forth": 9320,
    "Ġleisurely": 24746,
    "come": 2380,
    "Ġhaunt": 18197,
    "Ġbegrim": 23015,
    "Ġbanish": 15566,
    "ories": 4753,
    "dramatic": 19383,
    "Ġdeer": 12716,
    "Ġcig": 6520,
    "Ġrifts": 21973,
    "Ġwig": 9160,
    "Ġconcentration": 25062,
    "Ġtogether": 1879,
    "rapidly": 15241,
    "Ġmerely": 3769,
    "Ġravines": 25831,
    "Ġsundering": 23273,
    "Ġwondering": 7971,
    "Ġincommunicable": 26610,
    "haw": 6361,
    "spin": 22733,
    "Ġtaffrail": 15474,
    "Ġham": 3419,
    "ourable": 4967,
    "Ġsocieties": 20181,
    "iate": 6505,
    "Ġodorous": 19565,
    "Ġca": 21337,
    "Ġhusbands": 16641,
    "cape": 13695,
    "Ġstrokes": 16768,
    "Ġguido": 2974,
    "Ġpoliceman": 15256,
    "cop": 20800,
    "Ġscrutiny": 26015,
    "Ġmoritz": 11903,
    "mer": 2833,
    "floor": 14934,
    "Ġregret": 5560,
    "Ġworms": 25216,
    "Ġembell": 14411,
    "Ġwherefore": 8524,
    "Ġheavens": 5050,
    "ledyard": 22389,
    "Ġtarquin": 23609,
    "Ġloading": 15871,
    "Ġdeferred": 18826,
    "vous": 2252,
    "rannical": 26400,
    "contact": 23726,
    "ky": 4521,
    "Ġexclamation": 8698,
    "sails": 7497,
    "firm": 10697,
    "Ġnick": 21521,
    "Ġpresents": 8245,
    "surface": 10529,
    "etwork": 446,
    "hem": 6663,
    "Ġwrest": 11568,
    "Ġstraw": 9427,
    "thirst": 15822,
    "copy": 5133,
    "Ġmeets": 7396,
    "(_": 7540,
    "Ġhop": 1461,
    "meadow": 18677,
    "Ġmorality": 22971,
    "Ġeverlasting": 9335,
    "Ġweak": 5098,
    "tawny": 26403,
    "repent": 15511,
    "Ġkn": 4547,
    "nuee": 17428,
    "Ġtouching": 4681,
    "petulance": 24298,
    "wish": 8100,
    "Ġundiscovered": 18252,
    "Ġdeliriously": 23229,
    "Ġvalidate": 3161,
    "Ġmedical": 9462,
    "Ġviews": 7290,
    "Ġdesigns": 13008,
    "Ġdesire": 3716,
    "Ġordering": 18998,
    "guarded": 13292,
    "flowing": 14570,
    "Ġjaws": 5592,
    "pie": 21010,
    "Ġcollege": 11422,
    "Ġmistifying": 23718,
    "Ġjeopardized": 20229,
    "Ġdanced": 7843,
    "Ġservants": 6610,
    "Ġmour": 6973,
    "anque": 13886,
    "brated": 12024,
    "Ġcongregated": 20095,
    "Ġdyspeps": 16504,
    "rin": 10120,
    "Ġarisen": 11740,
    "hopeless": 16916,
    "Ġtist": 21161,
    "======": 9831,
    "Ġexercise": 8359,
    "Ġapplications": 4783,
    "Ġknock": 9971,
    "Ġmir": 9645,
    "Ġenvironments": 24156,
    "save": 13783,
    "Ġlassitude": 20585,
    "loaded": 22509,
    "Ġmills": 21310,
    "Ġkeenest": 12158,
    "Ġproject": 5545,
    "Ġseventh": 18206,
    "lingering": 18601,
    "Ġjust": 1238,
    "usation": 18396,
    "Ġflashed": 11911,
    "Ġreverie": 13455,
    "Ġexact": 2544,
    "Ġcontents": 7210,
    "Ġsquared": 1383,
    "pay": 10717,
    "oking": 4607,
    "attendants": 25495,
    "iance": 5279,
    "Ġtopsails": 19193,
    "Ġhindoo": 17174,
    "Ġasyl": 12730,
    "Ġfade": 21406,
    "Ġtrail": 16280,
    "Ġproc": 5544,
    "Ġpedestrian": 25879,
    "Ġself": 1780,
    "idirectional": 2424,
    "Ġafrican": 20136,
    "Ġvictims": 19803,
    "Ġunwritten": 22032,
    "idence": 4301,
    "Ġgild": 15665,
    "advanced": 19587,
    "view": 5896,
    "Ġexterm": 21827,
    "Ġforbear": 17120,
    "Ġphotograph": 6302,
    "Ġincumbent": 16059,
    "suspicious": 25390,
    "Ġstruck": 3387,
    "Ġmystery": 5509,
    "Ġseparating": 16684,
    "Ġforcing": 3223,
    "head": 1436,
    "ater": 3368,
    "Ġsecure": 4912,
    "Ġpyth": 21460,
    "Ġjustified": 11901,
    "united": 14058,
    "Ġsog": 22073,
    "Ġfries": 21414,
    "Ġtumble": 16878,
    "Ġspotted": 12135,
    "sweet": 8685,
    "playing": 19656,
    "Ġpleas": 1907,
    "heavens": 19744,
    "Ġrefined": 18701,
    "Ġgrass": 5177,
    "Ġprepared": 5877,
    "Ġhig": 754,
    "jointed": 24007,
    "viv": 17697,
    "Ġsimulates": 2741,
    "Ġmetaphysical": 26069,
    "Ġcomprehen": 5349,
    "tural": 21065,
    "Ġshape": 5639,
    "Ġunite": 9252,
    "Ġstup": 14003,
    "Ġexam": 3709,
    "Ġdeny": 7488,
    "Ġbetrayed": 9560,
    "hump": 12474,
    "etymology": 14699,
    "fireside": 24692,
    "Ġmuffled": 10639,
    "sunlight": 24851,
    "serious": 14446,
    "throughout": 24084,
    "Ġsadness": 13284,
    "Ġavoid": 5199,
    "Ġwhimsical": 20426,
    "oe": 7552,
    "tps": 11532,
    "70": 17474,
    "escript": 18470,
    "Ġunceasingly": 20357,
    "omon": 10206,
    "Ġgenus": 24428,
    "Ġreciproc": 20619,
    "quin": 21845,
    "acceptance": 25185,
    "Ġmechanisms": 1578,
    "Ġ92": 24591,
    "Ġporter": 15607,
    "Ġfidelity": 15239,
    "ĠĠĠĠĠĠĠĠĠĠĠĠĠĠĠĠĠĠĠĠĠĠĠĠĠĠĠĠĠĠĠ": 19699,
    "lounged": 26133,
    "ze": 1313,
    "prophecy": 22849,
    "ighbour": 3386,
    "Ġworaciousness": 22927,
    "Ġlaws": 8003,
    "shone": 22451,
    "wart": 17704,
    "als": 2042,
    "stern": 7862,
    "ided": 2785,
    "Ġnorris": 23200,
    "deav": 2675,
    "Ġroses": 11783,
    "Ġcups": 16881,
    "people": 7677,
    "parlour": 16395,
    "draw": 23896,
    "Ġravings": 18644,
    "Ġboth": 1656,
    "Ġgenerating": 12847,
    "coil": 23558,
    "glory": 23850,
    "Ġinspire": 11992,
    "Ġpertur": 12846,
    "Ġprefer": 6416,
    "aks": 8506,
    "Ġindispensable": 11897,
    "Ġcens": 8413,
    "Ġoozy": 21325,
    "Ġconstruct": 23341,
    "Ġcorpore": 13399,
    "Ġglances": 10371,
    "Ġtransitory": 16015,
    "Ġangular": 19206,
    "Ġsuspended": 5665,
    "Ġglance": 4231,
    "luckily": 19751,
    "Ġhumane": 11881,
    "pro": 2050,
    "Ġconst": 1911,
    "ikes": 8087,
    "Ġslim": 18936,
    "arpening": 21442,
    "Ġswears": 16462,
    "vanished": 15061,
    "attached": 11932,
    "recklessly": 25269,
    "aut": 1913,
    "Ġcongealed": 25981,
    "Ġyounge": 16285,
    "Ġlakeman": 6986,
    "Ġreplete": 15694,
    "ortations": 22255,
    "ą": 198,
    "Ġphenomenon": 17916,
    "venison": 22626,
    "Ġjon": 15945,
    "Ġpainful": 6462,
    "Ġthorough": 6245,
    "Ġspaulding": 11728,
    "dignity": 15343,
    "Ġintruder": 25991,
    "igated": 15703,
    "browed": 25894,
    "Ġhieroglyphic": 25587,
    "Ġcapacious": 19176,
    "Ġwolves": 25934,
    "understood": 13214,
    "Ġduring": 873,
    "Ġbewildered": 15211,
    "Ġvoc": 4450,
    "africa": 26308,
    "furnished": 20240,
    "ribbed": 16410,
    "everybody": 8610,
    "oak": 21002,
    "ascending": 24707,
    "Ġtomorrow": 21511,
    "precaution": 23820,
    "rell": 11561,
    "Ġaccess": 9745,
    "Ġensu": 7876,
    "asc": 6386,
    "idents": 6150,
    "sey": 5542,
    "Ġdiffered": 22711,
    "Ġblowing": 10483,
    "Ġasia": 11680,
    "represent": 9636,
    "scar": 9814,
    "shel": 11927,
    "classification": 4386,
    "ksome": 10103,
    "abs": 11665,
    "gerine": 22887,
    "Ġuniformity": 23484,
    "intern": 23734,
    "read": 3273,
    "Ġfitting": 21407,
    "Ġcalifornia": 20528,
    "izard": 10877,
    "Ġdonkey": 23228,
    "Ġslumber": 13056,
    "affect": 13210,
    "poke": 18800,
    "sample": 12503,
    "Ġstrand": 11825,
    "ira": 3956,
    "Ġserved": 8246,
    "Ġinterpret": 5490,
    "Ġsanely": 24982,
    "collinses": 19922,
    "Ġthreat": 5154,
    "Ġdang": 9173,
    "neighbours": 24881,
    "wedged": 24337,
    "Ġinspecting": 24614,
    "Ġalleviated": 26203,
    "Ġcring": 15548,
    "constantly": 24607,
    "Ġfrigate": 13079,
    "justine": 7683,
    "Ġstren": 15716,
    "!_âĢĶ": 19971,
    "sure": 5522,
    "Ġparadigms": 3054,
    "Ġensue": 18190,
    "scotland": 20527,
    "Ġpuppy": 12402,
    "birds": 15142,
    "lies": 15379,
    "dies": 15336,
    "Ġascertain": 9704,
    "Ġinco": 14258,
    "Ġhollowly": 24525,
    "Ġdwelling": 7322,
    "upwards": 18863,
    "Ġdealer": 23974,
    "adequately": 20318,
    "invariably": 26415,
    "Ġdeceive": 12718,
    "Ġnarrated": 14869,
    "Ġfund": 2843,
    "culiarity": 11140,
    "Ġchil": 11748,
    "Ġsinful": 18948,
    "Ġunconcerned": 20508,
    "Ġindepend": 3664,
    "erm": 787,
    "Ġfitness": 23997,
    "Ġalacrity": 15733,
    "Ġselfish": 7272,
    "Ġere": 3681,
    "pid": 1380,
    "Ġsoftmax": 1689,
    "Ġsurmis": 23462,
    "Ġfelt": 1748,
    "Ġwed": 3959,
    "Ġmethod": 1468,
    "Ġshows": 8482,
    "Ġgift": 10839,
    "Ġgrandeur": 8627,
    "Ġacre": 22679,
    "ential": 825,
    "Ġegress": 21621,
    "Ġnatur": 17332,
    "shows": 22454,
    "Ġimbecile": 17389,
    "Ġfrenzy": 13620,
    "conceive": 16026,
    "ual": 946,
    "giana": 7801,
    "ruded": 15894,
    "Ġmarine": 23030,
    "Ġmons": 10155,
    "mot": 17595,
    "did": 3193,
    "Ġecc": 11626,
    "Ġattentions": 5878,
    "Ġmerciless": 25246,
    "endured": 22233,
    "Ġ1820": 25718,
    "Ġedward": 19119,
    "Ġorganizations": 12311,
    "uff": 2732,
    "Ġcarriages": 11096,
    "Ġinferences": 17934,
    "Ġandes": 12637,
    "oof": 15403,
    "Ġanother": 1739,
    "<PAD>": 0,
    "Ġconsecutive": 20701,
    "foam": 24417,
    "accur": 14593,
    "hope": 5990,
    "ognit": 19162,
    "Ġesq": 15106,
    "Ġarched": 10930,
    "Ġdamp": 8264,
    "inces": 13826,
    "than": 4088,
    "alously": 15625,
    "Ġcollecting": 12283,
    "Ġbefell": 14008,
    "Ġsires": 21225,
    "Ġubiquitous": 26195,
    "Ġhitting": 21485,
    "Ġorder": 1686,
    "Ġbags": 24536,
    "th": 407,
    "came": 4571,
    "D": 40,
    "Ġspectrum": 4474,
    "Ġchasing": 11751,
    "riptions": 14793,
    "Ġmod": 496,
    "Ġoblivious": 26032,
    "Ġexclaiming": 13639,
    "consid": 4924,
    "Ġinsatiate": 19269,
    "Ġaccumul": 1411,
    "Ġvariance": 1168,
    "Ġrepul": 16407,
    "ringle": 21039,
    "Ġchiefly": 5766,
    "Ġswimmer": 19457,
    "Ġcircular": 13108,
    "Ġgreeks": 20011,
    "nment": 20989,
    "bree": 15312,
    "irium": 8162,
    "eskye": 21449,
    "Ġsir": 1571,
    "aunt": 8370,
    "instinctively": 26327,
    "supplementary": 20548,
    "Ġrheum": 18216,
    "Ġbelieve": 2147,
    "Ġramad": 8527,
    "leading": 15558,
    "Ġsuccessfully": 19427,
    "Ġc": 277,
    "Ġperturbation": 20439,
    "cely": 3572,
    "algorithm": 3832,
    "Ġsomnam": 23005,
    "ignomin": 23264,
    "Ġsket": 18727,
    "Ġcode": 1723,
    "Ġexpressive": 8981,
    "Ġowners": 7663,
    "instinct": 19542,
    "Ġtyp": 1130,
    "Ġmum": 13856,
    "Ġshores": 8846,
    "icate": 9200,
    "Ġcanada": 22161,
    "Ġservices": 11215,
    "Ġ111": 24435,
    "Ġrust": 6408,
    "Ġsummoned": 9909,
    "Ġstock": 7455,
    "Ġaddressing": 11162,
    "Ġboxes": 13372,
    "Ġcherish": 10588,
    "counter": 20277,
    "Ġidle": 8253,
    "Ġfocused": 16338,
    "linked": 17592,
    "sli": 11520,
    "gryphon": 15356,
    "Ġperv": 15987,
    "ease": 12454,
    "ihood": 20921,
    "Ġreverend": 15257,
    "obli": 23093,
    "Ġdeceived": 6544,
    "north": 14615,
    "iated": 5890,
    "Ġscolding": 15198,
    "butt": 15991,
    "Ġbery": 13896,
    "Ġgi": 15662,
    "adem": 21755,
    "Ġprofited": 19191,
    "Ġstupidity": 15048,
    "Ġsordid": 26421,
    "Ġcocoan": 20315,
    "ull": 1430,
    "built": 16824,
    "osures": 22259,
    "snapping": 24849,
    "Ġsebastian": 11695,
    "Ġproved": 4884,
    "Ġbaling": 17859,
    "comb": 11033,
    "desperate": 17350,
    "Ġcripp": 9652,
    "Ġfarther": 5955,
    "Ġicebergs": 23972,
    "Ġsilent": 3408,
    "Ġcanterbury": 22163,
    "rie": 2787,
    "rapid": 12666,
    "Ġembattled": 26288,
    "Ġross": 2766,
    "Ġlived": 3989,
    "Ġresemblance": 7975,
    "Ġfuller": 11154,
    "carrying": 16712,
    "Ġbulkhead": 24507,
    "Ġfair": 2837,
    "Ġboldly": 9499,
    "Ġfootmen": 23796,
    "Ġsocietal": 11434,
    "Ġspain": 15877,
    "whal": 10938,
    "Ġmaking": 1781,
    "arranged": 19317,
    "Ġread": 1448,
    "Ġresides": 22538,
    "Ġhumiliating": 22878,
    "Ġsore": 10763,
    "Ġsufficiently": 8972,
    "Ġfrock": 10488,
    "Ġauthors": 10416,
    "adventure": 17232,
    "ness": 852,
    "Ġwanted": 4968,
    "Ġknife": 7309,
    "Ġyielding": 12183,
    "Ġmonogra": 22975,
    "Ġasserted": 16948,
    "Ġdrive": 5055,
    "Ġhap": 18195,
    "Ġunsupp": 22019,
    "Ġguest": 7249,
    "den": 940,
    "Ġmotioned": 19591,
    "orers": 14101,
    "Ġeffective": 1246,
    "Ġindomitableness": 26570,
    "Ġeels": 21620,
    "Ġstraight": 3701,
    "Ġpaper": 4282,
    "Ġstained": 11650,
    "Ġvirtue": 4922,
    "mouthful": 25208,
    "Ġbodings": 21389,
    "Ġlarge": 1064,
    "Ġtransaction": 22437,
    "Ġmatters": 4974,
    "Ġmarchant": 14784,
    "Ġturns": 4981,
    "money": 8749,
    "Ġrejo": 5916,
    "Ġsteam": 9351,
    "Ġcalculated": 4475,
    "expression": 10546,
    "ĕ": 214,
    "cruise": 24841,
    "Ġens": 2788,
    "Ġleaky": 2346,
    "Ġtraversed": 18893,
    "Ġthomson": 26453,
    "vital": 17699,
    "Ġsplice": 19307,
    "Ġbacks": 8528,
    "Ġpauses": 14813,
    "Ġferule": 24515,
    "://": 11463,
    "lant": 20946,
    "Ġhereabouts": 12973,
    "pencil": 18828,
    "inquire": 16931,
    "acity": 5735,
    "roads": 17957,
    "rential": 22917,
    "Ġhere": 1086,
    "Ġequilibrium": 4139,
    "Ġsort": 1508,
    "Ġknowledge": 1447,
    "izabeth": 908,
    "Ġtoler": 7588,
    "Ġhealthful": 24055,
    "int": 1197,
    "Ġdying": 2136,
    "Ġtreats": 19342,
    "Ġlimped": 19181,
    "Ġspecimen": 13019,
    "Ġexcite": 11962,
    "Ġgiver": 21603,
    "Ġhold": 2244,
    "Ġtoll": 7852,
    "ire": 492,
    "Ġmitt": 21306,
    "lour": 15378,
    "Ġlbs": 11612,
    "eye": 6224,
    "Ġextra": 4056,
    "grinder": 23413,
    "Ġvect": 1224,
    "cats": 17511,
    "Ô": 149,
    "Ġreminisc": 18725,
    "Ġtandem": 26410,
    "Ġgigantic": 5915,
    "Ġarabic": 24980,
    "indul": 22368,
    "Ġnaut": 13939,
    "Ġvinc": 14083,
    "mastod": 23971,
    "wins": 21128,
    "corrupt": 14893,
    "Ġadmission": 23554,
    "Ġfled": 6670,
    "Ġsisterly": 16299,
    "Ġinformed": 6717,
    "opened": 7914,
    "Ġfurious": 10353,
    "Ġsyntax": 959,
    "fisher": 7547,
    "Ġjackson": 24239,
    "ellect": 7381,
    "Ġcheetah": 14503,
    "Ġcomposing": 16064,
    "Ġsooner": 5572,
    "Ġexasperate": 20096,
    "atics": 15520,
    "embarrassed": 20595,
    "hroom": 12473,
    "rimshander": 20656,
    "acknowled": 10973,
    "Ġrepositories": 23363,
    "Ġsciences": 15942,
    "linearity": 1650,
    "Ġvale": 14080,
    "Ġstatistical": 11102,
    "Ġhoof": 23352,
    "dilig": 17281,
    "Ġenduring": 16300,
    "theories": 18078,
    "Ġcandelab": 23846,
    "desponding": 26341,
    "Ġorphan": 12380,
    "iration": 4541,
    "Ġartificial": 788,
    "Ġslew": 23381,
    "Ġcracking": 14573,
    "Ġeliza": 6437,
    "eronomy": 15522,
    "terns": 21820,
    "crack": 19839,
    "Ġblotting": 25313,
    "Ġobsequ": 14318,
    "ited": 1753,
    "Ġ129": 24473,
    "Ħ": 231,
    "Ġundergo": 23237,
    "Ġencoding": 4775,
    "past": 8090,
    "hammock": 16351,
    "Ġcentury": 8291,
    "taking": 5689,
    "Ġentropy": 2032,
    "toller": 20671,
    "Ġcart": 11580,
    "games": 20879,
    "Ġfavourably": 16359,
    "Ġcharlotte": 3889,
    "whel": 7665,
    "oniously": 21256,
    "Ġgestures": 13534,
    "Ġexperiment": 11918,
    "punctual": 26355,
    "Ġalchemists": 26486,
    "Ġcontinents": 16848,
    "conject": 8878,
    "future": 13715,
    "enc": 7574,
    "Ġhut": 15615,
    "Ġtempestuous": 20069,
    "Ġaskance": 23148,
    "atiate": 12544,
    "Ġhorsey": 24248,
    "Ġcircumstance": 4987,
    "Ġheadache": 22899,
    "Ġreceive": 4704,
    "Ġlapl": 19776,
    "smeer": 26147,
    "Ġimbalanced": 18327,
    "allies": 14164,
    "idity": 8829,
    "Ġharbor": 10025,
    "Ġassisted": 11109,
    "utional": 17983,
    "Ġthird": 4184,
    "hering": 12810,
    "Ġtestament": 23206,
    "Ġseriously": 7060,
    "seriously": 18904,
    "finished": 10553,
    "Ġquaff": 22412,
    "blast": 9586,
    "Ġexpression": 4516,
    "Ġlangu": 576,
    "wonted": 13491,
    "Ġcognitive": 13632,
    "Ġcables": 15554,
    "Ġimpertinent": 9076,
    "Ġcrossing": 7253,
    "imental": 16531,
    "Ġungracious": 18258,
    "Ġsoon": 1227,
    "Ġwidow": 8662,
    "hecy": 21205,
    "Ġrely": 8819,
    "Ġimportant": 1054,
    "Ġcoopers": 20520,
    "Ġunmingled": 18263,
    "Ġmuscles": 12085,
    "cannibal": 15222,
    "pot": 10116,
    "Ġfossils": 20221,
    "isome": 17848,
    "Ġyelling": 18096,
    "Ġequival": 4784,
    "Ġresign": 18564,
    "Ġgallied": 19555,
    "olently": 15753,
    "spect": 3230,
    "Ġperceptibly": 25821,
    "Ġpour": 13912,
    "Ġexper": 1316,
    "faces": 13718,
    "Ġwill": 679,
    "Ġpalpable": 15204,
    "Ġgowns": 25359,
    "Ġsample": 3176,
    "moment": 3576,
    "Ġeating": 8136,
    "frisco": 16786,
    "Ġconsiderably": 7715,
    "Ġimposing": 11778,
    "Ġvanished": 6874,
    "rib": 1945,
    "fifth": 20145,
    "anks": 3915,
    "testing": 12513,
    "Ġheaven": 3363,
    "avor": 14274,
    "Æ": 135,
    "Ġquaint": 18465,
    "Ġscener": 10947,
    "pots": 11511,
    "narrated": 25621,
    "to": 715,
    "Ġappl": 1705,
    "Ġtoilings": 24742,
    "Ġsprain": 18305,
    "Ġbolts": 16942,
    "Ġphysiognomical": 25611,
    "Ġreaches": 18031,
    "Ġcoarsely": 25828,
    "Ġgrated": 22802,
    "Ġpel": 17904,
    "Ġstrategies": 1841,
    "narrative": 17317,
    "niest": 18955,
    "abern": 21787,
    "Ġsurpass": 13581,
    "pron": 9004,
    "Ġthieves": 15632,
    "Ġinterrupted": 6343,
    "antages": 7192,
    "nowled": 5470,
    "scarcely": 12383,
    "Ġbackgammon": 22662,
    "upt": 13796,
    "Ġjura": 14191,
    "Ġcrouched": 23440,
    "iscreet": 20681,
    "Ġprev": 6264,
    "Ġstray": 18069,
    "Ġwhalemen": 3911,
    "Ġashamed": 6403,
    "Ġven": 4648,
    "Ġunfinished": 19508,
    "Ġquestioning": 10463,
    "Ġmassa": 19452,
    "Ġjogged": 26236,
    "Ġprojecting": 9983,
    "Ġtanning": 17728,
    "indispensable": 14208,
    "pred": 2803,
    "Ġallen": 5160,
    "spir": 5738,
    "Ġmoul": 15540,
    "Ġprofoundest": 16859,
    "Ġgnashed": 20131,
    "Ġpositives": 4316,
    "Ġgases": 21600,
    "lo": 681,
    "Ġbethink": 12376,
    "networks": 2408,
    "Ġkidnapping": 26356,
    "Ġtiger": 11552,
    "Ġcompunction": 18585,
    "Ġdesist": 16234,
    "Ġpersuas": 23944,
    "Ġapproving": 18507,
    "Ġbreeding": 14521,
    "Ġsteer": 10385,
    "restored": 18979,
    "Ġneurons": 976,
    "Ġends": 8238,
    "Ġremote": 8918,
    "Ġconsulted": 13428,
    "deed": 1521,
    "Ġfaint": 5811,
    "Ġrese": 2238,
    "Ġdeclaring": 19418,
    "interruption": 20110,
    "Ġdecember": 15006,
    "Ġinduced": 8670,
    "Ġconcisely": 19044,
    "Ġmarty": 20289,
    "angered": 16175,
    "puzz": 17639,
    "Ġgums": 21609,
    "mand": 3893,
    "Ġbasement": 24702,
    "Ġgipsies": 12422,
    "fal": 17535,
    "bag": 7542,
    "Ġwindward": 6885,
    "inc": 2522,
    "resolutions": 26164,
    "Ġdigging": 14936,
    "Ġcur": 1255,
    "Ġ32": 19487,
    "Ġcleared": 6075,
    "Ġthing": 1640,
    "tooth": 18579,
    "Ġfins": 9662,
    "Ġawe": 7147,
    "Ġleaped": 8824,
    "ö": 183,
    "Ġdem": 11672,
    "Ġavowed": 16632,
    "Ġbarely": 16935,
    "rucastle": 22176,
    "absent": 21788,
    "allied": 7410,
    "Ġmood": 6276,
    "Ġcomplaint": 24776,
    "delivered": 24098,
    "gh": 3798,
    "forbearance": 22801,
    "Ġconcealment": 16913,
    "Ġgout": 21594,
    "Ġbountiful": 25944,
    "athan": 2954,
    "Ġstands": 5258,
    "book": 4670,
    "Ġfamil": 4319,
    "Ġbrow": 3987,
    "accomp": 10454,
    "Ġinfatuation": 25857,
    "Ġmule": 13860,
    "itled": 7577,
    "Ġreasons": 6020,
    "Ġstratag": 26028,
    "Ġuncivilized": 25498,
    "Ġcomplying": 18584,
    "Ġscarcely": 4009,
    "Ġviciss": 11290,
    "Ġ103": 24410,
    "Ġcombining": 22882,
    "nical": 20990,
    "Ġcoupled": 16850,
    "looks": 12014,
    "Ġincites": 22549,
    "entreaties": 26185,
    "ith": 330,
    "stra": 4046,
    "Ġherring": 14125,
    "Ġrespected": 11949,
    "Ġmiser": 18705,
    "Ġauthority": 7749,
    "Ġthroat": 7771,
    "suspect": 9538,
    "Ġactive": 7916,
    "mies": 20967,
    "ribes": 23365,
    "Ġrepressed": 21666,
    "allowance": 16823,
    "Ġtal": 7564,
    "Ġcab": 2637,
    "Ġvincent": 15281,
    "amous": 15757,
    "Ġcoral": 11919,
    "Ġthreads": 13115,
    "dden": 1807,
    "arpaul": 14535,
    "Ġmetropolitan": 17274,
    "Ġaverse": 11079,
    "Ġbiases": 2399,
    "rossed": 11010,
    "Ġcolumn": 9326,
    "Ġinstigated": 18704,
    "exact": 7911,
    "mell": 20963,
    "Ġimpulsively": 24880,
    "Ġhier": 1896,
    "amet": 589,
    "hello": 13361,
    "Ġweeks": 4566,
    "Ġacquiesced": 25493,
    "Ġsoliloquized": 17300,
    "Ġanno": 9666,
    "Ġconsecut": 18111,
    "Ġassented": 17336,
    "scale": 3533,
    "jaw": 13741,
    "manner": 6170,
    "sudden": 5315,
    "rus": 5930,
    "ableness": 8149,
    "Ġpacifics": 24372,
    "Ġwidth": 16771,
    "Ġpromote": 23190,
    "Ġcumberland": 21353,
    "Ġincalcul": 16060,
    "2": 22,
    "Ġcursed": 6727,
    "Ġmanaging": 22323,
    "ber": 883,
    "Ġmantelpiece": 15205,
    "animals": 24738,
    "Ġsublime": 8066,
    "Ġrequire": 915,
    "Ġinitialization": 1251,
    "wl": 17701,
    "Ġemployer": 19430,
    "reigned": 21241,
    "Ġreckon": 19869,
    "Ġmass": 3778,
    "opposite": 19928,
    "Ġbegg": 16251,
    "Ġjavan": 24999,
    "covenant": 23561,
    "Ġmotives": 7486,
    "Ġran": 3341,
    "ending": 1991,
    "Ġajar": 21201,
    "Ġcomprehensive": 15085,
    "Ġreproach": 9555,
    "Ġlottery": 19887,
    "Ġsafely": 9024,
    "Ġraises": 11842,
    "Ġkinds": 14504,
    "Ġsurvivors": 25732,
    "Ġmaled": 21313,
    "obliv": 23095,
    "Ġremonstrate": 22793,
    "Ġcolours": 12970,
    "Ļ": 252,
    "ediction": 17944,
    "Ġ50": 24318,
    "Ġconcise": 23322,
    "ident": 3377,
    "voy": 7143,
    "Ġsupremacy": 20259,
    "bohem": 19002,
    "Ġre": 317,
    "Ġdrove": 4984,
    "delights": 19700,
    "Ġmoluccas": 25629,
    "Ġinland": 11605,
    "Ġslide": 10392,
    "Ġvulgarity": 25363,
    "wonders": 17142,
    "Ġbakers": 17866,
    "Ġdistinguished": 8273,
    "bingley": 4927,
    "Ġgib": 13963,
    "Ġfathom": 17047,
    "Ġaccustomed": 6862,
    "vering": 15712,
    "rim": 7137,
    "Ġryder": 10258,
    "Ġvoice": 2190,
    "Ġparchment": 13650,
    "Ġwrote": 5011,
    "Ġjudiciously": 23876,
    "vulgar": 25918,
    "Ġheedless": 14901,
    "Ġmaintained": 12931,
    "recked": 17761,
    "Ġtoma": 7373,
    "otent": 8830,
    "ander": 6401,
    "musket": 25341,
    "ago": 14063,
    "tot": 10727,
    "declared": 15116,
    "malice": 17603,
    "eled": 2358,
    "Ġluc": 3309,
    "Ġpike": 12619,
    "icking": 8909,
    "urred": 8449,
    "Ġrigging": 5600,
    "Ġgarn": 13961,
    "Ġsluggish": 25890,
    "Ġasleep": 6836,
    "¸": 121,
    "Ġrailway": 15019,
    "Ġcharnel": 22250,
    "itations": 17817,
    "Ġdoleful": 18377,
    "Ġtepid": 26411,
    "Ġexcept": 3311,
    "splash": 25209,
    "sweetly": 25134,
    "Ġvainly": 9922,
    "Ġround": 1371,
    "Ġmarsh": 9819,
    "Ķ": 247,
    "Ġtravelling": 11305,
    "ssip": 14077,
    "Ġinjuring": 24267,
    "Ġ1890": 23893,
    "destro": 13307,
    "bestowed": 12222,
    ",âĢĶâĢľ": 10068,
    "Ġparson": 6687,
    "geon": 6270,
    "Ġlxi": 21559,
    "Ġunprotected": 22065,
    "thoughts": 9933,
    "Ç": 136,
    "Ġenviron": 4241,
    "ologically": 22866,
    "Ġaimed": 20249,
    "Ġpit": 3418,
    "Ġhard": 1443,
    "Ġdism": 9765,
    "Ġimmediately": 3364,
    "Ġdistracted": 11800,
    "Ġaccelerating": 1619,
    "alse": 4182,
    "aged": 2610,
    "Ġrearing": 12673,
    "Ġoffering": 3003,
    "Ġalph": 9693,
    "Ġmutilated": 23956,
    "helping": 23138,
    "Ġaccusation": 22387,
    "Ġlecture": 13565,
    "Ġthinker": 22807,
    "granting": 23412,
    "Ġwhereas": 3854,
    "ie": 730,
    "finally": 9497,
    "Ġslightly": 7293,
    "Ġbits": 11585,
    "Ġblacks": 23386,
    "Ġxli": 14541,
    "Ġamusement": 8056,
    "Ġwoven": 9924,
    "Ġnodded": 11966,
    "Ġchronic": 9927,
    "Ġvol": 4187,
    "conceal": 25114,
    "Ġlayers": 815,
    "Ġtorn": 6000,
    "expl": 9281,
    "Ġflirting": 16248,
    "Ġships": 3713,
    "amy": 8467,
    "Ġopposed": 11186,
    "circum": 16736,
    "Ġundesired": 12775,
    "Ġruff": 14347,
    "Ġinvolved": 8921,
    "inkle": 22610,
    "Ġpossessions": 23822,
    "Ġtablets": 13153,
    "Ġscaffold": 18401,
    "ings": 634,
    "Ġunobserved": 18249,
    "Ġsangu": 15502,
    "hy": 4740,
    "Ġprudence": 13918,
    "Ġxerxes": 23409,
    "Ġbead": 21748,
    "N": 50,
    "Ġproof": 6153,
    "Ġtempt": 5564,
    "Ġcaravan": 26290,
    "Ġbespe": 19241,
    "niece": 20994,
    "proportions": 22848,
    "brothers": 17023,
    "Ġthoroughfares": 26095,
    "midnight": 14898,
    "Ġopulence": 23627,
    "Ġmildness": 9942,
    "Ġvillain": 8635,
    "Ġsparkling": 11354,
    "Ġinjury": 10539,
    "ries": 3351,
    "Ġinjuries": 11275,
    "Ġassemblage": 26351,
    "Ġadored": 18291,
    "Ġmanipulated": 25178,
    "Ġsettles": 22918,
    "Ġgrieve": 14705,
    "Ġsufferable": 16255,
    "youth": 11872,
    "Ġannounced": 9033,
    "persuasion": 20042,
    "constable": 24606,
    "Ġwriggling": 15255,
    "Ġmbpp": 21320,
    "month": 6463,
    "ess": 413,
    "Ġcruisers": 25863,
    "Ġsplendour": 20223,
    "cheer": 9435,
    "Ġdivide": 12107,
    "Ġopposing": 12038,
    "ific": 490,
    "Ġgraphs": 25463,
    "Ġmand": 21303,
    "unted": 6998,
    "Ġsquee": 7929,
    "Ġmere": 2714,
    "Ġvigorous": 10565,
    "Ġarriving": 19216,
    "Ġascertaining": 17202,
    "orously": 8419,
    "usiveness": 22281,
    "Ġstupendous": 20499,
    "Ġconveyed": 8335,
    "Ġimmortal": 8018,
    "Ġcrevice": 22730,
    "concerted": 16670,
    "Ġexplored": 23517,
    "probability": 17021,
    "Ġinterlacing": 22574,
    "Ġindul": 5856,
    "Ġplanets": 24053,
    "Ġoverheard": 11771,
    "Ġconvention": 25546,
    "Ġtalking": 3857,
    "skeleton": 17374,
    "Ġthreatened": 8330,
    "Ġante": 17896,
    "Ġeffected": 14352,
    "Ġdeserve": 8309,
    "Ġheeds": 24519,
    "adventurous": 25361,
    "Ġrevealed": 6751,
    "abilizing": 2922,
    "Ġdivineness": 25724,
    "generative": 4329,
    "Ġchoke": 22247,
    "Ġconvict": 23743,
    "Ġsuffice": 18868,
    "Ġcardboard": 19977,
    "merry": 16535,
    "ount": 1113,
    "Ġlevi": 3030,
    "Ġmagnet": 10388,
    "grasp": 16428,
    "Ġplump": 14280,
    "below": 12118,
    "Ġarc": 14157,
    "iment": 2816,
    "ersburgh": 18209,
    "phant": 6286,
    "Ġwall": 3842,
    "Ġtechnical": 17190,
    "Ġgently": 7171,
    "Ġoutweigh": 22320,
    "Ġsta": 18062,
    "rength": 4100,
    "lane": 10705,
    "impossible": 8822,
    "critical": 19502,
    "giving": 8738,
    "yed": 3270,
    "just": 1699,
    "Ġtoils": 10184,
    "Ġpleasanter": 19067,
    "Ġattacked": 10566,
    "ster": 1959,
    "cellar": 20276,
    "ousness": 10273,
    "iac": 6225,
    "sleepy": 24729,
    "Ġamazing": 9975,
    "Ġhaughty": 11447,
    "itect": 978,
    "dep": 6786,
    "fit": 6645,
    "Ġfloating": 6604,
    "Ġrender": 8305,
    "Ġdecay": 1014,
    "wont": 21131,
    "apes": 9739,
    "ificial": 606,
    "Ġtrappers": 23080,
    "Ġtransparen": 10540,
    "footed": 19688,
    "here": 2551,
    "assed": 6421,
    "Ġengaging": 9334,
    "Ġtrained": 8502,
    "Ġseptember": 18207,
    "Ġsatisfaction": 5667,
    "Ġclaim": 5106,
    "ared": 771,
    "mists": 17604,
    "Ġparched": 11724,
    "Ġarrant": 23298,
    "noticed": 14339,
    "Ġpallet": 21480,
    "activation": 3229,
    "Ġcompanionship": 14918,
    "Ġreverse": 16981,
    "urmountable": 15277,
    "Ġthanking": 18602,
    "wid": 10133,
    "yrin": 12518,
    "Ġmouldings": 24737,
    "Ġadvertised": 17246,
    "ily": 1032,
    "corrid": 24483,
    "apple": 22840,
    "filled": 9593,
    "iates": 13735,
    "give": 4689,
    "instr": 12527,
    "iest": 4037,
    "opposition": 24823,
    "Ġphysical": 7522,
    "Ġunaffected": 14120,
    "Ġbeckoned": 25793,
    "Ġjuggl": 20436,
    "ė": 216,
    "etition": 7382,
    "untarily": 6312,
    "Ġtrowsers": 9626,
    "Ġrumbling": 18213,
    "relu": 17758,
    "Ġfolding": 19725,
    "society": 9970,
    "Ġabomin": 8189,
    "Ġdescribed": 6606,
    "Ġmixing": 24934,
    "apparently": 15202,
    "wantonly": 25149,
    "asily": 13944,
    "Ġsplash": 16547,
    "Ġvote": 21945,
    "Ġwee": 21917,
    "possibility": 13359,
    "Ġsympathy": 6346,
    "Ġsuccession": 12098,
    "Ġretrogress": 23072,
    "Ġsurp": 9633,
    "changing": 10852,
    "quished": 21846,
    "Ġbeatrix": 24203,
    "honour": 13465,
    "thrill": 25656,
    "Ġconnivance": 25225,
    "Ġdrawings": 14720,
    "proceeding": 20140,
    "Ġconsc": 4274,
    "Ġschools": 9475,
    "heart": 4527,
    "m": 81,
    "Ġleaks": 16446,
    "self": 615,
    "Ġphilipp": 23882,
    "Ġoverpow": 14206,
    "Ġword": 1052,
    "Ġed": 2143,
    "Ġalexander": 17422,
    "blubber": 15234,
    "Ġgovernment": 15174,
    "Ġcomputations": 16001,
    "Ġsurmises": 17054,
    "Ġshadows": 8013,
    "Ġfrosted": 19802,
    "Ġstacks": 18074,
    "Ġadequately": 15196,
    "befriend": 22489,
    "Ġleech": 24152,
    "Ġbursting": 8655,
    "woes": 21132,
    "Ġsimpleton": 16332,
    "Ġupdating": 2692,
    "look": 2263,
    "agger": 7873,
    "Ġconqueror": 25796,
    "menced": 23144,
    "Ġcommanded": 6330,
    "gardiner": 12288,
    "Ġconjugal": 25101,
    "alluring": 18352,
    "onial": 11564,
    "Ġliquid": 22407,
    "writ": 16551,
    "Ġvirtues": 9934,
    "Ġcheshire": 13088,
    "Ġfalse": 4343,
    "Ġvapor": 8699,
    "Ġsegmentation": 17338,
    "rative": 17651,
    "Ġbust": 10166,
    "Ġoars": 3896,
    "Ġscuffle": 20607,
    "Ġdestruction": 6600,
    "Ġsteel": 3888,
    "iod": 3839,
    "sat": 4810,
    "Ġcounsell": 25384,
    "Ġinstructive": 19284,
    "Ġdiscernible": 15054,
    "belief": 13279,
    "Ġast": 2958,
    "Ġurgent": 16866,
    "properly": 24918,
    "stud": 8818,
    "Ġunless": 4090,
    "Ġmanipulation": 10657,
    "ĠĠĠĠĠĠĠĠĠĠĠĠĠĠĠĠĠĠĠĠĠĠĠĠĠĠ": 13386,
    "Ġfeature": 751,
    "aution": 9386,
    "cery": 20807,
    "nails": 17613,
    "taffrail": 15440,
    "outside": 12800,
    "inordinate": 21193,
    "Ġunspeakable": 10054,
    "Ġeu": 6390,
    "Ġmic": 17797,
    "Ġgo": 613,
    "Ġmoles": 22430,
    "Ġgeor": 3385,
    "inating": 9152,
    "Ġneighbor": 25805,
    "days": 7688,
    "swells": 26148,
    "Ġpretty": 3860,
    "Ġslop": 23160,
    "christmas": 20254,
    "Ġautomatically": 3930,
    "Ġhartshorn": 26180,
    "arched": 10814,
    "Ġnominally": 17230,
    "Ġdenomin": 12064,
    "brad": 20780,
    "related": 24009,
    "Ġstoner": 7178,
    "Ġespe": 21154,
    "Ġsupple": 22997,
    "Ġdiscriminative": 4326,
    "Ġspitzbergen": 15285,
    "Ġmorocco": 26572,
    "rd": 17648,
    "Ġtand": 21159,
    "Ġshriek": 6637,
    "fthand": 26385,
    "iqu": 7803,
    "Ġdisturb": 7107,
    "thankful": 16805,
    "Ġcomparison": 7099,
    "Ġtrait": 23073,
    "Ġassurance": 7775,
    "Ġages": 7028,
    "ato": 17768,
    "Ġdelineate": 26057,
    "woman": 5899,
    "Ġheidelburgh": 11641,
    "Ġindec": 13926,
    "fro": 8732,
    "Ġpantaloons": 20295,
    "Ġspitz": 14147,
    "Ġris": 4886,
    "Ġarmed": 9258,
    "Ġcanallers": 13625,
    "solid": 16375,
    "ination": 2911,
    "Ġglu": 15664,
    "ogra": 4574,
    "Ġdegra": 2594,
    "Ġunrecorded": 17466,
    "ino": 15477,
    "Ġaccuracy": 1082,
    "ken": 2802,
    "Ġjenny": 20161,
    "grow": 10097,
    "impud": 23759,
    "servants": 15036,
    "older": 15752,
    "Ġadjacent": 20710,
    "fresh": 13390,
    "Ġprejudice": 9074,
    "passenger": 24164,
    "observing": 25494,
    "Ġbathed": 17865,
    "Ġeddy": 13121,
    "Ġpout": 17906,
    "Ġsunny": 13083,
    "Ġrepast": 16409,
    "once": 5904,
    "Ġpossessing": 16574,
    "Ġtruly": 4796,
    "Ġprinces": 23224,
    "ics": 3254,
    "Ġsulphur": 24933,
    "ially": 9245,
    "outer": 9667,
    "Ġcovers": 18596,
    "sentiment": 12910,
    "inioned": 19285,
    "Ġboughs": 20487,
    "evid": 11482,
    "jer": 12477,
    "Ġstruggle": 3671,
    "rut": 8092,
    "tha": 15820,
    "Ġeconomy": 17199,
    "Ġpatches": 4236,
    "green": 7115,
    "Ġrapidly": 3201,
    "Ġsnow": 3705,
    "Ġwholly": 4446,
    "Ġchrist": 4073,
    "skinned": 25387,
    "Ġcalculate": 13260,
    "Ġuncounted": 19116,
    "Ġfortresses": 23620,
    "Ġpillows": 24988,
    "Ġlexicon": 25974,
    "Ġpeace": 3689,
    "Ġhandfuls": 17208,
    "accordingly": 19212,
    "eteenth": 20156,
    "Ġsounded": 8590,
    "Ġnotorious": 18223,
    "material": 13127,
    "Ġakin": 15493,
    "Ġspecially": 11994,
    "wled": 15452,
    "Ġshirt": 8847,
    "Ġnotion": 7883,
    "Ġmaid": 5285,
    "Ġcheese": 9375,
    "Ġsteamer": 17187,
    "Ġlabyrin": 13102,
    "Ġpostscript": 14806,
    "going": 6313,
    "shabb": 18495,
    "Ġgnarled": 25165,
    "lesson": 22772,
    "restoration": 23236,
    "ittingly": 18806,
    "arthly": 8030,
    "entered": 8813,
    "Ġcetacean": 25878,
    "Ġromish": 19583,
    "Ġmoves": 14230,
    "Ġchoose": 5982,
    "Ġhearth": 11978,
    "ryder": 18637,
    "Ġmacey": 12559,
    "Ġchewing": 23284,
    "Ġpersecut": 16951,
    "banish": 20781,
    "Ġ20": 8613,
    "Ġflap": 14420,
    "Ġaccounted": 10295,
    "repeating": 20127,
    "Ġparameters": 996,
    "Ġfreemason": 23212,
    "ells": 5303,
    "osely": 9263,
    "ilburn": 18059,
    "Ġinterview": 9768,
    "weary": 22684,
    "osition": 1375,
    "dipped": 20836,
    "ibule": 13003,
    "omet": 3073,
    "Ġmarried": 3405,
    "zes": 11546,
    "Ġdome": 15585,
    "Ġcelebrate": 26357,
    "Ġmask": 1865,
    "Ġprosecut": 9696,
    "Ġmantle": 25274,
    "naught": 20993,
    "george": 26019,
    "alogies": 25158,
    "Ġforests": 13590,
    "ancho": 4938,
    "Ġimpress": 6861,
    "Ġix": 12662,
    "Ġcongratulated": 19765,
    "caut": 20811,
    "Ġtasted": 12525,
    "Ġlord": 2963,
    "arts": 6563,
    "iforn": 14062,
    "Ġsingled": 23771,
    "bantering": 25253,
    "Ġsuperiority": 14616,
    "Ġsize": 1217,
    "Ġdeposited": 25484,
    "rap": 21626,
    "Ġsmith": 16061,
    "Ġperformance": 1305,
    "Ġwithhold": 18115,
    "wholly": 10939,
    "Ġshivering": 10264,
    "ilet": 12825,
    "landlord": 9838,
    "glim": 19363,
    "Ġeste": 6085,
    "suspected": 12369,
    "Ġsought": 5010,
    "Ġscientific": 6857,
    "Ġquick": 2586,
    "poky": 17643,
    "oping": 5558,
    "Ġtastes": 15475,
    "work": 1680,
    "Ġvariously": 18653,
    "Ġinserting": 19905,
    "tackles": 25624,
    "Ġchests": 19670,
    "Ġcurrents": 13014,
    "Ġimbedded": 18326,
    "Ġselfishness": 12286,
    "erer": 8731,
    "Ġtoe": 13934,
    "Ġrecip": 16133,
    "carries": 19526,
    "wheels": 14379,
    "fedallah": 25522,
    "Ġderives": 16306,
    "Ġaccordingly": 6619,
    "fastened": 19324,
    "mming": 1172,
    "Ġlima": 10441,
    "Ġinterposed": 20617,
    "captains": 12124,
    "Ġstrangest": 14794,
    "Ġsingle": 1692,
    "chants": 21690,
    "among": 6256,
    "Ġintegrity": 12310,
    "Ġovers": 14204,
    "oric": 21394,
    "tomahawk": 25915,
    "company": 9459,
    "Ġletters": 3790,
    "Ġweaken": 21920,
    "Ġladies": 3191,
    "Ġdetermining": 14419,
    "most": 1254,
    "Ġstates": 1852,
    "Ġgetting": 4066,
    "Ġvehement": 16199,
    "Ġinsolence": 20252,
    "supplemental": 25874,
    "share": 14235,
    "Ġcircumference": 13543,
    "Ġand": 295,
    "Ġyounger": 5252,
    "sloop": 26145,
    "Ġ66": 24368,
    "Ġinputs": 843,
    "Ġsolicit": 22886,
    "franch": 24283,
    "xic": 9144,
    "dismal": 23497,
    "Ġcorrupt": 11920,
    "Ġassaulted": 25320,
    "Ġvesu": 21947,
    "happiest": 19331,
    "Ġfor": 340,
    "mis": 4522,
    "Ġdisguises": 25055,
    "Ġverbal": 19377,
    "Ġv": 399,
    "asional": 17959,
    "Ġrejecting": 17050,
    "Ġnarrative": 6215,
    "wanderer": 25423,
    "Ġdisgusting": 19893,
    "longer": 8612,
    "Ġmildly": 9028,
    "dorff": 15235,
    "Ġrheumatic": 20704,
    "Ġemails": 13104,
    "avier": 2831,
    "Ġpul": 2041,
    "Ġgrampus": 21991,
    "pat": 10115,
    "Ġmad": 2430,
    "Ġterrors": 6918,
    "Ġjoints": 12033,
    "Ġrenegades": 26475,
    "trade": 19635,
    "Ġsubtile": 20378,
    "Ġdepos": 11006,
    "daylight": 19053,
    "Ġprevious": 2090,
    "Ġgrew": 5182,
    "Ġhumour": 7932,
    "draughts": 20386,
    "betrayed": 24640,
    "Ġpilgrimage": 17306,
    "bastian": 10672,
    "vag": 8764,
    "voyage": 7786,
    "strikes": 24670,
    "isure": 6240,
    "Ġscant": 22283,
    "marry": 13321,
    "Ġsay": 934,
    "Ġhyperborean": 26339,
    "Ġdesperately": 24656,
    "Ġcarter": 18900,
    "Ġarms": 3965,
    "Ġhearses": 20058,
    "hau": 17561,
    "Ġportrait": 10660,
    "Ġattempts": 10489,
    "Ġvictor": 5125,
    "harpoon": 9489,
    "Ġchristians": 13306,
    "Ġmur": 2491,
    "Ġtinkling": 25212,
    "content": 11196,
    "Ġtedious": 15265,
    "Ġsuicide": 12785,
    "line": 1441,
    "entary": 21565,
    "Ġdoes": 943,
    "Ġsamples": 2959,
    "Ġdesolated": 24812,
    "unken": 10235,
    "display": 19154,
    "Ġsaloon": 24059,
    "Ġsperma": 19048,
    "Ġdefines": 1744,
    "Ġdardanelles": 26442,
    "Ġburying": 19251,
    "wel": 6117,
    "Ġsurtout": 23464,
    "Ġanger": 5442,
    "Ġtigers": 25758,
    "arrangement": 17413,
    "Ġtwitched": 20442,
    "Ġicelandic": 25886,
    "Ġmice": 13857,
    "Ġblood": 3167,
    "sides": 12504,
    "Ġexcell": 10414,
    "yourselves": 24958,
    "Ġinvisible": 7327,
    "uing": 17692,
    "Ġroaring": 10966,
    "Ġrele": 2915,
    "Ġpeaks": 16125,
    "Ġindirectly": 8938,
    "Ġthrew": 3972,
    "minds": 24231,
    "Ġmexic": 14029,
    "Ġacquit": 18897,
    "Ġwester": 25152,
    "Ġlatter": 3988,
    "ef": 5134,
    "alone": 10182,
    "Ġcheerful": 6621,
    "Ġtaste": 5524,
    "Ġprotruded": 19468,
    "Ġgushed": 21605,
    "Ġmilky": 9945,
    "Ġmountains": 4426,
    "deployment": 26526,
    "tashtego": 9621,
    "say": 3982,
    "nothing": 3152,
    "Ġhedges": 19983,
    "Ġcarries": 7674,
    "Ġmultiplicity": 19274,
    "Ġconceal": 5974,
    "dis": 2250,
    "Ġvariants": 1795,
    "Ġenhancement": 23752,
    "wards": 1275,
    "Ġenchantment": 24869,
    "Ġdeadly": 5405,
    "Ġstrung": 22614,
    "Ġtorrents": 20054,
    "Ġadvert": 10570,
    "Ġringbolts": 24195,
    "ene": 2168,
    "tained": 4405,
    "Ġincreased": 2212,
    "Ġpath": 2115,
    "disaster": 23493,
    "shabbily": 26246,
    "Ġmaxim": 3082,
    "Ġrob": 1266,
    "Ġsurrounds": 24230,
    "Ġsing": 3071,
    "Ġlegisl": 23533,
    "Ġdegradation": 2635,
    "Ġunnecessary": 8850,
    "tried": 13792,
    "haven": 20911,
    "wandering": 20283,
    "offic": 7466,
    "Ġprecisely": 6466,
    "be": 669,
    "Ġincome": 7918,
    "Ġsnugly": 17110,
    "ioneer": 15628,
    "created": 12447,
    "Ġresolve": 13168,
    "Ġintervening": 17266,
    "relieved": 13274,
    "Ġcat": 2122,
    "inarticulate": 21194,
    "Ġpry": 11597,
    "Ġsqueezed": 20034,
    "bub": 15314,
    "Ġsteady": 4847,
    "Ġfisheries": 17436,
    "Ġstanders": 19018,
    "certain": 3672,
    "stir": 12668,
    "Ġtake": 1580,
    "Ġins": 2781,
    "omen": 4086,
    "serpent": 16289,
    "Ġblending": 14398,
    "Ġsuper": 2153,
    "itors": 2912,
    "_)âĢĶ": 20143,
    "exp": 2738,
    "Ġbrotherhood": 23666,
    "lever": 2929,
    "cring": 20810,
    "Ġangel": 4852,
    "cleanliness": 25871,
    "Ġhelps": 9366,
    "Ġinterpretation": 19715,
    "beheld": 11798,
    "engagement": 14456,
    "Ġridic": 7508,
    "Ġexertion": 8054,
    "gently": 13727,
    "Ġdow": 17886,
    "Ġhomage": 12352,
    "rougham": 15990,
    "Ġstability": 1365,
    "breaths": 25336,
    "Ġparts": 4163,
    "Ġoptimal": 1856,
    "Ġwreath": 25936,
    "Ġdiminish": 14743,
    "Ġguilty": 7250,
    "Ġchar": 1706,
    "belong": 12119,
    "Ġpaddling": 25285,
    "abby": 14019,
    "eridge": 15523,
    "plain": 1361,
    "explained": 23140,
    "Ġoce": 3026,
    "peddling": 24696,
    "hears": 12529,
    "ucket": 2486,
    "Ġcommis": 22669,
    "Ġnantucketers": 9893,
    "errand": 22908,
    "Ġtiresome": 26156,
    "Ġsubsisted": 19117,
    "Ġ109": 24415,
    "crossed": 16631,
    "Ġship": 1090,
    "around": 12604,
    "Ġcircus": 19091,
    "turtle": 12208,
    "quer": 11676,
    "Ġhorseman": 19606,
    "ct": 309,
    "roof": 17953,
    "arranted": 19318,
    "Ġsnarled": 25716,
    "Ġcompletely": 4860,
    "venty": 6427,
    "Ġdistrict": 10317,
    "Ġamateur": 22479,
    "Ġmainz": 22652,
    "Ġhurry": 4913,
    "Ġscra": 5841,
    "Ġireland": 17333,
    "Ġjustinian": 22965,
    "Ġphrenologists": 25608,
    "Ġpreluding": 18367,
    "ackled": 22422,
    "bodily": 17313,
    "provoke": 26071,
    "enit": 17778,
    "Ġneighbors": 25806,
    "Ġaway": 1242,
    "forest": 22516,
    "Ġinequalities": 26452,
    "Ġdictate": 20150,
    "Ġpirates": 9072,
    "pon": 17624,
    "orting": 9733,
    "corrob": 24484,
    "Ġinscribed": 24938,
    "Ġplan": 3881,
    "opinion": 10983,
    "Ġ59": 24326,
    "Ġsick": 4693,
    "Ġrachel": 11844,
    "planks": 21952,
    "Ġbecomes": 6396,
    "Ġpositional": 2601,
    "Ġtreated": 7080,
    "Ġinvader": 23479,
    "Ġpleasantness": 24136,
    "determ": 7105,
    "orse": 5806,
    "Ġdam": 2217,
    "Ġdistricts": 20262,
    "Ġmagg": 18905,
    "Ġsalt": 8017,
    "Ġvilest": 20099,
    "ade": 881,
    "Ġbulwarks": 5591,
    "onement": 21255,
    "Ġquantity": 6948,
    "ish": 550,
    "Ġsherry": 19449,
    "Ġstim": 18063,
    "permitted": 18346,
    "Ġdeath": 2043,
    "Ġreputed": 18035,
    "Ġtransported": 11277,
    "jam": 15369,
    "Ġcomp": 725,
    "Ġremonstr": 16158,
    "Ġsurrey": 14557,
    "@": 36,
    "Ġlondon": 2839,
    "sm": 3433,
    "heeded": 13832,
    "restraint": 18980,
    "Ġprey": 6415,
    "Ġunprinciple": 18254,
    "apable": 6422,
    "Ġexaggerated": 25650,
    "warks": 5004,
    "Ġflitting": 13022,
    "Ġdepose": 22615,
    "america": 17096,
    "Ġauthorized": 16734,
    "suspended": 15175,
    "argue": 21443,
    "Ġinher": 10178,
    "type": 16173,
    "greenland": 10019,
    "Ġbull": 7840,
    "enough": 6809,
    "Ġpleasures": 11141,
    "Ġdeactivates": 20702,
    "Ġpaltry": 16691,
    "angible": 22102,
    "Ġassign": 11108,
    "Ġflit": 23006,
    "Ġsubord": 22787,
    "Ġharm": 5017,
    "visitor": 15058,
    "Ġwonderland": 23423,
    "utmost": 21586,
    "Ġfishy": 16521,
    "Ġlawyer": 10667,
    "+": 15,
    "through": 4024,
    "Ġprom": 1528,
    "Ġmurder": 4280,
    "Ġrosy": 18457,
    "Ġshakes": 10902,
    "ulum": 21861,
    "queen": 12723,
    "port": 10718,
    "fearing": 18530,
    "Ġtells": 9359,
    "arrange": 23765,
    "mortals": 25409,
    "vings": 9749,
    "arial": 5531,
    "Ġkind": 1787,
    "Ġstretched": 5920,
    "hailed": 17564,
    "volume": 18594,
    "Ġstoutly": 16923,
    "Ġcloser": 8659,
    "tut": 15432,
    "Ġcompanions": 5865,
    "necessary": 5882,
    "Ġmuchness": 18711,
    "robber": 21535,
    "Ġwindows": 4971,
    "Ġtriumphant": 12186,
    "Ġelopement": 10327,
    "Ġmart": 10778,
    "Ġrep": 1937,
    "nav": 17610,
    "Ġsecond": 1891,
    "dress": 17519,
    "Ġaccidentally": 9503,
    "Ġdragged": 6889,
    "windward": 24158,
    "Ġprodigies": 19792,
    "Ġdivined": 19441,
    "side": 2303,
    "Ġlies": 5295,
    "Ġgoblet": 25823,
    "Ġsubmission": 22789,
    "Ġponder": 6819,
    "Ġoccupied": 5272,
    "Ġstories": 10863,
    "Ġsparkled": 13460,
    "sensibility": 25023,
    "Ġcomponents": 8891,
    "Ġaverages": 2400,
    "Ġdevice": 1929,
    "Ġlads": 8597,
    "ark": 849,
    "Ġfading": 15580,
    "alarmed": 21501,
    "ributed": 8214,
    "trap": 24312,
    "Ġunfathom": 14787,
    "Ġtill": 1825,
    "Ġprincely": 24145,
    "Ġdeact": 18138,
    "acup": 14276,
    "Ġbrawny": 13611,
    "Ġredoubled": 23751,
    "Ġseparation": 11245,
    "erably": 7573,
    "Ġrustic": 14963,
    "bweb": 20790,
    "Ġlimited": 23544,
    "Ġmarvell": 7248,
    "Ġunp": 12768,
    "Ġnone": 3222,
    "ian": 1236,
    "ben": 4926,
    "Ġrule": 1535,
    "response": 25762,
    "Ġeucl": 24709,
    "Ġdon": 1614,
    "Ġslope": 14458,
    "Ġtrustworthy": 24104,
    "Ġreproof": 24890,
    "Ġsauc": 15887,
    "problems": 11432,
    "yesterday": 10352,
    "Ġgeneric": 18453,
    "supplied": 10518,
    "Ġchann": 15932,
    "Ġlamp": 4113,
    "Ġwilliam": 3480,
    "perform": 15898,
    "Ġsailors": 4276,
    "eman": 5636,
    "grin": 19105,
    "Ġgreen": 3050,
    "pleasing": 14740,
    "cking": 4265,
    "glorious": 19365,
    "Ġbegan": 2023,
    "Ġzones": 22817,
    "Ġadvantageously": 19544,
    "×": 152,
    "enesis": 24387,
    "Ġcrumbs": 20639,
    "Ġsubmit": 11867,
    "iliar": 15710,
    "Ġenveloping": 19732,
    "Ġnin": 10186,
    "Ġme": 351,
    "lesc": 11037,
    "Ġtennessee": 26595,
    "bishop": 13692,
    "hairs": 20903,
    "breat": 10076,
    "prow": 15409,
    "Ġmy": 411,
    "Ġrubber": 22785,
    "oken": 4306,
    "Ġimitation": 22167,
    "Ġdart": 4586,
    "Ġschoolmaster": 16861,
    "Ġfob": 21408,
    "Ġer": 8105,
    "Ġbil": 15561,
    "Ġunheeded": 18261,
    "lifted": 15384,
    "began": 6426,
    "Ġchilled": 18382,
    "Ġsurprising": 14597,
    "indust": 18435,
    "Ġcondense": 21806,
    "fetch": 12461,
    "ifferent": 4262,
    "hauteur": 26390,
    "Ġdum": 10810,
    "Ġnarratives": 24352,
    "Ġreflect": 6574,
    "Ġheartfelt": 18968,
    "escaped": 14229,
    "social": 11021,
    "enjoyments": 25433,
    "gentlemanlike": 20000,
    "Ġref": 911,
    "Ġbrag": 23831,
    "ground": 4672,
    "circumstance": 7764,
    "v": 90,
    "abash": 18107,
    "Ġdes": 1248,
    "prepare": 20211,
    "Ġrepairs": 19083,
    "Ġexpense": 7651,
    "Ġfab": 15572,
    "Ġenable": 686,
    "Ġamuse": 5940,
    "oa": 9611,
    "Ġagony": 5388,
    "reception": 15512,
    "Ġcondition": 6764,
    "Ġmasters": 11572,
    "Ġjuggling": 20437,
    "naturedly": 24840,
    "Ġfireside": 23530,
    "braid": 17493,
    "Ġkeeled": 18807,
    "Ġbaboon": 19692,
    "Ġtwee": 22673,
    "stuff": 15683,
    "Ġshol": 21993,
    "aphs": 22334,
    "Ġincidents": 9297,
    "Ġnocturnal": 20714,
    "Ġembed": 1427,
    "Ġhinting": 19648,
    "Ġparm": 15874,
    "Ġevangelist": 20337,
    "warning": 25531,
    "Ġlodged": 11250,
    "sebastian": 21817,
    "osoever": 17341,
    "Ġcuts": 14607,
    "round": 3366,
    "Ġmilitia": 13315,
    "Ġbiting": 17861,
    "Ġfoundling": 22966,
    "gus": 13723,
    "Ġflounders": 23013,
    "langu": 4807,
    "Ġchained": 16382,
    "Ġmicha": 17811,
    "Ġthy": 2515,
    "organ": 15570,
    "scattered": 22993,
    "yingly": 23059,
    "Ġbehoo": 19035,
    "Ġspeedy": 11170,
    "ur": 326,
    "Ġabsence": 4894,
    "Ġleaning": 5228,
    "Ġaffection": 2643,
    "opol": 12868,
    "Ġannals": 17898,
    "Ġauto": 23316,
    "creature": 5346,
    "isation": 13891,
    "Ġpretext": 22223,
    "ences": 1261,
    "promote": 24727,
    "goes": 10425,
    "whether": 5319,
    "Ġresolute": 19244,
    "Ġ----": 7145,
    "Ġknighthood": 25297,
    "Ġorgan": 2505,
    "Ġboats": 2641,
    "Ġmeeting": 5193,
    "Ġaverred": 18864,
    "reas": 991,
    "Ġknees": 6928,
    "¿": 128,
    "Ġlay": 583,
    "Ġconstraints": 2742,
    "Ġ177": 13410,
    "Ġtex": 15470,
    "ductive": 23933,
    "Ġporing": 21466,
    "Ġworsh": 12996,
    "Ġenquired": 21938,
    "Ġconsisted": 10418,
    "virtue": 20568,
    "res": 2760,
    "onder": 3777,
    "ons": 709,
    "anchor": 13887,
    "Ġfarewell": 9518,
    "dra": 3410,
    "Ġseizure": 21962,
    "ances": 1339,
    "Ġsuff": 1301,
    "Ġobligations": 12088,
    "Ġexecutioner": 12268,
    "reng": 4001,
    "Ġbestirred": 20450,
    "Ġfished": 21409,
    "ome": 535,
    "floating": 12224,
    "Ġdaw": 21428,
    "hatchway": 25904,
    "Ġmarriage": 3186,
    "Ġpremium": 23902,
    "prison": 14661,
    "Ġpuffs": 14974,
    "Ġpostmark": 16724,
    "awed": 10390,
    "Ġluxury": 20130,
    "Ġforeshadowing": 26591,
    "alizing": 17939,
    "ousings": 18335,
    "Ġlaurel": 20653,
    "complaisance": 24811,
    "dart": 20825,
    "Ġgazette": 19499,
    "Ġphrensy": 25124,
    "Ġappro": 658,
    "Ġmasses": 10502,
    "ara": 12602,
    "mency": 18925,
    "bod": 12434,
    "rennial": 22339,
    "Ġintrig": 21988,
    "Ġprairie": 8712,
    "Ġrapture": 13494,
    "Ġsoliloqu": 11882,
    "Ġendless": 7053,
    "Ġinevitably": 17229,
    "chel": 11205,
    "Ġsubdued": 11028,
    "Ġbuckets": 17033,
    "lemag": 21370,
    "Ġinconveniences": 24939,
    "Ġscratches": 22289,
    "Ġlullaby": 20586,
    "Ġarchbishop": 18715,
    "ating": 664,
    "Ġlucky": 7759,
    "ittarius": 22375,
    "Ġvitality": 15170,
    "Ġextent": 7655,
    "hour": 7340,
    "apse": 14197,
    "Ġyoked": 15731,
    "dee": 11730,
    "Ġcoal": 18595,
    "Ġseveral": 2674,
    "uctive": 17695,
    "Ġnobler": 14174,
    "Ġ275": 20109,
    "anxiety": 25155,
    "Ġspiteful": 19521,
    "ē": 212,
    "Ġsummer": 4790,
    "quarter": 11386,
    "fail": 17539,
    "Ġharp": 17923,
    "Ġstare": 10862,
    "icket": 22666,
    "Ġsecrecy": 7316,
    "omist": 21656,
    "vously": 23504,
    "Ġmes": 17796,
    "Ġpurch": 6599,
    "home": 7341,
    "proves": 23392,
    "hearty": 14832,
    "Ġroots": 11183,
    "generations": 23784,
    "reckoning": 25270,
    "Ġabsolute": 6765,
    "painted": 17638,
    "Ġobeying": 13412,
    "Ġstarvation": 19790,
    "Ġswan": 23050,
    "Ġfastening": 16354,
    "abbering": 21794,
    "Ġproperties": 3116,
    "Ġinde": 7371,
    "inspector": 13644,
    "Ġrever": 6536,
    "elly": 17979,
    "Ġincorporate": 20453,
    "Ġbringing": 5869,
    "countenances": 24148,
    "jammed": 25906,
    "Ġgain": 4827,
    "Ġprodigiously": 14930,
    "Ġepisode": 26346,
    "Ġparis": 8179,
    "Ġboon": 22635,
    "uding": 16147,
    "arer": 3967,
    "Ġprick": 14477,
    "Ġhastily": 5763,
    "Ġinsect": 12632,
    "che": 3170,
    "itiousness": 21332,
    "Ġdisplay": 6428,
    "derick": 22165,
    "uncomfortable": 18160,
    "Ġjewell": 19519,
    "Ġinestim": 15620,
    "Ġimag": 2676,
    "aceti": 7111,
    "sufficient": 6635,
    "Ġcourtship": 24133,
    "Ġarcher": 22182,
    "Ġsanct": 15063,
    "Ġnations": 8808,
    "Ġwhite": 1538,
    "Ġupwards": 7633,
    "Ġcalculus": 23980,
    "Ġgeometric": 3217,
    "Ġswap": 23051,
    "Ġcreep": 22727,
    "Ġeulogy": 26470,
    "Ġpetticoat": 15293,
    "!--": 10676,
    "principle": 10649,
    "Ġbrotherly": 16525,
    "whereby": 23416,
    "Ġoun": 13861,
    "Ġhealthcare": 8016,
    "Ġdreadfully": 7726,
    "Ġdaybreak": 18726,
    "Ġhurrying": 11991,
    "Ġunhing": 18241,
    "Ġreckless": 13456,
    "Ġringle": 18212,
    "Ġuncomp": 15838,
    "score": 18856,
    "homely": 25617,
    "Ġfellows": 8257,
    "iliating": 12691,
    "tee": 16170,
    "cra": 6354,
    "Ġplanet": 14748,
    "Ġdefinite": 11067,
    "joined": 13273,
    "Ġpray": 3898,
    "<EOS>": 2,
    "Ġoptimize": 1609,
    "ers": 404,
    "ages": 826,
    "Ġglaciers": 20172,
    "Ġinfidel": 13086,
    "Ġquivered": 18467,
    "Ġensure": 23686,
    "business": 5609,
    "stirred": 20423,
    "app": 1040,
    "Ġadapt": 1000,
    "found": 4212,
    "Ġdeploy": 2900,
    "tering": 3805,
    "Ġply": 21452,
    "presents": 18799,
    "Ġreserves": 19669,
    "Ġimpud": 18443,
    "Ġtragic": 15253,
    "Ġbehaviour": 4383,
    "Ġspent": 3963,
    "esteemed": 26009,
    "Ġrambled": 20167,
    "Ġflourished": 15123,
    "Ġlizz": 21555,
    "Ġcondesc": 7181,
    "bingleys": 19633,
    "Ġsunbeam": 23274,
    "Ġdust": 5909,
    ";--": 8069,
    "Ġorlop": 22089,
    "cano": 18839,
    "Ġdeclining": 23961,
    "Ġtrib": 13817,
    "was": 1420,
    "Ġmixture": 9561,
    "Ġnation": 12643,
    "varying": 13802,
    "motives": 26137,
    "Ġformal": 2939,
    "message": 17370,
    "Ġperpet": 7644,
    "Ġtro": 7356,
    "Ġmerchant": 6467,
    "Ġmourn": 8703,
    "isl": 21373,
    "ioning": 21507,
    "Ġassailed": 23175,
    "Ġdiscoloured": 15250,
    "telesc": 22816,
    "sockets": 22732,
    "Ġshrouded": 14967,
    "imin": 1771,
    "neglect": 25668,
    "Ġ27": 8614,
    "flitted": 23966,
    "Ġdizzy": 21431,
    "Ġprofounder": 23568,
    "vens": 21111,
    "oft": 3588,
    "ilty": 6394,
    "force": 12959,
    "Ġcounterbalance": 24722,
    "Ġelix": 22640,
    "varied": 23182,
    "Ġvalue": 2086,
    "papers": 12498,
    "Ġunperceived": 22035,
    "Ġnotions": 14097,
    "Ġpol": 2581,
    "ippi": 20243,
    "fancy": 7337,
    "cho": 2762,
    "Ġrobe": 18456,
    "Ġproductions": 22944,
    "ivia": 22080,
    "charitable": 23930,
    "Ġplunder": 22600,
    "dislike": 23494,
    "Ġpowdered": 24236,
    "Ġclings": 15961,
    "above": 8148,
    "dark": 5613,
    "rush": 7010,
    "Ġbush": 23336,
    "erval": 4020,
    "turkish": 24532,
    "Ġwhen": 514,
    "vation": 4744,
    "Ġillustration": 19135,
    "Ġcorner": 4369,
    "ceased": 21624,
    "Ġoutskirts": 17455,
    "Ġagatha": 6866,
    "Ġwaiting": 4322,
    "Ġblankets": 24612,
    "rogress": 21534,
    "Ġexal": 10875,
    "Ġrelentless": 26277,
    "silly": 24421,
    "likewise": 13103,
    "offices": 19061,
    "Ġhorsham": 10405,
    "aping": 8194,
    "Ġentra": 18695,
    "Ġanimate": 23421,
    "Ġcompar": 4771,
    "empty": 23634,
    "Ġbottomless": 12103,
    "nants": 17612,
    "Ġdusting": 24597,
    "Ġnathan": 21524,
    "Ġpyramids": 15112,
    "engineer": 23146,
    "ullen": 8235,
    "powerful": 24847,
    "attain": 21260,
    "Ġbrut": 18767,
    "Ġpropriety": 10008,
    "endurable": 22234,
    "distrust": 19569,
    "obser": 11097,
    "tland": 21072,
    "robotics": 11304,
    "Ġnugent": 26456,
    "Ġbeadle": 26483,
    "Ġseries": 7059,
    "Ġcaucus": 17378,
    "Ġmedit": 8019,
    "Ġparadise": 11192,
    "appe": 2941,
    "Ġview": 2763,
    "fes": 20850,
    "owards": 4595,
    "Ġpunctil": 20112,
    "Ġproclaim": 18130,
    "rael": 21627,
    "Ġprocedure": 2810,
    "Ġpeev": 22691,
    "Ĩ": 233,
    "Ġlikely": 3595,
    "ĠĠĠĠĠĠĠĠĠĠĠĠĠĠĠĠĠĠĠĠĠĠĠĠ": 5321,
    "Ġbanquet": 15238,
    "Ġmagnetic": 17239,
    "ĠĠĠĠĠĠĠĠĠĠĠĠĠĠĠĠĠĠĠĠĠĠĠĠĠĠĠĠĠĠĠĠĠĠĠĠĠĠĠĠĠĠĠĠĠĠĠĠĠĠĠ": 20037,
    "Ġpequod": 2323,
    "ppered": 15787,
    "ravity": 21633,
    "Ġexec": 19491,
    "ifying": 5235,
    "unfortunate": 15773,
    "elements": 25203,
    "hills": 13734,
    "bewil": 22495,
    "Ġignor": 4012,
    "mured": 6960,
    "ellig": 523,
    "Ġshapes": 14107,
    "Ġtapped": 11551,
    "Ġincidentally": 16953,
    "Ġcontrols": 1734,
    "hoisting": 23715,
    "asiness": 8129,
    "jep": 20925,
    "intellig": 5320,
    "tied": 21069,
    "Ġducking": 17145,
    "seated": 11669,
    "Ġsolitudes": 22885,
    "viating": 14578,
    "Ġembark": 8557,
    "unexpected": 15774,
    "conscience": 14858,
    "screen": 22994,
    "apprec": 22842,
    "Ġstartled": 7082,
    "departure": 15232,
    "Ġconcentric": 20073,
    "ĠĠĠĠĠĠĠĠĠĠĠĠĠĠĠĠĠĠĠĠĠĠĠĠĠĠĠĠĠĠĠĠĠĠĠĠĠĠĠĠĠĠĠ": 12151,
    "Ġwish": 2099,
    "Ġthirdly": 24140,
    "Ġpatch": 4178,
    "Ġsteward": 6584,
    "Ġwol": 15527,
    "Ġstript": 23692,
    "Ġstruggled": 9903,
    "Ġtouch": 3393,
    "Ġanomalously": 25638,
    "clam": 13051,
    "gro": 10093,
    "Ġanim": 2114,
    "Ġspermaceti": 8966,
    "subst": 12161,
    "heim": 17745,
    "Ġbachelor": 7787,
    "Ġappointed": 20101,
    "Ġwhirl": 13447,
    "owe": 15704,
    "Ġtransom": 22436,
    "Ġconsummation": 17423,
    "beginning": 13559,
    "ptember": 10891,
    "Ġchinks": 22249,
    "Ú": 155,
    "Ġapplicable": 19005,
    "lighter": 20958,
    "ii": 4015,
    "Ġhoard": 23351,
    "Ġsavann": 14683,
    "Ġalliance": 18235,
    "Ġvisited": 5949,
    "Ġoarsman": 8637,
    "ishnoo": 10953,
    "Ġguardians": 14941,
    "etence": 21575,
    "Ġwantonly": 22893,
    "ven": 779,
    "founded": 16713,
    "Ġarticulate": 24431,
    "Ġsang": 12531,
    "odes": 18116,
    "severe": 21816,
    "Ġworried": 22924,
    "Ġintimacy": 8700,
    "hated": 17560,
    "Ê": 139,
    "avers": 17479,
    "Ġbarnacled": 25536,
    "Ġintrepidity": 25550,
    "Ġwrought": 11941,
    "etian": 13957,
    "Ġobsolete": 26557,
    "Ġrevered": 23732,
    "etts": 12656,
    "Ġsnug": 8280,
    "Ġyoun": 1406,
    "Ġexpired": 18623,
    "Ġcounteracted": 19861,
    "Ġextracts": 9361,
    "Ġquarters": 8619,
    "itatingly": 25277,
    "ulty": 22565,
    "Ġaugmented": 15103,
    "Ġafloat": 9306,
    "Ġrelev": 1718,
    "Ġscores": 2715,
    "Ġremedy": 18724,
    "fall": 5135,
    "ture": 7558,
    "barn": 17481,
    "Ġtwig": 11847,
    "Ġtombed": 25160,
    "iners": 4937,
    "Ġexig": 21824,
    "Ġfluke": 14672,
    "Ġgreenhorn": 23767,
    "fol": 4862,
    "ound": 586,
    "latitudes": 17195,
    "retirement": 23137,
    "Ġindelicacy": 25695,
    "relapse": 24013,
    "clifford": 23155,
    "pudding": 17646,
    "Ġhypocritical": 20737,
    "figures": 20120,
    "Ġdrives": 14577,
    "law": 6115,
    "aren": 10072,
    "Ġinjunctions": 24268,
    "Ġoppressively": 25712,
    "esy": 9181,
    "Ġsleet": 8974,
    "contrary": 23727,
    "imet": 21704,
    "whaling": 7900,
    "Ġsummarization": 3643,
    "Ġworshipper": 25692,
    "Ġdear": 1539,
    "Ġouter": 6859,
    "Ġbaleful": 24984,
    "Ġlightning": 5750,
    "Ġpenn": 11110,
    "Ġlengths": 19205,
    "Ġcapting": 23019,
    "Ġraved": 22645,
    "Ġremoved": 5274,
    "Ġsens": 1853,
    "Ġsnuffing": 25012,
    "Ġsweetheart": 19393,
    "worship": 19385,
    "Ġtong": 4870,
    "Ġsplendidly": 25327,
    "Ġsane": 21220,
    "Ġsubsisting": 23433,
    "Ġinfinity": 23281,
    "orphans": 26439,
    "Ġdinnertime": 16718,
    "Ġpreser": 6040,
    "yard": 5900,
    "socket": 22731,
    "stained": 21647,
    "Ġconsecrated": 26487,
    "Ġiceland": 15144,
    "Ġanatomical": 15074,
    "Ġz": 1001,
    "jets": 20927,
    "Ġinfancy": 10408,
    "Ġcourting": 23290,
    "Ġdeliverer": 11947,
    "Ġostens": 25275,
    "zek": 16259,
    "Ġvineyard": 12327,
    "cher": 5786,
    "Ġalps": 10868,
    "eat": 11480,
    "ced": 696,
    "Ġexcitement": 9379,
    "Ġpestilent": 25777,
    "Ġacknowled": 6350,
    "Ġuncompromised": 20602,
    "whatsoever": 18487,
    "Ġoptimizers": 18627,
    "Ġtuples": 13475,
    "Ġstochastic": 3263,
    ",)": 9099,
    "Ġrel": 1095,
    "Ġloudly": 7312,
    "Ġconsort": 18723,
    "Ġpips": 9847,
    "Ġtoilette": 20491,
    "Ġfang": 21401,
    "enet": 10151,
    "dripping": 16904,
    "Ġendeared": 26497,
    "Ġrejected": 12291,
    "anguish": 15977,
    "tete": 10731,
    "Ġhundreds": 4327,
    "macy": 18804,
    "representativeness": 25272,
    "Ġglobular": 19011,
    "disposed": 25010,
    "Ġprivile": 8645,
    "Ġconsequent": 18110,
    "Ġdiscipline": 26560,
    "Ġdestroy": 5772,
    "Ġri": 3392,
    "sar": 12501,
    "Ġindisp": 18834,
    "Ġcotton": 17377,
    "telescope": 26561,
    "aurs": 20768,
    "ks": 3144,
    "Ġinconsist": 17935,
    "Ġtests": 8955,
    "Ġcontinuation": 22915,
    "Ġconsistent": 14527,
    "Ġwished": 3728,
    "Ġgarden": 3825,
    "Ġpaces": 13917,
    "Ġimpelling": 22379,
    "Ġfinancier": 26582,
    "Ġintervened": 25481,
    "Ġpacific": 5153,
    "circumstances": 8047,
    "Ġwho": 612,
    "Ġushered": 18356,
    "Ġindians": 14408,
    "Ġcoil": 11815,
    "Ġstubbornness": 25380,
    "â": 163,
    "uzza": 11268,
    "ashions": 16415,
    "Ġawaited": 17073,
    "confirmation": 26089,
    "Ġcase": 1940,
    "Ġdefici": 22941,
    "Ġacting": 10989,
    "Ġdarker": 13117,
    "Ġapples": 22214,
    "Ġquohog": 10970,
    "their": 2542,
    "Ġapproximates": 2420,
    "supper": 12918,
    "consent": 18501,
    "oked": 4307,
    "Ġculprit": 26172,
    "Ġremarks": 7474,
    "hered": 5622,
    "Ġmotions": 8281,
    "Ġcure": 21338,
    "Ġvintage": 26209,
    "Ġbuoyancy": 20040,
    "Ġelijah": 9098,
    "roll": 9195,
    "Ġterms": 2565,
    "Ġbenevolent": 7773,
    "news": 23130,
    "tolerable": 17687,
    "Ġgreenland": 5761,
    "Ġvehicles": 10658,
    "reement": 15509,
    "Ġexperience": 1404,
    "Ġsnatching": 10471,
    "march": 13753,
    "wa": 5897,
    "Ġorgans": 15862,
    "Ġbased": 3337,
    "alous": 7372,
    "Ġsimplest": 16331,
    "resh": 8404,
    "conjectured": 25181,
    "Ġsixteen": 8283,
    "Ġbilliard": 16688,
    "secret": 12233,
    "stein": 5505,
    "trop": 15434,
    "Ġtreatment": 12068,
    "Ġpig": 5705,
    "feared": 11799,
    "Ġvit": 10244,
    "Ġblend": 14397,
    "makes": 10710,
    "Ġineffable": 17330,
    "Ġspeculations": 22996,
    "Ġinstability": 3812,
    "wooden": 24588,
    "Ġintrepid": 11702,
    "indebted": 26158,
    "dan": 17514,
    "pips": 21019,
    "_?âĢĿ": 15303,
    "hidden": 17369,
    "rebellum": 26165,
    "Ġdive": 10171,
    "bank": 10078,
    "Ġuttered": 7280,
    "vineyard": 25421,
    "Ġaston": 3700,
    "Ġmingled": 12374,
    "income": 15484,
    "Ġazure": 12371,
    "Ġdenying": 14657,
    "venant": 22625,
    "comm": 7440,
    "Ġeconomical": 25287,
    "Ġmarlings": 23033,
    "Ġtraitors": 23077,
    "Ġproduces": 2094,
    "Ġhigher": 1821,
    "Ġoverlooking": 22356,
    "Ġleaders": 16626,
    "Ġeffusion": 22515,
    "Ġfiddle": 25444,
    "Ġpoint": 2057,
    "Ġadviser": 25312,
    "rusted": 16505,
    "vices": 21115,
    "Ġlid": 6983,
    "erland": 9639,
    "94": 4803,
    "irr": 12733,
    "nered": 18488,
    "Ġtend": 6120,
    "def": 1453,
    "ow": 325,
    "Ġdecently": 22440,
    "roses": 17956,
    "Ġindestructible": 26571,
    "Ġdepl": 14044,
    "Ġundulates": 24116,
    "Ġsul": 7570,
    "Ġmistakes": 16539,
    "esc": 616,
    "Ġspread": 5161,
    "south": 8758,
    "Ġethiopian": 26612,
    "Ġimprinted": 22383,
    "Ġinsufficient": 9671,
    "Ġassistance": 6333,
    "Ġoutside": 5553,
    "Ġdepended": 9777,
    "Ġpain": 2305,
    "Ġsupers": 18281,
    "Ġvictim": 6098,
    "yes": 987,
    "Ġlongitudes": 22632,
    "semic": 21818,
    "Ġfreshness": 23985,
    "Ġtouched": 6001,
    "reflections": 24735,
    "elius": 13285,
    "avern": 24792,
    "Ġfaire": 13362,
    "Ġargue": 16782,
    "Ġthickly": 12112,
    "Ġsociet": 9447,
    "girl": 12315,
    "gul": 12462,
    "Ġlandowner": 23379,
    "iamond": 14589,
    "Ġpil": 5014,
    "Ġtowards": 1731,
    "Ġbarbarous": 13474,
    "moved": 9783,
    "Ġarchitectures": 2908,
    "forgotten": 12412,
    "Ġinequal": 21495,
    "iously": 2678,
    "Ġlimb": 9400,
    "Ġd": 284,
    "Ġwhirlp": 16962,
    "Ġindisc": 16226,
    "arying": 9799,
    "Ġexploit": 19161,
    "result": 12041,
    "Ġample": 11795,
    "Ġcannibal": 7774,
    "quadrille": 20593,
    "Ġobed": 8535,
    "Ġ200": 19294,
    "parted": 21015,
    "ounder": 11741,
    "Ġgenerously": 22398,
    "cules": 12388,
    "trick": 19411,
    "chester": 23805,
    "Ġsuspic": 4470,
    "Ġjustification": 22964,
    "Ġcasts": 19424,
    "upp": 10129,
    "itious": 8778,
    "Ġextremely": 2670,
    "ee": 1660,
    "Ġlun": 7856,
    "ording": 9762,
    "Ġhaz": 12751,
    "Ġprotruding": 16657,
    "Ġarbitrary": 4736,
    "ctor": 13958,
    "Ġset": 1177,
    "Ġfearful": 6197,
    "irting": 11683,
    "Ġcomprehended": 11292,
    "girls": 12316,
    "Ġwestmorland": 24389,
    "Ġathe": 17740,
    "Ġinvis": 6902,
    "and": 372,
    "Ġtax": 13814,
    "lections": 4752,
    "Ġstables": 23653,
    "Ġbuzz": 23994,
    "ention": 856,
    "gives": 15355,
    "drive": 8682,
    "Ġbutter": 6842,
    "Ġtallow": 14776,
    "reporting": 24493,
    "Ġcrush": 9420,
    "Ġfrequented": 16584,
    "Ġenemy": 5604,
    "bent": 15309,
    "ckles": 22092,
    "tell": 1381,
    "Ġan": 286,
    "endent": 15922,
    "verse": 9686,
    "omn": 15686,
    "Ġbackstays": 22661,
    "educated": 17258,
    "Ġthreatening": 16827,
    "Ġinnocence": 6477,
    "Ġbedroom": 7277,
    "Ġcontradictory": 20395,
    "Ġhatch": 7848,
    "cod": 12440,
    "Ġrepented": 23361,
    "farmer": 25899,
    "Ġbraces": 14668,
    "Ġsheer": 14149,
    "Ġcontrived": 10302,
    "Ġfury": 7662,
    "Ġlasting": 18794,
    "Ġincredulity": 11309,
    "dependence": 17166,
    "Ġinseparable": 20687,
    "Ġfaultless": 24539,
    "Ġpittance": 15613,
    "noo": 9790,
    "gentleness": 24844,
    "similar": 13451,
    "riend": 1185,
    "Ġinvestigation": 9041,
    "Ġoccup": 3738,
    "namely": 23703,
    "fixed": 7548,
    "reshold": 21238,
    "bil": 20770,
    "acquired": 24295,
    "Ġsultry": 20287,
    "Ġrigid": 16715,
    "liament": 16215,
    "ju": 13739,
    "mr": 1902,
    "Ġpa": 2986,
    "agony": 14067,
    "Ġthrusting": 10551,
    "augmented": 26286,
    "mistake": 24528,
    "Ġunchanging": 22043,
    "irty": 4050,
    "Ġnext": 2139,
    "ladies": 9527,
    "Ġrue": 11864,
    "Ġcheerily": 13305,
    "blot": 20782,
    "aired": 8369,
    "bell": 7332,
    "occurrences": 26331,
    "Ġaged": 10320,
    "friend": 3862,
    "delirious": 19504,
    "weight": 2937,
    "Ġpredecess": 18518,
    "Ġcarpenters": 16751,
    "bench": 16802,
    "combe": 7661,
    "Ġflames": 7940,
    "Ġpearl": 20375,
    "Ġtrespass": 23599,
    "carte": 25400,
    "Ġsan": 7825,
    "lays": 14920,
    "Ġcities": 17827,
    "needle": 20309,
    "Ġonto": 14030,
    "ence": 393,
    "Ġdawned": 14992,
    "Ġturn": 1296,
    "tremble": 17140,
    "upper": 11536,
    "cy": 640,
    "Ġconsiderations": 9408,
    "Ġtep": 21160,
    "Ġfrogs": 23920,
    "Ġmagnitudes": 3821,
    "Ġcomfor": 14052,
    "Ġsank": 5076,
    "Ġcow": 13874,
    "oubtedly": 6943,
    "Ġdiscoverers": 26036,
    "Ġhoarse": 14525,
    "Ġrattler": 24997,
    "delirium": 14783,
    "Ġflip": 11910,
    "Ġobtaining": 16129,
    "Ġrecurred": 18977,
    "Ġteacup": 16200,
    "itively": 21329,
    "Ġprecip": 7074,
    "Ġlabyrinth": 13677,
    "Ġpromise": 4196,
    "Ġpreacher": 18368,
    "Ġphilosopher": 12180,
    "Ġdoing": 3657,
    "Ġmadness": 6601,
    "Ġbye": 12734,
    "Ġfatal": 5871,
    "restrained": 16333,
    "Ġemblematical": 25788,
    "painful": 13500,
    "poor": 6061,
    "Ġcontextually": 11951,
    "Ġreverber": 19868,
    "Ġrecursive": 4782,
    "Ġlatest": 16821,
    "del": 4076,
    "county": 25396,
    "Ġcreator": 7254,
    "Ġcontest": 18473,
    "Ġscope": 15941,
    "Ġbru": 13893,
    "eel": 11481,
    "wal": 10132,
    "somerset": 26322,
    "Ġsympathising": 24296,
    "Ġphantoms": 13484,
    "discrimin": 19607,
    "okingly": 22388,
    "ellations": 21942,
    "Ġkicking": 16900,
    "Ġdestro": 3721,
    "Ġcumulative": 4209,
    "Ġcust": 11579,
    "yra": 8103,
    "full": 7420,
    "Ġcolumbus": 26563,
    "orph": 21397,
    "Ġcent": 3251,
    "Ġbree": 5012,
    "Ġmonkey": 8226,
    "Ġyarman": 12701,
    "Ġowes": 20083,
    "Ġincant": 18568,
    "âĢĿâĢĶ": 5721,
    "Ġpriest": 7526,
    "glo": 8737,
    "Ġimpo": 3439,
    "Ġexpensive": 12914,
    "Ġsomewhere": 5384,
    "Ġmajest": 24057,
    "means": 9784,
    "Ġindolence": 16227,
    "plague": 21951,
    "Ġell": 17714,
    "Ġilliterate": 26593,
    "Ġbeaver": 18085,
    "Ġcircles": 7967,
    "Ġboxed": 24359,
    "Ġcongenial": 12407,
    "contrasted": 17304,
    "Ġforgive": 8010,
    "Ġscuff": 15940,
    "shortened": 24748,
    "spears": 23939,
    "tumbled": 21089,
    "Ġenumer": 12741,
    "Ġcord": 5222,
    "Ġhospital": 15038,
    "Ġdischarged": 15218,
    "Ġforming": 7042,
    "Ġheath": 15698,
    "Ġdownwards": 8529,
    "âĢĻ-": 18166,
    "elag": 12654,
    "Ġanonym": 17897,
    "pread": 7418,
    "Ġdrawn": 4275,
    "Ġmiracle": 15091,
    "agon": 7872,
    "covery": 11169,
    "Ġpolar": 9409,
    "Ġcheating": 16364,
    "inlaid": 21189,
    "Ġdistressing": 12215,
    "Ġcellars": 24665,
    "netherfield": 9811,
    "bouton": 17500,
    "Ġlithe": 24668,
    "Ġ36": 14765,
    "skylight": 25623,
    "alle": 1292,
    "Ġaccelerate": 23227,
    "awake": 14450,
    "jet": 13740,
    "Ġparamet": 610,
    "Ġtranslation": 3084,
    "correspond": 13396,
    "scap": 22988,
    "Ġtrad": 9826,
    "Ġruins": 16155,
    "clearly": 25195,
    "Ġdirt": 15590,
    "Ġiroquois": 26469,
    "Ġpainting": 13139,
    "Ġharrow": 17925,
    "Ġsoil": 9253,
    "Ġhanded": 8217,
    "Ġtying": 15471,
    "promised": 12248,
    "Ġcatching": 9476,
    "wling": 11542,
    "resentment": 15183,
    "Ġvain": 3626,
    "Ġdank": 21427,
    "Ġqualifications": 24675,
    "vedale": 22710,
    "Ġmystical": 12129,
    "Ġidly": 16402,
    "stricken": 9883,
    "Ġlurking": 11287,
    "sir": 5001,
    "Ġfoolishly": 19781,
    "Ġoccasional": 7289,
    "Ġfirst": 938,
    "skirted": 24488,
    "Ġmute": 19414,
    "housekeeping": 24100,
    "Ġsuccessive": 10499,
    "Ġvest": 8163,
    "sleeping": 13452,
    "Ġbuying": 23993,
    "horr": 14599,
    "Ġquietude": 19358,
    "rack": 18010,
    "Ġcovent": 16071,
    "Ġcham": 4892,
    "Ġfrance": 7682,
    "Ġpapa": 10655,
    "Ġthoughtfulness": 18772,
    "ru": 478,
    "Ġmanifested": 17156,
    "Ġsymmetry": 20364,
    "Ġlightly": 13081,
    "Ġhate": 5445,
    "Ġbonds": 17869,
    "Ġmeetings": 16530,
    "Ġdependencies": 2315,
    "curious": 10481,
    "represented": 20194,
    "Ġmerits": 13192,
    "ourers": 21448,
    "Ġcommunicate": 10576,
    "Ġmadden": 10446,
    "Ġmalacca": 24392,
    "Ġafter": 871,
    "crawling": 16957,
    "Ġtumbled": 13404,
    "Ġappearances": 10450,
    "pents": 11510,
    "reed": 6373,
    "Ġretirement": 25378,
    "during": 6787,
    "ighter": 7968,
    "Ġquadrille": 13539,
    "Ġiron": 3233,
    "wra": 11539,
    "Ġribbed": 16803,
    "pierced": 26141,
    "Ġanaly": 1149,
    "led": 581,
    "omeness": 18022,
    "Ġjail": 22292,
    "Ġtheore": 1830,
    "Ġinnermost": 12157,
    "Ġ62": 24364,
    "Ġhospitals": 24923,
    "sur": 4524,
    "Ġswam": 6448,
    "Ġleviathan": 3287,
    "ife": 1026,
    "Ġparagraph": 17452,
    "Ġfacing": 10170,
    "Ġstudies": 7956,
    "sheet": 16283,
    "Ġtheme": 16016,
    "leman": 21366,
    "unerative": 21894,
    "Ġcoarse": 14272,
    "eminence": 20097,
    "het": 5435,
    "gainst": 25141,
    "Ġrand": 1585,
    "bureau": 20788,
    "Ġincredulous": 9985,
    "Ġexhaled": 19681,
    "volutions": 16320,
    "Ġtype": 2021,
    "Ġallegro": 25794,
    "suggested": 17297,
    "ceptible": 10954,
    "Ġsutherland": 10147,
    "practical": 17220,
    "sphere": 22735,
    "ete": 9202,
    "Ġarrangements": 16513,
    "urons": 3129,
    "Ġbambooz": 26119,
    "Ġshuddering": 9050,
    "Ġboston": 22636,
    "Ġattendant": 11283,
    "rough": 588,
    "dispute": 23499,
    "Ġvanquished": 22871,
    "Ġsmooth": 2779,
    "ï": 176,
    "Ġpreceding": 7528,
    "Ġflatt": 16245,
    "Ġspoke": 2749,
    "patter": 4390,
    "sery": 17660,
    "renadier": 18419,
    "Ġessex": 20125,
    "Ġrefuse": 5739,
    "oded": 11667,
    "Ġscript": 18399,
    "Ġholding": 4979,
    "Ġexciting": 23311,
    "itching": 21333,
    "Ġdamps": 23475,
    "Ġstrictest": 17041,
    "Ġwhither": 10213,
    "cocks": 23560,
    "Ġsled": 21217,
    "Ġachieve": 3669,
    "Ġbubblingly": 25632,
    "Ġperceive": 6699,
    "genteel": 19947,
    "Ġinsignificant": 20455,
    "atively": 2697,
    "Ġripp": 11217,
    "Ġsar": 21212,
    "Ġspending": 10921,
    "Ġstarboard": 7604,
    "Ġruskin": 25808,
    "Ġmental": 21318,
    "shaped": 10307,
    "falgar": 26130,
    "lemency": 21372,
    "ouring": 6420,
    "Ġcorpse": 6638,
    "Ġdrooping": 9418,
    "harm": 13733,
    "Ġplaus": 22597,
    "arrow": 4177,
    "Ġperemptory": 25740,
    "Ġvertu": 23888,
    "system": 3698,
    "baboon": 25516,
    "Ġquitted": 5311,
    "Ġthoroughly": 8348,
    "Ġsunken": 14492,
    "Ġhieroglyph": 11967,
    "Ġardu": 22181,
    "Ġsen": 9155,
    "Ġobjecting": 18896,
    "Ġjesty": 18405,
    "Ġgnawed": 25164,
    "mid": 5616,
    "Ġxviii": 23408,
    "Ġcomposure": 7217,
    "Ġsubject": 2467,
    "Ġwrenched": 12554,
    "Ġreverence": 12056,
    "intervals": 10636,
    "Ġcompressed": 21855,
    "Ġpioneer": 17918,
    "Ġmeasured": 9802,
    "hauled": 20667,
    "Ġpaternal": 16387,
    "Ġadvice": 4901,
    "oing": 15399,
    "Ġarthur": 7196,
    "Ġinadequate": 17936,
    "Ġentering": 6285,
    "Ġalpha": 13586,
    "Ġsiam": 13836,
    "Ġrickety": 26504,
    "Ġclients": 19730,
    "Ġhath": 12624,
    "division": 20047,
    "Ġ35": 24073,
    "forever": 22517,
    "foreseen": 14252,
    "carpet": 25202,
    "Ġshetland": 22157,
    "lengths": 24846,
    "concern": 5875,
    "cturn": 17986,
    "Ġkne": 4266,
    "sterdam": 19090,
    "Ġobtru": 18675,
    "Ġgangs": 21607,
    "nect": 663,
    "Ġskills": 1840,
    "rugg": 15893,
    "conditional": 9077,
    "Ġbeamed": 23720,
    "ainted": 3655,
    "Ġabundant": 17153,
    "Ġbewil": 11655,
    "dia": 2134,
    "narrow": 11505,
    "pounds": 21024,
    "Ġpresumed": 10543,
    "Ġblandly": 20322,
    "valley": 16212,
    "Ġsympathetic": 17357,
    "Ġconjoined": 21804,
    "Ġpleasantly": 14519,
    "doc": 23374,
    "conclusive": 25673,
    "Ġclad": 12835,
    "Ġpale": 4533,
    "Ġfi": 925,
    "luded": 4226,
    "Ġindulge": 10581,
    "Ġcough": 11578,
    "Ġfancying": 12109,
    "ague": 3905,
    "Ġluck": 4880,
    "nels": 12492,
    "Ġobscure": 9552,
    "rel": 3753,
    "Ġlivelong": 25511,
    "Ġcharacter": 2795,
    "Ġhalls": 19524,
    "glanced": 19364,
    "difference": 13706,
    "Ġsenior": 17170,
    "Ġsacr": 7195,
    "Ġfulfil": 9549,
    "Ġmagnus": 18957,
    "olerable": 7182,
    "Ġchowders": 18386,
    "Ġcha": 6853,
    "ga": 17549,
    "dled": 9109,
    "doubtful": 24791,
    "user": 5105,
    "Ġstores": 18068,
    "Ġdealing": 14045,
    "Ġjoyously": 19345,
    "Ġp": 289,
    "calabash": 22894,
    "whe": 1071,
    "Ġexclusiveness": 23924,
    "Ġtraffic": 23082,
    "Ġcataract": 23426,
    "Ġtars": 21163,
    "Ġfitted": 6243,
    "Ġrepair": 11975,
    "Ġpatted": 16385,
    "Ġgratifying": 13303,
    "Ġcruise": 12046,
    "Ġcircumn": 11980,
    "Ġradney": 6775,
    "Ġbuck": 7157,
    "pest": 6964,
    "Ġreality": 7057,
    "Ġmapp": 2083,
    "wonder": 6371,
    "Ġpressure": 13420,
    "Ġrom": 4526,
    "Ġtreading": 16502,
    "mild": 15389,
    "Ġupper": 5090,
    "Ġreappearance": 21665,
    "Ġstep": 752,
    "Ġbreaching": 23346,
    "Ġnose": 4402,
    "isticated": 1501,
    "Ġmoney": 3416,
    "inqu": 6121,
    "Ġconquered": 14024,
    "instead": 14811,
    "Ġdexterously": 25295,
    "doctor": 19095,
    "landed": 18954,
    "Ġfemales": 14935,
    "Ġgroans": 14822,
    "rank": 21040,
    "answers": 22138,
    "grampus": 18617,
    "Ġgallon": 24183,
    "Ġlogger": 11950,
    "ĠâĢĺ": 1632,
    "Ġtapering": 8770,
    "underneath": 23787,
    "magistrate": 19862,
    "Ġgrievances": 20647,
    "ofs": 11827,
    "sound": 6799,
    "Ġtale": 5142,
    "Ġperceiving": 8874,
    "Ġselecting": 16683,
    "bald": 16445,
    "Ġsepul": 14088,
    "ĸ": 249,
    "Ġdev": 897,
    "Ġcleaned": 23180,
    "Ġnarwhale": 12290,
    "Ġhurtling": 24959,
    "deserts": 25379,
    "Ġray": 18640,
    "exhibited": 18477,
    "Ġability": 2765,
    "Ġtruth": 3318,
    "osen": 6855,
    "Ġswashing": 23055,
    "fil": 12459,
    "arance": 4698,
    "Ġhated": 7584,
    "Ġlimber": 16477,
    "Ġminus": 18749,
    "rents": 5308,
    "ciousness": 20816,
    "Ġperceptible": 18451,
    "Ġsupposing": 6729,
    "Ġrejoinder": 24598,
    "Ġcaptured": 7245,
    "Ġglass": 4368,
    "verd": 21725,
    "utely": 8132,
    "Ġdumb": 7844,
    "Ġhoist": 11973,
    "Ġtenderest": 23549,
    "progress": 11984,
    "Ġrouse": 15818,
    "Ġgrating": 14354,
    "Ġpunctually": 17137,
    "Ġrepine": 16408,
    "Ġext": 886,
    "fulfil": 16038,
    "osa": 22258,
    "isles": 15560,
    "Ġboom": 9308,
    "aux": 14287,
    "Ġlines": 4535,
    "Ġrun": 2354,
    "Ġtemptation": 8677,
    "Ġcontinuous": 1563,
    "Ġunbounded": 18259,
    "haps": 1671,
    "Ġtricks": 13482,
    "scheme": 15252,
    "Ġmax": 2007,
    "Ġaware": 5756,
    "pop": 17630,
    "ched": 1545,
    "ĠĠĠĠĠĠ": 6414,
    "behaviour": 11299,
    "Ġjustly": 11900,
    "Ġperseus": 10602,
    "Ġcomplexity": 1694,
    "Ġber": 5698,
    "Ġpaddled": 20200,
    "Ġresp": 2496,
    "organic": 25946,
    "Ġpunctures": 25133,
    "Ġcongrat": 5827,
    "Ġleeward": 6210,
    "felix": 10652,
    "Ġlump": 21550,
    "ulance": 15763,
    "hum": 3776,
    "Ġundertaken": 18987,
    "Ġwander": 9030,
    "Ġhey": 11639,
    "Ġdisgrace": 7214,
    "feren": 766,
    "Ġthackeray": 26454,
    "scores": 22990,
    "Ġmiserable": 3631,
    "å": 166,
    "Ġir": 1994,
    "Ġpooh": 18603,
    "Ġdemand": 4947,
    "derbyshire": 18322,
    "Ġevid": 3498,
    "Ġtruest": 16702,
    "irwin": 8468,
    "Ġvillanous": 24051,
    "Ġarose": 7360,
    "Ġrushes": 20506,
    "sembled": 7263,
    "looked": 6084,
    "Ġfielding": 16224,
    "tstone": 21083,
    "Ġweapons": 10592,
    "Ġnotwithstanding": 9712,
    "Ġinterchange": 16068,
    "singing": 24362,
    "should": 3259,
    "Ġchaps": 14178,
    "unavoid": 14060,
    "explaining": 23139,
    "uvier": 9067,
    "attempted": 20173,
    "Ġcomprehend": 6494,
    "Ġstage": 7389,
    "attending": 18916,
    "Ġcursory": 18854,
    "Ġclamorous": 24909,
    "Ġpockets": 8894,
    "knowing": 10436,
    "arrang": 14651,
    "Ġgrop": 12660,
    "Ġprocessing": 878,
    "Ġsurprised": 3829,
    "Ġnervous": 2407,
    "Ġworsted": 19993,
    "gentlemen": 9502,
    "Ġripe": 13232,
    "isons": 17849,
    "lab": 3454,
    "Ġpulley": 2973,
    "Ġdependence": 18648,
    "intments": 18821,
    "ingley": 1544,
    "Ġwitty": 21291,
    "Ġpad": 8125,
    "Ġnecessary": 4473,
    "waiting": 12217,
    "Ġmyself": 1455,
    "gypt": 8261,
    "Ġgravesend": 15214,
    "knows": 19172,
    "Ġsomewhat": 4897,
    "possess": 5984,
    "Ġdre": 1746,
    "Ġpossibly": 4514,
    "Ġsevent": 18202,
    "Ġmeagre": 21811,
    "written": 7995,
    "Ġconstantly": 11969,
    "Ġcleat": 18946,
    "Ġvia": 2385,
    "Ġnowadays": 18546,
    "Ġcrowder": 19454,
    "veral": 2353,
    "Ġconcer": 23320,
    "Ġremained": 3139,
    "Ġdissembling": 26254,
    "Ġetext": 23947,
    "Ġgritted": 22803,
    "Ġmis": 919,
    "Ġfiftieth": 24703,
    "Ġheavier": 13100,
    "nne": 20988,
    "Ġdisappointment": 6626,
    "Ġumb": 11644,
    "Ġdarted": 4758,
    "Ġmarvellous": 7538,
    "Ġcircum": 8258,
    "Ġresidual": 1679,
    "ĠĠĠĠĠĠĠĠĠĠĠĠĠĠĠĠĠ": 22947,
    "Ġinc": 702,
    "Ġtransl": 2830,
    "Ġsole": 3296,
    "wide": 10136,
    "Ġcoefficient": 2882,
    "pointing": 12221,
    "Ġresignation": 18566,
    "Ġcompletion": 12144,
    "Ġindiam": 22951,
    "cks": 3077,
    "Ġsecuring": 11988,
    "nurse": 15206,
    "Ġtry": 3132,
    "unaffected": 21881,
    "Ġabuse": 18392,
    "Ġebony": 18008,
    "pin": 13765,
    "icing": 9199,
    "Ġglimmered": 20170,
    "Ġy": 341,
    "awned": 19458,
    "ropes": 7904,
    "Ġgen": 5296,
    "Ġdecline": 9285,
    "Ġbake": 21380,
    "Ġevidently": 6759,
    "sweeping": 24619,
    "Ġfearlessness": 19160,
    "Ġgaiety": 16748,
    "Ġprojects": 9509,
    "Ġbrad": 8785,
    "Ġalthough": 4149,
    "fierce": 25255,
    "Ġpatent": 11965,
    "Ġjudges": 14684,
    "Ġjapanese": 10631,
    "Ġenveloped": 12205,
    "Ġcum": 21340,
    "suddenly": 6493,
    "brilliancy": 26077,
    "0": 20,
    "Ġmechanical": 7937,
    "Ġsensations": 5259,
    "suited": 22643,
    "Ġinit": 817,
    "Ġdiversity": 25284,
    "flutter": 23968,
    "Ġcased": 21344,
    "Ġsail": 1673,
    "Ġtalker": 23369,
    "Ġimpetuous": 25570,
    "Ġmariners": 6068,
    "arat": 9179,
    "heaving": 21206,
    "Ġuser": 15912,
    "Ġshrieking": 24758,
    "Ġ112": 24436,
    "away": 4626,
    "Ġoper": 2121,
    "Ġabomination": 22276,
    "absolute": 17121,
    "Ġgrappling": 25812,
    "Ġbundle": 13424,
    "ivery": 17571,
    "ivation": 3108,
    "Ġperformer": 18754,
    "tie": 21067,
    "avoiding": 25236,
    "increase": 20267,
    "Ġsignature": 16491,
    "Ġstraightened": 12105,
    "Ġ55": 24322,
    "Ġtriumphal": 24370,
    "Ġverge": 23885,
    "limping": 26392,
    "Ġancestry": 25641,
    "melancholy": 12350,
    "Ġreck": 6537,
    "ribute": 7227,
    "mbling": 3343,
    "Ġcabs": 23640,
    "800": 17475,
    "dutch": 17217,
    "Ġlater": 6017,
    "rences": 9270,
    "Ġbowls": 23769,
    "Ġstated": 9687,
    "Ġdecisive": 18485,
    "furniture": 20241,
    "ropy": 1101,
    "Ġcooked": 13267,
    "Ġsound": 2242,
    "Ġmaintainable": 12932,
    "erness": 6434,
    "Ġforeseen": 16441,
    "old": 798,
    "Ġrod": 9278,
    "Ġstandard": 14496,
    "Ġdecreasing": 2446,
    "Ġnewcastle": 16220,
    "igations": 18043,
    "utting": 17984,
    "cour": 4480,
    "Ġprofits": 16487,
    "Ġgeorgia": 23884,
    "endous": 6851,
    "Ġmarrying": 6177,
    "Ġmyster": 5926,
    "uries": 6147,
    "Ġtell": 1469,
    "Ġtouches": 20569,
    "Ġdaughter": 2868,
    "ondency": 15267,
    "Ġbeams": 14630,
    "Ġready": 3395,
    "Ġmodest": 15914,
    "Ġclaps": 22345,
    "Ġont": 18120,
    "Ġpillow": 10036,
    "urmount": 13994,
    "Ġcarpet": 9354,
    "Ġanybody": 5313,
    "Ġbrim": 12972,
    "Ġforster": 5230,
    "Ġpowers": 5419,
    "sent": 762,
    "Ġrealism": 18984,
    "Ġpencil": 11940,
    "Ġagonizing": 17237,
    "Ġcooped": 22581,
    "Ġbrooded": 23102,
    "Ġclut": 7641,
    "Ġplanting": 16082,
    "Ġwatery": 6296,
    "Ġlieu": 19563,
    "perfect": 7634,
    "Ġ24": 13189,
    "Ġrustling": 24715,
    "Ġpled": 17907,
    "wreat": 21126,
    "pse": 21008,
    "heedful": 20572,
    "Ġoily": 13862,
    "Ġwedded": 16673,
    "Ġprevail": 13440,
    "Ġbrook": 13044,
    "preservation": 25305,
    "helped": 18923,
    "Ġstains": 21739,
    "Ġrick": 21968,
    "dman": 10087,
    "moored": 22704,
    "Ġvigorously": 11297,
    "Ġbatch": 891,
    "Ġsovere": 9254,
    "Ġmiddle": 4137,
    "Ġadroit": 26000,
    "gress": 2214,
    "ado": 11656,
    "Ġsolicited": 20035,
    "Ġle": 333,
    "Ġreasonable": 7251,
    "Ġunaccountable": 7888,
    "tempered": 13444,
    "sort": 6798,
    "asmuch": 10193,
    "apped": 5395,
    "Ġly": 2270,
    "Ġnewcom": 16219,
    "Ġrhine": 12353,
    "Ġrestore": 9378,
    "ies": 582,
    "Ġpadded": 25036,
    "wedded": 24338,
    "Ġfloats": 9411,
    "convalescence": 24884,
    "tis": 4104,
    "oper": 7347,
    "istan": 22106,
    "strong": 6322,
    "treatment": 20410,
    "ethics": 8876,
    "Ġsustain": 10015,
    "ctic": 8442,
    "derer": 4601,
    "Ġencl": 16162,
    "Ġsplinter": 23745,
    "mor": 4213,
    "Ġdoth": 13906,
    "europe": 20664,
    "ellest": 21572,
    "ouder": 17900,
    "Ġlick": 21548,
    "Ġsecluded": 11989,
    "Ġhell": 5019,
    "imens": 1749,
    "thick": 10259,
    "Ġoversight": 22357,
    "pushed": 21022,
    "Ġprodig": 6028,
    "Ġunmannerly": 26516,
    "heading": 5487,
    "Ġverd": 6919,
    "Ġignominy": 15083,
    "Ġatlantic": 7000,
    "Ġdisco": 3426,
    "educ": 10827,
    "Ġflapp": 23008,
    "Ġshot": 4545,
    "andam": 10886,
    "Ġpanted": 21471,
    "Ġdescended": 7428,
    "ĠmanÅĵuv": 18417,
    "gangway": 20666,
    "narr": 12493,
    "Ġav": 3579,
    "Ġnailed": 10188,
    "Ġsob": 12779,
    "Ġpreside": 18364,
    "theast": 21746,
    "imagination": 13478,
    "rivial": 9432,
    "really": 6971,
    "Ġphiladelphia": 26603,
    "Ġrepro": 7275,
    "loving": 18538,
    "Ġentrance": 7233,
    "Ġflowing": 14409,
    "Ġinterruptions": 24185,
    "ine": 406,
    "Ġhove": 17922,
    "Ġbrine": 18768,
    "anzas": 17840,
    "Ġsobbed": 14133,
    "mens": 20968,
    "Ġrejoicing": 13419,
    "consolation": 15150,
    "Ġbedside": 19121,
    "Ġceremonies": 24836,
    "Ġsyllable": 9726,
    "Ġbeauty": 3768,
    "feeders": 25235,
    "Ġencourages": 2062,
    "Ġcommunication": 1869,
    "officer": 17053,
    "Ġaccur": 3687,
    "thodox": 21986,
    "Ġcomplied": 14732,
    "Ġtaurus": 21177,
    "Ġgleamed": 17076,
    "iven": 1235,
    "Ġhisself": 21912,
    "Ġoverhanging": 22360,
    "Ġautom": 3691,
    "province": 26072,
    "orange": 21398,
    "duct": 3504,
    "Ġactual": 3736,
    "outh": 2689,
    "Ġboarders": 16599,
    "ipl": 20917,
    "umblings": 23927,
    "ffy": 18318,
    "Ġsunlight": 13082,
    "Ġconfl": 11135,
    "Ġstreamed": 14545,
    "Ġfrown": 10806,
    "Ġfleshy": 24615,
    "Ġgloomily": 14799,
    "Ġgeneral": 1861,
    "Ġcasualty": 20340,
    "Ġmarvel": 23032,
    "settle": 16660,
    "sequent": 6831,
    "Ġbreathes": 13243,
    "Ġaboard": 6697,
    "Ġchat": 6560,
    "Ġsubtle": 6716,
    "gorith": 551,
    "fiery": 13579,
    "Ġaverage": 3137,
    "Ġlend": 17962,
    "rederick": 14078,
    "Ġrolled": 4429,
    "Ġmassachusetts": 24019,
    "Ġcried": 1486,
    "Ġprevents": 2560,
    "Ġindelible": 25694,
    "Ġconsideration": 5191,
    "exc": 5169,
    "weeks": 14314,
    "Ġtweed": 22675,
    "Ġturbul": 23611,
    "âĢĻ,": 14068,
    "Ġshr": 4223,
    "raham": 18013,
    "ittle": 810,
    "Ġgraceful": 11294,
    "Ġeleven": 9388,
    "Ġrekindled": 21675,
    "sters": 6391,
    "Ġdisent": 22521,
    "Ġrevolt": 24500,
    "Ġiceberg": 14714,
    "Ġhandled": 12934,
    "Ġsubterranean": 13609,
    "Ġcrews": 8990,
    "Ġevaluate": 3121,
    "Ġcrags": 23527,
    "pacing": 21020,
    "aded": 3547,
    "source": 11523,
    "Ġpur": 2218,
    "Ġstately": 9832,
    "cords": 25136,
    "Ġsimilarly": 24307,
    "om": 316,
    "Ġsap": 18328,
    "Ġmaj": 3925,
    "Ġfumes": 21417,
    "trampled": 26333,
    "cused": 15330,
    "ailing": 7021,
    "Ġpalmed": 24087,
    "Ġshone": 7404,
    "Ġpacked": 9978,
    "eck": 20843,
    "Ġsuperseded": 26224,
    "foundered": 20866,
    "Ġequator": 7461,
    "speptic": 23943,
    "pardonable": 17216,
    "Ġbureau": 11587,
    "subs": 14298,
    "Ġdecomposition": 5342,
    "Ġunthinkingly": 26220,
    "_.âĢĿ": 5886,
    "Ġsinners": 18949,
    "Ġrinal": 21975,
    "partiality": 13158,
    "conc": 3946,
    "Ġfumbling": 21416,
    "Ġbrief": 6976,
    "Ġsadly": 7302,
    "adjust": 21758,
    "widely": 25343,
    "Ġt": 261,
    "Ġkrem": 9724,
    "breeding": 16674,
    "bale": 20773,
    "Ġmuscle": 14688,
    "asant": 17958,
    "Ġcircumspect": 15082,
    "Ġdegree": 3702,
    "Ġcheery": 16365,
    "Ġpear": 11849,
    "Ġ57": 24324,
    "Ġledgers": 23935,
    "Ġabandon": 12254,
    "Ġwalker": 23309,
    "Ġscore": 9736,
    "ckled": 9255,
    "Ġconcuss": 19046,
    "Ġdepths": 4325,
    "Ġben": 1107,
    "Ġtossing": 8126,
    "smallest": 23909,
    "Ġdispirited": 23880,
    "Ġbest": 1975,
    "structure": 2199,
    "Ġtestified": 16319,
    "ensive": 6279,
    "child": 5537,
    "Ġevap": 19622,
    "profound": 16423,
    "Ġblinding": 14726,
    "aug": 1212,
    "Ġdevoutly": 25832,
    "Ġdestroyed": 5271,
    "Ġemb": 1245,
    "Ġph": 1547,
    "butter": 11782,
    "Ġbennet": 1577,
    "nantucketer": 24974,
    "ming": 3598,
    "Ġinvoluntarily": 8547,
    "showed": 16024,
    "Ġcompanion": 3640,
    "perceived": 8857,
    "roman": 22002,
    "Ġchurning": 15934,
    "Ġtangle": 25760,
    "¬": 110,
    "ommod": 13979,
    "Ġdoubloons": 13432,
    "Ġgir": 2256,
    "Ġcocain": 18598,
    "Ġclim": 8195,
    "corn": 13697,
    "definition": 23116,
    "Ġwhist": 6022,
    "Ġupstairs": 5836,
    "Ġvinegar": 20098,
    "Ġvile": 8472,
    "chain": 18039,
    "distressed": 24198,
    "coronet": 16862,
    "Ġexpand": 9305,
    "stretch": 13974,
    "Ġfoliage": 18866,
    "Ġadroop": 26001,
    "Ġdisappo": 4506,
    "Ġsprout": 24085,
    "Ġnich": 21518,
    "Ġsurvivor": 17361,
    "Ġelucidated": 26029,
    "Ġland": 1998,
    "Ġpythag": 26447,
    "entropy": 1439,
    "Ġagile": 22510,
    "Ġrefreshment": 17238,
    "Ġfought": 12589,
    "30": 20753,
    "Ġpartially": 13120,
    "Ġimpediments": 26240,
    "hever": 13829,
    "Ġdodge": 19885,
    "Ġlove": 2055,
    "ents": 1898,
    "party": 8992,
    "raved": 18012,
    "Ġmot": 2982,
    "fering": 17541,
    "Ġpresented": 5183,
    "bruary": 15233,
    "Ġengraving": 17079,
    "Ġdundee": 16996,
    "ĵ": 246,
    "whispered": 20032,
    "embarr": 15793,
    "³": 116,
    "speps": 14333,
    "Ġsitu": 3492,
    "Ġretired": 6071,
    "Ġprosperous": 15168,
    "Ġconducted": 10501,
    "ustom": 3787,
    "¹": 122,
    "streets": 13393,
    "decl": 8855,
    "idel": 5299,
    "Ġblackest": 19098,
    "wn": 722,
    "pression": 10406,
    "Ġunfrequ": 19507,
    "Ġabound": 8862,
    "Ġconcerned": 5331,
    "requ": 7148,
    "dington": 11898,
    "Ġ30": 10510,
    "Ġspokes": 18313,
    "Ġmargin": 11917,
    "white": 4603,
    "rapt": 13971,
    "sed": 4174,
    "Ġdiscomp": 11863,
    "luent": 15995,
    "Ġtash": 13818,
    "grief": 13729,
    "Ġlabel": 14513,
    "Ġsinned": 18950,
    "acific": 4960,
    "reserved": 13841,
    "Ġcirc": 1987,
    "Ġlays": 15986,
    "Ġwelfare": 12555,
    "Ġsheets": 9720,
    "Ġnoiseless": 10355,
    "ahawk": 23315,
    "Ġprogramming": 1183,
    "mathemat": 19137,
    "Ġmenaces": 23105,
    "mes": 1196,
    "beware": 16036,
    "Ġpope": 11599,
    "prepar": 22467,
    "Ġsacred": 10928,
    "Ġbay": 9167,
    "previous": 9759,
    "Ġadvancing": 6879,
    "Ġbrightly": 13221,
    "Ġsubaltern": 22790,
    "substance": 15229,
    "Ġupbraiding": 26226,
    "Â·": 21148,
    "successively": 24779,
    "ā": 194,
    "Ġ38": 24075,
    "Ġ67": 19659,
    "Ġstake": 14001,
    "Ġfool": 4233,
    "nable": 13760,
    "Ġgiven": 1626,
    "Ġraving": 16109,
    "Ġswimming": 5507,
    "uits": 21103,
    "influences": 25250,
    "Ġmerid": 13191,
    "Ġcontinual": 6777,
    "Ġdrenched": 12599,
    "Ġknot": 7011,
    "Ġfalling": 6915,
    "Ġcheer": 4067,
    "Ġimpropri": 14210,
    "Ġ126": 24470,
    "izar": 14041,
    "serv": 7451,
    "Ġsignific": 3827,
    "ersman": 11696,
    "Ġhatter": 4111,
    "Ġflanks": 11912,
    "Ġupbra": 22151,
    "kindness": 10504,
    "Ġinsular": 19267,
    "Ġallusion": 7625,
    "Ġpoignant": 22591,
    "nest": 10112,
    "Ġfam": 1586,
    "Ġden": 3105,
    "Ġsalesman": 13666,
    "fully": 2203,
    "Ġsoaring": 22075,
    "Ġcolumns": 14374,
    "impress": 18051,
    "swept": 19785,
    "apparatus": 26562,
    "travellers": 24317,
    "dancing": 12451,
    "mered": 8218,
    "##": 2317,
    "ĠĠĠĠĠĠĠĠĠĠĠĠĠĠĠĠĠĠĠĠĠĠ": 16225,
    "Ġ*": 1271,
    "Ġcoming": 2622,
    "Ġtu": 6968,
    "Ġfiend": 4411,
    "Ġparticulars": 5754,
    "beautiful": 10647,
    "Ġhus": 3089,
    "Ġstranded": 9773,
    "Ġcabin": 3302,
    "Ġcount": 1816,
    "Ġprotracted": 19467,
    "Ġdig": 6135,
    "Ġtranspointed": 22438,
    "abama": 12705,
    "summon": 23414,
    "Ġislets": 21799,
    "over": 1847,
    "Ġcandidates": 4332,
    "Ġstri": 2804,
    "!)": 10067,
    "icating": 15651,
    "ser": 1424,
    "Ġearthquake": 14627,
    "Ġhuge": 4700,
    "ouse": 1191,
    "Ġcherished": 10589,
    "Ġbehav": 3538,
    "Ġpoetry": 15078,
    "masters": 16833,
    "Ġskies": 8919,
    "aited": 12432,
    "Ġwisest": 11230,
    "ge": 560,
    "Ē": 211,
    "Ġgoodge": 22821,
    "useful": 16500,
    "Ġschedu": 1824,
    "Ġstab": 10860,
    "Ġgrud": 17995,
    "Ġstaircase": 20094,
    "Ġbushes": 16398,
    "staring": 18017,
    "Ġequin": 14495,
    "Ġcontempl": 6701,
    "Ġriddle": 14818,
    "Ġunprepared": 22048,
    "Ġob": 862,
    "Ġbeg": 1281,
    "her": 489,
    "pyramid": 21029,
    "Ġyellow": 5300,
    "Ġkra": 18348,
    "Ġnow": 691,
    "police": 10582,
    "Ġemblazonings": 26042,
    "fiercely": 25256,
    "make": 5793,
    "confl": 22469,
    "pit": 3981,
    "Ġdevotion": 22741,
    "Ġrudimental": 25108,
    "Ġdense": 8123,
    "oled": 17618,
    "Ġaccompanying": 11302,
    "sutherland": 21061,
    "muttered": 13757,
    "them": 3016,
    "bulwarks": 12269,
    "honey": 20904,
    "Ġplain": 2817,
    "Ġtales": 10140,
    "Ġnaught": 8128,
    "Ġtorture": 9064,
    "Ġlouisiana": 25076,
    "Ġdedu": 5583,
    "Ġglossy": 15225,
    "cept": 552,
    "Ġheredit": 9215,
    "Ġhosts": 19937,
    "slightest": 25416,
    "Ġchristianity": 19860,
    "quently": 9700,
    "Ġaccused": 8507,
    "Ġhighland": 18713,
    "Ġoblique": 20168,
    "Ġwaned": 17791,
    "ody": 1478,
    "mantel": 26393,
    "Ġrect": 18025,
    "Ġpledged": 20686,
    "Ġdirector": 18920,
    "Ġpaste": 23417,
    "formality": 22220,
    "Ġbowlines": 19320,
    "Ġhapless": 15809,
    "ours": 3425,
    "concl": 12865,
    "act": 786,
    "Ġtrim": 15966,
    "vers": 1327,
    "Ġsatur": 1931,
    "Ġdeacon": 18143,
    "Ġdegenerated": 20504,
    "Ġmissing": 6175,
    "Ġdepends": 1152,
    "slave": 16894,
    "Ġexacted": 23602,
    "Ġcream": 22726,
    "Ġsuavely": 26522,
    "mine": 5617,
    "Ġashes": 7616,
    "Ġquitting": 7645,
    "bres": 11469,
    "ĠĠĠĠĠĠĠ": 7631,
    "Ġbugs": 13646,
    "gledy": 25403,
    "apply": 18758,
    "Ġforbid": 7866,
    "Ġtrump": 8196,
    "Ġeleventh": 23367,
    "iffs": 9020,
    "rumours": 23897,
    "Ġsurm": 7476,
    "Ġmarlingspike": 26578,
    "Ġjumping": 13339,
    "Ġinhabitants": 7524,
    "Ġgradient": 450,
    "Ġstiffness": 24830,
    "º": 123,
    ":--": 5784,
    "inferiors": 25346,
    "overspreading": 26139,
    "occasionally": 13519,
    "--------": 14779,
    "Ġaim": 10144,
    "Ġmatrimonial": 25489,
    "recogn": 13423,
    "Ġborders": 15568,
    "Ġaffair": 4463,
    "ases": 1524,
    "Ġwent": 1537,
    "sleep": 6511,
    "admon": 21759,
    "Ġembraces": 19871,
    "mped": 16646,
    "Ġballarat": 14717,
    "lascar": 20959,
    "Ġlamented": 24993,
    "Ġmove": 5107,
    "incom": 21180,
    "Ġdried": 7367,
    "Ġcolleague": 17158,
    ")âĢĶ": 20741,
    "stripped": 16944,
    "Ġridge": 14817,
    "undertaking": 23786,
    "arrived": 12605,
    "Ġfidgeted": 25889,
    "Ġobliged": 4285,
    "Ġcanst": 8856,
    "ancies": 11581,
    "Ġfif": 4215,
    "Ġdialogue": 12401,
    "chariot": 26478,
    "lance": 12478,
    "Ġbet": 1133,
    "odings": 4399,
    "Ġanonymous": 26178,
    "Ġhackluyt": 25655,
    "glass": 9907,
    "Ġcowardice": 17031,
    "Ġ550": 19640,
    "Ġunobstructed": 18264,
    "Ġmake": 1283,
    "enstern": 17781,
    "Ġprovid": 1010,
    "Ġcor": 1322,
    "Ġavenues": 25429,
    "kered": 18274,
    "Ġbitterest": 12399,
    "idual": 1560,
    "ople": 2320,
    "Ġbound": 3517,
    "Ġparacelsus": 15264,
    "Ġentity": 10341,
    "Ġsquat": 14365,
    "Ġcirclings": 26430,
    "Ġfr": 1695,
    "Ġstat": 1489,
    "Ġevince": 24292,
    "Ġguid": 2642,
    "Ġprairies": 20019,
    "Ġveter": 15808,
    "Ġlessen": 14531,
    "âĢľ": 344,
    "Ġwashing": 9703,
    "Ġcharmed": 16761,
    "ampled": 18884,
    "Ġprof": 2463,
    "Ġcommunicating": 16888,
    "Ġwrath": 16314,
    "ize": 768,
    "ball": 7793,
    "poison": 14391,
    "Ġduties": 6609,
    "Ġtransplanted": 22439,
    "Ġwrinkles": 8570,
    "Ġchoked": 9262,
    "Ġacquisition": 18899,
    "Ġbelonging": 8308,
    "Ġscattered": 6856,
    "Ġmonstrous": 7790,
    "Ġtold": 2184,
    "Ġbeheaded": 11654,
    "Ġexhausted": 8693,
    "Ġflashing": 13024,
    "eter": 11618,
    "prep": 9757,
    "terror": 18128,
    "Ġintellig": 525,
    "Ġtorrid": 25032,
    "Ġscru": 8192,
    "Ġgable": 15663,
    "oding": 1462,
    "insist": 23063,
    "Ġreturns": 11923,
    "Ġtunes": 24620,
    "Ġu": 324,
    "preserving": 25304,
    "Ġmouthful": 16573,
    "Ġlobes": 22113,
    "gam": 10094,
    "Ġcont": 620,
    "Ġstammered": 26199,
    "experienced": 15119,
    "objections": 19915,
    "Ġadvent": 4356,
    "Ġwast": 21858,
    "Ġfabulous": 25948,
    "circled": 24186,
    "Ġexert": 5722,
    "reated": 10301,
    "Ġgrow": 2859,
    "Ġspo": 6846,
    "cottage": 9568,
    "Ġdifficulty": 5770,
    "Ġremonstrance": 20621,
    "_),": 7125,
    "Ġtrue": 1341,
    "Ġhesitation": 13439,
    "Ġarmchair": 8271,
    "ington": 21300,
    "Ġexcused": 23312,
    "duodecimo": 15998,
    "Ġuntidy": 23522,
    "nib": 5214,
    "ignantly": 23263,
    "Ġlighted": 7062,
    "Ġperturbed": 20438,
    "Ġfoolscap": 24155,
    "Ġlobsters": 13515,
    "hereafter": 19215,
    "Ġmerest": 14028,
    "Ġpreced": 6039,
    "Ġmade": 1050,
    "Ġruin": 6056,
    "Ġresearches": 13130,
    "Ġawkwardness": 13485,
    "lic": 17586,
    "crowning": 25748,
    "Ġadoration": 18290,
    "ated": 718,
    "Ġgrunted": 16165,
    "oughed": 22078,
    "Ġbalances": 2340,
    "turns": 14904,
    "dition": 15338,
    "ward": 706,
    "ominy": 13980,
    "Ġconvenient": 8346,
    "Ġpropag": 16344,
    "Ġtops": 14585,
    "kempt": 20940,
    "._]]": 5334,
    "Ġparad": 2842,
    "sigma": 2999,
    "Ġbreaks": 13181,
    "ece": 17530,
    "Ġpir": 6818,
    "Ġfresher": 23211,
    "Ġcheap": 13087,
    "Ġbeeches": 9225,
    "atiously": 15519,
    "Ġgag": 21591,
    "Ġformality": 22828,
    "Ġdejected": 20303,
    "Ġpenet": 6888,
    "ishmael": 18420,
    "centre": 17086,
    "Ġstiffly": 15004,
    "Ġmud": 11570,
    "Ġfanciful": 24788,
    "ix": 1803,
    "Ġbleeding": 14878,
    "Ġhypocr": 19470,
    "Ġwitnessed": 14842,
    "Ġmortifying": 13242,
    "brous": 19198,
    "Ġcontent": 5034,
    "aned": 5147,
    "Ġrecovering": 11857,
    "Ġclothes": 4997,
    "Ġrepeated": 3830,
    "Ġuncles": 23429,
    "Ġcruising": 6913,
    "Ġimprec": 14212,
    "scythes": 26401,
    "Ġwhal": 5454,
    "cre": 4250,
    "others": 7670,
    "Ġriotous": 20543,
    "reputation": 15513,
    "Ġdot": 4820,
    "Ġimperilled": 19577,
    "Ġrichness": 19309,
    "cannot": 5745,
    "plainly": 11089,
    "quite": 4647,
    "characteristic": 24685,
    "Ġpatroness": 13508,
    "Ġcrawled": 17043,
    "Ġelbows": 18632,
    "Ġisolation": 17149,
    "mountain": 10712,
    "iancy": 13005,
    "Ġinvestig": 10548,
    "Ġmonotonous": 13259,
    "amaz": 21842,
    "Ġdons": 17888,
    "Ġterr": 3271,
    "totally": 25417,
    "Ġcave": 10784,
    "gn": 8082,
    "Ġassu": 21895,
    "Ġamends": 14244,
    "mod": 1023,
    "Ġgreyish": 24207,
    "Ġmachine": 799,
    "Ġflows": 13006,
    "insupportable": 21192,
    "shadows": 25479,
    "Ġgourmand": 26465,
    "Ġpaced": 7583,
    "Ġmultipl": 2791,
    "ermost": 7430,
    "Ġhans": 12622,
    "Ġwildness": 14603,
    "Ġprehensile": 26533,
    "Ġendeavored": 19301,
    "Ġhark": 8428,
    "Ġaccountability": 10437,
    "Ġmastiff": 23723,
    "alk": 1151,
    "Ġringing": 13329,
    "Â£": 4812,
    "Ġstepped": 7051,
    "Ġexceeded": 14431,
    "Ġunworth": 22034,
    "Ġriverside": 25247,
    "Ġjen": 9265,
    "frequented": 25900,
    "office": 16389,
    "ont": 2626,
    "Ġslate": 11935,
    "Ġdelightfully": 13156,
    "Ġfourteen": 12006,
    "disappointed": 25191,
    "Ġfigures": 8629,
    "Ġid": 1910,
    "pun": 9616,
    "Ġpomp": 12618,
    "đ": 210,
    "Ġstudents": 23215,
    "abled": 12790,
    "ime": 624,
    "Ġdams": 16455,
    "Ġharpoon": 3613,
    "flutterings": 26605,
    "Ġdazz": 11591,
    "Ġbelt": 12999,
    "Ġspecks": 14306,
    "Ġdiana": 21435,
    "Ġacquired": 13040,
    "Ġcold": 3028,
    "Ġfow": 6133,
    "Ġcloset": 19590,
    "Ġaudits": 24770,
    "zy": 2671,
    "Ġerrone": 14428,
    "Ġnumberless": 16413,
    "Ġacid": 22680,
    "Ġloss": 822,
    "Ġtrustees": 24105,
    "Ġrasc": 21972,
    "Ġsweep": 8266,
    "july": 20473,
    "Ġdemig": 20355,
    "Ġprocured": 8676,
    "neck": 14233,
    "Ġwedged": 24067,
    "Ġfatigue": 8697,
    "estic": 4956,
    "Ġscrib": 22286,
    "hurry": 24763,
    "str": 2582,
    "Ġadmits": 23553,
    "Ġsymmetrical": 20365,
    "Ġbelieving": 8225,
    "call": 8722,
    "Ġcomplement": 23708,
    "Ġsymbols": 2797,
    "uendoes": 26406,
    "Ġbough": 13892,
    "Ġboasting": 19934,
    "mun": 20961,
    "disgu": 19153,
    "feelings": 5674,
    "neying": 22447,
    "Ġgiants": 25960,
    "apprehension": 26114,
    "Ġhospitality": 13511,
    "``": 15304,
    "begone": 12874,
    "successful": 11356,
    "ame": 645,
    "Ġlinen": 12404,
    "gre": 5788,
    "Ġinsinuating": 19270,
    "pherd": 13642,
    "Ġhiss": 15784,
    "Ġbegin": 3095,
    "Ġhatred": 8608,
    "Ġinclu": 1098,
    "Ġtrousers": 12411,
    "Ġsedentary": 25430,
    "Ġsuperlatively": 26075,
    "Ġthroats": 24574,
    "station": 10842,
    "ortunity": 4403,
    "Ġsavagely": 26323,
    "Ġbehind": 2808,
    "Ġpasture": 14542,
    "Ġconstru": 19071,
    "Ġtoad": 21508,
    "steak": 14706,
    "Ġattent": 4360,
    "Ġfine": 1315,
    "Ġunremitting": 26217,
    "vand": 21107,
    "bid": 5610,
    "Ġblaming": 22928,
    "Ġpropose": 9851,
    "Ġalterations": 19870,
    "mosphere": 10041,
    "Ġdisc": 944,
    "beyond": 8881,
    "Ġfurnaces": 24002,
    "¨": 106,
    "elephant": 12348,
    "Ġlistened": 4469,
    "pervised": 1654,
    "electricity": 26384,
    "Ġblan": 18816,
    "next": 5892,
    "Ġplainpalais": 20736,
    "ouncing": 8494,
    "aried": 10985,
    "honor": 19899,
    "Ġsentin": 16369,
    "med": 1909,
    "Ġgeorgiana": 8625,
    "deprived": 19897,
    "Ġorph": 9715,
    "Ġprosperity": 20256,
    "Ġspilled": 10922,
    "sun": 7139,
    "Ġmoderately": 22213,
    "oped": 6047,
    "ounds": 4155,
    "muring": 17600,
    "Ġwindings": 18909,
    "Þ": 159,
    "Ġoutfits": 22319,
    "moil": 22703,
    "Ġprocure": 9508,
    "Ġjewel": 9940,
    "Ġunlocked": 14118,
    "Ġgrimly": 17051,
    "addressed": 13383,
    "weakness": 16121,
    "Ġjung": 12832,
    "orm": 425,
    "can": 1231,
    "imp": 3029,
    "Ġnapole": 15113,
    "Ġrio": 23889,
    "Ġsplit": 7993,
    "lan": 15375,
    "Ġessentially": 24924,
    "tically": 3390,
    "popular": 26140,
    "ĠĠĠĠĠĠĠĠĠĠĠĠĠĠĠĠĠĠĠĠĠĠĠĠĠĠĠĠĠĠĠĠĠĠĠĠĠĠ": 16523,
    "Ġbang": 17854,
    "rupt": 3209,
    "Ġsorrow": 4629,
    "Ġcaulking": 20292,
    "Ġlean": 7605,
    "į": 240,
    "cake": 20803,
    "Ġcanopy": 18321,
    "Ġstrikes": 13179,
    "Ġunctuousness": 17233,
    "Ġhopkins": 23127,
    "Ġheh": 21678,
    "suppose": 8644,
    "Ġpersian": 11084,
    "sentence": 2936,
    "Ġpra": 4346,
    ".": 18,
    "Ġinsights": 13177,
    "sartain": 25622,
    "Ġdisappeared": 5645,
    "rushing": 10016,
    "Ġanvil": 11594,
    "rust": 2585,
    "Ġlanguor": 12844,
    "Ġnarr": 5085,
    "/`": 12426,
    "Ġvagueness": 25737,
    "Ġhearers": 15699,
    "Ġlungs": 8362,
    "Ġextinct": 14325,
    "Ġrags": 18643,
    "any": 3336,
    "Ġlowermost": 23241,
    "Ġsuccour": 20433,
    "inferior": 12391,
    "Ġparallel": 1414,
    "Ġsuperficial": 23455,
    "Ġmarling": 23031,
    "Ġanticipated": 13509,
    "Ġvib": 8165,
    "Ġmultiplication": 2870,
    "gained": 20880,
    "Ġpeels": 22689,
    "umst": 2506,
    "Ġdelicate": 6480,
    "Ġmighty": 4227,
    "Ġhereafter": 9328,
    "Ġlastly": 16203,
    "Ġwhatsoever": 18460,
    "Ġhesitated": 10000,
    "Ġmysticetus": 24922,
    "laden": 14927,
    "Ġstuck": 9219,
    "Ġdropping": 7483,
    "Ġdouble": 4940,
    "adler": 21760,
    "esting": 7412,
    "ve": 322,
    "Ġneglect": 7942,
    "Ġfundamental": 3010,
    "impatient": 13638,
    "iters": 21327,
    "bull": 13688,
    "Ġconvent": 11666,
    "Ġlaughs": 24114,
    "australian": 20560,
    "swe": 5996,
    "isturbed": 18297,
    "Ġpam": 21453,
    "Ġresuming": 12889,
    "shout": 22450,
    "fat": 8079,
    "ghost": 20886,
    "Ġcircumst": 2972,
    "return": 5489,
    "console": 22471,
    "oup": 2015,
    "loud": 11498,
    "Ġhither": 4759,
    "ĠĠĠĠĠĠĠĠĠĠĠĠĠĠĠĠĠĠĠĠĠĠĠĠĠĠĠĠĠĠĠĠĠĠĠĠĠĠĠĠĠ": 19581,
    "ov": 15398,
    "developed": 15262,
    "Ġh": 290,
    "mai": 22911,
    "Ġerrors": 2600,
    "Ġdeclare": 6614,
    "Ġplaited": 14281,
    "Ġcombine": 4415,
    "Ġscriptures": 26235,
    "Ġdarting": 7757,
    "gang": 17552,
    "uttering": 12658,
    "ieth": 10703,
    "mariners": 19547,
    "Ġstruct": 2784,
    "ashes": 6016,
    "ralian": 19599,
    "Ġinvitation": 5189,
    "ender": 9159,
    "Ġcross": 1374,
    "Ġnonce": 23233,
    "hercules": 22204,
    "Ġhandsom": 11122,
    "Ġ14": 9321,
    "cruising": 12276,
    "ended": 1834,
    "Ġco": 732,
    "rador": 19158,
    "sive": 4142,
    "razor": 21635,
    "rudence": 7092,
    "cherish": 24551,
    "Ġstumbling": 21740,
    "Ġhoars": 19077,
    "Ġmouth": 3178,
    "Ġhast": 3149,
    "Ġ102": 24409,
    "sus": 6228,
    "vit": 13799,
    "iors": 9124,
    "Ġcrocodile": 20739,
    "Ġwoodcock": 19163,
    "libr": 22921,
    "Ġlungless": 24863,
    "Ġbarn": 11584,
    "Ġpict": 3496,
    "icuous": 10834,
    "Ġrestricted": 19028,
    "Ġyielded": 14870,
    "Ġtainted": 21169,
    "ructure": 749,
    "Ġpersonal": 7479,
    "pass": 4290,
    "leave": 7838,
    "Ġwrinkled": 7264,
    "ohnson": 16323,
    "tray": 21076,
    "Ġhump": 5853,
    "Ġdefinition": 14403,
    "ounix": 14160,
    "Ġtwelve": 4963,
    "Ġhigh": 933,
    "Ġvalid": 1743,
    "prudently": 21033,
    "Ġpref": 14170,
    "leagues": 21371,
    "schoolmaster": 15159,
    "foremost": 14251,
    "Ġunst": 18238,
    "Ġuncomfortable": 8485,
    "Ġsed": 10760,
    "Ġlestrade": 5825,
    "Ġgeography": 23370,
    "[_": 5131,
    "ley": 1817,
    "Ġmun": 12558,
    "pitching": 24072,
    "how": 1644,
    "Ġcrows": 24028,
    "Ġvillage": 5774,
    "Ġjabbering": 22301,
    "ullied": 23103,
    "Ġlavenza": 17970,
    "also": 7851,
    "Ġmarket": 7709,
    "eldom": 4413,
    "Ġpromptly": 23815,
    "insanity": 23067,
    "geor": 15975,
    "Ġprovision": 14823,
    "Ġdescrying": 18618,
    "Ġcommitting": 22671,
    "u": 89,
    "Ġtil": 12520,
    "boiling": 19001,
    "culine": 19065,
    "Ġinspection": 14543,
    "Ġinsists": 23676,
    "Ġquarter": 3975,
    "Ġalways": 1696,
    "Ġscalding": 16329,
    "acrity": 14277,
    "Ġillinois": 19136,
    "mpus": 13755,
    "Ġaffording": 14819,
    "box": 5749,
    "Ġvehem": 22888,
    "Ġsomebody": 7913,
    "iosity": 2376,
    "Ġplayfulness": 23636,
    "Ġjoll": 11762,
    "throne": 25657,
    "Ġaccuse": 14216,
    "Ġ98": 24594,
    "lutions": 20949,
    "Ġisland": 4049,
    "Ġspermacetti": 19049,
    "ected": 7874,
    "pocket": 9807,
    "Ġsentry": 19026,
    "Ġostentatious": 25736,
    "straight": 9938,
    "snowy": 20282,
    "Ġpots": 9426,
    "disappointment": 11423,
    "Ġgrows": 4985,
    "evinced": 19925,
    "Ġwantest": 18791,
    "teak": 22815,
    "closing": 23154,
    "philosophers": 25252,
    "oot": 13763,
    "incl": 8110,
    "concealed": 25115,
    "Ġpeak": 16123,
    "Ġuplifted": 11645,
    "Ġbapt": 13894,
    "ipher": 18432,
    "into": 3676,
    "madness": 14880,
    "ruff": 15892,
    "Ġsquint": 22836,
    "cri": 17504,
    "```": 25893,
    "Ġprisoner": 8672,
    "ancy": 4393,
    "amongst": 24672,
    "distinctive": 25726,
    "Ġquiver": 15999,
    "Ġacknowledges": 24688,
    "speechless": 25395,
    "forget": 11030,
    "amped": 12031,
    "arks": 2844,
    "natural": 2215,
    "Ġdreamt": 23936,
    "vere": 4883,
    "Ġsays": 3559,
    "Ġrecommendation": 17024,
    "Ġtrough": 15967,
    "Ġreciprocating": 26369,
    "sor": 7352,
    "windlass": 16720,
    "Ġpassers": 18756,
    "Ġgroping": 13663,
    "disapprobation": 19155,
    "Ġlieutenant": 15259,
    "cig": 17502,
    "Ġregularly": 7657,
    "Ġnegro": 6447,
    "Ġprogram": 12990,
    "Ġalteration": 9544,
    "Ġfallen": 5968,
    "Ġconsid": 1814,
    "Ġcurv": 3509,
    "Ġyoungster": 23177,
    "Ġlip": 6532,
    "Ġendure": 5956,
    "myself": 5113,
    "Ġstump": 7602,
    "iction": 4268,
    "cas": 20793,
    "Ġspoutings": 14674,
    "Ġfing": 3756,
    "unching": 18158,
    "featured": 24083,
    "Ġbar": 3146,
    "Ġtig": 13811,
    "aphys": 15199,
    "onds": 12992,
    "Ġkindred": 16372,
    "Ġintruding": 21989,
    "Ġmason": 10156,
    "sacrifice": 13490,
    "Ġcompute": 2904,
    "Ġthose": 1173,
    "Ġdeparture": 6490,
    "Ġflail": 23007,
    "Ġswing": 13033,
    "Ġwicked": 5961,
    "antically": 22094,
    "Ġroofs": 16984,
    "espe": 3495,
    "Ġleaping": 8341,
    "Ġcouldn": 7648,
    "enter": 7858,
    "Ġneg": 1333,
    "Ġfreshets": 25705,
    "pipe": 8696,
    "oko": 18446,
    "Ġboil": 16101,
    "hide": 10702,
    "inconsiderable": 21190,
    "inois": 17737,
    "Ġexasper": 8466,
    "Ġincluded": 8929,
    "Ġsultanism": 25888,
    "enses": 10992,
    "incible": 16495,
    "Ġnewcomers": 26041,
    "Ġblanket": 8343,
    "Ġsincerely": 7964,
    "anyone": 16592,
    "steelkilt": 10045,
    "icide": 11615,
    "ills": 1628,
    "attest": 23117,
    "zen": 5140,
    "Ġprotect": 6337,
    "red": 397,
    "bran": 23573,
    "Ġdimens": 3148,
    "archbishop": 22896,
    "Ġtexel": 25923,
    "arrival": 15596,
    "sugg": 11839,
    "Ġjokes": 18408,
    "Ġsnapping": 19299,
    "Ġcomprise": 18583,
    "Ġguns": 16775,
    "Ġingen": 9048,
    "scrape": 25698,
    "Ġdin": 3622,
    "Ġideal": 13118,
    "Ġmountainous": 16598,
    "ceived": 1963,
    "considerably": 13443,
    "mon": 2310,
    "uth": 3015,
    "Ġkeys": 11993,
    "rifle": 21045,
    "Ġblundering": 26283,
    "ailed": 3244,
    "neighbouring": 19962,
    "Ġmemorable": 16425,
    "ais": 8071,
    "Ġsubproblems": 12953,
    "Ġreplying": 19580,
    "Ġdefects": 12330,
    "Ġpistols": 17327,
    "Ġpickle": 16721,
    "Ġpositions": 2058,
    "joining": 19444,
    "Ġscenes": 5731,
    "instrument": 15236,
    "akeman": 6267,
    "Ġcouple": 5423,
    "Ġvaluable": 5607,
    "unearthly": 19272,
    "Ġsatisf": 2807,
    "Ġcusack": 26432,
    "Ġpast": 2100,
    "upid": 6581,
    "Ġcast": 3603,
    "feather": 16040,
    "Ġshipmates": 6720,
    "Ġconceits": 19388,
    "Ď": 207,
    "Ġfireboard": 23531,
    "o": 83,
    "wood": 5898,
    "Ġbrisk": 9801,
    "Ġnerve": 16337,
    "Ġspray": 7895,
    "Ġcompetition": 14265,
    "Ġdeposit": 17267,
    "antled": 18286,
    "Ġsincerity": 13676,
    "Ġanyone": 4458,
    "fields": 14652,
    "otherwise": 7671,
    "sal": 8757,
    "Ġrespite": 13152,
    "igan": 21697,
    "ute": 4643,
    "assumed": 22306,
    "Ġclout": 22342,
    "more": 1033,
    "tanh": 5204,
    "Ġdetail": 635,
    "Ġearthy": 23711,
    "Ġgener": 591,
    "atives": 2236,
    "thar": 18217,
    "shaw": 6864,
    "sch": 21049,
    "Ġhis": 380,
    "bud": 10681,
    "rist": 10121,
    "Ġamaze": 22477,
    "elect": 20845,
    ">": 34,
    "Ġsnatched": 10470,
    "Ġreference": 2569,
    "Ġdevelopment": 7063,
    "Ġantiqu": 12141,
    "handkerchief": 14617,
    "Ġranks": 21970,
    "uneven": 23683,
    "Ġirr": 10420,
    "Ġfaith": 5350,
    "tout": 21064,
    ").": 1270,
    "globe": 25142,
    "tone": 8762,
    "Ġpreliminary": 10055,
    "Ġfeat": 10935,
    "Ġhabits": 6926,
    "Ġstrangeness": 16706,
    "Ġgrieved": 8298,
    "Ġsupplement": 23000,
    "entric": 11616,
    "Ġrespectively": 23246,
    "Ġcurse": 7668,
    "fooled": 24418,
    "Ġwr": 1543,
    "Ġimperial": 9479,
    "Ġbird": 3755,
    "owing": 7601,
    "no": 901,
    "Ġhired": 10176,
    "cond": 1667,
    "Ġchapters": 10472,
    "kings": 17582,
    "Ġwon": 1665,
    "Ġcallest": 17832,
    "ification": 1007,
    "Ġperfidious": 25666,
    "Ġpresentiment": 18989,
    "ipt": 12475,
    "pent": 3490,
    "Ġprecipices": 12274,
    "Ġfable": 15573,
    "aur": 15306,
    "Ġflickering": 23014,
    "lig": 3171,
    "ports": 13772,
    "Ġtakes": 5007,
    "Ġtransparent": 9487,
    "stood": 4115,
    "Ġinfall": 7961,
    "preser": 9758,
    "keen": 12778,
    "Ġjest": 18403,
    "vocabulary": 25085,
    "Ġresounded": 22542,
    "Ġimbalance": 22170,
    "Ġchallenge": 25471,
    "Ġalleys": 25978,
    "Ġblessing": 11261,
    "Ġreproachfully": 25251,
    "inion": 2874,
    "Ġstaggers": 24653,
    "Ġvigilant": 20183,
    "Ġendeavor": 16543,
    "Ġhovered": 12627,
    "ushes": 22279,
    "offing": 23332,
    "ruined": 18337,
    "ckets": 6843,
    "recl": 15508,
    "metal": 24765,
    "Ġrepulsive": 14529,
    "thed": 8825,
    "Ġinvestment": 24335,
    "Ġretained": 7173,
    "Ġminimize": 7050,
    "Ġlory": 12648,
    "Ġbloodshot": 23798,
    "Ġlabour": 7274,
    "progra": 9393,
    "orient": 2877,
    "hertfordshire": 10934,
    "Ġenderby": 13649,
    "Ġovertaken": 18429,
    "Ġfree": 3373,
    "Ġhung": 4561,
    "repeat": 25151,
    "Ġpronouncing": 16968,
    "conveyed": 20519,
    "Ġunconsc": 6552,
    "Ġhardware": 4904,
    "j": 78,
    "total": 17249,
    "Ġmonstr": 7667,
    "pier": 17634,
    "unaccountable": 15775,
    "ħ": 232,
    "Ġjar": 15947,
    "Ġproportionably": 19969,
    "romeda": 17261,
    "Ġcalendar": 18876,
    "Ġagitated": 7647,
    "Ġcoils": 9301,
    "Ġofficers": 4425,
    "hamlet": 23260,
    "Ġminers": 22831,
    "hatches": 19927,
    "uction": 15441,
    "answering": 26004,
    "Ġgoat": 16003,
    "anthrop": 17380,
    "Ġnobody": 6158,
    "Ġrecurrent": 1806,
    "Ġcleanse": 24526,
    "parm": 21013,
    "persu": 8028,
    "Ġtriumph": 5143,
    "Ġforgetting": 3432,
    "Ġears": 4491,
    "Ġheighten": 19528,
    "Ġsol": 1102,
    "Ġadded": 2717,
    "Ġforked": 11662,
    "Ġcubs": 20085,
    "Ġconclude": 8580,
    "Ġantagon": 19549,
    "Ġcurls": 22982,
    "Ġcocks": 18597,
    "Ġcouples": 16851,
    "Ġsoap": 14129,
    "Ġcompetent": 11813,
    "shoe": 14965,
    "Ġrope": 4338,
    "Ġpassive": 22839,
    "Ġswallow": 8949,
    "nson": 16089,
    "Ġnantucket": 2838,
    "Ġrevive": 13477,
    "congreg": 25398,
    "ang": 442,
    "Ġ1950": 11357,
    "Ġadvantages": 9809,
    "Ġcolouring": 16750,
    "hooked": 23714,
    "Ġsolutions": 1946,
    "Ġmonsie": 11445,
    "Ġcerem": 7077,
    "charles": 14697,
    "Ġdependent": 14305,
    "Ġbackwards": 12923,
    "Ġbuoyant": 13530,
    "Ġfell": 1978,
    "fear": 8513,
    "engthen": 14455,
    "occupied": 12301,
    "Ġinquiries": 5678,
    ",âĢĶ": 3169,
    "Ġglove": 14490,
    "Ġfreed": 7267,
    "Ġproflig": 23566,
    "onden": 13842,
    "Ġsafie": 6617,
    "Ġroy": 4225,
    "Ġcares": 9365,
    "Ġadmires": 19684,
    "concent": 19478,
    "capable": 13699,
    "Ġfinishing": 23122,
    "Ġboys": 5194,
    "anim": 6522,
    "Ġfedallah": 6108,
    "Ġtri": 4813,
    "Ġunharmed": 15137,
    "coburg": 13596,
    "Ġpacing": 8426,
    ":": 30,
    "compar": 14357,
    "Ġways": 5396,
    "Ġassault": 9835,
    "erringly": 16209,
    "Ġtasks": 1792,
    "Ġugly": 8715,
    "Ġspeedily": 7712,
    "Ġwhipcord": 20093,
    "Ġexult": 10228,
    "Ġmaterial": 5178,
    "Ġgrimesby": 11455,
    "Ġ{": 21151,
    "ented": 4348,
    "Ġoccupations": 9456,
    "magn": 10609,
    "Ġbody": 2439,
    "Ġallusions": 10904,
    "Ġnatural": 1099,
    "Ġtahiti": 13617,
    "Ġhumanity": 6731,
    "Ġknown": 1643,
    "Ġbrood": 23099,
    "Ġbats": 13898,
    "Ġboundless": 10494,
    "voyages": 24855,
    "Ġheadsmen": 14730,
    "drifting": 19823,
    "Ġaslant": 21899,
    "Ġinterfere": 11814,
    "conve": 14242,
    "Ġpreparation": 13527,
    "advance": 12153,
    "Ġexploding": 2110,
    "Ġdeliber": 7268,
    "Ġhonour": 3921,
    "fl": 3597,
    "danced": 20827,
    "handedness": 24920,
    "ernation": 8211,
    "Ġsolar": 22884,
    "Ġpiqu": 21476,
    "bidden": 19735,
    "Ġsuspend": 14608,
    "Ġvow": 10245,
    "Ġaberdeen": 26540,
    "Ġtimbers": 14837,
    ";âĢĶ": 3748,
    "Ġbrains": 2634,
    "hunters": 16832,
    "Ġmoses": 21314,
    "Ġbabel": 24425,
    "Ġpenalty": 1842,
    "yet": 3752,
    "Ġblacksmith": 6595,
    "uary": 11535,
    "Ġmerc": 9424,
    "Ġcrooked": 11279,
    "Ġcore": 13876,
    "poster": 11054,
    "master": 5687,
    "Ë": 140,
    "lilies": 20960,
    "Ġpresentation": 14479,
    "Ġchestnuts": 24380,
    "Ġsalted": 14754,
    "prosper": 19100,
    "iciency": 9573,
    "Ġbranded": 14377,
    "Ġillum": 9398,
    "Ġeng": 1161,
    "ampl": 21840,
    "ruin": 22174,
    "Ġdrab": 13068,
    "Ġconvalescence": 23744,
    "Ġmet": 1895,
    "Ġreg": 729,
    "frankly": 20020,
    "standers": 18479,
    "ascertaining": 26459,
    "Ġdelights": 14596,
    "_;": 6640,
    "witness": 10033,
    "Ġfulfilment": 20186,
    "berg": 11855,
    "Ġinsult": 6747,
    "nial": 20983,
    "Ġvelocity": 10619,
    "ums": 10271,
    "tiness": 21070,
    "Ġra": 807,
    "Ġhighness": 22773,
    "Ġsignal": 5945,
    "Ġsuppose": 2865,
    "ography": 13360,
    "P": 52,
    "venge": 4659,
    "Ġpicking": 11257,
    "commer": 22809,
    "Ġliterary": 25162,
    "Ġnumerical": 4245,
    "Ġtransform": 748,
    "bering": 18680,
    "angs": 5833,
    "devilish": 17081,
    "matter": 5136,
    "Ġprimitive": 25061,
    "castles": 14635,
    "poises": 11888,
    "Ġbrigs": 20321,
    "wreck": 21135,
    "Ġrabb": 4162,
    "Ġpausing": 8652,
    "lonely": 20956,
    "Ġpratt": 23221,
    "Ġmarshy": 20217,
    "descending": 16282,
    "Ġrecommend": 7102,
    "northern": 23663,
    "kindled": 16659,
    "diss": 17522,
    "soc": 5175,
    "âĢĻ": 378,
    "Ġforthwith": 16617,
    "Ġmanned": 9269,
    "phr": 18696,
    "ulence": 15762,
    "igms": 3042,
    "Ġincludes": 2012,
    "Ġcreatures": 4136,
    "Ġwounded": 8657,
    "Ġextinction": 14326,
    "ti": 8390,
    "Ġag": 683,
    "enth": 6680,
    "Ġwindow": 2994,
    "Ġangles": 23587,
    "Ġli": 601,
    "Ġdrew": 3535,
    "Ġdeaden": 23459,
    "Ġumbrella": 15263,
    "felicity": 25140,
    "Ġrud": 8477,
    "Ġsinew": 25431,
    "Ġvineyarder": 25606,
    "son": 2329,
    "Ġpoky": 21478,
    "rolled": 9058,
    "Ġodds": 13327,
    "Ġfronted": 25854,
    "itt": 572,
    "endeav": 7150,
    "introduced": 15122,
    "aster": 1866,
    "Ġoccurred": 4462,
    "sively": 13784,
    "Ġdaggoo": 5441,
    "Ġhuzza": 12629,
    "rift": 11517,
    "antage": 3878,
    "Ġrespects": 7269,
    "protested": 13472,
    "Ġshe": 466,
    "Ġcompromising": 22571,
    "preserver": 20212,
    "Ġforbidding": 17078,
    "Ġtwilight": 16118,
    "Ġadvers": 4887,
    "Ġbold": 5291,
    "Ġlounged": 19952,
    "Ġillustrate": 25065,
    "icant": 21560,
    "us": 531,
    "dening": 22779,
    "Ġfairy": 14626,
    "Ġopenness": 18956,
    "Ġenergy": 2555,
    "Ġshifting": 12764,
    "Ġperilously": 24503,
    "Ġconversations": 9423,
    "Ġyore": 21776,
    "Ġportra": 9007,
    "Ġpalmy": 19497,
    "Ġflinging": 13583,
    "rmsprop": 4523,
    "Ġrestoration": 19027,
    "Ġadmir": 12018,
    "protected": 19920,
    "Ġrecommending": 24336,
    "vitiated": 25754,
    "Ġscroll": 14190,
    "Ġincorrect": 2730,
    "Ġopens": 23626,
    "Ġbiography": 22768,
    "Ġpropontis": 17464,
    "Ġrewarding": 13435,
    "omach": 11635,
    "traversed": 19638,
    "Ġexpose": 10326,
    "Ġlimits": 3450,
    "Ġvancou": 22870,
    "retched": 3066,
    "Ġrecollect": 8310,
    "neither": 9755,
    "Ġgreeted": 23213,
    "Ġarctic": 12807,
    "att": 1457,
    ".âĢĻâĢĿ": 6739,
    "Ġsockets": 22077,
    "ometer": 19325,
    "Ġkith": 22190,
    "aet": 15305,
    "Ġmead": 8834,
    "Ġhypothesis": 14780,
    "Ġfolio": 11915,
    "Ġnumerous": 6920,
    "kingly": 20938,
    "pictures": 15088,
    "swear": 16917,
    "Ġbarred": 9001,
    "Ġcruis": 14623,
    "Ġimmovable": 15884,
    "Ġcoin": 9769,
    "Ġarri": 2556,
    "Ġxxx": 7767,
    "Ġadvoc": 12989,
    "Ġmarble": 7669,
    "establishment": 26113,
    "wick": 5362,
    "log": 18535,
    "Ġwhales": 1828,
    "Ġproprietors": 20185,
    "paws": 21028,
    "Ġunassuming": 20507,
    "Ġbrightest": 13222,
    "respectively": 24700,
    "Ġtunnel": 14928,
    "Ġsavage": 4011,
    "formal": 14167,
    "Ġkramm": 26233,
    "izarre": 17387,
    "erxes": 21274,
    "Ġobjections": 8564,
    "Ġherd": 7889,
    "geons": 15976,
    "Ġcasked": 24496,
    "union": 15766,
    "thickness": 25367,
    "Ġnominal": 15166,
    "rying": 3184,
    "Ġlaughter": 9026,
    "process": 11146,
    "Ġsubset": 9868,
    "Ġcompared": 2229,
    "Ġpropri": 6738,
    "ology": 1562,
    "Ġethere": 23948,
    "Ġrenow": 18027,
    "Ġspots": 11726,
    "Ġbro": 1429,
    "rate": 2426,
    "Ġthoughtlessness": 16190,
    "Ġoverlooked": 15971,
    "Ġscratch": 25564,
    "sooner": 14774,
    "Ġgenerates": 3660,
    "Ġascending": 14852,
    "Ġhanding": 16127,
    "range": 3491,
    "atisf": 21262,
    "mong": 15387,
    "Ġsurf": 19131,
    "oried": 10801,
    "Ġmanx": 7906,
    "unch": 14056,
    "Ġgrap": 11704,
    "Ġslappin": 18942,
    "Ġhull": 5446,
    "Ġrecede": 25968,
    "Ġswaying": 15045,
    "Ġpecks": 18669,
    "dz": 4739,
    "Ġsettlement": 19835,
    "ful": 672,
    "ugn": 9376,
    "Ġfolded": 7768,
    "omuch": 21658,
    "Ġfare": 5809,
    "Ġmatlock": 18802,
    "Ġwishes": 4795,
    "Ġremember": 2679,
    "Ġhugh": 15003,
    "Ġpiteous": 17917,
    "Ġrefrain": 12943,
    "Ġlivery": 15996,
    "Ġinconceivable": 17937,
    "Ġoversampling": 20514,
    "Ġdocumentation": 20553,
    "Ġshipped": 9713,
    "elfare": 11773,
    "Ġarchly": 22777,
    "Ġchuckled": 10646,
    "custom": 15331,
    "Ġhermits": 22072,
    "Ġoverpowering": 15247,
    "Ġdrop": 4344,
    "Ġassistant": 7298,
    "Ġexpanded": 14288,
    "Ġsensitiveness": 23733,
    "Ġpor": 5225,
    "Ġbeing": 1163,
    "Ġseam": 3907,
    "Ġmummy": 25768,
    "Ġweighty": 16029,
    "Ġfer": 5623,
    "Ġdeline": 16330,
    "Ġthough": 995,
    "Ġopulent": 23628,
    "Ġhorner": 8957,
    "Ġnovember": 11746,
    "disinterested": 23501,
    "Ġpleased": 4064,
    "Ġhom": 9185,
    "Ġwhitting": 18055,
    "Ġmirror": 12375,
    "Ġoffice": 4965,
    "rather": 5430,
    "chair": 5917,
    "Ġcoop": 14268,
    "inter": 2945,
    "Ġlargely": 14283,
    "Ġcorrob": 16263,
    "Ġclink": 22344,
    "Ġslily": 23162,
    "Ġrans": 21964,
    "ables": 7891,
    "Ġclubs": 25179,
    "Ġsil": 1800,
    "reduced": 15802,
    "Ġwhit": 7177,
    "Ġdocile": 19957,
    "condesc": 18503,
    "influ": 9539,
    "introdu": 8936,
    "itement": 7836,
    "land": 1531,
    "Ġsighs": 22709,
    "itch": 10159,
    "Ġdl": 3374,
    "Ġconcl": 5095,
    "Ġapo": 9629,
    "Ġreturned": 2889,
    "Ġsuspending": 19243,
    "herald": 22205,
    "lob": 22504,
    "95": 17476,
    "Ġencompassed": 15251,
    "oss": 10114,
    "mission": 5970,
    "Ġfeedback": 23431,
    "Ġneglig": 18877,
    "icy": 6140,
    "Ġvarious": 3507,
    "Ġnorthern": 7265,
    "Ġpuffed": 14975,
    "sprit": 11380,
    "Ġ/*": 10138,
    "Ġgoverness": 8601,
    "por": 2150,
    "Ġloomed": 12298,
    "Ġcrystall": 20225,
    "thest": 11652,
    "sue": 2078,
    "Ġarmy": 11738,
    "Ġroutine": 13506,
    "wedding": 13369,
    "Ġtribute": 15473,
    "Ġgrace": 5374,
    "german": 11489,
    "ice": 585,
    "Ġcabaco": 13165,
    "Ġmulti": 1043,
    "Ġthrill": 24540,
    "Ġsnoo": 21227,
    "Ġsettle": 6293,
    "inhab": 10756,
    "Ġemployments": 12099,
    "Ġspoil": 17006,
    "ham": 1703,
    "Ġsounds": 5190,
    "orative": 21396,
    "Ġviolin": 16426,
    "furnish": 25338,
    "Ġmagazine": 23098,
    "tol": 17671,
    "accustomed": 13155,
    "writes": 4988,
    "lighted": 23753,
    "ĠĠĠĠĠĠĠĠĠĠĠĠĠĠĠĠĠĠĠĠĠĠĠĠĠ": 24441,
    "Ġlucifers": 16587,
    "Ġsnuff": 7992,
    "Ġsanguinary": 25929,
    "Ġcove": 22580,
    "Ġdress": 4021,
    "Ġdepresses": 25797,
    "hastened": 16844,
    "Ġornaments": 17450,
    "compose": 24029,
    "Ġloungers": 24862,
    "goodbye": 12053,
    "Ġsnail": 19298,
    "Ġcredited": 25153,
    "Ġglided": 7447,
    "Ġdoubling": 23319,
    "Ġclearing": 8240,
    "Ġsigh": 10335,
    "occurred": 13335,
    "Ġinfamy": 14502,
    "Ġbony": 12583,
    "ity": 417,
    "bon": 13682,
    "Ġtemper": 956,
    "Ġhessian": 3546,
    "turning": 8317,
    "Ġvic": 5237,
    "Ġterritories": 23843,
    "Ġdeformity": 11674,
    "Ġbrittle": 22858,
    "wife": 8101,
    "Ġorthodox": 22091,
    "avating": 18605,
    "Ġ183": 13235,
    "ants": 1390,
    "continuing": 24478,
    "Ġcorpora": 26579,
    "Ġcharging": 23265,
    "Ġunbroken": 18250,
    "swell": 17662,
    "unnatural": 15769,
    "Ġdirectors": 18921,
    "handsome": 13174,
    "Ġgrin": 5482,
    "Ġstru": 2169,
    "Ġmeditating": 20041,
    "Ġincluding": 2847,
    "Ġjumbled": 22295,
    "inside": 23064,
    "Ġunconditional": 15841,
    "Ġvectors": 1773,
    "ocr": 10467,
    "Ġrange": 9710,
    "hamed": 6305,
    "Ġsmiled": 5941,
    "Ġcurtain": 14414,
    "deser": 10401,
    "Ġwoodlands": 23520,
    "Ġgettest": 23232,
    "Ġjoy": 3182,
    "paus": 13771,
    "modern": 1114,
    "gaze": 17556,
    "etuous": 21581,
    "Ġstamped": 13525,
    "spiracle": 22738,
    "Ġintently": 8169,
    "kne": 20934,
    "Ġmiles": 3801,
    "whew": 22862,
    "?âĢĿ": 700,
    "slight": 10726,
    "Ġrotation": 25474,
    "Ġdegraded": 19226,
    "Ġestim": 3346,
    "piteous": 21032,
    "athy": 14321,
    "Ġdoubts": 8579,
    "arness": 11670,
    "Ġdictionaries": 12337,
    "blood": 7780,
    "Ġcounters": 24137,
    "Ġclothe": 4712,
    "Ġpage": 6978,
    "orts": 2558,
    "Ġallured": 14111,
    "(-": 2977,
    "Ġknight": 9725,
    "Ġutil": 4673,
    "enorm": 17780,
    "Ġnour": 10829,
    "sprang": 19989,
    "Ġentered": 2845,
    "anter": 9165,
    "dat": 1709,
    "Ġawful": 6199,
    "Ġoath": 7834,
    "Ġivory": 4476,
    "Ġsoul": 2726,
    "iece": 3227,
    "Ġbids": 24645,
    "conceivable": 17129,
    "advise": 24216,
    "Ġperforming": 7928,
    "Ġincorporated": 25711,
    "Ġsuspect": 5758,
    "ension": 6569,
    "Ġwaiter": 16357,
    "Ġenlarged": 25985,
    "Ġnice": 6676,
    "Ġinexperience": 26099,
    "î": 175,
    "Ġvolume": 6769,
    "Ġornam": 15861,
    "discern": 14849,
    "ches": 2149,
    "tum": 11529,
    "neighbourhood": 10023,
    "Ġsubterr": 10347,
    "Ġbrute": 8925,
    "Ġmonster": 3791,
    "Ġwhispers": 14698,
    "Ġcaval": 25769,
    "Ġthyself": 6602,
    "dropping": 14980,
    "Ġminister": 18751,
    "Ġdance": 4441,
    "Ġzeros": 3323,
    "Ġreckoning": 14977,
    "Ġdividing": 12108,
    "pall": 17627,
    "Ġpushing": 10818,
    "Ġcleaving": 23179,
    "Ġlodge": 5779,
    "westward": 25424,
    "Ġleagues": 9222,
    "Ġsundry": 20072,
    "false": 15352,
    "expectation": 14854,
    "penetrating": 25490,
    "Ġconc": 1843,
    "Ġanalyzing": 18805,
    "Ġgaunt": 11266,
    "Ġfals": 15577,
    "physiogn": 26263,
    "Ġsu": 433,
    "Ġpeculiarity": 12929,
    "Ġaccorded": 24086,
    "Ġpolynes": 16076,
    "Ġinasmuch": 10824,
    "separ": 9229,
    "alyards": 18793,
    "Ġreceiving": 4882,
    "Ġdiary": 24739,
    "chose": 18040,
    "Ġreveries": 11345,
    "Ġcheapside": 23287,
    "wishing": 21127,
    "claim": 9833,
    "Ġassuredly": 14820,
    "Ġclock": 9531,
    "crippled": 26383,
    "Ġacquaintance": 4132,
    "Ġflavor": 16250,
    "Ġprovidence": 18745,
    "thyself": 19296,
    "Ġlosing": 10914,
    "Ġadro": 15864,
    "Ġunconnected": 18242,
    "Ġpersecutor": 26096,
    "Ġsloop": 25930,
    "Ġawaken": 23585,
    "Ġapparatus": 24908,
    "Ġbark": 10797,
    "ulnerable": 18150,
    "Ġmonoton": 3633,
    "verize": 21726,
    "laws": 19806,
    "agonies": 21907,
    "chapter": 1401,
    "Ġhourly": 23301,
    "Ġdearer": 14049,
    "Ġcatherine": 2813,
    "divers": 15340,
    "Ġwhose": 2009,
    "Ġmisfortune": 5568,
    "Ġplumber": 16081,
    "Ġrefres": 14340,
    "Ġsnows": 14724,
    "Ġaffect": 1386,
    "Ġsc": 532,
    "Ġpudding": 17915,
    "mic": 12485,
    "gaz": 20877,
    "Ġweltering": 19584,
    "crane": 24096,
    "inative": 15482,
    "Ġpurse": 12007,
    "Ġcass": 13877,
    "Ġdigesting": 19808,
    "Ġitself": 2523,
    "dest": 4102,
    "Ġcontracting": 16008,
    "ate": 422,
    "antique": 18287,
    "ook": 21003,
    "Ġproceed": 3240,
    "Ġgets": 10838,
    "Ġcurds": 22984,
    "Ġtim": 4579,
    "Ġmajesty": 5201,
    "yarn": 15455,
    "Ġphr": 2682,
    "uming": 8491,
    "Ġbeginning": 4242,
    "bol": 8717,
    "concerns": 24582,
    "q": 85,
    "Ġlandlessness": 23378,
    "Ġeloped": 22641,
    "Ġcoins": 11816,
    "Ġrecogn": 2477,
    "Ġdeep": 823,
    "Ġcanals": 22160,
    "uerus": 26405,
    "Ġinconstant": 21494,
    "accomplishments": 25326,
    "Ġuncommon": 5026,
    "Ġsavory": 23874,
    "Ġloop": 14145,
    "Ġtroops": 24898,
    "Ġdey": 11673,
    "cham": 10851,
    "Ġmagistrate": 8234,
    "repressed": 21242,
    "evade": 24820,
    "Ġgardiners": 11155,
    "Ġmoulton": 17433,
    "Ġdistur": 5312,
    "gaffman": 26389,
    "Ġadmirer": 16837,
    "Ġcoincidences": 26363,
    "hunsford": 24385,
    "Ġconstrain": 2633,
    "bearded": 18522,
    "Ġfriesland": 26441,
    "Ġclasses": 4055,
    "Ġwashes": 21859,
    "00": 1612,
    "Ġcompassion": 6487,
    "alth": 3253,
    "Ġhotel": 8650,
    "securer": 25602,
    "Ġassociate": 13448,
    "Ġpatient": 6896,
    "gathered": 13730,
    "clergy": 18933,
    "Ġpump": 12617,
    "Ġteased": 18780,
    "lux": 14225,
    "Ġmorrow": 9340,
    "Ġwhereof": 16099,
    "canonical": 22961,
    "Ġwithout": 1120,
    "Ġagent": 6277,
    "Ġintrospect": 15825,
    "Ġnobleman": 19390,
    "mown": 20969,
    "horizon": 23614,
    "arius": 14247,
    "Ä": 133,
    "likes": 18814,
    "Ġunjustly": 17125,
    "henomen": 10493,
    "pure": 17625,
    "begins": 18525,
    "atches": 13844,
    "Ġinheriting": 25354,
    "Ġwallow": 19464,
    "harpo": 4805,
    "ren": 549,
    "Ġpaw": 12616,
    "Ġpant": 10816,
    "pockets": 16208,
    "Ġmuteness": 19415,
    "ssing": 3808,
    "oglyph": 11014,
    "Ġsaxon": 25468,
    "Ġscreening": 25300,
    "Ġsurmise": 12292,
    "Ġreced": 15688,
    "Ġconfid": 7687,
    "Ġalongside": 6311,
    "Ġwild": 2605,
    "na": 13758,
    "Ġproverb": 12712,
    "Ġutterance": 14761,
    "glow": 20873,
    "fitted": 17543,
    "Ġgibberish": 25786,
    "Ġclair": 6268,
    "Ġtom": 15629,
    "Ġtraveller": 8049,
    "Ġrelease": 19289,
    "Ġklan": 23658,
    "Ġcontinental": 19704,
    "Ġlodger": 24089,
    "sticks": 25964,
    "Ġhaggerston": 26451,
    "Ġimpul": 7207,
    "Ġconfidence": 6590,
    "Ġruffled": 25835,
    "Ġshel": 6847,
    "Ġlab": 1871,
    "repro": 10769,
    "ifice": 7198,
    "Ġwhoever": 10971,
    "moid": 2452,
    "Ġresponsible": 9885,
    "wicked": 24448,
    "Ġartistic": 18612,
    "Ġobtruded": 20721,
    "pine": 13767,
    "Ġcons": 954,
    "Ġlancaster": 26340,
    "Ġoriginal": 6102,
    "pos": 15408,
    "Ġsequences": 1754,
    "extracts": 22766,
    "Ġbrightness": 16575,
    "Ġrecollected": 8311,
    "Ġrear": 6535,
    "Ġlanguid": 14218,
    "Ġlengthened": 25958,
    "Ġcontrol": 13077,
    "Ġdew": 14043,
    "Ġyork": 11663,
    "Ġloves": 10913,
    "particulars": 11313,
    "acing": 2718,
    "Ġabstracted": 17181,
    "Ġcompare": 9300,
    "Ġinflexibly": 26370,
    "iew": 2449,
    "Ġ\"": 6119,
    "Ġexponentially": 1444,
    "Ġemboldened": 22968,
    "cheerfulness": 20179,
    "Ġreserved": 7515,
    "Ġ&": 6513,
    "Ġvoid": 14084,
    "Ġfascinated": 25635,
    "Ġshiny": 14104,
    "Ġirreparable": 19997,
    "lines": 6959,
    "courage": 17508,
    "Ġembodied": 25846,
    "----": 4058,
    "Ġmistress": 8611,
    "âĢĶ_": 3198,
    "phia": 22750,
    "Ġloops": 8851,
    "Ġcreations": 18685,
    "Ġinclination": 6623,
    "wondering": 19844,
    "onely": 6516,
    "histor": 13489,
    "Ġstraighten": 24001,
    "Ġsexes": 25168,
    "tish": 17676,
    "Ġart": 747,
    "Ġpier": 7162,
    "Ġpott": 21467,
    "Ġinf": 1759,
    "Ġwelcome": 5603,
    "hilar": 25081,
    "Ġsqu": 1037,
    "Ġvis": 1109,
    "Ġsummoning": 23872,
    "phew": 6368,
    "thinness": 25810,
    "Ġbuoy": 8004,
    "Ġfamiliar": 5511,
    "Ġchord": 22243,
    "Ġsparks": 22130,
    "opence": 18513,
    "Ġwaters": 3593,
    "Ġexplaining": 15957,
    "Ġinvisibly": 24817,
    "unbe": 21870,
    "osite": 4893,
    "til": 17670,
    "eg": 17528,
    "luc": 9752,
    "Ġhighlands": 22774,
    "xible": 13806,
    "compan": 7301,
    "Ġlocations": 12409,
    "unwillingly": 21882,
    "prim": 23808,
    "Ġavoided": 13255,
    "Ġdomes": 23668,
    "Ġrebounds": 25967,
    "Ġdisagreeable": 9296,
    "holes": 12051,
    "rear": 21231,
    "Ġperverseness": 13652,
    "alo": 7587,
    "Ġrepining": 23359,
    "Ġbaron": 19333,
    "Ġtick": 8109,
    "Ġvoluntarily": 12137,
    "historical": 20464,
    "shop": 14236,
    "w": 91,
    "lik": 3914,
    "stationed": 25453,
    "Ġthr": 5709,
    "Ġflapped": 23011,
    "Ġpumping": 25643,
    "streamed": 25965,
    "Ġpuffing": 12251,
    "anc": 6379,
    "ĠĠĠĠĠĠĠĠĠĠĠĠĠĠĠĠĠĠĠĠĠĠĠĠĠĠĠĠĠĠ": 24442,
    "ineas": 15819,
    "Ġfest": 10803,
    "saw": 5894,
    "Ġdiabolically": 25513,
    "Ġcounted": 12136,
    "Ġimpet": 11776,
    "sherlock": 5422,
    "Ġflowery": 16230,
    "Ġoysters": 20577,
    "Ġgrapnels": 25551,
    "Ġuprising": 12798,
    "Ġpall": 7582,
    "Ġunrecord": 16620,
    "Ġunb": 10905,
    "Ġacceler": 1611,
    "blades": 24128,
    "Ġingenious": 12345,
    "igantic": 5538,
    "order": 1958,
    "ouses": 5163,
    "twist": 23699,
    "Ġsocially": 22076,
    "Ġminutest": 14558,
    "°": 113,
    "Ġunthink": 18247,
    "Ġbackpropagation": 1288,
    "Ġstudded": 18966,
    "pless": 6260,
    "Ġdevotees": 25376,
    "Ġvancouver": 26564,
    "Ġinstinct": 6575,
    "Ġclerval": 4654,
    "Ġbetake": 22905,
    "Ġrecept": 1525,
    "heum": 17746,
    "lad": 5992,
    "expressive": 24304,
    "osure": 5306,
    "Ġbeheading": 21752,
    "mering": 12487,
    "Ġtheory": 5798,
    "disappeared": 14569,
    "Ġfris": 23253,
    "laugh": 10107,
    "su": 802,
    "owder": 8448,
    "abriel": 6950,
    "Ġrepeatedly": 9019,
    "Ġwoody": 23518,
    "Ġlingo": 24903,
    "quality": 10231,
    "Ġhushed": 13923,
    "adru": 15727,
    "estinated": 15918,
    "door": 6193,
    "back": 2018,
    "cain": 15324,
    "Ġnewsp": 9337,
    "Ġcarriage": 3949,
    "prince": 23812,
    "chooses": 23672,
    "insisted": 23066,
    "herds": 22203,
    "Ġdoll": 10812,
    "Ġobe": 5800,
    "Ġhellish": 10549,
    "Ġlances": 6984,
    "ograph": 4797,
    "puff": 21021,
    "Ġstealing": 18894,
    "approb": 11040,
    "smooth": 20247,
    "ĠĠĠĠĠĠĠĠĠĠĠĠĠĠĠĠĠĠĠĠĠĠĠĠĠĠĠĠĠ": 19698,
    "blister": 24125,
    "Ġdint": 15587,
    "Ġcordial": 16834,
    "Ġunche": 23427,
    "recurrent": 4994,
    "quick": 6400,
    "usage": 12828,
    "?_": 8070,
    "Ġsharpen": 13567,
    "Ġ123": 24467,
    "Ġrig": 4222,
    "Ġlose": 5028,
    "Ġimpression": 5732,
    "none": 6962,
    "ilingly": 21721,
    "Ġmagician": 25058,
    "pped": 1999,
    "expressed": 9040,
    "terrific": 25040,
    "mut": 17594,
    "abil": 2008,
    "Ġconsecrate": 26488,
    "Ġlod": 4043,
    "Ġcordiality": 24394,
    "vict": 11538,
    "eline": 2403,
    "onde": 21250,
    "Ġheap": 12674,
    "fron": 24280,
    "Ġconnecting": 18629,
    "Ġjerked": 19831,
    "Ġunhinged": 26216,
    "Ġwing": 6665,
    "Ġdusk": 12324,
    "remembered": 17349,
    "Ġempires": 19075,
    "Ġfaculties": 14956,
    "distance": 12149,
    "leaving": 10790,
    "Ġglacier": 11431,
    "arb": 1565,
    "Ġglimmer": 15139,
    "Ġenvelopes": 24506,
    "Ġparagra": 15876,
    "Ġcircumnavigation": 20398,
    "Ġstorm": 4300,
    "ige": 12676,
    "Ġgenerations": 10963,
    "chairs": 21691,
    "Ġharmony": 16813,
    "Ġportly": 14677,
    "Ġelab": 22638,
    "Ġclasping": 20208,
    "Ġstud": 1590,
    "Ġexists": 14039,
    "Ġsuffering": 8945,
    "changed": 7175,
    "oc": 2834,
    "therly": 18341,
    "storm": 9679,
    "Ġgrinned": 16856,
    "ipp": 10101,
    "Ġcards": 7580,
    "acknowledging": 25476,
    "Ġinvective": 26181,
    "Ġinfer": 7684,
    "Ġevangelists": 20338,
    "bitt": 17484,
    "Ġcommentaries": 20159,
    "Ġtame": 17721,
    "Ġpugnacious": 26450,
    "Ġusher": 22211,
    "undoubtedly": 13309,
    "Ġunlike": 7004,
    "Ġadvis": 9808,
    "bergs": 18681,
    "rival": 12738,
    "Ġlogs": 16343,
    "Ġchancery": 20715,
    "ullo": 12725,
    "Ġflirt": 14421,
    "Ġstormy": 16727,
    "billiard": 25334,
    "assment": 9737,
    "Ġtimber": 13347,
    "deceiving": 22142,
    "Ġwoods": 5406,
    "Ġpom": 21451,
    "Ġscot": 5643,
    "ella": 12745,
    "Ġkept": 3344,
    "Ġbristles": 25843,
    "Ġthrob": 21516,
    "Ġheels": 10848,
    "three": 5239,
    "Ġmassive": 9930,
    "Ġconceals": 23901,
    "Ġbelf": 21379,
    "ution": 4349,
    "Ġexcurs": 23313,
    "iet": 1776,
    "Ġinoffensive": 21496,
    "Ġpow": 4638,
    "ni": 1532,
    "Ġblot": 9810,
    "splice": 17169,
    "Ġmaledictions": 26427,
    "Ġdeclines": 23960,
    "Ġprior": 11316,
    "ocity": 8278,
    "Ġforg": 3785,
    "ning": 949,
    "igation": 5918,
    "Ġlouder": 13466,
    "Ġwarmest": 16482,
    "Ġbread": 5404,
    "maritime": 24172,
    "Ġdeadliest": 14555,
    "beam": 16035,
    "Ġapology": 8328,
    "Ġmar": 1309,
    "Ġpawn": 12060,
    "incing": 15483,
    "Ġeffectual": 18732,
    "Ġencomp": 12958,
    "embraces": 25803,
    "Ġclearer": 16310,
    "Ġinevitable": 15165,
    "anxious": 15107,
    "aborate": 14020,
    "Ġbusks": 23338,
    "_.âĢĶ": 23471,
    "Ġseaport": 20598,
    "Ġdivers": 9664,
    "ifled": 14061,
    "ood": 962,
    "Ġdaunt": 19663,
    "hval": 20897,
    "depth": 12796,
    "Ġholes": 16406,
    "secure": 12232,
    "Ġmetropol": 11138,
    "Ġfish": 2711,
    "inkles": 7426,
    "pits": 15410,
    "Ġhauling": 14085,
    "find": 6954,
    "Ġtol": 6675,
    "Ġlack": 17963,
    "Ġstow": 21728,
    "resp": 13837,
    "brevi": 24070,
    "Ġdeeps": 16113,
    "Ġhatchet": 16527,
    "Ġsallies": 21228,
    "cup": 10689,
    "Ġarr": 1802,
    "ressed": 3020,
    "prise": 7727,
    "Ġsimilitude": 19209,
    "Ġimprovement": 7959,
    "onom": 9157,
    "Ġjohnson": 18409,
    "ichever": 13955,
    "ĠĠĠĠĠĠĠĠĠĠĠĠĠĠĠĠĠĠĠĠĠĠĠĠĠĠĠ": 14884,
    "Ġemail": 19074,
    "Ġspeech": 4611,
    "Ġtruthful": 23865,
    "Ġentertained": 9996,
    "sword": 10725,
    "throwing": 11700,
    "someone": 14563,
    "blending": 24126,
    "ods": 8833,
    "likeness": 19476,
    "orrah": 17875,
    "Ġliter": 8810,
    "backed": 9864,
    "rously": 17653,
    "possessed": 9526,
    "Ġveil": 7934,
    "ample": 1366,
    "Ġlavater": 20494,
    "Ġimproving": 1209,
    "saf": 11522,
    "actorily": 25576,
    "Ġpostp": 12140,
    "summer": 11990,
    "visit": 7755,
    "Ġhowling": 8509,
    "Ġhostile": 19938,
    "zed": 8104,
    "ophisticated": 22482,
    "adier": 18089,
    "Ġcongratulations": 10579,
    "Ġcompany": 3720,
    "Ġbalancing": 2434,
    "inite": 6002,
    "Ġsweet": 3464,
    "Ġearliest": 9829,
    "Ġamel": 18508,
    "Ġbustle": 17226,
    "madam": 24420,
    "Ġrats": 21971,
    "Ġreadiness": 13046,
    "puted": 8844,
    "zening": 21147,
    "Ġreconciled": 13585,
    "family": 7324,
    "Ġrespond": 11174,
    "Ġleaf": 15719,
    "Ġslu": 13834,
    "downstairs": 23917,
    "Ġwinding": 8236,
    "Ġuse": 796,
    "Ġhelm": 5275,
    "worn": 13804,
    "Ġposture": 24162,
    "comes": 5394,
    "Ġbell": 4636,
    "devils": 20031,
    "ooped": 17622,
    "Ġlaure": 16908,
    "Ġexamples": 2608,
    "Ġgrazed": 15830,
    "Ġroughly": 17039,
    "Ġfairest": 20461,
    "Ġunass": 14112,
    "olence": 10229,
    "Ġoust": 21322,
    "Ġpatterns": 1213,
    "Ġheeded": 13401,
    "calculating": 25690,
    "Ġapartment": 6633,
    "Ġsentiments": 7962,
    "rove": 21531,
    "Ġshown": 5159,
    "Ġcurving": 16238,
    "Ġblushed": 12998,
    "Ġministers": 22832,
    "Ġdenied": 8999,
    "]]": 5205,
    "garn": 20869,
    "Ġbre": 1915,
    "Ġprehens": 22225,
    "Ġrepeat": 8000,
    "Ġholder": 6724,
    "Ġordinarily": 20648,
    "Ġquiet": 3258,
    "Ġlap": 8437,
    "onies": 6806,
    "Ġmovement": 9966,
    "Ġconcerns": 12029,
    "Ġrelationship": 2316,
    "Ġswung": 6449,
    "Ġrobes": 16243,
    "Ġqueen": 3212,
    "Ġretrie": 10381,
    "Ġsymptom": 13481,
    "Ġgradual": 20600,
    "Ġoh": 2175,
    "Ĝ": 221,
    "ĠĠĠĠĠĠĠĠĠĠĠĠĠĠĠĠĠĠĠĠĠĠĠĠĠĠĠĠĠĠĠĠĠ": 12040,
    "hunt": 20902,
    "Ġanticip": 7507,
    "Ġreiter": 21664,
    "Ġpertin": 18449,
    "Ġatonement": 21940,
    "civilized": 17074,
    "Ġmannish": 26237,
    "Ġinvestigated": 25386,
    "Ġconceivable": 16612,
    "odecim": 9830,
    "Ġparameter": 887,
    "Ġyard": 5921,
    "Ġperusal": 14223,
    "Ġvivid": 8058,
    "questioning": 16849,
    "uced": 13798,
    "Ġoverwhelming": 17101,
    "shore": 10304,
    "Ġneck": 4885,
    "Ġgorgeous": 20465,
    "itering": 17818,
    "prospect": 23394,
    "ured": 1655,
    "Ġsometimes": 2166,
    "breckinridge": 24071,
    "Ġrefreshing": 20263,
    "ands": 21864,
    "Ġtwenty": 3948,
    "derstand": 651,
    "Ġmarched": 18870,
    "bushes": 24446,
    "reasonable": 7752,
    "Ġsentence": 6187,
    "Ġgrounded": 23710,
    "sisters": 13374,
    "houses": 9598,
    "Ġhardest": 18912,
    "savagery": 25025,
    "Ġting": 8398,
    "ques": 2840,
    "Ġfound": 1244,
    "Ġointment": 21324,
    "shutters": 20312,
    "Ġcarved": 7947,
    "Ġengland": 3856,
    "Ġhowever": 1303,
    "Ġenjoined": 18191,
    "Ġcomplicated": 14733,
    "Ġalmanac": 26484,
    "Ġvegetables": 15219,
    "Ġunfailing": 24109,
    "in": 262,
    "Ġclimbing": 20068,
    "persecutor": 26529,
    "Ġamend": 16032,
    "Ġfowl": 11328,
    "Ġire": 12663,
    "autumn": 23342,
    "Ġprofit": 14584,
    "Ġsegment": 12753,
    "nights": 16447,
    "Ġregulate": 22577,
    "doubtless": 17001,
    "Ġhunch": 18934,
    "Ġpanel": 13370,
    "ubbub": 23242,
    "prot": 6899,
    "Ġfalsehood": 10522,
    "iour": 4038,
    "gest": 5426,
    "aust": 15307,
    "Ġcele": 9898,
    "speed": 19407,
    "Ġgaieties": 24194,
    "Ġstrat": 16087,
    "gallantry": 15059,
    "Ġtranquilly": 12287,
    "across": 10323,
    "Ġelephant": 8256,
    "Ġhide": 4590,
    "Ġsomething": 1798,
    "Ġstreet": 2955,
    "Ġmonths": 3452,
    "Ġbelieved": 4367,
    "ove": 1745,
    "comput": 1965,
    "Ġunsub": 22021,
    "varieties": 23184,
    "Ġhandsomely": 25497,
    "ul": 371,
    "Ġjack": 4653,
    "ective": 18174,
    "Ġspas": 10920,
    "Ġneared": 14073,
    "unnecessary": 21878,
    "Ġsuperiors": 23454,
    "orted": 4604,
    "Ġcreativity": 2971,
    "ind": 569,
    "orn": 2243,
    "school": 10053,
    "Ġextort": 22722,
    "Ġunqualified": 22059,
    "Ġhertfordshire": 5377,
    "Ġunknown": 4452,
    "heed": 15496,
    "complain": 14356,
    "Ġsensit": 2943,
    "Ġ68": 24369,
    "?âĢĿâĢĶ": 12891,
    "Ġtraces": 7946,
    "Ġbeholding": 8668,
    "Ġape": 21195,
    "inations": 7567,
    "un": 373,
    "Ġfrontispiece": 23911,
    "Ġsunshine": 14493,
    "uncont": 15770,
    "achines": 1725,
    "osop": 4404,
    "Ġhost": 7068,
    "Ġundulating": 19516,
    "Ġeats": 15673,
    "Ġperdition": 15989,
    "planted": 11693,
    "Ġcontributes": 15248,
    "Ġgreeting": 18963,
    "Ġmine": 3177,
    "zetts": 17713,
    "Ġsurvey": 13591,
    "diligence": 26110,
    "Ġcrutch": 23445,
    "hast": 5357,
    "john": 11495,
    "Ġsemicircular": 26068,
    "countless": 24147,
    "Ġalle": 11664,
    "assist": 11764,
    "Ġshame": 6410,
    "Ġdeplored": 20503,
    "Ġrow": 5309,
    "wes": 17702,
    "Ġejac": 10202,
    "Ġpitch": 5767,
    "Ġpie": 13913,
    "gor": 546,
    "dance": 17518,
    "Ġswells": 9825,
    "Ì": 141,
    "afer": 17480,
    "Ġabandonment": 25603,
    "Ġminiature": 11038,
    "Ġaffliction": 25844,
    "exagger": 22426,
    "curiosity": 8623,
    "spirits": 8055,
    "otam": 21796,
    "conjectures": 25180,
    "fug": 17542,
    "Ġshaken": 10263,
    "Ġpromises": 10399,
    "Ġweaver": 11685,
    "ameter": 3044,
    "Ġratio": 5066,
    "Ġwane": 21287,
    "ulsive": 10232,
    "oro": 21393,
    "Ġliked": 5264,
    "Ġsake": 4091,
    "phere": 21018,
    "ss": 396,
    "ĠâĢľâĢĶ": 9732,
    "lim": 9605,
    "Ġtant": 12521,
    "Ġthimble": 15633,
    "Ġtears": 4229,
    "Ġwoeful": 19618,
    "rations": 10722,
    "venth": 9293,
    "norm": 20984,
    "multiple": 15105,
    "Ġskylarking": 19485,
    "Ġperf": 12845,
    "Ġpost": 4272,
    "Ġtolerably": 8068,
    "Ġbade": 9170,
    "infallibly": 26416,
    "Ġoutcast": 18414,
    "Ġknitting": 24217,
    "Ġsperm": 1844,
    "commander": 16986,
    "tain": 558,
    "harbors": 20147,
    "Ġbrandy": 11047,
    "Ġspy": 22121,
    "Ġentr": 14337,
    "p": 84,
    "Ġapprehended": 26091,
    "kick": 20935,
    "Ġcand": 3274,
    "Ġmisled": 22757,
    "Ġoptimizer": 5036,
    "Ġrashness": 25460,
    "fellow": 6792,
    "Ġtortures": 14921,
    "Ġangelic": 19626,
    ")(": 2978,
    "Ġchamois": 16799,
    "Ġrecourse": 22720,
    "Ġgall": 4351,
    "elab": 21568,
    "ĠâĢľâĢĺ_": 25111,
    "Ġsnaky": 23740,
    "Ġvisit": 2588,
    "Ġjost": 23630,
    "claps": 23151,
    "Ġtags": 20570,
    "Ġdrowsiness": 26444,
    "ĠĠĠĠĠĠĠĠĠĠĠĠĠĠĠĠĠĠĠĠĠĠĠĠĠĠĠĠĠĠĠĠĠĠĠĠĠĠĠĠĠĠĠĠĠĠĠĠĠ": 20036,
    "iding": 3846,
    "Ġspasmod": 12410,
    "Ġghostly": 24650,
    "Ġmoccas": 22432,
    "threw": 21982,
    "client": 18931,
    "Ġmagnificence": 20631,
    "Ġwithin": 2162,
    "Ġbasin": 19847,
    "Ġflow": 1237,
    "prodig": 16424,
    "Ġquench": 22417,
    "acon": 10680,
    "Ġwaves": 3917,
    "Ġxxii": 24477,
    "ied": 942,
    "Ġmiriam": 25273,
    "Ġpeculiarities": 12067,
    "fast": 3068,
    "Ġhos": 4942,
    "ructive": 18528,
    "Ġentire": 2562,
    "Ġmahogany": 20576,
    "Ġexclaim": 11219,
    "Ġbritain": 16955,
    "....": 11314,
    "urer": 18121,
    "Ġhush": 13209,
    "Ġdenominated": 15226,
    "Ġwat": 1285,
    "prevent": 11792,
    "Ġburly": 19249,
    "archangel": 18792,
    "Ġsized": 11560,
    "Ġnever": 1020,
    "Ġslaves": 23167,
    "Ě": 219,
    "Ġansw": 2205,
    "sp": 895,
    "itate": 6667,
    "Ġemph": 14524,
    "Ġtenants": 23546,
    "conspicuous": 26247,
    "sle": 9137,
    "Ġdrifting": 19278,
    "actory": 8906,
    "Ġheightened": 8648,
    "university": 25983,
    "Ġdimly": 9486,
    "Ġmounted": 7833,
    "Ġseated": 4542,
    "Ġ61": 24363,
    "produ": 10719,
    "wanted": 10742,
    "Ġbacking": 16114,
    "Ġties": 12523,
    "Ġconstructed": 9385,
    "match": 15388,
    "Ġplanisphere": 26606,
    "antediluvian": 24345,
    "Ġreptile": 15275,
    "undant": 14790,
    "Ġpaved": 17912,
    "jee": 17578,
    "Ġpell": 21455,
    "Ġconjectured": 9995,
    "ernity": 18610,
    "seeking": 17151,
    "state": 13972,
    "apparent": 11039,
    "Ġrepenting": 25322,
    "Ġslammed": 20446,
    "Ġyesterday": 5332,
    "Ġfrancisco": 26064,
    "Ġmeasures": 1205,
    "token": 21081,
    "sufficiently": 14979,
    "Ġfunny": 7637,
    "77": 15298,
    "pedest": 24695,
    "Ġconvolutional": 2161,
    "urrection": 12405,
    "Ġwishing": 7831,
    "Ġparasol": 22119,
    "Ġcongratulate": 9062,
    "accompl": 9879,
    "spond": 5566,
    "Ġtriangular": 14857,
    "trip": 21090,
    "Ġlively": 5449,
    "chastic": 2334,
    "leton": 5148,
    "Ġhookah": 16969,
    "discovery": 12013,
    "Ġnightmare": 18919,
    "wound": 21125,
    "Ġchambermaid": 24303,
    "liter": 11499,
    "Ġhospitable": 17058,
    "_,âĢĻ": 12430,
    "swam": 24253,
    "Ġinflex": 20633,
    "Ġvexatious": 19780,
    "Ġende": 21930,
    "because": 4923,
    "gle": 20868,
    "Ġdecipher": 22444,
    "bre": 3977,
    "inhabited": 13618,
    "Ġsubstitute": 16725,
    "likely": 9021,
    "considered": 9579,
    "Ġmoved": 4839,
    "arse": 7160,
    "Ġchange": 1995,
    "Ġutensils": 23514,
    "abhor": 12703,
    "Ġsuspense": 9416,
    "Ġfolly": 7941,
    "icil": 17971,
    "mock": 5174,
    "unw": 14055,
    "Ġpalm": 10512,
    ":âĢĶâĢĺ": 24192,
    "article": 22390,
    "Ġtomb": 8806,
    "Ġweight": 657,
    "Ġcouns": 10519,
    "surrounded": 26088,
    "fluttering": 23970,
    "Ġsecurity": 8976,
    "egypt": 15347,
    "Ġhunt": 6183,
    "fishery": 10030,
    "Ġoverl": 18427,
    "ply": 6366,
    "igh": 2030,
    "Ġunsafe": 22039,
    "ispiece": 19724,
    "Ġprejudiced": 24809,
    "Ġfanned": 19099,
    "ible": 1115,
    "Ġgentle": 1890,
    "cle": 3954,
    "Ġregiment": 6432,
    "uts": 8814,
    "nameless": 19902,
    "Ġunh": 9251,
    "Ġcontain": 1552,
    "Ġshamefully": 24716,
    "buried": 14847,
    "Ġcork": 12565,
    "terbury": 21822,
    "Ġcetus": 19884,
    "sadly": 25526,
    "V": 58,
    "Ġimp": 573,
    "Ġtwos": 18657,
    "Ġbirds": 5873,
    "Ġempty": 5353,
    "Ġlirra": 21558,
    "):": 11459,
    "incess": 15480,
    "Ġ88": 19710,
    "Ġcountry": 2534,
    "oud": 1941,
    "cred": 9106,
    "imming": 9685,
    "andy": 8158,
    "cure": 11472,
    "Ġseems": 2484,
    "Ġsmoked": 10321,
    "manned": 18762,
    "Ġphotography": 24683,
    "Ġoutbreak": 22315,
    "Ġdebated": 9039,
    "Ġshag": 9249,
    "solely": 19815,
    "ect": 381,
    "Ġunsounded": 15846,
    "harpooneer": 8688,
    "Ġpants": 21464,
    "Ġlat": 5087,
    "Ġceti": 24773,
    "fted": 9117,
    "rendering": 22338,
    "Ġfetch": 7770,
    "Ġfet": 5807,
    "Ġspeeches": 22656,
    "Ġrecom": 4556,
    "Ġcrosses": 23061,
    "machine": 971,
    "Ġ79": 24263,
    "Ġsaf": 4000,
    "seen": 2879,
    "Ġharvard": 24572,
    "Ġaccumulated": 11928,
    "ably": 1848,
    "Ġcompan": 2172,
    "terdam": 18129,
    "Ġnomine": 26455,
    "headsman": 16699,
    "onse": 21248,
    "uttural": 21587,
    "Ġbeheld": 4493,
    "Ġresigned": 9766,
    "within": 6730,
    "Ġlowly": 11119,
    "Ġprecious": 5760,
    "Ġglassy": 19559,
    "Ġembarks": 22967,
    "Ġinqu": 2962,
    "Ġnarwhales": 24902,
    "subtle": 24242,
    "hedge": 22496,
    "univers": 15768,
    "Ġbenefactor": 14696,
    "onsensical": 18576,
    "Ġprec": 2917,
    "Ġinsatiable": 19271,
    "Ġrecognise": 12023,
    "Ġapplies": 11953,
    "Ġdisconsolate": 20718,
    "laborers": 23913,
    "Ġwails": 21295,
    "Ġchart": 10943,
    "Ġopinions": 9413,
    "Ġslighted": 16566,
    "Ġconfusing": 23306,
    "antly": 1990,
    "Ġsally": 15500,
    "Ġashen": 21897,
    "Ġhaunted": 10252,
    "Ġamazement": 7765,
    "Ġdisappoint": 24204,
    "gressive": 2755,
    "Ġstay": 3091,
    "Ġminimax": 5857,
    "ak": 538,
    "Ġcoquet": 22582,
    "tormented": 13643,
    "whatever": 6694,
    "Ġquant": 6424,
    "Ġcir": 21339,
    "Ġpreservation": 24631,
    "Ġmeas": 1096,
    "Ġbel": 1215,
    "hs": 8378,
    "Ġexploring": 4304,
    "Ġgraves": 11705,
    "Ġburden": 8607,
    "Ġpractices": 19029,
    "Ġmounts": 17806,
    "iability": 20919,
    "Ġ1869": 19382,
    "))": 1517,
    "Ġscenery": 11454,
    "Ġotherwise": 4657,
    "aly": 1122,
    "Ġdecide": 9284,
    "build": 12184,
    "Ġjudge": 5502,
    "Ġdispel": 16595,
    "Ġexagger": 12715,
    "Ġskil": 14349,
    "Ġshrew": 21998,
    "made": 4808,
    "Ġget": 1623,
    "favouring": 24762,
    "myst": 9820,
    "Ġcassock": 20485,
    "Ġgallery": 10523,
    "brown": 15315,
    "oriously": 17874,
    "Ġwinking": 17793,
    "hogs": 20080,
    "ividual": 5463,
    "cular": 15326,
    "Ġnumer": 3635,
    "Ġindolent": 13001,
    "igns": 8447,
    "Ġhellaswag": 24342,
    "Ġbetray": 7442,
    "Ġguarded": 9824,
    "nesday": 8702,
    "Ġpoorly": 9853,
    "buff": 15316,
    "Ġmisanthropic": 26559,
    "mast": 3599,
    "Ġreappeared": 21663,
    "Ġpist": 12611,
    "Ġtradeoff": 2660,
    "Ġcoburg": 18599,
    "Ġemerge": 14926,
    "Ġquartered": 20371,
    "Ġ78": 19612,
    "Ġlimping": 23545,
    "Ġfluctuations": 5516,
    "Ġbanking": 19629,
    "Ġdick": 3494,
    "ilib": 4116,
    "Ġsqueezing": 25006,
    "Ġicy": 10746,
    "Ġscre": 9735,
    "summoned": 26590,
    "Ġgoble": 14228,
    "Ġpowerful": 1567,
    "Ġgazes": 24091,
    "Ġcommencement": 12235,
    "du": 603,
    "Ġsharkish": 24502,
    "black": 6768,
    "oura": 1061,
    "sympathy": 20539,
    "heric": 15909,
    "Ġjudging": 16594,
    "nantucket": 7805,
    "cheered": 23804,
    "Ġtrusty": 24102,
    "Ġcorrection": 5062,
    "pper": 3208,
    "Ġprepare": 8646,
    "Ġthrone": 12210,
    "itude": 1417,
    "Ġadrift": 11719,
    "fier": 9592,
    "Ġcolder": 22850,
    "Ġbid": 6131,
    "Ġdissuade": 26256,
    "ah": 1833,
    "daughters": 13464,
    "fav": 6646,
    "Ġadmeasure": 18293,
    "Ġzeal": 9096,
    "Ġbrink": 18769,
    "elaborate": 21574,
    "Ġvast": 3295,
    "ccas": 15882,
    "Ġrighteous": 18945,
    "Ġsec": 2077,
    "rub": 15890,
    "city": 15325,
    "Ġargosy": 24272,
    "Ġintrospective": 20599,
    "Ġgracious": 8845,
    "izure": 21832,
    "Ġwretched": 4081,
    "whence": 23217,
    "Ġact": 690,
    "Ġungrateful": 14119,
    "Ġvoices": 7877,
    "Ġaxis": 12304,
    "Ġhoe": 23350,
    "Ġpen": 1533,
    "confirm": 16806,
    "fury": 17546,
    "Ġstring": 11824,
    "Ġhawaiian": 25366,
    "soundest": 24797,
    "brary": 5755,
    "Ġhistory": 4008,
    "Ġsal": 3937,
    "cell": 10684,
    "data": 2378,
    "Ġvital": 9241,
    "Ġpatients": 24813,
    "such": 3080,
    "ricane": 16276,
    "Ġfeasts": 25369,
    "ordinary": 4407,
    "Ġtradesman": 20071,
    "Ġmeridians": 17354,
    "Ġguardian": 14940,
    "Ġgrapp": 14099,
    "Ġvault": 8839,
    "chet": 13215,
    "Ġdepth": 2441,
    "Ġhusband": 3617,
    "bourgh": 19103,
    "Ġfit": 3680,
    "Ġattorney": 18620,
    "âĢ": 294,
    "itary": 4751,
    "Ġbreakfast": 3974,
    "Ġpreposterous": 13667,
    "Ġrazor": 22649,
    "ortion": 11754,
    "Ġchapel": 9521,
    "rabb": 15676,
    "attle": 4466,
    "Ġeternal": 5976,
    "Ġbir": 17853,
    "shock": 19854,
    "Ġsheaves": 22156,
    "Ġaccordance": 19496,
    "hetic": 12200,
    "inquir": 9534,
    "Ġsandwiched": 26609,
    "Ġwaited": 4908,
    "Ġcollect": 7237,
    "Ġlengthwise": 10451,
    "Ġsettled": 3740,
    "ext": 920,
    "shoes": 14239,
    "Ġdorm": 4821,
    "Ġdepartments": 24241,
    "Ġtrying": 4838,
    "Ġcom": 369,
    "Ġcolonel": 3404,
    "Ĺ": 250,
    "stout": 21637,
    "/`)": 13658,
    "Ġcause": 2413,
    "Ġfortunately": 12176,
    "sc": 1257,
    "isp": 5528,
    "jub": 20928,
    "Ġglades": 19370,
    "robustness": 26338,
    "chers": 11315,
    "dining": 13703,
    "Ġmorbid": 16232,
    "wat": 6231,
    "ocratic": 17244,
    "heidelburgh": 21210,
    "feels": 22500,
    "Ġtemporary": 7981,
    "Ġpartial": 2129,
    "Ġcompose": 12898,
    "Ġextras": 22723,
    "Ġplainer": 23702,
    "dead": 8180,
    "Ġestimation": 11216,
    "Ġcorrespond": 6209,
    "_).": 5887,
    "season": 14032,
    "Ġextant": 18683,
    "Ġdetached": 10278,
    "Ġjeroboam": 10599,
    "Ġadmirably": 16479,
    "Ġinj": 4760,
    "Ġ[_": 15459,
    "daugh": 6788,
    "Ġunsav": 18251,
    "Ġcharing": 14179,
    "Ġabstained": 25231,
    "water": 4868,
    "Ġelasticity": 19557,
    "ops": 5247,
    "Ġcreating": 2993,
    "persons": 24173,
    "sford": 5998,
    "Ġwithal": 18113,
    "[": 63,
    "Ġinwards": 15617,
    "Ġimbu": 15883,
    "barrels": 15040,
    "prophet": 16181,
    "Ġweb": 9238,
    "penetrate": 20323,
    "izon": 18133,
    "ı": 242,
    "Ġaccompaniments": 24481,
    "orum": 12586,
    "luxur": 25822,
    "Ġguardsmen": 20629,
    "Ġcetology": 10007,
    "loath": 22506,
    "Ġutility": 23513,
    "respect": 6374,
    "irene": 15911,
    "fun": 4013,
    "Ġforeseeing": 23449,
    "enance": 3369,
    "======================================================================": 10066,
    "Ġdecided": 5471,
    "Ġquart": 11784,
    "altern": 17941,
    "Ġantichronical": 26608,
    "Ġchron": 19436,
    "Ġmountain": 3370,
    "Ą": 197,
    "Ġsixth": 16557,
    "gall": 6359,
    "Ġbruited": 25773,
    "Ġgrego": 18962,
    "promising": 24726,
    "Ġ_": 840,
    "Ġrepetition": 8971,
    "stache": 15685,
    "Ġgrowled": 19282,
    "Ġinfle": 16360,
    "Ġreceived": 2948,
    "Ġpulverize": 23391,
    "Ġunheard": 22023,
    "Ġaback": 22264,
    "Ġmournfully": 20115,
    "Ġmagical": 23097,
    "les": 1017,
    "Ġrout": 7402,
    "Ġhappiness": 2942,
    "Ġredu": 1356,
    "ildad": 3530,
    "Ġdeception": 18142,
    "Ġafterwards": 3529,
    "Ġfishe": 15582,
    "ertain": 1206,
    "Ġlamb": 8811,
    "what": 643,
    "Ġpe": 851,
    "misery": 13341,
    "broken": 8021,
    "Ġcaved": 21351,
    "Ġpredicting": 2418,
    "puzzling": 26143,
    "Ġsteering": 10386,
    "Ġclubbed": 26545,
    "Ġsystem": 571,
    "Ġiter": 2949,
    "Ġsolace": 16197,
    "balls": 12302,
    "Ġvener": 8164,
    "Ġalternative": 19985,
    "Ġexhausting": 24710,
    "Ġexpanding": 25238,
    "Ġtrading": 23075,
    "Ġanxiety": 5408,
    "Ġtwain": 16116,
    "accounted": 16499,
    "bunger": 20400,
    "Ġtoken": 2039,
    "private": 13580,
    "Ġblades": 11892,
    "Ġgpt": 4350,
    "Ġcrow": 3802,
    "Ġinsertion": 26343,
    "Ġclay": 7018,
    "Ġimperson": 14213,
    "Ġcomical": 11678,
    "ĠĠĠĠĠĠĠĠĠĠĠĠĠĠĠĠĠĠĠĠĠĠĠĠĠĠĠĠĠĠĠĠĠĠĠ": 19257,
    "Ġrake": 18641,
    "frozen": 25139,
    "resting": 23235,
    "attacked": 23119,
    "arcy": 1272,
    "Ġpondering": 17004,
    "atory": 6125,
    "Ġdaresay": 14702,
    "shooting": 16964,
    "Ġhints": 8430,
    "Ġpursued": 6328,
    "Ġgap": 21597,
    "superiority": 20184,
    "aye": 3656,
    "Ġexcluded": 16379,
    "Ġstruggles": 16577,
    "Ġwickham": 2206,
    "Ġastir": 14639,
    "Ġtormenting": 15102,
    "Ġdiscernment": 15053,
    "Ġmourning": 13476,
    "Ġenjoys": 19448,
    "oring": 1860,
    "Ġsteadily": 8052,
    "âĢĶâĢľ": 2967,
    "Ġquieted": 23840,
    "Ġeclipsed": 26376,
    "Ġgr": 979,
    "Ġrejoice": 10207,
    "Ġlucas": 3831,
    "afford": 14653,
    "Ġaspire": 21898,
    "kl": 4865,
    "Ġsalmon": 24058,
    "Ġarchitecture": 1125,
    "clo": 5612,
    "ipper": 13738,
    "Ġblotches": 25314,
    "Ġengraved": 17080,
    "Ġpink": 12614,
    "Ġunnatural": 7190,
    "Ġxxxiv": 24969,
    "books": 8663,
    "keeper": 5596,
    "personal": 24965,
    "lot": 3205,
    "inj": 9150,
    "cases": 12444,
    "Ġpresc": 15920,
    "Ġauthorities": 11262,
    "wond": 8767,
    "Ġpity": 4941,
    "Ġwriters": 13541,
    "Ġlongbourn": 3506,
    "Ġwanderings": 20142,
    "Ġsold": 6003,
    "Ġelect": 10840,
    "Ġdeigned": 18141,
    "Ġpoem": 22587,
    "Ġforged": 12700,
    "Ġexposed": 8522,
    "pretending": 17040,
    "msprop": 2629,
    "wig": 17703,
    "renched": 7908,
    "strade": 5065,
    "Ġin": 291,
    "Ġtinted": 13820,
    "reeable": 3609,
    "Ġunho": 18245,
    "daw": 17521,
    "Ġhumor": 11050,
    "Ġimple": 1790,
    "Ġet": 3578,
    "displeasure": 23495,
    "impressed": 12687,
    "inity": 5693,
    "Ġsiberia": 26161,
    "dismay": 19152,
    "Ġpublisher": 24062,
    "Ġannotations": 25954,
    "Ġbald": 16204,
    "Ġ58": 24325,
    "hoist": 23712,
    "Ġtot": 4183,
    "Ġl": 303,
    "Ġplans": 7919,
    "dying": 10693,
    "Ġmother": 2068,
    "Ġtribes": 20479,
    "Ġmadman": 13149,
    "ok": 575,
    "Ġnois": 4267,
    "terogene": 21823,
    "Ġmotionless": 8324,
    "rises": 17654,
    "Ġnegative": 1464,
    "Ġsoftly": 7948,
    "Ġsuffered": 5649,
    "Ġcaprice": 14576,
    "respective": 19845,
    "Ġdismast": 12884,
    "Ġbreathless": 12166,
    "Ġgenerally": 4156,
    "Ġsalutation": 12394,
    "Ġhunter": 5401,
    "Ġretain": 7864,
    "Ġpainter": 19168,
    "Ġslept": 8259,
    "repid": 11562,
    "Ġmim": 3104,
    "batt": 20777,
    "Ġoverall": 4358,
    "Ġordered": 5832,
    "Ġ39": 19488,
    "ientiously": 21939,
    "Ġkissed": 10043,
    "whispering": 26103,
    "legra": 10788,
    "lucifer": 25302,
    "chanced": 18810,
    "naturalists": 23473,
    "stolen": 13975,
    "live": 7550,
    "Ġengaged": 3427,
    "unlike": 18156,
    "iations": 11492,
    "Ġnarrow": 5086,
    "Ġmouldy": 14972,
    "Ġlovers": 9718,
    "bles": 7017,
    "Ġuttermost": 19486,
    "Ġirrad": 19093,
    "bearer": 18521,
    "Ġcongregation": 12326,
    "Ġimprecate": 20515,
    "Ġdistress": 5844,
    "ature": 522,
    "Ġgodly": 19080,
    "ĠĠĠĠĠĠĠĠĠĠĠĠ": 12896,
    "Ġniece": 5712,
    "Ġlonging": 14295,
    "Ġlong": 794,
    "Ġskirts": 14350,
    "Ġquiescent": 26242,
    "Ġdoorway": 14497,
    "octavo": 11383,
    "ceive": 3061,
    "Ġbirth": 6524,
    "Ġ2026": 12332,
    "Ġrobustness": 18879,
    "tar": 8098,
    "Ġlistening": 6318,
    "Ġblu": 2688,
    "nay": 7135,
    "Ġthese": 819,
    "Ġcondescend": 19953,
    "Ġlover": 7193,
    "Ġprecipice": 19939,
    "Ġcry": 3493,
    "Ġwarsaw": 26167,
    "Ġnative": 4641,
    "Ġabsor": 8504,
    "dock": 16416,
    "Ġalco": 21780,
    "Ġcorporeally": 25729,
    "running": 6797,
    "secut": 7868,
    "Ġshift": 2284,
    "ift": 1607,
    "nades": 20996,
    "Ġhagger": 21489,
    "Ġneedlessly": 23629,
    "Ġadequate": 20307,
    "justice": 7958,
    "Ġdireful": 11017,
    "Ġsuspected": 9061,
    "Ġsides": 4580,
    "et": 307,
    "Ġunprovided": 18260,
    "Ġprocesses": 3630,
    "este": 15916,
    "fac": 17540,
    "Ġmunro": 25630,
    "Ġdeprived": 8212,
    "Ġbamboo": 17435,
    "parts": 14601,
    "neg": 12861,
    "Ġstable": 2700,
    "ifications": 9727,
    "Ġsqueaking": 26274,
    "approbation": 11456,
    "ors": 857,
    "Ġshapeless": 24523,
    "Ġafore": 10757,
    "Ġmature": 17799,
    "Ġalbino": 20501,
    "Ġquestions": 3971,
    "Ġwhar": 7388,
    "©": 107,
    "Ġcocoa": 25482,
    "igning": 12677,
    "Ġfairer": 20460,
    "Ġhurts": 19111,
    "Ġvery": 636,
    "liked": 10507,
    "ore": 418,
    "uture": 1146,
    "star": 12667,
    "bloom": 24689,
    "Ġfresh": 3666,
    "capitals": 25080,
    "ctu": 5088,
    "unwholesome": 26496,
    "snatched": 24850,
    "Ġillustrations": 17107,
    "hammered": 19004,
    "Ġlevels": 12694,
    "Ġcharmingly": 24220,
    "Ġbuilt": 8301,
    "Ġunrel": 14694,
    "doors": 19094,
    "Ġjeer": 24121,
    "Ġexplanatory": 22202,
    "delay": 16697,
    "Ġcircumvent": 25064,
    "constit": 24605,
    "hess": 4747,
    "Ġcaptiv": 16254,
    "Ġviolently": 6456,
    "Ġsharper": 17178,
    "tumultuously": 25613,
    "Ġimmensely": 13593,
    "Ġundeniable": 26509,
    "ouched": 4637,
    "rally": 17650,
    "Ġbeget": 9224,
    "thunder": 10261,
    "Ġstrategy": 2370,
    "backs": 9389,
    "Ġconfessor": 24016,
    "haul": 14763,
    "Ġscreamed": 9522,
    "Ġbachel": 7158,
    "el": 306,
    "comfortableness": 24524,
    "Ġf": 283,
    "lengthwise": 19948,
    "Ġwasn": 6997,
    "Ġattending": 3282,
    "accomplished": 17210,
    "bearing": 9763,
    "Ġkentuck": 19890,
    "ital": 4817,
    "irous": 8837,
    "Ġgiddy": 20495,
    "Ġelementary": 24814,
    "isson": 23460,
    "abated": 14018,
    "Ġgeneration": 2278,
    "Ġepid": 18004,
    "Ġcynical": 25770,
    "Ġsweat": 13138,
    "Ġbalmy": 22904,
    "Ġoutsk": 15953,
    "swim": 16778,
    "Ġbalanced": 12986,
    "beings": 12872,
    "Ġtable": 2502,
    "hester": 9630,
    "Ġdisputes": 25825,
    "hunting": 24384,
    "âĢĶ.": 11752,
    "Ġmusk": 7494,
    "Ġnum": 1349,
    "ield": 2411,
    "Ġgirdle": 19156,
    "Ġassociations": 14961,
    "Ġjurymen": 16846,
    "Ġ107": 24414,
    "hereditary": 26418,
    "Ġsinking": 7307,
    "queequeg": 4333,
    "Ġfootfalls": 25866,
    "Ġaffronted": 22892,
    "cad": 17503,
    "toed": 18578,
    "opic": 22480,
    "Ġunsophisticated": 25992,
    "Ġsolid": 6443,
    "Ġsensibility": 14511,
    "gling": 10096,
    "Ġmarks": 6746,
    "Ġclothing": 18423,
    "search": 8464,
    "Ġapolog": 9042,
    "Ġbaked": 21384,
    "breathing": 25335,
    "eth": 619,
    "ssible": 2989,
    "steaks": 23958,
    "Ġferocious": 17417,
    "icates": 11614,
    "accepting": 20134,
    "Ġhousekeeper": 7456,
    "Ġmin": 1027,
    "allen": 22194,
    "Ġprints": 16328,
    "shall": 4551,
    "Ġsuddenness": 23380,
    "Ġstagger": 10590,
    "Ġblubber": 5666,
    "carpenter": 11425,
    "Ġcrockery": 24300,
    "Ġdishonoured": 20389,
    "Ġroads": 13286,
    "Ġmurmur": 14588,
    "shining": 18492,
    "Ġfo": 1652,
    "Ġimpossibility": 20646,
    "Ġelev": 5535,
    "Ġple": 1470,
    "date": 17516,
    "word": 2490,
    "resembled": 21245,
    "Ġprotection": 9460,
    "Ġdisaster": 12883,
    "Ġfierce": 7437,
    "Ġunjust": 8483,
    "doubt": 6782,
    "Ġgree": 7594,
    "Ġdissol": 18551,
    "sister": 5139,
    "Ġdella": 21438,
    "Ġugl": 12678,
    "whaler": 20308,
    "Ġapologize": 15126,
    "cock": 12022,
    "Ġuncommonly": 7760,
    "Ġdu": 4585,
    "Ġsamuel": 10031,
    "licted": 20955,
    "Ġwiping": 25765,
    "Ġrebellion": 26474,
    "projecting": 26073,
    "Ġberyl": 20488,
    "Ġchance": 3316,
    "Ġflushed": 13023,
    "Ġdespise": 14664,
    "Ġsensation": 6895,
    "Ġsequential": 2132,
    "Ġ97": 19773,
    "desolate": 25703,
    "Ġfifteen": 6947,
    "Ġlucerne": 23862,
    "iteous": 14260,
    "barb": 10079,
    "Ġintelligible": 15938,
    "Ġschooner": 16746,
    "ouement": 21447,
    "Ġtelegram": 15220,
    "avering": 24793,
    "ocations": 23706,
    "itan": 10158,
    "ignant": 11127,
    "Ġoftener": 13563,
    "Ġwhaling": 2783,
    "Ġunforeseen": 22051,
    "decided": 13213,
    "Ġmichael": 20678,
    "Ġdif": 872,
    "ean": 20839,
    "Ġparents": 6752,
    "affair": 14654,
    "Ġjoppa": 12034,
    "gir": 8083,
    "whale": 2140,
    "woof": 21138,
    "Ġsailing": 5323,
    "Ġepicurean": 20554,
    "Ġresist": 7917,
    "crimson": 24097,
    "Ġred": 3001,
    "tap": 17675,
    "Ġnecessitated": 23925,
    "Ġsax": 10927,
    "Ġhemp": 9214,
    "Ġarrive": 6907,
    "Ġeyelashes": 26106,
    "lect": 1222,
    "Ġappropriated": 23485,
    "Ġbarrels": 9434,
    "orrowed": 19288,
    "Ġaudibly": 24771,
    "Ġattack": 5478,
    "itheat": 21336,
    "Ġstraits": 7994,
    "Ġsheep": 10924,
    "Ġuntamed": 19164,
    "U": 57,
    "Ġfinding": 3262,
    "Ġpoliteness": 8274,
    "Ġtenderly": 11312,
    "Ġautumnal": 19042,
    "wer": 8395,
    "Ġcounterpane": 11341,
    "gale": 13722,
    "needles": 20310,
    "Ġdraws": 19434,
    "Ġinspect": 5964,
    "Ġepic": 15028,
    "Ġdeceased": 15005,
    "Ġplanning": 14749,
    "Ġpr": 1600,
    "invested": 17116,
    "deliberated": 26118,
    "putable": 10899,
    "Ġrequirements": 9793,
    "Ġamongst": 8958,
    "Ġtoy": 15630,
    "squall": 13520,
    "Ġrav": 14300,
    "resemblance": 25933,
    "Ġsain": 17749,
    "emin": 8469,
    "Ġsleeve": 20139,
    "whalebone": 19118,
    "Ġmungo": 25631,
    "Ġspilling": 22135,
    "cheap": 23803,
    "Ġcoincid": 20316,
    "Ġwherein": 14291,
    "Ġengine": 1920,
    "oise": 15402,
    "Ġflowed": 10370,
    "Ġ104": 24411,
    "ridden": 24361,
    "ient": 394,
    "Ġmug": 21311,
    "Ġloc": 10912,
    "Ġmaximizing": 3168,
    "Ġtreat": 3174,
    "Ġexperiences": 13027,
    "gen": 6503,
    "Ġshouts": 19536,
    "Ġling": 7377,
    "Ġsurve": 9872,
    "Ġfore": 2152,
    "absolutely": 10644,
    "alescence": 15919,
    "Ġstrang": 4159,
    "idelburgh": 10559,
    "alterable": 13622,
    "Ġscornful": 24998,
    "Ġflame": 7448,
    "ivility": 12781,
    "Ġrascally": 26505,
    "mael": 6723,
    "Ġsmilingly": 22558,
    "Ġproblems": 2848,
    "verdict": 21727,
    "Ġthankful": 14736,
    "Ġdidn": 4362,
    "Ġsurprise": 3828,
    "ċ": 204,
    "Ġumbrell": 13648,
    "Ġtattered": 21170,
    "Ġunman": 12770,
    "encouragement": 17421,
    "situation": 11435,
    "Ġuniversal": 2234,
    "Ġthickets": 24020,
    "Ġpassages": 12966,
    "ological": 1884,
    "Ġcobweb": 22584,
    "ot": 346,
    "commun": 15032,
    "Ġsinister": 8568,
    "aph": 10952,
    "Ġsuckling": 25997,
    "Ġunfulfilled": 26508,
    "Ġdesigned": 7741,
    "form": 498,
    "Ġsunday": 7270,
    "Ġtranquillity": 7536,
    "Ġheart": 1596,
    "Ġjem": 18402,
    "Ġembod": 14410,
    "revol": 12536,
    "Ġeternity": 12275,
    "ians": 2359,
    "inforcement": 3453,
    "Ġguide": 3215,
    "Ġletting": 10363,
    "spermaceti": 12190,
    "Ġdamning": 19139,
    "Ġgive": 1715,
    "ile": 521,
    "Ġstro": 4596,
    "determined": 9078,
    "illum": 15866,
    "Ġlying": 4825,
    "intelligence": 5883,
    "Ġlearns": 2646,
    "xes": 21139,
    "Ġplantation": 11421,
    "Ġminut": 2204,
    "Ġpauper": 26179,
    "mblings": 19779,
    "brit": 19197,
    "flag": 14709,
    "slee": 17167,
    "Ġsincere": 11134,
    "rodden": 21533,
    "Ġharvest": 13413,
    "Ġyonder": 7392,
    "perceive": 12808,
    "plentiful": 21954,
    "Ġblunt": 11891,
    "Ġwait": 4907,
    "reast": 17757,
    "Ġspecimens": 18858,
    "snow": 10723,
    "Ġwinged": 16994,
    "Ġdeclined": 9919,
    "Ġmasked": 3692,
    "Ġdelightful": 6320,
    "Ġapprove": 12867,
    "contempl": 13187,
    "Ġdoublo": 6079,
    "Ġwhirlwinds": 20463,
    "Ġappellation": 22218,
    "Ġstructures": 2720,
    "Ġcho": 4548,
    "leviathan": 7785,
    "Ġblasp": 14399,
    "Ġsubterraneous": 20264,
    "Ġninetieth": 25357,
    "Ġdirected": 5578,
    "Ġsealed": 15815,
    "eli": 3873,
    "Ġadmeasurements": 26225,
    "Ġcharge": 5324,
    "Ġbubble": 13533,
    "inst": 4294,
    "Ġbowl": 11202,
    "tattoo": 21086,
    "Ġwarmer": 19185,
    "Ġsanctified": 25883,
    "Ġapologizing": 25197,
    "Ġlasted": 11052,
    "Ġfaithfully": 14885,
    "Ġhabitations": 24789,
    "waistcoat": 17359,
    "Ġinsensible": 12322,
    "Ġissued": 10598,
    "nearly": 8680,
    "Ġhardy": 8565,
    "Ġphrenologically": 20392,
    "Ġtrapped": 23076,
    "Ġespecial": 26409,
    "Ġgabriel": 7595,
    "dling": 9110,
    "doing": 8584,
    "Ġconject": 6027,
    "Ġtied": 7357,
    "Ġsakes": 18331,
    "ercely": 12546,
    "Ġundec": 22017,
    "Ġrealistic": 5860,
    "Ġ": 225,
    "ources": 2789,
    "Ġtime": 689,
    "expected": 5780,
    "Ġglasses": 9473,
    "Ġtie": 10749,
    "Ġtid": 8107,
    "idays": 21768,
    "Ġflattered": 10373,
    "Ġ(_": 3735,
    "Ġwildest": 16508,
    "1775": 26377,
    "Ġinfant": 11957,
    "headers": 23107,
    "Ġconsult": 6057,
    "agree": 14065,
    "success": 6710,
    "Ġreserve": 9969,
    "Ġsurpasses": 25268,
    "Ġexcepting": 14679,
    "adamite": 20591,
    "Ġturbulence": 26596,
    "inder": 9151,
    "Ġbraz": 19356,
    "fold": 7546,
    "Ġinstantaneously": 23656,
    "Ġunwelcome": 12776,
    "Ġpin": 7161,
    "Ġportcullis": 26602,
    "fate": 17538,
    "Ġepis": 19980,
    "Ġevalu": 3041,
    "Ġsimilarity": 3166,
    "surprised": 9529,
    "laying": 19771,
    "Ġsave": 4052,
    "Ġuncertain": 4068,
    "Ġhastening": 19335,
    "appin": 18757,
    "Ġgratitude": 5598,
    "Ġsuperglue": 23456,
    "par": 1894,
    "searching": 25103,
    "ting": 1334,
    "arranging": 19316,
    "grateful": 10427,
    "ois": 9133,
    "Ġtranqu": 4606,
    "Ġtypewritten": 16419,
    "bread": 10683,
    "Ġsuburban": 17344,
    "remaining": 20219,
    "ertion": 12037,
    "Ġmonday": 6127,
    "Ġshoals": 13132,
    "Ġgateway": 24802,
    "Ġconnectivity": 3663,
    "Ġway": 1084,
    "a": 69,
    "cold": 9588,
    "Ġfergus": 16871,
    "Ġunintellig": 22024,
    "Ġic": 9624,
    "Ġvoy": 2624,
    "tri": 11527,
    "Ġrecklessly": 16982,
    "âĢĶâĢĻâĢĿ": 20062,
    "Ġcalculates": 13261,
    "bestow": 16928,
    "Ġdrugg": 17118,
    "Ġmary": 3843,
    "worshipping": 16609,
    "ason": 1249,
    "Ġthomas": 17947,
    "Ġtubs": 11368,
    "ahead": 12431,
    "Ġcaterpillar": 5864,
    "weed": 14313,
    "reve": 12535,
    "expanded": 23661,
    "bbs": 23690,
    "Ġtwitch": 22674,
    "Ġbracelets": 25502,
    "pale": 13770,
    "Ġquote": 18466,
    "zz": 4292,
    "Ġluggage": 25957,
    "allic": 12809,
    "catherine": 7127,
    "Ġfret": 10805,
    "Ġequals": 4727,
    "Ġgrasshopper": 24379,
    "Ġserv": 3327,
    "Ġwooded": 23519,
    "wrapped": 15207,
    "Ġconcernment": 23621,
    "landsmen": 25059,
    "Ġsant": 21213,
    "erted": 7361,
    "Ġbeings": 2492,
    "Ġrelative": 11880,
    "Ġnets": 21522,
    "amb": 5723,
    "Ġextraction": 11251,
    "Ġinstant": 2705,
    "Ġhemisphere": 26477,
    "Ġlet": 1112,
    "Ġ47": 14769,
    "broker": 13302,
    "Ġagreeable": 4553,
    "Ġtotal": 4993,
    "Ġpelt": 15606,
    "Ġdances": 10811,
    "Ġbedrooms": 19968,
    "Ġbrid": 6290,
    "Ġspr": 4025,
    "Ġcaution": 11344,
    "Ġshelf": 12264,
    "Ġoctober": 17225,
    "destruction": 11254,
    "two": 3859,
    "ifer": 11681,
    "Ġunra": 18237,
    "Ġcitadel": 25438,
    "vid": 917,
    "Ġshyness": 20305,
    "atus": 21259,
    "Ġnumber": 1982,
    "Ġcautious": 12250,
    "Ġstile": 21730,
    "Ġannot": 15598,
    "ufactured": 15179,
    "Ġbr": 1070,
    "aff": 3100,
    "Ġventure": 7740,
    "hed": 670,
    "signs": 16537,
    "simultaneously": 19863,
    "friendly": 13282,
    "Ġhon": 2539,
    "Ġeverybody": 4511,
    "scenes": 16241,
    "Ġpresenting": 18988,
    "Ġequal": 4134,
    "mense": 4780,
    "rane": 17652,
    "Ġmilan": 19534,
    "uberance": 25916,
    "Ġpeasant": 13549,
    "Ġsunset": 8961,
    "Ġimpro": 889,
    "possession": 12218,
    "Ġcritically": 23444,
    "clim": 18929,
    "women": 15454,
    "Ġthereby": 7643,
    "ired": 1445,
    "Ġpassage": 3884,
    "devil": 7896,
    "Ġsupport": 6728,
    "olet": 13764,
    "Ġramsgate": 18646,
    "Ġsimple": 1621,
    "returning": 12202,
    "pip": 6654,
    "Ġpollard": 20384,
    "Ġsuperior": 2754,
    "Ġschol": 17375,
    "longbourn": 9894,
    "Ġrag": 18639,
    "Ġchurches": 12824,
    "themselves": 6540,
    "fates": 20857,
    "Ġanguish": 5582,
    "Ġegypt": 9677,
    "dishon": 20402,
    "Ġspecialized": 3919,
    "Ġcool": 5734,
    "fearfully": 25116,
    "milk": 20475,
    "Ġattach": 14286,
    "Ġdiversion": 17196,
    "unwillingness": 25802,
    "Ġcontemptible": 16952,
    "Ġrecesses": 17259,
    "iana": 7048,
    "Ġvolition": 14796,
    "Ġhaws": 21949,
    "Ġperpetually": 17069,
    "become": 14245,
    "Ġbrawn": 10480,
    "detained": 24381,
    "Ġworlds": 11944,
    "Ġworrying": 22925,
    "hearts": 13342,
    "Ġterrific": 6754,
    "Ġzig": 18743,
    "clair": 18932,
    "extremely": 26264,
    "Ġpedro": 14993,
    "Ġvertebra": 20180,
    "Ġmusical": 23891,
    "Ġforty": 5719,
    "Ġchased": 8860,
    "Ġtawn": 13821,
    "Ġkirwin": 8496,
    "Ġcraw": 7282,
    "Ġexercising": 19906,
    "Ġsoothing": 8173,
    "ientific": 6547,
    "london": 9608,
    "Ġshrinking": 14803,
    "Ġappear": 2487,
    "had": 1949,
    "Ġpredomin": 16033,
    "Ġbroken": 3445,
    "Ġhorrid": 7999,
    "Ġjacob": 1900,
    "Ġfew": 1211,
    "Ġexisting": 12714,
    "Ġboomer": 20166,
    "Ġinstances": 5567,
    "Ġattempting": 14695,
    "mistaken": 12207,
    "separately": 25227,
    "Ġlordly": 23742,
    "Ġexplained": 5936,
    "Ġ1846": 26084,
    "Ġserpentine": 11358,
    "Ġshout": 4264,
    "illings": 14141,
    "Ġeverywhere": 9794,
    "unctuous": 21880,
    "unimportant": 18159,
    "ston": 15678,
    "ignorance": 17160,
    "Ġloaf": 15869,
    "Ġmotive": 6092,
    "cures": 20804,
    "Ġperfect": 2559,
    "aves": 3596,
    "s": 87,
    "Ġsubjected": 23571,
    "Ġcosine": 2374,
    "Ġconsiderable": 4007,
    "Ġsnodhead": 19300,
    "andromeda": 21866,
    "Ġarithmetic": 18340,
    "Ġmouse": 4694,
    "exertion": 16013,
    "abond": 15737,
    "Ġfailed": 6671,
    "ocean": 12398,
    "voices": 21116,
    "threaten": 25461,
    "Ġleatherhead": 20012,
    "indef": 17734,
    "Ġemma": 20693,
    "Ġsleeps": 10445,
    "transom": 19733,
    "Ġwriter": 11942,
    "jephro": 26391,
    "Ġalleged": 17289,
    "âĢĶâĢĿ": 3298,
    "prob": 7069,
    "Ġsplashed": 23746,
    "horror": 13157,
    "Ġforeboding": 20382,
    "Ġind": 1221,
    "Ġgrapes": 15213,
    "Ġbi": 922,
    "morning": 4859,
    "zas": 17711,
    "these": 3239,
    "ingle": 1038,
    "Ġeluc": 16105,
    "Ġeverything": 3153,
    "arken": 18667,
    "ent": 305,
    "knot": 13743,
    "luyt": 18459,
    "apparat": 22844,
    "Ġexactly": 2769,
    "Ġxv": 23405,
    "Ġheavenly": 12081,
    "Ġbob": 22634,
    "Ġtending": 17723,
    "Ġsixpence": 19315,
    "recollect": 17222,
    "Ġrider": 24184,
    "es": 288,
    "pshire": 21023,
    "6": 26,
    "commodore": 20624,
    "Ġswearing": 16463,
    "Ġtenth": 13823,
    "even": 3837,
    "Ġwilful": 10533,
    "Ġincantation": 26257,
    "Ġplayed": 9414,
    "Ġconversing": 14632,
    "iciously": 17973,
    "Ġhenry": 5197,
    "Ġexulting": 20257,
    "Ġidol": 7467,
    "Ġearned": 19403,
    "aco": 12902,
    "Ġgush": 10201,
    "ause": 1311,
    "Ġunconscious": 9545,
    "lier": 20948,
    "K": 47,
    "rained": 5162,
    "Ġchap": 5934,
    "Ġsends": 14788,
    "Ġprovincial": 20649,
    "inent": 9627,
    "Ġ99": 10744,
    "lips": 13748,
    "Ġbelong": 3885,
    "Ġhil": 10820,
    "Ġfebruary": 15910,
    "thorough": 21983,
    "Ġmiscell": 16148,
    "Ġnoise": 1069,
    "ening": 3103,
    "Ġbuy": 8300,
    "Ġ96": 24593,
    "Ġbraided": 16580,
    "Ġsashes": 21224,
    "Ġimproves": 22725,
    "wrote": 11544,
    "thine": 15821,
    "Ġwitness": 4622,
    "Ġsorts": 6887,
    "sou": 12502,
    "Ġcopestone": 24936,
    "Ġeuroclydon": 15294,
    "Ġpipeline": 2422,
    "ation": 320,
    "Ġvint": 18194,
    "Ġapartments": 19613,
    "anded": 5923,
    "raise": 18011,
    "viii": 12017,
    "ostent": 16845,
    "Ġengineering": 3022,
    "prosperity": 20734,
    "Ġabsorb": 25112,
    "decan": 22140,
[...]
