{
  "metadata": {
    "vocab_size": 26614,
    "algorithm": "BPE",
    "created_at": "2026-06-13 06:15:06",
    "special_tokens": [
      "<PAD>",
      "<SOS>",
      "<EOS>",
      "<UNK>",
      "<MASK>"
    ]
  },
  "vocab": {
    "Ġdownstream": 3777,
    "Ġgoodly": 22819,
    "Ġcur": 1251,
    "Ġrossum": 3016,
    "Ġjerked": 19831,
    "Ġideal": 13120,
    "cordiality": 25137,
    "Ġgibe": 25959,
    "weed": 14314,
    "Ġpraised": 19552,
    "Ġshowers": 16605,
    "Ġimparts": 18445,
    "Ġprospect": 4706,
    "Ġerud": 20053,
    "loom": 18535,
    "imony": 12687,
    "Ġwounding": 19585,
    "Ġneglecting": 25007,
    "Ġst": 332,
    "Ġpurch": 6599,
    "arks": 2844,
    "Ġjourneying": 25565,
    "Ġeaten": 14844,
    "Ġprincipal": 6496,
    "Ġcruises": 23704,
    "augment": 18828,
    "Ġstraps": 19309,
    "near": 5842,
    "west": 10739,
    "lod": 15377,
    "seriously": 18904,
    "arising": 17895,
    "Ġital": 10866,
    "oil": 7805,
    "executed": 25739,
    "Ġfo": 1651,
    "Ġdisease": 14257,
    "Ġwag": 10775,
    "ĠĠĠĠĠĠĠĠĠĠĠĠ": 12897,
    "jug": 17580,
    "Ġincomp": 12894,
    "Ġtyros": 26101,
    "Ġsex": 8841,
    "nostril": 26559,
    "Ġgratification": 24096,
    "consuming": 25673,
    "Ġinstruct": 2864,
    "Ġrelinqu": 12980,
    "Ġunimag": 12771,
    "Ġsell": 7825,
    "anced": 1288,
    "cular": 15327,
    "beaut": 8512,
    "fri": 20853,
    "Ġtearless": 24786,
    "uniform": 18157,
    "Ġiron": 3239,
    "inion": 2875,
    "ructed": 7029,
    "Ġuninterrupted": 22041,
    "waiting": 12218,
    "opp": 6963,
    "Ġbursting": 8655,
    "Ġgarments": 15192,
    "Ġsubmitted": 11869,
    "ester": 11597,
    "Ġadmin": 23552,
    "nowhere": 18418,
    "Ġintrusion": 12762,
    "might": 4081,
    "rate": 2423,
    "Ġterrors": 6918,
    "Ġcomplained": 16998,
    "Ġlac": 17964,
    "Ġfagged": 17882,
    "Ġmortifying": 13244,
    "Ġmeet": 2805,
    "Ġbroken": 3450,
    "Ġroy": 4232,
    "pered": 4200,
    "Ġdiscomposed": 25580,
    "Ġinvestigation": 9042,
    "toes": 22561,
    "somebody": 14565,
    "afric": 19178,
    "Ġanguish": 5583,
    "jure": 20923,
    "Ġpitiless": 19386,
    "âĢľâĢĺ": 1486,
    "bingleys": 19633,
    "hereabouts": 23605,
    "Ġunhappy": 5640,
    "Ġpiazza": 26450,
    "Ġdeprived": 8208,
    "Ġterrific": 6754,
    "itud": 2931,
    "highest": 20406,
    "learned": 8591,
    "Ġmassive": 9931,
    "fire": 6357,
    "aging": 2239,
    "Ġarch": 929,
    "Ġcoll": 8221,
    "Ġegyptians": 25289,
    "Ġ}": 21152,
    "dislike": 23492,
    "ord": 669,
    "Ġconclusions": 10553,
    "Ġhurts": 19111,
    "Ġdiary": 24739,
    "Ġincorpor": 13164,
    "Ġperverseness": 13653,
    "rep": 5525,
    "cig": 17503,
    "Ġoscillations": 2897,
    "inite": 6001,
    "Ġgnarled": 25165,
    "Ġriotous": 20543,
    "Ġrichness": 19310,
    "mitting": 17602,
    "Ġpalp": 11251,
    "saturday": 14857,
    "ĠĠĠĠĠĠĠĠĠĠĠĠĠĠĠĠĠĠĠĠĠĠĠĠĠĠĠĠĠĠĠĠĠĠĠĠĠĠĠĠĠĠ": 24209,
    "Ġbehavioral": 11396,
    "tling": 9142,
    "carte": 25400,
    "body": 2308,
    "Ġsteady": 4847,
    "residence": 19262,
    "Ġdisplayed": 10608,
    "hug": 17563,
    "noticed": 14339,
    "aving": 2406,
    "Ġinquiry": 6484,
    "Ġflurry": 18860,
    "Ġ26": 10470,
    "Ġexhibit": 14955,
    "Ġfetch": 7769,
    "izabeth": 906,
    "Ġgood": 999,
    "rant": 11516,
    "dashed": 12453,
    "Ġunconsciously": 10004,
    "Ġpressed": 6041,
    "seeing": 7078,
    "Ġvengeance": 5884,
    "Ġawaken": 23585,
    "heavens": 19744,
    "immed": 9217,
    "Ġtwinkling": 12322,
    "Ġvow": 10246,
    "Ġcrumpled": 16441,
    "Ġfilters": 3929,
    "ĠĠĠĠĠĠĠĠĠĠĠĠĠĠĠĠĠĠĠĠĠĠĠĠĠĠĠ": 14885,
    "Ġreverse": 16982,
    "Ġspark": 6688,
    "Ġplaned": 24052,
    "Ġespe": 21154,
    "ipelagoes": 13670,
    "Ġgrowth": 14629,
    "inferiors": 25346,
    "Ġindulgence": 11319,
    "Ġblo": 2735,
    "ckles": 22086,
    "urrection": 12407,
    "Ġcursed": 6727,
    "cham": 10853,
    "Ġerr": 1322,
    "Ġsulky": 13514,
    "Ġappointed": 20101,
    "Ġcrags": 23526,
    "opposition": 24823,
    "Ġmin": 1025,
    "Ġlatter": 3993,
    "Ġqueens": 16706,
    "likelihood": 4992,
    "teak": 22812,
    "Ġinterested": 6458,
    "Ġobser": 2072,
    "[": 63,
    "lot": 3211,
    "ns": 750,
    "Ġdescription": 7429,
    "vess": 7354,
    "Ġstanders": 19015,
    "order": 1959,
    "Ġsolomon": 11052,
    "trem": 17681,
    "Ġ101": 24409,
    "hee": 10760,
    "Ġnormalizes": 1862,
    "Ġinflu": 4909,
    "Ġshrew": 21997,
    "Ġcaring": 23088,
    "Ġtreacherously": 25129,
    "ders": 8074,
    "ari": 673,
    "Ġwide": 4112,
    "Ġfrighten": 13277,
    "g": 75,
    "successively": 24779,
    "Ġrevived": 11368,
    "Ġdeclined": 9920,
    "Ġpatron": 7465,
    "Ġdraws": 19434,
    "Ġmalady": 24392,
    "Ġsingled": 23771,
    "iage": 17573,
    "Ġsundial": 15081,
    "Ġlocal": 1200,
    "Ġsmelling": 16064,
    "Ġmungo": 25631,
    "Ġmyth": 18220,
    "cases": 12445,
    "Ġcollateral": 20070,
    "personal": 24963,
    "Ġvirtuous": 14754,
    "Ġacts": 2295,
    "torm": 11530,
    "Ġache": 18663,
    "Ġlearnable": 3999,
    "lan": 15376,
    "Ġupbraid": 18315,
    "Ġanew": 11430,
    "beheld": 11799,
    "ching": 5156,
    "antarctic": 22096,
    "clergyman": 20728,
    "Ġprobabilities": 4966,
    "uish": 5431,
    "shadow": 20313,
    "--âĢĺ": 22842,
    "Ġsuperiority": 14617,
    "Ġstrove": 9956,
    "bingley": 4927,
    "phant": 6286,
    "Ġbulls": 23856,
    "71": 20755,
    "express": 4895,
    "Ġdataset": 12814,
    "collecting": 26081,
    "Ġdescends": 14286,
    "Ġbuck": 7157,
    "Ġcountrymen": 23594,
    "continuance": 19717,
    "constant": 11324,
    "Ġluff": 15650,
    "Ġphysiognomical": 25611,
    "walking": 9981,
    "allah": 5838,
    "dutch": 17218,
    "Ġaimed": 20249,
    "Ġsol": 1103,
    "Ġincom": 9768,
    "whalebone": 19118,
    "Ġwane": 21287,
    "ural": 507,
    "subsided": 25830,
    "Ġsafie": 6617,
    "eaten": 20343,
    "lightning": 16552,
    "Ġtoiling": 15632,
    "ü": 189,
    "rasing": 21044,
    "rane": 17653,
    "Ġelevating": 19728,
    "Ġhearth": 11980,
    "Ġraging": 14305,
    "inous": 8771,
    "ash": 1993,
    "propagation": 1257,
    "Ġ82": 24458,
    "Ġflashing": 13025,
    "Ġemig": 14524,
    "company": 9460,
    "Ġdiffer": 18677,
    "Ġrespite": 13153,
    "Ġmastery": 23990,
    "Ġaston": 3704,
    "Ġpeeped": 10011,
    "ek": 1906,
    "Ġdireful": 11018,
    "lipped": 16215,
    "ming": 3603,
    "Ġfacetious": 20582,
    "Ġtrans": 659,
    "Ġmuscles": 12086,
    "ource": 5243,
    "plete": 10919,
    "warnings": 20350,
    "squeezing": 25913,
    "Ġvengeful": 14889,
    "itates": 13868,
    "Ġdiscove": 16153,
    "Ġreason": 1385,
    "Ġpermanent": 13630,
    "century": 20045,
    "magnetic": 20551,
    "Ġhunting": 7259,
    "Ġgot": 2280,
    "abhorred": 17335,
    "Ġimplicate": 24876,
    "Ġscent": 10284,
    "r": 86,
    "Ġusurpation": 18362,
    "liament": 16216,
    "rabbit": 20589,
    "Ġlaughed": 5059,
    "Ġtem": 805,
    "sofa": 26146,
    "Ġdecomposition": 5342,
    "Ġmorcar": 13008,
    "Ġinsignific": 13179,
    "putting": 14099,
    "Ġfarewell": 9519,
    "strugg": 21659,
    "Ġneatly": 17016,
    "Ġlaug": 3630,
    "Ġbast": 21377,
    "Ġwash": 9702,
    "kee": 18273,
    "Ġemerging": 24612,
    "unusual": 21876,
    "otence": 14022,
    "Ġtinted": 13821,
    "Ġberyls": 25775,
    "Ġalmanac": 26485,
    "shiver": 16023,
    "Ġdecline": 9286,
    "bath": 13688,
    "Ġscrolled": 22267,
    "Ġarchbishop": 18712,
    "dost": 14535,
    "Ġbite": 10797,
    "Ġlandsmen": 11351,
    "Ġalike": 8146,
    "Ġcos": 2210,
    "confusion": 13368,
    "Ġshouts": 19536,
    "Ġoverfitting": 1546,
    "Ġsearch": 2591,
    "mbly": 9793,
    "turtle": 12209,
    "Ġship": 1092,
    "Ġsymbolize": 24960,
    "Ġut": 2278,
    "Ġcow": 13875,
    "Ġbenefited": 19396,
    "storm": 9681,
    "fears": 18528,
    "comra": 16170,
    "Ġcongregated": 20095,
    "Ġfist": 21402,
    "°": 113,
    "osa": 22256,
    "ext": 912,
    "Ġgoblets": 20517,
    "Ġwafted": 14498,
    "Ġinterior": 8894,
    "jaw": 13742,
    "Ġtroop": 24897,
    "x": 92,
    "attachment": 13049,
    "Ġtrample": 20326,
    "spl": 9139,
    "Ġwhites": 21714,
    "Ġexpanding": 25238,
    "georgiana": 26020,
    "separation": 25226,
    "Ġnecessarily": 13248,
    "Ġmamma": 10047,
    "Ġshipmate": 8927,
    "arat": 9180,
    "Ġcharts": 12824,
    "Ġ\"": 6119,
    "ability": 716,
    "Ġsequence": 1975,
    "Ġiteratively": 3060,
    "Ġgreatly": 5849,
    "onian": 17767,
    "Ġforces": 12699,
    "800": 17476,
    "Ġintervals": 5598,
    "Ġyawn": 7609,
    "Ġcrust": 21349,
    "Ġwoodcock": 19162,
    "binnacle": 20786,
    "balanced": 14555,
    "rers": 14717,
    "Ġambiguous": 20163,
    "Ġlurks": 11290,
    "Ġimperson": 14214,
    "ories": 4753,
    "Ġvari": 834,
    "soundest": 24797,
    "Ġhands": 1664,
    "Ġrug": 16155,
    "disposition": 10041,
    "Ġpalaces": 24091,
    "ate": 421,
    "Ġhoky": 17926,
    "rously": 17654,
    "Ġdismember": 20214,
    "isance": 17847,
    "Ġwhimsical": 20426,
    "Ġgrecian": 26296,
    "Ġsunrise": 9372,
    "usation": 18401,
    "Ġbetween": 789,
    "Ġbour": 4876,
    "Ġax": 7822,
    "Ġdepth": 2439,
    "Ġmocking": 24000,
    "Ġends": 8237,
    "\",": 10678,
    "Ġreserved": 7515,
    "aze": 10074,
    "Ġquietly": 4567,
    "eting": 7169,
    "Ġtrue": 1341,
    "inching": 21188,
    "bones": 8371,
    "ump": 2284,
    "Ġashamed": 6403,
    "Ġconfidential": 9087,
    "Ġwanderings": 20142,
    "Ġadmits": 23553,
    "ri": 389,
    "Ġlets": 18076,
    "inhabited": 13619,
    "Ġmake": 1283,
    "Ġfad": 17876,
    "toller": 20671,
    "Ġpaddles": 15146,
    "ilet": 12826,
    "Ġlooks": 4170,
    "Ġbreaches": 14521,
    "Ġflask": 3041,
    "Ġlawy": 9454,
    "Ġdowry": 20684,
    "âĢĻ,": 14069,
    "Ġliveliness": 13642,
    "Ġcalam": 13031,
    "Ġarduous": 26529,
    "irregular": 21908,
    "box": 5749,
    "church": 8139,
    "opportunity": 12272,
    "Ġcologne": 12973,
    "www": 17251,
    "Ġstud": 1647,
    "Ġ14": 9322,
    "inc": 2525,
    "Ġempire": 11145,
    "Ġembodied": 25846,
    "Ġgamy": 17998,
    "Ġstigma": 25791,
    "bu": 5132,
    "popular": 26140,
    "honorable": 19900,
    "scheme": 15253,
    "Ġopulent": 23627,
    "Ġapr": 12529,
    "grey": 14911,
    "assin": 22301,
    "Ġtick": 8108,
    "Ġpropontis": 17465,
    "Ġflog": 23621,
    "Ġtartar": 17321,
    "Ġheaded": 11054,
    "Ġhinge": 25541,
    "umbent": 12093,
    "Ġcaution": 11346,
    "Ġoutlaws": 22320,
    "Ġtasselled": 25921,
    "Ġvers": 7563,
    "Ġstreams": 12190,
    "ierce": 14390,
    "Ġexponential": 1057,
    "Ġgrows": 4985,
    "Ġsullenly": 17172,
    "ring": 1752,
    "Ġberths": 20113,
    "sub": 4660,
    "Ġpolitical": 19222,
    "Ġroom": 1465,
    "Ġdisadvantages": 18558,
    "marks": 7346,
    "shut": 10981,
    "Ġuniversity": 13121,
    "Ġdeck": 2138,
    "Ġresembling": 4102,
    "Ġprom": 1529,
    "metals": 24766,
    "Ġtempor": 2368,
    "Ġposition": 1953,
    "lab": 3458,
    "Ġconcocted": 26299,
    "Ġproof": 6153,
    "Ġrickety": 26505,
    "Ġnegro": 6447,
    "Ġloggerhead": 13656,
    "Ġimpossibility": 20646,
    "Ġwants": 5742,
    "Ġpattered": 19051,
    "Ġbadly": 12129,
    "Ġhorror": 3775,
    "helping": 23137,
    "yards": 9623,
    "Ġtranslations": 12050,
    "eenth": 12458,
    "emorial": 10243,
    "Ġsummoned": 9910,
    "nep": 20985,
    "fect": 2300,
    "Ġsympat": 13339,
    "fury": 17547,
    "Ġsimil": 2535,
    "Ġ117": 19696,
    "Ġlime": 13947,
    "Ġmuseum": 15270,
    "Ġwilfully": 16766,
    "Ġpriv": 4186,
    "Ġproposition": 23248,
    "Ġworthless": 19564,
    "Ġard": 5164,
    "envelope": 17782,
    "Ġavowed": 16633,
    "otograph": 5826,
    "under": 3135,
    "Ġiceberg": 14715,
    "Ġdisappears": 18560,
    "danger": 10089,
    "Ġfour": 2217,
    "ow": 325,
    "Ġarms": 3968,
    "velling": 14762,
    "Ġperil": 5557,
    "Ġplays": 12035,
    "clopÃ¦": 13053,
    "Ġwight": 12550,
    "Ġproportionably": 19969,
    "Ġobsc": 7039,
    "owing": 7601,
    "µ": 118,
    "instance": 24168,
    "Ġrobbed": 23034,
    "Ġcrouched": 23440,
    "Ġdiscovered": 4413,
    "ileries": 18058,
    "doubtless": 17002,
    "quadrille": 20593,
    "tle": 2409,
    "Ġmizen": 17258,
    "Ġhoot": 19076,
    "rub": 15897,
    "Ġdefinition": 14403,
    "Ġla": 5912,
    "Ġasylum": 13665,
    "Ġsadly": 7302,
    ";--": 8068,
    "Ġheels": 10850,
    "raising": 21629,
    "Ġmurdered": 6464,
    "Ġuncl": 22011,
    "Ġgradu": 15830,
    "Ġgreenhorn": 23767,
    "limbs": 20190,
    "het": 5435,
    "Ġsalt": 8016,
    "swift": 14851,
    "Ġspiced": 22126,
    "Ġcraft": 4377,
    "Ġ89": 19711,
    "ordinate": 12873,
    "Ġpanther": 16819,
    "Ġtribe": 10751,
    "Ġproportionate": 17043,
    "conversation": 7122,
    "iate": 6505,
    "Ġnine": 5369,
    "Ġgoing": 2068,
    "Ġsteersman": 13039,
    "ither": 1552,
    "restraint": 18978,
    "Ġengine": 1921,
    "Ġstating": 15719,
    "herald": 22203,
    "possessed": 9527,
    "ruit": 22184,
    "onder": 3781,
    "Ġfitly": 23996,
    "Ġperem": 12929,
    "Ġrouse": 15819,
    "Ġfret": 10806,
    "dem": 10691,
    "ras": 21035,
    "ph": 915,
    "Ġsatan": 14389,
    "romising": 18233,
    "Ġdisordered": 16053,
    "Ġ103": 24411,
    "Ġelastic": 4363,
    "Ġperiods": 13302,
    "Ġfarthest": 23115,
    "Ġunb": 10906,
    "Ġpestilent": 25777,
    "oves": 15402,
    "Ġfing": 3760,
    "Ġimbued": 17454,
    "Ġfatal": 5871,
    "Ġbrazen": 23837,
    "asy": 5294,
    "Ġellenborough": 26154,
    "Ġlustre": 15133,
    "Ġleap": 5824,
    "Ġhalloa": 13315,
    "Ġcasc": 15553,
    "Ġfearing": 12812,
    "Ġcastle": 14716,
    "wond": 8767,
    "programming": 10062,
    "Ġfocused": 16339,
    "nowadays": 22335,
    "oc": 2834,
    "Ġwaterproof": 19088,
    "Ġoverhung": 15970,
    "Ġqualities": 7533,
    "daugh": 6788,
    "Ġuprising": 12796,
    "Ġjago": 22296,
    "skin": 10568,
    "artificial": 949,
    "Ġbeautifully": 13266,
    "contact": 23726,
    "acher": 6868,
    "thanking": 24330,
    "Ġpredicting": 2415,
    "clearer": 24067,
    "scale": 3536,
    "Ġscale": 1554,
    "Ġlowering": 7986,
    "Ġeldest": 6571,
    "Ġsepulch": 15283,
    "burned": 25079,
    "Ġconfinement": 19037,
    "Ġbackward": 7654,
    "allest": 5485,
    "ĠĠĠĠĠĠĠĠĠĠĠĠĠĠĠĠĠĠĠĠĠĠĠĠĠĠĠĠĠĠĠĠĠĠĠ": 19257,
    "Ġconsolidation": 5060,
    "Ġstow": 21727,
    "Ġcobbler": 25829,
    "Ġcommodores": 25374,
    "Ġsplashed": 23747,
    "Ġardent": 9969,
    "Ġstup": 14004,
    "many": 5249,
    "officer": 17054,
    "Ġpore": 21456,
    "Ġomens": 21326,
    "Ġactual": 3740,
    "mother": 5480,
    "flask": 12097,
    "Ġcolonial": 22855,
    "Ġusing": 728,
    "Ġdesert": 6726,
    "understood": 13215,
    "Ġgraces": 18225,
    "Ġcounterbalance": 24722,
    "tipt": 25083,
    "Ġinscriptions": 20007,
    "Ġgross": 11624,
    "Ġmounting": 19975,
    "Ġintricacies": 15137,
    "Ġmr": 661,
    "Ġcattle": 12569,
    "ctions": 952,
    "Ġcounter": 6481,
    "Ġlivelong": 25511,
    "Ġpanting": 11602,
    "Ġpapers": 4025,
    "Ġdepart": 4657,
    "Ġhorrible": 4905,
    "course": 6104,
    "Ġdisquis": 22524,
    "Ġarrives": 23606,
    "Ġbottled": 23794,
    "Ġ2026": 12333,
    "Ġbiting": 17861,
    "slipped": 25529,
    "Ġvicious": 24403,
    "Ġcomputer": 1167,
    "Ġsuggestive": 11297,
    "Ġhandspike": 22693,
    "incom": 21180,
    "Ġrejoice": 10208,
    "animation": 16979,
    "Ġunalterable": 15849,
    "ishe": 13890,
    "uary": 11537,
    "snapping": 24849,
    "Ġjeer": 24124,
    "Ġbridges": 24682,
    "thither": 21980,
    "au": 778,
    "punishment": 15144,
    "fts": 18698,
    "Ġlavenza": 17970,
    "Ġwreaths": 25937,
    "covenant": 23561,
    "spass": 18687,
    "allowed": 5728,
    "Ġplow": 21457,
    "laws": 19806,
    "Ġaberde": 22284,
    "Ġtotally": 9470,
    "Ġinitialized": 3950,
    "Ġtorpor": 25031,
    "Ġtows": 19561,
    "gration": 9121,
    "Ġethics": 15461,
    "Ġforests": 13591,
    "Ġcetace": 14987,
    "Ġsolemnly": 8023,
    "Ġend": 1487,
    "Ġfantastic": 10058,
    "supportable": 12368,
    "attended": 8952,
    "Ġsignature": 16493,
    "inst": 4297,
    "Ġprender": 22232,
    "years": 6883,
    "dition": 15339,
    "haven": 20911,
    "Ġhero": 5715,
    "ways": 1442,
    "Ġhumped": 19768,
    "Ġimputed": 12805,
    "acknowled": 10975,
    "¬": 110,
    "Ġembattled": 26288,
    "Ġmothers": 14540,
    "relig": 15511,
    "izzy": 3098,
    "netherfield": 9812,
    "Ġshave": 21993,
    "agos": 21901,
    "Ġredeem": 20498,
    "Ġdashes": 21432,
    "Ġpattering": 18652,
    "endom": 15914,
    "Ġsallies": 21228,
    "Ġlanes": 19764,
    "destruction": 11256,
    "edmund": 17945,
    "Ġstuff": 5717,
    "Ġabject": 18396,
    "pier": 17635,
    "slouched": 24557,
    "Ġcorps": 13030,
    "Ġeber": 18003,
    "nights": 16448,
    "Ġendeavouring": 8034,
    "Ġindustry": 18836,
    "Ġsomewhere": 5384,
    "Ġfobbing": 26441,
    "astron": 22166,
    "Ġsubterraneous": 20264,
    "Ġrevers": 21661,
    "embraced": 25804,
    "Ġentity": 10343,
    "Ġexam": 3714,
    "Ġmoon": 4608,
    "disc": 4729,
    "Ġsoul": 2727,
    "satisfied": 10578,
    "Ġrippling": 17277,
    "Ý": 158,
    "Ġfre": 1576,
    "Ġdisreputable": 22531,
    "rist": 10122,
    "Ġ1846": 26084,
    "Ġalms": 21777,
    "Ġlofty": 6217,
    "Ġrejoiced": 8683,
    "Ġelsewhere": 7712,
    "terror": 18128,
    "iel": 11493,
    "Ġrefused": 6715,
    "Ġwonder": 2118,
    "Ġbusily": 9384,
    "enged": 23144,
    "Ġrattle": 10899,
    "wives": 15454,
    "ipl": 20917,
    "pilot": 25908,
    "Ġwages": 13853,
    "Ġremedy": 18725,
    "Ġgallery": 10524,
    "likewise": 13103,
    "Ġeighty": 19474,
    "Ġunobserved": 18246,
    "Ġledger": 19400,
    "requiem": 24856,
    "iction": 4271,
    "Ġmoles": 22429,
    "Ġmonster": 3796,
    "Ġunusual": 6553,
    "Ġemma": 20693,
    "Ġmississippi": 20724,
    "pendicular": 6499,
    "Ġspaniard": 20361,
    "Ġrever": 6536,
    "Ġbeaks": 21752,
    "Ġbeseeching": 26311,
    "Ġhates": 21483,
    "alice": 3212,
    "deformity": 22147,
    "Ġcorroded": 18875,
    "Ġdisasters": 16052,
    "Ġpaid": 5015,
    "these": 3245,
    "conditional": 9078,
    "Ġdangerously": 23934,
    "et": 307,
    "Ġjustice": 5111,
    "Ġparalle": 1409,
    "Ġintensity": 10015,
    "Ġdeclaration": 16636,
    "Ġpant": 10817,
    "asion": 5714,
    "Ġfaithfulness": 24446,
    "izings": 14050,
    "Ġgpus": 3735,
    "oker": 10963,
    "pointing": 12222,
    "adders": 24400,
    "Ġdrawing": 3918,
    "Ġarrow": 10931,
    "Ġattachment": 6049,
    "Ġev": 4828,
    "æ": 167,
    "wol": 21121,
    "rain": 459,
    "gest": 5426,
    "Ġcircle": 4977,
    "cords": 25136,
    "pred": 2803,
    "Ġpassive": 22835,
    "Ġi": 311,
    "Ġnon": 1624,
    "venty": 6427,
    "anesc": 21358,
    "ł": 259,
    "Ġtyp": 1128,
    "Ġawaited": 17074,
    "Ġstall": 12693,
    "ladyship": 14828,
    "Ġturbul": 23611,
    "Ġpeevish": 26557,
    "Ġsalad": 19477,
    "formality": 22225,
    "Ġburn": 3686,
    "Ġsize": 1218,
    "Ġvia": 2383,
    "Ġconstantly": 11971,
    "Ġhid": 1319,
    "Ġaims": 15495,
    "Ġpresence": 5031,
    "Ġclapham": 17265,
    "fisher": 7547,
    "Ġhints": 8429,
    "ictions": 14225,
    "amiable": 14053,
    "rann": 21043,
    "ldog": 21914,
    "ws": 7355,
    "Ġcarcase": 14443,
    "sford": 5997,
    "Ġcalculate": 13263,
    "Ġreputation": 11639,
    "Ġquench": 22416,
    "caused": 25519,
    "asper": 7854,
    "comed": 8544,
    "Ġunbending": 25464,
    "Ġreception": 9838,
    "displayed": 20735,
    "concern": 6099,
    "Ġcollectively": 19966,
    "Ġrail": 7225,
    "Ġbeaver": 18085,
    "¥": 103,
    "Ġdismast": 12885,
    "Ġlabors": 23325,
    "neurons": 3138,
    "Ġages": 7027,
    "Ġxi": 16428,
    "Ġspeaker": 19148,
    "dashing": 20835,
    "Ġassociations": 14962,
    "Ġcustom": 5078,
    "lested": 14882,
    "Ġsomething": 1796,
    "Ġtragedy": 10667,
    "willingness": 24755,
    "Ġaught": 8772,
    "Ġ13": 6718,
    "Ġbidding": 9536,
    "Ġpretending": 19314,
    "abhor": 12704,
    "Ġflirt": 14422,
    "Ġlaughs": 24117,
    "Ġaud": 6661,
    "Ġscholar": 26111,
    "spond": 5567,
    "Ġnail": 9195,
    "Ġreassure": 21669,
    "Ġwilliam": 3483,
    "Ġdisconnected": 22522,
    "ashes": 6015,
    "Ġcathed": 14548,
    ",âĢĶâĢĺ": 23801,
    "died": 10693,
    ",âĢĻ": 2327,
    "hatch": 15363,
    "Ġsage": 17752,
    "I": 45,
    "degrees": 22151,
    "shud": 18488,
    "aried": 10987,
    "Ġtranque": 14207,
    "Ġplausible": 26553,
    "Ġcoinc": 11001,
    "Ġrefres": 14334,
    "Ġunspeakable": 10055,
    "Ġeffects": 7236,
    "Ġfold": 5531,
    "Ġseeming": 8540,
    "Ġicy": 10747,
    "Ġstifle": 18073,
    "racing": 21628,
    "drawn": 9912,
    "Ġpaling": 21460,
    "Ġprinciple": 6770,
    "ins": 1375,
    "Ġasp": 15781,
    "upright": 23013,
    "Ġgaping": 13968,
    "ainty": 21784,
    "Ġnurtured": 19748,
    "fuller": 22483,
    "Ġhappen": 5571,
    "consequential": 26250,
    "Ġ112": 24437,
    "Ġjealous": 9468,
    "Ġfixedly": 19247,
    "captains": 12125,
    "Ġthrilling": 19747,
    "ppo": 18175,
    "Ġbelshazzar": 16224,
    "Ġpopularly": 12239,
    "nur": 11505,
    "published": 26142,
    "Ġdated": 10938,
    "Ġhy": 5625,
    "Ġminima": 3465,
    "Ġsurrounds": 24231,
    "Ġmediocr": 24084,
    "Ġlung": 7167,
    "scra": 13019,
    "Ġtamer": 24976,
    "Ġrobust": 1396,
    "dishonourable": 26365,
    "\"],": 26120,
    "among": 6256,
    "Ġinfluences": 14864,
    "Ó": 148,
    "feel": 3814,
    "Ġnest": 10188,
    "Ġshyness": 20305,
    "Ġwithered": 19463,
    "Ġcritical": 7475,
    "belong": 12120,
    "Û": 156,
    "Ġdense": 8122,
    "osoever": 17342,
    "Ġopera": 23424,
    "Ġfriday": 14488,
    "practical": 17221,
    "Ġcarrying": 6071,
    "chooses": 23673,
    "agitation": 14067,
    "Ġallies": 18267,
    "unreasonable": 18162,
    "Ġvilest": 20099,
    "Ġregion": 2272,
    "Ġcolourless": 19568,
    "account": 5329,
    "Ġfront": 3453,
    "Ġblow": 3375,
    "Ġimmemorially": 25383,
    "Ġchance": 3320,
    "Ġchapter": 2957,
    "sole": 6168,
    "Ġevenly": 4133,
    "Ġspecial": 2104,
    "Ġneighbour": 3810,
    "Ġwarn": 5695,
    "Ġsynd": 22207,
    "Ġaquiline": 26159,
    "Ġforefinger": 16443,
    "Ġcompleted": 8997,
    "Ġinquiring": 8999,
    "okers": 18441,
    "osing": 3692,
    "Ġshun": 11707,
    "drovand": 24760,
    "Ġcemet": 20679,
    "Ġanon": 9666,
    "Ġpledge": 11600,
    "Ġphysiogn": 12386,
    "Ġsusp": 2663,
    "une": 2787,
    "Ġmaintained": 12931,
    "Ġyou": 366,
    "bitter": 11241,
    "Ġlantern": 7116,
    "Ġconsecutive": 20701,
    "assemblies": 25956,
    "Ġdestroy": 5772,
    "give": 4689,
    "wag": 21122,
    "drown": 13703,
    "Ġdate": 7841,
    "outre": 18320,
    "Ġadvocate": 13675,
    "Ġglowing": 12280,
    "elves": 2158,
    "Y": 61,
    "upp": 10130,
    "qualified": 17098,
    "Ġsemblance": 20733,
    "pleasures": 24043,
    "Ġbloom": 9887,
    "Ġtug": 11550,
    "ones": 2744,
    "ĠĠĠĠ": 458,
    "Ġstrictly": 12283,
    "beheaded": 22490,
    "guinea": 16672,
    "Ġhorsham": 10406,
    "Ġtablet": 19203,
    "remed": 18952,
    "Ġchurning": 15935,
    "snow": 10724,
    "Ġdepress": 14045,
    "Ġmanner": 2199,
    "plague": 21950,
    "Ġspent": 3966,
    "Ġdesiring": 14413,
    "ogue": 9783,
    "aments": 12722,
    "joke": 20929,
    "Ġspectacle": 10496,
    "glances": 23851,
    "Ġtoller": 9090,
    "Ġcanoes": 12802,
    "Ġbulkhead": 24511,
    "Ġthat": 335,
    "Ġflow": 1239,
    "jected": 22711,
    "Ġdynam": 3124,
    "ermaid": 14297,
    "elfth": 22366,
    "Ġneighbor": 25805,
    "attoo": 6807,
    "Ġdevotees": 25376,
    "proof": 16422,
    "volutions": 16320,
    "felt": 5888,
    "Ġbuckler": 24859,
    "Ġcable": 11579,
    "Ġsanely": 24980,
    "ured": 1653,
    "Ġchil": 11749,
    "Ġ(_": 3739,
    "Ġfeeble": 12282,
    "larger": 24202,
    "Ġhumans": 8928,
    "Ġdifficulties": 11225,
    "Ġfrigates": 25707,
    "Ġarve": 15891,
    "Ġweb": 9239,
    "Ġblindly": 12107,
    "Ġduodecimo": 16767,
    "Ġstraighten": 24001,
    "Ġloth": 17965,
    "Ġcontortions": 18476,
    "_,âĢĿ": 6218,
    "Ġcaroline": 7254,
    "possible": 5743,
    "Ġdamps": 23473,
    "rudently": 16710,
    "attendants": 25495,
    "Ġamidst": 9493,
    "lingering": 18601,
    "Ġcreating": 2999,
    "Ġestate": 6316,
    "ifix": 21895,
    "Ġobstructed": 24677,
    "Ġblackstone": 23387,
    "achusetts": 20709,
    "manned": 18764,
    "Ġlinn": 13952,
    "bb": 2801,
    "Ġdismantled": 20215,
    "Ġpharaoh": 26585,
    "Ġstat": 1493,
    "urches": 12682,
    "Ġagonising": 25373,
    "Ġkeep": 2356,
    "Ġfeelings": 2453,
    "Ġmeagre": 21807,
    "Ġbrimstone": 25686,
    "Ġwarehouse": 20415,
    "regularly": 13207,
    "Ġfrightens": 24027,
    "distinguish": 19571,
    "Ġexchanging": 18132,
    "xic": 9145,
    "Ġdeformed": 14046,
    "Ġhomeless": 23385,
    "Ġfolded": 7767,
    "abashed": 21789,
    "Ġpreprocessing": 26536,
    "dial": 20824,
    "Ġstrategies": 1838,
    "inity": 5693,
    "takes": 21074,
    "Ġtoler": 7588,
    "larking": 17594,
    "Ġcommonest": 23086,
    "Ġglance": 4236,
    "Ġfear": 2276,
    "Ġfog": 9661,
    "Ġsto": 1501,
    "ryphon": 4167,
    "Ġgalvan": 21614,
    "flagged": 23969,
    "Ġxxxiv": 24967,
    "sou": 12503,
    "return": 5489,
    "irements": 22214,
    "lant": 20946,
    "Ġparticle": 18671,
    "Ġ22": 8278,
    "Ġfresher": 23209,
    "Ġpropagating": 20632,
    "Ġafore": 10758,
    "Ġdenote": 19332,
    "Ġswings": 11086,
    "istle": 15868,
    "cupboards": 25401,
    "splash": 25209,
    "Ġmodest": 15915,
    "compan": 7301,
    "function": 4076,
    "Ġminutest": 14559,
    "Ġrash": 10898,
    "Ġduties": 6609,
    "Ġissued": 10599,
    "Ġjudiciously": 23876,
    "Ġinc": 702,
    "only": 3309,
    "Ġoffing": 16141,
    "australian": 20560,
    "Ġclimate": 9273,
    "Ġlargely": 14284,
    "Ġintrepid": 11704,
    "deav": 2673,
    "Ġwaggish": 25434,
    "sudden": 5315,
    "Ġsuper": 2154,
    "Ġprogressive": 5024,
    "Ġpaul": 12060,
    "Ġbraved": 23835,
    "abez": 10222,
    "Ġabsent": 7014,
    "Ġsatur": 1931,
    "Ġabhorrent": 16856,
    "Ġdownwards": 8529,
    "acific": 4960,
    "Ġtophet": 23572,
    "Ġimpudence": 26241,
    "Ġtypewritten": 16420,
    "Ġunrecord": 16621,
    "Ġadmeasure": 18293,
    "Ġgodfre": 14529,
    "Ġshipwrecked": 25687,
    "Ġaccord": 4029,
    "distinct": 13334,
    "Ġconf": 1818,
    "ĠĠĠĠĠĠ": 6414,
    "Ġcigarette": 20655,
    "cannot": 5745,
    "Ġstre": 2109,
    "Ġplayfulness": 23635,
    "een": 727,
    "onds": 12993,
    "cob": 10086,
    "slave": 16895,
    "savage": 15074,
    "Ġwindows": 4971,
    "Ġ7": 4745,
    "Ġits": 706,
    "ader": 14011,
    "Ġspared": 7892,
    "Ġcharacteristically": 23690,
    "analysis": 26173,
    "unforeseen": 21885,
    "arm": 1358,
    "behaved": 24463,
    "es": 288,
    "Ġrestricted": 19025,
    "Ġemployer": 19430,
    "Ġband": 5290,
    "Ġunearthly": 9036,
    "beyond": 8882,
    "shoulder": 16583,
    "Ġcharge": 5324,
    "thinking": 9013,
    "Ġblaming": 22927,
    "©": 107,
    "Ġbakers": 17866,
    "Ġbusier": 23334,
    "Ġsnarled": 25716,
    "gives": 15356,
    "Ġcasually": 25093,
    "Ġpraying": 19553,
    "soled": 14329,
    "Ġgentlemen": 3645,
    "ny": 4019,
    "Ġinclosed": 19537,
    "extric": 22750,
    "Ġbel": 1217,
    "rimsh": 17027,
    "isl": 21373,
    "Ġflower": 16230,
    "soo": 18685,
    "iron": 3552,
    "Ġvul": 10247,
    "ipped": 5790,
    "proachable": 23396,
    "Ġjack": 4653,
    "remembrance": 25702,
    "university": 25983,
    "precisely": 6917,
    "distant": 13333,
    "Ġaltering": 18102,
    "Ġtestimony": 14474,
    "Ġstudded": 18989,
    "ilst": 8143,
    "Ġdiverse": 19208,
    "Ġesteem": 7531,
    "haz": 17564,
    "distinguished": 10526,
    "removed": 15515,
    "cloudless": 20331,
    "Ġwearily": 18177,
    "ortunities": 15938,
    "Ġrelentless": 26277,
    "amount": 10884,
    "Ġproperly": 7944,
    "through": 4027,
    "Ġspecialized": 3921,
    "arches": 10816,
    "wealth": 22685,
    "joice": 9602,
    "Ġcloth": 9741,
    "discoloured": 23496,
    "Ġdedication": 3209,
    "Ġhal": 1362,
    "Ġdived": 9177,
    "Ġbeard": 11654,
    "Ġrural": 21964,
    "Ġevid": 3502,
    "į": 240,
    "Ġscound": 12829,
    "_âĢĶâĢĿ": 20762,
    "ford": 2822,
    "catherine": 7127,
    "Ġstrike": 4855,
    "Ġstumbling": 21739,
    "forster": 16159,
    "Ġbinding": 20417,
    "Ġmeanest": 12907,
    "Ġslam": 13055,
    "Ġgabriel": 7595,
    "Ġpaint": 7707,
    "irection": 2389,
    "Ġfriendship": 7246,
    "Ġhandling": 8912,
    "Ġadd": 629,
    "Ġtogether": 1878,
    "hypothe": 25905,
    "ots": 3297,
    "Ġpals": 13917,
    "estinated": 15920,
    "Ġwhilst": 9218,
    "Ġglimmered": 20170,
    "Ġdrenched": 12600,
    "Ġlatitude": 8328,
    "Ġprogra": 1143,
    "Ġriveted": 13617,
    "Ġdestro": 3725,
    "fortune": 4975,
    "vent": 682,
    "Ġemergency": 25731,
    "ker": 5792,
    "record": 16921,
    "anim": 6522,
    "Ġpassengers": 13674,
    "Ġsinking": 7307,
    "giana": 7800,
    "Ġoptim": 791,
    "Ġolive": 12562,
    "viv": 17698,
    "Ġstaving": 21734,
    "free": 8735,
    "Ġcivilised": 24244,
    "Ġblew": 9045,
    "Ġherein": 16188,
    "went": 6512,
    "Ġangels": 11178,
    "Ġcarry": 4779,
    "À": 129,
    "Ġunder": 1635,
    "Ġwards": 17789,
    "everybody": 8610,
    "Ġemploying": 23975,
    "conjecturing": 20133,
    "il": 329,
    "activation": 3235,
    "mansion": 20982,
    "Ġdeparture": 6490,
    "Ġmouldings": 24737,
    "hoping": 17566,
    "Ġ73": 24260,
    "Ġhobbling": 25644,
    "Ġconcussion": 26300,
    "Ġassembly": 10642,
    "Ġanomalously": 25638,
    "dance": 17519,
    "prehens": 9288,
    "uc": 1876,
    "Ġpoliceman": 15257,
    "Ġwhaleman": 4655,
    "Ġsettee": 22918,
    "inforcement": 2980,
    "Ġthoughts": 3141,
    "Ġblank": 5950,
    "sciss": 18857,
    "Ġjeopard": 9942,
    "Ġremnants": 22791,
    "Ġcaught": 3733,
    "otion": 4946,
    "taking": 5689,
    "Ġalgorithm": 762,
    "Ġeasiest": 23537,
    "izes": 883,
    "Ġyankees": 26201,
    "Ġresume": 18565,
    "ack": 614,
    "itancy": 21331,
    "iple": 4806,
    "Ġkrus": 18349,
    "Ġwanted": 4968,
    "transformer": 25015,
    "ctic": 8441,
    "Ġroad": 3882,
    "birds": 15143,
    "Ġstrasburgh": 18614,
    "Ġglare": 13014,
    "oda": 15747,
    "Ġpeaks": 16126,
    "Ġconvulsively": 25717,
    "carbuncle": 26382,
    "luded": 4231,
    "Ġeigen": 4881,
    "Ġbrewed": 23342,
    "impatiently": 20469,
    "lock": 1472,
    "ems": 5235,
    "Ġending": 18189,
    "Ġcharles": 11956,
    "Ġscandal": 9081,
    "Ġarsac": 11740,
    "Ġlistening": 6318,
    "Ġmont": 8558,
    "adm": 7608,
    "Ġpedro": 14994,
    "apprehens": 17405,
    "Ġgoblet": 25823,
    "strang": 11183,
    "idea": 9300,
    "Ġessential": 7523,
    "stepfather": 19189,
    "Ġintegrity": 12311,
    "heavenly": 20043,
    "Ġelemental": 19918,
    "Ġcontents": 7210,
    "quee": 4134,
    "ffic": 22152,
    "Ġembell": 14412,
    "Ġsank": 5076,
    "Ġaback": 22273,
    "dles": 11480,
    "Ġstrand": 11826,
    "convenient": 12235,
    "concluding": 19479,
    "*": 14,
    "Ġcelestial": 10066,
    "oise": 15403,
    "Ġoverflowed": 20261,
    "Ġsaloon": 24060,
    "whale": 2140,
    "Ġcompanionship": 14919,
    "untarily": 6312,
    "Ġcabman": 14605,
    "Ġodds": 13328,
    "retrospect": 23135,
    "quest": 4538,
    "Ġapt": 9155,
    "Ġposter": 14274,
    "Ġpaddling": 25285,
    "hideous": 25407,
    "Ġdisplaying": 16966,
    "sartain": 25622,
    "Ġfounded": 8556,
    "Ġresponsible": 9885,
    "Ġoxford": 11371,
    "Ġvicissitudes": 12417,
    "sprit": 11382,
    "Ġtearing": 14395,
    "Ġdragon": 14943,
    "Ġagrippa": 11804,
    "Ġgrimesby": 11457,
    "Ġsincer": 13063,
    "bled": 5469,
    "Ġhide": 4589,
    "Ġgratefully": 20443,
    "lean": 21363,
    "gazed": 15360,
    "Ġworks": 5857,
    "ood": 962,
    "ounders": 22392,
    "coast": 10449,
    "Ġenters": 11025,
    "Ġsaturday": 6452,
    "<MASK>": 4,
    "ross": 808,
    "Ġmemory": 2275,
    "division": 20047,
    "Ġbare": 6132,
    "formation": 22224,
    "Ġdenied": 9000,
    "Ġanalytical": 22907,
    "uting": 15657,
    "Ġwharves": 13505,
    "Ġmentioning": 9898,
    "ises": 3657,
    "wards": 1276,
    "Ġdispute": 16054,
    "Ġitalian": 12408,
    "Ġshadowed": 24042,
    "Ġmakest": 25435,
    "Ġbind": 12579,
    "seam": 10874,
    "Ġdirty": 9178,
    "Ġshoals": 13133,
    "conclusion": 25670,
    "rally": 17651,
    "ily": 1029,
    "Ġprometheus": 15291,
    "Ġsorry": 4213,
    "Ġfairest": 20461,
    "Ġsubsided": 14550,
    "Ġcivility": 4788,
    "itively": 21329,
    "Ġtropical": 17065,
    "morrow": 4572,
    "Ġruin": 6055,
    "Ġfailing": 12135,
    "Ġclusters": 25232,
    "answ": 15882,
    "eyed": 11486,
    "battering": 20785,
    "oars": 9614,
    "Ġchrysalis": 26538,
    "aggo": 5097,
    "omination": 21639,
    "Ġbarred": 9002,
    "Ġelix": 22641,
    "lestrade": 9656,
    "circled": 24187,
    "Ġreciprocating": 26369,
    "Ġuniformly": 19147,
    "Ġferule": 24499,
    "Ġstrang": 4165,
    "itated": 4440,
    "fiery": 13580,
    "Ġcou": 5286,
    "Ġmechanical": 7936,
    "understand": 1171,
    "Ġmanifold": 13559,
    "Ġburton": 23651,
    "ass": 534,
    "Ġcables": 15555,
    "Ġdemoniac": 15063,
    "Ġcontracted": 12857,
    "comp": 3818,
    "Ġdigesting": 19808,
    "stochastic": 3776,
    "kne": 20934,
    "Ġcalifornia": 20528,
    "hand": 2758,
    "Ġcrocod": 19627,
    "cnns": 3624,
    "kered": 18274,
    "Ġadmiration": 5328,
    "hatchway": 25904,
    "preced": 10308,
    "obey": 11509,
    "orted": 4603,
    "Ġsuffers": 2974,
    "Ġimpartial": 15218,
    "Ġmoods": 14950,
    "acknowledging": 25476,
    "ribs": 23363,
    "mopol": 15395,
    "nam": 2709,
    "Ġcumbrous": 26432,
    "Ġspain": 15875,
    "Ġpatent": 11966,
    "understanding": 1185,
    "Ġdistantly": 18531,
    "Ġcircum": 8257,
    "Ġli": 603,
    "(-": 2982,
    "Ġnour": 10830,
    "evenings": 19461,
    "cour": 4479,
    "Ġreported": 11978,
    "Ġbritannica": 24680,
    "Ġrhyme": 21975,
    "Ġarist": 14159,
    "Ġchurned": 18385,
    "Ġoptimal": 1855,
    "Ġauthent": 14507,
    "Ġshrink": 14803,
    "Ġredu": 1355,
    "omnipotent": 25964,
    "Ġmental": 21318,
    "Ġsunny": 13084,
    "Ġshame": 6410,
    "latter": 15381,
    "Ġlikened": 16499,
    "Ġgn": 8817,
    "Ġnav": 5818,
    "Ġintelligible": 15939,
    "Ġglens": 18854,
    "arted": 2204,
    "Ġreferences": 21671,
    "perfectly": 9085,
    "orders": 12872,
    "Ġpry": 11599,
    "Ġxv": 23405,
    "Ġtraversed": 18891,
    "Ġmirth": 15542,
    "f": 74,
    "norm": 20984,
    "Ġfriend": 1295,
    "ugl": 23286,
    "Ġfoundation": 4235,
    "network": 1895,
    "Ġgag": 21590,
    "py": 17624,
    "princip": 17136,
    "Ġgold": 3281,
    "Ġliberality": 24377,
    "Ġlessened": 19087,
    "Ġimmensities": 25330,
    ".âĢĶâĢľ": 20746,
    "ember": 1955,
    "Ġprotested": 9933,
    "Ġofficer": 6753,
    "pped": 1999,
    "ancho": 4938,
    "Ġstreng": 18070,
    "ented": 4350,
    "Ġsouthern": 7688,
    "recurring": 24194,
    "Ġpigs": 19746,
    "Ġpolitic": 23617,
    "Ġtheology": 21275,
    "alth": 3259,
    "asserted": 22305,
    "Ġpersuasion": 10498,
    "Ġstir": 5823,
    "Ġfeeling": 3087,
    "Ġjen": 9266,
    "Ġparchment": 13651,
    "Ġtatters": 21176,
    "steering": 16635,
    "Ġwintry": 17433,
    "buff": 15317,
    "Ġmoccas": 22431,
    "Ġeveryday": 22770,
    "sold": 15425,
    "obstructed": 15225,
    "Ġusually": 6263,
    "Ġgir": 2255,
    "sounded": 12264,
    "Ġcrystall": 20225,
    "ouble": 2661,
    "Ġamid": 4959,
    "destiny": 16702,
    "Ġconvince": 14642,
    "Ġrecip": 16139,
    "Ġmodern": 3232,
    "Ġvertical": 16604,
    "Ġforgot": 4684,
    "Ġparad": 2842,
    "Ġmincing": 18750,
    "opes": 10309,
    "Ġharm": 5017,
    "Ġravine": 18646,
    "Ġmaintain": 856,
    "evil": 11485,
    "Ġsucc": 12782,
    "Ġamel": 18510,
    "esy": 9182,
    "sustained": 20567,
    "protested": 13473,
    "Ġentities": 11862,
    "Ġjon": 15946,
    "insupportable": 21192,
    "Ġstand": 1736,
    "Ġindia": 10370,
    "Ġvehic": 8932,
    "Ġconsciousness": 9947,
    "Ġquarters": 8619,
    "arians": 18526,
    "Ġbier": 22765,
    "capt": 3838,
    "Ġwretchedly": 19505,
    "Ġdisaster": 12884,
    "Ġdiversity": 25284,
    "Ġenclosure": 20622,
    "sensibility": 25023,
    "Ġrokovoko": 22403,
    "Ġdeified": 18137,
    "Ġcriminals": 19921,
    "Ġtor": 8105,
    "ļ": 253,
    "Ġhumiliation": 16197,
    "saying": 8640,
    "Ġgeneralize": 3103,
    "Ġpuff": 6526,
    "Ġstr": 752,
    "Ġrigged": 16717,
    "Ġwooden": 4730,
    "Ġafternoon": 6052,
    "Ġelevates": 24503,
    "contrad": 19291,
    "market": 16839,
    "commotion": 24913,
    "Ġterms": 2565,
    "Ġrepresented": 8938,
    "uel": 6966,
    "Ġdebated": 9040,
    "ix": 1801,
    "Ġchimer": 24602,
    "ium": 4864,
    "Ġstag": 6148,
    "nursery": 26399,
    "Ġswam": 6448,
    "ige": 12676,
    "word": 2492,
    "cc": 475,
    "oting": 2746,
    "hunted": 16832,
    "Ġrooms": 5180,
    "feelings": 5674,
    "Ġeddying": 16434,
    "Ġshrugged": 12766,
    "actions": 8906,
    "touched": 15438,
    "burgh": 6773,
    "Ġgraceful": 11296,
    "ousness": 10274,
    "opotam": 22471,
    "Ġbrig": 11047,
    "ven": 781,
    "Ġcork": 12566,
    "bless": 22309,
    "Ġinnoc": 3797,
    "._": 3223,
    "Ġbased": 3341,
    "Ġguardians": 14942,
    "Ġsugg": 4499,
    "arle": 21438,
    "commission": 22815,
    "Ġworsted": 19993,
    "residual": 19261,
    "Ġaffidavit": 20723,
    "Ġket": 18347,
    "parsee": 14515,
    "Ġsolic": 7932,
    "ece": 17531,
    "Ġcomplied": 14733,
    "uteronomy": 15661,
    "Ġinvolve": 11040,
    "summoned": 26591,
    "suspicions": 25391,
    "idirection": 2411,
    "Ġmuzzle": 21319,
    "loops": 12880,
    "oud": 1941,
    "Ġbordered": 24563,
    "Ġcalculus": 23980,
    "sul": 15420,
    "Ġdinners": 23979,
    "iam": 2513,
    "Ġbiscuit": 12586,
    "Ġbu": 3685,
    "Ġcoils": 9302,
    "lucifer": 25301,
    "Ġdissip": 10992,
    "Ġhorn": 6185,
    "solitude": 23294,
    "amet": 589,
    "pinn": 21025,
    "Ġsteadfastly": 10651,
    "magnitude": 17248,
    "erest": 10697,
    "pen": 1204,
    "Ġceler": 15548,
    "speckled": 23942,
    "Ġholy": 6591,
    "Ġwooded": 23518,
    "Ġtails": 9901,
    "Ġthack": 21514,
    "leading": 15559,
    "Ġforcibly": 10060,
    "inctions": 17732,
    "fug": 17543,
    "Ġ1890": 23893,
    "Ġprocess": 562,
    "Ġtradesmen": 17105,
    "Ġintimately": 24804,
    "Ġdrew": 3538,
    "anning": 10164,
    "Ġcowards": 12570,
    "erce": 6126,
    "buckets": 26123,
    "Ġpositive": 2297,
    "Ġconfide": 13097,
    "================================================================": 9989,
    "Ġcough": 11580,
    "Ġdiadem": 24741,
    "sincerely": 24584,
    "Ġmari": 6813,
    "Ġmechan": 1166,
    "Ġreconciled": 13586,
    "Ġadditionally": 1178,
    "Ġhatchet": 16529,
    "inter": 2949,
    "Ġattacks": 12202,
    "idays": 21767,
    "Ġchuckled": 10647,
    "Ġwhispering": 14944,
    "Ġjames": 6419,
    "Ġpil": 5014,
    "Ġpromise": 4201,
    "ales": 3319,
    "Ġalders": 21781,
    "Ġdeuteronomy": 15757,
    "Ġmrs": 1469,
    "Ġplum": 11820,
    "Ġthreatens": 24375,
    "uccas": 21105,
    "Ġbruited": 25773,
    "Ġquickly": 4244,
    "Ġassailants": 20447,
    "Ġdiscol": 12950,
    "Ġshriek": 6637,
    "Ġspeedily": 7711,
    "relative": 24010,
    "Ġelias": 18634,
    "================================": 5671,
    "ici": 8439,
    "Ġpresent": 1640,
    "de": 462,
    "Ġchestnuts": 24381,
    "repairing": 24495,
    "Ġattacked": 10567,
    "Ġkno": 5241,
    "woman": 5898,
    "aloes": 21499,
    "Ġoptimization": 1377,
    "Ġadded": 2717,
    "cked": 2763,
    "rolling": 9060,
    "Ġfalls": 14644,
    "Ġraising": 8909,
    "says": 13298,
    "Ġinputs": 844,
    "Ġnamely": 20688,
    "Ġspade": 9258,
    "Ġfloating": 6604,
    "Ġaqu": 17742,
    "ified": 3230,
    "Ġwrenching": 17322,
    "osc": 18387,
    "useful": 16502,
    "turning": 8316,
    "Ġcomforters": 25800,
    "Ġdesertion": 24787,
    "Ġtangled": 13826,
    "Ġadmires": 19684,
    "impud": 23759,
    "Ġfals": 15578,
    "anging": 3553,
    "Ġorigin": 4124,
    "mn": 3578,
    "coffin": 10662,
    "Ġappeared": 2777,
    "Ġvacancy": 9044,
    "ead": 2600,
    "Ġundiscovered": 18249,
    "Ġprofuse": 23565,
    "Ġbo": 794,
    "Ġintroduced": 7690,
    "ik": 17571,
    "Ġscientific": 6857,
    "lass": 5992,
    "Ġorbs": 22089,
    "Ġresort": 18563,
    "Ġcho": 4547,
    "Ġmore": 678,
    "Ġspecies": 5112,
    "Ġcolleague": 17159,
    "coo": 11170,
    "playing": 19656,
    "Ġswan": 23048,
    "cus": 3983,
    "Ġtanning": 17729,
    "Ġcasualty": 20340,
    "Ġevils": 9019,
    "Ġcommitted": 7431,
    "renadier": 18419,
    "Ġrelent": 18774,
    "Ġtechnique": 2419,
    "Ġprojecting": 9984,
    "Ġsod": 11561,
    "Ġquadrille": 13540,
    "Ġsatirical": 26279,
    "Ġexper": 1289,
    "happen": 19330,
    "execution": 20470,
    "ã": 164,
    "Ī": 235,
    "Ġtort": 5901,
    "Ġflush": 14423,
    "Ġsight": 2112,
    "Ġwander": 9031,
    "Ġderbyshire": 6586,
    "Ġexcept": 3315,
    "atched": 6375,
    "Ġglared": 13015,
    "shop": 14236,
    "Ġadvisable": 11442,
    "Ġwithdraw": 16964,
    "d": 72,
    "_âĢĶâĢĻ": 13681,
    "thankful": 16806,
    "Ġtruest": 16703,
    "izarre": 17388,
    "atiate": 12545,
    "Ġlanguage": 647,
    "soft": 12507,
    "Ġthackeray": 26455,
    "season": 14033,
    "Ġminute": 4281,
    "Ġtal": 7564,
    "Ġyale": 21776,
    "Ġdeclaring": 19418,
    "obvious": 9356,
    "Ġdraughts": 20220,
    "Ġfurlongs": 20722,
    "Ġreads": 23109,
    "mounting": 25207,
    "Ġaccompl": 5167,
    "Ġsockets": 22076,
    "Ġobligations": 12089,
    "Ġconsideration": 5191,
    "Ġamaze": 22480,
    "possesses": 24616,
    "Ġscorn": 7899,
    "Ġ**": 4721,
    "Ġchuck": 8501,
    "satisfy": 16892,
    "ses": 3029,
    "Ġfarther": 5954,
    "Ġbeggars": 20628,
    "Ġserving": 14485,
    "Ġvicinity": 7315,
    "Ġfearfulness": 23510,
    "Ġinfernal": 11959,
    "phren": 22755,
    "Ġcler": 11768,
    "adru": 15728,
    "Ġwinc": 9642,
    "Ġsensational": 16388,
    "Ġcompelled": 14265,
    "anque": 13887,
    "Ġenchantment": 24869,
    "Ġattended": 5391,
    "waving": 21130,
    "Ġphyset": 23197,
    "Ġshine": 12763,
    "Ġped": 6817,
    "Ġtimorous": 24225,
    "Ġwhal": 5454,
    "Ġswelled": 11087,
    "Ġstatue": 23146,
    "Ġetext": 23947,
    "Ġoars": 3898,
    "shire": 3024,
    "Ġarr": 1800,
    "Ġdoubted": 7964,
    "acious": 5563,
    "(_": 7540,
    "Ġjutting": 22298,
    "Ġmartin": 25436,
    "Ġsamuel": 10032,
    "ume": 4835,
    "Ġclean": 5652,
    "Ġfancying": 12110,
    "Ġhastening": 19335,
    "Ġsne": 6372,
    "Ġcent": 3257,
    "Ġproposed": 7460,
    "Ġindications": 14632,
    "Ġsunwards": 19011,
    "provid": 11149,
    "Ġgentleman": 3044,
    "Ġwedged": 24070,
    "Ġproximity": 3222,
    ".]": 15297,
    "Ġloses": 15871,
    "Ġtremendous": 8352,
    "your": 1985,
    "Ġmasking": 2420,
    "Ġhitting": 21485,
    "Ġtorn": 5999,
    "Ġetc": 7084,
    "Ġexcepting": 14680,
    "Ġbeats": 21749,
    "Ġenchant": 7185,
    "udding": 11863,
    "Ġdescended": 7428,
    "Ġbegun": 7243,
    "Ġjig": 15949,
    "Ġprodu": 1205,
    "Ġinfatuated": 20532,
    "speeches": 25239,
    "ifts": 12729,
    "Ġfrantically": 23256,
    "Ġconse": 21801,
    "perquisites": 26531,
    "Ġploughed": 22606,
    "except": 5383,
    "Ġtrib": 13818,
    "unwilling": 14060,
    "Ġlightnings": 16351,
    "Ġbreath": 4791,
    "fel": 8733,
    "Ġsentin": 16370,
    "Ġavenue": 13620,
    "Ġgibberish": 25786,
    "ompl": 4536,
    "Ġbridge": 8348,
    "Ġcomput": 598,
    "Ġshunned": 17292,
    "Ġincreasingly": 9370,
    "Ġwhitney": 11373,
    "Ġcovari": 2337,
    "Ġtantamount": 25625,
    "Ġrazor": 22651,
    "Ġdiscours": 18718,
    "dilig": 17282,
    "Ġnourishment": 15191,
    "Ġequilib": 4140,
    "heartily": 24215,
    "events": 12315,
    "Ġwashed": 15765,
    "Ġtill": 1823,
    "consent": 18502,
    "communication": 25881,
    "drop": 15336,
    "endured": 22217,
    "Ġrecalled": 8537,
    "ount": 1112,
    "Ġstam": 18065,
    "waste": 21133,
    "Ġembod": 14411,
    "Ġface": 1722,
    "Ġcredulous": 17144,
    "Ġdeficiencies": 26570,
    "Ġaccumul": 1410,
    "Ġmedicine": 15204,
    "inked": 12910,
    "Ġfreshet": 25704,
    "m": 81,
    "path": 10118,
    "oce": 10714,
    "Ġpassenger": 14367,
    "adventurous": 25361,
    "Ġceleb": 20224,
    "Ġthereof": 22365,
    "Ġcontour": 18474,
    "Ġeasier": 11165,
    "gely": 10700,
    "Ġhardy": 8565,
    "Ġfelix": 4848,
    "ands": 21863,
    "Ġinscrut": 10033,
    "enstein": 5799,
    "Ġsaratoga": 26423,
    "Ġdesired": 4665,
    "Ġomniscient": 20084,
    "Ġaglow": 22510,
    "Ġexceed": 1346,
    "Ġhovering": 10178,
    "eling": 6681,
    "virt": 15450,
    "Ġambitious": 18514,
    "Ġmaternal": 11059,
    "Ġswandam": 11088,
    "Ġlistener": 16474,
    "rule": 15898,
    "Ġse": 402,
    "Ġstool": 14460,
    "Ġpromontory": 11939,
    "dining": 13704,
    "âĢĺ": 940,
    "expect": 4769,
    "Ġpriest": 7526,
    "ruding": 9723,
    "Ġdealing": 14044,
    "Ġcherry": 16935,
    "sincere": 16907,
    "pulous": 15415,
    "Ġvariety": 8530,
    "adow": 18087,
    "Ġpuzz": 5533,
    "hours": 9124,
    "Ġfeared": 5930,
    "emberley": 4175,
    "beg": 22484,
    "Ġsparkling": 11356,
    "Â": 131,
    "civilities": 24971,
    "Ġyes": 2687,
    "av": 739,
    "crop": 20797,
    "itzerland": 9994,
    "Ġlocket": 22110,
    "Ġvelvets": 25393,
    "barbar": 20237,
    "sp": 892,
    "Ġquaff": 22411,
    "Ġlances": 6984,
    "Ġcreate": 2093,
    "ibility": 2390,
    "Ġimpression": 5732,
    "inities": 21184,
    "Ġcontented": 9755,
    "Ġfitness": 23997,
    "Ġinquirer": 24961,
    "Ġlubber": 17443,
    "Ġphilips": 5410,
    "skull": 24488,
    "abriel": 6950,
    "Ġinexhaustible": 16981,
    "quered": 11056,
    "catch": 17506,
    "Ġhunch": 18934,
    "Ġnameless": 7699,
    "Ġwhip": 8451,
    "Ġramble": 9312,
    "Ġconfound": 23301,
    "paying": 25411,
    "frame": 17116,
    "bellies": 19972,
    "Ġresided": 11809,
    "Ġcommanding": 16590,
    "Ġmetaphys": 16387,
    "Ġmoul": 15541,
    "mbl": 5946,
    "Ġsat": 1129,
    "Ġbronze": 22866,
    "Ġcigaret": 16976,
    "Ġuntimely": 16465,
    "Ġeasiness": 23536,
    "Ġdetected": 18837,
    "Ġerected": 12231,
    "Ġfisher": 3225,
    "almost": 4943,
    "sham": 9757,
    "miniature": 16765,
    "conjectured": 25181,
    "Ġgnashed": 20131,
    "circle": 16736,
    "Ġheld": 3587,
    "aged": 2607,
    "sales": 17667,
    "discovery": 12015,
    "un": 373,
    "Ġfinanc": 23126,
    "Ġchiswick": 25560,
    "landed": 18954,
    "Ġincludes": 2013,
    "Ġshadows": 8012,
    "Ġreminiscences": 26269,
    "Ġstudy": 1828,
    "Ġescort": 23503,
    "contr": 12055,
    "mission": 5969,
    "Ġcollins": 2182,
    "bted": 7793,
    "ouncing": 8494,
    "gate": 12464,
    "Ġaids": 12226,
    "Ġgreater": 3039,
    "Ġseparate": 5778,
    "Ġforeseeing": 23449,
    "Ġapprehens": 5682,
    "volut": 1566,
    "bitts": 26122,
    "Ġphysiognomically": 25612,
    "Ġfam": 1589,
    "en": 271,
    "Ġduke": 7755,
    "Ġdoublo": 6078,
    "regiment": 16451,
    "Ġexponentially": 1444,
    "Ġgentleness": 8709,
    "Ġmorsel": 20676,
    "Ġimmersed": 19483,
    "Ġhonorable": 16876,
    "thorough": 21982,
    "Ġsteak": 9828,
    "Ġdelineations": 26058,
    "Ġaddu": 22098,
    "sus": 6228,
    "Ġmay": 923,
    "progression": 20380,
    "Ġgales": 12662,
    "iloqu": 11647,
    "Ġtelescope": 17347,
    "invite": 25088,
    "watches": 14946,
    "Ġspouts": 7729,
    "Ġgroves": 16740,
    "Ġdevout": 14326,
    "august": 11071,
    "Ġunfathomably": 25873,
    "impetuous": 23762,
    "Ġprevention": 16091,
    "Ġtwinkle": 12321,
    "cur": 3273,
    "Ġaltar": 9228,
    "owal": 13992,
    "Ġbreathes": 13245,
    "Ġarc": 14158,
    "w": 91,
    "Ġpiteous": 17917,
    "jointed": 24007,
    "performed": 18342,
    "alarm": 15624,
    "Ġfreer": 23208,
    "quar": 7615,
    "Ġch": 512,
    "oftener": 23962,
    "soever": 11858,
    "intense": 22933,
    "invest": 11559,
    "olets": 21007,
    "dar": 20823,
    "Ġplunging": 14951,
    "vels": 5432,
    "missed": 11209,
    "Ġweld": 8111,
    "Ġusages": 15917,
    "Ġdinner": 4247,
    "Ġstorms": 11262,
    "lays": 14921,
    "sympathy": 20541,
    "who": 2446,
    "countless": 24150,
    "Ġtantalizing": 20412,
    "Ġrecollect": 8309,
    "Ġcath": 17826,
    "Ġspasmodic": 20396,
    "disreputable": 23501,
    "Ġpope": 11601,
    "masts": 19423,
    "Ġvaried": 11846,
    "symp": 14616,
    "¤": 102,
    "Ġexig": 21824,
    "Ġcooking": 16646,
    "Ġprow": 6684,
    "weaknesses": 26030,
    "Ġensued": 11394,
    "Ġassistance": 6333,
    "umphed": 23515,
    "Ġwhitened": 24867,
    "ulatory": 15764,
    "Ġplunged": 8692,
    "Ġproduced": 2452,
    "Ġdipped": 15592,
    "Ġchace": 14178,
    "Ġwol": 15528,
    "Ġyounge": 16286,
    "mitted": 5213,
    "wrinkles": 16555,
    "Ġvaguely": 17365,
    "Ĝ": 221,
    "Ġimplore": 24872,
    "Ġcouch": 12568,
    "Ġunequal": 14841,
    "dissatisfied": 26612,
    "Ġthem": 638,
    "desire": 14473,
    "concl": 12866,
    "Ġvoyages": 6908,
    "Ġopposite": 5120,
    "congratulations": 20278,
    "Ġhurled": 10429,
    "lour": 15379,
    "Ġemotions": 8969,
    "friends": 8305,
    "Ġmanor": 14196,
    "Ġindelicacy": 25695,
    "rugg": 15900,
    "anxious": 15108,
    "Ġroof": 6564,
    "gun": 10096,
    "Ġkeeps": 8266,
    "fully": 2205,
    "Ġprogress": 5023,
    "Ġhumiliating": 22883,
    "Ġmarred": 23027,
    "Ġbelie": 14405,
    "Ġpenetrated": 13471,
    "ius": 5789,
    "Ġve": 1107,
    "Ġgulp": 20027,
    "Ġperformer": 18756,
    "eth": 618,
    "Ġpractically": 13104,
    "Ġporch": 19679,
    "Ġdisliked": 12888,
    "Ġspoiled": 11363,
    "Ġcomprehens": 8319,
    "Ġutterance": 14763,
    "Ġsuits": 22078,
    "Ġfooted": 23795,
    "brandy": 19199,
    "appointment": 24056,
    "âĢĶâĢľ": 2971,
    "landlord": 9839,
    "Ġsecurity": 8977,
    "Ġonce": 1494,
    "Ġproceedings": 9906,
    "Ġalgorithms": 872,
    "Ġlandlord": 5581,
    "Ġdangers": 12352,
    "Ġunappe": 22013,
    "Ġfrom": 434,
    "Ġmemb": 14028,
    "Ġdisappearance": 9296,
    "Ġar": 479,
    "Ġcomical": 11676,
    "Ġparty": 3511,
    "Ġuncontrollable": 25814,
    "Ġcirculation": 16415,
    "representativeness": 25272,
    "contain": 18501,
    "Ġdiscussion": 17194,
    "ā": 194,
    "Ġamusing": 11798,
    "Ġmurder": 4283,
    "cond": 1667,
    "Ġtw": 842,
    "Ġimminent": 11245,
    "Ġpout": 17906,
    "Ġheroine": 24543,
    "Ġelegant": 7532,
    "Ġfanatic": 23390,
    "Ġshortly": 6196,
    "Ġbunch": 11326,
    "Ġworship": 10366,
    "Ġcoer": 22578,
    "Ġshakes": 10904,
    "Ġmixing": 24934,
    "ignified": 14490,
    "Ġfatigue": 8697,
    "bler": 11472,
    "Ġfits": 8790,
    "orn": 2243,
    "Ġexpiration": 22623,
    "interrupted": 11417,
    "----âĢĻ": 24097,
    "Ġexperienced": 6582,
    "igner": 21698,
    "Ġusher": 22221,
    "Ġretain": 7862,
    "Ġcrav": 19172,
    "Ġvariants": 1792,
    "Ġinvariable": 13455,
    "Ġplatonian": 25118,
    "Ġcontent": 5034,
    "Ġhabitations": 24789,
    "Ġbambooz": 26119,
    "Ġparticularly": 5056,
    "Ġhugest": 17015,
    "Ġidentical": 10434,
    "accur": 14593,
    "axed": 8888,
    "makes": 10711,
    "Ġbumping": 25280,
    "ause": 1311,
    "Ġscream": 5934,
    "Ġindic": 2886,
    "bun": 12436,
    "snowy": 20282,
    "Ġsnorting": 23739,
    "volume": 18588,
    "Ġpersist": 16278,
    "Ġdens": 21422,
    "sorts": 21059,
    "Ġgiver": 21602,
    "ribbed": 16410,
    "Ġge": 1978,
    "Ġindepend": 3671,
    "Ġought": 3420,
    "bies": 15311,
    "billiard": 25334,
    "Ġremainder": 9857,
    "Ġplunder": 22603,
    ";âĢĿâĢĶ": 20759,
    "fam": 5988,
    "staff": 21653,
    "Ġsnugly": 17111,
    "Ġprofile": 16487,
    "Ġprosecuted": 25293,
    "Ġenem": 4708,
    "cable": 20796,
    "admon": 21758,
    "onies": 6806,
    "steaks": 23958,
    "vult": 21112,
    "Ġcrest": 12938,
    "Ġwedded": 16674,
    "come": 2378,
    "Ġguided": 10460,
    "lasting": 8010,
    "Ġalleghan": 25795,
    "browed": 25894,
    "Ġinhabited": 12183,
    "intend": 16222,
    "Ġdangling": 17174,
    "_âĢĶâĢĻâĢĿ": 25741,
    "contains": 16028,
    "neville": 22443,
    "Ġ>": 21150,
    "ĠĠĠĠĠĠĠĠĠĠĠĠĠĠĠĠĠĠĠĠĠĠĠĠĠĠĠĠĠĠĠĠĠĠĠĠĠĠĠĠĠ": 19581,
    "iantly": 13738,
    "hounds": 20906,
    "Ġpleases": 16296,
    "D": 40,
    "Ġdifficult": 3573,
    "hoist": 23712,
    "Ġegot": 18007,
    "harbors": 20147,
    "Ġresigned": 9767,
    "Ġarsacidean": 20363,
    "hatchet": 24822,
    "Ġjoosy": 23630,
    "Ġsphere": 15877,
    "ouri": 21445,
    "eryton": 4098,
    "conv": 7213,
    "Ġtiny": 11552,
    "rifice": 12501,
    "Ġveracity": 23887,
    "Ġcucumber": 21354,
    "Ġrol": 3557,
    "/`)": 13659,
    "wedged": 24338,
    "professor": 17249,
    "round": 3369,
    "Ġpublicly": 13321,
    "Ġmute": 19414,
    "nings": 9131,
    "Ġclothed": 19605,
    "Ġfood": 5080,
    "Ġyarman": 12702,
    "Ġassail": 13060,
    "ghost": 20886,
    "Ġprotectors": 9070,
    "Ġtra": 1384,
    "agement": 4191,
    "Ġembeddings": 2183,
    "Ġcranes": 20381,
    "Ġoversampling": 20514,
    "Ġswerve": 14436,
    "Ġdeceived": 6544,
    "Ġchildren": 3770,
    "stooped": 23819,
    "men": 1488,
    "penetrating": 25490,
    "Ġth": 299,
    "Ġsubaltern": 22788,
    "unknown": 10890,
    "convul": 24883,
    "ded": 2422,
    "swing": 15428,
    "hears": 12530,
    "yarn": 15456,
    "Ġ129": 24474,
    ".": 18,
    "Ġpratt": 23217,
    "clinging": 20821,
    "sad": 11520,
    "oldened": 22638,
    "pushed": 21022,
    "troubled": 17112,
    "Ġey": 8134,
    "Ġunconscious": 9546,
    "Ġirresolute": 24916,
    "depth": 12798,
    "Ġfrank": 4420,
    "undoubtedly": 13310,
    "com": 996,
    "Ġslugg": 15267,
    "Ġgodlike": 23355,
    "Ġdong": 17887,
    "Ġmundane": 26429,
    "ired": 1445,
    "Ġcomely": 21840,
    "._)": 10480,
    "Ġpiny": 21468,
    "Ġscare": 18390,
    "Ġboasted": 16104,
    "Ġrepute": 18034,
    "ĥ": 230,
    "holder": 13281,
    "Ġexhibition": 14956,
    "Ġrapt": 7226,
    "oforte": 14285,
    "Ġmanage": 7640,
    "Ġstructural": 2799,
    "seas": 14032,
    "Ġcease": 7076,
    "ferred": 16412,
    "Ġcredit": 4818,
    "Ġclue": 7019,
    "Ġunreliable": 3930,
    "horrible": 14600,
    "Ġlikeness": 11179,
    "developed": 15263,
    "between": 5071,
    "Ġmildly": 9029,
    "sphere": 22729,
    "angry": 18294,
    "Ġaccused": 8507,
    "Ġreceptive": 1568,
    "Ġcaus": 1724,
    "Ġapprobation": 10984,
    "contrivance": 26316,
    "Ġniag": 21527,
    "ough": 470,
    "respectable": 19846,
    "sutherland": 21061,
    "imprudent": 14651,
    "lashed": 20953,
    "Ġontario": 26204,
    "Ġoppress": 13171,
    "Ġbulk": 5591,
    "reproach": 15185,
    "Ġinqu": 2966,
    "Ġstately": 9833,
    "Ġspan": 11724,
    "Ġcheever": 23281,
    "Ġshoving": 23487,
    "wich": 11543,
    "chains": 9684,
    "Ġgloomy": 7504,
    "ives": 1408,
    "diss": 17523,
    "Ġassent": 12731,
    "Ġpool": 5173,
    "Ġgrapp": 14100,
    "Ġbriskly": 25311,
    "aciously": 12904,
    "Ġgaunt": 11268,
    "ouraged": 22856,
    "Ġcelebrated": 13593,
    "Ġwines": 21286,
    "Ġwomen": 4750,
    "Ġastern": 6090,
    "instinct": 19542,
    "Ġblades": 11893,
    "Ġbaffled": 12401,
    "Ġfancies": 10424,
    "ada": 14010,
    "Ġpurposely": 10444,
    "Ġseams": 12122,
    "Ġbrings": 11878,
    "Ġtranced": 18432,
    "hole": 5586,
    "Ġnets": 21521,
    "Ġimproper": 22747,
    "ipper": 13739,
    "giv": 13721,
    "cord": 8723,
    "Ġpencils": 23192,
    "observed": 7674,
    "Ġreeds": 15693,
    "Ġoperations": 2299,
    "pockets": 16209,
    "Ġflapped": 23008,
    "Ġbright": 3217,
    "Ġharder": 14448,
    "Ġimm": 3967,
    "Ġneighbourhood": 5126,
    "Ġpalmy": 19497,
    "Ġboldness": 24428,
    "Ġhabitual": 24790,
    "Ġtrustees": 24108,
    "Ġmove": 5107,
    "Ġsap": 18323,
    "Ġmonoman": 7938,
    "Ġunderwent": 23234,
    "sy": 2743,
    "Ġsubsets": 2344,
    "tenderly": 20529,
    "knife": 6942,
    "Ġhemis": 21681,
    "Ġchar": 1705,
    "Ġdiffusion": 23781,
    "Ġouter": 6859,
    "pires": 13774,
    "profess": 10634,
    "Ġleviathans": 8281,
    "Ġfile": 13902,
    "Ġchorus": 10946,
    "Ġdz": 4756,
    "Ġcheerfulness": 10516,
    "Ġaccost": 12845,
    "onel": 3093,
    "ferences": 10326,
    "Ġcompiled": 22569,
    "Ġneur": 812,
    "Ġnodes": 1967,
    "idav": 18092,
    "Ġbush": 23333,
    "Ġeth": 17716,
    "Ġsketches": 26270,
    "achus": 18283,
    "grass": 23411,
    "particular": 5757,
    "response": 25762,
    "atre": 17770,
    "Ġwherever": 8523,
    "Ġminority": 18752,
    "Ġobe": 5800,
    "Ġrequisite": 18650,
    "Ġpicking": 11259,
    "were": 2561,
    "Ġevangelical": 25506,
    "Ġade": 22097,
    "mentioned": 10623,
    "Ġrus": 14091,
    "Ġexterm": 21827,
    "Ġinfirmity": 26298,
    "Ġpartially": 13122,
    "Ġdepartments": 24242,
    "turkish": 24533,
    "estic": 4956,
    "Ġconversed": 13187,
    "neighboring": 20615,
    "proud": 9903,
    "acceler": 23597,
    "²": 115,
    "Ġzoology": 22818,
    "historian": 25735,
    "eminent": 25104,
    "Ġproced": 2581,
    "Ġturkish": 12259,
    "Ġrepent": 9862,
    "Ġbrowne": 13300,
    "meditation": 19066,
    "Ġgarnery": 17386,
    "Ġminus": 18749,
    "Ġtreachery": 15100,
    "Ġgradients": 609,
    "bodily": 17314,
    "derbyshire": 18321,
    "Ġblankets": 24611,
    "Ġsmite": 22554,
    "Ġpleasantly": 14520,
    "Ġoverlook": 10959,
    "Ġhail": 7400,
    "Ġfitted": 6243,
    "nothing": 3156,
    "abilities": 3240,
    "comrade": 20623,
    "trowsers": 17691,
    "Ġprovoked": 13324,
    "Ġhimmalehs": 26230,
    "bulk": 19923,
    "Ġsatisfied": 4176,
    "Ġprotect": 6337,
    "Ġdefence": 11067,
    "Ġhonor": 5664,
    "wont": 21131,
    "Ġpuzzling": 14897,
    "Ġjoin": 4853,
    "Ġattained": 14077,
    "Ġrecovery": 11441,
    "Ġexcused": 23310,
    "Ġarrived": 3749,
    "Ġnetwork": 453,
    "Ġlevi": 3036,
    "Ġopulence": 23626,
    "rence": 5555,
    "didn": 9006,
    "Ġcharacteristic": 12046,
    "Ġit": 339,
    "ynolds": 10035,
    "Ġmole": 11789,
    "Ġmagg": 18905,
    "Ġ55": 24323,
    "Ġkrusen": 20713,
    "Ġencouraging": 2263,
    "Ġstare": 10864,
    "Ġcontempt": 6275,
    "sleeve": 26108,
    "oarsman": 25261,
    "Ġmonotonically": 3835,
    "âĢĶâĢĶâĢĿ": 15937,
    "Ġrepugnance": 19086,
    "Ġducks": 25157,
    "ellations": 21941,
    "Ġvernal": 23886,
    "escaped": 14230,
    "pence": 15408,
    "corner": 13396,
    "Ġincess": 8430,
    "Ġenc": 966,
    "poor": 6060,
    "Ġheroes": 10576,
    "Ġtipped": 17728,
    "Ġjunk": 15951,
    "Ġyonder": 7392,
    "Ġgod": 1936,
    "fourth": 11328,
    "Ã¦us": 14816,
    "Ġuncertain": 4070,
    "ature": 518,
    "tranqu": 14705,
    "Ġscraggy": 24579,
    "ufactured": 15180,
    "tum": 11531,
    "intention": 10367,
    "completely": 12418,
    "Ġanaly": 1139,
    "Ġmeditation": 16680,
    "Ġperched": 10299,
    "Ġdomin": 10461,
    "Ġdejection": 15195,
    "Ġmemoirs": 26205,
    "soul": 9140,
    "Ġportcull": 23861,
    "Ġtraitors": 23074,
    "Ġostens": 25275,
    "ansion": 10925,
    "Ġstrength": 4262,
    "Ġcottage": 4734,
    "Ġforgery": 25977,
    "he": 264,
    "Ġmagical": 23095,
    "chop": 21685,
    "Ġthundering": 24291,
    "Ġcomplicated": 14734,
    "Ġxli": 14542,
    "Ġtimely": 19593,
    "Ġensure": 23687,
    "Ġgirls": 4282,
    "afer": 17481,
    "Ġmerest": 14029,
    "atter": 648,
    "ather": 740,
    "witted": 17707,
    "Ġdemi": 25548,
    "screen": 22993,
    "omically": 13975,
    "Ġringle": 18210,
    "Ġpersian": 11090,
    "eled": 2359,
    "Ġpropensity": 18996,
    "Ġaltern": 7394,
    "iastic": 12477,
    "Ġagreeably": 24952,
    "Ġticking": 25033,
    "tes": 11528,
    "Ġknave": 11272,
    "Ġconnections": 973,
    "Ġcaucus": 17379,
    "forehead": 8515,
    "us": 532,
    "Ġdrow": 21424,
    "Ġrelative": 11881,
    "Ġacquiescence": 20329,
    "wrapped": 15208,
    "iday": 8829,
    "Ġexpress": 2198,
    "Ġkneel": 14806,
    "borrowed": 20791,
    "Ġshaded": 14104,
    "difference": 13707,
    "entle": 1739,
    "Ġdiffered": 22708,
    "Ġtransient": 18508,
    "Ġsometimes": 2166,
    "Ġdying": 2136,
    "ĠâĢĺ_": 11116,
    "cock": 12024,
    "6": 26,
    "Ġlieu": 19563,
    "Ġrallied": 14094,
    "misery": 13342,
    "Ġflashed": 11911,
    "pursuit": 20339,
    "Ġshudder": 9050,
    "estate": 12818,
    "Ġbone": 4695,
    "Ġdrifting": 19278,
    "Ġrepresent": 1211,
    "Ġhunsford": 6301,
    "surprised": 9530,
    "Ġscorched": 17101,
    "perishing": 22178,
    "Ġhumming": 12983,
    "problem": 25244,
    "Ġcomputation": 965,
    "Ġalluded": 7886,
    "Ġjove": 9267,
    "instruct": 19541,
    "Ġimplicit": 19956,
    "heavy": 10574,
    "Ġwaiter": 16358,
    "franch": 24284,
    "Ġgods": 6454,
    "Ġtrod": 15026,
    "Ġ133": 24783,
    "fem": 17537,
    "Ġimp": 573,
    "nect": 664,
    "Ġrattling": 11395,
    "aces": 2070,
    "Ġroar": 9752,
    "Ġloose": 4649,
    "E": 41,
    "Ġsublimity": 26345,
    "bpp": 20771,
    "Ġegyptian": 13585,
    "Ġwaifing": 25243,
    "ĠcÃ¦sar": 20578,
    "Ġhealthy": 10851,
    "Ġcaused": 5048,
    "bare": 12439,
    "Ġquestions": 3974,
    "Ġcomparing": 14264,
    "ourable": 4967,
    "Ġtormented": 8674,
    "Ġwere": 556,
    "Ġidolator": 19996,
    "Ġmethodically": 23113,
    "do": 1996,
    "Ġmark": 2330,
    "picture": 11407,
    "Ġbudge": 15163,
    "erve": 12546,
    "Ġpoul": 15610,
    "Ġabundance": 17155,
    "orphans": 26440,
    "Ġpre": 506,
    "Ġ86": 24461,
    "uits": 21103,
    "going": 6313,
    "Ġcombat": 16179,
    "Ġdetermined": 2224,
    "Ġu": 324,
    "Ġdemanding": 16805,
    "Ġfatigued": 13464,
    "insurance": 18886,
    "itchen": 7787,
    "Ġpatentee": 25586,
    "Ġvig": 5460,
    "Ġimpact": 10293,
    "Ġresearches": 13117,
    "Ġscrutiny": 26015,
    "Ġninety": 13600,
    "rudent": 6482,
    "Ġmode": 8499,
    "90": 12430,
    "uber": 15444,
    "victim": 25530,
    "Ġpatroness": 13509,
    "paid": 15413,
    "Ġunduly": 25994,
    "oment": 920,
    "encies": 4084,
    "Ġwindings": 18909,
    "Ġlazily": 11380,
    "Ġoffending": 22738,
    "arious": 10317,
    "Ġpersecut": 16952,
    "uring": 817,
    "Ġwhis": 3505,
    "Ġengaged": 3430,
    "Ġgodly": 19080,
    "witness": 10034,
    "ex": 621,
    "Ġbillows": 7502,
    "Ġstudent": 14480,
    "Ġscaramouch": 23825,
    "ourse": 8869,
    "Ġinch": 7849,
    "barrel": 17060,
    "Ġcards": 7580,
    "Ġstupid": 7603,
    "Ġxxx": 7766,
    "barn": 17482,
    "Ġsociet": 9448,
    "Ġleadenhall": 16628,
    "Ġbeaten": 10528,
    "Ġarmies": 16492,
    "immense": 18052,
    "Ġshut": 3943,
    "hear": 10146,
    "sixty": 24852,
    "Ġlim": 2381,
    "Ġsatisfying": 23696,
    "Ġdaresay": 14703,
    "itude": 1416,
    "yset": 21144,
    "Ġundeniable": 26510,
    "Ġbarque": 23789,
    "insanity": 23064,
    "Ġteased": 18807,
    "arabian": 26446,
    "Ġchiselled": 25559,
    "Ġattentions": 5877,
    "Ġdealer": 23974,
    "Ġnantucketer": 6914,
    "sadly": 25526,
    "Ġweal": 21916,
    "covery": 11171,
    "omist": 21635,
    "Ġadm": 2401,
    "erns": 8777,
    "ondency": 15268,
    "Ġpanthe": 19652,
    "Ġbleeds": 24397,
    "Ġjail": 22291,
    "Ġtools": 11608,
    "accents": 19210,
    "nx": 17607,
    "urre": 10856,
    "Ġrighted": 23175,
    "ling": 735,
    "Ġwriggling": 15256,
    "shortly": 12256,
    "Ġpreprocess": 22230,
    "Ġpitch": 5767,
    "ave": 980,
    "Ġmostly": 7663,
    "Ġplus": 3884,
    "Ġproves": 14037,
    "Ġraptures": 13496,
    "cence": 9588,
    "Ġ(`": 12850,
    "Ġdoesn": 7438,
    "Ġmechanis": 1189,
    "Ġrecurred": 18976,
    "Ġvehem": 22888,
    "Ġlie": 4407,
    "yourselves": 24956,
    "Ġgeneva": 5450,
    "Ġencaps": 12959,
    "Ġcollecting": 12284,
    "Ġjunior": 15098,
    "compar": 14357,
    "Ġstole": 7952,
    "Ġboast": 7034,
    "ges": 2873,
    "general": 7489,
    "suit": 18630,
    "gorge": 22334,
    "Ġshrieks": 12197,
    "l": 80,
    "Ġstem": 15716,
    "arest": 4008,
    "investments": 25532,
    "creation": 14805,
    "Ġrespecting": 14483,
    "jam": 15370,
    "Ġrustic": 14964,
    "Ġsupp": 1264,
    "Ġtener": 21162,
    "intern": 23734,
    "ight": 403,
    "pudding": 17647,
    "arr": 3048,
    "resp": 13838,
    "lydia": 6826,
    "inction": 6660,
    "Ġmanagement": 8192,
    "erpillar": 5797,
    "Ġlisten": 4674,
    "Ġpenal": 1772,
    "Ġsubt": 11866,
    "Ġvivacious": 19814,
    "aps": 1229,
    "Ġhammock": 5768,
    "Ġmule": 13861,
    "lower": 8880,
    "Ġsavory": 23874,
    "Ġmccauley": 26427,
    "Ġdelivered": 11114,
    "securing": 19812,
    "Ġslaughtered": 26584,
    "Ġkitchen": 8495,
    "admirably": 24944,
    "kinder": 24845,
    "expressing": 16801,
    "yra": 8102,
    "Ġ37": 24078,
    "Ġinvincible": 23478,
    "Ġtradesman": 20071,
    "impatient": 13639,
    "Ġjeopardy": 13595,
    "warmly": 25026,
    "Ġoblique": 20168,
    "Ġimpart": 11778,
    "Ġdrinks": 24279,
    "Ġintelligent": 1625,
    "Ġrevolving": 9982,
    "Ġsocial": 7006,
    "Ġjewell": 19519,
    "Ġmiles": 3806,
    "Ġverdict": 13474,
    "Ġlonging": 14298,
    "Ġextinguished": 10345,
    "hill": 15361,
    "Ġloath": 7890,
    "Ġtwelvemonth": 12175,
    "Ġelizabeth": 1127,
    "requ": 7148,
    "Ġocc": 884,
    "Ġpresume": 8037,
    "Ġpeddling": 24799,
    "nlp": 8750,
    "Ġmouthfuls": 20645,
    "Ġabusive": 22280,
    "crimes": 16697,
    "hus": 5072,
    "fearing": 18529,
    "Ġmoot": 22427,
    "crowd": 25254,
    "ppa": 10239,
    "illar": 5101,
    "Ġwisely": 13271,
    "Ġheroic": 14907,
    "contained": 22462,
    "proves": 23392,
    "Ġguineas": 16270,
    "Ġclerks": 17294,
    "Ġtypewriter": 19097,
    "ry": 807,
    "ucy": 15443,
    "tin": 6116,
    "Ġtroublesome": 23999,
    "Ġleader": 14701,
    "iard": 9601,
    "Ġkuiperai": 10935,
    "Ġprecipitous": 24835,
    "Ġastonished": 7087,
    "Ġconsiderable": 4010,
    "Ġcopper": 7425,
    "ta": 13788,
    "Ġintimate": 6549,
    "vic": 13801,
    "err": 1137,
    "Ġsharks": 4497,
    "brit": 19196,
    "aceti": 7111,
    "Ġphrenologist": 25607,
    "Ġstiggs": 25792,
    "Ġstatistical": 11104,
    "Ġreputed": 18035,
    "aware": 16293,
    "society": 9971,
    "Ġadver": 5641,
    "Į": 239,
    "Ġstarve": 24625,
    "Ġindestructible": 26572,
    "over": 1844,
    "fic": 20851,
    "Ġswimming": 5507,
    "Ġkidn": 20204,
    "Ġsegment": 12754,
    "Ġhoard": 23350,
    "Ġdilatory": 24705,
    "poss": 4778,
    "Ġgazing": 5875,
    "instrument": 15237,
    "Ġinheriting": 25354,
    "Ġcopies": 24935,
    "Ġsolar": 22884,
    "Ġpeace": 3695,
    "Ġpassages": 12967,
    "note": 14338,
    "Ġsuperstitious": 13519,
    "Ġengage": 9334,
    "socket": 22725,
    "Ġpleasure": 2693,
    "burg": 16773,
    "spouter": 22730,
    "abilizing": 2925,
    "Ġhelplessness": 25071,
    "Ġweep": 7619,
    "Ġgambler": 26190,
    "Ġoperation": 11997,
    "Ġaisle": 21200,
    "Ġfeather": 8859,
    "impenetrable": 26196,
    "Ġgrace": 5374,
    "Ġfrolic": 23921,
    "Ġenumerating": 15243,
    "Ġmarried": 3408,
    "Ġcomo": 21839,
    "Ġunquestionable": 26221,
    "Ġbumpkin": 20199,
    "intimate": 22934,
    "Ġborders": 15569,
    "Ġcarbuncle": 14444,
    "Õ": 150,
    "O": 51,
    "Ġheron": 22070,
    "Ġinstruction": 14340,
    "Ġsword": 6732,
    "Ġunqualified": 22056,
    "Ġuneasiness": 9483,
    "orand": 21395,
    "Ġheartfelt": 18967,
    "bride": 19198,
    "Ġchristianity": 19860,
    "quite": 4647,
    "Ġbuff": 9172,
    "Ġprudent": 9185,
    "impotence": 23760,
    "gement": 13728,
    "uttural": 21586,
    "acquainted": 7313,
    "Ġdir": 21419,
    "unvarying": 21884,
    "Ġcru": 2823,
    "Ġfall": 2989,
    "Ġinterpreter": 23212,
    "Ġdespise": 14665,
    "grampus": 18617,
    "Ġagitated": 7647,
    "dismal": 23495,
    "Ġlaunched": 14925,
    "Ġbru": 13894,
    "Ġembrace": 16990,
    "Ġbennets": 9805,
    "Ġvict": 3765,
    "beards": 22488,
    "suggested": 17298,
    "Ġmartyr": 26360,
    "Ġmile": 7151,
    "Ġunsur": 22017,
    "Ġcandelab": 23846,
    "Ġcraggy": 23527,
    "Ġsteal": 16282,
    "tedious": 22630,
    "Ġdrank": 16535,
    "gl": 3293,
    "Ġgreat": 895,
    "Ġdescrib": 2719,
    "Ġdetailed": 12821,
    "Ġder": 1500,
    "Ġsuperb": 16444,
    "Ġsenses": 8251,
    "Ġfirmness": 11238,
    "etime": 12656,
    "Ġuncivil": 11155,
    "Ġconfines": 23302,
    "xible": 13807,
    "Ġbrush": 17864,
    "repressed": 21242,
    "Ġtang": 13813,
    "Ġdomains": 6611,
    "Ġsixpence": 19316,
    "Ġcalled": 1972,
    "Ġbetake": 22902,
    "orum": 12587,
    "wherein": 19107,
    "Ġinanimate": 13932,
    "russian": 22186,
    "cares": 24309,
    "Ġquiet": 3264,
    "Ġfake": 5810,
    "Ġexercise": 8358,
    "Ġlabelled": 23326,
    "Ġalgorith": 566,
    "Ê": 139,
    "Ġdiffers": 23780,
    "Ġkindly": 6077,
    "description": 11094,
    "Ġshown": 5159,
    "fill": 15349,
    "Ġcrosswise": 18884,
    "daring": 20828,
    "Ġappear": 2489,
    "Ġcertainty": 6734,
    "mark": 5281,
    "fulfilment": 26025,
    "20": 20752,
    "Ġstuck": 9220,
    "Ġlydia": 2375,
    "Ġalready": 2713,
    "Ġconveys": 16855,
    "Ġmil": 4257,
    "eteenth": 20156,
    "Ġtid": 8106,
    "hab": 1080,
    "gered": 9275,
    "Ġslit": 13054,
    "Ġinflex": 20633,
    "Ġfrequencies": 4789,
    "Ġmot": 2987,
    "Ġconfining": 23303,
    "security": 26206,
    "Ġbelieved": 4369,
    "Ġadvoc": 12986,
    "Ġfaithful": 9502,
    "Ġhospit": 7514,
    "Ġoccurrences": 11050,
    "ensed": 10995,
    "Ġtents": 13817,
    "Ġprofessor": 11230,
    "Ġargu": 10934,
    "ern": 758,
    "clusion": 16303,
    "racted": 4776,
    "ascribed": 24708,
    "Ġnantucketers": 9894,
    "Ġpurchase": 12257,
    "narwhale": 17317,
    "Ġscoundrel": 13669,
    "ofs": 11828,
    "Ġincor": 2610,
    "Ġfuriously": 9801,
    "Ġlub": 15646,
    "Ġfunctions": 1342,
    "Ġvessels": 6755,
    "Ġrapid": 1458,
    "Ġannual": 14831,
    "Ġdecorum": 16018,
    "Ġveins": 8931,
    "Ġdeprec": 15755,
    "hies": 17560,
    "Ġreaching": 7303,
    "Ġtriumph": 5143,
    "Ġinject": 2712,
    "Ġconstruct": 23338,
    "Ġaggreg": 12881,
    "step": 2457,
    "Ġbasin": 19847,
    "Ġaffl": 14385,
    "produce": 20281,
    "rimin": 2424,
    "Ġinvade": 19142,
    "algorithm": 3648,
    "bal": 2156,
    "Ġwomanly": 23550,
    "revealed": 20414,
    "Ġadds": 1806,
    "Ġplatform": 17131,
    "Ġmund": 21317,
    "Ġlimping": 23545,
    "compose": 24029,
    "Ġbarely": 16936,
    "Ġhurrah": 9868,
    "early": 20117,
    "Ġponderous": 8354,
    "Ġboundary": 11222,
    "provided": 13636,
    "Ġinhuman": 13928,
    "prises": 23811,
    "eler": 1577,
    "inery": 17733,
    "msman": 9269,
    "Ġunaccount": 22022,
    "Ġannoy": 17198,
    "falsehood": 25901,
    "Ġgrowl": 16538,
    "Ġvagabond": 20202,
    "telesc": 22813,
    "Ġsimply": 7218,
    "arthy": 4822,
    "whatever": 6694,
    "Ġcross": 1371,
    "iled": 1764,
    "Ġtimidly": 11338,
    "Ġunlike": 7004,
    "Ġsafety": 6339,
    "Ġforb": 11662,
    "âĢĻ-": 18166,
    "Ġdefici": 22940,
    "ous": 477,
    "enthus": 17977,
    "prepar": 22458,
    "Ġstrung": 22612,
    "Ġcrossed": 6068,
    "Ġgrope": 17994,
    "Ġrecede": 25968,
    "âĢĶâĢľ_": 13203,
    "ilated": 18057,
    "thro": 12758,
    "Ġliver": 14227,
    "Ġled": 3522,
    "Ġcomra": 7183,
    "Ġwrongfully": 24248,
    "Ġplant": 8899,
    "Ġstronger": 8578,
    "anely": 17836,
    "Ġmercifully": 20177,
    "quet": 6835,
    "classification": 4388,
    "Ġlady": 1590,
    "Ġprivate": 5345,
    "Ġthro": 5817,
    "Ġslime": 23158,
    "Ġpossible": 2586,
    "ants": 1390,
    "Ġfinancial": 23127,
    "tained": 4406,
    "Ġcruise": 12047,
    "Ġappertain": 22210,
    "Ġproposals": 10613,
    "master": 5687,
    "Ġdined": 9176,
    "Ġlayers": 815,
    "Ġportable": 19368,
    "Ġorganizations": 12312,
    "Ġrelinquish": 17346,
    "Ġarsacides": 17293,
    "Ġarrog": 18337,
    "Ġtrifles": 16951,
    "blame": 14793,
    "murderers": 25728,
    "relieved": 13275,
    "helped": 18923,
    "ose": 717,
    "Ġstiffly": 15005,
    "bur": 4687,
    "Ġthick": 3784,
    "Ġlancaster": 26340,
    "forest": 22514,
    "does": 6194,
    "Ġwhale": 627,
    "worth": 8626,
    "Ġenvelopes": 24510,
    "accompan": 11452,
    "Ġbacked": 12923,
    "inders": 15978,
    "Ġbrow": 3992,
    "Ġmeadows": 11422,
    "Ġutter": 3976,
    "Ġrod": 9279,
    "Ġcontribute": 12858,
    "Ġprint": 18969,
    "marked": 9048,
    "Ġkitty": 3910,
    "urbed": 15706,
    "Ġric": 18209,
    "Ġamusement": 8055,
    "here": 2552,
    "ivided": 22083,
    "dri": 5887,
    "out": 467,
    "Ġparch": 11728,
    "Ġredden": 15691,
    "Ġquieted": 23840,
    "Ġdecreases": 3410,
    "Ġunembarrassed": 22064,
    "Ġdominant": 12394,
    "Ġsutherland": 10148,
    "Ġimplicated": 24875,
    "83": 13679,
    "Ġsaleve": 17390,
    "Ġserv": 3331,
    "Ġindispensable": 11898,
    "spirits": 8054,
    "Ġstaggers": 24653,
    "Ġvanquished": 22874,
    "beries": 22714,
    "probably": 10019,
    "Ġanswerable": 23469,
    "whiskers": 12309,
    "Ġquantity": 6948,
    "Ġset": 1179,
    "woe": 21134,
    "Ġportions": 19367,
    "Ġhart": 17921,
    "Ġ83": 24459,
    "Ġlevel": 5020,
    "Ġshrubbery": 18232,
    "Ġphilosophy": 7103,
    "Ġequally": 5257,
    "Ġstar": 6022,
    "Ġalternative": 19985,
    "Ġrange": 9711,
    "Ġseparately": 13301,
    "orph": 21397,
    "spoutings": 25001,
    "offic": 7466,
    "bel": 3837,
    "Ġpursued": 6328,
    "Ġyour": 633,
    "judge": 13335,
    "Ġcommentators": 25229,
    "Ġcamp": 9164,
    "Ġcharitable": 23267,
    "fleet": 15013,
    "Ġmanilla": 15957,
    "resum": 17761,
    "Ġspoils": 24808,
    "Ġconcerns": 11965,
    "zers": 21145,
    "doing": 8584,
    "Ġdelightful": 6320,
    "Ġgrapes": 15214,
    "Ġchord": 22242,
    "Ġriggers": 24156,
    "Ġreports": 19084,
    "arp": 2028,
    "Ġdancing": 5703,
    "Ġwhit": 7177,
    "Ġcoil": 11816,
    "erson": 7002,
    "intolerable": 22935,
    "pread": 7418,
    "Ġimprovements": 14514,
    "Ġlaborious": 13101,
    "Ġoptimizer": 5036,
    "Ġawful": 6199,
    "Ġsanct": 15062,
    "wandered": 20284,
    "Ġcasual": 11409,
    "Ġinconsist": 17935,
    "avor": 14276,
    "Ġformer": 3325,
    "ables": 7889,
    "leaning": 10790,
    "Ġsiamese": 20481,
    "Ġvirtues": 9935,
    "depart": 12263,
    "ren": 549,
    "Ġbowlines": 19321,
    "Ġmoby": 3668,
    "ivered": 7005,
    "Ġcoach": 6867,
    "Ġmatrimonial": 25489,
    "Ġresolving": 9418,
    "Ġabused": 22276,
    "coronet": 16863,
    "sust": 15421,
    "works": 6588,
    "Ġprovided": 6577,
    "concerted": 16671,
    "Ġsecre": 5493,
    "Ġgourmand": 26466,
    "Ġtierce": 15477,
    "uvian": 12240,
    "coff": 9108,
    "carried": 16711,
    "happening": 16564,
    "overhearing": 19050,
    "Ġshirr": 18231,
    "Ġsaucer": 20604,
    "Ġrelatives": 12979,
    "Ġunch": 18236,
    "Ġflint": 23006,
    "attempts": 17190,
    "Ġfraud": 19026,
    "Ġdispel": 16596,
    "gerine": 22887,
    "Ġstarlight": 24626,
    "Ġlumps": 21553,
    "Ġsunshine": 14494,
    "Ġbook": 2701,
    "iable": 3336,
    "Ġfruitless": 25605,
    "Ġquest": 2003,
    "tan": 4742,
    "andromeda": 21865,
    "murmured": 24455,
    "ise": 707,
    "Ġpeering": 8534,
    "sue": 2078,
    "Ġwounds": 17790,
    "ining": 3224,
    "Ġxlvi": 25590,
    "erable": 1916,
    "rocious": 21536,
    "Ġwalton": 14971,
    "Ġdetestable": 15097,
    "precision": 4333,
    "Ġoldest": 12971,
    "Ġgenerally": 4161,
    "Ġfalse": 4345,
    "Ġobeyed": 12214,
    "vel": 2385,
    "cooper": 19188,
    "Ġbet": 1131,
    "istics": 1630,
    "Ġsolution": 9804,
    "Ġembatt": 18842,
    "Ġclings": 15961,
    "outside": 12801,
    "ni": 1655,
    "ages": 827,
    "sharpening": 22456,
    "queer": 10363,
    "Ġincredulous": 9986,
    "Ġwantonly": 22891,
    "Ġpa": 2991,
    "Ġknowingly": 18480,
    "Ġthroat": 7770,
    "aggoo": 5130,
    "Ġfranc": 16350,
    "Ġinstant": 2703,
    "Ġaid": 6122,
    "Ġ56": 24324,
    "Ġdisplays": 19856,
    "light": 3020,
    "osp": 6854,
    "Ġeffaced": 18541,
    "Ġcongratulate": 9063,
    "Ġparl": 8177,
    "Ġsoundings": 13132,
    "Ġrevolution": 3307,
    "Ġtechniques": 2867,
    "blows": 17165,
    "Ġbox": 5109,
    "Ġfrigate": 13080,
    "Ġfool": 4238,
    "Ġlip": 6532,
    "Ġsucked": 14136,
    "scure": 22985,
    "shazz": 14240,
    "Ġshifting": 12765,
    "Ġobjection": 6585,
    "Ġslumbers": 18941,
    "Ġtong": 4870,
    "injured": 15131,
    "Ġcaravan": 26290,
    "Ġshiny": 14105,
    "erated": 21269,
    "feren": 766,
    "Ġwraps": 19775,
    "appin": 18759,
    "Ġanne": 1531,
    "cho": 2761,
    "Ġodor": 12147,
    "county": 25396,
    "Ġerrand": 11085,
    "Ġdata": 516,
    "Ġobtruded": 20721,
    "@": 36,
    "bread": 10684,
    "umerable": 11723,
    "Ġbutt": 14125,
    "Ġlimits": 3455,
    "gallant": 7780,
    "rote": 4592,
    "Ġacquaintances": 17349,
    "Ġcoolness": 16886,
    "Ġrepose": 6741,
    "å": 166,
    "Ġdisdain": 8359,
    "Ġ156": 20169,
    "Ġlongbourn": 3509,
    "Ġscept": 15502,
    "Ġwhom": 1830,
    "Ġvineyarder": 25606,
    "Ġplants": 22599,
    "Ġrevisit": 21667,
    "structure": 2367,
    "Ġripp": 11219,
    "Ġundec": 22014,
    "derer": 4600,
    "shining": 18490,
    "soc": 5175,
    "rying": 3188,
    "n": 82,
    "Ġlarboard": 11009,
    "Ġstingy": 25455,
    "hills": 13735,
    "idated": 11660,
    "Ġweighted": 2092,
    "Ġgames": 11625,
    "leag": 21364,
    "wester": 21137,
    "Ġchanc": 18384,
    "Ġsavi": 18325,
    "Ġowning": 18744,
    "Ġbureau": 11589,
    "Ġfeminine": 15262,
    "ear": 8730,
    "Ġdissembling": 26254,
    "pense": 10368,
    "Ġaf": 782,
    "Ġdemand": 4947,
    "binder": 17499,
    "Ġfairly": 6325,
    "Ġdeclining": 23961,
    "lost": 8887,
    "Ġquartered": 20371,
    "Ġca": 21337,
    "Ġretribution": 16280,
    "Ġ135": 24785,
    "Ġmanhandle": 22326,
    "Ġprofanely": 23569,
    "Ġleading": 7297,
    "possibly": 10543,
    "Ġaccomplish": 14875,
    "Ġboiling": 8525,
    "ott": 1872,
    "Ġdiminishing": 4212,
    "prosper": 19100,
    "deck": 4500,
    "Ġboots": 5942,
    "perceived": 8858,
    "glo": 8737,
    "Ġjabez": 11764,
    "laid": 10109,
    "rah": 8136,
    "Ġunfrequ": 19507,
    "Ġpompous": 20421,
    "emone": 21924,
    "ainted": 3662,
    "Ġdeputation": 21836,
    "gings": 7549,
    "make": 5793,
    "âĢĻâĢĶ": 12733,
    "Ġaccusation": 22388,
    "Ġacres": 14312,
    "herent": 2533,
    "Ġcensure": 15094,
    "Ġrestrained": 16371,
    "Ġushered": 18361,
    "Ġconvolutional": 2162,
    "eland": 11619,
    "Ġcrowder": 19454,
    "bec": 4055,
    "somerset": 26322,
    "Ġcomm": 840,
    "Ġpairs": 4185,
    "Ġinterview": 9769,
    "Ġsignal": 5944,
    "Ġannouncement": 14832,
    "strangely": 17276,
    "Ġsoap": 14130,
    "innocence": 15182,
    "gratification": 24348,
    "Ġapparent": 5466,
    "Ġheaths": 25972,
    "Ġknife": 7309,
    "Ġwarmest": 16483,
    "Ġott": 13865,
    "Ġlurking": 11289,
    "Ġdevote": 10338,
    "Ġlighter": 12650,
    "moil": 22702,
    "Ġoverspread": 14205,
    "Ġphrases": 2798,
    "ars": 904,
    "Ġopenly": 8572,
    "solely": 19815,
    "Ġtumbling": 13825,
    "library": 12996,
    "writing": 7720,
    "ineff": 21977,
    "Ġfoam": 6891,
    "Ġascribe": 16782,
    "Ġfirmest": 16664,
    "Ġdispersed": 16597,
    "Ġenraptured": 26500,
    "leo": 21362,
    "Ġcorrob": 16265,
    "Ġarrang": 2470,
    "Ġsleepers": 13148,
    "Ġug": 8140,
    "rian": 10241,
    "darcy": 5208,
    "Ġattracted": 8904,
    "Ġpurely": 12229,
    "ging": 2601,
    "miserably": 24210,
    "ime": 625,
    "ductive": 23933,
    "Ġhuff": 21487,
    "saf": 11524,
    "speak": 5504,
    "Ġheartily": 6890,
    "stri": 6249,
    "securer": 25602,
    "Ġsymptom": 13482,
    "Ġexplaining": 15958,
    "faint": 17545,
    "histor": 13490,
    "Ġwhereas": 3856,
    "ascended": 24706,
    "irited": 15784,
    "L": 48,
    "Ġoppressively": 25712,
    "Ġquick": 2583,
    "aire": 10680,
    "Ġexpatiate": 18626,
    "develop": 13517,
    "Ġsherry": 19449,
    "amouch": 21848,
    "Ġjackal": 24239,
    "goodbye": 12054,
    "shipping": 10306,
    "sof": 17657,
    "relatively": 24011,
    "Ġinvoked": 19144,
    "Ġzeros": 3327,
    "Ġinterest": 2248,
    "Ġsmoothed": 23658,
    ";âĢĿ": 7790,
    "orative": 21396,
    "hard": 4690,
    "?_âĢĿ": 12314,
    "Ġostentatious": 25736,
    "weather": 7229,
    "Ġapproving": 18500,
    "Ġgeneralization": 985,
    "Ġvagu": 13588,
    "apprec": 22838,
    "letters": 13173,
    "jaws": 20931,
    "Ġbee": 21746,
    "anke": 15558,
    "desirable": 23204,
    "Ġrudimental": 25108,
    "pie": 21010,
    "Ġcongrat": 5827,
    "Ġvisibly": 22849,
    "Ġdelights": 14596,
    "Ġframed": 19027,
    "teenth": 11872,
    "Ġchimneys": 16972,
    "Ġstrive": 23692,
    "Ġgrateful": 7659,
    "travellers": 24318,
    "Ġcastors": 23973,
    "Ġvulgar": 13603,
    "true": 2587,
    "Ġmanaging": 22322,
    "Ġintervene": 25480,
    "Ġemotion": 7689,
    "shame": 16021,
    "wore": 21123,
    "spee": 9316,
    "Ġlory": 12649,
    "vishnoo": 21118,
    "Ġhig": 754,
    "Ġconvul": 13202,
    "Ġcauldron": 25441,
    "Ġmazes": 25940,
    "Ġpromised": 5181,
    "bil": 20770,
    "Ġsatisfaction": 5667,
    "anks": 3917,
    "Ġcomfor": 14051,
    "Ġtints": 17727,
    "Ġendued": 14076,
    "Ġpicturesqueness": 24480,
    "Ġtease": 18806,
    "Ġhovers": 19078,
    "hence": 16624,
    "Ġsafely": 9025,
    "remem": 13064,
    "Ġinequal": 21494,
    "Ġcountenances": 11962,
    "luxur": 25822,
    "Ġconsent": 5372,
    "assumed": 22304,
    "Ġtravell": 5576,
    "Ġmillions": 11354,
    "feeling": 6616,
    "Ġlunatic": 24990,
    "have": 2059,
    "yonder": 21143,
    "hearts": 13343,
    "ridge": 9496,
    "reast": 17758,
    "Ġexasperate": 20096,
    "pointed": 9809,
    "Ġcherished": 10590,
    "Ġtempered": 12920,
    "Ġnoiseless": 10357,
    "Ġboone": 11838,
    "Ġprevented": 5941,
    "Ġexpand": 9306,
    "Ġblight": 18817,
    "Ġparr": 22133,
    "Ġhum": 1099,
    "Ġscience": 1508,
    "marry": 13322,
    "Ġgigantic": 5914,
    "hr": 20887,
    "Ġcalf": 16266,
    "onent": 21247,
    "umbled": 8492,
    "morning": 4859,
    "Ġscant": 22263,
    "Ġjumped": 7096,
    "overed": 2853,
    "Ġyields": 19655,
    "Ġsneezes": 24698,
    "Ġcrews": 8990,
    "Ġruth": 14092,
    "te": 994,
    "Ġimpenitent": 26548,
    "Ġunstructure": 2996,
    "Ġunfinished": 19508,
    "rocket": 13943,
    "Ġexamples": 2605,
    "Ġdiscernment": 15067,
    "Ġchis": 11748,
    "Ġforget": 2635,
    "iner": 2670,
    "Ġstillness": 12992,
    "advent": 10220,
    "Ġbelonging": 8307,
    "Ġbabies": 19691,
    "Ġfreshe": 13068,
    "Ġkl": 2737,
    "Ġawkwardness": 13486,
    "Ġthreats": 13376,
    "Ġmirror": 12376,
    "Ġperformed": 8547,
    "Ġevidently": 6759,
    "Ġswash": 23052,
    "Ġhuge": 4700,
    "immediately": 10048,
    "Ġvind": 10249,
    "const": 5938,
    "Ġpane": 21461,
    "cheeked": 19339,
    "Ġpitiful": 13237,
    "Ġliberal": 12188,
    "Ġfinery": 23124,
    "umberland": 16837,
    "Ġspoon": 22127,
    "Ġindist": 14407,
    "sculpt": 16243,
    "Ġpetticoat": 15294,
    "itation": 1779,
    "Ġbrass": 11048,
    "Ġcosy": 13130,
    "Ġraven": 16113,
    "could": 2872,
    "Ġshrouded": 14968,
    "Ġchast": 18380,
    "Ġprofession": 6207,
    "rubber": 12809,
    "Ġassemblage": 26351,
    "Ġcane": 10927,
    "Ġremorselessly": 16967,
    "Ġmisanthrop": 22763,
    "Ġspeaking": 4030,
    "mr": 1900,
    "Ġrestored": 7066,
    "supers": 22637,
    "Ġloftiest": 16874,
    "Ġvi": 1952,
    "Ġcomprising": 16068,
    "Ġcounted": 12137,
    "Ġprocuring": 16870,
    "Ġvertebra": 20180,
    "Ġoaken": 13864,
    "_": 67,
    "Ġfast": 1717,
    "Ġaut": 1795,
    "aux": 14289,
    "Ġconsiderably": 7714,
    "Ġparticular": 2449,
    "Ġgrego": 18962,
    "Ġcounties": 23300,
    "Ġdecanting": 22435,
    "Ġbigot": 24565,
    "Ġreflections": 5945,
    "Ġelect": 10842,
    "Ġcanall": 10928,
    "Ġflapp": 23005,
    "Ġevent": 2952,
    "pute": 8844,
    "Ġstreaked": 19113,
    "Ġboasting": 19934,
    "Ġtrad": 9827,
    "Ġgreeting": 18963,
    "lux": 14226,
    "Ġpoltroon": 26598,
    "rength": 4105,
    "Ġhatches": 12043,
    "Ġunprovided": 18257,
    "ually": 2770,
    "Ġmoody": 8200,
    "accursed": 20539,
    "Ġinsurance": 23681,
    "Ġvent": 4001,
    "Ġparacels": 13666,
    "Ġswim": 3822,
    "Ġpreviously": 3920,
    "Ġcontrivance": 17183,
    "Ġelij": 8908,
    "correct": 24483,
    "ald": 15622,
    "mastod": 23971,
    "levi": 7047,
    "Ġdurst": 20351,
    "Ġbeneficial": 23929,
    "Ġhertfordshire": 5377,
    "ancing": 1758,
    "Ġexpressed": 4467,
    "tic": 8390,
    "respect": 6374,
    "U": 57,
    "Ġencoun": 4511,
    "macy": 18804,
    "Ġcandour": 14672,
    "Ġladyship": 5046,
    "Ġxliv": 23407,
    "rints": 12500,
    "Ġranged": 10257,
    "acceptance": 25185,
    "Ġreconc": 9682,
    "Ġanimal": 2503,
    "Ġperpetually": 17070,
    "Ġbehaved": 13253,
    "plifted": 9709,
    "miraculous": 26396,
    "Ġnewcomer": 26040,
    "uously": 7353,
    "mortar": 25408,
    "consum": 12867,
    "dec": 3114,
    "Ġriding": 14093,
    "Ġcover": 3559,
    "Ġtorch": 25030,
    "Ġloving": 8175,
    "singing": 24363,
    "]]": 5205,
    "otes": 15741,
    "ribution": 14302,
    "Ġthieves": 15633,
    "Ġarchy": 14345,
    "Ġpraises": 16730,
    "Ġsodden": 25535,
    "Ġpower": 1213,
    "pip": 6654,
    "Ġregions": 10323,
    "Ġat": 395,
    "Ġcuriously": 13011,
    "Ġembalmed": 13655,
    "Ġplaint": 10325,
    "Ġprofundity": 20451,
    "Ġczar": 12571,
    "landish": 11940,
    "avoid": 9304,
    "Ġnonsensical": 21526,
    "Ġresult": 4460,
    "Ġbespeaking": 26310,
    "div": 8075,
    "Ġdidn": 4364,
    "Ġhind": 9188,
    "Ġlove": 2055,
    "Ġpoignant": 22590,
    "anger": 2173,
    "£": 101,
    "pressed": 6587,
    "runs": 25415,
    "Ġparlor": 13539,
    "Ġrestrict": 16372,
    "increase": 20267,
    "Ġmunro": 25630,
    "Ġspangled": 22128,
    "Ġopt": 790,
    "Ġtrapped": 23073,
    "bolt": 25135,
    "Ġheight": 4223,
    "buttoned": 13631,
    "evidence": 25521,
    "Ġnoticed": 5549,
    "app": 1038,
    "Ġting": 8397,
    "ython": 1028,
    "wrath": 23755,
    "Ġamaz": 5385,
    "Ġfrayed": 23290,
    "forbearance": 22789,
    "ľ": 255,
    "aco": 12903,
    "Ġspec": 1262,
    "ober": 15405,
    "Ġinhabitants": 7524,
    "shall": 4550,
    "Ġnieces": 8432,
    "Ġnavigators": 19762,
    "Ġexpost": 18625,
    "Ġintolerable": 8481,
    "Ġflies": 13022,
    "Ġsociable": 19401,
    "sticks": 25965,
    "cheered": 23804,
    "mph": 20970,
    "Ġforms": 6397,
    "harmony": 25750,
    "Ġneedn": 19227,
    "uteness": 17985,
    "Ġdissolved": 18554,
    "Ġwindpipe": 23102,
    "Ġstyled": 24671,
    "foreseen": 14253,
    "Ġr": 404,
    "Ġlearnedly": 23384,
    "Ġworld": 1598,
    "Ġchill": 11750,
    "Ġaccommod": 14220,
    "Ġgroups": 3722,
    "aths": 22698,
    "Ġplaguy": 22605,
    "Ġpython": 1070,
    "ensive": 6279,
    "Ġmcc": 21305,
    "iop": 20918,
    "Ġloomings": 24949,
    "Ġpaused": 5416,
    "Ġpurpose": 2708,
    "ad": 337,
    "databases": 3027,
    "Ġexplored": 23516,
    "Ġopportunities": 19248,
    "Ġdeclines": 23960,
    "Ġferrule": 24500,
    "Ġbarricade": 14660,
    "ortal": 6265,
    "sides": 12505,
    "Ġapologize": 15127,
    "Ġ71": 24259,
    "culine": 19063,
    "sank": 17662,
    "fate": 17539,
    "Ġobed": 8535,
    "T": 56,
    "Ġreliable": 18776,
    "Ġcir": 21339,
    "Ġscanning": 18393,
    "assisted": 22303,
    "ator": 1924,
    "Ġobeisance": 19757,
    "Ġtus": 10749,
    "establishment": 26113,
    "Ġdie": 3964,
    "Ġbountiful": 25944,
    "Ġamelia": 26251,
    "Ġunravel": 26214,
    "Ġvisiting": 10356,
    "Ġcontain": 1557,
    "ties": 2759,
    "lane": 10706,
    "Ġwarb": 17787,
    "ters": 1578,
    "Ġinfinity": 23279,
    "swe": 5995,
    "Ġexpon": 968,
    "Ġembracing": 14979,
    "Ġcircumspection": 25884,
    "meanwhile": 10609,
    "orton": 11754,
    "Ġoutwardly": 24998,
    "Ġcomplet": 4423,
    "Ġrending": 19465,
    "appalled": 18761,
    "Ġinconvenience": 9563,
    "Ġimposed": 14210,
    "hib": 15366,
    "Ġwoody": 23517,
    "Ġrustling": 24715,
    "Ġteasing": 11889,
    "Ġstepfather": 7221,
    "Ġhurricane": 16430,
    "Ġab": 529,
    "eight": 9591,
    "police": 10583,
    "Ġterrified": 14671,
    "ute": 4643,
    "Ġpenalizing": 13089,
    "bots": 10082,
    "Ġdepths": 4328,
    "Ġtranquillize": 24757,
    "Ġbearded": 15724,
    "Ġsexes": 25168,
    "Ġthickly": 12113,
    "Ġpoetical": 25056,
    "Ġsurveying": 25325,
    "Ġvoyagings": 19234,
    "Ġblossom": 26312,
    "semicirc": 26491,
    "Ġcoasts": 12161,
    "ilt": 2969,
    "longer": 8612,
    "Ġlavater": 20494,
    "commun": 15033,
    "Ġdistribut": 843,
    "Ġevap": 19622,
    "ī": 236,
    "Ġmummy": 25768,
    "iss": 2177,
    "clay": 18930,
    "lines": 6959,
    "aunted": 20769,
    "Ġdiscl": 9796,
    "Ġjohnson": 18409,
    "Ġcommunicating": 16889,
    "Ġaccomplishment": 19664,
    "Ġmuscle": 14689,
    "Ġmappings": 2149,
    "Ġunlab": 3790,
    "Ġpalace": 16690,
    "Ġadult": 18289,
    "Ġvirgin": 7328,
    "either": 6791,
    "Ġbor": 5804,
    "reg": 2186,
    "groom": 8739,
    "farintosh": 24553,
    "Ġincognit": 22551,
    "pine": 13768,
    "me": 871,
    "Ġcub": 8413,
    "cocks": 23560,
    "Ġparched": 11729,
    "âĢľ_": 5720,
    "Ġrifle": 18212,
    "Ġhaz": 12752,
    "Ġwasting": 12727,
    "Ġserpentine": 11360,
    "Ġoccupations": 9457,
    "Ġbrightened": 23826,
    "Ġremarks": 7474,
    "pretending": 17041,
    "blind": 16705,
    "ralian": 19599,
    "illum": 15867,
    "Ġsilence": 3271,
    "Ġofficers": 4426,
    "Ġincidentally": 16954,
    "dispute": 23497,
    "Ġful": 4299,
    "Ġneskye": 21528,
    "Ġbatch": 887,
    "web": 18664,
    "Ġstrenuously": 17447,
    "absolut": 8458,
    "ubbub": 23241,
    "Ġvacancies": 24345,
    "Ġgregarious": 18964,
    "Ġugly": 8715,
    "Ġvincent": 15282,
    "haw": 6361,
    "Ġobtained": 7432,
    "Ġpurchased": 12258,
    "Ġsolutions": 1946,
    "Ġcreep": 22721,
    "Ġstaves": 21737,
    "Ġberries": 13406,
    "Ġstupidity": 15049,
    "Ġdeny": 7488,
    "mpt": 6653,
    "Ġsubur": 12953,
    "hig": 12472,
    "Ġcripple": 11440,
    "serious": 14447,
    "ss": 398,
    "apply": 18760,
    "Ġattitudes": 16094,
    "oglyph": 11016,
    "mology": 12489,
    "Ġbales": 21387,
    "gins": 12466,
    "Ġadoration": 18290,
    "Ġsnaky": 23740,
    "Ġframe": 1912,
    "Ġsoothed": 10028,
    "Ġunconcerned": 20508,
    "mming": 1174,
    "snatched": 24850,
    "etymology": 14700,
    "hunt": 20902,
    "influences": 25250,
    "strike": 14948,
    "mechan": 11855,
    "Ġesq": 15107,
    "Ġrowing": 10300,
    "Ġshades": 9462,
    "Ġpopulous": 16826,
    "Ġattractive": 25575,
    "Ġ1839": 20458,
    "Ġabout": 632,
    "Ġdetested": 14174,
    "Ġmight": 963,
    "Ġlingo": 24903,
    "resemblance": 25933,
    "Ġtried": 3651,
    "Ġunmingled": 18260,
    "Ġincredulity": 11311,
    "Ġpriests": 15040,
    "wooden": 24587,
    "Ġripple": 25504,
    "Ġregular": 924,
    "Ġabsorb": 25112,
    "commence": 19990,
    "Ġtant": 12522,
    "Ġslavery": 16305,
    "ener": 558,
    "Ġestimate": 19371,
    "Ġextinct": 14341,
    "Ġdisposed": 7083,
    "arance": 4698,
    "ij": 7801,
    "Ġmultiplicity": 19274,
    "cries": 17510,
    "Ġdodging": 19886,
    "Ġavert": 14424,
    "Ġdent": 13905,
    "Ġpronounced": 8350,
    "Ġoblige": 10488,
    "Ġhabit": 6771,
    "Ġundue": 25993,
    "wrote": 11546,
    "Ġcav": 13879,
    "Ġeu": 6390,
    "distrustful": 26330,
    "ashed": 3786,
    "Ġ43": 14769,
    "Ġdromedary": 17438,
    "Ġpoverty": 9303,
    "u": 89,
    "Ġroylott": 7305,
    "Ġduplicity": 25331,
    "Ġtinkling": 25212,
    "Ġnow": 693,
    "hew": 5364,
    "Ġsuddenness": 23380,
    "Ġgoug": 17990,
    "Ġgu": 1328,
    "atical": 10771,
    "Ġpersonified": 19177,
    "Ġtex": 15471,
    "Ġsundry": 20072,
    "Ġcanals": 22162,
    "Ġdough": 8420,
    "Ġoverwhelming": 17102,
    "purpose": 10043,
    "Ġbells": 19600,
    "bury": 9106,
    "odecimoes": 25318,
    "Ġhyper": 19738,
    "Ġnetherfield": 3932,
    "Ġfeature": 743,
    "Ġod": 4439,
    "threatened": 25462,
    "Ġsuavely": 26523,
    "Ġaromatic": 25925,
    "Ġreplaced": 13070,
    "ropes": 7902,
    "Ġlean": 7605,
    "Ġregardless": 19323,
    "Ġbelfry": 26438,
    "Ġmilitary": 11258,
    "Ġgleaming": 24993,
    "Ġclosed": 4604,
    "sterdam": 19089,
    "wherever": 13118,
    "Ġjiff": 22293,
    "osure": 5306,
    "eskye": 21448,
    "Ġmajestic": 8639,
    "Ġstig": 14001,
    "Ġinquire": 7719,
    "Ġfingers": 5672,
    "Ġindomit": 22952,
    "Ġapo": 9630,
    "Ġsong": 5902,
    "hello": 13362,
    "Ġtarshish": 12027,
    "Ġmister": 22759,
    "Ġbarrowful": 25595,
    "Ġloos": 15869,
    "Ġgrind": 18735,
    "Ġillustrate": 25065,
    "ake": 749,
    "Ġbound": 3519,
    "Ġtopic": 9405,
    "supp": 4166,
    "Ġtemper": 957,
    "elihood": 4623,
    "winds": 10521,
    "Ġarticles": 7108,
    "som": 3294,
    "whew": 22867,
    "Ġtook": 1854,
    "Ġsucceeding": 16761,
    "Ġdollars": 11455,
    "Ġoccupy": 14730,
    "Ġvilla": 14746,
    "Ġgay": 5535,
    "Ġobliging": 13242,
    "Ġterra": 13115,
    "uments": 5552,
    "rugged": 6849,
    "Ġbeautiful": 3675,
    "Ġfashion": 4300,
    "Ġfish": 2711,
    "Ġsuicide": 12785,
    "Ġseap": 15815,
    "Ġsweeping": 8985,
    "Ġpressure": 13421,
    "Ġmushroom": 13234,
    "Ġsalvation": 14756,
    "itors": 2914,
    "alleging": 23020,
    "repeating": 20127,
    ",âĢĿâĢĶ": 14221,
    "kn": 5791,
    "Ġconnected": 5393,
    "Ġelud": 22640,
    "Ġsoftware": 18918,
    "Ġthreading": 23400,
    "undant": 14791,
    "Ġmalacca": 24393,
    "Ġtriumphant": 12187,
    "dering": 5305,
    "ety": 3521,
    "Ġunnaturally": 24870,
    "Ġwoof": 14720,
    "Ġinvaders": 23479,
    "miles": 10712,
    "reading": 12077,
    "Ġcorners": 18874,
    "Ġretreated": 13432,
    "Ġexpeditions": 24954,
    "chant": 4261,
    "Ġsord": 21218,
    "Ć": 199,
    "Ġunderstood": 5655,
    "Ġthrice": 10575,
    "bulkington": 19924,
    "Ġdolphins": 20394,
    "ues": 2081,
    "Ġjonas": 20608,
    "Ġbos": 4875,
    "Ġresounded": 22541,
    "ifference": 5632,
    "Ġath": 15799,
    "Ġshrunk": 16718,
    "Ġbedford": 7473,
    "Ġimmemorial": 10510,
    "Ġ15": 9323,
    "ascar": 8434,
    "Ġdissatisfied": 14256,
    "Ġtash": 13819,
    "Ġgreedy": 3056,
    "Ġrollicking": 24451,
    "gus": 13724,
    "Ġpractice": 3003,
    "Ġscrews": 25177,
    "ĺ": 251,
    "Ġattitude": 8903,
    "bib": 17491,
    "Ġacted": 7422,
    "Ġtakes": 5007,
    "haps": 1671,
    "Ġmor": 1248,
    "Ġhotel": 8650,
    "Ġimpose": 22376,
    "mured": 6960,
    "Ġabstained": 25231,
    "breat": 10077,
    "Ġspeculations": 22995,
    "Ġhelmet": 19686,
    "Ġthou": 1809,
    "Ġgenial": 12192,
    "acted": 11010,
    "constit": 24604,
    "impressions": 20697,
    "Ġcocoan": 20315,
    "Ġprows": 19888,
    "Ġcontinuously": 23202,
    "eluded": 21572,
    "ortations": 22254,
    "politeness": 16906,
    "Ġeduc": 4785,
    "Ġru": 948,
    "utions": 1888,
    "strangers": 20335,
    "oa": 9612,
    "ĠĠĠĠĠĠĠ": 7631,
    "tee": 16168,
    "Ġcongratulatory": 19766,
    "Ġejaculated": 15168,
    "Ġseveral": 2672,
    "Ġobligation": 13243,
    "Ġsuspending": 19243,
    "Ġlake": 5227,
    "Ġineffable": 17331,
    "get": 1021,
    "Ġdeem": 18133,
    "Ġxx": 5492,
    "anzas": 17840,
    "Ġowned": 11874,
    "admitted": 18091,
    "Ġcedars": 20291,
    "Ġdecorated": 22437,
    "Ġhurried": 4035,
    "Ġdevelopment": 7058,
    "restrained": 16334,
    "attain": 21260,
    "Ġasleep": 6836,
    "trucks": 25419,
    "tol": 17672,
    "Ġtransitory": 16031,
    "Ġlucky": 7758,
    "Ġoperated": 14547,
    "Ġfinally": 4667,
    "ractions": 11632,
    "Ġjuggler": 26366,
    "Ġrejecting": 17051,
    "shroud": 20311,
    "Ġfleece": 10614,
    "honour": 13466,
    "Ġboneless": 19604,
    "Ġtro": 7356,
    "Ġbagging": 24539,
    "Ġharmless": 9964,
    "accessible": 13638,
    "Ġmol": 12558,
    "Ġboughs": 20487,
    "Ġsubord": 22785,
    "Ġsimulates": 2740,
    "encoura": 15048,
    "Ġsimpleton": 16333,
    "Ġthinkings": 22807,
    "kes": 3681,
    "Ġpeaceful": 9455,
    "Ġrattler": 24995,
    "Ġaristotle": 25817,
    "Ġcandle": 8291,
    "Ġantelope": 24180,
    "utored": 15660,
    "often": 6165,
    "henomen": 10494,
    "Ġwinds": 5746,
    "Ġwarsaw": 26167,
    "Ġsickening": 19603,
    "Ġinstructive": 19284,
    "create": 24159,
    "Ġbrist": 14377,
    "Ġmutilated": 23956,
    "inal": 15479,
    "Ġstead": 5650,
    "Ġnear": 1718,
    "stonecraft": 24356,
    "Ġstrokes": 16769,
    "Ã¦st": 24175,
    "Ġfriesland": 26442,
    "ained": 3067,
    "buffalo": 20562,
    "ent": 305,
    "00": 1611,
    "Ġabutted": 22282,
    "Ġgranted": 22804,
    "Ġcharity": 8862,
    "howling": 18988,
    "Ġarchitecture": 1106,
    "swimming": 24258,
    "Ġankers": 21443,
    "Ġ66": 24369,
    "Ġthink": 987,
    "talk": 6656,
    ":": 30,
    "ention": 855,
    "Ġangry": 5498,
    "sails": 7497,
    "Ġcalmer": 23041,
    "iors": 9125,
    "mical": 9128,
    "Ġnortheast": 23199,
    "Ġking": 2304,
    "ù": 186,
    "what": 640,
    "abling": 1081,
    "Ġpallet": 21479,
    "Ġunreserved": 19395,
    "Ġkentuck": 19890,
    "Ġnobody": 6158,
    "olent": 8154,
    "Ġswe": 2290,
    "iii": 14774,
    "Ġlur": 5226,
    "Ġextent": 7656,
    "isted": 3301,
    "inte": 5144,
    "wise": 2576,
    "Ġrandomly": 1922,
    "Ġropes": 10748,
    "Ġfins": 9663,
    "Ġintrude": 25990,
    "Ġhandspikes": 12935,
    "Ġ1883": 23894,
    "quin": 21850,
    "harpoons": 24285,
    "them": 3022,
    "Ġdeed": 7867,
    "Ġvis": 1048,
    "Ġsubordinate": 18722,
    "Ġlull": 15648,
    "Ġrobots": 11084,
    "professional": 20274,
    "59": 17473,
    "Ġimpregnable": 26023,
    "pret": 7212,
    "Ġbreeds": 23344,
    "Ġdreadful": 4920,
    "after": 2895,
    "Ġoftener": 13564,
    "Ġveget": 11884,
    "Ġshone": 7404,
    "Ġunrest": 11712,
    "Ġcommunion": 19008,
    "Ġexecuted": 9471,
    "Ġgaz": 4046,
    "isive": 10793,
    "Ġlingu": 11613,
    "heaving": 21206,
    "Ġbarrel": 23790,
    "non": 9611,
    "Ġwhichever": 13999,
    "Ġbingley": 1676,
    "Ġbristling": 20525,
    "mosp": 8088,
    "op": 658,
    "itable": 5437,
    "Ġcorp": 5575,
    "Ġgleam": 12306,
    "Ġflavor": 16249,
    "ccarthy": 4889,
    "Ġscene": 3100,
    "otics": 10223,
    "Ġfierce": 7437,
    "Ġrepositories": 23362,
    "claim": 9834,
    "Ġruinous": 24633,
    "st": 316,
    "condem": 16342,
    "Ġalleviated": 26203,
    "feeder": 12359,
    "Ġenquired": 21937,
    "devilish": 17082,
    "ary": 988,
    "Ġtren": 17721,
    "Ġdoing": 3664,
    "Ġfluctu": 5267,
    "Ġfumbled": 17881,
    "Ġsubtlety": 24780,
    "Ġsnodhead": 19301,
    "Ġright": 1507,
    "Ġxlix": 25860,
    "Ġra": 818,
    "Ġentertainment": 12220,
    "_)": 9101,
    "Ġcuriosities": 26289,
    "Ġsixty": 7722,
    "Ġpips": 9846,
    "Ġrav": 14304,
    "probability": 17022,
    "Ġbradstreet": 9576,
    "Ġreappeared": 21662,
    "ady": 995,
    "Ġperceptibly": 25821,
    "Ġeverything": 3157,
    "Ġguarded": 9825,
    "Ġattack": 5478,
    "Ġbattering": 13900,
    "Ġretreat": 6069,
    "Ġbehave": 23297,
    "Ġspo": 6846,
    "Ġskewer": 19619,
    "rodu": 1817,
    "allied": 7410,
    "ilations": 21719,
    "Ġmamm": 25090,
    "Ġmultitud": 18746,
    ",âĢĶ": 3173,
    "Ġentail": 9791,
    "attacks": 23121,
    "Ġhopeful": 19031,
    "Ġsummons": 13230,
    "Ġtub": 7146,
    "Ġresounds": 22539,
    "Ġsleet": 8975,
    "Ġenglishman": 11229,
    "spread": 8388,
    "Ġfunny": 7637,
    "pract": 10119,
    "tiest": 21080,
    "Ġgreenwich": 19320,
    "Ġj": 533,
    "Ġconscious": 7743,
    "izens": 18143,
    "hend": 13251,
    "Ġ6": 5141,
    "attached": 11933,
    "Ġyon": 9692,
    "Ġeligible": 10670,
    "Ġfi": 934,
    "Ġmichael": 20678,
    "Ġunrel": 14695,
    "stache": 15687,
    "Ġexpense": 7651,
    "Ġpersever": 10002,
    "island": 10794,
    "inj": 9151,
    "Ġclimes": 12837,
    "Ġahead": 6662,
    "Ġquadrant": 11404,
    "Ġsplin": 8618,
    "Ġsuite": 18278,
    "Ġwrapt": 24595,
    "Ġtechnically": 12364,
    "Ġconstrained": 19239,
    "bbings": 19275,
    "sentimental": 25681,
    "Ġrivals": 20270,
    "Ġirregularly": 25323,
    "rough": 588,
    "Ġrifts": 21972,
    "Ġpleaded": 16297,
    "Ġwithin": 2163,
    "Ġindignity": 18832,
    "Ġpadded": 25036,
    "likeness": 19476,
    "enjoy": 10774,
    "required": 17030,
    "Ġwhirled": 14959,
    "Ġparted": 5928,
    "acup": 14278,
    "tail": 8761,
    "Ġpredefined": 20716,
    "colonel": 8284,
    "ackinaw": 22422,
    "Ġlocks": 11722,
    "Ġexplo": 2285,
    "Ġdiffused": 12066,
    "Ġpot": 2992,
    "luckily": 19751,
    "Ġglad": 3328,
    "Ġbank": 4877,
    "Ġlullaby": 20586,
    "Ġundulations": 19514,
    "Ġindiam": 22950,
    "Ġpotential": 3621,
    "pitching": 24076,
    ".âĢĻâĢĿ": 6739,
    "Ġserve": 9367,
    "Ġslippery": 12164,
    "Ġdonkey": 23224,
    "umb": 3479,
    "leton": 5148,
    "Ġwilful": 10534,
    "Ġimpossible": 3544,
    "Ġordin": 16650,
    "finish": 24384,
    "Ġcerem": 7077,
    "quired": 21852,
    "Ġdeploy": 2774,
    "coil": 23558,
    "keeper": 5597,
    "Ġwronged": 24247,
    "atively": 2694,
    "Ġpenn": 11111,
    "Ġtore": 6530,
    "Ġaverred": 18864,
    "Ġsmoky": 22555,
    "](": 11466,
    "Ġordinary": 6096,
    "istence": 2462,
    "downward": 16619,
    "Ġtemporal": 2613,
    "le": 279,
    "Ġincrust": 22547,
    "Ġaccompany": 9486,
    "Ġrear": 6535,
    "Ġcontradicted": 20210,
    "Ġshol": 21992,
    "inkers": 22614,
    "enance": 3372,
    "Ġinvaluable": 10182,
    "Ġdetermines": 2369,
    "Ġyesterday": 5332,
    "consid": 4924,
    "ratulations": 20124,
    "Ġscarcity": 23824,
    "ribe": 1223,
    "Ġtouched": 6000,
    "Ġbrag": 23831,
    "Ġtwitched": 20442,
    "Ġsharper": 17179,
    "Ġremarked": 3698,
    "Ġgate": 6825,
    "Ġtea": 5041,
    "Ġstoven": 23172,
    "Ġsallied": 12534,
    "quitted": 21854,
    "Ġabsurdities": 24879,
    "Ġindec": 13927,
    "urable": 8933,
    "Ġchaldee": 26234,
    "ric": 1374,
    "Ġprodigy": 19791,
    "grasping": 20638,
    "ound": 586,
    "Ġblaze": 16218,
    "Ġsmiled": 5940,
    "ancies": 11583,
    "Ġlads": 8597,
    "mo": 863,
    "Ġglued": 20587,
    "meet": 11854,
    "Ġstaircase": 20094,
    "Ġcoloured": 11045,
    "Ġweigh": 10893,
    "ports": 13773,
    "revival": 26162,
    "huzza": 20912,
    "superstitious": 17280,
    "Ġrejection": 19982,
    "iest": 4039,
    "shark": 14237,
    "arched": 10815,
    "sequent": 6831,
    "Ġaband": 6561,
    "fab": 13715,
    "Ġsecretary": 19440,
    "Ġsubdued": 11030,
    "Ġuniversally": 11998,
    "Ġoutside": 5554,
    "fin": 5209,
    "Ġshadow": 5596,
    "Ġunche": 23427,
    "Ġimproving": 1210,
    "Ġpricking": 23219,
    "Ġcooper": 16075,
    "age": 504,
    "vice": 15448,
    "vation": 4744,
    "Ġtist": 21161,
    "transp": 24512,
    "dington": 11899,
    "ŀ": 257,
    "Ġchinese": 14183,
    "buttons": 22399,
    "Ġemerg": 13423,
    "Ġmast": 2899,
    "trying": 15437,
    "Ġhogshead": 26367,
    "Ġhysterics": 26093,
    "Ġrains": 24340,
    "Ġlost": 2636,
    "burning": 25078,
    "Ġanticip": 7507,
    "craft": 12244,
    "footed": 19688,
    "Ġwildly": 9413,
    "Ġweek": 2827,
    "rifle": 21045,
    "Ġheedful": 19739,
    "Ġmadman": 13150,
    "Ġdeep": 800,
    "walk": 5523,
    "net": 1196,
    "Ġkill": 4454,
    "Ġconsist": 1934,
    "adier": 18089,
    "nets": 9132,
    "Ġrev": 6988,
    "mospheric": 17091,
    "asked": 8911,
    "Ġgathered": 8442,
    "Ġcurves": 18848,
    "Ġintruding": 21988,
    "bearings": 25371,
    "Ġsn": 2951,
    "Ġtout": 17719,
    "pens": 17632,
    "thrill": 25656,
    "rises": 17655,
    "omn": 15679,
    "Ġslew": 23381,
    "Ġchildish": 13136,
    "Ġpenny": 16311,
    "Ġjavelins": 26105,
    "amped": 12031,
    "ornamented": 26595,
    "woof": 21138,
    "Ġalbert": 12703,
    "Ġraved": 22647,
    "Ġsail": 1673,
    "skinned": 25387,
    "ĠĠĠĠĠĠĠĠĠĠĠĠĠĠĠĠĠĠĠĠĠĠĠĠĠĠĠĠĠĠĠĠĠĠĠĠĠĠĠĠĠĠĠ": 12152,
    "Ġalighted": 18103,
    "Ġfrequently": 4680,
    "volous": 18587,
    "Ġaffection": 2640,
    "Ġencamp": 22798,
    "tart": 21066,
    "doctor": 19095,
    "Ġprograms": 7239,
    "Ġhence": 4989,
    "Ġhonoured": 9880,
    "Ġperches": 18449,
    "Ġfellow": 2778,
    "Ġsolitudes": 22885,
    "Ġsurprised": 3832,
    "consol": 9761,
    "Ġcompassionate": 24723,
    "Ġtrance": 12841,
    "Ġdirectors": 18921,
    "magnet": 14969,
    "Ġtester": 21171,
    "Ġbreast": 8968,
    "hammered": 19004,
    "Ġindividuality": 14908,
    "acks": 11786,
    "exciting": 19667,
    "wedded": 24339,
    "Ġop": 2603,
    "Ġtens": 17723,
    "upset": 23014,
    "Ġdearly": 10401,
    "pursued": 17281,
    "been": 3346,
    "Ġphrenologically": 20392,
    "Ġfavourably": 16360,
    "Ġtapping": 10752,
    "indignation": 18438,
    "Ġcocoanuts": 26362,
    "Ġleads": 12094,
    "Ġfondly": 19615,
    "Ġvisual": 5741,
    "Ġearnest": 3931,
    "Ġhearers": 15700,
    "ourers": 21447,
    "Ġviolence": 5962,
    "rous": 3755,
    "Ġperceive": 6699,
    "Ġpersonally": 8599,
    "Ġdec": 639,
    "Ġdiscovering": 13356,
    "Ġpunctual": 17137,
    "specimen": 26605,
    "Ġsmall": 891,
    "Ġpitchpoling": 14910,
    "gained": 20880,
    "Ġgrated": 22801,
    "Ġsire": 15500,
    "Ġserenely": 13506,
    "Ġpoison": 7219,
    "viating": 14579,
    "example": 16011,
    "Ġallegor": 25545,
    "uture": 1053,
    "Ġdrooping": 9419,
    "Ġwe": 386,
    "inexplicable": 25809,
    "Ġemm": 18002,
    "Ġgravesend": 15215,
    "angles": 18295,
    "Ġinforming": 18742,
    "Ġdistances": 22500,
    "Ġbusy": 6189,
    "Ġnovels": 15927,
    "Ġunaffected": 14120,
    "Ġoppose": 16518,
    "entieth": 17978,
    "famous": 16916,
    "Ġbohemia": 10649,
    "antucket": 2644,
    "Ġthousandth": 23683,
    "owl": 12680,
    "Ġeyel": 17096,
    "Ġcopy": 10163,
    "Ġundertaking": 8573,
    "Ġperish": 8874,
    "Ġrocky": 13386,
    "endeavouring": 15015,
    "leviathans": 19936,
    "Ġsecret": 3723,
    "Ġfleecy": 17023,
    "Ġwindward": 6885,
    "Ġcircumstance": 4987,
    "withstanding": 8945,
    "Ġunhappily": 18259,
    "Ġacqu": 1415,
    "Ġgroaned": 11266,
    "Ġattempts": 10490,
    "Ġquiescent": 26242,
    "lamps": 25260,
    "nowled": 5470,
    "inder": 9152,
    "riot": 18180,
    "Ġsets": 8773,
    "whispered": 20032,
    "Ġfumes": 21416,
    "Ġ105": 24413,
    "Ġfinished": 5044,
    "Ġmember": 8585,
    "Ġstatement": 5254,
    "Ġfor": 340,
    "theories": 18078,
    "Ġmeanness": 22597,
    "frequent": 15352,
    "phenomenon": 17648,
    "Ġjetted": 24431,
    "Ġexhausting": 24710,
    "neighbourhood": 10024,
    "obli": 23091,
    "Ġcreat": 1422,
    "Ġchairs": 12823,
    "Ġdup": 21425,
    "Ġthinking": 4034,
    "alled": 5910,
    "Ġporter": 15608,
    "Ġpell": 21454,
    "Ġwrecks": 16818,
    "Ġpang": 15602,
    "swam": 24254,
    "rival": 12739,
    "america": 17097,
    "Ġanvil": 11596,
    "rived": 5373,
    "Ġtransition": 14244,
    "lighted": 23753,
    "Ġdeceit": 13480,
    "Ġxxv": 19716,
    "admire": 24943,
    "ulgences": 21860,
    "Ġmariners": 6067,
    "ibid": 18840,
    "mus": 10110,
    "Ġskylarking": 19485,
    "ident": 3380,
    "Ġbowing": 10475,
    "Ġdestined": 7974,
    "Ġteeth": 4171,
    "mered": 8217,
    "Ġcombinations": 22846,
    "Ġconnex": 10665,
    "Ġspar": 10920,
    "Ġdispleased": 18555,
    "bergs": 18681,
    "Ġhearses": 20058,
    "trimmed": 23946,
    "twilight": 23701,
    "Ġcandles": 9907,
    "Ġunimpeachable": 26522,
    "considerable": 10548,
    "dropped": 12260,
    "Ġencoder": 3638,
    "lig": 3175,
    "Ġpacifics": 24373,
    "iply": 22358,
    "Ġretrogression": 26581,
    "Ġcases": 3963,
    "Ġmaty": 22909,
    "urously": 18050,
    "Ġplight": 14281,
    "dancing": 12452,
    "Ġdeposed": 16078,
    "Ġpauper": 26179,
    "itu": 1227,
    "mblings": 19779,
    "izon": 18141,
    "Ġward": 10155,
    "painting": 17046,
    "Ġvoids": 25807,
    "berish": 22713,
    "Ġwitnessing": 19597,
    "wretchedness": 17252,
    "rix": 1579,
    "H": 44,
    "Ä": 133,
    "begins": 18525,
    "Ġtottenham": 24142,
    "Ġincluded": 8929,
    "Ġjacket": 6489,
    "Ġconn": 9229,
    "Ġtaller": 16688,
    "reflection": 13454,
    "Ġstartling": 14670,
    "vessels": 10625,
    "Ġendeavored": 19302,
    "Ġforty": 5719,
    "Ġstair": 8455,
    "acity": 5735,
    "Ġfeels": 6882,
    "prepared": 13589,
    "Ġliving": 3065,
    "copper": 19187,
    "Ġdagger": 21435,
    "surd": 6934,
    "Ġkind": 1785,
    "tallied": 21088,
    "Ġordained": 19443,
    "Ġlearned": 2025,
    "Ġfacilitate": 26098,
    "imate": 4224,
    "affectionate": 24921,
    "Ġloitered": 26525,
    "unicorn": 21886,
    "Ġafar": 14293,
    "Ġfavours": 23278,
    "inserted": 18885,
    "companions": 15023,
    "Ġspacious": 18310,
    "unctions": 18155,
    "rily": 7621,
    "prince": 23812,
    "Ġcharmed": 16762,
    "orial": 8416,
    "brary": 5755,
    "Ġmeasureless": 14709,
    "field": 3075,
    "Ġtrip": 16788,
    "Ġmaled": 21313,
    "Ġforgetting": 3436,
    "Ġhoneymoon": 25645,
    "treatment": 20410,
    "Ġperpendicular": 7209,
    "Ġdiscernible": 15068,
    "Ġcatholic": 20680,
    "adel": 15726,
    "fro": 8732,
    "Ġvelvet": 12396,
    "Ġresolutely": 14609,
    "Ġwho": 612,
    "coach": 23559,
    "knot": 13744,
    "Ġmysteries": 11322,
    "Ġnlp": 3064,
    "Ġmad": 2427,
    "_.": 2214,
    "Ġpour": 13913,
    "evidently": 20344,
    "ides": 2161,
    "Ġam": 660,
    "Ġthird": 4190,
    "Ġperhaps": 1911,
    "look": 2261,
    "ouder": 17900,
    "mid": 5617,
    "inese": 12871,
    "Ġhilariously": 25450,
    "Ġpath": 2115,
    "Ġdomestic": 6910,
    "Ġgenteel": 19979,
    "Ġdardanelles": 26443,
    "represent": 9637,
    "Ġneurons": 977,
    "hearing": 8402,
    "gg": 1997,
    "Ġwrap": 24594,
    "Ġreligions": 20106,
    "Ġgoes": 3854,
    "scenes": 16242,
    "insensibility": 23065,
    "Ġcritically": 23444,
    "Ġsoph": 1545,
    "Ġfierceness": 26265,
    "closing": 23153,
    "zetts": 17714,
    "others": 7669,
    "Ġregression": 4409,
    "Ġwaste": 9233,
    "Ġezek": 18009,
    "ogra": 4573,
    "Ġwhisky": 23931,
    "ivened": 22962,
    "bing": 7791,
    "Ġep": 7385,
    "hitherto": 17283,
    "nurs": 20998,
    "infor": 2950,
    "Ġchilian": 25563,
    "Ġcatches": 23425,
    "class": 4100,
    "Ġwaving": 8575,
    "Ġaunts": 21199,
    "Ġblunt": 11892,
    "Ġfamil": 4322,
    "tackle": 17320,
    "Ġconceived": 8149,
    "Ġinsomuch": 23682,
    "bloom": 24689,
    "Ġdau": 21423,
    "Ġup": 461,
    "Ġaccompan": 5513,
    "Ġoutfits": 22318,
    "endeav": 7150,
    "Ġinscrutable": 10672,
    "iving": 1725,
    "Ġbanking": 19629,
    "conception": 22464,
    "icate": 9201,
    "Ġtendinous": 16931,
    "bank": 10079,
    "eng": 1491,
    "Ġconclusion": 5985,
    "Ġrelated": 3718,
    "oubtedly": 6943,
    "batross": 9092,
    "Ġrans": 21963,
    "Ġstamped": 13526,
    "Ġsystems": 801,
    "Ġworaciousness": 22926,
    "Ġmelancholy": 5606,
    "breadth": 20275,
    "mem": 10709,
    "calculation": 25688,
    "Ġscrawled": 24580,
    "measured": 19988,
    "autions": 20766,
    "Ġfeathers": 15118,
    "Ġinvitation": 5189,
    "Ġmasonry": 13598,
    "Ġspotted": 12136,
    "Ġconcern": 2656,
    "Ġmatrim": 11060,
    "Ġsturgeon": 20590,
    "utting": 17984,
    "Ġburtons": 19252,
    "Ġformed": 3885,
    "Ġsealed": 15816,
    "Ġshutting": 14758,
    "Ġvit": 10245,
    "Ġknitting": 24218,
    "ĠĠĠĠĠĠĠĠĠĠĠĠĠĠĠĠĠĠĠĠĠĠĠĠĠĠĠĠ": 9974,
    "Ġinconceivable": 17937,
    "success": 6710,
    "Ġheel": 9683,
    "Ġcruel": 5121,
    "Ġabominable": 12320,
    "Ġholland": 10365,
    "home": 7341,
    "que": 1135,
    "shott": 11792,
    "illustration": 2283,
    "barb": 10080,
    "Ġstretched": 5919,
    "Ġperilous": 7768,
    "Ġtrading": 23072,
    "ara": 12603,
    "regarding": 15070,
    "Ħ": 231,
    "Ġdimensions": 16571,
    "Ġmysteriously": 24601,
    "Ġantagon": 19549,
    "Ġryder": 10258,
    "Ġbonds": 17869,
    "papers": 12499,
    "Ġpudding": 17915,
    "Ġsloop": 25930,
    "Ġensue": 18190,
    "principal": 20659,
    "Ġmyself": 1456,
    "business": 5610,
    "quick": 6400,
    "Ġeluded": 12919,
    "Ġvapory": 17006,
    "Ġmes": 17796,
    "crimin": 17508,
    "Ġcontinuation": 22915,
    "strained": 21655,
    "Ġchat": 6560,
    "folly": 20861,
    "Ġcloudless": 16668,
    "Ġclipping": 2441,
    "Ġpreaching": 15924,
    "pha": 22754,
    "Ġblanched": 26282,
    "Ġgle": 7858,
    "Ġamerican": 5061,
    "ientiously": 21938,
    "Ġvillage": 5774,
    "Ġchemist": 11134,
    "gro": 10094,
    "Ġaside": 5234,
    "Ġblacksmith": 6595,
    "Ġexcel": 3569,
    "®": 111,
    "Ġpositional": 2598,
    "believe": 8303,
    "Ġdemoniacal": 20555,
    "remain": 9837,
    "presbyterian": 26368,
    "vely": 3868,
    "Ġmonogram": 26574,
    "Ġjac": 1897,
    "ple": 455,
    "avating": 18606,
    "Ġhob": 12626,
    "windibank": 24161,
    "cause": 7795,
    "iety": 2818,
    "augh": 1782,
    "Ġlapse": 17120,
    "leviathan": 7784,
    "Ġselecting": 16684,
    "Ġdigest": 24647,
    "Ġclothe": 4712,
    "nne": 20988,
    "probable": 17021,
    "Ġig": 3501,
    "Ġmaid": 5285,
    "Ġexperiences": 13027,
    "following": 10572,
    "Ġbert": 4582,
    "Ġshameful": 19851,
    "Ġexclude": 19039,
    "aly": 1110,
    "Ġbelow": 4064,
    "Ġgpt": 4352,
    "Ġdefend": 9339,
    "Ġsarat": 21226,
    "change": 6392,
    "Ġsystemat": 18447,
    "moral": 14801,
    "Ġbreathe": 9011,
    "Ġaccidental": 16848,
    "Ġcoincidence": 25483,
    "Ġsent": 1774,
    "soon": 4031,
    "Ġbushy": 16400,
    "prejudiced": 17296,
    "ĠmanÅĵuv": 18417,
    "Ġoperate": 19115,
    "with": 1296,
    "Ġnearer": 5301,
    "spade": 10339,
    "Ġdecent": 10978,
    "Ġenjoyments": 24015,
    "Ġpunct": 8660,
    "Ġstack": 21730,
    "je": 11495,
    "glings": 23849,
    "Ġcontract": 18475,
    "rather": 5430,
    "Ġliv": 6679,
    "Ġlimped": 19180,
    "Ġembed": 1425,
    "Ġexpired": 18624,
    "Ġlook": 879,
    "Ġbachelors": 24860,
    "Ġincapable": 7423,
    "pit": 3986,
    "Ġpigeon": 9515,
    "art": 574,
    "rece": 21233,
    "hidden": 17370,
    "Ġlightning": 5750,
    "Ġparents": 6752,
    "hopes": 15368,
    "contrary": 23727,
    "sister": 5139,
    "waiter": 24586,
    "Ġwood": 2292,
    "flo": 6114,
    "gentle": 5356,
    "hammad": 23261,
    "orse": 5806,
    "Ġdeact": 18135,
    "Ġact": 691,
    "wheeler": 16186,
    "ying": 1451,
    "willing": 6592,
    "Ġcorpor": 23038,
    "Ġlower": 2662,
    "Ġguitar": 16269,
    "arthly": 8029,
    "inously": 21185,
    "ans": 460,
    "enger": 10773,
    "Ġsubdiv": 16157,
    "Ġrepelled": 19085,
    "clerval": 7950,
    "Ġimplements": 2490,
    "Ġ18": 3406,
    "Ġrails": 22649,
    "arse": 7160,
    "Ġmiz": 10777,
    "Ġimpressions": 9552,
    "bill": 10075,
    "Ġdinn": 23978,
    "sailors": 9921,
    "isis": 12576,
    "Ġadventure": 5980,
    "Ġartic": 5314,
    "Ġpoints": 5247,
    "Ġivory": 4476,
    "Ġwarmup": 3922,
    "allers": 22194,
    "Ġdefect": 8554,
    "Ġsteadfast": 8678,
    "Ġappe": 1542,
    "Ġwal": 6517,
    "Ġconsecrated": 26488,
    "Ġupbraided": 26527,
    "resses": 16151,
    "Ġgrieve": 14706,
    "rosc": 17954,
    "yramid": 8367,
    "regularization": 3515,
    "Ġartful": 22607,
    "Ġparacelsus": 15265,
    "Ġ1000": 3119,
    "Ġchilly": 25562,
    "Ġstayed": 7997,
    "Ġnick": 21520,
    "Ġcarav": 18901,
    "Ġcocaine": 20720,
    "apped": 5395,
    "ats": 4256,
    "poured": 17637,
    "Ġornaments": 17451,
    "enderby": 25215,
    "Ġchalk": 15931,
    "Ġgenerously": 22389,
    "Ġpilot": 5984,
    "Ġfug": 12592,
    "Ġsituations": 10491,
    "Ġspring": 4125,
    "Ġpreserved": 9261,
    "Ġmagnus": 18957,
    "Ġcarving": 14442,
    "Ġlikelihood": 16500,
    "Ġfought": 12590,
    "itories": 15546,
    "Ġhousekeeping": 18943,
    "really": 6971,
    "Ġloomed": 12299,
    "Ġbase": 5013,
    "Ġvacant": 9494,
    "Ġhand": 858,
    "Ġarab": 7823,
    "consequ": 18505,
    "Ġdrags": 16941,
    "Ġdrinking": 12166,
    "strils": 10458,
    "amid": 12721,
    "Ġshud": 5461,
    "Ġgruff": 21611,
    "Ġfors": 21768,
    "Ġcomfortable": 6094,
    "Ġhesitate": 16946,
    "Ġhappy": 2467,
    "ana": 15556,
    "Ġsullen": 9157,
    "Ġearthly": 7989,
    "itime": 15545,
    "courage": 17509,
    "Ġspokes": 18311,
    "barrels": 15041,
    "Ġmiguel": 25766,
    "Ġapparition": 8066,
    "westward": 25424,
    "Ġhookah": 16970,
    "Ġstreet": 2959,
    "Ġinsens": 8276,
    "diver": 20830,
    "Ġwearing": 12736,
    "Ġsepulchre": 20558,
    "ì": 173,
    "barbaric": 26358,
    "bohem": 19001,
    "Ġix": 12663,
    "Ġcran": 11999,
    "Ġmonitors": 3159,
    "isome": 17848,
    "Ġencounter": 6627,
    "dient": 440,
    "Ġmoney": 3419,
    "ect": 381,
    "ineas": 15820,
    "Ġabstract": 17181,
    "Ġobsolete": 26558,
    "Ġbewildered": 15212,
    "Ġbubb": 12581,
    "Ġsane": 21220,
    "aneous": 7240,
    "Ġ28": 19294,
    "Ġgrey": 4513,
    "Ġcalls": 6744,
    "overfitting": 13099,
    "never": 3154,
    "disinterested": 23499,
    "Ġsettles": 22917,
    "plainly": 11089,
    "Ġreceiving": 4882,
    "Ġabstracted": 17182,
    "secut": 7866,
    "Ġadmirers": 19685,
    "won": 7144,
    "grinder": 23413,
    "dil": 11478,
    "._]]": 5334,
    "Ġcook": 3715,
    "offered": 14518,
    "Ġcuriosity": 2478,
    "Ġacquirement": 19254,
    "Ġweakness": 9966,
    "tstone": 21083,
    "Ġsuccessfully": 19427,
    "Ġunresting": 25553,
    "icated": 7590,
    "Ġfollowing": 4065,
    "Ġentitled": 8539,
    "Ġjumping": 13340,
    "their": 2544,
    "clothes": 9057,
    "Ġcontinue": 5398,
    "Ġsilently": 6894,
    "Ġimpropri": 14211,
    "ork": 416,
    "Ġbash": 12583,
    "conceive": 16027,
    "fth": 20855,
    "Ġharp": 17923,
    "Ġconstitutes": 13551,
    "aloud": 17940,
    "Ġallowance": 14388,
    "Ġhampshire": 15241,
    "Ġload": 14145,
    "Ġgriff": 22803,
    "Ġano": 11595,
    "Ġeggs": 12340,
    "beauty": 20102,
    "etical": 13957,
    "Ġbesee": 19242,
    "Ġprecaution": 11197,
    "Ġpolished": 11182,
    "Ġlight": 1702,
    "alogies": 25158,
    "Ġspurned": 12793,
    "Ġoffer": 4843,
    "silver": 19689,
    "ulity": 10886,
    "abiding": 21790,
    "Ġparsonage": 7123,
    "Ġgiven": 1628,
    "colour": 9902,
    "Ġspell": 8854,
    "Ġjealousy": 13575,
    "oth": 1186,
    "Ġpersonality": 16476,
    "iem": 20916,
    "Ġcalendar": 18876,
    "Ġchim": 5932,
    "Ġoverlooked": 15969,
    "teringly": 21820,
    "Ġoccur": 1084,
    "Ġentic": 16144,
    "Ġhelped": 7459,
    "deception": 22146,
    "Ġobliquely": 12360,
    "Ġslain": 8953,
    "Ġtroubles": 19437,
    "camp": 15329,
    "Ġcontrari": 23345,
    "âĢľâĢĶ": 10872,
    "Ġcontributes": 15249,
    "Ġantip": 24177,
    "Ġdistingu": 2518,
    "Ġpreference": 9732,
    "delirious": 19504,
    "befall": 22492,
    "âĢĶ_": 3204,
    "Ġwelcome": 5604,
    "Ġadro": 15865,
    "Ġnoteworthy": 24162,
    "turn": 4294,
    "explanation": 12356,
    "Ġdefer": 18822,
    "hawk": 7121,
    "iant": 5427,
    "scrape": 25698,
    "tales": 17686,
    "irting": 11684,
    "Ġsummits": 14683,
    "Ġinsisted": 12044,
    "Ġtemple": 7653,
    "Ġuncomp": 15839,
    "barr": 15319,
    "Ġepisode": 26346,
    "Ġentering": 6285,
    "Ġrepeatedly": 9020,
    "yp": 1042,
    "Ġobjectionable": 16991,
    "Ġfronted": 25854,
    "Ġtarts": 10753,
    "Ġlanguor": 12844,
    "Ġtestament": 23207,
    "Ġpassed": 2012,
    "Ġplucked": 15112,
    "zar": 11547,
    "Ġwhelmed": 25999,
    "punct": 20191,
    "uzzle": 19582,
    "wig": 17704,
    "wide": 10137,
    "stealthily": 23959,
    "employed": 17261,
    "Ġdocks": 14177,
    "Ġphiladelphia": 26604,
    "Ġprized": 23218,
    "Ġentire": 2562,
    "Ġseventh": 18206,
    "uv": 6229,
    "pretty": 10621,
    "rary": 4575,
    "Ġdevoid": 18682,
    "stirring": 20424,
    "Ġsled": 21217,
    "Ġgets": 10839,
    "Ġchocks": 13344,
    "Ġmarshy": 20217,
    "oam": 8751,
    "Ġmerrily": 23730,
    "Ġinstructing": 3126,
    "kovoko": 20668,
    "Ġcomforted": 19389,
    "brated": 12025,
    "Ġcoffins": 13249,
    "perfect": 7634,
    "spersed": 22731,
    "Ġduly": 13349,
    "attracted": 13048,
    "Ġcrescentic": 20619,
    "lied": 6507,
    "Ġhumor": 11051,
    "Ġblueprints": 13170,
    "etieth": 21581,
    "rimshander": 20656,
    "Ġportra": 9008,
    "Ġafresh": 18627,
    "Ġcombing": 22843,
    "stump": 21650,
    "housekeeper": 24102,
    "ashing": 4824,
    "july": 20473,
    "Ġrecall": 3857,
    "pleasanter": 24044,
    "corrob": 24485,
    "piling": 15414,
    "senses": 25022,
    "Ġsneezing": 12245,
    "lowering": 16029,
    "Ġq": 1086,
    "Ġinner": 9670,
    "Ġsimplicity": 2924,
    "Ġtip": 15470,
    "Ġpup": 12616,
    "Ġglories": 16239,
    "crossing": 19409,
    "Ġquivering": 12855,
    "Ġvenge": 5420,
    "Ġbeast": 7179,
    "animal": 16978,
    "Ġconflagration": 26364,
    "Ġclut": 7641,
    "Ġhasty": 10477,
    "Ġag": 683,
    "Ġpursue": 6314,
    "Ġgrieved": 8297,
    "Ġimpulsively": 24880,
    "complet": 11383,
    "sn": 7138,
    "Ġoy": 15543,
    "Ġsh": 419,
    "Ġthistle": 21913,
    "Ġrestoration": 19024,
    "Ġcomparative": 10542,
    "Ġorganize": 8991,
    "Ġspecimen": 13020,
    "Ġconnectivity": 3670,
    "inable": 11555,
    "Ġcasket": 19723,
    "Ġfled": 6670,
    "bidden": 19736,
    "clo": 5613,
    "suitableness": 26260,
    "enes": 5218,
    "Ġdispelling": 23878,
    "Ġfifth": 11257,
    "Ġ1991": 3019,
    "Ġspatial": 2731,
    "Ġmasks": 23324,
    "Ġprinciples": 10010,
    "assist": 11765,
    "Ġdenominated": 15227,
    "Ġcontrol": 13078,
    "lifeless": 24312,
    "arms": 10173,
    "inav": 15482,
    "ve": 323,
    "Ġfiner": 13050,
    "Ġced": 10784,
    "Ġfiftieth": 24703,
    "actorily": 25576,
    "Ġtreasures": 17047,
    "Ġgallop": 19554,
    "sect": 8152,
    "Ġrewarded": 14939,
    "Ġnavy": 14915,
    "Ġkrusenstern": 26377,
    "Ġke": 1156,
    "Ġentranced": 25833,
    "believed": 9932,
    ".âĢĶ": 4251,
    "tur": 5688,
    "Ġcondensed": 24049,
    "Ġseaman": 8638,
    "occupation": 15056,
    "Ġbathed": 17865,
    "poles": 16208,
    "ĠĠĠĠĠĠĠĠĠĠĠĠĠĠĠĠĠĠĠĠĠĠĠĠĠĠĠĠĠĠĠĠĠĠĠĠĠĠĠĠĠĠĠĠĠĠĠĠĠĠĠĠĠ": 20038,
    "ß": 160,
    "dorff": 15236,
    "Ġjudged": 12081,
    "dies": 15337,
    "Ġhumane": 11882,
    "Ġreservo": 16831,
    "Ġsneering": 24697,
    "Ġsacrilege": 26228,
    "Ġmacey": 12560,
    "Ġpronouncing": 16969,
    "Ġmaze": 23828,
    "Ġcaresses": 26059,
    "page": 13770,
    "Ġexpensive": 12915,
    "Ġ88": 19710,
    "Ġassume": 10515,
    "irous": 8838,
    "Ġensu": 7874,
    "faced": 8079,
    "genteel": 19947,
    "Ġtrivial": 10142,
    "Ġfowls": 8690,
    "ions": 449,
    "Ġnuptials": 20492,
    "Ġme": 351,
    "reproof": 25432,
    "Ġreplied": 2264,
    "Ġmysterious": 7527,
    "Ġprofounder": 23568,
    "Ġindestruct": 22955,
    "Ġhusbands": 16642,
    "Ġnecks": 18187,
    "plain": 1359,
    "Ġenthusiasm": 8064,
    "elter": 21568,
    "methodically": 20663,
    "Ġpants": 21463,
    "Ġmomentarily": 22808,
    "Ġunhing": 18238,
    "Ġloun": 7166,
    "Ġflannel": 26577,
    "edy": 2858,
    "Ġchagrin": 20606,
    "Ġinn": 4590,
    "Ġground": 2846,
    "recogn": 13424,
    "engagement": 14457,
    "appropri": 22837,
    "Ġhapp": 1090,
    "Ġblocked": 19221,
    "Ġgame": 3631,
    "Ġcalcul": 3640,
    "Ġxiii": 25591,
    "Ą": 197,
    "Ġdeliciousness": 24127,
    "nigh": 13762,
    "holland": 24038,
    "Ġjub": 22292,
    "Ġviolently": 6456,
    "board": 3567,
    "eze": 20846,
    "backward": 2682,
    "baby": 25515,
    "fatal": 17088,
    "fore": 685,
    "Ġassiduous": 26292,
    "Ġabruptly": 15149,
    "Ġleakage": 23458,
    "onomy": 12544,
    "roads": 17957,
    "Ġanom": 12608,
    "silenced": 24423,
    "Ġsmilingly": 22557,
    "Ġhel": 3788,
    "Ġnosegay": 24192,
    "Ġingenuity": 17163,
    "Ġmerchantmen": 19859,
    "oring": 1860,
    "Ġjamming": 17264,
    "close": 9985,
    "Ġdesirous": 8942,
    "rid": 5137,
    "Ġvane": 22872,
    "pacific": 17641,
    "fee": 12877,
    "Ġconveniences": 19811,
    "Ġhes": 6250,
    "imet": 21703,
    "Ġscarlet": 13221,
    "Ġbuttoned": 25368,
    "Ġlandowner": 23379,
    "Ġghostliness": 24651,
    "Ġimpatiently": 8337,
    "Ġbery": 13897,
    "Ġsneer": 13446,
    "Ġwhirling": 12246,
    "shed": 8094,
    "Ġmitigating": 1617,
    "aus": 1502,
    "Ġcause": 2410,
    "Ġbrick": 8924,
    "mme": 22497,
    "Ġdisciple": 22781,
    "Ġsplintered": 11418,
    "Ġviciously": 24404,
    "entrance": 12654,
    "attentions": 13573,
    "arman": 11594,
    "Ġguernsey": 9350,
    "ternatural": 12712,
    "Ġrinal": 21974,
    "partiality": 13159,
    "Ġwindow": 3000,
    "apology": 22330,
    "grasp": 16429,
    "Ġauthor": 4376,
    "Ġplayed": 9415,
    "iliar": 15711,
    "Ġpand": 21453,
    "Ġvillages": 14747,
    "Ġcategories": 4477,
    "Ġadjusting": 3413,
    "Ġgrasp": 4664,
    "farewell": 12304,
    "byter": 16213,
    "Ġbrix": 12580,
    "will": 1968,
    "Ġinterconnected": 1339,
    "Ġladder": 8598,
    "anxiety": 25155,
    "Ġpipes": 9847,
    "Ġcritic": 19124,
    "Ġsluggishly": 25891,
    "Ġgospel": 18000,
    "Ġclose": 3038,
    "antage": 3880,
    "Ġprofane": 13151,
    "llable": 6879,
    "off": 1885,
    "explained": 23139,
    "Ġspot": 4159,
    "ir": 379,
    "Ġspl": 2986,
    "conject": 8879,
    "frozen": 25139,
    "Ġsable": 15499,
    "succeed": 10328,
    "Ġtuning": 3076,
    "Ġessays": 19743,
    "Ġplanets": 24053,
    "Ġbalanced": 12988,
    "Ġconv": 2970,
    "output": 4402,
    "Ġsatin": 12987,
    "adler": 21759,
    "Ġencountering": 11269,
    "Ġorb": 22088,
    "cer": 6642,
    "Ġswift": 3672,
    "Ġoutline": 15952,
    "Ġunassuming": 20507,
    "Ġvomit": 21945,
    "ailing": 7021,
    "hue": 20898,
    "Ġrefined": 18693,
    "Ġpend": 15603,
    "Ġunconnected": 18239,
    "tarpaul": 21096,
    "Ġbund": 17863,
    "Ġuncompromised": 20602,
    "chairs": 21690,
    "Ġschedules": 3387,
    "creat": 20799,
    "absolutely": 10645,
    "uncont": 15771,
    "supervised": 1919,
    "Ġholds": 7975,
    "towards": 5002,
    "explain": 1482,
    "Ġdoors": 6418,
    "Ġenable": 684,
    "generative": 4332,
    "Ġbugs": 13647,
    "orange": 21398,
    "Ġfruit": 12324,
    "hunters": 16833,
    "Ġglory": 6064,
    "alongside": 19788,
    "exam": 10976,
    "canoes": 16228,
    "icacy": 15655,
    "Ġundergone": 18984,
    "Ġactivity": 7919,
    "Ġsumm": 3357,
    "Ġreturns": 11924,
    "Ġlanding": 11983,
    "finds": 19926,
    "Ġfacility": 19849,
    "Ġdoubloon": 6945,
    "Ġspont": 22124,
    "Ġlitter": 19828,
    "Ġsmoke": 4715,
    "judged": 14830,
    "Ġdaboll": 25950,
    "ace": 714,
    "ifiable": 18163,
    "Ġcrotch": 9962,
    "Ġoutstretched": 14195,
    "Ġclin": 14199,
    "spite": 16135,
    "ersman": 11700,
    "ality": 2516,
    ";âĢĻ": 15301,
    "warrant": 21136,
    "Ġplump": 14282,
    "owder": 8448,
    "Ġyourselves": 9028,
    "Ġlongitude": 11011,
    "Ġbruised": 25772,
    "Ġmarriage": 3190,
    "seamen": 13625,
    "opic": 22468,
    "Ġsimpl": 1584,
    "Ġannesley": 19576,
    "Ġlong": 793,
    "Ġepsom": 19981,
    "Ġheat": 5453,
    "¼": 125,
    "ois": 9134,
    "Ġtuesday": 9626,
    "Ġquadruped": 17458,
    "discern": 14850,
    "Ġcloser": 8659,
    "even": 3839,
    "Ġers": 15459,
    "Ġrushes": 20506,
    "Ġhousehold": 8567,
    "2": 22,
    "Ġgives": 5018,
    "Ġmultiplication": 2871,
    "Ġuntoward": 19164,
    "Ġartistic": 18612,
    "atmosphere": 21263,
    "Ġleatherhead": 20012,
    "gigantic": 15358,
    "Ġout": 542,
    "ely": 624,
    "hurrying": 14982,
    "Ġmeasure": 3595,
    "Ġstable": 2698,
    "Ġmain": 809,
    "Ġaversion": 18865,
    "Ġdiscovery": 5412,
    "Ġmedical": 9463,
    "Ġtru": 4110,
    "sailing": 14713,
    "cottage": 9569,
    "Ġpur": 2219,
    "Ġgoal": 10301,
    "inating": 9153,
    "Ġstraggling": 23750,
    "ulate": 5233,
    "purposes": 25021,
    "Ġfemale": 8344,
    "Ġmercy": 8998,
    "Ġwhitting": 18055,
    "dimly": 15345,
    "Ġsame": 1343,
    "ingley": 1549,
    "Ġcreates": 2011,
    "Ġlids": 12273,
    "itch": 10160,
    "model": 4613,
    "Ġenrapt": 21936,
    "Ġimaginative": 19246,
    "Ġcommonly": 3267,
    "grate": 23410,
    "Ġsports": 18308,
    "Ġconnecting": 18632,
    "resolution": 17766,
    "mic": 12486,
    "whal": 10940,
    "Ġupdate": 2465,
    "Ġwhistling": 19789,
    "marvell": 24172,
    "ä": 165,
    "necessarily": 19630,
    "Ġbars": 13896,
    "Ġleft": 1760,
    "Ġfict": 21403,
    "Ġsurmise": 12293,
    "trop": 15435,
    "ĠĠĠĠĠĠĠĠĠĠĠĠĠĠĠĠĠĠĠĠĠĠĠĠĠĠĠĠĠĠĠĠĠĠĠĠĠĠĠĠĠĠĠĠĠ": 9951,
    "Ġabomination": 22285,
    "Ġowest": 25091,
    "Ġinterrupted": 6343,
    "Ġdestabilizing": 5053,
    "Ġcaves": 15551,
    "dried": 20826,
    "Ġridiculous": 10628,
    "|": 96,
    "Ġburns": 16521,
    "excellent": 8043,
    "Ġrecom": 4555,
    "Ġnast": 15636,
    "icating": 15652,
    "Ġobserve": 4671,
    "Ġgrasshopper": 24380,
    "next": 5891,
    "electricity": 26385,
    "Ġdick": 3498,
    "brance": 7284,
    "ishmael": 18425,
    "ispensable": 9095,
    "Ġswears": 16462,
    "Ġnupt": 13942,
    "Ġcaptivating": 26049,
    "ulia": 18148,
    "Ġstalls": 25647,
    "powers": 25410,
    "Ġishmael": 7395,
    "Ġdial": 10810,
    "Ġbrave": 6329,
    "dat": 1627,
    "ctor": 13959,
    "Ġloaf": 15870,
    "Ġbucket": 8787,
    "ird": 2428,
    "thoroughly": 26508,
    "Ġbully": 23854,
    "Ġshudderings": 25200,
    "Ġbud": 10168,
    "Ġinvolves": 1075,
    "Ġentrapped": 26262,
    "Ġaudio": 24772,
    "eastward": 15128,
    "hands": 5966,
    "Ġcharger": 19005,
    "Ġgour": 21595,
    "Ġgem": 21591,
    "Ġexclam": 6757,
    "Ġfrock": 10489,
    "Ġresid": 22535,
    "Ġgloves": 8574,
    "visited": 13346,
    "Ġfeatureless": 22596,
    "hap": 17559,
    "ined": 1260,
    "enge": 21279,
    "Ġcommon": 1412,
    "dham": 20829,
    "cul": 1899,
    "Ġcharges": 23266,
    "eping": 5834,
    "Ġwitnessed": 14843,
    "Ġkinds": 14504,
    "bourgh": 19103,
    "gentlemen": 9503,
    "ront": 15417,
    "imely": 13997,
    "Ġoptimize": 1711,
    "Ġvir": 7001,
    "ton": 1726,
    "Ġunsolved": 22028,
    "..": 5783,
    "organic": 25946,
    "±": 114,
    "Ġhadn": 9718,
    "results": 20385,
    "Ġbay": 9168,
    "Ġmechanically": 14396,
    "male": 15387,
    "call": 8722,
    "boat": 3363,
    "Ġblended": 16217,
    "Ġsc": 528,
    "Ġboomer": 20166,
    "í": 174,
    "snap": 24848,
    "why": 2829,
    "Ġsche": 1706,
    "Ġsobs": 14132,
    "longing": 23724,
    "Ġprecautions": 23725,
    "ax": 694,
    "Ġ183": 13236,
    "Ġimpressive": 14999,
    "cater": 20814,
    "º": 123,
    "fes": 20850,
    "Ġslipping": 13359,
    "tent": 21063,
    "Ġmontan": 22975,
    "high": 6649,
    "Ġsentimental": 24754,
    "jabez": 20932,
    "Ġmagnified": 23200,
    "chosen": 21692,
    "impression": 15708,
    "Ġdomineer": 23654,
    "Ġboth": 1656,
    "solving": 3102,
    "/`": 12427,
    "Ġpriority": 19761,
    "ĝ": 222,
    "Ġentra": 18697,
    "Ġimage": 3403,
    "Ġsal": 3939,
    "itching": 21333,
    "Ġwhitt": 18054,
    "fell": 6953,
    "aling": 1032,
    "secure": 12233,
    "arness": 11671,
    "mariners": 19547,
    "Ġrealise": 16335,
    "athom": 12937,
    "Ġremorse": 6441,
    "Ġcol": 1059,
    "b": 70,
    "Ġroyalty": 19735,
    "Ġsolemnity": 9940,
    "ods": 8835,
    "cat": 15323,
    "Ġrequ": 828,
    "Ġunc": 2125,
    "elt": 4119,
    "Ġequilibrium": 4145,
    "oper": 7347,
    "Ġcommunications": 16353,
    "keenest": 25661,
    "Ġwatery": 6296,
    "Ġphil": 3386,
    "Ġheedless": 14902,
    "Ġding": 12596,
    "Ġpinched": 17035,
    "ordinary": 4408,
    "Ġunluck": 8484,
    "Ġincline": 18569,
    "Ġastonishing": 10501,
    "Ġcondescending": 24868,
    "recover": 24622,
    "hed": 672,
    "Ġappet": 9729,
    "inent": 9628,
    "oro": 21393,
    "Ġinevitable": 15166,
    "necessity": 13366,
    "prairies": 20565,
    "Ġbrittle": 22863,
    "q": 85,
    "Ġmach": 13856,
    "Ġflew": 5588,
    "Ġcome": 1241,
    "Ġimpatience": 7509,
    "Ġfeverish": 11348,
    "hyp": 15365,
    "ĠĠĠĠĠĠĠĠĠĠĠĠĠĠĠĠĠĠĠĠĠĠĠĠ": 5321,
    "Ġcrystal": 17214,
    "promote": 24727,
    "Ġdearest": 5457,
    "Ġabated": 18395,
    "aced": 2407,
    "Ġbeheading": 21751,
    "commend": 19991,
    "Ġ1778": 25730,
    "Ġunreasonable": 12773,
    "inordinate": 21193,
    "Ġchina": 8039,
    "dwell": 15340,
    "oe": 7552,
    "Ġdungeon": 16996,
    "Ġtwos": 18657,
    "Ġgallows": 12143,
    "Ġfork": 15729,
    "Ġcrevice": 22724,
    "Ġatrocious": 21940,
    "Ġdiscoursing": 26266,
    "Ġquietude": 19358,
    "Ġdistribution": 2020,
    "Ġobsequ": 14319,
    "chel": 11207,
    "Ġnewcomers": 26041,
    "Ġresting": 7961,
    "Ġhastily": 5763,
    "Åĵ": 10744,
    "Ġmurmured": 7480,
    "Ġratio": 5066,
    "Ġcauses": 2564,
    "etw": 408,
    "idable": 8145,
    "Ġcontemplation": 11357,
    "Ġx": 2075,
    "apping": 5851,
    "Ġnoses": 18373,
    "Ġwashes": 21862,
    "strip": 19829,
    "buck": 17490,
    "Ġthews": 21276,
    "Ġexhibiting": 19837,
    "Ġswarming": 16271,
    "silent": 9973,
    "protection": 19919,
    "Ġkrempe": 10669,
    "itten": 3443,
    "Ġpresc": 15923,
    "ifling": 15779,
    "Ġmustard": 12927,
    "Ġspoil": 17007,
    "Ġrad": 4962,
    "construction": 19777,
    "Ġgardeners": 12118,
    "Ġlamb": 8812,
    "ulent": 21857,
    "Ġvirtual": 11240,
    "disappointed": 25191,
    "flying": 13720,
    "impe": 21705,
    "Ġquery": 2484,
    "Ġsurgeon": 8981,
    "Ġsinging": 7723,
    "Ġunfair": 19506,
    "Ġfrozen": 9012,
    "Ġbrightness": 16576,
    "Ġaffirmative": 15221,
    "Ġcapabilities": 4378,
    "Ġcorpulence": 24509,
    "ultaneously": 4196,
    "Ġcassock": 20485,
    "aning": 2253,
    "Ġhousekeeper": 7456,
    "Ġslacked": 25188,
    "walls": 25345,
    "Ġpadd": 9669,
    "Ġjourney": 3881,
    "philosophers": 25252,
    "Ġworshipper": 25692,
    "Ġscraped": 16903,
    "Ġfru": 8419,
    "coburg": 13597,
    "named": 9886,
    "Ġbiggest": 24566,
    "ivities": 22082,
    "Ċ": 203,
    "Ġstoke": 10395,
    "disgu": 19153,
    "dimensional": 2348,
    "istered": 14144,
    "Ġdoctor": 5067,
    "jane": 4482,
    "Ġvictim": 6097,
    "Ġpathetic": 19052,
    "achel": 7032,
    "Ġagainst": 1700,
    "Ĥ": 229,
    "willingly": 11981,
    "Ġinward": 11606,
    "certainly": 5339,
    "Ġsuppression": 22997,
    "warmest": 25027,
    "speechless": 25395,
    "Ĩ": 233,
    "globe": 25142,
    "hereafter": 19215,
    "henry": 16625,
    "Ġexpedite": 24953,
    "gences": 20876,
    "Ġuncles": 23429,
    "Ġalchemists": 26487,
    "Ġnailed": 10189,
    "Ġunfathomable": 20547,
    "Ġguests": 12285,
    "Ġparameters": 993,
    "information": 12391,
    "Ġhussey": 7724,
    "Ġtyphoons": 20233,
    "Ġbequeathed": 20700,
    "overcoat": 19049,
    "Ġoutstanding": 22313,
    "Ġprocedures": 9411,
    "Ġenables": 726,
    "inch": 10755,
    "oubted": 5859,
    "departure": 15233,
    "Ġrespective": 16343,
    "Ġur": 5540,
    "Ġcommission": 6712,
    "Ġbehoo": 19034,
    "Ġnigh": 4878,
    "fired": 20859,
    "Ġaspects": 4178,
    "Ġhated": 7584,
    "third": 8167,
    "unsupervised": 10889,
    "Ġrapture": 13495,
    "Ġapproximate": 2341,
    "run": 10721,
    "fierce": 25255,
    "Ġtending": 17724,
    "allet": 11082,
    "Ġ1828": 25720,
    "command": 6576,
    "Ġappare": 12813,
    "language": 5129,
    "unavoidable": 17389,
    "venison": 22626,
    "Ġbedrooms": 19968,
    "Ġsultan": 15183,
    "Ġabandon": 12255,
    "ive": 427,
    "Ġhad": 442,
    "Ġpitied": 14691,
    "initely": 7568,
    "Ġmaelstrom": 19354,
    "Ġcanterbury": 22165,
    "denial": 18717,
    "Ġ11": 5318,
    "Ġromantic": 8030,
    "Ġnothing": 1360,
    "Ġdew": 14042,
    "ong": 537,
    "Ġprovidence": 18745,
    "penny": 22942,
    "gast": 20870,
    "Ġbapt": 13895,
    "Ġunsatisfied": 22039,
    "berries": 22716,
    "Ġbelonged": 6922,
    "content": 11198,
    "Ġswallows": 18881,
    "cy": 657,
    "Ġanatomical": 15075,
    "neighb": 16020,
    "horn": 8085,
    "Ġimmediate": 6089,
    "dared": 13701,
    "wife": 8100,
    "Ġassistant": 7298,
    "Ġprecipice": 19939,
    "Ġblemish": 19678,
    "Ġguide": 3219,
    "ctuous": 9205,
    "Ġdreamed": 16629,
    "Ġringleader": 26212,
    "Ġbroker": 23098,
    "Ġrestrain": 8964,
    "Ġsle": 2015,
    "Ġribs": 7101,
    "doors": 19094,
    "Ġpreparations": 12308,
    "Ġencourag": 1392,
    "Ġolder": 9326,
    "ogr": 18672,
    "fits": 13717,
    "Ġexultation": 15170,
    "Ġfishing": 9662,
    "project": 16423,
    "fluke": 25204,
    "Ġtougher": 21175,
    "Ġclearing": 8239,
    "full": 7420,
    "although": 8805,
    "Ġcheek": 8577,
    "Ġauger": 21202,
    "Ġstarry": 16923,
    "bat": 8071,
    "Ġnarr": 5085,
    "Ġenric": 21931,
    "Ġclubb": 22344,
    "Ġdish": 6136,
    "Ġaffecting": 2323,
    "Ġcurv": 3512,
    "Ġberyl": 20488,
    "scuttle": 11908,
    "facts": 19841,
    "Ġencode": 4366,
    "ond": 1162,
    "Ġhorseback": 14849,
    "Ġfiendish": 13326,
    "manifested": 20524,
    "Ġepidemic": 20694,
    "Ġcynical": 25770,
    "topp": 22562,
    "Ġconscientious": 16727,
    "Ġaccomplishments": 13378,
    "Ġtightly": 13533,
    "Ġultimate": 12347,
    "Ġhenceforth": 19646,
    "Ġjeroboam": 10600,
    "Ġyarn": 10868,
    "Ġtooth": 9192,
    "Ġimpro": 909,
    "Ġfails": 13312,
    "greatly": 16623,
    "Ġlooked": 1803,
    "Ġacceptance": 14826,
    "gledy": 25403,
    "Ġloft": 5642,
    "Ġresources": 2937,
    "exp": 2738,
    "cutting": 23783,
    "Ġwoodlands": 23519,
    "ĠĠĠĠĠ": 3527,
    "Ġinspection": 14544,
    "Ġhabitation": 14802,
    "Ġvisage": 18763,
    "Ġcurving": 16238,
    "Ġbat": 10795,
    "Ġhouse": 1505,
    "Ġconvincing": 19307,
    "Ġinsulted": 14991,
    "Ġadjusts": 8980,
    "Ġlanc": 19763,
    "bony": 15318,
    "usoid": 4767,
    "awe": 20764,
    "Ġexpiring": 16096,
    "Ġgrec": 18961,
    "Ġplague": 11822,
    "training": 2522,
    "uding": 16150,
    "grat": 5052,
    "Ġgoodge": 22820,
    "frost": 15105,
    "Ġunrelieved": 20544,
    "pits": 15411,
    "Ġexhib": 6349,
    "Ġwell": 901,
    "_;": 6640,
    "Ġbrown": 6298,
    "Ġzodiac": 16173,
    "boards": 23253,
    "linen": 25257,
    "Ġadaptation": 3158,
    "Ġamph": 18511,
    "ibank": 6880,
    "thrown": 8480,
    "Ġrewarding": 13436,
    "Ġ111": 24436,
    "Ġpersevering": 20232,
    "foundered": 20866,
    "nerable": 16274,
    "Ġputs": 19033,
    "istically": 14143,
    "Ġcoffee": 6760,
    "Ġharem": 9708,
    "'d": 12425,
    "Ġreplacing": 3451,
    "Ġsufferings": 7513,
    "Ġamong": 1668,
    "arrival": 15597,
    "deepest": 22876,
    "habit": 16187,
    "Ġoath": 7833,
    "Ġhalting": 16272,
    "Ġdivide": 12108,
    "Ġutmost": 5496,
    "affa": 23775,
    "crews": 15042,
    "inev": 21976,
    "breeze": 20561,
    "meeting": 11019,
    "drawers": 19384,
    "multiple": 15106,
    "urred": 8449,
    "Ġanimating": 23422,
    "Ġgang": 9207,
    "Ġpatter": 832,
    "Ġasia": 11682,
    "ĠâĢľâĢĺ": 8503,
    "heed": 15497,
    "ints": 3418,
    "Ġbestowing": 16971,
    "eer": 15346,
    "Ġburgled": 23652,
    "commendation": 26348,
    "Ġbump": 9659,
    "Ġharvard": 24573,
    "Ġrisks": 9963,
    "Ġtrades": 8231,
    "remaining": 20219,
    "Ġappointment": 10646,
    "inian": 21181,
    "Ġprotruding": 16658,
    "ceiving": 3903,
    "Ġfatig": 6756,
    "Ġclubbed": 26546,
    "Ġscotch": 12207,
    "Ġsan": 7824,
    "Ġlarger": 1401,
    "Ġguilty": 7250,
    "thought": 3850,
    "Ġstopped": 5956,
    "ateness": 15518,
    "Ġexclaiming": 13640,
    "Ġbust": 10167,
    "Ġattent": 4362,
    "vative": 1612,
    "Ġtransformed": 22616,
    "Ġconsented": 11295,
    "Ġones": 3023,
    "Ġton": 15463,
    "Ġwre": 5077,
    "Ġburg": 23650,
    "ro": 301,
    "su": 795,
    "Ġissu": 6253,
    "Ġwarmed": 12022,
    "Ġdefiance": 11068,
    "Ġadmiral": 17304,
    "Ġprejudiced": 24809,
    "Ġsophisticated": 1550,
    "Ġchronicler": 20228,
    "Ġimmured": 24071,
    "Ġtrustworthy": 24107,
    "Ġinterven": 10997,
    "Ġrind": 21966,
    "exclaimed": 11788,
    "antee": 22094,
    "Ġescorted": 23504,
    "Ġparson": 6689,
    "Ġfooting": 14482,
    "etwork": 444,
    "Ġincarn": 11812,
    "Ġaffront": 18788,
    "Ġbenjamin": 26567,
    "pennies": 26285,
    "Ġeighteenth": 14753,
    "judging": 24201,
    "Ġkirwin": 8496,
    "Ġposture": 24164,
    "Ġapothecary": 13658,
    "considerably": 13444,
    "Ġexcellent": 4240,
    "Ġisle": 8832,
    "ened": 1388,
    "Ġsilly": 7685,
    "Ġburst": 4381,
    "hor": 2573,
    "Ġshrivelled": 19702,
    "boone": 23252,
    "onden": 13843,
    "loving": 18537,
    "twain": 23699,
    "Ġusefulness": 19406,
    "omeness": 18015,
    "Ġbead": 21747,
    "rels": 6664,
    "Ġample": 11796,
    "work": 1733,
    "icles": 17972,
    "degree": 12799,
    "Ġap": 5008,
    "Ġacquaintance": 4137,
    "classes": 12133,
    "Ġkilling": 13331,
    "Ġhams": 16612,
    "Ġdivert": 23592,
    "Ġpost": 4275,
    "Ġeither": 2604,
    "Ġisol": 8833,
    "pressing": 19013,
    "Ġintending": 11703,
    "Ġhandkerchief": 8913,
    "thumb": 18218,
    "task": 13792,
    "Ġjollity": 25566,
    "liber": 18813,
    "Ġparading": 23709,
    "Ġhurriedly": 11250,
    "stayed": 25290,
    "Ġgra": 415,
    "bour": 2074,
    "Ġunimaginable": 15245,
    "woes": 21132,
    "osition": 1372,
    "Ġenthusiastic": 19964,
    "Ġpours": 17911,
    "phantoms": 24679,
    "Ġfrequent": 3289,
    "rings": 10722,
    "Ġmichaelmas": 26374,
    "Ġnash": 5819,
    "Ġmisgiv": 14344,
    "Ġgoverning": 2796,
    "Ġconsummate": 25310,
    "glim": 19363,
    "Ġdeser": 3888,
    "Ġrapturously": 24888,
    "Ġreproach": 9556,
    "roy": 7853,
    "Ġ130": 24781,
    "Ġphotography": 24683,
    "Ġmediterranean": 12313,
    "elop": 1521,
    "shadows": 25479,
    "Ġdrowned": 9551,
    "Ġlining": 13950,
    "Ġexternal": 8364,
    "Ġfanned": 19099,
    "ounced": 4954,
    "Ġofficial": 7081,
    "Ġloss": 822,
    "val": 1146,
    "prehensible": 12358,
    "archangel": 18777,
    "type": 16174,
    "Ġhush": 13210,
    "univers": 15769,
    "Ġparaph": 22134,
    "sych": 9889,
    "request": 21240,
    "Ġdenying": 14658,
    "Ġsitt": 21216,
    "hind": 20893,
    "minutes": 7512,
    "ħ": 232,
    "black": 6768,
    "Ġprocedure": 2810,
    "stretching": 20497,
    "Ġvouch": 15807,
    "Ġinsp": 2102,
    "Ġyellowish": 24430,
    "Ġarise": 7895,
    "ners": 3274,
    "Ġmeant": 3551,
    "Ġlust": 9197,
    "Ġsounded": 8590,
    "Ġpsych": 10176,
    "Ġabide": 14190,
    "hoisted": 19281,
    "uzz": 4524,
    "Ġdiscussing": 5202,
    "Ġhar": 5814,
    "Ġsaith": 14155,
    "unction": 10234,
    "Ġdisclose": 16154,
    "Ġjan": 11760,
    "his": 1411,
    "Ġnominal": 15167,
    "Ġequator": 7461,
    "frightened": 17195,
    "misrepresented": 24211,
    "cake": 20803,
    "yd": 21141,
    "Ġpack": 5444,
    "Ġtorm": 5434,
    "Ġlimb": 9401,
    "Ġheed": 5630,
    "Ġfamily": 1966,
    "Ġumb": 11645,
    "iring": 1708,
    "scence": 14418,
    "Ġpilgrimage": 17307,
    "changing": 10854,
    "drew": 7334,
    "×": 152,
    "gang": 17553,
    "Ġsettled": 3744,
    "Ġsweetest": 13246,
    "beloved": 19459,
    "Ġarri": 2556,
    "Ġaddressing": 11164,
    "Ġunguarded": 15848,
    "Ġridges": 16731,
    "bweb": 20790,
    "iers": 5990,
    "according": 12026,
    "perseus": 26005,
    "Ġjacob": 1898,
    "Ġfootmen": 23796,
    "Ġspin": 7629,
    "Ġtwelve": 4963,
    "Ġanalyzing": 18799,
    "mass": 12487,
    "Ġresolute": 19244,
    "inquir": 9535,
    "Ġbreaking": 6310,
    "world": 5058,
    "Ġperilously": 24507,
    "gon": 17552,
    "Ġdard": 21420,
    "Ġlibr": 15999,
    "Ġindiscriminately": 20626,
    "Ġinglorious": 24424,
    "Ġsixteen": 8282,
    "effect": 8603,
    "ef": 5134,
    "Ġcontingency": 26244,
    "Ġlard": 13946,
    "Ġsmiling": 5474,
    "Ġhelper": 24023,
    "endure": 22215,
    "Ġban": 7156,
    "Ġgangs": 21606,
    "Ġexplore": 15906,
    "rail": 10204,
    "closed": 23151,
    "Ġjoyous": 14663,
    "Ġdirecting": 16298,
    "ti": 8389,
    "Ġwonderland": 23423,
    "Ġdisappointing": 19578,
    "ignominious": 26587,
    "tired": 21071,
    "Ġfoolish": 5979,
    "rest": 1632,
    "Ġcrippled": 25278,
    "buncle": 13691,
    "magnificent": 20273,
    "Ġdisappointment": 6626,
    "assment": 9738,
    "Ġuntidy": 23521,
    "Ġcompact": 2262,
    "Ġaccomp": 4713,
    "Ġtop": 2473,
    "Ġunlabeled": 3802,
    "front": 12168,
    "ds": 4688,
    "Ġevangelists": 20338,
    "Ġensemble": 1609,
    "Ġcopied": 20006,
    "Ġdecision": 2675,
    "Ġoil": 3374,
    "Ġtemperature": 1003,
    "aspect": 10193,
    "Ġthrust": 5084,
    "brew": 11473,
    "Ġagonized": 25372,
    "Ġefficiently": 3488,
    "summer": 11992,
    "carrying": 16712,
    "Ġflour": 8944,
    "inates": 21179,
    "anter": 9166,
    "Ġdo": 511,
    "unning": 4493,
    "Ġpavement": 9577,
    "Ġunfathom": 14788,
    "Ġstraightened": 12106,
    "Ġproport": 2298,
    "Ġstores": 18068,
    "Ġglancing": 5399,
    "Ġaccording": 5508,
    "pow": 10717,
    "Ġdiligence": 17114,
    "Ġmighty": 4233,
    "Ġresc": 4506,
    "Ġvolley": 24145,
    "ouncement": 11743,
    "Ġcherub": 23284,
    "Ġcumberland": 21353,
    "Ġpenetrating": 17011,
    "floated": 24643,
    "Ġexcurs": 23311,
    "ihood": 20921,
    "Ġ[": 6967,
    "visit": 7754,
    "cheap": 23803,
    "Ġcharlotte": 3891,
    "urg": 8141,
    "Ġmut": 3584,
    "Ġinte": 2067,
    "Ġplainpalais": 20736,
    "Ġinspect": 5963,
    "Ġregal": 16065,
    "Ġevents": 4472,
    "servants": 15037,
    "brimmed": 14588,
    "ividually": 22085,
    "tackles": 25624,
    "Ġphysi": 9987,
    "ampl": 21845,
    "Ġmixture": 9562,
    "oar": 12495,
    "Ġcolumns": 14375,
    "Ġreiterating": 26474,
    "Ġgreyish": 24208,
    "Ġease": 5629,
    "bound": 6220,
    "rows": 6442,
    "pton": 15791,
    "Ġbraces": 14669,
    "Ġdictionaries": 12338,
    "Ġspears": 12921,
    "Ġfolk": 10375,
    "Ġinflexibly": 26370,
    "Ġencompassed": 15252,
    "Ġinquest": 16547,
    "prior": 21031,
    "Ġlestrade": 5825,
    "leave": 7837,
    "Ġspiritual": 9929,
    "Ġconnivance": 25225,
    "dropout": 3199,
    "Ġgroping": 13664,
    "Ġdeserves": 13288,
    "fail": 17540,
    "Ġsuffocated": 20727,
    "Ġslay": 16304,
    "Ġjud": 3359,
    "Ġcyp": 21343,
    "prison": 14662,
    "icions": 21560,
    "Ġnut": 12643,
    "Ġdeduced": 12205,
    "Ġreligious": 25121,
    "Ġtour": 9147,
    "Ġfishe": 15583,
    "Ġclustered": 25233,
    "Ġeff": 686,
    "truth": 9918,
    "notches": 22745,
    "details": 19674,
    "composed": 14739,
    "Ġpunctually": 17138,
    "h": 76,
    "Ġpreceded": 13427,
    "Ġreserves": 19669,
    "ipt": 12476,
    "Ġrenders": 13282,
    "Ġbroom": 18906,
    "Ġswitching": 23054,
    "Ġordinarily": 20648,
    "Ġaccompaniments": 24482,
    "ġ": 226,
    "Ġmuster": 16120,
    "Ġuntamed": 19163,
    "pet": 4867,
    "Ġspectator": 19404,
    "Ġdominion": 16522,
    "Ġ116": 24440,
    "games": 20879,
    "til": 17671,
    "Ġslaugh": 18937,
    "Ġgracechurch": 12196,
    "blog": 19838,
    "bird": 9585,
    "Ġenlarged": 25985,
    "thirds": 25046,
    "Ġsoles": 22073,
    "Ġstilly": 25973,
    "quit": 15759,
    "Ġburning": 5976,
    "Ġcalm": 3449,
    "uer": 21099,
    "Ġimprisonment": 22381,
    "Ġdomain": 3437,
    "Ġrepairing": 25589,
    "Ġvess": 3298,
    "Ġplacid": 11824,
    "Ġxxxii": 24970,
    "sample": 12504,
    "Ġraft": 16114,
    "ote": 4596,
    "Ġpleasing": 6190,
    "exact": 7909,
    "Ġliberties": 19666,
    "itate": 6667,
    "kindled": 16660,
    "Ġvines": 12748,
    "specul": 23940,
    "however": 4374,
    "Ġpythag": 26448,
    "Ġpreach": 14172,
    "erably": 7573,
    "Ġtwig": 11848,
    "dreadful": 11421,
    "Ġprevailing": 24673,
    "Ġimpertinent": 9077,
    "blubber": 15235,
    "fif": 9116,
    "stirred": 20423,
    "ricane": 16276,
    "Ġvows": 15806,
    "âĢĻ!âĢĿ": 18167,
    "Ġtigris": 25759,
    "usions": 6159,
    "olen": 9698,
    "Ġcemeteries": 26375,
    "Ġprompt": 3191,
    "Ġideas": 5494,
    "ign": 1704,
    "Ġdemon": 7868,
    "Ġ221": 25068,
    "bug": 17492,
    "Ġunwound": 25169,
    "Ġidle": 8252,
    "Ġexamined": 6334,
    "Ġagree": 7646,
    "itious": 8779,
    "Ġexempl": 21828,
    "Ġfootsteps": 16572,
    "Ġpret": 3037,
    "Ġwhalemen": 3913,
    "ursday": 12274,
    "Ġprobability": 1124,
    "Ġembellished": 25848,
    "stiff": 12672,
    "destroy": 19509,
    "raction": 8137,
    "mai": 22911,
    "sk": 5521,
    "asions": 12648,
    "Ġsabbee": 17255,
    "zz": 4295,
    "romeda": 17262,
    "Ġpleased": 4066,
    "Ġeste": 6084,
    "Ġclimb": 15078,
    "Ġknowest": 12860,
    "utional": 17983,
    "Ġpaintings": 15055,
    "Ġcrater": 16438,
    "Ġfoolscap": 24158,
    "Ġlegitimate": 20641,
    "Ġgard": 2191,
    "Ġmermaid": 17813,
    "Ġsalmon": 24059,
    "Ġredoubled": 23752,
    "Ġagonies": 14251,
    "Ġnewly": 9337,
    "Ġcrush": 9421,
    "Ġrecounted": 22735,
    "Ġmould": 6519,
    "Ġ177": 13411,
    "Ġindu": 5293,
    "Ġclattered": 22345,
    "astonished": 15032,
    "sailed": 17666,
    "maj": 18803,
    "Ġgladstone": 23867,
    "Ġincreases": 3798,
    "Ġcanallers": 13626,
    "ert": 2633,
    "gn": 8081,
    "Ġstacked": 21740,
    "Ġpreliminaries": 25176,
    "Ġsaddest": 16662,
    "Ġstrengthen": 20699,
    "harm": 13734,
    "chanced": 18800,
    "Ġguidance": 9416,
    "Ġrecord": 5316,
    "asiness": 8128,
    "ct": 309,
    "Ġtransp": 4770,
    "Ġrats": 21970,
    "dered": 2475,
    "nyder": 16686,
    "Ġdevoured": 16133,
    "Ġsearched": 15817,
    "Ġgrinned": 16857,
    "Ġscraps": 16902,
    "Ġreprehensible": 15696,
    "Ġsir": 1575,
    "Ġsale": 14154,
    "Ġworldly": 16328,
    "Ġcompunction": 18591,
    "Ġintensely": 17017,
    "acknowledge": 18470,
    "Ġgenerator": 3383,
    "ë": 172,
    "Ġhereditarily": 25224,
    "Ġreve": 2933,
    "despair": 8343,
    "Ġfuel": 13903,
    "erring": 11057,
    "Ġjune": 10288,
    "Ġwisdom": 11234,
    "Ġtears": 4234,
    "Ġleeward": 6210,
    "cart": 10688,
    "Ġflank": 8228,
    "Ġsee": 804,
    "mine": 5618,
    "xes": 21139,
    "sloop": 26145,
    "Ġcontribut": 12856,
    "Ġvalue": 2086,
    "Ġburnished": 23995,
    "Ġhopelessly": 16374,
    "Ġirretrie": 23372,
    "Ġdangerous": 6613,
    "Ġtutored": 20126,
    "Ġinvention": 19951,
    "ile": 522,
    "Ġknew": 2056,
    "Ġabund": 8865,
    "pat": 10116,
    "Ġplanks": 5564,
    "Ġinclinations": 19538,
    "beating": 22486,
    "ieth": 10704,
    "Ġdistributed": 18661,
    "anywhere": 14682,
    "Ġadvertisement": 6941,
    "Ġlatest": 16822,
    "Ġdip": 13906,
    "exertion": 16014,
    "Ġparish": 8855,
    "swed": 24253,
    "cold": 9589,
    "acter": 2511,
    "Ġbetokened": 18795,
    "Ġlungless": 24863,
    "Ġinvulnerable": 19146,
    "polar": 24583,
    "gentlemanlike": 20000,
    "Ġwinchester": 10065,
    "Ġsuperl": 16445,
    "removing": 17764,
    "acle": 4716,
    "land": 1532,
    "discernible": 20549,
    "Ġcomes": 3424,
    "vex": 21699,
    "Ġpoorly": 9854,
    "sailor": 14714,
    "Ġintric": 9246,
    "Ġasked": 2277,
    "======": 9832,
    "comfortably": 16875,
    "ach": 435,
    "leader": 25351,
    "boats": 6204,
    "plied": 10254,
    "Ġcharley": 19006,
    "unhesitatingly": 26496,
    "co": 2435,
    "Ġwithdrawing": 11340,
    "Ġunseason": 22047,
    "Ġraiment": 22648,
    "Ġmaintainable": 12932,
    "quarried": 24945,
    "Ġtread": 9408,
    "Ġpiling": 17910,
    "volutional": 1935,
    "Ġsupre": 10269,
    "ith": 330,
    "anders": 18152,
    "Ġshipmates": 6720,
    "ores": 2413,
    "Ġallusion": 7625,
    "Ġwinking": 17793,
    "Ġpremises": 10487,
    "Ġshooting": 11162,
    "Ġallurements": 22069,
    "icha": 11736,
    "erred": 6376,
    "arrested": 15598,
    "Ġbrace": 11211,
    "refuge": 24734,
    "dw": 3335,
    "Ġdefects": 12331,
    "Ġentrances": 25834,
    "Ġallude": 12777,
    "Ġvibration": 17099,
    "ahead": 12432,
    "Ġentertaining": 16926,
    "Ġpeople": 2547,
    "varieties": 23183,
    "ror": 7351,
    "operation": 13500,
    "Ġcigars": 12250,
    "och": 21000,
    "pond": 21012,
    "Ġbedfellows": 23437,
    "prow": 15410,
    "ampton": 18145,
    "quohog": 21855,
    "stript": 21654,
    "Ġawa": 7713,
    "Ġcott": 3712,
    "harpo": 4805,
    "phology": 3011,
    "turner": 19540,
    "Ġimag": 2674,
    "minute": 11274,
    "Ġcrying": 10786,
    "weaving": 18666,
    "ahit": 9381,
    "Ġtext": 2268,
    "Ġcolds": 23757,
    "Ġended": 7949,
    "Ġcranial": 25592,
    "Ġsuggestion": 19706,
    "Ġamiable": 4272,
    "Ġtravel": 5952,
    "proportion": 16181,
    "Ġmaintaining": 1511,
    "scept": 21052,
    "Ġmisunderstood": 18709,
    "Ġstraight": 3705,
    "Ġbye": 12735,
    "Ġclassify": 1504,
    "Ġbell": 4636,
    "Ġsuffered": 5649,
    "ards": 2509,
    "adopt": 25544,
    "istrate": 7406,
    "Ġcomfortless": 23910,
    "Ġoccasion": 3249,
    "Ġtranspointed": 22475,
    "Ġcapst": 8596,
    "Ġspeech": 4610,
    "incredible": 16498,
    "Ġwipe": 25764,
    "Ġstony": 21736,
    "Ġargosy": 24273,
    "Ġfitting": 21406,
    "Ġsimpler": 2048,
    "Ġcoat": 4554,
    "Ġappeased": 23194,
    "Ġextant": 18705,
    "Ġpequod": 2322,
    "up": 1282,
    "Ġcellars": 24665,
    "Ġsaf": 4005,
    "Ġfreshness": 23985,
    "Ġrailway": 15020,
    "ath": 862,
    "Ġporpoises": 13381,
    "Ġfisherman": 12073,
    "Ġohio": 19128,
    "etian": 13958,
    "Ġunscrew": 22035,
    "onstr": 12543,
    "stock": 13220,
    "aisance": 15073,
    "Ġadviser": 25312,
    "expressed": 9041,
    "travelling": 24317,
    "Ġjuggl": 20436,
    "americ": 8155,
    "rench": 3969,
    "Ġpawn": 12061,
    "Ġauthoritative": 19560,
    "Ġoverwhelm": 25052,
    "Ġsentiment": 6589,
    "active": 16101,
    "Ġcabinet": 23859,
    "uerus": 26406,
    "Ġbeware": 8827,
    "Ġfift": 6382,
    "Ġawoke": 7286,
    "Ġchinks": 22248,
    "zza": 24167,
    "cad": 17504,
    "presented": 12989,
    "supposed": 13314,
    "conced": 22460,
    "Ġplead": 14454,
    "ieties": 19022,
    "Ġneighbouring": 12116,
    "Ġblush": 14401,
    "stricken": 9883,
    "Ġisrael": 21800,
    "Ġgap": 21596,
    "hoisting": 23715,
    "Ġgazette": 19499,
    "Ġiceland": 15145,
    "Ġthickets": 24020,
    "Ġelementary": 24814,
    "oors": 17620,
    "enorm": 17781,
    "Ġcould": 703,
    "Ġinvader": 23477,
    "Ġalmighty": 18104,
    "Ġstim": 18063,
    "Ġfri": 17878,
    "disguise": 26306,
    "Ġmonday": 6127,
    "susp": 10596,
    "Ġschoolmasters": 19719,
    "short": 6566,
    "Ġlive": 2736,
    "Ġostentatiously": 20467,
    "Ġtrembled": 8701,
    "Ġwore": 6377,
    "Ġquies": 18464,
    "õ": 182,
    "Ġbaker": 4696,
    "ache": 8518,
    "Ġbasement": 24702,
    "Ġincessant": 15096,
    "Ġswing": 13033,
    "Ġodd": 6624,
    "Ġbidirectional": 3758,
    "Ġreappearance": 21664,
    "Ġuseless": 7037,
    "oder": 2460,
    "Ġpastures": 23418,
    "fain": 13714,
    "Ġoblivious": 26032,
    "Ġpalsy": 25778,
    "Ġhousemaid": 14463,
    "conclusions": 25671,
    "to": 715,
    "Ġwithheld": 18114,
    "Ġconviction": 6326,
    "âĢĶ": 519,
    "Ġcode": 1721,
    "writhed": 26080,
    "tide": 11532,
    "Ġsaluted": 14757,
    "Ġpr": 1601,
    "Ġcombination": 22844,
    "scho": 8759,
    "etuous": 21580,
    "Ġdive": 10172,
    "orrah": 17875,
    "uity": 12515,
    "child": 5538,
    "ga": 17550,
    "Ġidentifies": 12013,
    "Ġimpass": 15983,
    "Ġleathern": 15050,
    "Ġtemples": 18637,
    "Ġguess": 4903,
    "Ġsoft": 1461,
    "undertaking": 23786,
    "Ġaged": 10321,
    "hearted": 6970,
    "Ġpromises": 10400,
    "iminished": 19021,
    "Ġgreeted": 23211,
    "mm": 676,
    "itals": 17820,
    "Ġdeception": 18139,
    "Ġdiscrimination": 23604,
    "Ġfrederick": 15584,
    "Ġpainful": 6462,
    "Ġminiature": 11039,
    "Ġforbidding": 17079,
    "Ġloungers": 24862,
    "unk": 4539,
    "Ġposted": 16724,
    "Ġchristians": 13307,
    "Ġelbow": 12918,
    "subjects": 19875,
    "imodal": 17446,
    "oton": 3609,
    "alike": 17942,
    "Ġremonstrate": 22792,
    "Ġdisgrace": 7215,
    "Ġjoker": 22295,
    "Ġunimportant": 22025,
    "Ġfrancis": 26063,
    "Ġdwelling": 7322,
    "Ġsperma": 19046,
    "Ġameric": 3855,
    "Ġdiscuss": 9473,
    "Ġowner": 8921,
    "col": 3105,
    "around": 12605,
    "ire": 494,
    "Ġinv": 2226,
    "Ġlee": 4226,
    "Ġvort": 18193,
    "Ġnaked": 8126,
    "eastern": 17533,
    "Ġmissing": 6175,
    "mand": 3895,
    "Ġsimilitude": 19209,
    "Ġson": 2985,
    "agation": 1252,
    "Ġhackluyt": 25655,
    "Ġswung": 6449,
    "Ġparsee": 6413,
    "Ġgrove": 12144,
    "Ġslighter": 18939,
    "incing": 15484,
    "Ġdress": 4024,
    "Ġtranquil": 7310,
    "Ġ121": 24466,
    "Ġdoted": 21431,
    "may": 3682,
    "bber": 4568,
    "Ġdece": 6996,
    "Ġcopestone": 24936,
    "Ġbon": 8785,
    "Ġwilling": 7421,
    "Ġadvances": 12985,
    "convinced": 10622,
    "Ġoverlapping": 26238,
    "Ġhumility": 12982,
    "Ġgeometric": 3221,
    "thesize": 24906,
    "germ": 15355,
    "itche": 7578,
    "Ġmischief": 8541,
    "gover": 10702,
    "Ġtow": 4396,
    "Ġjoists": 19231,
    "fair": 10092,
    "Ġhearsed": 25039,
    "Ġnuts": 17951,
    "than": 4092,
    "due": 22407,
    "Ġextend": 18706,
    "Ġadvised": 16204,
    "there": 1423,
    "Ġwrist": 8242,
    "Ġ80": 24456,
    "damn": 20022,
    "Ġheighten": 19528,
    "Ġpallidness": 25604,
    "Ġorganization": 7983,
    "Ġmiserable": 3637,
    "Ġfurnace": 19438,
    "Ġworked": 6583,
    "face": 3680,
    "tha": 15821,
    "Ġpresenting": 18986,
    "Ġhilarity": 20296,
    "twig": 23698,
    "Ġflowery": 16231,
    "Ġapology": 8327,
    "Ġcrimson": 16440,
    "Ġblind": 3719,
    "shipmates": 11926,
    "Ġdiscrete": 2481,
    "Ġdepicting": 22592,
    "Ġkent": 6691,
    "Ġunlikely": 10907,
    "ena": 11567,
    "overlooked": 23320,
    "foot": 9046,
    "Ġbal": 1130,
    "Ġtiger": 11554,
    "Ġmagician": 25058,
    "benevolently": 25600,
    "Ġartfully": 22608,
    "deliberated": 26118,
    "Ġillustrations": 17108,
    "Ġsilk": 11960,
    "Ġmottled": 20677,
    "Ġcords": 14878,
    "Ġvices": 14082,
    "Ġatt": 779,
    "Ġimprudent": 12843,
    "Ġapplication": 2049,
    "Ġrambled": 20167,
    "Ġstudious": 23239,
    "Ġtravellers": 11308,
    "aver": 6785,
    "Ġloitering": 22113,
    "Ġquote": 18466,
    "ellig": 523,
    "Ġast": 2962,
    "Ġwilled": 21290,
    "Ġpregnant": 26535,
    "Ġunwaning": 25170,
    "fering": 17542,
    "erranean": 9333,
    "Ġestimates": 3750,
    "================": 3726,
    "Ġmerchants": 23731,
    "Ġunprincipled": 20707,
    "Ġvalidation": 2358,
    "Ġgul": 7859,
    "Ġprim": 8243,
    "Ġsubsequently": 16158,
    "complain": 14356,
    "Ġbasic": 24701,
    "it": 276,
    "decided": 13214,
    "Ġbathe": 25443,
    "affording": 23776,
    "Ġany": 687,
    "Ġref": 900,
    "Ġcoronation": 13332,
    "drawing": 10486,
    "onsensical": 18576,
    "Ġdivulged": 16648,
    "Ġdig": 6135,
    "instant": 8651,
    "Ġcocain": 18598,
    "theast": 21745,
    "Ġ[\"": 19929,
    "ications": 4445,
    "Ġgrip": 11626,
    "Ġmyst": 4053,
    "Ġoverflowing": 17237,
    "Ġnoticing": 18224,
    "Ġseparating": 16685,
    "Ġceti": 24773,
    "Ġpint": 17909,
    "Ġstout": 6024,
    "Ġdem": 11673,
    "orers": 14102,
    "Ġfrantic": 7956,
    "Ġclimax": 25051,
    "Ġtram": 11091,
    "tooth": 18579,
    "condite": 23246,
    "Ġperemptorily": 17366,
    "Ġnantucket": 2838,
    "Ġscheduling": 2349,
    "dreams": 12335,
    "Ġchristendom": 16695,
    "ertips": 23638,
    "september": 14035,
    "Ġpurposed": 23551,
    "Ġidiot": 11970,
    "Ġwharf": 9559,
    "Ġsqueeze": 10038,
    "Ġbowditch": 19322,
    "Ġrucastle": 5176,
    "melted": 25206,
    "Ġdisregarded": 22527,
    "Ġangel": 4852,
    "impatience": 25500,
    "locked": 7677,
    "direful": 25896,
    "gentleman": 7518,
    "Ġseverity": 15818,
    "scattered": 22992,
    "washed": 13043,
    "Ġmarlings": 23031,
    "Ġdaniel": 15110,
    "purse": 20023,
    "Ġoftentimes": 20154,
    "Ġwakes": 11571,
    "Ġengagements": 9977,
    "diminished": 20838,
    "Ġpremature": 3728,
    "Ġpromoting": 3163,
    "Ġwashington": 17202,
    "finer": 17546,
    "Ġ1950": 11359,
    "Ġvictoria": 14872,
    "Ġextensive": 12944,
    "Ġvigour": 24462,
    "frisco": 16787,
    "adequate": 15202,
    "rad": 2256,
    "Ġtreas": 7358,
    "Ġpainting": 13140,
    "Ġexertion": 8053,
    "brothers": 17024,
    "Ġfatally": 19392,
    "Ġtoilette": 20491,
    "Ġrecklessness": 24745,
    "Ġsalted": 14755,
    "Ġindian": 4135,
    "middle": 11310,
    "twill": 21073,
    "Ġsoldiers": 8686,
    "&": 10,
    "actually": 14296,
    "Ġh": 290,
    "Ġthis": 382,
    "Ġwaterward": 23365,
    "Ġboard": 3384,
    "abama": 12706,
    "Ġstopping": 2751,
    "Ġnorm": 761,
    "ridden": 24362,
    "Ġrestlessness": 23289,
    "Ġsits": 10768,
    "?âĢĿ": 700,
    "yth": 983,
    "Ġrevol": 5537,
    "Ġslide": 10393,
    "Ġcolt": 11044,
    "wl": 17702,
    "Ġtrumpet": 9573,
    "Ġtim": 4578,
    "Ġaug": 6234,
    "Ġcringing": 25941,
    "Ġdetermination": 9818,
    "Ġpush": 9184,
    "Ġwidest": 24234,
    "Ġmajority": 13291,
    "fier": 9593,
    "ubb": 1649,
    "Ġstomach": 11652,
    "punctual": 26355,
    "Ġcleans": 18947,
    "Ġpipe": 4323,
    "Ġinexpressible": 17332,
    "Ġlat": 5087,
    "Ġdistance": 3484,
    "Ġtarn": 21157,
    "Ġsome": 653,
    "vocation": 25084,
    "Ġcounterpane": 11343,
    "Ġmonomania": 17085,
    "chamber": 13624,
    "Ġfully": 6342,
    "riumph": 4919,
    "Ġmeasuring": 22879,
    "Ġoysters": 20577,
    "inois": 17738,
    "each": 7335,
    "sche": 13016,
    "ological": 1883,
    "perform": 15894,
    "vine": 10734,
    ":--âĢľ": 24550,
    "dred": 2531,
    "Ġengraved": 17081,
    "Ġoverthrow": 18430,
    "Ġforg": 3789,
    "tural": 21065,
    "Ġaerial": 21197,
    "nett": 16219,
    "Ġmann": 18416,
    "avier": 2831,
    "Ġbeen": 626,
    "ĠĠĠĠĠĠĠĠĠĠĠĠĠĠĠĠĠĠĠĠĠĠĠĠĠĠĠĠĠĠĠĠĠĠĠĠĠĠ": 16526,
    "fortnight": 13085,
    "Ġpresents": 8244,
    "Ġwickedness": 9525,
    "help": 1479,
    "adv": 4537,
    "centre": 17087,
    "onged": 18410,
    "Ġsoapstone": 20509,
    "Ġwarmly": 8987,
    "ze": 1318,
    "Ġbrine": 18770,
    "cun": 20794,
    "Ġstrongly": 5657,
    "sway": 15423,
    "Ġarchitectures": 2909,
    "hedge": 22496,
    "heart": 4526,
    "Ġcopying": 17068,
    "Ġmuhammad": 26169,
    "Ġsch": 13834,
    "abroad": 18108,
    "erne": 21268,
    "oh": 1582,
    "hem": 6663,
    "Ġpond": 13915,
    "Ġdiana": 21434,
    "Ġspit": 22117,
    "Ġinducements": 24965,
    "Ġcontaining": 2233,
    "Ġbellies": 13354,
    "estruct": 22222,
    "Ġrecent": 7436,
    "Ġtowing": 9193,
    "Ġsupplying": 19797,
    "Ġ52": 24321,
    "Ġclutched": 13518,
    "Ġconversing": 14633,
    "Ġvener": 8163,
    "Ġdelicious": 14792,
    "Ġmeddle": 19490,
    "Ġpoles": 11003,
    "gul": 12463,
    "Ġexpands": 25237,
    "ction": 501,
    "Ġcountenance": 3972,
    "Ġinvestment": 24336,
    "Ġtone": 4042,
    "Ġ166": 25004,
    "Ġfeedback": 23431,
    "Ġsig": 867,
    "Ġindiscreet": 22953,
    "Ġviolin": 16427,
    "Ġstride": 22610,
    "else": 6533,
    "Ġrele": 2917,
    "Ġcreditable": 19621,
    "Ġmurdering": 14810,
    "Ġobservable": 25126,
    "Ġdepression": 21837,
    "Ġmis": 917,
    "Ġalpha": 13587,
    "Ġacquiesced": 25493,
    "Ġemer": 5958,
    "anean": 7443,
    "Ġsocieties": 20181,
    "Ġspeechless": 13352,
    "Ġreadability": 2726,
    "Ġcontempl": 6701,
    "apprehension": 26114,
    "exceedingly": 9566,
    "imly": 12684,
    "ief": 2046,
    "hertfordshire": 10936,
    "Ġserenity": 10027,
    "Ġcrow": 3807,
    "osely": 9264,
    "Ġsewing": 21958,
    "lob": 22503,
    "Ġeight": 3902,
    "Ġlifelessly": 23047,
    "Ġfarmhouse": 24984,
    "Ġlysander": 13138,
    "Ġresignation": 18566,
    "Ġbrack": 23833,
    "Ġscarcely": 4012,
    "Ġribbed": 16804,
    "S": 55,
    "scot": 14417,
    "Ġgaining": 9491,
    "comprehens": 16172,
    "Ġshocked": 9400,
    "Ġelegance": 11332,
    "Ġverdure": 10612,
    "surpr": 5996,
    "Ġantics": 24178,
    "athy": 14322,
    "suited": 22636,
    "Ġrecovering": 11861,
    "rederick": 14078,
    "Ġpeculiarly": 8286,
    "Ġglided": 7447,
    "Ġhorribly": 16340,
    "pause": 12498,
    "Ġringed": 16750,
    "locks": 14455,
    "andam": 10888,
    "Ġhatred": 8608,
    "oted": 4597,
    "glue": 17556,
    "dig": 4929,
    "Ġradiating": 24335,
    "Ġpenet": 6888,
    "Ġfearfully": 23509,
    "likes": 18814,
    "hammock": 16352,
    "Ġdisobedience": 22532,
    "Ġescapes": 23505,
    "Ġbuildings": 24720,
    "Ġhumorousness": 25377,
    "occ": 4484,
    "Ġselects": 4386,
    "Ġjudgment": 5765,
    "ocation": 14626,
    "knows": 19171,
    "Ġlingered": 13504,
    "Ġenvironment": 3981,
    "measure": 10030,
    "Ġbaw": 15566,
    "Ġformality": 22825,
    "Ġbeing": 1165,
    "weekly": 25684,
    "direction": 17524,
    "difficulty": 12388,
    "Ġsensation": 6896,
    "Ġoun": 13862,
    "Ġgro": 4397,
    "her": 489,
    "posted": 24635,
    "Ġanomaly": 25636,
    "ele": 9114,
    "Ġbristol": 14379,
    "Ġhorizont": 6937,
    "Ġthickest": 16654,
    "Ġbec": 1351,
    "ronted": 14876,
    "Ġalphabetical": 17201,
    "enchant": 21282,
    "unworthy": 18161,
    "Ġtranquo": 14842,
    "Ġdiscrimin": 2549,
    "Ġveter": 15809,
    "Ġ92": 24590,
    "Ġelevation": 14898,
    "Ġbid": 6131,
    "Ġdod": 6672,
    "Ġfatality": 12092,
    "Ġsmart": 11813,
    "Ġabode": 7900,
    "Ġfac": 6381,
    "ulpt": 10885,
    "Ġcanopy": 18322,
    "Ġvigorous": 10566,
    "Ġmapple": 11150,
    "icked": 10332,
    "united": 14059,
    "iated": 5889,
    "Ġgl": 1255,
    "Ġverdant": 15002,
    "Ġtusk": 25425,
    "Ġrejoinder": 24597,
    "Ġtumult": 7114,
    "azed": 9398,
    "Ġal": 342,
    "warrior": 24798,
    "Ġphrase": 11187,
    "Ġbott": 3151,
    "Ġscimet": 22271,
    "rigible": 24931,
    "Ġwondering": 7971,
    "Ġfurnish": 9018,
    "Ġcousins": 9914,
    "Ġgive": 1714,
    "ilent": 21717,
    "Ġpunctilious": 26352,
    "ushed": 2972,
    "lid": 20944,
    "Ġglim": 9343,
    "cod": 12441,
    "rative": 17652,
    "devil": 7894,
    "Ġrelaps": 18775,
    "Ġrecumbent": 22737,
    "Ġthenceforth": 25182,
    "Ġenigmatical": 20596,
    "Ġirreproachable": 24917,
    "reject": 21235,
    "Ġwreck": 7314,
    "Ġfulfil": 9550,
    "Ġsomeone": 6703,
    "instances": 13318,
    "ornament": 23486,
    "opatra": 22469,
    "Ġing": 5283,
    "ian": 1238,
    "Ġcanaan": 22164,
    "prit": 19340,
    "Ġexcluded": 16380,
    "splice": 17170,
    "Ġbelongs": 8014,
    "hist": 7130,
    "pate": 21009,
    "Ġoversight": 22353,
    "Ġfiltering": 23923,
    "Ġrespectful": 16344,
    "atigable": 15269,
    "miss": 3176,
    "Ġthing": 1638,
    "Ġsolemnisation": 24114,
    "modesty": 22857,
    "Ġunholy": 26218,
    "Ġbreach": 11972,
    "Ġequalled": 13311,
    "Ġmonarch": 14414,
    "Ġhooped": 23353,
    "cont": 2921,
    "ances": 1338,
    "stones": 11635,
    "Ġmarsh": 9820,
    "Ġfervent": 14895,
    "Ġtraveller": 8048,
    "Ġcushion": 17833,
    "Ġliterature": 17148,
    "Ġimpelling": 22379,
    "ounix": 14163,
    "Ġsisterly": 16300,
    "Ġdirectly": 2106,
    "Ġhis": 380,
    "onness": 21253,
    "Ġwade": 17784,
    "Ġbag": 5699,
    "paradise": 20636,
    "Ġanecdote": 26354,
    "Ġconsulted": 13429,
    "ider": 21762,
    "Ġpitched": 9443,
    "shazzar": 15288,
    "Ġhay": 11604,
    "Ġabating": 22274,
    "Ġcoward": 7155,
    "Ġflood": 7715,
    "sticking": 21657,
    "rably": 21630,
    "Ġsunlight": 13083,
    "Ġ72": 19610,
    "vib": 21114,
    "Ġado": 7626,
    "ittered": 18439,
    "Ġembedding": 2105,
    "Ġwrote": 5011,
    "pall": 17628,
    "ipotence": 22359,
    "hump": 12475,
    "Ġcompetent": 11814,
    "Ġgreen": 3055,
    "ain": 343,
    "christmas": 20254,
    "Ġmessages": 24981,
    "Ġconfl": 11137,
    "Ġsoftness": 18917,
    "Ġplaying": 6909,
    "Ġpersons": 6180,
    "Ġpercept": 14223,
    "Ġjealously": 24125,
    "Ġpivot": 13922,
    "neying": 22441,
    "Ġtwain": 16117,
    "Ġdiab": 10611,
    "Ġirritated": 17242,
    "Ġthom": 21513,
    "´": 117,
    "Ġdistinguishing": 16496,
    "Ġdrag": 6184,
    "Ġlovely": 4710,
    "ping": 9615,
    "Ġinquisitive": 26317,
    "friendship": 24045,
    "Ġinteractions": 12900,
    "Ġbloss": 19255,
    "astic": 1868,
    "Ġprov": 4401,
    "Ġgladness": 16591,
    "Ġcovered": 5171,
    "Ġimpressed": 8198,
    "anatory": 21361,
    "Ġsweep": 8265,
    "eringly": 23000,
    "Ġink": 8802,
    "Ġeffeminacy": 20717,
    "oppressed": 24824,
    "Ġinconveniences": 24939,
    "Ġgust": 21594,
    "Ġfainted": 8791,
    "Ġreddening": 25970,
    "Ġplaid": 22601,
    "stick": 15682,
    "Ġunshored": 25813,
    "Ġpulled": 5660,
    "reflected": 24733,
    "handsome": 13175,
    "Ġfossiliferous": 25609,
    "engineer": 23145,
    "Ġarbit": 4651,
    "Ġcornelius": 13572,
    "Ġunintermitted": 26219,
    "Ġreport": 6191,
    "Ġberkshire": 16884,
    "Ġarmed": 9259,
    "Ġtranscend": 25676,
    "Ġinsipid": 26313,
    "ĉ": 202,
    "Ġbenefactor": 14697,
    "Ġscoresby": 10462,
    "Ġcomb": 1043,
    "Ġbushes": 16399,
    "Ġwhir": 6393,
    "Ġserpents": 13075,
    "Ġerskine": 17431,
    "Ġcapsized": 20088,
    "Ġexcited": 5580,
    "aulets": 18620,
    "Ġgeese": 7693,
    "Ġautumnal": 19032,
    "Ġlomb": 21556,
    "Ġstation": 5297,
    "Ç": 136,
    "dom": 6222,
    "Ġdesire": 3720,
    "Ġconcealment": 16914,
    "Ġplaymate": 23636,
    "Ġbridal": 14953,
    "retrie": 18922,
    "Ġfairness": 9893,
    "Ġtinge": 25087,
    "Ġpersisted": 13036,
    "ć": 200,
    "Ġbehav": 3541,
    "Ġfault": 5702,
    "fatigue": 20657,
    "Ġcadiz": 17324,
    "Ġadapts": 3819,
    "Ġcleanse": 24527,
    "Ġanswered": 2851,
    "Ġcum": 21340,
    "pigs": 17140,
    "Ġrese": 2090,
    "Ġcommand": 3324,
    "Ġexamining": 8005,
    "Ġworrying": 22924,
    "itering": 17818,
    "abases": 3009,
    "Ġsickness": 10538,
    "Ġhawsers": 26502,
    "Ġrules": 1920,
    "exagger": 22425,
    "Ġb": 281,
    "arded": 5029,
    "van": 7814,
    "Ġcour": 1767,
    "Ġadvise": 7934,
    "plenty": 14087,
    "Ġdistrustful": 25054,
    "Ġatlantic": 7000,
    "no": 893,
    "Ġgerman": 6141,
    "Ġauthorized": 16735,
    "Ġxviii": 23408,
    "Ġdescribe": 2766,
    "Ġc": 277,
    "presbyter": 20616,
    "Ġarray": 12806,
    "Ġarrest": 7409,
    "Ġon": 350,
    "ris": 9137,
    "Ġanswers": 7070,
    "singular": 12186,
    "Ġare": 527,
    "speech": 10666,
    "Ġstrangers": 8313,
    "queens": 22905,
    "Ġsquire": 16177,
    "Ġsuppl": 11078,
    "clothed": 19737,
    "Ġspake": 18306,
    "Ġwearied": 15790,
    "P": 52,
    "Ġregain": 22564,
    "Ġdra": 1594,
    "ference": 1881,
    "threat": 10900,
    "below": 12119,
    "Ġswain": 18879,
    "_:": 17478,
    "Ġbelted": 22945,
    "eur": 7545,
    "Ġunforgiving": 25995,
    "Ġcorporeal": 17359,
    "try": 7812,
    "Ġoccasional": 7289,
    "Ġcaptive": 14426,
    "concerning": 9067,
    "instr": 12528,
    "Ġjollies": 20368,
    "Ġeyeing": 6460,
    "Ġhandsomest": 20333,
    "otently": 21797,
    "Ġfished": 21408,
    "Ġsor": 4150,
    "Ġbitten": 21388,
    "Ġ25": 13193,
    "Ġfiles": 21411,
    "guessed": 25872,
    "Ġshocks": 16456,
    "Ġuniversal": 2235,
    "isol": 17846,
    "sit": 13779,
    "{": 95,
    "Ġcondition": 6764,
    "Ġcobweb": 22583,
    "hester": 9631,
    "Ġpossesses": 19350,
    "icuous": 10835,
    "Ġfashioned": 13319,
    "Ġoozy": 21325,
    "Ġvalid": 1742,
    "school": 10054,
    "Ġbeggar": 9348,
    "ics": 3260,
    "Ġblackness": 9392,
    "Ġsloping": 11937,
    "muring": 17601,
    "Ġcruelty": 9968,
    "falgar": 26130,
    "acca": 23596,
    "crime": 14782,
    "Ġcracked": 8594,
    "histicated": 20900,
    "Ġcapt": 1291,
    "loo": 10319,
    "dressing": 11481,
    "peter": 24298,
    "illating": 22104,
    "gir": 8082,
    "oided": 11508,
    "Ġreserve": 9970,
    "Ġconfirm": 9855,
    "Ġthomas": 17947,
    "pick": 17634,
    "Ġexecution": 6927,
    "reve": 12536,
    "Ġdocumentation": 20553,
    "Ġoper": 2121,
    "tormented": 13644,
    "Ġfinancier": 26583,
    "Ġupp": 13991,
    "constantly": 24606,
    "monkey": 19169,
    "ivia": 22081,
    "obtain": 23090,
    "ret": 1477,
    "Ġexceptions": 13228,
    "Ġinspector": 6498,
    "Ġslavish": 23170,
    "Ġregularity": 22768,
    "hors": 9598,
    "Ġcrooked": 11281,
    "Ġascended": 8665,
    "Ġeverybody": 4510,
    "favour": 9548,
    "Ġheads": 3743,
    "dangerous": 20239,
    "¡": 99,
    "Ġstrange": 2273,
    "pede": 19843,
    "enit": 17779,
    "Ġearl": 7675,
    "Ġcomparison": 7099,
    "Ġstates": 1851,
    "Ġdesign": 4136,
    "Ġbodies": 8031,
    "ours": 3428,
    "ston": 15680,
    "acing": 2718,
    "Ġshuttle": 12124,
    "Ġbecomes": 6396,
    "oct": 7554,
    "Ġtransform": 765,
    "staring": 18020,
    "Ġprecisely": 6466,
    "Ġdiversion": 17197,
    "Ġthings": 1962,
    "Ġstump": 7602,
    "bouton": 17501,
    "Ġminim": 1324,
    "Ġbury": 12039,
    "Ġdocile": 19957,
    "Ġwides": 17788,
    "Ġlooking": 2476,
    "discovering": 24251,
    "400": 20754,
    "count": 4216,
    "mindful": 19598,
    "Ġagreeable": 4552,
    "Ġfathoms": 9083,
    "forth": 9321,
    "uttermost": 24940,
    "Ġblundering": 26283,
    "Ġfat": 3463,
    "rowing": 7930,
    "Ġbilliard": 16689,
    "Ġdeliverer": 11948,
    "Ġsolid": 6443,
    "Ġrounded": 14437,
    "reluct": 26163,
    "portent": 25412,
    "ĕ": 214,
    "vy": 21106,
    "Ġyawning": 12298,
    "Ġgrenadier": 21613,
    "Ġprophes": 16347,
    "is": 280,
    "Ġdifferent": 1429,
    "Ġcant": 17824,
    "Ġmansion": 17809,
    "Ġfrosted": 19802,
    "urious": 21700,
    "cross": 3577,
    "set": 3867,
    "Ġlevers": 18077,
    "Ġwould": 649,
    "Ġhailing": 11691,
    "million": 25751,
    "Ġfootfalls": 25866,
    "bbing": 6323,
    "uation": 17694,
    "later": 20952,
    "alk": 1152,
    "Ġillust": 8262,
    "Ġdeftly": 26493,
    "Ġstriking": 6088,
    "Ġold": 1056,
    "Ġinde": 7371,
    "contin": 16542,
    "Ġrealistic": 5860,
    "Ġconfess": 3769,
    "Ġdexter": 9700,
    "Ġpull": 5152,
    "uth": 3021,
    "compassion": 12366,
    "Ġestab": 6315,
    "Ġcatherine": 2813,
    "fters": 20860,
    "iries": 18169,
    "elze": 21570,
    "Ġostent": 13583,
    "Ġoust": 21322,
    "suspicious": 25390,
    "Ġpartial": 2129,
    "Ġretrie": 10382,
    "Ġturbulence": 26597,
    "bonnet": 25742,
    "don": 3545,
    "backs": 9390,
    "Ġcontemporary": 16010,
    "Ġdisenc": 22523,
    "dignity": 15344,
    "Ġperennial": 22691,
    "Ġhemp": 9215,
    "green": 7115,
    "higher": 20405,
    "Ġhorse": 4725,
    "Ġpurest": 14938,
    "Ġrent": 11638,
    "Ġalexander": 17423,
    "gust": 6360,
    "Ġm": 274,
    "Ġunworthy": 11713,
    "Ġcleansed": 26293,
    "Ġaustral": 12170,
    "dman": 10088,
    "Ġfossils": 20221,
    "Ġsummer": 4790,
    "Ġcalamity": 17348,
    "Ġreligion": 11415,
    "Ġrooted": 13168,
    "Ġfeelingly": 22994,
    "pp": 384,
    "Ġnervous": 2404,
    "libr": 22920,
    "sized": 15427,
    "Ġdoubt": 2225,
    "wearing": 22684,
    "Ġnaval": 16899,
    "onial": 11566,
    "Ġflung": 8562,
    "Ġkeys": 11995,
    "Ġrecommence": 16812,
    "arnel": 18127,
    "Ġtoe": 13935,
    "Ġorange": 8486,
    "Ġinadequate": 17936,
    "pun": 9617,
    "Ġevenness": 22830,
    "Ġannounced": 9034,
    "string": 15683,
    "Ġprogram": 12990,
    "?âĢĿâĢĶ": 12892,
    "Ġmannish": 26237,
    "bishop": 13693,
    "Ġmort": 3461,
    "Ġriot": 14688,
    "Ġcred": 8780,
    "deceptive": 22150,
    "Ġret": 1381,
    "Ġlegible": 23531,
    "loaded": 22508,
    "Ġstrong": 1788,
    "Ġenchanted": 9080,
    "Ġobedient": 20103,
    "bethink": 25744,
    "Ġloads": 22111,
    "contents": 12056,
    "bits": 17488,
    "Ġengravings": 15064,
    "ixed": 4851,
    "Ġsubject": 2466,
    "geneva": 13729,
    "Ġrevealing": 3926,
    "Ġsign": 2500,
    "Ġeyelids": 26107,
    "nay": 7135,
    "fi": 12459,
    "Ġcostly": 23583,
    "Ġreaction": 15692,
    "Ġassertion": 13488,
    "Ġoccurrence": 14381,
    "Ġbelly": 10369,
    "Ġnodded": 11968,
    "adie": 18088,
    "specific": 10497,
    "exerc": 16013,
    "Ġ5": 4935,
    "Ġsmack": 9299,
    "Ġanxious": 4518,
    "atching": 8201,
    "ateral": 19375,
    "ĠlinnÃ¦us": 15274,
    "Ġzer": 1095,
    "Ġhailed": 6407,
    "Ġbristles": 25843,
    "Ġbloody": 9888,
    "Ġperv": 15988,
    "Ġspas": 10921,
    "Ġum": 10211,
    "Ġunlim": 18250,
    "bble": 17484,
    "Ġscuttle": 7414,
    "adequ": 11020,
    "Ġjourneys": 19473,
    "Ġentreat": 4509,
    "inn": 5363,
    "Ġantichron": 24181,
    "thoughtfully": 24041,
    "Ġcrusad": 23705,
    "ica": 10198,
    "Ġcoop": 14269,
    "Ġsubstance": 5510,
    "social": 11022,
    "Ġdeformity": 11675,
    "Ġtempted": 9056,
    "Ġacknowledge": 13401,
    "Ġquart": 11785,
    "Ġblanc": 11065,
    "Ġcrackling": 24958,
    "Ġelevate": 24502,
    "Ġrashly": 20304,
    "Ġexpedition": 10633,
    "Ġpredestinated": 18516,
    "Ġfortunately": 12177,
    "Ġbustle": 17227,
    "Ġevaluation": 16536,
    "Ġtistig": 26413,
    "dismay": 19152,
    "Ġtypically": 1538,
    "fanc": 20863,
    "latitude": 25259,
    "Ġahoy": 12182,
    "elzebub": 26464,
    "Ġprocure": 9509,
    "drove": 16993,
    "Ġkiller": 19567,
    "Ġsingular": 4424,
    "Ġcaptains": 7457,
    "Ġeddy": 13123,
    "Ġdelighted": 5499,
    "Ġcoiling": 12902,
    "Ġpresided": 20206,
    "Ġmoderately": 22220,
    "convalescence": 24884,
    "Ġkramm": 26233,
    "Ġtheirs": 7024,
    "Ġrevel": 9214,
    "Ġg": 310,
    "Ġdepressed": 10882,
    "irresist": 21909,
    "Ġdesperation": 19817,
    "Ġexasperated": 11412,
    "Ġ77": 24263,
    "urned": 9305,
    "Ġvirt": 3908,
    "lust": 15378,
    "Ġweighing": 20014,
    "Ġwillingness": 24910,
    "toss": 22563,
    "lished": 8382,
    "anx": 8783,
    "--": 1039,
    "Ġstroke": 6936,
    "alter": 10826,
    "iltrated": 19305,
    "Ġwalking": 4326,
    "Ġexchanged": 10878,
    "Ġlizzy": 3547,
    "Ġtumble": 16879,
    "Ġthr": 5709,
    "iability": 20919,
    "Ġlingering": 11379,
    "Ġwear": 6030,
    "moment": 3580,
    "offers": 16393,
    "esteem": 26008,
    "Ġcetacea": 20552,
    "Ġdestiny": 8983,
    "Ġarrows": 18336,
    "Ġoccupation": 9930,
    "Ġcatastrop": 3349,
    "poises": 11887,
    "inople": 13828,
    "appro": 7044,
    "Ġboxed": 24360,
    "ms": 543,
    "drifting": 19823,
    "rey": 12535,
    "Ġincompetent": 25679,
    "Ġslung": 23165,
    "weep": 22681,
    "Ġreplace": 14476,
    "Ġfriendly": 9819,
    "Ġunprepared": 22045,
    "è": 169,
    "ff": 464,
    "Ġenv": 2901,
    "linked": 17593,
    "Ġdotted": 16792,
    "accuracy": 9878,
    "awing": 18915,
    "Ġcakes": 13883,
    "Ġfocus": 4239,
    "Ġspreading": 13377,
    "thirty": 12759,
    "hearse": 17748,
    "enesis": 24388,
    "eh": 13709,
    "retch": 4372,
    "Ġchoked": 9263,
    "Ġcarries": 7673,
    "from": 1992,
    "Ġisles": 8459,
    "Ġfreemason": 23210,
    "Ġfeast": 10277,
    "regret": 16450,
    "voices": 21116,
    "questioning": 16850,
    "99": 1894,
    "Ġcomprehen": 5349,
    "Ġhol": 1183,
    "Ġsy": 491,
    "hen": 3518,
    "Ġenvirons": 13186,
    "Ġsnarl": 25715,
    "Ġclergyman": 8711,
    "Ġsens": 1852,
    "Ġpeered": 18668,
    "trouble": 8295,
    "Ġbermud": 26439,
    "Ġdreaming": 11223,
    "hy": 4740,
    "Ġrolls": 8333,
    "keys": 15856,
    "cannib": 11900,
    "Ġkentuckian": 26342,
    "Ġprincess": 23221,
    "redit": 3878,
    "Ġsm": 704,
    "hurried": 11353,
    "Ġsplice": 19308,
    "Ġmildness": 9943,
    "Ġregimentals": 19857,
    "Þ": 159,
    "Ġmeddling": 24083,
    "Ġimposing": 11779,
    "Ġate": 8839,
    "Ġblazing": 11894,
    "comput": 1976,
    "Ġthin": 4349,
    "Ġstings": 21731,
    "Ġmoderate": 10939,
    "nineteenth": 26138,
    "bright": 8989,
    "Ġmasts": 6465,
    "Ġslaves": 23166,
    "fetch": 12462,
    "visitor": 15057,
    "Ġbreathless": 12167,
    "Ġindul": 5856,
    "Ġforemast": 12004,
    "saved": 15430,
    "Ġtenement": 23547,
    "Ġmotionless": 8323,
    "lyph": 10852,
    "Ġspam": 7630,
    "Ġhost": 7068,
    "Ġballasted": 23977,
    "Ġcompar": 4771,
    "Ġtallow": 14777,
    "Ġplanning": 14750,
    "Ġstabilizing": 3660,
    "Ġ8": 5433,
    "Ġvaluable": 5608,
    "Ġcrutch": 23445,
    "Ġobjecting": 18894,
    "iliating": 12692,
    "Ġoverheard": 11772,
    "Ġoutskirts": 17456,
    "Ġdante": 21436,
    "studies": 25166,
    "Ġclearly": 6897,
    "whalers": 17263,
    "surf": 24212,
    "Ġbelieving": 8224,
    "metal": 24765,
    "Ġneg": 1332,
    "Ġnasty": 17442,
    "Ġspending": 10922,
    "Ġwiser": 14729,
    ";": 31,
    "clifford": 23154,
    "Ġjur": 12831,
    "Ġapologies": 25196,
    "Ġ96": 24592,
    "himself": 3973,
    "anguish": 15981,
    "Ġdraught": 9843,
    "Ġgemini": 26469,
    "Ġheadland": 22893,
    "momentum": 4991,
    "Ġoverwhelmed": 11403,
    "Ġgloom": 4204,
    "several": 5544,
    "cadence": 26125,
    "Ġwild": 2602,
    "Ġharriet": 24572,
    "makers": 20981,
    "Ġdisturbing": 19944,
    "Ġinattention": 17931,
    "Ġledge": 19399,
    "lungs": 26135,
    "Ġdiabolism": 25514,
    "Ġboxes": 13373,
    "Ġbritish": 11337,
    "Ġcelebrate": 26357,
    "arrow": 4183,
    "Ġpracticable": 19073,
    "Ġgreedily": 18965,
    "unken": 10236,
    "Ġsmo": 2700,
    "Ġsubstit": 19539,
    "lovel": 22507,
    "Ġbarrow": 12067,
    "Ġbeheaded": 11655,
    "fallen": 19658,
    "Ġdescribes": 3125,
    "angling": 14140,
    "Ġflooded": 24959,
    "thrusting": 20258,
    "fron": 24281,
    "Ġesteemed": 10588,
    "ho": 2857,
    "Ġiii": 7860,
    "Ġnaturalist": 22896,
    "Ġmechanisms": 1581,
    "Ġfaintly": 14914,
    "Ġtribute": 15474,
    "obed": 14445,
    "Ġdemocracy": 25458,
    "qualities": 25043,
    "Ġoffences": 18695,
    "Ġintervening": 17267,
    "obliged": 20630,
    "'t": 3147,
    "Ġconfed": 13096,
    "ggling": 19096,
    "mill": 13753,
    "country": 6103,
    "iful": 2881,
    "Ġlog": 1677,
    "iations": 11494,
    "gates": 20871,
    "Ġpulley": 2976,
    "Ġfavourable": 7958,
    "Ġconvention": 25546,
    "Ġmusty": 22677,
    "heard": 5009,
    "ter": 359,
    "Ġvan": 1088,
    "modern": 1164,
    "ribut": 814,
    "expectation": 14855,
    "kilt": 4866,
    "sme": 17658,
    "Ġranging": 8478,
    "Ġmountains": 4427,
    "properly": 24918,
    "Ġinsinuating": 19270,
    "Ġscot": 5643,
    "Ġrafters": 22652,
    "Ġunpleasant": 7191,
    "ologically": 22861,
    "Ġstuffed": 13408,
    "Ġtrappings": 23078,
    "majesty": 26280,
    "Ġprone": 18968,
    "abode": 21788,
    "learn": 2279,
    "Ġinvent": 7164,
    "Ġimproves": 22748,
    "Ġwearer": 21919,
    "Ġdrunkard": 20176,
    "Ġridicule": 13511,
    "ittleness": 22373,
    "Ġardour": 8042,
    "vering": 15713,
    "Ġstarboard": 7604,
    "Ġinterment": 22573,
    "Ġaccountability": 10438,
    "Ġsky": 3971,
    "Ġanno": 9667,
    "Ġmur": 2494,
    "Ġruddy": 17125,
    "window": 7742,
    "Ġbecome": 3160,
    "¿": 128,
    "Ġsensitiveness": 23733,
    "welcomed": 24644,
    "Ġ23": 13191,
    "otent": 8831,
    "standard": 22433,
    "Ġmended": 21312,
    "leness": 4691,
    "sam": 21050,
    "Ġimparted": 15986,
    "Ġlangsdorff": 15275,
    "sne": 10124,
    "ail": 565,
    "whis": 7897,
    "Ġstur": 15714,
    "Ġwithdra": 6398,
    "cele": 21622,
    "Ġplane": 11821,
    "Ġpaddled": 20200,
    "Ġcloak": 9533,
    "_).": 5886,
    "square": 15059,
    "iverse": 13114,
    "Ġcourtship": 24136,
    "Ġabomin": 8190,
    "50": 6784,
    "mature": 20966,
    "establish": 17392,
    "Ġperfectly": 3703,
    "Ġprolonged": 8357,
    "Ġanswering": 7477,
    "Ġrock": 5310,
    "Ġcousin": 3707,
    "Ġind": 1221,
    "Ġcommended": 18656,
    "rossing": 18639,
    "Ġbracing": 16580,
    "Ġlock": 5927,
    "leisure": 21369,
    "Ġnile": 21518,
    "fiercely": 25256,
    "Ġcomprises": 22571,
    "Ġotherwise": 4658,
    "Ġactivation": 918,
    "Ġdrugg": 17119,
    "Ġvindication": 25364,
    "eld": 964,
    "les": 1017,
    "Ġmortified": 14694,
    "iments": 4945,
    "nantucket": 7804,
    "Ġtrail": 16281,
    "all": 486,
    "inquire": 16932,
    "Ġlvi": 21550,
    "Ġposit": 1304,
    "vers": 1327,
    "fleece": 19946,
    "Ġtomahawk": 7539,
    "sis": 1908,
    "Ġinvestig": 10549,
    "Ġknocked": 9499,
    "pacing": 21020,
    "Ġgermany": 25785,
    "animals": 24738,
    "Ġrisen": 9492,
    "featured": 24066,
    "Ġshake": 6033,
    "are": 637,
    "Ġterrier": 23397,
    "Ġchatting": 24747,
    "rop": 540,
    "Ġdozen": 8185,
    "Ġattend": 5035,
    "Ġhilarious": 20297,
    "Ġworn": 6445,
    "Ġglit": 8559,
    "recurrent": 4994,
    "Ġforgiven": 24024,
    "Ġflourish": 17160,
    "Ġclothing": 18422,
    "Ġdisastrous": 16058,
    "Ġpleasantness": 24139,
    "Ġbalm": 22900,
    "Ġoutrid": 22312,
    "Ġfig": 3627,
    "Ġdecayed": 22822,
    "Ġturtle": 4206,
    "W": 59,
    "Ġunwearied": 20601,
    "send": 15422,
    "Ġmischie": 22764,
    "spending": 18689,
    "Ġtattoo": 7359,
    "Ġemergencies": 17361,
    "Ġagricultural": 26550,
    "abouts": 9452,
    "Ġwhose": 2010,
    "tender": 14472,
    "Ġdeemed": 7612,
    "Ġtwitch": 22673,
    "Ġharpoon": 3618,
    "instantly": 7506,
    "Ġdad": 12597,
    "atural": 941,
    "anum": 17835,
    "Ġsustained": 13481,
    "Ġwreak": 16817,
    "Ġbigness": 19759,
    "Ġ65": 24368,
    "teness": 23201,
    "represented": 20194,
    "unteered": 26495,
    "Ġundoubted": 19513,
    "Ġmat": 1147,
    "nez": 22439,
    "Ġpitches": 23899,
    "Ġbegrimed": 26578,
    "Ġallegro": 25794,
    "pieces": 8754,
    "Ġsource": 6805,
    "Ġflash": 8229,
    "Ġcolony": 18766,
    "Ġentit": 22739,
    "Ġuser": 15916,
    "isf": 2436,
    "rer": 3625,
    "cial": 2648,
    "Ġvulgarity": 25363,
    "Ġident": 2241,
    "posture": 16927,
    "anyth": 5438,
    "mathematics": 26304,
    "Ġcumul": 4182,
    "Ġaval": 15492,
    "unaccountable": 15776,
    "Ġintegrated": 13530,
    "Ġprominence": 18953,
    "Ġstreamed": 14546,
    "iding": 3848,
    "showed": 16024,
    "Ġxvi": 19104,
    "Ġmasoned": 20250,
    "Ġgunw": 6212,
    "Ġprints": 16329,
    "Ġravines": 25831,
    "Ġcentral": 7727,
    "Ġtreading": 16504,
    "Ġfootmarks": 19336,
    "enter": 7857,
    "Ġphilosophers": 10551,
    "kindred": 24046,
    "Ġliveliest": 24775,
    "azine": 19130,
    "Ġchowder": 10280,
    "local": 22506,
    "pardon": 10064,
    "Ġandes": 12638,
    "Ġnocturn": 18375,
    "Ġenlarge": 21932,
    "Ġportents": 14679,
    "Ġ79": 24264,
    "kins": 7345,
    "income": 15485,
    "rences": 9271,
    "Ġsurvive": 9066,
    "isbury": 21375,
    "io": 3804,
    "Ġdissimilar": 22528,
    "uned": 21868,
    "Ġquakers": 22413,
    "afforded": 25865,
    "Ġundecided": 22043,
    "Ġhuggins": 24828,
    "pertaining": 22180,
    "Ġjing": 15947,
    "agery": 21904,
    "Ġsun": 1720,
    "Ġweighed": 8710,
    "ruff": 15899,
    "destined": 24115,
    "Ġmingled": 12375,
    "Ġser": 1672,
    "Ġem": 1925,
    "force": 12955,
    "Ġexactness": 23603,
    "Ġsickle": 24245,
    "Ġabraham": 18400,
    "secured": 16938,
    "evade": 24820,
    "Ġtravelling": 11307,
    "Ġclifford": 22349,
    "thy": 2934,
    "Ġinsulated": 23679,
    "Ġtuck": 10140,
    "pherd": 13643,
    "Ġerect": 6143,
    "Ġcoroner": 7510,
    "companion": 9557,
    "wrinkled": 16554,
    "Ġsouthampton": 24307,
    "Ġebony": 18008,
    "whe": 1076,
    "proved": 11985,
    "Ġdot": 4820,
    "lemagne": 26436,
    "Ġbounded": 16626,
    "ensities": 22543,
    "orm": 425,
    "Ġcompany": 3724,
    "prepare": 20211,
    "dron": 17525,
    "Ġbreckinridge": 14523,
    "initions": 21186,
    "influence": 13577,
    "Ġsulk": 15045,
    "Ġ99": 10745,
    "Ġfloor": 4379,
    "Ġexcessive": 3893,
    "Ġspurred": 22131,
    "remes": 21236,
    "isition": 11585,
    "Ġreceptacle": 23189,
    "cheon": 23802,
    "urer": 18121,
    "declaration": 25175,
    "Ġrelief": 6059,
    "Ġcha": 6853,
    "system": 4207,
    "Ġdeaf": 12718,
    "Ġdreamt": 23936,
    "Ġsaint": 15506,
    "Ġclasses": 4057,
    "inging": 5906,
    "ylon": 24975,
    "Ġliar": 22405,
    "Ġincorporated": 25711,
    "Ġimprobable": 9792,
    "Ġhipp": 21489,
    "Ġponies": 21474,
    "ated": 719,
    "Ġarter": 22174,
    "Ġ1807": 26083,
    "Ġoutputs": 2885,
    "Ġtremble": 6906,
    "anxiously": 15109,
    "Ġ500": 24328,
    "supernatural": 19778,
    "Ġimmense": 4952,
    "Ġlascar": 9199,
    "Ġchilled": 18382,
    "Ġadmission": 23554,
    "Ġbullion": 24983,
    "Ġstartled": 7082,
    "Ġdazzling": 15210,
    "Ġsentiments": 7960,
    "txt": 12513,
    "Ġsleek": 23382,
    "Ġstore": 8453,
    "Ġascertain": 9705,
    "Ġvain": 3632,
    "proceed": 8976,
    "load": 12878,
    "olidity": 18131,
    "building": 17308,
    "ksome": 10104,
    "observation": 17269,
    "Ġsite": 17753,
    "Ġbeams": 14631,
    "irt": 3080,
    "Ġcabs": 23639,
    "reen": 21230,
    "Ġliberty": 7761,
    "Ġinterruption": 9472,
    "likely": 9022,
    "Ġgreeks": 20011,
    "Ġtapering": 8770,
    "Ġordered": 5832,
    "mantel": 26394,
    "Ġhonour": 3923,
    "lighter": 20958,
    "Ġhauled": 11692,
    "brim": 23574,
    "Ġhur": 2101,
    "Ġwitness": 4622,
    "Ġwhaling": 2784,
    "prolong": 23393,
    "wow": 21120,
    "arter": 17893,
    "Ġoffices": 14336,
    "âĢľâĢĻ": 10221,
    "Ġsty": 6251,
    "pshaw": 21027,
    "Ġpurple": 10433,
    "Ġbottom": 3677,
    "mysteries": 26050,
    "Ġtransferred": 16467,
    "_?âĢĿ": 15304,
    "Ġtrade": 2550,
    "Ġskirting": 22794,
    "itary": 4751,
    "Ġharmony": 16814,
    "sav": 8096,
    "Ġfinite": 2324,
    "Ġsuppressed": 11909,
    "Ġeleven": 9389,
    "Ġtowns": 11173,
    "she": 1397,
    "Ġscratching": 20367,
    "Ġoccupies": 24005,
    "gathered": 13731,
    "surrounded": 26088,
    "Ġoverboard": 6044,
    "Ġbackgammon": 22660,
    "whalemen": 10431,
    "Ġmassa": 19452,
    "agreeable": 5829,
    "Ġcreativity": 3070,
    "gers": 8375,
    "Ġfoster": 18990,
    "Ġmerc": 9425,
    "networks": 2405,
    "Ġtracing": 18888,
    "5": 25,
    ":âĢĶâĢĺ": 24193,
    "brevi": 24074,
    "laborers": 23913,
    "Ġsli": 4748,
    "sory": 17659,
    "terrific": 25040,
    "Ġrecre": 22734,
    "Ġbundle": 13425,
    "Ġje": 4127,
    "aster": 1867,
    "Ġthinner": 24182,
    "Ġpest": 13912,
    "we": 849,
    "regulated": 23466,
    "Ġmost": 1020,
    "oked": 4310,
    "Ġlany": 21551,
    "Ġcircumst": 2975,
    "Ġmodesty": 12816,
    "Ġintroduce": 3208,
    "Ġinteresting": 4327,
    "cry": 12443,
    "Ġconvolutions": 21804,
    "Ġlucy": 17969,
    "lu": 596,
    "Ġpref": 14171,
    "Ġminded": 23226,
    "ropy": 1102,
    "Ġmelting": 24288,
    "Ġ64": 24367,
    "Ġexcuse": 5861,
    "Ġmanxman": 9565,
    "Ġgroan": 13323,
    "Ġnature": 2542,
    "Ġrequires": 1058,
    "Ġattested": 22621,
    "Ġshowing": 7731,
    "Ġneed": 2608,
    "zors": 21146,
    "Ġconditions": 8306,
    "Ġdegenerated": 20504,
    "condesc": 18504,
    "Ġskirt": 18729,
    "float": 19804,
    "Ġsaintsbury": 26372,
    "paddington": 20476,
    "Ġcolours": 12972,
    "Ġloom": 7628,
    "alleled": 14428,
    "Ġjustified": 11902,
    "Ġtrusted": 10517,
    "adoes": 11659,
    "Ġcrosses": 23058,
    "Ġeffected": 14353,
    "finding": 17013,
    "Ġagreed": 7028,
    "Ġmeditations": 25013,
    "Ġnote": 4266,
    "Ġlaborers": 19057,
    "rougham": 15991,
    "Ġtoilet": 13936,
    "Ġcomfits": 21844,
    "Ġdeficiency": 14402,
    "held": 3842,
    "Ġprefers": 20512,
    "Ġominous": 12422,
    "Ġdissipate": 13632,
    "ė": 216,
    "ledyard": 22390,
    "Ġinfat": 14499,
    "Ġyard": 5920,
    "Ġpallid": 12297,
    "Ġfurther": 1055,
    "Ġforthwith": 16618,
    "Ġclattering": 22347,
    "Ġdesponding": 25868,
    "Ġpurporting": 19181,
    "superior": 9524,
    "Ġleisurely": 24746,
    "Ġapp": 492,
    "istol": 6259,
    "narrated": 25621,
    "homely": 25617,
    "rap": 21625,
    "Ġunsuccessful": 18254,
    "Ġobstin": 14952,
    "Ġnotion": 7881,
    "fav": 6646,
    "enari": 21280,
    "Ġindividuals": 24546,
    "Ġrefreshment": 17239,
    "cru": 7126,
    "confirm": 16807,
    "ieged": 22577,
    "rapid": 12667,
    "Ġmadly": 16484,
    "Ġcrate": 19122,
    "Ġtusks": 17253,
    "Ġpuffing": 12252,
    "gle": 20868,
    "Ġploughing": 26259,
    "Ġhosts": 19937,
    "Ġpyth": 21459,
    "Ġborne": 6351,
    "sleepy": 24729,
    "urn": 776,
    "orrow": 2915,
    "Ġintended": 5548,
    "etts": 12657,
    "iature": 8741,
    "Ġsnuffed": 15071,
    "Ġhoarsely": 26302,
    "Ġlace": 13948,
    "Ġplied": 22598,
    "Ġinterference": 8893,
    "Ġwond": 3940,
    "Ġghastly": 10059,
    "unwho": 21874,
    "Ġhom": 9186,
    "Ġcomplexion": 8210,
    "Ġparaphrasing": 26526,
    "Ġsecurely": 16802,
    "oard": 4809,
    "Ġbanqu": 12585,
    "Ġstrict": 7222,
    "Ġmiserably": 12945,
    "Ġmidships": 23632,
    "urch": 3997,
    "Ġmachinations": 25767,
    "hit": 20888,
    "Ġunimpe": 22067,
    "extremely": 26263,
    "Ġsternly": 16715,
    "Ĺ": 250,
    "Ġassault": 9836,
    "Ġquaint": 18465,
    "Ġpile": 8423,
    "brow": 15314,
    "rowsers": 8694,
    "Ġjustine": 4970,
    "gentleness": 24844,
    "Ġsleeper": 8600,
    "sell": 13780,
    "rods": 21535,
    "Ġdegradation": 2632,
    "relations": 14732,
    "slipping": 25528,
    "Ġjoke": 8868,
    "ilib": 4121,
    "Ġchag": 15929,
    "eff": 2538,
    "Ġleisure": 6539,
    "Ġcolumbus": 26564,
    "000": 2563,
    "Ġovertaken": 18428,
    "Ġchoose": 5981,
    "enemy": 15525,
    "Ġprivileged": 20111,
    "wled": 15453,
    "Ġwhiskers": 10492,
    "Ġilluminating": 25245,
    "Ġhissed": 15786,
    "Ġdivided": 8631,
    "pleas": 3853,
    "akers": 9739,
    "Ġlik": 2527,
    "afterwards": 7484,
    "Ġartist": 12909,
    "atoes": 17775,
    "enjoyments": 25433,
    "Ġtokens": 1771,
    "Ġalpine": 18105,
    "Ġavast": 9919,
    "back": 2018,
    "Ġislands": 6766,
    "oriously": 17874,
    "Ġdeadliest": 14556,
    "ont": 2622,
    "Ġresource": 10993,
    "87": 20756,
    "Ġnarratives": 24353,
    "Ġheadache": 22895,
    "Ġpowerful": 1475,
    "icting": 12849,
    "Ġalert": 18101,
    "beaten": 20314,
    "ernsey": 8901,
    "Ġcurls": 22979,
    "iters": 21327,
    "solic": 16375,
    "Ġrespectfully": 18994,
    "Ġcarefully": 6304,
    "Ġdispirited": 23880,
    "Ġprison": 5403,
    "linearity": 1650,
    "Ġyounger": 5252,
    "Ġopenshaw": 7954,
    "upon": 2723,
    "Ġkettle": 26232,
    "Ġreversed": 15694,
    "Ġbefall": 8828,
    "diff": 9113,
    "Ġconsid": 1812,
    "appre": 14368,
    "Ġalex": 15132,
    "haul": 14765,
    "resembling": 25932,
    "Ġeh": 6987,
    "princ": 8620,
    "Ġwont": 9851,
    "Ġwasn": 6997,
    "Ġrummaged": 16910,
    "Ġdarted": 4758,
    "truck": 15440,
    "Ġcautiousness": 19865,
    "antediluvian": 24346,
    "Ġthence": 8881,
    "ckets": 6843,
    "Ġnight": 1467,
    "eded": 9673,
    "Ġhaw": 10251,
    "Ġpositively": 13028,
    "news": 23131,
    "hush": 20905,
    "Ġchili": 25561,
    "Ġsentry": 19023,
    "ended": 1833,
    "prov": 16421,
    "Ġrefreshed": 15289,
    "Ġdupl": 9953,
    "Ġheavily": 6740,
    "oline": 6833,
    "fireside": 24692,
    "Ġoakshott": 12227,
    "Ġ179": 19753,
    "Ġappears": 5402,
    "ulating": 10887,
    "familiar": 19782,
    "Ġaccess": 9746,
    "Ġfumbling": 21415,
    "suitable": 18631,
    "Ġdragging": 14475,
    "Ġalso": 1345,
    "Ġidler": 16404,
    "bohemia": 20730,
    "Ġvenetian": 14846,
    "Ġpemberley": 4588,
    "consc": 4840,
    "slackened": 26094,
    "rushed": 10584,
    "Ġpractises": 23347,
    "Ġnetworks": 601,
    "Ġengraving": 17080,
    "Ġmainland": 22646,
    "dischar": 19151,
    "Ġfame": 21404,
    "intelligence": 5882,
    "datasets": 11949,
    "Ġreaders": 18914,
    "ye": 1405,
    "Ġsuggest": 5417,
    "altern": 17941,
    "icing": 9200,
    "lilies": 20960,
    "Ġmasked": 3697,
    "occurred": 13336,
    "examination": 25478,
    "Ġfreedom": 9082,
    "tacit": 21097,
    "indef": 17735,
    "nesday": 8702,
    "Ġproductions": 22943,
    "asets": 2310,
    "Ġbarbs": 10531,
    "Ġdistension": 22501,
    "bons": 17486,
    "Ġinsurg": 23680,
    "Ġponder": 6819,
    "Ġtransported": 11279,
    "Ġseizure": 21961,
    "easily": 17534,
    "extra": 8218,
    "particip": 23615,
    "stove": 21649,
    "Ġcompression": 18144,
    "Ġimprecate": 20515,
    "swim": 16779,
    "Ġexisted": 15752,
    "Ġirresolution": 24915,
    "itiousness": 21332,
    "Ġo": 275,
    "entering": 17976,
    "Ġlands": 6594,
    "Ġdre": 1745,
    "Ġfertile": 20581,
    "Ġconver": 806,
    "Ġconsequ": 6254,
    "lessness": 5317,
    "Ġconsume": 12956,
    "Ġexception": 11216,
    "Ġcas": 8410,
    "utility": 21584,
    "Ò": 147,
    "Ġuncle": 3195,
    "Ġprouder": 18972,
    "Ġgraves": 11706,
    "Ġgazed": 6478,
    "Ġfrivolous": 26176,
    "icy": 6140,
    "Ġcorrid": 9823,
    "cuniary": 26379,
    "acters": 9308,
    "exhibited": 18477,
    "Ġestablish": 9542,
    "poke": 18797,
    "ioning": 21506,
    "Ġancient": 5443,
    "risonment": 17374,
    "Ġchannel": 26012,
    "Ġhurtling": 24957,
    "Ġjew": 9467,
    "Ġtranslation": 3090,
    "Ġregularizer": 2338,
    "Ġunconcern": 14115,
    "pur": 7806,
    "Ġcirclings": 26431,
    "Ġenvelop": 5587,
    "Ġisinglass": 21799,
    "Ġungover": 18252,
    "_,": 2800,
    "athed": 7828,
    "disputed": 23498,
    "garden": 15025,
    "fastened": 19324,
    "Ġtube": 15003,
    "devoted": 20015,
    "Ġprodig": 6027,
    "Ġsaintly": 25931,
    "yesterday": 10352,
    "german": 11491,
    "Ġscand": 7202,
    "cav": 17507,
    "Ġroarings": 25302,
    "roar": 17952,
    "oning": 7572,
    "Ġbad": 3991,
    "berwell": 22715,
    "Ġmuse": 13859,
    "Ġbranches": 6776,
    "ivery": 17572,
    "Ġwork": 1320,
    "Ġchallenge": 25471,
    "Ġcorrespondent": 19821,
    "otted": 14023,
    "Ġboarders": 16600,
    "hogs": 20080,
    "Ġdistrusting": 25053,
    "bearded": 18522,
    "Ġcareful": 2612,
    "money": 8749,
    "Ġejac": 10203,
    "Ġovertake": 15968,
    "Ġaided": 17745,
    "pagan": 17285,
    "Ġbegone": 11914,
    "Ġbounty": 26437,
    "Ġgarn": 13962,
    "staking": 21645,
    "Ġinterp": 16069,
    "Ġhieroglyphics": 17302,
    "variety": 23182,
    "Ġcosmopol": 16454,
    "Ġobservations": 13552,
    "Ġunique": 12774,
    "Ġsparing": 22122,
    "Ġknown": 1641,
    "leagued": 26435,
    "Ġsense": 3254,
    "Ġcholera": 22250,
    "Ġwelcomed": 9481,
    "Ġsilent": 3412,
    "fatality": 25019,
    "!_âĢĿ": 11376,
    "Ġbuttons": 12778,
    "Ġknitted": 19588,
    "tru": 10729,
    "Ġedinburgh": 16435,
    "Ġcopse": 17067,
    "yourself": 6742,
    "gunwale": 20662,
    "Ġbowsprit": 16560,
    "Ġcrimin": 6901,
    "Ġbamboo": 17436,
    "pled": 7891,
    "Ġplaced": 3446,
    "cing": 1014,
    "ue": 1181,
    "itoring": 21330,
    "rubbed": 22187,
    "Ġlulled": 17968,
    "Ġdeserved": 7736,
    "arking": 16123,
    "Ġspoutings": 14675,
    "Ġpearl": 20375,
    "Ļ": 252,
    "tempted": 26403,
    "Ġnightfall": 23129,
    "Ġsubsc": 22786,
    "Ġpossess": 3207,
    "Ġardu": 22175,
    "Ġconvey": 9980,
    "Ġceiling": 7996,
    "Ġqueer": 4478,
    "Ġrejoined": 14926,
    "aven": 8209,
    "breeding": 16675,
    "Ġdishes": 16048,
    "exception": 9975,
    "seems": 10875,
    "Ġpicturesque": 14893,
    "Ġgam": 11623,
    "Ġattending": 3287,
    "progress": 11986,
    "Ġsignification": 19201,
    "ø": 185,
    "Ġrebell": 21666,
    "¹": 122,
    "Ġthoughtlessness": 16192,
    "Ġbrought": 2521,
    "edged": 15628,
    "Ġtermination": 16459,
    "verest": 13990,
    "reclining": 20573,
    "Ġpreventing": 881,
    "arily": 4130,
    "Ġturner": 7049,
    "private": 13581,
    "settled": 10506,
    "sake": 13782,
    "daughters": 13465,
    "strade": 5065,
    "Ġcorroborated": 26054,
    "Ġbri": 21376,
    "Ġgramm": 8170,
    "Ġhoney": 12629,
    "Ġcorrespondence": 10594,
    "dimens": 2317,
    "concealed": 25115,
    "Ġdemeanour": 17336,
    "hement": 13831,
    "Ġrally": 21965,
    "pron": 9005,
    "vulgar": 25918,
    "Ġresearch": 2947,
    "boscombe": 26121,
    "Ġgrounded": 23710,
    "Ġcurse": 7667,
    "Ġoptimizers": 18628,
    "veh": 12678,
    "cheeks": 23806,
    "Ġgene": 15669,
    "Ġouthouse": 22311,
    "shad": 10982,
    "Ġembra": 6578,
    "Ġorganically": 3015,
    "Ġvic": 5236,
    "Ġcontemptible": 16953,
    "reasoning": 9475,
    "laz": 15384,
    "grief": 13730,
    "Ġadjust": 2155,
    "caught": 8726,
    "Ġrevolved": 9983,
    "Ġunostentatious": 22065,
    "Ġcouns": 10520,
    "Ġswallowed": 7943,
    "Ġtypewriting": 16419,
    "Ġsupercil": 23453,
    "seen": 2880,
    "lizzy": 6651,
    "party": 8992,
    "Ġkeeping": 7283,
    "Ġneighbors": 25806,
    "Ġlaboratory": 13611,
    "Ġfarm": 7840,
    "itage": 17816,
    "Ġdesper": 6176,
    "Ġinsurgents": 26600,
    "Ġupbra": 22140,
    "consider": 6348,
    "Ġabridged": 26541,
    "armon": 23056,
    "ividual": 5463,
    "reply": 19721,
    "licted": 20955,
    "Ġcaulk": 25440,
    "assistant": 25567,
    "Ġearls": 18903,
    "dece": 11732,
    "Ġfra": 1784,
    "ite": 713,
    "ensibility": 22544,
    "Ġsimple": 1621,
    "Ġkeen": 4614,
    "Ġindisc": 16226,
    "brink": 23575,
    "Ġdifferently": 10389,
    "inex": 14095,
    "fthand": 26386,
    "Ġextremity": 8988,
    "ok": 572,
    "Ġmaimed": 21315,
    "Ġactor": 16047,
    "Ġweaken": 21918,
    "Ġsurf": 19131,
    "irmed": 9238,
    "Ġnails": 12645,
    "Ġjuicy": 25370,
    "spades": 14331,
    "Ġemphasis": 20535,
    "Ġhatty": 19264,
    "Ġinfl": 6893,
    "Ġmant": 9647,
    "rious": 11687,
    "Ġsufficient": 2005,
    "Ġpenalties": 10412,
    "Ġgrunted": 16166,
    "ontory": 10459,
    "report": 13398,
    "Ġhead": 1121,
    "Ġsacrifice": 9555,
    "Ġpedestrian": 25879,
    "Ġplaces": 5390,
    "Ġagents": 9765,
    "ibly": 2998,
    "Ġreckoning": 14978,
    "Ġinquis": 19303,
    "Ġswaying": 15046,
    "times": 8098,
    "Ġphrensy": 25124,
    "slide": 24556,
    "Ġsad": 3869,
    "aiian": 23591,
    "unity": 4156,
    "Ġheadway": 18792,
    "Ġwithdrew": 9695,
    "getic": 12963,
    "Ġinvoking": 19145,
    "³": 116,
    "wound": 21125,
    "pless": 6260,
[...]
