{
  "metadata": {
    "vocab_size": 26616,
    "algorithm": "BPE",
    "created_at": "2026-05-17 05:47:45",
    "special_tokens": [
      "<PAD>",
      "<SOS>",
      "<EOS>",
      "<UNK>",
      "<MASK>"
    ]
  },
  "vocab": {
    "sho": 6426,
    "pur": 7806,
    "qual": 8156,
    "Ġhos": 4941,
    "Ġthanks": 6709,
    "revol": 12545,
    "Ġgirdle": 19160,
    "Ġglory": 6066,
    "Ġjeer": 24124,
    "feeder": 12365,
    "Ġstroke": 6936,
    "quadr": 15767,
    "Ġwedding": 4814,
    "Ġtrous": 10960,
    "Ġjesty": 18406,
    "americans": 25046,
    "Ġunassuming": 20512,
    "Ġappalling": 8502,
    "axed": 8892,
    "Ġmarch": 4082,
    "Ġhuzza": 12638,
    "Ġgale": 5823,
    "Ġtigris": 25760,
    "volume": 18601,
    "Ġmuttered": 7088,
    "ishes": 6524,
    "Ġstrata": 26028,
    "Ġenthr": 22744,
    "Ġaffords": 16736,
    "laz": 15389,
    "Ġsixth": 16562,
    "Ġconcern": 2659,
    "fare": 7799,
    "Ġwalker": 23315,
    "Ġrec": 897,
    "capt": 3839,
    "Ġmiseries": 10349,
    "Ġgenerally": 4157,
    "Ġthe": 270,
    "Ġgemini": 26471,
    "Ġwrong": 4722,
    "ometer": 19328,
    "Ġhoe": 23354,
    "plied": 10258,
    "eral": 9162,
    "Ġpropriety": 10013,
    "Ġrepelled": 19087,
    "Ġdesisted": 22983,
    "Ġ(": 594,
    "Ġattends": 19653,
    "cious": 6646,
    "Ġink": 8807,
    "rest": 1629,
    "Ġavoid": 5199,
    "Ġinterposed": 20622,
    "Ġpoltro": 23621,
    "Ġadvent": 4353,
    "alt": 12643,
    "Ġcopper": 7425,
    "Ġports": 10820,
    "Ġt": 261,
    "Ġdefine": 9818,
    "orton": 11760,
    "Ġlibraries": 20617,
    "re": 266,
    "hall": 8085,
    "atherley": 7220,
    "Ġrival": 10488,
    "formal": 14170,
    "nervous": 16281,
    "itation": 1782,
    "excepting": 19709,
    "Ġdeed": 7868,
    "Ġviolin": 16431,
    "Ġgraces": 18226,
    "Ġbusks": 23342,
    "Ġlock": 5929,
    "wers": 12524,
    "Ġregret": 5561,
    "Ġpersuasions": 16634,
    "Ġwipe": 25765,
    "Ġmounts": 17808,
    "Ġpropontis": 17468,
    "wr": 3029,
    "destiny": 16701,
    "Ġagreement": 18540,
    "Ġwithered": 19468,
    "Ġleaky": 2345,
    "Ġcalves": 13040,
    "arms": 10176,
    "Ġmor": 1250,
    "ceased": 21629,
    "Ġherb": 15860,
    "Ġresidual": 1679,
    "Ġcommonest": 23093,
    "Ġunlikely": 10910,
    "little": 3353,
    "appre": 14373,
    "Ġswayed": 15050,
    "pair": 21014,
    "people": 7677,
    "Ġdz": 4754,
    "Ġshine": 12771,
    "Ġhurts": 19113,
    "icating": 15659,
    "ogrand": 26263,
    "million": 25752,
    "Ġclosest": 16765,
    "omorrah": 18027,
    "Ġcaucus": 17383,
    "Ġinjection": 3468,
    "Ġblocks": 6323,
    "Ġclasp": 9747,
    "steelkilt": 10050,
    "Ġbewitched": 25976,
    "Ġstepped": 7053,
    "under": 3133,
    "Ġone": 569,
    "stock": 13227,
    "Ġpelt": 15614,
    "conspicuous": 26249,
    "Ġpossibility": 7458,
    "Ġunfortunately": 10911,
    "Ġ1828": 25720,
    "inked": 12918,
    "Ġcramped": 23531,
    "Ġbrilliantly": 25123,
    "fork": 20859,
    "Ġwilliam": 3484,
    "blazing": 24133,
    "arrange": 23768,
    "Ġloath": 7891,
    "Ġprognostics": 20561,
    "Ġcot": 13880,
    "cnns": 3623,
    "Ġdiabolical": 20345,
    "Ġruggedness": 26270,
    "kne": 20937,
    "Ġerrand": 11087,
    "caus": 11478,
    "chery": 24551,
    "Ġbidding": 9540,
    "_.": 2214,
    "Ġshot": 4542,
    "ancy": 4393,
    "Ġindiam": 22958,
    "Ġadvancing": 6878,
    "will": 1969,
    "ī": 236,
    "Ġveneration": 25047,
    "Ġunobserved": 18250,
    "Ġforcing": 3223,
    "----": 4056,
    "Ġputting": 5327,
    "Ġerr": 1322,
    "Ġleech": 24157,
    "Ġ75": 19615,
    "Ġwandering": 8657,
    "gam": 10098,
    "mathemat": 19139,
    "Ġbattle": 5909,
    "trampled": 26335,
    "Ġstride": 22620,
    "Ġwildest": 16512,
    "Ġlinen": 12411,
    "Ġd": 284,
    "Ġcetology": 10012,
    "Ġwatson": 3598,
    "Ġign": 8295,
    "Ġexamine": 7735,
    "Ġfoliage": 18869,
    "Ġcheek": 8581,
    "annica": 24562,
    "Ġstress": 18072,
    "Ġnick": 21526,
    "Ġfury": 7662,
    "Ġdu": 4583,
    "Ġnarrowed": 24355,
    "Ġheroism": 24544,
    "Ġtwo": 1042,
    "Ġdome": 15593,
    "Ġoffspring": 16149,
    "Ġtrusty": 24105,
    "happening": 16567,
    "cra": 6356,
    "Ġheaded": 11056,
    "Ġgamy": 18001,
    "Ġtested": 23228,
    "Ġcavity": 20491,
    "Ġhorns": 11125,
    "Ġemigrant": 25860,
    "Ġshroud": 6484,
    "Ġhieroglyphic": 25588,
    "Ġentities": 11867,
    "Ġbaron": 19336,
    "Ġcorporeal": 17363,
    "task": 13796,
    "Ġdisappo": 4504,
    "canst": 22971,
    "Ġtraveller": 8049,
    "Ġsings": 15508,
    "aguy": 21914,
    "87": 20759,
    "Ġperch": 10301,
    "Ġyounger": 5253,
    "parts": 14603,
    "Ġexclamations": 11363,
    "ria": 15801,
    "Ġescape": 2648,
    "globe": 25145,
    "Ġtorrents": 20059,
    "eck": 20846,
    "Ġeliza": 6438,
    "wheeler": 16192,
    "seems": 10877,
    "Ġmastery": 23996,
    "Ġsize": 1219,
    "Ġspatial": 2734,
    "replied": 11568,
    "Ġcompromising": 22579,
    "fro": 8736,
    "Ġtreasures": 17048,
    "Ġopposite": 5120,
    "Ġlost": 2636,
    "Ġunwarrantable": 26346,
    "Ġsing": 3076,
    "murmured": 24455,
    "anesc": 21363,
    "Ġmarty": 20293,
    "erxes": 21278,
    "Ġgeneral": 1861,
    "Ġimpertin": 6933,
    "Ġtogether": 1878,
    "Ġinestim": 15628,
    "gorge": 22328,
    "pus": 3418,
    "Ġcharging": 23270,
    "istical": 8492,
    "loss": 22511,
    "irous": 8843,
    "Ġfireside": 23532,
    "Ġinstant": 2708,
    "Ġnoble": 3442,
    "Ġaccompanied": 6781,
    "Ġunwelcome": 12785,
    "Ġumb": 11649,
    "Ġbirth": 6525,
    "hence": 16627,
    "chie": 21693,
    "indirectly": 18438,
    "helping": 23146,
    "Ġsidelong": 11440,
    "Ġpig": 5705,
    "Ġspar": 10922,
    "Ġappearance": 3702,
    "Ġflow": 1239,
    "Ġriv": 10748,
    "Ġfowler": 16939,
    "stalls": 26475,
    "yrin": 12527,
    "occasionally": 13524,
    "Ġloun": 7167,
    "imin": 1771,
    "Ġmannish": 26239,
    "Ġvi": 1952,
    "Ġdrawled": 23992,
    "Ġpry": 11602,
    "Ġaux": 21202,
    "Ã¦mon": 7096,
    "umbent": 12094,
    "inting": 9817,
    "woman": 5900,
    "Ġdeject": 10883,
    "Ġbasement": 24701,
    "Ġdel": 1611,
    "Ġstealing": 18895,
    "Ġverte": 9444,
    "Ġgrap": 11711,
    "Ġrespectively": 23251,
    "Ĉ": 201,
    "Ġgrope": 17997,
    "objects": 13474,
    "Ġresolution": 5500,
    "scor": 13026,
    "deck": 4499,
    "Ġexecute": 7505,
    "Ġcharcoal": 19008,
    "eliest": 14749,
    "Ġinquired": 7485,
    "dri": 5889,
    "Ġindul": 5858,
    "icable": 6389,
    "capable": 13705,
    "Ġdynamically": 4382,
    "nine": 13764,
    "cavity": 26127,
    "inserted": 18889,
    "Ġcruelly": 13379,
    "urean": 18125,
    "Ġperemptorily": 17370,
    "ample": 1363,
    "Ġincurable": 22556,
    "mill": 13757,
    "cloud": 11107,
    "fe": 681,
    "natured": 7112,
    "Ġminutest": 14562,
    "touched": 15442,
    "Ġprints": 16334,
    "Ġgush": 10205,
    "ter": 359,
    "boards": 23257,
    "Ġupbra": 22158,
    "Ġprodu": 1207,
    "Ġclothed": 19609,
    "Ġmaintain": 856,
    "vocation": 25087,
    "Ġbade": 9174,
    "young": 7321,
    "Ġsmaller": 1883,
    "successfully": 14994,
    "Ġcaus": 1723,
    "Ġgospel": 18003,
    "Ġvalued": 12187,
    "Ġtalking": 3860,
    "enses": 10996,
    "phantoms": 24680,
    "airs": 2223,
    "appears": 12064,
    "lantern": 17431,
    "console": 22477,
    "surrounded": 26089,
    "igner": 21705,
    "Ġrid": 4351,
    "ables": 7890,
    "estate": 12826,
    "Ġinch": 7850,
    "nephew": 26399,
    "lane": 10708,
    "Ġceiling": 7997,
    "Ġcharacters": 9375,
    "posterity": 25489,
    "Ġoffices": 14337,
    "Ġrights": 10399,
    "Ġpirates": 9076,
    "Ġeyelashes": 26107,
    "Í": 142,
    "aling": 1034,
    "Ġunseen": 3525,
    "Ġcommissioned": 19897,
    "diversity": 25898,
    "Ġsaves": 18325,
    "Ġcontour": 18475,
    "iffs": 9025,
    "Ġbil": 15569,
    "examine": 25478,
    "Ġdeadly": 5405,
    "paying": 25412,
    "emph": 21930,
    "Ġspiral": 14586,
    "scale": 3536,
    "Ġ43": 14772,
    "Ġmanual": 14200,
    "hau": 17564,
    "Ġengineer": 11979,
    "charmed": 21699,
    "Ġclutched": 13522,
    "crucible": 24843,
    "beaten": 20318,
    "Ġlaughing": 5339,
    "Ġabounding": 12348,
    "pict": 8386,
    "Ġschol": 17380,
    "subs": 14306,
    "Ġaccumulates": 2891,
    "Ġboneless": 19608,
    "sleeping": 13458,
    "downstairs": 23923,
    "Ġnumerical": 4243,
    "aggoo": 5130,
    "Ġlxi": 21564,
    "Ġsqueeze": 10042,
    "Ġvernal": 23890,
    "captain": 3954,
    "ip": 557,
    "ow": 325,
    "Ġbackstays": 22665,
    "antically": 22100,
    "const": 5940,
    "Ġende": 21936,
    "Ġbridegroom": 10607,
    "Ġugly": 8719,
    "Ġjeopardized": 20233,
    "ģ": 228,
    "Ġankers": 21448,
    "connected": 1309,
    "Ġswamp": 14439,
    "Ġtempered": 12927,
    "Ġexchanging": 18134,
    "Ġpave": 8804,
    "names": 16540,
    "Ġcruelty": 9972,
    "alarm": 15631,
    "addition": 13388,
    "Ġpettiness": 24232,
    "Ġlory": 12657,
    "cord": 8727,
    "Ġdivineness": 25724,
    "Ġplatonian": 25121,
    "âĢľâĢĺ": 1486,
    "Ġfree": 3376,
    "Ġarise": 7896,
    "Ġlover": 7193,
    "Ġsingers": 23773,
    "Ġpeculiar": 3153,
    "acing": 2722,
    "Ġwrit": 8242,
    "elizabeth": 1986,
    "ading": 5091,
    "ĠĠĠĠĠĠĠ": 7633,
    "comfortable": 7320,
    "Ġslapped": 23174,
    "Ġbutler": 18271,
    "atory": 6127,
    "wedding": 12526,
    "remem": 13072,
    "_âĢĶâĢĻâĢĿ": 25742,
    "Ġpatterns": 1216,
    "Ġislets": 21805,
    "comprehensive": 20629,
    "ckled": 9260,
    "Ġdarkened": 16435,
    "Ġopposition": 16523,
    "Ġvisited": 5949,
    "bbings": 19278,
    "notwithstanding": 22754,
    "quid": 18147,
    "hyme": 19612,
    "|": 96,
    "Ġflew": 5588,
    "Ġsunbeam": 23278,
    "urpr": 2289,
    "Ġdrooping": 9423,
    "formality": 22221,
    "movement": 25578,
    "ency": 3870,
    "crow": 9593,
    "retion": 9365,
    "Ġcontention": 22430,
    "Ġever": 1182,
    "Ġcrumpled": 16440,
    "Ġtie": 10752,
    "Ġrailway": 15023,
    "chat": 21689,
    "Ġpained": 19169,
    "Ġrough": 7187,
    "liber": 18815,
    "Ġinward": 11610,
    "Ġholidays": 22925,
    "noticed": 14344,
    "Ġtalent": 12301,
    "Ġdepos": 11009,
    "Ġdoomed": 11344,
    "dropped": 12267,
    "hurt": 19880,
    "block": 11472,
    "Ġsupport": 6730,
    "Ġdummy": 25450,
    "begged": 18521,
    "ę": 218,
    "Ġmaiden": 13390,
    "jee": 17581,
    "Ġrashness": 25461,
    "eli": 3875,
    "Ġcrescentic": 20624,
    "bits": 17491,
    "pend": 6368,
    "ilt": 2968,
    "Ġnovember": 11753,
    "shish": 11797,
    "fun": 3649,
    "Ġkicks": 19771,
    "Ġending": 18924,
    "withstanding": 8948,
    "Ġfolded": 7768,
    "Ġeffemin": 18543,
    "heaven": 8053,
    "Ġrecording": 24434,
    "Ġunconditional": 15848,
    "Ġelijah": 9103,
    "ĠĠĠĠĠĠĠĠĠĠĠĠĠĠĠĠĠĠĠĠĠĠĠĠĠĠĠĠĠĠĠĠĠĠĠĠĠĠ": 16528,
    "acquired": 24298,
    "Ġbills": 17862,
    "alot": 15630,
    "anged": 3589,
    "ior": 2040,
    "Ġvines": 12756,
    "Ġdefence": 11069,
    "Ġvast": 3294,
    "ict": 591,
    "regiment": 16452,
    "Ġdisappointing": 19582,
    "outh": 2690,
    "Ġcarpet": 9359,
    "Ġperformance": 1307,
    "Ġabutted": 22279,
    "prev": 12872,
    "iment": 2818,
    "derest": 18315,
    "Ġoptimal": 1856,
    "numerous": 17434,
    "âĢ": 294,
    "anatory": 21366,
    "ipp": 10105,
    "Ġpersisted": 13041,
    "Ġobe": 5801,
    "amy": 8470,
    "Ġside": 1386,
    "cring": 20813,
    "jets": 20930,
    "Ġspectators": 19410,
    "thirty": 12767,
    "Ġcatch": 4440,
    "aped": 3766,
    "Ġcanallers": 13631,
    "hs": 8378,
    "Ġens": 2791,
    "Ġflash": 8230,
    "Ġadmirable": 8269,
    "darker": 24516,
    "Ġmultitudinous": 26275,
    "Ġmadman": 13155,
    "Ġaffectionately": 13172,
    "Ġpartly": 6715,
    "obed": 14449,
    "Ġdim": 4755,
    "hastened": 16847,
    "Ġassociation": 24710,
    "Ġundergo": 23238,
    "requirements": 24858,
    "kward": 6958,
    "Ġsavann": 14686,
    "Ġapprehended": 26091,
    "Ġdyspeps": 16510,
    "prepared": 13594,
    "else": 6535,
    "Ġbec": 1349,
    "Ġrickety": 26508,
    "Ġenjoys": 19453,
    "Ġunwound": 24829,
    "poison": 14395,
    "âĢľâĢĻ": 10224,
    "Ġwhist": 6023,
    "Ġslightly": 7293,
    "Ġtune": 17727,
    "Ġpretensions": 16561,
    "Ġapprehending": 26092,
    "iron": 3688,
    "pine": 13772,
    "Ġcanst": 8861,
    "parameter": 3011,
    "Ġabsurdities": 24879,
    "Ġdistracted": 11806,
    "ogne": 12945,
    "nigh": 13766,
    "Ġdownward": 10334,
    "Ġfootmen": 23799,
    "alf": 4637,
    "spe": 3562,
    "Ġshocks": 16460,
    "Ġbelshazzar": 16229,
    "Ġnarrations": 24352,
    "Ġdumbly": 24988,
    "Ġbutter": 6842,
    "Ġgrounds": 6751,
    "Ġdur": 11595,
    "Ġlowering": 7987,
    "Ġcourtesy": 9948,
    "Ġgrate": 12969,
    "Ġdisplaying": 16968,
    "Ġunmo": 12778,
    "onely": 6517,
    "Ġemperor": 15162,
    "Ġcreature": 2381,
    "ulsive": 10236,
    "Ġwishes": 4793,
    "Ġoars": 3898,
    "Ġcoffee": 6761,
    "Ġconstantly": 11977,
    "fool": 9050,
    "î": 175,
    "ches": 2148,
    "Ġmaj": 3928,
    "ch": 321,
    "Ġsummons": 13236,
    "Ġgossip": 18471,
    "Ġajar": 21205,
    "Ġconceivable": 16615,
    "Ġunconquerable": 22065,
    "aping": 8194,
    "Ġriots": 23894,
    "Ġvancouver": 26567,
    "Ġthankful": 14741,
    "wl": 17704,
    "Ġsea": 1210,
    "Ġwhoever": 10975,
    "Ġprecipitate": 19945,
    "unconquerable": 21895,
    "Ġpeasants": 12336,
    "Ġumbrell": 13654,
    "ĠĠĠĠĠĠĠĠĠĠĠĠĠĠĠĠĠĠĠĠĠĠĠĠĠĠĠĠĠ": 19702,
    "Ġunbelief": 22051,
    "Ġbaling": 17861,
    "Ġendeavouring": 8035,
    "Ġpreserve": 7529,
    "orough": 5700,
    "Ġclaw": 22351,
    "remains": 10401,
    "Ġbeale": 12704,
    "Ġrehearsed": 25972,
    "Ġeuropean": 20049,
    "deceptive": 22153,
    "Ġseals": 11699,
    "Ġpropagating": 20636,
    "osite": 4893,
    "Ġagreeable": 4550,
    "Ġazores": 20196,
    "Ġcomparison": 7101,
    "Ġpope": 11604,
    "Ġincommunicable": 26613,
    "Ġtale": 5142,
    "pardon": 10068,
    "177": 20754,
    "Ġengaged": 3432,
    "says": 13304,
    "Ġcomplacency": 19451,
    "delights": 19704,
    "Ġ14": 9326,
    "Ġnovelist": 24776,
    "thus": 5158,
    "hauled": 20671,
    "?âĢĶ": 3470,
    "Ġplace": 1653,
    "level": 2656,
    "stonecraft": 24356,
    "exerc": 16019,
    "^": 66,
    "Ġvinegar": 20103,
    "Ġblood": 3168,
    "waited": 24586,
    "gradu": 18617,
    "uel": 6967,
    "cannibals": 25585,
    "Ġkramm": 26235,
    "Ġgrease": 26191,
    "Ġprofound": 5497,
    "matical": 13133,
    "Ą": 197,
    "low": 654,
    "user": 5105,
    "Ġpool": 5173,
    "shabbily": 26248,
    "otence": 14026,
    "tastes": 21099,
    "increased": 20273,
    "ook": 21006,
    "ause": 1313,
    "Ġperilous": 7769,
    "Ġpovelson": 26554,
    "Ġvan": 1086,
    "Ġtowers": 16740,
    "xology": 21144,
    "umbrance": 22122,
    "urity": 8143,
    "superiority": 20188,
    "Ġunsafe": 22043,
    "Ġfoolish": 5981,
    "Ġtierce": 15481,
    "âĢĶ.": 11759,
    "biting": 20783,
    "wherever": 13123,
    "Ġpulled": 5660,
    "Ġsalisbury": 24066,
    "Ġoppression": 23655,
    "Ġkissed": 10048,
    "iant": 5427,
    "Ġsettling": 11064,
    "present": 1138,
    "Ġpassengers": 13679,
    "Ġpairs": 4181,
    "Ġcreatures": 4136,
    "ui": 9147,
    "hit": 20891,
    "Ġtraits": 23078,
    "Ġtoller": 9094,
    "Ġgrud": 17998,
    "Ġatlantic": 7001,
    "Ġconveying": 19717,
    "ective": 18177,
    "swept": 19789,
    "Ġmirror": 12382,
    "Ġjavan": 25000,
    "intense": 22939,
    "Ġsorrow": 4627,
    "decided": 13219,
    "aby": 18109,
    "Ġjeopard": 9946,
    "Ġopinion": 3143,
    "youth": 11879,
    "Ġhandful": 9785,
    "Ġtread": 9412,
    "Ġfiery": 6871,
    "Ġded": 2478,
    "Ġanat": 8124,
    "Ġequinox": 25856,
    "position": 15416,
    "Ġlasted": 11055,
    "Ġwrenched": 12563,
    "Ġpluck": 15618,
    "Ġhighway": 14349,
    "Ġyer": 15738,
    "Ġworker": 23042,
    "Ġvengeance": 5886,
    "swimming": 24261,
    "aly": 1127,
    "Ġdismal": 11814,
    "Ġhobbling": 25645,
    "zwilliam": 5074,
    "Ġturbul": 23614,
    "Ġprivileged": 20116,
    "Ġdoted": 21436,
    "Ġmist": 2878,
    "Ġinexperienced": 26101,
    "Ġapolog": 9046,
    "Ġconvulsive": 19308,
    "Ġaverages": 2397,
    "Ġprincely": 24150,
    "income": 15489,
    "Ġgirth": 13140,
    "chant": 4256,
    "acrity": 14282,
    "Ġklux": 22199,
    "hors": 9601,
    "Ġdes": 1251,
    "Ġgemin": 21613,
    "Ġbrisk": 9806,
    "signed": 21064,
    "Ġintegr": 7969,
    "Ġstriking": 6089,
    "ober": 15409,
    "Ġconsent": 5372,
    "Ġrephr": 21682,
    "Ġforefinger": 16443,
    "Ġcurvature": 3575,
    "Ġfangs": 12602,
    "Ġfaced": 10810,
    "Ġclient": 5556,
    "irra": 15789,
    "Ġheathen": 10568,
    "ena": 11571,
    "Ġnarratives": 24353,
    "Ġweather": 3995,
    "Ġmed": 4176,
    "july": 20478,
    "ssing": 3811,
    "Ġ17": 5740,
    "Ġbecame": 2695,
    "stache": 15693,
    "pillar": 5619,
    "meeting": 11021,
    "Ġdisturbance": 15015,
    "Ġgreen": 3054,
    "Ġbrothers": 13179,
    "noble": 7922,
    "Ġrainy": 24341,
    "numer": 15402,
    "ifferent": 4260,
    "farmer": 25900,
    "Ġluck": 4880,
    "draw": 23902,
    "arctic": 12615,
    "Ġcontaining": 2235,
    "Ġfired": 16156,
    "Ġorganizations": 12318,
    "genteel": 19952,
    "Ġtun": 6000,
    "Ġrelied": 16198,
    "Ġcolder": 22857,
    "Ġmock": 3694,
    "reng": 4001,
    "iew": 2446,
    "Ġhunting": 7259,
    "Ġunmanner": 22031,
    "necessity": 13372,
    "compassion": 12372,
    "immedi": 8452,
    "Ġscoresby": 10464,
    "Ġbored": 16109,
    "Ġquarter": 3976,
    "Ġsemantics": 2895,
    "Ġmind": 1616,
    "althily": 19362,
    "rust": 2580,
    "Ġconversations": 9428,
    "etrics": 21588,
    "future": 13720,
    "Ġsure": 1865,
    "_?âĢĿ": 15309,
    "ize": 754,
    "Ġprec": 2919,
    "Ġrosy": 18460,
    "Ġpraised": 19556,
    "Ġdaintiest": 25954,
    "punishment": 15149,
    "Ġtowed": 11267,
    "Ġunwinding": 22062,
    "Ġen": 393,
    "capitals": 25083,
    "Ġyields": 19659,
    "Ġbreakers": 12059,
    "certain": 3678,
    "Ġtops": 14588,
    "above": 8148,
    "Ġpracticable": 19033,
    "ab": 345,
    "declare": 25174,
    "Ġmines": 21311,
    "Ġpuzz": 5533,
    "Ġoverflow": 10295,
    "Ġaltogether": 4830,
    "machine": 934,
    "3": 23,
    "bearance": 22498,
    "dragged": 16610,
    "Ġcurse": 7667,
    "haz": 17566,
    "Ġindepend": 3670,
    "Ġcant": 17826,
    "exper": 8882,
    "Ġmimic": 3144,
    "won": 8395,
    "Ġdrags": 16943,
    "Ġejaculation": 20257,
    "Ġfluke": 14676,
    "braid": 17497,
    "Ġ1950": 11361,
    "Ġellenborough": 26155,
    "Ġapproaching": 6286,
    "Ġexagger": 12724,
    "Ġmustering": 18663,
    "Ġintolerable": 8484,
    "Ġcrews": 8993,
    "ping": 9618,
    "Ġthw": 21518,
    "Ġflooded": 24962,
    "sto": 3198,
    "Ġmonument": 16243,
    "Ġconcre": 16390,
    "Ġexcused": 23318,
    "Ġreveries": 11349,
    "ires": 6039,
    "Ġvers": 7563,
    "Ġclerical": 25569,
    "Ġdevout": 14330,
    "send": 15426,
    "wearing": 22690,
    "Ġcetus": 19887,
    "footman": 17165,
    "Ġpassive": 22842,
    "bohem": 19002,
    "Ġrested": 9382,
    "Ġmarling": 23037,
    "Ġparty": 3512,
    "sum": 2086,
    "Ġthis": 382,
    "apprehension": 26115,
    "Ġcaptioning": 23026,
    "itting": 1151,
    "Ġdeck": 2138,
    "Ġassigned": 16314,
    "convenient": 12242,
    "Ġdeclaring": 19423,
    "Ğ": 223,
    "Ġrushed": 4087,
    "da": 17516,
    "old": 800,
    "Ġfrequently": 4678,
    "Ġclapping": 14205,
    "Ġdisquis": 22531,
    "accustomed": 13161,
    "Ġstigma": 25792,
    "Ġlads": 8600,
    "Ġbier": 22769,
    "Ġomitted": 12569,
    "condite": 23250,
    "Ġharshly": 25250,
    "Ġinstructions": 11197,
    "ences": 1265,
    "Ġsober": 10913,
    "entiful": 10838,
    "Ġunhallowed": 17183,
    "Ġmultiplication": 2872,
    "neighbour": 7211,
    "Ġfulfilment": 20190,
    "seaman": 25458,
    "Ġconstitution": 20112,
    "Ġbreeds": 23351,
    "brimmed": 14590,
    "mingled": 14716,
    "plendent": 21968,
    "Ġcarving": 14446,
    "Ġapartments": 19617,
    "plunging": 25988,
    "Ġhumming": 12991,
    "Ġafraid": 3531,
    "Ġtransom": 22447,
    "Ġgratifying": 13310,
    "Ġhastened": 9007,
    "Ġworshipped": 25692,
    "seek": 8841,
    "aternity": 21268,
    "was": 1419,
    "Ġwhirl": 13453,
    "Ġfearing": 12820,
    "wake": 11548,
    "Ġfelicity": 7260,
    "gers": 8376,
    "appro": 7046,
    "Ġdelivery": 18975,
    "Ġintrospect": 15832,
    "Ġduplicate": 17218,
    "ksome": 10107,
    "Ġasc": 4763,
    "Ġreiterating": 26476,
    "unwholesome": 26499,
    "Ġsumat": 14132,
    "Ġarbitrary": 4734,
    "Ġcocain": 18597,
    "Ġassisting": 13262,
    "Ġcane": 10929,
    "kick": 20938,
    "_;": 6643,
    "Ġbawling": 25946,
    "Ġpatient": 6892,
    "ost": 5361,
    "Ġsign": 2495,
    "Ġdecorum": 16024,
    "Ġdipping": 15596,
    "Ġsleeps": 10448,
    "Ġbarrel": 23793,
    "buffalo": 20566,
    "Ġornam": 15868,
    "Ġshoots": 14570,
    "Ġconscious": 7744,
    "Ġmagazine": 23103,
    "false": 15358,
    "westward": 25425,
    "Ġstaff": 14010,
    "Ġmonitors": 3157,
    "Ġfrequ": 3325,
    "Ġoverfitting": 1543,
    "Ġcelestial": 10070,
    "Ġ128": 24473,
    "Ġmain": 808,
    "unwillingness": 25803,
    "sloop": 26146,
    "Ġprecious": 5760,
    "Ġbounding": 19403,
    "Ġdoth": 13911,
    "Ġblacksmith": 6597,
    "Ġornamented": 20365,
    "Ġirresistible": 13117,
    "coward": 13704,
    "tracks": 19649,
    "bbed": 6911,
    "arts": 6565,
    "saved": 15434,
    "verted": 10220,
    "Ġjen": 9270,
    "Ġtiny": 11555,
    "Ġfashions": 17887,
    "Ġrequire": 884,
    "emed": 3381,
    "Ġunequal": 14845,
    "Ġvisitor": 5331,
    "hav": 20899,
    "Ġmanor": 14199,
    "Ġposition": 1953,
    "Ġnear": 1716,
    "Ġspurned": 12801,
    "Ġmarble": 7669,
    "ptember": 10895,
    "Ġqueens": 16705,
    "Ġfilthy": 13253,
    "Ġdoesn": 7438,
    "erness": 6435,
    "Ġdeserved": 7737,
    "Ġnecessity": 7296,
    "Ġshower": 11714,
    "Ġepo": 21622,
    "Ġconstrained": 19242,
    "Ġrouse": 15826,
    "profess": 10637,
    "Ġgracefully": 13395,
    "native": 17613,
    "Ġhap": 18196,
    "Ġmiddle": 4137,
    "teous": 16177,
    "kingly": 20941,
    "Ġvolcano": 24149,
    "etics": 21584,
    "feeders": 25236,
    "osely": 9268,
    "Ġvillas": 24056,
    "Ġ\"": 6121,
    "Ġrelative": 11887,
    "makers": 20984,
    "urns": 10216,
    "Ġirrevoc": 15041,
    "Ġplunge": 13447,
    "appear": 13200,
    "Ġfiendish": 13332,
    "Ġdrowsy": 26446,
    "ruction": 4354,
    "Ġhimmale": 18335,
    "Ġknitted": 19592,
    "tolerable": 17690,
    "Ġliberties": 19670,
    "Ġvivid": 8058,
    "ignorantly": 25190,
    "perai": 10278,
    "finished": 10557,
    "kish": 20936,
    "Ġanomaly": 25637,
    "Ġdeigned": 18144,
    "houses": 9602,
    "Ġcapture": 3385,
    "nyder": 16687,
    "Ġmusical": 23895,
    "engthen": 14460,
    "Ġsphy": 18310,
    "mes": 1198,
    "Ġcond": 3876,
    "knew": 9129,
    "ology": 1564,
    "Ġceremonious": 24838,
    "Ġmanx": 7905,
    "horses": 17569,
    "Ġknots": 15011,
    "employ": 10897,
    "Ġske": 4813,
    "Ġcomfortably": 16617,
    "Ġadapt": 1015,
    "depend": 9115,
    "esty": 4303,
    "wrapped": 15213,
    "Ġlines": 4532,
    "Ġbruited": 25774,
    "isance": 17849,
    "Ġtong": 4870,
    "Ġpersevering": 20236,
    "Ġjerk": 16952,
    "inioned": 19288,
    "Ġsurvivors": 25732,
    ".)": 6784,
    "Į": 239,
    "believing": 19465,
    "Ġfilters": 3929,
    "Ġkindred": 16381,
    "Ġanatomical": 15080,
    "specim": 23947,
    "Ġcorrob": 16268,
    "inity": 5693,
    "Ġthr": 5709,
    "Ġconverted": 16115,
    "Ġnest": 10191,
    "Ġhavoc": 15817,
    "Ġstabbed": 25457,
    "crop": 20800,
    "Ġtoll": 7852,
    "Ġpreacher": 18370,
    "converse": 22479,
    "Ġmoved": 4838,
    "Ġwreath": 25937,
    "======": 9836,
    "Ġevermore": 18813,
    "total": 17253,
    "fted": 9121,
    "rud": 4189,
    "Ġfeverish": 11350,
    "Ġlain": 17964,
    "Ġrelationships": 2925,
    "Ġray": 18643,
    "rical": 11521,
    "Ġbidirectional": 3757,
    "Ġimp": 583,
    "icken": 6713,
    "Ġconsum": 9802,
    "Ġinst": 914,
    "Ġcolony": 18765,
    "robe": 15646,
    "Ġwink": 11572,
    "stricken": 9887,
    "Ġgoose": 5939,
    "delay": 16697,
    "arding": 22161,
    "Ġrenowned": 26195,
    "bury": 9110,
    "Ġsort": 1509,
    "pale": 13775,
    "Ġvisits": 8223,
    "cary": 10693,
    "Ġepsom": 19986,
    "shel": 11934,
    "Ġdeeps": 16117,
    "Ġdispleased": 18556,
    "familiar": 19786,
    "Ġbell": 4634,
    "rocious": 21542,
    "bulkington": 19927,
    "Ġnerve": 16343,
    "Ġadmeasure": 18294,
    "fif": 9119,
    "Ġsant": 21217,
    "§": 105,
    "six": 7143,
    "Ġmeas": 1095,
    "uits": 21107,
    "gentleman": 7518,
    "Ġkiss": 8183,
    "grow": 10101,
    "epend": 3312,
    "Ġfestoon": 20297,
    "abez": 10225,
    "teenth": 11878,
    "tri": 11532,
    "Ġobstetrics": 24679,
    "iding": 3849,
    "dman": 10091,
    "anity": 9657,
    "Ġpint": 17910,
    "lid": 20947,
    "Ġbeards": 21755,
    "Ġescort": 23507,
    "gown": 9599,
    "Ġestablished": 9072,
    "ieving": 7033,
    "Ġassumpt": 5415,
    "Ġvult": 12757,
    "Ġtarpaulin": 26158,
    "Ġunsounded": 15853,
    "Ġcrisis": 13131,
    "pression": 10409,
    "Ġrattler": 24998,
    "Ġexpress": 2197,
    "stand": 622,
    "Ġbanished": 10619,
    "but": 592,
    "acc": 2532,
    "Ġmariners": 6069,
    "Ġincom": 9772,
    "Ġcaresses": 26060,
    "Ġbeaks": 21759,
    "Ġsleet": 8978,
    "acknowled": 10977,
    "Ġbehooves": 20735,
    "Ġwig": 9164,
    "Ġhypocr": 19475,
    "Ġconcealing": 23905,
    "Ġspectacles": 12102,
    "Ġcruis": 14626,
    "Ġdropping": 7483,
    "Ġfurs": 18740,
    "Ġunlim": 18254,
    "pret": 7212,
    "Ġdaunt": 19667,
    "Ġfootpath": 19340,
    "Ġloth": 17968,
    "cheerful": 13579,
    "Ġrevelry": 15140,
    "Ġimpotent": 18448,
    "seeking": 17155,
    "ouder": 17902,
    "Ġprivately": 19526,
    "croquet": 25748,
    "Ġthrone": 12218,
    "Ġpaper": 4280,
    "uation": 17696,
    "antarctic": 22103,
    "ding": 3027,
    "_)âĢĶ": 20147,
    "Ġdragging": 14478,
    "Ġbelieve": 2146,
    "derness": 11741,
    "Ġdesolated": 24809,
    "µ": 118,
    "Ġguests": 12291,
    "Ġbulls": 23860,
    "ulgences": 21869,
    "Ġdemoniacal": 20559,
    "whis": 7898,
    "greg": 6650,
    "outs": 7010,
    "Ġkentuckian": 26344,
    "remembrance": 25703,
    "elaborate": 21579,
    "Ġposter": 14278,
    "deprived": 19900,
    "flo": 6116,
    "Ġpalm": 10516,
    "food": 12468,
    "Ġexpressly": 16454,
    "Ġtied": 7357,
    "reasoning": 9479,
    "avoid": 9308,
    "Ġearthly": 7990,
    "Ġtoad": 21513,
    "racts": 14364,
    "Ġsubstantiated": 25876,
    "Ġprinciple": 6771,
    "Ġrover": 18457,
    "Ġearly": 2078,
    "Ġtidy": 17094,
    "Ġsoapstone": 20514,
    "lac": 17591,
    "Ġbroadened": 23988,
    "caut": 20814,
    "nearest": 16026,
    "Ġply": 21455,
    "estim": 14172,
    "15": 12434,
    "joined": 13279,
    "Ġpitiable": 9917,
    "Ġilluminating": 25246,
    "Ġmill": 6669,
    "Ġjolly": 6858,
    "Ġgrammar": 1059,
    "Ġcust": 11585,
    "objection": 19917,
    "Ġsweetness": 9449,
    "summon": 23418,
    "Ġquies": 18465,
    "Ġannoy": 17201,
    "Ġprofund": 13157,
    "Ġfronted": 23260,
    "special": 14708,
    "Ġpossession": 5589,
    "cial": 2649,
    "irements": 22216,
    "Ġblemish": 19682,
    "Ġphotograph": 6304,
    "wling": 11547,
    "Ġponderous": 8355,
    "Ġpret": 3036,
    "autions": 20769,
    "Ġvary": 15811,
    "ilent": 21723,
    "Ġcounsell": 25385,
    "Ġprinciples": 10014,
    "boats": 6206,
    "deformity": 22150,
    "ohog": 9846,
    "Ġsled": 21221,
    "qu": 367,
    "Ġunallied": 22034,
    "Ġamazement": 7765,
    "Ġinland": 11611,
    "ined": 1261,
    "ims": 7177,
    "Ġoriental": 9100,
    "Ġvoyages": 6908,
    "ener": 561,
    "Ġconviction": 6328,
    "Ġplucked": 15117,
    "unsupervised": 10891,
    "affections": 17359,
    "Ġaccelerating": 1615,
    "similar": 13457,
    "Ġunqualified": 22063,
    "Ġexpansion": 22629,
    "Ġforms": 6398,
    "as": 302,
    "Ġrepay": 19083,
    "uneasy": 23688,
    "ellow": 3878,
    "Ġaccumul": 1410,
    "Ġequally": 5258,
    "Ġdecoding": 3084,
    "encies": 4080,
    "Ġshed": 8181,
    "Ġspeculations": 23002,
    "Ġtravelled": 7772,
    "exertion": 16020,
    "Ġlunacy": 20031,
    "Ġview": 2766,
    "Ġquaff": 22418,
    "hearts": 13349,
    "Ġleisure": 6541,
    "Ġmann": 18417,
    "Ġhung": 4559,
    "Ġresolves": 23652,
    "Ġsnodhead": 19303,
    "Ġrecollecting": 17114,
    "Ġroom": 1462,
    "lifted": 15390,
    "Ġscenery": 11458,
    "pips": 21022,
    "Ġfrigates": 25707,
    "t": 88,
    "Ġmerciless": 25247,
    "xible": 13811,
    "Ġcondescension": 10621,
    "chest": 11210,
    "Ġechoed": 20427,
    "lotte": 3330,
    "unicorn": 21893,
    "Ġarrive": 6907,
    "Ġeyebrows": 23517,
    "abri": 6684,
    "Ġins": 2784,
    "Ġunsuccessful": 18258,
    "Ġth": 299,
    "Ġtheoretic": 23316,
    "Ġprop": 1682,
    "Ġmixture": 9565,
    "Ġglimmered": 20174,
    "Ġmaelstrom": 19359,
    "Ġ134": 24783,
    "Ġseething": 18202,
    "discharging": 26306,
    "Ġsuspended": 5665,
    "Ġpant": 10819,
    "Ġmagnanim": 14475,
    "allowed": 5728,
    "secre": 18130,
    "Ġassembled": 9239,
    "hastily": 19705,
    "Ġresid": 22542,
    "ospit": 22266,
    "cat": 15327,
    "Ġdispelling": 23882,
    "include": 23591,
    "Ġchecked": 9379,
    "Ġbleak": 10561,
    "Ġproving": 15756,
    "zek": 16274,
    "uarded": 21108,
    "gods": 13371,
    "Ġconversing": 14635,
    "Ġbu": 3684,
    "Ġnods": 19064,
    "Ġapo": 9633,
    "Ġarrangement": 2660,
    "Ġstruggles": 16581,
    "Ġthirst": 7590,
    "Ġproduct": 3535,
    "althy": 8433,
    "ocris": 23710,
    "murderer": 13397,
    "izabeth": 907,
    "Ġabruptly": 15154,
    "Ġphysi": 9991,
    "Ġlights": 8963,
    "Ġnat": 12650,
    "occur": 19578,
    "Ġhaggard": 17333,
    "Ġprometheus": 15296,
    "Ġpresume": 8038,
    "baggage": 24927,
    "Ġinadequate": 17939,
    "Ġdial": 10812,
    "appeared": 4279,
    "Ġlob": 7628,
    "Ġraven": 16119,
    "allest": 5485,
    "Ġdetail": 635,
    "several": 5544,
    "Ġprice": 10405,
    "skeleton": 17379,
    "Ġbery": 13901,
    "ended": 1835,
    "Ġbounded": 16629,
    "Ġrevolving": 9986,
    "Ġavenue": 13625,
    "Ġincivility": 18573,
    "Ġexaggerate": 25650,
    "Ġprogress": 5023,
    "hauteur": 26393,
    "writer": 14650,
    "Ġhangs": 11609,
    "Ġatom": 18193,
    "Ġoccupies": 24011,
    "Ġdodge": 19888,
    "atoes": 17777,
    "eline": 2436,
    "Ġeth": 17718,
    "tahit": 17694,
    "Ġfut": 15579,
    "Ġmar": 1311,
    "uning": 1312,
    "Ġhurry": 4913,
    "Ġstarting": 7729,
    "Ġreader": 11938,
    "egypt": 15353,
    "Ġshutters": 9940,
    "Ġpreceded": 13432,
    "cruise": 24842,
    "eld": 968,
    "Ġillness": 8593,
    "sought": 15430,
    "Ġprofundities": 20456,
    "Ġmake": 1286,
    "Ġant": 4342,
    "Ġtamer": 24979,
    "Ġnotorious": 18224,
    "Ġintervening": 17270,
    "collins": 6916,
    "Ġxxi": 24476,
    "Ġwhy": 1762,
    "ater": 3371,
    "Ġgeometric": 3217,
    "nels": 12500,
    "table": 5795,
    "Ġtalker": 23374,
    "Ġposture": 24166,
    "rese": 15511,
    "Ġnumber": 1981,
    "li": 1188,
    "itig": 1331,
    "âĢĶâĢĺ": 7015,
    "Ġpredef": 18515,
    "Ġmagician": 25061,
    "Ġsigning": 22711,
    "velling": 14765,
    "Ġnominal": 15172,
    "oil": 7805,
    "Ġep": 7384,
    "Ġthre": 2059,
    "swe": 5997,
    "Ġwatchman": 23670,
    "Ġsalted": 14759,
    "Ġsucceed": 4543,
    "Ġclasping": 20212,
    "out": 468,
    "high": 6652,
    "Ġblankness": 24611,
    "Ġengagement": 5397,
    "mankind": 14377,
    "Ġpaces": 13922,
    "Ġmagnitude": 1943,
    "Ġwoven": 9929,
    "repeated": 12343,
    "Ġyours": 4123,
    "eel": 11486,
    "wealth": 22691,
    "scy": 21058,
    "ade": 881,
    "Ġwrath": 16319,
    "Ġgranite": 22811,
    "wont": 21135,
    "Ġtack": 5621,
    "Ġcompasses": 11269,
    "con": 653,
    "alty": 17941,
    "poling": 12224,
    "Ġstaving": 21744,
    "Ġunmanufactured": 20437,
    "Ġwarp": 8113,
    "vity": 7815,
    "Ġwarming": 23560,
    "stories": 18023,
    "Ġcrags": 23529,
    "circumspect": 26087,
    "Ġfountain": 7365,
    "Ġcongregational": 25105,
    "ondency": 15273,
    "irt": 3079,
    "rises": 17657,
    "icilian": 20694,
    "Ġ*": 1273,
    "Ġhur": 2098,
    "Ġanchored": 17443,
    "Ġhuddled": 20302,
    "Ġtransient": 18487,
    "mblance": 7323,
    "cil": 8724,
    "Ġlog": 1677,
    "Ġcabinets": 23864,
    "Ġessays": 19747,
    "Ġeclipsed": 26378,
    "Ġvind": 10252,
    "Ġrefreshed": 15294,
    "steel": 8299,
    "Ġwilds": 16511,
    "Ġimpress": 6862,
    "Ġlandowner": 23384,
    "¤": 102,
    "Ġfrowning": 13627,
    "Ġnecessarily": 13254,
    "nect": 662,
    "Ġfoundling": 22978,
    "exceed": 7911,
    "Ā": 193,
    "Ġarising": 10935,
    "Ġupbraid": 18318,
    "Ġmischief": 8544,
    "poured": 17639,
    "Ġglac": 9349,
    "luckily": 19755,
    "Ġbennet": 1573,
    "Ġowner": 8925,
    "Ġinheriting": 25355,
    "ellest": 21577,
    "Ġmishap": 20579,
    "Ġsuspend": 14610,
    "ways": 1440,
    "Ġactuated": 18546,
    "Ġ(_": 3738,
    "india": 22375,
    "kindred": 24052,
    "Ġporus": 24398,
    "trying": 15441,
    "ernity": 18614,
    "Ġlingering": 11381,
    "wig": 17706,
    "Ġborrow": 10173,
    "Ġdeprec": 15762,
    "Ġvoracity": 25987,
    "Ġdiscussion": 17197,
    "Ġtelescope": 17351,
    "Ġbumping": 25281,
    "Ġcoats": 16080,
    "mild": 15395,
    "taller": 26151,
    "Ġimpotently": 22395,
    "arken": 18668,
    "Ġclearly": 6897,
    "Ġschooner": 16749,
    "Ġoccurs": 1857,
    "Ġabject": 18392,
    "Ġharbors": 24902,
    "assured": 10954,
    "Ġcent": 3251,
    "Ġhairy": 23867,
    "Ġdisregard": 22532,
    "eze": 20849,
    "Ġ30": 10514,
    "network": 1930,
    "Ġbub": 8118,
    "Ġnoses": 18373,
    "clay": 18933,
    "page": 13774,
    "studies": 25170,
    "Ġfevers": 22212,
    "Ġhessian": 3549,
    "birds": 15148,
    "izers": 18136,
    "stirring": 20429,
    "relation": 19450,
    "Ġextrem": 2474,
    "Ġeigenvalues": 4998,
    "Ġfavours": 23284,
    "Ġworkmen": 23043,
    "Ġdairy": 20689,
    "oriented": 2946,
    "Ġamphitheat": 26253,
    "elt": 4114,
    "Ġdis": 695,
    "Ġsplendid": 17216,
    "Ġauthoritative": 19564,
    "lost": 8891,
    "Ġtunes": 24620,
    "Ġconcuss": 19050,
    "._]]": 5335,
    "Ġyouth": 4259,
    "Ġhedges": 19988,
    "accomplishment": 20226,
    "fluttering": 23976,
    "Ġoutriders": 26545,
    "Ġdistrusted": 13545,
    "apparent": 11043,
    "Ġtemptations": 24508,
    "Ġdungeon": 16998,
    "Ġlan": 5821,
    "impregnable": 26483,
    "Ġsaved": 6692,
    "Ġcivilly": 19606,
    "icial": 12660,
    "Ġshel": 6847,
    "Ġtwin": 12933,
    "Ġlocks": 11728,
    "Ġsnail": 19301,
    "Ġdoor": 1739,
    "advantages": 11273,
    "speptic": 23949,
    "Ġtries": 9153,
    "Ġbreeding": 14524,
    "securing": 19816,
    "oken": 4304,
    "Ġfowls": 8694,
    "thyself": 19299,
    "Ġdoubling": 23324,
    "Ġsnorting": 23743,
    "conduct": 11801,
    "asional": 17962,
    "Ġadvantageously": 19548,
    "Ġdisconsol": 18558,
    "Ġinfirm": 19021,
    "somers": 19371,
    "Ġheavenly": 12089,
    "mas": 5212,
    "Ġscreen": 17208,
    "apparently": 15208,
    "soft": 12514,
    "complain": 14360,
    "iable": 3333,
    "ô": 181,
    "Ġlonger": 3361,
    "Ġconvolutions": 21811,
    "Ġgriff": 22809,
    "Ġenveloping": 19737,
    "Ġheredit": 9219,
    "plings": 11701,
    "arled": 21445,
    "idean": 14265,
    "prise": 7727,
    "continual": 20646,
    "savagery": 25028,
    "Ġberg": 24536,
    "swiss": 24258,
    "irations": 18173,
    "Ġherbage": 25997,
    "Ġpalsied": 25780,
    "Ġpict": 3500,
    "Ġgrizzled": 11452,
    "earnest": 12403,
    "gammon": 20246,
    "chard": 21690,
    "ads": 5718,
    "Ġglobules": 26590,
    "Ġpart": 859,
    "coronet": 16865,
    "Ġrecommendation": 17027,
    "Ġwrest": 11574,
    "Ġtriumphant": 12194,
    "queequeg": 4331,
    "ceiving": 3903,
    "Ġclump": 15969,
    "Ġsequel": 14359,
    "Ġmiz": 10779,
    "Ġgem": 21597,
    "Ġinsertion": 26345,
    "Ġparacels": 13671,
    "traces": 24336,
    "shapes": 22466,
    "Ġotherwise": 4656,
    "Ġservice": 6472,
    "battle": 12446,
    "ĠĠĠĠĠĠĠĠĠĠĠĠĠĠĠĠĠĠĠĠĠĠĠĠĠĠĠĠĠĠĠ": 19703,
    "Ġfle": 3094,
    "Ġtrial": 6637,
    "Ġwitty": 21295,
    "Ġmeekly": 26492,
    "Ġgurg": 15677,
    "Ġitalian": 12414,
    "aus": 1503,
    "Ġchoicest": 24223,
    "Ġpleasurable": 23343,
    "ophisticated": 22482,
    "uend": 21104,
    "Ġrefreshing": 20267,
    "Ġshelf": 12272,
    "Ġhonourable": 10458,
    "Ġmisfortune": 5569,
    "Ġplans": 7918,
    "Ġforwarded": 19047,
    "Ġdread": 3163,
    "Ġcontemptuously": 19836,
    "Ġheavily": 6742,
    "Ġmedium": 16708,
    "Ġsymmetrical": 20370,
    "Ġtalents": 15047,
    "Ġprepared": 5878,
    "surprised": 9534,
    "Ġbountiful": 25945,
    "Ġfac": 6382,
    "Ġscore": 9741,
    "Ġwalls": 6763,
    "Ġlook": 880,
    "entitled": 21571,
    "precious": 12077,
    "Ġstatistics": 1683,
    "txt": 12520,
    "Ġforbidden": 17079,
    "Ġvisions": 12982,
    "ancies": 11587,
    "Ġmole": 11795,
    "aded": 3550,
    "bear": 10317,
    "Ġadaptation": 3156,
    "Ġvel": 7186,
    "Ġimpending": 22389,
    "iform": 2203,
    "Ġwashington": 17205,
    "declaration": 25176,
    "Ġdictionaries": 12344,
    "Ġmanner": 2198,
    "e": 73,
    "wherein": 19109,
    "Ġoutside": 5554,
    "Ġkills": 15910,
    "Ġdishonoured": 20394,
    "Ġresc": 4505,
    "iting": 2157,
    "Ġpopulous": 16828,
    "inf": 6234,
    "mopol": 15399,
    "carbuncle": 26384,
    "Ġlump": 21555,
    "Ġcontract": 18476,
    "Ġcontained": 7679,
    "pal": 9619,
    "Ġlanes": 19768,
    "Ġhelplessly": 20081,
    "Ġcommencement": 12243,
    "Ġaffirm": 11891,
    "Ġsalvation": 14760,
    "Ġshouted": 5348,
    "Ġpend": 15610,
    "Ġadversity": 24305,
    "Ġuncl": 22018,
    "Ġsufferable": 16261,
    "Ġmisty": 16542,
    "Ġscrewed": 15124,
    "Ġevident": 6615,
    "Ġrecurred": 18978,
    "alization": 732,
    "letters": 13178,
    "prolong": 23398,
    "fleet": 15016,
    "Ġtiara": 26417,
    "ban": 9587,
    "verdict": 21733,
    "Ġpreliminary": 10060,
    "Ġscuffle": 20611,
    "Ġannual": 14835,
    "Ġdancing": 5703,
    "seemed": 4301,
    "lie": 12487,
    "sar": 12509,
    "'s": 2469,
    "interrupt": 8619,
    "Ġres": 696,
    "Ġjing": 15953,
    "adding": 21765,
    "Ġvii": 13113,
    "Č": 205,
    "Ġdata": 520,
    "div": 8076,
    "Ġvehement": 16205,
    "assment": 9743,
    "Ġflies": 13031,
    "Ġextremities": 19197,
    "Ġconfidential": 9091,
    "Ġluckless": 16799,
    "violent": 14581,
    "Ġpaddock": 25040,
    "Ġsi": 21215,
    "Ġhelpless": 8302,
    "gence": 876,
    "Ġsquaw": 22840,
    "Ġalluded": 7885,
    "shook": 19858,
    "Ġlimits": 3455,
    "Ġturner": 7051,
    "Ġpreside": 18366,
    "Ġeul": 21621,
    "blows": 17168,
    "±": 114,
    "Ġarcher": 22194,
    "irc": 1730,
    "elze": 21576,
    "mannered": 22856,
    "âĢĿ]": 21819,
    "lied": 6508,
    "Ġpatched": 16364,
    "Ġneighbor": 25806,
    "Ġgulf": 10638,
    "Ġfulfil": 9554,
    "fairly": 17222,
    "Ġindistinctly": 26118,
    "Ġnobler": 14176,
    "reproof": 25433,
    "Ġtradesman": 20076,
    "offered": 14521,
    "Ġtherein": 11780,
    "Ġstrang": 4160,
    "Ġbanking": 19633,
    "Ġscan": 22288,
    "Ġachieves": 4377,
    "Ġuttering": 16464,
    "ancial": 21365,
    "unwittingly": 25802,
    "Ġfra": 1808,
    "Ġ73": 24263,
    "Ġcloth": 9746,
    "plumed": 21965,
    "cordiality": 25140,
    "seas": 14036,
    "used": 3258,
    "ountain": 2918,
    "especially": 3574,
    "ension": 6571,
    "Ġthin": 4344,
    "lake": 13752,
    "aphys": 15205,
    "tle": 2410,
    "Ġintens": 7004,
    "Ġreply": 4513,
    "confl": 22475,
    "Ġallurements": 22011,
    "Ġunforgiving": 25996,
    "Ġhope": 1792,
    "Ġrepul": 16413,
    "dle": 3303,
    "Ġcoffin": 4428,
    "Ġtaking": 3247,
    "Ġenabled": 9299,
    "painting": 17047,
    "Ġdependent": 14303,
    "riers": 18187,
    "avenue": 25060,
    "Ġstandard": 14498,
    "Ġretreated": 13437,
    "Ġaband": 6563,
    "Ġmorrow": 9346,
    "Ġbiological": 1932,
    "Ġrepeatedly": 9024,
    "Ġdanger": 3521,
    "girdling": 26391,
    "Ġrespected": 11957,
    "metals": 24765,
    "itical": 5802,
    "harm": 13738,
    "ription": 5676,
    "Ġsynthe": 26008,
    "distinctive": 25726,
    "Ġplu": 8803,
    "izing": 1064,
    "ĠÂ£": 5006,
    "commanders": 16991,
    "Ġbewildered": 15217,
    "pudding": 17649,
    "Ġoverhanging": 22365,
    "darted": 20834,
    "entieth": 17981,
    "estic": 4955,
    "wait": 11322,
    "Ġoutrid": 22319,
    "delirious": 19508,
    "Ġpreference": 9736,
    "iminished": 19025,
    "Ġfarmhouse": 24987,
    "afforded": 25866,
    "Ġrobbery": 11923,
    "Ġincreasing": 8247,
    "Ġinquirers": 24965,
    "Ġoutcast": 18415,
    "Ġmermaid": 17815,
    "iquet": 17577,
    "ag": 377,
    "âĢĶ_": 3200,
    "antee": 22101,
    "mistakable": 20655,
    "Ġassociates": 24711,
    "Ġin": 291,
    "maltese": 24794,
    "Ġlim": 2378,
    "Ġtus": 10751,
    "Ġenergy": 2551,
    "Ġmaternal": 11061,
    "Ġovercame": 9749,
    "ed": 293,
    "ilst": 8144,
    "Ġferule": 24499,
    "Ġcharacter": 2797,
    "articulate": 17401,
    "Ġbethink": 12383,
    "rer": 3624,
    "remember": 7262,
    "Ġmach": 13860,
    "Ġperplexity": 2759,
    "pron": 9009,
    "hering": 12819,
    "Ġspark": 6690,
    "Ġfork": 15736,
    "Ġaim": 10148,
    "Ġdedu": 5583,
    "uments": 5552,
    "Ġdep": 748,
    "Ġnameless": 7700,
    "Ġtunnels": 24621,
    "Ġfoe": 7680,
    "Ġsaviour": 20715,
    "Ġcra": 2331,
    "accounted": 16503,
    "Ġbecome": 3158,
    "Ġdashed": 6011,
    "Ġinsolent": 13604,
    "evening": 7091,
    "Ġtrib": 13822,
    "Ġloading": 15878,
    "Ġrocky": 13391,
    "likely": 9026,
    "Ġjapan": 7640,
    "Ġcups": 16884,
    "Ġunnearable": 26518,
    "Ġtangle": 25761,
    "ureau": 10229,
    "sequ": 2400,
    "Ġunconsc": 6554,
    "Ġrumors": 11323,
    "cadence": 26126,
    "aits": 20768,
    "Ġheeds": 24520,
    "twinkle": 23705,
    "Ġmax": 2005,
    "sor": 7352,
    "inations": 7567,
    "Ġdl": 3377,
    "Ġduration": 20356,
    "Ġpiping": 23242,
    "Ġlane": 5627,
    "misrepresented": 24214,
    "idered": 4551,
    "Ġont": 18123,
    "Ġcopse": 17068,
    "Ġsultanism": 25889,
    "Ġreb": 15695,
    "Ġturkey": 19222,
    "towing": 17691,
    "Ġco": 730,
    "Ġanytime": 12890,
    "Ġhol": 1183,
    "Ġhump": 5855,
    "Ġpine": 8801,
    "Ġsuggests": 12205,
    "chan": 1149,
    "caps": 20809,
    "br": 2477,
    "Ġduly": 13355,
    "Ġobey": 9522,
    "observation": 17272,
    "Ġtoilet": 13940,
    "danger": 10092,
    "Ġkind": 1786,
    "remaining": 20223,
    "Ġfeedforward": 2326,
    "Ġimpulses": 19965,
    "Ġpeculiarly": 8287,
    "Ġdiffused": 12073,
    "education": 20304,
    "cut": 3125,
    "Ġmouldings": 24736,
    "Ġprinces": 23223,
    "aloes": 21505,
    "teringly": 21827,
    "Ġvanished": 6874,
    "frequent": 15357,
    "serious": 14451,
    "critters": 14778,
    "Ġrese": 2137,
    "unexpected": 15782,
    "deploy": 22146,
    "Ġcascade": 20584,
    "Ġnoiselessly": 22866,
    "Ġshun": 11713,
    "Ġstructural": 2801,
    "invari": 21187,
    "Ġdropt": 23678,
    "Ġix": 12673,
    "uble": 21105,
    "Ġfleet": 9435,
    "Ġdressed": 5081,
    "Ġexpenses": 11839,
    "Ġarrived": 3748,
    "Ġvalues": 2654,
    "Ġcaravan": 26292,
    "Ġsnoo": 21231,
    "Ġass": 1506,
    "Ġslid": 7952,
    "probability": 17024,
    "Ġparsonage": 7125,
    "Ł": 258,
    "oused": 6558,
    "Ġfunction": 589,
    "Ġscrape": 14921,
    "Ġregression": 4408,
    "second": 6545,
    "stoke": 18022,
    "Ġkitty": 3910,
    "Ġwhenever": 5166,
    "Ġrifled": 21983,
    "Ġattach": 14291,
    "furniture": 20245,
    "Ġinstruments": 12228,
    "Ġnurtured": 19752,
    "Ġcounterpart": 24720,
    "attachment": 13057,
    "Ġground": 2848,
    "mun": 20964,
    "atus": 21263,
    "rifle": 21049,
    "three": 5239,
    "Ġtorture": 9067,
    "unw": 14060,
    "Ġstaggers": 24654,
    "Ġplump": 14285,
    "contrast": 25595,
    "Ġperempt": 13677,
    "Ġcrabs": 19176,
    "Ġcommunity": 19010,
    "Ġregarded": 5762,
    "Ġadopted": 15182,
    "Ġhamp": 12635,
    "arded": 5029,
    "Ġignor": 4010,
    "Ġcomputer": 1204,
    "K": 47,
    "Ġcoach": 6867,
    "Ġperfect": 2555,
    "atha": 6574,
    "urmountable": 15283,
    "Ġhesitate": 16948,
    "Ġentit": 22741,
    "Ġbreezes": 14872,
    "Ġexploit": 19164,
    "orand": 21400,
    "Ġnigh": 4878,
    "Ġshifting": 12773,
    "Ġthirty": 4943,
    "apothe": 22339,
    "Ġtrop": 7565,
    "Ġmoustache": 20487,
    "Ġsaid": 577,
    "Ġwhistling": 19793,
    "whereby": 23420,
    "Ġfocuses": 8653,
    "Ġsympathy": 6348,
    "izer": 2031,
    "crawling": 16960,
    "reduced": 15809,
    "Ġrampart": 20321,
    "chosen": 21698,
    "Ġvariations": 22669,
    "ages": 827,
    "het": 5435,
    "Ġmot": 2985,
    "gon": 17554,
    "bell": 7332,
    "rasing": 21048,
    "Ġstarted": 4149,
    "Ġtaste": 5524,
    "confess": 12180,
    "Ġfitness": 24003,
    "Ġbarred": 9005,
    "fisher": 7547,
    "Ġsteersman": 13047,
    "Ġkindest": 23296,
    "Ġnecess": 3478,
    "Ġstep": 751,
    "Ġinseparable": 20691,
    "Ġglu": 15672,
    "Ġsakes": 18327,
    "Ġeveryone": 8921,
    "Ġseclusion": 18207,
    "ring": 1754,
    "Ġplying": 17914,
    "Ġvalidate": 3204,
    "hated": 17563,
    "Ġnail": 9198,
    "ython": 1030,
    "Ġreferred": 8920,
    "Ġthem": 639,
    "Ġembell": 14409,
    "rels": 6667,
    "Ġlongest": 18630,
    "unmistakable": 21899,
    "Ġordinarily": 20651,
    "Ġchased": 8865,
    "Ġunwarrant": 19936,
    "Ġbehind": 2810,
    "Ġmorals": 22980,
    "Ġtrampling": 25493,
    "Ġburden": 8611,
    "condition": 7061,
    "roar": 17955,
    "Ġscratch": 25565,
    "Ġconc": 1842,
    "Ġabusive": 22277,
    "Ġballs": 9018,
    "Ġceremony": 8361,
    "Ġcharms": 11132,
    "Ġemperors": 15163,
    "Ġbrandy": 11051,
    "Ġmiguel": 25767,
    "Ġpoet": 8208,
    "eaten": 20347,
    "Ġtemperature": 1004,
    "justified": 19004,
    "Ġreusable": 13561,
    "rosc": 17957,
    "Ġalien": 14021,
    "cano": 18847,
    "Ġpretended": 19316,
    "Ġcl": 553,
    "Ġcataract": 23430,
    "steps": 9408,
    "comfortableness": 24525,
    "Ġheav": 1850,
    "assuming": 22314,
    "orn": 2246,
    "Ġcenturies": 8626,
    "Ġwaits": 23282,
    "nant": 17611,
    "Ġstowing": 18077,
    "Ġharriet": 24573,
    "Ġherds": 9719,
    "Ġnotice": 4541,
    "Ġshudder": 9053,
    "mody": 16189,
    "Ġattribute": 16101,
    "leful": 17844,
    "Ġmoral": 6581,
    "Ġostentatiously": 20472,
    "Ġanomalous": 25638,
    "Ġdevoutly": 25834,
    "Ġrenegades": 26478,
    "Ġeducation": 5128,
    "road": 6679,
    "gar": 5615,
    "borrowed": 20794,
    "Ġmultitud": 18748,
    "Ġextravag": 11255,
    "ials": 11708,
    "Ġfootpaths": 26319,
    "Ġeventually": 8620,
    "ggy": 13118,
    "Ġhundred": 2698,
    "arman": 11598,
    "Ġarmchair": 8271,
    "Ġreceptacle": 23195,
    "loun": 17590,
    "ming": 3603,
    "Ġdisconsolate": 20721,
    "Ġprolonged": 8358,
    "Ġgoverned": 23573,
    "Ġpouch": 21471,
    "hairs": 20906,
    "Ġbowl": 11205,
    "Ġinscrut": 10037,
    "Ġsublimity": 26348,
    "Ġfishing": 9665,
    "assisted": 22311,
    "clock": 3934,
    "Ġointment": 21329,
    "put": 414,
    "Ġbedrooms": 19973,
    "Ġser": 1673,
    "sleet": 20152,
    "kes": 3680,
    "Ġfeasts": 25370,
    "Ġfrighten": 13283,
    "Ġgateway": 24799,
    "Ġxi": 16432,
    "nne": 20991,
    "caterpillar": 26385,
    "vil": 2736,
    "Ġvapory": 17008,
    "Ġentity": 10344,
    "Ġinsipid": 26314,
    "Ġproposal": 10022,
    "Ġmizzen": 20292,
    "umbled": 8495,
    "speeches": 25240,
    "oters": 21803,
    "ely": 621,
    "Ġblanc": 11067,
    "Ġsees": 8847,
    "dressing": 11484,
    "Ġproof": 6155,
    "Ġromans": 16761,
    "Ġhorses": 6386,
    "Ġbroker": 23105,
    "wreat": 21130,
    "companies": 24895,
    "Ġprotested": 9937,
    "Ġamiss": 18512,
    "wa": 5898,
    "Ġconstraint": 16515,
    "Ġdrawer": 13270,
    "speaks": 19722,
    "irons": 10241,
    "Ġfurrow": 22818,
    "ality": 2512,
    "Ġbetter": 1177,
    "Ġbrilliant": 11416,
    "berwell": 22747,
    "mit": 4933,
    "prot": 6899,
    "Ġsimultaneously": 4308,
    "Ġalong": 1979,
    "Ġemphasis": 20539,
    "oundering": 11750,
    "oughed": 22079,
    "Ġdied": 4110,
    "gird": 20881,
    "Ġfootman": 8288,
    "cart": 10692,
    "Ġflamingo": 15104,
    "Ġwith": 349,
    "helm": 12176,
    "etime": 12664,
    "quet": 6835,
    "hered": 5623,
    "Ġimplore": 24873,
    "Ġepistle": 24905,
    "uncommonly": 25550,
    "warning": 25532,
    "historian": 25735,
    "Ġlake": 5227,
    "Ġapart": 4744,
    "Ġdispleasure": 16056,
    "Ġhunger": 8570,
    "Ġsports": 18309,
    "Ġdivine": 6921,
    "Ġunwillingness": 20035,
    "Ġirresolution": 24916,
    "Ġranks": 21979,
    "deceit": 25557,
    "Ġgiving": 4085,
    "Ġunreliable": 3930,
    "Ġoutrage": 15962,
    "Ġresigned": 9771,
    "carp": 9113,
    "orus": 10803,
    "bel": 3838,
    "Ġacquired": 13049,
    "Ġnewly": 9341,
    "Ġlistless": 16478,
    "ultaneous": 18583,
    "Ġanxiously": 8290,
    "Ġresign": 18565,
    "Ġapproximates": 2418,
    "men": 1487,
    "Ġecon": 9680,
    "Ġstile": 21739,
    "star": 12676,
    "Ġsatire": 22903,
    "thoroughly": 26510,
    "Ġdiameter": 19869,
    "precisely": 6917,
    "gorith": 548,
    "Ġadhes": 22106,
    "Ġretention": 23074,
    "Ġbow": 3063,
    "Ġrally": 21975,
    "magnetic": 20555,
    "Ġphys": 5653,
    "promised": 12256,
    "Ġredness": 19314,
    "Ġneville": 7399,
    "hinting": 17571,
    "Ġundisturbed": 19522,
    "Ġframe": 1935,
    "idated": 11664,
    "Ġrestricted": 19029,
    "X": 60,
    "gd": 3126,
    "houn": 20895,
    "mant": 20967,
    "Ġremarks": 7473,
    "Ġbohemian": 17136,
    "voy": 7145,
    "pening": 2833,
    "Ġprocessions": 18434,
    "Ġdeficiencies": 26572,
    "Ġstory": 2902,
    "Ġtext": 2269,
    "quin": 21846,
    "Ġtropics": 17067,
    "locked": 7678,
    "compliment": 11366,
    "Ġrivers": 9445,
    "Ġshuddered": 11302,
    "Ġrecol": 4028,
    "byshire": 6174,
    "stump": 21650,
    "offices": 19063,
    "ni": 1654,
    "Ġemerge": 14931,
    "anchor": 13892,
    "Ġthrilling": 19751,
    "ilty": 6395,
    "ios": 2118,
    "Ġjoking": 12842,
    "edd": 1193,
    "leep": 4633,
    "enborough": 21288,
    "Ġcollectively": 19971,
    "Ġsleeping": 6321,
    "Ġinstrum": 6056,
    "Ġcarve": 23096,
    "Ġconjectured": 10000,
    "azore": 23464,
    "tur": 5688,
    "Ġzero": 1202,
    "Ġcurved": 18843,
    "Ġwit": 3844,
    "Ġheadache": 22902,
    "Ġprompted": 23819,
    "fate": 17541,
    "Ġinjurious": 24273,
    "willingness": 24754,
    "Ġwhence": 5840,
    "Ġladies": 3193,
    "utored": 15667,
    "ingly": 2134,
    "Ġstone": 4644,
    "Ġbottle": 7490,
    "strikes": 24671,
    "perpendicular": 14162,
    "Ġprofusion": 23570,
    "Ġearnestness": 12130,
    "Ġleading": 7297,
    "Ġjoyous": 14666,
    "tch": 9144,
    "Ġexertions": 13414,
    "Ġshrubbery": 18233,
    "Ġjetted": 24431,
    "Ġsummer": 4788,
    "Ġshout": 4262,
    "Ġspeedy": 11174,
    "Ġintersect": 22581,
    "Ġdecanting": 22442,
    "Ġpainfully": 13146,
    "Ġdistorted": 14252,
    "Ġhooks": 14971,
    "Ġmakest": 25436,
    "20": 20755,
    "Ġoutdone": 22322,
    "Ġprevents": 2556,
    "sample": 12511,
    "Ġknowing": 4456,
    "Ġrelevance": 5184,
    "Ġnewspaper": 12368,
    "Ġscholars": 26113,
    "forgotten": 12420,
    "Ġdanes": 25160,
    "pro": 2050,
    "Ġcuriously": 13012,
    "Ġconclusion": 5987,
    "impul": 16559,
    "odecim": 9835,
    "Ġnonsense": 6983,
    "altering": 12645,
    "vative": 1530,
    "unlike": 18159,
    "Ġcompanions": 5867,
    "Ġindelicacy": 25696,
    "Ġzer": 1093,
    "ource": 5244,
    "âĢĺ": 941,
    "onents": 8781,
    "Ġroundabout": 23064,
    "04": 10682,
    "Ġattachment": 6051,
    "Ġtwitching": 25684,
    "ched": 1546,
    "sculptured": 26047,
    "falling": 24361,
    "Ġrepent": 9866,
    "Ġtomorrow": 21516,
    "Ġrespite": 13158,
    "Ġroot": 2653,
    "later": 20955,
    "shr": 10982,
    "stat": 21641,
    "Ġblubber": 5666,
    "extremely": 26265,
    "Ġvillages": 14751,
    "eronomy": 15528,
    "Ġexord": 21831,
    "Ġdirections": 1971,
    "much": 3708,
    "Ġoppose": 16522,
    "stud": 8824,
    "moor": 22705,
    "Ġquoted": 22419,
    "brain": 13691,
    "fthand": 26388,
    "Ġtwopence": 18661,
    "s": 87,
    "cottagers": 20051,
    "Ġglut": 18856,
    "Ġsurmisings": 26595,
    "rum": 3472,
    "earnestly": 17316,
    "Ġsilent": 3415,
    "Ġaccepted": 7751,
    "dis": 2253,
    "Ġspur": 18302,
    "Ġethiopian": 26615,
    "Ġcheerless": 16695,
    "pay": 10720,
    "Ġcaptiv": 16260,
    "Ġhunts": 23161,
    "cater": 20817,
    "Ġagonizing": 17241,
    "Ġravings": 18647,
    "forgetting": 25486,
    "Ġagric": 22518,
    "boat": 3363,
    "Ġterrier": 23402,
    "Ġarsacidean": 20368,
    "Ġshells": 20367,
    "Ġhemisphere": 26480,
    "Ġlamb": 8817,
    "iocr": 20925,
    "Ġjournal": 15222,
    "Ġpore": 21460,
    "Ġheadlands": 22901,
    "elling": 5831,
    "grey": 14915,
    "header": 11937,
    "accidents": 19215,
    "Ġantarctic": 19555,
    "evade": 24817,
    "Ġmud": 11576,
    "cob": 10089,
    "leviathan": 7785,
    "Ġexpost": 18626,
    "Ġpuffs": 14979,
    "glasses": 11217,
    "Ġmanhat": 22332,
    "Ġincites": 22555,
    "Ġbuttoning": 17238,
    "Ġseparated": 9467,
    "Ġstatements": 7516,
    "Ġslides": 18941,
    "Ġcetacea": 20556,
    "Ġqueequeg": 2011,
    "summoned": 26593,
    "small": 6473,
    "formed": 2553,
    "clean": 14763,
    "Ġpit": 3423,
    "Ġchinks": 22255,
    "Ġket": 18348,
    "izar": 14045,
    "Ġmental": 21322,
    "eks": 4726,
    "Ġxavier": 2856,
    "advice": 12162,
    "yset": 21148,
    "Ġbasket": 9575,
    "Ġbeeches": 9229,
    "Ġtransf": 22446,
    "Ġchuck": 8504,
    "ologist": 22875,
    "Ġdelic": 4133,
    "pier": 17637,
    "Ġwrapping": 19778,
    "Ġbearded": 15731,
    "circumstantial": 24444,
    "lounged": 26134,
    "Ġvictims": 19807,
    "Ġwithdraw": 16966,
    "response": 25763,
    "Ġbert": 4581,
    "archbishop": 22892,
    "Ġdisplayed": 10611,
    "Ġalcoves": 26488,
    "Ġstarlight": 24627,
    "opening": 10315,
    "peaceful": 20450,
    "Ġreserves": 19673,
    "Ġslipped": 6493,
    "Ġmin": 1027,
    "ilingly": 21727,
    "conception": 22478,
    "Ġparl": 8178,
    "Ġoctober": 17229,
    "Ġmightier": 18731,
    "Ġcowards": 12578,
    "Ġbalance": 2020,
    "Ġcirculating": 23376,
    "sion": 8094,
    "Ġrelics": 16199,
    "Ġasyl": 12739,
    "oice": 1383,
    "Ġsepulchre": 20562,
    "Ġhoping": 11105,
    "Ġflor": 8565,
    "mason": 17604,
    "Ġwretched": 4081,
    "Ġmistakes": 16543,
    "rix": 1572,
    "Ġcem": 17825,
    "Ġdub": 13912,
    "she": 1396,
    "Ġgrandfather": 19425,
    "Ġvolition": 14800,
    "Ġcrystals": 20230,
    "irium": 8162,
    "Ġhats": 14621,
    "affair": 14657,
    "Ġintelligent": 1452,
    "Ġmeans": 699,
    "Û": 156,
    "Ġu": 324,
    "athans": 7433,
    "abled": 12799,
    "allies": 14168,
    "Ġabandoned": 8352,
    "pattern": 4997,
    "Ġnormalization": 1243,
    "Ġappals": 22224,
    "Ġimpreg": 15992,
    "Ġthickening": 24027,
    "itable": 5437,
    "Ġpatch": 4180,
    "Ġaffliction": 25846,
    "Ġaft": 5737,
    "Ġpractices": 19032,
    "Ġalacrity": 15741,
    "Ġdrought": 19280,
    "Ġsodden": 25536,
    "resh": 8405,
    "Ġcoop": 14273,
    "Ġlexic": 15722,
    "Ă": 195,
    "Ġaccomplishment": 19668,
    "Ġpeople": 2542,
    "Ġdus": 8424,
    "Ġscramble": 24579,
    "pleasures": 24049,
    "chester": 23808,
    "gentlemen": 9507,
    "Ġrooted": 13173,
    "Ġimpud": 18446,
    "quietly": 10595,
    "Ġstrangeness": 16706,
    "diss": 17525,
    "Ġmaintained": 12939,
    "endar": 18365,
    "ional": 1082,
    "Ġhelmet": 19690,
    "Ġchanges": 2287,
    "existence": 16018,
    "nel": 11507,
    "Ġher": 427,
    "Ġrobins": 16259,
    "Ġsermon": 12380,
    "Ġawe": 7148,
    "Ġdespondency": 16580,
    "Ġceases": 19315,
    "Ġcomparative": 10545,
    "Ġdevoting": 22721,
    "call": 8726,
    "Ġquite": 1740,
    "Ġawoke": 7286,
    "zz": 4290,
    "Ġpurplish": 19142,
    "Ġruefully": 17304,
    "Ġassumed": 9468,
    "Ġanswered": 2853,
    "circled": 24190,
    "Ġquiescent": 26244,
    "contin": 16544,
    "bolts": 11422,
    "ensions": 14261,
    "Ġtoy": 15638,
    "agger": 7872,
    "Ġchas": 18380,
    "Ġdon": 1610,
    "Ġpickle": 16724,
    "import": 5668,
    "Ġsplintered": 11420,
    "walks": 19724,
    "Ġbal": 1134,
    "rimshander": 20659,
    "Ġsignificant": 8637,
    "Ġbeauties": 10447,
    "elter": 21574,
    "acknowledge": 18469,
    "Ġpunctually": 17141,
    "netherfield": 9816,
    "Ġcult": 8786,
    "Ġmisfortunes": 7043,
    "Ġcreditable": 19625,
    "Ġgreatest": 4092,
    "Ġrever": 6538,
    "Ġdeferred": 18827,
    "romed": 10907,
    "Ġasks": 5115,
    "Ġomens": 21331,
    "stays": 15692,
    "tiger": 13800,
    "bons": 17489,
    "Ġcolour": 4460,
    "Ġconfine": 14512,
    "grin": 19107,
    "Ġornaments": 17455,
    "late": 11501,
    "Ġsmiled": 5942,
    "Ġfol": 1289,
    "Ġfavourable": 7959,
    "Ġthigh": 10189,
    "==": 945,
    "clam": 13060,
    "Ġpathetic": 19018,
    "Ġsanction": 20029,
    "thankful": 16808,
    "Ġast": 2960,
    "Ġadieus": 25113,
    "Ġlifted": 6986,
    "ateful": 5928,
    "Ġgovernments": 20270,
    "ry": 805,
    "Ġstars": 6151,
    "heaving": 21210,
    "Ġsketches": 26272,
    "Ġfall": 2987,
    "kine": 15379,
    "Ġmunro": 25631,
    "accur": 14595,
    "Ġarray": 12816,
    "Ġpoints": 5249,
    "disgu": 19157,
    "Ġpeddling": 21484,
    "Ġsubord": 22792,
    "Ġenumerating": 15248,
    "Ġawake": 8272,
    "Ġneglect": 7942,
    "Ġwaggish": 25435,
    "Ġoutstanding": 22320,
    "tedious": 22637,
    "Ġpian": 13920,
    "Ġinvesting": 19644,
    "Ġra": 817,
    "whole": 6086,
    "Ġpeace": 3695,
    "ain": 343,
    "Ġsteals": 23087,
    "chariot": 26481,
    "Ġreg": 723,
    "Ġurging": 24505,
    "rock": 15645,
    "Ġuneasy": 8665,
    "Ġbreaking": 6312,
    "hatchet": 24819,
    "asserted": 22313,
    "Ġboister": 12924,
    "oriously": 17876,
    "inaw": 21186,
    "uvian": 12247,
    "Ġreached": 4022,
    "Ġoverhear": 15979,
    "Ġcomputers": 2645,
    "fect": 2301,
    "Ġoutlines": 15961,
    "Ġlabyrin": 13109,
    "humour": 7498,
    "asets": 2310,
    "rent": 1173,
    "Ġprize": 11952,
    "ĭ": 238,
    "Ġpartiality": 9401,
    "Ġpract": 1787,
    "Ġphilipp": 23886,
    "occ": 4483,
    "usation": 18397,
    "Ġvictoria": 14876,
    "Ġ97": 19777,
    "Ġcapabilities": 4375,
    "Ġanyone": 4458,
    "activity": 22634,
    "Ġdirection": 1796,
    "Ġgales": 12670,
    "Ġgryphon": 4297,
    "acters": 9312,
    "Ġcalmer": 23047,
    "Ġmaketh": 15191,
    "Ġowes": 20088,
    "rib": 1945,
    "Ġones": 3021,
    "Ġskil": 14355,
    "les": 1017,
    "Ġimpo": 3444,
    "rowing": 7931,
    "flukes": 25206,
    "Ġpresentation": 14483,
    "Ġleviathanic": 12085,
    "ivers": 1983,
    "Ġpraise": 6487,
    "Ġfriesland": 26444,
    "Ġformula": 2866,
    "Ġvital": 9246,
    "given": 8377,
    "Ġfrancis": 26064,
    "Ġboarders": 16602,
    "Ġaccustomed": 6861,
    "Ġassembl": 20064,
    "Ġalleys": 25979,
    "wic": 21123,
    "sicilian": 21066,
    "Ġsnap": 11202,
    "Ġsurmount": 20004,
    "Ġplum": 11826,
    "Ġassociations": 14966,
    "Ġdeaden": 23462,
    "Ġxvi": 19106,
    "Ġclassify": 1608,
    "idents": 6152,
    "Ġtreated": 7082,
    "advancing": 14839,
    "Ġreconciled": 13591,
    "aim": 2760,
    "truck": 15444,
    "Ġbrief": 6977,
    "beries": 22746,
    "Ġprecipices": 12282,
    "spersed": 22734,
    "Ġreel": 9216,
    "igned": 5656,
    "Ġobedient": 20108,
    "Ġnapoleon": 20560,
    "Ġtipped": 17730,
    "Ġaccurate": 13282,
    "onist": 21253,
    "neying": 22453,
    "Ġfreshets": 25705,
    "Ġcoal": 18594,
    "Ġopulence": 23629,
    "Ġinfl": 6894,
    "Ġgenerative": 5644,
    "iarity": 8747,
    "Ġspear": 9317,
    "Ġpet": 4585,
    "arb": 1562,
    "Ġprepare": 8650,
    "Ġundertone": 23240,
    "Ġlight": 1701,
    "Ġlobes": 22119,
    "Ġinclu": 1097,
    "ration": 2003,
    "Ġyes": 2691,
    "Ġfatal": 5873,
    "Ġrefer": 18698,
    "Ġinsurg": 23683,
    "Ġdurst": 20355,
    "Ġbloss": 19258,
    "acceptance": 25186,
    "Ġsink": 4337,
    "50": 6785,
    "ingale": 21302,
    "Ġsqu": 1036,
    "missing": 13224,
    "Ġassented": 17341,
    "Ġsurpass": 13587,
    "Ġstepdaughter": 22615,
    "Ġquart": 11791,
    "lift": 15388,
    "humanity": 24840,
    "enter": 7858,
    "herself": 4890,
    "ete": 9206,
    "Ġoblong": 14324,
    "Ġdangers": 12358,
    "Ġalert": 18104,
    "Ġcats": 8982,
    "Ġpersist": 16276,
    "Ġtepid": 26414,
    "Ġallusion": 7626,
    "opard": 9294,
    "igns": 8449,
    "bunger": 20405,
    "constable": 24606,
    "Ġdespaired": 14671,
    "thinking": 9017,
    "ries": 3355,
    "Ġlegal": 10441,
    "Ġfly": 3871,
    "Ġmumbling": 11577,
    "Ġunaccountably": 26517,
    "Ġallusions": 10908,
    "sence": 3304,
    "ped": 6964,
    "Ġappears": 5402,
    "q": 85,
    "Ġlistening": 6320,
    "Ġimperilled": 19581,
    "Ġshoved": 23492,
    "Ġdue": 3847,
    "gent": 7131,
    "resent": 10771,
    "Ġriding": 14098,
    "Ġappertaining": 26535,
    "fes": 20853,
    "Ġinfiltrated": 23286,
    "lucas": 15155,
    "Ġelbowed": 16113,
    "Ġbaw": 15573,
    "come": 2375,
    "rowsers": 8698,
    "Ġyarns": 15199,
    "gentleness": 24845,
    "Ġhome": 2029,
    "pits": 15415,
    "otograph": 5827,
    "isf": 2434,
    "isition": 11589,
    "Ġthreat": 5154,
    "grand": 7970,
    "Ġstating": 15729,
    "arying": 9804,
    "Ġgrew": 5182,
    "tenderly": 20534,
    "slipping": 25529,
    "Ġtransformer": 2637,
    "Ġbuckets": 17035,
    "Ġsurrounding": 12167,
    "Ġyear": 3284,
    "connection": 18870,
    "at": 268,
    "Ġplentiful": 12916,
    "elly": 17982,
    "elephant": 12355,
    "namely": 23720,
    "networks": 2406,
    "Ġprivacy": 19527,
    "Ġwaste": 9237,
    "Ġobed": 8538,
    "inions": 8403,
    "Ġhelen": 16658,
    "oysius": 14369,
    "Ġtill": 1826,
    "Ġparting": 9786,
    "Ġwolves": 25935,
    "plague": 21963,
    "Ġ177": 13416,
    "Ġcirc": 1985,
    "Ġsociet": 9452,
    "ocean": 12405,
    "Ġineff": 12639,
    "Ġcreative": 9834,
    "report": 13403,
    "Ġmorris": 18852,
    "Ġvic": 5237,
    "Ġinjuring": 24271,
    "Ġinterrupted": 6345,
    "Ġlands": 6596,
    "talked": 14988,
    "Ġtart": 12533,
    "Ġbosom": 6939,
    "Ġcoopers": 20525,
    "Ġcistern": 17384,
    "Ġinvestment": 24332,
    "Ġexclaimed": 4681,
    "Ġdevelopments": 23248,
    "Ġunden": 22015,
    "Ġearned": 19408,
    "mine": 5618,
    "asions": 12656,
    "Ġtartar": 17325,
    "âĢľ_": 5720,
    "Ġwaning": 15537,
    "Ġender": 11694,
    "disputed": 23502,
    "ices": 2136,
    "Ġhaught": 10255,
    "Ġhammer": 6095,
    "Ġbroad": 3641,
    "Ġtestified": 16335,
    "Ġaims": 15499,
    "acon": 10684,
    "Ġsublim": 19970,
    "Ġcommercial": 22677,
    "Ġwater": 1947,
    "Ġradiance": 13375,
    "stars": 18019,
    "Ġexplain": 546,
    "Ġvote": 21951,
    "cook": 8270,
    "54": 15303,
    "Ġrunning": 3952,
    "Ġivory": 4475,
    "Ġinitial": 822,
    "Ġcongreg": 8464,
    "Ġrelation": 2141,
    "obst": 11936,
    "life": 4932,
    "Ġsummoning": 23876,
    "Ġpopulation": 16829,
    "Ġdav": 15594,
    "Ġwindibank": 7256,
    "iteous": 14264,
    "Ġunderstand": 833,
    "rist": 10125,
    "Ġperpetually": 17071,
    "Ġgrampus": 21997,
    "Ġtimbers": 14842,
    "Ġcloudy": 19480,
    "Ġ49": 24083,
    "Ġlikewise": 5386,
    "Ġaristocratic": 20516,
    "Ġfetch": 7770,
    "Ġ33": 16678,
    "ignation": 11130,
    "riage": 2123,
    "Ġslo": 15509,
    "Ġseventy": 7878,
    "Ġwis": 3730,
    "Ĕ": 213,
    "Ġtenderest": 23551,
    "Ġdearest": 5457,
    "inlaid": 21193,
    "rivial": 9437,
    "Ġmasoned": 20254,
    "Ġdiscoverers": 26037,
    "inhab": 10759,
    "coach": 23562,
    "Ġskills": 1839,
    "Ġreleased": 2978,
    "Ġmarket": 7709,
    "Ġflower": 16237,
    "must": 3579,
    "Ġtime": 690,
    "exceedingly": 9569,
    "Ġkeeps": 8267,
    "Ġbeings": 2489,
    "Ġscar": 3211,
    "ived": 1534,
    "Ġcottage": 4732,
    "haired": 14769,
    "Ġuncovered": 23434,
    "Ġthird": 4186,
    "âĢĶ": 516,
    "Ġimpose": 22387,
    "Ġconcerns": 11972,
    "malice": 17605,
    "umns": 14150,
    "Ġanim": 2112,
    "Ġfled": 6673,
    "still": 4217,
    "Ġwrinkles": 8574,
    "Ġcopies": 24938,
    "Ġunhinged": 26218,
    "tfordshire": 4809,
    "Ġtrag": 13045,
    "ations": 712,
    "Ġforwards": 12708,
    "Ġwaving": 8579,
    "itely": 5365,
    "Ġintroduced": 7691,
    "eminence": 20102,
    "Ġdut": 2988,
    "dat": 1634,
    "leeward": 15214,
    "Ġassent": 12738,
    "Ġrearing": 12682,
    "Ġanswerable": 23472,
    "Ġyielding": 12191,
    "Ġspinal": 12306,
    "Ġwolfish": 25936,
    "Ġreliable": 18778,
    "hours": 9127,
    "Ġhaggerston": 26454,
    "Ġpublicly": 13327,
    "Ġrespectfully": 18995,
    "Ġ0": 1903,
    "Ġpresto": 22234,
    "sue": 2076,
    "ense": 2052,
    "Ġrhone": 25231,
    "Ġcondescend": 19958,
    "Ġtolerable": 6949,
    "Ġcrop": 10165,
    "Ġadjacent": 20713,
    "ante": 11725,
    "Ġcrane": 23439,
    "robber": 21540,
    "binary": 20786,
    "Ġfreezing": 23885,
    "Ġnodded": 11974,
    "Ġtinkling": 25213,
    "resolutions": 26165,
    "Ħ": 231,
    "Ġpuzzling": 14901,
    "rints": 12507,
    "Ġbrides": 22868,
    "Ġlod": 4041,
    "Ġpenalizing": 13095,
    "Ġbark": 10800,
    "Ġaggregated": 25679,
    "Ġsketch": 16169,
    "Ġsickness": 10541,
    "Ġbrig": 11049,
    "Ġul": 6828,
    "Ġskirting": 22800,
    "Ġfang": 21406,
    "Ġfleece": 10617,
    "Ġnich": 21523,
    "cast": 2927,
    "Ġow": 8409,
    "Ġheedful": 19743,
    "Ġtrim": 15972,
    "refusal": 24735,
    "Ġbreeze": 5681,
    "Ġscaramouch": 23830,
    "spir": 5738,
    "overing": 6308,
    "pointing": 12229,
    "urried": 21707,
    "hotel": 20053,
    "pped": 1997,
    "leness": 4689,
    "Ġperpendicularly": 11376,
    "Ġspasmodically": 17317,
    "Ġpious": 11601,
    "Ġexerted": 15759,
    "Ġlose": 5028,
    "pleasure": 5979,
    "Ġselects": 4385,
    "Ġemployments": 12107,
    "Ġtram": 11093,
    "Ġmamm": 25093,
    "seemingly": 25363,
    "stout": 21642,
    "Ġobliquely": 12366,
    "ribes": 23369,
    "Ġmant": 9650,
    "atmospheric": 17778,
    "Ġnaut": 13944,
    "Ġgrove": 12151,
    "Ġconference": 15751,
    "mering": 12495,
    "Ġskylight": 24074,
    "Ġtenement": 23549,
    "oura": 1058,
    "Ġsteadfast": 8682,
    "Ġloving": 8176,
    "ozy": 17624,
    "Ġgnarled": 25169,
    "scar": 9819,
    "Ġinsight": 16532,
    "Ġprisoner": 8676,
    "Ġclubb": 22352,
    "Ġbridal": 14957,
    "Ġenlightened": 12751,
    "compasses": 19461,
    "Ġborrowed": 17232,
    "returning": 12210,
    "Ġcontempt": 6277,
    "Ġchamber": 6215,
    "dragging": 16611,
    "Ġattentively": 9953,
    "Ġimpregnable": 26024,
    "Ġskies": 8924,
    "Ġarmy": 11745,
    "Ġidiot": 11976,
    "Ġtuileries": 24824,
    "degrad": 22147,
    "Ġworshippers": 25694,
    "Ė": 215,
    "saf": 11527,
    "irm": 3110,
    "expectation": 14859,
    "bern": 20777,
    "ù": 186,
    "broad": 8646,
    "sory": 17661,
    "bad": 12440,
    "Ġven": 4646,
    "Ġhalf": 1671,
    "rusion": 11325,
    "Ġunfrequ": 19511,
    "Ġed": 2244,
    "Ġdiverse": 19212,
    "Ġedinburgh": 16459,
    "))": 1518,
    "nlp": 8754,
    "jewel": 20349,
    "Ġcupidity": 24535,
    "Ġopen": 1550,
    "Ġreeds": 15700,
    "agery": 21911,
    "Ġaerial": 21201,
    "adm": 7609,
    "Ġsecurity": 8980,
    "Ġshavings": 14113,
    "bet": 6111,
    "approbation": 11460,
    "Ġclearer": 16315,
    "obli": 23098,
    "Ġnoting": 18222,
    "summit": 23419,
    "Ġvengeful": 14893,
    "Ġsensit": 2945,
    "Ġunsh": 14118,
    "rinted": 21046,
    "Ġhelmeted": 19691,
    "Ö": 151,
    "advance": 12161,
    "Ġbab": 5291,
    "lion": 20946,
    "Ġclosed": 4603,
    "Ġvanquished": 22881,
    "Ġceremonies": 24837,
    "aking": 973,
    "deception": 22149,
    "grinder": 23417,
    "auley": 22626,
    "notches": 22753,
    "discrimin": 19611,
    "dest": 4102,
    "Ġsee": 802,
    "Ġfloating": 6606,
    "Ġsom": 1276,
    "Ġdefinite": 11071,
    "spoke": 11025,
    "Ġpoignant": 22596,
    "este": 15923,
    "Ġsimul": 1810,
    "Ġprejud": 6851,
    "boiling": 19001,
    "Ġfragments": 19040,
    "uer": 21103,
    "Ġsince": 1799,
    "tro": 15436,
    "Ġpostp": 12148,
    "Ġai": 3129,
    "overs": 17623,
    "list": 7551,
    "grees": 20888,
    "handkerchief": 14620,
    "Ġcomputation": 965,
    "exciting": 19671,
    "Ġannouncing": 16756,
    "Ġalleg": 14020,
    "itioned": 22473,
    "anse": 12580,
    "Ġcannib": 6037,
    "Ġthief": 11613,
    "Ġweighty": 16036,
    "Ġnephew": 6406,
    "freely": 16856,
    "Ġapple": 14171,
    "Ġpossessed": 5195,
    "Ġdefend": 9343,
    "Ġjago": 22303,
    "ĠâĢľâĢĶ": 9737,
    "clear": 9027,
    "olly": 3224,
    "Ġavert": 14428,
    "Ġgrind": 18735,
    "thou": 4707,
    "Ġstopped": 5958,
    "Ġcath": 17828,
    "Ġcretan": 22726,
    "Ġvillanous": 24057,
    "Ġcas": 8412,
    "apering": 8041,
    "Ġjenkinson": 11433,
    "meal": 22716,
    "Ġsofa": 10273,
    "sk": 5521,
    "Ġsuppression": 23004,
    "Ġreject": 7386,
    "Ġaffront": 18789,
    "Ġroughly": 17041,
    "beards": 22495,
    "Ġrepresentation": 14410,
    "order": 1960,
    "Ġtablets": 13159,
    "lord": 3866,
    "Ġparson": 6691,
    "Ġintercept": 14272,
    "rope": 3185,
    "Ġhapless": 15816,
    "usable": 22283,
    "Ġrocked": 12861,
    "parad": 16392,
    "Ġcontemplate": 19894,
    "Ġselfish": 7272,
    "Ġfinancier": 26585,
    "geon": 6272,
    "Ġswarm": 23057,
    "alling": 6038,
    "Ġ23": 13194,
    "Ġcheetah": 14505,
    "Ġmouths": 7491,
    "simp": 17667,
    "Ġaskance": 23153,
    "Ġwe": 388,
    "danced": 20830,
    "adagrad": 9694,
    "irection": 2386,
    "Ġarrogance": 26233,
    "Ġovers": 14208,
    "Ġaltar": 9231,
    "Ġroof": 6566,
    "Ġplain": 2819,
    "Ġsubordinate": 18724,
    "volutional": 1934,
    "Ġaffair": 4462,
    "Ġaccuse": 14214,
    "showed": 16031,
    "Ġremained": 3142,
    "perils": 22182,
    "sworn": 24259,
    "Ġcandelab": 23851,
    "glow": 20876,
    "apparat": 22847,
    "Ġturbid": 23613,
    "act": 784,
    "Ġmacey": 12568,
    "Ġlimp": 19182,
    "Ġbats": 13903,
    "I": 45,
    "Ġlaughs": 24117,
    "Ġstrengthen": 20703,
    "Ġpriv": 4182,
    "fortunately": 9453,
    "Ġparagra": 15887,
    "Ġbohemia": 10652,
    "Ġlightened": 23264,
    "Ġcher": 6131,
    "Ġtacit": 21177,
    "Ġtaller": 16689,
    "Ġsixteen": 8283,
    "Ġdrink": 4785,
    "Ġmel": 4815,
    "Ġthoroughly": 8348,
    "Ġjoys": 13225,
    "Ġcontain": 1552,
    "moonlight": 25376,
    "Ġinscrutable": 10675,
    "Ġemig": 14526,
    "phere": 21021,
    "axing": 18548,
    "fulfilment": 26026,
    "Ġobeyed": 12221,
    "Ġgrat": 4055,
    "Ġsoil": 9258,
    "Ġseren": 7401,
    "Ġbrighter": 16191,
    "Ġwasted": 9707,
    "Ġbump": 9662,
    "breathing": 25336,
    "Ġafterwards": 3532,
    "Ġrecorded": 11295,
    "Ġtertiary": 15298,
    "Ġfetching": 16898,
    "sailed": 17668,
    "Ġflashed": 11918,
    "abeth": 906,
    "acled": 16085,
    "Ġworld": 1593,
    "heavenly": 20048,
    "Ġuncommon": 5026,
    "Ġunlab": 3790,
    "Ġbestowed": 6595,
    "Ġbrim": 12981,
    "Ġsnow": 3709,
    "province": 26073,
    "Ġ50": 24315,
    "Ġagain": 812,
    "upid": 6584,
    "owders": 18050,
    "Ġconductor": 24010,
    "Ġstepfather": 7221,
    "Ġgills": 17995,
    "Ġdow": 17888,
    "isles": 15568,
    "Ġtruce": 24116,
    "Ġspeaking": 4026,
    "Ġmixing": 24937,
    "raham": 18016,
    "impress": 18054,
    "Ġdiscriminator": 3392,
    "ishness": 22346,
    "ing": 273,
    "Ġseeks": 14305,
    "Ġneedles": 11186,
    "Ġunworthy": 11719,
    "Ġgeor": 3388,
    "acute": 22598,
    "apers": 3483,
    "otic": 15749,
    "mitted": 5213,
    "pres": 16032,
    "ware": 3936,
    "angu": 571,
    "Ġintellig": 528,
    "Ġtranquo": 14846,
    "division": 20052,
    "resum": 17763,
    "Ġap": 5008,
    "Ġhaste": 9006,
    "Ġdistance": 3485,
    "ifting": 6547,
    "Ġdreaded": 8289,
    "Ġgangs": 21612,
    "Ġuproar": 22159,
    "Ġspars": 3812,
    "sand": 21055,
    "Ġconcil": 23326,
    "Ġbacks": 8531,
    "Ġproverb": 12721,
    "urmount": 13999,
    "utmost": 21591,
    "Ġphilist": 16603,
    "Ġhollowly": 24526,
    "Ġsanta": 26422,
    "Ġbroadway": 23987,
    "Ġinsists": 23680,
    "Ġfurnished": 6476,
    "concerns": 24070,
    "bation": 9106,
    "regularization": 3516,
    "Ġuneasily": 24233,
    "tubs": 15134,
    "Ġjovial": 19236,
    "Ġregularly": 7658,
    "Ġkidn": 20208,
    "ousand": 2429,
    "Ġlayer": 1012,
    "Ġcrucifix": 26080,
    "Ġtown": 2455,
    "sacred": 17030,
    "Ġlength": 2500,
    "Ġmonogram": 26576,
    "Ġinvaluable": 10185,
    "Ġauthority": 7749,
    "Ġlawyers": 25249,
    "Ġbluish": 23654,
    "Ġporpoise": 7108,
    "tales": 17688,
    "Ġsinned": 18953,
    "Ġshrivelled": 19706,
    "ladder": 19787,
    "studied": 17152,
    "Ġemac": 16411,
    "Ġrobberies": 23024,
    "Ġclay": 7020,
    "Ġdistressing": 12223,
    "destroyed": 15264,
    "miles": 10714,
    "Ġboundless": 10498,
    "Ġprophecy": 25706,
    "Ġparr": 22140,
    "Ġevery": 927,
    "penn": 18829,
    "aming": 5829,
    "Ġtables": 9881,
    "uced": 13803,
    "thr": 12765,
    "Ġoverspread": 14209,
    "affording": 23779,
    "Ġ45": 14773,
    "Ġhawsers": 26504,
    "fur": 6357,
    "obliv": 23100,
    "mews": 22717,
    "relations": 14736,
    "Ġjon": 15952,
    "Ġopenly": 8576,
    "Ġbodies": 8032,
    "Ġoblige": 10491,
    "Ġincident": 6282,
    "Ġfins": 9666,
    "go": 2063,
    "Ġdistant": 5387,
    "Ġdrank": 16537,
    "gypt": 8261,
    "69": 17477,
    "Ġthickest": 16657,
    "female": 20669,
    "meditated": 19074,
    "Ġfishy": 16526,
    "Ġsallies": 21232,
    "Ġtwee": 22678,
    "Ġnightmare": 18921,
    "Ġinvoked": 19146,
    "Ġimmortality": 26327,
    "Ġfever": 6560,
    "Ġchilly": 25563,
    "Ġanywhere": 8519,
    "Ġpeter": 10538,
    "Ġcruc": 16536,
    "apply": 18760,
    "prepare": 20215,
    "Ġstationary": 19697,
    "Ġsimil": 2530,
    "Ġsensibly": 14517,
    "infallibly": 26419,
    "Ġinconstant": 21499,
    "Ġtransition": 14236,
    "frantic": 24285,
    "Ġshrugged": 12774,
    "achine": 598,
    "Ġgenial": 12199,
    "Ġscattered": 6856,
    "Ġbearing": 5300,
    "Ġache": 18664,
    "Ġworaciousness": 22932,
    "Ġtalk": 1970,
    "Ġreconcile": 25292,
    "Ġtrumpet": 9576,
    "commod": 16173,
    "Ġlower": 2665,
    "declared": 15122,
    "warm": 8102,
    "meetings": 20381,
    "Ġencouragement": 13048,
    "Ġtackles": 8051,
    "Ġreturning": 5326,
    "Ġbutts": 15859,
    "Ġriddles": 16734,
    "Ġharpoon": 3618,
    "unaffected": 21887,
    "Ġsquared": 1382,
    "aggo": 5097,
    "Ġphil": 3386,
    "Ġgrounded": 23713,
    "berries": 22748,
    "Ġappeals": 16318,
    "ª": 108,
    "Ġho": 1931,
    "Ġsauntering": 18328,
    "daggoo": 13710,
    "staff": 21653,
    "Ġpaul": 12066,
    "Ġmeridian": 25713,
    "Ġluc": 3308,
    "Ġnap": 8813,
    "Ġunholy": 26220,
    "Ġcheerfulness": 10519,
    "Ġshiver": 12772,
    "Ġmeaning": 1414,
    "reply": 19725,
    "iousness": 4899,
    "Ġassertion": 13493,
    "Ġponder": 6819,
    "Ġoperate": 19117,
    "Ġpenalty": 1841,
    "myself": 5113,
    "Ġpertaining": 18452,
    "Ġcedar": 15192,
    "Ġsc": 532,
    "Ġoperations": 2300,
    "Ġspl": 2984,
    "Ġfarthest": 23119,
    "disposed": 25013,
    "Ġvulgar": 13608,
    "Ġmagnifying": 16322,
    "haut": 20904,
    "Ġinterm": 14271,
    "Ġfa": 4818,
    "Ġdisenc": 22530,
    "Ġladyship": 5046,
    "organ": 15578,
    "Ġungenerous": 18267,
    "Ġaccorded": 24091,
    "ĠĊ": 12528,
    "Ġirresolute": 24917,
    "Ġswung": 6450,
    "Ġindic": 2888,
    "hast": 5358,
    "Ġnur": 5710,
    "afric": 19181,
    "Ġsoo": 15866,
    "Ġvariously": 18653,
    "Ġbrink": 18771,
    "Ġrelev": 1714,
    "Ġrent": 11642,
    "Ġskill": 6872,
    "Ġrespond": 11178,
    "Ġequilibrium": 4140,
    "prises": 23816,
    "Ġtreatment": 12076,
    "Ġwithdrew": 9699,
    "Ġcrosswise": 18888,
    "Ġreap": 18029,
    "embarr": 17295,
    "Ġoriginated": 24123,
    "deadly": 17101,
    "chors": 11647,
    "Ġprevented": 5943,
    "Ġflexible": 23777,
    "Ġgas": 8133,
    "itect": 987,
    "gn": 8082,
    "Ġworrying": 22930,
    "Ġapartment": 6636,
    "Ġapiece": 16815,
    "Ġgenerating": 12854,
    "Ġjonas": 20612,
    "Ġreflections": 5948,
    "Ġnoblest": 13247,
    "Ġsanguinary": 25930,
    "Ġslewed": 23388,
    "baboon": 25517,
    "largely": 19577,
    "iriously": 18174,
    "Ġgrammars": 11404,
    "spect": 3231,
    "U": 57,
    "Ġunnear": 22030,
    "Ġbod": 4580,
    "Ġmyster": 5927,
    "ikes": 8087,
    "Ġeleventh": 23372,
    "bonnet": 25743,
    "gall": 6361,
    "Ġrewards": 10850,
    "der": 467,
    "Ġcoroner": 7510,
    "Ġeffected": 14357,
    "Ġsituation": 4072,
    "ibbald": 18849,
    "Ġriddle": 14822,
    "Ġfalls": 14646,
    "Ġjoke": 8872,
    "atived": 21265,
    "Ġvicious": 24403,
    "turkish": 24533,
    "Ġsupple": 23003,
    "Ġvisible": 4775,
    "Ġcontinents": 16851,
    "Ġimpulsively": 24881,
    "compose": 24035,
    "pl": 402,
    "Ġbuffalo": 11431,
    "melancholy": 12357,
    "faces": 13723,
    "Ġobtain": 8918,
    "Ġkink": 22197,
    "ship": 1391,
    "Ġsepulchral": 25893,
    "kitchen": 17587,
    "Ġuniversal": 2237,
    "Ġdemands": 19641,
    "Ġreside": 22543,
    "gravel": 22623,
    "Ġarriving": 19220,
    "ga": 17552,
    "Ġrespect": 1670,
    "readiness": 19366,
    "**:": 4735,
    "ompl": 4534,
    "Ġverify": 12092,
    "Ġhugest": 17017,
    "duct": 3508,
    "Ġpreservation": 24631,
    "pract": 10122,
    "]": 65,
    "Ġemergencies": 17365,
    "Ġresounds": 22546,
    "Ġamounted": 18513,
    "Ġpulpit": 7470,
    "Ġsheaves": 22162,
    "ov": 15403,
    "Ġpuzzle": 11307,
    "hound": 20897,
    "iving": 1724,
    "Ġest": 2267,
    "Ġmine": 3179,
    "?": 35,
    "unearthly": 19275,
    "Ġmaxim": 3087,
    "extracts": 22768,
    "sartain": 25623,
    "Ġthrob": 21521,
    "Ġbay": 9171,
    ";": 31,
    "Ġmarred": 23035,
    "Ġeurope": 8062,
    "Ġcollege": 11426,
    "Ġtraces": 7946,
    "Ġchace": 14181,
    "Ġbronze": 22870,
    "Ġskull": 6290,
    "begone": 12883,
    "ors": 855,
    "olence": 10233,
    "inable": 11558,
    "Ġell": 17717,
    "Ġdrab": 13075,
    "Ġ116": 24440,
    "Ġbig": 5806,
    "gold": 9123,
    "Ġboomer": 20170,
    "Ġcomrade": 11683,
    "Ġsubtle": 6718,
    "Ġthou": 1812,
    "Ġsabbee": 17258,
    "Ġresentful": 24632,
    "el": 306,
    "Ġhoarsely": 26303,
    "alley": 23027,
    "bering": 18693,
    "eth": 618,
    "Ġroods": 22408,
    "Ġsustain": 10020,
    "pen": 1206,
    "pursuit": 20343,
    "Ġsobbing": 14139,
    "cou": 13699,
    "ant": 438,
    "outside": 12809,
    "Ġdiff": 3117,
    "Ġtribes": 20484,
    "Ġwoke": 21292,
    "Ġglove": 14493,
    "Ġperverseness": 13658,
    "Ġtorments": 13398,
    "virtue": 20572,
    "south": 8762,
    "Ġcocksure": 26260,
    "Ġalarmed": 6923,
    "wholly": 10943,
    "Ġshol": 21999,
    "Ġinfirmity": 26299,
    "Ġimpaling": 22388,
    "Ġknocking": 10562,
    "Ġcachalot": 17836,
    "Ġdecay": 1013,
    "Ġhon": 2536,
    "prejud": 11800,
    "Ġkentuck": 19893,
    "wrinkles": 16558,
    "orrowed": 19291,
    "Ġmoulded": 16977,
    "Ġanxiety": 5408,
    "corrid": 24484,
    "stating": 21644,
    "ols": 2413,
    "Ġresumed": 11816,
    "roof": 17956,
    "Ġindifferent": 6176,
    "superior": 9528,
    "soul": 9143,
    "Ġbarren": 11208,
    "magn": 10613,
    "Ġcreate": 2090,
    "Ġscreening": 25301,
    "Ġplanning": 14754,
    "enary": 12556,
    "Ġclut": 7642,
    "Ġlife": 1353,
    "Ġride": 12763,
    "sl": 5794,
    "swed": 24256,
    "jumping": 20248,
    "nihil": 9854,
    "Ġblandly": 20326,
    "Ġatonement": 21946,
    "into": 3682,
    "harpo": 4803,
    "Ġsymb": 2594,
    "Ġwhirled": 14963,
    "until": 6598,
    "Ġstrange": 2274,
    "speechless": 25396,
    "Ġcomprehension": 15090,
    "cannib": 11907,
    "kshire": 13749,
    "Ġfidel": 12601,
    "Ġpeaks": 16132,
    "Ġingenuity": 17166,
    "adie": 18091,
    "Ġanticipation": 17058,
    "cially": 3491,
    "Ġshape": 5639,
    "Ġdirest": 22710,
    "Ġbuoyed": 20044,
    "Ġfattened": 25950,
    "Ġconnect": 799,
    "regards": 23468,
    "coff": 9112,
    "Ġstalls": 25648,
    "ean": 20842,
    "paused": 17377,
    "Ġensemble": 1604,
    "Ġscream": 5936,
    "Ġwarehouses": 20421,
    "Ġaccidentally": 9508,
    "Ġovercome": 6045,
    "Ġam": 659,
    "Ġpermission": 9282,
    "Ġbravery": 23839,
    "Ġresurrection": 12899,
    "Ġbenefit": 8294,
    "Ġpossibly": 4512,
    "text": 1974,
    "possible": 5743,
    "Ġstoven": 23178,
    "aven": 8209,
    "counters": 25398,
    "feed": 9296,
    "Ġpul": 2041,
    "Ġintact": 21993,
    "Ġsleep": 2398,
    "Ġmyst": 4049,
    "even": 3840,
    "Ġsuspects": 16892,
    "Ġtrans": 643,
    "shud": 18491,
    "Ġsafe": 5103,
    "Ġpoltroon": 26600,
    "Ġspind": 18306,
    "-": 17,
    "image": 9689,
    "linen": 25258,
    "ĠâĢľ_": 6698,
    "olerably": 11676,
    "Ġsoc": 3527,
    "ynolds": 10039,
    "ipagos": 22370,
    "pacing": 21023,
    "az": 2183,
    "ue": 1181,
    "Ġalchemists": 26489,
    "Ġcha": 6853,
    "Ġunsettled": 14126,
    "M": 49,
    "Ġrevolut": 3255,
    "Ġtons": 11552,
    "Ġcringed": 25943,
    "Ġweights": 896,
    "Ġexisting": 12723,
    "Ġcommonly": 3262,
    "clopÃ¦dia": 15260,
    "Ġcertainly": 2497,
    "Ġlodger": 24094,
    "enges": 13059,
    "Ġgrego": 18963,
    "Ġlassitude": 20590,
    "Ġscandalous": 24880,
    "erated": 21274,
    "Ġgenerations": 10966,
    "Ġofficers": 4425,
    "sex": 12718,
    "Ġlongitudes": 22638,
    "Ġresolute": 19247,
    "Ġazure": 12378,
    "seized": 14038,
    "Ġradney": 6776,
    "Ġauthorities": 11266,
    ";--": 8069,
    "Ġplanets": 24059,
    "Ġsailor": 3537,
    "ryder": 18638,
    "Ġessentials": 20006,
    "Ġfore": 2152,
    "rential": 22922,
    "Ġgladly": 14683,
    "shazzar": 15293,
    "Ġprovided": 6579,
    "Ġbeer": 10222,
    "short": 6568,
    "endeavoured": 12285,
    "Ġrevolt": 24504,
    "Ġhint": 5016,
    "Ġtwelvemonth": 12182,
    "different": 6502,
    "Ġacquiesced": 25494,
    "Ġphr": 2683,
    "Ġgroups": 3721,
    "Ġpainting": 13145,
    "Ġrats": 21980,
    "Ġinitialization": 1255,
    "Ġanointing": 25540,
    "yed": 3271,
    "cing": 1014,
    "reasonable": 7752,
    "Ġhunter": 5401,
    "accident": 11183,
    "balanced": 14556,
    "ence": 392,
    "Ġglimp": 6067,
    "Ġeaster": 15679,
    "Ġquestions": 3972,
    "Ġperson": 2366,
    "wise": 2574,
    "leagues": 21376,
    "Ġcrows": 24034,
    "Ġbraved": 23840,
    "batim": 25019,
    "Ġinvention": 19956,
    "terror": 18131,
    "furthermore": 20007,
    "suggested": 17302,
    "Ġfondly": 19619,
    "Ġ[": 6968,
    "Ġpled": 17907,
    "inferior": 12398,
    "Ġemploying": 23981,
    "conjecture": 15126,
    "Ġhardly": 2432,
    "Ġideal": 13125,
    "ging": 2603,
    "yder": 10141,
    "Ġdauntless": 26338,
    "Ġtropical": 17066,
    "apart": 15965,
    "licted": 20958,
    "Ġwrecked": 9969,
    "lad": 5993,
    "Ġtur": 2564,
    "Ġcoin": 9774,
    "Ġliterary": 25166,
    "pul": 8757,
    "Ġsubsiding": 23436,
    "oring": 1860,
    "Ġwade": 17786,
    "Ġfoss": 9853,
    "ifying": 5235,
    "butter": 11789,
    "Ġhuff": 21493,
    "atically": 2384,
    "Ġcontextually": 11959,
    "Ġfig": 3626,
    "Ġneared": 14078,
    "Ġaccelerate": 23226,
    "hers": 7636,
    "Ġopium": 8997,
    "rative": 17654,
    "Ġcomm": 840,
    "Ġglobular": 19011,
    "°": 113,
    "Ġdiscreet": 16484,
    "count": 4211,
    "Ġinvisible": 7327,
    "Ġnoisy": 13323,
    "Ġprivate": 5346,
    "Ġfettered": 24569,
    "iter": 4391,
    "remental": 21250,
    "Ġliv": 6681,
    "puzz": 17642,
    "Ġexpose": 10330,
    "Ġaw": 2510,
    "fitters": 24760,
    "Ġlaunched": 14929,
    "Ġfingertips": 24020,
    "tru": 10731,
    "ulating": 10889,
    "weigh": 18666,
    "ception": 6564,
    "Ġknows": 4159,
    ",âĢĶ": 3170,
    "compliments": 24807,
    "Ġroyals": 19535,
    "Ġproved": 4884,
    "Ġadjust": 2155,
    "Ġfeatures": 1431,
    "Ġwalk": 1827,
    "ibles": 18787,
    "Ġroman": 8323,
    "Ġshreds": 12775,
    "Ġearthquake": 14630,
    "Ġimbalance": 22178,
    "ativeness": 15524,
    "reast": 17760,
    "Ġlicensing": 20096,
    "ror": 7351,
    "substance": 15235,
    "Ġsame": 1341,
    "Ġenforced": 21942,
    "Ġlargest": 6284,
    "Ġbash": 12591,
    "Ġrollicking": 24451,
    "Ġdeployment": 11206,
    "Ġblotches": 25315,
    "Ġbows": 4083,
    "Ġarm": 2491,
    "Ġdiligent": 25078,
    "elf": 565,
    "Ġdebts": 8036,
    "Ġshank": 22001,
    "bureau": 20791,
    "steam": 23963,
    "although": 8810,
    "enial": 17782,
    "teeth": 10358,
    "Ġnovels": 15933,
    "Ġentering": 6287,
    "ity": 417,
    "Ġenticing": 22743,
    "Ġclenched": 14206,
    "Ġcorre": 3889,
    "Ġwail": 21289,
    "georgiana": 26021,
    "Ġaffectionate": 5585,
    ";âĢĶ": 3752,
    "Ġapplied": 6188,
    "Ġfabric": 25948,
    "incredible": 16500,
    "Ġclo": 6044,
    "Ġpooh": 18604,
    "Ġcomply": 8894,
    "Ġwant": 1116,
    "Ġcuriosity": 2288,
    "pemberley": 9623,
    "irable": 5776,
    "Ġaright": 11744,
    "Ġhyena": 24519,
    "bore": 13690,
    "Ġhospitals": 24924,
    "Ġming": 9648,
    "Ġequatorial": 13512,
    "Ġpeeped": 10015,
    "rote": 4591,
    "Ġrepining": 23363,
    "Ġwardrobe": 17228,
    "Ġeffeminacy": 20720,
    "Ġpail": 15611,
    "itary": 4749,
    "Ġtraced": 10386,
    "Ġreusability": 13562,
    "Ġwillingly": 8888,
    "Ġtightly": 13537,
    "Ġchaps": 14182,
    "wondering": 19847,
    "Ġdomain": 3350,
    "attacked": 23124,
    "Ġchal": 18379,
    "touch": 8392,
    "Ġabsorbing": 17131,
    "Ġevent": 2949,
    "Ġsuccessive": 10503,
    "le": 279,
    "terbury": 21828,
    "Ġdignified": 15602,
    "Ġmuse": 13863,
    "Ġnewcastle": 16226,
    "atively": 2700,
    "Ġcrunched": 19122,
    "Ġassembly": 10645,
    "Ġbegrimed": 26580,
    "phants": 9323,
    "Ġsubset": 9873,
    "Ġdepicting": 22611,
    "urg": 8142,
    "Ġheadlong": 11892,
    "athed": 7828,
    "Ġlif": 10198,
    "Ġstruct": 2787,
    "departure": 15238,
    "Ġupon": 719,
    "Ġopenness": 18958,
    "Ġforbade": 15218,
    "Ġreckoning": 14982,
    "Ġlo": 453,
    "Ġpond": 13919,
    "destroy": 19513,
    "removed": 15519,
    "receive": 12547,
    "Ġbuilding": 8063,
    "Ġours": 4611,
    "up": 1285,
    "immediate": 20097,
    "idually": 21773,
    "breeze": 20565,
    "Ġservant": 5764,
    "Ġrobust": 1360,
    "akers": 9742,
    "umpled": 15880,
    "Ġcraft": 4374,
    "Ġmay": 924,
    "reg": 2185,
    "Ġspotted": 12143,
    "data": 2190,
    "Ġfirmest": 16667,
    "ge": 560,
    "ĠarchÃ¦": 22789,
    "Ġchancing": 22252,
    "Ġsatin": 12995,
    "ores": 2414,
    "Ġscrolled": 22293,
    "Ġentrances": 25836,
    "superstitious": 17283,
    "Ġgibraltar": 25788,
    "Ġcrowded": 8012,
    "Ġdemig": 20359,
    "ds": 4686,
    "aust": 15313,
    "phology": 3008,
    "Ġoffering": 3007,
    "Ġhearsed": 25042,
    "Ġben": 1107,
    "vast": 10738,
    "Ġlanc": 19767,
    "dock": 16422,
    "ricted": 15423,
    "tram": 19646,
    "prodigious": 17469,
    "ricade": 13044,
    "Ġqualifications": 24676,
    "Ġjacobians": 2894,
    "Ġbeck": 14012,
    "dred": 2526,
    "Ġdivined": 19446,
    "own": 744,
    "Ġparticular": 2448,
    "Ġsuperstitious": 13523,
    "hammered": 19005,
    "Ġperman": 10967,
    "Ġparliament": 18314,
    "ier": 1137,
    "chain": 18042,
    "Ġbreed": 19075,
    "Ġxxxix": 24971,
    "forget": 11033,
    "acqu": 4841,
    "algorithm": 3751,
    "Ġseated": 4539,
    "Ġextended": 7924,
    "atched": 6376,
    "Ġnar": 7375,
    "original": 9088,
    "tied": 21073,
    "anded": 5924,
    "viv": 17700,
    "keys": 15862,
    "Ġflashes": 11920,
    "Ġcharge": 5325,
    "Ġexecuted": 9475,
    "Ġvolume": 6770,
    "Ġbear": 3660,
    "Ġwindigate": 18912,
    "Ġmutilated": 23962,
    "Ġadd": 631,
    "sweeping": 24619,
    "slouched": 24557,
    "mrs": 3746,
    "Ġsplashing": 16552,
    "Ġvoice": 2192,
    "confidence": 16810,
    "bon": 13688,
    "ble": 542,
    "Ġsuffering": 8949,
    "Ġbrotherly": 16530,
    "Ġcoiled": 11824,
    "51": 12435,
    "Ġunbending": 25465,
    "Ġhumiliating": 22887,
    "hide": 10705,
    "oqu": 7555,
    "trivial": 21095,
    "Ġremains": 4910,
    "Ġmatrim": 11062,
    "Ġcaged": 21355,
    "Ġzeros": 3322,
    "wich": 11546,
    "Ġcontinually": 5042,
    "intolerable": 22941,
    "Ġschoolboys": 24481,
    "Ġimpetuously": 20375,
    "oup": 2013,
    "Ġplow": 21461,
    "warrant": 21140,
    "upset": 23021,
    "Ġunhing": 18242,
    "Ġmagg": 18907,
    "lyph": 10854,
    "Ġconsp": 10227,
    "half": 4931,
    "Ġheal": 21684,
    "Ġsembl": 19061,
    "added": 11662,
    "arthy": 4821,
    "Ġcreaking": 14331,
    "Ġproportions": 16470,
    "fen": 20852,
    "Ġterribly": 10427,
    "america": 17099,
    "alid": 13938,
    "now": 549,
    "silly": 24422,
    "hoist": 23715,
    "eastward": 15133,
    "carry": 19529,
    "fitted": 17546,
    "Ġcarelessly": 11122,
    "Ġstores": 18074,
    "Ġtear": 6725,
    "Ġme": 350,
    "Ġbestir": 13114,
    "deep": 1018,
    "greatly": 16626,
    "tray": 21080,
    "Ġcondescended": 19959,
    "Ġ76": 24265,
    "Ġskylarking": 19490,
    "Ġleft": 1763,
    "Ġwearing": 12744,
    "Ġregretted": 13404,
    "quarters": 24949,
    "Ġtame": 17724,
    "Ġpines": 12622,
    "Ġsimulates": 2743,
    "Ġguiding": 19243,
    "cabin": 8363,
    "hind": 20896,
    "Ġwheelbarrow": 17207,
    "Ġgeneralize": 3103,
    "ourage": 2450,
    "Ġxiv": 23410,
    "Ġpromote": 23196,
    "Ġtheorem": 2325,
    "trad": 21078,
    "kye": 20940,
    "weary": 22689,
    "Ġeasterly": 25963,
    "Ġsubstance": 5510,
    "Ġdreamt": 23942,
    "Ġacquainted": 5179,
    "Ġswish": 23056,
    "Ġdubious": 17386,
    "Ġregards": 16072,
    "ĠĠĠĠĠĠĠĠĠĠĠĠĠĠĠĠĠĠĠĠĠĠĠĠĠĠĠĠĠĠĠĠĠĠĠĠĠĠĠĠĠĠĠĠĠĠĠ": 16757,
    "Ġdisgusting": 19896,
    "fourth": 11330,
    "ooping": 21009,
    "ored": 3896,
    "turtle": 12216,
    "Ġprofanely": 23572,
    "Ġaway": 1244,
    "Ġsubsequent": 7659,
    "Ġguided": 10462,
    "Ġadam": 2126,
    "wra": 11544,
    "heric": 15915,
    "Ġnatures": 16507,
    "conclusive": 25674,
    "Ġaven": 10761,
    "brought": 7285,
    "Ġsuddenly": 2647,
    "Ġgener": 586,
    "Ġprair": 7747,
    "Ġoccurrence": 14385,
    "Ġonce": 1493,
    "Ġposted": 16726,
    "Ġrack": 9315,
    "Ġchurches": 12833,
    "Ġcove": 22585,
    "Ġtransform": 752,
    "ured": 1655,
    "iquette": 26133,
    "Ġclues": 18422,
    "ilburn": 18062,
    "osal": 11763,
    "Ġmultiple": 1187,
    "Ġga": 4445,
    "Ġwaxed": 21300,
    "remarks": 23192,
    "exagger": 22434,
    "Ġherd": 7888,
    "Ġrasc": 21981,
    "Ġregular": 925,
    "Ġdiscove": 16160,
    "Ġgeneralization": 981,
    "od": 351,
    "Ġporpoises": 13386,
    "unks": 15779,
    "Ġenters": 11026,
    "Ġcurv": 3513,
    "ercely": 12555,
    "Ġonset": 12716,
    "suff": 4960,
    "Ġaloft": 4300,
    "magnifying": 25393,
    "Ġreappearance": 21670,
    "Ġlungs": 8362,
    "idays": 21774,
    "olds": 9314,
    "Ġresolutely": 14611,
    "relu": 17761,
    "Ġexert": 5722,
    "Ġdoublo": 6079,
    "ees": 13714,
    "Ġpir": 6818,
    "Ġsymmetry": 20369,
    "Ġantiqu": 12149,
    "em": 389,
    "bid": 5611,
    "Ġtoilings": 24741,
    "Ġbenevol": 5963,
    "rack": 18013,
    "Ġconsort": 18725,
    "Ġillum": 9403,
    "Ġbriskly": 25312,
    "Ġglued": 20592,
    "avers": 17483,
    "Ġdataset": 12824,
    "Ġconquer": 14030,
    "Ġtemporarily": 11169,
    "Ġgoethe": 22428,
    "onsible": 22565,
    "Ġwasting": 12733,
    "Ġmysteriously": 24602,
    "Ġjudging": 16597,
    "Ġgems": 9211,
    "streamed": 25966,
    "rages": 15685,
    "ication": 978,
    "Ġcontrivances": 12361,
    "Ġsoothing": 8173,
    "Ġfriendly": 9823,
    "%": 9,
    "Ġdissipate": 13637,
    "Ġenlarged": 25986,
    "Ġ93": 24592,
    "lob": 22510,
    "Ġengraving": 17081,
    "Ġay": 15494,
    "Ġpretending": 19317,
    "Ġbehavioral": 11398,
    "ainted": 3661,
    "Ġbolted": 12249,
    "Ġunresting": 25554,
    "Ġdevouring": 11862,
    "Ġbennett": 16327,
    "denial": 18715,
    "Ġtormenting": 15108,
    "im": 327,
    "ensive": 6281,
    "Ġsqualidness": 25844,
    "Ġ**": 4719,
    "Ġsta": 18068,
    "et": 307,
    "Ġlatin": 16823,
    "unhesitatingly": 26498,
    "Ġox": 7154,
    "Ġhansom": 13668,
    "Ġseeming": 8543,
    "ribly": 8255,
    "wrath": 23758,
    "bingley": 4927,
    "Ġsinusoidal": 4799,
    "Ġgrunt": 18736,
    "ites": 3899,
    "Ġpunctual": 17140,
    "Ġevangelical": 25507,
    "entions": 17977,
    "Ġvirginia": 13503,
    "iogn": 20923,
    "Ġgroom": 13969,
    "Ġpoising": 22594,
    "Ġzeal": 9101,
    "Ġinstructing": 3124,
    "Ġyoked": 15739,
    "Ġbrutality": 26278,
    "Ġtouching": 4679,
    "Ġlect": 9223,
    "lemagne": 26438,
    "Ġinflexibly": 26372,
    "assembled": 21548,
    "intu": 22936,
    "Ġstrategy": 2697,
    "respectively": 24699,
    "Ġfine": 1316,
    "dom": 6224,
    "Ġbadly": 12136,
    "coarse": 16489,
    "Ġconcepts": 4549,
    "indust": 18436,
    "Ġcarcase": 14447,
    "vig": 15449,
    "whose": 6852,
    "Ġhovers": 19080,
    "Ġseamen": 5063,
    "Ġcomfits": 21858,
    "Ġmichael": 20682,
    "ower": 1011,
    "Ġprouder": 18973,
    "cen": 17505,
    "venerable": 26410,
    "ostent": 16848,
    "duty": 20242,
    "Ġscrupulous": 20072,
    "Ġson": 2983,
    "Ġconsequ": 6256,
    "Ġhauling": 14090,
    "etite": 21582,
    "rigged": 17063,
    "Ġempire": 11147,
    "Ġrealities": 18982,
    "Ġdestroyed": 5272,
    "Ġanything": 2187,
    "Ġauthorized": 16737,
    "Ġisland": 4047,
    "Ġslumber": 13065,
    "Ġgloomily": 14803,
    "Ġallowed": 4057,
    "cused": 15335,
    "Ġpensive": 21477,
    "jerked": 25619,
    "meant": 7921,
    "varied": 23188,
    "Ġvarious": 3511,
    "anks": 3918,
    "Ġmoran": 9345,
    "Ġresembling": 4097,
    "`": 68,
    "Ġresentment": 7530,
    "Ġcashier": 20201,
    "Ġknowledge": 1444,
    "Ġvineyard": 12334,
    "burning": 25081,
    "Ġtelling": 5747,
    "Ġtemper": 957,
    "Ġgrec": 18962,
    "Ġoverlapping": 26240,
    "Ġalarm": 4046,
    "Ġlat": 5087,
    "ulia": 18151,
    "Ġequival": 4781,
    "Ġminor": 12973,
    "Ġspeckled": 14312,
    "Ġjupiter": 17459,
    "rrh": 26145,
    "Ġveil": 7934,
    "Ġ67": 19663,
    "Ġyojo": 7611,
    "Ġbehalf": 14510,
    "Ġunseason": 22054,
    "Ġplot": 14283,
    "Ġravine": 18648,
    "actions": 8910,
    "Ġtravelling": 11309,
    "omed": 13982,
    "Ġhonorable": 16878,
    "rin": 10124,
    "Ġinnocently": 24031,
    "Ġmasks": 23331,
    "Ġprogrammed": 11060,
    "Ġmerry": 5870,
    "Ġtedious": 15271,
    "Ġoversampling": 20519,
    "Ġreve": 2932,
    "Ġslang": 23162,
    "Ġremoved": 5275,
    "Ġbrushed": 15575,
    "Ġanybody": 5314,
    "Ġvoyagings": 19238,
    "greater": 13256,
    "Ġdef": 1201,
    "Ġspeaks": 11161,
    "thanking": 24326,
    "Ġdescends": 14290,
    "Ġquote": 18467,
    "Ġmaimed": 21319,
    "Ġbradstreet": 9579,
    "Ġsuperstitions": 17073,
    "Ġslates": 11108,
    "Ġassid": 18947,
    "Ġswiss": 18883,
    "Ġmenaced": 16296,
    "gir": 8083,
    "Ġmarks": 6748,
    "unquiet": 21885,
    "Ġrele": 2917,
    "Ġdrama": 16332,
    "beauty": 20107,
    "Ġturtle": 4202,
    "Ġvisiting": 10360,
    "Ġremoving": 12121,
    "Ġdreaming": 11225,
    "Ġsle": 2012,
    "itement": 7835,
    "riet": 18185,
    "Ġsemicircular": 26069,
    "barrow": 15324,
    "Ġchestnuts": 24381,
    "Ġindicated": 10471,
    "Ġcutting": 4982,
    "Ġdick": 3499,
    "Ġembra": 6580,
    "Ġcandle": 8292,
    "gard": 7339,
    "Ġastonishing": 10504,
    "warn": 11545,
    "Ġloads": 22118,
    "Ġsyllables": 25299,
    "dinner": 11408,
    "Ġacceptance": 14830,
    "police": 10586,
    "Ġarab": 7823,
    "vint": 21117,
    "Ġpredefined": 20719,
    "Ġfrequent": 3285,
    "moment": 3580,
    "Ġautomatically": 3600,
    "Ġthirteen": 15278,
    "Ġbrass": 11050,
    "additional": 20467,
    "Ġincorporate": 20457,
    "Ġjollies": 20373,
    "Ġcou": 5288,
    "Ġunwonted": 15010,
    "leviathans": 19941,
    "Ġsoliloqu": 11889,
    "Ġroads": 13293,
    "ung": 2750,
    "Ġhandfuls": 17212,
    "sentence": 2938,
    "Ġafore": 10760,
    "Ġhall": 4183,
    "Ġeffectually": 16170,
    "Ġreally": 2159,
    "aiian": 23594,
    "Ġhipp": 21495,
    "Ġtu": 6969,
    "quick": 6401,
    "itying": 21998,
    "banked": 25338,
    "ore": 418,
    "Ġintuitions": 17344,
    "animal": 16980,
    "Ġidleness": 11146,
    "leag": 21369,
    "ep": 442,
    "Ġneeds": 6607,
    "----âĢĻ": 24099,
    "Ġstag": 6150,
    "Ġbrist": 14381,
    "Ġmargaret": 10379,
    "sy": 2688,
    "Ġduncan": 13465,
    "Ġranges": 2884,
    "Ġmentioned": 4326,
    "security": 26208,
    "Ġostent": 13588,
    "Ġascribed": 14858,
    "atlantic": 15527,
    "mod": 1066,
    "quake": 11681,
    "Ġtranslation": 3089,
    "Ġsched": 2336,
    "emic": 18182,
    "hies": 17562,
    "adem": 21761,
    "Ġerected": 12238,
    "Ġdefinition": 14407,
    "Ġpromontory": 11945,
    "Ġstudious": 23212,
    "Ġo": 275,
    "sneezes": 11448,
    "ploy": 2107,
    "Ġq": 1083,
    "Ġarrows": 18345,
    "abilities": 3235,
    "Ġoakshott": 12234,
    "Ġrows": 10563,
    "Ġmargin": 11925,
    "Ġindividual": 5744,
    "Ġclassification": 1103,
    "Ġdexter": 9704,
    "Ġconvulsively": 25716,
    "Ġcoincidences": 26365,
    "gunwale": 20665,
    "Ġferoc": 14900,
    "morland": 24155,
    "starbuck": 6020,
    "cull": 20811,
    "sig": 2876,
    "Ġillinois": 19138,
    "ail": 566,
    "Ġrays": 10333,
    "angling": 14143,
    "Ġdeportment": 22612,
    "Ġfancied": 7326,
    "talk": 6659,
    "gust": 6362,
    "iteness": 4392,
    "Ġoozy": 21330,
    "Ġvirtuous": 14758,
    "Ġinc": 702,
    "Ġheedfully": 24521,
    "Ġstops": 3166,
    "bal": 2156,
    "Ġ79": 24267,
    "Ġrus": 14096,
    "Ġlovers": 9723,
    "Ġamendment": 26025,
    "F": 42,
    "Ġse": 401,
    "Ġcourses": 10413,
    "henomena": 20275,
    "Ġcombined": 8550,
    "Ġceleb": 20228,
    "iamond": 14592,
    "Ġincommun": 25309,
    "Ġnature": 2537,
    "Ġclients": 19735,
    "Ġalbatross": 10873,
    "Ġpatches": 4235,
    "Ġinmates": 15627,
    "noise": 14329,
    "Ġarve": 15906,
    "Ġbeneath": 3236,
    "purse": 20028,
    "Ġsteepest": 3090,
    "Ġisa": 14028,
    "wn": 720,
    "doubt": 6783,
    "Ġforesight": 13132,
    "heeded": 13837,
    "onomy": 12552,
    "ining": 3220,
    "Ġhire": 21488,
    "Ġdilig": 8350,
    "ĩ": 234,
    "Ġacquirement": 19257,
    "ings": 630,
    "wrote": 11549,
    "Ġofficious": 19351,
    "Ġcaroline": 7254,
    "Ġmuhammad": 26170,
    "ral": 4626,
    "ividually": 22087,
    "venor": 16104,
    "cd": 15326,
    "Ġphilosophical": 26336,
    "dismay": 19156,
    "Ġlaug": 3629,
    "//": 11465,
    "Ġfuriously": 9805,
    "Ġjust": 1240,
    "disappeared": 14572,
    "clouded": 20334,
    "Ġundertake": 14482,
    "dist": 4479,
    "Ġpromise": 4197,
    "Ġdoubly": 16389,
    "Ġawed": 23587,
    "Ġreduce": 7943,
    "sell": 13784,
    "invite": 25091,
    "Ġsolemnisation": 24114,
    "Ġslain": 8956,
    "Ġnavel": 24577,
    "Ġevaporate": 26334,
    "ļ": 253,
    "Ġconciliating": 19051,
    "possibly": 10546,
    "constant": 11326,
    "Ġnephews": 24713,
    "inex": 14095,
    "Ġpoisoned": 24887,
    "depth": 12805,
    "Ġwapping": 21297,
    "uary": 11540,
    "Ġcommand": 3319,
    "Ġbrag": 23836,
    "Ġstared": 8456,
    "Ġluggage": 25958,
    "avoiding": 25237,
    "Ġdistrust": 8203,
    "Ġcommodores": 25375,
    "Ġembellished": 25849,
    "Ġfrance": 7682,
    "separ": 9233,
    "Ġthickets": 24026,
    "Ġtimes": 2303,
    "Ġknot": 7013,
    "Ġpads": 21476,
    "Ġimmortal": 8018,
    "mysterious": 26052,
    "Ġcamel": 25350,
    "Ġtapping": 10754,
    "Ġlighting": 13087,
    "inkle": 22617,
    "bpp": 20774,
    "ã": 164,
    "Ġrug": 16162,
    "Ġdebated": 9043,
    "Ġofficio": 23818,
    "Ġoscillations": 2899,
    "zeal": 16275,
    "Ġprincipal": 6497,
    "alions": 21504,
    "deli": 15348,
    "Ġ2": 2928,
    "Ġslight": 3121,
    "Ġundertaking": 8577,
    "10": 17475,
    "Ġtinge": 25090,
    "Ġreceived": 2950,
    "inburgh": 15493,
    "Ġstrides": 22621,
    "ris": 9140,
    "Ġlascar": 9202,
    "Ġmarking": 16471,
    "Ġappearing": 9844,
    "Ġsublime": 8066,
    "Ġhusbands": 16645,
    "approaching": 15014,
    "reinforcement": 7826,
    "Ġkilburn": 18352,
    "Ġhearty": 9849,
    "open": 7027,
    "Ġdeduction": 14904,
    "Ġpack": 5444,
    "uck": 1234,
    "Ġvapors": 19910,
    "brim": 23577,
    "Ġalfred": 21790,
    "Ġpierce": 17037,
    "Ġhumour": 7932,
    "Ġunreasonably": 17454,
    "Ġsevere": 6033,
    "Ġxxxiv": 24970,
    "cient": 4568,
    "terdam": 18132,
    "safe": 10057,
    "Ġfeel": 1262,
    "Ġf": 283,
    "maj": 18803,
    "#": 7,
    "<PAD>": 0,
    "Ġdecorated": 22444,
    "Ġwealthy": 18181,
    "pull": 6797,
    "rippling": 24712,
    "orient": 2880,
    "Ġoverall": 4355,
    "acup": 14281,
    "desire": 14664,
    "Ġtravels": 11931,
    "sunlight": 24852,
    "figure": 13559,
    "Ġimpelling": 22390,
    "Ġdews": 21843,
    "Ġviolet": 19092,
    "shadow": 20317,
    "Ġshakes": 10906,
    "Ġnantucketers": 9897,
    "etah": 12666,
    "Ġwinter": 5220,
    "Ġsnows": 14729,
    "Ġenduring": 16305,
    "Ġadmirals": 20388,
    "Ġ21": 11200,
    "anguish": 15987,
    "eluded": 21578,
    "give": 4687,
    "Ġoff": 901,
    "Ġfame": 21409,
    "Ġearnest": 3931,
    "unction": 10237,
    "Ġpledged": 20690,
    "Ġprovocation": 24194,
    "Ġphaet": 16320,
    "Ġblunder": 18820,
    "Ġvices": 14086,
    "Ġstock": 7455,
    "totally": 25418,
    "Ġsets": 8778,
    "Ġgodfrey": 15297,
    "Ġdirt": 15598,
    "Ġsettle": 6295,
    "do": 1994,
    "Ġshoulder": 5849,
    "Ġconflict": 17276,
    "pipe": 8700,
    "ref": 6516,
    "Ġafresh": 18628,
    "longing": 23728,
    "Ġstoop": 16313,
    "Ġpoorly": 9858,
    "anning": 10167,
    "Ġblush": 14405,
    "Ġswelling": 11929,
    "Ġhoneymoon": 25646,
    "Ġrule": 1535,
    "Ġascent": 19621,
    "Ġbol": 6243,
    "Ġprices": 15616,
    "first": 3935,
    "Ġpreserved": 9265,
    "Ġclearing": 8240,
    "Ġbrotherhood": 23672,
    "Ġincisive": 18571,
    "overspreading": 26140,
    "creator": 26383,
    "Ġfift": 6383,
    "Ġcompromised": 22577,
    "Ġentropy": 2032,
    "christmas": 20258,
    "Ġhastening": 19338,
    "Ġroanoke": 22411,
    "isis": 12584,
    "Ġenable": 686,
    "Ġencourages": 2061,
    "Ġcool": 5734,
    "Ġsculpture": 26017,
    "Ġdism": 9770,
    "Ġdefray": 22944,
    "Ġjealously": 24125,
    "Ġevidence": 5270,
    "Ġexecutioner": 12276,
    "till": 6966,
    "urons": 3132,
    "Ġcircumn": 11988,
    "Ġtickled": 20060,
    "Ġquar": 3115,
    "Ġfoes": 11956,
    "Ġunimportant": 22032,
    "Ġamel": 18510,
    "Ġfrigate": 13086,
    "Ġvelocity": 10623,
    "agos": 21908,
    "ect": 381,
    "man": 1052,
    "Ġpatroness": 13513,
    "profound": 16429,
    "Ġsociety": 3977,
    "firmly": 20283,
    "Ġdegener": 14053,
    "pad": 13771,
    "wondered": 17118,
    "Ġprayers": 12128,
    "Ġ112": 24437,
    "ascal": 10195,
    "Ġgpus": 3734,
    "Ġtreasure": 9561,
    "Ġcooped": 22586,
    "Ġunfeeling": 14122,
    "Ġbattery": 21397,
    "Ġphyseter": 26588,
    "spass": 18686,
    "Ġstones": 9226,
    "Ġconting": 18473,
    "Ġpeaceful": 9458,
    "strained": 21655,
    "atever": 3081,
    "your": 1984,
    "Ġprograms": 7239,
    "trap": 24334,
    "assure": 9273,
    "Ġmantelpiece": 15211,
    "Ġperfectly": 3703,
    "Ġsweating": 16465,
    "smoke": 17225,
    "istan": 22112,
    "Ġrifle": 18215,
    "visitor": 15060,
    "nostr": 22719,
    "Ġcomprehending": 24445,
    "Ġuneasiness": 9487,
    "âĢĿâĢĶ": 5721,
    "ignity": 4372,
    "Ġpray": 3900,
    "Ġbount": 15572,
    "Ġfretfully": 25448,
    "Ġenvironment": 4138,
    "aste": 4600,
    "ault": 2307,
    "Ġcommence": 6169,
    "Ġflu": 3276,
    "opotam": 22483,
    "Ġpremature": 3727,
    "Ġpudding": 17916,
    "upp": 10133,
    "Ġdearly": 10404,
    "uy": 21102,
    "Ġmungo": 25632,
    "Ġsneering": 24696,
    "Ġbree": 5012,
    "Ġrejoined": 14930,
    "Ġapr": 12537,
    "rowed": 22863,
    "Ġforward": 1838,
    "fters": 20863,
    "find": 6954,
    "Ġoutbreak": 22321,
    "Ġaffording": 14824,
    "uttermost": 24943,
    "Ġselves": 21225,
    "filled": 9597,
    "mured": 6960,
    "Ġrecommence": 16814,
    "Ġoverpowering": 15253,
    "species": 13261,
    "ogany": 18676,
    "Ġviv": 6158,
    "Ġremark": 2145,
    "Ġident": 2243,
    "islands": 21379,
    "Ġwheels": 10914,
    "loa": 18534,
    "Ġcling": 11775,
    "Ġfishery": 4174,
    "Ġplayfulness": 23638,
    "Ġsideboard": 10388,
    "Ġprairies": 20024,
    "winter": 10742,
    "Ġhaunted": 10256,
    "landish": 11946,
    "Ġdard": 21425,
    "Ġbegone": 11921,
    "Ġbee": 21753,
    "insufficient": 15492,
    "Ġconnecting": 18632,
    "Ġburtons": 19255,
    "Ġjoky": 18407,
    "fall": 5135,
    "cible": 20808,
    "Ġbloodshot": 23801,
    "ortal": 6267,
    "Ġturnpike": 23032,
    "bounded": 13443,
    "school": 10058,
    "Ġspent": 3964,
    "Ġprodigy": 19795,
    "Ġorbs": 22096,
    "classification": 4387,
    "Ġimmens": 9942,
    "Ġparlor": 13543,
    "Ã¦st": 24177,
    "oubled": 23650,
    "Ġcomparatively": 9493,
    "Ġfiltering": 23930,
    "Ġgushed": 21610,
    "ient": 394,
    "recked": 17764,
    "wester": 21141,
    "splice": 17173,
    "Ġjudged": 12088,
    "Ġpup": 12624,
    "shoe": 14970,
    "amb": 5723,
    "Ġcalifornia": 20533,
    "Ġretired": 6072,
    "Ġflush": 14427,
    "Ġsequences": 1753,
    "Ġrummaged": 16912,
    "ection": 4947,
    "unguarded": 23671,
    "Ġundone": 24118,
    "Ġinexorable": 12260,
    "Ġexchange": 15758,
    "resides": 23674,
    "Ġwherever": 8526,
    "Ġcompan": 2174,
    "regulated": 23469,
    "nament": 11509,
    "Ġstranded": 9778,
    "Ġdivision": 19447,
    "Ġpeevish": 26559,
    "ority": 8419,
    "phant": 6289,
    "larking": 17596,
    "Ġ]": 15462,
    "prepar": 22470,
    "Ġscarcely": 4007,
    "deliver": 19507,
    "Ġcatching": 9481,
    "Ġdirect": 1470,
    "Ġattractions": 12921,
    "Ġcruises": 23707,
    "Ġconjure": 17126,
    "Ġpagan": 7119,
    "complied": 19915,
    "Ġstreaming": 19676,
    "Ġfer": 5529,
    "tend": 17676,
    "Ġunsupervised": 2652,
    "Ġgrenadier": 21619,
    "gal": 15359,
    "someone": 14566,
    "Ġscraggy": 24580,
    "Ġcau": 13884,
    "mere": 11859,
    "Ġbashful": 20423,
    "Ġthinner": 24184,
    "Ġbenediction": 18786,
    "<UNK>": 3,
    "unless": 9238,
    "Ġhomeward": 9395,
    "Ġchinese": 14186,
    "look": 2263,
    "study": 15121,
    "doubtful": 24790,
    "Ġdefile": 18825,
    "Ġretreat": 6071,
    "Ġrecognised": 8998,
    "Ġsurmised": 24920,
    "id": 338,
    "Ġpowdered": 24240,
    "ppery": 10894,
    "Ġheidelburgh": 11646,
    "Ġvolley": 24147,
    "Ġinhabit": 5782,
    "Ġungover": 18256,
    "Ġleg": 2334,
    "have": 2058,
    "Ġcongratulatory": 19770,
    "impatience": 25501,
    "Ġaust": 4871,
    "Ġflung": 8566,
    "Ġconcentric": 20078,
    "results": 20390,
    "ashtego": 4101,
    "royal": 11395,
    "batt": 20780,
    "Ġintricacies": 15142,
    "Ġabandonment": 25604,
    "useness": 22286,
    "friends": 8306,
    "Ġages": 7029,
    "Ġdoing": 3663,
    "Ġmuffled": 10643,
    "Ġdollars": 11457,
    "Ġexig": 21830,
    "Ġspies": 22128,
    "augment": 18831,
    "Ġunmolested": 15249,
    "Ġpleaded": 16302,
    "plainly": 11092,
    "rudently": 16712,
    "bud": 10686,
    "Ġhunt": 6185,
    "introduction": 15127,
    "oam": 8755,
    "Ġspect": 3553,
    "Ġpitiless": 19391,
    "increasing": 20272,
    "til": 17673,
    "orney": 17875,
    "furthest": 19844,
    "Ġfant": 9176,
    "Ġmalady": 24392,
    "Ġthoroughfares": 26096,
    "right": 2773,
    "Ġincoherent": 17403,
    "Ġserpent": 6739,
    "everybody": 8614,
    "Ġchink": 15936,
    "squ": 7809,
    "tie": 21071,
    "Ġoutward": 7904,
    "Ġstreets": 5865,
    "Ġreliably": 22883,
    "progress": 11992,
    "Ġsailors": 4274,
    "Ġsatisf": 2809,
    "Ġlantern": 7118,
    "Ġhouses": 6140,
    "Ġwears": 10243,
    "Ġplaus": 22602,
    "Ġwol": 15533,
    "Ġgiant": 13971,
    "ion": 296,
    "Ġlandlessness": 23383,
    "Ġstiffness": 24828,
    "proved": 11991,
    "refuge": 24733,
    "Ġcumberland": 21358,
    "according": 12032,
    "terns": 21826,
    "Ġsag": 6515,
    "Ġspouts": 7730,
    "Ġcapacious": 19178,
    "err": 1142,
    "elius": 13292,
    "transformer": 25018,
    "Ġendwise": 23140,
    "Ġrepresented": 8941,
    "Ġdesist": 16242,
    "arer": 3968,
    "Ġratio": 5066,
    "Ġelsewhere": 7713,
    "Ġchristian": 6480,
    "Ġswain": 18882,
    "Ġtowards": 1729,
    "--------": 14785,
    "Ġreminisc": 18727,
    "Ġregained": 18585,
    "accessory": 25500,
    "Ġspire": 18305,
    "illustration": 2283,
    "Ġimminent": 11247,
    "impression": 15715,
    "ank": 1365,
    "menced": 23149,
    "Ġfris": 23258,
    "omet": 3078,
    "lean": 21368,
    "nails": 17616,
    "Ġtum": 5692,
    "ropri": 2180,
    "Ġsettles": 22923,
    "Ġkill": 4453,
    "confirmed": 19643,
    "Ġso": 434,
    "Ġ85": 24460,
    "Ġcow": 13879,
    "Ġmistifying": 23722,
    "Ġenormity": 19698,
    "Ġgoblet": 25824,
    "vex": 21701,
    "lleg": 20953,
    "Ġcreases": 22725,
    "Ġscroll": 14194,
    "ectual": 21919,
    "heavily": 24534,
    "Ġbridge": 8349,
    "Ġmet": 1896,
    "Ġkrusenstern": 26379,
    "Ġsums": 2903,
    "Ġserv": 3326,
    "Ġsleek": 23387,
    "Ġconfed": 13103,
    "Ġbennets": 9809,
    "ĠvertebrÃ¦": 11437,
    "Ġwelfare": 12564,
    "Ġ37": 24079,
    "Ġswearing": 16467,
    "Ġinitialized": 3949,
    "Ġpeaceable": 14726,
    "Ġserenity": 10031,
    "Ġsuper": 2154,
    "neighbours": 24882,
    "tese": 21086,
    "Ġserene": 8167,
    "eland": 11623,
    "wickham": 5885,
    "Ġscreams": 24604,
    "Ġere": 3687,
    "asburgh": 15651,
    "Ġstarvation": 19794,
    "contracting": 19295,
    "Ġsadder": 24054,
    "coffin": 10665,
    "Ġane": 9184,
    "wharf": 20609,
    "want": 8770,
    "eight": 9594,
    "Ġaccording": 5508,
    "Ġwhip": 8453,
    "Ġbulkington": 14679,
    "mbl": 5947,
    "Ġjew": 9470,
    "Ġdirecting": 16303,
    "Ġzigzag": 26274,
    "Ġfrolic": 23928,
    "calm": 8937,
    "Ġneutral": 12749,
    "hoping": 17568,
    "hetic": 12208,
    "ate": 424,
    "Ġdoes": 943,
    "kins": 7345,
    "Ġconsecut": 18114,
    "Ġmomentarily": 22816,
    "ĠcÃ¦sar": 20583,
    "Ġtended": 21169,
    "Ġthrown": 4638,
    "Ġjumped": 7098,
    "Ġtranslations": 12056,
    "shipping": 10310,
    "uce": 11538,
    "Ġhandsome": 4906,
    "jah": 17583,
    "Ġreinforcement": 2967,
    "ately": 1727,
    "spee": 9320,
    "Ġgaieties": 24198,
    "Ġsimulation": 2756,
    "smart": 23909,
    "Ġcalculates": 13269,
    "Ġwore": 6378,
    "carrying": 16714,
    "st": 315,
    "Ġpleas": 1906,
    "inuating": 16206,
    "Ġshelves": 15000,
    "Ġproperly": 7945,
    "Ġtract": 21168,
    "Ġdoubtless": 6197,
    "Ġrubber": 22791,
    "Ġexceedingly": 4613,
    "Ġparamount": 15886,
    "vag": 8768,
    "Ġchamounix": 14867,
    "alcul": 15632,
    "Ġpredecess": 18517,
    "Ġashamed": 6404,
    "enderby": 25216,
    "Ġsecretary": 19445,
    "Ġwoman": 2385,
    "aire": 10683,
    "Ġdeserves": 13294,
    "Ġslaves": 23172,
    "Ġaisle": 21204,
    "off": 1886,
    "Ġsoph": 1640,
    "tinted": 17685,
    "¬": 110,
    "Ġtail": 3092,
    "imately": 12693,
    "Ġvale": 14085,
    "Ġmachinations": 25768,
    "Ġcapst": 8599,
    "Ġdozen": 8186,
    "educated": 17262,
    "ighted": 8479,
    "ships": 5486,
    "Ġgreenland": 5761,
    "Ġsuspic": 4469,
    "Ġbitterly": 8315,
    "Ġvaliantly": 22806,
    "Ġsneeze": 24698,
    "Ġstig": 14006,
    "clergy": 18936,
    "idual": 1558,
    "Ġencounter": 6630,
    "Ġmexico": 15284,
    "Ġdives": 17892,
    "together": 3558,
    "Ġsnarl": 25714,
    "Ġpar": 457,
    "baned": 17498,
    "chronicle": 26482,
    "Ġpatron": 7462,
    "Ġdisgra": 18550,
    "disinterested": 23503,
    "build": 12192,
    "Ġselect": 3997,
    "Ī": 235,
    "inhabited": 13624,
    "Ġbuttoned": 25369,
    "Ġarrival": 4729,
    "organic": 25947,
    "Ġarticulated": 24433,
    "chants": 21695,
    "Ġstooped": 14466,
    "Ġtotally": 9474,
    "Ġmurder": 4278,
    "Ġcondesc": 7182,
    "Ġwinged": 16997,
    "satisfaction": 9995,
    "Ġmakes": 3654,
    "Ġautomation": 13243,
    "Ġparallelization": 3433,
    "Ġbale": 7838,
    "magnificent": 20277,
    "Ġinboard": 17935,
    "Ġdau": 21428,
    "Ġcouch": 12576,
    "Ġyoung": 1508,
    "Ġpercept": 14226,
    "jac": 8382,
    "Ġsentinel": 26066,
    "Ġgrievous": 13265,
    "Ġchambermaid": 24306,
    "Ġstuffed": 13413,
    "Ġspat": 2667,
    "Ġunfolding": 17087,
    "Ġmurmuring": 23581,
    "ively": 1281,
    "Þ": 159,
    "itating": 9653,
    "Ġuse": 828,
    "occupation": 15059,
    "quarter": 11390,
    "Ġ16": 7927,
    "Ġvestibule": 13540,
    "Ġblotting": 25314,
    "istics": 1627,
    "lengths": 24847,
    "wild": 8771,
    "Ġfits": 8795,
    "Ġdemand": 4946,
    "Ġprocedural": 12035,
    "Ġflourishing": 25188,
    "Ġrecommending": 24333,
    "sequently": 14585,
    "Ġ/*": 10142,
    "Ġtouches": 20573,
    "Ġembedding": 2102,
    "oise": 15407,
    "sensible": 20055,
    "agony": 14072,
    "\":": 9584,
    "thunder": 10265,
    "ezes": 9994,
    "husband": 8042,
    "Ġtiar": 21170,
    "brows": 17499,
    "Ġdiddled": 22670,
    "Ġentitled": 8541,
    "Ġbenjam": 22895,
    "Ġthither": 6821,
    "led": 580,
    "alterable": 13628,
    "iverse": 13120,
    "Ġheels": 10852,
    "Ġfaulty": 14910,
    "ictions": 14228,
    "athies": 22703,
    "mad": 5281,
    "Ġpaid": 5015,
    "Ġcluster": 13575,
    "ica": 10201,
    "Ġbe": 336,
    "Ġkrempe": 10672,
    "Ġder": 1500,
    "lacings": 26135,
    "Ġdesignated": 19524,
    "Ġwayward": 22877,
    "Ġcousin": 3707,
    "Ġungod": 22026,
    "ood": 962,
    "Ġpasseng": 12976,
    "Ġarches": 14165,
    "Ġboone": 11844,
    "fier": 9596,
    "athan": 2956,
    "Ġpang": 15609,
    "Ġplaned": 24058,
    "flight": 15356,
    "Ġnoticed": 5549,
    "Ġsch": 13838,
    "Ġboon": 22641,
    "Ġcheeks": 5959,
    "Ġdissatisfied": 14259,
    "verty": 8454,
    "adequate": 15207,
    "Ġperadventure": 22403,
    "Ġalgorith": 552,
    "Ġgodfre": 14531,
    "supervised": 2024,
    "Ġscoundrel": 13674,
    "drawn": 9916,
    "Ġimply": 18445,
    "Ġunion": 6839,
    "Ġgoin": 18470,
    "Ġlurks": 11292,
    "probably": 10023,
    "varieties": 23190,
    "Á": 130,
    "Ġpaw": 12625,
    "Ġtort": 5903,
    "expense": 22435,
    "Ġdodging": 19889,
    "Ġspite": 4155,
    "verb": 10219,
    "Ġkn": 4544,
    "Ġdine": 7366,
    "screw": 9350,
    "Ġtren": 17723,
    "Ġtearless": 24785,
    "Ď": 207,
    "Ġforge": 8458,
    "mystery": 15159,
    "Ġtrifle": 10604,
    "Ġdefer": 18824,
    "Ġyears": 1891,
    "Ġcircular": 13115,
    "mary": 8752,
    "Ġtim": 4577,
    "Ġagony": 5388,
    "Ġbreaks": 13187,
    "Ġinvent": 7165,
    "incess": 15485,
    "awing": 18917,
    "Ġsunken": 14495,
    "itering": 17820,
    "Ġsharply": 9406,
    "Ġutilize": 4796,
    "type": 16179,
    "Ġdismember": 20218,
    "exasper": 22433,
    "exc": 5169,
    "Ġdetected": 18850,
    "ppa": 10242,
    "pole": 9336,
    "Ġgenerates": 3666,
    "oot": 13768,
    "neighboring": 20620,
    "restored": 18979,
    "Ġdeftly": 26495,
    "Ġinsomuch": 23685,
    "andromeda": 21872,
    "Ġago": 3137,
    "Ġtempest": 8213,
    "Ġduty": 4070,
    "hurriedly": 25511,
    "discovering": 24254,
    "Ġfreer": 23209,
    "Ġfactor": 19013,
    "Ġfunny": 7638,
    "Ġharpooned": 13266,
    "Ġgun": 4700,
    "Ġinterp": 16075,
    "Ġsignification": 19206,
    "Ġrighted": 23181,
    "Ġgossiping": 26245,
    "leap": 21370,
    "ineas": 15825,
    "Ġkindness": 4096,
    "Ġtruest": 16702,
    "Ġobtaining": 16136,
    "Ġnugent": 26459,
    "Ġriverside": 25248,
    "rawling": 21639,
    "und": 4117,
    "Ġmilky": 9950,
    "Ġtying": 15476,
    "offing": 23337,
    "Ġdefilements": 26286,
    "Ġprediction": 2231,
    "equally": 19901,
    "ø": 185,
    "ian": 1238,
    "dee": 11737,
    "iline": 21724,
    "Ġcalhoun": 23048,
    "seeing": 7080,
    "Ġdragged": 6889,
    "Ġpresumed": 10547,
    "foreign": 18544,
    "parable": 16393,
    "Ġundulated": 19519,
    "drove": 16995,
    "night": 2169,
    "market": 16841,
    "mitting": 20975,
    "Ġvillain": 8639,
    "gloomy": 25147,
    "unusual": 21883,
    "cowardly": 25750,
    "Ġsoles": 22089,
    "Ġseer": 21956,
    "Ġhooked": 19081,
    "ithmetic": 18064,
    "appalling": 22846,
    "Ġcredulous": 17147,
    "Ġripe": 13239,
    "ruct": 688,
    "threshold": 21991,
    "oug": 430,
    "Ġbeech": 18085,
    "Ġaccommodate": 20520,
    "Ġiterate": 13203,
    "Ġdisgust": 6707,
    "Ġderivatives": 2368,
    "bouton": 17504,
    "merged": 11195,
    "Ġelevate": 24502,
    "omical": 9685,
    "Ġgoring": 21607,
    "mem": 10711,
    "bellies": 19977,
    "Ġcouns": 10523,
    "Ġacquaintances": 17353,
    "hearth": 15502,
    "Ġmanipulated": 25179,
    "Ġnuts": 17954,
    "Ġanvil": 11600,
    "brave": 19826,
    "Ġgermany": 25786,
    "Ġbeam": 2881,
    "Ġravines": 25833,
    "Ġshivered": 14111,
    "Ġcalculating": 9928,
    "Ġsincer": 13071,
    "Ġconsiderations": 9413,
    "specul": 23946,
    "Ġpump": 12626,
    "gives": 15361,
    "Ġeffectual": 18732,
    "aving": 2407,
    "pure": 17628,
    "big": 13689,
    "su": 813,
    "Ġlove": 2054,
    "Ġheaps": 11645,
    "admirably": 24947,
    "unts": 12736,
    "Ġbill": 4039,
    "gest": 5426,
    "icate": 9204,
    "principal": 20662,
    "Ġworking": 5574,
    "dared": 13706,
    "Ġwel": 4525,
    "generally": 9438,
    "Ġplough": 18609,
    "Ġtints": 17729,
    "Ġpatted": 16363,
    "ius": 5789,
    "something": 4282,
    "Ġpest": 13916,
    "Ġhymn": 24518,
    "Ġoverlooked": 15977,
    "rossed": 11014,
    "frank": 7758,
    "Ġgleaming": 24996,
    "Ġraving": 16118,
    "Ġnotable": 18223,
    "Ġcompatibility": 2958,
    "Ġspacious": 18311,
    "Ġsul": 7570,
    "Ġproperties": 3120,
    "Ġstrangers": 8314,
    "Ġviews": 7290,
    "Ġstick": 6027,
    "Ġtrades": 8232,
    "Ġglass": 4367,
    "oker": 10965,
    "Ġblow": 3375,
    "Ġprincipally": 11311,
    "iar": 2376,
    "irms": 18171,
    "retched": 3071,
    "yl": 7818,
    "anche": 10790,
    "imper": 14000,
    "Ġdepth": 2438,
    "awn": 3837,
    "Ġpia": 21466,
    "idelburgh": 10564,
    "Ġundec": 22021,
    "camp": 15333,
    "Ġrugged": 18722,
    "Ġburst": 4378,
    "aware": 16298,
    "Ġtraged": 9355,
    "Ġsurest": 19058,
    "Ġcreat": 1448,
    "Ġspe": 821,
    "Ġshown": 5159,
    "Ġknotted": 17021,
    "ix": 1803,
    "uled": 11539,
    "despairing": 25077,
    "Ġpist": 12620,
    "Ġclattered": 22353,
    "Ġzone": 14365,
    "Ġregiment": 6433,
    "battering": 20788,
    "included": 19211,
    "Ġel": 801,
    "Ġripples": 25506,
    "Ġearls": 18905,
    "andish": 18156,
    "đ": 210,
    "Ġcapsized": 20093,
    "Ġlicense": 20094,
    "Ġattempting": 14699,
    "ceived": 1965,
    "extric": 22765,
    "Ġglist": 9348,
    "independ": 15985,
    "posture": 16929,
    "Ġbeyond": 2458,
    "Ġstiggs": 25793,
    "Ġ58": 24322,
    "Ġbeliever": 25850,
    "Ġtide": 6661,
    "Ġvehemently": 26040,
    "13": 20752,
    "source": 11528,
    "vid": 916,
    "commer": 22814,
    "countryman": 24640,
    "inese": 12884,
    "Ġexhaust": 6400,
    "pitching": 24077,
    "Ġpersuaded": 5769,
    "Ġwarning": 9061,
    "etting": 21583,
    "elastic": 17983,
    "Ġinn": 4589,
    "Ġmemo": 18119,
    "Ġnecessary": 4472,
    "Ġbecause": 2212,
    "Ġscolded": 25473,
    "Ġgrown": 5628,
    "waste": 21137,
    "conscientious": 19629,
    "Ġadventurous": 16735,
    "Ġengaging": 9339,
    "supp": 4162,
    "cular": 15331,
    "Ġdragon": 14947,
    "Ġembarkation": 25125,
    "scra": 13028,
    "Ġexasper": 8469,
    "Ġflag": 7242,
    "###": 3830,
    "Ġimprecate": 20521,
    "Ġformal": 2941,
    "Ġcottagers": 6762,
    "Ġornament": 11724,
    "Ġanoint": 25538,
    "Ġassailed": 23180,
    "honest": 17005,
    "Ġextinct": 14340,
    "week": 12936,
    "Ġgrimes": 11036,
    "Ġcronies": 23442,
    "cating": 20804,
    "agings": 18168,
    "Ġsales": 12812,
    "Ġmanoir": 22336,
    "##": 2316,
    "Ġowe": 8115,
    "Ġgarnery": 17390,
    "ned": 3494,
    "Ġannounced": 9037,
    "Ġunche": 23431,
    "Ġgave": 2219,
    "Ġstepmother": 16093,
    "Ġeldest": 6573,
    "Ġromantic": 8031,
    "Ġdistur": 5313,
    "ical": 753,
    "Ġportion": 7492,
    "Ġrises": 9716,
    "Ġost": 9652,
    "Ġdust": 5910,
    "previously": 17210,
    "Ġireland": 17338,
    "Ġshattered": 7884,
    "Ġendeavoured": 4918,
    "oles": 21007,
    "sleeve": 26109,
    "Ġbelonged": 6922,
    "ske": 13785,
    "Ġbackward": 7655,
    "Ġheroines": 19754,
    "Ġunprecedented": 15858,
    "Ġhammock": 5768,
    "sufferable": 12181,
    "Ġrevers": 21667,
    "kl": 4864,
    "Ġsustaining": 25334,
    "arched": 10817,
    "Ġroses": 11790,
    "Ġhigh": 931,
    "sit": 13783,
    "Ġretrogress": 23076,
    "Ġwise": 6812,
    "reshold": 21242,
    "tical": 10131,
    "Ġsally": 15505,
    "nostril": 26561,
    "Ġgladness": 16593,
    "Ġtrophy": 20010,
    "stood": 4115,
    "roded": 17958,
    "context": 3407,
    "Ġwhel": 15870,
    "entiating": 3440,
    "Ġfaintest": 24570,
    "Ġ=": 1072,
    "Ġmany": 1102,
    "Ġcherry": 16937,
    "Ġpirate": 14998,
    "Ġoccurring": 2795,
    "Ġs": 265,
    "Ġaloof": 21789,
    "pleasanter": 24050,
    "omy": 6251,
    "Ġenlist": 21940,
    "Ġinfatuation": 25858,
    "Ġcontemplated": 13468,
    "Ġcolouring": 16753,
    "Ġjuly": 17239,
    "Ġhove": 17925,
    "illar": 5101,
    "morn": 20978,
    "mo": 862,
    "Ġbeef": 6830,
    "Ġpatchwork": 24143,
    "Ġwaned": 17793,
    "yarn": 15460,
    "Ġgazed": 6479,
    "Ġfist": 21407,
    "gle": 20871,
    "Ġstocks": 23179,
    "moby": 8539,
    "Ġsacrificed": 17425,
    "Ġcandid": 4098,
    "Ġspoken": 4835,
    "Ġobliging": 13248,
    "pumps": 21029,
    "conjecturing": 20137,
    "rit": 21038,
    "Ġbulky": 13233,
    "brow": 15319,
    "Ġalders": 21788,
    "ps": 4573,
    "Ġplaint": 10328,
    "Ġdriving": 3619,
    "hatherley": 17570,
    "develop": 13521,
    "Ġfret": 10808,
    "Ġincalculable": 17463,
    "Ġwinds": 5746,
    "Ġentertainment": 12227,
    "satisf": 5781,
    "repeat": 25155,
    "Ġaddress": 2272,
    "instant": 8655,
    "Ġwill": 679,
    "Ġtypewritten": 16425,
    "Ġparcel": 15203,
    "ute": 4641,
    "laden": 14932,
    "sciss": 18860,
    "Ġbamboo": 17440,
    "Ġspitz": 14151,
    "Ġdeceiving": 21842,
    "Ġbudge": 15168,
    "fortune": 4974,
    "Ġmen": 1433,
    "Ġdetailed": 12829,
    "terrific": 25043,
    "Ġdesiring": 14418,
    "Ġalbino": 20506,
    "Ġsitting": 3607,
    "Ġdecaying": 2250,
    "Ġbandages": 24427,
    "Ġobsole": 22701,
    "Ġmace": 21312,
    "Ġtrample": 20330,
    "Ġcolle": 8927,
    "itative": 13873,
    "Ġemblaz": 16228,
    "daughters": 13470,
    "okened": 15988,
    "dependence": 17170,
    "Ġmaterials": 11290,
    "alously": 15633,
    "Ġ{": 21155,
    "Ġrap": 14308,
    "Ġpredicted": 2045,
    "Ġconsoling": 19460,
    "Ġrelaps": 18777,
    "Ġrepublican": 17415,
    "rene": 5379,
    "Ġnarwhale": 12297,
    "Ġfraud": 19038,
    "unavoidable": 17393,
    "est": 501,
    "Ġunlocking": 20708,
    "Ġcollection": 8222,
    "Ġnoticing": 18225,
    "Ġmisanthropic": 26562,
    "industrious": 26241,
    "corpse": 24486,
    "kington": 11204,
    "Ġrecall": 3858,
    "Ġconvinced": 4204,
    "encing": 21285,
    "aton": 21261,
    "imaux": 21715,
    "Ġlunch": 13529,
    "Ġhurrah": 9872,
    "Ġstirs": 14920,
    "icking": 8914,
    "_.âĢĿ": 5887,
    "Ġcrate": 19121,
    "Ġagile": 22516,
    "Ġinterference": 8897,
    "Ġminers": 22835,
    "Ġblot": 9815,
    "Ġdisputes": 25826,
    "Ġexterm": 21833,
    "Ġdined": 9179,
    "Ġinspecting": 24614,
    "Ġgladstone": 23871,
    "Ġemerging": 24613,
    "inois": 17740,
    "Ġrepair": 11983,
    "Ġhed": 7387,
    "Ġxerxes": 23413,
    "Ġ56": 24320,
    "Ġadoption": 24951,
    "dense": 18714,
    "incl": 8110,
    "Ġdescribes": 3123,
    "admiration": 11389,
    "Ġendowed": 18925,
    "Ġsurf": 19133,
    "ivot": 11722,
    "Ġthroat": 7771,
    "Ġgarments": 15197,
    "Ġal": 342,
    "published": 26143,
    "Ġdistinguished": 8273,
    "Ġrubbed": 12961,
    "avail": 18605,
    "Ġfancies": 10426,
    "Ġtackle": 9516,
    "Ġbrigandish": 25488,
    "retired": 11940,
    "queens": 22911,
    "Ġheathenish": 13620,
    "Ġcriminals": 19924,
    "vell": 3959,
    "Ġdischarged": 15224,
    "winds": 10524,
    "peculiarity": 23113,
    "Ġevil": 3808,
    "iature": 8745,
    "Ġdesires": 9459,
    "holloa": 19467,
    "chose": 18043,
    "Ġimpertinent": 9080,
    "amaz": 21861,
    "nailed": 20998,
    "Ġbolts": 16945,
    "values": 4972,
    "Ġchrysalis": 26540,
    "ilated": 18060,
    "Ġpreferment": 19855,
    "ht": 375,
    "Ġtamely": 24980,
    "Ġcorporeally": 25729,
    "Ġdutch": 6329,
    "Ġdivinest": 25722,
    "Ġdarts": 16770,
    "ub": 1228,
    "Ġsibbald": 21233,
    "fitting": 1511,
    "furnish": 25339,
    "Ġcleat": 18949,
    "urp": 1472,
    "Ġstil": 15725,
    "riety": 12748,
    "Ġdared": 5440,
    "Ġabrid": 22276,
    "Ġrolled": 4429,
    "Ġnotwithstanding": 9717,
    "wall": 10139,
    "Ġprodigies": 19796,
    "Ġhorizontally": 17014,
    "reject": 21239,
    "Ġautumn": 14508,
    "th": 407,
    "Ġuntouched": 16468,
    "couldn": 23719,
    "Ġgratefully": 20448,
    "Ġplays": 12041,
    "fitzwilliam": 11354,
    "Ġpointing": 5661,
    "ashes": 6017,
    "currents": 23847,
    "harpoons": 24287,
    "Ġfatig": 6758,
    "gracechurch": 24582,
    "lanterns": 17432,
    "Ġtex": 15475,
    "fi": 12466,
    "Ġmightiest": 12966,
    "Ġthreads": 13122,
    "ceiling": 21630,
    "Ġflowing": 14416,
    "Ġaries": 21200,
    "discover": 10542,
    "Ġsharpen": 13573,
    "Ġhoney": 12637,
    "Ġreversed": 15701,
    "Ġ114": 24438,
    "Ġserious": 4319,
    "ishments": 9276,
    "Ġtem": 803,
    "Ġproportionably": 19974,
    "Ġthick": 3784,
    "aswag": 21549,
    "Ġmule": 13865,
    "Ġrifts": 21982,
    "Ġtheory": 5799,
    "Ġtasks": 1791,
    "Ġerie": 20057,
    "Ġharpooneers": 4730,
    "queness": 18148,
    "delivered": 24101,
    "avern": 24791,
    "Ġinert": 15626,
    "Ġrather": 1496,
    "oblivious": 26584,
    "Ġgoest": 22427,
    "Ġsquint": 22839,
    "Ġparis": 8179,
    "rapt": 13976,
    "agues": 8161,
    "ĠĠĠĠĠĠĠĠĠĠĠĠĠĠĠĠĠĠĠĠĠĠĠĠĠĠĠĠĠĠĠĠĠĠĠĠĠĠĠĠĠĠĠĠĠ": 9955,
    "sat": 4808,
    "Ġabruptness": 25300,
    "isl": 21378,
    "Ġmuteness": 19420,
    "Ġlobster": 11391,
    "Ġadv": 1123,
    "treated": 21097,
    "ributed": 8215,
    "Ġsex": 8846,
    "Ġprecip": 7076,
    "Ġshortness": 23483,
    "Ġaversion": 18868,
    "breaths": 25337,
    "Ġmajest": 24063,
    "Ġsyrian": 18354,
    "aract": 17896,
    "Ġadvise": 7935,
    "confidential": 25877,
    "Ġexped": 7651,
    "Ġinferior": 8366,
    "daughter": 8354,
    "Ġbeg": 1284,
    "Ġge": 1978,
    "Ġartic": 5315,
    "Ġdecide": 9289,
    "Ġgodson": 23361,
    "Ġspires": 11732,
    "ode": 1453,
    "ingley": 1545,
    "Ġoat": 21326,
    "_).âĢĶ": 8685,
    "Ġarranged": 9880,
    "Ġribbed": 16806,
    "ting": 1333,
    "ache": 8521,
    "ullied": 23108,
    "anxiety": 25159,
    "_).": 5888,
    "Ġoppressively": 25711,
    "Ġpliny": 11829,
    "ancient": 9658,
    "Ġmass": 3782,
    "Ġchorus": 10948,
    "Ġmortification": 12099,
    "Ġdeserving": 14756,
    "delightful": 12201,
    "Ġcring": 15556,
    "temper": 10007,
    "ounted": 5030,
    "Ġlingo": 24904,
    "Ġcounting": 13101,
    "utter": 7594,
    "sperm": 5203,
    "hos": 15367,
    "interesting": 12206,
    "uned": 21875,
    "dislike": 23496,
    "impenetrable": 26198,
    "umphed": 23518,
    "plans": 21962,
    "Ġvincent": 15287,
    "Ġ117": 19700,
    "prow": 15414,
    "Ġdoings": 18376,
    "fl": 3602,
    "son": 2328,
    "gl": 3288,
    "Ġhalloa": 13321,
    "Ġliter": 8816,
    "Ġhorsham": 10408,
    "Ġnecessitated": 23932,
    "Ġstrangest": 14798,
    "ĠâĢĶâĢĶ": 25758,
    "Ġpenetrate": 12274,
    "Ġcasualty": 20344,
    "Ġenric": 21938,
    "Ġhan": 15622,
    "despatched": 19804,
    "Ġconveniently": 20082,
    "Ġbeauty": 3771,
    "Ġbouton": 17870,
    "Ġrefresh": 10348,
    "Ġbequeathed": 20704,
    "Ġdeeper": 2083,
    "Ġweaver": 11691,
    "Ġdella": 21442,
    "Ġexposure": 16103,
    "Ġpurple": 10435,
    "Ġhospit": 7514,
    "Ġperceived": 4712,
    "Ġendow": 23139,
    "Ġresponsible": 9889,
    "Ġsimultaneous": 22591,
    "itty": 3555,
    "Ġappe": 1541,
    "Ġdrives": 14579,
    "ice": 584,
    "Ġallow": 1129,
    "uish": 5431,
    "Ġtenderness": 12220,
    "arse": 7161,
    "Ġreynolds": 10212,
    "Ġfamine": 16330,
    "grie": 12475,
    "Ġinspirited": 23423,
    "strom": 15687,
    "oof": 15408,
    "ateg": 1423,
    "Ġcoarsely": 25830,
    "Ġstudy": 1742,
    "Ġfurthermore": 1172,
    "ics": 3254,
    "Ġspray": 7894,
    "Ġiron": 3234,
    "Ġmetropol": 11142,
    "ual": 946,
    "Ġlacepede": 20498,
    "Ġnever": 1020,
    "hib": 15371,
    "Ġshift": 2282,
    "thro": 12766,
    "perform": 15898,
    "Ġincl": 4268,
    "Ġinsensibly": 20079,
    "Ġpaddled": 20204,
    "Ġinterest": 2251,
    "Ġspaulding": 11733,
    "Ġsnatches": 16546,
    "Ġpam": 21456,
    "Ġdinner": 4242,
    "xic": 9148,
    "drawers": 19389,
    "plete": 10921,
    "ĠĠĠĠĠĠĠĠĠĠĠĠĠĠĠĠĠĠĠĠĠĠĠĠĠĠĠĠĠĠĠĠĠĠĠĠ": 23668,
    "fts": 18697,
    "tures": 21072,
    "Ġgives": 5018,
    "Ġperceiving": 8879,
    "Ġforthwith": 16620,
    "Ġowners": 7663,
    "superstitiousness": 25509,
    "Ġleaving": 3905,
    "Ġmou": 13858,
    "bone": 5612,
    "founded": 16715,
    "reds": 12753,
    "accountable": 7111,
    "Ġauger": 21206,
    "azing": 7705,
    "Ġpruning": 18971,
    "Ġgrecian": 26297,
    "Ġginger": 9213,
    "worshipping": 16612,
    "Ġminimizes": 2047,
    "Ġvectors": 1773,
    "Ġcompletion": 12152,
    "toller": 20675,
    "esc": 616,
    "Ġwashed": 15769,
    "permitted": 18341,
    "clo": 5613,
    "tormented": 13649,
    "cst": 10087,
    "everything": 6326,
    "speaking": 12103,
    "byter": 16217,
    "constit": 24605,
    "Ē": 211,
    "Ġlap": 8438,
    "Ġevalu": 3019,
    "Ġtickets": 17095,
    "amusement": 15286,
    "Ġdeaths": 14539,
    "du": 605,
    "peasant": 23114,
    "Ġwhether": 1999,
    "recurrent": 4993,
    "lived": 12491,
    "alth": 3253,
    "Ġviciously": 24404,
    "akes": 2220,
    "Ġshrinking": 14807,
    "Ġmemorable": 16448,
    "Ġsouls": 6310,
    "Ġrevived": 11370,
    "Ġfacility": 19852,
    "ć": 200,
    "piling": 15418,
    "Ġintrig": 21994,
    "housekeeper": 24102,
    "Ġlively": 5449,
    "hopper": 23716,
    "Ġchiswick": 25561,
    "ogy": 22709,
    "Ġ98": 24594,
    "Ġcorner": 4368,
    "Ġauxiliary": 26420,
    "Ġflorida": 20661,
    "Ġoce": 3031,
    "contented": 14636,
    "blo": 6355,
    "slanting": 24558,
    "Ġretrogression": 26583,
    "Ġgowns": 25360,
    "Ġillustrious": 17110,
    "column": 19331,
    "Ġdormouse": 4925,
    "crowded": 20193,
    "Ġenemy": 5605,
    "Ġlaid": 3942,
    "Ġnourishment": 15196,
    "itage": 17818,
    "Ġkings": 7197,
    "bearings": 25372,
    "Ġgamesome": 17292,
    "asiness": 8129,
    "Ġmichigan": 26428,
    "Ġstump": 7606,
    "aces": 2069,
    "ience": 793,
    "named": 9898,
    "Ġannot": 15606,
    "Ġobstructed": 24678,
    "Ġfastened": 7067,
    "head": 1434,
    "Ġsinister": 8572,
    "Ġsuccessful": 9926,
    "Ġsensationalism": 26067,
    "ana": 15563,
    "amp": 2608,
    "dig": 4929,
    "Ġmourning": 13482,
    "Ġvision": 1601,
    "Ġeloped": 22647,
    "Ġsettee": 22924,
    "``": 15310,
    "Ġhertfordshire": 5377,
    "unctions": 18158,
    "kindled": 16663,
    "Ġchivalrous": 20518,
    "clothes": 9060,
    "Ġcomplexity": 1695,
    "Ġconj": 8462,
    "why": 2830,
    "Ġaffinity": 18788,
    "Ġspy": 22123,
    "Ġrichest": 26213,
    "Ġtorpor": 25034,
    "cru": 7128,
    "oft": 3592,
    "Ġfinanc": 23130,
    "esteemed": 26010,
    "Ġmoderately": 22219,
    "erect": 20850,
    "Ġimag": 2677,
    "ourable": 4966,
    "Ġfriendless": 23029,
    "atible": 17774,
    "Ġmischie": 22763,
    "revolver": 25628,
    "Ġeste": 6085,
    "Ġlabelled": 23333,
    "Ġanteced": 26178,
    "ev": 6952,
    "Ġpurring": 23477,
    "Ġhappiness": 2944,
    "Ġturban": 23615,
    "typewritten": 26039,
    "Ġringing": 13336,
    "jack": 7344,
    "Ġfebruary": 15917,
    "slave": 16897,
    "Ġrocking": 10971,
    "Ġsoftmax": 1689,
    "Ġcanaan": 22171,
    "Ġtrunks": 15974,
    "extreme": 11031,
    "be": 670,
    "accents": 19214,
    "ad": 337,
    "Ġlvi": 21556,
    "Ġbulkhead": 24511,
    "gradient": 2275,
    "bitts": 26123,
    "dy": 4075,
    "sebastian": 21824,
    "Ġimpertinence": 11368,
    "beds": 16624,
    "Ġheadsmen": 14735,
    "Ġtash": 13823,
    "Ġeng": 1165,
    "Ġinjustice": 9193,
    "despair": 8344,
    "Ġconsequent": 18113,
    "sphere": 22732,
    "Ġconsumed": 10352,
    "Ġimbib": 22179,
    "Ġfile": 13906,
    "promising": 24725,
    "Ġeagle": 13204,
    "ropes": 7903,
    "Ġprof": 2460,
    "Ġrace": 5848,
    "Ġinducements": 24968,
    "Ġaffecting": 2323,
    "Ġcut": 2642,
    "Ġresent": 6050,
    "Ġjuggler": 26368,
    "trick": 19416,
    "Ġjabbering": 22307,
    "Ġprevail": 13446,
    "stern": 8446,
    "Ġincredulous": 9990,
    "Ġbattalions": 25777,
    "Ġgasped": 11374,
    "isure": 6242,
    "Ġhandsomer": 20336,
    "ieves": 4004,
    "Ġbos": 4875,
    "Ġpeculiarity": 12938,
    "waiting": 12225,
    "ferent": 4193,
    "mbling": 3344,
    "Ġplun": 6283,
    "Ġdesigned": 7741,
    "Ġtailed": 21171,
    "uttle": 6249,
    "Ġbarrow": 12074,
    "Ġaccompl": 5167,
    "Ġlightning": 5750,
    "Ġtrotting": 19979,
    "Ġcurve": 22964,
    "hills": 13739,
    "Ġreus": 8826,
    "Ġphilosoph": 19654,
    "shoes": 14243,
    "Ġunlabeled": 3802,
    "wicked": 24449,
    "vered": 4828,
    "opÃ¦": 12877,
    "stones": 11638,
    "Ġinfat": 14502,
    "ographical": 16788,
    "separately": 25228,
    "Ġvolumes": 14802,
    "Ġmemb": 14031,
    "inv": 8402,
    "Ġdownst": 3561,
    "pense": 10371,
    "ques": 2842,
    "Ġdialogue": 12408,
    "Ġappropriated": 23486,
    "Ġmaybe": 12954,
    "Ġfleshy": 24615,
    "Ġcusack": 26435,
    "ruff": 15903,
    "Ġadditional": 7936,
    "Ġmeanings": 18608,
    "Ġinstructive": 19287,
    "schoolmaster": 15165,
    "Ġhammered": 13245,
    "Ġrib": 4935,
    "Ġtypewriting": 16424,
    "Ġwhitney": 11375,
    "Ġanger": 5442,
    "Ġ86": 24461,
    "plex": 710,
    "dev": 7632,
    "ptic": 21922,
    "oop": 10717,
    "Ġtougher": 21179,
    "whiteness": 18371,
    "by": 1160,
    "Ġawa": 7714,
    "Ġwarehouse": 20420,
    "Ġsy": 489,
    "Ġencaps": 12967,
    "activation": 3230,
    "germans": 20568,
    "uding": 16152,
    "Ġnois": 4265,
    "Ġsymptoms": 8708,
    "Ġaccent": 10296,
    "labours": 16619,
    "whenever": 11885,
    "Ġunclad": 22056,
    "Ġknave": 11274,
    "Ġremem": 4310,
    "Ġbiases": 2396,
    "Ġresp": 2493,
    "Ġunreasoning": 15849,
    "ł": 259,
    "âĢĶâĢĺ_": 24832,
    "makes": 10713,
    "Ġlong": 794,
    "Ġworms": 25217,
    "Ġstool": 14464,
    "Ġpacked": 9983,
    "atigable": 15274,
    "Ġeff": 685,
    "Ġdefects": 12337,
    "Ġnowhere": 12891,
    "Ġremo": 3787,
    "resnet": 4069,
    "ĠĠĠĠĠĠĠĠĠĠĠĠĠĠĠĠĠĠĠĠĠĠĠĠĠĠĠĠĠĠĠĠĠ": 12047,
    "Ġutter": 3974,
    "Ġmatrimony": 13639,
    "Ġhabits": 6926,
    "Ġattacks": 12209,
    "rom": 420,
    "Ġdamning": 19141,
    "Ġrotation": 25475,
    "idly": 12705,
    "Ġmapp": 2081,
    "Ġomn": 8411,
    "whips": 22242,
    "merry": 16538,
    "Ġhimself": 1352,
    "Ġnervousness": 23559,
    "Ġsolitudes": 22889,
    "Ġdood": 22246,
    "Ġattack": 5478,
    "exceeded": 25002,
    "Ġoutfits": 22325,
    "fly": 13717,
    "Ġslily": 23167,
    "voyage": 7786,
    "Ġincommod": 25308,
    "Ġwhatever": 3476,
    "ascribed": 24707,
    "Ġspend": 5306,
    "rannical": 26403,
    "Ġdrifted": 14627,
    "Ġordered": 5833,
    "abomin": 15746,
    "Ġroarings": 25303,
    "Ġgri": 17990,
    "Ġbowlines": 19324,
    "Ġbubbles": 11400,
    "Ġensued": 11396,
    "comfortably": 16877,
    "rated": 6229,
    "Ġthese": 820,
    "Ġconstrain": 2629,
    "Ġharpo": 1942,
    "Ġreasoning": 2068,
    "Ġhypotheses": 4386,
    "aviour": 11006,
    "Ġexcite": 11970,
    "gled": 10701,
    "Ġclass": 788,
    "Ġrapidly": 3347,
    "Ġnavigators": 19766,
    "Ġquivers": 22417,
    "Ġadvertising": 25390,
    "Ġepid": 18007,
    "Ġmarvel": 23038,
    "distinct": 13340,
    "Ġberths": 20118,
    "Ġbeau": 9227,
    "Ġmortar": 19396,
    "score": 18859,
    "Ġphren": 8575,
    "Ġif": 697,
    "uncontrollable": 20599,
    "Ġfixed": 2687,
    "Ġferry": 24498,
    "Ġtraverse": 18893,
    "Ġforbe": 8459,
    "ĠĠĠĠĠĠĠĠĠĠĠĠĠĠĠĠĠĠĠĠĠĠĠĠĠĠĠĠĠĠĠĠĠĠĠĠĠĠĠĠĠĠ": 24212,
    "Ġgait": 13335,
    "Ġveter": 15815,
    "Ġperched": 10302,
    "seven": 8466,
    "Ġviii": 16417,
    "Ġexpands": 25238,
    "Ġopening": 5045,
    "farintosh": 24553,
    "venth": 9298,
    "Ġcav": 13883,
    "ten": 1555,
    "Ġelephants": 9867,
    "Ġaccursed": 9461,
    "risonment": 17378,
    "measure": 10034,
    "Ġsaith": 14158,
    "Ġwil": 4579,
    "Ġmah": 15545,
    "Ġequals": 4725,
    "Ġsuccession": 12106,
    "Ġenthusiasm": 8065,
    "Ġties": 12532,
    "Ġrefined": 18700,
    "Ġsubstantial": 14812,
    "Ġinject": 2716,
    "inquiries": 13581,
    "Ġpulverize": 23396,
    "heavens": 19748,
    "conven": 6164,
    "blot": 20785,
    "Ġostens": 25276,
    "seventy": 10878,
    "Ġidentity": 2523,
    "blubber": 15240,
    "Ġtranspired": 16786,
    "Ġall": 421,
    "Ġbehaves": 23305,
    "Ġsculpt": 15951,
    "Ġreception": 9842,
    "Ġent": 902,
    "Ġcommodore": 12399,
    "iors": 9128,
    "Ġturns": 4980,
    "rederick": 14082,
    "Ġclattering": 22355,
    "Ġpoles": 11005,
    "oll": 5456,
    "Ġgather": 6536,
    ")âĢĶâĢľ": 20745,
    "Ġexacted": 23605,
    "Ġgiants": 25961,
    "ai": 2525,
    "Ġundet": 16703,
    "Ġalike": 8147,
    "norm": 20987,
    "Ġflatt": 16249,
    "shoulders": 16587,
    "Ġdetestation": 17130,
    "Ġnathan": 21529,
    "ering": 1267,
    "insulting": 26056,
    "Ġcreeping": 18683,
    "Ġoarsmen": 7738,
    "Ġslippers": 19618,
    "Ġlament": 7857,
    "attle": 4465,
    "Ġenergies": 25460,
    "Ġcongen": 10875,
    "Ġruff": 14353,
    "Ġfleecy": 17025,
    "Ġfatigued": 13469,
    "Ġundecided": 22050,
    "Ġinterruptions": 24189,
    "Ġexp": 780,
    "ze": 1338,
    "Ġexercised": 24800,
    "Ġhabitual": 24789,
    "Ġcrimin": 6901,
    "Ġ183": 13242,
    "Ġdetective": 14417,
    "Ġsturgeon": 20595,
    "Ġgenus": 24429,
    "Ġpermitting": 22404,
    "Ġdown": 832,
    "hunters": 16835,
    "probable": 17023,
    "Ġcharacteristics": 8613,
    "ā": 194,
    "visited": 13352,
    "Ġstraps": 19311,
    "unching": 18161,
    "next": 5893,
    "Ġintensity": 10019,
    "Ġgown": 10204,
    "Ġinsure": 13182,
    "Ġespe": 21158,
    "made": 4806,
    "Ġsilken": 16385,
    "Ġbelonging": 8308,
    "astonishment": 10033,
    "intment": 4718,
    "Ġwait": 4907,
    "Ġdecreas": 1649,
    "Ġyawn": 7610,
    "Ġmount": 7362,
    "Ġpref": 14174,
    "Ġuncontrollable": 25815,
    "suspicious": 25391,
    "rences": 9275,
    "Ġpen": 1533,
    "Ġpartners": 11857,
    "ifications": 9732,
    "Ġb": 281,
    "Ġpetulance": 24230,
    "paradise": 20640,
    "anim": 6523,
    "Ġther": 17780,
    "Ġbrightest": 13230,
    "Ġim": 475,
    "arest": 4003,
    "speak": 5504,
    "Ġunderstood": 5655,
    "Ġprodig": 6029,
    "Ġbritain": 16958,
    "Ġscientific": 6857,
    "Ġwealth": 7621,
    "Ġalluding": 18237,
    "Ġregimentals": 19860,
    "Ġspermaceti": 8970,
    "adr": 6995,
    "Ġspread": 5161,
    "Ġsurtout": 23467,
    "Ġcolonnades": 26277,
    "Ġshare": 1659,
    "Ġglimmer": 15145,
    "Ġmadam": 5663,
    "Ġphilosop": 5057,
    "Ġprophets": 20453,
    "delight": 5345,
    "merely": 16138,
    "Ġsoot": 14135,
    "luc": 9755,
    "discovery": 12021,
    "tale": 10130,
    "protected": 19923,
    "Ġsymphony": 26534,
    "icorn": 15661,
    "conjectures": 25181,
    "surround": 16760,
    "Ġeluded": 12926,
    "imson": 12694,
    "Ġafloat": 9311,
    "aways": 15314,
    "Ġcame": 1301,
    "Ġhotel": 8654,
    "opes": 10313,
    "spell": 22731,
    "Ġperils": 6275,
    "ifted": 4493,
    "Ġguido": 2977,
    "Ġunsolved": 22035,
    "stately": 18021,
    "Ġturning": 3324,
    "raged": 9214,
    "Ġimagination": 5759,
    "Ġtheoretically": 3568,
    "ens": 701,
    "utional": 17986,
    "supportable": 12374,
    "fab": 13719,
    "Ġflashing": 13034,
    "Ġcosy": 13135,
    "Ġardent": 9973,
    "Ġgir": 2258,
    "Ġstamping": 20034,
    "Ġdit": 21423,
    "Ġfeelingly": 23001,
    "Ġassurance": 7775,
    "whe": 1071,
    "an": 278,
    "ansion": 10927,
    "Ġ81": 24457,
    "Ġstayed": 7998,
    "asked": 8915,
    "lengthwise": 19953,
    "Ġwhereon": 16105,
    "cturn": 17989,
    "Ġhateful": 19716,
    "ino": 15482,
    "Ġgrass": 5177,
    "mechan": 11861,
    "watson": 12248,
    "Ġdrops": 9035,
    "Ġdictate": 20154,
    "lit": 9608,
    "mou": 10710,
    "behold": 12882,
    "allows": 15911,
    "sold": 15429,
    "shipmates": 11932,
    "Ġinhaled": 25452,
    "Ġfeels": 6882,
    "isen": 10794,
    "erman": 5108,
    "Ġsplendidly": 25328,
    "dances": 17523,
    "Ġentangled": 10345,
    "ament": 2439,
    "Ġappeared": 2779,
    "theirs": 23604,
    "Ġ35": 24078,
    "Ġwarmth": 6905,
    "masters": 16836,
    "Ġrestraint": 15131,
    "Ġdeity": 18140,
    "Ġrelationship": 2315,
    "abular": 4760,
    "Ġtherefore": 2242,
    "Ġtawn": 13826,
    "Ġinnoc": 3797,
    "Ġdashes": 21437,
    "Ġleviathan": 3287,
    "Ġprofessed": 14727,
    "Ġevangelists": 20342,
    "amouch": 21862,
    "Ġfalsely": 20585,
    "Ġghostly": 24651,
    "Ġmasking": 2420,
    "gallery": 24694,
    "Ġdecided": 5471,
    "Ġcalamities": 25700,
    "animate": 12582,
    "Ġhawaiian": 25367,
    "suspect": 9543,
    "henomen": 10497,
    "Ġsubstant": 14811,
    "urches": 12690,
    "Ġresist": 7916,
    "Ġdolphin": 17315,
    "Ġpeels": 22694,
    "presume": 25671,
    "Ġwip": 13856,
    "thither": 21987,
    "walton": 20252,
    "Ġoverboard": 6046,
    "behind": 6780,
    "Ġpioneer": 17919,
    "conc": 3948,
    "ĠâĢľâĢĻ": 22258,
    "Ġraging": 14310,
    "elect": 20848,
    "pil": 15411,
    "volut": 1559,
    "erland": 9643,
    "icult": 3340,
    "pless": 6262,
    "Ġfiss": 21415,
    "Ġinnumerable": 13356,
    "Ġnuptials": 20497,
    "happy": 4424,
    "Ġshoes": 7073,
    "Ġanecdote": 26356,
    "Ġmurky": 19204,
    "trained": 4237,
    "Ġresponses": 23653,
    "Ġpleasantness": 24140,
    "cup": 10694,
    "!--": 10680,
    "Ġdeliver": 9850,
    "crew": 7544,
    "move": 11858,
    "Ġcab": 2634,
    "Ġmuscle": 14691,
    "delighted": 10565,
    "Ġdepends": 1117,
    ".;": 20746,
    "<MASK>": 4,
    "Ġnavy": 14919,
    "ached": 2321,
    "exercise": 17462,
    "pun": 9620,
    "(_": 7540,
    "Ġfrank": 4419,
    "iled": 1767,
    "Ġformer": 3320,
    "Ġdigesting": 19812,
    "Ġrails": 22656,
    "good": 2900,
    "Ġfanatic": 23395,
    "wives": 15458,
    "Ġcin": 13878,
    "Ġwavering": 23283,
    "mai": 22916,
    "Ġappro": 664,
    "Ġbones": 4582,
    "Ġthunders": 15642,
    "Ġoverthrow": 18432,
    "Ġfill": 5701,
    "Ġcoiling": 12910,
    "Ġspouted": 14677,
    "reserved": 13846,
    "Ġalabama": 14022,
    "Ġabstract": 17184,
    "Ġrefine": 3039,
    "nelson": 25621,
    "Ġfrequented": 16588,
    "forgive": 18718,
    "embow": 21933,
    "Ġdecisions": 6704,
    "Ġforswe": 21778,
    "africa": 26309,
    "Ġdepresses": 25798,
    "Ġfloundering": 16253,
    "partly": 14604,
    "addressing": 24401,
    "Ġseethe": 21960,
    "Ġtw": 843,
    "Ġreliability": 22884,
    "Ġwoody": 23520,
    "Ġslept": 8259,
    "Ġqueerest": 16418,
    "Ġfields": 2142,
    "ringle": 21043,
    "Ġsevent": 18201,
    "putable": 10903,
    "Ġforcibly": 10064,
    "Ġbunch": 11328,
    "Ġrokovoko": 22410,
    "they": 1879,
    "ultural": 22572,
    "ners": 3270,
    "Ġaccess": 9750,
    "Ġresemblance": 7973,
    "blunder": 24131,
    "Ġwick": 2004,
    "Ġprolong": 6832,
    "Ġdusky": 13553,
    "Ġuncomp": 15845,
    "Ġslay": 16309,
    "Ġshaft": 18230,
    "swiftly": 20554,
    "Ġinestimable": 17445,
    "Ġhalls": 19528,
    "Ġberries": 13411,
    "Ġjackson": 24243,
    "cated": 20805,
    "wear": 22686,
    "Ġaimed": 20253,
    "Ġfoundation": 4230,
    "Ġlevels": 12701,
    "Ġdecreasing": 2443,
    "athom": 12944,
    "Ġentic": 16150,
    "Ġcalifornian": 25853,
    "Ġalmost": 1658,
    "Ġliked": 5265,
    "Ġcondescending": 24869,
    "writes": 4987,
    "Ġconceals": 23906,
    "Ġblasphemy": 26116,
    "keenest": 25662,
    "Ġunnaturally": 24871,
    "Ġwhalers": 8048,
    "lonely": 20959,
    "Ġstrung": 22622,
    "Ġcarbuncle": 14448,
    "Ġwintry": 17437,
    "sailors": 9925,
    "telling": 14442,
    "Ġ$": 21153,
    "Ġleviathans": 8282,
    "Ġcrew": 2496,
    "Ġcabinet": 23863,
    "vigorous": 25918,
    "Ġsteep": 2890,
    "reported": 24493,
    "Ġstuck": 9225,
    "Ġrambled": 20171,
    "magnet": 14973,
    "utral": 12668,
    "evenings": 19466,
    "ici": 8441,
    "Ġwhis": 3506,
    "Ġsunset": 8965,
    "Ġirregularly": 25324,
    "lover": 18537,
    "fere": 10991,
    "Ġfainting": 16899,
    "Ġcrests": 25686,
    "miserably": 24213,
    "Ġexpressive": 8985,
    "!âĢĶâĢĻ": 23567,
    "departed": 24793,
    "Ġchag": 15935,
    "libr": 22926,
    "Ġtest": 1609,
    "fil": 12467,
    "club": 26382,
    "Ġbaboon": 19696,
    "100": 11466,
    "whar": 15931,
    "Ġhebrew": 13991,
    "Ġapparelled": 20440,
    "Ġcountess": 11968,
    "Ġsuspense": 9421,
    "prejudiced": 17300,
    "hereditary": 26421,
    "Ġexasperated": 11414,
    "Ġlirra": 21563,
    "Ġbang": 17856,
    "considering": 12179,
    "quit": 15765,
    "Ġferocity": 16868,
    "Ġcrime": 4615,
    "Ġdefendants": 15144,
    "Ġalliance": 18236,
    "Ġaware": 5756,
    "Ġruthless": 15289,
    "Ġexotic": 21835,
    "Ġhourly": 23307,
    "unpardonable": 21894,
    "Ġfootsteps": 16575,
    "james": 15376,
    "Ġdripping": 13151,
    "Ġmurdering": 14813,
    "spoken": 11864,
    "Ġspaniard": 20366,
    "Ġhellish": 10553,
    "Ġinfants": 16370,
    "Ġdifficulties": 11227,
    "Ġobedience": 11415,
    "liv": 9610,
    "claps": 23156,
    "Ġmary": 3846,
    "Ġcirculation": 16420,
    "hook": 12057,
    "Ġcaval": 25770,
    "Ġreced": 15696,
    "Ġuprising": 12807,
    "Ġsting": 10863,
    "mmet": 10990,
    "antage": 3880,
    "Ġhe": 318,
    "become": 14249,
    "Ġstiffly": 15007,
    "Ġexe": 3993,
    "accept": 8901,
    "wood": 5899,
    "Ġicicles": 25265,
    "Ġmouse": 4692,
    "Ġmuttering": 10502,
    "Ġmiles": 3806,
    "Ġelopement": 10331,
    "Ġcompunction": 18590,
    "Ġvagabond": 20206,
    "Ġnew": 1197,
    "Ġtrailing": 23082,
    "Ġaccept": 4410,
    "Ġ87": 19713,
    "Ñ": 146,
    "flowing": 14561,
    "Ġkelson": 18351,
    "ainty": 21791,
    "Ġhues": 21492,
    "Ġcombining": 22854,
    "Ġmentioning": 9902,
    "================": 3725,
    "Ġprogram": 12998,
    "Ġadapts": 3819,
    "light": 3017,
    "Ġinequalities": 26455,
    "Ġ70": 11278,
    "peare": 18913,
    "Ġobsequ": 14323,
    "Ġunremitting": 26219,
    "Ġskilfully": 20527,
    "wis": 12523,
    "ĠĠĠĠĠĠĠĠĠĠĠĠĠĠĠĠĠĠĠĠĠĠĠĠĠĠĠĠĠĠĠĠĠĠĠĠĠĠĠĠĠĠĠĠĠĠĠĠĠĠĠ": 20042,
    "agation": 1248,
    "Ġcar": 1417,
    "Ġseveral": 2675,
    "ñ": 178,
    "Ġbefell": 14013,
    "Ġmostly": 7664,
    "Ġfolk": 10378,
    "Ġcleansed": 26295,
    "Ġbristol": 14383,
    "ignified": 14492,
    "Ġlaws": 8003,
    "nes": 6961,
    "Ġsiber": 17757,
    "Ġreven": 18031,
    "Ġblindly": 12114,
    "rooms": 10434,
    "ois": 9137,
    "Ġwarped": 25038,
    "Ġelapsed": 7653,
    "mediterranean": 16409,
    "shark": 14241,
    "Ġunluck": 8487,
    "'re": 12432,
    "Ġwhaling": 2786,
    "vard": 21113,
    "choose": 23675,
    "Ġinconceivable": 17940,
    "crime": 14777,
    "Ġsangu": 15507,
    "to": 715,
    "philosop": 9570,
    "atisf": 21266,
    "diligence": 26111,
    "achable": 14134,
    "Ġconfined": 7465,
    "sembled": 7263,
    "ven": 781,
    "Ġsafie": 6620,
    "Ġexperiments": 22985,
    "Ġmomentous": 16175,
    "Ġidentified": 19152,
    "Ġinstantaneously": 23662,
    "likelihood": 4991,
    "Ġposterity": 17405,
    "roylott": 20030,
    "Ġbitten": 21393,
    "Ġangels": 11180,
    "less": 928,
    "arm": 1356,
    "chel": 11209,
    "cocks": 23563,
    "Ġnoah": 10944,
    "Ġopulent": 23630,
    "Ġconsult": 6058,
    "Ġnearing": 15802,
    "Ġocc": 887,
    "Ġidea": 2486,
    "Ġstrife": 18615,
    "Ġinviting": 19145,
    "request": 21244,
    "objections": 19918,
    "Ġsoldiers": 8690,
    "vels": 5432,
    "critical": 19499,
    "Ġmosses": 20166,
    "Ġcorroded": 18877,
    "orrah": 17877,
    "Ġanother": 1737,
    "ë": 172,
    "Ġcelerity": 17439,
    "sounding": 24795,
    "imony": 12695,
    "Ġcontemplative": 19895,
    "Ġdist": 680,
    "Ġwillow": 18529,
    "Ġtut": 8774,
    "henomenon": 13618,
    "bask": 20778,
    "ocation": 14628,
    "belled": 24039,
    "Ġfasten": 11134,
    "honor": 19902,
    "sales": 17669,
    "produced": 25415,
    "fain": 13718,
    "Ġsend": 4106,
    "orial": 8418,
    "Ġeu": 6391,
    "Ġraft": 16120,
    "exam": 10978,
    "Ġconvenience": 11333,
    "Ġvocabulary": 4994,
    "Ġposs": 1613,
    "Ġdoubled": 19640,
    "icha": 11742,
    "Ġventilator": 8717,
    "Ġneighbours": 8303,
    "rers": 14721,
    "embers": 21931,
    "game": 11493,
    "evident": 25521,
    "Ġcuring": 21347,
    "ä": 165,
    "brown": 15321,
    "Ġlothario": 26186,
    "investments": 25533,
    "tem": 6370,
    "rings": 10724,
    "Ġfacil": 16964,
    "Ġsuspect": 5758,
    "Ġparad": 2844,
    "Ġburnt": 9931,
    "Ġdusk": 12331,
    "undertaking": 23789,
    "Ġpower": 1215,
    "Ġber": 5698,
    "ju": 13744,
    "poises": 11893,
    "Ġglen": 18855,
    "Ġpupils": 20424,
    "Ġchrist": 4073,
    "expound": 23665,
    "Ġfairest": 20466,
    "Ġgroves": 16742,
    "erve": 12554,
    "Ġlightnings": 16356,
    "Ġexpiration": 22628,
    "Ġunintelligible": 26516,
    "Ġpressure": 13426,
    "rebell": 17765,
    "ct": 309,
    "aulets": 18623,
    "oons": 12503,
    "Ġconsole": 8151,
    "Ġsphynx": 20714,
    "Ġl": 303,
    "estation": 15924,
    "Ġspreading": 13382,
    "Ġwebster": 20164,
    "Ġunexplored": 26520,
    "Ń": 260,
    "Ġdrunkard": 20180,
    "heredit": 21212,
    "Ġfeebly": 24878,
    "Ġremorselessly": 16969,
    "Ġreflected": 2909,
    "ishnoo": 10957,
    "Ġwid": 4631,
    "astron": 22173,
    "Ġnapoleons": 25886,
    "Ġfifty": 4622,
    "Ġcrawled": 17045,
    "mort": 10712,
    "jub": 20931,
    "Ġessential": 7523,
    "thank": 4949,
    "moreover": 12974,
    "Ġtrance": 12846,
    "scrape": 25699,
    "print": 23814,
    "particularly": 8340,
    "allowing": 24358,
    "Ġwent": 1538,
    "Ġbrute": 8930,
    "Ġcedars": 20295,
    "Ġdisplays": 19859,
    "real": 10152,
    "Ġsincerely": 7963,
    "don": 3545,
    "Ġtars": 21167,
    "Ġupbraiding": 26228,
    "ascertain": 21546,
    "hamlet": 23265,
    "ctions": 953,
    "Ġcheering": 11135,
    "prevailed": 17348,
    "heat": 15500,
    "Ġgag": 21596,
    "ider": 21769,
    "Ġsummarization": 3648,
    "hester": 9634,
    "hitherto": 17286,
    "Ġrubbing": 9325,
    "Ġengine": 1919,
    "stealthily": 23965,
    "Ġcommon": 1412,
    "Ġwine": 6811,
    "Ġstim": 18069,
    "[_": 5131,
    "latter": 15386,
    "Ġmediterranean": 12319,
    "such": 3085,
    "hardly": 6492,
    "Ġunrestrained": 25555,
    "Ġinfrequent": 3827,
    "Ġprevention": 16095,
    "Ġabaft": 22278,
    "Ġabased": 22272,
    "Ġamours": 22485,
    "convers": 6569,
    "Ġquench": 22423,
    "Ġmeditative": 25017,
    "Ġdeal": 3610,
    "Ġantichronical": 26611,
    "rushed": 10587,
    "Ġfid": 10805,
    "Ġliberated": 19669,
    "Ġcommunic": 5751,
    "marvell": 24174,
    "skin": 10571,
    "Ġblind": 3718,
    "pretend": 24883,
    "geese": 22371,
    "Ġscruple": 25051,
    "Ġprocuring": 16872,
    "acity": 5735,
    "mont": 19171,
    "Ġnarrow": 5086,
    "Ġlandlady": 10424,
    "retirement": 23145,
    "iel": 11496,
    "rength": 4100,
    "Ġforesaw": 19128,
    "Ġthereupon": 18435,
    "Ġreconciliation": 25293,
    "Ġliberty": 7762,
    "urday": 13998,
    "arers": 12134,
    "relate": 24014,
    "Ġrepugnant": 26592,
    "Ġtophet": 23575,
    "Ġdreadfully": 7726,
    "Ġpillow": 10041,
    "Ġmasonry": 13603,
    "Ġinvested": 7279,
    "needle": 20313,
    "Ġcheers": 16372,
    "Ġquaker": 10973,
    "Ġthom": 21519,
    "Ġmil": 4252,
    "Ġwindows": 4970,
    "gates": 20874,
    "Ġthoughtless": 16196,
    "ight": 403,
    "alliance": 22204,
    "ĠĠĠĠĠ": 3528,
    "Ġbatch": 889,
    "corrupt": 14898,
    "Ġseptember": 18206,
    "Ġenviron": 4071,
    "Ġcomfort": 3441,
    "Ġger": 21594,
    "Ġbranded": 14382,
    "Ġmonsie": 11449,
    "coburg": 13602,
    "Ġshears": 18320,
    "Ġstarve": 24626,
    "absent": 21793,
    "Ġtaught": 6804,
    "Ġhelplessness": 25074,
    "Ġobsc": 7041,
    "Ġadjusts": 8983,
    "Ġdarkness": 4275,
    "Ġmaker": 15547,
    "Ġexcel": 3569,
    "usiveness": 22287,
    "near": 5843,
    "Ġcan": 470,
    "solitary": 14507,
    "Ġpoky": 21481,
    "Ġindividuality": 14912,
    "Ġcontrad": 9758,
    "Ġpaddington": 17096,
    "beg": 22491,
    "Ġpreferred": 14969,
    "contains": 16034,
    "stairs": 5155,
    "chancing": 22915,
    "Ġheartless": 13077,
    "Ġdented": 17893,
    "osures": 22264,
    "calmed": 16207,
    "Ġsouthampton": 24309,
    "omb": 10209,
    "izings": 14046,
    "Ġgrip": 11630,
    "ĠâĢĻ": 3045,
    "Ġdomin": 10463,
    "Ġcosmopol": 16455,
    "Ġcheapside": 23291,
    "far": 5787,
    "Ġconfidence": 6592,
    "Ġpostponed": 20393,
    "Ġsher": 3765,
    "opened": 7913,
    "Ġcultiv": 13560,
    "ised": 1106,
    "Ġparted": 5930,
    "Ġarabian": 9093,
    "Ġdiscount": 22784,
    "indifference": 15986,
    "Ġencoder": 3637,
    "tu": 12516,
    "Ġjohnson": 18410,
    "ses": 3028,
    "Ġreveren": 13199,
    "itations": 17819,
    "boxes": 16890,
    "Ġwatched": 6299,
    "Ġinstinctively": 13463,
    "A": 37,
    "acific": 4959,
    "inquir": 9539,
    "Ġwhilst": 9221,
    "Ġchurning": 15941,
    "illings": 14145,
    "Ġhip": 17923,
    "Ġtriangular": 14862,
    "itably": 10784,
    "Ġsundry": 20077,
    "Ġrole": 16001,
    "ĠlinnÃ¦us": 15279,
    "Ġasked": 2278,
    "Ġvinc": 14088,
    "pan": 10718,
    "Ġdefined": 11903,
    "Ġnervously": 19186,
    "Ġforeb": 12008,
    "Ġmerryweather": 9525,
    "Ġagricultural": 26552,
    "Ġcertainty": 6736,
    "Ġped": 7845,
    "!_âĢĿ": 11378,
    "trust": 21081,
    "empty": 23636,
    "solved": 7685,
    "conve": 14246,
    "arthly": 8030,
    "Â£": 4810,
    "Ġliber": 5168,
    "Ġbubblingly": 25633,
    "penetrating": 25491,
    "papers": 12506,
    "Ġstirred": 12222,
    "towards": 5003,
    "/*": 10074,
    "traced": 19648,
    "Ġstem": 15726,
    "ulatory": 15772,
    "sed": 4175,
    "Ġinvulnerable": 19148,
    "Ġcompetition": 14269,
    "Ġannealing": 1553,
    "luck": 5733,
    "sheltered": 25586,
    "wretch": 17710,
    "Ġcivilities": 14851,
    "Ġappetite": 12388,
    "Ġdro": 2775,
    "child": 5538,
    "Ġresidence": 8207,
    "Ġbrimstone": 25687,
    "Ġgranting": 18737,
    "Ġhospitable": 17060,
    "Ġwhole": 1664,
    "Ġrepute": 18037,
    "Ġpawnbroker": 13662,
    "Ġattempt": 3488,
    "Ġlam": 21552,
    "Ġsenses": 8252,
    "Ġfrig": 13085,
    "Ġwhal": 5454,
    "Ġsqualid": 14371,
    "Ġthink": 983,
    "Â·": 21152,
    "Ġscare": 18398,
    "Ġpeculiarities": 12075,
    "aulding": 11341,
    "round": 3369,
    "Ġeither": 2606,
    "philosophy": 13584,
    "Ġassistance": 6335,
    "uv": 6231,
    "Ġashore": 5352,
    "Ġwarmer": 19187,
    "descried": 11933,
    "interest": 5421,
    "Ġcovent": 16078,
    "ological": 1884,
    "Ġcathedral": 17416,
    "Ġapprobation": 10987,
    "of": 768,
    "Ġsingled": 23774,
    "Ġpalpitated": 26086,
    "Ġgeorge": 3750,
    "Ġroots": 11187,
    "iftings": 23225,
    "effect": 8607,
    "rab": 7597,
    "Ġmiracle": 15097,
    "mer": 2835,
    "Ġlick": 21553,
    "Ġgrotesque": 26331,
    "Ġplainly": 4379,
    "thern": 4952,
    "Ġhellaswag": 24343,
    "Ġstagnant": 24655,
    "Ġretiring": 16284,
    "rise": 6228,
    "itu": 1229,
    "vit": 13804,
    "details": 19678,
    "raint": 18319,
    "desk": 23811,
    "Ġfading": 15588,
    "Ġbushes": 16404,
    "hew": 5286,
    "Ġinsurance": 23684,
    "Ġsplit": 7993,
    "Ġparchment": 13656,
    "Ġdisturbed": 8675,
    "Ġcaring": 23095,
    "Ġmorose": 18851,
    "revival": 26163,
    "sometimes": 5973,
    "Ġincorrect": 2733,
    "corrob": 24485,
    "Ġchar": 1704,
    "aug": 1214,
    "Ġdaint": 15597,
    "Ġprincess": 23224,
    "Ġmorocc": 22982,
    "Ġbelfry": 26440,
    "Ġwrithed": 17107,
    "ppings": 18179,
    "Ġcowardice": 17033,
    "musket": 25342,
    "eldom": 4413,
    "Ġmeanly": 12914,
    "Ġmeals": 12715,
    "Ġunrestingly": 20364,
    "Ġiteratively": 3060,
    "Ġqual": 6276,
    "Ġelias": 18634,
    "1": 21,
    "Ġsetbacks": 11065,
    "ader": 14015,
    "ff": 461,
    "Ġjurymen": 16849,
    "sford": 5999,
    "hark": 15369,
    "pendicular": 6500,
    "repid": 11567,
    "pha": 22780,
    "âĢĶâĢĻ": 8188,
    "Ġmoss": 9287,
    "bearded": 18523,
    "disappointment": 11427,
    "scythes": 26404,
    "Ġunthink": 18248,
    "Ġeasy": 3454,
    "Ġmilan": 19538,
    "Ġblack": 2034,
    "Ġcho": 4545,
    "Ġric": 18212,
    "completely": 12424,
    "Ġadm": 2401,
    "Ġseasonable": 24406,
    "Ġquadruped": 20618,
    "Ġresting": 7962,
    "idable": 8146,
    "Ġsurpasses": 25269,
    "Ġrum": 5925,
    "Ġpulling": 5864,
    "iceland": 21569,
    "Ġreiter": 21669,
    "ocr": 10470,
    "legra": 10791,
    "Ġrod": 9283,
    "embarrassed": 20667,
    "Ġtwig": 11854,
    "shop": 14240,
    "Ġaccumulated": 11935,
    "Ġchalk": 15937,
    "Ġdisease": 14260,
    "Ġsphere": 15883,
    "Ġepaulets": 24906,
    "Ġroyalty": 19739,
    "Ġmelt": 21320,
    "Ġconnection": 5479,
    "Ġfeast": 10280,
    "Ġhang": 9190,
    "dissatisf": 26130,
    "Ġcurrent": 13011,
    "Ġfragment": 14511,
    "Ġenjoined": 18192,
    "hamed": 6307,
    "Ġquiet": 3259,
    "Ġrings": 11705,
    "Ġphrenologist": 25608,
    "Ġsharp": 2415,
    "Ġlawy": 9457,
    "etition": 7382,
    "Ġwalking": 4321,
    "min": 4570,
    "edily": 17946,
    "showing": 22465,
    "Ġless": 1938,
    "scruple": 26046,
    "welcome": 10004,
    "Ġidle": 8253,
    "ciousness": 20819,
    "Ġobscurely": 20191,
    "Ġcrowd": 6338,
    "Ġadvertised": 17250,
    "Ġtug": 11553,
    "Ġpermitted": 9281,
    "Ġannesley": 19580,
    "Ġrefused": 6717,
    "Ġdevious": 22720,
    "proceeded": 25191,
    "Ġspitzbergen": 15291,
    "Ġcircumstance": 4986,
    "restrained": 16339,
    "Ġeaglet": 19306,
    "sil": 5283,
    "Ġdiving": 12606,
    "des": 3172,
    "Ġexquisite": 12386,
    "Ġsoldier": 16922,
    "aper": 4999,
    "Ġmead": 8839,
    "Ġdeposed": 16091,
    "osition": 1374,
    "irs": 14074,
    "Ġhabit": 6772,
    "Ġdownstairs": 11226,
    "moral": 14804,
    "mor": 4213,
    "Ġtendency": 11331,
    "wag": 21126,
    "Ġwithout": 1122,
    "emotions": 15799,
    "strate": 12678,
    "antique": 18288,
    "Ġflank": 8229,
    "Ġmag": 1428,
    "Ġprobabilities": 4965,
    "Ġharvard": 24574,
    "Ġendeavors": 16548,
    "Ġimbalanced": 18334,
    "guilt": 24072,
    "Ġwhipcord": 20098,
    "Ġdisaster": 12892,
    "Ġartificial": 797,
    "Ġconfounded": 16387,
    "ilations": 21725,
    "hend": 13257,
    "Ġdom": 2651,
    "oms": 4592,
    "Ġdispute": 16060,
    "Ġbermud": 26441,
    "Ġmoodily": 19837,
    "hil": 8379,
    "heim": 17748,
    "Ġwarsaw": 26168,
    "Ġsaxe": 13632,
    "Ġsufficiently": 8976,
    "Ġspilling": 22137,
    "Ġfurn": 3712,
    "Ġinwards": 15625,
    "Ġwedded": 15539,
    "Ġfrom": 435,
    "inople": 13832,
    "Ġmodels": 759,
    "ike": 5000,
    "itute": 9654,
    "Ġantagon": 19553,
    "bbles": 13695,
    "Ġmak": 10780,
    "reeling": 21247,
    "Ġcocoa": 25483,
    "therefore": 5955,
    "Ġmysterious": 7527,
    "effort": 19217,
    "Ġspace": 1497,
    "Ġforemost": 12009,
    "idity": 8835,
    "Ġshipping": 14107,
    "Ġlouis": 8357,
    "emy": 14076,
    "Ġinvest": 4977,
    "Ġshirr": 18232,
    "Ġfortun": 4981,
    "inridge": 11563,
    "Ġperuvian": 18454,
    "Ġcrust": 21354,
    "Ġisolation": 17153,
    "Ġspouter": 12802,
    "Ġentra": 18692,
    "Ġpush": 9186,
    "december": 25559,
    "Ġdetain": 14179,
    "themselves": 6542,
    "Ġambergris": 8709,
    "ative": 734,
    "Ġcrown": 5289,
    "Ġwalrus": 14976,
    "Ġinstruct": 2865,
    "Ġunacquainted": 12781,
    "Ġreplacing": 3451,
    "velled": 9879,
    "Ġstupidity": 15053,
    "project": 16428,
    "lant": 20949,
    "ouring": 6421,
    "Ġinvestigation": 9045,
    "Ġarea": 14189,
    "Ġretrieval": 10677,
    "Ġcigars": 12257,
    "Ġconfusion": 7273,
    "Ġdimmed": 24270,
    "Ġwoods": 5406,
    "@": 36,
    "Ġdeficient": 18826,
    "owal": 13996,
    "Ġfate": 4752,
    "Ġpaths": 2569,
    "Ġbitterest": 12406,
    "Ġgar": 10840,
    "soled": 14333,
    "Ġbrixton": 13667,
    "Ġ*/": 10376,
    "Ġlivel": 11357,
    "connections": 14431,
    "barbs": 20240,
    "Ġtakings": 20575,
    "Ġinevitably": 17233,
    "Ġsharper": 17182,
    "Ġdisc": 944,
    "fingers": 17373,
    "Ġbegin": 3101,
    "Ġalice": 1485,
    "T": 56,
    "Ġfiend": 4411,
    "bottle": 20148,
    "dued": 7909,
    "Ġhoary": 23357,
    "Ġvigour": 24462,
    "Ġfat": 3463,
    "getic": 12971,
    "Ġsob": 12793,
    "Ġmodular": 12821,
    "anelles": 26436,
    "peril": 18338,
    "Ġrich": 2994,
    "fallen": 19662,
    "Ġsafety": 6341,
    "Ġlounged": 19957,
    "Ġsavannah": 17419,
    "Ġcrutch": 23446,
    "Ġsell": 7825,
    "sharks": 14242,
    "Ġrepose": 6743,
    "Ġunbounded": 18260,
    "sleeves": 26110,
    "Ġmiriam": 25274,
    "Ġalman": 21785,
    "Ġcharm": 4546,
    "Ġsanct": 15065,
    "Ġsayest": 22777,
    "Ġodious": 12155,
    "correspond": 13402,
    "ribs": 23368,
    "Ġapprovingly": 26255,
    "Ġreality": 7059,
    "Ġbuilded": 24718,
    "assemblies": 25957,
    "Ġtatters": 21180,
    "rugged": 6849,
    "lin": 9606,
    "imp": 3034,
    "more": 1033,
    "since": 5896,
    "ppered": 15795,
    "Ġdiscover": 4716,
    "Ġgrimesby": 11459,
    "Ġcaulk": 25441,
    "ety": 3522,
    "inst": 4292,
    "gre": 5788,
    "deemed": 18316,
    "Ġmissionary": 25697,
    "shortened": 24747,
    "Ġrob": 1291,
    "hearty": 14837,
    "Ġactiv": 835,
    "Ġcreated": 2711,
    "voc": 8394,
    "Ġm": 274,
    "asible": 21545,
    "assist": 11772,
    "Ġaxe": 15064,
    "Ġsentry": 19027,
    "tossing": 18581,
    "Ġloaded": 8493,
    "Ġcrack": 7710,
    "Ġolfactories": 26172,
    "aye": 3662,
    "Ġ101": 24409,
    "Ġinfluence": 5515,
    "Ġbeget": 9228,
    "known": 3570,
    "Ġmouthful": 16577,
    "Ġsolemnity": 9944,
    "Ġsinging": 7724,
    "Ġrogue": 22409,
    "Ġattraction": 18621,
    "Ġfive": 2838,
    "Ġlegend": 14576,
    "brad": 20782,
    "lan": 15381,
    "Ġwishing": 7830,
    "lashed": 20956,
    "Ġsuggest": 5417,
    "tomahawk": 25916,
    "Ġsheet": 6264,
    "establish": 17396,
    "verest": 13994,
    "Ġenvied": 19312,
    "Ġmorass": 22979,
    "Ġmyth": 18221,
    "allingly": 22203,
    "almost": 4942,
    "ome": 535,
    "Ġtattoo": 7359,
    "gans": 11492,
    "Ġstingy": 25456,
    "Ġexpectantly": 23526,
    "Ġexper": 1252,
    "parlour": 16394,
    "Ġtheme": 16022,
    "brit": 19199,
    "Ġreneg": 21678,
    "representation": 20199,
    "aning": 2256,
    "Ġhers": 7889,
    "Ġvex": 5950,
    "Ġbestowing": 16973,
    "lone": 11502,
    "quickness": 19853,
    "Ġdonkey": 23230,
    "Ġslanting": 23175,
    "Ġimpat": 4455,
    "Ġcoloss": 11047,
    "dum": 17520,
    "Ġcaliforn": 14434,
    "Ġmainly": 22650,
    "Ġpreface": 18368,
    "Ġexact": 2541,
    "Ġvery": 636,
    "handed": 7482,
    "Ġdisown": 22528,
    "Ġfoolishly": 19785,
    "Ġparticularly": 5056,
    "Ġhill": 5626,
    "Ġpoland": 23619,
    "Ġoutlast": 22317,
    "Ġwiping": 25766,
    "bermaid": 20792,
    "Ġwhitewashed": 14472,
    "Ġfifth": 11259,
    "independent": 26022,
    "Ġthus": 2037,
    "Ġimm": 3965,
    "Ġpassionately": 16766,
    "Ġconcent": 8250,
    "Ġarabic": 24981,
    "Ġnind": 17952,
    "ipping": 2209,
    "Ġchasing": 11758,
    "Ġuncle": 3192,
    "felicity": 25143,
    "Ġcigar": 9548,
    "Ġ180": 16608,
    "endless": 22230,
    "intellig": 5321,
    "Ġyield": 5093,
    "Ġvowed": 14087,
    "unfortunate": 15781,
    "Ġxxxvi": 24972,
    "Ġinte": 2065,
    "Ġunconcerned": 20513,
    "Ġhartshorn": 26182,
    "awk": 23117,
    "onze": 21258,
    "Ġtore": 6532,
    "Ġhasten": 10480,
    "Ġgid": 13965,
    "fastened": 19327,
    "tr": 3581,
    "began": 6427,
    "ments": 1400,
    "Ġawhile": 13833,
    "wretched": 10743,
    "Ġglittering": 10056,
    "Ġadmit": 7711,
    "enthus": 17980,
    "daylight": 19057,
    "Ġigniting": 25073,
    "Ġsauc": 15892,
    "ll": 1141,
    "Ġoccupied": 5273,
    "Ġactivation": 919,
    "ieth": 10706,
    "Ġpips": 9851,
    "owing": 7602,
    "Ġmerest": 14032,
    "Ġfortresses": 23623,
    "gno": 13730,
    "Ġvineyarder": 25607,
    "seam": 10876,
    "Ġvanity": 7047,
    "Ġactionable": 24560,
    "Ġenglishmen": 19433,
    "Ġenumer": 12750,
    "Ġclad": 12844,
    "Ġdouble": 4939,
    "arious": 10319,
    "turns": 14909,
    "Ġringle": 18213,
    "igating": 21703,
    "Ġbene": 2033,
    "Ġcivil": 4677,
    "Ġsmokes": 22563,
    "onstrate": 17770,
    "Ġbour": 4876,
    "fair": 10095,
    "Ġobject": 1394,
    "acetti": 13400,
    "iction": 4266,
    "ination": 2913,
    "Ġbaffled": 12407,
    "Ġhorrible": 4905,
    "nameless": 19905,
    "propagation": 1253,
    "Ġseat": 4948,
    "Ġsec": 2075,
    "Ġcloser": 8663,
    "Ġdeafened": 25652,
    "comfort": 5647,
    "Ġhuman": 1317,
    "Ġunerring": 15851,
    "Ġlapse": 17123,
    "Ġresignation": 18567,
    "english": 2778,
    "Ġmour": 6974,
    "chambers": 25455,
    "Ġdong": 17889,
    "bub": 15320,
    "Ġorchard": 22098,
    "Ġbrain": 2087,
    "Ġmanagement": 8193,
    "Ġgripping": 26188,
    "Ġconfinement": 19043,
    "Ġsolely": 9913,
    "Ġaudio": 24771,
    "Ġair": 1836,
    "ratulations": 20129,
    "cy": 640,
    "kerchief": 7525,
    "Ġsimon": 5172,
    "Ġenterprise": 8645,
    "forbearance": 22783,
    "Ġlivid": 14992,
    "topic": 10530,
    "Ġringed": 16752,
    "Ġinns": 17932,
    "Ġmood": 6278,
    "ened": 1387,
    "Ġapproxim": 1221,
    "shutters": 20316,
    "straw": 24097,
    "Ġcakes": 13887,
    "Ġbench": 7238,
    "Ġultimately": 17167,
    "Ġnervous": 2404,
    "fleece": 19951,
    "Ġrigger": 19533,
    "Ġfug": 12600,
    "hailed": 17567,
    "Ġconsecutive": 20705,
    "Ġgrain": 15835,
    "renched": 7907,
    "irene": 15918,
    "better": 7121,
    "rity": 13779,
    "Ġvoyager": 16514,
    "Ġhelping": 3266,
    "Ġtattooings": 24901,
    "Ġruined": 12960,
    "Ġsickening": 19607,
    "Ġoverhung": 15978,
    "Ġforty": 5719,
    "Ġawaited": 17075,
    "Ġenorm": 5304,
    "Ġwidow": 8666,
    "Ġfound": 1246,
    "toss": 22570,
    "ezing": 10576,
    "Ġ221": 25071,
    "Ġdishonor": 25602,
    "Ġ": 225,
    "k": 79,
    "Ġproble": 1108,
    "usages": 22284,
    "Ġindign": 6175,
    "Ġboil": 16108,
    "Ġexclam": 6759,
    "yden": 21146,
    "Ġwinc": 9645,
    "Ġrat": 4350,
    "honorable": 19903,
    "Ġvehic": 8936,
    "ugues": 19024,
    "games": 20882,
    "Ġand": 295,
    "immed": 9220,
    "asleep": 21547,
    "embraces": 25804,
    "eleg": 20851,
    "als": 2042,
    "Ġdeserts": 10510,
    "Ġforecastle": 5495,
    "kindly": 14747,
    "Ġought": 3422,
    "Ġsounds": 5190,
    "Åĵuvre": 25888,
    "street": 6496,
    "oman": 2017,
    "Ġsubsequently": 16165,
    "Ġpretty": 3863,
    "Ġfellows": 8257,
    "ines": 671,
    "Ġpermit": 9752,
    "Ġrestore": 9383,
    "Ġcal": 1326,
    "owner": 18611,
    "doctor": 19097,
    "Ġcanada": 22170,
    "Ġvaguely": 17369,
    "ĠĠĠĠĠĠĠĠĠĠĠĠĠĠĠĠĠĠĠĠĠĠĠĠĠĠĠĠĠĠĠĠĠĠĠĠĠĠĠĠ": 4515,
    "Ġcoward": 7156,
    "Ġdispersed": 16599,
    "Ġbloodshed": 23802,
    "quadrille": 20598,
    "venant": 22630,
    "Ġstraining": 11329,
    "Ġsatir": 18795,
    "Ġsloping": 11943,
    "Ġasserted": 16951,
    "Ġshallow": 14397,
    "fetch": 12469,
    "ark": 851,
    "nin": 17610,
    "Ġevidently": 6760,
    "Ġcitadel": 25439,
    "Ġrelieve": 8224,
    "Ġnice": 6678,
    "squee": 15433,
    "Ġchat": 6562,
    "ard": 465,
    "Ġusual": 3944,
    "stretching": 20502,
    "arat": 9183,
    "deser": 10481,
    "Ġjewel": 9945,
    "protest": 24812,
    "silent": 9977,
    "Ġmcc": 21309,
    "Ġturned": 2132,
    "Ġdetained": 18378,
    "Ġmean": 742,
    "wreck": 21139,
    "lucifer": 25302,
    "Ġspain": 15881,
    "istrate": 7406,
    "Ġdeactivates": 20706,
    "Ġlasting": 18792,
    "pushed": 21025,
    "esley": 17922,
    "Ġtrifling": 10605,
    "were": 2557,
    "Ġante": 17898,
    "Ġcourtship": 24137,
    "Ġbelf": 21384,
    "Ġforegoing": 23450,
    "Ġplay": 2627,
    "Ġ-": 1944,
    "conditionally": 24835,
    "Ġcarpent": 4464,
    "jumped": 20249,
    "dition": 15342,
    "Ġdeformity": 11679,
    "Ġhogshead": 26369,
    "Ġresented": 22547,
    "Ġprinc": 4198,
    "Ġgam": 11627,
    "what": 642,
    "Ġshifted": 14110,
    "impropriety": 21716,
    "Ġsh": 419,
    "Ġvir": 7002,
    "Ġloathsome": 13531,
    "Ġhighness": 22775,
    "itated": 4439,
    "Ġabated": 18391,
    "experienced": 15125,
    "vicious": 21121,
    "brew": 11475,
    "Ġapp": 498,
    "daw": 17524,
    "Ġchronic": 9932,
    "enorm": 17783,
    "Ġfought": 12598,
    "ensibility": 22551,
    "Ġporch": 19683,
    "back": 2016,
    "Ġsophisticated": 1644,
    "remediable": 26296,
    "Ġwearer": 21927,
    "ged": 1515,
    "personal": 24966,
    "Ġagonized": 25373,
    "Ġannihilated": 20255,
    "Ġmem": 2164,
    "constantinople": 25508,
    "sweetly": 25137,
    "Ġrescue": 13347,
    "oury": 22308,
    "Ġ71": 24262,
    "Ġ120": 16860,
    "century": 20050,
    "Ç": 136,
    "lev": 1236,
    "widows": 25345,
    "Ġprojects": 9514,
    "Ġsusp": 2666,
    "rollable": 13948,
    "instead": 14815,
    "design": 19343,
    "Ġtrust": 4079,
    "Ġfanc": 6745,
    "Ġmicroscopic": 26375,
    "Ġwonders": 7500,
    "io": 3804,
    "princ": 8624,
    "ientific": 6549,
    "Ġcornelius": 13577,
    "ont": 2623,
    "Ġdeterm": 1270,
    "Ġpositional": 2600,
    "forming": 15922,
    "Ġgroans": 14827,
    "Ġmajor": 13296,
    "Ġattic": 16099,
    "Ġaddressing": 11166,
    "Ġintegrated": 13534,
    "ask": 857,
    "pp": 384,
    "iably": 13741,
    "ersed": 10260,
    "Ġchanged": 5243,
    "Ġapologize": 15132,
    "concerted": 16674,
    "Ġelect": 10844,
    "Ġlow": 1648,
    "ters": 1571,
    "Ġblessed": 6931,
    "Ġevian": 24294,
    "uded": 6288,
    "Ġinsist": 9893,
    "Ġprepar": 7897,
    "Ġmanaging": 22330,
    "Ġdiagon": 24739,
    "Ġannihilation": 15169,
    "ffy": 18317,
    "Ġwithheld": 18117,
    "Ġparametric": 2394,
    "Ġgathered": 8444,
    "Ġextremity": 8991,
    "begin": 8887,
    "Ġunceasing": 20361,
    "negro": 18490,
    "Ġeach": 891,
    "Ġstrong": 1789,
    "Ġfundament": 2926,
    "Ġlabrador": 23334,
    "Ġchoke": 22253,
    "Ġhurling": 19112,
    "Ġchagrin": 20610,
    "entric": 11622,
    "Ġyet": 1029,
    "Ġwholly": 4446,
    "nett": 16224,
    "Ġconv": 2969,
    "etency": 21585,
    "Ġcanaller": 25468,
    "leaves": 12583,
    "mysteries": 26051,
    "icism": 13959,
    "acks": 11792,
    "Ġrepresentations": 1875,
    "ifle": 10893,
    "Ġdepths": 4323,
    "driver": 14924,
    "Ġpredestinated": 18516,
    "qualified": 17098,
    "Ġblurred": 22934,
    "igning": 12686,
    "bound": 6222,
    "Ġattitudes": 16100,
    "Ġcook": 3714,
    "ounder": 11748,
    "indignation": 18439,
    "ility": 624,
    "Ġdeliber": 7268,
    "cords": 25139,
    "Ġmonosyllable": 20728,
    "worse": 14693,
    "Ġcobbler": 25831,
    "Ġcordial": 16837,
    "cham": 10855,
    "vely": 3868,
    "Ġeverybody": 4509,
    "Ġformations": 18750,
    "Ġabsence": 4894,
    "reck": 9639,
    "Ġparticip": 16135,
    "Ġbulwarks": 5592,
    "Ġexploration": 2335,
    "Ġgretna": 26470,
    "ibilities": 13017,
    "Ġprovide": 7750,
    "Ġgrin": 5482,
    "Ġdominion": 16517,
    "Ġmelancholy": 5606,
    "Ġjet": 5309,
    "Ġpreliminaries": 25177,
    "Ġdrows": 21438,
    "Ġmetropolis": 17277,
    "prophet": 16185,
    "Ġoccurred": 4461,
    "Ġhospital": 15042,
    "urring": 21708,
    "Ġstables": 23659,
    "Ġ84": 19712,
    "Ġxiii": 25592,
    "desc": 1393,
    "Ġstrangely": 5677,
    "Ġforenoon": 19127,
    "Ġdazzling": 15215,
    "storm": 9684,
    "Ġhedge": 8364,
    "Ġcompassionate": 24722,
    "inating": 9156,
    "Ġconsisted": 10421,
    "Ġgin": 13964,
    "Ġsurp": 9637,
    "Ġjustified": 11909,
    "Ġcalcul": 3639,
    "istic": 1005,
    "roads": 17960,
    "Ġrepublic": 14533,
    "Ġsurface": 5119,
    "Ġrisk": 8039,
    "owards": 4593,
    "ribed": 7693,
    "Ġsow": 17751,
    "ists": 3999,
    "Ġsallow": 12541,
    "elevating": 20409,
    "Ġsweat": 13144,
    "gh": 3803,
    "Ġholds": 7976,
    "Ġrevolutionized": 3368,
    "Ġguest": 7249,
    "Ġexcluded": 16388,
    "Ġbrahma": 26321,
    "Ġprobably": 4311,
    "axen": 22525,
    "quaker": 15766,
    "Ġexponentially": 1442,
    "Ġstarry": 16925,
    "bohemia": 20733,
    "Ġmajestic": 8643,
    "Ġmer": 2929,
    "ü": 189,
    "Ġlionel": 25287,
    "Ġlocked": 6036,
    "seen": 2882,
    "Ġaccompaniments": 24482,
    "Ġknight": 9730,
    "infall": 21191,
    "inspect": 11561,
    "Ġstung": 21745,
    "Ġindependently": 4244,
    "electricity": 26387,
    "bs": 3777,
    "Ġrepe": 3279,
    "Ġearthy": 23714,
    "Ġconcluded": 5658,
    "Ġyou": 366,
    "Ġcombine": 4415,
    "Ġdefault": 3040,
    "Ġembal": 11904,
    "apolog": 22337,
    "Ġmiscellaneous": 17465,
    "Ġuplifted": 11650,
    "Ġhurrying": 11999,
    "Ġthreatened": 8330,
    "Ġsab": 10764,
    "âĢĻ-": 18169,
    "Ġretreats": 16930,
    "algorithms": 8293,
    "judgment": 16755,
    "Ġpress": 5933,
    "Ġchannels": 26014,
    "Ġfil": 3475,
    "Ġplacing": 8904,
    "Ġabundantly": 17159,
    "Ġpittance": 15621,
    "imodal": 17450,
    "Ġlaudanum": 20693,
    "rubbed": 22190,
    "shorn": 22461,
    "Ġremonstrate": 22798,
    "Ġunimpe": 22074,
    "Ġburgl": 13177,
    "Ġpalmed": 24092,
    "host": 5869,
    "Ġlingered": 13508,
    "Ġpanted": 21474,
    "Ġimpatiently": 8338,
    "ball": 7793,
    "Ġunusually": 15850,
    "Ġexponential": 1056,
    "o": 83,
    "Ġnocturnal": 20717,
    "Ġhaving": 1880,
    "Ġheroes": 10579,
    "narrow": 11510,
    "Ġvalu": 5039,
    "commotion": 24914,
    "wer": 8396,
    "Ġhorner": 8961,
    "Ġclim": 8195,
    "regularly": 13212,
    "mency": 18928,
    "Ġentreaty": 10532,
    "cellar": 20280,
    "naturalists": 23555,
    "astic": 1868,
    "Ġmat": 1147,
    "faith": 15027,
    "Ġintruding": 21995,
    "ushes": 22285,
    "Ġmodesty": 12822,
    "relieved": 13280,
    "Ġgeneva": 5450,
    "Ġtraffic": 23086,
    "Ĝ": 221,
    "otion": 4945,
    "Ġrecept": 1525,
    "weaknesses": 26031,
    "impressions": 20701,
    "Ġgrowled": 19285,
    "fering": 17544,
    "cely": 3576,
    "Ġernest": 8720,
    "regarding": 15075,
    "Ġdesolation": 12273,
    "Ġspecimens": 18861,
    "oned": 4629,
    "leisure": 21374,
    "Ġwhales": 1829,
    "tery": 14040,
    "Ġpallet": 21483,
    "impud": 23762,
    "Ġlink": 8130,
    "initions": 21190,
    "meantime": 9095,
    "Ġlot": 6680,
    "tart": 21070,
    "antic": 1600,
    "Ġnon": 1621,
    "appo": 3916,
    "Ġeducated": 16787,
    "Ġsmart": 11819,
    "Ġcleared": 6076,
    "hidden": 17374,
    "Ġinflict": 15003,
    "Ġorphan": 12387,
    "content": 11199,
    "Ġbakers": 17868,
    "Ġchicha": 15940,
    "Ġchatting": 24746,
    "Ġcharmingly": 24224,
    "Ġspecies": 5112,
    "Ġhonors": 23603,
    "Ġding": 12604,
    "obey": 11512,
    "Ġgoing": 2066,
    "Ġmethodically": 23138,
    "say": 3983,
    "Ġimprudence": 10300,
    "instinct": 19546,
    "Ġjove": 9271,
    "Ġ104": 24412,
    "Ġlav": 13953,
    "Ġrhine": 12360,
    "Ġinterruption": 9476,
    "Ġblackness": 9396,
    "Ġtyphoon": 12393,
    "Ġchaldee": 26236,
    "designated": 26320,
    "Ġurgent": 16871,
    "Ġhilarious": 20301,
    "Ġmus": 3397,
    "Ġropes": 10750,
    "love": 9297,
    "Ġreverend": 15263,
    "Ġunjustifiable": 25112,
    "Ġicelandic": 25887,
    "Ġperfections": 23610,
    "Ġbelief": 5857,
    "Ġyawned": 15054,
    "Ġinvisibly": 24814,
    "Ġsperma": 19052,
    "Ġsolace": 16203,
    "Ġfoam": 6891,
    "Ġassumptions": 5517,
    "float": 19808,
    "Ġslighter": 18942,
    "ernal": 4309,
    "discredit": 24253,
    "itically": 21333,
    "urements": 18126,
    "Ġhighest": 3530,
    "remes": 21240,
    "Ġinclinations": 19542,
    "Ġut": 2279,
    "Ġpolitical": 19226,
    "Ġdeterminate": 23008,
    "Ġaffectation": 14443,
    "city": 15330,
    "Ġsnowy": 9021,
    "Ġdeplored": 20508,
    "rushing": 10021,
    "Ġacute": 16127,
    "measured": 19993,
    "Ġprogramming": 1184,
    "Ġfaltering": 17886,
    "Ġciv": 3306,
    "Ġphilosophers": 10554,
    "brother": 7093,
    "Ġpitch": 5767,
    "Ġscepticism": 25928,
    "stochastic": 3775,
    "takes": 21079,
    "Ġcare": 1637,
    "sailing": 14717,
    "Ġbeautiful": 3674,
    "Ġwrapped": 8342,
    "Ġstrugg": 3216,
    "pire": 9138,
    "Ġobstinate": 11338,
    "Ġuninjured": 22058,
    "Ġspile": 22127,
    "holmes": 4430,
    "Ġshould": 863,
    "Ġcorners": 18876,
    "Ġphyset": 23203,
    "Ġreserved": 7515,
    "Ġwatches": 11083,
    "positive": 20570,
    "Ġdisput": 14258,
    "Ġlimited": 23546,
    "ouri": 21450,
    "dling": 15343,
    "ivory": 10272,
    "Ġbeams": 14633,
    "Ġgilder": 21616,
    "Ġconvergence": 972,
    "Ġrattling": 11397,
    "atiously": 15525,
    "disgust": 23498,
    "Ġsubjects": 7074,
    "Ġbat": 10797,
    "swinging": 25913,
    "vert": 15719,
    "Ġdarted": 4756,
    "commun": 15036,
    "Ġdepartment": 24244,
    "Ġinquis": 19305,
    "Ġguns": 16778,
    "puted": 8850,
    "izon": 18135,
    "uously": 7353,
    "rary": 4574,
    "credit": 12453,
    "hunter": 10558,
    "Ġdisciple": 22786,
    "fic": 20854,
    "answer": 11736,
    "Ġmessages": 24984,
    "party": 8995,
    "Ġpaling": 21464,
    "venge": 4657,
    "Ġacutely": 14317,
    "rally": 17653,
    "Ġvehicle": 20141,
    ".--": 20748,
    "between": 5071,
    "Ġern": 8397,
    "dilig": 17285,
    "Ġvenom": 24241,
    "sequent": 6831,
    "Ġsuitable": 18280,
    "Ġdeparture": 6491,
    "Ġpaints": 23525,
    "charles": 14702,
    "Ġpeas": 8536,
    "Ġcompensated": 17404,
    "iac": 6227,
    "dropout": 3196,
    "tumbled": 21093,
    "Ġshow": 3404,
    "are": 638,
    "Ġlye": 21554,
    "Ġdiscomposed": 25581,
    "Ġdavy": 25952,
    "snowy": 20286,
    "Ġgentlemanlike": 12071,
    "Ġbarbarous": 13480,
    "itate": 6670,
    "Ġinvari": 6530,
    "izure": 21837,
    "Ġhooped": 23358,
    "Ġremembering": 14612,
    "Ġsuspicion": 6213,
    "Ġchained": 16391,
    "Ġelix": 22646,
    "Ġlives": 4825,
    "Ġspringing": 10521,
    "suspended": 15181,
    "Ġearn": 3548,
    "oper": 7347,
    "Ġfire": 2332,
    "Ġdusty": 14928,
    "Ġclasped": 17209,
    "Ġplanted": 9777,
    "Ġly": 2270,
    "solution": 14688,
    "Ġintending": 11709,
    "part": 2573,
    "ur": 326,
    "Ġblan": 18818,
    "dread": 8732,
    "Ġax": 7822,
    "minutes": 7512,
    "Ġty": 6660,
    "ogue": 9788,
    "scorn": 22995,
    "Ġmurderers": 16813,
    "Ġcompassion": 6488,
    "alive": 10829,
    "estinated": 15925,
    "tra": 5002,
    "Ġvoy": 2621,
    "Ġdazz": 11597,
    "Ġwriggling": 15261,
    "Ġscaling": 3634,
    "Ġharmless": 9968,
    "Ġinsensibility": 17111,
    "Ġwarriors": 19726,
    "Ġhaunts": 18199,
    "amore": 21860,
    "atig": 13848,
    "Ġidentify": 12018,
    "impl": 21710,
    "Ġbott": 3149,
    "derstand": 637,
    "¥": 103,
    "Ġmult": 1023,
    "sprang": 19994,
    "early": 20122,
    "Ġlard": 13950,
    "heard": 5009,
    "Ġleast": 2064,
    "Ġliving": 3065,
    "Ġominous": 12428,
    "getting": 12972,
    "suffered": 24330,
    "tawn": 21083,
    "Ġfishers": 19357,
    "Ġrestrictions": 20638,
    "Ġcover": 3559,
    "inated": 6805,
    "ĠĠĠĠĠĠĠĠĠĠĠĠĠĠĠĠĠĠĠĠĠĠĠĠĠĠĠĠĠĠĠĠĠĠĠĠĠ": 14617,
    "utes": 5915,
    "Ġschedu": 1825,
    "slo": 17658,
    "aan": 20766,
    "Ġhush": 13215,
    "Ġcommunicative": 24548,
    "ryphon": 4161,
    "Ġmira": 8408,
    "aths": 22702,
    "obviously": 25243,
    "Ġavalanche": 17436,
    "discernible": 20553,
    "Ġdesolate": 10016,
    "gences": 20879,
    "Ġthoughtlessness": 16197,
    "Ġado": 7627,
    "Ġsoutherly": 23338,
    "Ġcolt": 11045,
    "philosophers": 25253,
    "apes": 9744,
    "Ġavowed": 16636,
    "Ġfrightened": 5342,
    "gins": 12473,
    "Ġconsists": 11982,
    "Ġtoast": 21515,
    "ets": 1163,
    "Ġbegrim": 23019,
    "Ġgarden": 3828,
    "onstr": 12551,
    "Ġsystematically": 3556,
    "lanter": 15391,
    "ethe": 9679,
    "Ġneeded": 7718,
    "Ġcritical": 7474,
    "Ġsense": 3248,
    "Ġdisco": 3431,
    "circumstances": 8047,
    "Ġuncivil": 11157,
    "Ġrazor": 22658,
    "Ġste": 1388,
    "Ġsufficient": 2002,
    "rank": 21044,
    "Ġdomestic": 6910,
    "Ġstained": 11655,
    "usoid": 4765,
    "Ġlaborious": 13108,
    "Ġrefreshment": 17242,
    "Ġhead": 1126,
    "Ġodorous": 19569,
    "Ġconnivance": 25226,
    "springing": 24890,
    "Ġallegor": 25546,
    "Ġmenacing": 23111,
    "Ġsullen": 9160,
    "Ġdesc": 775,
    "Ġindolence": 16233,
    "onsensical": 18577,
    "Ġadversary": 12178,
    "Ġmeditations": 25016,
    "Ġweeping": 11690,
    "Ġkne": 4264,
    "Ġcontrol": 13084,
    "ery": 1269,
    "Ġgive": 1712,
    "Ġkilled": 4954,
    "recur": 4436,
    "Ġcoll": 8221,
    "methodically": 20666,
    "Ġmotives": 7486,
    "Ġdexterity": 25295,
    "Ġnobly": 22245,
    "Ġtravellers": 11310,
    "Ġtribute": 15478,
    "pin": 13770,
    "Ġcord": 5222,
    "Ġtongues": 14866,
    "b": 70,
    "Ġdog": 4191,
    "Ġmis": 917,
    "hroom": 12481,
    "rubbery": 17345,
    "Ġfaintly": 14918,
    "Ġorlop": 22097,
    "nals": 16403,
    "Ġdie": 3962,
    "rs": 7807,
    "Ġunre": 3480,
    "Ġjoes": 19233,
    "scand": 18858,
    "speckled": 23948,
    "Ġsite": 17755,
    "ole": 9616,
    "Ġunusual": 6555,
    "reckoning": 25271,
    "Ġcanall": 10930,
    "Ġdeacon": 18146,
    "moored": 22707,
    "Ġthemselves": 3249,
    "Ġeyed": 12672,
    "chers": 11319,
    "¼": 125,
    "Ġpoor": 1709,
    "Ġenderby": 13655,
    "cherries": 19759,
    "rendering": 22344,
    "buckets": 26124,
    "except": 5383,
    "Ġcomfor": 14055,
    "Ġepicures": 25880,
    "Ġfireboard": 23533,
    "Ġpersuas": 23950,
    "Ġderived": 8239,
    "Ġasking": 5651,
    "Ġdecomposition": 5343,
    "Ġcarved": 7947,
    "ordered": 8794,
    "phr": 18716,
    "Ġstretch": 6994,
    "Ġfright": 3799,
    "sledge": 21060,
    "ribute": 7225,
    "Ġapothe": 12379,
    "Ġcreditor": 24292,
    "Ġroughs": 19960,
    "ases": 1524,
    "Ġportly": 14680,
    "Ġnot": 413,
    "Ġcurt": 18840,
    "shunned": 22469,
    "Ġillustrate": 25068,
    "Ġoscill": 2858,
    "Ġinvitation": 5188,
    "Ġneighb": 14079,
    "Ġmystical": 12137,
    "Ġploughed": 22608,
    "Ġnewfound": 22935,
    "Ġunlucky": 10053,
    "Ġconfines": 23310,
    "Ġshouts": 19540,
    "Ġbased": 3338,
    "Ġbehoo": 19037,
    "Ġgret": 21604,
    "Ġsuffice": 18871,
    "Ġetern": 7087,
    "lay": 5892,
    "Ġspasmod": 12418,
    "Ġ109": 24416,
    "Ġcease": 7078,
    "octavo": 11387,
    "Ġrachel": 11851,
    "_": 67,
    "Ġaffairs": 6877,
    "Ġfanciful": 24787,
    "Ġmonoton": 3638,
    "condesc": 18504,
    "qualities": 25045,
    "prince": 23817,
    "Ġwight": 12558,
    "Ġchains": 8251,
    "precise": 19354,
    "Ġimplies": 24874,
    "true": 2587,
    "stead": 10848,
    "Ġpicking": 11261,
    "Ġfaith": 5351,
    "muring": 17603,
    "Ġpron": 6452,
    "Ġextend": 18696,
    "Ġouter": 6859,
    "Ġsubstances": 24167,
    "Ġcaul": 10789,
    "lead": 10168,
    "Ġprince": 18972,
    "Ġcargo": 16293,
    "final": 19679,
    "bird": 9588,
    "Ġplant": 8903,
    "bun": 12442,
    "Ġformerly": 7493,
    "Ġcannibals": 10590,
    "Ġvideos": 13610,
    "Ġsnaky": 23744,
    "gor": 544,
    "Ġinsights": 13183,
    "ator": 1922,
    "Ġgazing": 5877,
    "Ü": 157,
    "conqu": 14247,
    "Ġtransformed": 22616,
    "natural": 2399,
    "Ġeligible": 10673,
    "Ġdict": 9178,
    "Ġconfused": 7964,
    "Ġirritated": 17244,
    "arrangement": 17418,
    "compl": 6873,
    "copy": 5133,
    "isome": 17850,
    "wishing": 21131,
    "Ġuntidy": 23524,
    "actory": 8911,
    "Ġhearse": 10422,
    "allers": 22201,
    "Ġcracked": 8597,
    "Ġslumbering": 25702,
    "orum": 12595,
    "Ġimproved": 7657,
    "Ġcomprehen": 5350,
    "Ġmagnitudes": 3825,
    "Ġfashion": 4295,
    "white": 4601,
    "folding": 24928,
    "unity": 4151,
    "swell": 17665,
    "Ġpriest": 7526,
    "nearly": 8684,
    "Ġhurt": 7701,
    "Ġdoorway": 14499,
    "Ġveteran": 17453,
    "Ġfl": 1280,
    "Ġri": 3395,
    "Ġsnar": 13202,
    "Ġadvantage": 4313,
    "Ġquestioning": 10466,
    "Ġsearch": 2593,
    "ult": 722,
    "Ġsanity": 24982,
    "Ġparading": 23712,
    ":--âĢľ": 24550,
    "orm": 425,
    "Ġdiscl": 9800,
    "has": 4013,
    "Ġgerm": 13967,
    "yth": 979,
    "Ġdriver": 16476,
    "aken": 1869,
    "Ġ115": 24439,
    "Ġglorious": 11077,
    "Ġhugh": 15006,
    "Ġcorrespond": 6211,
    "meditation": 19073,
    "Ġforc": 9230,
    "Ġriot": 14690,
    "god": 4862,
    "ital": 4816,
    "Ġexceptional": 19374,
    "backward": 2685,
    "Ġsensational": 16395,
    "Ġsequence": 1976,
    "new": 1465,
    "Ġlikeness": 11181,
    "inging": 5908,
    "Ġresponsiveness": 2898,
    "Ġdevilish": 11230,
    "Ġforlorn": 14018,
    "ded": 2761,
    "Ġdair": 17891,
    "Ġdeline": 16336,
    "Ġforgo": 21777,
    "Ġrecumbent": 22739,
    "Ġneglected": 10380,
    "Ġascribe": 16784,
    "Ġdestroy": 5772,
    "Ġbristling": 20530,
    "Ġstowed": 21743,
    "Ġhurled": 10431,
    "Ġinfatuated": 20537,
    "yn": 7819,
    "ission": 6458,
    "Ġlabeled": 3720,
    "Ġjealousy": 13580,
    "Ġninetieth": 25358,
    "cottage": 9572,
    "deed": 1521,
    "Ġmonths": 3457,
    "İ": 241,
    "riminately": 16485,
    "Ġlatterly": 24084,
    "spirits": 8055,
    "Ġindu": 5295,
    "Ġpromptly": 23820,
    "Ġskeletons": 16793,
    "acet": 5476,
    "Ġtragedy": 10670,
    "Ġack": 5622,
    "ugging": 23293,
    "insult": 16283,
    "Ġhoky": 17929,
    "Ġsepulch": 15288,
    "ralian": 19603,
    "Ġdiversion": 17200,
    "Ġrevisit": 21673,
    "national": 21000,
    "Ġwad": 13854,
    "Ġsquares": 11171,
    "cases": 12452,
    "Ġcabaco": 13171,
    "cul": 1900,
    "pper": 3209,
    "Ġasiatics": 20434,
    "Ġlashed": 9201,
    "Ġdone": 1819,
    "belief": 13286,
    "Ġutterance": 14766,
    "Ġwallet": 21301,
    "like": 1885,
    "ork": 416,
    "Ġgregarious": 18965,
    "Ġfatally": 19397,
    "Ġdisk": 22526,
    "Ġgoat": 16010,
    "floor": 14939,
    "detained": 24382,
    "Ġsires": 21229,
    "chess": 16576,
    "Ġmerited": 23733,
    "Ġderick": 9367,
    "Ġgreater": 3038,
    "Ġdraws": 19439,
    "breeding": 16677,
    "iii": 14779,
    "Ġassiduous": 26294,
    "eer": 15351,
    "Ġexceptions": 13234,
    "Ġunrel": 14698,
    "Ġpause": 5707,
    "ithing": 11652,
    "Ġsteelkilt": 5675,
    "Ġtreatise": 19348,
    "unwilling": 14064,
    "Ġwitness": 4620,
    "Ġarrest": 7409,
    "Ġeighteen": 11241,
    "punctual": 26357,
    ".": 18,
    "provid": 11151,
    "cr": 4012,
    "Ġreasons": 6021,
    "Ġcomplexion": 8210,
    "grim": 19108,
    "ident": 3380,
    "por": 2149,
    "Ġgrasped": 8034,
    "Ġclap": 10958,
    "Ġascertaining": 17206,
    "Ġdomineer": 23646,
    "oftentimes": 19424,
    "icts": 22405,
    "riptions": 14797,
    "Ġmid": 2617,
    "Ġinsupportable": 13935,
    "Ġtour": 9150,
    "Ġimproves": 22757,
    "Ġburns": 16525,
    "mountain": 10715,
    "Ġresided": 11815,
    "ctive": 11626,
    "Ġreceive": 4702,
    "remind": 23191,
    "Ġprior": 11320,
    "Ġcholera": 22257,
    "Ġunceasingly": 20362,
    "Ġscruples": 15082,
    "Ġunintermitted": 26221,
    "Ġ1807": 26084,
    "Ġvon": 14084,
    "vii": 13152,
    "Ġdies": 11596,
    "ashions": 16421,
    "Ġcandles": 9911,
    "Ġmeasuring": 22885,
    "raised": 15683,
    "sooner": 14780,
    "Ġugliness": 20430,
    "Ġcoast": 4654,
    "Ġfools": 14484,
    "Ġkeenest": 12166,
    "Ġmingled": 12381,
    "listen": 13517,
    "Ġjustly": 11908,
    "cursed": 23846,
    "Ġsteed": 13046,
    "Ġhailed": 6408,
    "Ġforked": 11667,
    "Ġcomposure": 7217,
    "length": 7136,
    "Ġrambles": 17187,
    "Ġpunish": 12164,
    "Ġobliterated": 17408,
    "Ġscaffold": 18402,
    "fifth": 20149,
    "Ġsurveying": 25326,
    "Ġpath": 2113,
    "aboard": 21798,
    "hurrying": 14986,
    "Ġwallowed": 24045,
    "Ġrecursive": 4780,
    "sea": 4761,
    "Ġkrus": 18350,
    "Ġencircling": 26273,
    "masterly": 24530,
    "Ġgratified": 8021,
    "Ġinstead": 2793,
    "Ġvalleys": 14922,
    "erate": 7150,
    "Ġcircus": 19093,
    "Ġusefulness": 19411,
    "mixed": 17607,
    "continue": 16863,
    "Ġpalsy": 25779,
    "Ġblackest": 19100,
    "Ġloathed": 15879,
    "Ġsyllable": 9731,
    "Ġhiss": 15792,
    "Ġmincing": 18752,
    "Ġdardanelles": 26445,
    "Ġaverted": 16256,
    "Ġway": 1084,
    "Ġexplicit": 3590,
    "Ġsail": 1674,
    "Ġlancaster": 26342,
    "Ġheel": 9687,
    "Ġseams": 12129,
    "Ġtweed": 22680,
    "Ġ3": 3984,
    "combination": 25487,
    "Ġclapped": 9748,
    "Ġpaintings": 15058,
    "mology": 12496,
    "vanity": 24977,
    "itz": 6007,
    "Ġinaccessible": 13937,
    "tall": 17675,
    "Ġnorris": 23204,
    "Ġassail": 13068,
    "Ġaged": 10324,
    "Ġpens": 21462,
    "itarian": 21340,
    "Ġlanguor": 12852,
    "Ġcommands": 16591,
    "Ġrecoil": 18689,
    "fully": 2205,
    "bug": 17495,
    "Ġrecounted": 22737,
    "Ġprudence": 13923,
    "iastic": 12484,
    "concerned": 24639,
    "https": 11687,
    "Ġproduces": 2092,
    "Ġlatitude": 8329,
    "Ġjur": 12839,
    "Ġdaft": 19666,
    "Ġsigma": 1542,
    "Ġunansw": 22060,
    "ust": 495,
    "Ġloos": 15875,
    "Ġholland": 10368,
    "wore": 21127,
    "Ġenhance": 3469,
    "Ġlegs": 4916,
    "Ġclimax": 25054,
    "Ġdispirited": 23884,
    "Ġvent": 3996,
    "Ġminutely": 14563,
    "Ġdreary": 10410,
    "Ġscrib": 22292,
    "Ġconsuming": 22796,
    "ta": 13792,
    "cement": 2591,
    "Ġmillion": 14990,
    "mming": 1174,
    "Ġroving": 22407,
    "Ġexpanse": 14294,
    "Ġface": 1720,
    "shabb": 18496,
    "Ġexhausted": 8697,
    "ationally": 15709,
    "youngest": 19746,
    "Ġharrow": 17928,
    "Ġcurds": 22967,
    "Ġoccupy": 14734,
    "jure": 20926,
    "seriously": 18906,
    "enances": 10156,
    "Ġcontinue": 5398,
    "Ġoust": 21327,
    "clopÃ¦": 13061,
    "Ġprofounder": 23571,
    "Ġ2026": 12339,
    "Ġreasoner": 14444,
    "ract": 993,
    "Ġsheets": 9725,
    "Ġwestmorland": 24390,
    "Ġpresc": 15929,
    "Ġdesired": 4663,
    "Ġmowers": 17814,
    "rics": 13043,
    "Ġarist": 14164,
    "Ġvertu": 23892,
    "dashed": 12460,
    "Ġbaker": 4694,
    "Ġserviceable": 24717,
    "kinson": 10029,
    "estruct": 22227,
    "Ġj": 533,
    "Ġcrush": 9425,
    "sails": 7497,
    "Ġequivalent": 4800,
    "Ġsupernatural": 9876,
    "ahawk": 23321,
    "ument": 5240,
    "Ġdais": 24372,
    "Ġrephrased": 26479,
    "Ġcoco": 11002,
    "Ġeaves": 15680,
    "Ġphilips": 5410,
    "Ġchina": 8040,
    "Ġshapes": 14112,
    "oars": 9617,
    "let": 2737,
    "horizon": 23617,
    "ney": 2492,
    "Ġdrunk": 9427,
    "Ġprofoundest": 16862,
    "arrow": 4179,
    "Ġscreaming": 13427,
    "ittingly": 18805,
    "apothecary": 26547,
    "Ġguinea": 8950,
    "Ġjaws": 5593,
    "Ġredu": 1354,
    "down": 3471,
    "Ġmodern": 3227,
    "colonel": 8285,
    "Ġfanny": 23394,
    "Ġleeward": 6212,
    "vessels": 10628,
    "intervals": 10640,
    "Ġ127": 24472,
    "Ġchamp": 18382,
    "Ġenjoyment": 7300,
    "Ġmizen": 17261,
    "claim": 9838,
    "describe": 1517,
    "iless": 10284,
    "Ġsubsc": 22793,
    "Ġwollstonecraft": 26427,
    "Ġcountryside": 23598,
    "Ġloggerhead": 13661,
    "il": 329,
    "Ġminute": 4276,
    "Ġthee": 2624,
    "Ġdiminished": 16668,
    "neglected": 25670,
    "Ġcountry": 2531,
    "Ġlodging": 24095,
    "Ġpredicting": 2416,
    "main": 8088,
    "concern": 6101,
    "preserving": 25305,
    "scap": 22994,
    "Ġdisclosed": 15157,
    "Ġpuzzled": 7317,
    "Ġmartyr": 26362,
    "Ġinferences": 17937,
    "Ġyellowish": 24430,
    "Ġ88": 19714,
    "Ġrejecting": 17052,
    "rah": 8137,
    "anct": 21361,
    "eg": 17531,
    "attempt": 9363,
    "Ġirrevocably": 15301,
    "Ġcompelled": 14268,
    "Ġswarming": 16277,
    "Ġimplac": 24875,
    "phur": 16157,
    "Ġwhelmed": 26000,
    "Ġslacked": 25189,
    "felix": 10656,
    "Ġcomputes": 4766,
    "sight": 5996,
    "Ġsilver": 7464,
    "Ġstings": 21741,
    "apside": 22970,
    "ingham": 21303,
    "Ġexplanations": 15914,
    "Ġhearts": 4971,
    "ground": 4670,
    "Ġtempestuous": 20074,
    "Ġfigure": 4205,
    "Ġslate": 11942,
    "Ġstreng": 18076,
    "Ġsupposition": 9820,
    "Ġowning": 18746,
    "Ġdepressions": 25799,
    "travellers": 24339,
    "Ġpowers": 5419,
    "alescing": 23868,
    "B": 38,
    "ı": 242,
    "Ġattention": 1159,
    "Ġceti": 24772,
    "adjust": 21763,
    "Ġflint": 23013,
    "Ġcreations": 18682,
    "Ġcolonies": 14378,
    "Ġinsatiable": 19274,
    "Ġbluff": 16520,
    "Ġunb": 10909,
    "icirc": 15660,
    "serve": 13052,
    "Ġabiding": 22274,
    "bold": 17490,
    "ric": 1376,
    "Ġarrangements": 16518,
    "Ġoriginally": 7304,
    "Ġquarters": 8623,
    "Ġcompliance": 12119,
    "Ġlongitude": 11013,
    "box": 5749,
    "town": 7144,
    "Ġforbear": 17124,
    "Ġprodigiously": 14935,
    "reed": 6374,
    "Ġtand": 21163,
    "atches": 13849,
    "python": 4690,
    "Ġhopeful": 19034,
    "enger": 10775,
    "bless": 22316,
    "Ġinexplicable": 12261,
    "apprec": 22845,
    "pleas": 3854,
    "change": 6393,
    "Ġevol": 2817,
    "Ġdecisive": 18484,
    "oking": 4605,
    "Ġphilosopher": 12188,
    "ienced": 5685,
    "attentive": 17192,
    "Ġdrugg": 17122,
    "Ġweave": 21925,
    "affrail": 11207,
    "fail": 17542,
    "shrugged": 22464,
    "Ġpauper": 26180,
    "Ġbite": 10799,
    "ound": 585,
    "uzza": 11272,
    "Ġjames": 6420,
    "Ġcircumst": 2974,
    "Ġsacri": 18329,
    "Ġlets": 18066,
    "gay": 11491,
    "Ġtak": 15472,
    "Ġimaginative": 19249,
    "icle": 10836,
    "Ġhearing": 4759,
    "sam": 21054,
    "Ġoccur": 1081,
    "trifling": 19417,
    "Ġnav": 5819,
    "favourite": 15147,
    "Ġliquid": 22413,
    "Ġinformed": 6719,
    "Ġgrunted": 16172,
    "Ġstature": 10865,
    "Ġshy": 10905,
    "Ġremote": 8923,
    "Ġguiltless": 16942,
    "ulled": 14059,
    "Ġdarling": 12609,
    "owers": 12689,
    "Ġcloud": 3912,
    "bidden": 19740,
    "irably": 13300,
    "apsed": 6297,
    "fight": 17540,
    "Ġpreparations": 12314,
    "orated": 12596,
    "Ġjelly": 22304,
    "Ġindisc": 16232,
    "Ġrevelation": 25223,
    "strength": 13978,
    "Ġmatrix": 1602,
    "assin": 22309,
    "rippa": 11343,
    "spot": 9793,
    "Ġvicissitudes": 12423,
    "ineer": 11703,
    "Ġinquest": 16549,
    "comes": 5394,
    "scorched": 25698,
    "square": 15062,
    "erval": 4019,
    "ports": 13777,
    "Ġappellation": 22226,
    "Ġfert": 15586,
    "Ġlethargy": 26484,
    "glad": 9011,
    "Ġremember": 2680,
    "Ġsomehow": 4840,
    "chari": 21692,
    "imming": 9690,
    "Ġsou": 1887,
    "eminently": 25108,
    "ÿ": 192,
    "Ġshaken": 10267,
    "Ġfringe": 17274,
    "nades": 20999,
    "Ġillust": 8263,
    "ather": 740,
    "Ġsounding": 8265,
    "Ġrepenting": 25323,
    "verd": 21731,
    "fear": 8517,
    "rear": 21235,
    "ĠmanÅĵuv": 18418,
    "rising": 7557,
    "inqu": 6123,
    "Ġangry": 5498,
    "Ġprosecution": 12385,
    "Ġpocket": 4898,
    "Ġsooty": 25816,
    "Ġfrayed": 23306,
    "Ġmarching": 16698,
    "Ġhercules": 14130,
    "Ġghostliness": 24652,
    "Ġperfection": 19221,
    "lock": 1469,
    "afternoon": 13189,
    "Ġtransformers": 1124,
    "smiled": 16616,
    "Ġcatastrophe": 10486,
    "Ġskrimshander": 22802,
    "Ġboarded": 13238,
    "Ġjacket": 6490,
    "forbid": 14350,
    "Ġwal": 6518,
    "Ġprominence": 18956,
    "Ġ36": 14770,
    "Ġdinnertime": 16721,
    "veh": 12684,
    "Ġble": 5223,
    "ancing": 1761,
    "Ġcomprised": 14270,
    "7": 27,
    "Ġtranced": 18427,
    "Ġcham": 4892,
    "ture": 7558,
    "Ġimpressed": 8199,
    "Ġimagined": 8610,
    "Ġdirected": 5579,
    "Ġsprawling": 22139,
    "iage": 17575,
    "reve": 12544,
    "Ġclever": 7056,
    "Ġexhale": 24402,
    "oak": 21005,
    "inconsiderable": 21194,
    "Ġlifetime": 13606,
    "Ġclosing": 11776,
    "ision": 1854,
    "chooses": 23676,
    "Ġrenewing": 19813,
    "Ġsust": 7008,
    "Ġbeach": 6543,
    "green": 7117,
    "Ġweaken": 21926,
    "Ġplausible": 26555,
    "Ġinquire": 7720,
    "ashion": 3861,
    "disagreeable": 11165,
    "Ġpurposed": 23553,
    "Ġang": 2511,
    "Ġdistributing": 22682,
    "Ġwillingness": 24911,
    "Ġoppress": 13176,
    "Ġserenely": 13510,
    "Ġattached": 5392,
    "iod": 3842,
    "Ġhated": 7585,
    "Ġspr": 4024,
    "chairs": 21696,
    "whatever": 6696,
    "Ġscr": 11765,
    "Ġgrim": 7439,
    "Ġcattle": 12577,
    "!âĢĿ": 848,
    "Ġmile": 7152,
    "injustice": 17739,
    "uit": 8393,
    "Ġbuoyant": 13535,
    "Ġscand": 7203,
    "Ġ103": 24411,
    "vul": 15451,
    "Ġfearfulness": 23514,
    "vers": 1327,
    "wonderful": 16962,
    "Ġcognitive": 13638,
    "Ġdromed": 15601,
    "Ġberry": 19749,
    "colour": 9906,
    "enjoy": 10776,
    "Ġsubsided": 14551,
    "frankenstein": 11393,
    "Ġneatness": 19935,
    "idel": 5301,
    "Ġbleeds": 24397,
    "Ġrobustness": 18885,
    "Ġpaused": 5416,
    "Ġcarelessness": 13080,
    "osure": 5308,
    "Ġkept": 3345,
    "brothers": 17026,
    "Ġpyth": 21463,
    "Ġunobstructed": 18265,
    "Ġpronouncing": 16971,
    "state": 13977,
    "Ġpatent": 11963,
    "Ġcondem": 6340,
    "Ġwretchedness": 9029,
    "headed": 4315,
    "Ġredden": 15698,
    "Ġattentions": 5879,
    "buoy": 7761,
    "Ġidol": 7467,
    "sullen": 17671,
    "ileries": 18061,
    "cannot": 5745,
    "note": 14343,
    "Ġcaw": 13886,
    "creation": 14808,
    "tar": 8098,
    "Ġbuff": 9175,
    "Ġsulk": 15048,
    "pronouncing": 25194,
    "Ġreddening": 25971,
    "Ġzealand": 12354,
    "Ġpleased": 4062,
    "pierced": 26142,
    "Ġcrosses": 23065,
    "Ġrecognise": 12044,
    "Ġboisterously": 25683,
    "model": 4556,
    "Ġexceeded": 14436,
    "Ġglue": 15678,
    "Ġfugitive": 17330,
    "Ġsap": 18324,
    "Ġhy": 5625,
    "Ġtablet": 19208,
    "Ġbigness": 19763,
    "Ġbusy": 6191,
    "Ġgetting": 4064,
    "Ġsat": 1133,
    "Ġexciting": 23317,
    "Ġbuoy": 8004,
    "Ġstately": 9837,
    "Ġanx": 3181,
    "mystical": 25318,
    "Ġgenerator": 3383,
    "Ġventure": 7740,
    "âĢĿ": 354,
    "Ġaustralia": 15236,
    "awe": 20767,
    "Ġtechni": 1725,
    "Ġcordiality": 24395,
    "Ġreflecting": 24750,
    "Ġpursuing": 9441,
    "Ġclose": 3037,
    "Ġthrill": 24541,
    "watches": 14950,
    "Ġembattled": 26287,
    "laughing": 15183,
    "Ġlivelihood": 24773,
    "Ġoccasional": 7289,
    "ee": 1661,
    "oided": 11511,
    "rate": 2422,
    "pie": 21013,
    "exe": 11793,
    "limbs": 20194,
    "Ġtexture": 19162,
    "Ġannouncement": 14836,
    "Ġsemicirc": 16396,
    "uplifted": 17697,
    "Ġancho": 15607,
    "Ġcapable": 5054,
    "Ġstyled": 24672,
    "Ġgaunt": 11270,
    "Ġassistants": 9454,
    "Ġdiligence": 17115,
    "isticated": 1635,
    "Ġmolasses": 25629,
    "emporary": 15800,
    "Ġforgetting": 3437,
    "bright": 8992,
    "Ġupdating": 2694,
    "Ġbrew": 23347,
    "Ġhidden": 1375,
    "indifferent": 14211,
    "Ġcologne": 12980,
    "traversed": 19650,
    "itudes": 3015,
    "destined": 24115,
    "Ġcrystal": 17217,
    "Ġsque": 18757,
    "Ġproportion": 7281,
    "poise": 6173,
    "Ġimaginary": 11188,
    "Ġmarshal": 20222,
    "na": 13763,
    "Ġgay": 5535,
    "Ġrude": 7234,
    "Ġparadise": 11196,
    "ince": 4336,
    "Ġletters": 3795,
    "queen": 12729,
    "Ġdesert": 6729,
    "inte": 5144,
    "Ġhandspike": 22699,
    "Ġbraces": 14672,
    "Ġbring": 3321,
    "raid": 3278,
    "Ġdat": 497,
    "Ġrucastle": 5176,
    "Ġfarm": 7840,
    "rating": 7808,
    "sim": 6511,
    "onel": 3093,
    "Ġmarrying": 6179,
    "Ġinterview": 9773,
    "Ġclaims": 13377,
    "Ġsickbed": 24249,
    "Ġfacial": 10608,
    "Ġmacro": 25940,
    "extinguish": 22767,
    "Ġwindward": 6885,
    "Ġvivacity": 14944,
    "Ġinser": 6820,
    "Ġvariance": 1170,
    "overed": 2855,
    "Ġboxed": 24360,
    "Ġblocked": 19225,
    "arrival": 15604,
    "Ġindies": 22956,
    "Ġintimidated": 24802,
    "Ġassertions": 19950,
    "Ġforeshad": 23453,
    "Ġinve": 17931,
    "Ġunheard": 22027,
    "Ġscheduling": 2348,
    "Ġsatisfying": 23699,
    "pronounced": 12350,
    "adel": 15733,
    "Ġgrapnels": 25552,
    "Ġwander": 9034,
    "Ġminimum": 23045,
    "Ġencamp": 22803,
    "Ġsche": 1705,
    "Ġyawning": 12304,
    "Ġe": 311,
    "Ġque": 4158,
    "Ġpyramid": 8806,
    "erns": 8782,
    "cares": 24311,
    "\\": 64,
    "Ġshiny": 14109,
    "Ġdoctors": 12156,
    "Ġboldness": 24428,
    "Ġaccidents": 10298,
    "ose": 718,
    "Ġenchant": 7185,
    "»": 124,
    "Ġbutcher": 18272,
    "Ġimmense": 4951,
    "Ġbeseeching": 26312,
    "cool": 19189,
    "Ġaye": 3354,
    "Ġrounds": 18887,
    "eringly": 23007,
    "inks": 6869,
    "Ġmasters": 11578,
    "mediate": 16516,
    "allions": 22202,
    "Ġblooming": 17215,
    "Ġsplice": 19310,
    "ulls": 8842,
    "Ġlottery": 19890,
[...]
