{
  "metadata": {
    "vocab_size": 26614,
    "algorithm": "BPE",
    "created_at": "2026-07-29 05:20:46",
    "special_tokens": [
      "<PAD>",
      "<SOS>",
      "<EOS>",
      "<UNK>",
      "<MASK>"
    ]
  },
  "vocab": {
    "Ġpilgrim": 25599,
    "Ġapothecary": 13658,
    "anesc": 21358,
    "Ġshroud": 6483,
    "seam": 10874,
    "Ġintimacy": 8700,
    "Ġsynthe": 26007,
    "ical": 756,
    "Ġgrope": 17994,
    "Ġspans": 18304,
    "Ġtrust": 4080,
    "Ġorigin": 4121,
    "Ġenthusiastic": 19964,
    "Ġambergris": 8705,
    "Ġhawsers": 26502,
    "Ġledger": 19400,
    "Ġuninter": 18246,
    "Ġaccountability": 10438,
    "tossed": 10996,
    "Ġdock": 15929,
    "Ġrises": 9712,
    "ently": 1613,
    "speed": 19407,
    "Ġvaults": 17153,
    "Ġconsum": 9799,
    "Ġmastery": 23990,
    "repeated": 12337,
    "Ġgazes": 24094,
    "Ġinch": 7849,
    "Ġver": 3393,
    "Ġsockets": 22085,
    "Ġseven": 4541,
    "Ġjulia": 22299,
    "Ġknighthood": 25297,
    "Ġfelix": 4847,
    "Ġlisten": 4672,
    "ugal": 19018,
    "Ġbarriers": 23792,
    "Ġjury": 5378,
    "wonderful": 16960,
    "Ġreserve": 9970,
    "atters": 18484,
    "exped": 16524,
    "scra": 13020,
    "Ġlodge": 5779,
    "apan": 6860,
    "theories": 18078,
    "pread": 7419,
    "Ġpatched": 16391,
    "Ġ235": 25713,
    "Ġhaunted": 10253,
    "Ġpuffs": 14975,
    "Ġbrave": 6329,
    "Ġkeels": 11061,
    "Ġanswered": 2851,
    "ifying": 5250,
    "Ġrephr": 21676,
    "Ġwouldst": 18502,
    "Ġcoat": 4553,
    "Ġintercourse": 10998,
    "Ġtreas": 7358,
    "Ġ82": 24458,
    "I": 45,
    "Ġconflict": 17273,
    "true": 2582,
    "fig": 8734,
    "Ġsumatra": 15285,
    "Ġbounding": 19398,
    "Ġenh": 2786,
    "insist": 23060,
    "idirectional": 2420,
    "unlike": 18156,
    "bounded": 13438,
    "Ġrevelation": 25222,
    "Ġtone": 4041,
    "Ġmillions": 11354,
    "Ġmeat": 8151,
    "ks": 3146,
    "clean": 14760,
    "ieces": 4770,
    "Ġpeculiarity": 12930,
    "Ġjung": 12833,
    "Ġindomitableness": 26571,
    "Ġconstructed": 9385,
    "Ġpicturesqueness": 24480,
    "Ġchaplain": 19911,
    "wall": 10136,
    "idable": 8145,
    "barbar": 20237,
    "Ġcat": 2124,
    "Ġauger": 21202,
    "papers": 12499,
    "Ġadvantage": 4317,
    "Ġmining": 22826,
    "Ġmantel": 11439,
    "swimming": 24258,
    "rudent": 6482,
    "Ġtrump": 8195,
    "Ġhath": 12625,
    "T": 56,
    "Ġaffliction": 25844,
    "Ġenvelope": 7319,
    "Ġtossing": 8125,
    "Ġchart": 10945,
    "Ġforeman": 23446,
    "Ġruins": 16155,
    "pronouncing": 25193,
    "Ġemblazonings": 26046,
    "Ġlucky": 7758,
    "Ġunspeakably": 25172,
    "begin": 8883,
    "Ġapartments": 19613,
    "Ġsanction": 20024,
    "Ġsatur": 1929,
    "Ġwondering": 7970,
    "Ġoriginally": 7304,
    "Ġoptimization": 1405,
    "Ġunwell": 22014,
    "Ġstubbornness": 25380,
    "Ġelevated": 7318,
    "hastily": 19701,
    "Ġvanishing": 1349,
    "system": 4035,
    "ribed": 7692,
    "Ġinterruptions": 24186,
    "ency": 3869,
    "Ġsupports": 3050,
    "repugnance": 16864,
    "Ġnovember": 11747,
    "Ġserved": 8246,
    "Ġbleached": 24396,
    "Ġjewels": 12367,
    "century": 20045,
    "Ġarrives": 23606,
    "Ġungodly": 26513,
    "Ġparting": 9782,
    "Ġtries": 9150,
    "publ": 17638,
    "vocabulary": 25085,
    "Ġsomewhere": 5384,
    "lings": 8745,
    "Ġdiffidence": 14659,
    "Ġvaliantly": 22789,
    "Ġpump": 12618,
    "Ġpunchbowl": 20230,
    "Ġair": 1833,
    "Ġcarcase": 14443,
    "oy": 996,
    "Ġtechni": 1737,
    "Ġstained": 11651,
    "Ġsagacity": 16974,
    "Ġegg": 8818,
    "allows": 15906,
    "Ġdependence": 18627,
    "Ġhavoc": 15812,
    "Ġduncan": 13460,
    "Ġconnexion": 11454,
    "sp": 894,
    "âĢĻ,": 14069,
    "ateur": 22003,
    "Ġgaunt": 11268,
    "gyric": 19109,
    "Ġbarque": 23788,
    "ugues": 19019,
    "abond": 15739,
    "Ġjumping": 13340,
    "Ġcruc": 16534,
    "Ġpartial": 2131,
    "itic": 11577,
    "Ġpassers": 18758,
    "Ġalbatross": 10871,
    "Ġbrand": 16184,
    "Ġpenal": 1771,
    "franch": 24284,
    "withstand": 23026,
    "Ġdivulged": 16648,
    "ts": 959,
    "Ġtribute": 15475,
    "Ġtambourine": 9564,
    "Ġtunes": 24619,
    "og": 871,
    "):": 11461,
    "imens": 1746,
    "atisf": 21262,
    "Ġdiminishing": 4210,
    "Ġtext": 2268,
    "Ġafter": 868,
    "Ġrecalled": 8538,
    "Ġimpunity": 14215,
    "inter": 2952,
    "urous": 10212,
    "Ġtrifled": 24674,
    "Ġbohemia": 10649,
    "Ġsculpt": 15945,
    "Ġprojected": 16871,
    "ely": 623,
    "Ġsustained": 13481,
    "Ġpursuits": 12074,
    "neighbours": 24881,
    "wretch": 17708,
    "Ġdidst": 11847,
    "Ġmorbid": 16235,
    "secondly": 16984,
    "Ġmonsie": 11447,
    "happened": 9432,
    "Ġprof": 2461,
    "Ġ34": 16677,
    "Ġexcepting": 14680,
    "Ġlastly": 16204,
    "Ġhaul": 11690,
    "ugging": 23287,
    "boo": 16350,
    "Ġliber": 5167,
    "Ġtuck": 10140,
    "Ġdisciple": 22776,
    "Ġsleeve": 20139,
    "tubs": 15129,
    "Ġimpersonal": 17395,
    "Ġhorseman": 19606,
    "ø": 185,
    "believe": 8303,
    "wic": 21119,
    "Ġgener": 589,
    "Ġmassacre": 20546,
    "leg": 2812,
    "ensation": 22542,
    "ivial": 15859,
    "Ġneglecting": 25007,
    "Ġsunk": 5752,
    "Ġdarted": 4756,
    "Ġimposed": 14213,
    "text": 1975,
    "Ġchar": 1705,
    "Ġbattered": 17862,
    "Ġinsensible": 12323,
    "Ġentitled": 8537,
    "bourn": 3301,
    "Ġtenants": 23543,
    "cific": 10085,
    "Ġcogent": 14272,
    "Ġpreliminaries": 25176,
    "Ġconverted": 16111,
    "Ġcategorization": 12134,
    "Ġhobbling": 25644,
    "boys": 13358,
    "Ġtolerable": 6949,
    "Ġroot": 2650,
    "Ġket": 18347,
    "Ġseriously": 7061,
    "Ġbreathing": 9444,
    "elve": 4640,
    "Ġglossy": 15226,
    "Ġspreading": 13377,
    "Ġsuspicions": 9478,
    "Ġcompletely": 4859,
    "countryman": 24639,
    "vellers": 16673,
    "Ġsymmetrical": 20365,
    "Ġobsole": 22695,
    "Ġyankees": 26201,
    "Ġclanging": 18420,
    "apers": 3480,
    "Ġsobs": 14135,
    "Ġrevive": 13478,
    "Ġunwonted": 14124,
    "ificial": 608,
    "unk": 4538,
    "ermost": 7430,
    "Ġofficially": 24838,
    "obviously": 25242,
    "aled": 3946,
    "vert": 15713,
    "Ġtelegram": 15222,
    "Ġattracted": 8903,
    "Ġ132": 19895,
    "rose": 6013,
    "Ġbillows": 7502,
    "inkled": 5477,
    "obst": 11930,
    "Ġwarb": 17787,
    "Ġboarded": 13232,
    "Ġpenetrate": 12267,
    "Ġmilky": 9946,
    "Ġsubstances": 24165,
    "Ġjourneying": 25565,
    "Ġcase": 1941,
    "Ġtaught": 6803,
    "Ġisrael": 21800,
    "Ġsuff": 1304,
    "Ġrubbed": 12952,
    "Ġdreading": 23796,
    "mistake": 24529,
    "Ġspray": 7893,
    "Ġbrooded": 23100,
    "Ġsmell": 7216,
    "Ġvoy": 2615,
    "according": 12026,
    "stretching": 20497,
    "Ġaccomplishment": 19664,
    "ravelled": 18014,
    "embra": 14075,
    "Ġstooping": 13059,
    "prit": 19340,
    "Ġcreditors": 20128,
    "Ġaugust": 10597,
    "Ġparliament": 18302,
    "errand": 22906,
    "Ġlamb": 8812,
    "Ġreverend": 15258,
    "image": 9685,
    "vishnoo": 21118,
    "Ġcriminals": 19921,
    "Ġdollars": 11455,
    "Ġtrees": 4204,
    "pleased": 8853,
    "Ġrampart": 20317,
    "Ġoutweigh": 22319,
    "ķ": 248,
    "Ġtunnels": 24620,
    "crucible": 24842,
    "before": 3114,
    "countenance": 6925,
    "retch": 4371,
    "compass": 9459,
    "Ġmarry": 4417,
    "Ġvehement": 16199,
    "Ġdisputing": 25824,
    "Ġharshly": 25249,
    "Ġcig": 6520,
    "Ġcandles": 9907,
    "wes": 17703,
    "ject": 874,
    "Ġ101": 24409,
    "pers": 4337,
    "Ġdistinguishing": 16496,
    "clouds": 25496,
    "especially": 3570,
    "shot": 2173,
    "presented": 12987,
    "indispensable": 14209,
    "Ġhammock": 5768,
    "abominable": 20592,
    "Ġminut": 2204,
    "provid": 11149,
    "dling": 9111,
    "Ġagreeably": 24952,
    "Ġlightly": 13082,
    "Ġcredited": 25153,
    "Ġsaratoga": 26423,
    "conversation": 7122,
    "Ġgay": 5535,
    "Ġgoverned": 23570,
    "Ġintently": 8168,
    "Ġdeliciousness": 24127,
    "Ġrepentance": 15159,
    "Ġincurable": 22549,
    "acency": 12905,
    "Ġquadr": 8199,
    "Ġ31": 12128,
    "Ġcompany": 3720,
    "tumultuously": 25613,
    "Ġfad": 17876,
    "Ġelemental": 19918,
    "Ġinconsiderable": 21492,
    "Ġvillages": 14748,
    "Ġcircum": 8257,
    "supplementary": 20548,
    "Ġincantation": 26257,
    "announced": 19758,
    "Ġpointed": 4771,
    "Ġpor": 5224,
    "Ġmedical": 9463,
    "Ġchat": 6560,
    "Ġsanctified": 25883,
    "finding": 17013,
    "ingle": 1040,
    "Ġexcursion": 26589,
    "Ġturing": 7566,
    "doubtful": 24791,
    "Ġfiend": 4411,
    "Ġsplendid": 17213,
    "Ġtus": 10749,
    "ě": 220,
    "Ġbraces": 14669,
    "Ġmeasured": 9803,
    "hatherley": 17568,
    "Ġbandaged": 16842,
    "[_": 5130,
    "barbs": 20236,
    "Ġshadowed": 24043,
    "Ġfew": 1210,
    "Ġfollowing": 4064,
    "Ġdeliverer": 11949,
    "sheets": 14441,
    "fa": 7336,
    "dignity": 15344,
    "Ġvelvet": 12396,
    "obstructed": 15225,
    "joice": 9602,
    "allen": 22193,
    "Ġnap": 8808,
    "Ġabsolut": 3912,
    "Ġoutright": 18412,
    "Ġpredicting": 2414,
    "Ġprovinc": 16742,
    "Ġlocations": 12411,
    "Ġappropriate": 2250,
    "aph": 10954,
    "dread": 8728,
    "Ġhove": 17922,
    "Ġcocaine": 20720,
    "Ġstray": 18069,
    "Ġunst": 18238,
    "storied": 18024,
    "Ġxxx": 7766,
    "Ġmaddening": 17243,
    "Ġsharks": 4496,
    "Ġimbued": 17454,
    "Ġdummy": 25449,
    "ivance": 22073,
    "Ġbehave": 23295,
    "Ġfrighted": 24026,
    "inching": 21188,
    "iced": 3902,
    "Ġbehoo": 19030,
    "Ġautoregressive": 3430,
    "Ġwax": 10776,
    "Ġassumpt": 5415,
    "Ġundisturbed": 19518,
    "Ġferguson": 17469,
    "orting": 9734,
    "ese": 4443,
    "oldened": 22636,
    "Ġcobweb": 22581,
    "imin": 1767,
    "Ġrudder": 25107,
    "Ġbas": 6380,
    "chief": 4643,
    "circuit": 24188,
    "Ġoct": 10158,
    "Ġharvard": 24573,
    "touching": 15090,
    "Ġirrevoc": 15038,
    "Ġdynamically": 5270,
    "gate": 12464,
    "Ġworrying": 22923,
    "itable": 5437,
    "ident": 3379,
    "Ġlighted": 7063,
    "Ġinfer": 7683,
    "Ġaddresses": 3767,
    "iv": 432,
    "ted": 790,
    "Ġsavag": 19372,
    "Ġtheology": 21275,
    "Ġamerican": 5060,
    "Ġdivineness": 25724,
    "Ġexcess": 3342,
    "Ġjustified": 11902,
    "Ġwalker": 23305,
    "Ġspared": 7892,
    "discover": 10539,
    "phys": 18721,
    "exceedingly": 9566,
    "ets": 1161,
    "Ġpeddler": 24800,
    "Ġorange": 8486,
    "Ġscenes": 5730,
    "Ġimplicit": 19956,
    "announce": 24560,
    "trimmed": 23946,
    "usal": 7638,
    "uring": 820,
    "Ġresolute": 19244,
    "Ġglad": 3325,
    "arbuck": 2025,
    "Ġribs": 7101,
    "Ġhelmet": 19686,
    "Ġpork": 21455,
    "Ġxxiv": 24477,
    "Ġopinion": 3143,
    "Ġinspire": 11994,
    "Ġvestibule": 13536,
    "disagreeable": 11163,
    "Ġspeedily": 7711,
    "Ġsixpence": 19316,
    "================": 3722,
    "Ġsomething": 1793,
    "Ġpurses": 23475,
    "Ġlucerne": 23862,
    "Ġporthole": 24399,
    "Ġsickle": 24245,
    "Ġdupl": 9953,
    "Ġsequential": 2134,
    "personal": 24963,
    "mort": 10710,
    "Ġincl": 4272,
    "tot": 10728,
    "Ġpolynesian": 26026,
    "Ġconve": 5455,
    "Ġpaunch": 23747,
    "Ġunfathomably": 25873,
    "Ġflint": 23009,
    "Ġwake": 4747,
    "Ġpitching": 16611,
    "lines": 6959,
    "Ġahead": 6662,
    "Ġactive": 7914,
    "Ġchurning": 15936,
    "sailing": 14713,
    "Ġtrinity": 22354,
    "Ġcellars": 24665,
    "Ġxxv": 19716,
    "Ġdepressions": 25798,
    "Ġsuck": 15860,
    "Ġharder": 14448,
    "Ġrequisition": 22644,
    "Ġthough": 991,
    "new": 1466,
    "Ġventing": 19492,
    "shirt": 22455,
    "Ġ99": 10745,
    "ellent": 3760,
    "Ġripp": 11219,
    "Ġensued": 11394,
    "Ġincorpor": 13164,
    "Ġorchard": 22089,
    "Ġpagans": 16922,
    "Ġabsolutely": 4856,
    "interference": 23736,
    "Ġsorrows": 13353,
    "Ġcoil": 11816,
    "Ġbear": 3655,
    "olently": 15751,
    "Ġconcepts": 4550,
    "confess": 12173,
    "air": 1002,
    "captains": 12125,
    "Ġemerged": 8684,
    "Ġsufficiently": 8973,
    "consciously": 19624,
    "ac": 741,
    "Ġbacks": 8528,
    "Ġdubious": 17382,
    "Ġ96": 24592,
    "Ġbor": 5804,
    "anxious": 15108,
    "Ġwood": 2293,
    "ancient": 9655,
    "rugged": 6849,
    "Ġretirement": 25378,
    "athed": 7828,
    "Ġcubs": 20085,
    "Ġhatred": 8608,
    "Ġfragment": 14512,
    "Ġapproach": 799,
    "Ġwithdraw": 16964,
    "forest": 22515,
    "Ġcumulative": 4212,
    "Ġextinct": 14328,
    "Ġimport": 975,
    "advantages": 11271,
    "Ġrefreshed": 15289,
    "Ġbegun": 7243,
    "Ġhousings": 21490,
    "promise": 12248,
    "pire": 9135,
    "mody": 16200,
    "worshipping": 16610,
    "lid": 20944,
    "Ġrare": 7036,
    "Ġmaintaining": 1512,
    "Ġpersonality": 16476,
    "Ġprecise": 7075,
    "humor": 19450,
    "Ġrout": 7402,
    "Ġsense": 3251,
    "Ġwharves": 13505,
    "Ġunsocial": 18256,
    "deceit": 25556,
    "Ġberries": 13406,
    "Ġsymbols": 2795,
    "Ġcottages": 14726,
    "harpooneer": 8688,
    "Ġowing": 6004,
    "Ġinnovative": 1590,
    "obli": 23091,
    "as": 302,
    "Ġloomings": 24949,
    "Ġdiscovery": 5412,
    "Ġsherlock": 3895,
    "Ġclassical": 22620,
    "Ġhood": 10823,
    "Ġoccasions": 7987,
    "irons": 10238,
    "Ġdressing": 7090,
    "Ġlunacy": 20026,
    "allowance": 16824,
    "concerns": 24067,
    "ructive": 18541,
    "Ġyawning": 12298,
    "embraces": 25805,
    "Ġoverhung": 15974,
    "Ġrevellers": 21675,
    "Ġseating": 18201,
    "Ġstomach": 11652,
    "Ġdrowned": 9551,
    "Ġdazzling": 15210,
    "witness": 10034,
    "ul": 371,
    "Ġresponsible": 9886,
    "Ġwhatsoever": 18460,
    "Ġremorse": 6441,
    "Ġhesitating": 16947,
    "engthen": 14457,
    "fes": 20850,
    "Ġshirt": 8848,
    "iving": 1725,
    "pane": 10120,
    "windibank": 24161,
    "contrivance": 26316,
    "Ġringing": 13330,
    "Ġbed": 2146,
    "Ġretribution": 16281,
    "Ġprotruding": 16658,
    "Ġpertur": 12847,
    "Ġtilted": 20411,
    "lat": 9604,
    "Ġexternal": 8364,
    "Ġsunset": 8962,
    "Ġpebbles": 16128,
    "Ġsurpr": 2547,
    "apering": 8040,
    "cloth": 11935,
    "yea": 23084,
    "Ġpemberley": 4587,
    "arle": 21438,
    "Ġfors": 21768,
    "Ġabused": 22276,
    "Ġcur": 1220,
    "Ġfatig": 6756,
    "Ġbewitched": 25975,
    "conced": 22465,
    "Ġduplicity": 25331,
    "Ġstiffest": 24829,
    "Ġdisgusted": 14989,
    "Ġminus": 18751,
    "regarding": 15070,
    "objections": 19915,
    "Ġhates": 21483,
    "Ġcontinuous": 1559,
    "parable": 16383,
    "Ġfro": 3470,
    "am": 367,
    "ortations": 22254,
    "see": 3047,
    "suspicious": 25390,
    "Ġclothing": 18421,
    "Ġdup": 21425,
    "Ġartistic": 18611,
    "illed": 2620,
    "Ġcopying": 17068,
    "Ġtag": 15468,
    "Ġapproved": 16017,
    "Ġtechnical": 17191,
    "Ġexpedition": 10633,
    "Ġessential": 7523,
    "Ġdeactivates": 20702,
    "Ġhimmale": 18334,
    "Ġquantization": 19853,
    "ou": 287,
    "Ġaffront": 18786,
    "Ġruss": 18716,
    "Ġcommonplace": 11096,
    "Ġentrapped": 26262,
    "Ġbeings": 2490,
    "Ġhorizont": 6937,
    "Ġmur": 2489,
    "granting": 23412,
    "Ġguineas": 16269,
    "Ġreflecting": 24751,
    "Ġaveraging": 2417,
    "Ġraised": 4659,
    "utility": 21584,
    "Ġep": 7384,
    "Ġcaps": 8414,
    "itals": 17820,
    "snapping": 24849,
    "Ġended": 7949,
    "Ġstars": 6149,
    "sence": 3306,
    "Ġdash": 8121,
    "Ġestablished": 9069,
    "Ġsane": 21220,
    "Ġactionable": 24559,
    "days": 7687,
    "Ġmates": 4871,
    "Ġauthors": 10417,
    "Ġstun": 11649,
    "Ġscenery": 11456,
    "pitchpoling": 25725,
    "\",": 10678,
    "Ġcomp": 722,
    "Ġcrozetts": 19628,
    "pin": 13766,
    "pinn": 21025,
    "Ġdomineer": 23643,
    "Ġnocturn": 18375,
    "Ġshortness": 23480,
    "Ġimaginations": 16516,
    "Ġrain": 5004,
    "anced": 1313,
    "thing": 1480,
    "Ġalarmed": 6923,
    "Ġside": 1387,
    "Ġentire": 2556,
    "Ġmaelstrom": 19354,
    "Ġcomplexity": 1694,
    "raising": 21629,
    "Ġlimping": 23542,
    "Ġvengeance": 5884,
    "Ġcreation": 6439,
    "Ġforked": 11663,
    "angels": 22103,
    "calculating": 25689,
    "Ġactuated": 18545,
    "comed": 8545,
    "exceed": 7910,
    "stones": 11635,
    "Ġus": 499,
    "Ġproportion": 7281,
    "Ġbesee": 19242,
    "Ġdrows": 21433,
    "ails": 6160,
    "till": 6965,
    "accomplished": 17211,
    "Ġfundamental": 3016,
    "Ġperuvian": 18452,
    "merged": 11194,
    "arance": 4696,
    "ores": 2411,
    "Ġdeparted": 5564,
    "Ġallurements": 22006,
    "intend": 16223,
    "Ġrecorded": 11293,
    "advice": 12155,
    "Ġwidows": 24236,
    "Ġtrib": 13818,
    "Ġvectors": 1769,
    "Ġpolitely": 8993,
    "Ġoverpow": 14207,
    "Ġprogressive": 5023,
    "theirs": 23601,
    "Ġplantation": 11423,
    "Ġrespons": 2686,
    "Ġapartment": 6633,
    "Ġsuperstitions": 17072,
    "Ġbounty": 26437,
    "ply": 6366,
    "Ġromantic": 8030,
    "umbling": 6758,
    "Ġappeal": 16315,
    "size": 15425,
    "queens": 22905,
    "abases": 3008,
    "mild": 15390,
    "Ġmasonry": 13598,
    "Ġunpardonable": 22059,
    "Ġparadise": 11195,
    "ayed": 12709,
    "Ġwhitened": 24867,
    "Ġdelusion": 18972,
    "stretch": 13980,
    "Ġintrusted": 21989,
    "hval": 20897,
    "onings": 21251,
    "Ġsacrificial": 24871,
    "state": 13978,
    "Ġnewfoundland": 26569,
    "ob": 1420,
    "Ġdistraction": 22503,
    "five": 6356,
    "attempt": 9359,
    "Ġtemporary": 7980,
    "Ġcollapsed": 15080,
    "gal": 15354,
    "Ġnetherfield": 3932,
    "idea": 9300,
    "Ġvictoria": 14872,
    "prints": 23809,
    "Ġconsciousness": 9947,
    "Ġseizing": 7878,
    "Ġnecks": 18183,
    "Ġfath": 7364,
    "mightily": 24104,
    "latin": 25258,
    "Ġdissol": 18551,
    "arches": 10816,
    "writes": 4987,
    "Ġcoun": 4180,
    "anguish": 15982,
    "Ġchiselled": 25559,
    "gloves": 25143,
    "Ġdeposed": 16085,
    "ig": 323,
    "disgust": 23494,
    "Ġsupported": 9817,
    "Ġindignity": 18833,
    "Ġraiment": 22646,
    "Ġcomple": 2841,
    "Ġcavity": 20486,
    "Ġsubst": 4275,
    "Ġreversed": 15695,
    "Ġwebster": 20160,
    "Ġmodels": 753,
    "Ġcask": 5527,
    "da": 17514,
    "ale": 505,
    "Ġmanipulated": 25178,
    "Ġprosperous": 15169,
    "ondon": 2707,
    "pires": 13774,
    "Ġseconds": 16397,
    "Ġtown": 2456,
    "Ġ45": 14770,
    "pall": 17628,
    "Ġrelations": 5852,
    "cannon": 22964,
    "ued": 7561,
    "Ġrise": 5637,
    "Ġblinded": 13269,
    "Ġconcerning": 4070,
    "Ġbearded": 15725,
    "Ġimprudently": 22383,
    "Ġseek": 4507,
    "common": 4129,
    "ieth": 10704,
    "sensible": 20050,
    "steep": 19417,
    "Ġfathoms": 9083,
    "Ġwel": 4526,
    "Ġgreece": 17069,
    "Ġtorrents": 20054,
    "Ġravine": 18647,
    "Ġunworthy": 11713,
    "taught": 17684,
    "Ġcalmed": 16266,
    "ampl": 21839,
    "Ġfarmhouse": 24984,
    "Ġintellectual": 11401,
    "Ġcats": 8979,
    "Ġarchitectures": 2912,
    "Ġalan": 10869,
    "seventy": 10876,
    "Ġtend": 6120,
    "judges": 19572,
    "Ġamong": 1663,
    "Ġspiteful": 19521,
    "Ġhemisphere": 26478,
    "albatross": 15628,
    "Ġsilent": 3410,
    "knowing": 10437,
    "onel": 3090,
    "Ġsleeves": 10660,
    "Ġbloodshot": 23797,
    "Ġcurb": 16229,
    "supers": 22638,
    "Ġescaping": 13134,
    "Ġlinear": 3431,
    "Ġbedfellows": 23437,
    "rapid": 12667,
    "Ġbenignity": 18781,
    "gul": 12463,
    "Ġrec": 909,
    "Ġnay": 5711,
    "Ġregarding": 13209,
    "repressed": 21242,
    "powers": 25410,
    "Ġnonsensical": 21526,
    "Ġdoc": 7200,
    "Ġchord": 22242,
    "Ġexpectation": 6904,
    "hearted": 6970,
    "Ġdinah": 9452,
    "ggling": 19096,
    "endeav": 7150,
    "Ġforebodings": 17303,
    "Ġwithdra": 6398,
    "ols": 2410,
    "Ġages": 7028,
    "Ġfeed": 2130,
    "Ġtangle": 25760,
    "Ġsheath": 14151,
    "ridden": 24362,
    "Ġignorant": 5343,
    "ounding": 22389,
    "Ġfrigate": 13080,
    "Ġtatters": 21176,
    "aggoo": 5129,
    "dangerous": 20239,
    "hunter": 10555,
    "Ġdressed": 5080,
    "Ġcongreg": 8462,
    "pence": 15409,
    "Ġnecessitated": 23925,
    "Ġshout": 4266,
    "Ġabject": 18396,
    "Ġhelter": 24022,
    "Ġprinciple": 6770,
    "looked": 6083,
    "Ġdella": 21437,
    "Ġalchemists": 26487,
    "Ġaltern": 7394,
    "Ġfeminine": 15262,
    "unforeseen": 21885,
    "inated": 6804,
    "bloom": 24689,
    "Ġtot": 4188,
    "Ġdisplay": 6428,
    "spikes": 10341,
    "Ġpert": 22391,
    "Ġhonest": 7287,
    "Ġent": 902,
    "Ġone": 567,
    "endeavoured": 12278,
    "Ġblunder": 18818,
    "Ġfugitive": 17326,
    "Ġxxxii": 24970,
    "Ġenlivened": 26207,
    "meet": 11854,
    "truth": 9918,
    "Ġno": 511,
    "ope": 4126,
    "specim": 23941,
    "Ġcul": 17822,
    "Ġsanta": 26420,
    "Ġestates": 16459,
    "Ġwelcomed": 9481,
    "Ġkeener": 22911,
    "Ġmust": 844,
    "destruction": 11256,
    "aimed": 3954,
    "Ġverdant": 15002,
    "unless": 9234,
    "Ġhundreds": 4329,
    "Ġinert": 15620,
    "Ġequality": 16358,
    "taining": 7206,
    "Ġbend": 9170,
    "Ġpeeling": 22689,
    "Ġindign": 6173,
    "fav": 6646,
    "foot": 9046,
    "rifice": 12501,
    "Ġtormenting": 15103,
    "Ġadequ": 10913,
    "Ġvehemence": 26566,
    "Ġdrunken": 12047,
    "Ġhelmeted": 19687,
    "ston": 15681,
    "cils": 20813,
    "Ġintolerable": 8481,
    "Ġxavier": 2854,
    "ook": 21003,
    "Ġcoffee": 6760,
    "Ġis": 347,
    "surprised": 9530,
    "sombre": 23852,
    "rudential": 16709,
    "Ġhither": 4757,
    "generosity": 23784,
    "Ġappl": 1726,
    "Ġbacked": 12923,
    "Ġtrace": 6181,
    "Ġcronies": 23441,
    "injustice": 17737,
    "ectual": 21912,
    "oriental": 23719,
    "persons": 24174,
    "ees": 13710,
    "Ġfling": 9660,
    "unctuous": 21879,
    "clam": 13052,
    "lined": 12481,
    "Ġassembl": 20059,
    "Ġauthorized": 16735,
    "forster": 16164,
    "Ġwrung": 14469,
    "Ġsecondly": 14518,
    "Ġhastening": 19335,
    "Ġerecting": 24652,
    "Ġcreates": 2009,
    "occasion": 7753,
    "Ġsingularly": 12146,
    "Ġcheered": 16368,
    "fere": 10988,
    "Ġtemperature": 1003,
    "Ġceases": 19312,
    "Ġjungfrau": 15247,
    "Ġvib": 8164,
    "Ġanx": 3180,
    "yielded": 25756,
    "sought": 15427,
    "Ġswallow": 8950,
    "clad": 14459,
    "Ġjustinian": 22969,
    "Ġinscrutable": 10672,
    "acting": 22628,
    "aviour": 11004,
    "Ġgeneral": 1858,
    "aintance": 3567,
    "block": 11470,
    "Ġprison": 5403,
    "Ġ117": 19696,
    "Ġconvert": 11841,
    "Ġminers": 22828,
    "oundered": 14164,
    "Ġquench": 22416,
    "ward": 705,
    "Ġtarpaul": 17730,
    "Ġkiss": 8182,
    "Ġindiam": 22950,
    "Ġsally": 15502,
    "circumstances": 8046,
    "Ġeavesdroppers": 25963,
    "Ġevap": 19622,
    "middle": 11310,
    "Ġagreeable": 4551,
    "insufferable": 21191,
    "Ġdiscrete": 2476,
    "opportunity": 12272,
    "bulk": 19923,
    "rev": 17756,
    "Ġtoll": 7851,
    "Ġbengal": 18782,
    "Ġshifting": 12765,
    "heading": 5487,
    "Ġestimation": 11218,
    "oo": 7553,
    "Ġbecalmed": 18086,
    "discharging": 26305,
    "Ġheight": 4221,
    "Ġinscribed": 24938,
    "Ġgasp": 7172,
    "Ġxliv": 23407,
    "Ġdur": 11591,
    "Ġabrupt": 9737,
    "Ġparsonage": 7123,
    "told": 7811,
    "staking": 21645,
    "ateness": 15519,
    "Ġmonotonically": 3831,
    "do": 1995,
    "Ġyawned": 15051,
    "Ġswandam": 11088,
    "Ġmight": 963,
    "Ġdet": 509,
    "liberal": 26281,
    "Ġcelebrate": 26357,
    "Ġproduced": 2452,
    "bestowed": 12223,
    "Ġaberdeen": 26542,
    "osure": 5306,
    "Ġsinks": 19548,
    "Ġnephews": 24714,
    "Ġsweetheart": 19393,
    "judged": 14830,
    "Ġporch": 19679,
    "ting": 1335,
    "Ġassuredly": 14821,
    "Ġsacrifice": 9555,
    "Ġpositional": 2593,
    "accur": 14593,
    "henomenon": 13613,
    "Ġcrate": 19122,
    "Ġimpaling": 22380,
    "Ġhereditary": 10664,
    "rie": 2785,
    "Ġcorps": 13030,
    "Ġchamounix": 14863,
    "lect": 1221,
    "Ġdivin": 13272,
    "Ġegot": 18007,
    "atics": 15522,
    "Ġrudeness": 17124,
    "roqu": 21531,
    "Ġw": 272,
    "Ġhovel": 8253,
    "Ġundulations": 19514,
    "Ġadmission": 23551,
    "Ġbilliard": 16689,
    "Ġthan": 736,
    "Ġguernsey": 9350,
    "breaths": 25336,
    "appearance": 5333,
    "act": 787,
    "Ġapoplexy": 25265,
    "Ġplatonian": 25118,
    "Ġmagic": 8232,
    "Ġbreaching": 23345,
    "oub": 1631,
    "Ġcontinues": 18809,
    "abriel": 6950,
    "ifice": 7198,
    "rop": 541,
    "ensils": 22545,
    "Ġmat": 1149,
    "oved": 5214,
    "Ġsources": 10147,
    "gor": 552,
    "Ġglance": 4234,
    "Ġaround": 3609,
    "lection": 3650,
    "Ġpauper": 26179,
    "Ġott": 13865,
    "Ġmulti": 1046,
    "Ġalternating": 15030,
    "Ġshop": 9251,
    "itations": 17817,
    "fuller": 22496,
    "Ġcoarse": 14273,
    "Ġmeditate": 16682,
    "burned": 25079,
    "Ġdarkness": 4279,
    "avish": 22591,
    "Ġgovernment": 15175,
    "Ġdistributions": 1053,
    "Ġnets": 21521,
    "b": 70,
    "questioning": 16850,
    "sequent": 6831,
    "Ġenjoined": 18191,
    "Ġrewarding": 13436,
    "Ġexhibited": 9543,
    "bee": 16035,
    "Ġinher": 10179,
    "Ġterrors": 6918,
    "Ġplates": 11006,
    "Ġwitt": 17783,
    "Ġwaking": 11569,
    "Ġproblems": 2848,
    "Ġshade": 6550,
    "?âĢĻâĢĿ": 23641,
    "leading": 15560,
    "rance": 5993,
    "pole": 9332,
    "Ġital": 10866,
    "powerful": 24847,
    "accurately": 25861,
    "Ġca": 21337,
    "Ġpencil": 11941,
    "Ġunimpeachable": 26522,
    "Ġunprinciple": 18254,
    "Ġcub": 8413,
    "rown": 2192,
    "Ġmeryton": 4437,
    "Ġtwelve": 4962,
    "Ġpunch": 9954,
    "Ġscandal": 9081,
    "embarrassed": 20595,
    "Ġmuffled": 10640,
    "anchor": 13888,
    "Ġmajesty": 5200,
    "Ġcough": 11580,
    "Ġimpassable": 20611,
    "alty": 17938,
    "Ġwishing": 7830,
    "Ġcollecting": 12284,
    "ffy": 18316,
    "Ġindians": 14408,
    "backward": 2685,
    "È": 137,
    "Ġconvers": 2909,
    "esteem": 26008,
    "Ġattends": 19649,
    "Ġwillow": 18533,
    "Ġmari": 6813,
    "soft": 12507,
    "goldsmith": 20146,
    "wrapped": 15208,
    "Ġdictate": 20150,
    "unction": 10234,
    "Ġabaft": 22281,
    "Ġvoluntary": 14798,
    "ignantly": 23263,
    "roman": 22001,
    "Ġlights": 8960,
    "Ġrash": 10898,
    "reproof": 25432,
    "cords": 25136,
    "Ġsaving": 15886,
    "Ġserenely": 13506,
    "Ġbirch": 26174,
    "Ġquoted": 22412,
    "cloud": 11105,
    "Ġjoyous": 14663,
    "Ġinterested": 6458,
    "Ġlength": 2500,
    "Ġmut": 3580,
    "scorched": 25697,
    "Ġencourage": 10380,
    "Ġindefatigable": 17177,
    "coiled": 16486,
    "pipe": 8696,
    "dles": 11480,
    "on": 267,
    "actorily": 25576,
    "angible": 22102,
    "Ġfishers": 19352,
    "Ġflickering": 23014,
    "appointment": 24059,
    "Ġgrievances": 20647,
    "âĢĶâĢĺ": 7013,
    "libra": 22921,
    "mand": 3896,
    "Ġmachinery": 20483,
    "rodu": 1815,
    "Ġ**": 4719,
    "Ġwisest": 11232,
    "Ġderivative": 3002,
    "ł": 259,
    "Ġcrimin": 6901,
    "Ġkeel": 6444,
    "Î": 143,
    "Ġdispose": 23877,
    "displeasure": 23493,
    "Ġpriests": 15040,
    "despond": 19799,
    "Ġdismay": 11807,
    "meanwhile": 10609,
    "Ġtea": 5040,
    "Ġsilently": 6894,
    "impatience": 25500,
    "Ġbetween": 791,
    "zeal": 16271,
    "```": 25893,
    "osy": 11756,
    "Ġcracked": 8593,
    "Ġcallest": 17832,
    "Ġvices": 14082,
    "als": 2041,
    "Ġpossession": 5589,
    "Ġincredulous": 9986,
    "acknowled": 10975,
    "Ġtrance": 12838,
    "ĠĠĠĠĠĠĠĠĠĠĠĠĠĠĠĠĠĠĠĠĠĠĠĠĠĠĠĠĠĠĠĠĠĠĠĠĠĠĠĠĠĠĠĠĠ": 9951,
    "Ġunresting": 25553,
    "walked": 10570,
    "Ġexpressly": 16454,
    "Ġsant": 21213,
    "anting": 6412,
    "que": 1140,
    "Ġ61": 24364,
    "Ġgl": 1252,
    "Ġambition": 11432,
    "Ġenemy": 5605,
    "Ġwig": 9161,
    "Ġgul": 7859,
    "Ġjerked": 19831,
    "Ġparagra": 15878,
    "Ġtorch": 25030,
    "bs": 3749,
    "weave": 22682,
    "desponding": 26341,
    "_--": 20761,
    "nical": 20990,
    "Ġrecur": 1620,
    "Ġluff": 15651,
    "ute": 4641,
    "armed": 7251,
    "Ġinsisted": 12043,
    "max": 1682,
    "sive": 4145,
    "endeavour": 17031,
    "Ġbled": 17856,
    "Ġrescued": 24206,
    "Ġmischie": 22761,
    "Ġbell": 4634,
    "studied": 17149,
    "ifications": 9727,
    "Ġneedless": 19228,
    "Ġshame": 6410,
    "Ġcouldn": 7648,
    "Ġdisappointed": 7097,
    "Ġtear": 6723,
    "Ġepis": 19980,
    "Ġease": 5629,
    "Ġsebastian": 11696,
    "Ġdetailed": 12821,
    "purposes": 25021,
    "Ġebb": 21619,
    "Ġtam": 7821,
    "formal": 14168,
    "Ġrecognise": 12056,
    "dz": 4737,
    "Ġspine": 7407,
    "Ġyour": 633,
    "actually": 14296,
    "Ġfrequ": 3327,
    "Ġpulse": 13113,
    "Ġembarrassment": 10626,
    "schoolmaster": 15160,
    "Ġpurchas": 19873,
    "gunpowder": 25339,
    "Ġcult": 8781,
    "Ġbert": 4581,
    "Ġqueer": 4477,
    "unt": 2043,
    "brance": 7284,
    "Ġcountry": 2530,
    "ingale": 21298,
    "setting": 13284,
    "Ġmature": 17799,
    "Ġdisse": 18548,
    "Ġdignity": 5704,
    "Ġhandsome": 4905,
    "Ġascent": 19617,
    "Ġunfathomable": 20547,
    "dropped": 12260,
    "Ġpoignant": 22590,
    "Ġentered": 2845,
    "Ġcolours": 12971,
    "Ġtranslation": 3087,
    "Ġdisp": 3358,
    "Ġjackal": 24239,
    "Ġ5": 4934,
    "compasses": 19456,
    "Ġbreezes": 14868,
    "conjecture": 15121,
    "Ġpuffing": 12252,
    "downstairs": 23917,
    "generations": 23783,
    "Ġtaken": 2526,
    "Ġrudimental": 25108,
    "Ġposture": 24164,
    "Ġcircumnavigation": 20398,
    "sleeves": 26109,
    "iscreet": 20681,
    "Ġconcerns": 11965,
    "Ġdisregarded": 22527,
    "atiable": 17774,
    "Ġclever": 7054,
    "Ġmortal": 4680,
    "catherine": 7127,
    "march": 13754,
    "Ġplentiful": 12908,
    "separated": 20158,
    "Ġdestro": 3721,
    "Ġhalyards": 21491,
    "tempt": 21078,
    "annica": 24561,
    "Ġconvince": 14642,
    "Ġemblematical": 25788,
    "Ġkneel": 14806,
    "Ġlogical": 14486,
    "Ġwor": 1186,
    "Ġunremitting": 26217,
    "ascribed": 24708,
    "Ġexpected": 3696,
    "icial": 12652,
    "around": 12605,
    "interred": 23735,
    "Ġcoer": 22576,
    "necess": 4895,
    "Ġextra": 4057,
    "Ġtough": 13814,
    "diss": 17523,
    "aths": 22696,
    "Ġpersonal": 7479,
    "Ġcorrectly": 9403,
    "Ġdispel": 16596,
    "Ġplace": 1649,
    "ld": 385,
    "Ġshipmate": 8928,
    "ella": 12745,
    "uing": 17693,
    "Ġmock": 3690,
    "Ġreservoir": 20650,
    "Ġprodigiously": 14931,
    "preser": 9759,
    "hammered": 19003,
    "Ġeloped": 22642,
    "âĢĿ--": 21811,
    "Ġbennet": 1575,
    "Ġshelf": 12265,
    "Ġtemporarily": 11167,
    "Ġkitchen": 8495,
    "Ġconsummate": 25310,
    "epilogue": 22097,
    "Ġscared": 14187,
    "Ġrepent": 9862,
    "Ġfully": 6342,
    "Ġleeward": 6210,
    "Ġcopestone": 24936,
    "Ġrepaired": 13106,
    "Ġmost": 1020,
    "Ġdearer": 14048,
    "Ġreaching": 7303,
    "Ġperadventure": 22394,
    "backs": 9390,
    "Ġpython": 1070,
    "Ġsupremacy": 20259,
    "Ġtrooped": 24899,
    "Ġsermons": 20193,
    "Ġexhaust": 6399,
    "Ġtobacco": 8366,
    "Ġbr": 1072,
    "Ġconst": 1910,
    "Ġwedge": 24070,
    "Ġtinge": 25087,
    "Ġapprehensiveness": 16877,
    "Ġprojecting": 9984,
    "Ġjavelins": 26105,
    "ited": 1749,
    "ographical": 16786,
    "Ġval": 953,
    "Ġoscillations": 2899,
    "Ġadvancing": 6878,
    "Ġwards": 17789,
    "dug": 18462,
    "Ġassigned": 16312,
    "Ġmuttering": 10499,
    "ancies": 11583,
    "Ġwidower": 24235,
    "Ġfamily": 1967,
    "gryphon": 15357,
    "oquence": 11386,
    "Ġwindings": 18909,
    "Ġsymp": 4501,
    "Ġang": 2510,
    "Ġbuckskin": 19950,
    "Ġinnocent": 4920,
    "Ġerrand": 11085,
    ",âĢĶâĢľ": 10069,
    "Ġcapabilities": 4377,
    "Ġlikes": 9407,
    "Ġjudgment": 5765,
    "terday": 4703,
    "Ġblasp": 14400,
    "eyeing": 14945,
    "Ġwint": 15532,
    "Ġwrath": 16317,
    "Ġpathways": 11153,
    "elling": 5830,
    "Ġforeign": 9871,
    "Ġheartless": 13071,
    "ifling": 15781,
    "asht": 4085,
    "Ġtypewritten": 16421,
    "ock": 15402,
    "rated": 6227,
    "Ġforced": 4353,
    "Ġsecrets": 9054,
    "Ġsab": 10762,
    "Ġunfavourable": 17416,
    "Ġ&": 6513,
    "pract": 10119,
    "Ġaspired": 25984,
    "sorrow": 12506,
    "Ġtakings": 20571,
    "Ġprophecy": 25706,
    "mortals": 25409,
    "bushes": 24447,
    "lik": 3917,
    "Ġbern": 17858,
    "adm": 7608,
    "Ġvanish": 8927,
    "ling": 735,
    "urements": 18123,
    "Ġnarrow": 5085,
    "Ġprogra": 1144,
    "rods": 21535,
    "engineer": 23146,
    "Ġdistorted": 14249,
    "Ġboscombe": 8325,
    "Ġbluff": 16517,
    "Ġornament": 11717,
    "Ġmoulded": 16975,
    "Ġsplintered": 11418,
    "Ġcliffs": 15967,
    "Ġlingu": 11613,
    "Ġsegmentation": 17339,
    "cept": 548,
    "stains": 11636,
    "spir": 5738,
    "Ġauthoritative": 19560,
    "pper": 3210,
    "Ġprofile": 16488,
    "Ġbade": 9171,
    "Ġcomprehens": 8319,
    "sham": 9757,
    "heaven": 8052,
    "Ġbreat": 3458,
    "ilty": 6394,
    "narrated": 25621,
    "Ġbedfellow": 16437,
    "Ġquality": 3526,
    "ĠĠĠĠĠĠĠĠĠĠĠĠĠĠĠĠĠĠĠĠĠĠĠĠĠĠĠĠĠĠĠĠĠĠĠĠĠĠĠĠĠĠĠĠĠĠĠĠĠ": 20036,
    "Ġcarving": 14442,
    "Ġrejecting": 17051,
    "Ġbrahma": 26319,
    "Ġuniversally": 11998,
    "tube": 20409,
    "Ġcenturies": 8622,
    "Ġknowest": 12860,
    "Ġholiest": 18811,
    "trunk": 23945,
    "Ġlanded": 7469,
    "Ġ1950": 11359,
    "Ġshake": 6033,
    "Ġopulent": 23627,
    "penet": 11070,
    "Ġdeformed": 14046,
    "was": 1421,
    "phur": 16156,
    "Ġnice": 6676,
    "Ġpay": 3965,
    "Ġeurope": 8061,
    "agers": 5633,
    "treacle": 25148,
    "Ġgleaming": 24993,
    "Ġacknowledged": 7534,
    "Ġnumerous": 6920,
    "Ġquohog": 10972,
    "indeed": 4486,
    "Ġnaturalists": 10362,
    "Ġschool": 5512,
    "Ġarrogance": 26231,
    "Ġanimated": 7701,
    "writhed": 26080,
    "Ġeastern": 11628,
    "Ġsensations": 5258,
    "Ġballarat": 14718,
    "itors": 2916,
    "erate": 7149,
    "Ġaffection": 2636,
    "Ġsuffer": 4720,
    "sme": 17658,
    "Ġeffect": 964,
    "Ġyoked": 15733,
    "stamp": 21651,
    "unimportant": 18159,
    "Ġbra": 3255,
    "Ġ43": 14769,
    "astrous": 15885,
    "affair": 14655,
    "Ġreceived": 2955,
    "Ġlanguid": 14219,
    "Ġernest": 8716,
    "Ġgiant": 13967,
    "Ġspatial": 2730,
    "Ġvexatious": 19780,
    "Ġbars": 13896,
    "quite": 4645,
    "uvian": 12240,
    "Ġstatue": 23147,
    "Ġhunts": 23156,
    "beneath": 9534,
    "Ġtalent": 12295,
    "Ġbutterfly": 19909,
    "Ġalle": 11665,
    "Ġ200": 19295,
    "ire": 494,
    "Ġcrushed": 9422,
    "Ġoutfits": 22318,
    "sustained": 20567,
    "cob": 10086,
    "Ġjoint": 12032,
    "pleasantness": 19769,
    "Ġhideous": 5982,
    "Ġsutherland": 10148,
    "narwhale": 17317,
    "heavenly": 20043,
    "Ġweaver": 11686,
    "Ġsteward": 6584,
    "Ġreduce": 7942,
    "furthest": 19840,
    "screaming": 20324,
    "Ġrevived": 11368,
    "orney": 17873,
    "Ġ78": 19612,
    "Ġsurvive": 9066,
    "Ġsuspect": 5758,
    "japan": 15373,
    "Ġillustrious": 17109,
    "Ġdeadly": 5405,
    "Ġdiv": 3730,
    "Ġplaus": 22596,
    "sheep": 23083,
    "Ġbomb": 17867,
    "Ġslender": 11938,
    "Ġsurrey": 14559,
    "order": 1960,
    "Ġsinusoid": 4780,
    "oc": 2834,
    "Ġclattering": 22344,
    "Ġimpulses": 19960,
    "entieth": 17978,
    "Ġvanished": 6874,
    "vig": 15446,
    "Ġinanimate": 13932,
    "pine": 13768,
    "Ġundesired": 12776,
    "Ġtables": 9877,
    "Ġguinea": 8947,
    "Ġholmes": 1309,
    "Ġsharing": 3475,
    "Ġcleans": 18947,
    "Ġaccord": 4027,
    "Ġsuperior": 2752,
    "Ġgravity": 9247,
    "Ġneither": 3685,
    "Ġcontributed": 16007,
    "evenings": 19461,
    "Ġade": 22098,
    "embedding": 20703,
    "anything": 5518,
    "Ġcage": 17825,
    "Ġhandsomest": 20333,
    "attle": 4465,
    "practical": 17221,
    "ening": 3105,
    "Ġemployments": 12100,
    "Ġlionel": 25286,
    "anim": 6522,
    "cket": 3686,
    "Ġrestricted": 19024,
    "Ġgrap": 11705,
    "ridge": 9496,
    "Ġmermaids": 26170,
    "Ġorgan": 2502,
    "Ġpermitting": 22395,
    "moor": 22699,
    "Ġunheeded": 18261,
    "Ġhelen": 16655,
    "Ġoverpowering": 15248,
    "Ġpell": 21454,
    "Ġdumplings": 15189,
    "ety": 3519,
    "Ġskylight": 24073,
    "Ġding": 12596,
    "Ġlatitude": 8328,
    "Ġsash": 17754,
    "Ġmaz": 15540,
    "carpet": 25202,
    "otherwise": 7670,
    "Ġrust": 6408,
    "Ġlbs": 11614,
    "indian": 11776,
    "Ġlocks": 11722,
    "Ġunseasonable": 26520,
    "Ġdictating": 20151,
    "Ġagainst": 1699,
    "Ġ118": 19697,
    "allow": 5103,
    "reward": 15509,
    "Ġocc": 888,
    "Ġentering": 6285,
    "Ġirresolute": 24916,
    "rove": 21530,
    "iluvian": 18060,
    "Ġlikeness": 11179,
    "cer": 6642,
    "Ġ(âĢľ": 15994,
    "throw": 14097,
    "Ġelbowed": 16109,
    "Ġagain": 815,
    "Ġfeathers": 15118,
    "Åĵ": 10744,
    "abular": 4760,
    "incom": 21180,
    "Ġliking": 23590,
    "Ġphantoms": 13485,
    "Ġtheme": 16019,
    "ost": 5360,
    "Ġcoverage": 4289,
    "ort": 518,
    "Ġgrapp": 14100,
    "disciple": 16778,
    "Ġheavens": 5049,
    "Ġimprinted": 22386,
    "ernation": 8211,
    "rud": 4192,
    "omination": 21639,
    "Ġtwins": 16119,
    "Ġsoften": 23120,
    "continually": 11302,
    "Ġpitiable": 9913,
    "hauled": 20667,
    "Ġbrougham": 17870,
    "Ġsung": 23270,
    "remark": 7261,
    "Ġobjections": 8564,
    "Ġemblem": 20496,
    "Ġshift": 2282,
    "Ġdiscourage": 3116,
    "Ġprosecut": 9698,
    "Ġassured": 4372,
    "Ġclicked": 22345,
    "Ġadequately": 15197,
    "Ġrope": 4339,
    "Ġanswerable": 23469,
    "Ġconce": 3421,
    "Ġstreat": 15719,
    "plicable": 10255,
    "Ġmist": 2875,
    "body": 2309,
    "Ġprincip": 5600,
    "behaviour": 11301,
    "lacings": 26134,
    "izzy": 3095,
    "bulkington": 19924,
    "Ġresign": 18564,
    "Ġbridges": 24682,
    "lifeless": 24312,
    "Ġsabbee": 17255,
    "Ġdrifting": 19278,
    "Ġinvis": 6902,
    "Ġsinew": 25431,
    "silence": 8044,
    "interruption": 20110,
    "eng": 1489,
    "71": 20755,
    "Ġorphan": 12381,
    "Ġfinally": 4665,
    "regulated": 23466,
    "Ġpropensity": 18996,
    "whalemen": 10431,
    "strom": 15682,
    "carriage": 9945,
    "Ġrick": 21967,
    "Ġproperties": 3118,
    "worked": 19028,
    "Ġalfred": 21783,
    "Ġgable": 15665,
    "Ġtwitching": 25683,
    "Ġpolitic": 23617,
    "know": 2319,
    "chard": 21684,
    "guilty": 19481,
    "Ġscaled": 2106,
    "Ġfav": 1753,
    "Ġforemast": 12004,
    "Ġnewcomer": 26040,
    "Ġnow": 693,
    "lleg": 20950,
    "Ġenraged": 10244,
    "barrow": 15320,
    "Ġhump": 5853,
    "Ġsnar": 13199,
    "Ġdecisions": 6702,
    "berish": 22716,
    "degra": 22138,
    "Ġsalutation": 12395,
    "geor": 15977,
    "Ġaspire": 21897,
    "aur": 15307,
    "Ġrelationships": 2928,
    "Ġprecision": 13188,
    "Ġsleeps": 10446,
    "Ġsuccessfully": 19427,
    "Ġboomer": 20166,
    "obey": 11509,
    "Ġappears": 5402,
    "Ġamphitheat": 26252,
    "Ġproved": 4883,
    "two": 3859,
    "Ġrevolver": 14899,
    "D": 40,
    "Ġori": 8408,
    "Ġnervous": 2401,
    "instead": 14812,
    "uary": 11537,
    "Ġchancing": 22245,
    "omited": 21638,
    "guard": 12126,
    "Ġwanting": 6721,
    "Ġmultiple": 1184,
    "pike": 11514,
    "Ġmostly": 7663,
    "Ġrobert": 10970,
    "Ġbanqu": 12585,
    "Ġtranque": 14204,
    "Ġadult": 18289,
    "Ġpairs": 4184,
    "Ġdisadvantage": 12887,
    "Ġpull": 5151,
    "Ġdestabilizing": 5052,
    "Ġhumorous": 10360,
    "hush": 20905,
    "fab": 13715,
    "nurtured": 25524,
    "Ġhabitation": 14802,
    "Ġtis": 15465,
    "renewed": 19703,
    "Ġpeculiarly": 8286,
    "Ġostrich": 26430,
    "Ġexperienced": 6579,
    "receive": 12539,
    "ology": 1567,
    "Ġfearing": 12812,
    "Ġreef": 10849,
    "Ġnaturally": 2467,
    "iature": 8741,
    "Ġgrampus": 21990,
    "Ġsystems": 828,
    "Ġduodecimo": 16767,
    "Ġmanifested": 17157,
    "ying": 1449,
    "urring": 21702,
    "Ġtink": 9148,
    "bishop": 13693,
    "footsteps": 25199,
    "icket": 22665,
    "fel": 8733,
    "Ġxxxi": 24966,
    "clock": 3935,
    "Ġconceits": 19388,
    "Ġloitering": 22113,
    "Ġretreating": 19798,
    "ogy": 22708,
    "Ġentic": 16142,
    "Ġtranquillity": 7536,
    "Ġtangles": 25761,
    "Ġmoustache": 20482,
    "Ġbroke": 5322,
    "Ġprodigies": 19792,
    "Ġscrewed": 15119,
    "course": 6104,
    "perfect": 7634,
    "Ġexplain": 545,
    "iii": 14774,
    "bbed": 6911,
    "bank": 10079,
    "Ġbrine": 18769,
    "ssible": 2995,
    "Ġbasement": 24702,
    "Ġnodded": 11968,
    "zen": 5139,
    "Ġque": 4160,
    "hew": 5364,
    "Ġstrangeness": 16707,
    "ark": 850,
    "o": 83,
    "Ġdivert": 23592,
    "proved": 11985,
    "Ġaltar": 9228,
    "ĠâĢĻ": 3043,
    "Ġimplicated": 24875,
    "example": 16012,
    "Ġmachines": 1774,
    "lipped": 16216,
    "Ġfatigue": 8697,
    "rough": 588,
    "Ġcalm": 3445,
    "warm": 8101,
    "Ġtwo": 1045,
    "Ġleader": 14701,
    "Ġprovince": 24189,
    "representing": 25271,
    "Ġmappings": 2150,
    "Ġcontinental": 19704,
    "estinated": 15920,
    "Ġpoetic": 17103,
    "Ġbeloved": 5572,
    "ad": 337,
    "Ġspouting": 9438,
    "Ġgum": 21592,
    "Ġnodding": 23331,
    "Ġcongregational": 25102,
    "Ġobed": 8535,
    "Ġharpooneers": 4730,
    "score": 18856,
    "Ġmumbled": 17807,
    "english": 2773,
    "centred": 25017,
    "ut": 308,
    "Ġcontracted": 12857,
    "omin": 4701,
    "Ġpeaked": 2297,
    "Ġconfirming": 25321,
    "Ġstiff": 6992,
    "aust": 15308,
    "Ġcovering": 13253,
    "Ġdefilements": 26284,
    "Ġanimate": 23421,
    "Ġbeginning": 4244,
    "eer": 15346,
    "Ġesq": 15107,
    "Ġsatire": 22897,
    "Ġcaulking": 20292,
    "Ġgag": 21590,
    "ough": 472,
    "Ġagent": 6277,
    "Ġarve": 15897,
    "caused": 25519,
    "Ġdo": 512,
    "Ġvirtues": 9935,
    "Ġhill": 5626,
    "Ġdelineations": 26058,
    "Ġrhyme": 21975,
    "seized": 14034,
    "hun": 5209,
    "queen": 12724,
    "ontory": 10459,
    "Ġaccomplishments": 13378,
    "Ġboy": 3024,
    "Ġmechanism": 2623,
    "Ġ7": 4743,
    "robe": 15640,
    "Ġaverted": 16255,
    "Ġblacksmith": 6595,
    "ellow": 3876,
    "Ġhardened": 14449,
    "approach": 24833,
    "Ġprincess": 23221,
    "Ġacquies": 11097,
    ".]": 15297,
    "protruding": 24816,
    "peculiarities": 13470,
    "mystic": 25316,
    "Ġlocked": 6034,
    "Ġglim": 9343,
    "shut": 10982,
    "ouncing": 8494,
    "Ġdistantly": 18534,
    "Ġdetection": 3187,
    "turbaned": 24532,
    "Ġflorida": 20658,
    "hos": 15362,
    "mistress": 14904,
    "loose": 11803,
    "Ġriddle": 14819,
    "urch": 3995,
    "Ġservices": 11217,
    "fulfil": 16039,
    "Ġunless": 4091,
    "Ġpoorly": 9854,
    "Ġverd": 6919,
    "redit": 3877,
    "Ġ181": 23892,
    "corner": 13396,
    "Ġaudible": 19880,
    "Ġtort": 5901,
    "Ġpossibly": 4513,
    "illar": 5100,
    "Ġtightly": 13533,
    "Ġcrying": 10786,
    "Ġblind": 3715,
    "transition": 24513,
    "Ġar": 480,
    "Ġdisobey": 18559,
    "arity": 1303,
    "Ġemploying": 23975,
    "descried": 11927,
    "Ġqualities": 7533,
    "Ġprophet": 7680,
    "solution": 14686,
    "Ġork": 18284,
    "](": 11466,
    "Ġdespatched": 23827,
    "Ġfourth": 7706,
    "Ġtracing": 18890,
    "Ġtranslates": 12048,
    "maybe": 23988,
    "Ġentrances": 25834,
    "torn": 17682,
    "Ġcedar": 15187,
    "Ġcoach": 6867,
    "Ġsells": 21222,
    "Ġdeserved": 7736,
    "winds": 10521,
    "Ġmethinks": 10390,
    "Ġwhir": 6393,
    "tenderly": 20529,
    "rimin": 2423,
    "Ġindulgence": 11319,
    "Ġqueens": 16706,
    "swim": 16779,
    "Ġricher": 12756,
    "Ġalter": 6542,
    "Ġswims": 12117,
    "Ġcomputer": 1194,
    "Ġmeanness": 22593,
    "Ġintact": 21986,
    "Ġparallelization": 3429,
    "Ġ48": 24081,
    "Ġlazarus": 15028,
    "upset": 23017,
    "Ġaquiline": 26159,
    "Ġextort": 22721,
    "Ġtierce": 15478,
    "Ġsofas": 26224,
    "Ġvess": 3295,
    "Ġpoets": 11819,
    "Ġbestowed": 6593,
    "Ġglit": 8558,
    "Ġsurmount": 19999,
    "Ġrosy": 18458,
    "Ġcheer": 4068,
    "Ġam": 661,
    "mill": 13753,
    "Ġrecurrent": 1801,
    "Ġrequisite": 18637,
    "Ġsymph": 22213,
    "exc": 5168,
    "itely": 5365,
    "Ġautonom": 10416,
    "Ġtufted": 17014,
    "deformity": 22143,
    "idly": 12697,
    "Ġgrim": 7439,
    "Ġgruff": 21611,
    "Ġchild": 2261,
    "pil": 15408,
    "Ġparch": 11724,
    "Ġhunting": 7259,
    "elevating": 20404,
    "al": 292,
    "Ġconsist": 1932,
    "Ġburgled": 23655,
    "Ġtwitch": 22673,
    "opÃ¦": 12870,
    "Ġreusable": 13556,
    "Ġhoops": 9388,
    "Ġhyper": 19738,
    "Ġcompanion": 3641,
    "Ġuncivilized": 25498,
    "lucifer": 25301,
    "Ġwhole": 1658,
    "Ġaffords": 16734,
    "Ġstifle": 18073,
    "Ġimpressed": 8198,
    "Ġsus": 18278,
    "Ġslackened": 15125,
    "tinted": 17683,
    "avier": 2829,
    "understood": 13215,
    "Ġwarmly": 8987,
    "deli": 15343,
    "Ġselfish": 7272,
    "Ġphilipses": 24452,
    "fixed": 7548,
    "Ġprofessed": 14723,
    "Ġchoke": 22246,
    "Ġthither": 6821,
    "Ġresignation": 18566,
    "Ġrecommend": 7102,
    "airs": 2221,
    "Ġhardy": 8565,
    "holloa": 19462,
    "Ġbatch": 890,
    "extreme": 11029,
    "Ġplaning": 22598,
    "Ġinspirited": 23419,
    "print": 23808,
    "Ġkeys": 11995,
    "Ġcreating": 3000,
    "vocation": 25084,
    "haust": 5777,
    "Ġconveniences": 19811,
    "disappeared": 14570,
    "sounding": 24796,
    "loud": 11500,
    "Ġtumult": 7114,
    "pull": 6796,
    "warmest": 25027,
    "Ġsuggestive": 11297,
    "Ġburied": 7718,
    "later": 20952,
    "Ġguilt": 6179,
    "biting": 20779,
    "Ġoceans": 7995,
    "Ġconsiderably": 7714,
    "passed": 8025,
    "Ġ134": 24784,
    "interval": 7990,
    "Ġsimple": 1619,
    "limp": 20951,
    "Ġsauntering": 18327,
    "Ġbefall": 8828,
    "kicked": 20942,
    "iloqu": 11647,
    "Ġclaims": 13372,
    "Ġlanc": 19763,
    "Ġstudy": 1802,
    "Ġorb": 22086,
    "Ġbought": 8415,
    "Ġmanner": 2196,
    "Ġconvalescence": 23744,
    "Ġshorter": 4497,
    "precisely": 6917,
    "ensive": 6279,
    "Ġprinc": 4201,
    "Ġmessages": 24981,
    "Ġshoreless": 24295,
    "Ġtreats": 19342,
    "attacks": 23119,
    "ui": 9144,
    "Ġlevel": 5019,
    "Ġstatistics": 1680,
    "Ġfaults": 12210,
    "Ã¦st": 24175,
    "Ġpaus": 4300,
    "shoulders": 16584,
    "Ġforcibly": 10060,
    "enses": 10994,
    "Ġcleansed": 26293,
    "Ġdispute": 16055,
    "crowd": 25254,
    "ousand": 2429,
    "Ġsteadily": 8051,
    "Ġbless": 4343,
    "Ġmarbank": 23036,
    "neville": 22448,
    "âĢľâĢĻ": 10221,
    "Ġnews": 3817,
    "intosh": 22937,
    "oric": 21394,
    "Ġkick": 5837,
    "itself": 7834,
    "Ġcommerce": 11015,
    "frame": 17116,
    "Ġprovinces": 24190,
    "Ġsang": 12532,
    "occup": 7752,
    "Ġdistrict": 10318,
    "Ġrenew": 6145,
    "Ġpoised": 22587,
    "Ġpoured": 8800,
    "Ġinsincere": 26599,
    "informed": 17736,
    "Ġtheoretically": 3564,
    "fing": 13712,
    "arrang": 14652,
    "Ġflash": 8229,
    "bohem": 19001,
    "Ġdimin": 3872,
    "Ġavowed": 16633,
    "Ġmankind": 6698,
    "Ġwarm": 2425,
    "Ġarsacides": 17293,
    "ces": 578,
    "Ġpir": 6818,
    "Ġspear": 9313,
    "Ġmeant": 3548,
    "Ġsolomon": 11052,
    "Ġguests": 12285,
    "Ġaback": 22273,
    "Ġmass": 3778,
    "desirable": 23207,
    "lamps": 25260,
    "Ġkrusenstern": 26377,
    "within": 6730,
    "pot": 10117,
    "ortion": 11755,
    "thrill": 25656,
    "Ġfabulous": 25948,
    "Ġproduce": 4367,
    "Ġpr": 1597,
    "Ġfrederick": 15585,
    "whew": 22860,
    "rets": 12538,
    "Ġaffidavit": 20723,
    "fi": 12459,
    "Ġrumpled": 24600,
    "Ġdecay": 1011,
    "Ġcistern": 17380,
    "Ġdrugged": 12599,
    "Ġchapter": 2958,
    "spoutings": 25001,
    "ccas": 15884,
    "Ġnecessitates": 23926,
    "bbs": 23690,
    "month": 6463,
    "cus": 3981,
    "approve": 19935,
    "Ġwhistling": 19789,
    "Ġprocuring": 16870,
    "Ġsequ": 982,
    "perch": 18341,
    "ouraged": 22852,
    "Ġcrevice": 22727,
    "astonished": 15032,
    "Ġnostrils": 10943,
    "maintained": 25020,
    "apidated": 22333,
    "Ġcontrivances": 12355,
    "sullenly": 26149,
    "Ġtolland": 24988,
    "mosphere": 10042,
    "Ġinstigated": 18702,
    "cigar": 26124,
    "Ġworked": 6583,
    "Ġgloves": 8574,
    "Ġcrazy": 8592,
    "emph": 21925,
    "Ġlot": 6678,
    "Ġmoody": 8200,
    "cruet": 17026,
    "Ġoarsman": 8637,
    "Ġunstructured": 3006,
    "hear": 10146,
    "character": 6331,
    "gin": 4929,
    "often": 6165,
    "Ġshrine": 19530,
    "Ġopine": 19226,
    "Ġann": 4488,
    "Ġspeech": 4609,
    "nett": 16220,
    "Ġconceited": 12088,
    "cturn": 17986,
    "Ġmaterials": 11288,
    "Ġsolicit": 22878,
    "Ġlands": 6594,
    "ments": 1400,
    "Ġpracticable": 19062,
    "monsters": 19170,
    "keep": 3849,
    "Ġghost": 6142,
    "Ġple": 1469,
    "Ġsuffers": 2976,
    "uniform": 18157,
    "stick": 15683,
    "Ġunpitying": 25660,
    "Ġgentleman": 3041,
    "Ġclergy": 7642,
    "Ġpositives": 4318,
    "Ġfrequented": 16585,
    "ingolstadt": 21302,
    "Ġpractises": 23334,
    "Ġfondly": 19615,
    "Ġender": 11688,
    "sorting": 17004,
    "Ġsurm": 7476,
    "card": 11475,
    "Ġprovision": 14824,
    "Ġsuperl": 16446,
    "interrupt": 8615,
    "som": 3291,
    "pled": 7891,
    "Ġformed": 3885,
    "Ġwits": 15531,
    "Ġox": 7153,
    "Ġarrang": 2469,
    "Ġapparel": 20434,
    "Ġslid": 7951,
    "Ġgiver": 21602,
    "bits": 17488,
    "luck": 5733,
    "Ġchristendom": 16695,
    "Ġreturned": 2891,
    "Ġlicensing": 20091,
    "sides": 12505,
    "istan": 22105,
    "itled": 7577,
    "Ġnavigation": 9992,
    "Ġstreaked": 19113,
    "Ġphrensy": 25124,
    "Ġmem": 2069,
    "Ġespecially": 3938,
    "Ġmisunderstood": 18707,
    "dish": 12450,
    "Ġcastle": 14716,
    "Ġ58": 24326,
    "Ġwithheld": 18114,
    "Ġpo": 737,
    "Ġlarge": 1065,
    "Ġthoroughfare": 16944,
    "Ġpurporting": 19181,
    "smeer": 26147,
    "Ġidler": 16404,
    "ĳ": 244,
    "Ġviolates": 3165,
    "Ġpresent": 1639,
    "Ġappro": 636,
    "Ġrested": 9378,
    "screw": 9346,
    "transformers": 8714,
    "last": 3801,
    "Ġpetersburgh": 24228,
    "uned": 21868,
    "Ġforenoon": 19126,
    "Ġprynne": 25540,
    "Ġdedu": 5583,
    "deduction": 23555,
    "Ġlac": 17964,
    "problems": 11434,
    "Ġtap": 12523,
    "Ġcomprehensiveness": 25072,
    "Ġjavan": 24997,
    "Ġawoke": 7286,
    "Ġmast": 2901,
    "wolf": 26409,
    "Ġgree": 7594,
    "jam": 15370,
    "fast": 3069,
    "stre": 5451,
    "lotte": 3331,
    "uarded": 21104,
    "Ġtriumph": 5142,
    "banish": 20781,
    "rived": 5373,
    "Ġnicely": 8708,
    "athies": 22697,
    "Ġcauses": 2558,
    "doors": 19094,
    "Ġmedicine": 15204,
    "eland": 11619,
    "Ġformations": 18750,
    "dare": 12451,
    "Ġriddles": 16732,
    "Ġwhimsical": 20426,
    "Ġengraved": 17081,
    "Ġdivers": 9665,
    "Ġdanes": 25156,
    "Ġeighteenth": 14754,
    "moored": 22701,
    "Ġsimplicity": 2926,
    "Ġboxed": 24360,
    "Ġrespecting": 14483,
    "Ġvolat": 24144,
    "Ġtempt": 5565,
    "Ġpolite": 9881,
    "Ġcounters": 24140,
    "buttoned": 13631,
    "Ġgrow": 2859,
    "Ġsport": 6688,
    "circumstance": 7763,
    "Ġclenched": 14202,
    "Ġchurch": 4709,
    "covenant": 23560,
    "poke": 18797,
    "Ġchilly": 25562,
    "acup": 14277,
    "Ġsevent": 18202,
    "bantering": 25253,
    "Ġpretext": 22226,
    "Ġintroduced": 7690,
    "encyclopÃ¦dia": 16663,
    "Ġours": 4611,
    "accomplishment": 20222,
    "Ġpurchases": 24756,
    "Ġrecall": 3855,
    "knowledge": 7478,
    "adv": 4536,
    "Ġdaint": 15591,
    "Ġeliza": 6437,
    "Ġelix": 22641,
    "Ġrevealing": 3926,
    "Ġfamil": 4321,
    "Ġremark": 2148,
    "azing": 7704,
    "Ġhorr": 3190,
    "approb": 11043,
    "claims": 25319,
    "degrees": 22147,
    "Ġnooks": 26011,
    "atching": 8201,
    "Ġbarrel": 23789,
    "whims": 22236,
    "iality": 8843,
    "Ġestim": 3348,
    "Ġfulfil": 9550,
    "um": 453,
    "isp": 5528,
    "Ġhunt": 6183,
    "grie": 12468,
    "also": 7850,
    "Ġlink": 8129,
    "drew": 7334,
    "Ġpoky": 21477,
    "hab": 1077,
    "chains": 9684,
    "Ġderision": 16310,
    "ario": 14247,
    "Ġpreacher": 18369,
    "Ġintu": 12760,
    "gle": 20868,
    "Ġharbors": 24901,
    "resides": 23670,
    "Ġdeduce": 8336,
    "phenomenon": 17648,
    "Ġletters": 3790,
    "Ġsquares": 11169,
    "Ġfishermen": 5970,
    "hog": 8379,
    "ingly": 2137,
    "Ġghosts": 12230,
    "Ġheedful": 19739,
    "were": 2555,
    "Ġvagu": 13588,
    "Ġunderground": 18984,
    "Ġenigmatical": 20596,
    "wra": 11541,
    "usations": 15946,
    "eager": 12457,
    "Ġthreading": 23400,
    "Ġmutters": 23953,
    "Ġgracechurch": 12196,
    "idate": 21764,
    "Ġfishing": 9662,
    "Ġfishery": 4176,
    "Ġsurpassed": 25267,
    "finer": 17546,
    "Ġallusions": 10906,
    "prob": 7069,
    "ascending": 24707,
    "Ġcarpenter": 4683,
    "Ġfretfulness": 25448,
    "hement": 13831,
    "Ġdisgracing": 26255,
    "Ġearth": 2850,
    "de": 460,
    "Ġprair": 7746,
    "Ġcreature": 2382,
    "Ġstruct": 2782,
    "Ġhusbands": 16642,
    "Ġcounterpart": 24721,
    "Ġwind": 1433,
    "ceptibly": 22335,
    "Ġdolphins": 20394,
    "Ġgrunt": 18737,
    "perseus": 26005,
    "Ġexploring": 4306,
    "Ġexpression": 4515,
    "Ġbenjam": 22881,
    "Ġthundering": 24291,
    "Ġbuffaloes": 25217,
    "Ġwinding": 8235,
    "flames": 14711,
    "imely": 13997,
    "thankful": 16806,
    "Ġargosy": 24273,
    "Ġcapacious": 19175,
    "cheerful": 13574,
    "Ġ[\"": 19929,
    "dream": 8727,
    "shaped": 10308,
    "Ġyork": 11664,
    "Ġfun": 523,
    "ĠcÃ¦sar": 20578,
    "Ġcourses": 10411,
    "give": 4687,
    "Ġdigress": 24648,
    "Ġprim": 8243,
    "Ġquick": 2578,
    "Ġmeasurement": 19421,
    "Ġwarsaw": 26167,
    "representation": 20195,
    "Ġ17": 5740,
    "neath": 12864,
    "walton": 20248,
    "respond": 12541,
    "Ġwiser": 14729,
    "Ġherein": 16188,
    "Ġgrizz": 10351,
    "Ġhurriedly": 11250,
    "Ġinstructed": 19284,
    "Ġgiddy": 20495,
    "Ġexecutors": 19532,
    "Ġreb": 15689,
    "Ġaye": 3352,
    "onse": 21248,
    "Ġgestic": 21605,
    "Ġgayer": 24501,
    "stooped": 23818,
    "tiger": 13796,
    "Ġpalaces": 24091,
    "Ġrequirements": 9790,
    "Ġthrow": 3781,
    "Ġdecomposition": 5342,
    "Ġbefitting": 15724,
    "dissatisf": 26129,
    "receiving": 12540,
    "Ġoppressed": 11190,
    "Ġtoe": 13935,
    "izing": 1069,
    "acy": 3956,
    "popular": 26140,
    "Ġmillion": 14986,
    "Ġsain": 17750,
    "Ġuncommon": 5025,
    "Ġshiny": 14105,
    "Ġdream": 3536,
    "Ġajar": 21201,
    "attempted": 20173,
    "claim": 9834,
    "Ġdams": 16456,
    "islands": 21374,
    "respective": 19845,
    "Ġportcull": 23861,
    "objection": 19914,
    "Ġcomfortably": 16615,
    "Ġhedgehog": 10644,
    "Ġwearer": 21920,
    "Ġgunwales": 12238,
    "Ġaware": 5756,
    "Ø": 153,
    "omed": 13974,
    "moon": 10335,
    "or": 282,
    "Ġcharge": 5324,
    "Ġworshipper": 25692,
    "Ġstabbing": 20302,
    "prep": 9758,
    "Ġincalculable": 17460,
    "Ġinclemency": 22552,
    "agos": 21901,
    "Ġencl": 16166,
    "Ġarmies": 16492,
    "Ġevils": 9019,
    "thomas": 18219,
    "Ġsiamese": 20481,
    "Ġnapoleons": 25885,
    "Ġlanterns": 24577,
    "Ġhitherto": 5879,
    "Ġshakespeare": 20306,
    "Ġchoose": 5981,
    "Ġgossip": 18469,
    "pregn": 18501,
    "Ġmorality": 22973,
    "Ġcam": 10161,
    "buckets": 26123,
    "Ġintelligent": 1411,
    "Ġed": 2145,
    "Ġboots": 5942,
    "Ġkettle": 26232,
    "hon": 6793,
    "Ġyonder": 7392,
    "Ġwithdrawn": 10606,
    "Ġabsurdly": 19959,
    "Ġencouraged": 9354,
    "Ġlass": 15646,
    "Ġanim": 2115,
    "Ġsle": 2013,
    "Ġoccupies": 24005,
    "Ġdegraded": 19225,
    "ĠĠĠĠĠĠĠĠĠĠĠĠĠĠĠĠĠĠĠĠĠĠĠĠĠĠĠĠĠĠĠĠĠĠĠĠ": 23665,
    "Ġfastened": 7065,
    "movement": 25577,
    "Ġglasses": 9474,
    "unknown": 10890,
    "Ġconsume": 12955,
    "Ġdoze": 14176,
    "Ġtolerably": 8067,
    "Ġassociation": 24711,
    "romeda": 17262,
    "footman": 17162,
    "Ġperceived": 4712,
    "Ġdeclare": 6614,
    "Ġgreek": 10630,
    "perpendicular": 14162,
    "Ġounce": 15271,
    "Ġtusk": 25425,
    "Ġbapt": 13895,
    "ected": 7872,
    "seemingly": 25362,
    "magnificent": 20273,
    "stranger": 9882,
    "oa": 9612,
    "next": 5891,
    "Ġinvented": 17037,
    "Ġholding": 4978,
    "Ġwidow": 8662,
    "Ġshun": 11707,
    "Ġmisty": 16539,
    "gang": 17553,
    "Ġdistinctly": 7311,
    "eight": 9591,
    "unders": 13309,
    "worship": 19385,
    "Ġcatholic": 20680,
    "Ġdoubted": 7964,
    "umbered": 22114,
    "oysius": 14362,
    "Ġtimid": 6345,
    "Ġfears": 5729,
    "Ġimpenetrable": 17396,
    "nib": 5213,
    "Ġwearing": 12736,
    "Ġseething": 18203,
    "aboard": 21791,
    "sixteen": 24853,
    "troubled": 17112,
    "Ġkept": 3346,
    "Ġgums": 21608,
    "Ġbulkhead": 24511,
    "leeward": 15209,
    "Ġevidently": 6759,
    "arctic": 12607,
    "throt": 25659,
    "Ġwakeful": 24266,
    "position": 15413,
    "Ġangelic": 19626,
    "Ġrace": 5847,
    "byter": 16214,
    "Ġflowed": 10371,
    "Ġtypes": 8936,
    "tailed": 17685,
    "he": 264,
    "Ġsouth": 4910,
    "Ġruined": 12951,
    "Ġfurthest": 22813,
    "tle": 2407,
    "Ġfren": 10805,
    "Ġbuy": 8299,
    "eneva": 5117,
    "decoder": 3642,
    "Ġmounts": 17806,
    "impatiently": 20469,
    "Ġane": 9181,
    "54": 15298,
    "Ġmischief": 8541,
    "Ġinvestigation": 9042,
    "pshire": 21023,
    "?âĢĿâĢĶ": 12892,
    "Ġmuscles": 12086,
    "Ġunknown": 4452,
    "embers": 21926,
    "Ġbloody": 9888,
    "Ġnerve": 16340,
    "Ġgained": 4534,
    "igin": 3653,
    "quired": 21846,
    "Ġmouldings": 24737,
    "period": 15901,
    "Ġdiscre": 2415,
    "Ġdisguise": 10045,
    "wondrous": 12336,
    "calculation": 25688,
    "each": 7335,
    "Ġgenuine": 14884,
    "Ġbefore": 812,
    "Ġ1991": 3018,
    "needles": 20310,
    "Ġburying": 19251,
    "Ġexclamation": 8698,
    "repe": 8775,
    "Ġfantastic": 10058,
    "Ġdegrees": 7294,
    "Ġatmosphere": 10897,
    "shaw": 6864,
    "ced": 696,
    "Ġallured": 14112,
    "abomin": 15740,
    "dial": 20824,
    "suspended": 15176,
    "Ġjabez": 11764,
    "evident": 25520,
    "Ġwil": 4579,
    "Ġafforded": 8028,
    "Ġdefy": 11895,
    "without": 4845,
    "Ġrefer": 18697,
    "Ġinference": 9671,
    "Ġcrane": 23438,
    "Ġbro": 1429,
    "Ġtru": 4107,
    "Ġstrang": 4162,
    "Ġgrunted": 16167,
    "mechanically": 17299,
    "Ġfluid": 11212,
    "Ġwaif": 9374,
    "Ġcomply": 8890,
    "Ġmap": 2389,
    "Ġconvict": 23743,
    "Ġcl": 549,
    "Ġinterchange": 16070,
    "Ġleaf": 15721,
    "Ġexceed": 1348,
    "ieged": 22575,
    "constit": 24604,
    "vul": 15448,
    "clinging": 20821,
    "Ġsquires": 16180,
    "ter": 359,
    "ength": 2314,
    "Ġdeath": 2042,
    "Ġedward": 19119,
    "congenial": 25399,
    "nez": 22444,
    "jud": 4480,
    "bergs": 18682,
    "liest": 6294,
    "grasp": 16430,
    "tar": 8097,
    "Ġpromote": 23190,
    "Ġmotioned": 19591,
    "Ġwaist": 6892,
    "dislike": 23492,
    "ize": 773,
    "Ġframed": 19039,
    "nades": 20996,
    "Ġdecidedly": 9508,
    "naturedly": 24840,
    "Ġuser": 15916,
    "Ġshed": 8180,
    "ipelag": 12841,
    "Ġproprietors": 20185,
    "Ġimagination": 5759,
    "Ġsummoned": 9910,
    "carefully": 13367,
    "dy": 3862,
    "Ġenlarge": 21932,
    "mushroom": 26395,
    "further": 7535,
    "Ġsleet": 8975,
    "Ġelementary": 24814,
    "Ġdismally": 20213,
    "Ġreports": 19084,
    "aurus": 20559,
    "Ġexpedite": 24953,
    "ĠĠĠĠĠĠĠĠĠĠĠĠĠĠĠĠĠĠĠĠĠĠĠĠĠĠ": 13387,
    "Ġselected": 9710,
    "Ġisles": 8459,
    "tossing": 18582,
    "Ġconviction": 6326,
    "Ġpsychology": 11448,
    "Ġexclaimed": 4681,
    "rail": 10204,
    "lers": 10106,
    "Ġfinancier": 26583,
    "herald": 22202,
    "ian": 1236,
    "Ġenviron": 3796,
    "Ġgryphon": 4301,
    "Ġcrouching": 23442,
    "death": 6261,
    "arpo": 1754,
    "Ġpants": 21463,
    "Ġmythologies": 26213,
    "Ġpruning": 18969,
    "Ġnarwhale": 12291,
    "Ġbrighter": 16185,
    "Ġcultivated": 17363,
    "âĢĿâĢĶ": 5721,
    "Ġdistribut": 842,
    "Ġcomputes": 4766,
    "Ġinvestig": 10549,
    "Ġpreservative": 24629,
    "fourths": 25509,
    "attest": 23116,
    "direct": 12454,
    "Ġceasing": 23755,
    "Ġho": 1930,
    "Ġcaul": 10787,
    "Ġprodig": 6027,
    "Ġprevents": 2554,
    "Ġtree": 5284,
    "Ġcrosswise": 18886,
    "Ġodor": 12147,
    "Ġimpetuous": 25570,
    "Ġexample": 5095,
    "verdict": 21726,
    "ement": 1504,
    "ratches": 20123,
    "Ġoverl": 18427,
    "Ġlashes": 17966,
    "Ġembodiment": 20527,
    "Ġgrip": 11626,
    "Ġgenus": 24429,
    "iana": 7048,
    "Ġhumbled": 16194,
    "Ġfolly": 7940,
    "Ġmanagement": 8192,
    "ger": 1104,
    "Ġrear": 6535,
    "Ġresounds": 22539,
    "counters": 25397,
    "Ġoverdone": 22357,
    "fail": 17540,
    "Ġexcellent": 4238,
    "Ġseparating": 16685,
    "Ġmouldy": 14973,
    "abs": 11666,
    "uncommon": 11680,
    "Ġabsorb": 25112,
    "itzerland": 9994,
    "Ġmathematical": 3350,
    "Ġtraditions": 11443,
    "memory": 13616,
    "lashed": 20953,
    "Ġcircular": 13109,
    "agonies": 21906,
    "Ġvel": 7186,
    "Ġpillows": 24986,
    "Ġnervousness": 23552,
    "Ġspinal": 12300,
    "Ġhoot": 19076,
    "strade": 5064,
    "Ġspringing": 10518,
    "buried": 14848,
    "Ġankers": 21443,
    "beam": 16036,
    "Ġdiscretion": 10347,
    "Ġshouting": 10522,
    "arb": 1562,
    "Ġbesides": 3512,
    "Ġmethodic": 23131,
    "Ġconsequences": 11335,
    "Ġparadigms": 3056,
    "sockets": 22729,
    "surf": 24212,
    "prophet": 16182,
    "Ġluckily": 16798,
    "Ġadvertisement": 6941,
    "Ġwarming": 23556,
    "lighter": 20958,
    "Ġclaws": 15966,
    "Ġwished": 3728,
    "Ġoffices": 14337,
    "Ġ25": 13193,
    "Ġdiary": 24739,
    "Ġamply": 22479,
    "Ġpatriot": 23328,
    "Ġunequal": 14841,
    "Ġpregn": 22229,
    "Ġbiases": 2395,
    "Ġslit": 13054,
    "oided": 11508,
    "Ġintru": 15826,
    "Ġsunrise": 9372,
    "overlooked": 23320,
    "chery": 24551,
    "doesn": 19819,
    ")(": 2984,
    "Ġpresenting": 18987,
    "Ġbaffled": 12401,
    "nment": 20989,
    "Ġprocure": 9509,
    "Ġwhy": 1758,
    "didn": 9006,
    "Ġsh": 419,
    "Ġimpetus": 25569,
    "pushed": 21022,
    "Ġyourselves": 9028,
    "Ġexpon": 969,
    "Ġcushion": 17833,
    "Ġaft": 5737,
    "ofs": 11828,
    "Ġliked": 5263,
    "Ġstings": 21731,
    "Ġorganically": 3014,
    "Ġbreakers": 12052,
    "Ġvolcanoes": 24146,
    "bud": 10682,
    "Ġmenaced": 16292,
    "Ġdisgra": 18549,
    "Ġdocks": 14177,
    "ulgences": 21862,
    "Ġadaptive": 1364,
    "Ġheads": 3739,
    "antically": 22091,
    "harpooneers": 8689,
    "Ġthrills": 24542,
    "Ġlimbs": 5965,
    "Ġdevoted": 6573,
    "mad": 5280,
    "Ġdowry": 20684,
    "oqu": 7555,
    ".)": 6783,
    "Ġexempl": 21828,
    "conce": 8510,
    "Ġpugnacious": 26451,
    "Ġforty": 5719,
    "Ġaffl": 14385,
    "Ġselecting": 16684,
    "Ġintent": 6409,
    "Ġevil": 3804,
    "sugg": 11839,
    "Ġstupendous": 20499,
    "atter": 641,
    "mbling": 3345,
    "pop": 17631,
    "Ġtwitched": 20442,
    "Ġglory": 6064,
    "Ġflapp": 23008,
    "Ġdro": 2770,
    "Ġparlour": 12319,
    "Ġperception": 9749,
    "Ġimmeas": 18330,
    "Ġcommodores": 25374,
    "Ġcured": 21345,
    "Ġgoble": 14229,
    "inous": 8771,
    "Ġconf": 1816,
    "Ġmiriam": 25273,
    "Ġseizure": 21961,
    "é": 170,
    "Ġliberality": 24377,
    "ideas": 18583,
    "umer": 9257,
    "Ġsoftened": 11102,
    "cousin": 10652,
    "Ġindoors": 18836,
    "Ġostlers": 25276,
    "entirely": 7781,
    "Ġnourishment": 15191,
    "Ġgrief": 4619,
    "apable": 6422,
    "Ġsog": 22081,
    "Ġlory": 12649,
    "Ġreproach": 9556,
    "ashions": 16416,
    "strils": 10458,
    "meant": 7920,
    "Ġtorrent": 17092,
    "Ġmaintenance": 17461,
    "cre": 4252,
    "88": 20757,
    "arthy": 4821,
    "joined": 13274,
    "Ġkindling": 19026,
    "sales": 17667,
    "j": 78,
    "Ġforcing": 3224,
    "Ġmainland": 22654,
    "Ġcivilised": 24244,
    "Ġwarned": 16880,
    "Ġcompliment": 5673,
    "Ġwretchedly": 19505,
    "Ġlascar": 9199,
    "Ġresounded": 22541,
    "Ġhonestly": 19970,
    "urities": 18049,
    "inger": 6812,
    "Ġrifled": 21973,
    "miniature": 16765,
    "Ġrenegades": 26476,
    "Ġcommission": 6712,
    "E": 41,
    "Ġindiscriminately": 20626,
    "chess": 16573,
    "rudence": 7092,
    "here": 2546,
    "ą": 198,
    "Ġcuba": 25095,
    "Ġathirst": 20597,
    "Ġstrife": 18613,
    "Ġdus": 8422,
    "Ġupp": 13991,
    "Ġtwig": 11848,
    "take": 4575,
    "Ġtrepidation": 19214,
    "Ġunmanner": 22026,
    "ird": 2427,
    "abby": 14020,
    "Ġfrancisco": 26064,
    "urns": 10213,
    "Ġtorture": 9064,
    "treasures": 26152,
    "Ġidly": 16403,
    "Ġdisconsolate": 20718,
    "Ġembed": 1463,
    "Ġdisturb": 7107,
    "Ġperplexed": 23660,
    "Ġappointed": 20101,
    "mies": 20967,
    "Ġdenying": 14658,
    "change": 6392,
    "Ġresults": 7308,
    "Ġbeautifully": 13265,
    "Ġchas": 18379,
    "Ġmuscle": 14689,
    "Ġhell": 5018,
    "Ġstretch": 6993,
    "Ġinstantly": 3589,
    "Ġdays": 2078,
    "ias": 6362,
    "farewell": 12304,
    "plings": 11693,
    "Ġstum": 21728,
    "Ġprank": 23216,
    "Ġmysticetus": 24922,
    "Ġoccas": 2704,
    "Ġbeneath": 3237,
    "young": 7321,
    "deeply": 16178,
    "Ġevangel": 11280,
    "Ġwhereof": 16101,
    "Ġstrangers": 8313,
    "Ġcollins": 2181,
    "lengths": 24846,
    "Ġembarked": 17134,
    "Ġicebergs": 23972,
    "Ġagonized": 25372,
    "Ġdescending": 8904,
    "ences": 1260,
    "Ġfrog": 23918,
    "ā": 194,
    "contriv": 19292,
    "Ġimportance": 4899,
    "Ġgenius": 8045,
    "avast": 8896,
    "Ġramadan": 9575,
    "Ġforeshadowing": 26592,
    "fatality": 25019,
    "Ġpause": 5707,
    "Ġlethar": 21743,
    "Ġforgot": 4682,
    "Ġlawn": 7379,
    "Ġfond": 4753,
    "asting": 12803,
    "Ġfull": 2178,
    "Ġcleared": 6074,
    "kins": 7345,
    "Ġindestructible": 26572,
    "pistol": 17642,
    "ite": 713,
    "Ġreason": 1389,
    "specimen": 26605,
    "Ġmutable": 23952,
    "Ġswash": 23052,
    "aren": 10073,
    "Ġcut": 2641,
    "ader": 14011,
    "Ġdaniel": 15110,
    "Ġtowering": 16739,
    "ered": 1681,
    "Ġhaste": 9003,
    "gl": 3290,
    "pan": 10716,
    "Ġadmit": 7710,
    "Ġac": 846,
    "Ġtreasures": 17047,
    "Ġunduly": 25994,
    "Ġmounttop": 19976,
    "iance": 5279,
    "Ġsacrific": 15017,
    "Ġmended": 21312,
    "cy": 637,
    "Ġdaw": 21427,
    "Ġburke": 19250,
    "Ġmeditative": 25014,
    "Ġhansom": 13663,
    "Ġmirth": 15543,
    "bill": 10075,
    "Ġfowls": 8690,
    "Ġmarvel": 23034,
    "mme": 22500,
    "Ġimproving": 1208,
    "divided": 25018,
    "Ġimperilled": 19577,
    "hil": 8378,
    "Ġfirmly": 8013,
    "Ġtransf": 22434,
    "Ġreap": 18026,
    "Ġoccup": 3738,
    "Ġgenteel": 19979,
    "unsuitable": 21890,
    "Ġunnatural": 7190,
    "pronounce": 25192,
    "Ġhotels": 19535,
    "Ġvac": 5024,
    "Ġhilarity": 20296,
    "Ġdeference": 10881,
    "Ġpadd": 9669,
    "isting": 5551,
    "Ġsongs": 13419,
    "ooping": 21006,
    "unbidden": 21891,
    "Ġpowdered": 24237,
    "Ġhold": 2243,
    "Ġfeather": 8859,
    "Ġwriter": 11943,
    "eded": 9673,
    "unching": 18158,
    "Ġcracks": 12018,
    "ildad": 3530,
    "during": 6787,
    "Ġwhich": 503,
    "Ġscandinav": 19958,
    "rogress": 21533,
    "erns": 8777,
    "Ġliberated": 19665,
    "Ġmoist": 9284,
    "ignorant": 13562,
    "Ġbolivia": 24667,
    "bed": 3289,
    "Ġappe": 1540,
    "Ġadie": 8488,
    "ways": 1441,
    "Ġsavi": 18325,
    "Ġbriefly": 11367,
    "Ġdevilish": 11228,
    "Ġigniting": 25070,
    "design": 18957,
    "Ġupdate": 2464,
    "Ġjourney": 3880,
    "wrinkles": 16555,
    "clut": 23149,
    "bable": 8718,
    "Ġpauses": 14814,
    "gn": 8081,
    "arial": 5532,
    "Ġgenerator": 3382,
    "Ġlin": 10833,
    "Ġcalendar": 18876,
    "Ġhermit": 15856,
    "thee": 9689,
    "Ġgratefully": 20443,
    "Ġinterview": 9769,
    "Ġnearest": 8469,
    "hair": 9122,
    "Ġairth": 23314,
    "Ġannesley": 19576,
    "Ġovertaken": 18429,
    "apprehension": 26114,
    "Ġreaped": 18029,
    "oing": 15401,
    "Ġwrithing": 11944,
    "Ġjeroboam": 10600,
    "cks": 3079,
    "Ġuttered": 7280,
    "ernsey": 8901,
    "ns": 750,
    "Ġloafer": 18299,
    "riving": 21923,
    "Ġdangerous": 6613,
    "churning": 21694,
    "viating": 14578,
    "pretend": 24882,
    "Ġcrammed": 16470,
    "Ġvide": 10250,
    "various": 10397,
    "7": 27,
    "narrative": 17318,
    "bell": 7332,
    "Ġcheetah": 14502,
    "Ġwhite": 1538,
    "Ġeasiness": 23533,
    "Ġdrunkard": 20176,
    "Ġstiffness": 24830,
    "Ġfading": 15582,
    "uch": 876,
    "Ġviv": 6156,
    "Ġunlimited": 26222,
    "Ġhonoured": 9880,
    "examined": 17266,
    "france": 24282,
    "individual": 18436,
    "hom": 12471,
    "Ġfloats": 9412,
    "Ġblossom": 26312,
    "Ġ10": 5247,
    "Ġidentifies": 12013,
    "Ġexhilar": 19682,
    "Ġderive": 10394,
    "Ġpan": 5081,
    "Ġcontest": 18472,
    "Ġassuring": 13061,
    "Ġdiscours": 18715,
    "Ġcurse": 7666,
    "Ġinvestigations": 17246,
    "Ġeste": 6084,
    "Ġwhalers": 8047,
    "Ġpolitics": 19223,
    "Ġimpart": 11778,
    "Ġquakers": 22413,
    "Ġmccauley": 26426,
    "Ġfrenzy": 13621,
    "scales": 22990,
    "ress": 929,
    "Ġproposed": 7460,
    "cull": 20808,
    "nihil": 9848,
    "Ġfruits": 17118,
    "gpt": 5355,
    "aloft": 8806,
    "Ġloosened": 26002,
    "Ġpiqu": 21475,
    "disgraceful": 26076,
    "Ġsord": 21218,
    "Ġfurnished": 6475,
    "Ġyards": 5371,
    "Ġtahiti": 13618,
    "Ġinfall": 7959,
    "ington": 21300,
    "Ġmeditating": 20041,
    "clear": 9023,
    "Ġloveliness": 13607,
    "Ġwatchman": 23667,
    "kl": 4864,
    "flag": 14710,
    "Ġforging": 18093,
    "care": 4927,
    "convolutional": 4957,
    "Ġthanking": 18602,
    "aug": 1211,
    "Ġcathedral": 17412,
    "Ġhy": 5625,
    "Ġindirectly": 8939,
    "Ġcrutch": 23445,
    "ainty": 21784,
    "establish": 17392,
    "âĢľâĢĶ": 10872,
    "Ġsheepfold": 25466,
    "Ġunfrequ": 19507,
    "ashing": 4823,
    "practised": 20246,
    "Ġlowest": 11122,
    "tallow": 21084,
    "ondency": 15268,
    "horrible": 14600,
    "ici": 8439,
    "urrection": 12407,
    "remarked": 12286,
    "assistance": 20369,
    "Ġincluded": 8930,
    "aisance": 15073,
    "sample": 12504,
    "iasm": 8060,
    "Ġoriental": 9096,
    "Ġclasping": 20208,
    "subst": 12162,
    "inder": 9152,
    "included": 19207,
    "Ġ$": 21149,
    "cod": 12441,
    "ú": 187,
    "the": 334,
    "embow": 21928,
    "Ġbitterest": 12400,
    "Ġanguish": 5584,
    "Ġmilliner": 19883,
    "Ġstuffed": 13408,
    "âĢ": 294,
    "etwork": 446,
    "Ġhearse": 10420,
    "¼": 125,
    "oud": 1942,
    "Ġprinciples": 10010,
    "Ġclad": 12836,
    "Ġstre": 2109,
    "urp": 1472,
    "Ġharpoone": 2913,
    "elves": 2159,
    "Ġgleam": 12306,
    "Ġano": 11595,
    "Ġvehicle": 20137,
    "Ġunconsciously": 10004,
    "ibilities": 13009,
    "Ġdriver": 16473,
    "Ġaccursed": 9454,
    "Ġcrav": 19172,
    "izings": 14050,
    "Ġminuteness": 19138,
    "Ġgene": 15670,
    "urned": 9305,
    "Ġnovelties": 24778,
    "reed": 6373,
    "Ġkrem": 9725,
    "reasonable": 7751,
    "Ġsocks": 14134,
    "lightning": 16552,
    "condite": 23245,
    "Ġack": 5622,
    "Ġmerely": 3769,
    "Ġbehaved": 13251,
    "Ġfoundling": 22970,
    "Ġcourtesy": 9944,
    "atically": 2640,
    "nikin": 23244,
    "conclude": 24066,
    "Ġdeplored": 20503,
    "Ġferrule": 24500,
    "iers": 5990,
    "Ġinspiring": 19112,
    "Ġapprehension": 7113,
    "thank": 4949,
    "Ġarter": 22179,
    "Ġprocession": 11773,
    "Ġsymbol": 7716,
    "Ġcet": 6669,
    "Ġalacrity": 15735,
    "Ġchamois": 16800,
    "Ġislanders": 19500,
    "Ġabrid": 22279,
    "princ": 8620,
    "Ġscreening": 25299,
    "Ġcrush": 9421,
    "yrin": 12519,
    "itering": 17818,
    "Ġwes": 8778,
    "exactly": 10636,
    "Ġwol": 15529,
    "warks": 5003,
    "sulphur": 25909,
    "jack": 7344,
    "Ġspars": 3808,
    "Ġuprising": 12799,
    "useful": 16502,
    "Ġbreathes": 13244,
    "cri": 17505,
    "Ġcanv": 7009,
    "beat": 10986,
    "weaving": 18666,
    "Ġdashing": 8795,
    "ifle": 10891,
    "Ġsatan": 14389,
    "Ġoversampling": 20514,
    "Ġshallow": 14393,
    "freely": 16854,
    "Ġindolent": 13002,
    "Ġfurnish": 9018,
    "Ġdeportment": 22605,
    "human": 7088,
    "unwittingly": 25801,
    "zwilliam": 5073,
    "burning": 25078,
    "Ġmerryweather": 9521,
    "Ġhoist": 11975,
    "Ġfert": 15580,
    "Ġconvivial": 16548,
    "Ġgu": 1330,
    "Ġheave": 7599,
    "Ġlearns": 2643,
    "officer": 17054,
    "Ġgroping": 13664,
    "french": 9119,
    "rably": 21630,
    "Ġcuring": 21342,
    "Ġacquirement": 19254,
    "interview": 19298,
    "stealthily": 23959,
    "Ġepidemic": 20694,
    "Ġsermon": 12374,
    "scure": 22984,
    "ole": 9613,
    "ashed": 3782,
    "readers": 23845,
    "Ġdegree": 3703,
    "alleled": 14428,
    "inclination": 20056,
    "throne": 25657,
    "Ġmiddle": 4140,
    "Ġth": 299,
    "uracy": 1057,
    "remediable": 26294,
    "ication": 972,
    "redible": 15803,
    "Ġceased": 6468,
    "Ġfurnaces": 24002,
    "Ġfragrant": 13097,
    "ounded": 9747,
    "rear": 21231,
    "Ġglobules": 26588,
    "Ġrinal": 21974,
    "Ġenv": 2825,
    "Ġyears": 1890,
    "trifling": 19412,
    "Ġhis": 380,
    "Ġhigher": 1817,
    "Ġfoolish": 5979,
    "Ġpurposed": 23548,
    "Ġflounders": 23013,
    "Ġbaleful": 24982,
    "Ġvial": 10248,
    "sust": 15422,
    "ro": 301,
    "Ġremorselessly": 16967,
    "ittingly": 18803,
    "Ġpoint": 2055,
    "similar": 13452,
    "Ġbethinking": 25279,
    "cut": 3124,
    "Ġfishy": 16523,
    "Ġsoapstone": 20509,
    "half": 4930,
    "Ġrallied": 14094,
    "wond": 8767,
    "added": 11658,
    "disgrace": 16458,
    "Ġrequiring": 2923,
    "Ġbecoming": 4397,
    "interesting": 12199,
    "Ġecl": 18005,
    "hearth": 15499,
    "77": 15299,
    "haps": 1668,
    "Ġtelescope": 17347,
    "Ġbumping": 25280,
    "argue": 21442,
    "Ġfortunate": 6214,
    "escaped": 14230,
    "helm": 12169,
    "Ġmira": 8406,
    "Ġstrangely": 5677,
    "Ġdesirous": 8942,
    "Ġjot": 11761,
    "Ġuntouched": 16465,
    "Ġswart": 14433,
    "jac": 8381,
    "Ġsuperfluous": 17413,
    "calcul": 12984,
    "run": 10721,
    "unexpected": 15776,
    "Ġalteration": 9545,
    "Ġbegrim": 23015,
    "Ġfishe": 15584,
    "51": 12429,
    "elsewhere": 19867,
    "quakes": 21847,
    "Ġanticip": 7507,
    "speeches": 25239,
    "Ġbrush": 17864,
    "Ġancient": 5443,
    "Ġleast": 2063,
    "Ġstartled": 7082,
    "Ġhardships": 14450,
    "Ġred": 3007,
    "bres": 11471,
    "inaw": 21182,
    "Ġnotable": 18222,
    "endurable": 22225,
    "Ġmetrics": 19075,
    "Ġful": 4298,
    "eronomy": 15524,
    "Ġwars": 17785,
    "Ġav": 3579,
    "Ġfalsehood": 10523,
    "devouring": 24950,
    "Ġmam": 8404,
    "Ġpugn": 21478,
    "Ġcloset": 19590,
    "Ġdeceived": 6544,
    "Ġgrec": 18960,
    "acted": 11010,
    "asleep": 21541,
    "Ġdust": 5908,
    "Ġholds": 7975,
    "Ġrefuge": 8539,
    "ternatural": 12712,
    "Ġbreaking": 6310,
    "Ġchemical": 10410,
    "Ġsaturday": 6452,
    "Ġwallet": 21297,
    "holder": 13281,
    "elag": 12655,
    "Ġliv": 6679,
    "Ġbloom": 9887,
    "Ġkeeps": 8266,
    "Ġserves": 4667,
    "sided": 17664,
    "tale": 10127,
    "Ġcharged": 9853,
    "atherine": 2591,
    "reigned": 21241,
    "habit": 16187,
    "Ġexhilarating": 26337,
    "ulty": 22564,
    "Ġdismantled": 20215,
    "Ġreceptive": 1560,
    "jug": 17580,
    "Ġcompanies": 14558,
    "Ġinvincible": 23478,
    "Ġpreach": 14172,
    "Ġstreatham": 17448,
    "wandered": 20284,
    "Ġcoward": 7155,
    "Ġuncle": 3192,
    "Ġcompletion": 12145,
    "iliary": 21723,
    "Ġbery": 13897,
    "ount": 1112,
    "Ġnoted": 15829,
    "wed": 5002,
    "Ġvisited": 5947,
    "Ġcour": 1766,
    "blubber": 15235,
    "real": 10149,
    "gazed": 15360,
    "surrounded": 26088,
    "Ġyelled": 9693,
    "Ġevenings": 18755,
    "Ġvaried": 11846,
    "aly": 1116,
    "Ġstream": 5185,
    "Ġpulling": 5862,
    "Ġloud": 4699,
    "respectively": 24700,
    "Ġcanada": 22160,
    "life": 4931,
    "ource": 5242,
    "Ġwhiskers": 10492,
    "vengeance": 13355,
    "Ġhurling": 19110,
    "Ġcorrespondent": 19821,
    "Ġsim": 733,
    "este": 15918,
    "considering": 12172,
    "Ġdrawers": 12103,
    "magn": 10610,
    "Ġhunsford": 6301,
    "tis": 4106,
    "Ġclearness": 23181,
    "Ġlonely": 6823,
    "reas": 987,
    "wand": 10738,
    "Ġboth": 1651,
    "Ġwall": 3841,
    "cious": 6643,
    "Ġindignation": 8346,
    "Ġplight": 14280,
    "Ġsanguine": 25928,
    "Ġbuzz": 23994,
    "Ġdriven": 6198,
    "ŀ": 257,
    "jane": 4481,
    "Ġnapole": 15114,
    "helmsman": 24287,
    "Ġredden": 15692,
    "Ġwell": 900,
    "isive": 10793,
    "Ġseventy": 7879,
    "Ġtanning": 17729,
    "Ġdeficiencies": 26570,
    "Ġmere": 2714,
    "rippling": 24713,
    "Ġla": 5912,
    "oured": 2674,
    "assistant": 25567,
    "Ġquest": 2001,
    "regularly": 13207,
    "Ġdefiance": 11068,
    "plain": 1361,
    "Ġmalay": 24391,
    "introduction": 15122,
    "dragging": 16609,
    "orum": 12587,
    "Ġnegro": 6447,
    "passenger": 24166,
    "Ġbrute": 8926,
    "Ġcork": 12566,
    "Ġgradients": 611,
    "delighted": 10562,
    "Ġsick": 4691,
    "Ġslink": 23161,
    "Ġcurds": 22959,
    "Ġmanned": 9270,
    "Ġfaint": 5811,
    "kindly": 14744,
    "Ġstreet": 2961,
    "soo": 18687,
    "https": 11683,
    "Ġcod": 8411,
    "Ġmatrim": 11060,
    "Ġcorresponding": 13437,
    "Ġaut": 1832,
    "Ġgust": 21594,
    "Ġate": 8839,
    "aloud": 17940,
    "Ġdefect": 8554,
    "Ġlances": 6984,
    "Ġtophet": 23572,
    "unw": 14056,
    "G": 43,
    "Ġsuitable": 18281,
    "Ġplaster": 16082,
    "Ġjaw": 3318,
    "alously": 15627,
    "Ġzone": 14363,
    "Ġireland": 17334,
    "porary": 14553,
    "Ġunique": 12775,
    "lun": 20945,
    "Ġbarely": 16936,
    "mere": 11853,
    "reeling": 21243,
    "Ġmarvellous": 7538,
    "Ġinitial": 823,
    "Ġforswe": 21771,
    "delight": 5344,
    "undoubtedly": 13310,
    "iters": 21327,
    "Ġtexas": 25922,
    "Ġcostly": 23583,
    "Ġclo": 6042,
    "irious": 15784,
    "ertain": 1205,
    "ure": 356,
    "Ġcharacters": 9371,
    "determination": 19943,
    "oura": 1062,
    "Ġmissed": 8555,
    "tete": 10732,
    "Ġfainting": 16897,
    "Ġsanity": 24979,
    "Ġsystem": 586,
    "Ġsurgeon": 8981,
    "Ġcrashes": 13124,
    "impat": 11202,
    "kov": 17586,
    "Ġflashes": 11915,
    "Ġloves": 10915,
    "Ġscruples": 15077,
    "irection": 2386,
    "searching": 25103,
    "Ġprodu": 1202,
    "Ġoffice": 4964,
    "despatched": 19800,
    "Ġadversarial": 5607,
    "por": 2152,
    "Ġvigorously": 11299,
    "Ġfame": 21404,
    "Ġpomp": 12619,
    "pse": 21008,
    "enderby": 25215,
    "Ġwhites": 21714,
    "client": 18931,
    "Ġtwopence": 18660,
    "Ġheart": 1593,
    "incidentally": 20538,
    "Ġpossesses": 19350,
    "Ġexpl": 487,
    "Ġab": 529,
    "yarn": 15457,
    "urpation": 16300,
    "Ġabsorbed": 12329,
    "Ġlobes": 22112,
    "Ġparamore": 22119,
    "Ġmot": 2988,
    "izz": 7613,
    "velled": 9875,
    "Ġro": 597,
    "Ġlingering": 11379,
    "ivation": 3110,
    "diver": 20830,
    "piteous": 21032,
    "Ġfairy": 14627,
    "Ġmarshal": 20218,
    "ĠĠĠĠĠĠĠĠĠĠĠĠĠĠĠĠĠĠĠĠĠĠĠĠĠĠĠĠĠĠĠĠĠĠĠĠĠĠĠĠĠĠĠĠĠĠĠĠ": 7988,
    "Ġconfounded": 16380,
    "Ġdictator": 20152,
    "Ġezekiel": 26192,
    "Ġexagger": 12716,
    "Ġchaldee": 26234,
    "Ġbrow": 3990,
    "urs": 6989,
    "holes": 12051,
    "Ġlurk": 13382,
    "landish": 11940,
    "Ġfallen": 5967,
    "lutions": 20949,
    "Ġknowing": 4456,
    "lantern": 17427,
    "Ġmaritime": 23037,
    "_.âĢĿ": 5885,
    "Ġwilfully": 16766,
    "pe": 1437,
    "Ġfreezing": 23881,
    "Ġfreighted": 16324,
    "Ġsmiled": 5940,
    "aract": 17894,
    "skylight": 25623,
    "thereby": 14446,
    "Ġlifted": 6985,
    "Ġround": 1371,
    "Ġmould": 6519,
    "Ġusually": 6263,
    "Ġwander": 9031,
    "Ġjunks": 25113,
    "Ġunsounded": 15848,
    "Ġspong": 15880,
    "inquiries": 13576,
    "Ġbruited": 25773,
    "Ġensure": 23686,
    "continuance": 19717,
    "Ġrifle": 18212,
    "Ġrevolve": 19729,
    "Ġunwe": 15837,
    "Ġtimes": 2303,
    "thodox": 21985,
    "precipitance": 25867,
    "ssip": 14078,
    "Ġtoken": 2038,
    "Ġcareless": 11119,
    "Ġirre": 7468,
    "Ġstarboard": 7604,
    "fine": 10090,
    "Ġspurred": 22135,
    "that": 851,
    "sick": 13783,
    "Ġafraid": 3528,
    "Ġflapped": 23011,
    "Ġstern": 4223,
    "flex": 24843,
    "Ġdistressed": 8514,
    "Ġtrunks": 15970,
    "Ġ184": 16607,
    "Ġinvests": 14867,
    "aiian": 23591,
    "Ġtight": 8107,
    "Ġkra": 18348,
    "Ġup": 463,
    "influences": 25250,
    "Ġclub": 8873,
    "Ġrattling": 11395,
    "Ġglo": 1715,
    "eked": 16401,
    "Ġstops": 3166,
    "Ġtom": 15631,
    "Ġpockets": 8895,
    "Ġaint": 17744,
    "Ġfifteen": 6947,
    "Ġcannot": 1661,
    "imen": 12683,
    "Ġblades": 11893,
    "Ġgidd": 25783,
    ":--âĢľ": 24550,
    "xi": 17710,
    "Ġturtle": 4205,
    "whales": 5186,
    "dismal": 23495,
    "Ġsorts": 6887,
    "swam": 24254,
    "qu": 368,
    "Ġdiffers": 23779,
    "Ġticklish": 25034,
    "Ġtradeoff": 2659,
    "Ġparaphrasing": 26526,
    "Ġrobust": 1351,
    ":âĢĶâĢĺ": 24193,
    "Ġpurchase": 12257,
    "Ġtails": 9900,
    "Ġknots": 15008,
    "brave": 19822,
    "Ġpeddling": 24799,
    "Ġpra": 4347,
    "Ġmitt": 21306,
    "Ġscuffle": 20607,
    "Ġattempts": 10490,
    "Ġsibbald": 21229,
    "Ġjabbering": 22300,
    "Ġcrowned": 16841,
    "Ġembatt": 18859,
    "Ġchest": 5184,
    "Ġtransient": 18482,
    "Ġunhing": 18241,
    "wrong": 13205,
    "rapt": 13972,
    "agery": 21904,
    "Ġhealthy": 10851,
    "Ġinjustice": 9190,
    "sou": 12503,
    "possible": 5743,
    "Ġunrolled": 22035,
    "oment": 919,
    "Ġwatching": 4853,
    "conditionally": 24834,
    "Ġprecautions": 23725,
    "pol": 5892,
    "Ġincomplete": 17208,
    "Ġpaths": 2566,
    "Ġcan": 468,
    "precious": 12070,
    "cost": 19185,
    "Ġmusk": 7494,
    "Ġtill": 1821,
    "ank": 1368,
    "silenced": 24423,
    "Ġsky": 3971,
    "Ġumbrella": 15264,
    "Ġnephew": 6405,
    "Ġ12": 5483,
    "Ġmoves": 14231,
    "ider": 21762,
    "Ġtug": 11550,
    "well": 1691,
    "Ġsine": 10763,
    "key": 5463,
    "Ġroyalty": 19735,
    "ales": 3316,
    "Ġhaughty": 11449,
    "Ġwolfish": 25935,
    "Ġsm": 704,
    "fit": 6645,
    "Ü": 157,
    "ky": 4519,
    "experience": 17158,
    "Ġpace": 9183,
    "Ġgros": 14822,
    "Ġxxii": 24478,
    "Ġunattended": 15842,
    "Ġcourtship": 24136,
    "Ġrollicking": 24451,
    "gument": 20884,
    "Ġsympat": 13339,
    "Ġexig": 21824,
    "Ġportentous": 15228,
    "87": 20756,
    "Ġunfrequently": 20738,
    "Ġslide": 10393,
    "ang": 445,
    "oss": 10115,
    "carte": 25400,
    "reporting": 24494,
    "Ġcompute": 2908,
    "Ġpivot": 13922,
    "================================================================": 9989,
    "grounds": 11151,
    "Ġrealise": 16337,
    "Ġdecomp": 3809,
    "Ġencourages": 2060,
    "Ġdeliver": 9845,
    "Ġattacking": 24465,
    "Ġslight": 3120,
    "Ġloop": 14146,
    "Ġthereof": 22365,
    "dependence": 17167,
    "Ġunfolded": 10638,
    "Ġquart": 11785,
    "sent": 761,
    "Ġscener": 10949,
    "Ġmaintains": 2147,
    "Ġreser": 5169,
    "Ġengage": 9334,
    "Ġseeming": 8540,
    "Ġarid": 22178,
    "Ġmultipl": 2790,
    "Ġcoloured": 11045,
    "Ġbeach": 6541,
    "afraid": 10441,
    "Ġdisposing": 19373,
    "lad": 5991,
    "destroyed": 15259,
    "Ġbreeding": 14522,
    "Ġting": 8397,
    "Ġfemales": 14936,
    "Ġbeliever": 25845,
    "Ġberyls": 25775,
    "ked": 5616,
    "morn": 20975,
    "Ġpat": 1876,
    "nson": 16087,
    "Ġestablish": 9542,
    "Ġtexel": 25923,
    "Ġgeneralization": 983,
    "Ġbeaufort": 13567,
    "Ġmetropol": 11145,
    "Ġamounts": 6704,
    "Ġrepro": 7275,
    "Ġcomprehended": 11294,
    "Ġgrave": 5099,
    "Ġseaport": 20598,
    "Ġcocked": 12901,
    "erie": 21269,
    "lingering": 18601,
    "Ġbinding": 20417,
    "Ġdevelopment": 7057,
    "Ġcanopy": 18321,
    "smith": 5669,
    "liking": 22920,
    "Ġanything": 2187,
    "sudden": 5315,
    "Ġcurious": 3360,
    "O": 51,
    "means": 9785,
    "Ġfireboard": 23529,
    "Ġsend": 4108,
    "asable": 21538,
    "Ġbud": 10168,
    "Ġinter": 727,
    "Ġfervour": 19725,
    "Ġbreathless": 12167,
    "Ġexpectantly": 23522,
    "Ġbul": 3293,
    "ion": 296,
    "ishnoo": 10958,
    "Ġsmoothed": 23658,
    "Ġungracious": 18258,
    "rising": 7557,
    "Ġquantity": 6948,
    "Ġspit": 22121,
    "phew": 6368,
    "exposure": 19256,
    "Ġbiography": 22763,
    "Ġfails": 13312,
    "ĠlinnÃ¦us": 15274,
    "Ġbarbary": 24216,
    "Ġunav": 18240,
    "vius": 23538,
    "despair": 8343,
    "tumultuous": 20397,
    "Ġblinds": 8006,
    "inal": 15480,
    "sway": 15424,
    "Ġarabian": 9089,
    "nour": 20987,
    "ĠĠĠĠĠĠĠĠĠĠĠĠĠĠĠĠĠĠĠĠĠĠĠĠĠĠĠĠĠĠĠĠĠĠĠĠĠĠĠĠĠĠĠĠĠĠĠĠĠĠĠĠĠĠĠĠĠĠĠĠ": 19259,
    "ever": 1076,
    "Ġfiltering": 23923,
    "Ġkent": 6691,
    "Ġecstasy": 11629,
    "Ġtable": 2499,
    "Ġvolcano": 24147,
    "Ġobserve": 4669,
    "Ġmending": 17804,
    "Ġadjusts": 8980,
    "intercourse": 14638,
    "Ġmanilla": 15958,
    "Ġsuperstition": 15054,
    "Ġunheard": 22022,
    "Ġstruggles": 16578,
    "Ġoverwhelm": 25052,
    "Ġset": 1174,
    "Ġoftener": 13564,
    "Ġmoved": 4838,
    "uits": 21103,
    "Ġplenty": 6708,
    "ributed": 8214,
    "singular": 12186,
    "Ġvehic": 8933,
    "Ġcoefficient": 2884,
    "Ġfound": 1244,
    "Ġtour": 9147,
    "Ġintroducing": 11974,
    "Ġshrieked": 9547,
    "ineffectual": 26507,
    "Ġfascinated": 25635,
    "Ġpeleg": 3737,
    "Ġcum": 21340,
    "wrath": 23754,
    "Ġdistance": 3482,
    "chants": 21689,
    "excuse": 13380,
    "Ġwid": 4631,
    "Ġyawn": 7609,
    "Ġnine": 5369,
    "Ġdiscerning": 25002,
    "Ġsalesman": 13667,
    "Ġsteeple": 19287,
    "Ġcontro": 1685,
    "mo": 862,
    "Ġunimaginable": 15245,
    "Ġbordered": 24563,
    "Ġadmires": 19684,
    "Ġbattle": 5907,
    "Ġdoubtfully": 23476,
    "observation": 17269,
    "Ġimpenit": 22385,
    "Ġbarbar": 6935,
    "mult": 8747,
    "ğ": 224,
    "Ġ65": 24368,
    "Ġrapturously": 24888,
    "illity": 18296,
    "Ġepoch": 26471,
    "Ġexcluded": 16381,
    "Ġhercules": 14127,
    "Ġoccupant": 16651,
    "Ġperchance": 15990,
    "Ġherb": 15855,
    "fare": 7798,
    "Ġnumberless": 16414,
    "Ġemig": 14524,
    "Ġsordid": 26422,
    "stochastic": 3772,
    "osed": 1962,
    "Ġcreep": 22724,
    "Ġbund": 17863,
    "shed": 8094,
    "distance": 12150,
    "Ġlikely": 3595,
    "Ġborrow": 10170,
    "agrad": 2746,
    "enit": 17779,
    "harrow": 20907,
    "Ġrun": 2354,
    "except": 5383,
    "Ġamid": 4958,
    "Ġsympathised": 14861,
    "discrimin": 19607,
    "Ġworkflow": 2231,
    "events": 12315,
    "Ġjob": 7015,
    "Ġquery": 2480,
    "race": 11630,
    "Ġengrossed": 12994,
    "highest": 20406,
    "Ġdungeon": 16996,
    "Ġsingle": 1692,
    "walls": 25345,
    "bourine": 9395,
    "Ġliterally": 15115,
    "extensive": 18704,
    "covered": 11477,
    "ensions": 14258,
    "Ġanomaly": 25636,
    "taken": 7560,
    "Ġcrags": 23525,
    "Ġcheerily": 13306,
    "allers": 22194,
    "Ġbenefits": 4288,
    "Ġste": 1390,
    "Ġbeech": 18082,
    "conceivable": 17130,
    "Ġ56": 24324,
    "rather": 5430,
    "Ġcorroborated": 26053,
    "Ġscrupled": 25049,
    "idean": 14262,
    "Ġhire": 21482,
    "local": 22507,
    "onged": 18410,
    "Ġmidships": 23632,
    "Ġrespected": 11951,
    "Ġjavelin": 26104,
    "Ġpyramid": 8801,
    "Ġutility": 23511,
    "infernal": 24662,
    "Ġinferences": 17934,
    "up": 1284,
    "Ġxv": 23405,
    "Ġexpensive": 12915,
    "starbuck": 6018,
    "Ġbeh": 1799,
    "Ġposs": 1614,
    "Ġghast": 9209,
    "Ġexpeditions": 24954,
    "Ġsupervised": 3607,
    "yourselves": 24956,
    "Ġfrancis": 26063,
    "deploy": 22140,
    "Ġadmiration": 5328,
    "Ġjib": 14193,
    "dation": 2609,
    "Ġenumerating": 15243,
    "civilities": 24971,
    "Ġpuzz": 5533,
    "Ġstalk": 12694,
    "Ġemployed": 5199,
    "Ġmarried": 3407,
    "rote": 4591,
    "etah": 12658,
    "ians": 2358,
    "!âĢĶ": 2454,
    "Ġproviding": 1363,
    "Ġsimilitude": 19209,
    "enstein": 5799,
    "Ġlecture": 13566,
    "odecim": 9831,
    "Ġpadded": 25036,
    "mariners": 19547,
    "Ġcharley": 19005,
    "Ġosc": 2835,
    "fall": 5134,
    "Ġsav": 3356,
    "atory": 6125,
    "Ġbelie": 14405,
    "Ġrich": 2996,
    "Ġnugent": 26457,
    "Ġadvice": 4900,
    "amused": 21843,
    "wered": 2691,
    "Ġissue": 2312,
    "Ġactions": 6278,
    "Ġshould": 863,
    "arising": 17895,
    "Ġdecayed": 22822,
    "Ġopportunities": 19248,
    "parameter": 2948,
    "Ġintegral": 25008,
    "Ġproves": 14038,
    "ornamented": 26595,
    "dis": 2251,
    "lynes": 15702,
    "Ġhurried": 4033,
    "Ġneur": 814,
    "Ġpatentee": 25586,
    "Ġ59": 24327,
    "cart": 10688,
    "bling": 10078,
    "Ġtattered": 21170,
    "az": 2183,
    "Ġmannish": 26237,
    "lover": 18539,
    "Ġold": 1059,
    "involuntarily": 20413,
    "skill": 24487,
    "Ġbeth": 9657,
    "wake": 11545,
    "consp": 18505,
    "Ġmerchantmen": 19859,
    "Ġdistension": 22502,
    "Ġreplenished": 13635,
    "Ġparr": 22116,
    "ersburgh": 18215,
    "supp": 4163,
    "Ġtars": 21163,
    "stream": 15685,
    "Ġharpooned": 13259,
    "Ġsteadfast": 8678,
    "Ġpresumption": 10545,
    "Ġpredef": 18530,
    "Ġchry": 22243,
    "Ġcows": 15551,
    "Ġinflict": 15001,
    "spot": 9788,
    "Ġgloomily": 14800,
    "Ġwraps": 19775,
    "ching": 5155,
    "orses": 6051,
    "ual": 944,
    "Ġpass": 1041,
    "Ġconveys": 16855,
    "Ġattacks": 12202,
    "rs": 7807,
    "Ġdebility": 24272,
    "inite": 6001,
    "piling": 15415,
    "Ġundulating": 19516,
    "leviathans": 19936,
    "Ġwallowing": 24041,
    "driver": 14920,
    "house": 4078,
    "Ġugliness": 20425,
    "lamp": 9608,
    "Ġsquire": 16179,
    ",âĢĶâĢĺ": 23800,
    "Ġmaster": 3680,
    "okers": 18441,
    "Ġshot": 4543,
    "Ġkeenest": 12159,
    "Ġprepare": 8646,
    "Ġthistle": 21913,
    "Ġchase": 3947,
    "Č": 205,
    "Ġbidirectional": 3754,
    "smooth": 20247,
    "Ġwept": 7184,
    "Ġmyth": 18220,
    "Ġfug": 12592,
    "istical": 8489,
    "parad": 16382,
    "goodness": 19288,
    "Ġfriendly": 9819,
    "Ġpul": 2040,
    "Ġsto": 1501,
    "Ġdiscipline": 26561,
    "gr": 2087,
    "Ġmallet": 17810,
    "Ġunsatisfied": 22041,
    "Ġsomehow": 4840,
    "Ġtemptations": 24508,
    "Ġhogarth": 25780,
    "foolish": 12345,
    "misrepresented": 24211,
    "istle": 15869,
    "ureau": 10226,
    "Ġcharing": 14180,
    "olstad": 7611,
    "complaisance": 24811,
    "Ġhomely": 25219,
    "ushing": 5731,
    "Ġcurios": 18842,
    "Ġoper": 2123,
    "Ġcomforted": 19389,
    "Ġsprain": 18305,
    "instruct": 19541,
    "Ġvexed": 9993,
    "Ġlogs": 16346,
    "fancy": 7337,
    "Ġensue": 18190,
    "angular": 11721,
    "Ġcoop": 14269,
    "Ġprematurely": 24003,
    "crated": 16696,
    "Ġbask": 8116,
    "lanterns": 17428,
    "Ġdestitute": 14566,
    "eastern": 17533,
    "ches": 2151,
    "Ġbalance": 2021,
    "inkers": 22615,
    "swells": 26148,
    "Ġsold": 6002,
    "Ġperformance": 1308,
    "Ġcorrespondence": 10594,
    "term": 3757,
    "Ġhuzza": 12630,
    "bone": 5612,
    "Ġexcel": 3565,
    "ach": 429,
    "Ġhistories": 14687,
    "Ġunobstructed": 18264,
    "Ġvictory": 16653,
    "Ġheadstrong": 14387,
    "Ġdeity": 18134,
    "indust": 18435,
    "Ġmum": 13857,
    "Ġspectacles": 12095,
    "Ġingratitude": 17468,
    "bid": 5611,
    "Ġsa": 474,
    "sometimes": 5971,
    "Ġunaccountably": 26515,
    "Ġpleas": 1905,
    "Ġfringed": 17272,
    "Ġpassenger": 14368,
    "Ġrese": 2210,
    "Ġunrelieved": 20544,
    "Ġface": 1722,
    "istol": 6259,
    "Ŀ": 256,
    "ake": 749,
    "Ġabandon": 12255,
    "Ġhearsed": 25039,
    "Ġwrench": 12554,
    "Ġtutored": 20126,
    "bering": 18681,
    "Ġroute": 11381,
    "Ġconfide": 13096,
    "sacrifice": 13491,
    "ial": 410,
    "prec": 3201,
    "Ġcontraction": 16006,
    "lower": 8879,
    "Ġbrack": 23833,
    "Ġequal": 4137,
    "ceive": 3063,
    "Ġsurmisings": 26593,
    "exp": 2737,
    "Ġpecks": 18669,
    "Ġregular": 935,
    "occupied": 12302,
    "isher": 2876,
    "Ġrever": 6536,
    "Ġpew": 9314,
    "´": 117,
    "Ġspoken": 4835,
    "Ġguest": 7249,
    ",âĢĶ": 3170,
    "Ġenhancement": 23705,
    "blending": 24129,
    "imod": 15708,
    "Ġcongenial": 12409,
    "Ġshrimp": 24157,
    "Ġunho": 18245,
    "Ġwasted": 9703,
    "everybody": 8610,
    "Ġmor": 1246,
    "Ġunwelcome": 12777,
    "Ġbenef": 3487,
    "circled": 24187,
    "learn": 2435,
    "pleasures": 24044,
    "success": 6710,
    "nav": 17612,
    "Ġquiver": 16002,
    "Ġpartake": 18670,
    "Ġreported": 11978,
    "orable": 8119,
    "Ġnat": 12642,
    "Ġskil": 14350,
    "get": 1021,
    "Ġknown": 1640,
    "Ġbreeds": 23346,
    "inked": 12910,
    "Ġhush": 13210,
    "Ġcorre": 3889,
    "atig": 13844,
    "Ġdizzy": 21430,
    "Ġepaulets": 24905,
    "grin": 19105,
    "ashes": 6015,
    "box": 5749,
    "Åĵuv": 15181,
    "Ġstrives": 23693,
    "Ġcompares": 20165,
    "Ġgraves": 11706,
    "deserts": 25379,
    "retirement": 23137,
    "Ġwe": 387,
    "Ġglide": 22982,
    "Ġrelation": 2143,
    "Ġteacher": 22912,
    "Ġconcussion": 26300,
    "Ġworks": 5857,
    "Ġhempen": 13549,
    "Ġspoil": 17007,
    "cats": 17512,
    "shadow": 20313,
    "Ġtints": 17727,
    "straw": 24095,
    "Ġserv": 3328,
    "Ġnumerical": 4246,
    "Ġrepairing": 25589,
    "haustible": 16891,
    "adopt": 25544,
    "Ġpierce": 17036,
    "Ġnantucketer": 6914,
    "bra": 6219,
    "cherries": 19755,
    "continuing": 24479,
    "Ġheav": 1848,
    "Ġstones": 9221,
    "Ġmid": 2611,
    "Ġlavater": 20494,
    "Ġelixir": 26555,
    "Ġbranches": 6776,
    "over": 1844,
    "Ġunidirectional": 3424,
    "Ġsledge": 8110,
    "Ġrem": 955,
    "rist": 10122,
    "Ġdisorder": 16050,
    "Ġbal": 1132,
    "thumb": 18218,
    "Ġestab": 6315,
    "Ġbark": 10798,
    "Ġreprehensible": 15697,
    "Ġjud": 3357,
    "summit": 23415,
    "Ġsuper": 2155,
    "beth": 13687,
    "ġ": 226,
    "Ġinfirm": 19016,
    "Ġperceptible": 18451,
    "/*": 10070,
    "Ġdated": 10939,
    "Ġlessons": 7691,
    "Ġtry": 3134,
    "Ġdears": 18136,
    "Ġscimet": 22271,
    "Ġadapted": 11041,
    "Ġsubmitted": 11869,
    "Ġconfine": 14506,
    "Ġsurely": 6307,
    "Ġrepeating": 11213,
    "Ġsuperiority": 14617,
    "cater": 20814,
    "Ġknees": 6928,
    "velope": 17701,
    "Ġmaximizing": 3169,
    "Ġquote": 18466,
    "consider": 6348,
    "Ġmagnificent": 9841,
    "Ġhapp": 1091,
    "uplifted": 17695,
    "Ġrepine": 16409,
    "Ġinstant": 2705,
    "bpp": 20771,
    "Ý": 158,
    "Ġarose": 7360,
    "wol": 21121,
    "Ġscold": 10950,
    "Ġbulkington": 14677,
    "Ġwithout": 1121,
    "bingley": 4926,
    "orns": 12589,
    "Ġshillings": 15834,
    "ulate": 5232,
    "Ġimmemorial": 10510,
    "girls": 12317,
    "Ġberry": 19745,
    "Ġtotal": 4992,
    "Ġwaving": 8575,
    "ise": 707,
    "Ġhip": 17920,
    "Ġneatly": 17016,
    "Ġlashing": 11615,
    "Ġobvious": 4963,
    "Ġkn": 4545,
    "Ġargue": 16783,
    "Ġstraighten": 24001,
    "Ġunf": 4090,
    "Ġdiscriminative": 4328,
    "Ġlent": 21544,
    "Ġre": 317,
    "onian": 17767,
    "Ġexal": 10877,
    "Ġabased": 22275,
    "drifting": 19823,
    "seals": 21814,
    "Ġstating": 15720,
    "sufficient": 6635,
    "Ġaright": 11738,
    "Ġalphabetical": 17201,
    "Ġdit": 21418,
    "Ġheiress": 20696,
    "sex": 12710,
    "Ġconsent": 5372,
    "Ġallies": 18234,
    "Ġblotting": 25313,
    "charge": 9447,
    "Ġmouths": 7491,
    "indignation": 18438,
    "Ġcy": 13873,
    ");": 7330,
    "Ġworker": 23018,
    "Ġintensely": 17017,
    "Ġvessel": 3797,
    "Ġeducation": 5127,
    "arn": 358,
    "Ġnomin": 10190,
    "estations": 22221,
    "Ġsimilar": 4916,
    "pay": 10718,
    "ioneer": 15630,
    "Ġentreated": 9950,
    "mayhew": 23989,
    "Ġornamented": 20360,
    "Ġpersu": 3561,
    "manned": 18762,
    "Ġcompressed": 21854,
    "Ġverbal": 19377,
    "Ġseal": 10256,
    "Ġnewcastle": 16222,
    "Ġlivelong": 25511,
    "Ġbowsprit": 16560,
    "Ġwriggling": 15256,
    "couldn": 23716,
    "itage": 17816,
    "bird": 9585,
    "harb": 9123,
    "Ġtomb": 8807,
    "raid": 3279,
    "Ġroylott": 7305,
    "plague": 21950,
    "ullied": 23101,
    "_âĢĶâĢĻ": 13681,
    "ober": 15406,
    "Ġdismasted": 15250,
    "Ġsusp": 2665,
    "Ġasiatic": 20428,
    "Ġpalmed": 24090,
    "Ġm": 274,
    "Ġbowlines": 19321,
    "Ġstro": 4594,
    "Ġimpress": 6862,
    "Ġphilist": 16601,
    "Ġsensitive": 13198,
    "numerous": 17430,
    "zz": 4294,
    "Ġhandspike": 22693,
    "Ġbeale": 12696,
    "Ġoverwrites": 5032,
    "dinah": 20079,
    "Ġentertaining": 16926,
    "che": 3171,
    "conqu": 14244,
    "Ġabilities": 8867,
    "Ġwinter": 5219,
    "judgment": 16753,
    "Ġunrest": 11712,
    "Ġcigaret": 16976,
    "Ġshirr": 18231,
    "Ġloses": 15872,
    "Ġarchbishop": 18719,
    "Ġbloodless": 19338,
    "Ġnursery": 19749,
    "Ġstoop": 16311,
    "consequential": 26250,
    "miss": 3173,
    ")âĢĶâĢľ": 20742,
    "dough": 15334,
    "Ġpillar": 21471,
    "Ġshelter": 17008,
    "Ġlegisl": 23531,
    "ens": 701,
    "Ġsword": 6732,
    "crier": 20819,
    "Ġshivering": 10265,
    "Ġagon": 10320,
    "familiar": 19782,
    "Ġemperor": 15157,
    "ceased": 21623,
    "Ġmalignant": 14877,
    "6": 26,
    "Ġawful": 6199,
    "Ġnarrower": 24354,
    "Ġsavages": 9911,
    "Ġcards": 7580,
    "'(": 2982,
    "almost": 4942,
    "Ġbehaviors": 13252,
    "Ġconsort": 18723,
    "Ġexh": 5231,
    "Ġtower": 8318,
    "ersampling": 18216,
    "begone": 12875,
    "Ġuninjured": 22053,
    "qualified": 17098,
    "quitted": 21848,
    "Ġplainly": 4381,
    "nin": 17608,
    "aid": 1920,
    "Ġminority": 18754,
    "Ġdoubt": 2223,
    "Ġsperma": 19046,
    "Ġbeau": 9224,
    "ois": 9134,
    "scar": 9815,
    "¹": 122,
    "Ġbleeds": 24397,
    "Ġjoppa": 12034,
    "Ġshouldn": 14324,
    "anatory": 21361,
    "Ġprepared": 5876,
    "Ġtended": 21165,
    "Ġreflect": 6574,
    "Ġtasselled": 25921,
    "determined": 9079,
    "Ġjackets": 19601,
    "Ġintrusion": 12762,
    "Ġdragon": 14943,
    "extric": 22752,
    "icide": 11617,
    "Ġfire": 2333,
    "Ġpirate": 14996,
    "gates": 20871,
    "Ġcumul": 4181,
    "Ġheighten": 19528,
    "now": 547,
    "sharp": 10306,
    "Ġgin": 13960,
    "Ġsatirical": 26279,
    "Ġcontaining": 2232,
    "fortune": 4974,
    "Ġhimself": 1355,
    "supposed": 13314,
    "school": 10054,
    "itan": 10159,
    "Ġleft": 1759,
    "Ġeastward": 13389,
    "enced": 4297,
    "Ġrecounted": 22746,
    "Ġrib": 4935,
    "vell": 3960,
    "Ġinquis": 19303,
    "Ġsupplication": 25491,
    "Ġinto": 649,
    "ast": 473,
    "Ġdesirable": 8941,
    "Ġinterpreted": 1712,
    "Ġfeeling": 3084,
    "threaten": 25461,
    "Ġunb": 10907,
    "already": 6980,
    "Ġverify": 12085,
    "Ġspeechless": 13352,
    "Ġgems": 9208,
    "antarctic": 22094,
    "Ġanalogical": 25640,
    "Ġclock": 9532,
    "Ġexplore": 15907,
    "Ġforgive": 8009,
    "Ġcrimes": 8588,
    "Ġpressed": 6041,
    "Ġratio": 5065,
    "Ġsagittarius": 24732,
    "Ġseparated": 9464,
    "ficial": 17548,
    "Ġfem": 6134,
    "ull": 1430,
    "Ġcelest": 9899,
    "rary": 4574,
    "reputable": 15517,
    "Ġmorrow": 9342,
    "rian": 10241,
    "Ġtriumphant": 12187,
    "myst": 9821,
    "Ġheadway": 18792,
    "Ġtimber": 13348,
    "Ġkindliness": 23291,
    "rennial": 22349,
    "Ġrotation": 25474,
    "Ġthroes": 24574,
    "Ġrhone": 25230,
    "Ġir": 1993,
    "Ġlens": 8437,
    "Ġawaited": 17074,
    "tural": 21065,
    "Ġoverlook": 10960,
    "Ġpopulous": 16826,
    "Ġeveryone": 8917,
    "Ġvariance": 1167,
    "Ġmute": 19414,
    "Ġjar": 15949,
    "Ġheathen": 10565,
    "ging": 2596,
    "Ġtiara": 26415,
    "rad": 2257,
    "Ġacquainted": 5178,
    "ilege": 22255,
    "Ġsecondary": 23332,
    "Ġspiritual": 9929,
    "Ġestimated": 16594,
    "Ġcos": 2208,
    "Ġafore": 10758,
    "acknowledging": 25476,
    "Ġtwilight": 16120,
    "Ġplough": 18608,
    "backed": 9865,
    "works": 6589,
    "broken": 8020,
    "gage": 13722,
    "Ġinterp": 16068,
    "fleece": 19946,
    "Ġadvertise": 25388,
    "stirring": 20424,
    "Ġrumors": 11321,
    "possession": 12219,
    "Ġproceeds": 12075,
    "repairing": 24495,
    "À": 129,
    "Ġphrenologists": 25608,
    "ineff": 21977,
    "Ġsplend": 9896,
    "Ġrepairs": 19083,
    "Ġrobbed": 23004,
    "Ġlying": 4825,
    "ct": 309,
    "Ġbraz": 19356,
    "scotch": 25847,
    "Ġmockery": 12105,
    "ome": 536,
    "Ġcust": 11581,
    "Ġtemptation": 8677,
    "ado": 11657,
    "Ġshilling": 18228,
    "Ġconsidered": 4610,
    "rane": 17653,
    "mouthed": 12398,
    ".âĢĻâĢĿ": 6739,
    "Ġpratt": 23217,
    "Ġcabman": 14605,
    "Ġovertook": 18428,
    "Ġviciss": 11292,
    "Ġaffairs": 6877,
    "Ġcaliforn": 14430,
    "Ġminiatures": 20320,
    "bond": 17489,
    "morrow": 4571,
    "Ġbarbarians": 19586,
    "stock": 13220,
    "Ġiterate": 13200,
    "eon": 8729,
    "Ġpreliminary": 10056,
    "Ġforgetting": 3433,
    "Ġegypt": 9678,
    "Ġunsavory": 20706,
    "mast": 3599,
    "Ġcastaways": 19426,
    "_,âĢĿ": 6218,
    "Ġsins": 13836,
    "listener": 24930,
    "Ġtime": 690,
    "hypothe": 25905,
    "Ġresolving": 9418,
    "luyt": 18454,
    "Ġstorm": 4302,
    "Ġjour": 11762,
    "Ġhaught": 10252,
    "Ġinspecting": 24613,
    "Ġnarr": 5084,
    "Ġaccidentally": 9504,
    "Ġrisk": 8038,
    "answ": 15883,
    "Ġunsupp": 22018,
    "Ġdrinking": 12166,
    "Ġsmiling": 5474,
    "niece": 20994,
    "Ġremote": 8919,
    "Ġstraw": 9428,
    "non": 9611,
    "Ġinterposed": 20617,
    "Ġchr": 3687,
    "superior": 9524,
    "Ġhosts": 19937,
    "bringing": 17166,
    "rr": 17650,
    "Ġpleaded": 16298,
    "Ġaim": 10145,
    "Ġjon": 15947,
    "Ġmississ": 18844,
    "stricken": 9883,
    "prot": 6899,
    "Ġreceives": 20353,
    "cra": 6354,
    "Ġmemb": 14029,
    "strugg": 21659,
    "Ġbridle": 24681,
    "Ġpret": 3036,
    "ghost": 20886,
    "Ġsparing": 22126,
    "possessed": 9527,
    "Ġaccusations": 22374,
    "anx": 8783,
    "Ġstudents": 23233,
    "Ġspoutings": 14675,
    "_:": 17478,
    "Ġconvinced": 4207,
    "isle": 13891,
    "money": 8749,
    "Ġsavagely": 26323,
    "Ġpupp": 10820,
    "Ġreproof": 24890,
    "Ġrug": 16154,
    "mr": 1900,
    "Ġwilderness": 14839,
    ".âĢĻ": 1719,
    "Ġchall": 10944,
    "Ġabsent": 7014,
    "Ġhatty": 19264,
    "returns": 23135,
    "Ġplants": 22595,
    "Ġmeanest": 12907,
    "marry": 13322,
    "Ġhides": 16263,
    "strained": 21655,
    "leisure": 21369,
    "Ġexalted": 12410,
    "oboam": 9357,
    "Ġoff": 901,
    "reat": 617,
    "Ġgush": 10202,
    "Ġ26": 10470,
    "Ġappearance": 3699,
    "Ġloads": 22111,
    "tiest": 21080,
    "Ġcongregation": 12327,
    "ason": 1270,
    "mantel": 26394,
    "Ġimprudence": 10297,
    "toss": 22563,
    "Ġplaned": 24055,
    "Ġpast": 2099,
    "confidential": 25876,
    "nowadays": 22334,
    "nam": 3208,
    "Ġdepresses": 25797,
    "iration": 4539,
    "Ġ=": 1074,
    "Ġ1883": 23894,
    "Ġinscriptions": 20007,
    "inarticulate": 21194,
    "ryphon": 4164,
    "Ġlatitudes": 9495,
    "bowing": 24454,
    "those": 4494,
    "Ġabandonment": 25603,
    "coast": 10449,
    "Ġgoodly": 22819,
    "Ġgreyish": 24208,
    "Ġsoftness": 18917,
    "formed": 2551,
    "reg": 2185,
    "fright": 9595,
    "affect": 13211,
    "Ġdoubts": 8579,
    "Ġboard": 3383,
    "Ġcalmness": 12090,
    "Ġwight": 12550,
    "questions": 16760,
    "Ġpaddling": 25285,
    "Ġforward": 1836,
    "trick": 19411,
    "Ġvilla": 14747,
    "Ġtombed": 25160,
    "Ġparc": 10920,
    "Ġeternally": 11369,
    "shore": 10305,
    "charmed": 21693,
    "proud": 9902,
    "Ġgraces": 18225,
    "istics": 1628,
    "jee": 17579,
    "Ġclosing": 11770,
    "Ġheel": 9683,
    "Ġdefault": 3039,
    "hurt": 19877,
    "Ġcutting": 4982,
    "Ġangels": 11178,
    "breath": 15161,
    "Ġchagrin": 20606,
    "Ġah": 5074,
    "Ġthoughtfully": 12977,
    "Ġslumbering": 25701,
    "Ġprofessors": 14724,
    "inkles": 7426,
    "Ġevidence": 5268,
    "Ġdetermining": 14418,
    "resp": 13838,
    "usive": 8191,
    "Ġundersampling": 19517,
    "boom": 18998,
    "ordinate": 12872,
    "Ġsamples": 2965,
    "Ġdearly": 10401,
    "Ġwrest": 11570,
    "eping": 5833,
    "Ġobservant": 20108,
    "jointed": 24007,
    "Ġswitching": 23054,
    "Ġevangelist": 20337,
    "irements": 22216,
    "Ġsquad": 22832,
    "Ġcolour": 4460,
    "unbounded": 21882,
    "Ġmagical": 23095,
    "Ġbodiless": 24226,
    "deprived": 19897,
    "Ġtruth": 3319,
    "Ġcheery": 16367,
    "Ġexcitement": 9380,
    "organic": 25946,
    "Ġclung": 10957,
    "Ġhaunt": 18197,
    "Ġdarcy": 1346,
    "Ġgratified": 8021,
    "retired": 11934,
    "Ġwaldman": 11345,
    "Ġglaciers": 20172,
    "express": 4894,
    "Ġdata": 520,
    "brace": 16942,
    "Ġanyhow": 14254,
    "Ġbingleys": 18995,
    "Ġdreadful": 4919,
    "inridge": 11560,
    "Ġscalding": 16302,
    "Ġobsc": 7039,
    "Ġjumbled": 22294,
    "Ġharness": 17927,
    "Ġiteratively": 3057,
    "Ġbulls": 23856,
    "min": 4570,
    "Ġof": 298,
    "Ġhumbly": 16195,
    "proposal": 18763,
    "tent": 21063,
    "Ġprocedures": 9411,
    "Ġmember": 8585,
    "Ġbabies": 19691,
    "Ġmoving": 1674,
    "Ġhideousness": 16915,
    "herfield": 3628,
    "Ġshelves": 14998,
    "quarter": 11388,
    "Ġparchment": 13651,
    "ī": 236,
    "Ġbill": 4042,
    "inctions": 17732,
    "Ġhogshead": 26367,
    "Ġinstinct": 6575,
    "Ġviewed": 10463,
    "tremendous": 20672,
    "idents": 6150,
    "eel": 11483,
    "Ġwrist": 8242,
    "Ġroof": 6564,
    "Ġmend": 8405,
    "Ġ133": 24783,
    "Ġextracting": 11106,
    "ional": 1084,
    "Ġpalpable": 15205,
    "fin": 5208,
    "regret": 16451,
    "nervous": 16277,
    "Ġdip": 13906,
    "Ġabhor": 5467,
    "cking": 4267,
    "Ġdexterously": 25295,
    "Ġintervene": 25480,
    "horrors": 20540,
    "Ġclustered": 25233,
    "sembled": 7263,
    "Ġlegend": 14574,
    "note": 14339,
    "Ġembark": 8560,
    "isters": 11918,
    "Ġquestioned": 14620,
    "Ġcrow": 3803,
    "Ġlurks": 11290,
    "Ġwednesday": 9024,
    "Ġattribute": 16096,
    "Ġrashly": 20304,
    "Ġcumberland": 21353,
    "Ġgaily": 16748,
    "chemical": 23806,
    "fugitive": 26131,
    "search": 8464,
    "onym": 14649,
    "Ġalas": 5921,
    "Ġhealthful": 24058,
    "tanh": 5203,
    "Ġomens": 21326,
    "Ġtop": 2471,
    "science": 11907,
    "gar": 5615,
    "Ġcontin": 5382,
    "Ġincompatible": 25680,
    "force": 12957,
    "jected": 22709,
    "learnt": 23561,
    "Ġtell": 1468,
    "whenever": 11879,
    "Ġcarbuncle": 14444,
    "Ġshrouds": 11344,
    "Ġraising": 8909,
    "fashioned": 9570,
    "Ġstrategies": 1838,
    "going": 6313,
    "Ġaustrian": 24300,
    "mselves": 2861,
    "Ġaudience": 24769,
    "Ġmysterious": 7527,
    "Ġuncommonly": 7759,
    "Ġcrooked": 11281,
    "Ġblu": 2688,
    "hears": 12530,
    "Ġbegg": 16253,
    "Ġunanswerable": 26521,
    "Ġthine": 7374,
    "Ġromish": 19583,
    "Ġprodigy": 19791,
    "Ġunwillingly": 15847,
    "Ġmartial": 20290,
    "hum": 3776,
    "Ġandromeda": 21505,
    "gen": 6503,
    "Ġhorribly": 16342,
    "Ġreven": 18028,
    "vision": 5620,
    "Ġmosses": 20162,
    "Ġeag": 2970,
    "Ġp": 289,
    "Ġpoetry": 15079,
    "Ġsummoning": 23872,
    "believing": 19460,
    "Ġapt": 9155,
    "Ġspent": 3966,
    "Ġfleshy": 24614,
    "aried": 10987,
    "cases": 12445,
    "maged": 15392,
    "amb": 5723,
    "splash": 25209,
    "Ġunc": 2127,
    "Ġblessed": 6931,
    "Ġornaments": 17451,
    "inj": 9151,
    "Ġunaware": 22056,
    "magnetic": 20551,
    "oses": 3948,
    "Ġsleepless": 14581,
    "Ġknelt": 12156,
    "Ġniagara": 26458,
    "icted": 5936,
    "theast": 21745,
    "Ġlords": 14641,
    "Ġinner": 9670,
    "pon": 17625,
    "Ġrewarded": 14939,
    "Ġvortex": 26208,
    "Ġsees": 8842,
    "Ġdominant": 12394,
    "continu": 5501,
    "bread": 10684,
    "Ġresort": 18563,
    "coo": 11170,
    "isen": 10792,
    "Ġskeleton": 5514,
    "itch": 10160,
    "don": 3542,
    ";âĢĿ": 7790,
    "Ġz": 999,
    "Ġpeasants": 12330,
    "Ġpioneer": 17918,
    "Ġtenderness": 12213,
    "imly": 12684,
    "Ġoverseeing": 22358,
    "Ġarrayed": 25664,
    "Ġequinoctial": 20531,
    "attentions": 13573,
    "ichron": 22165,
    "zag": 17713,
    "Ġleaps": 14007,
    "Ġcultiv": 13555,
    "Ġalthough": 4152,
    "Ġwithdrawing": 11340,
    "wishing": 21127,
    "Ġoutputs": 2886,
    "Ġenlarged": 25985,
    "application": 12361,
    "Ġscolded": 25472,
    "Ġchief": 3381,
    "place": 4155,
    "train": 2034,
    "certain": 3675,
    "Ġwould": 653,
    "Ġpropos": 7062,
    "Ġnative": 4639,
    "Ġagonising": 25373,
    "pid": 1380,
    "Ġassert": 7120,
    "gratitude": 16816,
    "mas": 5211,
    "Ġcomm": 839,
    "Ġbrowne": 13300,
    "fulness": 4311,
    "Ġsisters": 3638,
    "tack": 12510,
    "Ġactivations": 2720,
    "gangway": 20666,
    "Ġinevitable": 15166,
    "Ġsche": 1706,
    "Ġqualifications": 24675,
    "trouble": 8295,
    "Ġabout": 632,
    "Ġbrigs": 20321,
    "nursery": 26399,
    "Ġelect": 10842,
    "Ġtremendous": 8352,
    "400": 20754,
    "outward": 22157,
    "Ġthrob": 21515,
    "vari": 1519,
    "Ġexamining": 8005,
    "Ġbathe": 25443,
    "Ġdun": 6673,
    "Ġgroups": 3718,
    "Ġexert": 5722,
    "matter": 5135,
    "Ġadmired": 7981,
    "Ġrefinement": 18700,
    "Ġoily": 13863,
    "Ġopulence": 23626,
    "Ġenough": 1760,
    "ressing": 8918,
    "slave": 16895,
    "Ġlifeless": 8948,
    "Ġenemies": 9038,
    "Ġsurrounded": 5878,
    "Ġwail": 21285,
    "Ġtreading": 16504,
    "uberance": 25916,
    "throughout": 24087,
    "faith": 15024,
    "Ġirreduc": 5491,
    "ylon": 24975,
    "Ġunlab": 3786,
    "Ġpropose": 9850,
    "barr": 15319,
    "Ġprotect": 6337,
    "Ġpooh": 18603,
    "Ġhandling": 8912,
    "Ġinfinite": 8576,
    "Ġfoe": 7679,
    "Ġrider": 24185,
    "Ġsqueezed": 20034,
    "Ġfundamentals": 14635,
    "Ġsoup": 7067,
    "Ġfat": 3459,
    "inese": 12881,
    "situation": 11437,
    "Ġdestroyer": 13412,
    "links": 20957,
    "listen": 13513,
    "Ġsacri": 18328,
    "Ġdra": 1591,
    "Ġjingling": 26017,
    "Ġfarthest": 23113,
    "Ġblue": 3452,
    "rap": 21625,
    "Ġborder": 10169,
    "Ġblock": 2572,
    "Ġquitted": 5311,
    "pervading": 18975,
    "Ú": 155,
    "pit": 3984,
    "beautiful": 10648,
    "Ġbarrow": 12067,
    "Ġrepressed": 21665,
    "Ġtormented": 8674,
    "Ġrubber": 22779,
    "Ġconstitution": 20107,
    "Ġvote": 21944,
    "Ġarise": 7895,
    "70": 17475,
    "Ġhearken": 21682,
    "Ġbodings": 21389,
    "Ġv": 399,
    "Ġshalt": 18230,
    "including": 23589,
    "Ġallude": 12768,
    "Ġmonuments": 22979,
    "vineyard": 25421,
    "Ġfoundering": 21417,
    "Ġincrease": 9369,
    "Ġoutlaws": 22320,
    "eks": 4726,
    "console": 22468,
    "Ġlovers": 9719,
    "Ġsalted": 14756,
    "Ġphrenologist": 25607,
    "Ġclum": 8872,
    "ulged": 12727,
    "Ġcongregated": 20095,
    "execut": 13654,
    "Ġxl": 11988,
    "Ġeffusion": 22499,
    "Ġsoldier": 16920,
    "Ġrefused": 6715,
    "ference": 1880,
    "Ġthw": 21512,
    "Ġarchly": 22780,
    "Ġcrawford": 24893,
    "able": 451,
    "Ġgeological": 14533,
    "Ġfeeble": 12282,
    "Ġserpents": 13075,
    "pemberley": 9620,
    "ately": 1713,
    "Ġcomputation": 967,
    "judging": 24201,
    "activity": 22629,
    "olet": 13765,
    "Ġunallied": 22029,
    "chanced": 18820,
    "Ġscorched": 17101,
    "brandy": 19200,
    "Ġhunter": 5401,
    "chooses": 23672,
    "Ġuplifted": 11646,
    "clifford": 23155,
    "Ġearliest": 9829,
    "Ġprobable": 5570,
    "Ã¦mon": 7094,
    "Ġitalian": 12408,
    "Ġbattery": 21392,
    "Ġfailing": 12135,
    "Ġdial": 10810,
    "Ġdiscredit": 22775,
    "Ġindul": 5856,
    "Ġeyford": 10641,
    "Ġabhorrence": 9052,
    "Ġsculpture": 26016,
    "Ġwane": 21287,
    "Ġpanted": 21470,
    "Ġheadland": 22894,
    "Ġstrength": 4261,
    "Ġsixth": 16559,
    "Ġjunior": 15098,
    "Ġneglect": 7941,
    "Ħ": 231,
    "Ġdeceased": 15006,
    "Ġplu": 8798,
    "answer": 11730,
    "Ġmystic": 7503,
    "Ġdandy": 17892,
    "Ġsher": 3762,
    "Ġsuperglue": 23456,
    "veral": 2353,
    "Ġclimbing": 20068,
    "Ġdisliked": 12888,
    "georgiana": 26020,
    "Ġrequired": 7224,
    "Ġlucases": 9009,
    "Ġejac": 10203,
    "mond": 20972,
    "Ġdeveloped": 16332,
    "Ġreadability": 2725,
    "Ġconference": 15745,
    "Ġexterior": 19986,
    "iquette": 26132,
    "jammed": 25906,
    "Ġprogno": 14040,
    "wel": 6117,
    "Ġlines": 4533,
    "Ġswarming": 16272,
    "Ġlulled": 17968,
    "Ġdevoting": 22714,
    "Ġponies": 21474,
    "vessel": 11377,
    "tains": 10962,
    "Ġcalifornian": 25851,
    "Ġlangs": 13953,
    "fol": 4861,
    "Ġexec": 19491,
    "Ġconse": 21801,
    "duchess": 18463,
    "Ġpractice": 2892,
    "elstrom": 17981,
    "Ġunimportant": 22027,
    "Ġthr": 5709,
    "handkerchief": 14618,
    "alarm": 15625,
    "spirits": 8054,
    "herent": 2527,
    "extraordinary": 9094,
    "Ġcomes": 3422,
    "invariably": 26416,
    "eminence": 20097,
    "imaux": 21709,
    "Ġrelevant": 1861,
    "spiracle": 22735,
    "Ġinjuring": 24268,
    "Ġdestroy": 5772,
    "Ġsleep": 2397,
    "herds": 22200,
    "Ġupdates": 1300,
    "Ġlod": 4044,
    "icacy": 15656,
    "Ġunappe": 22015,
    "leton": 5147,
    "Ġgravely": 7882,
    "vapor": 25755,
    "Ġimpreg": 15986,
    "Ġmagnificence": 20631,
    "Ġmarching": 16699,
    "Ġrepugnance": 19086,
    "Ġmistake": 6203,
    "ĠâĢľ_": 6696,
    "Ġpom": 21450,
    "settled": 10506,
    "Ġanxious": 4517,
    "Ġcomplement": 23708,
    "preading": 18500,
    "Ġmembrane": 20502,
    "swiftly": 20550,
    "Ġbitten": 21388,
    "Ġmounted": 7832,
    "Ġrabbit": 4290,
    "gathered": 13731,
    "Ġmany": 1103,
    "Æ": 135,
    "Ġamazing": 9976,
    "hamlet": 23260,
    "oft": 3588,
    "Ġmouthfuls": 20645,
    "Ġfore": 2154,
    "Ġbeheading": 21751,
    "Ġseemingly": 9317,
    "Ġbottom": 3673,
    "impregnable": 26481,
    "Ġdelicately": 24126,
    "Ġwarring": 16865,
    "asburgh": 15645,
    "Ġtrans": 640,
    "Ġdusting": 24596,
    "Ġshameful": 19851,
    "Ġcrows": 24029,
    "Ġas": 374,
    "Ġfarewell": 9519,
    "Ġunmanufactured": 20432,
    "Ġhydraulic": 10063,
    "Ġpipeline": 2637,
    "Ġcorrection": 5061,
    "Ġtube": 15003,
    "arson": 22741,
    "ity": 416,
    "Ġballs": 9014,
    "leaning": 10790,
    "Ġdiscipl": 22777,
    "roots": 15641,
    "Ġdespite": 19351,
    "Ġunimag": 12772,
    "Ġtem": 806,
    "Ġpine": 8796,
    "projecting": 26073,
    "Ġdipped": 15593,
    "Ġpunish": 12157,
    "Ġevangelical": 25506,
    "Ġabundance": 17155,
    "liv": 9607,
    "extending": 22753,
    "roc": 9674,
    "Ġdragged": 6889,
    "Ġsnorting": 23739,
    "icles": 17972,
    "mopol": 15395,
    "Ġevol": 2813,
    "Ġeddystone": 25709,
    "spark": 18690,
    "Ġlurking": 11289,
    "Ġunlocked": 14119,
    "hroom": 12474,
    "Ġscare": 18390,
    "Ġwharf": 9559,
    "sequently": 14582,
    "cav": 17507,
    "iff": 3907,
    "Ġnich": 21517,
    "bowed": 10683,
    "Ġinsip": 19266,
    "Ġeagerly": 4989,
    "Ġstagger": 10591,
    "Ġscreams": 24603,
    "Ġglorious": 11075,
    "brary": 5755,
    "Ġconducted": 10502,
    "mic": 12486,
    "concluding": 19479,
    "Ġdissip": 10992,
    "xible": 13807,
    "Ġgather": 6534,
    "apes": 9740,
    "plentiful": 21953,
    "expressed": 9041,
    "Ġhawaiian": 25366,
    "Ġlearning": 388,
    "Ġvales": 21943,
    "Ġinsect": 12633,
    "Ġearlier": 9086,
    "distraction": 24200,
    "Ġankles": 17899,
    "Ġcommanding": 16590,
    "Ġpacifics": 24373,
    "Ġdescription": 7429,
    "Ġspell": 8855,
    "more": 1034,
    "tee": 16172,
    "Ġunivers": 2128,
    "nes": 6961,
    "record": 16921,
    "Ġlingered": 13504,
    "Ġwindigate": 18910,
    "ologist": 22863,
    "Ġputs": 19029,
    "Ġbrighton": 6470,
    "Ġgathering": 14977,
    "J": 46,
    "late": 11498,
    "oubtedly": 6943,
    "Ġourselves": 5126,
    "Ġthrees": 23399,
    "fiery": 13580,
    "Ġmemorand": 23403,
    "attentive": 17189,
    "Ġcourtiers": 24137,
    "izarre": 17388,
    "unable": 14058,
    "front": 12168,
    "ynolds": 10035,
    "verest": 13990,
    "Ġspitz": 14148,
    "Ġsorrowful": 10536,
    "moving": 11016,
    "Ġpleasantness": 24139,
    "Ġreign": 13984,
    "Ġpalp": 11251,
    "Ġoutwardly": 24998,
    "urn": 776,
    "Ġjam": 10951,
    "Ġawed": 23584,
    "osely": 9264,
    "suggested": 17298,
    "attoo": 6807,
    "ira": 3959,
    "Ġsimultaneously": 4312,
    "Ġinstance": 2542,
    "Ġ[": 6967,
    "Ġacquiesce": 20328,
    "necessary": 5881,
    "Ġrescales": 5067,
    "Ġmood": 6276,
    "Ġfunctional": 3048,
    "Ġpaddington": 17095,
    "Ġim": 475,
    "Ġreside": 22536,
    "Ġwhitting": 18055,
    "Ġnoiseless": 10357,
    "Ġrenewing": 19809,
    "aceti": 7111,
    "Ġ77": 24263,
    "Ġsteak": 9828,
    "ĥ": 230,
    "Ġparmacetti": 20603,
    "Ġbumps": 21390,
    "Ġprior": 11318,
    "ĠĠĠĠĠĠĠĠĠĠĠĠ": 12897,
    "sorts": 21059,
    "Ġflew": 5588,
    "Ġcharger": 19004,
    "Ġvertu": 23888,
    "terns": 21819,
    "oes": 4433,
    "bies": 15311,
    "attempts": 17190,
    "Ġ11": 5318,
    "took": 6164,
    "Ġfemin": 13435,
    "shooting": 16965,
    "Ġcapacity": 10440,
    "consciousness": 13364,
    "Ġplainpalais": 20736,
    "conjectures": 25180,
    "crews": 15042,
    "Ġvenetian": 14846,
    "Ġtrustees": 24108,
    "Ġnantucketers": 9893,
    "Ġsmooth": 2777,
    "Ġshall": 1142,
    "Ġvigilant": 20183,
    "Ġpresum": 4836,
    "oise": 15404,
    "Ġforesaw": 19127,
    "Ġextinguished": 10339,
    "ended": 1830,
    "Ġblinding": 14727,
    "Ġgallant": 8654,
    "Ġreliable": 18776,
    "Ġvirginia": 13499,
    "Ġuniverse": 14123,
    "Ġtransported": 11279,
    "Ġnarration": 13503,
    "Ġbloss": 19255,
    "Ġreddening": 25970,
    "Ġwont": 9849,
    "accidents": 19211,
    "Ġabsence": 4893,
    "Ġdeliverance": 15156,
    "Ġmotion": 4565,
    "crane": 24099,
    "Ġdishonoured": 20389,
    "spouter": 22733,
    "save": 13784,
    "Ġren": 3844,
    "Ġcurtains": 22960,
    "Ġtide": 6658,
    "velling": 14762,
    "2": 22,
    "Ġparticular": 2449,
    "Ġbuoyant": 13531,
    "Ġatrocious": 21940,
    "Ġafternoon": 6052,
    "damn": 20022,
    "vex": 21695,
    "Ġempt": 5050,
    "Ġcasket": 19723,
    "ease": 12455,
    "Ġbaronial": 23791,
    "flies": 19422,
    "Ġindividual": 5744,
    "ille": 9219,
    "Ġslime": 23159,
    "Ġinputs": 843,
    "Ġunfolding": 17086,
    "Ġhooped": 23353,
    "Ġshapeless": 24524,
    "Ġknotted": 17019,
    "Ġgar": 10838,
    "aire": 10680,
    "Ġhypocritical": 20737,
    "Ġfundament": 2929,
    "Ġglances": 10372,
    "asc": 6386,
    "Ġpain": 2304,
    "sea": 4761,
    "Ġdistillation": 16044,
    "Ġswallows": 18882,
    "elephant": 12349,
    "Ġdeuteronomy": 15758,
    "Ġdesolate": 10012,
    "weather": 7229,
    "shroud": 20311,
    "Ġlakeman": 6986,
    "Ġannals": 17898,
    "iriously": 18171,
    "Ġmidnight": 5264,
    "Ġpurport": 14580,
    "Ġemerge": 14927,
    "Ġcardboard": 19977,
    "Ġheed": 5630,
    "Ġcontr": 1914,
    "Ġcontriv": 9281,
    "Ġshiver": 12764,
    "Ġpossessions": 23821,
    "Ġrepay": 19081,
    "other": 1316,
    "e": 73,
    "Ġoptimize": 1676,
    "Ġsnuffing": 25012,
    "eat": 11482,
    "mud": 20970,
    "conception": 22469,
    "tically": 3392,
    "quickly": 14961,
    "Ġmark": 2331,
    "Ġsubtle": 6716,
    "Ġspeedy": 11172,
    "ampling": 12723,
    "Ġmajor": 13290,
    "Ġdis": 695,
    "Ġbandages": 24427,
    "Ġthrusting": 10552,
    "vanity": 24974,
    "Ġwalrus": 14972,
    "falgar": 26130,
    "breakfast": 8687,
    "Ġsuppressed": 11909,
    "sweetly": 25134,
    "âĢĻâĢĶ": 12733,
    "ationally": 15703,
    "Ġmelbourne": 24289,
    "aset": 10832,
    "Ġinquiring": 8999,
    "anded": 5922,
    "compassion": 12366,
    "rical": 11518,
    "Ġpalpit": 16691,
    "vitiated": 25754,
    "urried": 21701,
    "humanity": 24839,
    "Ġunintellig": 22023,
    "Ġdistinguished": 8272,
    "stay": 9680,
    "ste": 3582,
    "Ġgriff": 22803,
    "halfway": 24311,
    "Ġtyrant": 24767,
    "Ġstru": 2170,
    "create": 24159,
    "devils": 20031,
    "Ġnathan": 21523,
    "Ġactivation": 917,
    "Ġprairie": 8712,
    "Ġhid": 1321,
    "Ġcourt": 4170,
    "Ġshrew": 21997,
    "Ġholder": 6724,
    "uteness": 17985,
    "Ġwhence": 5839,
    "Ġaccorded": 24089,
    "Ġexhibition": 14956,
    "insula": 23062,
    "Ġcased": 21344,
    "Ġpleases": 16297,
    "iza": 6255,
    "Ġkentuck": 19890,
    "Ġdwelling": 7322,
    "aut": 1912,
    "Ġinviting": 19143,
    "Ġhung": 4559,
    "gained": 20880,
    "crowded": 20189,
    "Ġseasoned": 24405,
    "shoals": 24717,
    "Ġhyster": 16873,
    "Ġimpertinent": 9077,
    "Ġvisage": 18767,
    "Ġheroine": 24543,
    "Ġattempting": 14696,
    "Ġpile": 8423,
    "Ġdashed": 6009,
    "trained": 4240,
    "hunting": 24385,
    "Ġlull": 15649,
    "Ġ(`": 12849,
    "Ġfinish": 7948,
    "Ġquarters": 8619,
    "Ġsnatches": 16544,
    "ciousness": 20816,
    "Ġahoy": 12182,
    "Ġtwink": 8215,
    "solved": 7684,
    "spermaceti": 12191,
    "Ġearnestly": 5978,
    "ex": 621,
    "elopement": 23133,
    "Ġnapkins": 25161,
    "Ġvult": 12749,
    "ò": 179,
    "Ġnobly": 22238,
    "Ġless": 1937,
    "tw": 2810,
    "Ġunkindness": 22039,
    "enth": 6680,
    "Ġplaited": 14282,
    "felt": 5888,
    "Ġsteps": 2862,
    "being": 3915,
    "Ġgraph": 10902,
    "Ġsearched": 15818,
    "Ġphyset": 23197,
    "fer": 2017,
    "murderer": 13392,
    "Ġconv": 2972,
    "Ġbrings": 11878,
    "Ġinfatuated": 20532,
    "ption": 7398,
    "caves": 20815,
    "Ġunthinkingly": 26220,
    "sander": 11526,
    "Ġconj": 8460,
    "Ġmother": 2067,
    "Ġfolds": 12204,
    "mysterious": 26051,
    "Ġconvolutional": 2163,
    "Ġcautiously": 16977,
    "Ġscreamed": 9523,
    "Ġjurymen": 16847,
    "à": 161,
    "Ġstayed": 7997,
    "patter": 4104,
    "Ġess": 5691,
    "perth": 22182,
    "Ġcondescend": 19953,
    "sal": 8757,
    "Ġteased": 18807,
    "Ġand": 295,
    "willingness": 24755,
    "itement": 7835,
    "historical": 20464,
    "hetically": 21207,
    "dressed": 10695,
    "eastward": 15128,
    "uguese": 20731,
    "laugh": 10108,
    "greg": 6647,
    "Ġslippers": 19614,
    "Ġmu": 17795,
    "Ġundergone": 18985,
    "Ġchival": 14182,
    "Ġtakes": 5006,
    "Ġfatal": 5871,
    "Ġstroke": 6936,
    "whom": 8184,
    "Ġgradually": 3400,
    "Ġdiligent": 25075,
    "Ġgreeting": 18962,
    "float": 19804,
    "Ġniece": 5712,
    "cool": 19186,
    "Ġapprovingly": 26245,
    "Ġcorroded": 18875,
    "ghan": 19453,
    "Ġlat": 5086,
    "Ġgratifying": 13304,
    "eps": 12787,
    "Ġreiter": 21663,
    "Ġunconquerable": 22060,
    "Ġelegance": 11332,
    "ladder": 19783,
    "ognit": 19240,
    "Ġnoisier": 4623,
    "Ġbri": 21376,
    "§": 105,
    "bour": 2073,
    "Ġscarcity": 23824,
    "Ġadd": 630,
    "methodically": 20663,
    "Ġwarnings": 16881,
    "Ġnantucket": 2838,
    "solic": 16376,
    "Ġpier": 7162,
    "Ġexertion": 8053,
    "Ġrap": 14303,
    "Ġvisual": 5741,
    "Ġrob": 1275,
    "Ġfolding": 19726,
    "ohog": 9842,
    "blocks": 25517,
    "peace": 13046,
    "Ġopenly": 8572,
    "Ġlest": 6395,
    "Ġpatent": 11967,
    "Ġstealing": 18894,
    "els": 1762,
    "ental": 7168,
    "ientious": 11689,
    "Ġreturn": 1711,
    "Ġelijah": 9099,
    "Ġnigh": 4877,
    "Ġunmindful": 22063,
    "Ġexplored": 23515,
    "Ġequally": 5256,
    "Ġremonstr": 16160,
    "Ġequator": 7461,
    "Ġquestion": 2776,
    "ag": 377,
    "Ġrefers": 1563,
    "ittle": 813,
    "bib": 17491,
    "0": 20,
    "tracks": 19637,
    "Ġtreated": 7080,
    "Ġunlock": 18243,
    "Ġris": 4885,
    "Ġbigness": 19759,
    "ruck": 6848,
    "Ġcoll": 8220,
    "merchant": 10467,
    "Ġskrimshander": 22796,
    "lands": 8240,
    "boots": 11126,
    "agne": 21902,
    "Ġpainted": 7978,
    "Ġreplace": 14476,
    "send": 15423,
    "Ġconvulsive": 19306,
    "Ġperfectly": 3700,
    "Ġcheap": 13087,
    "winter": 10740,
    "Ġdesiring": 14412,
    "inquiry": 15141,
    "th": 407,
    "Ġattentive": 9033,
    "Ġinforming": 18743,
    "Ġtouching": 4679,
    "Ġshol": 21992,
    "Ġtransplanted": 22438,
    "Ġprecip": 7074,
    "mend": 20965,
    "Ġcabinet": 23859,
    "Ġbravely": 23836,
    "Ġconfessor": 24016,
    "Ġtackle": 9512,
    "Ġsafe": 5102,
    "va": 4741,
    "punctual": 26355,
    "Ġconsole": 8150,
    "Ġsyllables": 25298,
    "trivial": 21091,
    "Ġoscill": 2856,
    "Ġcondensed": 24052,
    "mix": 20973,
    "Ġlouisiana": 25076,
    "considered": 9580,
    "shone": 22450,
    "Ġtenderly": 11314,
    "knives": 14912,
    "Ġhogshe": 20490,
    "Ġsentences": 2684,
    "Ġimplement": 3013,
    "wester": 21137,
    "Ġdiminished": 16665,
    "Ġtipped": 17728,
    "oration": 2209,
    "Ġfrank": 4419,
    "Ġcommendation": 13609,
    "Ġupwards": 7633,
    "endured": 22224,
    "Ġcommonest": 23086,
    "itt": 570,
    "Ġlaughter": 9027,
    "Ġlaboratory": 13611,
    "liness": 8746,
    "Ġretains": 20028,
    "Ġdedication": 2950,
    "Ġintrude": 25990,
    "penny": 22942,
    "Ġobeyed": 12214,
    "Ġcasualty": 20340,
    "Ġjohnson": 18409,
    "remaining": 20219,
    "Ġqualified": 14949,
    "library": 12996,
    "lance": 12479,
    "Ġsweat": 13139,
    "obliv": 23093,
    "les": 1016,
    "Ġther": 17778,
    "Ġgrecian": 26296,
    "tried": 13793,
    "affold": 16562,
    "precise": 19349,
    "fights": 20864,
    "wling": 11544,
    "Ġangle": 8602,
    "Ġrippling": 17277,
    "Ġhumped": 19768,
    "Ġrabb": 4165,
    "apart": 15960,
    "Ġabide": 14190,
    "Ġtraitors": 23074,
    "few": 8202,
    "Ġbetray": 7442,
    "Ġsta": 18062,
    "Ġn": 300,
    "librarian": 26568,
    "wal": 10133,
    "f": 74,
    "atha": 6572,
    "toed": 18580,
    "Ġilliter": 23467,
    "jets": 20927,
    "uneasy": 23684,
    "Ġlounging": 10021,
    "Ġmanaging": 22322,
    "valu": 1666,
    "Ġrecollecting": 17113,
    "Ġawake": 8271,
    "Ġdi": 6525,
    "Ġdaily": 5986,
    "americans": 25042,
    "Ġshriek": 6637,
    "bermaid": 20789,
    "Ġwelded": 9571,
    "Ġsket": 18727,
    "Ġdevelopments": 23225,
    "Ġneighbouring": 12116,
    "puzzling": 26143,
    "atement": 17773,
    "Ġrenders": 13282,
    "Ġplaint": 10325,
    "Ġfighting": 12195,
    "village": 25422,
    "Ġwounds": 17790,
    "Ġthomson": 26454,
    "Ġjapan": 7639,
    "Ġprint": 18968,
    "Ġforetold": 23450,
    "Ġchasing": 11752,
    "runs": 25415,
    "Ġprincipally": 11309,
    "Ġprofane": 13151,
    "Ġdisregard": 22525,
    "chari": 21686,
    "Ġtablet": 19204,
    "ateful": 5926,
    ",âĢĻ": 2328,
    "anse": 12572,
    "Ġmuttered": 7086,
    "Ġclassifies": 11832,
    "fabulous": 20472,
    "Ġmixing": 24934,
    "Ġincensed": 18571,
    "Ġdrowning": 19903,
    "Ġsteepest": 3088,
    "Ġmeasures": 1203,
    "Ġheroines": 19750,
    "Ġdece": 6996,
    "terrific": 25040,
    "fate": 17539,
    "Ġdrown": 6815,
    "Ġsegment": 12754,
    "naturalists": 23554,
    "Ġserene": 8166,
    "icity": 2537,
    "Ġpatagonian": 20534,
    "whosoever": 22237,
    "uneven": 23683,
    "Ġshipped": 9714,
    "Ġpike": 12620,
    "midnight": 14901,
    "Ġnurtured": 19748,
    "Ġbureau": 11589,
    "Ġribbons": 24329,
    "Ġy": 341,
    "Ġburnwell": 13266,
    "Ġnor": 1550,
    "wedged": 24338,
    "Ġoverlooked": 15973,
    "Ġamput": 16033,
    "fields": 14653,
    "prom": 6509,
    "Ġwilling": 7421,
    "Ġadvised": 16210,
    "beef": 18520,
    "Ġaccent": 10293,
    "Ġsize": 1215,
    "Ġregimentals": 19857,
    "Ĳ": 243,
    "Ġinquiries": 5678,
    "Ġsailing": 5323,
    "Ġpeas": 8533,
    "Ġwedded": 16674,
    "Ġimparted": 15987,
    "Ġloosed": 22109,
    "||": 4868,
    "Ġsled": 21217,
    "Ġperform": 1036,
    "Ġsuspicion": 6211,
    "rusted": 16506,
    "Ġmiles": 3802,
    "Ġvillains": 14749,
    "queer": 10363,
    "august": 11071,
    "Ġundoing": 22032,
    "Ġchewed": 16369,
    "Ġpreferred": 14965,
    "wants": 21129,
    "Ġdrags": 16941,
    "rece": 21233,
    "Ġchips": 14181,
    "Ġmournful": 12334,
    "Ġdiscu": 4364,
    "Ġloving": 8175,
    "rocious": 21536,
    "ent": 305,
    "Ġmarchant": 14785,
    "plendent": 21955,
    "Ġmiraculous": 13546,
    "Ġconn": 9229,
    "worthy": 7732,
    "ette": 15657,
    "Ġstra": 2994,
    "club": 26380,
    "Ġmainz": 22652,
    "rings": 10722,
    "Ġreview": 18030,
    "Ġdivision": 19442,
    "Ġtass": 15469,
    "Ġlazily": 11380,
    "Ġanteced": 26177,
    "menced": 23144,
    "animation": 16979,
    "Ġcommissionaire": 17000,
    "Ġshovel": 23489,
    "Ġdisinclined": 22526,
    "Ġbusily": 9383,
    "Ġexcellence": 11451,
    "jar": 17577,
    "Ġfac": 6381,
    "Ġguided": 10460,
    "oton": 3604,
    "Ġvirt": 3909,
    "crime": 14782,
    "Ġtransformers": 1125,
    "Ġbamboo": 17436,
    "Ġjobs": 24832,
    "Ġqueequeg": 2012,
    "Ġforthwith": 16618,
    "ay": 355,
    "arthur": 14829,
    "rmsprop": 4521,
    "solut": 3363,
    "Ġregal": 16075,
    "Ġveracity": 23887,
    "Ġmutual": 8296,
    "Ġtows": 19561,
    "wat": 6231,
    "Ġinvoking": 19145,
    "Ġoutdone": 22315,
    "agings": 18165,
    "Ġxerxes": 23409,
    "Ġ30": 10511,
    "iliar": 15712,
    "Ġassemblage": 26351,
    "Ġ68": 24370,
    "Ġleagues": 9223,
    "Ġsu": 433,
    "Ġindividuality": 14908,
    "allest": 5485,
    "Ġble": 5222,
    "Ġhorizontal": 7782,
    "Ġreappearance": 21664,
    "Ġpalpitated": 26085,
    "Ġairy": 23313,
    ")": 13,
    "Ġheadache": 22896,
    "Ġjewelled": 20182,
    "Ġshaved": 21999,
    "Ġlives": 4824,
    "amount": 10884,
    "related": 24009,
    "Ġflowery": 16233,
    "ousness": 10274,
    "Ġ90": 24588,
    "Ġarthur": 7196,
    "Ġroads": 13287,
    "Ġpilgrimage": 17307,
    "thole": 21983,
    "Ġlong": 794,
    "haired": 14766,
    "Ġchoking": 15933,
    "Ġalabama": 14018,
    "allet": 11083,
    "Ġply": 21451,
    "ca": 20792,
    "Ġnatives": 17950,
    "lucas": 15150,
    "Ġmelt": 21316,
    "Ġpredestinated": 18531,
    "Ġell": 17715,
    "Ġfasten": 11132,
    "Ġbiggest": 24566,
    "voice": 7816,
    "full": 7420,
    "Ġdisposed": 7083,
    "Ġanchors": 12610,
    "dog": 10692,
    "Ġelastic": 4362,
    "hro": 20890,
    "otence": 14022,
    "Ġwithal": 18113,
    "Ġgurg": 15671,
    "Ġstud": 1626,
    "Ġplaced": 3442,
    "illings": 14142,
    "chosen": 21692,
    "brit": 19197,
    "commod": 16169,
    "Ġfreshly": 23984,
    "Ġfrozen": 9012,
    "plun": 15814,
    "deser": 10402,
    "cott": 8073,
    "Ġanimation": 11152,
    "Ġbull": 7839,
    "Ġlucas": 3830,
    "win": 6801,
    "Ġcling": 11769,
    "Ġupstairs": 5836,
    "fri": 20853,
    "Ġmottled": 20677,
    "univers": 15770,
    "Ġskiff": 16162,
    "Ġcraft": 4376,
    "Ġmasterly": 23991,
    "distrustful": 26330,
    "Ġfoam": 6891,
    "mockery": 24378,
    "embraced": 25806,
    "evidently": 20344,
    "entropy": 1438,
    "igating": 21697,
    "Ġfancies": 10424,
    "Ġtypewriter": 19097,
    "Ġsheeted": 19830,
    "neck": 14234,
    "Ġparagraph": 17453,
    "Ġpreparing": 8647,
    "Ġgaping": 13968,
    "better": 7119,
    "limping": 26393,
    "iors": 9125,
    "Ġmenaces": 23103,
    "Ġconcise": 23319,
    "Ġenergetic": 15196,
    "Ġtho": 21511,
    "Ġaccosted": 13671,
    "Ġexact": 2540,
    "circumstantial": 24444,
    "Ġfinds": 6299,
    "salis": 25147,
    "Ġnash": 5819,
    "Ġunsc": 22011,
    "Ġagency": 11804,
    "Ġchisel": 20366,
    "oubled": 23647,
    "Ġfatt": 15577,
    "tempest": 16959,
    "summon": 23414,
    "ection": 4947,
    "arded": 5028,
    "foremost": 14252,
    "Ġ24": 13192,
    "Ġeveryday": 22766,
    "Ġconsideration": 5190,
    "ple": 455,
    "Ġ*": 1269,
    "Ġdarker": 13118,
    "Ġgibberish": 25786,
    "actions": 8906,
    "ropri": 2180,
    "hens": 3939,
    "Ġs": 265,
    "mouth": 9130,
    "Ġsne": 6372,
    "Ġdropping": 7483,
    "Ġpy": 21449,
    "agon": 7870,
    "))": 1518,
    "Ġcontinent": 14887,
    "wis": 12516,
    "Ġfrigid": 17352,
    "Ġreconsidered": 21670,
    "shows": 22453,
    "speechless": 25395,
    "Ġleaning": 5227,
    "removing": 17764,
    "Ġpack": 5444,
    "Ġpoison": 7219,
    "tese": 21082,
    "Ġrepublic": 14531,
    "Ġfr": 1696,
    "Ġhomeward": 9391,
    "flagged": 23969,
    "others": 7669,
    "Ġflaming": 8563,
    "icates": 11616,
    "Ġcravat": 26307,
    "relics": 24012,
    "Ġobser": 2070,
    "security": 26206,
    "Ġdelineate": 26057,
    "Ġhey": 11640,
    "Ġbrixton": 13662,
    "lot": 3207,
    "Ġrepe": 3280,
    "Ġilluminating": 25245,
    "Ġfright": 3794,
    "Ġmediterranean": 12313,
    "Ġaddress": 2271,
    "ino": 15479,
    "history": 15014,
    "Ġcore": 13877,
    "Ġjust": 1238,
    "augment": 18829,
    "Ġted": 13811,
    "Ġmogul": 12859,
    "coming": 3560,
    "alous": 7372,
    "Ġcausing": 16357,
    "Ġfilial": 16620,
    "Ġinn": 4589,
    "emin": 8470,
    "Ġbracelets": 25502,
    "partner": 19220,
    "Ġcorridor": 10671,
    "Ġcathed": 14549,
    "Ġshrugged": 12766,
    "aneously": 4061,
    "Ġdiscernible": 15068,
    "points": 14392,
    "footed": 19688,
    "Ġlowly": 11121,
    "Ġbutler": 18270,
    "ckled": 9256,
    "Ġtouches": 20569,
    "Ġoverpower": 12839,
    "unhes": 21872,
    "Ġanvil": 11596,
    "Ġnods": 19060,
    "Ġcords": 14878,
    "Ġmove": 5106,
    "Ġkitty": 3911,
    "ugn": 9377,
    "measure": 10030,
    "Ġvegetables": 15220,
    "Ġloite": 22108,
    "Ġmore": 677,
    "Ġreassure": 21669,
    "Ġstreets": 5863,
    "Ġbradstreet": 9576,
    "ilingly": 21720,
    "Ġcounsel": 13614,
    "Ġtrous": 10959,
    "gans": 11489,
    "riers": 18181,
    "Ġpraise": 6486,
    "Ġconsecrated": 26488,
    "Ġsepulchral": 25892,
    "Ġthirty": 4943,
    "Ġstash": 18067,
    "eler": 1571,
    "Ġfamiliarly": 11303,
    "Ġstolen": 14006,
    "Ġdict": 9175,
    "Ġmitigates": 3051,
    "Ġmel": 4815,
    "Ġsob": 12785,
    "ativeness": 15520,
    "Ġmanip": 8871,
    "daggoo": 13706,
    "Ġpregnant": 26535,
    "algorithms": 8293,
    "Ġimputable": 22170,
    "Ġbarred": 9002,
    "pip": 6654,
    "admit": 18090,
    "Ġrobberies": 23005,
    "Ġblessings": 24176,
    "Ġabominably": 20067,
    "Ġsuperstitious": 13519,
    "our": 535,
    "Ġsnoo": 21227,
    "abouts": 9451,
    "Ġmad": 2426,
    "Ġrepresentation": 14404,
    "races": 21627,
    "Ġplanisphere": 26607,
    "unct": 18154,
    "cially": 3488,
    "heredit": 21208,
    "Ġbanish": 15568,
    "ensity": 11811,
    "Ġappet": 9728,
    "secure": 12233,
    "Ġintrig": 21987,
    "Ġscrib": 22266,
    "Ġshavings": 14109,
    "Ġordinary": 6096,
    "ources": 2788,
    "message": 17371,
    "sculpt": 16243,
    "Ġtalk": 1970,
    "Ġdepos": 11007,
    "feeders": 25235,
    ";": 31,
    "Ġgrowth": 14629,
    "inkle": 22614,
    "Ġoccurred": 4461,
    "Ġmoisture": 12357,
    "Ġliveliest": 24775,
    "Ġunconsc": 6552,
    "Ġtearing": 14395,
    "Ġtimorous": 24225,
    "Ġneighbors": 25804,
    "Ġuntil": 2669,
    "hauteur": 26391,
    "irable": 5776,
    "Ġhappens": 2189,
    "_,": 2798,
    "Ġpickle": 16722,
    "gam": 10095,
    "Ġdiffusion": 23780,
    "Ġfelicity": 7260,
    "Ġunbounded": 18259,
    "bildad": 9586,
    "Ġmagnific": 16319,
    "Ġrosings": 4606,
    "Ġasser": 6257,
    "nuee": 17429,
    "Ġordained": 19443,
    "cherish": 24552,
    "Ġplunder": 22599,
    "Ġcarter": 18900,
    "Ġattraction": 18618,
    "Ġaloud": 6252,
    "Ġmeddle": 19490,
    "Ġnoisy": 13317,
    "extremely": 26263,
    "ribs": 23363,
    "girl": 12316,
    "Ġheartfelt": 18966,
    "ture": 7558,
    "eous": 13711,
    "Ġcommercial": 22671,
    "Ġrasc": 21971,
    "Ġcoars": 14270,
    "cake": 20803,
    "sullen": 17669,
    "frisco": 16787,
    "Ġperpetual": 12301,
    "Ġduring": 872,
    "joint": 24006,
    "octial": 20003,
    "Ġfixing": 13155,
    "approaching": 15011,
    "arab": 21439,
    "Ġchill": 11750,
    "Ġcrossed": 6068,
    "Ġdevils": 7230,
    "oury": 22308,
    "hardly": 6491,
    "inside": 23061,
    "Ġargument": 7098,
    "balance": 12005,
    "Ġquarrels": 16566,
    "darcy": 5207,
    "Ġdies": 11592,
    "Ġunion": 6839,
    "Ġfilm": 23922,
    "(-": 2983,
    "Ġprefers": 20512,
    "ilburn": 18059,
    "viv": 17698,
    "Ġbusiness": 2233,
    "Ġextremest": 19194,
    "umps": 6317,
    "Ġad": 444,
    "activation": 3231,
    "Ġboundless": 10495,
    "Ġglitter": 25122,
    "swallow": 24257,
    "Ġobject": 1395,
    "Ġunrel": 14695,
    "steel": 8298,
    "armon": 23056,
    "Ġburden": 8607,
    "izure": 21838,
    "Ġdeem": 18133,
    "Ġchag": 15930,
    "Ġisol": 8833,
    "pulling": 25146,
    "Ġexciting": 23307,
    "Ġitem": 12698,
    "Ą": 197,
    "Ġinoffensive": 21495,
    "likelihood": 4991,
    "Ġmungo": 25631,
    "promising": 24726,
    "beg": 22483,
    "Ġleaky": 2346,
    "caps": 20806,
    "Ġwhoa": 22417,
    "ĠĠĠĠĠ": 3525,
    "Ġdiab": 10611,
    "Ġmortifying": 13243,
    "Ġnick": 21520,
    "Ġtangled": 13826,
    "parlour": 16384,
    "roded": 17955,
    "Ġpa": 2992,
    "Ġbarrowful": 25595,
    "Ġrus": 14091,
    "hitherto": 17283,
    "Ġcom": 369,
    "opic": 22471,
    "ness": 853,
    "Ġlaughs": 24117,
    "Ġcarrying": 6071,
    "engagements": 25853,
    "Ġconstable": 19068,
    "Ġrepast": 16410,
    "Ġcompleted": 8996,
    "Ġreck": 6537,
    "quietude": 24655,
    "Ġgifted": 17996,
    "Ġfort": 2575,
    "Ġpleasing": 6190,
    "Ġpotent": 12062,
    "Ġqueen": 3213,
    "Ġrom": 4524,
    "plex": 708,
    "Ġbehalf": 14505,
    "Ġgur": 21589,
    "fortun": 3537,
    "Ġtreasure": 9558,
    "Ġonly": 789,
    "Ġunearthly": 9036,
    "Ġwhales": 1824,
    "Ġsecurity": 8977,
    "ckery": 22096,
    "Ġwhisper": 6205,
    "Ġel": 803,
    "Ġdeclares": 16992,
    "Ġethics": 15462,
    "Ġlashings": 25097,
    "Ġenticements": 26033,
    "<EOS>": 2,
    "Ġsurpassing": 20466,
    "superstitious": 17280,
    "Ġissued": 10599,
    "Ġcalms": 23040,
    "Ġgravel": 14101,
    "Ġmagnitudes": 3820,
    "Ġcarved": 7946,
    "Ġcabaco": 13166,
    "Ġsoph": 1683,
    "lished": 8382,
    "Ġincessantly": 11411,
    "ues": 2080,
    "Ġhoney": 12629,
    "Ġindicate": 23721,
    "Ġmisery": 3812,
    "Ġsherry": 19449,
    "ics": 3257,
    "Ġdictated": 25218,
    "Ġexacted": 23602,
    "Ġdiff": 3115,
    "Ġgouldings": 26187,
    "Ġgoblets": 20517,
    "Ġesquimaux": 25150,
    "Ġapparent": 5466,
    "Ġinclinations": 19538,
    "Ġventilator": 8713,
    "tery": 14036,
    "scoured": 22989,
    "Ġnotes": 7189,
    "future": 13716,
    "arse": 7160,
    "shrugged": 22457,
    "Ġturnkeys": 23029,
    "Ġclasp": 9742,
    "Ġvi": 1954,
    "Ġlistening": 6318,
    "Ġquaker": 10971,
    "ured": 1650,
    "Ġabraham": 18400,
    "Ġgregarious": 18963,
    "Ġresolve": 13169,
    "Ġconsummation": 17424,
    "lovely": 16045,
    "buck": 17490,
    "Ġunlike": 7004,
    "conceive": 16030,
    "Ġflaw": 23010,
    "Ġwooded": 23517,
    "worn": 13805,
    "variance": 2656,
    "let": 2733,
    "Ġsustenance": 19932,
    "Ġbrief": 6976,
    "Ġpers": 1360,
    "Ġleave": 2458,
    "Ġinterpretation": 19715,
    "dler": 13705,
    "iscuit": 10598,
    "immediately": 10048,
    "Ġxviii": 23408,
    "Ġlater": 6016,
    "complained": 25838,
    "Ġshaken": 10264,
    "Ġmeasure": 3591,
    "Ġostentatiously": 20467,
    "Ġmeetings": 16532,
    "Ġtruce": 24116,
    "Ġscrut": 15944,
    "weigh": 18665,
    "Ġbodily": 6106,
    "Ġquieted": 23840,
    "iliation": 10860,
    "berg": 11857,
    "Ġrobes": 16245,
    "Ġmovements": 24359,
    "bethinking": 25745,
    "Ġalike": 8146,
    "Ġbluish": 23651,
    "cru": 7126,
    "hmael": 7342,
    "Ġostentatious": 25736,
    "Ġfounder": 17883,
    "Ġnominally": 17231,
    "Ġshudder": 9050,
    "Ġmask": 1863,
    "eting": 7169,
    "Ġdec": 643,
    "opposition": 24823,
    "Ġcigarette": 20655,
    "Ġpacific": 5152,
    "justice": 7957,
    "luded": 4229,
    "Ġempire": 11144,
    "Ġpropri": 6738,
    "helpless": 16790,
    "commodore": 20624,
    "Ġorphans": 20203,
    "Ġland": 1997,
    "Ġbay": 9168,
    "Ġswayed": 15047,
    "Ġpetulance": 24227,
    "Ġcoral": 11920,
    "Ġequilib": 4138,
    "stri": 6249,
    "Ġunprovided": 18260,
    "orph": 21397,
    "Ġ182": 13235,
    "Ġbacking": 16116,
    "plexy": 18575,
    "Ġtw": 841,
    "deep": 1030,
    "Ġmagnet": 10389,
    "Ġathe": 17741,
    "chiefly": 14845,
    "Ġly": 2269,
    "ocean": 12399,
    "Ġneedlessly": 23628,
    "Ġaunts": 21199,
    "Ġapparently": 6778,
    "Ġcrystals": 20226,
    "Ġdoleful": 18377,
    "Ġcaus": 1724,
    "anct": 21356,
    "Ġsuburban": 17345,
    "etition": 7382,
    "capting": 24037,
    "an": 278,
    "rift": 11519,
    "Ġclusters": 25232,
    "irect": 5553,
    "stranded": 19224,
    "oker": 10963,
    "inglass": 21301,
    "imate": 4222,
    "Ġbaby": 6636,
    "Ġbuckler": 24859,
    "Ġplunging": 14951,
    "Ġty": 6657,
    "Ġamuse": 5939,
    "Ġadvisable": 11442,
    "bearance": 22490,
    "Ġinfinitely": 8963,
    "bold": 17487,
    "Ġpoor": 1710,
    "served": 5042,
    "Ġequilibrium": 4142,
    "Ġwonderfully": 10430,
    "Ġneglected": 10377,
    "wich": 11543,
    "Ġvictims": 19803,
    "Ġremains": 4909,
    "Ġperseverance": 13596,
    "inform": 10143,
    "Ġglimmer": 15140,
    "Ġmiguel": 25766,
    "Ġinsipid": 26313,
    "Ġfirmament": 19469,
    "Ġseen": 1370,
    "Ġherbage": 25996,
    "rise": 6226,
    "Ġordinarily": 20648,
    "step": 2457,
    "Ġshamefully": 24716,
    "resol": 17760,
    "nial": 20983,
    "Ġpromise": 4200,
    "Ġbit": 2967,
    "Ġgangway": 20157,
    "Ġrival": 10485,
    "Ġswiftly": 5670,
    "Ġsincerely": 7962,
    "Ġshowers": 16605,
    "Ġdelivery": 18973,
    "ffic": 22148,
    "dimensional": 2348,
    "Ġdeck": 2140,
    "Ġvaguely": 17365,
    "its": 1150,
    "Ġswelled": 11087,
    "Ġpick": 4258,
    "Ġfrost": 6095,
    "Ġmrs": 1467,
    "Ġalarm": 4049,
    "Ġdevoutly": 25832,
    "Ġforth": 3460,
    "Ġce": 3032,
    "Ġunicorn": 22054,
    "Ġextensive": 12938,
    "Ġgigantic": 5914,
    "Ġpolice": 4673,
    "Ġreluctant": 20523,
    "Ġdelic": 4136,
    "Ġwhiff": 21715,
    "correct": 24483,
    "apped": 5395,
    "Ġwarmest": 16484,
    "Ġutterance": 14763,
    "feature": 3853,
    "Ġexamine": 7734,
    "Ġfill": 5701,
    "Ġinsights": 13178,
    "Ġbitter": 4174,
    "tumbled": 21089,
    "Ġconjugal": 25101,
    "best": 6111,
    "Ġgoblet": 25823,
    "Ġdecl": 3587,
    "Ġunrestrained": 25554,
    "virtue": 20568,
    "Ġfor": 340,
    "itting": 1152,
    "Ġsnatching": 10472,
    "Ġthis": 382,
    "nered": 18491,
    "Ġhan": 15616,
    "forming": 15915,
    "ren": 550,
    "Ġintrepidity": 25550,
    "Ġcreaking": 14331,
    "Ġungover": 18255,
    "y": 93,
    "Ġalso": 1347,
    "aker": 3660,
    "elihood": 4621,
    "Ġwaning": 15533,
    "Ġprizes": 13072,
    "Ġunprotected": 22064,
    "Ġthreshold": 2807,
    "Ġlegitimate": 20641,
    "Ġrep": 1936,
    "sprit": 11382,
    "Ġwreath": 25936,
    "Ġsaying": 3244,
    "Ġlayer": 1010,
    "Ġunlucky": 10049,
    "Ę": 217,
    "Ġtraveller": 8048,
    "Ġstumbling": 21739,
    "Ġwhereby": 11835,
    "failed": 20862,
    "Ġprecisely": 6466,
    "romed": 10905,
    "Ġtim": 4577,
    "Ġcomposed": 8891,
    "Ġemploy": 3613,
    "Ġhowl": 12850,
    "Ġfluke": 14673,
    "Ġprogen": 14039,
    "friendship": 24048,
    "Ġsubaltern": 22788,
    "poises": 11887,
    "Ġhus": 3092,
    "withdrawn": 23027,
    "Ġstirring": 10579,
    "Ġshepherd": 14152,
    "Ġbriony": 9328,
    "Ġdifficulties": 11225,
    "Ġelephants": 9863,
    "Ġcor": 1324,
    "Ġentreaties": 9035,
    "Ġreasoner": 14440,
    "Ġnast": 15637,
    "Ġforesight": 13126,
    "Ġslop": 23160,
    "Ġrivals": 20270,
    "communication": 25881,
    "ropol": 10953,
    "Ġspring": 4122,
    "digger": 24310,
    "Ġdilatory": 24705,
    "Ġrenewal": 12232,
    "Ġfins": 9663,
    "Ġexercising": 19906,
    "Ġhav": 12751,
    "Ġboisterous": 20441,
    "mist": 5686,
    "Ġbutt": 14125,
    "Ġabstracted": 17182,
    "dro": 6644,
    "Ġflush": 14423,
    "Ġcracking": 14573,
    "Ġresnet": 5473,
    "calmly": 20138,
    "Ġspain": 15879,
    "Ġbidden": 24646,
    "ened": 1388,
    "moments": 19410,
    "Ġunceasing": 20356,
    "hopes": 15368,
    "preced": 10309,
    "fe": 673,
    "safety": 20348,
    "inst": 4296,
    "dee": 11731,
    "infer": 10144,
    "Ġconductor": 24004,
    "Ġbale": 7838,
    "Ġsinners": 18949,
    "floating": 12225,
    "ooped": 17623,
    "learning": 2638,
    "shame": 16024,
    "even": 3835,
    "Ġprospect": 4704,
    "Ġoppressively": 25712,
    "Ġring": 4451,
    "wholly": 10941,
    "Ġmaterial": 5177,
    "greatly": 16623,
    "Ġstrictest": 17042,
    "yth": 981,
    "Ġnought": 21519,
    "doubtless": 17002,
    "Ġknight": 9726,
    "Ġlaug": 3625,
    "Ġamiss": 18512,
    "rit": 21034,
    "Ġsympathy": 6346,
    "Ġwigwam": 11428,
    "correspond": 13397,
    "conclusion": 25671,
    "Ġpersuasions": 16631,
    "racts": 14360,
    "blu": 12438,
    "Ġtandem": 26411,
    "ints": 3416,
    "Ġgeorgiana": 8625,
    "rebellum": 26165,
    "Ġitems": 9691,
    "blazing": 24132,
    "companies": 24894,
    "shriek": 20518,
    "onious": 15518,
    "Ġdefer": 18823,
    "Ġignited": 25069,
    "Ġuses": 1207,
    "Ġofficious": 19346,
    "Ġminima": 3462,
    "pets": 17636,
    "Ġpens": 21458,
    "Ġpotency": 14646,
    "Ġline": 1847,
    "Ġplanets": 24056,
    "oward": 6020,
    "Ġrepel": 23357,
    "estab": 14170,
    "Ġundeniable": 26510,
    "rict": 8092,
    "Ġplaid": 22597,
    "Ġhanover": 20584,
    "Ġevaporate": 26332,
    "Ġhourly": 23297,
    "doing": 8584,
    "ular": 714,
    "Ġdimens": 3150,
    "Ġsecrecy": 7316,
    "cordiality": 25137,
    "Ġontario": 26204,
    "Ġwisely": 13271,
    "Ġshore": 4833,
    "Ġspices": 22127,
    "ustry": 18359,
    "Ġbadge": 16683,
    "Ġcomplained": 16998,
    "stood": 4117,
    "bly": 6110,
    "Ġbec": 1353,
    "hated": 17561,
    "Ġmoonshine": 19596,
    "Ġponderous": 8354,
    "nue": 15396,
    "Ġsultan": 15183,
    "rants": 13777,
    "Ġgor": 9206,
    "adem": 21754,
    "lorn": 12485,
    "Ġsenate": 25214,
    "Ġloaded": 8490,
    "Ġsteal": 16283,
    "orate": 10800,
    "@": 36,
    "confused": 19643,
    "Ġemaciated": 20637,
    "Ġadvent": 4357,
    "Ġdiscoloured": 15251,
    "renew": 24450,
    "Ġblaming": 22926,
    "uation": 17694,
    "very": 501,
    "Ġstem": 15717,
    "mph": 20971,
    "Ġaffrighted": 13571,
    "Ġthirds": 16708,
    "Ġsling": 21219,
    "Ġmiller": 19882,
    "Ġxxxvi": 24969,
    "Ġfaulty": 14906,
    "Ġulster": 14997,
    "Ġnetworks": 599,
    "Ġtomorrow": 21510,
    "shipped": 18496,
    "Ġskills": 1837,
    "Ġhumorously": 18778,
    "fight": 17538,
    "Ġguise": 14431,
    "Ġsuite": 18279,
    "bitts": 26122,
    "hailed": 17565,
    "proble": 9393,
    "Ġwindow": 2999,
    "Ġmedit": 8018,
    "Ġharvest": 13414,
    "Ġceleb": 20224,
    "Ġlaid": 3943,
    "Ġadvantages": 9810,
    "persecutor": 26530,
    "bation": 9102,
    "rating": 7808,
    "orts": 2552,
    "Ġcommotion": 9779,
    "Ġwheelbarrow": 17204,
    "Ġscuttle": 7414,
    "Ġleaders": 16627,
    "Ġsympathising": 24297,
    "Ġthought": 1095,
    "Ġsidel": 9635,
    "Ġbills": 17860,
    "Ġmediocrity": 26608,
    "owder": 8448,
    "Ġfits": 8790,
    "Ġamerica": 6763,
    "Ġstur": 15715,
    "Ġdeprived": 8209,
    "Ġripple": 25504,
    "Ġbrood": 23097,
    "Ġsuggestion": 19706,
    "esy": 9182,
    "Ġhardware": 4903,
    "itching": 21333,
    "onstr": 12543,
    "Ġeng": 1163,
    "Ġporter": 15609,
    "Ġsho": 2244,
    "ceived": 1965,
    "violently": 23539,
    "Ġspiced": 22130,
    "Ġdramatic": 4849,
    "Ġcorporeally": 25729,
    "Ġdromedary": 17438,
    "aping": 8193,
    "Ġskylarking": 19485,
    "Ġintimidated": 24805,
    "Ġunwilling": 7885,
    "Ġappetite": 12382,
    "branch": 23577,
    "anging": 3549,
    "bears": 22486,
    "Ġtested": 23204,
    "Ġextant": 18683,
    "Ġpipes": 9852,
    "initely": 7568,
    "Ġhig": 757,
    "canonical": 22965,
    "wanderer": 25423,
    "benefact": 24641,
    "Ġath": 15800,
    "Ġcomposure": 7217,
    "Ġaverred": 18865,
    "zening": 21147,
    "Ġfri": 17878,
    "epend": 3314,
    "vacancies": 25919,
    "Ġheap": 12675,
    "Ġoutcast": 18413,
    "Ġoblique": 20168,
    "icting": 12853,
    "Ġobstetrics": 24678,
    "Ġledge": 19399,
    "cong": 10687,
    "Ġgames": 11625,
    "Ġtor": 8105,
    "Ġswe": 2291,
    "hounds": 20906,
    "69": 17474,
    "Ġprocopius": 19730,
    "exper": 8878,
    "acity": 5735,
    "Ġdiscovers": 4427,
    "Ġspoils": 24808,
    "murmured": 24455,
    "prop": 1056,
    "Ġprotruded": 19468,
    "Ġshort": 2225,
    "Ġgrassy": 24379,
    "Ġdeploy": 2664,
    "Ġbalancing": 2430,
    "Ġforts": 21769,
    "Ġexplanations": 15909,
    "ruded": 15896,
    "poss": 4777,
    "Ġwails": 21295,
    "Ġlumps": 21553,
    "Ġextreme": 2514,
    "prolong": 23393,
    "R": 54,
    "Ġtaking": 3250,
    "ones": 2742,
    "Ġcloak": 9533,
    "education": 20300,
    "Ġsentiments": 7960,
    "Ġoak": 6128,
    "ract": 988,
    "Ġdramat": 23215,
    "Ġimperson": 14217,
    "Ġgrowled": 19283,
    "Ġfrightful": 7735,
    "quiet": 6154,
    "Ġeggs": 12340,
    "service": 15036,
    "urer": 18121,
    "some": 2235,
    "Ġhearth": 11980,
    "Ġslipper": 24265,
    "poky": 17644,
    "Ġblameless": 19858,
    "ide": 720,
    "Ġthese": 821,
    "Ġpref": 14171,
    "opence": 18508,
    "umnal": 18300,
    "Ġrushes": 20506,
    "ulated": 6029,
    "Ġintending": 11702,
    "kered": 18275,
    "Ġfigure": 4208,
    "Ġwhosoever": 21716,
    "Ġhailing": 11691,
    "dia": 2136,
    "crazy": 24691,
    "Ġwintry": 17433,
    "Ġintentions": 10607,
    "etite": 21576,
    "Ġtest": 1561,
    "Ġfury": 7661,
    "sen": 21048,
    "Ġrespectability": 14484,
    "Ġsuspending": 19243,
    "Ġpity": 4940,
    "Ġjurors": 17343,
    "ĠâĢĺ": 1629,
    "Ġes": 8768,
    "Ġboats": 2634,
    "Ġgranite": 22805,
    "Ġdenny": 9001,
    "Ġtint": 13816,
    "Ġwing": 6665,
    "hatch": 15363,
    "Ġpool": 5172,
    "proceed": 8976,
    "Ġstout": 6024,
    "published": 26142,
    "wondering": 19844,
    "Ġinferior": 8365,
    "Ġpeaceful": 9455,
    "Ġlinked": 15076,
    "Ġwine": 6810,
    "million": 25751,
    "Ġempty": 5353,
    "Ġthroughout": 8876,
    "wise": 2571,
    "ĠĠĠĠĠĠ": 6414,
    "Ġsgd": 3130,
    "Ġgirdled": 19157,
    "Ġhugh": 15004,
    "Ġwhaleboats": 18478,
    "what": 644,
    "Ġheinous": 18038,
    "Ġfunere": 22256,
    "ogne": 12937,
    "Ġdepth": 2439,
    "iner": 2673,
    "Ġrag": 18641,
    "Ġdinners": 23979,
    "Ġfrankness": 16746,
    "contin": 16542,
    "Ġactual": 3736,
    "Ġwade": 17784,
    "seldom": 13786,
    "gan": 2198,
    "imming": 9686,
    "Ġwhiting": 10859,
    "sweep": 24617,
    "Ġlightened": 23259,
    "Ġwait": 4906,
    "Ġsqualls": 17020,
    "Ġ112": 24437,
    "ophisticated": 22473,
    "Ġpaint": 7707,
    "Ġrefusing": 11028,
    "bott": 9105,
    "Ġaids": 12226,
    "Ġcru": 2821,
    "urged": 18048,
    "Ġprec": 2921,
    "Ġintelligently": 4134,
    "particulars": 11315,
    "Ġshunned": 17292,
    "od": 351,
    "ppa": 10239,
    "yp": 1047,
    "teen": 6370,
    "avenue": 25057,
    "Ġportions": 19367,
    "Ġadagrad": 2906,
    "¶": 119,
    "Ġdarts": 16768,
    "Ġclasped": 17206,
    "atered": 22004,
    "Ġele": 1964,
    "Ġsheep": 10926,
    "itically": 21328,
    "Ġtimor": 24224,
    "Ġconsuming": 22790,
    "Ġreliance": 14384,
    "Ġlothario": 26184,
    "Ġhow": 596,
    "property": 19998,
    "Ġscheduling": 2349,
    "Ġsubstantiated": 25875,
    "Ġconvul": 13202,
    "itar": 15545,
    "Ġindelible": 25694,
    "Ġmoul": 15542,
    "Ġcarpet": 9355,
    "Ġundertake": 14479,
    "Ġ57": 24325,
    "Ġargemone": 24274,
    "pause": 12498,
    "rior": 12738,
    "ific": 489,
    "Ġlessened": 19087,
    "antial": 8487,
    "prim": 23807,
    "Ġrav": 14304,
    "Ġtacit": 21173,
    "Ġpathetic": 19057,
    "Ġ1": 1015,
    "immortal": 21707,
    "Ġdisguises": 25055,
    "trem": 17681,
    "Ġtig": 13812,
    "Ġcaring": 23088,
    "chor": 6146,
    "angles": 18295,
    "ignomin": 23264,
    "flowing": 14543,
    "Ġregiment": 6432,
    "othed": 16510,
    "Ġsigned": 11177,
    "Ġslow": 2378,
    "Ġrepresent": 1209,
    "Ġdischar": 11806,
    "phere": 21018,
    "Ġprognost": 15280,
    "iel": 11493,
    "woes": 21132,
    "hurst": 19878,
    "Ġfield": 1239,
    "adventurous": 25361,
    "Ġcounted": 12137,
    "swed": 24253,
    "Ġconsec": 21802,
    "Ġunit": 1846,
    "ade": 881,
    "20": 20752,
    "Ġend": 1486,
    "lott": 6650,
    "Ġreflected": 2911,
    "interests": 19707,
    "mannered": 22844,
    "Ġdeb": 4762,
    "Ġsur": 2184,
    "Ġblending": 14399,
    "Ġverse": 16602,
    "Ġsentiment": 6588,
    "istered": 14144,
    "iant": 5427,
    "Ġbubble": 13534,
    "Ġmccarthy": 5144,
    "Ġhieroglyphic": 25587,
    "living": 7133,
    "Ġlast": 1122,
    "Ġpremises": 10487,
    "Ġstretching": 10014,
    "ullen": 8234,
    "engine": 18926,
    "converse": 22470,
    "dening": 22773,
    "anite": 17837,
    "southern": 20407,
    "Ġsublime": 8065,
    "Ġincarnation": 25573,
    "Ġsings": 15505,
    "tal": 17670,
    "count": 4214,
    "causing": 25518,
    "residence": 19262,
    "Ġwaste": 9233,
    "ickering": 22667,
    "high": 6649,
    "ives": 1409,
    "Ġmediocr": 24084,
    "elf": 564,
    "madly": 24420,
    "Ġgurgling": 17445,
    "Ġdialogue": 12402,
    "Ġassaulted": 25320,
    "Ġendurance": 23143,
    "Ġinterpret": 5490,
    "Ġstructures": 2721,
    "Ġcautious": 12251,
    "Ġwindibank": 7256,
    "Ġpillow": 10037,
    "Ġswords": 19896,
    "Ġbackground": 18650,
    "coloured": 7291,
    "ax": 694,
    "Ġcastor": 19425,
    "atus": 21259,
    "Ġtwos": 18657,
    "repro": 10770,
    "icions": 21560,
    "Ġkindly": 6077,
    "Ġdisent": 22520,
    "retreat": 23134,
    "tiness": 21070,
    "Ġyet": 1029,
    "Ġobey": 9518,
    "Ġcynical": 25770,
    "Ġapparition": 8066,
    "Ġsigns": 2443,
    "mountains": 15179,
    "Ġo": 275,
    "Ġdiscerned": 25003,
    "Ġrefine": 3083,
    "pute": 8844,
    "responsible": 25763,
    "Ġtum": 5692,
    "Ġejaculated": 15168,
    "broker": 13303,
    "Ġryder": 10258,
    "Ġcompensated": 17400,
    "riptions": 14794,
    "Ġtwee": 22672,
    "honorable": 19900,
    "leagues": 21371,
    "Ġsun": 1720,
    "bel": 3833,
    "Ġfarthing": 14453,
    "heavy": 10574,
    "Ġuntrodden": 23519,
    "Ġmightier": 18730,
    "Ġglistened": 20171,
    "stolidity": 21660,
    "Ġmeditations": 25013,
    "Ġsauce": 15889,
    "Ġlearnt": 7614,
    "seem": 10227,
    "feeling": 6616,
    "Ġerection": 23998,
    "Ġesteemed": 10588,
    "ends": 6038,
    "accessible": 13638,
    "helping": 23138,
    "Ġmeagre": 21813,
    "road": 6677,
    "Ġpewter": 17185,
    "pleasure": 5977,
    "Ġfarm": 7840,
    "Ġfixed": 2687,
    "Ġvalu": 5037,
    "justified": 19002,
    "Ġmatted": 22909,
    "ce": 313,
    "Ġworried": 22922,
    "oon": 6364,
    "bale": 20773,
    "rush": 7010,
    "league": 17844,
    "Ġvelvets": 25393,
    "pling": 8474,
    "Ġfugitives": 25634,
    "Ġwomanly": 23547,
    "Ġdaft": 19662,
    "bless": 22309,
    "Ġhours": 2817,
    "Ġassented": 17337,
    "Ġworaciousness": 22925,
    "Ġperu": 14221,
    "Ġfinger": 5273,
    "purpose": 10043,
    "fow": 20852,
    "aggra": 21903,
    "Ġtashtego": 4485,
    "length": 7134,
    "Ġknocked": 9499,
    "Ġgrop": 12661,
    "Ġdropout": 1556,
    "careful": 14865,
    "Ġdrives": 14577,
    "raged": 9211,
    "Ġcomparative": 10542,
    "Ġsurplus": 26303,
    "isance": 17847,
    "Ġfreedom": 9082,
    "exasper": 22424,
    "Ġremainder": 9857,
    "breat": 10077,
    "und": 4119,
    "dying": 10694,
    "Ġtrade": 2544,
    "antic": 1602,
    "ift": 1604,
    "Ġrod": 9279,
    "Ġrenounce": 19466,
    "Ġcopse": 17067,
    "Ġbernard": 20683,
    "Ġid": 1909,
    "Ġgown": 10201,
    "ĠĠĠĠĠĠĠĠĠĠĠĠĠ": 22559,
    "Ġbashee": 19848,
    "Ġsettled": 3740,
    "Ġshoving": 23487,
    "Ġfumes": 21416,
    "achine": 610,
    "Ġark": 10275,
    "Ġaries": 21196,
    "Ġvintage": 26209,
    "Ġantiquity": 15229,
    "Ġpractically": 13104,
    "Ġevident": 6612,
    "Ġsaturation": 2061,
    "happening": 16564,
    "refuge": 24734,
    "Ġwhiteness": 5918,
    "hed": 669,
    "Ġgomorrah": 21612,
    "Ġawkward": 7073,
    "Ġconnectivity": 3665,
    "oe": 7552,
    "Ġclin": 14199,
    "bordered": 17498,
    "Ġsmut": 22553,
    "Ġcheeks": 5957,
    "Ġflock": 21409,
    "Ġsprained": 15882,
    "Ġsoft": 1458,
    "Ġfishes": 11590,
    "oors": 17620,
    "morland": 24153,
    "Ġlatest": 16822,
    "rous": 3751,
    "magnet": 14969,
    "Ġvineyarder": 25606,
    "Ġreflections": 5945,
    "Ġsights": 7472,
    "oblig": 16290,
    "Ġbuttons": 12778,
    "waistcoat": 17360,
    "Ġcomparing": 14264,
    "Ġtri": 4812,
    "lungs": 26135,
    "Ġscra": 5840,
    "erness": 6435,
    "favourable": 12261,
    "Ġtwenty": 3951,
    "Ġcognitive": 13633,
    "Ġoutriders": 26543,
    "Ġcongratulate": 9063,
    "Ġgazing": 5875,
    "Ġenjoyment": 7300,
    "Ġarc": 14158,
    "Ġcetology": 10008,
    "loo": 10319,
    "caught": 8726,
    "Ġrising": 4356,
    "Ġunfor": 15838,
    "Ġattack": 5478,
    "Ġcetacean": 25878,
    "Ġmelancholy": 5606,
    "anel": 21355,
    "ris": 9137,
    "Ġunfaltering": 24113,
    "c": 71,
    "Ġpromptly": 23814,
    "ires": 6037,
    "Ġfrontispiece": 23911,
    "Ġwides": 17788,
    "Ġapologizing": 25197,
    "Ġspind": 18307,
    "ruct": 683,
    "uy": 21098,
    "olera": 21823,
    "estion": 18362,
    "rows": 6442,
    "Ġpand": 21453,
    "Ġleisurely": 24746,
    "befall": 22491,
    "Ġfebruary": 15911,
    "Ġworry": 18815,
    "pt": 386,
    "Ġcherish": 10589,
    "Ġagitation": 6865,
    "tails": 21085,
    "Ġarranged": 9876,
    "observed": 7674,
    "anywhere": 14682,
    "arpening": 21441,
    "Ġexcite": 11963,
    "Ġknock": 9972,
    "Ġservant": 5764,
    "Ġabundant": 17154,
    "inities": 21184,
    "lod": 15377,
    "Ġaccompl": 5166,
    "Ġalleged": 17290,
    "Ġvindictive": 20468,
    "Ġtre": 2534,
    "Ġunwarranted": 25171,
    "Ġdong": 17887,
    "turning": 8316,
    "entrance": 12654,
    "Ġtransform": 748,
    "Ġfisher": 3222,
    "Ġqueerest": 16413,
    "ĠcÃ¦": 15553,
    "Ġkiller": 19567,
    "loom": 18538,
    "Ġangry": 5498,
    "Ġfeeds": 16433,
    "Ġcocksure": 26258,
    "Ġmarket": 7708,
    "Ġlined": 15648,
    "airing": 16176,
    "besides": 8695,
    "orus": 10801,
    "Ġaffording": 14820,
    "Ġscroll": 14189,
    "warmth": 20051,
    "just": 1700,
    "cannibal": 15223,
    "Ġsales": 12804,
    "Ġbrimstone": 25686,
    "Ġload": 14145,
    "Ġcomposition": 1687,
    "Ġcapsized": 20088,
    "Ġunostentatious": 22067,
    "Ġtun": 5998,
    "iating": 3206,
    "stern": 8444,
    "Ġindu": 5293,
    "Ġrocking": 10969,
    "Ġincidentally": 16954,
    "Ġloveliest": 20260,
    "Ġalpha": 13587,
    "perishing": 22183,
    "Ġwalls": 6762,
    "rowsers": 8694,
    "Ġgaining": 9491,
    "Ġenlightened": 12743,
    "fanc": 20863,
    "assment": 9738,
    "Ġexclaim": 11221,
    "Ġbestirred": 20450,
    "Ġdep": 744,
    "Ġlandless": 23377,
    "Ġhardly": 2432,
    "Ġsequentially": 4913,
    "Ġslashing": 23168,
    "Ġemerging": 24612,
    "Ġhut": 15617,
    "hatchway": 25904,
    "Ġsnatched": 10471,
    "Ġunavailing": 26215,
    "Ġshadows": 8012,
    "Ġvincent": 15282,
    "irm": 3108,
    "Ġselects": 4385,
    "Ġcunning": 6238,
    "Ġimpropriety": 17394,
    "Ġskilful": 25836,
    "erranean": 9333,
    "Ġglories": 16239,
    "Ġnation": 12644,
    "Ġperiod": 4005,
    "ing": 273,
    "conscience": 14859,
    "Ġfru": 8419,
    "Ġvoc": 4450,
    "riminately": 16483,
    "Ġsuspected": 9062,
    "Ġcondense": 21805,
    "Ġpavement": 9577,
    "Ġcontemplate": 19891,
    "Ġstudded": 18977,
    "Ġacres": 14312,
    "Ġpeace": 3691,
    "Ġh": 290,
    "Ġsets": 8773,
    "answers": 22137,
    "Ġtra": 1385,
    "urable": 8923,
    "Ġadvert": 10571,
    "Ġrests": 13091,
    "Ġdisastrous": 16059,
    "Ġcreatures": 4139,
    "Ġbeatrix": 24204,
    "_âĢĶâĢĿ": 20762,
    "Ġneedle": 8274,
    "Ġrounded": 14437,
    "hau": 17562,
    "Ġmoreover": 6163,
    "Ġchalk": 15932,
    "uerus": 26406,
    "Ġconsid": 1810,
    "mb": 921,
    "Ġdarling": 12601,
    "Ġdreams": 7496,
    "Ġeffusions": 18528,
    "Ġgasps": 24865,
    "Ġunnaturally": 24870,
    "Ġvoid": 14085,
    "enial": 17780,
    "Ġcorporeal": 17359,
    "Ġruminated": 24599,
    "Ġglassy": 19559,
    "Ġseer": 21956,
    "hist": 7130,
    "Ġrouse": 15820,
    "Ġmonument": 16238,
    "tender": 14472,
    "amuse": 14051,
    "Ġproving": 15752,
    "Ġax": 7822,
    "Ġalive": 4398,
    "Ġacted": 7422,
    "ifiable": 18163,
    "osoever": 17342,
    "Ġdismast": 12885,
    "Ġpallidness": 25604,
    "Ġangles": 23587,
    "Ġexcept": 3312,
    "Ġdate": 7841,
    "Ġrecklessly": 16983,
    "ĠĠĠĠĠĠĠĠĠĠĠĠĠĠĠĠĠĠĠĠĠĠĠĠĠĠĠĠĠĠĠĠĠĠĠĠĠĠ": 16525,
    "Ġmarlings": 23035,
    "aster": 1864,
    "Ġgifts": 21609,
    "(_": 7540,
    "Ġgpus": 3731,
    "attery": 18485,
    "Ġvolley": 24145,
    "Ġgone": 2108,
    "Ġblacks": 23386,
    "Ġexercised": 24803,
    "ech": 4389,
    "Ġpope": 11601,
    "Ġexpress": 2195,
    "Ġeating": 8135,
    "Ġfret": 10806,
    "acetty": 24464,
    "Ġdiffer": 18674,
    "omb": 10205,
    "Ġseries": 7060,
    "osp": 6854,
    "?âĢĿ": 700,
    "Ġscarlet": 13221,
    "Ġstriding": 16090,
    "Ġyojo": 7610,
    "Ġexplo": 2285,
    "Ġstarry": 16923,
    "Ġthro": 5817,
    "odes": 18117,
    "Ġdesperado": 19818,
    "================================": 5671,
    "north": 14616,
    "Ġscratch": 25564,
    "Ġcontext": 1686,
    "lays": 14921,
    "utored": 15661,
    "Ġpattered": 19056,
    "Ġbeside": 5191,
    "wonders": 17143,
    "Ġparticle": 18671,
    "Ġsecluded": 11991,
    "Ġsale": 14154,
    "Ġtortured": 14923,
    "giving": 8738,
    "Ġshower": 11708,
    "Ġabreast": 18399,
    "Ġgazed": 6478,
    "Ġhedgehogs": 25394,
    "pleas": 3850,
    "alley": 23023,
    "Ġstartling": 14670,
    "Ġstrong": 1785,
    "Ġsalt": 8016,
    "Ġexperiences": 13014,
    "Ġwilled": 21290,
    "cd": 15322,
    "Ġimmort": 19482,
    "Ġtrades": 8231,
    "Ġfagged": 17882,
    "Ġcopper": 7425,
    "mal": 6794,
    "Ġchast": 18380,
    "impressions": 20697,
    "Ġslighted": 16567,
    "Ġdemand": 4946,
    "Ġgeorge": 3747,
    "Ġfifty": 4622,
    "Ġimple": 1784,
    "ieve": 1654,
    "hoping": 17566,
    "ropout": 1322,
    "older": 15750,
    "Ġmines": 21307,
    "Ġalternative": 19985,
    "hing": 980,
    "Ġglowed": 24864,
    "Ġii": 7385,
    "Ġwhose": 2008,
    "taffrail": 15442,
    "Ġshone": 7404,
    "Ġdissipate": 13632,
    "ours": 3426,
    "Ġ28": 19294,
    "games": 20879,
    "Ġevalu": 2902,
    "Ġrest": 1779,
    "Ġfoundations": 11073,
    "Ġrecede": 25968,
    "Ġcausal": 3409,
    "isticated": 1679,
    "Ġprocessions": 18433,
    "Ġneat": 6999,
    "Ġlordly": 23742,
    "Ġfly": 3870,
    "rix": 1573,
    "vand": 21107,
    "Ġtransfer": 2413,
    "Ġshe": 466,
    "Ġduchess": 4798,
    "Ġthroat": 7770,
    "Ġlive": 2735,
    "satisfactory": 16893,
    "inating": 9153,
    "no": 886,
    "Ġfact": 1728,
    "Ġpoltro": 23618,
    "Ġexhibit": 14955,
    "rolled": 9059,
    "aming": 5828,
    "Ġvelocity": 10620,
    "Ġaxis": 12305,
    "sincere": 16907,
    "Ġoverheard": 11772,
    "russian": 22176,
    "explanation": 12356,
    "llable": 6879,
    "Ġstarted": 4151,
    "Ġscand": 7202,
    "lie": 12480,
    "Ġmig": 13855,
    "Ġsurging": 19133,
    "Ġinvaders": 23479,
    "Ġduke": 7755,
    "Ġfed": 5530,
    "Ġforbid": 7864,
    "Ġdreamed": 16629,
    "ring": 1751,
    "Ġredness": 19311,
    "hullo": 17570,
    "Ġinconvenience": 9563,
    "humoured": 11236,
    "Ġowen": 15093,
    "Ġtones": 8399,
    "Ġobservation": 6597,
    "mistaken": 12208,
    "Ġcritics": 23443,
    "Ġastonished": 7087,
    "amidst": 25652,
    "Ġdeceitful": 25733,
    "weeks": 14315,
    "Ġdefend": 9339,
    "acid": 11005,
    "Ġreinforcement": 3378,
    "asy": 5294,
    "Ġprouder": 18971,
    "Ġreally": 2160,
    "Ġsinister": 8568,
    "Ġconfederate": 17353,
    "Ġconverts": 2804,
    "Ġspaniard": 20361,
    "emy": 14074,
    "Ġhal": 1365,
    "Ġpremeditated": 22231,
    "Ġrealistic": 5860,
    "Ġmounting": 19975,
    "Ġfrightens": 24027,
    "ine": 406,
    "oat": 13763,
    "Ġwildness": 14603,
    "avating": 18605,
    "Ġtrembling": 7481,
    "isition": 11585,
    "ta": 13788,
    "Ġearly": 2079,
    "requ": 7148,
    "Ġlovely": 4708,
    "irement": 18358,
    "Ġsufferable": 16258,
    "Ġsquat": 14366,
    "Ġrent": 11638,
    "civil": 7796,
    "flutter": 23968,
    "only": 3307,
    "Ġneural": 622,
    "arest": 4006,
    "Ġluckless": 16797,
    "shine": 9287,
    "Ġexpand": 9306,
    "windward": 24160,
    "spin": 22730,
    "Ġconstruct": 23340,
    "blister": 24128,
    "iro": 20913,
    "whips": 22235,
    "prosper": 19100,
    "tedious": 22630,
    "Ġundaunted": 24120,
    "Ġsocial": 7007,
    "Ġcontrivance": 17183,
    "quietly": 10592,
    "certainly": 5339,
    "Ġbut": 424,
    "america": 17097,
    "Ġgap": 21596,
    "Ġdisputes": 25825,
    "Ġsix": 3044,
    "Ġjav": 7901,
    "Ġobstacle": 16955,
    "Ġbonnet": 10655,
    "Ġfountain": 7365,
    "ignific": 11954,
    "Ġstunsail": 25543,
    "persuasion": 20042,
    "ounix": 14163,
    "itancy": 21331,
    "tend": 17674,
    "Ġentra": 18694,
    "Ġcared": 8782,
    "Ġthreaten": 24374,
    "85": 13680,
    "infl": 15487,
    "henomena": 20271,
    "uff": 2731,
    "Ġwitnessing": 19597,
    "twas": 15437,
    "mile": 17597,
    "deliberated": 26118,
    "Ġdeposited": 25484,
    "frequented": 25900,
    "Ġallowance": 14388,
    "cst": 10084,
    "Ġcabs": 23639,
    "hide": 10703,
    "Ġfacts": 2289,
    "arrived": 12606,
    "Ġcircles": 7966,
    "Ġsangu": 15504,
    "Ġissues": 9541,
    "12": 20748,
    "Ġsandwic": 24664,
    "won": 7144,
    "Ġmists": 14630,
    "relate": 24008,
    "Ġfever": 6558,
    "Ġanchor": 7368,
    "marching": 25752,
    "Ġcompl": 3758,
    "belled": 24034,
    "Ġprejudice": 9075,
    "Ġwretch": 6378,
    "however": 4373,
    "Ġinhabitants": 7524,
    "Ġworsh": 12997,
    "Ġsimon": 5171,
    "Ġdrug": 11410,
    "ws": 7355,
    "Ġarts": 11008,
    "Ġslumber": 13057,
    "Ġ1836": 25721,
    "Ġcataract": 23426,
    "consist": 14815,
    "Ġfoundation": 4233,
    "Ġwedged": 24071,
    "Ġglove": 14491,
    "enched": 10154,
    "Ġspacious": 18312,
    "ourney": 3551,
    "topp": 22562,
    "Ġjiff": 22293,
    "Ġpiling": 17910,
    "classes": 12133,
    "Ġrecursive": 4781,
    "Ġadaptively": 4511,
    "itoring": 21330,
    "drawing": 10486,
    "bol": 8717,
    "decl": 8856,
    "Ġfilling": 13407,
    "Ġwhither": 10214,
    "Ġmutinous": 23955,
    "ep": 441,
    "Ġcop": 7579,
    "Ġhiss": 15786,
    "Ġdetail": 634,
    "Ġbasket": 9572,
    "fork": 20856,
    "Ġwithdrew": 9695,
    "Ġmortally": 23914,
    "polar": 24583,
    "Ġwakes": 11571,
    "ented": 4349,
    "Ġbook": 2703,
    "Ġprompt": 3189,
    "Ġmonosy": 18850,
    "Ġfab": 15574,
    "unavoidable": 17389,
    "Ġrevolving": 9982,
    "Ġdisappo": 4504,
    "Ġforecastle": 5495,
    "Ġingrat": 16840,
    "het": 5435,
    "Ġzeal": 9097,
    "Ġhighest": 3527,
    "Ġcosine": 2372,
    "Ġmicroscopic": 26373,
    "Ġpane": 21461,
    "Ġgeneration": 2245,
    "Ġcomposing": 16066,
    "overed": 2853,
    "Ġnois": 4269,
    "kovoko": 20668,
    "uel": 6966,
    "confirmed": 19644,
    "ahit": 9381,
    "Ġfitting": 21406,
    "natured": 7110,
    "hur": 6648,
    "Ġwed": 3962,
    "Ġarea": 14186,
    "Ġchiefly": 5766,
    "Ġtener": 21162,
    "Ġsubstit": 19539,
    "orange": 21398,
    "play": 5098,
    "got": 6955,
    "Ġcomprehension": 15085,
    "Ġmingled": 12375,
    "Ġwelfare": 12556,
    "encounter": 20390,
    "Ġveget": 11884,
    "ev": 6952,
    "Ġbashaw": 25633,
    "seven": 8463,
    "Ġslavish": 23171,
    "ble": 540,
    "Ġerrors": 2592,
    "Ġpallor": 13515,
    "ica": 10198,
    "Ġbanished": 10616,
    "Ġprecious": 5760,
    "Ġbrooding": 18907,
    "Ġreceive": 4702,
    "united": 14059,
    "Ġhaw": 10251,
    "Ġsubstituting": 26326,
    "Ġasyl": 12731,
    "ickory": 22666,
    "possesses": 24616,
    "Ġsilver": 7463,
    "Ġstrat": 16089,
    "Ġpulled": 5660,
    "ation": 320,
    "caterpillar": 26383,
    "haz": 17564,
    "ball": 7792,
    "Ġobserv": 8586,
    "Ġeighty": 19474,
    "enes": 5217,
    "Ġswearing": 16464,
    "procure": 23395,
    "Ġstudent": 14478,
    "hours": 9124,
    "Ġvenerable": 9093,
    "Ġequin": 14495,
    "Ġimpenitent": 26548,
    "Ġasp": 15779,
    "Ġinform": 997,
    "Ġinvention": 19951,
    "recurring": 24194,
    "upon": 2722,
    "Ġern": 8396,
    "Ġplead": 14454,
    "Ġavail": 11226,
    "Ġclaimed": 14200,
    "Ġgeomet": 3191,
    "Ġpark": 5465,
    "xes": 21139,
    "Ġrecovering": 11862,
    "frozen": 25139,
    "Ġensu": 7874,
    "using": 5468,
    "Ġladder": 8597,
    "adagrad": 9690,
    "Ġgrin": 5482,
    "peasant": 23107,
    "consol": 9761,
    "Ġaltered": 7393,
    "Ġnarrated": 14870,
    "fatigue": 20657,
    "passage": 11261,
    "ieved": 3230,
    "dark": 5614,
    "sharks": 14239,
    "respectable": 19846,
    "Ġgladly": 14681,
    "nel": 11504,
    "Ġoutlast": 22310,
    "Ġemergencies": 17361,
    "inu": 1114,
    "Ġgliding": 8559,
    "ifies": 6686,
    "Ġexhausted": 8693,
    "Ġspilled": 10924,
    "il": 329,
    "hever": 13830,
    "Ġbildad": 3779,
    "Ġmiracle": 15092,
    "foundation": 16714,
    "Ġdear": 1539,
    "luxur": 25822,
    "Ġdaggoo": 5441,
    "omely": 21636,
    "Ġluxurious": 17310,
    "Ġstri": 2802,
    "Ġbelike": 18830,
    "plan": 15813,
    "Ġflung": 8562,
    "murderers": 25728,
    "Ġsubsiding": 23432,
    "conducted": 25572,
    "vel": 2383,
    "Ġsimulates": 2739,
    "ina": 21178,
    "onic": 7827,
    "youngest": 19742,
    "number": 10114,
    "Ġdisease": 14257,
    "Ġgod": 1935,
    "bal": 2157,
    "Ġremoved": 5274,
    "Ġdiscernment": 15067,
    "Ġcease": 7076,
    "stocks": 23817,
    "mistakable": 20652,
    "Ġblade": 11891,
    "garnished": 26388,
    "Ġapo": 9630,
    "Ġdeclines": 23960,
    "main": 8087,
    "Ġpond": 13915,
    "Ġearthly": 7989,
    "teenth": 11872,
    "Ġpiled": 8424,
    "desire": 14474,
    "sleepers": 24730,
    "corners": 17367,
    "Ġgovern": 10450,
    "ick": 836,
    "Ġindomit": 22952,
    "Ġspeeding": 23563,
    "Ġplanted": 9773,
    "app": 1043,
    "Ġtantalizing": 20412,
    "ria": 15793,
    "confirm": 16807,
    "founded": 16713,
    "Ġdefendants": 15139,
    "Ġadvanced": 1509,
    "Ġsubdued": 11030,
    "Ġlurked": 11291,
    "Ġturner": 7049,
    "inction": 6660,
    "chased": 18041,
    "Ġweeping": 11685,
    "whalebone": 19118,
    "venor": 16099,
    "Ġpoisoned": 24886,
    "vour": 17699,
    "ignor": 8961,
    "laws": 19806,
    "shipping": 10307,
    "Ġpapa": 10656,
    "Ġcondition": 6764,
    "Ġobe": 5800,
    "Ġbrightly": 13222,
    "deceiving": 22141,
    "Ġlid": 6983,
    "offended": 16395,
    "Ġcrackling": 24958,
    "Ġdisappears": 18560,
    "Ġquicker": 16507,
    "Ġsubur": 12953,
    "Ġtreat": 3175,
    "Ġberths": 20113,
    "first": 3936,
    "slackened": 26094,
    "produced": 25414,
    "ariously": 18524,
    "Ġtension": 13823,
    "**": 4684,
    "Ġencourag": 1393,
    "shook": 19855,
    "Ġcould": 703,
    "Ġthus": 2036,
    "Ġhackluyt": 25655,
    "Ġtowed": 11265,
    "society": 9971,
    "Ġweave": 21918,
    "Ġrecommending": 24337,
    "subsided": 25830,
    "renched": 7906,
    "Ġarrog": 18339,
    "friendly": 13283,
    "break": 6101,
    "Ġassiduous": 26292,
    "Ġformerly": 7493,
    "Ġ32": 19487,
    "their": 2538,
    "Ġseas": 3077,
    "Ġpervading": 20612,
    "ok": 572,
    "ory": 1081,
    "Ġperplexity": 2754,
    "Ġcheerfulness": 10516,
    "ential": 826,
    "rodden": 21532,
    "effect": 8603,
    "iple": 4805,
    "blooded": 20021,
    "factories": 19842,
    "enet": 10152,
    "Ġkilburn": 18351,
    "Ġformality": 22825,
    "Ġsuffusing": 23030,
    "Ġfinny": 23123,
    "cou": 13694,
    "Ġscheme": 7064,
    "Ġrejection": 19982,
    "Ġindies": 22948,
    "voices": 21116,
    "Ġprocured": 8676,
    "Ġinnocence": 6477,
    "Ġominous": 12422,
    "resolutions": 26164,
    "Ġrelaxed": 12981,
    "Ġprivile": 8645,
    "ete": 9203,
    "Ġfriesland": 26442,
    "Ġlayers": 818,
    "Ġneighbours": 8302,
    "Ġpoetical": 25056,
    "try": 7812,
    "Ġdiverted": 14592,
    "tting": 17680,
    "okened": 15983,
    "Ġagonizing": 17238,
    "Ġpetticoat": 15294,
    "cheerfulness": 20179,
    "Ġencirc": 18734,
    "author": 9859,
    "Ġthereupon": 18434,
    "scho": 8759,
    "loops": 12879,
    "Ġheeds": 24520,
    "Ġdeeps": 16106,
    "sheet": 16285,
    "Ġscant": 22263,
    "Ġascend": 9959,
    "must": 3575,
    "mature": 20966,
    "cet": 15324,
    "men": 1487,
    "Ġloc": 10914,
    "Ġsettlement": 19835,
    "Ġbubblingly": 25632,
    "Ġsepar": 4001,
    "nails": 17614,
    "echo": 15347,
    "Ġsank": 5075,
    "Ġasi": 12729,
    "Ġappeals": 16316,
    "Ġlion": 9675,
    "aphys": 15200,
    "Ġfacil": 16962,
    "Ġadversity": 24303,
    "Ġgri": 17987,
    "daugh": 6788,
    "Ġpun": 4586,
    "ek": 1906,
    "Ġflooded": 24959,
    "ived": 1533,
    "painful": 13501,
    "Ġascended": 8665,
    "ature": 522,
    "imprisonment": 23760,
    "mother": 5480,
    "Ġclump": 15965,
    "Ġhypothe": 4075,
    "perhaps": 4123,
    "Ġreptile": 15276,
    "Ġgrosvenor": 17417,
    "presbyter": 20616,
    "Ġet": 3578,
    "somewhat": 11160,
    "Ġpaws": 13920,
    "Ġcasually": 25093,
    "Ġbaff": 10799,
    "Ġwhatever": 3472,
    "opard": 9290,
    "savor": 25024,
    "Ġherds": 9715,
    "ourers": 21447,
    "iop": 20918,
    "Ġstacks": 18074,
    "big": 13684,
    "Ġreceiving": 4881,
    "Ġspir": 2428,
    "Ġindividually": 22954,
    "icil": 17971,
    "Ġkingdom": 12017,
    "Ġare": 527,
    "Ġped": 6817,
    "comfortably": 16875,
    "Ġmightiest": 12958,
    "ub": 1225,
    "Ġflood": 7715,
    "iners": 4936,
    "Ġmournfully": 20115,
    "kept": 11715,
    ".*": 7331,
    "mind": 4625,
    "istically": 14143,
    "Ġfeedforward": 2327,
    "Ġconsecrate": 26489,
    "enances": 10153,
    "Ġbuoyancy": 20040,
    "intim": 22931,
    "clergyman": 20728,
    "fixedly": 24929,
    "once": 5903,
    "cap": 8372,
    "ands": 21863,
    "Ġwon": 1660,
    "Ġdaylight": 10350,
    "Ġsurest": 19052,
    "Ġforeshad": 23451,
    "Ġgrotesque": 26329,
    "sne": 10124,
    "prevent": 11793,
    "Ġoutsk": 15955,
    "Ġdispleasure": 16051,
    "rowing": 7930,
    "emptied": 23634,
    "isite": 15561,
    "soc": 5174,
    "Ġmodified": 14167,
    "mighty": 9466,
    "Ġdissuade": 26256,
    "university": 25983,
    "Ġpolic": 13160,
    "Ġdisconnected": 22522,
    "tures": 21068,
    "behaved": 24463,
    "Ġsignificantly": 4518,
    "Ġdescend": 7427,
    "Ġconsequence": 5542,
    "Ġchap": 5933,
    "Ġtusked": 25426,
    "lady": 4432,
    "Ġhardship": 18913,
    "yes": 984,
    "Ġpastures": 23418,
    "rice": 13776,
    "ĠmanÅĵuv": 18417,
    "Ġgi": 15664,
    "Ġlower": 2663,
    "Ġemac": 16405,
    "Ġsupp": 1261,
    "historian": 25735,
    "Ġexpiration": 22623,
    "varying": 13803,
    "Ġoust": 21322,
    "Ġsolemnity": 9940,
    "trip": 21090,
    "Ġgleamed": 17077,
    "dataset": 23223,
    "totally": 25417,
    "Ġspec": 1258,
    "Ġtruthful": 23865,
    "Ġsemantic": 1959,
    "christian": 17232,
    "Ġpersevering": 20232,
    "Ġpiece": 5367,
    "ouder": 17900,
    "tempestuous": 26097,
    "Ġdrugg": 17119,
    "Ġgenerous": 6273,
    "Ġfires": 16471,
    "Ġpremium": 23902,
    "ameter": 2883,
    "Ġdrawled": 23986,
    "countless": 24150,
    "vib": 21114,
    "Ġsch": 13834,
    "Ġcountenance": 3972,
    "Ġclaret": 22343,
    "Ġinquirer": 24961,
    "Ġwaifing": 25243,
    "Ġungod": 22021,
    "ishments": 9274,
    "ighb": 10423,
    "Ġklan": 23661,
    "Ġdem": 11673,
    "keen": 12779,
    "Ġtidings": 11397,
    "abez": 10222,
    "nowledge": 10289,
    "Ġheld": 3583,
    "crimson": 24100,
    "Ġgrass": 5176,
    "judge": 13335,
    "fordshire": 4675,
    "Ġ1778": 25730,
    "Ġassociations": 14962,
    "Ġatt": 771,
    "elect": 20845,
    "Ġcompacted": 23506,
    "Ġtranscend": 25667,
    "gir": 8082,
    "Ġceremony": 8360,
    "Ġannouncing": 16754,
    "ven": 779,
    "Ġvariously": 18653,
    "Ġshoe": 14567,
    "vicinity": 20478,
    "shoe": 14966,
    "Ġsquid": 11876,
    "Ġstupid": 7603,
    "separation": 25226,
    "Ġcoming": 2613,
    "Ġconcer": 23317,
    "Ġmach": 13856,
    "streamed": 25966,
    "expound": 23662,
    "strip": 19829,
    "highly": 24764,
    "Ġsqualidness": 25842,
    "button": 10966,
    "orders": 12871,
    "alluring": 18352,
    "Ġproductions": 22943,
    "ĠĠ": 352,
    "unsupervised": 10889,
    "networks": 2402,
    "Ġbullion": 24983,
    "ivity": 1697,
    "Ġ60": 14874,
    "Ġtravellers": 11308,
    "results": 20385,
    "fireside": 24692,
    "Ġpremature": 3724,
    "ge": 558,
    "Ġarising": 10933,
    "Ġwafted": 14498,
    "known": 3566,
    "Ġreproached": 24891,
    "Ġbehooves": 20732,
    "Ġalongside": 6311,
    "Ġknow": 631,
    "Ġcostume": 16495,
    "Ġshipping": 14103,
    "paper": 9136,
    "Ġcordon": 24394,
    "Ġinsult": 6747,
    "overing": 6306,
    "Ġdreaded": 8288,
    "Ġrobinson": 17463,
    "oded": 11668,
    "ivery": 17572,
    "heeded": 13833,
    "gems": 20883,
    "perv": 1618,
    "aver": 6785,
    "Ġstruggled": 9904,
    "fs": 17535,
    "Ġbackbones": 22658,
    "Ġorganize": 8991,
    "Ġhist": 2445,
    "turtle": 12209,
    "Ġprayers": 12121,
    "close": 9985,
    "Ġnarrating": 24351,
    "Ġshrinking": 14804,
    "metal": 24765,
    "Ġbarb": 4530,
    "Ġassurance": 7774,
    "eth": 619,
    "Ġthread": 14539,
    "!âĢĶâĢĻ": 23564,
    "Ġfaintest": 24569,
    "Ġstaving": 21734,
    "musket": 25341,
    "Ġcomparatively": 9489,
    "Ġfalsely": 20580,
    "Ġlethargy": 26483,
    "Ġsensitiveness": 23733,
    "irts": 9237,
    "Ġ129": 24474,
    "Ġimmutable": 17357,
    "Ġcham": 4891,
    "Ġvaliant": 9798,
    "Ġstraightened": 12106,
    "Ġsworn": 14434,
    "Ě": 219,
    "Ġsoftware": 18918,
    "startled": 24941,
    "Ġmakest": 25435,
    "Ġhatchet": 16529,
    "Ġreplaced": 13070,
    "Ġimperfect": 13338,
    "Ġcabal": 23640,
    "Ġsurmise": 12293,
    "Ġdifficulty": 5770,
    "Ġsolemnly": 8023,
    "coll": 23777,
    "Ġlift": 8810,
    "rom": 420,
    "Ġunaccountable": 7886,
    "Ġsteady": 4846,
    "Ġplumage": 17297,
    "Ġaghast": 16046,
    "overfitting": 13099,
    "Ġsanct": 15062,
    "Ġbasis": 16961,
    "accuracy": 9878,
    "hap": 17559,
    "Ġdisgrace": 7215,
    "Ġsummit": 7730,
    "ose": 717,
    "Ġwhe": 439,
    "_.)": 7278,
    "Ġredundant": 16551,
    "Ġcoasts": 12161,
    "Ġattent": 4361,
    "Ġhowled": 12851,
    "pp": 383,
    "wr": 3029,
    "Ġmurderers": 16811,
    "Ġpeter": 10535,
    "disappointed": 25191,
    "Ġpush": 9184,
    "Ġmerciless": 25246,
    "Ġbespeaking": 26310,
    "captain": 3955,
    "Ġreveal": 11200,
    "Ġsmallest": 6430,
    "Ġshares": 23243,
    "Ġmult": 1023,
    "yra": 8102,
    "Ġentailed": 11027,
    "elaborate": 21573,
    "lonely": 20956,
    "Ġconsc": 4276,
    "ot": 346,
    "Ġunmethodically": 22068,
    "Ġdeal": 3605,
    "iet": 1772,
    "jeroboam": 25619,
    "Ġwhat": 600,
    "Ġexpectations": 13142,
    "Ġwal": 6517,
    "Ġphaeton": 17464,
    "Ġswitzerland": 10379,
    "sail": 3600,
    "Ġbritain": 16956,
    "Ġmutually": 23954,
    "heavily": 24534,
    "ustration": 2260,
    "Ġhearties": 18965,
    "Ġranges": 2882,
    "Ġstreaming": 19672,
    "Ġimplac": 24874,
    "drove": 16993,
    "Ġfeeding": 7971,
    "pens": 17632,
    "fact": 6358,
    "emotions": 15795,
    "Ġbountiful": 25944,
    "Ġtissu": 25920,
    "sake": 13782,
    "sor": 7352,
    "Ġpress": 5931,
    "Ġfalse": 4344,
    "Ġplus": 3884,
    "Ġconfirm": 9855,
    "solving": 3099,
    "putation": 7624,
    "parted": 21015,
    "Ġsenses": 8251,
    "_,âĢĻ": 12431,
    "Ġlung": 7167,
    "Ġnewcom": 16221,
    "dirty": 20833,
    "Ġfavourites": 16644,
    "Ġolfactories": 26171,
    "Ġsupplement": 22998,
    "Ġkeen": 4612,
    "ises": 3651,
    "Ġtomahawk": 7539,
    "Ġgentle": 1888,
    "Ġloathsome": 13527,
    "incess": 15482,
    "after": 2897,
    "Ġenter": 4030,
    "Ġcombining": 22886,
    "Ġsin": 1516,
    "Ġwrites": 23195,
    "Ġgoethe": 22419,
    "Ġrequested": 14302,
    "Ġdesigned": 7740,
    "Ġdoctors": 12149,
    "Ġsnuffed": 15071,
    "Ġrunning": 3953,
    "Ġ33": 16676,
    "beryls": 25309,
    "Ġdu": 4583,
    "Ġunprecedented": 15853,
    "lest": 5288,
    "Ġrevers": 21661,
    "Ġhunted": 7453,
    "Ġtimidly": 11338,
    "Ġapproving": 18481,
    "uiperai": 10663,
    "Ġfocused": 16341,
    "eration": 10772,
    "intelligence": 5882,
    "erer": 8731,
    "happily": 14657,
    "Ġfringe": 17271,
    "Ġmann": 18416,
    "Ġbub": 8117,
    "Ġutterly": 6100,
    "Ġtarn": 21157,
    "Ġprediction": 2246,
    "Ġrightly": 13062,
    "Ġbelieve": 2149,
    "Ġdeftly": 26493,
    "Ġhovers": 19078,
    "appl": 9325,
    "disputed": 23498,
    "acrity": 14278,
    "Ġunbecoming": 22061,
    "atible": 17772,
    "Ġcrad": 21348,
    "along": 6012,
    "Ġbeaut": 2391,
    "Ġadjac": 18292,
    "Ġending": 18189,
    "Ġcontemporary": 16010,
    "uling": 2258,
    "dued": 7908,
    "Ġfamous": 5254,
    "Ġon": 350,
    "display": 19154,
    "Ġabhorrent": 16856,
    "joining": 19444,
    "Ġaccept": 4410,
    "Ġinhaled": 25451,
    "swell": 17663,
    "Ġharpooneer": 3770,
    "pilot": 25908,
    "feel": 3810,
    "Ġcalamity": 17348,
    "Ġclanking": 20610,
    "Ġsuppression": 22996,
    "much": 3705,
    "Ġbutton": 10267,
    "dispute": 23497,
    "tail": 8761,
    "speckled": 23942,
    "Ġvaulted": 25167,
    "offic": 7466,
    "endom": 15922,
    "ntax": 933,
    "Ġunfortunately": 10909,
    "Ġpresented": 5182,
    "Ġseclusion": 18208,
    "Ġwasting": 12725,
    "Ġgilder": 21610,
    "etch": 9204,
    "Ġslaughtered": 26584,
    "Ġperem": 12929,
    "ancho": 4937,
    "ack": 616,
    "omas": 12668,
    "ĠĠĠĠĠĠĠĠĠĠĠĠĠĠĠĠĠĠĠĠĠĠĠĠ": 5321,
    "conspicuous": 26248,
    "Ġcotton": 17378,
    "Ġhoary": 23352,
    "phants": 9320,
    "Ġsquall": 7043,
    "county": 25396,
    "mish": 17598,
    "Ġsought": 5009,
    "encountered": 20391,
    "Ġtrials": 16789,
    "Ġbressed": 21385,
    "Ġcommentators": 25229,
    "may": 3678,
    "Ġgreatest": 4093,
    "Ġbreckinridge": 14523,
    "stolen": 13981,
    "Ġwhereas": 3854,
    "oting": 2744,
    "occ": 4483,
    "Ġgnashed": 20131,
    "unfearing": 21889,
    "Ġdrab": 13069,
    "Ġordin": 16650,
    "irations": 18170,
    "Ġtreacle": 14595,
    "Ġrect": 18025,
    "Ġswell": 8949,
    "youn": 5690,
    "Ġrevolt": 24504,
    "Ġtestified": 16323,
    "rob": 5534,
    "Ġtrying": 4837,
    "scene": 14417,
    "Ġstrateg": 1339,
    "Ġimproper": 22749,
    "Ġsepulch": 15283,
    "needle": 20309,
    "Ġpaid": 5014,
    "ribut": 817,
    "changing": 10854,
    "Ġunshored": 25813,
    "Ġartist": 12909,
    "ercial": 21273,
    "Ġdeposition": 18610,
    "Ġcapting": 23021,
    "Ġdecreasing": 2444,
    "quin": 21844,
    "Ġdireful": 11017,
    "illa": 12790,
    "Ġdeject": 10880,
    "Ġworldly": 16330,
    "Ġfullest": 14813,
    "rics": 13035,
    "Ġpince": 21469,
    "Ġrestrained": 16372,
    "Ġfacilitate": 26098,
    "mates": 5072,
    "ap": 546,
    "Ġexpressing": 12007,
    "Ġfills": 12591,
    "Ġoh": 2176,
    "rically": 15417,
    "ny": 4017,
    "Ġottoman": 17377,
    "irium": 8161,
    "+": 15,
    "Ġcalculating": 9924,
    "Ġarrest": 7409,
    "strong": 6322,
    "Ġpropagating": 20632,
    "Ġindestruct": 22955,
    "iar": 2377,
    "**:": 4735,
    "billiard": 25334,
    "Ġdissatisfied": 14256,
    "Ġfowler": 16937,
    "Ġmr": 662,
    "fluke": 25204,
    "Ġunrecorded": 17467,
    "Ġaccompanied": 6780,
    "apply": 18760,
    "Ġtip": 15471,
    "holding": 7738,
    "Ġunfinished": 19508,
    "Ġguns": 16776,
    "Ġinsens": 8276,
    "relig": 15512,
    "aft": 9583,
    "Ġlocker": 16911,
    "examine": 25477,
    "refusal": 24736,
    "prophecy": 22846,
    "Ġstaggered": 9538,
    "disposed": 25010,
    "coburg": 13597,
    "Ġsulky": 13514,
    "Ġhat": 2771,
    "ath": 861,
    "Ġremoving": 12114,
    "Ġzigzag": 26272,
    "Ġretrieval": 10674,
    "erman": 5107,
    "Ġclassify": 1502,
    "Ġvind": 10249,
    "itigated": 23044,
    "cape": 13696,
    "Ġchecking": 23283,
    "upper": 11538,
    "Ġlim": 2379,
    "Ġensuing": 12307,
    "chance": 6827,
    "Ġclasses": 4056,
    "Ġinitials": 11014,
    "Ġapplicable": 19011,
    "attracted": 13048,
    "thirst": 15824,
    "Ġretire": 10381,
    "Ġdiscomp": 11864,
    "request": 21240,
    "Ġhonorable": 16876,
    "Ġyard": 5920,
    "bitterly": 20336,
    "Ġsaved": 6690,
    "Ġportra": 9008,
    "thr": 12757,
    "figure": 13554,
    "Ġhowever": 1305,
    "onely": 6516,
    "Ġterrified": 14671,
    "sli": 11522,
    "Ġmastiff": 23723,
    "Ġstockings": 19995,
    "Ġsolutions": 1948,
    "Ġeff": 675,
    ":": 30,
    "Ġsmo": 2702,
    "Ġbanks": 6814,
    "alice": 3209,
    "vis": 4576,
    "nineteenth": 26138,
    "Ġunra": 18237,
    "Ġrepaid": 19082,
    "ave": 978,
    "allah": 5838,
    "perquisites": 26531,
    "Ġunreasonably": 17450,
    "Ġtelegra": 11890,
    "Ġsmitten": 12896,
    "inguished": 6598,
    "Ġtracks": 18891,
    "amplified": 26494,
    "Ġmisconduct": 22759,
    "Ġhouse": 1505,
    "surely": 10569,
    "proceeded": 25190,
    "bun": 12436,
    "Ġpropag": 16347,
    "meditated": 19067,
    "Ġembra": 6580,
    "wretched": 10741,
    "Ġrestraint": 15126,
    "Ġunseen": 3522,
    "Ġhomeless": 23385,
    "visitors": 13347,
    "Ġconsented": 11295,
    "Ġdowncast": 18652,
    "hav": 20896,
    "ingley": 1544,
    "Ġalbino": 20501,
    "waste": 21133,
    "Ġanother": 1738,
    "Ġmisled": 22757,
    "Ġsly": 9632,
    "Ġpoultry": 17440,
    "Ġslips": 23164,
    "cushion": 20820,
    "coward": 13699,
    "Ġmutter": 23951,
    "au": 777,
    "bearing": 9764,
    "Ġadored": 18291,
    "Ġmazes": 25940,
    "kerchief": 7525,
    "duty": 20238,
    "Ġincorporated": 25711,
    "clu": 20798,
    "riety": 12740,
    "bree": 15313,
    "superstitiousness": 25508,
    "Ġcraw": 7282,
    "Ġattitudes": 16095,
    "Ġsocietal": 11436,
    "gressive": 2753,
    "Ġloos": 15870,
    "Ġclay": 7018,
    "lar": 4482,
    "Ġdelights": 14596,
    "Ġdurst": 20351,
    "Ġhabit": 6771,
    "Ġusurpation": 18361,
    "Ġlasting": 18791,
    "Ġorganisation": 23582,
    "Ġenterprise": 8641,
    "Ġlxi": 21558,
    "forbid": 14352,
    "Ġrepair": 11977,
    "anter": 9166,
    "Ġtech": 1688,
    "Ġblank": 5950,
    "Ġacquaintances": 17349,
    "Ġsafie": 6617,
    "://": 11465,
    "Ġconcoct": 19043,
    "Ġsuited": 12782,
    "Ġagencies": 18542,
    "Ġtreatise": 19343,
    "algorithm": 3894,
    "Ġest": 2266,
    "Ġrepul": 16408,
    "Ġrejoiced": 8683,
    "Ġopera": 23424,
    "Ġpreser": 6040,
    "Ġbreathed": 11220,
    "Ġumbrell": 13649,
    "Ġtask": 1311,
    "ounted": 5029,
    "Ġlevi": 3035,
    "invite": 25088,
    "Ġdeaden": 23459,
    "Ġedge": 5187,
    "Ġsn": 2953,
    "Ġforest": 9870,
    "Ġgaieties": 24195,
    "Ġere": 3684,
    "Ġsubordinate": 18722,
    "oga": 22707,
    "ient": 394,
    "Ġsy": 492,
    "ispensable": 9095,
    "rine": 21036,
    "mai": 22910,
    "Ġinsurg": 23679,
    "Ġtwentieth": 18659,
    "ft": 908,
    "Ġdecanter": 22441,
    "Ġmachinations": 25767,
    "Ġstrand": 11826,
    "Ć": 199,
    "Ġwhipping": 21713,
    "Ġdoorway": 14497,
    "Ġusages": 15917,
    "Ġcost": 2505,
    "oriented": 2951,
    "Ġhandles": 22692,
    "Ġantagonist": 26328,
    "ledge": 1331,
    "shri": 14235,
    "Ġhookah": 16970,
    "Ġdrop": 4345,
    "Ġsulkily": 25882,
    "Ġnear": 1718,
    "yellow": 9624,
    "Ġmerid": 13194,
    "Ġdependen": 1825,
    "arrow": 4182,
    "acute": 22592,
    "Ġaccumul": 1412,
    "umns": 14147,
    "Ġrods": 9753,
    "Ġleather": 7606,
    "Ġalleg": 14016,
    "Ġtumb": 21168,
    "Ġdreaming": 11223,
    "Ġproprietor": 12371,
    "influ": 9540,
    "Ġbackpropagation": 1291,
    "Ġprocessing": 895,
    "Ġpushing": 10819,
    "Ġclap": 10956,
    "Ġissuing": 16948,
    "Ġsan": 7824,
    "Ġpattering": 18649,
    "Ġkissed": 10044,
    "Ġsayest": 22770,
    "Ġcrawl": 11375,
    "conc": 3949,
    "Ġawa": 7713,
    "additional": 20462,
    "network": 1908,
    "Ġencoura": 1369,
    "sens": 8095,
    "Ġdesired": 4663,
    "Ġpursu": 3240,
    "bers": 2567,
    "Ġdagger": 21435,
    "Ġsum": 2701,
    "Ġanticipating": 17058,
    "saw": 5893,
    "Ġinterpreter": 23212,
    "Ġhurled": 10429,
    "biqu": 17497,
    "der": 469,
    "mag": 6508,
    "Ġmetropolitan": 17275,
    "Ġadditional": 7935,
    "Ġsaves": 18324,
    "ions": 448,
    "dden": 1803,
    "Ġskirts": 14351,
    "Ġwayward": 22865,
    "uction": 15443,
    "Ġhoneymoon": 25645,
    "reading": 12077,
    "azine": 19130,
    "rossed": 11012,
    "algorith": 3498,
    "Ġtingling": 15091,
    "comparison": 25840,
    "Ġdangling": 17174,
    "atum": 21258,
    "Ġhorizon": 6632,
    "Ġcuff": 17829,
    "sch": 21049,
    "ote": 4595,
    "co": 2434,
    "Ġfront": 3449,
    "Ġaunt": 3176,
    "Ġsymptoms": 8704,
    "Ġconnecting": 18630,
    "private": 13581,
    "ivities": 22075,
    "bellies": 19972,
    "Ġforeheads": 23447,
    "belais": 24036,
    "Ġanalytical": 22907,
    "Ġinadequate": 17936,
    "softened": 20408,
    "Ġaudacious": 13459,
    "pursuit": 20339,
    "Ġformless": 22824,
    "ĠĠĠĠĠĠĠĠĠĠ": 18579,
    "Ġgreatly": 5849,
    "Ġsemblance": 20733,
    "ieves": 4007,
    "Ġlegendary": 20536,
    "Ġadventures": 7747,
    "Ġreverie": 13456,
    "Ġbishop": 13901,
    "grained": 20882,
    "Ġfancied": 7326,
    "æ": 167,
    "Ġ16": 7926,
    "Ġtransc": 12862,
    "enemy": 15526,
    "Ġfift": 6382,
    "produce": 20281,
    "Ġhammered": 13238,
    "Ġmales": 17805,
    "shark": 14238,
    "Ġtyphoon": 12387,
    "eryton": 4094,
    "follows": 24528,
    "Ġconclusion": 5985,
    "Ġjoin": 4852,
    "mot": 17596,
    "Ġsteed": 13038,
    "Ġstave": 11650,
    "ushes": 22288,
    "ilar": 10215,
    "Ġnearing": 15794,
    "Ġmissionary": 25696,
    "Ġconsoled": 18112,
    "securing": 19812,
    "par": 1831,
    "olerable": 7182,
    "Ġlombardy": 26463,
    "ool": 17618,
    "Ġlord": 2969,
    "concealed": 25115,
    "cour": 4478,
    "Ġhoard": 23350,
    "Ġindignant": 12237,
    "Ġelevation": 14898,
    "Ġvarying": 15809,
    "walking": 9981,
    "Ġdemonstrate": 24994,
    "mown": 20969,
    "Ġmadness": 6601,
    "Ġfisherman": 12073,
    "Ġuneasy": 8661,
    "Ġdepths": 4327,
    "Ġpossessor": 23820,
    "Ġveter": 15810,
    "Ġacquired": 13041,
    "Ġunex": 11711,
    "Ġthinking": 4032,
    "cannib": 11900,
    "Ġvesture": 20060,
    "abated": 14019,
    "eted": 7591,
    "medical": 23339,
    "tling": 9142,
    "Ġtriumphal": 24371,
    "cor": 5520,
    "Ġchatting": 24747,
    "Ġunharmed": 15138,
    "abeth": 905,
    "cast": 2930,
    "for": 961,
    "Ġconquest": 15746,
    "âĢĶâĢĿ": 3299,
    "Ġjewell": 19519,
    "Ġsilken": 16378,
    "erson": 7002,
    "Ġdiscrimin": 2543,
    "althily": 19357,
    "Ġdescent": 1013,
    "Ġanswers": 7070,
    "-------": 20387,
    "Ġhay": 11604,
    "Ġaffability": 14386,
    "Ġuniversal": 2234,
    "Ġproportional": 2523,
    "suddenly": 6493,
    "ated": 734,
    "²": 115,
    "alterable": 13623,
    "uine": 13798,
    "Ġprogrammed": 11058,
    "Ġinclosed": 19537,
    "Ġusage": 9730,
    "paused": 17373,
    "Ġfaithfully": 14886,
    "seemed": 4305,
    "Ġanew": 11430,
    "Ġsurface": 5118,
    "Ġalcoves": 26486,
    "understand": 1124,
    "ve": 322,
    "courage": 17509,
    "subject": 6631,
    "out": 467,
    "atmospheric": 17776,
    "oam": 8751,
    "fold": 7546,
    "omuch": 21637,
    "Ġbrisk": 9802,
    "Ġslides": 18938,
    "Ġhoofs": 14527,
    "Ġrandomly": 1919,
    "izens": 18143,
    "Ġmagazine": 23096,
    "natural": 2406,
    "Ġassembled": 9235,
    "Ġties": 12524,
    "Ġlany": 21551,
    "Ġsomnambul": 26576,
    "Ġfan": 2035,
    "Ġdissembling": 26254,
    "Ġlavenza": 17970,
    "Ġdrowsiness": 26445,
    "Ġromans": 16759,
    "Ġdorm": 4820,
    "Ġthreatens": 24375,
    "Ġblackest": 19098,
    "Ġridiculous": 10628,
    "ipped": 5790,
    "Ġthinks": 6169,
    "consequence": 9762,
    "Ġattending": 3284,
    "times": 8098,
    "claimed": 9835,
    "_": 67,
    "serve": 13044,
    "Ġhooks": 14967,
    "Ġjeopardy": 13595,
    "sold": 15426,
    "Ġhelping": 3267,
    "Ġtemples": 18638,
    "Ġbad": 3989,
    "construction": 19777,
    "....": 11316,
    "Ġtransformations": 3483,
    "Ġdetermines": 2367,
    "bare": 12439,
    "Ġcivil": 4677,
    "gers": 8375,
    "labour": 23912,
    "robber": 21534,
    "Ġmule": 13861,
    "ostent": 16846,
    "Ġbecame": 2693,
    "Ġinf": 1755,
    "belated": 24035,
    "lets": 7836,
    "Ġsecured": 6745,
    "Ġslam": 13055,
    "Ġmartha": 16261,
    "U": 57,
    "Ġdiminish": 14745,
    "Ġprehens": 22228,
    "Ġdead": 2171,
    "inement": 11557,
    "bag": 7542,
    "Ġwaters": 3593,
    "apparatus": 26563,
    "Ġannihilation": 15164,
    "esting": 7412,
    "Ġche": 1761,
    "Ġscandinavian": 26344,
    "Ġsecond": 1889,
    "usually": 10285,
    "who": 2446,
    "expressive": 24305,
    "wooden": 24587,
    "Ġalways": 1698,
    "thou": 4707,
    "esley": 17902,
    "Ġbegan": 2022,
    "Ġamusement": 8055,
    "Ġsw": 1358,
    "Ġdefines": 1742,
    "osque": 22259,
    "crowning": 25748,
    "Ġzig": 18745,
    "seen": 2879,
    "Ġirreducible": 5519,
    "stir": 12670,
    "Ġvast": 3296,
    "Ġlandlady": 10422,
    "merit": 19281,
    "Ġgourmand": 26466,
    "Ġcaravan": 26290,
    "Ġstates": 1849,
    "Ġlard": 13946,
    "onist": 21249,
    "Ġill": 2193,
    "Ġdoors": 6418,
    "secut": 7866,
    "superiority": 20184,
    "Ġhag": 12622,
    "Ġrelentless": 26277,
    "Ġnoting": 18221,
    "Ġharpoons": 5659,
    "Ġsupreme": 13606,
    "ancy": 4393,
    "Ġelbow": 12918,
    "Ġdespondency": 16577,
    "Ġnodes": 1968,
    "Ġsple": 21214,
    "Ġpettiness": 24229,
    "Ġinterval": 4055,
    "Ġultimate": 12347,
    "Ġhair": 3313,
    "ements": 11108,
    "Ġpalsied": 25779,
    "usable": 22286,
    "noted": 22742,
    "Ġmon": 1248,
    "Ġarches": 14160,
    "umul": 1290,
    "Ġclouded": 13289,
    "Ġrept": 13982,
    "Ġfry": 17879,
    "Ġnoises": 18374,
    "philosop": 9567,
    "quickness": 19850,
    "Ġcups": 16882,
    "Ġgest": 8133,
    "hunsford": 24386,
    "elled": 3994,
    "Ġruffled": 25835,
    "Ġardour": 8042,
    "erately": 21272,
    "Ġxiv": 23406,
    "Ġmotive": 6091,
    "ernal": 4313,
    "Ġclimates": 25050,
    "Ġgeneralize": 3100,
    "Ġundertaking": 8573,
    "Ġbroker": 23098,
    "necessity": 13366,
    "awakened": 14452,
    "Ġnook": 15927,
    "intolerable": 22935,
    "Ġexpired": 18623,
    "tern": 4225,
    "unmistakable": 21892,
    "Ġkno": 5240,
    "Ġsembl": 19055,
    "Ġpythag": 26448,
    "folio": 10546,
    "Ġpopularly": 12239,
    "Ġcontextual": 3741,
    "Ġgeorgia": 23884,
    "Ġemblaz": 16244,
    "Ġanybody": 5313,
    "Ġfainted": 8791,
    "Ġpaste": 23417,
    "Ġbulky": 13227,
    "Ġreplied": 2265,
    "Ġcaution": 11346,
    "mers": 9610,
    "charitable": 23930,
    "Ġdishonor": 25601,
    "oves": 15403,
    "Ġattempted": 8000,
    "Ġlagged": 21555,
    "Ġinvitation": 5188,
    "ifts": 12732,
    "uesday": 8587,
    "Ġdisturbed": 8671,
    "Ġdelicious": 14792,
    "ware": 3937,
    "measured": 19988,
    "Ġdamning": 19139,
    "brother": 7091,
    "ument": 5238,
    "magistrate": 19862,
    "trees": 10731,
    "Ġdig": 6135,
    "Ġinexperienced": 26100,
    "Ġunfeeling": 14118,
    "onder": 3777,
    "Ġcables": 15556,
    "Ġattachment": 6049,
    "Ġdrily": 23536,
    "Ġscound": 12829,
    "Ġtattoo": 7359,
    "Ġrecourse": 22747,
    "Ġunrecord": 16621,
    "Ġentry": 11026,
    "Ġroundabout": 23057,
    "Ġinex": 6528,
    "back": 2016,
    "inex": 14095,
    "Ġindulged": 13416,
    "Ġmaj": 3928,
    "Ġparent": 14645,
    "Ġwoes": 23983,
    "Ġengineer": 11973,
    "Ġpermission": 9278,
    "rock": 15639,
    "Ġderivatives": 2370,
    "Ġunluckily": 20100,
    "rily": 7621,
    "Ġpap": 8797,
    "Ġbath": 9658,
    "Ġbids": 24645,
    "tolerable": 17688,
    "years": 6883,
    "Ġconvenience": 11331,
    "Ġdy": 2769,
    "Ġsloping": 11937,
    "revival": 26162,
    "Ġsmoking": 6429,
    "Ġwindpipe": 23102,
    "recked": 17762,
    "treas": 17679,
    "Ġfer": 5529,
    "itory": 12564,
    "Ġtallow": 14777,
    "Ġlysander": 13138,
    "mur": 5428,
    "Ġgenerating": 12848,
    "surround": 16758,
    "removed": 15516,
    "Ġweary": 5635,
    "andam": 10888,
    "Ġtremor": 24768,
    "nals": 16398,
    "leness": 4689,
    "Ġsurvey": 13592,
    "Ġneville": 7399,
    "Ġtul": 21158,
    "ham": 1703,
    "Ġcave": 10785,
    "wn": 719,
    "Ġineffect": 13929,
    "dozen": 23376,
    "Ġrecesses": 17260,
    "&": 10,
    "problem": 25244,
    "gard": 7339,
    "ats": 4255,
    "gunwale": 20662,
    "Ġdeliberation": 19967,
    "Ġadding": 2400,
    "Ġpeering": 8534,
    "Ġbench": 7238,
    "bath": 13688,
    "mun": 20961,
    "Ġlearn": 365,
    "Ġpouring": 12621,
    "Ġnobody": 6158,
    "Ġey": 8134,
    "Ġunass": 14113,
    "Ġinexpressible": 17332,
    "Ġ(": 594,
    "Ġbulge": 23855,
    "vative": 1582,
    "Ġanimating": 23422,
    "Ġju": 10286,
    "Ġhereditarily": 25224,
    "Ġforfeit": 21772,
    "row": 1068,
    "Ġpoles": 11003,
    "Ġint": 409,
    "Ġbristol": 14379,
    "Ġdesign": 4133,
    "asp": 3340,
    "Ġhushed": 13924,
    "etency": 21579,
    "ii": 4016,
    "Ġrheum": 18214,
    "Ġdisagree": 22529,
    "Ġconfiding": 19032,
    "Ġhelper": 24023,
    "Ġhint": 5015,
    "holland": 24039,
    "Ġdiscoverer": 26035,
    "Ġdavy": 25951,
    "Ġpermanent": 13630,
    "Ġunguarded": 15849,
    "surprise": 9529,
    "herself": 4889,
    "Ġclerks": 17294,
    "Ġstrict": 7222,
    "Ġseeking": 7035,
    "Ġskeletons": 16791,
    "Ġberkshire": 16884,
    "Ġpractices": 19061,
    "Ġsmacking": 20164,
    "Ġloun": 7166,
    "Ġpainter": 19167,
    "Ġones": 3022,
    "itical": 5801,
    "âĢĶ": 517,
    "Ġsque": 18757,
    "Ġinfancy": 10409,
    "Ġsensit": 2949,
    "night": 2168,
    "Ġhim": 476,
    "blades": 24131,
    "carpenter": 11427,
    "Ġstructured": 2975,
    "oice": 1384,
    "web": 18664,
    "gale": 13723,
    "Ġgunw": 6212,
    "Ġhalf": 1667,
    "aloons": 20009,
    "Ġwhit": 7177,
    "gods": 13365,
    "Ġopens": 23625,
    "neglect": 25668,
    "Ġhissed": 15787,
    "Ġblood": 3168,
    "sentimental": 25681,
    "Ġmills": 21310,
    "rel": 3753,
    "most": 1253,
    "Ġcalves": 13032,
    "Ġstacked": 21740,
    "Ġfif": 4218,
    "ĠĠĠĠĠĠĠĠĠĠĠĠĠĠĠĠĠĠĠĠĠĠĠĠĠĠĠĠĠĠĠĠĠĠĠĠĠĠĠĠ": 4516,
    "pend": 6367,
    "Ġwoeful": 19618,
    "]": 65,
    "Ġprincely": 24148,
    "Ġnovelty": 13462,
    "Ġcrisis": 13125,
    "Ġteaching": 10364,
    "Ġdiscriminator": 3391,
    "Ġgould": 17989,
    "Ġsuffering": 8946,
    "below": 12119,
    "Ġwhereupon": 14295,
    "ograph": 4796,
    "Ġdiameter": 19866,
    "Ġbu": 3681,
    "rael": 21626,
    "Ġdiscontented": 16058,
    "rosings": 15642,
    "Ġtepid": 26412,
    "oul": 4697,
    "ashion": 3858,
    "Ġdecipher": 22443,
    "Ġrobe": 18457,
    "Ġembarr": 7447,
    "Ġprotecting": 24686,
    "Ġalterations": 19870,
    "res": 2758,
    "Ġprefer": 6416,
    "Ġdumbly": 24985,
    "Ġphrenologically": 20392,
    "Ġreve": 2935,
    "Ġ36": 14767,
    "xic": 9145,
    "ably": 1845,
    "assemblies": 25956,
    "Ġscraggy": 24579,
    "subs": 14300,
    "Ġeven": 1028,
    "Ġmarshalled": 25315,
    "Ġcoherent": 3263,
    "ihood": 20921,
    "Ġprograms": 7239,
    "Ġraises": 11843,
    "Ġgrat": 4058,
    "Ġboarding": 12084,
    "Ġaction": 5796,
    "inate": 6233,
    "Ġdexter": 9700,
    "idelburgh": 10560,
    "glances": 23851,
    "Ġphase": 14470,
    "exagger": 22425,
    "Ġhorner": 8958,
    "Ġcosy": 13129,
    "Ġmedic": 11247,
    "Ġintercept": 14268,
    "ultaneous": 18584,
    "Ġblotches": 25314,
    "Ġrecol": 4031,
    "alth": 3256,
    "terdam": 18129,
    "honor": 19899,
    "itated": 4439,
    "Ġescorted": 23504,
    "Ġfrequent": 3286,
    "borough": 20784,
    "Ġincline": 18569,
    "Ġracket": 22648,
    "Ġpolluted": 25593,
    "intention": 10367,
    "Ġdisc": 942,
    "Ġalternate": 19984,
    "Ġatlantic": 7000,
    "unusual": 21876,
    "Ġfable": 15575,
    "idity": 8830,
    "Ġovertake": 15972,
    "Ġclothed": 19605,
    "Ġpol": 2573,
    "ojo": 7349,
    "Ġsuch": 793,
    "rosc": 17954,
    "Ġdrawer": 13264,
    "Ġflame": 7448,
    "Ġamb": 9291,
    "Ġban": 7156,
    "performances": 26006,
    "Ġthing": 1637,
    "Ġturnpike": 23028,
    "ython": 1032,
    "Ġclutch": 15053,
    "Ġsundering": 23272,
    "Ġpleated": 16296,
    "breeding": 16675,
    "qualities": 25043,
    "Ġcreditable": 19621,
    "Ġroaring": 10968,
    "Ġundu": 15836,
    "Ġquadruped": 17458,
    "Ġfriendless": 23025,
    "Ġown": 1006,
    "Ġsignify": 16494,
    "Ġrivers": 9441,
    "Ġdusk": 12325,
    "acit": 16079,
    "ables": 7889,
    "Ġphant": 7055,
    "securer": 25602,
    "square": 15059,
    "Ġfestoon": 20293,
    "ield": 2405,
    "Ġvindication": 25364,
    "Ġsnaky": 23740,
    "ivil": 6411,
    "Ġcocoa": 25482,
    "venth": 9294,
[...]
