{
  "metadata": {
    "vocab_size": 26613,
    "algorithm": "BPE",
    "created_at": "2026-05-08 04:53:07",
    "special_tokens": [
      "<PAD>",
      "<SOS>",
      "<EOS>",
      "<UNK>",
      "<MASK>"
    ]
  },
  "vocab": {
    "Ġundertaking": 8573,
    "Ġrecognised": 8994,
    "Ġultimately": 17163,
    "Ġdrows": 21434,
    "Ġattempts": 10489,
    "nder": 20986,
    "estate": 12817,
    "Ġpurest": 14937,
    "rub": 15890,
    "creat": 20799,
    "Ġfiery": 6871,
    "Ġsubt": 11865,
    "ivility": 12785,
    "Ġhelplessness": 25071,
    "Ġfaintness": 24569,
    "Ġcrowding": 13277,
    "dare": 12450,
    "Ġinformation": 1048,
    "Ġresults": 7308,
    "Ġdisinclined": 22527,
    "swallow": 24256,
    "Ġchristian": 6479,
    "asiness": 8129,
    "stand": 628,
    "formal": 14167,
    "Ġsolution": 9803,
    "Ġstrike": 4855,
    "Ġfuture": 1133,
    "Ġusurpation": 18361,
    "find": 6954,
    "Ġwretch": 6378,
    "Ġscrib": 22286,
    "Ġcompliment": 5673,
    "Ġdeplored": 20503,
    "Ġsurpassed": 25267,
    "ĠĠĠĠĠĠĠĠĠĠĠĠĠĠĠĠĠĠĠĠĠĠĠĠĠĠĠĠĠĠĠĠĠĠĠĠĠĠĠĠĠĠĠĠĠ": 9950,
    "Ġpreacher": 18369,
    "ă": 196,
    "Ġoccur": 1083,
    "Ġexcessively": 9438,
    "ernity": 18611,
    "rospect": 11610,
    "Ġgen": 5296,
    "Ġcham": 4892,
    "Ġsubsisted": 19117,
    "Ġnegro": 6447,
    "Ġmotive": 6092,
    "Ġeddy": 13121,
    "folding": 24927,
    "Ġconfessed": 8009,
    "Ġnat": 12641,
    "ling": 734,
    "Ġubiqu": 18046,
    "Ġcomfor": 14052,
    "Ġpropag": 16344,
    "Ġfalsely": 20580,
    "Ġdistrusted": 13540,
    "snap": 24848,
    "Ġpirates": 9072,
    "Ġdank": 21427,
    "Ġuttering": 16459,
    "Ġbrutality": 26276,
    "ia": 1259,
    "Ġrefinement": 18700,
    "ounted": 5030,
    "Ġexhilar": 19682,
    "frame": 17115,
    "----": 4057,
    "Ġemployed": 5200,
    "Ġinterests": 14568,
    "Ġfluffy": 19362,
    "oric": 21394,
    "Ġbrightly": 13221,
    "Ġaims": 15494,
    "orte": 14183,
    "hur": 6648,
    "Ġmaids": 19690,
    "Ġtowns": 11172,
    "Ġoverflowed": 20261,
    "Ġgriff": 22804,
    "se": 357,
    "Ġoblig": 3445,
    "Ġfacetious": 20582,
    "jam": 15369,
    "Ġdives": 17890,
    "usable": 22277,
    "covenant": 23560,
    "enges": 13050,
    "Ġhorns": 11122,
    "Ġconsented": 11294,
    "Ġbid": 6131,
    "Ġfatigued": 13463,
    "Ġsleeping": 6319,
    "wr": 3029,
    "Ġsatisfied": 4171,
    "Ġpostpone": 17305,
    "Ġinsurance": 23681,
    "lemency": 21372,
    "¿": 128,
    "Ġpaddling": 25285,
    "Ġrequested": 14300,
    "elling": 5830,
    "Ġvinegar": 20098,
    "quished": 21846,
    "Ġaffections": 10383,
    "Ġsomewhat": 4897,
    "Ġdiscredit": 22778,
    "Ġpaces": 13917,
    "Ġhair": 3315,
    "Ġbrid": 6290,
    "Ġdependency": 3486,
    "Ġworthless": 19564,
    "Ġdissip": 10991,
    "Ġbrixton": 13661,
    "Ġassisted": 11110,
    "Ġgros": 14821,
    "Ġvesu": 21947,
    "remediable": 26294,
    "plings": 11692,
    "Ġunanswerable": 26520,
    "ially": 9245,
    "Ġflaming": 8563,
    "Ġfloated": 7288,
    "Ġraising": 8908,
    "iation": 7343,
    "shining": 18495,
    "tender": 14472,
    "lighted": 23752,
    "reliable": 21239,
    "bride": 19200,
    "Ġtongue": 6347,
    "Ġupdating": 2691,
    "Ġmariner": 7247,
    "Ġalbert": 12702,
    "Ġdedicated": 19181,
    "Ġtrades": 8232,
    "Ġapplied": 6186,
    "Ġcouch": 12567,
    "omach": 11635,
    "Ġhorizont": 6937,
    "Ġatlantic": 7000,
    "Ġunprinciple": 18254,
    "Ġcod": 8412,
    "Ġri": 3396,
    "whips": 22236,
    "Ġpromising": 10398,
    "Ġdeb": 4764,
    "express": 4895,
    "poster": 11055,
    "Ġtrib": 13817,
    "uv": 6229,
    "butt": 15991,
    "aul": 6352,
    "ually": 2770,
    "immed": 9216,
    "Ġpunctual": 17136,
    "islands": 21374,
    "Ġtell": 1470,
    "etuous": 21581,
    "expound": 23663,
    "Ġirreduc": 5491,
    "Ġlabrador": 23330,
    "Ġsteel": 3888,
    "owed": 2269,
    "Ġcrazed": 19174,
    "naturally": 14574,
    "Ġdesigns": 13008,
    "voyages": 24855,
    "Ġintellectual": 11400,
    "bears": 22488,
    "Ġsand": 6235,
    "Ġchry": 22244,
    "Ġfierce": 7437,
    "Ġrecollection": 6620,
    "contrasted": 17304,
    "Ġdism": 9765,
    "inates": 21179,
    "repid": 11563,
    "Ġcrosses": 23060,
    "inity": 5693,
    "Ġfobbing": 26440,
    "Ġimputation": 22170,
    "Ġcor": 1320,
    "Ġannot": 15598,
    "ary": 987,
    "umps": 6317,
    "vint": 21113,
    "Ġinvoluntarily": 8547,
    "Ġspeeches": 22661,
    "Ġblooming": 17211,
    "Ġinnocent": 4921,
    "Ġtossing": 8126,
    "ptic": 21922,
    "Ġbaboon": 19692,
    "Ġgrie": 3581,
    "Ġcooper": 16075,
    "Ġabode": 7901,
    "discoveries": 25385,
    "save": 13783,
    "bur": 4687,
    "iforn": 14062,
    "Ġstrikes": 13179,
    "Ġcerem": 7077,
    "thinness": 25810,
    "ounced": 4954,
    "love": 9292,
    "Ġextremest": 19195,
    "Ġartfully": 22607,
    "Ġclutch": 15052,
    "Ġavoid": 5199,
    "Ġsquee": 7929,
    "Ġswarm": 23053,
    "Ġaroused": 15900,
    "pered": 4199,
    "Ġreduced": 11921,
    "meet": 11853,
    "Ġtransparen": 10540,
    "Ġinsipid": 26313,
    "causes": 20342,
    "ential": 827,
    "Ġreceptacle": 23190,
    "Ġungenerous": 18266,
    "Ġgreeted": 23212,
    "oquence": 11385,
    "Ġchambermaid": 24303,
    "happen": 19330,
    "cask": 12443,
    "american": 11399,
    "Ġhedge": 8364,
    "isk": 9166,
    "actions": 8905,
    "Ġtries": 9149,
    "slanting": 24557,
    "Ġshaggy": 13568,
    "queer": 10360,
    "osed": 1961,
    "Ġchamounix": 14862,
    "Ġhails": 21948,
    "Ġwhaleboats": 18478,
    "inglass": 21301,
    "Ġvial": 10247,
    "gorge": 22330,
    "Ġwoodlands": 23518,
    "Ġaut": 1815,
    "garden": 15024,
    "osis": 18389,
    "Ġorganisation": 23581,
    "crow": 9589,
    "according": 12024,
    "Ġunsocial": 18256,
    "Ġscept": 15501,
    "taller": 26150,
    "Ġhomely": 25219,
    "Ġincognit": 22553,
    "Ġjustice": 5111,
    "Ġundeserving": 18268,
    "Ġrecre": 22737,
    "Ġverdure": 10611,
    "Ġregular": 946,
    "Ġtrotting": 19974,
    "Ġpossibly": 4515,
    "Ġthyself": 6602,
    "ithmetic": 18061,
    "fearfully": 25116,
    "Ġandromeda": 21506,
    "Ġexig": 21824,
    "Ġbas": 6380,
    "warning": 25531,
    "umber": 5240,
    "Ġbernard": 20683,
    "Ġjustification": 22964,
    "press": 1731,
    "avo": 8519,
    "Ġtelesc": 12986,
    "boiling": 19000,
    "Ġdimmed": 24266,
    "Ġdz": 4756,
    "Ġresnet": 5473,
    "giving": 8738,
    "Ġbrows": 13298,
    "Ġopenly": 8572,
    "pate": 21009,
    "lowering": 16026,
    "Ġseer": 21957,
    "Ġpen": 1530,
    "hot": 8084,
    "significant": 25082,
    "Ġtrust": 4078,
    "Ġappearances": 10450,
    "Ġragged": 11841,
    "Ġextremity": 8987,
    "lutions": 20949,
    "Ġnuts": 17951,
    "Ġtops": 14585,
    "Ġshirt": 8847,
    "itty": 3552,
    "Ġrever": 6536,
    "elope": 14463,
    "brevi": 24071,
    "rob": 5533,
    "Ġagonising": 25373,
    "dy": 3861,
    "Ġplaned": 24052,
    "Ġeffort": 8205,
    "Ġlatest": 16821,
    "Ġoverpow": 14206,
    "Ġinvincible": 23478,
    "Ġenabling": 1079,
    "Ġfortitude": 9883,
    "Ġsouth": 4911,
    "mosp": 8089,
    "Ġnevertheless": 5040,
    "atically": 2814,
    "Ġfairest": 20461,
    "ref": 6515,
    "variance": 2656,
    "intercourse": 14637,
    "Ġbear": 3656,
    "Ġ1825": 25719,
    "Ġmethods": 3163,
    "Ġcarcase": 14442,
    "Ġrespite": 13152,
    "Ġmabel": 17322,
    "Ġpredecess": 18517,
    "stately": 18018,
    "Ġcontemplation": 11356,
    "strikes": 24670,
    "Ġwired": 17786,
    "angs": 5834,
    "Ġfurn": 3708,
    "uously": 7353,
    "ker": 5792,
    "cked": 2762,
    "Ġfriend": 1295,
    "leag": 21364,
    "clearer": 24065,
    "drink": 10594,
    "Ġcolt": 11043,
    "Ġspeakest": 23484,
    "Ġpersuade": 5872,
    "Ġsighing": 18676,
    "Ġvarying": 15807,
    "relative": 24010,
    "Ġmaid": 5285,
    "Ġrebell": 21667,
    "Ġexpressive": 8981,
    "natured": 7110,
    "Ġbox": 5109,
    "acting": 22629,
    "Ġ27": 8614,
    "nigh": 13761,
    "Ġfeelingly": 22990,
    "advance": 12153,
    "Ġunprovided": 18260,
    "mentioned": 10622,
    "this": 1441,
    "sharks": 14239,
    "Ġdealer": 23974,
    "Ġushered": 18360,
    "Ġtresses": 21174,
    "deser": 10401,
    "scans": 22982,
    "ý": 190,
    "Ġsurm": 7476,
    "Ġandes": 12637,
    "Ġincommod": 25307,
    "Ġsubstances": 24164,
    "Ġeuroc": 14957,
    "Ġscore": 9736,
    "Ġoars": 3897,
    "Ġsecondary": 23335,
    "been": 3346,
    "Ġunobserved": 18249,
    "Ġdiscre": 2417,
    "ß": 160,
    "Ġcongealed": 25981,
    "Ġcedars": 20291,
    "next": 5892,
    "slipped": 25529,
    "Ġavowal": 19413,
    "thr": 12756,
    "anter": 9165,
    "Ġrecumbent": 22740,
    "Ġsweeter": 23915,
    "life": 4932,
    "Ġmillion": 14985,
    "Ġflap": 14420,
    "accordingly": 19213,
    "enge": 21279,
    "admon": 21759,
    "Ġhelen": 16654,
    "Ġoffing": 16140,
    "Ġfright": 3796,
    "Ġix": 12664,
    "Ġslay": 16304,
    "supplied": 10518,
    "Ġsyntax": 958,
    "Ġquiver": 15999,
    "Ġpaint": 7708,
    "comfortableness": 24524,
    "ô": 181,
    "Ġauthor": 4376,
    "apidated": 22335,
    "susp": 10595,
    "Ġquote": 18466,
    "go": 2062,
    "Ġnour": 10829,
    "Ġgorgeous": 20465,
    "Ġterribly": 10424,
    "Ġuntouched": 16463,
    "ifers": 15778,
    "Ġmasks": 23327,
    "header": 11930,
    "Ġserene": 8167,
    "canallers": 22962,
    "ompl": 4537,
    "Ġbenjamin": 26566,
    "oting": 2745,
    "Ġevol": 2817,
    "Ġcompunction": 18586,
    "fortunately": 9448,
    "Ġcasked": 24496,
    "Ġcomforter": 20505,
    "actor": 11835,
    "asters": 8434,
    "elop": 1503,
    "provided": 13635,
    "appear": 13194,
    "umer": 9256,
    "Ġdouble": 4940,
    "Ġsparing": 22127,
    "Ġprofusion": 23566,
    "Ġfeels": 6882,
    "r": 86,
    "Ġgard": 2190,
    "ondescript": 22914,
    "Ġmaintenance": 17460,
    "c": 71,
    "Ġfilm": 23922,
    "Ġshifting": 12764,
    "Ġinsignific": 13178,
    "Ġbleak": 10557,
    "Ġbasic": 24701,
    "Ġdiscl": 9795,
    "Ġnights": 7258,
    "Ġparish": 8853,
    "Ġaffording": 14819,
    "Ġextract": 1475,
    "Ġwoof": 14719,
    "tern": 4225,
    "unched": 10234,
    "este": 15916,
    "Ġhumorousness": 25377,
    "Ġbenchmarks": 15020,
    "Ġprincely": 24147,
    "Ġshipmates": 6720,
    "Ġdeveloped": 16337,
    "gement": 13726,
    "Ġdoctrine": 24196,
    "bureau": 20788,
    "Ġcomforts": 14692,
    "Ġwhine": 21713,
    "Ġbase": 5013,
    "oysius": 14358,
    "lilies": 20960,
    "prevent": 11790,
    "Ġloite": 22109,
    "furthermore": 20002,
    "Ġmis": 917,
    "Ġseldom": 4630,
    "engagements": 25853,
    "deepest": 22823,
    "Ġbreeds": 23347,
    "Ġdischarged": 15218,
    "initely": 7568,
    "Ġpurchasing": 19874,
    "Ġhints": 8430,
    "Ġresulting": 24197,
    "Ġfloundered": 18862,
    "setting": 13283,
    "ailed": 3249,
    "urously": 18050,
    "garet": 9596,
    "udg": 22764,
    "days": 7688,
    "Ġcondense": 21806,
    "net": 1194,
    "ugnance": 12364,
    "Ġslippers": 19614,
    "simply": 20669,
    "terdam": 18129,
    "Ġimm": 3966,
    "Ġcourtiers": 24135,
    "Ġfert": 15578,
    "Ġundeceive": 25552,
    "lot": 3209,
    "Ġconcent": 8250,
    "Ġemployer": 19430,
    "springs": 24911,
    "chery": 24550,
    "Ġinterchange": 16071,
    "ience": 791,
    "Ġprecise": 7075,
    "Ġofficers": 4426,
    "accuracy": 9877,
    "Ġwent": 1536,
    "Ġtenants": 23545,
    "presumption": 20440,
    "summit": 23415,
    "Ġkeener": 22912,
    "nest": 10112,
    "persu": 8028,
    "Ġgretna": 26467,
    "Ġcorrespondence": 10593,
    "barr": 15318,
    "Ġneskye": 21529,
    "Ġcell": 6237,
    "shine": 9287,
    "Ġsmilingly": 22559,
    "Ġschools": 9475,
    "h": 76,
    "appro": 7044,
    "Ġdrought": 19277,
    "Ġguide": 3218,
    "Ġpulverize": 23391,
    "Ġpervading": 20612,
    "thoroughly": 26507,
    "rawling": 21634,
    "Ġmistaken": 4986,
    "Ġtreatise": 19343,
    "Ġexcuse": 5861,
    "Ġconfide": 13096,
    "vering": 15712,
    "Ġconvers": 2907,
    "Ġprotesting": 14739,
    "Ġpained": 19166,
    "explanations": 25234,
    "ipper": 13738,
    "Ġdefection": 22940,
    "jacket": 12289,
    "Ġdoors": 6418,
    "stretching": 20497,
    "living": 7133,
    "unning": 4493,
    "Ġapartment": 6633,
    "fear": 8513,
    "iary": 15368,
    "Ġblan": 18816,
    "Ġcontradicted": 20210,
    "Ġfriesland": 26441,
    "Ġretired": 6071,
    "Ġhenry": 5197,
    "Ġcouples": 16851,
    "increased": 20269,
    "bewil": 22496,
    "pile": 17628,
    "sure": 5522,
    "luyt": 18459,
    "alled": 5911,
    "onist": 21249,
    "Ġelder": 7224,
    "Ġdictionaries": 12337,
    "iments": 4945,
    "Ġvainly": 9922,
    "moderate": 22827,
    "Ġfusion": 21413,
    "everybody": 8610,
    "Ġmouse": 4694,
    "Ġattribute": 16094,
    "Ġ128": 24472,
    "pleasures": 24043,
    "Ġhabits": 6926,
    "spanish": 14333,
    "Ġirregularly": 25323,
    "Ġdevices": 2942,
    "nay": 7135,
    "knives": 14911,
    "Ġamber": 7026,
    "grounds": 11150,
    "Ġbottled": 23794,
    "rough": 590,
    "Ġfif": 4219,
    "ihood": 20921,
    "Ġninety": 13599,
    "allowance": 16823,
    "Ġ120": 16857,
    "Ġextravagance": 17278,
    "Ġlimping": 23544,
    "Ġmeasurement": 19421,
    "Ġspinal": 12299,
    "Ġbye": 12734,
    "Ġneighbourhood": 5126,
    "extent": 22767,
    "Ġunnearable": 26515,
    "ben": 4926,
    "Ġans": 1642,
    "Ġthickets": 24020,
    "Ġuninhabited": 22047,
    "usually": 10283,
    "Ġcomfortless": 23910,
    "Ġgirth": 13134,
    "Ġpassage": 3884,
    "Ġcanes": 22161,
    "oud": 1940,
    "Ġpaused": 5416,
    "engagement": 14456,
    "Ġowner": 8920,
    "absolute": 17121,
    "Ġaffirmative": 15220,
    "Ġcoolness": 16885,
    "Ġnon": 1624,
    "quet": 6835,
    "Ġconsent": 5372,
    "Ġserves": 4669,
    "Ġaffect": 1385,
    "hauled": 20667,
    "heric": 15908,
    "Ġsusp": 2663,
    "Ġencourages": 2060,
    "@": 36,
    "Ġcreamy": 14331,
    "Ġwantonly": 22891,
    "Ġsulk": 15044,
    "ated": 720,
    "Ġpropagating": 20632,
    "Ġbuckets": 17033,
    "Ġeditions": 19120,
    "gress": 2214,
    "Ġattendant": 11284,
    "Ġdust": 5909,
    "Ġnote": 4265,
    "fiend": 13659,
    "Ġmaggie": 26291,
    "Ġrecommence": 16811,
    "distrust": 19569,
    "compose": 24029,
    "Ġnorton": 12645,
    "Ġmerrily": 23730,
    "throughout": 24084,
    "ffy": 18317,
    "Ġwallet": 21297,
    "charlotte": 6473,
    "Ġdeepest": 8213,
    "Ġwitnessed": 14842,
    "ginger": 13161,
    "Ġsutherland": 10147,
    "satisf": 5781,
    "Ġeels": 21618,
    "ipp": 10101,
    "Ġpore": 21457,
    "Ġbelief": 5855,
    "Ġantiqu": 12141,
    "Ġdialogue": 12401,
    "Ġrespectful": 16342,
    "Ġvaluable": 5607,
    "Ġsword": 6732,
    "Ġkrem": 9724,
    "Ġreveries": 11346,
    "Ġprotect": 6337,
    "Ġlistened": 4469,
    "Ġmitt": 21306,
    "uck": 1235,
    "Ġcovari": 2337,
    "cannibal": 15222,
    "agation": 1224,
    "Ġ81": 24456,
    "Ġmeditating": 20041,
    "ĠĠĠ": 2116,
    "Ġhard": 1444,
    "pede": 19843,
    "Ġjoin": 4853,
    "Ġsettee": 22919,
    "encouragement": 17421,
    "Ġevening": 2653,
    "Ġmiracle": 15091,
    "renadier": 18419,
    "rimshander": 20656,
    "Ġactionable": 24558,
    "height": 21204,
    "morland": 24152,
    "Ġcopy": 10162,
    "Ġseason": 5237,
    "Ġstirring": 10578,
    "Ġrecompense": 14836,
    "Ġbold": 5291,
    "Ġreserved": 7515,
    "bert": 4663,
    "Ġcabinet": 23859,
    "Ġbunger": 9994,
    "Ġorigin": 4119,
    "stripped": 16944,
    "rad": 2256,
    "Ġblade": 11890,
    "Ġtawn": 13821,
    "Ġcurb": 16243,
    "methodically": 20663,
    "consent": 18502,
    "bulwarks": 12269,
    "scene": 14417,
    "Ç": 136,
    "Ġspermacetti": 19049,
    "Ġparacels": 13665,
    "Ġcanaan": 22164,
    "Ġsit": 4218,
    "Ġuplifted": 11645,
    "Ġsnatching": 10471,
    "Ġforeboding": 20382,
    "mates": 5073,
    "Ġexposes": 22623,
    "Ġjeroboam": 10599,
    "Ġslow": 2378,
    "tedious": 22631,
    "Ġinsens": 8277,
    "Ġstepfather": 7221,
    "Ġhams": 16611,
    "Ġconjugal": 25101,
    "amet": 583,
    "Ġwrithed": 17105,
    "Ġchuck": 8501,
    "elephant": 12348,
    "Ġbias": 1191,
    "conve": 14242,
    "Ġ0": 1902,
    "Ġglow": 7170,
    "training": 2520,
    "mediterranean": 16400,
    "flesh": 13488,
    "Ġlove": 2053,
    "Ġeverywhere": 9794,
    "Ġagony": 5388,
    "Ġhusbands": 16641,
    "Ġsne": 6372,
    "Ġhid": 1317,
    "Ġungod": 22020,
    "admire": 24943,
    "Ġthinks": 6169,
    "Ġexplo": 2283,
    "shorn": 22457,
    "Ġowed": 10779,
    "ess": 411,
    "lers": 10105,
    "Ġsche": 1704,
    "oriental": 23719,
    "Ġchisel": 20366,
    "Ġroundabout": 23059,
    "iture": 5696,
    "Ġdeceive": 12718,
    "Ġresume": 18565,
    "Ġmournful": 12333,
    "Ġtransc": 12860,
    "Ġpicturesque": 14892,
    "Ġparsee": 6413,
    "Ġnotable": 18222,
    "Ġequilib": 4135,
    "asible": 21540,
    "Ġhomage": 12352,
    "ĠĠĠĠĠĠĠĠĠĠĠĠĠĠĠĠĠĠĠĠĠĠĠĠĠĠĠĠ": 9973,
    "pushed": 21022,
    "intments": 18820,
    "menced": 23144,
    "Ġmummy": 25768,
    "jub": 20928,
    "dreams": 12334,
    "Ġconfinement": 19039,
    "ĠĠĠĠĠĠĠĠĠĠĠĠĠĠĠĠĠĠĠ": 22948,
    "redible": 15801,
    "lydia": 6826,
    "endom": 15920,
    "hro": 20890,
    "Ġworshipped": 25691,
    "deep": 1018,
    "approaching": 15010,
    "Ġreproachfully": 25251,
    "Ġcoldly": 14649,
    "Ġdecomposes": 5506,
    "calabash": 22894,
    "Ġbasement": 24702,
    "Ġwant": 1114,
    "Ġascend": 9958,
    "elve": 4642,
    "infor": 3004,
    "emy": 14071,
    "Ġinspiring": 19112,
    "screen": 22989,
    "deficient": 23117,
    "Ġspouter": 12794,
    "opence": 18506,
    "esc": 619,
    "zas": 17711,
    "Ġvestige": 20061,
    "Ġforth": 3462,
    "stalk": 21642,
    "Ġstro": 4596,
    "Ġdevoting": 22722,
    "Ġvenom": 24237,
    "Ġgrove": 12143,
    "inced": 3338,
    "Ġfugitives": 25634,
    "Ġextracted": 16299,
    "Ġdecided": 5471,
    "Ġhideous": 5983,
    "Ġquill": 12853,
    "Ġlovers": 9718,
    "Ġjudge": 5502,
    "consternation": 16911,
    "deceit": 25556,
    "Ġwhitt": 18054,
    "ourse": 8868,
    "Ġrecklessness": 24745,
    "operations": 19973,
    "Ġvictory": 16652,
    "Ġold": 1057,
    "avier": 2834,
    "Ġunrelieved": 20544,
    "gree": 10700,
    "Ġheedless": 14901,
    "Ġillinois": 19136,
    "Ġsulky": 13513,
    "Ġbled": 17856,
    "Ġrascally": 26505,
    "Ġarab": 7824,
    "Ġrabb": 4161,
    "Ġsomebody": 7913,
    "Ġsticks": 14929,
    "ĠĠĠĠĠĠĠĠĠĠĠĠĠĠĠĠĠĠĠĠĠĠĠĠĠĠĠĠĠĠĠĠĠĠĠĠĠĠĠĠĠĠ": 24208,
    "umerable": 11722,
    "ig": 322,
    "Ġprefer": 6416,
    "fred": 20854,
    "Ġsewing": 21959,
    "ench": 21278,
    "etw": 406,
    "Ġwail": 21285,
    "Ġhavoc": 15810,
    "ividual": 5463,
    "ctic": 8442,
    "Ġinfluence": 5515,
    "Ġcash": 9651,
    "atious": 10150,
    "Ġforbade": 15212,
    "Ġsunny": 13083,
    "lux": 14225,
    "Ġced": 10783,
    "Ġindisc": 16225,
    "thing": 1481,
    "Ġelse": 2482,
    "voice": 7817,
    "Ġsandwic": 24664,
    "horn": 8086,
    "ras": 21035,
    "tray": 21076,
    "borean": 25743,
    "abashed": 21790,
    "cre": 4252,
    "Ġwhether": 2000,
    "mere": 11852,
    "Ġexclaiming": 13639,
    "Ġoctober": 17225,
    "Ġwearisome": 19794,
    "Ġhas": 826,
    "Ġbrush": 17864,
    "Ġathe": 17740,
    "Ġent": 904,
    "mechan": 11854,
    "Ġworshipping": 22926,
    "ckery": 22088,
    "ama": 11675,
    "Ġmetal": 9387,
    "dread": 8728,
    "Ġpuffing": 12251,
    "Ġfortune": 4241,
    "Ġrepairing": 25589,
    "Ġsentiment": 6589,
    "Ġshuddered": 11299,
    "Ġhatter": 4111,
    "Ġwane": 21287,
    "Ġhundreds": 4329,
    "obtain": 23091,
    "ining": 3223,
    "Ġinfrequent": 3824,
    "bub": 15314,
    "Ġyoun": 1409,
    "Ġeggs": 12339,
    "angu": 570,
    "Ġsell": 7826,
    "99": 1895,
    "vent": 683,
    "alive": 10826,
    "lizzy": 6651,
    "Ġascendency": 20231,
    "Ġitself": 2524,
    "Ġuncivil": 11154,
    "pro": 2049,
    "Ġlingering": 11378,
    "Ġdelivery": 18975,
    "ques": 2843,
    "Ġlandsman": 11349,
    "Ġarsacidean": 20363,
    "Ġwas": 370,
    "smo": 10124,
    "Ġlist": 2365,
    "Ġclouded": 13288,
    "Ġsalutation": 12394,
    "Ġunsupervised": 2473,
    "Ġsighed": 10336,
    "Ġfeatures": 1434,
    "alarms": 21503,
    "Ġfondly": 19615,
    "quent": 2095,
    "Ġparc": 10919,
    "Ġexclusion": 19394,
    "Ġheightens": 24153,
    "Ġrestricted": 19025,
    "Ġsepulchre": 20558,
    "berries": 22719,
    "inition": 11555,
    "Ġklux": 22193,
    "Ġthy": 2516,
    "befall": 22493,
    "Ġsimon": 5172,
    "Ġmoral": 6579,
    "Ġdelight": 2549,
    "Ġlodged": 11251,
    "exped": 16524,
    "Ġbehoo": 19035,
    "Ġinitialization": 1255,
    "answers": 22138,
    "ote": 4597,
    "Ġsins": 13835,
    "Ġdod": 6672,
    "Ġweigh": 10892,
    "Ġcomposed": 8891,
    "Ġassumed": 9464,
    "sen": 21048,
    "W": 59,
    "cture": 15661,
    "Ġassoc": 6402,
    "perplex": 18340,
    "superiority": 20184,
    "Ġsofas": 26223,
    "escript": 18471,
    "Ġpavement": 9576,
    "unk": 4540,
    "removing": 17763,
    "dangerous": 20239,
    "weight": 2941,
    "Ġtreat": 3178,
    "Ġdismember": 20214,
    "ray": 2438,
    "fedallah": 25522,
    "playful": 24356,
    "Ġtrout": 22353,
    "Ġwe": 387,
    "Ġalmanac": 26484,
    "Ġplunging": 14950,
    "Ġworker": 23029,
    "zy": 2669,
    "irra": 15781,
    "cas": 20793,
    "Ġquiet": 3263,
    "Ġsin": 1512,
    "corrid": 24483,
    "Ġannoy": 17197,
    "Ġcolonnades": 26275,
    "Ġviews": 7290,
    "ilations": 21720,
    "saving": 21058,
    "Ġn": 300,
    "severe": 21816,
    "Ġdipped": 15591,
    "accursed": 20539,
    "Ġcataract": 23426,
    "Ġhue": 8429,
    "Ġforce": 5092,
    "pl": 401,
    "Ġadhes": 22104,
    "Ġoutwardly": 25000,
    "Ġcoun": 4178,
    "Ġmug": 21311,
    "Ġveneration": 25044,
    "à": 161,
    "Ġqueen": 3215,
    "Ġopening": 5045,
    "b": 70,
    "cerem": 15674,
    "suddenly": 6493,
    "Ġjago": 22297,
    "prior": 21031,
    "Ġbacks": 8528,
    "fem": 17536,
    "Ġgone": 2107,
    "americ": 8156,
    "igms": 3049,
    "Ġpositives": 4318,
    "Ġcomplex": 743,
    "Ġsmiling": 5475,
    "Ġripp": 11218,
    "dances": 17520,
    "Ġimperfect": 13337,
    "towns": 24854,
    "Ġadapt": 1053,
    "Ġaccountability": 10437,
    "indust": 18435,
    "hend": 13249,
    "Ġpunctually": 17137,
    "Ġbask": 8117,
    "print": 23809,
    "ĠĠĠĠĠĠĠĠĠĠĠĠĠĠĠĠĠĠĠĠĠĠĠĠĠĠĠĠĠĠĠĠĠĠĠĠĠĠĠĠĠ": 19581,
    "pretend": 24882,
    "Ġcreditor": 24289,
    "Ġsupers": 18280,
    "Ġjumping": 13339,
    "Ġgenial": 12191,
    "john": 11496,
    "Ġdesolated": 24812,
    "Ġdisposal": 19374,
    "wilful": 25086,
    "Ġceremonies": 24836,
    "Ġmonosy": 18845,
    "Ġtimes": 2302,
    "Ġinjuring": 24267,
    "Ġmizzen": 20288,
    "Ġdowncast": 18651,
    "Ġcrystal": 17213,
    ".âĢĿ": 464,
    "number": 10113,
    "chop": 21686,
    "Ġafterwards": 3528,
    "Ġrepublic": 14530,
    "fixed": 7548,
    "verbally": 25360,
    "omon": 10206,
    "uctive": 17695,
    "Ġsubl": 7235,
    "Ġuniversally": 11996,
    "hug": 17562,
    "Ġconcise": 23321,
    "Ġfatig": 6756,
    "bourne": 19102,
    "Ġconjectured": 9995,
    "stranded": 19225,
    "Ġphilipses": 24451,
    "Ġclubs": 25179,
    "stump": 21645,
    "Ġprey": 6415,
    "philosophy": 13578,
    "Ġmonstr": 7667,
    "Ġvia": 2381,
    "Ġjoes": 19230,
    "Ġhurried": 4032,
    "Ġexcurs": 23313,
    "Ġintuitions": 17339,
    "Ġsuspend": 14607,
    "Ġstrings": 11826,
    "especially": 3570,
    "did": 3198,
    "unsupervised": 10888,
    "take": 4577,
    "Ġstates": 1851,
    "Ġcream": 22724,
    "beth": 13686,
    "mb": 910,
    "Ġtrod": 15025,
    "Ġundressed": 19512,
    "Ġpresentiment": 18989,
    "Ġfed": 5529,
    "hertfordshire": 10935,
    "enthusiastic": 20691,
    "Ġdelay": 5748,
    "Ġfidelity": 15239,
    "Ġblotches": 25314,
    "cur": 3272,
    "oat": 13762,
    "Ġincantation": 26257,
    "shroud": 20311,
    "Ġnursery": 19749,
    "Ġimaginations": 16516,
    "Ġnonsensical": 21527,
    "brace": 16941,
    "pread": 7418,
    "Ġaperture": 26160,
    "handkerchief": 14617,
    "Ġstark": 7390,
    "Ġwoe": 4793,
    "Ġsubsets": 2344,
    "Ġdistribut": 842,
    "ryder": 18646,
    "inations": 7567,
    "cred": 9106,
    "bering": 18682,
    "Ġintellect": 8170,
    "Ġerie": 20052,
    "Ġunsh": 14113,
    "precaution": 23820,
    "aled": 3944,
    "Ġobligations": 12088,
    "shrouded": 26361,
    "mospheric": 17090,
    "ĸ": 249,
    "Ġsquid": 11875,
    "Ġmassacre": 20546,
    "mind": 4627,
    "Ġboundary": 11221,
    "chors": 11642,
    "ning": 949,
    "Ġensigns": 23688,
    "Ġwest": 5219,
    "perquis": 22184,
    "Ġomin": 11575,
    "Ġhell": 5019,
    "Ġleague": 6538,
    "Ġ166": 25004,
    "imental": 16532,
    "Ġtelescope": 17346,
    "Ġoy": 15542,
    "els": 1763,
    "state": 13972,
    "government": 25406,
    "ial": 410,
    "Ġcoupled": 16850,
    "Ġhuggins": 24828,
    "Ġmood": 6276,
    "stopping": 19348,
    "aton": 21257,
    "Ġmundane": 26428,
    "tranquillity": 20545,
    "Ġangry": 5498,
    "Ġkra": 18348,
    "Ġeaglet": 19303,
    "Ġemblaz": 16231,
    "Ġbigger": 19760,
    "served": 5043,
    "reposed": 24491,
    "aven": 8209,
    "Ġsupported": 9816,
    "Ġsur": 2184,
    "Ġnursing": 12211,
    "continual": 20643,
    "fetch": 12461,
    "serv": 7451,
    "Ġgreatness": 12940,
    "Ġdiscrimination": 23604,
    "Ġsensation": 6896,
    "Ġere": 3683,
    "Ġclimb": 15077,
    "Ġfitly": 23996,
    "Ġletting": 10359,
    "Ġbob": 22634,
    "Ġrefined": 18699,
    "Ġgums": 21609,
    "Ġwidth": 16771,
    "Ġcities": 17827,
    "ong": 537,
    "Ġgritted": 22803,
    "ugal": 19019,
    "baron": 24925,
    "Ġbeth": 9656,
    "Ġprints": 16328,
    "Ġacted": 7422,
    "Ġath": 15798,
    "Ġbrawny": 13611,
    "Ġsen": 9155,
    "uttermost": 24940,
    "Ġpaddington": 17094,
    "iter": 4392,
    "Ġwoodcock": 19162,
    "Ġhour": 1812,
    "Ġostentatious": 25736,
    "myst": 9820,
    "Ġhabitual": 24790,
    "Ġtemple": 7653,
    "Ġborrow": 10169,
    "winter": 10739,
    "presbyterian": 26368,
    "currents": 23842,
    "about": 3584,
    "Ġsorely": 17255,
    "Ġbert": 4583,
    "Ġeludes": 26553,
    "Ġcan": 469,
    "profess": 10633,
    "amusement": 15280,
    "Ġdeserving": 14751,
    "Ġhasty": 10476,
    "Ġegypt": 9677,
    "details": 19674,
    "wretch": 17707,
    "tain": 558,
    "Ġwidower": 24234,
    "Ġrapture": 13494,
    "Ġdate": 7842,
    "phr": 18703,
    "Ġafore": 10757,
    "Ġpersisted": 13038,
    "inordinate": 21193,
    "Ġfiltering": 23923,
    "ounds": 4155,
    "Ġworthy": 7241,
    "ory": 1082,
    "ur": 326,
    "irms": 18168,
    "couldn": 23716,
    "Ġsavor": 23873,
    "Ġnormalizing": 1822,
    "wearing": 22685,
    "Ġdimly": 9486,
    "ching": 5156,
    "Ġdisguise": 10044,
    "Ġ199": 3010,
    "Ġtradesmen": 17104,
    "mountains": 15178,
    "Ġhertfordshire": 5377,
    "Ġwhales": 1828,
    "Ġupstairs": 5836,
    "lob": 22504,
    "resolution": 17765,
    "fic": 20851,
    "Ġlocker": 16910,
    "Ġlittle": 867,
    "ol": 362,
    "ely": 624,
    "tered": 2230,
    "Ġshuttle": 12123,
    "Ġsaviour": 20712,
    "Ġbrilliancy": 20105,
    "Ġmouldy": 14972,
    "Ġhuddled": 20298,
    "Ġtornado": 24622,
    "Ġpretext": 22227,
    "Ġhackluyt": 25655,
    "Ġtire": 17719,
    "ler": 3489,
    "ivers": 1983,
    "Ġtowing": 9192,
    "idy": 21762,
    "mate": 5358,
    "quered": 11052,
    "abroad": 18108,
    "Ġspir": 2430,
    "dost": 14534,
    "Ġwithdrew": 9694,
    "Ġinforming": 18740,
    "Ġunwarranted": 25171,
    "Ġid": 1908,
    "bellies": 19972,
    "Ġalter": 6542,
    "waist": 13416,
    "Ġ1869": 19382,
    "favouring": 24762,
    "oriously": 17874,
    "Ġdiana": 21435,
    "Ġmounting": 19975,
    "Ġconceal": 5974,
    "hip": 8740,
    "Ġconcealment": 16913,
    "Ġdances": 10811,
    "Ġmaintain": 858,
    "endering": 21283,
    "Ġaverred": 18865,
    "Ġreneg": 21673,
    "Ġoft": 9193,
    "Ġunwearied": 20601,
    "wherever": 13116,
    "regulated": 23466,
    "ishing": 1143,
    "Ġneighb": 14074,
    "Ġdeclare": 6614,
    "Ġdashed": 6010,
    "Ġcurds": 23001,
    "acific": 4960,
    "Ġcoronation": 13331,
    "tornadoes": 26153,
    "nial": 20983,
    "Ġbour": 4876,
    "Ġintim": 6838,
    "chari": 21687,
    "Ġthese": 822,
    "Ġaction": 5796,
    "Ġpunchbowl": 20230,
    "mouse": 15390,
    "tiest": 21080,
    "Ġincorpor": 13163,
    "invisible": 17739,
    "Ġlists": 11165,
    "Ġdiffidence": 14658,
    "Ġspecimen": 13015,
    "Ġbuttons": 12777,
    "caves": 20815,
    "Ġexh": 5232,
    "Ġmechanism": 2295,
    "Ġweight": 657,
    "ity": 417,
    "Ġcurtain": 14418,
    "Ġadmission": 23553,
    "retirement": 23137,
    "Ġenslaved": 26314,
    "Ġsurrounds": 24230,
    "Ġfolding": 19725,
    "Ġpresence": 5031,
    "Ġwatchman": 23668,
    "wic": 21119,
    "ack": 611,
    "grat": 5052,
    "Ġinsurmountable": 16530,
    "pronounce": 25192,
    "Ġstiffly": 15004,
    "Ġgrain": 15828,
    "Ġinc": 702,
    "Ġchamois": 16799,
    "Ġpreprocessing": 26535,
    "bra": 6219,
    "persuasion": 20042,
    "Ġpersian": 11092,
    "Q": 53,
    "Ġranges": 2884,
    "Ġriverside": 25247,
    "Ġpetersburgh": 24227,
    "ercely": 12546,
    "----âĢĿ": 13304,
    "Ġasp": 15777,
    "hastening": 24447,
    "tting": 17679,
    "doors": 19094,
    "Ġdeaden": 23459,
    "Ġraised": 4661,
    "âĢĻ,": 14068,
    "Ġcombing": 22867,
    "Ġtrains": 10946,
    "Ġpaste": 23417,
    "Ġswim": 3820,
    "robber": 21535,
    "®": 111,
    "Ġfiend": 4412,
    "Ġcrews": 8989,
    "Ġcommander": 8624,
    "Ġcrows": 24028,
    "Ġvexed": 9992,
    "Ġslept": 8259,
    "Ġmagnific": 16317,
    "acup": 14258,
    "Ġactivity": 7921,
    "olly": 3227,
    "overlooked": 23322,
    "Ġjem": 18402,
    "wandering": 20283,
    "itering": 17818,
    "Ġmodel": 510,
    "Ġdost": 7636,
    "Ġassuring": 13060,
    "Ġbesides": 3511,
    "Ġsitt": 21216,
    "scattered": 22988,
    "Ġsale": 14153,
    "itate": 6667,
    "ezes": 9989,
    "Ġvelocity": 10619,
    "ford": 2826,
    "Ġphilosop": 5057,
    "gypt": 8261,
    "tained": 4406,
    "Ġemblazonings": 26042,
    "Ġtanning": 17728,
    "uel": 6966,
    "rine": 21036,
    "Ġsoles": 22074,
    "Ġoriginate": 24120,
    "Ġpromises": 10399,
    "Ġfiends": 14826,
    "}": 97,
    "contained": 22470,
    "superior": 9523,
    "rior": 12737,
    "Ġactual": 3736,
    "Ġswearing": 16462,
    "pute": 8843,
    "Ġrefresh": 10344,
    "Ġmagnificent": 9840,
    "Ġdusk": 12324,
    "Ġwollstonecraft": 26424,
    "brother": 7091,
    "anted": 5027,
    "Ġm": 274,
    "Ġsangu": 15502,
    "Ġrainy": 24340,
    "Ġeag": 2967,
    "returned": 7766,
    "imin": 1768,
    "thumb": 18218,
    "Ġunqualified": 22057,
    "float": 19804,
    "Ġdep": 751,
    "waited": 24586,
    "Ġpeg": 22687,
    "character": 6331,
    "Ġspoke": 2748,
    "Ġunass": 14112,
    "oam": 8751,
    "Ġyields": 19655,
    "Ġerecting": 24652,
    "Ġegot": 18007,
    "Ġrecovered": 5481,
    "Ġfrosts": 19801,
    "Ġnet": 3624,
    "Ġalmost": 1657,
    "captain": 3954,
    "Ġweeps": 24947,
    "Ġsmack": 9298,
    "Ġliter": 8810,
    "Ġbrit": 6289,
    "Ġfist": 21402,
    "Ġreclining": 26033,
    "Ġtremulous": 14984,
    "render": 10289,
    "Ġph": 1550,
    "Ġchocks": 13343,
    "stern": 7862,
    "Ġpiling": 17910,
    "ackinaw": 22419,
    "rints": 12499,
    "Ġishmael": 7395,
    "Ġhazarded": 25654,
    "hearth": 15497,
    "blacksmith": 17000,
    "Ġunobstructed": 18264,
    "Ġberths": 20113,
    "Ġon": 353,
    "really": 6971,
    "Ġduty": 4070,
    "Ġenvironments": 24111,
    "Ġbred": 9168,
    "Ġbl": 1190,
    "Ġnib": 13938,
    "suff": 4961,
    "Ġgrew": 5182,
    "Ġlawn": 7379,
    "Ġwishes": 4795,
    "Ġglue": 15670,
    "Ġmotion": 4567,
    "Ġhumans": 8928,
    "bad": 12433,
    "Ġunimaginable": 15244,
    "Ġmarch": 4081,
    "surrounded": 26088,
    "Ġlac": 17964,
    "Ġbrahma": 26319,
    "chan": 1162,
    "Ġploughing": 26259,
    "Ġpoisoned": 24886,
    "Ġdivined": 19441,
    "Ġpatagon": 14504,
    "Ġwhistles": 24625,
    "iliating": 12691,
    "pense": 10367,
    "Ġpurplish": 19140,
    "smeer": 26147,
    "Ġjokes": 18408,
    "Ġtand": 21159,
    "Ġpossessing": 16574,
    "Ġbubblingly": 25632,
    "Ġimmediately": 3367,
    "Ġparameters": 992,
    "Ġwhis": 3502,
    "Ġsentiments": 7961,
    "Ġlaz": 7378,
    "Ġchilled": 18382,
    "Ġmarsh": 9819,
    "hopes": 15367,
    "Ġscales": 4849,
    "Ġinterment": 22573,
    "mangled": 20980,
    "tempestuous": 26097,
    "swells": 26148,
    "ves": 693,
    "Ġreturn": 1709,
    "sleepers": 24730,
    "Ġrang": 9243,
    "Ġstrategies": 1839,
    "rather": 5430,
    "ault": 2306,
    "Ġpolynes": 16079,
    "Ġbulk": 5590,
    "mortal": 10111,
    "iscient": 17851,
    "zes": 11547,
    "Ġexeget": 24083,
    "Ġstern": 4188,
    "Ġcandelab": 23846,
    "Ġexult": 10228,
    "Ġcontemplated": 13462,
    "ront": 15416,
    "food": 12460,
    "piece": 6655,
    "Ġdra": 1593,
    "da": 17513,
    "....": 11315,
    "Ġconsiderable": 4007,
    "Ġgpt": 4352,
    "tumultuously": 25613,
    "÷": 184,
    "olent": 8155,
    "estic": 4956,
    "Ġherds": 9714,
    "Ġconvolutions": 21805,
    "Ġimplac": 24874,
    "Ġinvolve": 11039,
    "ellation": 12746,
    "odes": 18116,
    "Ġscheme": 7064,
    "Ġpiny": 21469,
    "Ġannihilated": 20251,
    "Ġinseparable": 20687,
    "hers": 7635,
    "Ġattachment": 6050,
    "allen": 22194,
    "Ġop": 2603,
    "Ġjournal": 15216,
    "nal": 1901,
    "Ġsentimental": 24754,
    "Ġdishonor": 25601,
    "Ġworkman": 16255,
    "Ġfa": 4819,
    "Ġobstetrics": 24678,
    "elaborate": 21574,
    "Ġgrop": 12660,
    "Ġcircumnavigating": 25614,
    "Ġplainpal": 19276,
    "Ġstalk": 12693,
    "complexion": 14363,
    "Ġgrowth": 14628,
    "Ġnot": 413,
    "ters": 1575,
    "Ġbattle": 5908,
    "Ġbeat": 4491,
    "Ġnightgown": 23131,
    "Ġrecalled": 8537,
    "Ġarri": 2554,
    "Ġrole": 15993,
    "Ġsingle": 1691,
    "Ġdollar": 25283,
    "untarily": 6312,
    "values": 4973,
    "<PAD>": 0,
    "Ġcalculating": 9923,
    "inct": 3295,
    "Ġmoist": 9283,
    "bee": 16035,
    "Ġmistake": 6203,
    "Ġsurviving": 24638,
    "carefully": 13366,
    "Ġexcell": 10416,
    "Ġgreenland": 5761,
    "aneous": 7240,
    "Ġspan": 11725,
    "Ġjun": 8505,
    "Ġberg": 24535,
    "Ġlongest": 18627,
    "obliv": 23094,
    "Ġobser": 2069,
    "Ġbabel": 24425,
    "successively": 24779,
    "Ġnegatived": 23046,
    "Ġstript": 23693,
    "Ġwasted": 9702,
    "zwilliam": 5074,
    "Ġanalog": 12608,
    "Ġtrip": 16787,
    "Ġreverse": 16981,
    "||": 4869,
    "Ġtree": 5284,
    "Ġentrance": 7233,
    "Ġlap": 8437,
    "Ġforged": 12700,
    "sad": 11519,
    "_;": 6640,
    "Ġperishing": 22395,
    "au": 777,
    "chastic": 2333,
    "Ġattaining": 15800,
    "Ġpuzz": 5532,
    "Ġfire": 2332,
    "Ġsurgeon": 8980,
    "Ġembarked": 17133,
    "ispensable": 9094,
    "notice": 16144,
    "Ġuncompromised": 20602,
    "Ġrecol": 4029,
    "Ġyon": 9691,
    "Ġcemeteries": 26375,
    "footman": 17161,
    "Ġrobust": 1324,
    "ividually": 22086,
    "bulk": 19923,
    "Ġ127": 24471,
    "uccas": 21105,
    "Ġdominant": 12393,
    "Ġclank": 15961,
    "finds": 19926,
    "ceed": 1073,
    "Ġbou": 17852,
    "ove": 1743,
    "Ġ102": 24409,
    "Ġunparalleled": 15850,
    "biting": 20779,
    "agement": 4189,
    "Ġcanterbury": 22165,
    "Ġlives": 4825,
    "naturalists": 23533,
    "Ġcarr": 23088,
    "Ġleg": 2334,
    "Ġoutputs": 2887,
    "Ġneutral": 12740,
    "inferior": 12391,
    "intentions": 22937,
    "Ġrepresentation": 14403,
    "summoned": 26590,
    "thickness": 25367,
    "ailing": 7021,
    "inisc": 15486,
    "sick": 13782,
    "feature": 3914,
    "Ġyell": 21775,
    "guard": 12125,
    "Ġbosom": 6939,
    "hope": 5990,
    "Ġrugged": 18719,
    "Ġimpelling": 22383,
    "Ġzig": 18741,
    "Ġinarticulate": 21498,
    "Ġinmates": 15619,
    "uncle": 8159,
    "Ġdrop": 4346,
    "Ġpretend": 7722,
    "Ġstat": 1491,
    "nowled": 5470,
    "mare": 17598,
    "rible": 3229,
    "sleeve": 26108,
    "Ġunche": 23427,
    "Ġofficially": 24838,
    "Ġcrackling": 24960,
    "Ġkitty": 3909,
    "Ġbingley": 1675,
    "computer": 2094,
    "visit": 7755,
    "Ġexpressly": 16452,
    "rown": 2192,
    "sartain": 25622,
    "osely": 9263,
    "Ġscience": 1534,
    ".]": 15296,
    "ibule": 13003,
    "xter": 9145,
    "motives": 26137,
    "prepare": 20211,
    "Ġberyl": 20488,
    "Ġpencil": 11940,
    "ency": 3868,
    "Ġdisappointment": 6626,
    "provid": 11148,
    "palms": 25262,
    "Ġtransform": 747,
    "Ń": 260,
    "Ġjamming": 17263,
    "st": 315,
    "nights": 16447,
    "Ġrelate": 6875,
    "Ġunprofitable": 18267,
    "Ġlatin": 16820,
    "Ġconvincing": 19306,
    "asp": 3342,
    "dum": 17517,
    "Ġinhabitant": 19754,
    "poky": 17643,
    "Ġtherein": 11773,
    "Ġsubstitute": 16725,
    "Ġmam": 8405,
    "suppose": 8644,
    "Ġscuttle": 7414,
    "Ġsubset": 9868,
    "Ġbrain": 2088,
    "quarters": 24946,
    "waste": 21133,
    "Ġasser": 6257,
    "Ġdow": 17886,
    "whispered": 20032,
    "Ġincess": 8431,
    "Ġtoad": 21508,
    "purp": 8091,
    "Ġtimber": 13347,
    "Ġheighten": 19528,
    "Ġangular": 19207,
    "Ġjavan": 24999,
    "acency": 12893,
    "Ġrock": 5310,
    "Ġdiscomposure": 20377,
    "Ġpleated": 16294,
    "Ġwrenched": 12554,
    "Ġrecom": 4556,
    "ez": 5683,
    "bath": 13687,
    "Ġfind": 1460,
    "Ġtoilet": 13935,
    "bweb": 20790,
    "iamond": 14589,
    "Ġcoleman": 22584,
    "wedded": 24338,
    "tempered": 13444,
    "endeavour": 17030,
    "Ġcrater": 16437,
    "Ġasserted": 16948,
    "gul": 12462,
    "emper": 18180,
    "Ġabed": 22263,
    "cious": 6643,
    "Ġbraided": 16580,
    "Ġscenari": 22290,
    "Ġdelicately": 24124,
    "Ġlawy": 9452,
    "ush": 3629,
    "Ġsaville": 15886,
    "drew": 7334,
    "Ġelbowed": 16107,
    "rim": 7137,
    "Ġcease": 7076,
    "third": 8168,
    "Ġbodings": 21389,
    "Ġsurplus": 26303,
    "Ġmahogany": 20576,
    "pend": 6367,
    "igin": 3654,
    "Ġfr": 1695,
    "Ľ": 254,
    "Ġpolic": 13159,
    "Ġbeaches": 18084,
    "Ġmature": 17799,
    "Ġbulky": 13226,
    "Ġdemon": 7870,
    "Ġperf": 12845,
    "Ġfragments": 19030,
    "fisher": 7547,
    "raised": 15675,
    "Ġsplendour": 20223,
    "aus": 1500,
    "table": 5795,
    "comp": 3816,
    "Ġferrule": 24516,
    "Ġmarket": 7709,
    "uc": 1875,
    "Ġpertin": 18449,
    "wholly": 10940,
    "pall": 17627,
    "Ġamounted": 18513,
    "Ġsplashed": 23746,
    "Ġtouches": 20569,
    "Ġcrystall": 20225,
    "Ġcarriage": 3950,
    "mit": 4933,
    "Ġharp": 17923,
    "clouded": 20330,
    "mechanical": 25578,
    "Ġfrock": 10488,
    "there": 1426,
    "Ġages": 7027,
    "Ġmanagement": 8193,
    "achine": 610,
    "imagination": 13478,
    "Ġ&": 6513,
    "Ġheight": 4222,
    "Ġburnwell": 13265,
    "Ġcaptivating": 26049,
    "ppo": 18175,
    "Ġlikelihood": 16499,
    "inated": 6804,
    "ú": 187,
    "Ġactivation": 918,
    "Ġpeasant": 13549,
    "Ġliking": 23590,
    "Ġsturgeon": 20590,
    "ister": 1294,
    "Ġcorner": 4371,
    "Ġrecovery": 11440,
    "etime": 12655,
    "chron": 21692,
    "Ġproceed": 3245,
    "Ġbundles": 26175,
    "Ġblessings": 24175,
    "creator": 26380,
    "Ġsubmit": 11867,
    "kings": 17582,
    "boo": 16347,
    ",*": 17470,
    "rd": 17648,
    "aze": 10073,
    "Ġsituations": 10490,
    "ensions": 14260,
    "Ġled": 3519,
    "Ġdepart": 4657,
    "Ġbarbed": 14833,
    "Ġslopes": 18940,
    "sharp": 10306,
    "Ġfootmen": 23796,
    "Ġboom": 9308,
    "Ġruminated": 24600,
    "aulding": 11338,
    "Ġwashing": 9703,
    "Ġdeaf": 12717,
    "Ġ=": 1072,
    "simple": 13450,
    "Ġtranquilly": 12287,
    "Ġreceive": 4704,
    "ribs": 23364,
    "Ġpregnant": 26534,
    "Ġsolemnity": 9939,
    "Ġdesisted": 22973,
    "thanked": 24330,
    "piling": 15413,
    "Ġorganizations": 12311,
    "Ġminut": 2204,
    "E": 41,
    "Ġsinful": 18948,
    "penetrating": 25490,
    "Ġbeaks": 21753,
    "Ġexperiment": 11910,
    "inte": 5144,
    "Ġsensations": 5259,
    "uit": 8393,
    "Ġlottery": 19887,
    "lines": 6959,
    "Ġdisengaged": 12885,
    "Ġlaudanum": 20689,
    "ively": 1328,
    "Ġmixture": 9561,
    "Ġquar": 3116,
    "Ġemail": 19072,
    "on": 267,
    "weakness": 16121,
    "hon": 6793,
    "icest": 21562,
    "cell": 10684,
    "Ġdistrusting": 25053,
    "Ġneither": 3684,
    "lest": 5288,
    "Ġ92": 24591,
    "clopÃ¦dia": 15254,
    "adequ": 11019,
    "Ġintroducing": 11972,
    "Ġcomplying": 18585,
    "Ġthrows": 14735,
    "Ġtrue": 1338,
    "cible": 20805,
    "Ġpaintings": 15056,
    "Ġsermons": 20193,
    "scorched": 25697,
    "Ġmotionless": 8324,
    "als": 2041,
    "prophecy": 22836,
    "spell": 22732,
    "strade": 5065,
    "Ġcigarette": 20655,
    "Ġenticements": 26034,
    "izes": 886,
    "Ġnoise": 1068,
    "Ġbears": 6829,
    "amuse": 14050,
    "Ġperennial": 22692,
    "Ġillness": 8589,
    "Ġsombre": 18860,
    "Ġclaimed": 14200,
    "Ġconvul": 13199,
    "necessities": 24305,
    "Ġtuileries": 24826,
    "kins": 7345,
    "lod": 15376,
    "Ġpillows": 24988,
    "prairies": 20565,
    "Ġaversion": 18866,
    "remind": 23186,
    "moreover": 12965,
    "Ġvehem": 22886,
    "Ġsummarization": 3645,
    "vess": 7354,
    "shoe": 14965,
    "Ġbelrive": 18831,
    "Ġwatch": 2744,
    "gon": 17551,
    "Ġdeline": 16329,
    "Ġmodes": 22216,
    "Ġadmeasurements": 26225,
    "Ġwhirl": 13447,
    "Ġrashness": 25460,
    "ific": 490,
    "Ġresolutely": 14608,
    "Ġpassion": 4558,
    "Ġsavannah": 17414,
    "Ġentities": 11861,
    "Ġstartling": 14669,
    "ten": 1558,
    "Ġatrocious": 21941,
    "Ġorph": 9715,
    "shout": 22452,
    "Ġharbors": 24901,
    "foolish": 12344,
    "Ġforthwith": 16617,
    "Ġporpoises": 13380,
    "ins": 1377,
    "walton": 20248,
    "Ġlessen": 14531,
    "Ġapparently": 6778,
    "Ġcompacted": 23506,
    "Ġarom": 15490,
    "misrepresented": 24210,
    "Ġchiswick": 25560,
    "Ġperusal": 14223,
    "Ġupdates": 1298,
    "conversations": 24749,
    "elev": 12455,
    "Ġpositively": 13027,
    "Ġsleepless": 14581,
    "ifice": 7198,
    "youn": 5690,
    "Ġchancery": 20715,
    "Ġopt": 816,
    "Ġstacks": 18074,
    "Ġgiants": 25960,
    "reflection": 13453,
    "Ġrecip": 16138,
    "Ġespecially": 3936,
    "expectations": 24275,
    "Ġtuples": 13475,
    "row": 1065,
    "Ġcircus": 19091,
    "Ġhandles": 22695,
    "Ġpropose": 9851,
    "Ġallen": 5160,
    "Ġpott": 21467,
    "Ġlighting": 13080,
    "cated": 20802,
    "Ġshrew": 21998,
    "Ġjane": 1757,
    "greatly": 16622,
    "Ġminimax": 5858,
    "venor": 16097,
    "Ġpopulation": 16826,
    "urmount": 13994,
    "book": 4670,
    "Ġgreenhorn": 23766,
    "Ġresembling": 4096,
    "Ġpalmy": 19497,
    "very": 500,
    "eric": 3469,
    "Ġfear": 2275,
    "Ġwhaling": 2783,
    "Ġblank": 5951,
    "Ġabominable": 12319,
    "thesize": 24906,
    "Ġmule": 13860,
    "bast": 10075,
    "R": 54,
    "Ġsustenance": 19932,
    "Ġparaphrasing": 26525,
    "Ġobsolete": 26557,
    "asserted": 22307,
    "presently": 9805,
    "brink": 23574,
    "Ġnodding": 23334,
    "Ġlodge": 5779,
    "Ġreplete": 15694,
    "Ġchain": 1843,
    "Ġredden": 15690,
    "impatience": 25500,
    "Ġserving": 14484,
    "Ġquickly": 4242,
    "Ġsadder": 24048,
    "Ġrelationship": 2315,
    "Ġbamboo": 17435,
    "hastened": 16844,
    "guest": 19480,
    "apside": 22958,
    "Ġpouch": 21468,
    "Ġmanhood": 22324,
    "Ġhog": 13922,
    "esley": 17902,
    "neys": 23580,
    "Ġengaged": 3430,
    "Ġgaiters": 20459,
    "univers": 15768,
    "Ġadopted": 15176,
    "Ġruined": 12950,
    "Ġaltered": 7393,
    "Ġfem": 6134,
    "Ġcircumstantial": 14642,
    "Ġtwain": 16116,
    "Ġobservations": 13551,
    "Ġfloats": 9411,
    "Ġweighing": 20014,
    "Ġhosea": 17329,
    "Ġpilgrimage": 17306,
    "Ġpoliceman": 15256,
    "mod": 1024,
    "Ġcombined": 8549,
    "Ġunspeakably": 25172,
    "ufactured": 15179,
    "betrayed": 24640,
    "Ġconstitutes": 13550,
    "ail": 566,
    "reng": 4003,
    "Ġminimum": 23040,
    "Ġgrimes": 11033,
    "Ġfailure": 13312,
    "Ġside": 1386,
    "Ġscaled": 2106,
    "Ġam": 661,
    "Ġaristocratic": 20511,
    "Ġladyship": 5046,
    "Ġpsal": 15612,
    "Ġobvious": 4964,
    "Ġzoned": 22816,
    "Ġdivided": 8631,
    "Ġord": 3734,
    "Ġrestoration": 19024,
    "stirred": 20423,
    "ercial": 21273,
    "!": 5,
    "Ġprelimin": 8859,
    "Ġhorr": 3193,
    "Ġreceiving": 4882,
    "whose": 6852,
    "Ġmystery": 5509,
    "hom": 12470,
    "Ġcontrived": 10302,
    "Ġwatchful": 16526,
    "Ġpeterson": 9481,
    "Ġfejee": 18354,
    "Ġdwelt": 12601,
    "rief": 6202,
    "Ġattent": 4362,
    "inions": 8402,
    "_âĢĿ": 20760,
    "Ġtempt": 5564,
    "hearing": 8403,
    "Ġcatherine": 2815,
    "Ġmin": 1027,
    "Ġuntoward": 19164,
    "Ġreigning": 15697,
    "anguish": 15980,
    "Ġintelligences": 12826,
    "Ġcyp": 21343,
    "Ġfishery": 4174,
    "Ġ124": 24468,
    "Ġocc": 888,
    "Ġrevolved": 9982,
    "Ġtick": 8109,
    "Ģ": 227,
    "Ġyounger": 5252,
    "Ġchatting": 24747,
    "left": 6975,
    "Ġformer": 3324,
    "Ġrejoice": 10207,
    "dislike": 23492,
    "Ġmadness": 6601,
    "quality": 10231,
    "solution": 14685,
    "Ġunerring": 15844,
    "Ġridiculous": 10627,
    "collected": 13211,
    "Ġdifficulty": 5770,
    "Ġoath": 7834,
    "Ġchestnut": 19671,
    "studies": 25166,
    "Ġhearty": 9843,
    "icting": 12847,
    "Ġcomplacency": 19446,
    "furniture": 20241,
    "Ġimpatiently": 8338,
    "fluttering": 23970,
    "Ġ112": 24436,
    "Ġanimal": 2501,
    "igan": 21696,
    "Ġcontrari": 23348,
    "Ġinputs": 843,
    "buttons": 22399,
    "Ġsends": 14788,
    "Ġimpetus": 25569,
    "Ġflogged": 23624,
    "Ġjo": 2609,
    "Ġprogra": 1144,
    "itiously": 13869,
    "Ġaccelerating": 1618,
    "unreasonable": 18162,
    "Ġtore": 6530,
    "establishment": 26113,
    "Ġcoopers": 20520,
    "enemy": 15524,
    "oin": 17616,
    "Ġma": 3255,
    "Ġglanced": 5952,
    "prev": 12863,
    "Ġbarbary": 24215,
    "Ġcorresponding": 13436,
    "fing": 13711,
    "Ġoctavo": 15161,
    "Ġlaughed": 5059,
    "mber": 7804,
    "'m": 9581,
    "Ġtrough": 15967,
    "Ġpreserved": 9260,
    "Ġmorocc": 22972,
    "stooped": 23819,
    "Ġcommunicates": 24546,
    "Ġagrees": 22514,
    "omely": 21657,
    "jewell": 25523,
    "had": 1948,
    "drove": 16992,
    "Ġtil": 12520,
    "Ġjack": 4653,
    "Ġrod": 9278,
    "impossible": 8822,
    "dogs": 25402,
    "invested": 17116,
    "Ġconcerning": 4068,
    "wrapped": 15207,
    "Ġflukes": 5266,
    "Ġtightly": 13532,
    "knows": 19171,
    "Ġsilently": 6895,
    "Ġobliging": 13240,
    "glo": 8737,
    "Ġreverend": 15257,
    "Ġputs": 19034,
    "Ġroughs": 19955,
    "Ġmatrim": 11059,
    "Ġpallid": 12296,
    "Ġdaggoo": 5441,
    "Ġsons": 10765,
    "okers": 18441,
    "slo": 17655,
    "illes": 12690,
    "Ġblasphe": 17405,
    "Ġabst": 9264,
    "pal": 9615,
    "Ġpositions": 2056,
    "Ġsidel": 9634,
    "Ġchanged": 5242,
    "oding": 1464,
    "Ġtyphoon": 12386,
    "sole": 6168,
    "Ġshort": 2225,
    "adam": 15726,
    "shipping": 10307,
    "begging": 22495,
    "Ġspotted": 12135,
    "Ġpolitical": 19223,
    "Ġcure": 21338,
    "Ġblind": 3715,
    "Ġmoments": 4845,
    "communication": 25881,
    "Ġdictionary": 15110,
    "axed": 8887,
    "Ġcomfits": 21857,
    "orters": 21399,
    "Ġcrucifix": 26079,
    "Ġsubsided": 14549,
    "Ġunkindness": 22038,
    "alogies": 25158,
    "important": 7112,
    "Ġsquaw": 22839,
    "entitled": 21566,
    "clump": 23153,
    "Ġignor": 4012,
    "Ġfounder": 17883,
    "precise": 19349,
    "Ġenclosure": 20622,
    "deployment": 26526,
    "rock": 15637,
    "Ġshot": 4545,
    "hooked": 23714,
    "ursday": 12273,
    "viv": 17697,
    "ran": 11514,
    "Ġdolphins": 20394,
    "rigible": 24931,
    "subtle": 24242,
    "import": 5668,
    "Ġeffeminacy": 20717,
    "Ġaccents": 14209,
    "Ġanswered": 2854,
    "roads": 17957,
    "Ġslighter": 18939,
    "Ġinput": 609,
    "asmuch": 10193,
    "Ġscheming": 23269,
    "Ġhing": 11602,
    "Ġgraces": 18225,
    "Ġaltitude": 26202,
    "nav": 17611,
    "Ġvomit": 21946,
    "Ġlamps": 14789,
    "lydon": 13987,
    "torm": 11529,
    "Ġsinusoid": 4781,
    "urred": 8449,
    "gu": 3957,
    "Ġengraving": 17079,
    "Ġaccompany": 9485,
    "iquette": 26132,
    "Ġprevailed": 7778,
    "duodecimo": 15998,
    "Ġaromatic": 25925,
    "Ġgpus": 3731,
    "bet": 6109,
    "Ġunlikely": 10907,
    "Ġ32": 19487,
    "circuit": 24187,
    "Ġdisastrous": 16057,
    "Ġsuggestion": 19706,
    "Ġreduce": 7943,
    "hig": 12471,
    "question": 5418,
    "Ġsweatings": 25710,
    "Ġfurnaces": 24002,
    "ich": 470,
    "Ġproblem": 1272,
    "Ġremind": 6058,
    "invite": 25088,
    "content": 11197,
    "Ġjour": 11761,
    "Ġclim": 8195,
    "Ġrecl": 16137,
    "Ġinex": 6528,
    "Ġfagged": 17882,
    "Ġinviting": 19143,
    "securing": 19812,
    "hetic": 12200,
    "inkers": 22614,
    "Ġblunder": 18818,
    "cheap": 23803,
    "Ġpoised": 22589,
    "Ġbalance": 2021,
    "motion": 17605,
    "Ġtraveller": 8049,
    "Ġrecognise": 12034,
    "Ġimpact": 10295,
    "Ġuniversity": 13119,
    "Ġwar": 5526,
    "Ġdaintiest": 25953,
    "Ġfrosted": 19802,
    "Ġperfect": 2557,
    "Ġservices": 11216,
    "Ġteeth": 4165,
    "headers": 23106,
    "Ġsect": 17750,
    "hundred": 8331,
    "sweeping": 24619,
    "alizing": 17939,
    "Ġenumerating": 15242,
    "Ġplus": 3882,
    "Ġleading": 7297,
    "fthand": 26385,
    "nez": 22445,
    "hotel": 20048,
    "Ġwaved": 9643,
    "Ġdispersed": 16596,
    "Ġlichen": 20090,
    "Ġsubstituting": 26326,
    "Ġshortened": 23481,
    "Ġtame": 17721,
    "Ġspouts": 7730,
    "Ġunreserved": 19395,
    "rib": 1944,
    "ienced": 5685,
    "iters": 21327,
    "case": 5206,
    "Ġunion": 6839,
    "Ġone": 569,
    "keep": 3850,
    "Ġheav": 1850,
    "Ġfull": 2179,
    "Ġvivacious": 19814,
    "Ġenjoyments": 24015,
    "Ġturbul": 23611,
    "yourself": 6742,
    "icken": 6711,
    "altogether": 12635,
    "app": 1042,
    "seas": 14031,
    "Ġmeeting": 5193,
    "Ġwedded": 16673,
    "encounter": 20390,
    "Ġglitter": 25123,
    "sc": 1260,
    "ici": 8440,
    "our": 534,
    "Ġwalking": 4325,
    "Ġtyp": 1130,
    "Ġcope": 17830,
    "Ġpaws": 13919,
    "Ġvesuvius": 26500,
    "umed": 6554,
    "Ġgrey": 4514,
    "chancing": 22915,
    "Ġwrit": 8242,
    "Ġsw": 1355,
    "irection": 2387,
    "Ġmalady": 24391,
    "amplified": 26493,
    "gang": 17552,
    "Ġgarn": 13961,
    "Ġproducts": 5198,
    "Ġ59": 24326,
    "Ġcomplied": 14732,
    "Ġemm": 18002,
    "Ġerred": 21155,
    "apparat": 22846,
    "bb": 2801,
    "Ġvineyarder": 25606,
    "Ġapology": 8328,
    "Ġowing": 6005,
    "Ġimpaling": 22381,
    "Ġlady": 1588,
    "Ġferule": 24515,
    "liberal": 26281,
    "Ġhypocritical": 20737,
    "rows": 6442,
    "Ġrushed": 4086,
    "Ġreel": 9212,
    "ĠĠĠĠĠĠĠĠĠĠĠĠĠĠĠĠĠĠĠĠĠĠĠĠĠĠ": 13386,
    "speeches": 25239,
    "Ġdistorted": 14248,
    "voices": 21116,
    "Ġmaintaining": 1508,
    "Ġchaise": 9075,
    "ou": 287,
    "avers": 17479,
    "Ġgas": 8133,
    "Ġforeshadowing": 26591,
    "Ġpredefined": 20716,
    "Ġardently": 9496,
    "aution": 9385,
    "Ġcraw": 7282,
    "Ġnetworks": 596,
    "Ġhumiliation": 16196,
    "atch": 674,
    "Ġnarrating": 24350,
    "Ġnoblest": 13239,
    "Ġstalls": 25647,
    "Ġjuicy": 25370,
    "Ġbuoyancy": 20040,
    "Ġaccumulated": 11928,
    "forming": 15915,
    "Ġexplore": 15905,
    "Ġsteady": 4847,
    "leviathan": 7785,
    "ckets": 6843,
    "Ġtorch": 25030,
    "Ġposterity": 17400,
    "Ġornament": 11717,
    "matter": 5136,
    "Ġbackgammon": 22657,
    "Ġmathemat": 3205,
    "promise": 12247,
    "Ġbump": 9658,
    "perpetually": 20510,
    "Ġredness": 19310,
    "Ġhospital": 15038,
    "Ġflit": 23007,
    "Ġquart": 11784,
    "Ġfanned": 19099,
    "Ġskiff": 16161,
    "alty": 17938,
    "pig": 8752,
    "Ġcumbrous": 26431,
    "Ġindomit": 22953,
    "Ġinnoc": 3794,
    "Ġauto": 23301,
    "conceive": 16028,
    "erable": 1915,
    "Ġunattended": 15840,
    "ante": 11718,
    "ushion": 14718,
    "adequately": 20318,
    "Ġmalays": 19676,
    "quadr": 15760,
    "Ġbeings": 2491,
    "continually": 11301,
    "Ġtus": 10748,
    "Ġhonourable": 10455,
    "nevertheless": 8286,
    "Ġconge": 15742,
    "umpled": 15873,
    "tu": 12508,
    "Ġhappening": 14381,
    "Ġinscribed": 24938,
    "Ġmultitudinous": 26273,
    "Ġexhibition": 14955,
    "shoulder": 16582,
    "Ġversion": 10628,
    "Ġpalace": 16689,
    "unct": 18154,
    "confess": 12172,
    "Ġ9": 5901,
    "visual": 24221,
    "iard": 9600,
    "deeply": 16173,
    "Ġhans": 12622,
    "Ġcomple": 2844,
    "ri": 390,
    "Ġstrateg": 1374,
    "prot": 6899,
    "Ġakin": 15493,
    "|": 96,
    "Ġsteamer": 17187,
    "Ġtren": 17720,
    "Ġmillar": 13859,
    "Ġmunro": 25630,
    "Ġlamp": 4113,
    "tolerably": 21094,
    "lower": 8878,
    "Ġhastened": 9003,
    "victim": 25530,
    "Ġbuying": 23993,
    "Ġtombed": 25160,
    "Ġallude": 12767,
    "Ġlow": 1644,
    "pip": 6654,
    "Ġcav": 13878,
    "Ġamateur": 22484,
    "affording": 23775,
    "83": 13678,
    "Ġcrags": 23525,
    "Ġconcocted": 26299,
    "Ġ28": 19293,
    "Ġ40": 14767,
    "tons": 7559,
    "Ġprotectors": 9069,
    "compar": 14361,
    "Ġmonogra": 22975,
    "Ġcruc": 16533,
    "summon": 23414,
    "Ġsnugness": 20075,
    "shuff": 18494,
    "rifle": 21045,
    "Ġextras": 22715,
    "Ġdesol": 6881,
    "sufficiently": 14979,
    "ense": 2051,
    "twice": 14620,
    "ä": 165,
    "Ġgrappling": 25812,
    "Ġguar": 23044,
    "Ġoptimize": 1723,
    "Ġband": 5290,
    "ition": 651,
    "Ġconce": 3423,
    "Ġi": 312,
    "Ġz": 996,
    "tallow": 21084,
    "Ġup": 463,
    "_âĢĶâĢĻ": 13680,
    "Ġskill": 6872,
    "ifted": 4494,
    "devils": 20031,
    "happiness": 6469,
    "Ġswallowed": 7944,
    "Ġbiases": 2398,
    "Ġspikes": 22134,
    "´": 117,
    "cellar": 20276,
    "Ġrecesses": 17259,
    "Ġaverages": 2399,
    "insupportable": 21192,
    "Ġjoyfully": 19344,
    "Ġterr": 3275,
    "Ġsomething": 1795,
    "caps": 20806,
    "Ġvelv": 10618,
    "Ġconvict": 23743,
    "Ġpompous": 20421,
    "Ġinspection": 14543,
    "Ġfalsehood": 10522,
    "Ġol": 17814,
    "Ġindecision": 25781,
    "impat": 11201,
    "departed": 24794,
    "rusted": 16505,
    "gest": 5426,
    "yt": 17710,
    "assault": 22304,
    "Ġice": 3602,
    "Ġremotest": 10050,
    "Ġshadowed": 24042,
    "Ġphr": 2682,
    "âĢĻ!âĢĿ": 18167,
    "tart": 21066,
    "Ġlob": 7627,
    "Ġtoy": 15630,
    "Ġwalker": 23309,
    "whel": 7665,
    "Ġpillow": 10036,
    "Ġsorry": 4212,
    "Ġair": 1835,
    "Ġpersecutor": 26096,
    "Ġannouncing": 16753,
    "Ġlima": 10441,
    "Ġfeast": 10276,
    "Ġdejection": 15194,
    "Ġsedentary": 25430,
    "Ġinfluences": 14863,
    "Ġsuggests": 12197,
    "Ġgratifying": 13303,
    "iz": 365,
    "gaff": 20881,
    "descend": 23083,
    "aker": 3661,
    "Ġgeometric": 3220,
    "inhabited": 13618,
    "Ġthing": 1637,
    "warmest": 25027,
    "Ġforbearing": 25098,
    "Ġgossip": 18470,
    "formity": 10277,
    "Ġsixty": 7723,
    "Ġamazement": 7765,
    "Ġhagger": 21489,
    "Ġmargaret": 10375,
    "Ġappear": 2486,
    "Ġsteward": 6584,
    "Ġbri": 21376,
    "charming": 15702,
    "ivided": 22084,
    "Ġlucerne": 23862,
    "featured": 24056,
    "Ġexactly": 2768,
    "peddling": 24696,
    "Ġ67": 19659,
    "em": 389,
    "Ġpay": 3964,
    "Ġforts": 21770,
    "Ġimpenit": 22386,
    "forbidding": 25836,
    "Ġinvoked": 19144,
    "Ġhappy": 2466,
    "Ġvoracity": 25986,
    "Ġcate": 4108,
    "pow": 10716,
    "Ġtreasures": 17046,
    "lin": 9602,
    "aling": 1036,
    "Ġ93": 24592,
    "Ġmiserably": 12944,
    "Ġleakage": 23458,
    "Ġclusters": 25232,
    "Ġgate": 6825,
    "Ġexhaustion": 14959,
    "Ġsmall": 894,
    "Ġquebec": 24131,
    "baggage": 24926,
    "Ġhitherto": 5880,
    "pest": 6964,
    "Ġchapters": 10472,
    "swim": 16778,
    "volut": 1563,
    "Ġpaddock": 25037,
    "Ġtry": 3136,
    "tempt": 21078,
    "mor": 4217,
    "Ġparting": 9782,
    "Ġtr": 554,
    "exp": 2738,
    "shaw": 6864,
    "Ġvult": 12748,
    "Ġmac": 15535,
    "âĢĶâĢĺ_": 24831,
    "within": 6730,
    "Ġiteratively": 3060,
    "Ġparcels": 25465,
    "car": 4214,
    "¬": 110,
    "Ġconsternation": 9857,
    "Ġcurric": 23000,
    "Ġcoward": 7155,
    "Ġconnecting": 18628,
    "pilot": 25908,
    "Ġspecially": 11994,
    "Ġeye": 2279,
    "neighbouring": 19962,
    "guess": 14760,
    "Ġtube": 15002,
    "Ġcousin": 3703,
    "separated": 20158,
    "adm": 7608,
    "Ġpigeon": 9514,
    "Ġpreservation": 24631,
    "âĢ": 294,
    "Ġmalacca": 24392,
    "Ġwan": 15525,
    "Ġconsol": 3815,
    "idate": 21765,
    "Ġpersever": 10001,
    "Ġunseen": 3521,
    "Ġalche": 21781,
    "felt": 5889,
    "ieving": 7032,
    "dwell": 15339,
    "Ġlink": 8130,
    "decided": 13213,
    "remote": 23188,
    "Ġavast": 9918,
    "ways": 1443,
    "Ġsophisticated": 1547,
    "otions": 7180,
    "Ġbirth": 6524,
    "Ġnatural": 1117,
    "scra": 13014,
    "Ġcal": 1325,
    "Ġstretching": 10013,
    "Ġpostscript": 14806,
    "Ġslides": 18938,
    "enes": 5218,
    "istical": 8489,
    "concent": 19478,
    "apparent": 11040,
    "ateral": 19375,
    "til": 17670,
    "Ġpurposes": 11167,
    "Ġexpectantly": 23522,
    "centre": 17086,
    "Ġhumped": 19768,
    "grown": 10098,
    "Ġpict": 3497,
    "Ġtransp": 4770,
    "Ġwarmup": 3922,
    "dissemble": 23490,
    "ilib": 4116,
    "Ġoutlast": 22311,
    "Ġallows": 3235,
    "Ġrust": 6408,
    "Ġlustrous": 20155,
    "Ġwithout": 1118,
    "Ġproportionably": 19969,
    "Ġassociated": 12246,
    "fatigue": 20657,
    "so": 891,
    "dest": 4102,
    "Ġagencies": 18541,
    "vast": 10735,
    "thur": 7188,
    "Ġhighway": 14344,
    "đ": 210,
    "Ġpresum": 4837,
    "Ġastonishing": 10500,
    "Ġnap": 8807,
    "apparatus": 26562,
    "prejudice": 25571,
    "Ġawakened": 10452,
    "pain": 7350,
    "Ġthinking": 4031,
    "aggra": 21904,
    "Ġimple": 1794,
    "Ġphysiognomical": 25611,
    "gale": 13722,
    "Ġpoignant": 22592,
    "chor": 6146,
    "Ġconventional": 25547,
    "Ġcheerless": 16693,
    "Ġpar": 456,
    "Ġgo": 614,
    "Ġinduced": 8670,
    "heav": 5694,
    "prehensible": 12357,
    "Ġlightness": 23259,
    "Ġvaliantly": 22784,
    "Ġimpulse": 10022,
    "Ġannihil": 10173,
    "upid": 6582,
    "Ġhorse": 4725,
    "gence": 877,
    "Ġtriangular": 14857,
    "Ġairs": 14510,
    "Ġmeanness": 22594,
    "astonishment": 10028,
    "Ġbank": 4877,
    "Ġemac": 16403,
    "Ġejaculated": 15167,
    "intelligence": 5883,
    "child": 5537,
    "Ġsail": 1673,
    "Ġvengeance": 5885,
    "Ġstung": 21736,
    "urns": 10212,
    "etimes": 1987,
    "Ġleagues": 9222,
    "required": 17029,
    "ructure": 755,
    "Ġinsect": 12632,
    "crated": 16695,
    "ply": 6366,
    "Ġflail": 23008,
    "Ġshudderings": 25200,
    "characteristic": 24685,
    "caroline": 24148,
    "Ġsooty": 25815,
    "something": 4286,
    "Ġhurrying": 11991,
    "Ġfamed": 16324,
    "Ġdinnertime": 16718,
    "uzz": 4525,
    "Ġsnodhead": 19300,
    "Ġvivacity": 14939,
    "Ġju": 10285,
    "Ġfeathers": 15117,
    "hist": 7130,
    "Ġ16": 7927,
    "verity": 13999,
    "Ġblades": 11892,
    "iger": 8446,
    "pict": 8386,
    "irement": 18355,
    "Ġdissipate": 13631,
    "Ġmanxman": 9564,
    "nuts": 15396,
    "Ġhoisted": 5960,
    "Ġreluct": 14370,
    "Ġdoleful": 18377,
    "Ġhipp": 21490,
    "Ġdistrust": 8204,
    "Ġfisheries": 17436,
    "Ġlumps": 21554,
    "following": 10571,
    "ued": 7561,
    "affair": 14654,
    "Ġcommanded": 6330,
    "Ġadhering": 14139,
    "Ġassociates": 24712,
    "disagreeable": 11162,
    "Ġchr": 3686,
    "Ġtelling": 5747,
    "Ġbelieve": 2149,
    "confl": 22469,
    "Ĩ": 233,
    "âĢĶ(": 15935,
    "Ġscraps": 16901,
    "rect": 1599,
    "Ġwavering": 23278,
    "Ġdefray": 22939,
    "Ġhammock": 5768,
    "Ġseverity": 15817,
    "Ġamaze": 22482,
    "embra": 14072,
    "Ġpersistence": 3191,
    "Ġdesolation": 12265,
    "frau": 15087,
    "terror": 18128,
    "jer": 12477,
    "Ġliable": 14227,
    "face": 3675,
    "eye": 6224,
    "riage": 2125,
    "Ġtable": 2502,
    "Ġimpetuous": 25570,
    "eches": 8078,
    "Ġmadam": 5663,
    "Ġexcessive": 3891,
    "apes": 9739,
    "boilers": 26297,
    "tied": 21069,
    "bowl": 14889,
    "Ġfolk": 10374,
    "tried": 13792,
    "division": 20047,
    "Ġcocked": 12903,
    "Ġoverdone": 22358,
    "Ġalien": 14016,
    "Ġreadiness": 13046,
    "Ġamused": 11796,
    "Ġforesaw": 19127,
    "Ġtransportation": 13640,
    "Ġreckoning": 14977,
    "sence": 3308,
    "imble": 10857,
    "Ġq": 1085,
    "chants": 21690,
    "opes": 10309,
    "Ġbristles": 25843,
    "drunk": 24659,
    "Ġmade": 1050,
    "Ġuncouth": 14548,
    "Ġsignificant": 8633,
    "sies": 21053,
    "ĠĠĠĠĠĠĠĠĠĠĠĠĠĠĠĠĠ": 22947,
    "Ġcaulking": 20292,
    "aint": 2543,
    "Ġpr": 1600,
    "Ġpropont": 16346,
    "Ġmemo": 18118,
    "name": 6795,
    "Ġclear": 1947,
    "impul": 16555,
    "Ġacceded": 22376,
    "Ġsammy": 24932,
    "connections": 14426,
    "ther": 481,
    "Ġsailing": 5323,
    "Ġnative": 4641,
    "Ġgives": 5018,
    "Ġassert": 7120,
    "Ġcharms": 11129,
    "lace": 13746,
    "Ġattend": 5035,
    "Ġour": 1007,
    "Ġsounds": 5190,
    "Ġp": 289,
    "Ġrocked": 12850,
    "Ġpens": 21459,
    "Ġhoary": 23353,
    "rell": 11562,
    "Ġheaved": 9381,
    "Ġrecept": 1522,
    "Ġxxxiv": 24969,
    "Ġbelie": 14405,
    "Ġblood": 3171,
    "aternity": 21264,
    "Ġparallelization": 3431,
    "wick": 5362,
    "Ġluggage": 25957,
    "complained": 25838,
    "Ġlurk": 13381,
    "butter": 11782,
    "whisper": 17082,
    "beloved": 19459,
    "Ġenjoyed": 8008,
    "Ġabstraction": 26538,
    "Ġhistory": 4008,
    "beneath": 9533,
    "eties": 10836,
    "Ġunharmed": 15137,
    "Ġumbrell": 13648,
    "Ġreckoned": 24744,
    "Ġbul": 3296,
    "Ġmodular": 12813,
    "Ġsails": 5256,
    "Ġcircles": 7967,
    "tit": 11526,
    "ippers": 17575,
    "represented": 20194,
    "Ġrout": 7402,
    "Ġfreighted": 16321,
    "Ġsovere": 9254,
    "Ġthroat": 7771,
    "Ġtrapped": 23075,
    "Ġger": 21589,
    "Ġsequ": 983,
    "asked": 8910,
    "Ġadmeasure": 18295,
    "Ġcoff": 3505,
    "Ġlaure": 16908,
    "deliberated": 26118,
    "Ġarmies": 16491,
    "Ġpythag": 26447,
    "train": 2034,
    "Ġrifled": 21974,
    "Ġadded": 2716,
    "Ġrevelations": 25223,
    "Ġshelter": 17007,
    "fall": 5135,
    "silver": 19689,
    "Ġcomrade": 12280,
    "Ġtennes": 23547,
    "Ġmale": 9647,
    "Ġpreced": 6040,
    "Ġabsurdities": 24878,
    "Ġopen": 1552,
    "brain": 13685,
    "solemn": 19816,
    "of": 768,
    "lift": 15382,
    "rium": 3135,
    "Ġexcuses": 19042,
    "Ġfals": 15577,
    "Ġovertaken": 18429,
    "Ġdistributes": 4196,
    "Ġaband": 6561,
    "Ġresponsiveness": 2898,
    "intolerable": 22936,
    "Ġascending": 14852,
    "Ġmountainous": 16598,
    "Ġyour": 634,
    "Ġglowed": 24864,
    "ston": 15678,
    "Ġinst": 912,
    "right": 2769,
    "Ġ34": 16676,
    "untering": 15772,
    "ream": 2709,
    "Ġreinforcement": 3283,
    "Ġsoftness": 18917,
    "Ġroughly": 17039,
    "Ġvital": 9241,
    "canoes": 16227,
    "Ġtorrents": 20054,
    "Ġenlivened": 26207,
    "Ġeffectively": 2679,
    "uneasy": 23685,
    "questions": 16759,
    "Ġremainder": 9856,
    "punctual": 26355,
    "Ġdanger": 3517,
    "Ġtransplanted": 22439,
    "Ġsubmitted": 11868,
    "seems": 10874,
    "ensed": 10995,
    "riors": 18186,
    "heim": 17745,
    "Ġrobinson": 17462,
    "Ġsnuffed": 15070,
    "immense": 18052,
    "mense": 4780,
    "Ġcathed": 14547,
    "Ġazure": 12371,
    "acey": 7649,
    "Ġhouses": 6138,
    "igated": 15703,
    "istry": 22107,
    "anzas": 17840,
    "Ġresearch": 3241,
    "Ġhardware": 4904,
    "Ġdawned": 14992,
    "Ġinno": 1390,
    "Ġcomputational": 1625,
    "Ġselling": 21223,
    "Ġcellars": 24665,
    "Ġoccupies": 24005,
    "Ġjustly": 11900,
    "Ġdro": 2771,
    "arers": 12126,
    "Ġsymbol": 7717,
    "Ġunb": 10906,
    "icil": 17971,
    "enhall": 13848,
    "tipt": 25083,
    "Ġsupplies": 20325,
    "Ġ41": 24077,
    "Ġconsummate": 25310,
    "wag": 21122,
    "Ġswiftly": 5670,
    "Ġprize": 11946,
    "unfort": 21874,
    "Ġgateway": 24802,
    "Ġrail": 7225,
    "9": 29,
    "fel": 8733,
    "bid": 5610,
    "willing": 6592,
    "singular": 12185,
    "those": 4495,
    "Ġbench": 7238,
    "illa": 12789,
    "Ġholiest": 18812,
    "Ġlanes": 19764,
    "Ġingrat": 16839,
    "Ġrafters": 22651,
    "Ġshops": 21999,
    "Ġmax": 2006,
    "boone": 23253,
    "Ġimmensities": 25330,
    "ignorance": 17160,
    "Ġprovoking": 16742,
    "Ġperpetually": 17069,
    "Ġwalk": 1826,
    "Ġengaging": 9334,
    "Ġ1839": 20458,
    "found": 4216,
    "astrous": 15883,
    "continue": 16860,
    "cake": 20803,
    "Ġarmitage": 23579,
    "belled": 24033,
    "quimaux": 21851,
    "Ġshowed": 4496,
    "Ġfall": 2987,
    "Ġlace": 13947,
    "Ġrenegades": 26475,
    "noon": 5037,
    "Ġproposal": 10017,
    "Ġanonym": 17897,
    "Ġand": 295,
    "Ġthrown": 4640,
    "Ġcrawled": 17043,
    "world": 5058,
    "Ġassist": 3562,
    "yes": 985,
    "shows": 22456,
    "Ġcalf": 16263,
    "aet": 15305,
    "ivial": 15859,
    "distinguish": 19571,
    "tin": 6116,
    "countless": 24149,
    "Ġsensible": 4976,
    "Ġreappeared": 21663,
    "Ġnames": 4534,
    "Ġcalculated": 4475,
    "Ġfarmhouse": 24986,
    "Ġlamb": 8811,
    "Ġcloth": 9741,
    "numerous": 17429,
    "itan": 10158,
    "comra": 16174,
    "Ġmothers": 14539,
    "back": 2017,
    "tales": 17685,
    "crew": 7544,
    "rimsh": 17026,
    "Ġreeled": 13984,
    "Ġlo": 452,
    "Ġnash": 5819,
    "makes": 10710,
    "emin": 8469,
    "Ġcriminals": 19921,
    "declined": 25174,
    "Ġscrewing": 20207,
    "oward": 6021,
    "Ġsanta": 26419,
    "Ġmeaning": 1416,
    "Ġability": 2763,
    "Ġresiding": 16058,
    "Ġbrighton": 6470,
    "tails": 21085,
    "Ġparm": 15874,
    "Ġcove": 22579,
    "Ġunden": 22009,
    "Ġdeposed": 16084,
    "Ġsufficiently": 8972,
    "Ġpostp": 12140,
    "Ġfidgeted": 25889,
    "Ġslave": 7454,
    "Ġrewarded": 14938,
    "Ġrent": 11637,
    "Ġmingling": 20196,
    "Ġsisters": 3638,
    "beginning": 13559,
    "Ġdaylight": 10349,
    "Ġsciences": 15942,
    "Ġpondered": 15164,
    "Ġhandfuls": 17208,
    "bed": 3292,
    "Ġfishers": 19352,
    "Ġfrost": 6096,
    "preserver": 20212,
    "Ġcumulative": 4213,
    "imony": 12686,
    "Ġcrunched": 19123,
    "Ġdolphin": 17310,
    "ney": 2495,
    "Ġfancying": 12109,
    "Ġconveniently": 20077,
    "Ġ78": 19612,
    "Ġmost": 1021,
    "Ġmisfortunes": 7041,
    "Ġextrem": 2476,
    "Ġmountain": 3373,
    "msman": 9268,
    "Ġpref": 14170,
    "limping": 26392,
    "Ġslyness": 25266,
    "concl": 12866,
    "aan": 20763,
    "Ġtamer": 24978,
    "Ġwitt": 17783,
    "Ġacknowledge": 13400,
    "Ġphase": 14470,
    "Ġincluding": 2850,
    "Ġdefect": 8554,
    "announce": 24559,
    "(-": 2980,
    "Ġhours": 2822,
    "Ġpasses": 2680,
    "yn": 7820,
    "Ġsyrian": 18353,
    "Ġmouth": 3182,
    "Ġviv": 6156,
    "boots": 11125,
    "icle": 10833,
    "Ġapple": 14165,
    "semic": 21818,
    "Ġinspired": 2521,
    "Ġorgans": 15862,
    "Ġrinal": 21975,
    "Ġposit": 1305,
    "Ġrepeating": 11212,
    "hint": 12472,
    "ps": 4575,
    "Ġdiadem": 24741,
    "Ġhearth": 11978,
    "Ġmeas": 1096,
    "ubl": 3592,
    "shazz": 14241,
    "Ġrevisit": 21668,
    "Ġopened": 3510,
    "Ġwandered": 6930,
    "j": 78,
    "xology": 21140,
    "Ġdolph": 12377,
    "copy": 5133,
    "beating": 22487,
    "Ġcents": 17828,
    "Ġryder": 10257,
    "¦": 104,
    "Ġkink": 22191,
    "icism": 13954,
    "utely": 8132,
    "surprising": 16918,
    "Ġcoal": 18592,
    "situation": 11436,
    "Ġfol": 1288,
    "anche": 10787,
    "Ġgree": 7594,
    "roofed": 26183,
    "Ġnorth": 4320,
    "Ġwhites": 21715,
    "geon": 6270,
    "ithing": 11647,
    "honest": 17002,
    "prepared": 13588,
    "Ġinevitable": 15165,
    "Ġunexpl": 22035,
    "Ġdiff": 3118,
    "Ġinstantly": 3589,
    "robustness": 26338,
    "Ġlaughing": 5338,
    "uous": 4143,
    "machines": 8385,
    "ientific": 6547,
    "Ġscheduling": 2348,
    "Ġunresting": 25553,
    "unsuitable": 21891,
    "inger": 6812,
    "atory": 6125,
    "mechanically": 17298,
    "transform": 8050,
    "structure": 2393,
    "steps": 9403,
    "who": 2446,
    "constant": 11323,
    "crat": 24095,
    "Ġconvinced": 4207,
    "nib": 5214,
    "Ġreconciliation": 25292,
    "Ġarrest": 7409,
    "Ġstarts": 16581,
    "Ġowners": 7662,
    "dart": 20825,
    "vain": 15445,
    "battering": 20785,
    "path": 10117,
    "Ġinert": 15618,
    "walks": 19720,
    "Ġbalmoral": 16204,
    "Ġshivering": 10264,
    "idirection": 2410,
    "Ġ115": 24438,
    "Ġafric": 8904,
    "Ġdense": 8123,
    "Ġfiss": 21411,
    "Ġavalanche": 17431,
    "Ġnibbling": 17383,
    "Ġcorpulence": 24505,
    "Ġstrata": 26027,
    "Ġphotography": 24683,
    "Ġdisagreeable": 9296,
    "Ġhimmalehs": 26230,
    "Ġprospects": 9957,
    "cused": 15330,
    "Ġexpansion": 22625,
    "preading": 18491,
    "Ġappeal": 16313,
    "Ġextraction": 11252,
    "Ġcrushed": 9421,
    "erest": 10696,
    "seated": 11669,
    "Ġfro": 3470,
    "thank": 4950,
    "listen": 13512,
    "flowing": 14550,
    "angling": 14138,
    "Ġseparate": 5778,
    "lance": 12478,
    "Ġquestioned": 14619,
    "Ġsof": 18275,
    "Ġbuoyant": 13530,
    "grey": 14910,
    "Ġfanning": 23388,
    "Ġfarewell": 9518,
    "spent": 12939,
    "Ġmagnanimous": 17409,
    "Ġemboldened": 22967,
    "Ġtingling": 15090,
    "stiff": 12670,
    "Ġdid": 836,
    "Ġdepressions": 25798,
    "Ġepisode": 26346,
    "specim": 23941,
    "danger": 10088,
    "southern": 20407,
    "Ġmoccas": 22434,
    "loun": 17587,
    "Ġcommit": 18654,
    "Ġpelt": 15606,
    "Ġargument": 7098,
    "Ġfuss": 13903,
    "Ġcontradictory": 20395,
    "likely": 9021,
    "bres": 11470,
    "gradually": 12911,
    "irted": 14070,
    "Ġcounting": 13093,
    "Ġrespectability": 14483,
    "Ġplate": 8897,
    "cares": 24308,
    "Ġpast": 2099,
    "tick": 17677,
    "ippi": 20243,
    "Ġunstructure": 2994,
    "post": 6062,
    "lour": 15378,
    "Ġlunatic": 24992,
    "Ġexpect": 2305,
    "wheel": 22865,
    "complaisance": 24811,
    "dle": 3250,
    "Ġsurv": 6082,
    "Ġrese": 2210,
    "ozy": 17621,
    "afraid": 10440,
    "Ġinscrutable": 10671,
    "gether": 1596,
    "Ġrect": 18025,
    "derness": 11734,
    "county": 25396,
    "Ġawful": 6199,
    "Ġgirdled": 19157,
    "Ġhoping": 11102,
    "inex": 14094,
    "Ġtending": 17723,
    "Ġgib": 13963,
    "amed": 4448,
    "Ġpill": 7846,
    "cru": 7126,
    "house": 4076,
    "Ġmaelstrom": 19354,
    "Ġfilthy": 13245,
    "Ġleads": 12093,
    "deed": 1517,
    "Ġchanced": 8187,
    "strong": 6322,
    "Ġemotion": 7690,
    "Ġrap": 14302,
    "ox": 9132,
    "Ġsallow": 12532,
    "Ġmonitors": 3160,
    "sil": 5282,
    "circle": 16735,
    "Ġvulture": 17337,
    "Ġcontempt": 6275,
    "Ġblo": 2735,
    "remed": 18952,
    "Ġrefreshing": 20263,
    "Ġrandomly": 1919,
    "cloth": 11934,
    "ouncing": 8494,
    "Ġwad": 13849,
    "Ġpurposely": 10443,
    "regards": 23465,
    "Ġprojected": 16868,
    "inking": 6709,
    "Ġhappened": 3712,
    "Ġguineas": 16267,
    "ean": 20839,
    "Ġagatha": 6866,
    "Ġwal": 6517,
    "conquerable": 17397,
    "Ġchoice": 2167,
    "Ġlayer": 1009,
    "Ġplaymate": 23637,
    "solitude": 23296,
    "Ġmud": 11571,
    "lik": 3916,
    "quietude": 24655,
    "amongst": 24672,
    "Ġbrimstone": 25686,
    "Ġcheese": 9375,
    "labour": 23912,
    "Ġderives": 16306,
    "Ġsaves": 18324,
    "Ġbefriend": 18081,
    "sadly": 25526,
    "iza": 6255,
    "ctive": 11621,
    "Ġkeeping": 7283,
    "teak": 22813,
    "Ġimminent": 11244,
    "yourselves": 24958,
    "Ġinfinity": 23280,
    "Ġsill": 10764,
    "Ġunf": 4088,
    "Ġcloser": 8659,
    "dee": 11730,
    "Ġdesist": 16234,
    "Ġblow": 3375,
    "Ġcontents": 7210,
    "Ġsneezes": 24698,
    "Ġ49": 24079,
    "Ġdecorum": 16018,
    "Ġgaining": 9490,
    "handedness": 24920,
    "Ġpetulance": 24226,
    "otherwise": 7671,
    "Ġdepress": 14044,
    "anges": 1674,
    "confirm": 16806,
    "Ġfare": 5809,
    "Ġtwentieth": 18658,
    "Ġindirect": 18835,
    "Ġimputable": 22171,
    "anean": 7443,
    "Ġsquad": 22837,
    "kington": 11202,
    "Ġconsists": 11974,
    "broad": 8642,
    "Ġoust": 21322,
    "thy": 2935,
    "Ġriveted": 13616,
    "Ġalacrity": 15733,
    "Ġunfortunate": 5376,
    "Ġgloss": 11954,
    "malice": 17603,
    "Ġdefend": 9338,
    "iteous": 14263,
    "Ġsummons": 13229,
    "Ġflattened": 26047,
    "disposition": 10040,
    "painting": 17045,
    "Ġcaw": 13881,
    "Ġloveliest": 20260,
    "Ġeliza": 6437,
    "ignominious": 26586,
    "Ġmember": 8585,
    "Ġexpedite": 24953,
    "Ġtrifled": 24674,
    "pencil": 18827,
    "Ġchief": 3382,
    "angle": 22099,
    "Ġfoolscap": 24157,
    "Ġanticip": 7507,
    "Ġdescribing": 19253,
    "Ġpatroness": 13508,
    "crane": 24096,
    "iousness": 4899,
    "Ġantique": 19550,
    "mathematics": 26304,
    "Ġbranch": 8332,
    "Ġalchemists": 26486,
    "ê": 171,
    "Ġpoets": 11818,
    "unfortunate": 15773,
    "Ġdesirous": 8941,
    "Ġcondensed": 24049,
    "Ġtranslations": 12049,
    "vert": 15711,
    "Ġglassy": 19559,
    "Ġsullen": 9156,
    "Ġscent": 10284,
    "Ġcovers": 18593,
    "Ġtwelvemonth": 12174,
    "lust": 15377,
    "deemed": 18315,
    "Ġbody": 2437,
    "fail": 17539,
    "Ġmysterious": 7527,
    "Ġdexterously": 25295,
    "Ġmuhammad": 26169,
    "Ġintelligent": 1364,
    "Ġimpenitent": 26547,
    "inities": 21184,
    "Ġpapa": 10655,
    "Ġconviction": 6326,
    "Ġbald": 16203,
    "Ġfiner": 13049,
    "ades": 5631,
    "Ġsure": 1863,
    "Ġmonstrous": 7790,
    "pit": 3984,
    "Ġrenow": 18027,
    "Ġsitting": 3603,
    "Ġwomen": 4750,
    "iem": 20916,
    "Ġfluctu": 5267,
    "Ġfolio": 11916,
    "arches": 10815,
    "Ġpettic": 14839,
    "Ġlondon": 2842,
    "ivened": 22963,
    "ubines": 22957,
    "gments": 12466,
    "Ġundet": 16703,
    "Ġfreer": 23209,
    "Ġmerit": 9425,
    "cripp": 20818,
    "Ġdevoid": 18684,
    "Ġsurprised": 3830,
    "oquent": 12496,
    "ivia": 22082,
    "Ġadjusted": 23457,
    "Ġcanall": 10927,
    "Ġconvenience": 11330,
    "Ġnocturnal": 20714,
    "Ġire": 12665,
    "Ġvalidation": 2357,
    "Ġdelirium": 10404,
    "Ġnoted": 15827,
    "Ġobstin": 14951,
    "Ġworship": 10365,
    "local": 22507,
    "Ġarms": 3967,
    "Ġcosy": 13128,
    "Ġblessing": 11262,
    "Ġfring": 11126,
    "Ġheel": 9682,
    "wrote": 11545,
    "Ġyarns": 15193,
    "Ġ43": 14768,
    "Ġferocious": 17417,
    "Ġcontrary": 5260,
    "Ġdam": 2216,
    "inquiries": 13575,
    "Ġrequire": 903,
    "Ġswiss": 18881,
    "Ġsoft": 1461,
    "Ġunman": 12770,
    "Ġirene": 8444,
    "Ġprovince": 24188,
    "Ġinspirited": 23419,
    "satisfaction": 9990,
    "ous": 477,
    "Ġcem": 17823,
    "Ġfors": 21769,
    "ancy": 4394,
    "Ġboasting": 19934,
    "isation": 13891,
    "Ġpoetic": 17102,
    "Ġiron": 3237,
    "nett": 16218,
    "Ġembatt": 18842,
    "Ġjackets": 19601,
    ".*": 7331,
    "Ġoffensive": 18694,
    "task": 13791,
    "Ã¦mon": 7094,
    "tackle": 17319,
    "faith": 15023,
    "deliber": 17424,
    "Ġeasterly": 25962,
    "Ġimpat": 4456,
    "Ġwis": 3727,
    "impl": 21705,
    "Ġobtained": 7432,
    "mo": 864,
    "ĠâĢĺ_": 11115,
    "Ġelud": 22642,
    "Ġanonymous": 26178,
    "Ġstricken": 9774,
    "ighted": 8476,
    "Ġfinancier": 26582,
    "59": 17472,
    "Ġapproximates": 2418,
    "iber": 6506,
    "glimmer": 26321,
    "Ġrol": 3553,
    "Ġdejected": 20303,
    "shutters": 20312,
    "Ġrelevant": 1862,
    "Ġbrougham": 17870,
    "Ġcoherent": 3265,
    "door": 6193,
    "Ġindistinctly": 26117,
    "Ġapp": 493,
    "Ġisrael": 21801,
    "feeling": 6616,
    "disappo": 8983,
    "Ġwomanly": 23549,
    "Ġpeels": 22689,
    "Ġbrig": 11046,
    "Ġreptile": 15275,
    "terms": 15747,
    "Ġestim": 3350,
    "ume": 4835,
    "Ġshetland": 22157,
    "Ġgardiner": 3240,
    "Ġliterally": 15114,
    "glance": 16586,
    "Ġhissing": 15786,
    "Ġemployments": 12099,
    "Ġranged": 10256,
    "gers": 8376,
    "Ġsched": 2336,
    "talk": 6656,
    "Ġharpoone": 2912,
    "Ġextreme": 2518,
    "Ġseaport": 20598,
    "Ġgemini": 26468,
    "meadow": 18679,
    "Ġenthus": 7232,
    "Ġremot": 8542,
    "Ġhardships": 14449,
    "Ġwrought": 11941,
    "sm": 3436,
    "Ġseaman": 8638,
    "ider": 21763,
    "isted": 3301,
    "Ġvideos": 13604,
    "medi": 2629,
    "gish": 20872,
    "engine": 18926,
    "Ġlanguor": 12843,
    "uding": 16148,
    "Ġmor": 1252,
    "Ġdumplings": 15188,
    "Ġhelp": 1638,
    "learnt": 23586,
    "Ġmilitary": 11257,
    "somerset": 26322,
    "Ġrabbit": 4290,
    "Ġtattoo": 7359,
    "Ġmutual": 8297,
    "Ġillust": 8263,
    "bey": 10313,
    "ĠĠĠĠĠĠĠĠĠĠĠĠĠĠĠĠĠĠĠĠĠĠĠĠĠĠĠĠĠĠĠ": 19699,
    "dorff": 15235,
    "frozen": 25139,
    "Ġawaited": 17073,
    "lacing": 17589,
    "Ġoccurrences": 11049,
    "Ġforbear": 17120,
    "ouement": 21447,
    "Ġfinding": 3267,
    "Ġmainz": 22658,
    "lay": 5891,
    "yet": 3752,
    "Ġbats": 13898,
    "Ġsweep": 8266,
    "Ġnervous": 2404,
    "Ġwo": 3649,
    "ad": 337,
    "Ġexpatiate": 18625,
    "Ġtypically": 1535,
    "Ġpromise": 4200,
    "Ġplayful": 19236,
    "whatever": 6694,
    "Ġsherry": 19449,
    "cheerful": 13573,
    "Ġdiscoverers": 26036,
    "Ġthough": 991,
    "Ġinqu": 2965,
    "changing": 10853,
    "iles": 2863,
    "Ġfocuses": 8649,
    "lord": 3864,
    "okened": 15981,
    "Ġintermission": 18590,
    "Ġstra": 2991,
    "Ġworkmen": 23030,
    "anywhere": 14681,
    "Ġinvited": 6903,
    "Ġmid": 2616,
    "Ġslender": 11937,
    "89": 20758,
    "Ġprocedure": 2811,
    "Ġdecks": 6900,
    "ilt": 2969,
    "confusion": 13367,
    "Ġuncomp": 15838,
    "ispens": 8336,
    "inu": 1111,
    "Ġlamentations": 17075,
    "Ġuniformity": 23482,
    "icions": 21561,
    "Ġbeast": 7179,
    "Ġwhosoever": 21717,
    "bergen": 14327,
    "ĺ": 251,
    "perceived": 8857,
    "zar": 11546,
    "sig": 2876,
    "Ġenforced": 21936,
    "recklessly": 25269,
    "eling": 6681,
    "pred": 2803,
    "Ġcrate": 19122,
    "Ġrolling": 5975,
    "Ġmalice": 7152,
    "noticed": 14339,
    "Ġdigest": 24647,
    "salesman": 20670,
    "umes": 10916,
    "Ġcommonplace": 11095,
    "years": 6883,
    "Ġglimmering": 25240,
    "abond": 15737,
    "Ġfun": 526,
    "walking": 9980,
    "Ġay": 15489,
    "Ġreverber": 19868,
    "Ġdisappearance": 9295,
    "Ġheartily": 6890,
    "season": 14032,
    "Ġreference": 2567,
    "Ġwhistling": 19789,
    "Ġ46": 19489,
    "Ġtoilette": 20491,
    "Ġmortified": 14693,
    "iating": 3208,
    "Á": 130,
    "Ġfulfilment": 20186,
    "wishing": 21127,
    "Ġglittering": 10051,
    "Ġslumbers": 18941,
    "Ġgills": 17992,
    "Ġglowing": 12279,
    "Ġdoes": 941,
    "Ġsounding": 8265,
    "mency": 18925,
    "Ġpatter": 849,
    "Ġprocessions": 18433,
    "Ġappropri": 2227,
    "bowsprit": 16852,
    "ctuous": 9204,
    "Ġkindliness": 23292,
    "Ġfossiliferous": 25609,
    "Ġg": 310,
    "Ġfurther": 1056,
    "Ġrefrain": 12943,
    "having": 5211,
    "non": 9610,
    "Ġleak": 2162,
    "Ġcaptain": 1604,
    "Ġwhisper": 6205,
    "Ġschoolmaster": 16861,
    "ipher": 18432,
    "Ġobst": 6284,
    "Ġcables": 15554,
    "Ġdifferen": 935,
    "Ġdidst": 11846,
    "Ġdisturbing": 19944,
    "Ġparticle": 18674,
    "conveyed": 20519,
    "elves": 2160,
    "Ġreaders": 18914,
    "Ġdecoding": 3085,
    "burg": 16772,
    "Ġundulating": 19516,
    "Ġsagaciously": 24731,
    "Ġlimbs": 5966,
    "properly": 24918,
    "start": 7598,
    "Ġlibraries": 20613,
    "permitted": 18342,
    "Ġweb": 9238,
    "Ġclean": 5652,
    "asable": 21539,
    "Ġmoses": 21314,
    "haut": 20901,
    "Ġirreproachable": 24917,
    "Ġperplexity": 2755,
    "anations": 12572,
    "Ġwiser": 14728,
    "Ġqualified": 14948,
    "Ġattributed": 11831,
    "Č": 205,
    "Ġ(`": 12849,
    "flood": 19805,
    "Ġstray": 18069,
    "Ġblameless": 19858,
    "Ġinstruction": 14342,
    "floor": 14934,
    "Ġfantastic": 10057,
    "Ġwhereon": 16098,
    "Ġwards": 17789,
    "Ġsecured": 6745,
    "Ġtrem": 6659,
    "Ġbeaten": 10527,
    "Ġoptimal": 1855,
    "raged": 9210,
    "showing": 22461,
    "introdu": 8936,
    "Ġgrin": 5482,
    "Ġanybody": 5313,
    "Ġprevented": 5942,
    "increasing": 20268,
    "Ġobstacle": 16954,
    "sides": 12504,
    "Ġthickening": 24021,
    "Ġlinear": 3433,
    "Ġskulls": 12956,
    "Ġins": 2781,
    "Ġharry": 24570,
    "Ġcomputation": 965,
    "Ġadvances": 12992,
    "Ġvoyager": 16510,
    "Ġrucastles": 18720,
    "Ġeloquent": 16108,
    "Ġsteepest": 3092,
    "Ġstuffed": 13407,
    "Ġbirch": 26174,
    "history": 15013,
    "Ġspl": 2984,
    "reast": 17757,
    "Ġsaturn": 22900,
    "flight": 15350,
    "entric": 11617,
    "Ġtransformations": 3483,
    "likeness": 19476,
    "trifling": 19412,
    "Ġjunk": 15950,
    "Ġprecaution": 11196,
    "Ġscimet": 22291,
    "cloudless": 20331,
    "ope": 4124,
    "occasion": 7754,
    "Ġjungfrau": 15246,
    "Ġdrink": 4787,
    "famous": 16915,
    "Ġvagabond": 20202,
    "inferiors": 25346,
    "Ġsort": 1507,
    "ics": 3259,
    "Ġdusky": 13547,
    "narwhale": 17316,
    "ative": 737,
    "which": 1707,
    "innocence": 15181,
    "Ġuneasiness": 9482,
    "Ġsinew": 25431,
    "Ġpoultry": 17439,
    "youth": 11872,
    "bott": 9104,
    "Ġrelentless": 26277,
    "urned": 9304,
    "Ġcorrespond": 6209,
    "Ġscorch": 20065,
    "Ġsorting": 3236,
    "Ġpeak": 16123,
    "nursery": 26398,
    "recurring": 24193,
    "Ġsnorting": 23739,
    "walls": 25345,
    "Ġdressed": 5081,
    "û": 188,
    "Ġsoaring": 22075,
    "comed": 8545,
    "Ġindifference": 6725,
    "Ġfishy": 16523,
    "Ġregard": 3069,
    "Ġpoul": 15609,
    "Ġimpl": 7195,
    "Ġencoura": 1365,
    "umbers": 10917,
    "obliged": 20630,
    "peace": 13045,
    "Ġfixed": 2686,
    "aust": 15307,
    "Ġhauling": 14085,
    "Ġpatronage": 17052,
    "Ġwaistcoat": 12267,
    "Ġeccentric": 13647,
    "address": 14879,
    "Ġsocieties": 20181,
    "Ġodds": 13327,
    "Ġhungry": 10531,
    "Ġpew": 9313,
    "Ġrandom": 1589,
    "Ġcurse": 7668,
    "Ġfierc": 18713,
    "Ġtelegra": 11887,
    "Ġdescended": 7428,
    "office": 16389,
    "cils": 20813,
    "aborate": 14020,
    "Ġcork": 12565,
    "Ġesteem": 7531,
    "turns": 14904,
    "lested": 14881,
    "Ġmeanwhile": 5736,
    "iously": 2677,
    "iors": 9124,
    "articulate": 17396,
    "ampton": 18144,
    "Ġslim": 18936,
    "Ġclapping": 14201,
    "Ġembellished": 25848,
    "Ġattention": 1168,
    "rumours": 23897,
    "Ġdry": 5624,
    "Ġfra": 1784,
    "through": 4024,
    "Ġsignific": 3828,
    "difference": 13706,
    "condescended": 26249,
    "Ġclutched": 13517,
    "sters": 6391,
    "Ġcinque": 20484,
    "Ġtortures": 14921,
    "such": 3086,
    "Ġneeded": 7718,
    "dispositions": 25011,
    "Ġbarnacled": 25536,
    "Ġpropensity": 18996,
    "Ġwedding": 4858,
    "Ġepsom": 19981,
    "Ġjurymen": 16846,
    "Ġslaugh": 18937,
    "Ġostlers": 25276,
    "Ġrises": 9711,
    "elihood": 4623,
    "Ġmantel": 11438,
    "usages": 22278,
    "ux": 7814,
    "eyes": 5684,
    "Ġconven": 6151,
    "Ġpride": 3823,
    "whis": 7899,
    "substance": 15229,
    "ples": 6845,
    "Ġsurve": 9872,
    "Ġwoven": 9924,
    "Ġwrite": 3821,
    "Ġvilla": 14745,
    "Ġmanners": 3790,
    "Ġprocessing": 892,
    "neath": 12862,
    "Ġwholly": 4447,
    "pot": 10116,
    "Ġstrive": 23692,
    "Ġoverlook": 10959,
    "ation": 320,
    "frequently": 9977,
    "Ġquartered": 20371,
    "beds": 16585,
    "efficient": 2872,
    "consist": 14814,
    "uzza": 11269,
    "pay": 10717,
    "ĠâĢľâĢĺ": 8503,
    "Ġconnections": 973,
    "Ġsteals": 23082,
    "extraordinary": 9093,
    "Ġshaster": 21996,
    "Ġtumult": 7114,
    "frequent": 15351,
    "gyric": 19109,
    "Ġparametric": 2396,
    "agon": 7872,
    "Ġirrevoc": 15037,
    "Ġhip": 17920,
    "isting": 5550,
    "Ġplaning": 22599,
    "biqu": 17496,
    "ĠĠĠĠ": 460,
    "pursued": 17280,
    "Ġovercame": 9744,
    "Ġtradesman": 20071,
    "Ġcaresses": 26059,
    "Ġcrisp": 11999,
    "sales": 17666,
    "Ġlend": 17962,
    "Ġfordham": 21774,
    "church": 8140,
    "Ġcontroverted": 23251,
    "Ġenquired": 21938,
    "falling": 24360,
    "anatory": 21361,
    "Ġcharitable": 23268,
    "appre": 14369,
    "principle": 10649,
    "Ġneatly": 17015,
    "expedition": 26078,
    "somewhat": 11159,
    "becoming": 18519,
    "yarn": 15455,
    "less": 927,
    "Ġpa": 2989,
    "Ġsaw": 1349,
    "Ġsensibility": 14511,
    "Ġcompute": 2906,
    "strength": 13973,
    "Ġforgive": 8010,
    "Ġtwo": 1044,
    "Ġbiographical": 22763,
    "Ġaware": 5756,
    "Ġreplenished": 13634,
    "Ġwip": 13851,
    "Ġperceived": 4714,
    "vinegar": 25420,
    "Ġcentaurs": 23830,
    "Ġdividing": 12108,
    "bold": 17486,
    "Ġblu": 2687,
    "bearings": 25371,
    "Ġconfines": 23304,
    "Ġidentifies": 12011,
    "Ġpipeline": 2500,
    "Ġidiot": 11968,
    "Ġbankers": 24301,
    "Ġjelly": 22298,
    "Ġsaloon": 24060,
    "Ġboarded": 13231,
    "Ġrelapses": 26278,
    "Ġnecessitated": 23925,
    "Ġfirst": 936,
    "Ġeyel": 17095,
    "Ġfreedom": 9081,
    "Ġmemorable": 16425,
    "known": 3566,
    "etition": 7382,
    "Ġsubdiv": 16156,
    "Ġintegrity": 12310,
    "Ġoverflowing": 17236,
    "Ġdragg": 23216,
    "undertaking": 23785,
    "Ġadapted": 11042,
    "Ġabsurd": 7202,
    "Ġhunch": 18934,
    "belais": 24035,
    "Ġhowl": 12851,
    "Ġrecent": 7436,
    "Ġremnants": 22790,
    "Ġsoul": 2725,
    "Ġvague": 6406,
    "compan": 7301,
    "rador": 19158,
    "keeping": 8634,
    "Ġchaplain": 19911,
    "Ġundoubted": 19513,
    "tremble": 17140,
    "Ġhaven": 8473,
    "undoubtedly": 13309,
    "Ġrain": 5005,
    "Ġexacted": 23602,
    "Ġnovelist": 24777,
    "Ġpollard": 20384,
    "Ġexploit": 19161,
    "fluke": 25204,
    "Ġlav": 13948,
    "Ġknew": 2054,
    "Ġpag": 6011,
    "Ġfervent": 14899,
    "wand": 10737,
    "Ġrav": 14303,
    "excepting": 19705,
    "Ġnovel": 6695,
    "Ġchannel": 26012,
    "Ġinequal": 21495,
    "Ġoutweigh": 22320,
    "games": 20879,
    "Ġtumble": 16878,
    "Ġphilosophy": 7103,
    "Ġduration": 20352,
    "Ġmasterly": 23991,
    "bell": 7332,
    "Ġxiii": 25591,
    "ulated": 6030,
    "Ġendeavored": 19301,
    "complet": 11382,
    "disgraceful": 26076,
    "](": 11465,
    "volutional": 1933,
    "opotam": 22477,
    "fed": 11486,
    "Ġoverfitting": 1544,
    "Ġbashee": 19848,
    "Ġpainting": 13139,
    "Ġkeel": 6444,
    "kily": 20936,
    "Ġjunior": 15097,
    "Ġexempl": 21828,
    "justine": 7683,
    "Ġubiquitous": 26195,
    "Ġhapp": 1089,
    "Ġpurchased": 12257,
    "prevailed": 17343,
    "Ġmansion": 17809,
    "Ġsk": 960,
    "Ġcheating": 16364,
    "Ġmagistrate": 8234,
    "Ġinventing": 24861,
    "Ġinquiry": 6484,
    "Ġrusty": 14962,
    "Ġvarious": 3507,
    "Ġmishap": 20575,
    "Ġarabian": 9088,
    "shock": 19854,
    "Ġpanted": 21471,
    "_,âĢĻâĢĿ": 20399,
    "âĢĶ_": 3203,
    "rudential": 16709,
    "Ġattic": 16092,
    "Ġworst": 7444,
    "usions": 6159,
    "Ġthey": 576,
    "features": 14754,
    "cour": 4479,
    "Ġparch": 11723,
    "Ġbulge": 23855,
    "Ġapex": 24341,
    "Ġunfathomable": 20547,
    "phon": 4126,
    "Ġrivals": 20270,
    "protest": 24815,
    "least": 8783,
    "ective": 18174,
    "177": 20751,
    "absolutely": 10644,
    "Ġdavy": 25951,
    "Ġdependen": 1829,
    "Ġbreakers": 12052,
    "asingly": 17960,
    "nin": 17607,
    "Ġnational": 13940,
    "Ġtrifling": 10601,
    "Ġtitle": 11407,
    "archical": 1924,
    "Ġdependencies": 2314,
    "stone": 5089,
    "shr": 10979,
    "Ġportion": 7492,
    "Ġsearched": 15816,
    "Ġgrammars": 11401,
    "Ġeluded": 12918,
    "Ġconversation": 3332,
    "refusal": 24736,
    "Ġdrinking": 12165,
    "dict": 15337,
    "Ġesc": 2252,
    "Ġdevout": 14329,
    "Ġpled": 17907,
    "Ġjet": 5307,
    "Ġlangsdorff": 15274,
    "Ġpalsied": 25779,
    "appetite": 22847,
    "study": 15115,
    "sugg": 11838,
    "istence": 2492,
    "Ġregal": 16076,
    "Ġhypothesis": 14780,
    "Ġscru": 8192,
    "atre": 17769,
    "ots": 3297,
    "Ġmonosyllable": 20725,
    "Ġinanimate": 13931,
    "Ġsequential": 2133,
    "Ġsimply": 7218,
    "article": 22390,
    "merged": 11193,
    "Ġlengthwise": 10451,
    "Ġdepartment": 24240,
    "arrived": 12605,
    "Ġcontributed": 16006,
    "_,âĢĻ": 12430,
    "Ġpoint": 2055,
    "eagerly": 17314,
    "Ġroving": 22401,
    "Ġdefendants": 15138,
    "Ġatom": 18192,
    "forbid": 14347,
    "Ġjolly": 6858,
    "fro": 8732,
    "Ġsleeps": 10445,
    "Ġretiring": 16277,
    "Ġtranqu": 4606,
    "Ġmayhap": 18709,
    "Ġaccomplished": 7104,
    "constellation": 24608,
    "Ġfugitive": 17325,
    "Ġthought": 1093,
    "speed": 19407,
    "Ġmolasses": 25628,
    "Ġlazy": 17049,
    "Ġtart": 12523,
    "pet": 4867,
    "onds": 12990,
    "impe": 21706,
    "esting": 7412,
    "ise": 708,
    "cruising": 12276,
    "adieu": 26200,
    "educated": 17258,
    "Ġsettles": 22918,
    "Ġsentences": 2683,
    "mathemat": 19137,
    "ield": 2407,
    "Ġ60": 14873,
    "Ġuncork": 23428,
    "mn": 3574,
    "indisc": 22371,
    "Ġambition": 11431,
    "appointment": 24057,
    "quest": 4539,
    "Ġunconquerable": 22059,
    "emed": 3381,
    "Ġineffect": 13928,
    "Ġempt": 5051,
    "Ġcharming": 6628,
    "Ġarticulated": 24432,
    "blow": 9102,
    "Ġoblique": 20168,
    "Ġcosmopolitan": 20640,
    "Ġowl": 20082,
    "Ġoblong": 14319,
    "Ġcompass": 4409,
    "Ġthere": 563,
    "Ġdreading": 23797,
    "Ġconcerns": 12028,
    "itated": 4440,
    "Ġdripping": 13145,
    "Ġcasks": 7521,
    "wondered": 17028,
    "ntax": 934,
    "ook": 21003,
    "Ġmurmured": 7480,
    "Ġmexic": 14029,
    "pth": 2380,
    "Ġsuperb": 16443,
    "Ġoccupation": 9929,
    "iving": 1725,
    "inexplicable": 25809,
    "Ġrespond": 11175,
    "Ġbal": 1132,
    "awned": 19458,
    "drawing": 10485,
    "angles": 18290,
    "Ġaccord": 4026,
    "tacit": 21097,
    "orable": 8120,
    "Ġhey": 11639,
    "Ġgeneration": 2118,
    "shavings": 22463,
    "man": 1054,
    "conviction": 19963,
    "Ġhaste": 9002,
    "zening": 21147,
    "Ġwag": 10774,
    "Ġinterrupting": 19556,
    "etting": 21578,
    "talked": 14983,
    "Ġdownright": 16115,
    "Ġciv": 3310,
    "vanity": 24976,
    "Ġmurder": 4282,
    "Ġobsc": 7039,
    "nment": 20989,
    "Ġvoids": 25807,
    "teeth": 10354,
    "bots": 10081,
    "work": 1737,
    "Ġhovel": 8254,
    "Ġking": 2304,
    "wa": 5897,
    "Ġell": 17714,
    "pent": 3491,
    "queg": 1769,
    "Ġsituation": 4071,
    "blades": 24129,
    "Ġdisturb": 7107,
    "rises": 17654,
    "Ġultimate": 12346,
    "pect": 1256,
    "arrange": 23764,
    "practised": 20246,
    "eag": 20841,
    "quaker": 15759,
    "Ġdey": 11673,
    "Ġslu": 13834,
    "Ġbeacon": 21754,
    "Ġfishe": 15582,
    "Ġharbour": 19978,
    "Ġdusting": 24597,
    "Ġintervening": 17266,
    "Ġ20": 8613,
    "Ġwrinkled": 7264,
    "Ġsod": 11560,
    "jug": 17579,
    "id": 338,
    "Ġnobly": 22239,
    "Ġdistinguishing": 16495,
    "olidity": 18132,
    "Ġuns": 15833,
    "Ġwhip": 8451,
    "grate": 23410,
    "iterranean": 15546,
    "wards": 1278,
    "sky": 12507,
    "Ġthemselves": 3254,
    "itory": 12563,
    "Ġvictoria": 14871,
    "keen": 12778,
    "dings": 2152,
    "Ġausten": 5881,
    "Ġshipwrecked": 25687,
    "Ġpulled": 5660,
    "raint": 18316,
    "ppers": 7617,
    "cil": 8720,
    "Ġsob": 12779,
    "Ġfundament": 2928,
    "racting": 10350,
    "wet": 15450,
    "Ġmeditation": 16679,
    "Ġcamel": 25349,
    "Ġpilgrim": 25599,
    "Ġgorge": 13564,
    "Ġprofuse": 23564,
    "Ġsignifies": 19204,
    "afford": 14653,
    "handed": 7482,
    "Ġqu": 604,
    "irmed": 9237,
    "Ġaper": 17742,
    "Ġbully": 23854,
    "acetty": 24463,
    "Ġignoble": 19397,
    "Ġcaut": 6521,
    "commodore": 20624,
    "ization": 488,
    "Ġhedgehog": 10643,
    "Ġmuteness": 19415,
    "nades": 20996,
    "Ġreco": 9788,
    "Ġmutters": 23953,
    "Ġextinguish": 14326,
    "oubled": 23645,
    "Ġtawny": 20480,
    "Ġtuning": 3075,
    "Ġvineyard": 12327,
    "Ġangels": 11177,
    "Ġtumbling": 13824,
    "Ġdegener": 14046,
    "Ġirritated": 17241,
    "avating": 18606,
    "Ġpossessed": 5195,
    "Ġlaurel": 20653,
    "answering": 26004,
    "Ġencirc": 18731,
    "Ġvictim": 6098,
    "Ġunduly": 25994,
    "Ġbenefit": 8293,
    "quired": 21847,
    "cun": 20794,
    "useness": 22280,
    "shut": 10980,
    "Ġarm": 2494,
    "Ġgramm": 8171,
    "Ġindelible": 25694,
    "Ġpennies": 17269,
    "Ġwrig": 13064,
    "Ġcoer": 22578,
    "sisters": 13374,
    "Ġperpendicular": 7209,
    "Ġtrusty": 24102,
    "bergs": 18683,
    "igh": 2029,
    "Ġdependent": 14299,
    "Ġlookest": 22713,
    "eyeing": 14944,
    "alk": 1151,
    "Ġgiven": 1626,
    "Ġdigress": 24648,
    "Ġilluminating": 25245,
    "Ġvis": 1113,
    "Ġprefers": 20512,
    "Ġpharaoh": 26584,
    "share": 14236,
    "Ġclimes": 12836,
    "affold": 16561,
    "tack": 12509,
    "dirty": 20833,
    "ols": 2411,
    "sof": 17656,
    "?_âĢĿ": 12313,
    "Ġpretending": 19314,
    "Ġfashion": 4299,
    "Ġunexampled": 20358,
    "circumst": 5348,
    "Ġtotal": 4993,
    "Ġbru": 13893,
    "Ġintrodu": 1923,
    "Ġcontinuation": 22916,
    "Ġthus": 2036,
    "Ġcensure": 15093,
    "gorith": 549,
    "mph": 20970,
    "mankind": 14372,
    "Ġgets": 10838,
    "Ġcompar": 4771,
    "pass": 4292,
    "Ġmalignity": 10555,
    "vial": 17696,
    "aught": 2681,
    "Ġrounding": 16272,
    "Ġcapsized": 20088,
    "Ġlass": 15644,
    "Ĳ": 243,
    "Ġfreezing": 23881,
    "bel": 3835,
    "Ġknave": 11271,
    "Ġaustral": 12169,
    "screaming": 20324,
    "Ġdaboll": 25950,
    "pen": 1203,
    "lying": 7174,
    "Ġnewton": 3530,
    "Ġmisanthropic": 26559,
    "Ġsad": 3867,
    "wes": 17702,
    "behold": 12873,
    "Ġegress": 21619,
    "Ġanswerable": 23469,
    "consciously": 19624,
    "Ġamb": 9290,
    "Ġrejoinder": 24598,
    "Ġeaves": 15672,
    "howling": 18990,
    "Ġreproach": 9555,
    "hawk": 7121,
    "thereby": 14445,
    "fixedly": 24929,
    "animal": 16977,
    "blot": 20782,
    "Ġdoth": 13906,
    "Ġberth": 8679,
    "Ġnoiseless": 10355,
    "spir": 5738,
    "Ġdisturbance": 15011,
    "Ġballasted": 23977,
    "inclined": 10638,
    "gave": 7800,
    "Ġengine": 1918,
    "Ġseas": 3081,
    "Ġexpressing": 12005,
    "Ġalgorithm": 761,
    "Ġfree": 3376,
    "Ġclaw": 22345,
    "ials": 11703,
    "civilized": 17074,
    "Ġinfiltrated": 23281,
    "ry": 808,
    "afflicted": 23776,
    "]]": 5205,
    "Ġpersonal": 7479,
    "lessness": 5317,
    "Ġquito": 24407,
    "Ġuncont": 14114,
    "inform": 10142,
    "Ġmastiff": 23723,
    "buckets": 26123,
    "Ġunlike": 7004,
    "Ġagain": 815,
    "principal": 20659,
    "Ġdeliberation": 19967,
    "£": 101,
    "isher": 2879,
    "customary": 25895,
    "Ġdarling": 12600,
    "Ġbuy": 8300,
    "burn": 8371,
    "Ġreservo": 16830,
    "fly": 13712,
    "ieved": 3232,
    "iciously": 17973,
    "residence": 19262,
    "sneezes": 11445,
    "Ġspiral": 14583,
    "Ġcultured": 25154,
    "Ġuncertain": 4067,
    "Ġobviously": 16809,
    "Ġalluding": 18236,
    "Ġtransfer": 2292,
    "Ġstump": 7602,
    "Ġvillages": 14746,
    "ample": 1362,
    "pits": 15410,
    "Ġadventurous": 16732,
    "Ġpaddles": 15145,
    "Ġstreng": 18070,
    "Ġhaunt": 18197,
    "Ġusefulness": 19406,
    "Ġern": 8397,
    "Ġunfl": 22016,
    "Ġgovern": 10449,
    "roylott": 20025,
    "Ġsleeve": 20139,
    "grief": 13729,
    "Ġaquiline": 26159,
    "Ġbestowed": 6593,
    "france": 24281,
    "Ġoakshott": 12226,
    "Ġconjecture": 9530,
    "oll": 5456,
    "Ġantagonist": 26328,
    "Ġramsgate": 18644,
    "Ġindiscreet": 22954,
    "Ġabounding": 12341,
    "Ġminiatures": 20320,
    "lie": 12479,
    "Ġwhittingham": 26197,
    "Ġpermitted": 9276,
    "Ġintelligence": 561,
    "Ġlater": 6017,
    "owders": 18047,
    "Ġaspired": 25984,
    "Ġnecess": 3474,
    "Ġrecital": 16139,
    "unfearing": 21890,
    "Ġpainful": 6462,
    "Ġpedro": 14993,
    "Ġsuits": 22080,
    "ings": 633,
    "gallantry": 15059,
    "Ġmended": 21312,
    "Ġlavater": 20494,
    "Ġstuff": 5717,
    "Ġeverything": 3158,
    "!_âĢĶ": 19971,
    "Ġgrenadier": 21614,
    "Ġfigure": 4208,
    "Ġscal": 1696,
    "Ġhoars": 19075,
    "Ġriddles": 16731,
    "Ġchronic": 9927,
    "Ġwicked": 5961,
    "thread": 15823,
    "move": 11851,
    "Ġcab": 2635,
    "Ġjup": 15949,
    "firmly": 20279,
    "Ġse": 402,
    "Ġcrawford": 24893,
    "improve": 15708,
    "ivation": 3113,
    "sight": 5995,
    "ojo": 7349,
    "disappeared": 14569,
    "Ġblot": 9810,
    "Ġimages": 1601,
    "Ġ50": 24318,
    "once": 5904,
    "Ġfoam": 6891,
    "onial": 11565,
    "Ġtypewriting": 16418,
    "Ġoscillations": 2899,
    "Ġvigil": 9505,
    "soled": 14332,
    "Ġresolution": 5500,
    "Ġplane": 11820,
    "slowly": 9087,
    "meat": 18678,
    "Ġinvest": 4978,
    "aud": 8521,
    "impenet": 18053,
    "Ġproud": 5654,
    "returning": 12202,
    "Ġjewelled": 20182,
    "Ġknots": 15007,
    "Ġalternating": 15029,
    "cleanliness": 25871,
    "ssian": 3401,
    "Ġpaus": 4300,
    "material": 13127,
    "Ġsash": 17753,
    "Ġnapole": 15113,
    "Ġbuilt": 8301,
    "gust": 6360,
    "Ġhelmeted": 19687,
    "Ġmoreover": 6163,
    "Ġafghan": 22628,
    "mockery": 24377,
    "Ġply": 21452,
    "asily": 13944,
    "M": 49,
    "hypothe": 25905,
    "sul": 15419,
    "illum": 15866,
    "Ġtrees": 4204,
    "hearse": 17747,
    "Ġpurch": 6599,
    "Ġrespective": 16341,
    "Ġ103": 24410,
    "Ġbored": 16102,
    "glings": 23849,
    "yards": 9622,
    "Ġamidst": 9492,
    "Ġrevenge": 5452,
    "Ġnodded": 11966,
    "strange": 6087,
    "slave": 16894,
    "others": 7670,
    "Ġcows": 15549,
    "Ġseverely": 14931,
    "Ġphys": 5653,
    "Ġprint": 18970,
    "ois": 9133,
    "Ġgrimly": 17051,
    "Ġdetective": 14404,
    "Ġdrive": 5055,
    "Ġremorseless": 13449,
    "belong": 12119,
    "Ġpathetic": 19032,
    "Ġremembered": 5276,
    "halloa": 17089,
    "dear": 6555,
    "Ġrelative": 11880,
    "Ġconverted": 16112,
    "Ġderivatives": 2370,
    "Ġperempt": 13671,
    "animals": 24738,
    "Ġhangs": 11604,
    "raham": 18013,
    "Ġtorn": 6000,
    "arpening": 21442,
    "Ġfo": 1650,
    "Ġaisle": 21200,
    "terday": 4705,
    "Ġresearches": 13129,
    "Ġkeenly": 9483,
    "cular": 15326,
    "Ġembraces": 19871,
    "Ġloosened": 26002,
    "Ġlaug": 3625,
    "Ġtriumphantly": 11286,
    "Ġbuckskin": 19950,
    "dation": 2614,
    "\",": 10677,
    "Ġbelong": 3885,
    "Ġwise": 6811,
    "Ġcirclings": 26430,
    "disputed": 23498,
    "uerus": 26405,
    "Ġchange": 1993,
    "Ġwooden": 4730,
    "ootiful": 17371,
    "fright": 9594,
    "Ġcontingency": 26244,
    "Ġoriginal": 6102,
    "distinct": 13333,
    "Ġfatal": 5871,
    "Ġgaped": 13965,
    "Ġguilty": 7250,
    "Ġbil": 15561,
    "Ġsigning": 22706,
    "entials": 22662,
    "Ġpapered": 20129,
    "loops": 12878,
    "Ġmou": 13853,
    "Ġconfl": 11136,
    "Ġcus": 21341,
    "Ġfrolic": 23921,
    "Ġstill": 1156,
    "Ġdistinctly": 7311,
    "want": 8765,
    "Ġtartar": 17320,
    "Ġhammered": 13237,
    "Ġenvied": 19311,
    "iless": 10280,
    "Ġguitar": 16266,
    "Ġculprit": 26172,
    "Ġwid": 4633,
    "cannib": 11899,
    "Ġdeformity": 11674,
    "ġ": 226,
    "Ġsacrific": 15016,
    "Ġloadstone": 25816,
    "Ġoftentimes": 20154,
    "Ġbreat": 3460,
    "telling": 14438,
    "swinging": 25912,
    "Ġaxe": 15062,
    "lively": 12481,
    "Ġthousandth": 23683,
    "Ġpursuit": 4733,
    "Ġcushion": 17833,
    "ibilities": 13004,
    "Ġgrec": 18961,
    "pos": 15408,
    "Ġfierceness": 26265,
    "lined": 12480,
    "Ġgem": 21592,
    "mown": 20969,
    "listened": 15042,
    "Ġfretfully": 25447,
    "Ġnobody": 6158,
    "Ġdreamed": 16628,
    "insisted": 23065,
    "Ġcott": 3707,
    "Ġdefe": 21833,
    "Ġaudio": 24772,
    "Ġspaniard": 20361,
    "Ġgetting": 4065,
    "Ġple": 1471,
    "date": 17516,
    "Ġcask": 5527,
    "Ġenchant": 7185,
    "helmsman": 24286,
    "Ġterrified": 14670,
    "wood": 5898,
    "Ġstrange": 2272,
    "ural": 503,
    "Ġabated": 18390,
    "Ġmilky": 9945,
    "erie": 21270,
    "vicious": 21117,
    "Ġrealistic": 5860,
    "Ġsuperseded": 26224,
    "Ġorders": 5340,
    "Ġcommunion": 19007,
    "Ġpolitic": 23617,
    "cement": 2818,
    "Ġendeavour": 4678,
    "Ġopium": 8993,
    "hit": 20888,
    "Ġimbedded": 18332,
    "Ġunjust": 8483,
    "Ġ70": 11275,
    "manners": 16182,
    "illing": 8175,
    "Ġdaugh": 2290,
    "ection": 4948,
    "Ġgrowing": 6750,
    "pul": 8753,
    "rove": 21531,
    "Ġlanguid": 14212,
    "carp": 9108,
    "Ġbutchers": 18272,
    "Ġwont": 9850,
    "Ġhemp": 9214,
    "Ġexcited": 5579,
    "Ġaccompan": 5513,
    "bird": 9584,
    "Ġvineyards": 25106,
    "Ġostentatiously": 20467,
    "Ġmonomania": 17084,
    "Ġexplored": 23515,
    "Ġasked": 2276,
    "Ġhood": 10822,
    "icing": 9199,
    "gue": 12464,
    "T": 56,
    "Ġarticulate": 24431,
    "ricted": 15418,
    "ast": 473,
    "Ġcomfort": 3439,
    "Ġsacrifice": 9554,
    "thoughts": 9933,
    "brimming": 23575,
    "Ġquoted": 22413,
    "arrangement": 17413,
    "icts": 22398,
    "ie": 729,
    "Ġpooh": 18604,
    "Ġpowers": 5419,
    "ouncement": 11738,
    "Ġcontemplative": 19892,
    "Ġfatigue": 8697,
    "leman": 21366,
    "Ġcared": 8781,
    "Ġmerchants": 23731,
    "Ġcool": 5735,
    "Ġunreasonably": 17449,
    "Ġsir": 1572,
    "Ġstormy": 16727,
    "Ġdenial": 13212,
    "Ġsuperlatively": 26075,
    "Ġsingular": 4424,
    "twain": 23699,
    "ered": 1683,
    "ason": 1244,
    "lives": 12482,
    "Ġnorris": 23202,
    "Ġblandly": 20322,
    "helping": 23138,
    "plac": 15813,
    "Ġ52": 24320,
    "Ġtraces": 7946,
    "Ġindulging": 16903,
    "Ġaccumul": 1412,
    "Ġupon": 719,
    "Ġweariness": 19793,
    "extinguish": 22770,
    "Ġheadstrong": 14386,
    "Ġindividual": 5744,
    "Ġdescribes": 3124,
    "Ġcopies": 24935,
    "ze": 1354,
    "Ġchewed": 16367,
    "Ġoftener": 13563,
    "Ġdiscoveries": 13356,
    "unciation": 25982,
    "Ġcollinses": 19129,
    "vap": 13801,
    "mark": 5281,
    "Ġstraw": 9427,
    "Ġfighting": 12194,
    "Ġterminated": 23507,
    "Ġbrooded": 23101,
    "Ġgregarious": 18964,
    "Ġadroit": 26000,
    "scor": 13012,
    "Ġpallor": 13514,
    "isol": 17846,
    "shoals": 24717,
    "pire": 9134,
    "zealand": 26054,
    "idav": 18092,
    "Ġcreases": 22726,
    "Ġenlightened": 12742,
    "Ġturnkeys": 23028,
    "Ġbosoms": 16794,
    "itioned": 22467,
    "max": 1684,
    "bunger": 20400,
    "belonged": 25597,
    "Ġpebbles": 16126,
    "infidel": 24663,
    "Ġdistingu": 2517,
    "Ġwithin": 2165,
    "sn": 7138,
    "Ġden": 3110,
    "Ġshut": 3942,
    "Ġlan": 5820,
    "Ġdownstream": 3775,
    "caused": 25519,
    "cu": 10082,
    "ruded": 15894,
    "amb": 5723,
    "Ġheadland": 22896,
    "omet": 3078,
    "Ġinsignificant": 20455,
    "Ġillustrative": 25066,
    "Ġother": 759,
    "ject": 875,
    "Ġble": 5223,
    "plumed": 21953,
    "Ġimpersonal": 17394,
    "Ġjumped": 7096,
    "reshold": 21238,
    "family": 7324,
    "databases": 3025,
    "Ġsunwards": 19010,
    "Ġfoundation": 4233,
    "Ġunlabeled": 3800,
    "Ġacceptable": 16743,
    "ily": 1034,
    "Ġplace": 1651,
    "went": 6512,
    "comput": 2085,
    "Ġjoining": 13162,
    "iasm": 8061,
    "Ġoblivion": 26031,
    "Ġforwarded": 19043,
    "tically": 3394,
    "Ġcannibal": 7774,
    "Ġmisled": 22756,
    "cent": 8073,
    "Ġhandsomer": 20332,
    "queen": 12723,
    "augh": 1781,
    "skinned": 25387,
    "obscure": 23095,
    "claims": 25319,
    "hering": 12810,
    "Ġenticing": 22744,
    "mil": 13750,
    "Ġabaft": 22272,
    "Ġidler": 16402,
    "wam": 10134,
    "dining": 13703,
    "Ġnavigators": 19762,
    "Ġpursuers": 13223,
    "Ġadver": 5641,
    "Ġimpud": 18445,
    "Ġtro": 7356,
    "Ġoutcast": 18414,
    "Ġlacey": 10196,
    "ortations": 22256,
    "Ġkings": 7197,
    "just": 1699,
    "wont": 21131,
    "Ġincorruption": 26309,
    "Ġhuzza": 12629,
    "Ġwindow": 2997,
    "Ġcakes": 13882,
    "Ġmajor": 13289,
    "Ġmyst": 4050,
    "Ġbarbara": 24818,
    "Ġcorroded": 18875,
    "Ġplumage": 17296,
    "Ġoutsk": 15953,
    "desper": 13066,
    "Ġcapital": 7980,
    "Ġsprung": 11248,
    "Ġchestnuts": 24380,
    "honour": 13465,
    "Ġincome": 7918,
    "bern": 20774,
    "Ġmogul": 12858,
    "Ġvisitors": 7985,
    "Ġprofund": 13151,
    "Ġhonorable": 16875,
    "bench": 16802,
    "ole": 9612,
    "Ġcriminal": 7537,
    "asant": 17958,
    "ources": 2789,
    "Ġfunctional": 3051,
    "Ġshoreless": 24294,
    "Ġbelt": 12999,
    "Ġahoy": 12181,
    "Ġniece": 5712,
    "Ġchained": 16385,
    "Ġconfidently": 24957,
    "Ġcontracted": 12856,
    "Ġhe": 318,
    "Ġaccompanying": 11303,
    "speak": 5504,
    "Ġroyal": 5601,
    "rets": 12537,
    "kes": 3676,
    "Ġeyes": 1334,
    "necessarily": 19630,
    "Ġdeposit": 17267,
    "Ġcrutch": 23445,
    "investments": 25532,
    "cks": 3083,
    "erman": 5108,
    "Ġeel": 18001,
    "Ġhuman": 1316,
    "Ġpalms": 8643,
    "Ġstru": 2172,
    "traversed": 19638,
    "swe": 5996,
    "rabbit": 20589,
    "instance": 24167,
    "Ġsledge": 8111,
    "Ġevian": 24291,
    "thes": 7391,
    "ias": 6362,
    "Ġpoker": 13920,
    "Ġpyth": 21460,
    "brew": 11472,
    "Ġregulate": 22586,
    "Ġprofoundest": 16859,
    "colour": 9901,
    "Ġeveryone": 8916,
    "Ġmiscellaneous": 17461,
    "break": 6101,
    "Ġenveloping": 19732,
    "ĕ": 214,
    "Ġjeopard": 9941,
    "Ġsuppressing": 22996,
    "Ġcomplaint": 24776,
    "Ġtraced": 10382,
    "exe": 11786,
    "giana": 7801,
    "perceive": 12806,
    "Ġswamp": 14435,
    "Ġunluckily": 20100,
    "sis": 1869,
    "Ġeconomical": 25287,
    "Ġwipe": 25764,
    "Ġundeviating": 15215,
    "de": 459,
    "Đ": 209,
    "Ġmounts": 17806,
    "illuminated": 17451,
    "Ġmoderately": 22217,
    "Ġrecur": 1621,
    "Ġkilling": 13330,
    "tures": 21068,
    "incible": 16496,
    "adventures": 20255,
    "Ġsigned": 11176,
    "ernal": 4313,
    "Ġprime": 10403,
    "Ġsixpence": 19316,
    "priv": 9618,
    "overcoat": 19051,
    "Ġsumm": 3357,
    "Ġcruellest": 19657,
    "Ġirretrie": 23372,
    "Ġstrung": 22617,
    "Ġnimble": 21526,
    "Ġsuavely": 26522,
    "owing": 7601,
    "Ġprevent": 757,
    "akin": 11765,
    "Ġarguing": 25470,
    "over": 1845,
    "Ġsummary": 19402,
    "Ġvolcanoes": 24145,
    "overspreading": 26139,
    "Ġconductor": 24004,
    "Ġinvesting": 19645,
    "interchange": 23737,
    "somebody": 14564,
    "Ġstable": 2699,
    "Ġunho": 18245,
    "quarter": 11387,
    "base": 20776,
    "Ġreverence": 12056,
    "Ġhistor": 3391,
    "Ġinvis": 6902,
    "Ġforeseen": 16441,
    "Ġsharpen": 13567,
    "Ġpoet": 8208,
    "Ġaux": 21198,
    "Ġhealthcare": 8016,
    "Ġcharm": 4549,
    "Ġpall": 7582,
    "osh": 18388,
    "Ġseized": 4833,
    "Ġpremises": 10486,
    "ishmael": 18420,
    "informed": 17735,
    "Ġmapple": 11149,
    "Ġbandaged": 16841,
    "Ġphantom": 8706,
    "Ġdiscount": 22777,
    "Ġlirra": 21558,
    "Ġ5": 4935,
    "Ġresolves": 23647,
    "i": 77,
    "Ġunshored": 25813,
    "alse": 4185,
    "Ġbanker": 8666,
    "chie": 21688,
    "supp": 4160,
    "Ġgrateful": 7660,
    "Ġturtles": 19220,
    "up": 1284,
    "ĠĠĠĠĠĠĠĠĠĠĠĠĠĠĠĠĠĠĠĠĠĠĠĠĠĠĠĠĠĠĠĠĠĠĠĠ": 23666,
    "wra": 11540,
    "Ġwhichever": 13998,
    "Ġfatt": 15575,
    "Ġstony": 21737,
    "function": 4333,
    "Ġtearless": 24786,
    "breaking": 14763,
    "Ġdisasters": 16051,
    "Ġruefully": 17299,
    "Ġminimizing": 3464,
    "Ġtenth": 13823,
    "figure": 13553,
    "Ġhousekeeper": 7456,
    "Ġroute": 11380,
    "iony": 9190,
    "Ġsurveying": 25325,
    "Ġlock": 5928,
    "Ġharpooning": 23976,
    "Ġninetieth": 25357,
    "Ġgaping": 13967,
    "elizabeth": 1986,
    "95": 17476,
    "fashion": 8081,
    "Ġdirectly": 2105,
    "collins": 6916,
    "honey": 20904,
    "parad": 16392,
    "yp": 1046,
    "hospit": 25903,
    "Ġordinarily": 20648,
    "Ġcursory": 18858,
    "itute": 9650,
    "ator": 1921,
    "Ġspurn": 18309,
    "©": 107,
    "Ġstings": 21732,
    "L": 48,
    "Ġconsec": 21803,
    "_),": 7125,
    "Ġmarbank": 23037,
    "remained": 8569,
    "Ġgreen": 3055,
    "offic": 7466,
    "Ġdoubloons": 13432,
    "Ġexamination": 8005,
    "Ġassistants": 9449,
    "dem": 10690,
    "Ġorgan": 2505,
    "akers": 9738,
    "manner": 6170,
    "Ġglided": 7447,
    "Ġneighbours": 8303,
    "mael": 6723,
    "Ġgest": 8134,
    "Ġprouder": 18973,
    "urity": 8143,
    "pitching": 24073,
    "Ġcasually": 25093,
    "Ġabstract": 17180,
    "the": 334,
    "Ġtruce": 24114,
    "rival": 12738,
    "exagger": 22426,
    "Ġautonom": 10414,
    "Ġwhence": 5839,
    "Ġgoney": 14544,
    "Ġpubl": 3940,
    "Ġexploring": 4306,
    "change": 6392,
    "Ġrepose": 6741,
    "Ġdisappointing": 19578,
    "Ġyaw": 18094,
    "Ġwell": 901,
    "pha": 22752,
    "Ġtests": 8955,
    "arrang": 14651,
    "Ġtill": 1825,
    "Ġar": 483,
    "Ġoverspread": 14205,
    "Ġsolitary": 5854,
    "adventurous": 25361,
    "Ġsane": 21220,
    "Ġmaria": 7124,
    "previous": 9758,
    "Ġgoug": 17990,
    "Ġplentiful": 12907,
    "beware": 16037,
    "Ġbounded": 16625,
    "Ġimagine": 3924,
    "Ġsuccession": 12098,
    "Ġpromotion": 23192,
    "Ġoffences": 18693,
    "onings": 21251,
    "400": 20754,
    "I": 45,
    "Ġcirculating": 23371,
    "lish": 1949,
    "sheet": 16283,
    "Ġrickety": 26504,
    "Ġcloudy": 19475,
    "Ġparamount": 15875,
    "athan": 2957,
    "Ġcrowds": 14737,
    "Ġlikewise": 5386,
    "Ġpious": 11597,
    "bald": 16445,
    "Ġpenalizing": 13088,
    "Ġun": 422,
    "Ġpresently": 5116,
    "Ġlegitimate": 20641,
    "Ġantarctic": 19551,
    "Ġfinger": 5273,
    "side": 2301,
    "dimens": 2317,
    "Ġhousings": 21491,
    "ģ": 228,
    "Ġcount": 1816,
    "Ġspend": 5304,
    "ken": 2802,
    "Ġhaggerston": 26451,
    "Ġfasten": 11131,
    "Ġdelighted": 5499,
    "Ġaloud": 6252,
    "eted": 7591,
    "crossed": 16631,
    "Ġexists": 14039,
    "Ġphilosophical": 26334,
    "south": 8758,
    "Ġlobes": 22113,
    "offensive": 16391,
    "Ġspent": 3965,
    "Ġbrute": 8925,
    "Ġevangelical": 25506,
    "Ġbowsprit": 16559,
    "glory": 23850,
    "Ġcontract": 18475,
    "Ġpence": 17905,
    "Ġsmart": 11812,
    "awed": 10390,
    "Ġlurks": 11289,
    "Ġashamed": 6403,
    "Ġwall": 3842,
    "Ġfast": 1715,
    "diversity": 25897,
    "squall": 13520,
    "arrested": 15597,
    "nant": 17608,
    "bug": 17491,
    "Ġineffectual": 17382,
    "Ġcontain": 1554,
    "Ġsteak": 9827,
    "Ġarcher": 22188,
    "Ġwhistle": 9065,
    "Ġpin": 7161,
    "Ġmercenary": 17192,
    "Ġunusually": 15843,
    "Ġnations": 8808,
    "aggo": 5097,
    "Ġinhuman": 13927,
    "Ġavocation": 23950,
    "ain": 343,
    "Ġwonders": 7500,
    "sign": 8388,
    "accurately": 25861,
    "Ġflee": 7079,
    "sink": 11520,
    "Ġpurse": 12007,
    "Ġexcused": 23312,
    "Ġmend": 8406,
    "Ġmanufact": 22326,
    "Ġtash": 13818,
    "Ġlive": 2736,
    "Ġgermany": 25785,
    "Ġroyals": 19531,
    "Ġfac": 6381,
    "Ġmachinations": 25767,
    "circumstantial": 24443,
    "Ġproc": 5544,
    "pronouncing": 25193,
    "Ġskilful": 25837,
    "Ġforwards": 12699,
    "Ġsatisfy": 6912,
    "made": 4808,
    "Ġdespised": 14665,
    "Ġcarpets": 18902,
    "va": 4743,
    "ignity": 4375,
    "Ġbreathe": 9010,
    "chel": 11206,
    "Ġbreak": 2870,
    "sets": 17659,
    "Ġgerman": 6141,
    "Ġponderous": 8355,
    "counter": 20277,
    "Ġautomatically": 3799,
    "phil": 7926,
    "Ġthom": 21514,
    "Ġross": 2764,
    "arising": 17895,
    "Ġchallenge": 25471,
    "Ġencaps": 12958,
    "Ġused": 2059,
    "Ġ[\"": 19929,
    "Ġcetacea": 20552,
    "Ġrepeatedly": 9019,
    "Ġunsupplied": 22039,
    "Ġpreventing": 882,
    "Ġmiser": 18705,
    "Ġself": 1777,
    "fell": 6953,
    "fork": 20856,
    "eze": 20846,
    "Ġwakes": 11570,
    "Ġencode": 4366,
    "Ġsweetly": 23916,
    "ustom": 3789,
    "Ġadagrad": 2904,
    "ceptive": 15965,
    "dire": 15334,
    "scarcely": 12383,
    "stout": 21637,
    "rust": 2581,
    "turtle": 12208,
    "llable": 6878,
    "Ġhawsers": 26501,
    "Ġbir": 17853,
    "Ġchasing": 11751,
    "Ġcomplained": 16997,
    "Ġflattering": 13026,
    "Ġguests": 12284,
    "Ġpest": 13911,
    "treasures": 26152,
    "Ġverify": 12084,
    "Ġpaddle": 20057,
    "Ġdrowning": 19903,
    "tarpaul": 21096,
    "Ġclock": 9531,
    "bore": 13684,
    "Ġdistress": 5844,
    "enesis": 24387,
    "._]]": 5334,
    "square": 15060,
    "Ġcomplain": 6685,
    "Ġroanoke": 22405,
    "fold": 7546,
    "lantern": 17426,
    "Ġpinched": 17034,
    "larking": 17593,
    "dilig": 17281,
    "fleet": 15012,
    "trade": 19635,
    "Ġfaces": 6009,
    "Ġhalloa": 13314,
    "Ġbuck": 7157,
    "Ġbrewed": 23345,
    "Ġcranial": 25592,
    "Ġfacts": 2286,
    "Ġfoul": 7159,
    "irs": 14069,
    "Ġpop": 5151,
    "lads": 20954,
    "lesson": 22766,
    "Ġcultiv": 13554,
    "iscuits": 24666,
    "keys": 15855,
    "thrust": 10260,
    "Ġeh": 6987,
    "Ġgrammatical": 13537,
    "battle": 12439,
    "Ġbrothers": 13173,
    "Ġfootfall": 14660,
    "Ġhumming": 12981,
    "furthest": 19840,
    "Ġcompat": 2939,
    "Ġyarman": 12701,
    "Ġpartner": 6714,
    "Ġsqueeze": 10037,
    "Ġtantamount": 25625,
    "Ġbuffaloes": 25217,
    "Ġshow": 3403,
    "pre": 648,
    "uss": 8763,
    "Ġdl": 3377,
    "is": 280,
    "Ġsteer": 10385,
    "Ġconcluding": 9855,
    "Ġsuited": 12782,
    "seeking": 17151,
    "use": 2537,
    "Ġpropriety": 10008,
    "Ġrefusing": 11027,
    "Ġstrongly": 5657,
    "getic": 12962,
    "ock": 15400,
    "Ġmirth": 15541,
    "Ġuniverse": 14122,
    "obed": 14444,
    "Ġrelish": 14382,
    "aited": 12432,
    "Ć": 199,
    "Ġtarquin": 23609,
    "Ġnailing": 21525,
    "aried": 10986,
    "Ġpenn": 11111,
    "--âĢľ": 12968,
    "Ġcompared": 2228,
    "Ġboomer": 20166,
    "dragged": 16607,
    "Ġsubst": 4275,
    "Ġmagg": 18905,
    "ognit": 19185,
    "discover": 10538,
    "revealed": 20414,
    "influence": 13576,
    "Ġupd": 945,
    "att": 1459,
    "Ġwrites": 23199,
    "Ġrural": 21965,
    "Ġfielding": 16230,
    "Ġtracing": 18889,
    "meth": 11501,
    "Ġinterference": 8893,
    "Ġporus": 24397,
    "Ġwaifing": 25243,
    "Ġimpossible": 3540,
    "Ġfar": 1452,
    "image": 9684,
    "longing": 23724,
    "waves": 10741,
    "Ġstubbornness": 25380,
    "uling": 2257,
    "Ġtragic": 15253,
    "Ġpersu": 3561,
    "Ġtriumph": 5143,
    "udding": 11862,
    "bale": 20773,
    "Ġthat": 335,
    "77": 15298,
    "Ġconflagration": 26364,
    "Ġsold": 6003,
    "Ġclothed": 19605,
    "Ġlizzie": 26461,
    "Ġsuperhuman": 23452,
    "Ġacquies": 11096,
    "Ġutterly": 6100,
    "Ġprotracted": 19467,
    "inked": 12909,
    "Ġunfulfilled": 26508,
    "Ġdied": 4110,
    "âĢĻ": 378,
    "Ġinvolves": 1080,
    "Ġreturns": 11923,
    "Ġunder": 1634,
    "Ġparticip": 16128,
    "Ġsord": 21218,
    "Ġcongratulated": 19765,
    "Ġmystical": 12129,
    "Ġwoll": 21292,
    "Ġserpentine": 11359,
    "uries": 6147,
    "è": 169,
    "Ġlees": 18075,
    "ĠĠĠĠĠĠĠĠĠĠĠĠĠĠĠĠĠĠĠĠĠĠĠĠĠĠĠĠĠĠĠĠĠĠĠĠĠĠĠĠĠĠĠĠĠĠ": 9951,
    "Ġbarrow": 12066,
    "Ġkind": 1783,
    "Ġstreat": 15717,
    "liking": 22922,
    "ittered": 18439,
    "Ġmonica": 22978,
    "Ġtempered": 12919,
    "gigantic": 15357,
    "th": 408,
    "Ġtaken": 2530,
    "Ġgilder": 21611,
    "Ġperfectly": 3699,
    "Ġalabama": 14017,
    "Ġcondescending": 24868,
    "Ġspain": 15877,
    "Ġstrife": 18614,
    "apparently": 15202,
    "Ġmight": 963,
    "short": 6566,
    "Ġmetropolitan": 17274,
    "creation": 14804,
    "Ġtin": 15461,
    "Ġstripped": 10464,
    "iriously": 18171,
    "Ġsuppression": 22995,
    "É": 138,
    "cottagers": 20046,
    "Ġsuperst": 7704,
    "osoever": 17341,
    "Ġinitial": 824,
    "Ġpan": 5082,
    "Ġwheeled": 14137,
    "arch": 1115,
    "Ġequilibrium": 4139,
    "Ġmetaphysical": 26070,
    "Ġconnect": 795,
    "Ġain": 6969,
    "Ġmitigating": 1617,
    "Ġreeling": 18032,
    "Ġpatiently": 19917,
    "weave": 22683,
    "Ġcontent": 5034,
    "Ġacquaint": 13041,
    "crimin": 17507,
    "itz": 6006,
    "Ġcrowned": 16840,
    "Ġclung": 10956,
    "Ġgreenwich": 19320,
    "aged": 2607,
    "Ġforgo": 21771,
    "Ġcens": 8413,
    "Ġreus": 8820,
    "Ġdug": 21429,
    "jammed": 25906,
    "Ġsixth": 16558,
    "warnings": 20350,
    "ised": 1081,
    "Ġsubterraneous": 20264,
    "irts": 9236,
    "Ġsudden": 1999,
    "Ġfreemason": 23211,
    "Ġdiffers": 23779,
    "Ġcontented": 9754,
    "Ġinstrum": 6055,
    "Ġghost": 6142,
    "Ġwill": 678,
    "Ġmeasureless": 14708,
    "duing": 22409,
    "Ġbackbone": 22653,
    "Ġundeniable": 26509,
    "Ġbordeaux": 24563,
    "Ġcorpusants": 13675,
    "Ġkent": 6691,
    "Ġxliv": 23407,
    "Ġeddystone": 25709,
    "disguise": 26306,
    "Ġspot": 4153,
    "Ġanswers": 7070,
    "Ġremains": 4910,
    "urch": 3994,
    "endous": 6850,
    "Ġbitt": 10795,
    "Ġscolded": 25472,
    "nantucketer": 24974,
    "prove": 11146,
    "Ġajar": 21201,
    "ouraged": 22855,
    "Ġenumer": 12741,
    "Ġplum": 11819,
    "ivance": 22081,
    "castles": 14635,
    "Ġthinner": 24181,
    "ries": 3355,
    "Ġprizes": 13071,
    "Ġsauce": 15887,
    "cri": 17504,
    "Ġemperors": 15157,
    "Ġwaif": 9373,
    "Ġmany": 1102,
    "diss": 17522,
    "Ġmidships": 23633,
    "cro": 13694,
    "Ġdiscol": 12949,
    "Ġtables": 9876,
    "musket": 25341,
    "Ġhousekeeping": 18943,
    "Ġsaid": 577,
    "aning": 2253,
    "Ġpurchas": 19873,
    "oboam": 9356,
    "spikes": 10340,
    "Ġorb": 22089,
    "Ġafrican": 20136,
    "luding": 6700,
    "Ġchannels": 26013,
    "Ġadv": 1179,
    "Ġobjectionable": 16990,
    "Ġnum": 1347,
    "ruff": 15892,
    "philips": 20033,
    "Ġapr": 12528,
    "Ġwilliam": 3481,
    "Ġcontraction": 16005,
    "Ġsatisf": 2808,
    "Ġaspects": 4173,
    "Ġfrank": 4420,
    "was": 1423,
    "pherd": 13642,
    "listener": 24930,
    "chain": 18039,
    "Ġhighlands": 22773,
    "Ġjacob": 1898,
    "rised": 10122,
    "Ġinfl": 6893,
    "Ġthieves": 15632,
    "Ġfut": 15571,
    "Ġoverthrown": 18430,
    "Ġgleam": 12305,
    "sounded": 12263,
    "exhibited": 18477,
    "Ġbarrens": 25501,
    "Ġrepentance": 15158,
    "Ġwithheld": 18114,
    "Ġsplice": 19307,
    "Ġundulations": 19514,
    "Ġlife": 1351,
    "awful": 23114,
    "obedience": 17408,
    "darker": 24512,
    "Ġtags": 20570,
    "Ġcomprises": 22571,
    "Ġ200": 19294,
    "footsteps": 25199,
    "hee": 10759,
    "Ġprinc": 4201,
    "dishon": 20402,
    "Ġsummers": 23871,
    "ulence": 15762,
    "Ġtolland": 24990,
    "Ġuniform": 2226,
    "Ġgodfre": 14528,
    "Ġstrand": 11825,
    "Ġergo": 25029,
    "itia": 11577,
    "Ġgull": 15666,
    "Ġslackened": 15124,
    "urried": 21702,
    "Ġmantle": 25274,
    "whew": 22864,
    "Ġdirecting": 16297,
    "Ġpoor": 1708,
    "Ġslabs": 13057,
    "Ġscor": 8191,
    "Ġbits": 11586,
    "bout": 20772,
    "ondency": 15267,
    "Ġdeliriously": 23228,
    "bred": 11468,
    "redit": 3875,
    "riend": 1185,
    "aware": 16292,
    "Ġbathed": 17865,
    "Ġprosecution": 12378,
    "jah": 17580,
    "Ġmust": 844,
    "Ġwidely": 8033,
    "etian": 13957,
    "erting": 17776,
    "Ġreasonably": 11085,
    "Ġdiffident": 23781,
    "igations": 18042,
    "Ġwoman": 2385,
    "Ġautumn": 14507,
    "Ġcottage": 4734,
    "Ġfundamental": 3015,
    "Ġhopelessly": 16376,
    "Ġsilken": 16379,
    "Ġmien": 17808,
    "Ġnotes": 7189,
    "Ġuncles": 23429,
    "abular": 4762,
    "Ġcomprehending": 24444,
    "Ġobstinacy": 17419,
    "ram": 13970,
    "en": 271,
    "Ġdancing": 5703,
    "Ġdistinct": 4610,
    "Ġemployment": 8628,
    "Ġvariations": 22664,
    "Ġfowler": 16936,
    "ensils": 22547,
    "Ġhos": 4942,
    "Ġcust": 11580,
    "Ġanchored": 17438,
    "Ġaglow": 22512,
    "nar": 12490,
    "Ġshoulders": 5565,
    "Ġhookah": 16969,
    "rench": 3968,
    "Ġdrenched": 12599,
    "_.âĢĻâĢĿ": 17478,
    "bastian": 10672,
    "oning": 7572,
    "legged": 10465,
    "Ġcontributes": 15248,
    "Ġmildness": 9942,
    "apt": 738,
    "Ġeul": 21616,
    "Ġreality": 7057,
    "F": 42,
    "load": 12876,
    "Ġal": 342,
    "Ġprobably": 4315,
    "doing": 8584,
    "are": 637,
    "Ġsurvive": 9066,
    "Ġtimidly": 11337,
    "Ġwindsor": 16886,
    "Ġsoliloquized": 17300,
    "Ġhag": 12621,
    "lier": 20948,
    "Ġhollowly": 24525,
    "fere": 10987,
    "regarded": 12004,
    "Ġpredicts": 2595,
    "Ġprecipices": 12274,
    "Ġsuperstitions": 17071,
    "phology": 3009,
    "hens": 3937,
    "Ġdwelling": 7322,
    "Ġenter": 4030,
    "became": 10513,
    "Ġhurtling": 24959,
    "Ġcarter": 18900,
    "acceptance": 25184,
    "Ġ10": 5248,
    "satisfy": 16891,
    "visitors": 13346,
    "Ġgliding": 8560,
    "spoutings": 25003,
    "Ġagents": 9764,
    "Ġneglected": 10376,
    "ipotence": 22363,
    "hatch": 15362,
    "Ġcaptured": 7245,
    "rated": 6227,
    "Ġdistant": 5387,
    "consolatory": 25306,
    "Ġde": 364,
    "lording": 24047,
    "delightful": 12193,
    "Ġconcentrated": 15081,
    "Ġinv": 2224,
    "Ġcellar": 8059,
    "Ġunstructured": 3003,
    "Ġspectators": 19405,
    "Ġthousands": 6748,
    "fifty": 12349,
    "Ġsuccessful": 9921,
    "Ġcaval": 25769,
    "Ġunpleasing": 22051,
    "Ġcruelly": 13373,
    "bone": 5611,
    "rippling": 24713,
    "liter": 11500,
    "Ġencamped": 22801,
    "extreme": 11028,
    "Ġembarrassment": 10625,
    "Ġache": 18662,
    "Ġdistressing": 12215,
    "species": 13253,
    "Ġexcitement": 9379,
    "Ġcrashes": 13123,
    "Ġinsane": 19268,
    "Ġbones": 4584,
    "Ġadaptive": 1402,
    "Ġknotted": 17018,
    "trick": 19411,
    "Ġresidual": 1678,
    "Ġdecorated": 22443,
    "owner": 18610,
    "whiskers": 12308,
    "Ġinterval": 4053,
    "Ġamel": 18510,
    "Ġvag": 9706,
    "Ġjove": 9266,
    "Ġheedfulness": 24521,
    "Ġcitations": 25437,
    "Ġ31": 12127,
    "varying": 13802,
    "mention": 7214,
    "Ġcomra": 7183,
    "Ġrecords": 12192,
    "iece": 3231,
    "Ġthee": 2624,
    "eers": 20842,
    "iers": 5991,
    "Ġvacantly": 16814,
    "Ġhollows": 19740,
    "Ġeuroclydon": 15294,
    "visitor": 15058,
    "Ġinquisitive": 26317,
    "Ġshaken": 10263,
    "gaining": 20122,
    "Ġnarrowed": 24354,
    "..": 5783,
    "cy": 640,
    "Ġdevoutly": 25832,
    "Ġadro": 15864,
    "Ġfame": 21404,
    "ittleness": 22374,
    "utored": 15659,
    "aries": 6244,
    "lins": 2026,
    "suffered": 24333,
    "pt": 388,
    "Ġscenery": 11455,
    "iable": 3336,
    "Ġclasping": 20208,
    "Ġcoburg": 18596,
    "Ġdoubting": 13097,
    "Ġawoke": 7286,
    "links": 20957,
    "Ġphysiology": 25332,
    "Ġnerve": 16336,
    "Ġcomrades": 9553,
    "Ġascribe": 16781,
    "Ġisolated": 13557,
    "deal": 12795,
    "difficulty": 12387,
    "Ġlantern": 7116,
    "individual": 18436,
    "Ġpresent": 1639,
    "Ġsally": 15500,
    "Ġwhereof": 16099,
    "Ġprudential": 17919,
    "Ġvolumes": 14798,
    "Ġdivineness": 25724,
    "Ġexponential": 1058,
    "Ġshortness": 23480,
    "inous": 8771,
    "fr": 4804,
    "Ġawfulness": 23585,
    "Ġabomin": 8189,
    "Ġpert": 22393,
    "Ġachieve": 3671,
    "housekeeping": 24100,
    "Ġlargely": 14283,
    "Ġdepths": 4327,
    "Ġsprang": 5064,
    "parsee": 14515,
    "Ġdim": 4757,
    "Ġdebility": 24271,
    "othed": 16509,
    "Ġungover": 18255,
    "Ġberkshire": 16883,
    "Ġentered": 2848,
    "Ġcheered": 16366,
    "Ġsong": 5903,
    "Ġunsur": 22018,
    "Ġcasting": 12097,
    "impenetrable": 26196,
    "farintosh": 24552,
    "shel": 11927,
    "Ġconcentric": 20073,
    "Ġtiles": 17725,
    "Ġminus": 18749,
    "Ġconvent": 11666,
    "Ġmanilla": 15956,
    "mile": 17596,
    "Ġhisself": 21912,
    "Ġvirginia": 13498,
    "Ġfifth": 11256,
    "Ġliber": 5168,
    "Ġ107": 24414,
    "supposing": 24133,
    "Ġpositive": 2297,
    "Ġident": 2241,
    "Ġadd": 630,
    "Ġglobu": 23270,
    "Ġrecogn": 2621,
    "Ġpist": 12611,
    "Ġmarked": 4620,
    "Ġdetails": 6565,
    "Ġsignify": 16493,
    "Ġhawaiian": 25366,
    "bles": 7017,
    "Ġfurniture": 6476,
    "Ġomens": 21326,
    "sailors": 9920,
    "Ġmining": 22830,
    "Ġtheore": 1830,
    "Ġjacket": 6489,
    "Ġrim": 21963,
    "Ġsuffice": 18869,
    "Ġfondness": 16779,
    "Ġinter": 728,
    "Ġparched": 11724,
    "Ġnaturalists": 10362,
    "Ġqueequeg": 2012,
    "trying": 15436,
    "Ġexalted": 12409,
    "Ġanalyzing": 18807,
    "ledyard": 22389,
    "Ġgrieve": 14705,
    "Ġtract": 21164,
    "Ġdisappo": 4506,
    "Ġspeed": 2448,
    "Ġexact": 2544,
    "Ġlust": 9196,
    "ļ": 253,
    "Ġsustaining": 25333,
    "utterly": 20010,
    "Ġfootfalls": 25866,
    "avor": 14277,
    "Ġcertainly": 2499,
    "blown": 25201,
    "Ġmatrimonial": 25489,
    "decease": 25557,
    "Ġbacking": 16113,
    "Ġbay": 9167,
    "Ġeber": 18003,
    "ive": 427,
    "kitty": 10104,
    "Ġtraffic": 23081,
    "Ġcompliments": 8632,
    "allowing": 24357,
    "adventure": 17232,
    "_)âĢĶ": 20143,
    "Ġnarrations": 24351,
    "Ġcountryside": 23595,
    "Ġroused": 7622,
    "Ġgestic": 21606,
    "Ġlibrary": 6423,
    "Ġcontrive": 16007,
    "pidation": 18885,
    "er": 269,
    "Ġbrook": 13044,
    "¢": 100,
    "Ġstatistics": 1682,
    "sive": 4142,
    "lover": 18536,
    "Ġforbe": 8457,
    "Ġmrs": 1469,
    "Ġtwink": 8216,
    "Ġshaved": 22000,
    "laughing": 15177,
    "Ġostr": 21323,
    "Ġsolomon": 11051,
    "Ġbackground": 18648,
    "Ġlivid": 14987,
    "gardiner": 12288,
    "itic": 11576,
    "ames": 2954,
    "readiness": 19361,
    "again": 3400,
    "Ġperished": 11781,
    "Ġbreathes": 13243,
    "stri": 6248,
    "ont": 2623,
    "acrity": 14259,
    "dreaded": 25138,
    "Ġslipper": 24264,
    "as": 302,
    "Ġstoried": 18072,
    "Ġridge": 14817,
    "Ġinjuries": 11276,
    "Ġinconveniences": 24939,
    "taken": 7560,
    "Ġgould": 17989,
    "Ġpinioned": 21481,
    "ignor": 8960,
    "Ġouthouse": 22312,
    "sank": 17661,
    "Ġfumbling": 21416,
    "elopement": 23175,
    "Ġrecede": 25968,
    "Ġhob": 12625,
    "Ġhovered": 12627,
    "restraint": 18979,
    "ierce": 14390,
    "ĉ": 202,
    "Ġsatirical": 26279,
    "Ġexamining": 8006,
    "Ġindicate": 23721,
    "Ġimpression": 5732,
    "q": 85,
    "joint": 24006,
    "inders": 15977,
    "oko": 18440,
    "Ġgoblet": 25823,
    "Ġiv": 4044,
    "Ġamazed": 14887,
    "Ġmightiest": 12957,
    "Ġfathoms": 9082,
    "Ġunlocking": 20705,
    "Ġlent": 21545,
    "Ġ69": 19660,
    "locks": 14454,
    "earthquakes": 24725,
    "Ġperfidious": 25666,
    "Ġrenewing": 19809,
    "Ġmadden": 10446,
    "Ġcoasts": 12160,
    "Ġsensitiveness": 23733,
    "Ġdescried": 7920,
    "test": 13790,
    "Ġheightened": 8648,
    "Ġoccurred": 4462,
    "Ġresolute": 19244,
    "Ġinjury": 10539,
    "kinder": 24845,
    "Ġallegor": 25545,
    "Ġtrifle": 10600,
    "Ġflaw": 23011,
    "Ġconfirming": 25321,
    "repressed": 21242,
    "slow": 7811,
    "Ġdrives": 14577,
    "Ġmysticetus": 24922,
    "Ġincapable": 7423,
    "Ġbachelor": 7787,
    "irting": 11683,
    "ple": 455,
    "Ġaccidentally": 9503,
    "shriek": 20518,
    "Ġrussian": 14346,
    "Ġcoroner": 7510,
    "Ġsavi": 18325,
    "william": 4563,
    "Ġadequate": 20307,
    "Ġbizarre": 17871,
    "niest": 18968,
    "Ġsag": 6514,
    "showed": 16025,
    "Ġteaches": 18797,
    "Ġstirs": 14915,
    "ulties": 12900,
    "Ġdue": 3844,
    "za": 13808,
    "these": 3244,
    "Ġmaster": 3679,
    "Ġmoonlight": 9956,
    "stad": 7597,
    "opposition": 24823,
    "Ġtreading": 16503,
    "Ġmorrow": 9340,
    "Ġwhere": 783,
    "riers": 18185,
    "feet": 6568,
    "Ġbegat": 18863,
    "Ġspectacle": 10495,
    "Ġturned": 2134,
    "Ġpresenting": 18988,
    "mira": 20978,
    "Ġeve": 13968,
    "Ġaboard": 6697,
    "fourths": 25509,
    "courageous": 26127,
    "Ġscreaming": 13421,
    "ë": 172,
    "pockets": 16208,
    "Ġdella": 21438,
    "rule": 15891,
    "Ġconsequent": 18110,
    "Ġexplain": 545,
    "Ġprocuring": 16867,
    "Ġprediction": 2240,
    "Ġdiffered": 22709,
    "Ġnotions": 14097,
    "bler": 11471,
    "Ġstooped": 14461,
    "Ġinsulated": 23679,
    "infliction": 25924,
    "Ġpetticoat": 15293,
    "Ġrests": 13090,
    "Ė": 215,
    "Ġeasy": 3452,
    "Ġgnashed": 20131,
    "pure": 17625,
    "Ġfidel": 12592,
    "bolt": 25135,
    "Ġsurround": 4618,
    "Ġstudy": 1809,
    "Ġbutterfly": 19909,
    "ular": 714,
    "Ġmisery": 3814,
    "peter": 24297,
    "emotions": 15791,
    "Ġdaint": 15589,
    "Ġassigned": 16309,
    "Ġpleasantest": 24136,
    "clam": 13051,
    "stolidity": 21655,
    "Ġdepressed": 10881,
    "ggy": 13111,
    "Ġnumerical": 4246,
    "osa": 22257,
    "Ġinterview": 9768,
    "Ġunmindful": 22062,
    "Ġaccusations": 22377,
    "Ġdin": 3623,
    "idents": 6150,
    "Ġbrave": 6329,
    "Ġfru": 8420,
    "Ġbesee": 19242,
    "erne": 21268,
    "geons": 15976,
    "Ġretarded": 23070,
    "Ġoptimizer": 5036,
    "include": 23588,
    "enth": 6680,
    "ses": 3028,
    "Ġgallows": 12142,
    "Ġrestrain": 8963,
    "rage": 10842,
    "Ġequal": 4134,
    "Ġdol": 9663,
    "Ġbeg": 1283,
    "Ġexperiments": 23005,
    "news": 23132,
    "guilty": 19481,
    "Ġpropri": 6738,
    "Ġvideo": 25365,
    "tables": 19756,
    "acted": 11009,
    "^{": 15302,
    "playing": 19656,
    "contempl": 13187,
    "Ġmislead": 22757,
    "Ġbloody": 9888,
    "Ġappo": 8497,
    "ferent": 4195,
    "Ġsolicited": 20035,
    "Ġrasc": 21972,
    "ression": 3406,
    "mbly": 9792,
    "deceiving": 22142,
    "Ġdiscontented": 16056,
    "Ġmealy": 18119,
    "Ġtatters": 21176,
    "Ġpaper": 4284,
    "Ġobscured": 15009,
    "Ġlambton": 10656,
    "Ġstiffness": 24830,
    "introduced": 15122,
    "Ġbroker": 23099,
    "Ġelevate": 24498,
    "bearer": 18521,
    "since": 5895,
    "Ġmomentum": 1603,
    "ĩ": 234,
    "Ġarrangements": 16514,
    "Ġboys": 5194,
    "Ġgaily": 16747,
    "ains": 5094,
    "scornful": 26574,
    "izer": 2030,
    "Ġrebounds": 25967,
    "endure": 22223,
    "Ġwrapping": 19774,
    "harbors": 20147,
    "Ġesq": 15106,
    "trial": 20349,
    "Ġinstruments": 12220,
    "pursuit": 20339,
    "Ġembellish": 25847,
    "Ġafrica": 12342,
    "employed": 17260,
    "suspended": 15175,
    "paying": 25411,
    "Ġanx": 3183,
    "Ġlard": 13945,
    "hroom": 12473,
    "Ġbakers": 17866,
    "Ġexped": 7650,
    "gar": 5614,
    "dress": 17519,
    "Ġresistance": 13528,
    "Ġloc": 10913,
    "Ġmab": 12556,
    "cable": 20796,
    "Ġprom": 1525,
    "Ġentertained": 9996,
    "Ġsluggish": 25890,
    "Ġmeddle": 19490,
    "Ġpreposter": 12818,
    "Ġnin": 10186,
    "Ġfilled": 4395,
    "Ġwithdra": 6398,
    "vere": 4883,
    "Ġbordering": 17227,
    "Ġenjoying": 11233,
    "Ġsymptom": 13481,
    "Ġancho": 15599,
    "Ġblaze": 16217,
    "Ġindicated": 10468,
    "Ġconsidered": 4612,
    "Ġdestroyer": 13411,
    "Ġcleaned": 23181,
    "Ġdanes": 25156,
    "meal": 22710,
    "Ġtwinkle": 12320,
    "mpt": 6653,
    "sweetly": 25134,
    "Ġlabel": 14513,
    "G": 43,
    "Ġobserved": 3538,
    "Ġghostliness": 24651,
    "Ġaid": 6122,
    "Ġeternities": 19941,
    "conda": 18993,
    "Ġcottages": 14725,
    "Ġcanvassed": 19933,
    "Ġgovernments": 20266,
    "Ġstructural": 2799,
    "liv": 9606,
    "Ġgarden": 3826,
    "Ġoh": 2177,
    "Ġintrusion": 12761,
    "Ġdisreputable": 22532,
    "Ġenjoined": 18191,
    "cence": 9587,
    "Ġkeen": 4614,
    "Ġdeemed": 7613,
    "bru": 12436,
    "Ġstamped": 13525,
    "five": 6356,
    "Ġxl": 11986,
    "Ġcondescended": 19954,
    "Ġremonstrance": 20621,
    "Ġembra": 6578,
    "Ġbrief": 6976,
    "Ġspilled": 10923,
    "uses": 11757,
    "Ġmostly": 7664,
    "Ġsupports": 3053,
    "apolog": 22331,
    "sion": 8094,
    "Ġfurnace": 19438,
    "Ġanew": 11429,
    "Ġbehave": 23298,
    "itives": 17819,
    "Ġentitled": 8538,
    "Ġevenings": 18753,
    "Ġcomponents": 8892,
    "attending": 18916,
    "Ġarrangement": 2657,
    "Ġlicence": 25096,
    "Ġdri": 2363,
    "hammered": 19003,
    "Ġisles": 8459,
    "Ġrevenue": 26194,
    "commun": 15032,
    "billiard": 25334,
    "worked": 19016,
    "Ġbravest": 23838,
    "expressing": 16800,
    "Ġgrief": 4621,
    "Ġproflig": 23565,
    "gunw": 17219,
    "Ġpace": 9182,
    "frost": 15104,
    "Ġacquaintance": 4132,
    "ontory": 10458,
    "otic": 15741,
    "Ġpacing": 8426,
    "Ġinvoking": 19145,
    "Ġsobbing": 14132,
    "Ġbinding": 20417,
    "Ġfellows": 8257,
    "folly": 20861,
    "Ġlofty": 6217,
    "rians": 21928,
    "Ġprofundities": 20452,
    "allow": 5104,
    "mar": 4337,
    "Ġowest": 25091,
    "Ġstrain": 6024,
    "Ġunsettled": 14121,
    "Ġseeking": 7035,
    "dwelling": 20563,
    "Ġgarnery": 17385,
    "Ġadversity": 24302,
    "Ġboscombe": 8326,
    "Ġfangs": 12593,
    "Ġdefects": 12330,
    "Ġpolice": 4675,
    "Ġexhib": 6349,
    "Ġmeagre": 21811,
    "Ġende": 21930,
    "Ġheron": 22071,
    "dripping": 16904,
    "Ġbalancing": 2432,
    "Ġexasper": 8466,
    "usage": 12828,
    "gladness": 25194,
    "turbaned": 24531,
    "Ġcustoms": 19651,
    "Ġtaught": 6803,
    "Ġswimmer": 19457,
    "Ġhelping": 3269,
    "wheels": 14379,
    "Ġpatches": 4238,
    "Ġdespatched": 23827,
    "Ġunwe": 15835,
    "Ġjetted": 24430,
    "hears": 12529,
    "Ġfollowed": 1793,
    "Ġwatched": 6297,
    "Ġopportunities": 19248,
    "Ġque": 4157,
    "Ġslime": 23159,
    "oses": 3946,
    "Ġremonstrate": 22791,
    "odiac": 14026,
    "Ġcelebrate": 26357,
    "Ġlbs": 11613,
    "Ġunmanner": 22025,
    "Ġfinery": 23125,
    "omit": 13976,
    "alous": 7372,
    "Ġensuring": 11190,
    "stones": 11633,
    "vels": 5432,
    "Ġslaughter": 20729,
    "addressing": 24400,
    "recover": 24623,
    "Ġchal": 18378,
    "Ġtents": 13816,
    "mbles": 23086,
    "Ġbuff": 9171,
    "idge": 14012,
    "Ġremained": 3144,
    "ago": 14063,
    "Ġcombine": 4416,
    "hereafter": 19216,
    "comes": 5394,
    "Ġban": 7156,
    "mur": 5428,
    "along": 6013,
    "Ġgrapp": 14099,
    "christian": 17231,
    "beaut": 8512,
    "Ġ66": 24368,
    "itative": 13868,
    "ribly": 8255,
    "Ġappointed": 20101,
    "Ġinser": 6820,
    "astes": 11736,
    "Ġaye": 3354,
    "Ġrevolut": 3260,
    "mish": 17597,
    "Ġconsecutive": 20701,
    "ible": 1110,
    "Ġsoon": 1230,
    "Ġtune": 17724,
    "Ġbash": 12582,
    "ill": 447,
    "Ġfrog": 23918,
    "Ġimprudent": 12844,
    "Ġquee": 1980,
    "Ġassailed": 23176,
    "Ġremedy": 18723,
    "Ġperuvian": 18452,
    "Ġshades": 9461,
    "onah": 3339,
    "Ġmusic": 5268,
    "avings": 12019,
    "tum": 11530,
    "Ġlodger": 24089,
    ";âĢĿâĢĶ": 20759,
    "itals": 17820,
    "Ġcondu": 18109,
    "Ġlunacy": 20026,
    "Ġskilfully": 20522,
    "Ġmaddened": 17243,
    "ourselves": 9009,
    "Ġdoor": 1740,
    "Ġdiscipline": 26560,
    "secur": 18125,
    "Ġmode": 8499,
    "Ġuncivilized": 25498,
    "nostril": 26558,
    "Ġepid": 18004,
    "oa": 9611,
    "yl": 7819,
    "Ġgeorgiana": 8625,
    "Ġbu": 3680,
    "Ġweighty": 16030,
    "Ġf": 283,
    "zetts": 17713,
    "Ġvehic": 8932,
    "like": 1883,
    "Ġhistorically": 19376,
    "Ġherb": 15853,
    "Ġinvaluable": 10181,
    "oniously": 21256,
    "Ġeven": 1028,
    "Ġarisen": 11743,
    "ahead": 12431,
    "Ġshield": 21997,
    "Ġanalysis": 1932,
    "Ġgamy": 17998,
    "presum": 12864,
    "Ġlobster": 11388,
    "Ġskip": 1844,
    "fortune": 4975,
    "berwell": 22718,
    "Ġit": 339,
    "Ġbent": 5149,
    "law": 6115,
    "began": 6426,
    "ould": 428,
    "Ġworaciousness": 22927,
    "Ġfinal": 5400,
    "mme": 22500,
    "Ġsimplicity": 2924,
    "Ġarsacides": 17292,
    "message": 17370,
    "Ġinitialized": 3948,
    "Ġstops": 3169,
    "Ġyellowish": 24429,
    "Ġhardly": 2434,
    "Ġsaying": 3246,
    "Ġprincipal": 6496,
    "any": 3340,
    "Ġheld": 3583,
    "Ġglut": 18847,
    "Ġhunters": 6300,
    "Ġankers": 21444,
    "histicated": 20900,
    "Ġdrawback": 23987,
    "Ġcrowd": 6336,
    "magnificent": 20273,
    "Ġprovoked": 13323,
    "Ġsymbols": 2797,
    "Ġstoop": 16308,
    "Ġcarelessly": 11119,
    "Ġfevers": 22207,
    "proper": 7471,
    "Ġansw": 2205,
    "vol": 725,
    "Ġwhitewashed": 14468,
    "Ġsport": 6688,
    "igger": 21698,
    "Ã": 132,
    "Ġlongitudes": 22632,
    "iffe": 21900,
    "Ġvanished": 6874,
    "Ġalpha": 13586,
    "Ġupper": 5090,
    "Ġmorning": 1748,
    "Ġamongst": 8958,
    "beh": 5472,
    "Ġxiv": 23406,
    "Ġwheelbarrow": 17203,
    "conclusive": 25673,
    "Ġdisobedience": 22533,
    "cherries": 19755,
    "yramid": 8368,
    "arranging": 19317,
    "Ġbetray": 7442,
    "pips": 21019,
    "Ġnonce": 23232,
    "Ġimpreg": 15984,
    "belt": 24032,
    "Ġbrooks": 25700,
    "urbed": 15705,
    "Ġbreed": 19071,
    "thousands": 16869,
    "Ġgener": 593,
    "Ġagreed": 7028,
    "Ġcrimes": 8588,
    "ppa": 10238,
    "relation": 19445,
    "unnatural": 15769,
    "Ġswells": 9825,
    "Ġoperate": 19115,
    "august": 11070,
    "pled": 7893,
    "result": 12041,
    "Ġtown": 2456,
    "Ġpos": 1008,
    "imagine": 19930,
    "omas": 12672,
    "Ġhigh": 931,
    "father": 3776,
    "Ġwalks": 8965,
    "supers": 22639,
    "Ġloathsome": 13526,
    "Ġfour": 2215,
    "bene": 6112,
    "Ġdreaminess": 23937,
    "ĠâĢĶ": 13809,
    "Ġpursu": 3242,
    "off": 1884,
    "slouched": 24556,
    "mutually": 26136,
    "Ġfurlong": 18738,
    "Ġpines": 12613,
    "Ġcomplaisance": 19447,
    "ospel": 17009,
    "Ġverse": 16601,
    "idays": 21768,
    "Ġwatson": 3594,
    "Ġcompany": 3720,
    "Ġaveraging": 2419,
    "Ġreject": 7386,
    "Ġimprec": 14217,
    "people": 7677,
    "scot": 14415,
    "Ġeddies": 23436,
    "Ġthreaten": 24373,
    "Ġfrighten": 13276,
    "Ġinteraction": 7424,
    "affections": 17355,
    "Ġconceit": 7295,
    "ped": 6365,
    "Ġfascinating": 17326,
    "Ġknitting": 24217,
    "Ġmoves": 14230,
    "Ġknocking": 10558,
    "observed": 7675,
    "miss": 3176,
    "Ġauthentic": 20534,
    "Ġparade": 18301,
    "Ġresounded": 22542,
    "Ġimpart": 11777,
    "Ġbohemian": 17132,
    "Ġsides": 4580,
    "Ġaccorded": 24086,
    "cannon": 22960,
    "theless": 4262,
    "reas": 988,
    "Ġrejecting": 17050,
    "Ġgoverned": 23569,
    "el": 306,
    "Ġmurderous": 8316,
    "vard": 21109,
    "isco": 12577,
    "resistible": 10642,
    "determ": 7105,
    "Ġenormity": 19694,
    "Ġreduces": 2342,
    "answer": 11729,
    "idable": 8146,
    "Ŀ": 256,
    "Ġgamb": 17997,
    "icide": 11616,
    "Ġapt": 9154,
    "Ġrephr": 21677,
    "landlord": 9838,
    "Ġjoker": 22296,
    "Ġobtain": 8913,
    "Ġcreep": 22725,
    "ppered": 15787,
    "imitably": 21709,
    "Ġsubsequently": 16157,
    "Ġfastened": 7065,
    "Ġbad": 3989,
    "sleet": 20148,
    "Ġgore": 17988,
    "open": 7025,
    "Ġcabs": 23641,
    "ances": 1336,
    "Ġpile": 8424,
    "Ġcalculates": 13262,
    "Ġcigar": 9543,
    "Ġoutbreak": 22315,
    "Ġmorcar": 13007,
    "Ġsemicircular": 26068,
    "leness": 4691,
    "Ġlying": 4826,
    "Ġcharacteristics": 8609,
    "Ġferocity": 16870,
    "Ġcontribut": 12855,
    "eminent": 25104,
    "Ġobeisance": 19757,
    "Ġgraze": 18226,
    "Ġcage": 17825,
    "Ġsqualidness": 25842,
    "Ġplun": 6281,
    "gainst": 25141,
    "clouds": 25496,
    "harbor": 13562,
    "Ġdisliked": 12887,
    "convalescence": 24884,
    "bourine": 9394,
    "Ġgallant": 8654,
    "Ġconse": 21802,
    "inement": 11556,
    "Ġtopmost": 14586,
    "Ġbecomes": 6396,
    "Ġfifty": 4624,
    "3": 23,
    "Ġimmensely": 13593,
    "indeed": 4487,
    "squ": 7810,
    "lad": 5992,
    "dozen": 23376,
    "Ġtouch": 3397,
    "Ġtechn": 9364,
    "veh": 12677,
    "Ġcandidate": 16700,
    "dan": 17514,
    "Ġselection": 18204,
    "amiable": 14051,
    "spouting": 25002,
    "fortnight": 13084,
    "yden": 21142,
    "rivial": 9432,
    "Ġconceals": 23901,
    "maybe": 23988,
    "Ġlimit": 10442,
    "Ġprivile": 8645,
    "Ġpurring": 23474,
    "Ġinnocently": 24025,
    "arest": 4005,
    "Ġhalts": 3162,
    "Ġcrescent": 16134,
    "Ġsupple": 22994,
    "Ġdevouring": 11856,
    "Ġthinker": 22807,
    "Ġ42": 16677,
    "Ġuneasily": 24229,
    "bohem": 19001,
    "Ġhalls": 19524,
    "Ġest": 2265,
    "Ġtarts": 10752,
    "Ġpolite": 9880,
    "Ġconfided": 19037,
    "Ġcachalot": 17834,
    "Ġdived": 9176,
    "Ġresent": 6049,
    "naturalist": 23532,
    "emporary": 15792,
    "sledge": 21056,
    "tide": 11531,
    "oft": 3588,
    "testing": 12513,
    "Ġpriority": 19761,
    "Ġmine": 3181,
    "Ġlearnable": 3996,
    "Ġapproving": 18500,
    "char": 3501,
    "Ġmic": 17797,
    "Ġundiscernible": 22064,
    "Ġpeaks": 16125,
    "unts": 12727,
    "Ġshrieked": 9546,
    "Ġaccuracy": 1091,
    "Ġolder": 9325,
    "Ġflea": 23771,
    "wich": 11542,
    "stave": 21641,
    "ound": 586,
    "Ġastr": 15492,
    "Ġesteemed": 10587,
    "Ġmean": 741,
    "Ġstrategy": 2454,
    "Ġcomposing": 16067,
    "Ġwhiskers": 10491,
    "shud": 18493,
    "Ġdisappearing": 22531,
    "Ġbehold": 5049,
    "Ġgurgling": 17444,
    "Ġproves": 14036,
    "itating": 9649,
    "achus": 18283,
    "Ġbart": 17857,
    "remarkable": 13496,
    "Ġcashier": 20197,
    "Ġtruly": 4796,
    "hatherley": 17567,
    "Ġunguarded": 15847,
    "Ġpossibility": 7458,
    "angular": 11719,
    "steam": 23957,
    "someone": 14563,
    "Ġcough": 11579,
    "Ġstay": 3098,
    "Ġmott": 17803,
    "tenderly": 20529,
    "sentence": 2940,
    "Ġcanted": 17831,
    "mag": 6508,
    "tremendous": 20672,
    "Ġstick": 6026,
    "home": 7341,
    "bingley": 4927,
    "reply": 19721,
    "roots": 15639,
    "Ġembarr": 7446,
    "Ġrepulses": 26069,
    "Ġlasting": 18790,
    "Ġbrings": 11877,
    "Ġdetermining": 14419,
    "aby": 18106,
    "Ġtender": 5753,
    "Ġringed": 16749,
    "ylon": 24977,
    ";âĢĶ": 3748,
    "Ġbacked": 12920,
    "Ġexceedingly": 4615,
    "Ġwithhold": 18115,
    "breathing": 25335,
    "Ġoutrid": 22313,
    "heaved": 21209,
    "Ġmute": 19414,
    "Ġcry": 3494,
    "ee": 1660,
    "veil": 18045,
    "Ġslightly": 7293,
    "uce": 11534,
    "say": 3985,
    "regularization": 3512,
    "stem": 568,
    "Ġintending": 11701,
    "Ġcomes": 3424,
    "Ġexperiences": 13021,
    "olic": 14040,
    "Ġsurely": 6307,
    "Ġhish": 21911,
    "osure": 5306,
    "Ġproperly": 7945,
    "aculate": 16061,
    "Ġsemicirc": 16387,
    "itect": 1012,
    "Ġhues": 21487,
    "Ġmonster": 3793,
    "Ġbatt": 13897,
    "Ġsquatted": 25841,
    "ener": 565,
    "tossed": 10996,
    "free": 8735,
    "gracechurch": 24580,
    "Ġpauper": 26179,
    "Ġsurpl": 19132,
    "unusually": 15776,
    "points": 14392,
    "ooping": 21006,
    "Ġimpertinent": 9076,
    "Ġaven": 10758,
    "Ġweap": 6155,
    "Ġult": 9073,
    "Ġflashing": 13025,
    "erately": 21272,
    "Ġboasted": 16103,
    "cords": 25136,
    "Ġstarvation": 19790,
    "Ġnarration": 13502,
    "Ġunscrew": 22036,
    "anxious": 15107,
    "Ġphrase": 11186,
    "Ġsize": 1218,
    "Ġsolved": 8930,
    "Ġdum": 10810,
    "generally": 9433,
    "Ġcharmingly": 24220,
    "Ġres": 696,
    "Ġerudite": 26350,
    "gentle": 5356,
    "concluded": 11242,
    "room": 2180,
    "Ġsecurity": 8976,
    "Ġbro": 1432,
    "windibank": 24160,
    "Ġcalculate": 13261,
    "Ġunerringly": 18265,
    "Ġwearily": 18177,
    "Ġscoresby": 10461,
    "bare": 12438,
    "Ġenl": 18188,
    "Ġdare": 3542,
    "Ġstack": 21731,
    "into": 3678,
    "responsible": 25763,
    "enet": 10151,
    "Ġclimbing": 20068,
    "ł": 259,
    "Ġdedication": 2824,
    "Ġfettered": 24567,
    "ription": 5676,
    "cry": 12442,
    "Ġremote": 8918,
    "Ġnine": 5369,
    "urrection": 12406,
    "brim": 23573,
    "Ġtickets": 17093,
    "Ġdevoured": 16133,
    "Ġreason": 1342,
    "inburgh": 15488,
    "itaries": 21334,
    "Ġresentful": 24632,
    "icient": 782,
    "Ġcircumnavigation": 20398,
    "Ġheadlong": 11885,
    "Ġscuffle": 20607,
    "hurrying": 14981,
    "Ġcountenance": 3972,
    "Ġfitted": 6243,
    "Ġraises": 11840,
    "Ġregularly": 7658,
    "Ġdig": 6135,
    "ighbour": 3389,
    "Ġjudgment": 5765,
    "Ġpresumably": 19623,
    "Ġtiny": 11551,
    "Ġsymp": 4502,
    "Ġcooked": 13267,
    "chased": 18041,
    "Ġassertion": 13487,
    "pret": 7212,
    "Ġvib": 8165,
    "Ġlimp": 19179,
    "quick": 6400,
    "Ġseething": 18203,
    "risonment": 17373,
    "Ġmoonshine": 19596,
    "Ġrepresenting": 4060,
    "olerable": 7182,
    "Ġtrop": 7565,
    "Ġcontinent": 14886,
    "insult": 16276,
    "threw": 21982,
    "Ġpint": 17909,
    "Ġwondered": 11124,
    "ament": 2440,
    "deserted": 18959,
    "bal": 2158,
    "Ġvi": 1950,
    "Ġfossils": 20221,
    "Ġsymphony": 26531,
    "Ġolfactories": 26171,
    "Ġep": 7384,
    "Ġhatchway": 13523,
    "Ġcho": 4548,
    "foremost": 14251,
    "Ġdents": 13909,
    "Ġbony": 12583,
    "Ġcaroline": 7255,
    "itting": 1150,
    "Ġday": 957,
    "Ġdangling": 17173,
    "Ġdemean": 12719,
    "Ġcoffee": 6760,
    "behaved": 24462,
    "sentimental": 25681,
    "Ġadmirable": 8269,
    "clock": 3933,
    "Ġledger": 19400,
    "Ġding": 12595,
    "?âĢĻâĢĿ": 23643,
    "fig": 8734,
    "requ": 7148,
    "Ġadvance": 5484,
    "sofa": 26146,
    "hy": 4740,
    "till": 6965,
    "Ġhav": 12750,
    "Ġgenius": 8046,
    "ĠĠĠĠĠĠĠĠĠĠĠĠĠĠĠĠĠĠĠĠĠĠĠĠĠĠĠ": 14884,
    "aboard": 21792,
    "sax": 21055,
    "Ġlobsters": 13515,
    "Ġscratching": 20367,
    "Ġdisclose": 16153,
    "Ġwhale": 627,
    "race": 11629,
    "behind": 6779,
    "omorrah": 18024,
    "Ġsick": 4693,
    "reproof": 25432,
    "Ġscar": 3214,
    "because": 4923,
    "Ġclaret": 22348,
    "isle": 13890,
    "Ġpersonages": 23539,
    "Ġthrough": 602,
    "backed": 9864,
    "Ġpleasantly": 14519,
    "Ġbritish": 11336,
    "Ġobjecting": 18896,
    "Ġbequest": 21751,
    "Ġorthodox": 22093,
    "eh": 13708,
    "fields": 14652,
    "Ġours": 4613,
    "Ġmingled": 12374,
    "posterity": 25488,
    "Ġmaimed": 21315,
    "Ġhat": 2772,
    "Ġempty": 5353,
    "conce": 8510,
    "tr": 3577,
    "Ġinferior": 8366,
    "offers": 16388,
    "Ġago": 3138,
    "Ġsank": 5076,
    "Ġflushed": 13024,
    "Ġpython": 1067,
    "urous": 10211,
    "largely": 19573,
    "Ġquadru": 16000,
    "Ġblundering": 26283,
    "Ġcries": 7154,
    "Ġexc": 1832,
    "Ġreckon": 19869,
    "destroy": 19509,
    "Ġinfer": 7684,
    "Ġbehaves": 23299,
    "tips": 13794,
    "Ġdo": 512,
    "Ġgovernesses": 25127,
    "Ġunwilling": 7887,
    "worshipping": 16609,
    "Ġpractice": 2776,
    "ame": 644,
    "Ġbleeding": 14878,
    "idered": 4554,
    "Ġslammed": 20446,
    "Ġtutored": 20126,
    "carriage": 9944,
    "tan": 4742,
    "Ġtrampling": 25492,
    "Ġrepented": 23361,
    "Ġpratt": 23220,
    "Ġawake": 8272,
    "leaving": 10790,
    "Ġslew": 23381,
    "Ġwillow": 18530,
    "zza": 24166,
    "Ġshowing": 7732,
    "separ": 9229,
    "monsters": 19170,
    "Ġconveying": 19713,
    "attacks": 23122,
    "Ġneglig": 18878,
    "oried": 10801,
    "tend": 17673,
    "Ġannealing": 1556,
    "Ġcoars": 14272,
    "Ġconnected": 5393,
    "Ġungracious": 18258,
    "Ġenric": 21932,
    "cape": 13695,
    "oping": 5558,
    "Ġdreadful": 4920,
    "Ġguido": 2977,
    "Ġbehooves": 20732,
    "urements": 18123,
    "Ġadvent": 4358,
    "Ġtempted": 9055,
    "devil": 7896,
    "Ġepo": 21617,
    "ilet": 12825,
    "breakfast": 8687,
    "Ġrelig": 8550,
    "purposes": 25021,
    "Ġsimul": 1806,
    "ript": 4151,
    "bod": 12434,
    "plague": 21951,
    "forced": 11030,
    "uncontrollable": 20594,
    "ĠvertebrÃ¦": 11434,
    "Ġacquaintances": 17348,
    "Ġmarvels": 11083,
    "charge": 9446,
    "Ġaged": 10320,
    "Ġslighted": 16566,
    "Ġargue": 16782,
    "familiar": 19782,
    "Ġencounter": 6627,
    "blue": 13691,
    "Ġquadrille": 13539,
    "Ġexplanatory": 22200,
    "python": 4692,
    "Ġmere": 2713,
    "chambers": 25454,
    "ifiable": 18163,
    "iop": 20918,
    "Ġmistress": 8611,
    "Ġ96": 24593,
    "Ġestimated": 16593,
    "Ġlibr": 15997,
    "Ġeyelids": 26107,
    "killing": 20941,
    "Ġwrong": 4724,
    "Ġgravely": 7884,
    "Ġappeared": 2775,
    "Ġextended": 7923,
    "cap": 8373,
    "Ġnormalization": 1246,
    "icip": 6389,
    "Ġindignation": 8347,
    "Ġhandled": 12934,
    "Ġerr": 1319,
    "Ġsinusoidal": 4801,
    "Ġdiscretion": 10346,
    "capt": 3836,
    "compared": 24030,
    "Ġwrest": 11569,
    "effect": 8603,
    "classes": 12132,
    "ccess": 3185,
    "asher": 15642,
    "iantly": 13737,
    "kinson": 10024,
    "Ġsubur": 12952,
    "Ġcauses": 2563,
    "Ġnecessity": 7296,
    "Ġengraved": 17080,
    "shire": 3022,
    "ems": 5235,
    "Ġtranquillize": 24757,
    "Ġgnawed": 25164,
    "ellations": 21942,
    "Ġpods": 17914,
    "oftener": 23962,
    "Ġfoster": 18991,
    "Ġcoats": 16074,
    "Ġlain": 17961,
    "Ġcivilly": 19602,
    "Ġ6": 5141,
    "Ġdistracted": 11800,
    "lemag": 21370,
    "suspicions": 25391,
    "oker": 10962,
    "Ġindolent": 13001,
    "Ġcetace": 14986,
    "recollection": 25348,
    "attain": 21260,
    "flo": 6114,
    "Ġancestors": 25642,
    "bordered": 17497,
    "cen": 17501,
    "Ġskills": 1838,
    "Ġopposed": 11187,
    "Ġestab": 6315,
    "Ġpasture": 14542,
    "Ġoffered": 5816,
    "century": 20045,
    "Ġmoney": 3419,
    "filled": 9593,
    "Ġevangelist": 20337,
    "hing": 981,
    "vice": 15447,
    "hour": 7340,
    "Ġcorn": 9348,
    "linked": 17592,
    "oted": 4598,
    "moving": 11016,
    "Ġjudged": 12080,
    "Ġenvironmental": 24138,
    "Ġfocus": 4237,
    "Ġappearing": 9839,
    "Ġsurmis": 23462,
    "pyramid": 21029,
    "Ġopulence": 23627,
    "ravelled": 18014,
    "Ġfrench": 4939,
    "Ġbeckoned": 25793,
    "Ġnicely": 8708,
    "Ġdeference": 10880,
    "Ġvain": 3627,
    "Ġentailed": 11026,
    "ish": 551,
    "represent": 9636,
    "Ġameric": 3853,
    "neighbour": 7211,
    "Ġassaulted": 25320,
    "uded": 6287,
    "aph": 10953,
    "Ġtrailing": 23077,
    "Ġrevolving": 9981,
    "ientiously": 21939,
    "rative": 17651,
    "ival": 4228,
    "contact": 23726,
    "Ġburnt": 9926,
    "Ġwaters": 3593,
    "yea": 23085,
    "Ġjav": 7903,
    "Ġsemantics": 2895,
    "Ġ35": 24074,
    "coloured": 7291,
    "Ġblanched": 26282,
    "Ġcomprehension": 15084,
    "vellers": 16672,
    "Ġunfav": 14786,
    "idual": 1562,
    "level": 2654,
    "Ġportent": 12078,
    "Ġunnecessary": 8850,
    "Ġvibration": 17098,
    "Ġimpregn": 26022,
    "Ġstrewed": 23420,
    "Ġbury": 12039,
    "rane": 17652,
    "rayed": 23561,
    "Ġvolley": 24144,
    "kicked": 20942,
    "Ġperforming": 7928,
    "Ġincrease": 9368,
    "Ġcolouring": 16750,
    "Ġservants": 6610,
    "entered": 8813,
    "Ġmarry": 4418,
    "Ġelect": 10841,
    "Ġprovocation": 24190,
    "Ġgnarled": 25165,
    "Ġsmothe": 18574,
    "Ġevolved": 9890,
    "Ġtelescopes": 25690,
    "hush": 20905,
    "Ġsummit": 7731,
    "amouch": 21843,
    "Ġramad": 8527,
    "ets": 1160,
    "Ġfully": 6342,
    "Ġagric": 22513,
    "Ġjog": 18404,
    "constantinople": 25507,
    "Ġprick": 14476,
    "Ġarmchair": 8271,
    "Ġviciously": 24403,
    "Ġactuated": 18545,
    "progress": 11984,
    "Ġvertical": 16603,
    "Ġliberally": 16829,
    "opÃ¦": 12869,
    "Ġcryst": 9915,
    "Ġparts": 4163,
    "Ġendurance": 23143,
    "Ġnominally": 17230,
    "reds": 12744,
    "male": 15386,
    "Ġphren": 8571,
    "triumph": 15438,
    "dece": 11731,
    "unwillingness": 25802,
    "Ġcocksure": 26258,
    "utch": 21584,
    "Ġquieted": 23840,
    "ittarius": 22375,
    "elius": 13285,
    "ugging": 23288,
    "âĢĶ.": 11752,
    "Ġstyle": 6946,
    "Ġgleams": 17308,
    "Ġregression": 4410,
    "diff": 9112,
    "Ġtapping": 10751,
    "loose": 11801,
    "ed": 293,
    "Ġmistifying": 23718,
    "Ġbespeaking": 26310,
    "Ġsimplest": 16330,
    "Ġgenerally": 4156,
    "acknowledged": 15200,
    "def": 1454,
    "Ġclasp": 9742,
    "apothecary": 26544,
    "Ġspit": 22122,
    "Ġalways": 1697,
    "tuning": 1584,
    "Ġweak": 5098,
    "Ġpeople": 2545,
    "Ġperchance": 15988,
    "Ġventured": 7501,
    "Ġharpoons": 5659,
    "Ġdiab": 10610,
    "girls": 12316,
    "brous": 19199,
    "ness": 853,
    "fury": 17546,
    "Ġrepay": 19079,
    "ek": 1906,
    "Ġinterpreted": 1710,
    "Ġindicates": 3197,
    "Ġoutlined": 22318,
    "Ġdefinite": 11068,
    "Ġascent": 19617,
    "gold": 9119,
    "rious": 11686,
    "Ġacross": 1330,
    "Ġsockets": 22077,
    "Ġlonging": 14295,
    "goodbye": 12053,
    "lleg": 20950,
    "Ġrelating": 2705,
    "iscuit": 10597,
    "renched": 7908,
    "Ġenviron": 4097,
    "married": 9947,
    "Ġconve": 5455,
    "Ġrece": 11636,
    "iction": 4270,
    "Ġboisterously": 25682,
    "Ġveteran": 17448,
    "Ġunhappy": 5640,
    "allions": 22196,
    "gloves": 25143,
    "Ġquicker": 16506,
    "Ġfortnight": 6200,
    "first": 3934,
    "Ġjerked": 19831,
    "Ġmanaging": 22323,
    "us": 531,
    "Ġsleepers": 13147,
    "Ġcurt": 18853,
    "ked": 5615,
    "opportunity": 12271,
    "Ġcasualty": 20340,
    "phew": 6368,
    "den": 937,
    "pious": 17632,
    "Ġvalues": 2652,
    "Ġhero": 5715,
    "bourgh": 19103,
    "Ġimplicated": 24875,
    "Ġtester": 21171,
    "Ġheaded": 11054,
    "Ġkne": 4268,
    "Ġdandy": 17892,
    "Ġhandspike": 22696,
    "Ġinstruct": 2866,
    "Ġexplanation": 6692,
    "occupied": 12301,
    "vely": 3866,
    "zors": 21146,
    "Ġapprobation": 10983,
    "rasing": 21044,
    "soo": 18687,
    "ugl": 23287,
    "astrop": 3317,
    "Ġdisdain": 8360,
    "acknowled": 10973,
    "born": 7543,
    "Ġdiffer": 18677,
    "does": 6194,
    "Ġretrogress": 23071,
    "Ġforger": 15729,
    "pivot": 21030,
    "Ġlashings": 25097,
    "Ġcreditable": 19621,
    "Ġmortal": 4682,
    "Ġwreath": 25936,
    "Ġnarratives": 24352,
    "Ġvehemence": 26565,
    "Ġseventy": 7881,
    "bring": 9103,
    "withstand": 23025,
    "presbyter": 20616,
    "Ġslang": 23157,
    "parm": 21013,
    "my": 1314,
    "ently": 1615,
    "Ġproposals": 10612,
    "Ġbund": 17863,
    "majesty": 26280,
    "Ġdisgusted": 14988,
    "fi": 12458,
    "Ġcomment": 9231,
    "Ġdeductions": 19731,
    "Ġrigging": 5600,
    "Ġturner": 7049,
    "Ġchoking": 15931,
    "Ġoccurs": 1856,
    "actually": 14293,
    "Ġobstacles": 19834,
    "Ġwhatever": 3472,
    "Ġregulations": 18600,
    "Ġslipping": 13358,
    "obser": 11098,
    "Ġresemblance": 7974,
    "Ġdom": 2671,
    "Ġdescent": 999,
    "Ġfab": 15572,
    "Ġspinning": 15051,
    "weaving": 18665,
    "Ġaccept": 4411,
    "Ġhundred": 2694,
    "goes": 10425,
    "Ġfelicity": 7260,
    "introduce": 25186,
    "Ġdoubtful": 19141,
    "dr": 6221,
    "Ġshores": 8846,
    "Ġbrag": 23831,
    "follows": 24527,
    "irations": 18170,
    "Ġfreshly": 23984,
    "Ġdivinest": 25722,
    "Ġcorrect": 2433,
    "Ġimpotently": 22388,
    "Ġbo": 794,
    "Ġdeacon": 18140,
    "Ġvenge": 5420,
    "Ġsuddenness": 23380,
    "uled": 11535,
    "Ġestate": 6316,
    "Ġantilles": 24178,
    "eringly": 23003,
    "tastes": 21095,
    "Ġmacey": 12559,
    "conceivable": 17129,
    "rec": 6004,
    "Ġtax": 13814,
    "sun": 7139,
    "Ġpapers": 4021,
    "Ġfret": 10805,
    "aps": 1231,
    "masters": 16833,
    "resnet": 4069,
    "accept": 8888,
    "Ġsimple": 1620,
    "Ġcould": 703,
    "Ġdespise": 14664,
    "abetical": 15739,
    "adding": 21757,
    "Ġmidday": 23632,
    "Ġharsh": 9519,
    "itchen": 7788,
    "Ġpleasure": 2695,
    "ime": 625,
    "Ġextracting": 11103,
    "Ġobserve": 4671,
    "Ġsundry": 20072,
    "Ġloud": 4701,
    "bly": 6110,
    "Ġbeasts": 10616,
    "pequod": 7052,
    "Ġnasty": 17441,
    "Ġdisown": 22522,
    "trimmed": 23946,
    "swallowed": 14851,
    "Ġtot": 4186,
    "apable": 6422,
    "fanc": 20863,
    "erringly": 16209,
    "========": 2312,
    "Ġstory": 2902,
    "uneven": 23684,
    "Ġmacy": 19353,
    "Ġsignals": 10584,
    "Ġrelation": 2143,
    "Ġthrobbing": 16897,
    "omically": 13978,
    "itude": 1418,
    "Ġbankrupt": 16795,
    "sulphur": 25909,
    "Ġclassifies": 11829,
    "hardly": 6491,
    "-------": 20387,
    "cription": 20817,
    "Ġimpunity": 14216,
    "Ġderiv": 1736,
    "Ġsignificance": 13278,
    "Ġcastles": 16638,
    "Ġcord": 5222,
    "Ġvex": 5948,
    "Ġwhither": 10213,
    "fallen": 19658,
    "Ġsame": 1340,
    "Ġthrice": 10574,
    "Ġtells": 9359,
    "Ġlinen": 12404,
    "Ġcant": 17824,
    "Ġprimal": 17106,
    "Ġlustre": 15132,
    "Ġfrequencies": 4789,
    "Ġhelpless": 8302,
    "Ġwhy": 1759,
    "iogn": 20920,
    "witness": 10033,
    "hoisting": 23715,
    "Ġnewfound": 22930,
    "Ġdread": 3166,
    "Ġfolded": 7768,
    "Ġflooring": 23623,
    "Ġdesperation": 19817,
    "Ġstumbling": 21740,
    "Ġdeclines": 23960,
    "rat": 8755,
    "Ġpredicting": 2414,
    "Ġlimber": 16477,
    "Ġnoble": 3440,
    "buried": 14847,
    "Ġinduce": 7763,
    "Ġdesperate": 7777,
    "gun": 10095,
    "Ġgreyish": 24207,
    "Ġey": 8135,
    "urance": 10856,
    "ograph": 4797,
    "Ġregrets": 18601,
    "friendship": 24045,
    "Ġcuring": 21342,
    "Ġdeparted": 5563,
    "Ġinsol": 10179,
    "Ġknives": 14835,
    "Ġmiraculous": 13545,
    "shame": 16022,
    "dist": 4480,
    "gd": 3127,
    "Ġcheetah": 14501,
    "Ġamput": 16032,
    "Ġpand": 21454,
    "Ġwake": 4749,
    "deceptive": 22147,
    "Ġblindly": 12106,
    "violence": 16476,
    "footed": 19688,
    "certainly": 5339,
    "ductive": 23933,
    "usual": 5840,
    "Ġexquisite": 12379,
    "ada": 14009,
    "Ħ": 231,
    "pil": 15406,
    "acid": 10993,
    "Ġzer": 1094,
    "Ġcandelabra": 26601,
    "Ġvon": 14079,
    "Ġwight": 12549,
    "Ġhare": 5157,
    "garious": 17557,
    "Ġtok": 1248,
    "Ġexpert": 18859,
    "ys": 3960,
    "Ġhardened": 14448,
    "Ġbit": 2964,
    "antically": 22094,
    "tawny": 26403,
    "Ġvesture": 20060,
    "Ġincreased": 2212,
    "20": 20752,
    "Ġbridegroom": 10603,
    "Ġappare": 12812,
    "gloom": 17138,
    "decoder": 3643,
    "Ġbran": 5250,
    "bble": 17483,
    "terrific": 25040,
    "bottle": 20144,
    "ĠĠĠĠĠĠ": 6414,
    "Ġnewfoundland": 26568,
    "Ġfinny": 23126,
    "Ġgoest": 22421,
    "Ġdetestable": 15096,
    "Ġbrother": 2749,
    "atigable": 15268,
    "Ġswears": 16461,
    "Ġoccasionally": 5589,
    "Ġquality": 3525,
    "7": 27,
    "deception": 22143,
    "inquiry": 15140,
    "too": 4508,
    "Ġgolden": 5336,
    "Ġoperation": 11995,
    "forehead": 8515,
    "Ġformerly": 7493,
    "eg": 17528,
    "Ġreasoned": 23047,
    "Ġdriver": 16472,
    "Ġthroats": 24574,
    "5": 25,
    "strip": 19829,
    "Ġboy": 3023,
    "Ġlizz": 21555,
    "stood": 4115,
    "Ġmagnificence": 20631,
    "Ġfilial": 16619,
    "Ġreigned": 13985,
    "Ġcomparative": 10541,
    "Ġices": 21153,
    "Ġperfume": 25665,
    "spiracle": 22736,
    "Ġxlix": 25860,
    "Ġdevelopment": 7058,
    "nineteenth": 26138,
    "Ġheartless": 13070,
    "Ġattentively": 9948,
    "Ġabilities": 8865,
    "Ġambitious": 18514,
    "lengths": 24846,
    "oard": 4809,
    "dia": 2135,
    "Ġcomplicated": 14733,
    "Ġcarved": 7947,
    "sullen": 17668,
    "Ġanno": 9666,
    "place": 4152,
    "denial": 18716,
    "stains": 11634,
    "Ġnortheast": 23203,
    "urer": 18121,
    "crum": 17510,
    "Ġinjunction": 19616,
    "Ġuninterrupted": 22042,
    "Ġcareless": 11118,
    "Ġvariation": 22663,
    "Ġrocks": 6863,
    "Ġfloundering": 16249,
    "Ġdear": 1538,
    "nurtured": 25524,
    "Ġswift": 3667,
    "Ġchemist": 11133,
    "dishonourable": 26365,
    "stretch": 13974,
    "Ġtrespass": 23599,
    "Ġhonors": 23600,
    "Ġtumbled": 13404,
    "Ġupbraid": 18318,
    "Ġstiffest": 24829,
    "aced": 2415,
    "follow": 5680,
    "Ġeducated": 16784,
    "Ġascended": 8665,
    "Ġnowadays": 18546,
    "ounce": 6557,
    "Ġturnpike": 23027,
    "Ġlect": 9221,
    "Ġseedy": 21960,
    "y": 93,
    "tles": 10729,
    "anning": 10163,
    "Ĭ": 237,
    "gracious": 11828,
    "blooded": 20021,
    "onden": 13842,
    "Ġla": 5913,
    "Ġcheapside": 23286,
    "Ġgoodge": 22819,
    "Ġjura": 14191,
    "Ġinmost": 17930,
    "Ġclifford": 22351,
    "Ġpalm": 10512,
    "Ġto": 297,
    "barrel": 17059,
    "indifferent": 14207,
    "Ġunansw": 22054,
    "Ġblubber": 5666,
    "Ġargu": 10933,
    "Ġslop": 23160,
    "icles": 17972,
    "probability": 17021,
    "lucky": 24544,
    "Ġcollateral": 20070,
    "Ġmyself": 1457,
    "Ġbreathless": 12166,
    "Ġdurst": 20351,
    "Ġwharf": 9558,
    "rey": 12534,
    "Ġarter": 22186,
    "girl": 12315,
    "Ġdazed": 15592,
    "Ġlubber": 17442,
    "Ġcape": 5146,
    "Ġstup": 14003,
    "obli": 23092,
    "Ġfads": 21415,
    "Ġenrapt": 21937,
    "Ġaccelerate": 23226,
    "Ġwidows": 24235,
    "Ġwinged": 16994,
    "Ġflanks": 11913,
    "son": 2328,
    "Ġtag": 15466,
    "chamber": 13623,
    "Ġimmutable": 17356,
    "Ġlakes": 8131,
    "Ġsalad": 19477,
    "Ġwolves": 25934,
    "orph": 21397,
    "orts": 2556,
    "Ġheaps": 11640,
    "Ġwait": 4907,
    "Ġbitterest": 12399,
    "compliment": 11363,
    "Ġprofit": 14584,
    "avenza": 17103,
    "ake": 748,
    "Ġintercourse": 10998,
    "ives": 1410,
    "milk": 20475,
    "iage": 17572,
    "widely": 25343,
    "brushing": 20787,
    "Ġadvised": 16212,
    "leap": 21365,
    "sudden": 5315,
    "Ġpermitting": 22397,
    "Ġmassa": 19452,
    "Ġinn": 4591,
    "Ġlouisiana": 25076,
    "Ġcompanionship": 14918,
    "Ġtomahawk": 7539,
    "Ġpovels": 22591,
    "Ġparty": 3508,
    "Ġshipped": 9713,
    "Ġrubbing": 9319,
    "Ġabsor": 8504,
    "Ġnaturalist": 22895,
    "shop": 14237,
    "prow": 15409,
    "Ġleviathan": 3291,
    "Ġmelbourne": 24288,
    "corners": 17366,
    "istically": 14142,
    "Ġunwell": 22013,
    "Ġgazing": 5876,
    "oned": 4631,
    "Ġunclad": 22050,
    "Ġcoals": 16073,
    "Ġabound": 8862,
    "Ġassociations": 14961,
    "Ġharshly": 25249,
    "promote": 24727,
    "Ġserm": 9632,
    "Ġdotted": 16791,
    "ines": 682,
    "Ġsprinkled": 19495,
    "aco": 12891,
    "Ġclue": 7019,
    "Ġexagger": 12715,
    "transom": 19733,
    "sized": 15426,
    "Ġhabitation": 14801,
    "Ġvoy": 2620,
    "Ġxxx": 7767,
    "Ġcasket": 19723,
    "Ġshrunk": 16717,
    "Ġrode": 15994,
    "Ġfat": 3461,
    "Ġcasualties": 25512,
    "grace": 5846,
    "Ġstrangely": 5677,
    "yours": 7695,
    "ainted": 3657,
    "º": 123,
    "Ġaffl": 14384,
    "Ġmusky": 19380,
    "Ġreceives": 20353,
    "pennies": 26285,
    "Ġricher": 12755,
    "Ġfinite": 2324,
    "Ġassurances": 9998,
    "Ġiroquois": 26471,
    "Ġcase": 1939,
    "Ġrestrict": 16371,
    "accustomed": 13155,
    "Ġpatriot": 23294,
    "Ġcoaxing": 18597,
    "screwed": 17186,
    "Ġsuspicion": 6211,
    "ĠâĢľâĢĺ_": 25111,
    "iverse": 13113,
    "cracy": 24690,
    "smoking": 23908,
    "Ġcompanions": 5865,
    "Ġdivin": 13271,
    "Ġhumility": 12980,
    "Ġhoarse": 14525,
    "alt": 12634,
    "Ġuppermost": 15276,
    "started": 10844,
    "Ġunconscious": 9545,
    "Ġforgot": 4684,
    "Ġdot": 4820,
    "Ġstepped": 7051,
    "exceedingly": 9565,
    "Ġwoody": 23516,
    "amidst": 25652,
    "Ġspat": 2664,
    "Ġmary": 3843,
    "Ġrouse": 15818,
    "Ġsynthe": 26007,
    "Ġforeign": 9870,
    "Ġjacobians": 2894,
    "Ġpreprocess": 22231,
    "Ġproportionate": 17042,
    "disp": 7977,
    "Ġdiscovering": 13355,
    "simultaneously": 19863,
    "Ġjohnson": 18409,
    "Ġpianoforte": 15271,
    "Ġscandinavian": 26344,
    "beaten": 20314,
    "Ġliar": 22406,
    "ffic": 22149,
    "hic": 3251,
    "Ġcau": 13879,
    "Ġinspire": 11992,
    "Ġ221": 25068,
    "Ġmr": 662,
    "Ġseventeen": 26210,
    "Ġwept": 7184,
    "shold": 2773,
    "Ġoffer": 4843,
    "Ġscarlet": 13220,
    "Ġrepugn": 23362,
    "beheaded": 22491,
    "Ġcategor": 4138,
    "Ġgi": 15662,
    "Ġinscriptions": 20007,
    "adders": 24399,
    "atiously": 15519,
    "Ġreced": 15688,
    "omy": 6249,
    "Ġantics": 24177,
    "Ġsorrows": 13352,
    "Ġmurderer": 4980,
    "Ġpenalties": 10411,
    "Ġsociet": 9447,
    "inople": 13827,
    "youngest": 19742,
    "Ġcorre": 3887,
    "odious": 21808,
    "Ġcharley": 19005,
    "Ġstaving": 21735,
    "Ġ74": 24260,
    "Ġdodging": 19886,
    "ieth": 10703,
    "Ġstratag": 26028,
    "icit": 3379,
    "Ġsurrender": 16448,
    "terrors": 25041,
    "homely": 25617,
    "Ġanimals": 8977,
    "Ġderived": 8239,
    "Ġscenes": 5731,
    "irty": 4049,
    "Ġfilling": 13406,
    "Ġshakes": 10903,
    "Ġdine": 7366,
    "Ġportra": 9007,
    "Ġmice": 13857,
    "Ġexceptional": 19369,
    "Ġfairer": 20460,
    "Ġinverted": 12633,
    "Ġgeor": 3388,
    "pshire": 21023,
    "Ġexpense": 7651,
    "Ġdelusion": 18974,
    "Ġkill": 4454,
    "Ġbusks": 23338,
    "Ġflowed": 10370,
    "goldsmith": 20146,
    "signs": 16537,
    "Ġfields": 2144,
    "Ġhogarth": 25780,
    "brandy": 19201,
    "Ġe": 311,
    "Ġfeeds": 16431,
    "gradient": 2273,
    "fit": 6645,
    "Ġthird": 4187,
    "Ġhateful": 19712,
    "li": 1188,
    "aloft": 8805,
    "Ġnodes": 1967,
    "Ġrested": 9377,
    "aching": 5831,
    "Ġtransformer": 2638,
    "Ġther": 17777,
    "Ġimperilled": 19577,
    "Ġhumour": 7932,
    "Ġpresumed": 10543,
    "dug": 18462,
    "Ġflatter": 9346,
    "thrown": 8480,
    "Ġforehead": 5261,
    "reated": 10301,
    "Ġtrained": 8502,
    "Ġsharp": 2413,
    "Ġembraced": 10004,
    "Ġskul": 22793,
    "illed": 2625,
    "close": 9984,
    "prec": 3204,
    "ivities": 22083,
    "Ġrepugnance": 19084,
    "Ġheaven": 3366,
    "downstairs": 23917,
    "Ġmetaphys": 16411,
    "jaws": 20931,
    "web": 18663,
    "supposed": 13313,
    "Ġmusty": 22678,
    "Ġcottagers": 6761,
    "Ġnice": 6676,
    "oriented": 2948,
    "Ġdarkened": 16430,
    "tahit": 17691,
    "Ġforb": 11661,
    "Ġdefile": 18823,
    "Ġconnexion": 11453,
    "crucible": 24842,
    "discharging": 26305,
    "Ġlounging": 10020,
    "Ġnlp": 3064,
    "Ġlabelled": 23329,
    "umblings": 23927,
    "Ġdetest": 8500,
    "Ġamong": 1668,
    "Ġlean": 7605,
    "Ġleaning": 5228,
    "librarian": 26567,
    "Ġghostly": 24650,
    "Ġhere": 1088,
    "Ġclose": 3037,
    "Ġexulting": 20257,
    "H": 44,
    "schoolmaster": 15159,
    "spending": 18691,
    "Ġshrinking": 14803,
    "Ġindestruct": 22956,
    "Ġwickedness": 9524,
    "Ġbecome": 3161,
    "Ġinsight": 16529,
    "Ġmasts": 6465,
    "Ġsunshine": 14493,
    "Ġhogshe": 20490,
    "pulled": 25145,
    "Ġinvention": 19951,
    "Ġbelonged": 6922,
    "Ġsplendidly": 25327,
    "ibbald": 18841,
    "Ġincant": 18569,
    "Ġspeedily": 7712,
    "Ġmonomaniac": 9567,
    "athom": 12936,
    "fresh": 13390,
    "patient": 25342,
    "sounding": 24796,
    "osures": 22258,
    "Ġhospit": 7514,
    "Ġmarking": 16467,
    "Ġburying": 19251,
    "gins": 12465,
    "unimportant": 18159,
    "Ġdrily": 23538,
    "Ġconfine": 14509,
    "Ġburned": 8630,
    "ician": 21563,
    "ferences": 10325,
    "Ġbeads": 18083,
    "Ġdeed": 7869,
    "Ġpor": 5225,
    "Ġportions": 19367,
    "attend": 11100,
    "Ġmerciless": 25246,
    "etwork": 440,
    "Ġplatonian": 25118,
    "Ġimpo": 3442,
    "Ġtransl": 2833,
    "treatment": 20410,
    "¸": 121,
    "Ġkentuckian": 26342,
    "Ġridges": 16730,
    "Ġspouted": 14673,
    "Ġeavesdroppers": 25963,
    "Ġnatives": 17950,
    "Ġsan": 7825,
    "Ġsailors": 4278,
    "bouton": 17500,
    "Ġhatch": 7848,
    "ropy": 1100,
    "Ġblows": 5973,
    "Ġpatterns": 1215,
    "strate": 12669,
    "ached": 2321,
    "han": 12469,
    "Ġwildly": 9412,
    "Ġsnatch": 14638,
    "Ġlatter": 3991,
    "Ġemploy": 3613,
    "interest": 5421,
    "Ġceasing": 23755,
    "icher": 9201,
    "Ġsuspended": 5665,
    "Ġbrah": 19355,
    "Ġrash": 10897,
    "Ġquery": 2481,
    "pagans": 25525,
    "Ġinsist": 9889,
    "Ġcasement": 25092,
    "children": 9054,
    "Ġpassenger": 14368,
    "ilight": 12689,
    "Ġincreas": 1692,
    "application": 12360,
    "clim": 18929,
    "bies": 15310,
    "Ġcritic": 19124,
    "Ġravines": 25831,
    "owards": 4595,
    "Ġnar": 7375,
    "Ø": 153,
    "orter": 4257,
    "Ġtroop": 24897,
    "Ġputting": 5326,
    "aping": 8194,
    "teen": 6370,
    "cim": 8719,
    "Ġwitty": 21291,
    "Ġrooted": 13167,
    "ength": 2313,
    "Ġteacup": 16205,
    "Ġeste": 6085,
    "Ġproduce": 4368,
    "Ġease": 5629,
    "Ġsatisfying": 23696,
    "\"]": 17469,
    "dashing": 20835,
    "Ġconducting": 16648,
    "nns": 1893,
    "Ġpersisting": 18894,
    "Ġdirest": 22705,
    "hemat": 3131,
    "kne": 20934,
    "Ġconsoling": 19455,
    "Ġburn": 3681,
    "Ġcontribute": 12857,
    "Ġtransports": 24276,
    "scissors": 20726,
    "Ġpeep": 6870,
    "Ġhumor": 11050,
    "Ġbusiness": 2233,
    "Ġarctic": 12808,
    "sorrow": 12505,
    "Ġunintellig": 22022,
    "ose": 718,
    "Ġfanny": 23389,
    "Ġinterconnected": 1337,
    "Ġconsulted": 13428,
    "Ġinconvenience": 9562,
    "Ġarose": 7360,
    "exerc": 16012,
    "Ġsneer": 13445,
    "Ġcontr": 1913,
    "<": 32,
    "covering": 15332,
    "Ġprovidence": 18743,
    "Ġcanada": 22163,
    "Ġgenteel": 19979,
    "Ġsubdivisions": 26037,
    "Ġhorror": 3773,
    "Ġmilliner": 19883,
    "ww": 10736,
    "finished": 10553,
    "art": 582,
    "Ġgraves": 11705,
    "Ġblocked": 19222,
    "harpooneer": 8688,
    "Ġchag": 15928,
    "isc": 6239,
    "cous": 8721,
    "Ġmach": 13855,
    "Ġpursuing": 9436,
    "thed": 8825,
    ",âĢĻâĢĶ": 23524,
    "Ġcoldness": 23757,
    "Ġsalt": 8017,
    "Ġ$": 21149,
    "Ġmounted": 7833,
    "braces": 24658,
    "remorse": 14465,
    "Ġfrenzy": 13620,
    "Ġxlvi": 25590,
    "apothe": 22333,
    "whal": 10939,
    "Ġwithdrawn": 10605,
    "Ġdispute": 16053,
    "politeness": 16905,
    "prospect": 23394,
    "vil": 2733,
    "Ġprot": 3847,
    "Ġtort": 5902,
    "Ġjollity": 25566,
    "relig": 15510,
    "Ġsinging": 7724,
    "Ġeight": 3901,
    "Ġdestitute": 14565,
    "Ġelectric": 15192,
    "Ġchast": 18380,
    "Ġpuzzling": 14894,
    "Ġbarrowful": 25595,
    "Ġlightened": 23260,
    "agreeable": 5829,
    "Ġapiece": 16812,
    "Ġgathering": 14976,
    "riages": 10242,
    "gard": 7339,
    "Ġbespe": 19241,
    "bre": 3980,
    "heartily": 24214,
    "Ġhor": 1661,
    "Ġplanisphere": 26606,
    "irresist": 21910,
    "Ġhig": 754,
    "ldog": 21915,
    "appearance": 5333,
    "monster": 8591,
    "aky": 18411,
    "Ġadmire": 5263,
    "murderers": 25728,
    "Ġwh": 328,
    "Ġladder": 8597,
    "Ġbreach": 11970,
    "Ġminutest": 14559,
    "te": 993,
    "Ġenglishmen": 19428,
    "burning": 25078,
    "Ġmuttering": 10498,
    "Ġenduring": 16301,
    "Ġseveral": 2673,
    "Ġoutput": 928,
    "Ġpasseng": 12967,
    "fever": 22498,
    "elzebub": 26463,
    "Ġeternal": 5976,
    "^": 66,
    "Ġparading": 23709,
    "springing": 24889,
    "Ġdilatory": 24705,
    "Ġhearsed": 25039,
    "Ġtortured": 14922,
    "Ġfonder": 17880,
    "Ġdefence": 11066,
    "roman": 22002,
    "fe": 675,
    "Ġnaturally": 2467,
    "Ġrecorded": 11292,
    "hew": 5364,
    "Ġweltering": 19584,
    "Ġstraits": 7994,
    "Ġordinary": 6097,
    "Ġdimens": 3153,
    "rs": 7808,
    "Ġknocked": 9498,
    "friends": 8306,
    "Ġblankness": 24611,
    "gener": 3128,
    "Ġyoungest": 7954,
    "Ġpopularly": 12238,
    "million": 25751,
    "erial": 4632,
    "imaux": 21710,
    "sleepy": 24729,
    "Ġevince": 24292,
    "alously": 15625,
    "ors": 856,
    "ference": 1880,
    "fishing": 20858,
    "Ġpovelson": 26551,
    "landed": 18954,
    "Ġopine": 19227,
    "Ġasks": 5115,
    "Ġconsum": 9798,
    "miseries": 16756,
    "Ġwardrobe": 17224,
    "Ġcigars": 12249,
    "Ġbrotherly": 16527,
    "Ġconstantly": 11969,
    "Ġagitated": 7647,
    "ict": 589,
    "everything": 6324,
    "fairly": 17218,
    "Ġ51": 24319,
    "mitting": 17601,
    "istan": 22106,
    "Ġrake": 18639,
    "Ġlecture": 13565,
    "Ġwaves": 3919,
    "tured": 13793,
    "Ġmeta": 3641,
    "Ġbridal": 14952,
    "anxiously": 15108,
    "Ġsecure": 4912,
    "winds": 10520,
    "Ġsteelkilt": 5675,
    "Ġsant": 21213,
    "Ġgather": 6534,
    "prophet": 16178,
    "Ġprophesied": 26062,
    "ores": 2412,
    "Ġmatch": 4530,
    "Ġwallow": 19464,
    "Ġtener": 21162,
    "Ġbrotherhood": 23670,
    "circled": 24186,
    "verted": 10216,
    "ught": 2751,
    "Ġjeer": 24122,
    "Ġbiting": 17861,
    "Ġpropos": 7062,
    "Ġerrors": 2597,
    "Ġlaw": 3653,
    "cor": 5520,
    "Ġunsub": 22019,
    "Ġransacked": 26503,
    "Ġaudacious": 13458,
    "Ġdropping": 7483,
    "Ġappend": 18357,
    "Ġrenowned": 26193,
    "ual": 944,
    "Ġpour": 13912,
    "Ġensemble": 1608,
    "Ġlinguistic": 12422,
    "writes": 4988,
    "Ġxxi": 24475,
    "Ġawe": 7147,
    "Ġappeased": 23198,
    "Ġanimated": 7702,
    "mortals": 25409,
    "Ġcased": 21344,
    "isms": 12576,
    "Ġbestirred": 20450,
    "Ġarithmetic": 18346,
    "Ġtwos": 18656,
    "arling": 10813,
    "Ġstarlight": 24627,
    "regarding": 15069,
    "Ġfates": 15574,
    "rant": 11515,
    "Ġsteadily": 8052,
    "Ġgraceful": 11295,
    "Ġpreserving": 19795,
    "Ġalas": 5922,
    "Ġling": 7377,
    "Ġface": 1721,
    "class": 4094,
    "Ġcad": 12564,
    "Ġmadly": 16484,
    "Ġpikes": 21477,
    "hent": 12530,
    "Ġpremeditated": 22232,
    "Ġingolstadt": 8333,
    "Ġdoesn": 7438,
    "Ġliked": 5264,
    "Ġblast": 7445,
    "Ġostens": 25275,
    "Ġmarlings": 23036,
    "nosed": 20991,
    "Ġpathways": 11152,
    "Ġnook": 15925,
    "Ġdecayed": 22821,
    "Ġfrogs": 23920,
    "Ġsuns": 23272,
    "Ġsaws": 23048,
    "Ġdestroyed": 5271,
    "conc": 3947,
    "reach": 17756,
    "itive": 6668,
    "Ġ71": 24258,
    "Ġfeasts": 25369,
    "bbed": 6911,
    "Ġ1": 1013,
    "merchant": 10466,
    "Ġtorture": 9064,
    "oring": 1859,
    "Ġvengeful": 14888,
    "Ġpotent": 12061,
    "ivory": 10269,
    "Ġknown": 1640,
    "Ġprivate": 5345,
    "agers": 5633,
    "Ġpaced": 7583,
    "Ġtangles": 25761,
    "Ġfervently": 25877,
    "Ġdepending": 14298,
    "Ġrumors": 11320,
    "cary": 10688,
    "Ġsailed": 4889,
    "round": 3369,
    "Ġfirm": 3870,
    "Ġdavis": 25952,
    "Ġclaps": 22344,
    "interview": 19297,
    "medium": 23638,
    "Ġcompan": 2175,
    "enchant": 21282,
    "ape": 1904,
    "Ġyield": 5093,
    "sacred": 17027,
    "lonely": 20956,
    "Ġobtruded": 20721,
    "Ġspeechless": 13351,
    "Ġnailed": 10188,
    "het": 5435,
    "eray": 21265,
    "Ġcontour": 18474,
    "Ġdeceit": 13479,
    "hies": 17559,
    "Ġglobular": 19009,
    "Ġpriest": 7526,
    "Ġfronted": 25854,
    "writing": 7721,
    "Ġinnocence": 6477,
    "Ġreservoir": 20650,
    "Ġconcern": 2586,
    "qualities": 25043,
    "prit": 19340,
    "Ġoffspring": 16142,
    "Ġdecisions": 6702,
    "poured": 17636,
    "Ġshiny": 14104,
    "ishly": 14198,
    "Ġresurrection": 12890,
    "Ġdepend": 798,
    "Ġpreparation": 13527,
    "Ġdest": 2237,
    "respond": 12540,
    "flutter": 23968,
    "haul": 14764,
    "Ġleaders": 16626,
    "washed": 13042,
    "accompanied": 12419,
    "ky": 4521,
    "assure": 9267,
    "cop": 20800,
    "Ġdie": 3963,
    "Ġpitiful": 13236,
    "iff": 3905,
    "Ġmanage": 7640,
    "Ġ94": 17716,
    "Ġtumb": 21168,
    "Ġnomine": 26455,
    "letter": 6201,
    "Ġbrill": 8548,
    "Ġinsupportable": 13930,
    "Ġremoved": 5274,
    "Ġchancing": 22246,
    "Ġtwine": 14309,
    "Ġringing": 13329,
    "equally": 19898,
    "Ġhal": 1360,
    "Ġtheology": 21275,
    "oot": 13763,
    "Ġmerid": 13191,
    "trip": 21090,
    "quohog": 21850,
    "Ġforgetfulness": 14605,
    "Ġshutting": 14758,
    "waving": 21130,
    "Ġqueer": 4478,
    "idence": 4303,
    "overfitting": 13098,
    "noise": 14328,
    "Ġturk": 6603,
    "ions": 449,
    "Ġsuspected": 9061,
    "athy": 14321,
    "Ġread": 1449,
    "overing": 6306,
    "awakened": 14451,
    "ignant": 11128,
    "failed": 20862,
    "europe": 20664,
    "Ġforeheads": 23447,
    "Ġselecting": 16683,
    "Ġsensit": 2947,
    "imprudence": 16556,
    "Ġdefinitions": 22942,
    "Ġbuoy": 8004,
    "cream": 15329,
    "Ġrevolutionized": 3368,
    "endured": 22225,
    "igation": 5918,
    ")": 13,
    "igning": 12676,
    "Ġcustody": 13645,
    "linging": 16078,
    "Ġpredestinated": 18516,
    "Ġtinge": 25087,
    "Ġsteal": 16280,
    "capting": 24036,
    "avery": 13681,
    "Ġlooking": 2475,
    "Ġimmediate": 6090,
    "headed": 4319,
    "rece": 21233,
    "Ġparl": 8178,
    "Ġencodings": 4775,
    "Ġpoured": 8799,
    "Ġha": 400,
    "ided": 2785,
    "six": 7141,
    "ull": 1433,
    "Ġaspire": 21898,
    "Ġundersampling": 19517,
    "Ġmurdered": 6464,
    "Ġpatience": 2795,
    "Ġshavings": 14108,
    "Ġcultivated": 17362,
    "doom": 23375,
    "rug": 18336,
    "Ġmidnight": 5265,
    "glad": 9006,
    "ink": 756,
    "deserts": 25379,
    "wishes": 13805,
    "hered": 5622,
    "Ġmalicious": 10556,
    "Ġbec": 1348,
    "Ġprayer": 16665,
    "Ġsinking": 7307,
    "90": 12429,
    "Ġrolls": 8334,
    "Ġimpose": 22380,
    "Ġfine": 1315,
    "Ġtemperature": 1002,
    "Ġcreation": 6439,
    "Ġcarav": 18901,
    "infant": 19826,
    "Ġheave": 7599,
    "Ġhardy": 8565,
    "Ġplantation": 11422,
    "inuating": 16200,
    "pr": 3177,
    "Ġmarty": 20289,
    "neg": 12861,
    "Ġbouton": 17868,
    "Ġinsignificance": 20456,
    "Ġsimpler": 2047,
    "Ġdeferred": 18825,
    "Ġdenying": 14657,
    "Ġanticipating": 17057,
    "wed": 5003,
    "later": 20952,
    "strangers": 20335,
    ".âĢĻ": 1718,
    "Ġheart": 1595,
    "Ġprobed": 18732,
    "Ġsitu": 3493,
    "running": 6797,
    "://": 11464,
    "Ġhaze": 18196,
    "Ġscand": 7203,
    "Ġjeopardized": 20229,
    "Ġjets": 10286,
    "Ġmatters": 4974,
    "Ġhorses": 6385,
    "agues": 8161,
    "Ġintimidated": 24805,
    "Ġconfronted": 23307,
    "Ġhulls": 13924,
    "Ġamaz": 5385,
    "Ġhorizon": 6632,
    "Ġsprawling": 22137,
    "Ġeyed": 12663,
    "Ġpacked": 9978,
    "alarmed": 21501,
    "Ġmomentarily": 22809,
    "Ġunrecorded": 17466,
    "roy": 7854,
    "Ġwol": 15527,
    "oration": 2209,
    "Ġrecursive": 4782,
    "Ġsupre": 10268,
    "stuff": 15683,
    "Ġwaterward": 23366,
    "fool": 9046,
    "Ġpam": 21453,
    "aside": 10190,
    "Ġbefall": 8827,
    "robust": 19726,
    "Ġyoke": 18095,
    "igate": 8821,
    "Ġaccomplice": 24375,
    "Ġtake": 1580,
    "transformers": 8714,
    "precipitance": 25867,
    "being": 3913,
    "Ġcentral": 7728,
    "Ġrevelry": 15134,
    "independent": 26021,
    "anging": 3549,
    "Ġruth": 14091,
    "Ġtub": 7146,
    "ulates": 14053,
    "Ġpeter": 10534,
    "quarried": 24945,
    "Ġrev": 6988,
    "Ġthoughtless": 16190,
    "Ġcontracting": 16008,
    "Ġlun": 7856,
    "Ġapparent": 5466,
    "Ġgowns": 25359,
    "Ġswap": 23051,
    "unwittingly": 25801,
    "scent": 13013,
    "Ġutensils": 23512,
    "smith": 5669,
    "Ġdefici": 22941,
    "remembered": 17349,
    "Ġdiffused": 12065,
    "Ġbarren": 11205,
    "Ġintense": 6157,
    "down": 3468,
    "Ġdraws": 19434,
    "ctor": 13958,
    "Ġunit": 1847,
    "wol": 21121,
    "Ġmasses": 10502,
    "Ġabundantly": 17155,
    "be": 671,
    "Ġbended": 21383,
    "Ġmoon": 4609,
    "Ġvanity": 7045,
    "Ġpresented": 5183,
    "reed": 6373,
    "Ġhunsford": 6301,
    "aments": 12721,
    "summer": 11990,
    "Ġwow": 15526,
    "ulgences": 21863,
    "Ġthrone": 12210,
    "Ġjabbering": 22301,
    "Ġfruits": 17117,
    "bitterly": 20336,
    "phantoms": 24679,
    "esty": 4307,
    "Ġtackles": 8051,
    "Ġrider": 24184,
    "directly": 13707,
    "salis": 25147,
    "Ġtravelled": 7772,
    "cont": 2921,
    "Ġexpenses": 11833,
    "coll": 23777,
    "unable": 14057,
    "rebellum": 26165,
    "guilt": 24066,
    "Ġsow": 17748,
    "Ġbennett": 16322,
    "subst": 12161,
    "inal": 15478,
    "supplemental": 25874,
    "atlantic": 15521,
    "organ": 15570,
    "Ġunusual": 6553,
    "Ġimaginative": 19246,
    "Ġnupt": 13941,
    "Ġvindication": 25364,
    "Ġexcept": 3314,
    "vy": 21106,
    "Ġbuilded": 24719,
    "obst": 11929,
    "Ġquadrant": 11403,
    "Ġpip": 1654,
    "Ġsuav": 22079,
    "Ġgentle": 1889,
    "Ġmcc": 21305,
    "Ġreck": 6537,
    "elder": 21570,
    "Ġfell": 1977,
    "Ġindiam": 22951,
    "Ġ87": 19709,
    "Ġdiagon": 24740,
    "Ġyer": 15730,
    "Ġilluminated": 20174,
    "Ġoutermost": 22317,
    "Ġsickly": 16773,
    "Ġdarting": 7757,
    "ications": 4445,
    "sullenly": 26149,
    "Ġlexicon": 25974,
    "#": 7,
    "building": 17307,
    "Ġhundredth": 16518,
    "Ġrack": 9310,
    "Ġwearied": 15789,
    "Ġwarn": 5695,
    "elag": 12654,
    "Ġstretch": 6993,
    "Ġsap": 18323,
    "mselves": 2864,
    "privilege": 25263,
    "Ġagreeing": 20017,
    "Ġturks": 14597,
    "lotte": 3333,
    "lingly": 9771,
    "Ġencoun": 4512,
    "fier": 9592,
    "Ġintelligently": 3764,
    "hval": 20897,
    "Ġnav": 5818,
    "Ġconceits": 19388,
    "rings": 10721,
    "Ġrevered": 23732,
    "Ġconcepts": 4552,
    "sticking": 21652,
    "Ġfabulous": 25948,
    "constantly": 24607,
    "54": 15297,
    "Ġgrease": 26189,
    "direful": 25896,
    "claps": 23151,
    "Ġofficial": 7081,
    "Ġcopying": 17067,
    "Ġforest": 9869,
    "Ġindu": 5293,
    "tired": 21071,
    "Ġcoincidence": 25483,
    "har": 20889,
    "Ġthings": 1962,
    "Ġcrumpled": 16440,
    "ateur": 22069,
    "Ġbestowing": 16970,
    "Ġmatlock": 18802,
    "Ġlxi": 21559,
    "Ġbeards": 21749,
    "Ġjump": 4503,
    "solut": 3365,
    "Ġirreparable": 19997,
    "Ġitaly": 10866,
    "Ġannihilation": 15163,
    "turn": 4293,
    "Ġtottenham": 24141,
    "Ġfrenchman": 11282,
    "os": 525,
    "olds": 9309,
    "Ġwealthy": 18178,
    "Ġdivine": 6921,
    "boxes": 16887,
    "Ġluck": 4880,
    "Ġfearfulness": 23510,
    "barb": 10079,
    "Ġadequ": 10912,
    "Ġguinea": 8946,
    "Ġmant": 9646,
    "Ġput": 1798,
    "Ġcalmly": 7734,
    "Ġirish": 14533,
    "Ġhatred": 8608,
    "Ġheathen": 10564,
    "fierce": 25255,
    "Ġcooped": 22580,
    "Ġcaulk": 25440,
    "Ġdissatisfied": 14255,
    "Ġnavigation": 9991,
    "Ġdestiny": 8982,
    "bedstead": 23847,
    "Ġcolds": 23756,
    "U": 57,
    "Ġsometimes": 2168,
    "atra": 17770,
    "Ġfetched": 24566,
    "unlike": 18156,
    "cient": 4570,
    "o": 83,
    "Ġboughs": 20487,
    "Ġscaling": 3630,
    "Ġinstant": 2704,
    "exposure": 19256,
    "esu": 17901,
    "romising": 18233,
    "Ġchord": 22243,
    "whip": 22235,
    "ulty": 22566,
    "Ġdegenerating": 25799,
    "Ġexploration": 2335,
    "Ġreveal": 11199,
    "¯": 112,
    "sleeves": 26109,
    "flu": 9116,
    "Ġscale": 1551,
    "Ġdirections": 1970,
    "Ġomitted": 12560,
    "Ġabreast": 18394,
    "brimmed": 14587,
    "Ġmonoman": 7939,
    "Ġbillows": 7502,
    "Ġsurmount": 19999,
    "izard": 10882,
    "cnns": 3619,
    "Ġsensationalism": 26066,
    "Ġcrib": 21346,
    "Ġcomplexity": 1693,
    "Ġfaults": 12209,
    "Ġhopeful": 19033,
    "Ġgratified": 8022,
    "Ġburst": 4381,
    "rain": 461,
    "stays": 15684,
    "shabb": 18498,
    "writ": 16552,
    "Ġunfrequent": 24107,
    "duck": 22410,
    "Ġbriony": 9327,
    "Ġlatitude": 8329,
    "loveliness": 26548,
    "Ġmortar": 19391,
    "worthy": 7733,
    "Ġbusier": 23337,
    "domestic": 19824,
    "Ġbowl": 11203,
    "doubt": 6782,
    "objection": 19914,
    "Ġsnugly": 17110,
    "Ġbewitched": 25975,
    "supplementary": 20548,
    "thar": 18217,
    "apers": 3480,
    "Ġassured": 4373,
    "Ġmaintained": 12931,
    "ittance": 12841,
    "Ġspecks": 14306,
    "Ġslavish": 23171,
    "cstasy": 11444,
    "far": 5787,
    "flames": 14710,
    "Ġchinese": 14182,
    "Ġfe": 491,
    "Ġcrouched": 23440,
    "!)": 10067,
    "Ġrapid": 1425,
    "or": 282,
    "conf": 4957,
    "ern": 746,
    "Ġuttermost": 19486,
    "Ġorganically": 3013,
    "project": 16422,
    "Ġpeculiarities": 12067,
    "Ġpleases": 16295,
    "reserve": 17764,
    "Ġshel": 6847,
    "Ġmultitud": 18746,
    "Ġconstrain": 2630,
    "!âĢĶ": 2455,
    "swiss": 24254,
    "originally": 24937,
    "Ġpioneer": 17918,
    "Ġerect": 6143,
    "oken": 4308,
    "Ġwhispering": 14943,
    "warp": 17705,
    "thin": 14095,
    "Ġaston": 3700,
    "ought": 830,
    "Ġreproached": 24891,
    "Ġsho": 2245,
    "Ġscalable": 1717,
    "Ġreusability": 13556,
    "Ġsneezing": 12244,
    "Ġstile": 21730,
    "Ġhan": 15614,
    "Ġviol": 2071,
    "sir": 5001,
    "Ġcommunications": 16352,
    "arian": 10315,
    "reeling": 21243,
    "Ġfools": 14480,
    "rodden": 21533,
    ";--": 8069,
    "Ġdat": 498,
    "Ġrattle": 10898,
    "sor": 7352,
    "Ġgreek": 10629,
    "Ġirritation": 20265,
    "Ġcomprehensive": 15085,
    "Ġallies": 18234,
    "Ġneedlessly": 23629,
    "satisfied": 10577,
    "Ġpersist": 16281,
    "Ġrightly": 13061,
    "deli": 15342,
    "ractions": 11631,
    "Ġasking": 5651,
    "interests": 19707,
    "Ġspending": 10922,
    "enary": 12547,
    "Ġswell": 8948,
    "Ġinve": 17928,
    "Ġsweat": 13138,
    "Ġloaded": 8490,
    "Ġsucceeded": 6105,
    "breath": 15160,
    "Ġreceptive": 1565,
    "Ġlandlady": 10421,
    "Ġabominably": 20064,
    "inferences": 17738,
    "stationed": 25453,
    "Ġproving": 15748,
    "Ġscraping": 13414,
    "Ġleaf": 15719,
    "need": 10978,
    "Ġscratches": 22289,
    "Ġsighs": 22707,
    "Ġretort": 23068,
    "Ġabruptness": 25299,
    "Ġresponses": 23651,
    "gunpowder": 25339,
    "iloquent": 21723,
    "Ġengrossed": 12991,
    "Ġ1807": 26083,
    "destiny": 16701,
    "Ġdefiance": 11067,
    "Ġbambooz": 26119,
    "Ġwander": 9030,
    "Ġfinanc": 23127,
    "Ġrevolve": 19728,
    "Ġreassure": 21670,
    "Ġframed": 19029,
    "Ġvalley": 5850,
    "pale": 13770,
    "Ġviciss": 11291,
    "Ġchurch": 4711,
    "Ġmannish": 26237,
    "Ġtied": 7357,
    "convolutional": 4958,
    "Ġrights": 10395,
    "atoes": 17774,
    "dropout": 3199,
    "Ġcrown": 5287,
    "Ġbrigs": 20321,
    "Ġgrizzled": 11449,
    "Ġshorter": 4498,
    "âĢĶ": 517,
    "Ġgladness": 16590,
    "clut": 23149,
    "cing": 1011,
    "strang": 11182,
    "earth": 6502,
    "Ġfollowing": 4062,
    "Ġaqu": 17741,
    "Ġcuff": 17829,
    "Ġsnoring": 23738,
    "tland": 21072,
    "event": 8077,
    "eternal": 17982,
    "Ġrely": 8819,
    "esteemed": 26009,
    "Ġcaul": 10786,
    "benefact": 24641,
    "cruise": 24841,
    "Ġagainst": 1698,
    "Ġseizure": 21962,
    "Ġworrying": 22925,
    "Ġfainting": 16896,
    "Ġsuffoc": 18870,
    "Ġattending": 3287,
    "owe": 15704,
    "concerned": 24583,
    "Ġimpul": 7208,
    "greek": 25404,
    "Ġpurchase": 12256,
    "Ġbalmy": 22903,
    "Ġplough": 18608,
    "Ġburglar": 17353,
    "Ġchart": 10944,
    "inridge": 11559,
    "engines": 18927,
    "Ġdeem": 18133,
    "achines": 1722,
    "abulary": 4800,
    "convinced": 10621,
    "cost": 19187,
    "Ġsupposing": 6728,
    "Ġdropt": 23675,
    "Ġsnuff": 7992,
    "Ġ47": 14770,
    "Ġsoften": 23123,
    "Ġwat": 1287,
    "_).âĢĶ": 8681,
    "reported": 24492,
    "Ġprecision": 13185,
    "Ġarbitrary": 4736,
    "Ġarchbishop": 18729,
    "uated": 10130,
    "iday": 8828,
    "asc": 6386,
    "sher": 5217,
    "Ġaddison": 14231,
    "noo": 9786,
    "Ġapartments": 19613,
    "Ġdisgrace": 7215,
    "Ġhumiliating": 22881,
    "strom": 15679,
    "Ġwert": 12552,
    "mother": 5480,
    "executed": 25739,
    "Ġformula": 2867,
    "wonders": 17142,
    "Ġduly": 13348,
    "Ġblacksmith": 6595,
    "Ġcolleg": 22851,
    "Ġcommand": 3323,
    "Ġunderstanding": 1808,
    "Ġmurmuring": 23577,
    "Ġremark": 2148,
    "gangway": 20666,
    "Ġequator": 7461,
    "ladyship": 14827,
    "roused": 16651,
    "Ġadam": 2128,
    "ske": 13780,
    "Ġfootman": 8288,
    "Ġwaving": 8575,
    "may": 3677,
    "itement": 7836,
    "correct": 24482,
    "Ġground": 2849,
    "dman": 10087,
    "gentlemanlike": 20000,
    "Ġaccounting": 14571,
    "dles": 11479,
    "Ġshrink": 14802,
    "Ġcruis": 14623,
    "Ġsufferings": 7513,
    "Ġbeach": 6541,
    "====": 1483,
    "ounix": 14159,
    "Ġcasc": 15552,
    "afternoon": 13183,
    "+": 15,
    "Ġcontempl": 6701,
    "Ġfold": 5530,
    "Ġmanip": 8870,
    "Ġmix": 7576,
    "miserable": 8656,
    "education": 20300,
    "C": 39,
    "ilogue": 21722,
    "Ġcommis": 22669,
    "Ġohio": 19128,
    "Ġspeculations": 22993,
    "Ġrings": 11696,
    "ocris": 23707,
    "elfth": 22367,
    "suspected": 12369,
    "Ġdreaming": 11222,
    "Ġsoldier": 16919,
    "Ġpoorly": 9853,
    "papers": 12498,
    "neighboring": 20615,
    "bishop": 13692,
    "saying": 8640,
    "Ġbidirectional": 3754,
    "Ġele": 1963,
    "Ġdew": 14041,
    "harpooneers": 8689,
    "Ġtwopence": 18659,
    "Ġappar": 7411,
    "airing": 16171,
    "humoredly": 26324,
    "Ġidly": 16401,
    "ech": 4390,
    "_âĢĶâĢĿ": 20762,
    "Ġmace": 21308,
    "Ġcomparable": 24277,
    "Ġcourse": 2132,
    "Ġrespecting": 14482,
    "excitement": 19668,
    "Ġworlds": 11945,
    "Ġregions": 10323,
    "power": 7136,
    "Ġsultanism": 25888,
    "Ġoccupations": 9456,
    "Ġinscrut": 10032,
    "Ġthistle": 21914,
    "urry": 13992,
    "feed": 9291,
    "Ġcarelessness": 13073,
    "performances": 26006,
    "otics": 10222,
    "Ġbeating": 8145,
    "Ġcard": 7363,
    "Ġinherent": 4592,
    "tete": 10731,
    "Ġportentous": 15227,
    "seaman": 25457,
    "Ġrearing": 12673,
    "Ġnoticed": 5548,
    "Ġilleg": 21621,
    "Ġmaze": 23828,
    "younger": 11311,
    "custom": 15331,
    "det": 5207,
    "Ġcra": 2331,
    "Ġsingers": 23769,
    "Ġbub": 8118,
    "Ġbewil": 11655,
    "bacc": 7795,
    "itarian": 21335,
    "Ġrenders": 13281,
    "Ġguidance": 9415,
    "Ġclut": 7641,
    "Ġshroud": 6483,
    "odecim": 9830,
    "Ġuseful": 3556,
    "Ġsqualls": 17019,
    "Ġimprudently": 22384,
    "Ġcapricious": 20537,
    "Ġtrials": 16788,
    "Ġweakness": 9965,
    "algorithm": 3953,
    "breeding": 16674,
    "Ġknelt": 12155,
    "clearly": 25195,
    "Ġbusily": 9382,
    "Ġvariance": 1167,
    "Ġhinting": 19648,
    "é": 170,
    "Ġobjects": 5577,
    "bus": 5354,
    "Ġsurface": 5119,
    "Ġgra": 416,
    "Ġhorrible": 4905,
    "Ġrace": 5847,
    "antages": 7192,
    "receiving": 12539,
    "Ġer": 8105,
    "Ġfaire": 13362,
    "Ġcombination": 22868,
    "dense": 18715,
    "Ġrecollect": 8310,
    "Ġshriek": 6637,
    "Ġnamely": 20688,
    "Ġaltern": 7394,
    "Ġfur": 990,
    "Ġjinglers": 26018,
    "mopol": 15394,
    "unting": 21872,
    "ancient": 9654,
    "Ġdisent": 22521,
    "Ġbrick": 8924,
    "Ġspite": 4154,
    "depart": 12262,
    "could": 2874,
    "Ġappals": 22213,
    "Ġattained": 14076,
    "Ġfeeling": 3087,
    "Ġfabric": 25947,
    "different": 6501,
    "ò": 179,
    "Ġmeetings": 16531,
    "Ġtrous": 10958,
    "Ġtransitory": 16015,
    "poor": 6061,
    "brilliancy": 26077,
    "!âĢĿâĢĶ": 8532,
    "Ġstiggs": 25792,
    "Ġnathan": 21524,
    "ust": 494,
    "_.,": 14561,
    "particularly": 8340,
    "Ġexceeded": 14432,
    "Ġfeedforward": 2326,
    "humored": 19451,
    "threat": 10899,
    "Ġnarrated": 14869,
    "Ġoffending": 22741,
    "musical": 25340,
    "Ġincidents": 9297,
    "hammad": 23262,
    "libr": 22921,
    "Ġcity": 4531,
    "une": 2786,
    "mary": 8748,
    "Ġemerging": 24613,
    "urpr": 2285,
    "Ġurged": 6781,
    "Ġshivered": 14106,
    "Ġroods": 22402,
    "Ġcharges": 23267,
    "Ġjuggling": 20437,
    "Ġharriet": 24571,
    "imly": 12683,
    "Ġeligible": 10669,
    "Ġinferences": 17934,
    "gr": 2086,
    "Ġgangs": 21607,
    "Ġcomprising": 16068,
    "Ġleaky": 2345,
    "Ġwarmly": 8986,
    "roses": 17956,
    "Ġpassive": 22841,
    "Ġlake": 5227,
    "Ġflorida": 20658,
    "Ġturban": 23612,
    "explained": 23140,
    "Ġarabic": 24980,
    "Ġbottle": 7490,
    "aisance": 15072,
    "beings": 12872,
    "ckles": 22087,
    "Ġrescue": 13340,
    "Ġdarker": 13117,
    "Ġsucc": 12781,
    "val": 1158,
    "rabb": 15676,
    "Ġrespectable": 6736,
    "Ġleviathans": 8282,
    "Ġexplaining": 15957,
    "Ġusual": 3943,
    "directed": 20403,
    "Ġed": 2145,
    "Ġcharnel": 22250,
    "Ġunfathom": 14787,
    "hib": 15365,
    "Ġshy": 10902,
    "Ġost": 9648,
    "Ġpotency": 14645,
    "Ġcompletion": 12144,
    "pine": 13767,
    "Ġquestions": 3974,
    "Ġheedful": 19739,
    "Ġbattery": 21392,
    "rained": 5162,
    "atics": 15520,
    "Ġspare": 5102,
    "Ġchiefly": 5766,
    "Ġunfrequ": 19507,
    "ego": 4035,
    "ows": 1916,
    "Ġbroke": 5322,
    "Ġbanquet": 15238,
    "Ġtoiled": 12638,
    "Ġaffright": 9330,
    "seem": 10226,
    "Ġcaves": 15550,
    "okingly": 22379,
    "Ġfanatic": 23390,
    "flagged": 23969,
    "Ġprodigies": 19792,
    "Ġsmallest": 6430,
    "Ġstalked": 20427,
    "commanding": 24752,
    "street": 6495,
    "Ġ1894": 5196,
    "culous": 11139,
    "Ġmast": 2901,
    "Ġsimultaneously": 4312,
    "Ġunquestionable": 26221,
    "innocent": 20285,
    "Ġapproaching": 6283,
    "Ġspark": 6689,
    "Ġmand": 21303,
    "Ġhurricane": 16429,
    "Ġentreat": 4510,
    "ead": 2600,
    "mount": 9128,
    "Ġinsensible": 12322,
    "Ġlived": 3992,
    "Ġdropout": 1561,
    "Ġdaw": 21428,
    "Ġtransported": 11278,
    "mus": 10109,
    "Ġrans": 21964,
    "Ġcane": 10926,
    "Ġticking": 25033,
    "Ġpreliminaries": 25176,
    "Ġtravell": 5575,
    "Ġalex": 15131,
    "aim": 2756,
    "Ġsuff": 1303,
    "Ġswish": 23052,
    "sex": 12709,
    "leep": 4635,
    "Ġbeh": 1801,
    "ruin": 22174,
    "Ġegyptians": 25289,
    "Ġfishing": 9661,
    "Ġexpands": 25237,
    "Ġquite": 1741,
    "Ġmisunderstand": 18706,
    "_).": 5887,
    "Ġsalesman": 13666,
    "Ġglasses": 9473,
    "Ġsenor": 20149,
    "Ġsharks": 4497,
    "Ġgripping": 26186,
    "ree": 874,
    "Ġpertaining": 18450,
    "upper": 11537,
    "plied": 10253,
    "Ġcoding": 8116,
    "Ġdiminishing": 4211,
    "Ġfrom": 434,
    "ledge": 1329,
    "Ġsuit": 5725,
    "Ġflashes": 11914,
    "desc": 1394,
    "author": 9858,
    "Ġcop": 7579,
    "Ġhummed": 18776,
    "Ġsunrise": 9371,
    "hopper": 23713,
    "outh": 2688,
    "Ġunwinding": 22056,
    "Ġunsavory": 20706,
    "Ġlip": 6532,
    "Ġtheme": 16016,
    "Ġprophetic": 20018,
    "Ġsympath": 4861,
    "gus": 13723,
    "Ġtack": 5620,
    "magn": 10609,
    "Ġsheeted": 19830,
    "Ġdundee": 16996,
    "Ġwhitened": 24867,
    "Ġsharkish": 24502,
    "Ġsummoned": 9909,
    "partiality": 13158,
    "partly": 14601,
    "Ġjoking": 12833,
    "latitude": 25259,
    "Ġoptimization": 1439,
    "Ġbell": 4636,
    "Ġshould": 865,
    "slight": 10726,
    "Ġbed": 2146,
    "Ġrevellers": 21676,
    "Ġknife": 7309,
    "Ġswarming": 16270,
    "ordered": 8788,
    "Ġcabinets": 23860,
    "Ġtipped": 17727,
    "iarity": 8743,
    "Ġspectrum": 4474,
    "Ġsulkily": 25882,
    "Ġnever": 1020,
    "Ġequalled": 13310,
    "Ġdeity": 18134,
    "Ġital": 10865,
    "secre": 18126,
    "multiple": 15105,
    "Ġunembarrassed": 22065,
    "Ġlifeless": 8947,
    "wart": 17704,
    "Ġhappiness": 2946,
    "Ġjub": 22293,
    "ior": 2039,
    "Ġgrapple": 25811,
    "Ġfringe": 17270,
    "Ġterrier": 23397,
    "comprehensive": 20625,
    "Ġdecay": 1010,
    "give": 4689,
    "Ġbarbar": 6935,
    "Ġrevelation": 25222,
    "induce": 22372,
    "tomb": 21092,
    "Ġlashed": 9197,
    "spersed": 22735,
    "Ġrigid": 16715,
    "adamite": 20591,
    "clerval": 7951,
    "Ġjar": 15947,
    "Ġcanvas": 7784,
    "Ġtweed": 22675,
    "Ġropes": 10747,
    "Ġnought": 21520,
    "Ġdragon": 14942,
    "Ġforbidden": 17077,
    "Ġribbed": 16803,
    "affrail": 11204,
    "ipt": 12475,
    "iot": 9599,
    "Ġgrotes": 19562,
    "indef": 17734,
    "splice": 17169,
    "Ġsqueezed": 20034,
    "Ġrails": 22648,
    "sleep": 6511,
    "yield": 13807,
    "eridge": 15523,
    "Ġperceptible": 18451,
    "Ġedge": 5188,
    "izers": 18142,
    "Ġprocure": 9508,
    "Ġconfidence": 6590,
    "Ġedition": 16432,
    "Ġlevel": 5020,
    "Ġbiggest": 24565,
    "staking": 21640,
    "Ġcigaret": 16975,
    "asol": 21538,
    "itten": 3441,
    "Ġxi": 16427,
    "carry": 19525,
    "tiness": 21070,
    "Ġstave": 11649,
    "tal": 17669,
    "journey": 8744,
    "meas": 7434,
    "Ġgap": 21597,
    "Ġmessages": 24983,
    "Ġcomplimented": 14902,
    "ignomin": 23265,
    "rom": 420,
    "Ġowning": 18742,
    "monograph": 23523,
    "uzzle": 19582,
    "Ġalphabetical": 17200,
    "Ġseries": 7060,
    "Ġprotruded": 19468,
    "Ġsoothed": 10027,
    "Ġramble": 9311,
    "Ġers": 15458,
    "sold": 15424,
    "Ġislets": 21799,
    "Ġinjure": 16780,
    "Ġfaltering": 17884,
    "Ġgeese": 7694,
    "Ġsolid": 6443,
    "kn": 5791,
    "negro": 18489,
    "Ġspears": 12922,
    "con": 655,
    "Ġwaning": 15531,
    "highest": 20406,
    "Ġmortally": 23914,
    "Ġclubb": 22346,
    "Ġadjust": 2157,
    "Ġflashed": 11912,
    "gra": 769,
    "complied": 19912,
    "superstitiousness": 25508,
    "Ġlou": 6822,
    "Ġencouragement": 13039,
    "Ġodor": 12146,
    "Ġissues": 9540,
    "Ġtacit": 21173,
    "ÿ": 192,
    "distraction": 24199,
    "Ġexpanded": 14288,
    "Ġblew": 9044,
    "Ġfired": 16151,
    "Ġdirector": 18920,
    "Ġmercifully": 20177,
    "hob": 20899,
    "Ġproduct": 3531,
    "Ġshaft": 18229,
    "Ġhinge": 25541,
    "Ġcandle": 8292,
    "scure": 22981,
    "spin": 22731,
    "Ġmagnitudes": 3822,
    "Ġdaunt": 19663,
    "iastic": 12476,
    "jolly": 20930,
    "Ġproble": 1106,
    "Ġinterruptions": 24185,
    "entreat": 17975,
    "Ġblame": 6446,
    "prep": 9756,
    "Ġconfluent": 19040,
    "whar": 15924,
    "Ġripples": 25505,
    "Ġsignificantly": 4520,
    "Ġbefallen": 12340,
    "Ġnorthwards": 19545,
    "ading": 5091,
    "Ġexisted": 15749,
    "Ġresides": 22538,
    "Ġreleased": 2978,
    "Ġgall": 4353,
    "antly": 1988,
    "track": 24313,
    "Ġimmeasurable": 26229,
    "Ġcovering": 13252,
    "Ġperched": 10298,
    "Ġissued": 10598,
    "Ġbol": 6241,
    "Ġdrag": 6184,
    "Ġtrusting": 24103,
    "Ġpips": 9848,
    "aways": 15308,
    "intending": 22933,
    "Ġbased": 3341,
    "Ġsystem": 574,
    "Ġperem": 12928,
    "Ġresembled": 18033,
    "uniform": 18157,
    "Ġshapeless": 24523,
    "Ġmorass": 22969,
    "omeness": 18022,
    "Ġfrancisco": 26064,
    "Ġloitered": 26524,
    "uation": 17693,
    "Ġchooses": 13344,
    "Ġembattled": 26288,
    "america": 17096,
    "trowsers": 17690,
    "Ġviolence": 5963,
    "finger": 10092,
    "mansion": 20982,
    "Ġdenoted": 16564,
    "appeared": 4283,
    "Ġrat": 4355,
    "Ġsystematic": 5244,
    "plex": 707,
    "Ġguessed": 11281,
    "Ġwind": 1435,
    "ind": 567,
    "Ġtales": 10140,
    "Ġfeather": 8858,
    "Ġscatter": 18398,
    "purse": 20023,
    "Ġprotecting": 24686,
    "Ġtar": 2565,
    "desired": 8956,
    "Ġoce": 3031,
    "Ġfil": 3471,
    "Ġfrequently": 4680,
    "protection": 19919,
    "form": 497,
    "Ġ85": 24459,
    "otence": 14021,
    "Ġapparel": 20434,
    "Ġsporting": 16998,
    "discovering": 24250,
    "Ġelopement": 10328,
    "ource": 5243,
    "modern": 1135,
    "Ġplease": 4723,
    "Ġboisterous": 20441,
    "Ġsentence": 6187,
    "oved": 5215,
    "Ġcaprice": 14576,
    "petulance": 24298,
    "Ġfarthing": 14452,
    "Ġscared": 14188,
    "Ġmuslin": 19381,
    "Ġreferences": 21672,
    "Ġbetokened": 18798,
    "ilege": 22254,
    "evade": 24820,
    "hau": 17561,
    "versed": 9823,
    "flask": 12096,
    "maintained": 25020,
    "Ġreven": 18028,
    "Â£": 4812,
    "Ġtens": 17722,
    "Ġjuggl": 20436,
    "Ġimplicit": 19956,
    "ĠĠĠĠĠĠĠĠĠĠĠĠĠĠĠĠĠĠĠĠĠĠĠĠĠ": 24441,
    "ogra": 4574,
    "Ġgod": 1934,
    "Ġodious": 12147,
    "respective": 19845,
    "poke": 18800,
    "Ġtrousers": 12412,
    "Ġuses": 1208,
    "ctors": 21588,
    "Ġrover": 18454,
    "Ġdisd": 7030,
    "aceti": 7111,
    "Ġsequentially": 4914,
    "Ġwarmest": 16483,
    "earnest": 12396,
    "Ġcowardice": 17031,
    "Ġjonas": 20608,
    "mild": 15389,
    "Ġimpro": 913,
    "eration": 10771,
    "Ġbarbarous": 13474,
    "Ġstaggering": 20272,
    "Ġinevitably": 17229,
    "Ġanon": 9665,
    "Ġbitterly": 8315,
    "Ġbustle": 17226,
    "emic": 18179,
    "Ġcollect": 7237,
    "midnight": 14898,
    "Ġinch": 7850,
    "Ġtraits": 23073,
    "Ġseizing": 7880,
    "Ġprosecut": 9696,
    "Ġcontinuous": 1564,
    "Ġexcite": 11963,
    "head": 1437,
    "Ġsung": 23271,
    "Ġcrushing": 20175,
    "Ġwillingly": 8883,
    "inery": 17732,
    "Ġrage": 5110,
    "isturbed": 18297,
    "anim": 6522,
    "Ġsun": 1719,
    "Ġcalmer": 23042,
    "Ġalike": 8147,
    "94": 4803,
    "Ġshock": 6083,
    "acquainted": 7313,
    "Ġdeer": 12716,
    "Ġwrapt": 24596,
    "appe": 2945,
    "Ġsucked": 14135,
    "Ġceti": 24773,
    "Ġvap": 6837,
    "Ġcobbling": 20521,
    "atters": 18508,
    "rons": 21038,
    "Ġviolently": 6456,
    "Ġforeb": 12000,
    "ounded": 9746,
    "weed": 14313,
    "Ġfifteen": 6947,
    "Ġamph": 18511,
    "Ġrecord": 5316,
    "Ġparac": 12791,
    "Ġsou": 1886,
    "oughed": 22078,
    "striving": 24669,
    "Ġgallantry": 15101,
    "onement": 21255,
    "Ġcontrasting": 11153,
    "estations": 22222,
    "Ġmartial": 20290,
    "Ġconj": 8460,
    "Ġpuffs": 14974,
    "Ġmanhat": 22325,
    "throne": 25657,
    "Ġadrift": 11720,
    "Ġunch": 18239,
    "Ġagreeable": 4553,
    "Ġhovering": 10177,
    "exertion": 16013,
[...]
