{
  "metadata": {
    "vocab_size": 26615,
    "algorithm": "BPE",
    "created_at": "2026-06-21 06:50:24",
    "special_tokens": [
      "<PAD>",
      "<SOS>",
      "<EOS>",
      "<UNK>",
      "<MASK>"
    ]
  },
  "vocab": {
    "Ġcruisings": 25864,
    "misfortunes": 16757,
    "Ġreproachfully": 25252,
    "coming": 3562,
    "Ġlatterly": 24084,
    "/`)": 13663,
    "xim": 1090,
    "anel": 21359,
    "duing": 22414,
    "youn": 5690,
    "Ġchilly": 25563,
    "reception": 15516,
    "Ġcell": 6239,
    "Ġgloomily": 14803,
    "Ġaright": 11744,
    "Ġhollowly": 24525,
    "iff": 3902,
    "Ġirritated": 17243,
    "databases": 3024,
    "Ġfriday": 14489,
    "Ġmira": 8408,
    "reeable": 3612,
    "Ġperiods": 13306,
    "grow": 10102,
    "Ġfruit": 12329,
    "athed": 7828,
    "Ġclifford": 22359,
    "Ġrevelry": 15139,
    "Ġsally": 15504,
    "Ġpron": 6452,
    "Ġworkflow": 2508,
    "Ġeconomical": 25288,
    "Ġsteep": 2891,
    "Ġrendering": 16659,
    "Ġdictator": 20155,
    "Ġwantest": 18791,
    "Ġbacking": 16120,
    "extensive": 18712,
    "Ġdaily": 5988,
    "Ġdeserted": 8641,
    "Ġcommunicated": 9065,
    "Ġblessing": 11265,
    "Ġsinks": 19551,
    "Ġhurriedly": 11251,
    "Ġlacey": 10201,
    "Ġstaying": 8284,
    "erial": 4631,
    "Ġpeculiar": 3153,
    "Ġklux": 22198,
    "derment": 22169,
    "Ġhates": 21488,
    "Ġarticle": 9506,
    "Ġbody": 2433,
    "¹": 122,
    "Ġengagements": 9982,
    "fierce": 25256,
    "1": 21,
    "Ġperhaps": 1911,
    "Ġbeer": 10223,
    "Ġfem": 6136,
    "Ġunconsciously": 10009,
    "loose": 11809,
    "Ġpursued": 6330,
    "Ġdrought": 19279,
    "Ġencamp": 22802,
    "death": 6263,
    "reflections": 24733,
    "Ġrestlessness": 23294,
    "Ġarchly": 22769,
    "Ġpleased": 4060,
    "Ġeccentric": 13652,
    "ideas": 18581,
    "absolutely": 10649,
    "Ġblanche": 18820,
    "Ġcoarsely": 25829,
    "Ġoffensive": 18692,
    "ny": 4011,
    "Ġtow": 4394,
    "Ġacquitted": 18899,
    "Ġcompelled": 14267,
    "ieces": 4771,
    "Ġcynical": 25770,
    "impossible": 8829,
    "Ġgems": 9212,
    "usable": 22282,
    "olets": 21009,
    "Ġpriority": 19764,
    "Ġpiteous": 17919,
    "detained": 24381,
    "Ġphysi": 9992,
    "ivil": 6412,
    "lished": 8383,
    "idge": 14016,
    "Ġstarting": 7729,
    "Ġcubs": 20089,
    "Ġpurchases": 24754,
    "Ġbuckskin": 19954,
    "Ġpeddling": 21484,
    "ads": 5718,
    "Ġinstructive": 19286,
    "ura": 1011,
    "Ġprovoke": 14828,
    "omen": 4083,
    "eness": 2289,
    "Ġevanesc": 24295,
    "Ġventing": 19495,
    "Ġflights": 24751,
    "Ġvap": 6837,
    "Ġluff": 15656,
    "laugh": 10112,
    "Ġforged": 12708,
    "tin": 6118,
    "Ġplush": 18609,
    "Ġpossibility": 7458,
    "Ġmak": 10781,
    "Ġelbowed": 16112,
    "Ġcalculating": 9929,
    "pot": 10121,
    "Ġcreeping": 18684,
    "Ġvii": 13111,
    "grammar": 6436,
    "Ġapparelled": 20439,
    ":--": 5784,
    "entieth": 17980,
    "Ġhonestly": 19974,
    "trem": 17682,
    "ority": 8419,
    "Ġbor": 5805,
    "Ġanaly": 1109,
    "nyder": 16686,
    "Ġrefrain": 12951,
    "confidential": 25876,
    "evening": 7091,
    "mathematics": 26304,
    "rossed": 11015,
    "plac": 15819,
    "Ġdishes": 16053,
    "recurrent": 4993,
    "iffe": 21905,
    "Ġstretched": 5921,
    "Ġfluttered": 16250,
    "cost": 19188,
    "Ġcontrolled": 23252,
    "Ġmuzzle": 21323,
    "rudence": 7094,
    "Ġtempted": 9060,
    "Ġreserves": 19672,
    "hunsford": 24385,
    "beries": 22747,
    "Ġalb": 14018,
    ",âĢĻâĢĶ": 23530,
    "Ġtour": 9151,
    "Ġbrightest": 13228,
    "Ġflows": 13013,
    "tstone": 21086,
    "respectively": 24698,
    "Ġplanted": 9778,
    "Ġremonstr": 16165,
    "ificial": 608,
    "Ġluxury": 20134,
    "case": 5206,
    "Ġerrors": 2597,
    "kn": 5791,
    "delivered": 24101,
    "Ġ15": 9328,
    "seeing": 7080,
    "Ġbreast": 8972,
    "Ġragged": 11849,
    "agers": 5633,
    "ique": 8747,
    "cruet": 17027,
    "Ġlandsman": 11353,
    "Ġhandsomely": 25498,
    "gd": 3124,
    "Ġcruise": 12052,
    "Ġamphitheat": 26252,
    "Ġnarrations": 24351,
    "balanced": 14555,
    "Ġcr": 2148,
    "Ġsof": 18277,
    "Ġdirectors": 18922,
    "Ġquar": 3112,
    "Ġstaves": 21746,
    "Ġze": 8549,
    "Ġelimin": 16110,
    "arus": 13908,
    "Ġpantheistic": 26336,
    "Ġchristian": 6480,
    "Ġspoutings": 14677,
    "Ġimmeas": 18331,
    "Ġassertions": 19949,
    "Ġlookest": 22719,
    "Ġcondem": 6340,
    "Ġsweetest": 13249,
    "Ġtranquilly": 12293,
    "Ġstudied": 11117,
    "unting": 21877,
    "springing": 24889,
    "hump": 12481,
    "Ġoper": 2119,
    "ruct": 687,
    "meth": 11506,
    "Ġlabyrinth": 13682,
    "ged": 1512,
    "Ġcat": 2120,
    "pening": 2835,
    "Ġchilian": 25564,
    "Ġsalesman": 13671,
    "Ġtopsails": 19195,
    "wling": 11548,
    "Ġtendons": 19810,
    "flowing": 14572,
    "Ġcamberwell": 25351,
    "izure": 21844,
    "ope": 4123,
    "Ġanything": 2184,
    "Ġlick": 21552,
    "Ġmagg": 18906,
    "Ġminimizes": 2047,
    "olic": 14044,
    "Ġexecutors": 19535,
    "Ġstraighten": 24006,
    "Ġpassengers": 13678,
    "owe": 15712,
    "Ġpane": 21465,
    "een": 727,
    "in": 262,
    "proble": 9398,
    "pike": 11518,
    "Ġexacted": 23604,
    "rab": 7598,
    "pockets": 16212,
    "Ġbubble": 13536,
    "Á": 130,
    "Ġad": 443,
    "Ġmills": 21313,
    "surd": 6934,
    "Ġmou": 13857,
    "Ġfaults": 12216,
    "Ġimpetuous": 25571,
    "zeal": 16258,
    "char": 3503,
    "Ġmermaids": 26170,
    "Ġadmiring": 16481,
    "Ġsaturation": 2062,
    "Ġeconomy": 17202,
    "Ġissued": 10603,
    "Ġstage": 7389,
    "Ġpitches": 23904,
    "Ġsounded": 8595,
    "naturalists": 23521,
    "car": 4209,
    "box": 5749,
    "Ġdra": 1591,
    "Ġlimb": 9406,
    "Ġaffidavit": 20725,
    "chard": 21689,
    "Ġhaving": 1882,
    "Ġpil": 5013,
    "Ġdragg": 23219,
    "Ġaccountability": 10441,
    "Ġawait": 17073,
    "fug": 17544,
    "Ġmarked": 4619,
    "slave": 16896,
    "nikin": 23248,
    "ox": 9137,
    "Ġduodecimo": 16768,
    "sometimes": 5973,
    "Ġmarsh": 9825,
    "Ġbook": 2700,
    "Ġendangered": 16306,
    "Ġfriendless": 23025,
    "R": 54,
    "Ġmaj": 3923,
    "trade": 19646,
    "esley": 17903,
    "Ġliterary": 25166,
    "message": 17374,
    "Ġbush": 23339,
    "saved": 15433,
    "Ġcontains": 2794,
    "jackets": 24895,
    "Ġantelope": 24182,
    "zek": 16257,
    "Ġquest": 2002,
    "Ġ110": 24434,
    "Ġextravag": 11256,
    "algorithms": 8295,
    "stream": 15690,
    "Ġtease": 18806,
    "hot": 8084,
    "Ġink": 8808,
    "loving": 18540,
    "Ġcontrol": 13082,
    "Ġnights": 7258,
    "Ġdisputes": 25825,
    "Ġelder": 7224,
    "Ġsustenance": 19936,
    "Ġhopeful": 19030,
    "Ġscraps": 16903,
    "Ġintim": 6838,
    "Ġpreach": 14174,
    "Ġwicked": 5962,
    "Ġdinner": 4241,
    "ably": 1849,
    "¸": 121,
    "Ġajar": 21204,
    "learn": 2273,
    "Ġrope": 4336,
    "Ġnorth": 4316,
    "Ġpond": 13918,
    "frightened": 17197,
    "shoe": 14969,
    "Ġhonest": 7287,
    "Ġilliter": 23469,
    "clopÃ¦": 13059,
    "Ġdeserts": 10511,
    "Ġoverfitting": 1541,
    "ses": 3027,
    "mond": 20975,
    "Ġroofs": 16986,
    "Ġbland": 11067,
    "higher": 20409,
    "ulgences": 21868,
    "Ġdrown": 6816,
    "Ġaglow": 22517,
    "Ġcompact": 2260,
    "itself": 7834,
    "Ġmarshalled": 25316,
    "Ġdoubling": 23322,
    "Ġnorris": 23203,
    "Ġlanes": 19767,
    "Ġmembrane": 20506,
    "Ġcarbuncle": 14447,
    "Ġshocks": 16458,
    "Ġdegrees": 7294,
    "Ġparallelization": 3430,
    "Ġintense": 6159,
    "Ġphara": 23201,
    "Ġlandowner": 23383,
    "Ġcler": 11774,
    "calm": 8938,
    "erness": 6435,
    "gus": 13727,
    "Ġmoritz": 11909,
    "Ġaloof": 21788,
    "Ġassented": 17340,
    "Ġequ": 1734,
    "Ġsurrey": 14559,
    "Ġcreature": 2383,
    "sincerely": 24584,
    "eed": 20842,
    "Ġtass": 15471,
    "Ġsmiles": 6708,
    "Ġdocuments": 10027,
    "Ġkramm": 26234,
    "Ġolive": 12569,
    "tossed": 10999,
    "tout": 21067,
    "Ġbugs": 13651,
    "shish": 11797,
    "Ġcoolness": 16887,
    "ylon": 24977,
    "Ġconcerned": 5332,
    "Ġdetection": 3429,
    "swinging": 25912,
    "Ġprocesses": 3633,
    "Ġdrinking": 12172,
    "yingly": 23063,
    "gue": 12471,
    "arying": 9805,
    "Ġreinforcement": 3064,
    "Ġgrop": 12668,
    "Ġemerged": 8689,
    "definition": 23120,
    "spe": 3560,
    "Ġundoubtedly": 8313,
    "Ġcapsizing": 20091,
    "Ġdiscre": 2415,
    "Ġstubb": 1786,
    "Ġrh": 9248,
    "Ġladder": 8603,
    "jammed": 25906,
    "Ġhawaiian": 25367,
    "sper": 4435,
    "Ġsurpr": 2552,
    "ufact": 10736,
    "Ġthose": 1171,
    "eringly": 23005,
    "Ġvivid": 8058,
    "equal": 14995,
    "Ġdeserve": 8309,
    "Ġhansom": 13667,
    "clay": 18932,
    "Ġdist": 680,
    "Ġcompl": 3757,
    "confl": 22472,
    "Ġflirt": 14425,
    "Ġundoubted": 19516,
    "Ġattends": 19652,
    "Ġfeatureless": 22615,
    "Ġarising": 10936,
    "Ġverify": 12091,
    "Ġproject": 5546,
    "leader": 25352,
    "Ġgowns": 25360,
    "frank": 7758,
    "Ġhammer": 6095,
    "Ġgate": 6825,
    "practised": 20249,
    "Ġmaid": 5287,
    "Ġplays": 12040,
    "mortar": 25409,
    "prosper": 19101,
    "Ġprinc": 4197,
    "Ġcognitive": 13637,
    "Ġcasement": 25094,
    "apprec": 22844,
    "Ġunce": 11715,
    "Ġ105": 24412,
    "races": 21632,
    "Ġplum": 11826,
    "Ġted": 13814,
    "Ġsoftly": 7948,
    "reement": 15513,
    "Ġdiscovered": 4411,
    "us": 531,
    "Ġepis": 19984,
    "fts": 18696,
    "Ġchance": 3317,
    "hel": 4813,
    "Ġundersampling": 19520,
    "Ġplatonian": 25120,
    "neg": 12869,
    "Ġpy": 21453,
    "Ġthirst": 7591,
    "Ġrather": 1495,
    "Ġcheese": 9381,
    "Ġprocedures": 9416,
    "numbers": 17617,
    "Ġvilla": 14749,
    "beloved": 19463,
    "Ġlanguage": 652,
    "Ġdiab": 10615,
    "Ġvolat": 24145,
    "Ġloos": 15874,
    "reposed": 24491,
    "Ġlingering": 11382,
    "Ġarmies": 16493,
    "Ġremembered": 5277,
    "Ġresolute": 19246,
    "addressed": 13387,
    "happ": 3103,
    "settle": 16663,
    "Ġrevolutions": 23844,
    "Ġstepped": 7053,
    "softened": 20412,
    "imate": 4218,
    "print": 23813,
    "protected": 19922,
    "Ġchallenge": 25472,
    "Ġskeletons": 16792,
    "Ġindomitableness": 26572,
    "Ġveget": 11889,
    "Ğ": 223,
    "Ġsolace": 16202,
    "loops": 12887,
    "elastic": 17982,
    "Ġbur": 2696,
    "Ġthou": 1808,
    "Ġporpoises": 13384,
    "farm": 15354,
    "heard": 5008,
    "Ġindicated": 10472,
    "Ġpalmed": 24093,
    "Ġvel": 7186,
    "Ġabsence": 4894,
    "Ġlanterns": 24577,
    "Ġshudderings": 25201,
    "Ġsucking": 12792,
    "foot": 9050,
    "Ġrecurred": 18977,
    "vinegar": 25421,
    "bildad": 9590,
    "spl": 9143,
    "Ġrattling": 11398,
    "Ġsallies": 21231,
    "athom": 12942,
    "ains": 5093,
    "Ġcelebrated": 13597,
    "Ġanyhow": 14256,
    "beheld": 11805,
    "imly": 12691,
    "Ġmule": 13864,
    "Ġshower": 11714,
    "Ġdetermined": 2218,
    "Ġtreatise": 19347,
    "Ġenjoys": 19452,
    "ines": 665,
    "Ġinsanity": 12050,
    "Ġgoug": 17992,
    "Ġlav": 13952,
    "Ġshipping": 14106,
    "Ġgloried": 22989,
    "afflicted": 23779,
    "Ġanteced": 26177,
    "Ġgleam": 12311,
    "Ġtimidly": 11341,
    "ou": 287,
    "Ġproper": 1377,
    "Ġdepos": 11011,
    "Ġkey": 2101,
    "Ġ": 225,
    "Ġremoved": 5275,
    "Ġgame": 3628,
    "E": 41,
    "Ġphr": 2680,
    "lesome": 12968,
    "dimly": 15349,
    "Ġtinge": 25089,
    "Ġhoops": 9393,
    "Ġnight": 1467,
    "Ġlow": 1644,
    "acks": 11792,
    "Ġarchangel": 8546,
    "isco": 12585,
    "Ġtails": 9906,
    "humanity": 24839,
    "arious": 10320,
    "Ġpitied": 14693,
    "Ġraft": 16119,
    "):": 11464,
    "successfully": 14993,
    "Ġstiffly": 15006,
    "kings": 17584,
    "Ġbritannica": 24680,
    "cavity": 26126,
    "Ġhier": 1895,
    "Ġruffled": 25837,
    "ĠĠĠĠĠĠĠĠĠĠĠĠĠĠĠĠĠĠĠĠĠĠĠĠĠĠĠĠĠ": 19701,
    "Ġlegal": 10442,
    "infidel": 24663,
    "Ġnat": 12649,
    "explain": 1483,
    "Ġinsights": 13181,
    "atious": 10155,
    "instead": 14815,
    "Ġconcealing": 23905,
    "Ġwilled": 21293,
    "Ġwrenched": 12562,
    "tattoo": 21089,
    "Ġdisciple": 22786,
    "Ġcontrast": 2117,
    "surv": 24215,
    "ckinridge": 11724,
    "Ġdecayed": 22828,
    "pus": 3414,
    "Ġbind": 12586,
    "phology": 3008,
    "Ġrightly": 13068,
    "etah": 12665,
    "response": 25762,
    "Ġpass": 1039,
    "Ġoccupies": 24010,
    "Ġrubber": 22790,
    "fac": 17542,
    "Ġwhither": 10218,
    "Ġlimited": 23547,
    "Ġfire": 2333,
    "iantly": 13741,
    "Ġlothario": 26185,
    "kshire": 13748,
    "wished": 13807,
    "Ġbedroom": 7277,
    "Ġtrapped": 23079,
    "already": 6981,
    "Ġmove": 5106,
    "Ġmantle": 25275,
    "Ġliable": 14230,
    "Ġdiscreet": 16483,
    "puzz": 17641,
    "Ġsummons": 13234,
    "sake": 13785,
    "Ġsnapped": 9901,
    "uzz": 4524,
    "Ġwithdrawing": 11343,
    "Ġchowders": 18385,
    "prophecy": 22855,
    "Ġstandpoint": 23279,
    "Ġhardship": 18914,
    "'s": 2467,
    "purpose": 10048,
    "ivia": 22079,
    "Ġvillanous": 24056,
    "Ġ102": 24409,
    "Ġmurdering": 14813,
    "solitude": 23298,
    "Ġwra": 5907,
    "Ġrescales": 5067,
    "Ġconsulting": 13431,
    "erie": 21273,
    "Ġdissu": 18550,
    "lies": 15384,
    "Ġcommunicating": 16890,
    "lot": 3208,
    "letons": 14613,
    "rollable": 13947,
    "Ġxl": 11993,
    "Ġwre": 5076,
    "oof": 15407,
    "encoun": 12301,
    "rarely": 21636,
    "Ġlengths": 19207,
    "Ġtravels": 11930,
    "otently": 21803,
    "itative": 13872,
    "Ó": 148,
    "Ġsalary": 13296,
    "Ġparad": 2845,
    "Ġsame": 1343,
    "bes": 6644,
    "immed": 9221,
    "Ġcontinued": 2924,
    "Ġb": 281,
    "Ġtunnels": 24620,
    "male": 15391,
    "Ġamend": 16037,
    "Ġrepeat": 8000,
    "Ġquote": 18466,
    "Ġascended": 8670,
    "Ġcalculus": 23985,
    "placidity": 25988,
    "itic": 11582,
    "Ġdetected": 18859,
    "Ġtransparency": 10680,
    "outward": 22168,
    "Ġcarpenters": 16753,
    "abouts": 9456,
    "Ġcomputational": 1625,
    "pires": 13777,
    "winter": 10743,
    "Ġblemish": 19681,
    "Ġpiled": 8426,
    "Ġfired": 16157,
    "Ġanother": 1737,
    "Ġtrappers": 23084,
    "Ġupbra": 22157,
    "Ġsuperl": 16444,
    "Ġeasy": 3452,
    "inities": 21187,
    "Ġdrive": 5054,
    "Ġunsav": 18251,
    "ooping": 21008,
    "Ġrobbed": 23031,
    "Ġaudacity": 19883,
    "Ġcontact": 9285,
    "Ġwhilst": 9222,
    "Ġresounded": 22547,
    "Ġcountrymen": 23596,
    "Ġelegant": 7533,
    "Ġproving": 15758,
    "Ġhuzza": 12637,
    "bearance": 22497,
    "prec": 3203,
    "Ġhovering": 10182,
    "Ġinternal": 2244,
    "Ġknighthood": 25298,
    "determine": 19946,
    "Ġdisk": 22525,
    "Ġhurts": 19112,
    "Ġfreshets": 25704,
    "Ġunalterable": 15854,
    "tan": 4741,
    "Ġsecluded": 11996,
    "Ġconfess": 3765,
    "uring": 818,
    "formality": 22219,
    "aks": 8509,
    "epilogue": 22103,
    "Ġspurned": 12801,
    "orum": 12594,
    "iscreet": 20684,
    "Ġburnished": 24000,
    "well": 1690,
    "Ġinterest": 2246,
    "Ġladyship": 5045,
    "Ġprocessions": 18434,
    "Ġterrified": 14673,
    "Ġhanover": 20588,
    "commodore": 20627,
    "Ġmounting": 19979,
    "ariously": 18527,
    "ption": 7398,
    "Ġprecautions": 23728,
    "Ġrio": 23893,
    "itig": 1334,
    "mo": 863,
    "Ġwaits": 23280,
    "banked": 25338,
    "Ġleviathanic": 12084,
    "Ġgenteel": 19983,
    "Ġtradeoff": 2657,
    "flight": 15355,
    "Ġdoctors": 12155,
    "crop": 20799,
    "Ġsensibility": 14514,
    "Ġquarter": 3973,
    "ople": 2320,
    "age": 505,
    "Ġpantaloons": 20298,
    "Ġexploded": 15912,
    "Ġlxi": 21563,
    "Ġtell": 1470,
    "Ġprof": 2457,
    "Ġcanst": 8862,
    "Ġexcl": 3475,
    "Ġseer": 21962,
    "Ġbomb": 17868,
    "Ġsegment": 12761,
    "occasionally": 13522,
    "Ġmagical": 23101,
    "arle": 21422,
    "Ġsteps": 2866,
    "Ġ67": 19662,
    "Ġsmilingly": 22563,
    "Ġproceeded": 5336,
    "Ġwondered": 11128,
    "Ġsuburban": 17348,
    "Ġleagues": 9225,
    "flutterings": 26607,
    "Ġexhibit": 14958,
    "lege": 17842,
    "Ġmo": 629,
    "feature": 4190,
    "Ġrod": 9284,
    "ang": 446,
    "Ġtreacher": 8609,
    "Ġrheum": 18214,
    "Ġsecret": 3719,
    "lydon": 13991,
    "Ġcompression": 18147,
    "Ġabruptness": 25300,
    "Ļ": 252,
    "imper": 13999,
    "Ġsal": 3935,
    "Ġstructure": 834,
    "Ġlass": 15651,
    "ate": 421,
    "otes": 15747,
    "ġ": 226,
    "Ġunwaning": 24829,
    ".âĢĿ": 464,
    "Ġingratitude": 17470,
    "Ġelegance": 11335,
    "Ġsword": 6734,
    "accessible": 13642,
    "Ġfaintest": 24569,
    "Ġdozen": 8186,
    "Ġvary": 15810,
    "Ġwidest": 24236,
    "oing": 15403,
    "Ġcomo": 21850,
    "earnestly": 17315,
    "Ġworldly": 16332,
    "Ġbestirred": 20453,
    "ificant": 22209,
    "achable": 14139,
    "ouched": 4636,
    "Ġhoisting": 9866,
    "Ġspeaking": 4022,
    "opatra": 22480,
    "Ġbake": 21384,
    "Ġsuit": 5725,
    "ogy": 22708,
    "Ġfordham": 21779,
    "astonishment": 10034,
    "nostr": 22723,
    "itty": 3554,
    "Ġsmitten": 12903,
    "Ġpreceded": 13430,
    "marry": 13326,
    "kempt": 20942,
    "summon": 23417,
    "Ġlofty": 6219,
    "Ġrollicking": 24450,
    "Ġmechanism": 2474,
    "Ġintric": 9250,
    "Ġmercenary": 17195,
    "Ġcorrespondence": 10598,
    "Ġargue": 16784,
    "Ġmeridians": 17357,
    "Ġamateur": 22488,
    "Ġgathering": 14980,
    "Ġfeasts": 25370,
    "Ġcontinent": 14890,
    "Ġleaning": 5228,
    "promise": 12254,
    "ember": 1956,
    "Ġmagnitude": 1943,
    "Ġear": 1425,
    "Ġjon": 15951,
    "if": 375,
    "elfare": 11780,
    "Ġholes": 16410,
    "Ġannoyed": 17201,
    "nephew": 26398,
    "itancy": 21335,
    "Ġrains": 24339,
    "arson": 22750,
    "Ġricher": 12763,
    "dwelt": 23873,
    "akness": 14196,
    "rippling": 24712,
    "nostril": 26560,
    "Ġgunw": 6214,
    "Ġmrs": 1469,
    "commanders": 16990,
    "Ġstowing": 18076,
    "Ġradiant": 16810,
    "Ġlurch": 21557,
    "Ġbolt": 11337,
    "vint": 21116,
    "Ġteeth": 4164,
    ":âĢĶâĢĺ": 24195,
    "Ġquarters": 8624,
    "late": 11502,
    "ifferent": 4259,
    "Ġfountain": 7365,
    "y": 93,
    "Ġslack": 8959,
    "Ġsubsisting": 23436,
    "beholding": 16044,
    "circle": 16737,
    "introduce": 25187,
    "Ġelevate": 24501,
    "devilish": 17082,
    "vices": 21118,
    "masters": 16835,
    "itarian": 21339,
    "Ġgodlike": 23359,
    "ability": 717,
    "nar": 12497,
    "Ġinsignificant": 20458,
    "Ġload": 14147,
    "Ġdividing": 12115,
    "Ġallusions": 10909,
    "Ġsway": 7572,
    "Ġporthole": 24398,
    "Ġsublime": 8066,
    "Ġrainbows": 19650,
    "pounds": 21026,
    "âĢľâĢĻ": 10225,
    "where": 2091,
    "othic": 16218,
    "Ġmurderous": 8316,
    "Ġbeh": 1800,
    "Ġfrowning": 13626,
    "Ġrubbing": 9326,
    "Ġeverywhere": 9800,
    "ler": 3491,
    "Ġfisheries": 17440,
    "anting": 6413,
    "timidity": 25753,
    "Ġpotential": 3619,
    "geese": 22370,
    "Ġninety": 13604,
    "Ġweigh": 10896,
    "clothed": 19740,
    "Ġjago": 22302,
    "Ġindestructible": 26573,
    "Ġwhipping": 21718,
    "Ġwhirlp": 16964,
    "Ġtuesday": 9630,
    "gloves": 25146,
    "rocious": 21541,
    "cheered": 23806,
    "itchen": 7788,
    "Ġdat": 499,
    "doub": 6225,
    "Ġempt": 5050,
    "ighb": 10426,
    "Ġassures": 14468,
    "ologically": 22867,
    "Ġhonour": 3919,
    "Ġfulfilment": 20189,
    "tasted": 17688,
    "Ġbenjam": 22892,
    "Ġholland": 10369,
    "Ġentrance": 7233,
    "Ġstrenuously": 17450,
    "Ġunassuming": 20511,
    "Ġvillagers": 19476,
    "inder": 9156,
    "Ġlegs": 4916,
    "tle": 2408,
    "Ġdisclosed": 15156,
    "Ġneutral": 12745,
    "Ġflattered": 10378,
    "Ġagonized": 25373,
    "Ġred": 3005,
    "sides": 12511,
    "divers": 15345,
    "Ġchiswick": 25561,
    "Ġtin": 15465,
    "Ġprocure": 9514,
    "fere": 10992,
    "Ġsurvey": 13596,
    "binary": 20785,
    "ositories": 22266,
    "Ġmerged": 19297,
    "Ġboots": 5944,
    "Ġtwain": 16122,
    "Ġcovering": 13257,
    "Ġsafe": 5102,
    "Ġantagon": 19552,
    "century": 20049,
    "Ġmixture": 9566,
    "Ġnewcomer": 26040,
    "Ġdaunt": 19666,
    "Ġlords": 14642,
    "Ġreside": 22542,
    "Ġgold": 3278,
    "erne": 21271,
    "Ġnarrower": 24353,
    "Ġfootpaths": 26318,
    "Ġbreckinridge": 14524,
    "otence": 14025,
    "ir": 379,
    "Ġsummar": 3526,
    "Ġpettic": 14843,
    "glass": 9913,
    "gence": 877,
    "som": 3290,
    "Ġciv": 3308,
    "Ġgrunted": 16172,
    "Ġsty": 6253,
    "Ġrecess": 10850,
    "Ġunwelcome": 12784,
    "Ġshag": 9255,
    "Ġdemand": 4946,
    "orrowed": 19290,
    "coun": 10691,
    "Ġdetect": 1271,
    "Ġtyro": 16995,
    "Ġdetested": 14185,
    "uvian": 12246,
    "Ġnotions": 14101,
    "rote": 4592,
    "othed": 16512,
    "mselves": 2865,
    "lections": 4751,
    "Ġsufferings": 7514,
    "Ġsights": 7473,
    "owing": 7603,
    "Ġpious": 11603,
    "Ġturbid": 23612,
    "ingle": 1038,
    "Ġwand": 4339,
    "Ġpilgrim": 25599,
    "Ġcompress": 21852,
    "icate": 9205,
    "Ġwarriors": 19725,
    "p": 84,
    "iver": 2049,
    "ool": 17619,
    "olently": 15760,
    "Ġmorose": 18849,
    "miss": 3175,
    "agation": 1276,
    "attacked": 23125,
    "Ġitalian": 12413,
    "solved": 7686,
    "Ġvirginia": 13501,
    "masterly": 24529,
    "Ġhuggins": 24825,
    "solid": 16383,
    "ppery": 10895,
    "Ġpalsy": 25778,
    "Ġboughs": 20491,
    "splash": 25210,
    "Ġhardy": 8570,
    "Ġchall": 10947,
    "Ġamel": 18509,
    "Ġassuring": 13067,
    "Ġjup": 15955,
    "Ġjumping": 13344,
    "Ġpetulance": 24229,
    "pers": 4334,
    "Ġungenerous": 18266,
    "Ġexcited": 5580,
    "discharging": 26305,
    "Ġmonitors": 3157,
    "Ġfuriously": 9806,
    "Ġcommands": 16590,
    "Ġstiffest": 24826,
    "ä": 165,
    "danish": 20834,
    "contempt": 13190,
    "Ġprime": 10407,
    "uted": 7594,
    "Ġpouring": 12628,
    "Ġcakes": 13886,
    "brous": 19200,
    "Ġgrizz": 10356,
    "ners": 3271,
    "feels": 22506,
    "Ġestablished": 9073,
    "unaffected": 21886,
    "quietude": 24655,
    "Ġmild": 4144,
    "Ġrecital": 16145,
    "eur": 7546,
    "isting": 5551,
    "swe": 5997,
    "original": 9089,
    "Ġtechnically": 12369,
    "Ġreaders": 18915,
    "Ġtangle": 25760,
    "Ġvolley": 24146,
    "ission": 6458,
    "Ġuniversal": 2230,
    "Ġtrib": 13821,
    "Ġvisitors": 7985,
    "rr": 17651,
    "Ġperfume": 25665,
    "Ġ108": 19686,
    "syntax": 5870,
    "sustained": 20570,
    "Ġequality": 16361,
    "outre": 18321,
    "clopÃ¦dia": 15259,
    "enemy": 15529,
    "pair": 21013,
    "atisf": 21265,
    "Ġsmall": 893,
    "Ġwitnesses": 9490,
    "Ġmach": 13859,
    "privilege": 25264,
    "Ġsuits": 22091,
    "atus": 21262,
    "Ġundiscovered": 18252,
    "wal": 10137,
    "Ġhouse": 1503,
    "Ġmorass": 22978,
    "osely": 9269,
    "Ġpeculiarity": 12936,
    "Ġintimate": 6551,
    "atics": 15525,
    "Ġtransition": 14235,
    "Ġtimes": 2303,
    "reck": 9640,
    "Ġnoses": 18372,
    "Ġsolemnisation": 24114,
    "locks": 14458,
    "Ġpetersburgh": 24230,
    "Ġmari": 6814,
    "Ġaffecting": 2324,
    "thirds": 25048,
    "vocabulary": 25087,
    "fact": 6360,
    "Ġtransom": 22441,
    "Ġeuroclydon": 15299,
    "Ġpoet": 8208,
    "Ġfearfully": 23513,
    "distrust": 19572,
    "vid": 915,
    "mosp": 8089,
    "Ġentropy": 2032,
    "Ġmuteness": 19419,
    "Ġnautical": 17388,
    "aan": 20765,
    "yth": 985,
    "Ġcomprehended": 11297,
    "distinguish": 19574,
    "Ġcorrid": 9828,
    "vously": 23505,
    "Ġtorture": 9068,
    "Ġinqu": 2967,
    "discernible": 20552,
    "mble": 1410,
    "Ġoutrageous": 20612,
    "Ġdisadvantage": 12894,
    "Ġaccurately": 4329,
    "icorn": 15660,
    "bearing": 9769,
    "Ġbuilded": 24717,
    "Ġfrankenstein": 7097,
    "Ġcurve": 22970,
    "Ġstagger": 10595,
    "Ġpaul": 12065,
    "Ġunpitying": 25660,
    "beat": 10989,
    "dances": 17522,
    "Ġmalay": 24390,
    "beards": 22494,
    "Ġbay": 9172,
    "Ġviolin": 16430,
    "Ġheavily": 6742,
    "Ġsatisfying": 23699,
    "Ġvindict": 13608,
    "Ġreproofs": 24892,
    "Ġarrived": 3745,
    "Ġunfolding": 17086,
    "Ġinsulted": 14994,
    "inked": 12917,
    "Ġlatitudes": 9500,
    "mouthful": 25209,
    "Ġunconcern": 14119,
    "Ġfascinated": 25635,
    "Ġlydia": 2374,
    "shipped": 18491,
    "Ġtomorrow": 21515,
    "ails": 6162,
    "impud": 23761,
    "Ġribbed": 16805,
    "Ġmovable": 22438,
    "Ġsimpleton": 16337,
    "cats": 17513,
    "Ġstrives": 23697,
    "apering": 8041,
    "Ġisol": 8839,
    "Ġpledge": 11605,
    "Ġthee": 2622,
    "Ġunfavourable": 17419,
    "olent": 8155,
    "Ġinserted": 8356,
    "Ġcounter": 6482,
    "soul": 9144,
    "Ġoverdone": 22362,
    "Ġquick": 2583,
    "Ġhitherto": 5881,
    "Ġsensation": 6896,
    "Ġprepared": 5878,
    "Ġjustified": 11908,
    "âĢĻâĢĶ": 12740,
    "Ġcontinuation": 22919,
    "Ġslides": 18940,
    "warmth": 20055,
    "Ġdinnertime": 16720,
    "piece": 6658,
    "Ġduck": 8799,
    "acing": 2716,
    "Ġdiscoverers": 26036,
    "mate": 5359,
    "Ġjonas": 20611,
    "Ġcare": 1636,
    "Ġanyways": 22523,
    "Ġesteem": 7532,
    "del": 4073,
    "iterranean": 15553,
    "Ġshiny": 14108,
    "Ġappet": 9735,
    "overfitting": 13103,
    "Ġmeekly": 26491,
    "Ġeyelids": 26107,
    "Ġloose": 4648,
    "ulity": 10889,
    "ores": 2412,
    "inates": 21182,
    "tim": 13793,
    "Ġnineveh": 13391,
    "collinses": 19924,
    "Ġvoracity": 25986,
    "ceptive": 15979,
    "before": 3113,
    "Ġbag": 5699,
    "limbs": 20193,
    "Ġenter": 4025,
    "ishness": 22345,
    "Ġspacious": 18312,
    "Ġtapped": 11557,
    "Ġshrill": 12145,
    "ubb": 1646,
    "Ġvancou": 22878,
    "Ġprograms": 7239,
    "Ġwapping": 21296,
    "itiously": 13873,
    "onds": 12999,
    "occupied": 12307,
    "Ġvideos": 13609,
    "Ġlunging": 24991,
    "Ġinspect": 5965,
    "Ġmoose": 22436,
    "Ġmu": 17796,
    "Ġstrikes": 13183,
    "Ġheroines": 19753,
    "Ġdecent": 10981,
    "Ġconversed": 13188,
    "Ġsickly": 16775,
    "Ġbonds": 17870,
    "Ġdissol": 18551,
    "ornamented": 26596,
    "Ġdisobedience": 22538,
    "existence": 16017,
    "ise": 707,
    "course": 6106,
    "Ġfestoon": 20296,
    "cottage": 9573,
    "),": 1349,
    "Ġgentle": 1892,
    "aneous": 7240,
    "umer": 9262,
    "Ġconsp": 10229,
    "umbling": 6613,
    "ce": 313,
    "methodically": 20665,
    "Ġca": 21341,
    "strang": 11186,
    "Ġlikeness": 11182,
    "Ġultimate": 12352,
    "there": 1426,
    "Ġindulging": 16905,
    "Ġcreat": 1422,
    "Ġeternity": 12282,
    "Ġuncomfortable": 8488,
    "Ġtreacle": 14596,
    "Ġtide": 6661,
    "cket": 3687,
    "Ġ>": 21153,
    "mpus": 13759,
    "erde": 21270,
    "Ġidea": 2485,
    "Ġcrests": 25685,
    "lover": 18539,
    "Ġscorn": 7901,
    "Ġhorsey": 24251,
    "Ġsliding": 9368,
    "Ġineffect": 13932,
    "prodigious": 17468,
    "oology": 21007,
    "Ġcompletion": 12151,
    "Ġheartily": 6890,
    "inative": 15485,
    "report": 13401,
    "Ġdry": 5624,
    "Ġchristians": 13311,
    "Ġdecorated": 22448,
    "Ġsymp": 4502,
    "Ġcusack": 26434,
    "overed": 2857,
    "Ġtobacco": 8367,
    "inav": 15486,
    "admitted": 18093,
    "Ġpotency": 14647,
    "Ġwinter": 5220,
    "Ġbonnet": 10659,
    "Ġtroubled": 6618,
    "Ġindul": 5858,
    "Ġpawnbroker": 13661,
    "Ġfolds": 12210,
    "Ġproportions": 16469,
    "Ġfict": 21407,
    "Ġbeale": 12703,
    "ondency": 15272,
    "whispered": 20036,
    "Ġslighter": 18941,
    "Ġoaths": 13525,
    "nantucketer": 24974,
    "Ġbowled": 23770,
    "Ġagile": 22516,
    "colnett": 19331,
    "creation": 14808,
    "Ġcarried": 3693,
    "Ġashamed": 6404,
    "rap": 21630,
    "borean": 25743,
    "Ġindignantly": 16940,
    "oped": 6048,
    "Ġaccustomed": 6861,
    "Ġagrees": 22519,
    "Ġships": 3713,
    "Ġcre": 889,
    "Ġsaved": 6692,
    "em": 391,
    "Ġanomalously": 25638,
    "Ġcontained": 7680,
    "Ġsurmis": 23464,
    "Ġrear": 6537,
    "Ġmoney": 3417,
    "nineteenth": 26138,
    "leaning": 10793,
    "trampled": 26334,
    "ieve": 1654,
    "opol": 12875,
    "Ġadditionally": 1174,
    "Ġdestroyed": 5272,
    ".}": 20746,
    "Ġcoldness": 23760,
    "waves": 10745,
    "Ġrelapses": 26279,
    "Ġunsounded": 15852,
    "niece": 20996,
    "frau": 15092,
    "Ġnominal": 15171,
    "itor": 12570,
    "Ġaffl": 14388,
    "Ġrumors": 11324,
    "Ġunwinding": 22063,
    "dragged": 16609,
    "Ġhunter": 5401,
    "Ġnormalizes": 1865,
    "ther": 481,
    "Ġfeel": 1259,
    "verted": 10221,
    "Ġallowed": 4054,
    "Ġgenius": 8046,
    "Ġprendergast": 26538,
    "erson": 7003,
    "pire": 9139,
    "larger": 24204,
    "barrel": 17061,
    "Ġtidy": 17093,
    "Ġnatur": 17336,
    "Ġpitiless": 19390,
    "ioning": 21511,
    "gun": 10100,
    "Ġtenants": 23549,
    "Ġbureau": 11594,
    "disagreeable": 11166,
    "Ġmanifested": 17159,
    "Ġwrist": 8243,
    "suited": 22643,
    "Ġpour": 13916,
    "riet": 18182,
    "glances": 23855,
    "Ġburton": 23653,
    "Ġdiabolically": 25514,
    "Ġplutarch": 22606,
    "Ġglossy": 15230,
    "Ġvoice": 2189,
    "Ġicicles": 25265,
    "Ġdischarge": 18556,
    "Ġactively": 18654,
    "simultaneously": 19865,
    "roar": 17954,
    "Ġdesperately": 24656,
    "Ġpoultry": 17443,
    "athans": 7433,
    "Ġobser": 2069,
    "smoking": 23913,
    "manners": 16185,
    "aths": 22701,
    "Ġprimary": 25062,
    "Ġaper": 17744,
    "Ġrang": 9249,
    "expect": 4768,
    "Ġaimed": 20252,
    "dham": 20831,
    "Ġbows": 4080,
    "Ġaz": 9633,
    "Ġcascade": 20583,
    "Ġboot": 11842,
    "Ġbusy": 6191,
    "gon": 17553,
    "Ġroots": 11188,
    "Ġconditions": 8307,
    "Ġautom": 3671,
    "Ġsetting": 7048,
    "Ġendowed": 18924,
    "Ġdespair": 4005,
    "Ġtowering": 16740,
    "ender": 9164,
    "Ġvain": 3629,
    "dington": 12069,
    "sp": 894,
    "sofa": 26146,
    "Ġcapst": 8601,
    "Ġobstacles": 19837,
    "itled": 7579,
    "riage": 2122,
    "Ġpillow": 10042,
    "Ġrepaired": 13110,
    "Ġchoosing": 19592,
    "tick": 17679,
    "cigar": 26124,
    "deserted": 19343,
    "tum": 11535,
    "fat": 8079,
    "Ġrequired": 7223,
    "aged": 2607,
    "till": 6966,
    "Ġdistress": 5845,
    "Ġcard": 7363,
    "Ġconvergence": 978,
    "Ġunluck": 8487,
    "Ġsacrificed": 17424,
    "drawn": 9917,
    "Ġcountenance": 3966,
    "humored": 19455,
    "Ġcaptivating": 26050,
    "propriety": 14376,
    "Ġdominion": 16525,
    "Ġdromed": 15602,
    "Ġinterruption": 9477,
    "Ġabundance": 17157,
    "ence": 394,
    "ropol": 10956,
    "acknowled": 10978,
    "Ġhose": 12631,
    "Ġsubs": 2128,
    "Ġlegend": 14576,
    "inqu": 6123,
    "unc": 15772,
    "âĢľâĢĶ": 10875,
    "Ġabsurdly": 19962,
    "albatross": 15633,
    "buffalo": 20565,
    "verd": 21730,
    "pequod": 7054,
    "enc": 7575,
    "topic": 10531,
    "Ġeels": 21622,
    "Ġfashions": 17886,
    "Ġcomfortless": 23915,
    "Ġworshipper": 25692,
    "Ġrat": 4351,
    "Ġcity": 4530,
    "Ġbranded": 14381,
    "Ġconstitutional": 25128,
    "Ġgover": 2458,
    "Ġquartered": 20375,
    "Ġlivelihood": 24772,
    "Ġsubstance": 5510,
    "Ġpressure": 13424,
    "13": 20751,
    "Ġerred": 21158,
    "Ġdevelopments": 23228,
    "Ġwoody": 23522,
    "Ġuninhabited": 22054,
    "accepting": 20137,
    "tram": 19645,
    "Ġspurred": 22141,
    "emotions": 15800,
    "allow": 5103,
    "Ġlantern": 7118,
    "founded": 16714,
    "Ġjoppa": 12039,
    "Ġwithdra": 6399,
    "Ġspilled": 10927,
    "Ġwonderfully": 10433,
    "pth": 2381,
    "Ġshortened": 23483,
    "arrival": 15591,
    "Ġpor": 5225,
    "irable": 5776,
    "Ġquaff": 22417,
    "Ġvehic": 8937,
    "Ġreminding": 19799,
    "Ġspar": 10924,
    "Ġmortally": 23919,
    "Ġvexation": 10590,
    "ences": 1261,
    "ometer": 19327,
    "Ġinvis": 6902,
    "Ġpictured": 16624,
    "Ġdost": 7638,
    "onious": 15520,
    "Ġmourn": 8708,
    "Ġgunwales": 12244,
    "Ġdisquiet": 18552,
    "Ġsnugly": 17111,
    "Ġcrushing": 20178,
    "excited": 13382,
    "Ġfangs": 12601,
    "Ġultimately": 17166,
    "Ġlogs": 16349,
    "ledyard": 22386,
    "rifice": 12507,
    "Ġcurvature": 3573,
    "Ġimpunity": 14220,
    "jewell": 25524,
    "Ġelse": 2479,
    "Ġsolutions": 1946,
    "Ġneedlessly": 23630,
    "Ġwert": 12560,
    "ove": 1743,
    "prolong": 23397,
    "Ġyanke": 18099,
    "culiarity": 11145,
    "corners": 17370,
    "Ġmed": 4174,
    "Ġphrenologists": 25608,
    "Ġpurses": 23477,
    "Ġwarm": 2423,
    "Ġbed": 2149,
    "anche": 10791,
    "fo": 5279,
    "endar": 18364,
    "Ġmistifying": 23721,
    "ste": 3584,
    "ancholy": 5069,
    "Ġflowing": 14414,
    "Ġairs": 14513,
    "Ġmounted": 7832,
    "Ġindiscreet": 22958,
    "irection": 2388,
    "Ġlastly": 16207,
    "Ġboundless": 10499,
    "loom": 18538,
    "sand": 21054,
    "hug": 17564,
    "ially": 9251,
    "Ġcurving": 16237,
    "Ġcrawled": 17044,
    "captains": 12131,
    "Ġseparated": 9468,
    "inate": 6235,
    "Ġloathed": 15878,
    "Ġinfinite": 8581,
    "Ġpresided": 20209,
    "riety": 12748,
    "itable": 5437,
    "don": 3544,
    "Ġrebounds": 25967,
    "Ġgord": 21602,
    "Ġstarted": 4147,
    "Ġcylinders": 25943,
    "Ġillinois": 19137,
    "Ġshoes": 7073,
    "Ġprefers": 20516,
    "Ġpurchas": 19875,
    "Ġelevation": 14901,
    "stricken": 9888,
    "Ġvision": 1655,
    "avier": 2834,
    "ascending": 24705,
    "Ġtesting": 23214,
    "Ġbluff": 16518,
    "ulates": 14057,
    "squee": 15432,
    "inition": 11560,
    "Ġpunctilious": 26354,
    "Ġeagle": 13204,
    "tiger": 13799,
    "Ġsmut": 22559,
    "ag": 377,
    "Ġspoils": 24804,
    "Ġpallidness": 25604,
    "Ġprender": 22238,
    "aston": 7408,
    "Ġcalamities": 25699,
    "pigs": 17142,
    "Ġsupposing": 6731,
    "laying": 19774,
    "Ġjoyfully": 19348,
    "Ġregularly": 7659,
    "Ġrest": 1782,
    "icirc": 15659,
    "ash": 1993,
    "Ġfrosts": 19804,
    "Ġdried": 7367,
    "mill": 13756,
    "Ġoutright": 18413,
    "º": 123,
    "Ġgrooves": 16742,
    "iting": 2156,
    "chance": 6827,
    "Ġdefend": 9344,
    "Ġfelony": 18953,
    "Ġtiar": 21169,
    "Ġpacket": 14895,
    "happen": 19332,
    "Ġstave": 11654,
    "contrary": 23730,
    "Ġshell": 11740,
    "iable": 3333,
    "display": 19157,
    "algorithm": 3926,
    "Ġenriched": 26500,
    "Ġantilles": 24181,
    "whel": 7666,
    "ager": 6548,
    "Ġfowls": 8695,
    "iasm": 8061,
    "posted": 24635,
    "hom": 12477,
    "Ġolder": 9331,
    "Ġplank": 7035,
    "cous": 8726,
    "Ġtalents": 15046,
    "caves": 20817,
    "hem": 6666,
    "Ġhumiliation": 16201,
    "Ġtarpaul": 17731,
    "Ġdupl": 9958,
    "twas": 15439,
    "Ġtraveller": 8049,
    "Ġabominable": 12325,
    "itional": 22477,
    "encountered": 20395,
    "ython": 1031,
    "erred": 6377,
    "Ġsummits": 14684,
    "Ġannihil": 10178,
    "spoken": 11863,
    "Ġassume": 10519,
    "Ġbottom": 3674,
    "Ġcit": 10786,
    "nib": 5214,
    "manned": 18761,
    "://": 11468,
    "Ġboxed": 24359,
    "Ġdents": 13914,
    "Ġbrow": 3984,
    "Ġkidnapping": 26357,
    "Ġjavelins": 26105,
    "ssip": 14081,
    "Ġjob": 7017,
    "eagerly": 17318,
    "Ġduty": 4067,
    "Ġsaints": 20676,
    "ĠĠĠĠĠĠĠĠĠĠĠĠĠĠĠĠĠĠĠ": 22952,
    "Ġtranqu": 4604,
    "ô": 181,
    "cond": 1663,
    "Ġatone": 15805,
    "Ġcommonest": 23092,
    "Ġimputable": 22176,
    "gradu": 18616,
    "nowled": 5470,
    "Ġinexorable": 12259,
    "Ġse": 402,
    "Ġvestige": 20065,
    "Ġperchance": 15994,
    "Ġcolder": 22856,
    "concerned": 24638,
    "alloyed": 22204,
    "Ġmott": 17804,
    "Ġcasualties": 25513,
    "Ġseeming": 8543,
    "Ġcorrespondent": 19824,
    "Ġattentions": 5879,
    "Ġprophesy": 26061,
    "orrah": 17876,
    "contain": 18502,
    "sort": 6799,
    "Ġheated": 21684,
    "Ġstraight": 3702,
    "Ġbelrive": 18831,
    "civility": 17514,
    "building": 17311,
    "Ġcourtship": 24136,
    "eous": 13714,
    "Ġleviathan": 3288,
    "Ġmistress": 8616,
    "Ġdissembling": 26255,
    "thee": 9694,
    "Ġevermore": 18811,
    "Ġwiser": 14732,
    "aswag": 21548,
    "Ġattentively": 9954,
    "Ġsu": 433,
    "aught": 2679,
    "Ġdevout": 14331,
    "Ġextant": 18678,
    "noble": 7923,
    "fthand": 26387,
    "orted": 4603,
    "Ġrobins": 16263,
    "irm": 3107,
    "unts": 12735,
    "Ġtints": 17728,
    "cific": 10089,
    "Ġsubstitute": 16727,
    "Ġsleeps": 10449,
    "george": 26019,
    "thin": 14099,
    "ment": 684,
    "jury": 15376,
    "Ġoppressively": 25710,
    "Ġarsacides": 17296,
    "Ġgamy": 18000,
    "§": 105,
    "disguise": 26306,
    "examination": 25479,
    "rist": 10126,
    "Ġbefore": 810,
    "Ġtouch": 3394,
    "Ġgoney": 14545,
    "Ġbites": 23744,
    "Ġargument": 7100,
    "Ġforesight": 13129,
    "×": 152,
    "Ġenormousness": 24514,
    "hav": 20898,
    "Ġinheritance": 25356,
    "histor": 13493,
    "kers": 7134,
    "Ġparties": 7040,
    "Ġwarbling": 26168,
    "sufferable": 12180,
    "Ġshivering": 10269,
    "Ġoften": 1955,
    "Ġpaths": 2571,
    "Ġunavailing": 26216,
    "Ġsmaller": 1885,
    "latter": 15385,
    "illings": 14144,
    "Ġapplications": 4783,
    "ĠĠĠĠĠĠĠĠ": 711,
    "Ġdefendants": 15143,
    "Ġimmediate": 6090,
    "Ġtertiary": 15297,
    "Ġreally": 2158,
    "bergs": 18695,
    "robust": 19730,
    "Ġdexter": 9705,
    "Ġaft": 5737,
    "allers": 22200,
    "Ġproposed": 7460,
    "Ġcheetah": 14503,
    "Ġphysiognomically": 25612,
    "Ġiter": 2955,
    "Ġcapric": 14577,
    "Ġvolume": 6770,
    "humorously": 24022,
    "Ġgang": 9211,
    "language": 5129,
    "moil": 22705,
    "Ġconscious": 7744,
    "Ġaffirm": 11890,
    "north": 14616,
    "Ġbrains": 2629,
    "Ġscope": 15947,
    "vishnoo": 21121,
    "lest": 5290,
    "Ġruined": 12958,
    "?âĢĻ": 2639,
    "Ġinform": 1000,
    "Ġradiating": 24330,
    "Ġimprobable": 9799,
    "quit": 15765,
    "Ġmultitud": 18747,
    "Ġnile": 21523,
    "lucifer": 25302,
    "Ġes": 8774,
    "Ġbour": 4876,
    "Ġimmedi": 2906,
    "Ġsuddenly": 2644,
    "Ġcretan": 22727,
    "continually": 11305,
    "Ġgained": 4535,
    "Ġstudious": 23212,
    "Ġthine": 7374,
    "aust": 15312,
    "Ġfierc": 18717,
    "Ġscreaming": 13425,
    "Ġordin": 16652,
    "Ġdavis": 25952,
    "Ġnocturn": 18374,
    "Ġfluctuating": 24416,
    "pursu": 11395,
    "ivers": 1983,
    "Ġlanguages": 1565,
    "Ġmatrim": 11063,
    "Ġcurses": 13016,
    "Ġvesu": 21952,
    "Ġaxe": 15063,
    "Ġhorizontal": 7783,
    "Ġseethings": 26504,
    "Ġtoward": 17948,
    "Ġreturning": 5326,
    "afer": 17483,
    "rucastle": 22181,
    "onstrate": 17769,
    "ouder": 17901,
    "instant": 8656,
    "Ġyoung": 1506,
    "Ġrelative": 11886,
    "Ġresting": 7962,
    "ane": 1176,
    "asting": 12810,
    "uttle": 6249,
    "Ġtrue": 1341,
    "Ġinsolent": 13603,
    "Ġcharge": 5325,
    "arches": 10815,
    "found": 4211,
    "elag": 12662,
    "Ġhabitation": 14805,
    "Ġwretched": 4078,
    "Ġreads": 23115,
    "neighboring": 20619,
    "Ġslily": 23167,
    "Ġattentive": 9037,
    "Þ": 159,
    "Ġ115": 24438,
    "Ġencouraged": 9359,
    "voyages": 24855,
    "Ġphantom": 8711,
    "Ġcatastrop": 3347,
    "twice": 14621,
    "adru": 15734,
    "ien": 10105,
    "Ġerudite": 26352,
    "Ġproceed": 3244,
    "consolation": 15155,
    "raham": 18015,
    "doubted": 17527,
    "Ġworry": 18816,
    "Ġ9": 5902,
    "spent": 12946,
    "wore": 21126,
    "Ġoar": 6238,
    "Ġtrem": 6662,
    "Ġded": 2362,
    "Ġfrequent": 3286,
    "Ġfolded": 7768,
    "sworn": 24258,
    "Ġrefusal": 10349,
    "teeth": 10359,
    "ke": 429,
    "cused": 15334,
    "Ġtwenty": 3946,
    "Ġunfitted": 24109,
    "pile": 17630,
    "Ġour": 1012,
    "sullen": 17670,
    "Ġtransparent": 9493,
    "Ġshroud": 6484,
    "line": 1442,
    "~": 98,
    "Ġinsurg": 23683,
    "ñ": 178,
    "estion": 18362,
    "Ġfan": 2036,
    "Ġadvertising": 25390,
    "mant": 20966,
    "Ġalternative": 19989,
    "Ġfirmament": 19473,
    "Ġcome": 1240,
    "Ġdearer": 14051,
    ",âĢĻ": 2328,
    "Ġshri": 5375,
    "lose": 12886,
    "Ġcapricious": 20540,
    "Ġknown": 1640,
    "affa": 23777,
    "Ġinter": 728,
    "anations": 12580,
    "Ġsurvived": 14936,
    "Ġisland": 4044,
    "fordshire": 4676,
    "Ġhermits": 22077,
    "Ġhastening": 19337,
    "Ġsurve": 9878,
    "forks": 26388,
    "unerative": 21899,
    "Ġthinker": 22812,
    "ilst": 8144,
    "Ġph": 1548,
    "seemed": 4301,
    "isted": 3297,
    "victim": 25531,
    "Ġowns": 22827,
    "reluct": 26163,
    "Ġtart": 12531,
    "yonder": 21146,
    "Ġmonstrous": 7790,
    "wishes": 13809,
    "Ġspouter": 12802,
    "Ġlandau": 16422,
    "Ġpromised": 5181,
    "Ġnoblest": 13244,
    "Ġjen": 9271,
    "hear": 10150,
    "articulate": 17397,
    "icient": 780,
    "Ġfamine": 16329,
    "Ġwhitt": 18056,
    "frisco": 16788,
    "gish": 20874,
    "coffin": 10666,
    "Ġunchanging": 22048,
    "Ġautonom": 10419,
    "Ġcetacea": 20555,
    "Ġpricking": 23224,
    "Ġwrithing": 11949,
    "Ġpicking": 11261,
    "Ġanxiously": 8290,
    "Ġever": 1179,
    "arpening": 21425,
    "nigh": 13765,
    "Ġresulting": 24200,
    "Ġnecessary": 4473,
    "Ġelasticity": 19560,
    "Ġchaldee": 26235,
    "Ġuntrodden": 23525,
    "Ġmediterranean": 12318,
    "Ġgasped": 11375,
    "tomb": 21095,
    "Ġloath": 7890,
    "redible": 15807,
    "ruction": 4355,
    "Ġmagnanim": 14474,
    "Ġdur": 11597,
    "atha": 6574,
    "Ġquohog": 10975,
    "Ġchurned": 18384,
    "anxiously": 15113,
    "alescing": 23868,
    "constellation": 24607,
    "Ġwrath": 16319,
    "drovand": 24758,
    "Ġsports": 18310,
    "Ġinglorious": 24423,
    "Ġcousin": 3704,
    "Ġwintry": 17436,
    "Ġdiminishing": 4206,
    "Ġhunsford": 6303,
    "crack": 19842,
    "Ġsens": 1854,
    "more": 1033,
    "ceiving": 3899,
    "Ġmcc": 21307,
    "Ġblankness": 24610,
    "ated": 725,
    "Ġacc": 567,
    "Ġcomplexity": 1693,
    "headsman": 16698,
    "Ġsecondly": 14519,
    "Ġaint": 17745,
    "Ġadvantage": 4313,
    "Ġnoisier": 4624,
    "uation": 17695,
    "Ġconcise": 23325,
    "Ġcal": 1328,
    "inence": 15483,
    "pursuit": 20342,
    "Ġpsychology": 11451,
    "Ġinfirmity": 26298,
    "<MASK>": 4,
    "Ġspaulding": 11735,
    "Ġaudience": 24767,
    "Ġ109": 24415,
    "Ġboscombe": 8326,
    "child": 5538,
    "Ġamb": 9296,
    "adoes": 11663,
    "tahit": 17693,
    "Ġattract": 8526,
    "Ġdecap": 16023,
    "Ġcards": 7582,
    "Ġgroup": 2038,
    "Ġsphy": 18311,
    "Ġalps": 10873,
    "Ġdefence": 11070,
    "Ġliking": 23592,
    "ref": 6516,
    "iters": 21331,
    "Ġbrink": 18771,
    "Ġassaults": 15159,
    "Ġimmensely": 13598,
    "ong": 536,
    "Ġgipsies": 12411,
    "enit": 17780,
    "Ġsimilarly": 24309,
    "Ġconsequences": 11338,
    "gers": 8376,
    "fright": 9599,
    "itively": 21333,
    "Ġlearn": 361,
    "ause": 1314,
    "Ġsharing": 3477,
    "Ġheadsmen": 14734,
    "Ġruminated": 24599,
    "books": 8668,
    "into": 3680,
    "oppressed": 24820,
    "Ġvishnoo": 12757,
    "Ġrecall": 3853,
    "alliance": 22203,
    "Ġcomply": 8895,
    "Ġhard": 1444,
    "Ġsauc": 15891,
    "Ġlining": 13953,
    "truth": 9923,
    "Ġlowering": 7987,
    "Ġthey": 575,
    "Ġintroduction": 8974,
    "Ġcolds": 23759,
    "Ġallies": 18234,
    "_--": 20763,
    "Ġsupre": 10274,
    "henomen": 10498,
    "Ġabreast": 18394,
    "irited": 15790,
    "Ġgraze": 18226,
    "Ġacquisition": 18900,
    "đ": 210,
    "Ġel": 800,
    "akened": 7415,
    "Ġhogarth": 25780,
    "Ġlord": 2968,
    "exagger": 22431,
    "Ġprincip": 5600,
    "Ġpadd": 9673,
    "Ġorganizations": 12317,
    "blazing": 24132,
    "Ġvehemently": 26039,
    "Ġtearing": 14398,
    "C": 39,
    "warp": 17707,
    "Ġwelded": 9575,
    "Ġcongregation": 12332,
    "Ġaffections": 10388,
    "Ġcolossal": 11462,
    "Ġtorch": 25032,
    "Ġheavy": 3742,
    "Ġsatisfy": 6912,
    "Ġrepairs": 19084,
    "Ġfergus": 16868,
    "Ġregularization": 1181,
    "Ġwhereby": 11840,
    "threadbare": 25989,
    "ushing": 5730,
    "compliments": 24806,
    "Ġstates": 1853,
    "Ġsoliloqu": 11888,
    "bs": 3774,
    "fe": 679,
    "Ġinterpret": 5490,
    "Ġjurors": 17346,
    "Ġsuperficial": 23456,
    "Ġunmethodically": 22073,
    "div": 8076,
    "kl": 4865,
    "meet": 11859,
    "lodged": 25907,
    "Ġforegoing": 23449,
    "Ġbasic": 24699,
    "Ġrecommended": 8672,
    "irt": 3076,
    "Ġbolivia": 24667,
    "Ġmadam": 5663,
    "Ġdreams": 7497,
    "Ġindividuality": 14911,
    "Ġspat": 2663,
    "circumstances": 8047,
    "pleasant": 5876,
    "Ġswamp": 14438,
    "Ġengland": 3854,
    "alleled": 14431,
    "Ġsublimity": 26347,
    "Ġdespite": 19355,
    "Ġporter": 15614,
    "Ġuncommonly": 7760,
    "Ġconjoined": 21809,
    "Ġrenounce": 19470,
    "execut": 13658,
    "strained": 21660,
    "stem": 570,
    "moran": 24154,
    "Ġbern": 17859,
    "iless": 10285,
    "Ġowing": 6006,
    "ingham": 21302,
    "tremendous": 20675,
    "Ġsaturn": 22901,
    "Ġpovelson": 26553,
    "Ġmanip": 8876,
    "Ġintricacies": 15141,
    "Ġdarcy": 1345,
    "Ġvibration": 17099,
    "Ġhardware": 4904,
    "Ġheeds": 24519,
    "Ġdistinguish": 2726,
    "Ġboat": 1274,
    "Ġmartyr": 26361,
    "Ġtar": 2565,
    "Ġmixed": 6975,
    "enjoyments": 25434,
    "Ġdad": 12609,
    "somehow": 12015,
    "bel": 3833,
    "Ġsworn": 14437,
    "direction": 17525,
    "Ġcouple": 5423,
    "agree": 14069,
    "Ġwarden": 17226,
    "Ġbashaw": 25633,
    "Ġarrival": 4730,
    "Ġquantization": 19855,
    "dimensional": 2348,
    "Ġreflections": 5948,
    "Ġchrysalis": 26539,
    "Ġseals": 11701,
    "bub": 15319,
    "Ġtoilings": 24740,
    "Ġharris": 13929,
    "Ġslow": 2379,
    "pro": 2050,
    "Ġinvestigation": 9046,
    "scor": 13023,
    "somerset": 26323,
    "Ġalready": 2711,
    "dried": 20828,
    "etymology": 14703,
    "unnecessary": 21883,
    "Ġunspeakable": 10060,
    "glo": 8742,
    "Ġappro": 661,
    "Ġaccomplished": 7106,
    "Ġintellect": 8170,
    "Ġlard": 13949,
    "perishing": 22189,
    "chased": 18043,
    "Ġasyl": 12738,
    "Ġcoaxing": 18594,
    "ermost": 7430,
    "Ġcontribut": 12863,
    "brimmed": 14589,
    "Ġaroused": 15902,
    "th": 408,
    "mrs": 3743,
    "Ġpivot": 13925,
    "fedallah": 25523,
    "quick": 6401,
    "Ġcosine": 2373,
    "Ġthistle": 21919,
    "Ġmischief": 8544,
    "fatal": 17088,
    "tu": 12515,
    "make": 5793,
    "oko": 18440,
    "Ġprocedural": 12034,
    "Ġquietude": 19362,
    "conqu": 14246,
    "Ġrestraint": 15130,
    "hate": 20893,
    "Ġrid": 4352,
    "perpet": 14163,
    "Ġimpediments": 26241,
    "thinks": 16643,
    "bal": 2155,
    "Ġgreater": 3037,
    "uneven": 23687,
    "twelvemonth": 25862,
    "Ġenclosure": 20626,
    "Ġjenkinson": 11434,
    "phon": 4125,
    "valley": 16217,
    "Ġdy": 2498,
    "Ġcommit": 18655,
    "ither": 1547,
    "infl": 15489,
    "Ġtakes": 5006,
    "Ġmurmuring": 23580,
    "Ġruddy": 17127,
    "laborers": 23918,
    "yard": 5901,
    "Ġhummed": 18778,
    "Ġexerting": 21835,
    "Ġabundantly": 17158,
    "Ġledgers": 23940,
    "aiian": 23593,
    "weep": 22686,
    "wantonly": 25153,
    "erce": 6128,
    "Ġvector": 1970,
    "ury": 3311,
    "Ġblade": 11896,
    "Ġwont": 9856,
    "Ġsnarled": 25714,
    "Ġdejection": 15199,
    "coat": 5407,
    "leaned": 21371,
    "Ġserv": 3328,
    "Ġrehears": 15703,
    "Ġsurrender": 16449,
    ".": 18,
    "Ġcaptain": 1604,
    "fl": 3599,
    "Ġanimal": 2496,
    "igated": 15710,
    "Ġfishermen": 5972,
    "ckled": 9261,
    "Ġrefuge": 8545,
    "march": 13757,
    "Ġrejo": 5917,
    "Ġans": 1642,
    "iability": 20921,
    "Ġthreshold": 2810,
    "naturalist": 23520,
    "Ġhour": 1811,
    "Ġev": 4828,
    "Ġpresent": 1639,
    "à": 161,
    "land": 1530,
    "Ġstomach": 11656,
    "Ġmountain": 3371,
    "Ġmonths": 3456,
    "Ġfarmhouse": 24986,
    "Ġscant": 22288,
    "royal": 11396,
    "Ġinno": 1399,
    "expression": 10551,
    "utterly": 20014,
    "Ġstings": 21740,
    "Ġinfluenced": 19634,
    "Ġcompanies": 14558,
    "Ġheedfulness": 24521,
    "Ġrun": 2354,
    "Ġplanet": 14752,
    "Ġcasks": 7522,
    "Ġbeards": 21754,
    "cellar": 20279,
    "Ġrescued": 24208,
    "embra": 14078,
    "Ġentranced": 25834,
    "effect": 8608,
    "Ġshattered": 7884,
    "Ġ81": 24456,
    "bowsprit": 16854,
    "Ġrally": 21971,
    "Ġdocument": 15020,
    "standing": 5558,
    "sigma": 3003,
    "reast": 17759,
    "greater": 13253,
    "arted": 2199,
    "Ġslaught": 23170,
    "Ġfixed": 2684,
    "light": 3016,
    "Ġlove": 2054,
    "Ġ57": 24320,
    "Ġmethodic": 23121,
    "pal": 9620,
    "Ġane": 9185,
    "Ġinevitably": 17232,
    "Ġdefy": 11900,
    "maintained": 25022,
    "Ġprofuse": 23567,
    "Ġinquiries": 5678,
    "Ġbackground": 18650,
    "stands": 22433,
    "thrill": 25656,
    "ten": 1555,
    "declare": 25174,
    "Ġknows": 4157,
    "Ġriggers": 24158,
    "likewise": 13108,
    "Ġgoble": 14231,
    "Ġstig": 14005,
    "Ġordering": 18997,
    "Ġexactly": 2769,
    "ta": 13791,
    "Ġext": 872,
    "Ġattraction": 18624,
    "Ġconflagration": 26365,
    "Ġswings": 11089,
    "Ġroads": 13291,
    "Ġbrush": 17865,
    "Ġberkshire": 16885,
    "very": 498,
    "xic": 9149,
    "tree": 11537,
    "Ġinvolve": 11046,
    "Ġstrongest": 11138,
    "inex": 14098,
    "Ġhearers": 15706,
    "comprehensive": 20628,
    "Ġherb": 15859,
    "Ġimpact": 10300,
    "Ġduplicates": 17218,
    "Đ": 209,
    "aited": 12438,
    "Ġmake": 1283,
    "Ġdepending": 14304,
    "antique": 18288,
    "Ġdepth": 2435,
    "exe": 11793,
    "Ġlawn": 7379,
    "ething": 1602,
    "Ġlonging": 14300,
    "trust": 21080,
    "Ġdocks": 14177,
    "Ġelderly": 13496,
    "Ġsurmise": 12298,
    "Ġcough": 11585,
    "parad": 16387,
    "Ġdistracted": 11808,
    "jacket": 12295,
    "Ġsquid": 11881,
    "Ġgust": 21599,
    "vel": 2385,
    "abriel": 6950,
    "legged": 10469,
    "Ġ63": 24365,
    "surprise": 9534,
    "carte": 25401,
    "misery": 13346,
    "shooting": 16966,
    "Ġanalyzing": 18786,
    "secure": 12239,
    "Ġhospital": 15041,
    "Ġmainmast": 9783,
    "Ġtrespass": 23601,
    "Ġremarking": 13126,
    "intend": 16226,
    "gent": 7131,
    "Ġhyper": 19741,
    "ý": 190,
    "suspicions": 25392,
    "ront": 15420,
    "iop": 20920,
    "simple": 13454,
    "Ġacting": 10994,
    "daylight": 19058,
    "Ġhus": 3091,
    "bble": 17486,
    "Ġproceeds": 12081,
    "Ġwhal": 5454,
    "complain": 14360,
    "Ġemails": 13109,
    "rowed": 22864,
    "Ġris": 4886,
    "uniform": 18159,
    "Ġnum": 1350,
    "hide": 10706,
    "Ġgently": 7172,
    "Ġequin": 14496,
    "warning": 25532,
    "Ġlovers": 9724,
    "handsome": 13178,
    "Ġdeemed": 7615,
    "stairs": 5155,
    "Ġn": 300,
    "Ġinject": 2710,
    "Ġsurmises": 17056,
    "Ġain": 6970,
    "Ġkissed": 10049,
    "Ġtestament": 23216,
    "Ġcrucial": 9896,
    "Ġpraised": 19555,
    "Ġtom": 15636,
    "Ġimmeasurable": 26231,
    "Ġirritation": 20268,
    "Ġottoman": 17380,
    "Ġsauntering": 18327,
    "Ġarrive": 6907,
    "Ġ2026": 12338,
    "iers": 5992,
    "Ġair": 1837,
    "Ġ184": 16608,
    "jah": 17582,
    "univers": 15775,
    "Ġvenge": 5420,
    "Ġinjuring": 24270,
    "Ġcolonel": 3406,
    "Ġdance": 4443,
    "Ġlapse": 17122,
    "Ġsmells": 8894,
    "Ġdistantly": 18534,
    "Ġburglar": 17356,
    "Ġorgies": 18285,
    "Ġexpand": 9311,
    "Ġincor": 2610,
    "solut": 3363,
    "Ġaway": 1242,
    "orts": 2557,
    "Ġeggs": 12345,
    "Ġjokes": 18408,
    "stein": 5505,
    "Ġconstables": 19071,
    "Ġmoulton": 17437,
    "Ġinsensibly": 20078,
    "Ġunrolled": 22041,
    "ĠĠĠĠĠĠ": 6415,
    "Ġrob": 1303,
    "rix": 1571,
    "glad": 9012,
    "ishly": 14201,
    "Ġporing": 21469,
    "Ġstudying": 9848,
    "Ġabsolut": 3907,
    "Ġrenewal": 12238,
    "grad": 2569,
    "hunters": 16834,
    "Ġcommitted": 7431,
    "Ġunwe": 15841,
    "Ġriding": 14096,
    "Ġsunk": 5752,
    "Ġpartners": 11856,
    "Ġwharf": 9563,
    "warmest": 25029,
    "Ġantichronical": 26610,
    "Ġdwelling": 7322,
    "Ġscreen": 17207,
    "gest": 5426,
    "perfect": 7636,
    "icilian": 20693,
    "strength": 13982,
    "Ġraising": 8914,
    "Ġwards": 17790,
    "usations": 15945,
    "Ġearn": 3547,
    "mense": 4779,
    "Ġweedy": 15795,
    "Ġkilling": 13335,
    "Ġresponded": 13641,
    "belated": 24039,
    "affair": 14656,
    "meaning": 2909,
    "Ġcrav": 19174,
    "Ġsocially": 22088,
    "Ġinvested": 7279,
    "Ġhart": 17923,
    "irons": 10242,
    "ipt": 12482,
    "Ġopportunity": 4785,
    "Ġwine": 6811,
    "ographical": 16787,
    "mmet": 10991,
    "fool": 9051,
    "grie": 12474,
    "Ġovertaken": 18429,
    "fights": 20866,
    "Ġlik": 2524,
    "Ġripe": 13237,
    "Ġcases": 3957,
    "Ġcholera": 22256,
    "Ġuntidy": 23526,
    "Ġrequested": 14299,
    "Ġrestored": 7068,
    "Ġcustody": 13650,
    "retched": 3068,
    "Ġdeputation": 21842,
    "Ġendless": 7055,
    "Ġacquit": 18898,
    "Ġregretted": 13402,
    "ere": 6790,
    "Ġcripp": 9657,
    "Ġroughly": 17040,
    "Ġdistricts": 20265,
    "Ġdeduced": 12211,
    "sen": 21051,
    "Ġgeometric": 3219,
    "ars": 906,
    "ricted": 15422,
    "contempl": 13191,
    "Ġparticulars": 5754,
    "Ġstubbs": 23297,
    "Ġsimil": 2532,
    "Ġsibbald": 21232,
    "Ġaccompanying": 11307,
    "perpetually": 20515,
    "Ġalgorithms": 846,
    "Ġcharmed": 16763,
    "Ġhyperborean": 26340,
    "makes": 10714,
    "tland": 21075,
    "Ġscrawled": 24580,
    "rather": 5430,
    "Ġshould": 865,
    "Ġheaps": 11645,
    "ft": 910,
    "Ġimbalance": 22177,
    "Ġgoodly": 22825,
    "Ġceremony": 8361,
    "speech": 10670,
    "minute": 11277,
    "Ġflorid": 17137,
    "cham": 10856,
    "Ġwanted": 4967,
    "Ġsod": 11565,
    "Ġthereby": 7645,
    "Ġproximity": 3220,
    "Ġservices": 11220,
    "Ġbeloved": 5572,
    "Ġpersuasions": 16633,
    "Ġshortness": 23482,
    "Ġluckless": 16798,
    "Ġproportionate": 17043,
    "ries": 3353,
    "Ġchristianity": 19862,
    "Ġunwilling": 7886,
    "Ġvari": 832,
    "Ġgall": 4349,
    "Ġbert": 4582,
    "Ġconvulsive": 19308,
    "Ġswitzerland": 10383,
    "Ġsuavely": 26524,
    "Ć": 199,
    "Ġturtles": 19222,
    "oubled": 23646,
    "Ġfinite": 2325,
    "whaler": 20311,
    "vine": 10737,
    "Ġconveying": 19716,
    "Ġgrated": 22807,
    "retreat": 23142,
    "Ġjoyous": 14665,
    "Ġstyled": 24671,
    "scure": 22990,
    "Ġele": 1962,
    "rot": 21534,
    "Ġclaws": 15972,
    "Ġabiding": 22273,
    "Ġcategor": 4137,
    "br": 2477,
    "Ġshock": 6083,
    "Ġme": 352,
    "Ġmeasured": 9808,
    "erest": 10700,
    "Ġfatt": 15582,
    "Ġconfl": 11140,
    "Ġbliss": 13004,
    "Ġconstit": 8588,
    "Ġsocial": 7008,
    "ultural": 22571,
    "ac": 742,
    "Ġeternities": 19945,
    "idy": 21767,
    "Ġdeference": 10884,
    "Ġmam": 8406,
    "Ġphantoms": 13488,
    "heredit": 21211,
    "Ġlevels": 12700,
    "âĢĿ;": 11673,
    "Ġthrees": 23403,
    "Ġfelicity": 7260,
    "Ġmortifying": 13247,
    "Ġdressing": 7092,
    "croquet": 25747,
    "Ġfuel": 13906,
    "Ġrural": 21970,
    "Ġexclaiming": 13644,
    "Ġcorrection": 5061,
    "Ġdesisted": 22982,
    "Ġhighly": 4844,
    "Ġexpect": 2307,
    "hidden": 17373,
    "sil": 5283,
    "Ġjeopard": 9947,
    "Ġalterations": 19872,
    "ensive": 6281,
    "covenant": 23563,
    "Ġtools": 11613,
    "Ġrecurring": 23233,
    "Ġjane": 1758,
    ",)": 9105,
    "Ġchronicle": 20230,
    "Ġdesirous": 8946,
    "Ġflatt": 16248,
    "Ġamsterdam": 22487,
    "welcome": 10005,
    "Ġreced": 15695,
    "Ġtravell": 5576,
    "Ġwhistle": 9069,
    "Ġinte": 2065,
    "Ġsorrows": 13357,
    "apsed": 6297,
    "Ġadmiral": 17307,
    "Ġjustly": 11907,
    "Ġconsidered": 4611,
    "sery": 17662,
    "mantel": 26395,
    "quiet": 6156,
    "befall": 22498,
    "irmed": 9243,
    "theast": 21751,
    "insufficient": 15491,
    "Ġisn": 7866,
    "izz": 7616,
    "avern": 24790,
    "ina": 21181,
    "Ġfaithful": 9507,
    "Ġah": 5074,
    "itude": 1420,
    "odecimo": 11447,
    "Ġinsisted": 12049,
    "inquiry": 15145,
    "Ġbit": 2966,
    "Ġendurance": 23141,
    "Ġtreatment": 12075,
    "Ġthirty": 4943,
    "ishnoo": 10958,
    "Ġpleasantness": 24139,
    "Ġplace": 1649,
    "Ġj": 533,
    "Ġmoody": 8201,
    "Ġindoors": 18836,
    "mockery": 24377,
    "ating": 663,
    "Ġeffected": 14355,
    "Ġusing": 713,
    "ided": 2786,
    "Ġprized": 23223,
    "ĠĠĠĠĠĠĠĠĠĠĠĠĠĠĠĠĠĠĠĠĠĠĠĠĠ": 24441,
    "Ġobjective": 3764,
    "Ġappalling": 8502,
    "jets": 20929,
    "boy": 4737,
    "Ġdeliberation": 19971,
    "than": 4086,
    "Ġpromontory": 11944,
    "Ġfeeds": 16435,
    "Ġrending": 19469,
    "preference": 22470,
    "Ġjuncture": 17131,
    "Ġbreach": 11977,
    "deserts": 25382,
    "compassion": 12371,
    "decl": 8861,
    "Ġskirt": 18730,
    "ancial": 21364,
    "Ġadd": 630,
    "Ġchuck": 8503,
    "Ġlaws": 8003,
    "hearts": 13347,
    "backpropagation": 11989,
    "Ġunduly": 25994,
    "Ġlibr": 16003,
    "Ġcomical": 11681,
    "ington": 21303,
    "thouse": 21985,
    "ara": 12603,
    "Ġlabourers": 23334,
    "Ġconnecting": 18630,
    "iem": 20918,
    "Ġdownward": 10335,
    "Ġglance": 4230,
    "Ġcoming": 2617,
    "Ġjumped": 7098,
    "spread": 8389,
    "Ġcomfortably": 16616,
    "Ġhearsed": 25041,
    "solving": 3098,
    "Ġbeach": 6543,
    "Ġ70": 11279,
    "Ġbegrimed": 26579,
    "Ġstole": 7953,
    "Ġstrings": 11833,
    "utility": 21589,
    "msprop": 2624,
    "Ġkicked": 10585,
    "Ġgerm": 13966,
    "Ġcallest": 17833,
    "invariably": 26417,
    "Ġunobserved": 18249,
    "Ġrequ": 792,
    "Ġappearing": 9845,
    "Ġmatch": 4529,
    "Ġschedu": 1822,
    "Ġdisd": 7032,
    "rimin": 2421,
    "stir": 12677,
    "elsewhere": 19869,
    "Ġmanufact": 22331,
    "iac": 6227,
    "ois": 9138,
    "alice": 3209,
    "torn": 17683,
    "Ġdebt": 12171,
    "ured": 1650,
    "Ġaffronted": 22894,
    "Ġunfathom": 14791,
    "Ġbodily": 6108,
    "looks": 12021,
    "Ġfad": 17877,
    "Ġenraptured": 26501,
    "Ġconsequent": 18115,
    "web": 18664,
    "Ġmountains": 4425,
    "Ġperils": 6274,
    "Ġwhereas": 3852,
    "addressing": 24400,
    "skylight": 25623,
    "duty": 20241,
    "swelled": 19612,
    "Ġalso": 1346,
    "Ġbree": 5011,
    "presum": 12872,
    "ittance": 12850,
    "seven": 8466,
    "Ġwhitewashed": 14471,
    "Ġaudible": 19882,
    "ulations": 6030,
    "dee": 11737,
    "Ġasked": 2276,
    "Ġdemands": 19640,
    "despair": 8344,
    "Ġfeels": 6882,
    "Ġsimultaneously": 4308,
    "Ġgrimes": 11037,
    "Ġassuredly": 14824,
    "scattered": 22997,
    "Ġstrengthen": 20702,
    "anoke": 21363,
    "Ġstriking": 6089,
    "Ġwarnings": 16882,
    "Ġperformance": 1308,
    "Ġasia": 11686,
    "³": 116,
    "legs": 13184,
    "Ġspend": 5306,
    "Ġmol": 12565,
    "Ġentrances": 25835,
    "Ġbridal": 14956,
    "Ġmorris": 18850,
    "Ġdissip": 10995,
    "Ġillustrious": 17109,
    "Ġsources": 10151,
    "Ġremonstrance": 20625,
    "Ġcease": 7078,
    "Ġhairy": 23867,
    "Ġdischar": 11812,
    "Ġcomputation": 968,
    "Ġalman": 21784,
    "buttoned": 13635,
    "Ġparaph": 22123,
    "alt": 12642,
    "perv": 1598,
    "Ġemperor": 15161,
    "horrors": 20543,
    "trip": 21093,
    "gorge": 22335,
    "Ġgovernments": 20269,
    "trifling": 19416,
    "Ġbitterness": 8024,
    "Ġnaturalist": 22910,
    "Ġdescribed": 6608,
    "ger": 1105,
    "Ġcarry": 4778,
    "Ġ1894": 5196,
    "Ġgracechurch": 12202,
    "ouncement": 11749,
    "Ġepoch": 26472,
    "apidated": 22340,
    "visitor": 15059,
    "Ġaffection": 2638,
    "uracy": 1034,
    "linearity": 1647,
    "stoke": 18024,
    "toller": 20674,
    "must": 3577,
    "Ġhardest": 18913,
    "history": 15016,
    "Ġcouldn": 7650,
    "Ġdisgusted": 14992,
    "previous": 9765,
    "Ġlittle": 867,
    "Ġbaked": 21388,
    "ub": 1224,
    "ops": 5248,
    "flame": 16639,
    "Ġdances": 10818,
    "Ġachieved": 13168,
    "Ġdistrict": 10321,
    "gladness": 25195,
    "unt": 2044,
    "Ġdiscussion": 17196,
    "uber": 15447,
    "Ġrepl": 1592,
    "Ġkent": 6693,
    "Ġlo": 452,
    "Ġar": 480,
    "Ġjourneying": 25566,
    "viv": 17699,
    "Ġsab": 10765,
    "Ġskeleton": 5514,
    "Ġenvirons": 13199,
    "Ġaudacious": 13462,
    "Ġrepetition": 8976,
    "Ġmarriage": 3189,
    "Ġfiends": 14830,
    "Ġvaliantly": 22805,
    "wered": 2688,
    "Ġscorch": 20069,
    "Ġdomain": 3455,
    "nowledge": 10293,
    "atum": 21261,
    "Ġglanced": 5953,
    "Ġshape": 5639,
    "Ġhatty": 19266,
    "izarre": 17391,
    "revolver": 25627,
    "hens": 3934,
    "Ġye": 900,
    "ions": 448,
    "worship": 19389,
    "persecutor": 26531,
    "lipped": 16219,
    "gir": 8083,
    "_.âĢĻâĢĿ": 17481,
    "Ġmiss": 1229,
    "Ġaddress": 2268,
    "Ġknock": 9977,
    "Ġcheeks": 5959,
    "urch": 3989,
    "ame": 646,
    "Ġgrounds": 6751,
    "begged": 18520,
    "Ġmeagre": 21816,
    "Ġvane": 22877,
    "Ġdecanting": 22446,
    "Ġsulkily": 25881,
    "Ġmight": 965,
    "Ġmem": 2163,
    "baggage": 24926,
    "desk": 23810,
    "Ġperilous": 7769,
    "Ġlearnt": 7613,
    "vate": 21111,
    "Ġwhoever": 10976,
    "Ġelucidated": 26029,
    "mid": 5617,
    "alid": 13937,
    "deli": 15347,
    "Ġunfold": 8022,
    "Ġbulldog": 23861,
    "unctuous": 21885,
    "broad": 8647,
    "Ġflew": 5588,
    "income": 15488,
    "Ġmisty": 16541,
    "ran": 11519,
    "antly": 1988,
    "Ġposture": 24166,
    "Ġmaledictions": 26429,
    "Ġstrategies": 1841,
    "Ġcol": 1060,
    "te": 997,
    "Ġsubtile": 20382,
    "Ġexulting": 20259,
    "Ġplanisp": 24059,
    "Ġdoors": 6419,
    "Ġpigeon": 9520,
    "itate": 6670,
    "bud": 10687,
    "Ġjudges": 14686,
    "Ġreasons": 6021,
    "Ġcircumstantial": 14644,
    "aster": 1869,
    "Ġcaring": 23094,
    "body": 2309,
    "Ġhumbly": 16200,
    "Ġformless": 22830,
    "Ġusefulness": 19410,
    "azing": 7705,
    "rations": 10726,
    "Ġinterconnected": 1340,
    "Ġgreen": 3051,
    "Ġboiling": 8529,
    "Ġfinishing": 23128,
    "Ġcommunications": 16357,
    "âĢľ_": 5720,
    "Ġvegetables": 15224,
    "Ġlogger": 11957,
    "houn": 20894,
    "ank": 1365,
    "bourgh": 19104,
    "Ġgazing": 5877,
    "Ġacquies": 11101,
    "Ġalike": 8147,
    "Ġmab": 12564,
    "Ġapprehen": 16830,
    "presence": 18496,
    "ě": 220,
    "Ġclasped": 17208,
    "alizing": 17941,
    "Ġlocked": 6036,
    "jack": 7344,
    "Ġinsc": 7587,
    "Ġdirt": 15599,
    "Ġcompassion": 6488,
    "âĢĶ": 517,
    "doing": 8589,
    "Ġspitz": 14150,
    "echo": 15351,
    "Ġpanted": 21474,
    "substance": 15234,
    "sequence": 2859,
    "Ġensigns": 23691,
    "eldest": 22806,
    "cerem": 15681,
    "ountain": 2920,
    "Ġinscriptions": 20011,
    "Ġdisc": 944,
    "sence": 3306,
    "Ġeven": 1029,
    "Ġwhir": 6394,
    "Ġdrooping": 9424,
    "Ġcem": 17824,
    "Ġsucceeded": 6107,
    "Ġtucked": 12395,
    "Ġjagged": 18407,
    "5": 25,
    "performed": 18345,
    "Ġfourteen": 12013,
    "Ġslappin": 18944,
    "between": 5070,
    "Ġounce": 15275,
    "Ġshelf": 12271,
    "exp": 2736,
    "Ġgot": 2278,
    "Ġcattle": 12576,
    "king": 3058,
    "Ġintroduce": 3206,
    "youngest": 19745,
    "iro": 20915,
    "brows": 17498,
    "Ġvariety": 8534,
    "Ġdagger": 21444,
    "Ġadaptively": 4092,
    "Ġrecre": 22737,
    "yset": 21147,
    "Ġconflict": 17275,
    "Ġprepare": 8651,
    "wrong": 13208,
    "Ġamericans": 14745,
    ",_": 11465,
    "Ġsobbing": 14135,
    "Ġgrateful": 7661,
    "Ġbandages": 24426,
    "oe": 7553,
    "down": 3469,
    "spite": 16141,
    "apology": 22337,
    "Ġstudent": 14476,
    "Ġfruitless": 25605,
    "arled": 21424,
    "Ġinfirm": 19017,
    "skelter": 24489,
    "Ġrich": 2994,
    "dipped": 20838,
    "Ġgrowing": 6752,
    "themselves": 6542,
    "Ġenabled": 9300,
    "Ġpest": 13915,
    "Ġindec": 13930,
    "Å": 134,
    "Ġcompletely": 4860,
    "desired": 9009,
    "ĠĠĠĠĠĠĠĠĠĠĠĠĠ": 22565,
    "Ġadventurous": 16734,
    "Ġcommanders": 23870,
    "Ġarrows": 18338,
    "Ġcolumn": 9332,
    "peasant": 23113,
    "browed": 25894,
    "Ġarticles": 7110,
    "Ġsir": 1567,
    "strike": 14951,
    "encounter": 20394,
    "Ġstack": 21739,
    "Ġsh": 419,
    "persecut": 22192,
    "reach": 17758,
    "Ġattacked": 10571,
    "rush": 7012,
    "Ġconsiderably": 7715,
    "Ġbible": 9323,
    "prison": 14664,
    "Ġlun": 7856,
    "Ġmariner": 7247,
    "Ġproved": 4884,
    "Ġintently": 8169,
    "Ġtro": 7356,
    "sensibility": 25025,
    "ally": 530,
    "Ġsurplus": 26303,
    "Ġpulled": 5660,
    "Ġstump": 7607,
    "Ġbloodshot": 23800,
    "Ġelements": 2666,
    "dÃ¦mon": 17528,
    "handedness": 24920,
    "Ġmastery": 23995,
    "Ġjung": 12840,
    "inkle": 22619,
    "Ġlivers": 18461,
    "Ġendeavors": 16547,
    "Ġwashed": 15768,
    "Ġshores": 8853,
    "fired": 20861,
    "driver": 14923,
    "because": 4923,
    "Ġhundred": 2692,
    "Ġenvironmental": 24092,
    "Ġtang": 13816,
    "Ġspectacle": 10500,
    "ï": 176,
    "after": 2898,
    "Ġcrazy": 8598,
    "Ġir": 1994,
    "endering": 21286,
    "face": 3677,
    "evenings": 19465,
    "Ġclutch": 15055,
    "Ġconsistent": 14529,
    "Ġfragmentary": 25858,
    "Ġfiend": 4410,
    "Ġfunctional": 3047,
    "Ġadvisable": 11445,
    "Ġbroadway": 23986,
    "Ġbestow": 6456,
    "Ġroyal": 5602,
    "nine": 13763,
    "Ġunstructure": 2995,
    "Ġgallon": 24186,
    "enary": 12555,
    "Ġsound": 2240,
    "Ġwrapt": 24595,
    "Ġmurderers": 16812,
    "Ġreplaced": 13074,
    "Ġunwound": 24828,
    "Ġingrat": 16841,
    "Ġtoiled": 12646,
    "itives": 17820,
    "Ġnook": 15931,
    "aways": 15313,
    "amusement": 15285,
    "Ġhorribly": 16345,
    "ecess": 17533,
    "brÃ¦": 11178,
    "Ġcomprehend": 6495,
    "hairs": 20905,
    "Ġprivileged": 20115,
    "imet": 21708,
    "Ġrevelation": 25223,
    "hur": 6651,
    "Ġreconc": 9687,
    "aches": 6572,
    "Ġeat": 4643,
    "disgust": 23497,
    "Ġsaviour": 20714,
    "Ġoaks": 16934,
    "Ġtilted": 20415,
    "Ġneighbouring": 12122,
    "Ġdepart": 4656,
    "Ġwitnessed": 14846,
    "shore": 10309,
    "cannibals": 25584,
    "Ġaffectionately": 13170,
    "Ġrapidly": 3346,
    "Ġmournfully": 20119,
    "Ġremonstrate": 22797,
    "Ġyouthful": 16724,
    "Ġsigned": 11180,
    "appe": 2946,
    "Ġrequesting": 24632,
    "Ġthree": 1370,
    "Ġbalancing": 2428,
    "abern": 21793,
    "indef": 17736,
    "clouded": 20333,
    "Ġdefinite": 11072,
    "such": 3082,
    "Ġassociated": 12253,
    "tie": 21070,
    "Ġfurniture": 6477,
    "Ġgeneralization": 987,
    "Ġpasture": 14543,
    "zetts": 17715,
    "Ġhaul": 11696,
    "Ġworse": 4718,
    "Ġplaster": 16086,
    "consideration": 14957,
    "Ġemigrant": 25859,
    "lur": 13749,
    "Ġmeasurement": 19425,
    "Ġmathematics": 12077,
    "Ġexasperated": 11415,
    "Ġspecimen": 13026,
    "veral": 2353,
    "Ġsubur": 12960,
    "breakfast": 8692,
    "atiously": 15524,
    "destro": 13314,
    "Ġbeckoning": 20504,
    "Ġgrassy": 24378,
    "Ġdepicting": 22617,
    "Ġtalker": 23373,
    "Ġdiligently": 11408,
    "Ġfogs": 25283,
    "Ġleadenhall": 16630,
    "Ġyea": 8920,
    "Ġcontempl": 6703,
    "izar": 14052,
    "Ġadmire": 5264,
    "remem": 13070,
    "Ġupstairs": 5837,
    "Ġnumerous": 6920,
    "Ġfig": 3624,
    "Ġhourly": 23304,
    "corner": 13399,
    "shud": 18488,
    "Ġcherry": 16936,
    "Ġquadrant": 11407,
    "ignant": 11132,
    "Ġcalifornian": 25852,
    "Ġeffort": 8202,
    "Ġhate": 5445,
    "Ġmaternal": 11062,
    "Ġwreaths": 25937,
    "through": 4019,
    "vember": 10858,
    "Ġarrested": 9564,
    "Ġoverhung": 15977,
    "surround": 16759,
    "Ġinvitation": 5188,
    "Ġalas": 5923,
    "Ġmusic": 5269,
    "Ġdab": 15593,
    "unavoid": 14064,
    "Ġcauldron": 25442,
    "Ġfossils": 20224,
    "Ġduke": 7756,
    "Ġobliterated": 17407,
    "Ġoffended": 7042,
    "Ġ82": 24457,
    "Ġalbatross": 10874,
    "Ġobjectionable": 16992,
    "Ġissu": 6255,
    "Ġtrait": 23077,
    "kicked": 20944,
    "Ġhapless": 15815,
    "Ġbreak": 2871,
    "sively": 13788,
    "copyright": 5278,
    "ientific": 6549,
    "_?âĢĿ": 15308,
    "Ġmeets": 7396,
    "Ġyour": 636,
    "undertaking": 23788,
    "Ġwillingness": 24910,
    "bonnet": 25742,
    "Ġchambers": 16800,
    "Ġbillows": 7503,
    "Ġzigzag": 26273,
    "Ġstatements": 7517,
    "Ġemph": 14526,
    "Ġarab": 7823,
    "Ġmask": 1868,
    "Ġsuffers": 2975,
    "i": 77,
    "Ġcollapsed": 15084,
    "hastened": 16846,
    "rougham": 15996,
    "Ġramsgate": 18648,
    "ctu": 5087,
    "Ġunwritten": 22037,
    "Ġbewitched": 25975,
    "Ġ13": 6720,
    "Ġwines": 21289,
    "Ġweighing": 20018,
    "Ġlens": 8439,
    "daw": 17523,
    "Ġsurm": 7477,
    "Ġbang": 17855,
    "Ġimparts": 18446,
    "Ġcountry": 2535,
    "Ġsurely": 6309,
    "Ġconvey": 9985,
    "9": 29,
    "Ġpublisher": 24067,
    "backs": 9395,
    "Ġnich": 21522,
    "Ġdelighted": 5499,
    "Ġmatlock": 18801,
    "Ġclipping": 2437,
    "Ġburnwell": 13270,
    "Ġprofane": 13154,
    "Ġpersian": 11097,
    "Ġdrops": 9036,
    "Ġcod": 8413,
    "call": 8727,
    "Ġsighs": 22711,
    "Ġcalf": 16269,
    "Ġfreshness": 23990,
    "Ġwhim": 14001,
    "susp": 10600,
    "Ġdaniel": 15114,
    "Ġundergo": 23238,
    "88": 20759,
    "Ġork": 18284,
    "relapse": 24018,
    "acon": 10685,
    "Ġwaning": 15536,
    "disreputable": 23504,
    "Ġtearless": 24784,
    "Ġparts": 4162,
    "bug": 17494,
    "have": 2058,
    "arrant": 10477,
    "Ġembrace": 16991,
    "concerning": 9071,
    "Ġimpetuously": 20374,
    "Ġbasket": 9576,
    "Ġvile": 8475,
    "Ġstaple": 26199,
    "Ġmuseum": 15274,
    "contr": 12060,
    "enstein": 5800,
    "Ġphaet": 16320,
    "Ġcarav": 18902,
    "Ġsiberia": 26161,
    "patched": 17644,
    "hereabouts": 23607,
    "Ġcategorization": 12140,
    "Ġassumed": 9469,
    "Ġfastidious": 14493,
    "Ġconductor": 24009,
    "iloqu": 11651,
    "image": 9690,
    "Ġshells": 20366,
    "Ġguid": 2637,
    "clothes": 9061,
    "Ġsubterr": 10353,
    "industrious": 26240,
    "necessary": 5883,
    "Ġmurmured": 7481,
    "Ġuncont": 14118,
    "Ġyoungster": 23182,
    "Ġserenity": 10032,
    "Ġdome": 15594,
    "cursed": 23846,
    "irements": 22215,
    "kill": 13746,
    "Ġinflict": 15002,
    "Ġpersuas": 23949,
    "Ġherd": 7888,
    "Ġratio": 5065,
    "race": 11635,
    "Ġtransformer": 2635,
    "axed": 8893,
    "Ġhours": 2822,
    "Ġatonement": 21945,
    "reproof": 25433,
    "Ġfaculties": 14960,
    "incident": 14592,
    "Ġbut": 424,
    "Ġcrust": 21353,
    "Ġfab": 15579,
    "Ġempty": 5354,
    "Ġtribe": 10754,
    "assured": 10955,
    "unavoidable": 17392,
    "Ġundeserving": 18268,
    "Ġscare": 18397,
    "Ġespecially": 3933,
    "output": 4400,
    "Ġsatur": 1930,
    "Ġhistorical": 3645,
    "mody": 16188,
    "Ġfagged": 17883,
    "Ġboxes": 13376,
    "Ġcomplet": 4421,
    "althy": 8433,
    "Ġterrify": 19363,
    "ornament": 23489,
    "uits": 21106,
    "Ġbenjamin": 26568,
    "Ġcompliment": 5673,
    "uts": 8821,
    "faced": 8080,
    "run": 10724,
    "Ġunreasoning": 15848,
    "enjoy": 10777,
    "Ġmont": 8563,
    "Ġcomputes": 4767,
    "lantic": 6365,
    "ineer": 11706,
    "Ġinnumerable": 13354,
    "ieves": 4001,
    "ckles": 22097,
    "vineyard": 25422,
    "Ġcircular": 13113,
    "taffrail": 15444,
    "Ġninetieth": 25358,
    "Ġconnect": 796,
    "Ġsummary": 19406,
    "Ġhear": 1964,
    "Ġkept": 3345,
    "elze": 21575,
    "Ġprofoundly": 16860,
    "mountains": 15183,
    "Ġmorrow": 9347,
    "Ġnewspapers": 17188,
    "cas": 20795,
    "rubbed": 22183,
    "Ġrecomm": 4995,
    "Ġmarry": 4416,
    "Ġspecks": 14310,
    "Ġkirwin": 8499,
    "alescence": 15925,
    "forest": 22521,
    "Ġslung": 23171,
    "Ġkitty": 3906,
    "Ġaccounting": 14574,
    "Ġderick": 9369,
    "Ġscener": 10952,
    "Ġalt": 18100,
    "sway": 15426,
    "aset": 10835,
    "plenty": 14090,
    "Ġaverage": 3138,
    "scissors": 20728,
    "interests": 19710,
    "Ġvoices": 7876,
    "Ġbricks": 13565,
    "Ġmacro": 25939,
    "particulars": 11318,
    "Ġsuppressing": 23003,
    "Ġmistaking": 23720,
    "fold": 7547,
    "Ġconviction": 6328,
    "Ġislanders": 19504,
    "Ġpagans": 16923,
    "Ġretort": 23073,
    "vis": 4577,
    "Ġabode": 7900,
    "Ġgarments": 15196,
    "Ġsallied": 12541,
    "how": 1641,
    "Ġunfeeling": 14121,
    "pol": 5894,
    "Ġtou": 15468,
    "osed": 1960,
    "ssible": 2993,
    "Ġconjured": 25101,
    "Ġclutching": 24953,
    "mm": 676,
    "what": 643,
    "Ġknocked": 9504,
    "Ġwarmer": 19187,
    "bul": 6951,
    "brace": 16943,
    "inexplicable": 25809,
    "asional": 17961,
    "reat": 619,
    "Ġsuperflu": 14554,
    "Ġbreeding": 14523,
    "Ġworlds": 11950,
    "Ġdreading": 23799,
    "phren": 22767,
    "scar": 9820,
    "Ġsafety": 6341,
    "Ġlashed": 9202,
    "Ġsevered": 18205,
    "featured": 24149,
    "sailor": 14717,
    "dling": 15342,
    "Ġdestro": 3721,
    "Ġwhirled": 14962,
    "Ġbrig": 11050,
    "distinct": 13338,
    "Ġamerican": 5060,
    "rece": 21236,
    "Ġnumber": 1980,
    "Ġfort": 2580,
    "Ġjollity": 25567,
    "Ġpositions": 2057,
    "Ġnasty": 17445,
    "+": 15,
    "Ġimagined": 8611,
    "Ġtelegra": 11895,
    "Ġperplex": 2714,
    "Ġslightly": 7293,
    "Ġadmeasurements": 26226,
    "fowl": 17550,
    "Ġunder": 1633,
    "Ġyourself": 2594,
    "Ġlip": 6534,
    "Ġfifteen": 6947,
    "Ġretreated": 13435,
    "Ġspade": 9263,
    "Ġdismasted": 15254,
    "Ġgilded": 17447,
    "Ġmockery": 12111,
    "ian": 1235,
    "Ġgrass": 5177,
    "ascribed": 24706,
    "end": 506,
    "prise": 7727,
    "Ġpupp": 10823,
    "Ġseemed": 1275,
    "Ġintellig": 524,
    "olerably": 11676,
    "swaying": 25910,
    "velling": 14764,
    "Ġwavering": 23281,
    "Ġpertaining": 18450,
    "ti": 8390,
    "Ġdesist": 16240,
    "Ġfishe": 15589,
    "Ġfuture": 1140,
    "knife": 6942,
    "Ġdifferen": 936,
    "Ġexaggerate": 25649,
    "Ġsecurely": 16803,
    "ustom": 3788,
    "vengeance": 13359,
    "wick": 5363,
    "Ġremain": 1875,
    "any": 3337,
    "tern": 4221,
    "Ġsling": 21222,
    "Ġdrifting": 19280,
    "Ġjem": 18402,
    "Ġknives": 14839,
    "Ġindex": 17049,
    "writes": 4987,
    "resses": 16156,
    "uss": 8768,
    "Ġdictionaries": 12343,
    "Ġincluding": 2854,
    "Ġconfeder": 25707,
    "back": 2017,
    "comm": 7440,
    "cles": 8730,
    "Ġretarded": 23075,
    "Ġropes": 10751,
    "Ġjonah": 3480,
    "Ġbones": 4583,
    "ivility": 12787,
    "ack": 618,
    "Ġfringed": 17274,
    "Ġexpedition": 10638,
    "gallery": 24693,
    "nay": 7137,
    "Ġsuppressed": 11914,
    "Ġsolomon": 11055,
    "ĠâĢľâĢĺ": 8506,
    "whalers": 17265,
    "shad": 10984,
    "tackle": 17323,
    "windward": 24162,
    "Ġweighty": 16034,
    "vicinity": 20482,
    "Ġgrope": 17996,
    "lane": 10709,
    "racted": 4773,
    "Ġsing": 3073,
    "Ġpouch": 21471,
    "Ġmotives": 7487,
    "Ġboasted": 16109,
    "Ġhelmsman": 10508,
    "got": 6955,
    "Ġdiv": 3730,
    "Ġrattled": 15069,
    "iple": 4805,
    "Ġclair": 6271,
    "sius": 13790,
    "Ġdisposed": 7085,
    "Ġjustification": 22975,
    "raint": 18317,
    "Ġadieu": 10055,
    "pine": 13771,
    "sockets": 22730,
    "ogrand": 26262,
    "mar": 4333,
    "Ġmidst": 7986,
    "Ġenemies": 9042,
    "Ġsubject": 2461,
    "Ġbeckoned": 25793,
    "Ġmoist": 9289,
    "Ġpunchbowl": 20233,
    "Ġchestnuts": 24380,
    "ciousness": 20818,
    "unbounded": 21888,
    "Ġenslaved": 26314,
    "wa": 5898,
    "rop": 543,
    "Ġrepenting": 25323,
    "cr": 4008,
    "ribly": 8255,
    "beryls": 25310,
    "leag": 21368,
    "Ġfulfilled": 11365,
    "Ġburgled": 23654,
    "Ġbosoms": 16796,
    "posterity": 25489,
    "vable": 10136,
    "observation": 17271,
    "Ġvacant": 9499,
    "Ġcalmer": 23044,
    "Ġable": 3080,
    "Ġbewit": 15731,
    "Ġlift": 8816,
    "Ġminiatures": 20323,
    "Ġspoilt": 24803,
    "Ġmarlingspike": 26580,
    "800": 17478,
    "sixteen": 24853,
    "Ġfraud": 19055,
    "retch": 4370,
    "Ġselection": 18204,
    "Ġrafters": 22658,
    "Ġcombination": 22850,
    "Ġhardly": 2430,
    "Ġpatronage": 17053,
    "ription": 5676,
    "scotland": 20531,
    "oke": 1861,
    "Ġassisting": 13259,
    "Ġkingdom": 12022,
    "âĢĶ_": 3202,
    "_âĢĶâĢĿ": 20764,
    "una": 21872,
    "Ġensu": 7875,
    "Ġmogul": 12866,
    "continu": 5501,
    "Ġattend": 5034,
    "Ġwildness": 14604,
    "Ġrus": 14094,
    "Ġinterlacing": 22579,
    "Ġzer": 1092,
    "rudential": 16710,
    "conf": 4956,
    "move": 11857,
    "arth": 4442,
    "Ġbristling": 20529,
    "Ġunhappiness": 14120,
    "Ġdiscol": 12956,
    "covered": 11480,
    "contrasted": 17308,
    "inion": 2878,
    "Ġoak": 6130,
    "hoist": 23715,
    "Ġlanc": 19766,
    "ought": 830,
    "Ġfifty": 4623,
    "Ġbounds": 9922,
    "Ġdistinctly": 7311,
    "Ġsupplies": 20328,
    "Ġiceberg": 14718,
    "ø": 185,
    "oregressive": 3423,
    "Ġdutch": 6329,
    "Ġsou": 1889,
    "Ġpres": 9736,
    "Ġwo": 3650,
    "Ġabundant": 17156,
    "easy": 9596,
    "Ġflooring": 23624,
    "Ġobliging": 13245,
    "Ġwork": 1344,
    "Ġcreativity": 3023,
    "Ġcrown": 5289,
    "mblings": 19782,
    "Ġglo": 1712,
    "linked": 17594,
    "provoke": 26071,
    "Ġforming": 7044,
    "Ġheathen": 10569,
    "Ġexhibited": 9548,
    "Ġtried": 3647,
    "Ġtrod": 15028,
    "stopping": 19352,
    "Ġrepay": 19082,
    "brated": 12030,
    "Ġmonosy": 18851,
    "Ġwarehouses": 20420,
    "bethinking": 25745,
    "Ġinquire": 7720,
    "thither": 21986,
    "Ġtong": 4870,
    "dying": 15343,
    "Ġsafer": 22173,
    "Ġsped": 22128,
    "a": 69,
    "Ġcolumb": 22858,
    "Ġmanx": 7905,
    "inte": 5144,
    "Ġwithstand": 10228,
    "inglass": 21304,
    "iscre": 17851,
    "eat": 11486,
    "Ġobtaining": 16135,
    "Â£": 4811,
    "sister": 5139,
    "Ġentreaty": 10533,
    "Ġpetticoat": 15298,
    "prophet": 16186,
    "itted": 2438,
    "Ġrespecting": 14485,
    "Ġtinted": 13824,
    "heav": 5694,
    "Ġtranquo": 14845,
    "deliberated": 26118,
    "jure": 20925,
    "Ġrespectful": 16348,
    "Ġwounds": 17791,
    "Ġoffence": 12948,
    "sch": 21052,
    "Ġaccounted": 10298,
    "Ġresources": 2939,
    "Ġpersu": 3563,
    "Ġpretended": 19315,
    "Ġwarrant": 17795,
    "yards": 9627,
    "ris": 9141,
    "Ġacquaintances": 17352,
    "Ġtahitian": 25428,
    "tem": 6370,
    "Ġyaw": 18096,
    "Ġdimens": 3149,
    "Ġstorm": 4298,
    "new": 1468,
    "grass": 23414,
    "neurons": 3134,
    "Ġsolar": 22886,
    "sculptured": 26046,
    "ract": 935,
    "Ġoccurring": 2793,
    "Ġhearty": 9850,
    "Ġcuriously": 13015,
    "Ġprocess": 566,
    "onde": 21253,
    "Ġhal": 1362,
    "ff": 461,
    "Ġcleared": 6076,
    "Ġaltogether": 4831,
    "Ġheap": 12682,
    "ching": 5156,
    "sec": 6154,
    "Ġdeck": 2137,
    "Ġlost": 2634,
    "Ġevolve": 3002,
    "requent": 3649,
    "ges": 2876,
    "Ġmosses": 20165,
    "overing": 6308,
    "ught": 2750,
    "Ġdesc": 772,
    "Ġunchanged": 22034,
    "Ġimag": 2674,
    "Ġemployer": 19434,
    "Ġenjoyments": 24020,
    "wear": 22685,
    "americ": 8156,
    "zor": 15460,
    "asiness": 8129,
    "Ġvanished": 6874,
    "Ġsuccessfully": 19431,
    "Ġonly": 786,
    "urance": 10860,
    "Ġcompare": 9306,
    "Ġpen": 1531,
    "Ġrigid": 16717,
    "Ġseize": 8166,
    "Ġbegun": 7243,
    "englishman": 23679,
    "neys": 23583,
    "Ġloafer": 18299,
    "whales": 5187,
    "turns": 14908,
    "Ġimmured": 24072,
    "chery": 24550,
    "Ġwaste": 9238,
    "Ġtobacc": 7853,
    "ot": 346,
    "Ġincorporate": 20456,
    "Ġgri": 17989,
    "Ġstone": 4645,
    "Ġmonument": 16241,
    "engagement": 14461,
    "unsupervised": 10892,
    "Ġtaller": 16688,
    "Ġhideousness": 16916,
    "Ġuplifted": 11650,
    "luent": 15999,
    "Ġthomson": 26455,
    "Ġfibres": 12954,
    "relieved": 13278,
    "oc": 2837,
    "aming": 5829,
    "Ġprogramming": 1183,
    "acquaintance": 6938,
    "Ġpleases": 16301,
    "vers": 1329,
    "Ġheroes": 10580,
    "Ġrays": 10334,
    "likely": 9027,
    "ice": 586,
    "Ġdaresay": 14706,
    "centred": 25019,
    "Ġbits": 11592,
    "Ġjealousy": 13579,
    "Ġgoat": 16009,
    "bowl": 14893,
    "urmount": 13997,
    "Ġdais": 24371,
    "startled": 24943,
    "Ġmagnified": 23205,
    "Ġhedgehog": 10648,
    "Ġactions": 6280,
    "Ġgenerating": 12855,
    "giana": 7801,
    "Ġdiscomposed": 25580,
    "Ġascend": 9964,
    "Ġlamb": 8818,
    "ail": 565,
    "Ġhenry": 5197,
    "cle": 3952,
    "drove": 16994,
    "god": 4863,
    "Ġpiping": 23247,
    "Ġblackest": 19099,
    "dismal": 23498,
    "Ġdigging": 14940,
    "Ġrefers": 1563,
    "gained": 20882,
    "Ġneck": 4885,
    "conspicuous": 26248,
    "Ġcautious": 12257,
    "Ġraiment": 22654,
    "Ġchemist": 11137,
    "rodu": 1817,
    "Ġbeats": 21755,
    "Ġnecessitates": 23932,
    "Ġcaved": 21355,
    "Ġundone": 24118,
    "pent": 3493,
    "Ġfainted": 8797,
    "Ġunsupplied": 22046,
    "inement": 11561,
    "Ġcharmingly": 24223,
    "cousin": 10656,
    "Ġuncles": 23432,
    "Ġtrouble": 3690,
    "xology": 21143,
    "Ġcovariate": 2350,
    "dispositions": 25013,
    "quarters": 24948,
    "Ġproblem": 1267,
    "Ġsummer": 4789,
    "Ġregiment": 6433,
    "brimming": 23578,
    "ò": 179,
    "Ġcounty": 9034,
    "adam": 15733,
    "Ġluxuries": 25167,
    "Ġfancy": 3744,
    "ushion": 14722,
    "inted": 2647,
    "Ġrash": 10901,
    "prov": 16425,
    "gang": 17554,
    "tar": 8098,
    "Ġfreshet": 25703,
    "Ġwidow": 8667,
    "calculating": 25689,
    "pen": 1203,
    "paus": 13775,
    "Ġheredit": 9220,
    "Ġrese": 2292,
    "iquette": 26132,
    "Ġwinc": 9646,
    "Ġdeclining": 23966,
    "Ġcomforter": 20509,
    "tch": 9145,
    "Ġpursuers": 13229,
    "Ġstaggers": 24653,
    "Ġsnail": 19301,
    "Ġploughing": 26260,
    "....": 11319,
    "Ġunperceived": 22040,
    "Ġconjure": 17125,
    "Ġbel": 1215,
    "Ġgeneral": 1863,
    "Ġeffeminacy": 20719,
    "Ġhush": 13213,
    "Ġhumped": 19771,
    "Ġsob": 12788,
    "isions": 6132,
    "Ġcommonplace": 11100,
    "Ġdetermine": 3246,
    "Ġgans": 5822,
    "Ġsoft": 1461,
    "Ġstat": 1491,
    "Ġremoving": 12120,
    "engines": 18929,
    "Ġcriminals": 19923,
    "Ġ75": 19614,
    "ĠĠĠĠĠĠĠĠĠĠĠĠĠĠĠĠĠĠĠĠĠĠĠĠĠĠĠĠĠĠĠĠĠĠĠĠĠĠĠĠĠĠĠĠĠĠĠĠĠĠĠĠĠ": 20042,
    "hamed": 6307,
    "Ġrecovered": 5481,
    "iltrated": 19307,
    "dissemble": 23493,
    "Ġoverflowing": 17239,
    "Ġjost": 23631,
    "Ġshipmate": 8933,
    "Ġdelineate": 26057,
    "wheel": 22873,
    "Ġinsertion": 26344,
    "Ġtun": 6000,
    "Ġbow": 3059,
    "Ġfishers": 19356,
    "unch": 14060,
    "iqu": 7803,
    "Ġfumbling": 21419,
    "Ġfanned": 19100,
    "Ġcleansed": 26294,
    "Ġdepend": 803,
    "Ġrapturously": 24888,
    "Ġfrench": 4938,
    "Ġcow": 13878,
    "Ġinsol": 10184,
    "Ġabandoned": 8352,
    "Ġdestined": 7974,
    "conscience": 14862,
    "Ġvintage": 26210,
    "Ġdesired": 4664,
    "Ġfishy": 16524,
    "Ġmissing": 6177,
    "unworthy": 18163,
    "feed": 9297,
    "ostentatious": 20653,
    "Ġunconditional": 15847,
    "Ġobstetrics": 24678,
    "urg": 8142,
    "Ġfrown": 10810,
    "movable": 14326,
    "Ġbreaching": 23349,
    "ichever": 13959,
    "Ġactive": 7915,
    "Ġbritish": 11340,
    "Ġbrowne": 13304,
    "Ġapo": 9634,
    "pain": 7350,
    "ashed": 3783,
    "preserve": 25304,
    "Ġobliv": 16136,
    "Ġbreathlessly": 24282,
    "Ġwarehouse": 20419,
    "masculine": 24386,
    "Ġbullion": 24985,
    "Ġchiselled": 25560,
    "Ġbewildered": 15216,
    "parlour": 16389,
    "Ġwebster": 20163,
    "Ġapplication": 2154,
    "Ġbarrow": 12073,
    "wra": 11545,
    "Ġbountiful": 25944,
    "Ġclothing": 18424,
    "Ġiroquois": 26473,
    "Ġinestimable": 17444,
    "mental": 16050,
    "Ġminimum": 23042,
    "Ġoccup": 3738,
    "dered": 2471,
    "Ġunbelief": 22052,
    "Ġbri": 21380,
    "mushroom": 26396,
    "repro": 10773,
    "Ġtries": 9154,
    "blending": 24129,
    "Ġfuller": 11159,
    "delights": 19703,
    "hau": 17563,
    "allies": 14167,
    "mingled": 14715,
    "Ġigniting": 25072,
    "Ġconsult": 6058,
    "Ġgentlemen": 3642,
    "Ġvul": 10251,
    "Ġrepaid": 19083,
    "power": 7138,
    "nne": 20990,
    "lemagne": 26437,
    "Ġleisurely": 24744,
    "Ġgirdled": 19160,
    "Ġcumul": 4176,
    "Ġobliter": 14324,
    "leave": 7837,
    "pointed": 9812,
    "Ġanalyze": 1545,
    "Ġheadway": 18793,
    "use": 2538,
    "Ġcheever": 23285,
    "eronomy": 15527,
    "Ġtime": 690,
    "bern": 20776,
    "fill": 15353,
    "Ġbackbone": 22662,
    "enderby": 25216,
    "Ġfly": 3866,
    "farewell": 12309,
    "Ġmisunderstand": 18700,
    "teak": 22818,
    "exception": 9980,
    "Ġprediction": 2236,
    "Ġsnap": 11204,
    "Ġturbulence": 26598,
    "Ġthousand": 2783,
    "99": 1896,
    "Ġtradesmen": 17105,
    "Ġachieve": 3673,
    "former": 11752,
    "across": 10328,
    "Ġhookah": 16971,
    "Ġafterwards": 3531,
    "itely": 5365,
    "peculiarity": 23112,
    "Ġcontemplated": 13466,
    "Ġtool": 21513,
    "northern": 23668,
    "Ġfronts": 19002,
    "Ġceases": 19314,
    "started": 10848,
    "Ġseries": 7062,
    "birds": 15147,
    "lected": 1635,
    "bourne": 19103,
    "Ġutensils": 23516,
    "Ġdeeply": 4716,
    "Ġhandle": 3136,
    "borrowed": 20793,
    "Ġwreck": 7314,
    "Ġslumber": 13063,
    "precious": 12076,
    "ith": 330,
    "enchant": 21285,
    "Ġhiding": 9827,
    "Ġraised": 4660,
    "Ġvelvets": 25394,
    "charitable": 23935,
    "Ġblunder": 18819,
    "Ġsteadfastly": 10655,
    "Ġrefreshed": 15294,
    "raltar": 24235,
    "Ġjets": 10291,
    "Ġprosperity": 20260,
    "Ġsepar": 3995,
    "Ġhissed": 15792,
    "Ġsour": 21218,
    "Ġno": 510,
    "tea": 18740,
    "Ġcarve": 23095,
    "ationally": 15708,
    "jol": 20926,
    "Ġcasc": 15559,
    "Ġsomnam": 23007,
    "Ġtestimony": 14477,
    "Ġperiodically": 19496,
    "Ġbelief": 5857,
    "prejud": 11800,
    "Ġpir": 6818,
    "Ġprovides": 1929,
    "Ġsenseless": 12082,
    "hibited": 17429,
    "Ġmaimed": 21318,
    "Ġtrading": 23081,
    "lessness": 5318,
    "Ġelevated": 7318,
    "Ġpapers": 4017,
    "sof": 17658,
    "Ġbarred": 9006,
    "ists": 3996,
    "Ġprophes": 16351,
    "ben": 4926,
    "Ġstayed": 7998,
    "Ł": 258,
    "teness": 23206,
    "rumours": 23923,
    "Ġexecution": 6927,
    "twinkle": 23705,
    "Ġmultimodal": 18748,
    "Ġdisinclination": 22539,
    "blown": 25202,
    "Ġpoured": 8806,
    "anywhere": 14683,
    "ituted": 13875,
    "Ġhorses": 6386,
    "3": 23,
    "neglected": 25669,
    "Ġmoon": 4608,
    "Ġsuite": 18280,
    "frantic": 24284,
    "Ġlaz": 7378,
    "Ġreveal": 11203,
    "hill": 15365,
    "Ġeasiness": 23539,
    "appointment": 24061,
    "Ġproportional": 2526,
    "Ġscimet": 22296,
    "Ġgoethe": 22425,
    "fluttering": 23975,
    "Ġrepose": 6743,
    "afforded": 25865,
    "then": 2053,
    "Ġstability": 1363,
    "Ġbeliefs": 24582,
    "add": 5229,
    "notches": 22752,
    "cares": 24310,
    "Ġpockets": 8900,
    "Ġkicks": 19770,
    "Ġbriefly": 11370,
    "Ġsheltered": 19912,
    "Ġleghorn": 13148,
    "Ġtrusty": 24105,
    "Ġsquire": 16182,
    "Ġarmada": 23581,
    "bert": 4662,
    "Ġmusty": 22682,
    "girdling": 26390,
    "Ġagreeing": 20021,
    "ener": 562,
    "Ġimpulse": 10028,
    "rice": 13779,
    "-------": 20391,
    "Ġembod": 14412,
    "cried": 8729,
    "commanded": 16989,
    "assault": 22309,
    "Ġmour": 6974,
    "Ġfunction": 596,
    "ucumber": 19061,
    "ance": 478,
    "Ġexagger": 12722,
    "anced": 1319,
    "etween": 774,
    "hab": 1078,
    "Ġfasc": 12602,
    "warm": 8102,
    "ked": 5616,
    "impression": 15714,
    "architect": 22905,
    "standers": 18478,
    "the": 335,
    "Ġproble": 1110,
    "magnetic": 20554,
    "Ġcorpore": 13403,
    "Ġcraven": 16471,
    "Ġbring": 3323,
    "Ġsounds": 5190,
    "whiskers": 12314,
    "Ġcrimin": 6901,
    "Ġardent": 9974,
    "aired": 8369,
    "Ġvict": 3760,
    "Ġassisted": 11114,
    "Ġgentlemanlike": 12070,
    "Ġdrag": 6186,
    "Ġcustom": 5077,
    "Ġlinen": 12410,
    "Ġsupple": 23001,
    "Ġtens": 17724,
    "acquainted": 7313,
    "Ġempire": 11148,
    "Ġfake": 5811,
    "Ġunusually": 15849,
    "Ġangry": 5498,
    "Ġbattery": 21396,
    "ole": 9617,
    "Ġmajor": 13294,
    "Ġmoot": 22435,
    "Ġbreathe": 9016,
    "Ġsandwic": 24664,
    "wholly": 10944,
    "Ġsyllables": 25299,
    "Ġdie": 3958,
    "Ġfashion": 4295,
    "Ġwondrous": 4734,
    "shining": 18490,
    "osures": 22263,
    "Ġhinted": 6013,
    "Ġdismissed": 12896,
    "Ġaberdeen": 26542,
    "Ġvisage": 18781,
    "Ġpatch": 4178,
    "bask": 20777,
    "obed": 14448,
    "Ġpads": 21476,
    "archangel": 18796,
    "Ġhowl": 12858,
    "Ġpassive": 22841,
    "rolling": 9064,
    "Ġrol": 3555,
    "Ġurged": 6782,
    "ck": 437,
    "aw": 1450,
    "Ġeloquence": 11845,
    "Ġhumans": 8934,
    "impatience": 25501,
    "Ġoceans": 7996,
    "Ġgrie": 3583,
    "Ġmore": 677,
    "Ġposs": 1616,
    "Ġawkwardness": 13489,
    "Ġindian": 4129,
    "aned": 5147,
    "Ġentity": 10346,
    "impulse": 20646,
    "Ġtum": 5692,
    "Ġvultures": 25653,
    "lads": 20956,
    "Ġaddressing": 11167,
    "chambers": 25455,
    "Ġcoloured": 11048,
    "Ġcoburg": 18593,
    "vast": 10739,
    "Ġdreamt": 23941,
    "iliary": 21729,
    "Ġspoon": 22137,
    "istics": 1628,
    "ault": 2308,
    "holder": 13285,
    "approve": 19939,
    "Ġberg": 24535,
    "eld": 977,
    "Ġyankees": 26202,
    "imagination": 13482,
    "Ġrosings": 4607,
    "Ġversion": 10634,
    "Ġportents": 14680,
    "feit": 16045,
    "atig": 13847,
    "Ġheat": 5453,
    "Ġfleece": 10618,
    "fingers": 17372,
    "Ġinforming": 18743,
    "Ġlavenza": 17972,
    "branch": 23579,
    "ousand": 2427,
    "Ġdelights": 14597,
    "Ġencountering": 11272,
    "Ġwasted": 9708,
    "oted": 4597,
    "Ġgrosvenor": 17420,
    "Ġshake": 6035,
    "sent": 761,
    "Ġsequential": 2131,
    "roman": 22007,
    "Ġpers": 1398,
    "dashing": 20837,
    "Ġlicensing": 20095,
    "kee": 18273,
    "Ġmighty": 4227,
    "times": 8099,
    "Ġintercepted": 25827,
    "attent": 9364,
    "Ġhearken": 21687,
    "Ġball": 3623,
    "paint": 21019,
    "Ġparish": 8859,
    "Ġdoor": 1739,
    "Ġrefresh": 10350,
    "Ġgrec": 18960,
    "Ġfighting": 12201,
    "Ġinheriting": 25355,
    "Ġwhatsoever": 18455,
    "Ġsuggestive": 11300,
    "Ġodious": 12154,
    "Ġsolemn": 4099,
    "Ġhoot": 19077,
    "Ġsadness": 13289,
    "Ġmemo": 18120,
    "Ġincognita": 26552,
    "Ġexordium": 26493,
    "sis": 1836,
    "Ġpoky": 21481,
    "Ġtort": 5903,
    "Ġapology": 8328,
    "Ġwool": 19435,
    "Ġconsc": 4271,
    "iza": 6257,
    "Ġexasper": 8469,
    "Ġcongreg": 8464,
    "Ġcharity": 8867,
    "guilty": 19485,
    "Ġpalpitated": 26085,
    "ufactured": 15184,
    "Ġfacts": 2286,
    "putation": 7626,
    "guinea": 16674,
    "Ġvengeful": 14892,
    "longbourn": 9899,
    "tps": 11538,
    "represent": 9641,
    "Ġsmiling": 5474,
    "angle": 22107,
    "Ġmissionary": 25696,
    "Ġharriet": 24572,
    "Ġxxiv": 24476,
    "acious": 5562,
    "Ġmenaces": 23109,
    "rrh": 26144,
    "Ġmerited": 23732,
    "alterable": 13627,
    "Ġdeer": 12724,
    "Ġpugn": 21482,
    "Ġincess": 8432,
    "oam": 8756,
    "correspond": 13400,
    "Ġtown": 2452,
    "Ġunbroken": 18250,
    "tiest": 21083,
    "Ġremnants": 22796,
    "sincere": 16908,
    "Ġimproper": 22754,
    "Ġrespect": 1668,
    "Ġdo": 511,
    "silence": 8045,
    "Ġthom": 21518,
    "Ġcost": 2505,
    "Ġsp": 457,
    "Ġpretending": 19316,
    "Ġlandsc": 11149,
    "Ġomitted": 12568,
    "Ġcracking": 14575,
    "justine": 7684,
    "atically": 2814,
    "ning": 951,
    "ieth": 10707,
    "Ġweek": 2830,
    "Ġskul": 22798,
    "Ġpractically": 13097,
    "shazzar": 15292,
    "intim": 22936,
    "airs": 2217,
    "Ġresemblance": 7978,
    "Ġbecher": 18879,
    "Ġloitered": 26526,
    "Ġthing": 1637,
    "Ġrespectively": 23250,
    "Ġintend": 12768,
    "Ġdes": 1247,
    "woman": 5900,
    "Ġgathers": 24741,
    "Ġeverything": 3155,
    "fulfil": 16040,
    "illes": 12698,
    "hetic": 12207,
    "impregnable": 26482,
    "Ġsink": 4338,
    "Ġpals": 13920,
    "bunger": 20404,
    "uck": 1231,
    "quaker": 15766,
    "analy": 17839,
    "Ġ14": 9327,
    "Ġaunt": 3178,
    "recursion": 13331,
    "Ġpurchase": 12263,
    "Ġreg": 731,
    "loved": 14252,
    "Ġtumb": 21171,
    "Ġ=": 1075,
    "Ġfrontispiece": 23916,
    "Ġhyena": 24518,
    "ancing": 1759,
    "darkness": 9516,
    "Ġdisgraceful": 15021,
    "stee": 21653,
    "Ġmodes": 22216,
    "lingering": 18601,
    "Ġmax": 2007,
    "Ġformidable": 8220,
    "Ġheels": 10853,
    "sli": 11526,
    "Ġcured": 21349,
    "lengthwise": 19952,
    "Ġray": 18642,
    "Ġere": 3685,
    "erm": 785,
    "Ġimbued": 17457,
    "aneously": 4055,
    "young": 7321,
    "arising": 17889,
    "ulum": 21866,
    "Ġwin": 9645,
    "planks": 21957,
    "Ġquestion": 2778,
    "Ġdropping": 7484,
    "Ġbec": 1351,
    "nable": 13764,
    "Ġcongealed": 25981,
    "Ġopinions": 9419,
    "Ġspeedy": 11175,
    "prisoner": 20545,
    "Ġinclined": 6625,
    "astonished": 15034,
    "Ġfigured": 16645,
    "Ġstable": 2697,
    "Ġcryst": 9921,
    "midnight": 14904,
    "Ġlees": 18064,
    "urs": 6990,
    "super": 5945,
    "Ġtower": 8319,
    "mature": 20968,
    "Ġsymptom": 13485,
    "Ġhind": 9192,
    "shuff": 18489,
    "prevented": 20376,
    "Ġtamer": 24978,
    "cture": 15668,
    "moid": 2447,
    "Ġdisadvantages": 18558,
    "Ġgamesome": 17291,
    "Ġattain": 12751,
    "Ġbecomes": 6397,
    "Ġunrestrained": 25555,
    "irwin": 8471,
    "Ġrepro": 7275,
    "Ġdep": 755,
    "Ġstuffed": 13411,
    "gra": 769,
    "understood": 13218,
    "authority": 13594,
    "Ġhath": 12632,
    "Ġprompted": 23818,
    "express": 4895,
    "Ġ181": 23898,
    "Ġvent": 3993,
    "Ġprecipices": 12281,
    "Ġdata": 519,
    "Ġwit": 3839,
    "Ġghostly": 24650,
    "melancholy": 12356,
    "transom": 19737,
    "ateral": 19379,
    "mist": 5686,
    "locked": 7679,
    "Ġcataract": 23429,
    "butt": 15997,
    "Ġlively": 5449,
    "Ġvertical": 16605,
    "rupt": 3211,
    "ect": 381,
    "Ġmistaken": 4985,
    "achusetts": 20711,
    "Ġspurn": 18309,
    "urring": 21707,
    "ercely": 12554,
    "silly": 24421,
    "Ġhurled": 10432,
    "Ġfeverish": 11351,
    "Ġmoth": 17803,
    "clearly": 25196,
    "sig": 2877,
    "(-": 2981,
    "Ġsticks": 14933,
    "upt": 13800,
    "Ġharrow": 17927,
    "Ġoctober": 17228,
    "Ġphenomena": 21486,
    "Ġconnexion": 11457,
    "Ġpolitic": 23619,
    "Ġcollected": 2611,
    "irst": 879,
    "rants": 13780,
    "Ġseeing": 2887,
    "Ġwarned": 16881,
    "alk": 1153,
    "Ġdown": 831,
    "Ġfoot": 3162,
    "Ġvesture": 20064,
    "Ġlash": 8440,
    "ooped": 17624,
    "aste": 4601,
    "âĢĶâĢĿ": 3298,
    "Ġbundle": 13428,
    "repeating": 20131,
    "comfortableness": 24524,
    "gi": 17552,
    "forty": 9378,
    "Ġsatisf": 2808,
    "Ġdoing": 3660,
    "Ġdrama": 16331,
    "shrugged": 22458,
    "ppings": 18178,
    "Ġindulge": 10586,
    "backward": 2682,
    "etimes": 1987,
    "Ġnarrowly": 16821,
    "Ġglove": 14492,
    "constable": 24605,
    "Ġbitter": 4170,
    "native": 17612,
    "ougher": 18276,
    "Ġsimultaneous": 22590,
    "Ġeve": 13972,
    "Ġnooks": 26011,
    "v": 90,
    "bru": 12442,
    "Ġappal": 18359,
    "Ġinquirers": 24964,
    "gging": 7698,
    "ffy": 18316,
    "sherlock": 5422,
    "Ġren": 3843,
    "Ġbroad": 3639,
    "nal": 1902,
    "now": 548,
    "Ġjavel": 17084,
    "ghost": 20888,
    "Ġattained": 14080,
    "Ġ(`": 12857,
    "urean": 18125,
    "Ġproductions": 22948,
    "Ġautumnal": 19042,
    "iloquent": 21728,
    "comfort": 5647,
    "mass": 12493,
    "Ġflorida": 20660,
    "Ġserious": 4319,
    "Ġcrews": 8994,
    "Ġdirection": 1792,
    "Ġpeople": 2546,
    "Ġnow": 692,
    "turtle": 12215,
    "Ġconver": 805,
    "ousings": 18335,
    "Ġmodern": 3229,
    "shunned": 22463,
    "Ġhaught": 10256,
    "ccess": 3184,
    "Ġunparalleled": 15856,
    "Ġsim": 734,
    "Ġobed": 8539,
    "self": 616,
    "subs": 14302,
    "right": 2770,
    "Ġheight": 4217,
    "Ġe": 311,
    "kles": 17585,
    "Ġmitigating": 1617,
    "carbuncle": 26383,
    "Ġsherlock": 3890,
    "secut": 7867,
    "utmost": 21590,
    "violence": 16479,
    "Ġdiabol": 11456,
    "Ġpredestinated": 18517,
    "Ġappeal": 16317,
    "Ġunicorn": 22060,
    "Ġtenderly": 11317,
    "Ġstart": 3259,
    "Ġcowards": 12577,
    "Ġenemy": 5605,
    "Ġtend": 6122,
    "Ġpro": 362,
    "Ġsuffering": 8950,
    "ted": 788,
    "Ġcor": 1324,
    "action": 3725,
    "hence": 16626,
    "Ġsem": 1879,
    "acetty": 24463,
    "Ġjabez": 11770,
    "Ġpear": 11855,
    "Ġiroqu": 21626,
    "Ġteaches": 18808,
    "later": 20954,
    "Ġremove": 7500,
    "Ġunseason": 22055,
    "Ġrelentless": 26278,
    "Ġselling": 21226,
    "Ġtremble": 6906,
    "twain": 23702,
    "Ġfears": 5729,
    "Ġstam": 18070,
    "Ġcurtains": 22974,
    "inquir": 9540,
    "pennies": 26286,
    "Ġprospect": 4706,
    "Ġguards": 16271,
    "Ġvice": 6550,
    "sword": 10729,
    "dishon": 20406,
    "Ġspaniard": 20365,
    "imen": 12690,
    "Ġexceptionable": 25504,
    "Ġjabbering": 22306,
    "Ġwight": 12557,
    "Ġinf": 1757,
    "Ġridic": 7509,
    "civilized": 17075,
    "Ġproud": 5654,
    "apparat": 22846,
    "spect": 3233,
    "Ġarchitecture": 1101,
    "Ġwashes": 21864,
    "Ġdiana": 21443,
    "Ġprosecution": 12385,
    "Ġcage": 17826,
    "Ġmice": 13861,
    "Ġcurves": 18845,
    "Ġfilling": 13410,
    "powers": 25411,
    "Ġmarched": 18872,
    "Ġadversarial": 5607,
    "Ġdemo": 10882,
    "Ġoutline": 15957,
    "Ġlashes": 17968,
    "presbyter": 20620,
    "iners": 4936,
    "Ġbelie": 14408,
    "Ġsoldier": 16921,
    "Ġpop": 5151,
    "Ġstill": 1157,
    "Ġcourse": 2129,
    "Ġcomposedly": 25184,
    "Ġdiscrete": 2475,
    "unlike": 18158,
    "Ġitems": 9696,
    "Ġsensitive": 13201,
    "Ġconsol": 3813,
    "Ġworkmen": 23050,
    "speaking": 12102,
    "Ġfreedom": 9086,
    "baboon": 25517,
    "Ġdistingu": 2514,
    "Ġdifference": 1490,
    "Ġkentuck": 19892,
    "Ġdeep": 801,
    "eaten": 20346,
    "Ġpractised": 23302,
    "Ġpredecess": 18518,
    "Ġejaculated": 15172,
    "reputable": 15519,
    "Ġshan": 9253,
    "considering": 12178,
    "Ġmout": 17799,
    "isol": 17847,
    "Ġ120": 16859,
    "cess": 540,
    "Ġsubmerged": 11875,
    "racing": 21633,
    "asable": 21543,
    "Ġjames": 6420,
    "Ġafresh": 18626,
    "eneva": 5117,
    "Ġthreading": 23404,
    "Ġsoles": 22086,
    "Ġdisgracing": 26256,
    "uvier": 9072,
    "Ġscarlet": 13226,
    "Ġtoiling": 15638,
    "Ġcomprehen": 5350,
    "Ġmeanest": 12914,
    "Ġwallowed": 24044,
    "Ġjesty": 18405,
    "attracted": 13054,
    "Ġchristmas": 6924,
    "atigable": 15273,
    "Ġtus": 10752,
    "flo": 6116,
    "Ġscrolled": 22292,
    "Ġschoolboys": 24480,
    "hester": 9635,
    "Ġblubber": 5666,
    "fth": 20857,
    "Ġgaping": 13971,
    "Ġprior": 11321,
    "ering": 1263,
    "atement": 17774,
    "Ġrecompense": 14840,
    "Ġfluid": 11215,
    "Ġsag": 6515,
    "Ġvag": 9712,
    "Ġreverse": 16983,
    "Ġforest": 9875,
    "indisc": 22379,
    "Ġcorpulence": 24508,
    "Ġrelate": 6875,
    "Ġchatbots": 11352,
    "Ġroylott": 7305,
    "government": 25407,
    "invol": 12534,
    "ensity": 11817,
    "Ġtusk": 25426,
    "apse": 14200,
    "Ġadopted": 15181,
    "Ġpian": 13919,
    "Ġnearer": 5303,
    "Ġdeficient": 18825,
    "Ġrevolutionized": 3366,
    "Ġenthusiastic": 19968,
    "Ġcring": 15555,
    "Ġwash": 9707,
    "find": 6954,
    "Ġmeryton": 4438,
    "Į": 239,
    "Ġdoubtful": 19142,
    "Ġcows": 15556,
    "accordingly": 19215,
    "elter": 21573,
    "Ġfevers": 22212,
    "Ġpracticable": 19035,
    "Ġrabb": 4161,
    "Ġscuffle": 20610,
    "cy": 632,
    "Ġken": 22194,
    "Ġidly": 16406,
    "xt": 2079,
    "Ġvexed": 9998,
    "Ġsublim": 19969,
    "Ġroundabout": 23064,
    "Ġmontan": 22985,
    "Ġannotations": 25954,
    "Ġmemorable": 16447,
    "complied": 19914,
    "Ġ117": 19699,
    "Ġtriumphant": 12193,
    "Ġtrack": 7450,
    "Ġcontracting": 16014,
    "Ġdejected": 20306,
    "Ġsaluted": 14760,
    "Ġlogits": 3450,
    "Ġcrawling": 17045,
    "Ġextract": 1409,
    "ugues": 19020,
    "orne": 17873,
    "Ġoffers": 12949,
    "Ġinclination": 6626,
    "bohemia": 20732,
    "sor": 7352,
    "dry": 13706,
    "Ġkate": 15908,
    "Ġsepulchral": 25892,
    "Ġimpatient": 5603,
    "Ġcorn": 9354,
    "Ġthursday": 12648,
    "Ġloud": 4700,
    "Ġperf": 12853,
    "Ġoverhear": 15978,
    "icular": 2024,
    "Ġstem": 15725,
    "Ġbellies": 13358,
    "ables": 7891,
    "determination": 19947,
    "piling": 15417,
    "Ġslope": 14463,
    "Ġconceals": 23906,
    "Ġrubbed": 12959,
    "Ġdons": 17892,
    "Ġperformed": 8550,
    "Ġcopied": 20010,
    "Ġentries": 22743,
    "Ġadvances": 12994,
    "illum": 15872,
    "permission": 15906,
    "acknowledging": 25477,
    "Ġplacing": 8905,
    "Ġpoul": 15616,
    "bench": 16804,
    "untary": 9871,
    "blu": 12443,
    "Ġconveys": 16856,
    "committed": 18741,
    "emb": 11693,
    "Ġsolitary": 5856,
    "Ġwet": 6519,
    "ĕ": 214,
    "Ġpatched": 16376,
    "Ġnegative": 1466,
    "undoubtedly": 13313,
    "Ġmillions": 11357,
    "Ġthemselves": 3252,
    "Ġhieroglyphic": 25587,
    "ry": 806,
    "bowing": 24453,
    "ashions": 16420,
    "Ġmart": 10782,
    "Ġgettest": 23234,
    "Ġdun": 6676,
    "algorith": 3520,
    "Ġsubjected": 23573,
    "Ġunnecessary": 8856,
    "Ġsquee": 7929,
    "Ġpurch": 6601,
    "Ġspirit": 3723,
    "istol": 6261,
    "Ġinhuman": 13931,
    "Ġcastle": 14719,
    "shall": 4550,
    "father": 3775,
    "Ġunctuous": 10270,
    "ires": 6039,
    "Ġdisposing": 19377,
    "Ġjerking": 12249,
    "ium": 4864,
    "Ġbeaufort": 13571,
    "Ġguernsey": 9355,
    "Ġmoss": 9288,
    "test": 13794,
    "Ġpausing": 8657,
    "Ġcooper": 16078,
    "Ġprovidence": 18746,
    "Ġpondicherry": 20493,
    "Ġmyster": 5927,
    "Ġprosecut": 9703,
    "Ġpract": 1810,
    "coiled": 16487,
    "Ġmail": 17801,
    "ent": 305,
    "aint": 2544,
    "Ġsul": 7571,
    "Ġbehaves": 23301,
    "Ġplaced": 3444,
    "cur": 3270,
    "Ġapplies": 11962,
    "sculpt": 16247,
    "human": 7090,
    "barbs": 20239,
    "arts": 6565,
    "ripp": 6406,
    "Ġswung": 6450,
    "monograph": 23529,
    "Ġtreachery": 15104,
    "T": 56,
    "gratification": 24347,
    "island": 10797,
    "inated": 6805,
    "Ġindignant": 12243,
    "Ġdoubtless": 6197,
    "Ġsurf": 19132,
    "Ġfervent": 14898,
    "Ġgravel": 14104,
    "Ġwarped": 25037,
    "phia": 22768,
    "Ġbier": 22763,
    "bewil": 22501,
    "Ġbeaks": 21758,
    "Ġrationally": 18213,
    "hawk": 7123,
    "Ġdecoyed": 18486,
    "county": 25397,
    "suspended": 15180,
    "Ġglories": 16242,
    "Ġdescried": 7919,
    "Ġgovern": 10453,
    "Ġcumulative": 4208,
    "Ġclos": 4549,
    "Ġserves": 4668,
    "abhor": 12711,
    "Ġfrankly": 16746,
    "Ġsullen": 9161,
    "Ġfonder": 17881,
    "Ġvivacity": 14943,
    "Ġsl": 1498,
    "Ġengra": 7874,
    "thirty": 12766,
    "Ġredeemed": 25789,
    "Ġwould": 651,
    "Ġtooth": 9196,
    "Ġgamb": 17999,
    "Ġbulk": 5591,
    "Ġpresuming": 16794,
    "yden": 21145,
    "Ġdank": 21435,
    "Ġstrip": 9425,
    "Ġnoticed": 5549,
    "thank": 4949,
    "Ġwarmth": 6905,
    "stupid": 12680,
    "Ġhoriz": 4725,
    "n": 82,
    "rowsers": 8699,
    "Ġspas": 10925,
    "adjust": 21762,
    "yt": 17712,
    "Ġpeculiarities": 12074,
    "Ġconsummation": 17427,
    "Ġswimmer": 19461,
    "Ġinterests": 14569,
    "Ġthack": 21519,
    "Ġfishes": 11595,
    "Ġoffing": 16146,
    "beh": 5472,
    "Ġseething": 18203,
    "horses": 17568,
    "Ġtrick": 7020,
    "especially": 3572,
    "Ġang": 2511,
    "ogne": 12943,
    "ay": 355,
    "Ġbegin": 3097,
    "Ġblackstone": 23391,
    "Ġosc": 2838,
    "Ġunmingled": 18263,
    "ick": 837,
    "Ġpam": 21456,
    "springs": 24911,
    "Ġextracting": 11099,
    "oforte": 14288,
    "smug": 23910,
    "Ġxxii": 24477,
    "Ġmount": 7362,
    "Ġirene": 8445,
    "Ġhumbled": 16199,
    "Ġclams": 19991,
    "ĠvertebrÃ¦": 11438,
    "Ġinex": 6529,
    "pled": 7892,
    "Ġdam": 2212,
    "ounders": 22388,
    "lamps": 25261,
    "partly": 14603,
    "Ġclung": 10961,
    "Ġriv": 10749,
    "Ġmaterial": 5178,
    "piled": 21016,
    "sure": 5522,
    "Ġshut": 3939,
    "hopeless": 16918,
    "Ġmysticetus": 24922,
    "aggo": 5096,
    "Ġdecisions": 6704,
    "Ġanybody": 5314,
    "Ġwidows": 24238,
    "Ġformerly": 7494,
    "Ġreporting": 24657,
    "Ġwaned": 17792,
    "Ġuniverse": 14126,
    "Ġscrutiny": 26015,
    "Ġfoaming": 18991,
    "promised": 12255,
    "buncle": 13695,
    "Ġbraces": 14671,
    "Ġlodges": 19502,
    "ench": 21281,
    "Ġenthusiasm": 8065,
    "Ġpreprocessing": 26537,
    "Ġdau": 21432,
    "Ġimparted": 15992,
    "Ġcompar": 4770,
    "Ġmilky": 9951,
    "onted": 11571,
    "crow": 9594,
    "Ġsplinters": 15105,
    "alous": 7372,
    ")(": 2982,
    "arken": 18667,
    "Ġpacked": 9984,
    "Ġintensified": 17019,
    "Ġfathoms": 9087,
    "Ġspending": 10926,
    "Ġpods": 17916,
    "Ġawaited": 17074,
    "rep": 5525,
    "Ġlowest": 11125,
    "Ġirish": 14535,
    "vous": 2250,
    "Ġpainted": 7979,
    "Ġcuriosities": 26290,
    "topp": 22568,
    "adr": 6995,
    "olera": 21836,
    "Ġlabrador": 23333,
    "Ġtastes": 15479,
    "teen": 6371,
    "Ġxi": 16431,
    "Ġinfamous": 16367,
    "Ġimply": 18444,
    "employed": 17263,
    "hol": 3836,
    "tically": 3391,
    "Ġancho": 15606,
    "manner": 6172,
    "Ġconstantinople": 19839,
    "Ġfossil": 12390,
    "gl": 3289,
    "bular": 15316,
    "Ġpleasant": 4167,
    "Ġheedless": 14905,
    "Ġstealing": 18893,
    "Ġstiggs": 25792,
    "inders": 15983,
    "Ġdesponding": 25868,
    "Ġwander": 9035,
    "Ġcompose": 12906,
    "unwho": 21880,
    "Ġstern": 4220,
    "Ġbent": 5149,
    "terrors": 25043,
    "arter": 17887,
    "ainted": 3658,
    "Ġsand": 6237,
    "Ġverbal": 19381,
    "orified": 21404,
    "Ġbenef": 3488,
    "nurse": 15211,
    "Ġtweezers": 26557,
    "organ": 15577,
    "Ġhandful": 9786,
    "Ġcure": 21342,
    "ratulations": 20128,
    "Ġexpl": 487,
    "Ġmanhood": 22329,
    "Ġexpression": 4515,
    "Ġincul": 22552,
    "Ġsparks": 22135,
    "tails": 21088,
    "ĩ": 234,
    "Ġhelen": 16657,
    "Ġwherever": 8527,
    "Ġgruff": 21616,
    "Ġhackluyt": 25655,
    "Ġrobe": 18458,
    "Ġwars": 17786,
    "Ġwants": 5742,
    "Ġpresentiment": 18988,
    "row": 1067,
    "Ġplacid": 11830,
    "envelope": 17783,
    "threw": 21987,
    "Ġgliding": 8565,
    "fresh": 13394,
    "Ġcom": 368,
    "Ġspy": 22126,
    "accustomed": 13159,
    "Ġreeds": 15699,
    "Ġhyp": 3869,
    "Ġvon": 14083,
    "Ġplain": 2820,
    "sailing": 14716,
    "Ġoverwhel": 8197,
    "ailing": 7023,
    "Ġjerk": 16951,
    "Ġsoar": 18278,
    "ma": 1151,
    "Ġliberally": 16831,
    "liber": 18814,
    "downward": 16620,
    "Ġpudding": 17917,
    "elder": 21574,
    "ww": 10740,
    "Ġgiven": 1626,
    "Ġbills": 17861,
    "Ġwhittingham": 26198,
    "Ġreceptacle": 23194,
    "Ġdescrib": 2717,
    "Ġchange": 1995,
    "Ġgenerator": 3381,
    "gerine": 22890,
    "Ġinspector": 6499,
    "Ġbennet": 1572,
    "christian": 17234,
    "Ġthence": 8886,
    "iana": 7050,
    "Ġguineas": 16273,
    "Ġexpressed": 4467,
    "Ġfurthest": 22817,
    "becomes": 22499,
    "Ġasleep": 6836,
    "Ġshave": 21999,
    "answered": 10277,
    "ly": 319,
    "Ġcautiousness": 19867,
    "battering": 20787,
    "iences": 6957,
    "Ġproves": 14041,
    "Ġconvers": 2908,
    "bear": 10318,
    "sne": 10128,
    "Ġclothes": 4996,
    "Ġinduce": 7763,
    "Ġhis": 380,
    "oarsman": 25262,
    "Ġgracious": 8852,
    "Ġominous": 12427,
    "hue": 20900,
    "Ġopera": 23427,
    "decease": 25558,
    "Ġwickham": 2203,
    "Ġcats": 8983,
    "Ġinfatuated": 20535,
    "Ġfolio": 11920,
    "Ġscraggy": 24579,
    "musical": 25341,
    "caus": 11479,
    "Ġheadland": 22897,
    "Ġsurpassed": 25268,
    "acetti": 13398,
    "Ġunjustifiable": 25111,
    "attain": 21263,
    "phantoms": 24679,
    "Ġincurable": 22555,
    "flour": 23968,
    "Ġstrange": 2270,
    "proportion": 16187,
    "Ġuneasiness": 9488,
    "nants": 17614,
    "Ġunh": 9257,
    "Ġseparation": 11249,
    "plutarch": 21960,
    "ouch": 2781,
    "Ġconj": 8462,
    "Ġrespite": 13156,
    "Ġcoroner": 7511,
    "aco": 12910,
    "unvarying": 21890,
    "Ġdriving": 3617,
    "oping": 5559,
    "Ġhop": 1463,
    "Ġchased": 8866,
    "umerable": 11729,
    "pper": 3210,
    "²": 115,
    "Ġhatter": 4111,
    "outh": 2686,
    "Ġbeheld": 4492,
    "orders": 12879,
    "opotam": 22482,
    "Ġdomains": 6614,
    "Ġchest": 5185,
    "jep": 20927,
    "access": 11183,
    "problem": 25245,
    "Ġodor": 12153,
    "Ġmastiff": 23726,
    "Ġpassed": 2011,
    "quake": 11684,
    "Ġmodeling": 2094,
    "uit": 8393,
    "Ġefficiently": 4052,
    "Ġoppress": 13174,
    "Ġthem": 640,
    "Ġhelter": 24027,
    "Ń": 260,
    "Ġbl": 1189,
    "Ġpractises": 23303,
    "am": 367,
    "fishermen": 17062,
    "Ġcirculating": 23375,
    "Ġwhen": 514,
    "coburg": 13601,
    "ung": 2744,
    "Ġliberated": 19668,
    "arians": 18526,
    "Ġtelescopes": 25690,
    "Ġpromises": 10404,
    "Ġretreats": 16929,
    "adventure": 17235,
    "unwholesome": 26498,
    "Ġjail": 22297,
    "business": 5610,
    "Ġinscrutable": 10676,
    "duchess": 18463,
    "Ġveil": 7934,
    "Ġenthus": 7232,
    "prow": 15413,
    "Ġpott": 21470,
    "Ġinquired": 7486,
    "cape": 13700,
    "housekeeper": 24102,
    "based": 2962,
    "quite": 4646,
    "Ġunwillingness": 20034,
    "affold": 16564,
    "insula": 23069,
    "ried": 925,
    "exasper": 22430,
    "orrow": 2917,
    "retrie": 18925,
    "Ġat": 395,
    "iony": 9195,
    "Ġbreakfast": 3971,
    "Ġgriff": 22809,
    "pleas": 3849,
    "Ġ96": 24592,
    "Ġsplice": 19310,
    "Ġredu": 1355,
    "Ġastronomy": 25926,
    "Ġrecogn": 2747,
    "Ġcramped": 23533,
    "Ġsluggish": 25890,
    "Ġlatent": 19657,
    "ĠĠĠĠĠĠĠĠĠĠĠĠĠĠĠĠĠĠĠĠĠĠĠĠĠĠĠĠĠĠĠĠĠĠĠĠĠ": 14615,
    "Ġtongues": 14865,
    "Ġbounce": 21395,
    "operation": 13502,
    "Ġhereditary": 10668,
    "umbrance": 22121,
    "sprit": 11385,
    "Ġvictory": 16655,
    "Ġclient": 5556,
    "Ġviolation": 23407,
    "ase": 1159,
    "Ġcombining": 22851,
    "biqu": 17499,
    "carries": 19529,
    "mathemat": 19138,
    "Ġgrud": 17997,
    "Ġblotting": 25314,
    "Ġpe": 851,
    "Ġtr": 552,
    "Ġund": 4117,
    "jephro": 26393,
    "reng": 3998,
    "Ġloads": 22117,
    "Ġadvancement": 24474,
    "etts": 12664,
    "Ġpatron": 7462,
    "similar": 13455,
    "persuasion": 20046,
    "Ġcompacted": 23509,
    "Ġencouraging": 2261,
    "muttered": 13761,
    "Ġshrink": 14806,
    "combe": 7663,
    "Ġsuperb": 16443,
    "aboard": 21797,
    "Ġwitty": 21294,
    "shark": 14239,
    "trouble": 8296,
    "Ġpapered": 20133,
    "Ġsupervised": 3439,
    "================================================================": 9994,
    "alive": 10830,
    "Ġscraped": 16904,
    "Ġvessel": 3797,
    "Ġappertaining": 26534,
    "country": 6105,
    "Ġblacksmith": 6597,
    "stories": 18025,
    "ille": 9223,
    "Ġresolutely": 14610,
    "Ġnought": 21524,
    "Ġroast": 18457,
    "voice": 7816,
    "viii": 12024,
    "Ġsavages": 9916,
    "comparatively": 25840,
    "Ġbaw": 15572,
    "Ġrecursive": 4781,
    "Ġresol": 2664,
    "desolation": 20461,
    "striving": 24669,
    "complexion": 14363,
    "Ġfin": 1462,
    "--âĢľ": 12975,
    "Ġroll": 5381,
    "Ġinference": 9675,
    "Ġaspect": 3095,
    "Ġsale": 14156,
    "Ġfooting": 14484,
    "Ġvertebra": 20183,
    "Ġfullest": 14816,
    "annica": 24561,
    "Ġperdition": 15995,
    "Ġscuttle": 7414,
    "ernsey": 8906,
    "Ġlabels": 3287,
    "Ġtechnique": 2441,
    "noise": 14332,
    "urious": 21705,
    "Ġcollecting": 12289,
    "Ġmistake": 6205,
    "Ġretribution": 16283,
    "Ġostr": 21327,
    "Ġbond": 21386,
    "Ġbordeaux": 24564,
    "Ġyellow": 5302,
    "displayed": 20737,
    "Ġbegat": 18863,
    "examined": 17268,
    "Ġcolon": 18765,
    "hair": 9126,
    "lott": 6653,
    "Ġcommenting": 25229,
    "Ġconst": 1910,
    "Ġprogeny": 17390,
    "Ġhears": 8139,
    "Ġenveloped": 12212,
    "akes": 2215,
    "Ġ98": 24593,
    "Ġfanny": 23393,
    "Ġrevolut": 3258,
    "Ġarctic": 12815,
    "Ġoverseeing": 22363,
    "escript": 18470,
    "particularly": 8340,
    "ĠĠĠĠĠĠĠĠĠĠĠĠĠĠĠĠĠĠĠĠĠĠĠĠĠĠĠĠĠĠĠĠĠĠĠĠ": 23667,
    "Ġunrel": 14697,
    "ipelag": 12848,
    "inkers": 22620,
    "Ġwings": 9167,
    "Ġbronze": 22871,
    "Ġsmiled": 5942,
    "rict": 8093,
    "Ġerrand": 11088,
    "itical": 5802,
    "connected": 1310,
    "-": 17,
    "ĠâĢĶâĢľ_": 17719,
    "Ġtingling": 15095,
    "Ġpumps": 8428,
    "scra": 13025,
    "facts": 19844,
    "Ġspirits": 3697,
    "Ġii": 7385,
    "Ġsap": 18323,
    "Ġcologne": 12978,
    "Ġlounging": 10026,
    "Ġdisquis": 22530,
    "Ġphilosophers": 10555,
    "promontory": 24726,
    "begone": 12883,
    "Ġgloom": 4199,
    "overs": 17622,
    "calculation": 25688,
    "Ġclimb": 15082,
    "type": 16179,
    "Ġmeta": 3165,
    "Ġfresh": 3669,
    "calling": 12453,
    "Ġwigwam": 11431,
    "Ġmeat": 8152,
    "Ġnonsense": 6983,
    "sens": 8096,
    "hawks": 24694,
    "Ġbrigs": 20324,
    "adow": 18089,
    "crimin": 17510,
    "ave": 982,
    "artificial": 967,
    "Ġgallantry": 15106,
    "toed": 18578,
    "swiss": 24257,
    "Ġwounding": 19588,
    "icking": 8915,
    "Ġunheeded": 18261,
    "oro": 21397,
    "ittingly": 18804,
    "disappointed": 25192,
    "open": 7027,
    "Ġinexpress": 12639,
    "ek": 1908,
    "Ġ90": 24588,
    "Ġadmirers": 19688,
    "Ġspoken": 4836,
    "cruising": 12283,
    "ushes": 22284,
    "Ġnarr": 5084,
    "precaution": 23824,
    "Ġsums": 2904,
    "ernation": 8212,
    "steelkilt": 10051,
    "Ġberries": 13409,
    "Ġverge": 23889,
    "possess": 5985,
    "Ġcommercial": 22676,
    "gracious": 11835,
    "Ġhorrify": 23820,
    "Ġpresumed": 10548,
    "Ġbooks": 4675,
    "import": 5668,
    "Ġensued": 11397,
    "Ġmeasuring": 22883,
    "Ġsordid": 26423,
    "progra": 9399,
    "Ġmoves": 14233,
    "Ġprosecuted": 25294,
    "depend": 9116,
    "Ġforgery": 25977,
    "Ġreappeared": 21667,
    "Ġsignificant": 8638,
    "Ġadversary": 12177,
    "held": 3838,
    "Ġtash": 13822,
    "Ġsil": 1796,
    "imately": 12692,
    "Ġconvalescence": 23747,
    "Ġsemicircular": 26069,
    "Ġfailing": 12141,
    "Ġdivineness": 25723,
    "alling": 6038,
    "ery": 1265,
    "sideways": 14573,
    "Ġpolitics": 19226,
    "Ġembarks": 22961,
    "Ġfiled": 15583,
    "expense": 22432,
    "Ġ113": 19698,
    "Ġbehold": 5048,
    "Ġvirtual": 11242,
    "pinn": 21027,
    "event": 8077,
    "Ġconceivable": 16614,
    "Ġpetrified": 19598,
    "Ġsombre": 18860,
    "Ġsnow": 3706,
    "Ġlabelled": 23332,
    "told": 7811,
    "cules": 12394,
    "Ġshark": 5550,
    "Ġblank": 5952,
    "Ġbeacon": 21759,
    "Ġweakened": 16824,
    "Ġrounding": 16277,
    "Ġharpoon": 3616,
    "Ġinterpreter": 23217,
    "ľ": 255,
    "Ġferocious": 17421,
    "Ġnovember": 11753,
    "supernatural": 19781,
    "18": 20752,
    "eenth": 12464,
    "Ġhugest": 17016,
    "mother": 5480,
    "Ġbounty": 26438,
    "sombre": 23856,
    "shri": 14236,
    "scot": 14419,
    "Ġhoneymoon": 25645,
    "Ġmalays": 19679,
    "Ġundecided": 22051,
    "brevi": 24075,
    "Ġinflex": 20636,
    "Ġfurled": 22815,
    "Ġurgent": 16870,
    "Ġinconvenience": 9567,
    "oney": 3048,
    "Ġxiii": 25591,
    "Ġpublicly": 13325,
    "Ġtopmost": 14588,
    "Ġgle": 7859,
    "infall": 21190,
    "Ġlingu": 11618,
    "rage": 10846,
    "Ġreclining": 26033,
    "ccas": 15888,
    "mont": 19170,
    "Ġoct": 10162,
    "Ġchart": 10948,
    "Ġconfusing": 23309,
    "copper": 19190,
    "Ġprodig": 6029,
    "Ġwil": 4580,
    "ira": 3954,
    "seemingly": 25363,
    "evident": 25521,
    "bered": 4504,
    "Ġflourish": 17162,
    "Ġscot": 5643,
    "Ġnugent": 26458,
    "til": 17672,
    "Ġidle": 8253,
    "Ġmaybe": 12952,
    "iod": 3837,
    "ios": 2187,
    "io": 3800,
    "stranger": 9887,
    "Ġincidentally": 16955,
    "Ġstratag": 26028,
    "sing": 5138,
    "Ġinhabited": 12189,
    "Ġnext": 2138,
    "happily": 14658,
    "Ġdeclined": 9925,
    "ks": 3145,
    "tent": 21066,
    "Ġspiced": 22136,
    "thence": 23402,
    "\\": 64,
    "Ġtrembled": 8706,
    "Ġcrater": 16437,
    "Ġrebell": 21671,
    "Ġgreas": 17993,
    "beyond": 8887,
    "Ġbeasts": 10621,
    "Ġpeak": 16129,
    "operations": 19977,
    "Ġwindibank": 7257,
    "Ġmilk": 6486,
    "exertion": 16019,
    "Ġcasked": 24496,
    "works": 6591,
    "Ġrow": 5246,
    "Ġbrist": 14380,
    "ogene": 18674,
    "Ġsitt": 21219,
    "Ġbreeze": 5681,
    "Ġneighbor": 25803,
    "oried": 10805,
    "enchanted": 26425,
    "Ġheh": 21682,
    "Ġcelerity": 17438,
    "Ġgard": 2188,
    "python": 4691,
    "Ġrot": 10970,
    "Ġforward": 1839,
    "Ġvort": 18193,
    "Ġlithe": 24668,
    "Ġprec": 2921,
    "Ġlivid": 14991,
    "Ġinstantaneous": 14612,
    "Ġwhitish": 24866,
    "Ġgratefully": 20447,
    "rud": 4187,
    "min": 4571,
    "Ġoversampling": 20518,
    "ruit": 22180,
    "Ġcannon": 14155,
    "Ġhartshorn": 26181,
    "Ġhatches": 12048,
    "Ġtoy": 15637,
    "Ġstript": 23696,
    "Ġneural": 613,
    "Ġrambled": 20170,
    "Ġcomple": 2843,
    "Ġimpul": 7208,
    "done": 6501,
    "Ġpeaceable": 14725,
    "possession": 12225,
    "Ġsusp": 2662,
    "revealed": 20418,
    "Ġconfirm": 9860,
    "Ġsighed": 10341,
    "Ġvit": 10249,
    "Ġcate": 4108,
    "Ġtainted": 21172,
    "furn": 10095,
    "pay": 10721,
    "Ġwaggish": 25435,
    "division": 20051,
    "Ġglasses": 9479,
    "Ġlestrade": 5825,
    "Ġassurances": 10004,
    "Ġgo": 614,
    "Ġapiece": 16814,
    "Ġdisengaged": 12893,
    "maybe": 23993,
    "Ġcontrive": 16013,
    "Ġsus": 18279,
    "Ġrefined": 18704,
    "eth": 620,
    "Ġsurmisings": 26594,
    "Ġ(âĢľ": 15998,
    "inian": 21184,
    "Ġclout": 22349,
    "Ġapprobation": 10988,
    "Ġwan": 15530,
    "Ġeu": 6391,
    "Ġtread": 9413,
    "Ġtomb": 8813,
    "Ġcobbling": 20525,
    "Ġemploy": 3615,
    "Ġgibe": 25959,
    "Ġexterior": 19990,
    "Ġparamet": 607,
    "Ġstroll": 13355,
    "Ġmatrix": 1606,
    "remembered": 17353,
    "quar": 7617,
    "Ġsaville": 15892,
    "Ġconquest": 15751,
    "Ġchiefly": 5766,
    "interesting": 12205,
    "Ý": 158,
    "Ġsabbee": 17257,
    "unders": 13312,
    "Ġfireside": 23534,
    "Ġgrinned": 16858,
    "fortunate": 4791,
    "opened": 7912,
    "Ġjan": 11766,
    "want": 8771,
    "Ġshow": 3400,
    "Ġlosing": 10919,
    "Ġcompassionate": 24721,
    "okers": 18441,
    "kept": 11721,
    "Ġshalt": 18230,
    "Ġstrides": 22610,
    "iling": 3092,
    "Ġoffences": 18691,
    "Ġcopy": 10167,
    "Ġstacked": 21749,
    "aloons": 20013,
    "Ġrailway": 15022,
    "Ġgardiners": 11160,
    "riend": 1185,
    "icting": 12856,
    "rs": 7807,
    "Ġjeer": 24124,
    "Ġprofits": 16490,
    "slightest": 25417,
    "ersed": 10263,
    "favouring": 24760,
    "Ġbass": 17856,
    "Ġdownstream": 3773,
    "Ġknitted": 19591,
    "Ġwes": 8784,
    "Ġabsurdities": 24878,
    "Ġchal": 18377,
    "Ġwoman": 2387,
    "ĠâĢĶâĢĶ": 25757,
    "Ġpropag": 16350,
    "Ġcomplied": 14736,
    "finds": 19928,
    "Ġstaving": 21743,
    "conjecture": 15125,
    "Ġofficial": 7083,
    "Ġlocks": 11728,
    "Ġhaggard": 17332,
    "Ġasi": 12736,
    "amed": 4448,
    "chiefly": 14848,
    "Ġoverspread": 14208,
    "Ġtout": 17720,
    "Ġslide": 10397,
    "Ġpend": 15609,
    "Ġrhine": 12359,
    "stalls": 26474,
    "Ġdecreases": 3408,
    "Ġjobs": 24832,
    "Ġunwarrantable": 26345,
    "Ġdiscovering": 13360,
    "penetrating": 25491,
    "Ġtombed": 25164,
    "Ġbruised": 25772,
    "Ġspecialized": 3917,
    "Ġunjustly": 17128,
    "Ġjudge": 5502,
    "Ġhills": 6528,
    "pregn": 18498,
    "ivates": 18275,
    "longing": 23727,
    "Ġbrother": 2748,
    "swear": 16919,
    "pretending": 17041,
    "Ġpathetic": 19025,
    "desponding": 26342,
    "Ġmar": 1312,
    "july": 20477,
    "Ġsnows": 14728,
    "ipotence": 22367,
    "Ġwooded": 23523,
    "der": 469,
    "Ġconvenience": 11334,
    "Ġpole": 6434,
    "Ġcautiously": 16978,
    "Ġconsternation": 9863,
    "Ġtruck": 19513,
    "unities": 15774,
    "Ġcausing": 16360,
    "Ġpier": 7163,
    "satisfied": 10582,
    "Ġconcentration": 25064,
    "chooses": 23676,
    "laughed": 20283,
    "suffer": 24328,
    "entire": 6824,
    "rally": 17652,
    "Ġreflecting": 24749,
    "Ġrequest": 6052,
    "istan": 22111,
    "mis": 4521,
    "twilight": 23704,
    "Ġreduces": 2343,
    "âĢĿâĢĶ": 5721,
    "Ġconfessed": 8009,
    "Ġimpelling": 22392,
    "leather": 13892,
    "Ġshriek": 6640,
    "umblings": 23896,
    "Ġrnns": 2394,
    "teenth": 11877,
    "Ġbeing": 1163,
    "Ġcombined": 8551,
    "embarrassed": 20666,
    "Ġsettee": 22922,
    "Ġmenaced": 16296,
    "Ġblind": 3715,
    "Ġshutter": 16672,
    "Ġlapl": 19779,
    "oft": 3590,
    "ulance": 15770,
    "Ġdurst": 20354,
    "insult": 16281,
    "Ġalarm": 4043,
    "ad": 337,
    "Ġprogress": 5022,
    "limp": 20953,
    "Ġtreasure": 9562,
    "quod": 2164,
    "riers": 18184,
    "ems": 5236,
    "Ġmut": 3582,
    "Ġwade": 17785,
    "Ġhalf": 1669,
    "tips": 13798,
    "Ġflask": 3039,
    "mine": 5618,
    "Ġlifts": 25359,
    "ĠĠĠĠĠĠĠĠĠĠĠĠĠĠĠĠĠ": 22951,
    "arr": 3044,
    "oker": 10966,
    "uge": 4012,
    "Ġcritical": 7475,
    "howling": 18989,
    "Ġplumber": 16087,
    "Ġenduring": 16305,
    "Ġowl": 20086,
    "Ġexp": 777,
    "Ġonset": 12715,
    "affected": 10479,
    "Ġeddystone": 25735,
    "Ġrum": 5925,
    "ispiece": 19727,
    "Ġrib": 4935,
    "Ġelud": 22646,
    "Ġpyramid": 8807,
    "Ġeveryday": 22776,
    "Ġexped": 7652,
    "Ġacknowledgment": 16958,
    "Ġtru": 4105,
    "Ġhindrance": 25221,
    "generosity": 23787,
    "Ġerecting": 24652,
    "formity": 10282,
    "venerable": 26409,
    "Ġextras": 22715,
    "Ġequinox": 25855,
    "goldsmith": 20149,
    "Ġunstructured": 3004,
    "Ġretired": 6072,
    "sugg": 11844,
    "assist": 11771,
    "Ġenabling": 1080,
    "viating": 14580,
    "Ġparamount": 15881,
    "Ġgnawed": 25168,
    "Ġcalmed": 16270,
    "Ġreadily": 5254,
    "Ġblocks": 6323,
    "hro": 20892,
    "standard": 22434,
    "mem": 10712,
    "Ġwhirlpool": 20656,
    "bulk": 19925,
    "Ġmonarch": 14417,
    "Ġ73": 24262,
    "Ġcock": 11002,
    "Ġreck": 6539,
    "Ġexist": 9235,
    "Ġsubstances": 24167,
    "cept": 557,
    "Ġotherwise": 4657,
    "Ġsuspect": 5758,
    "bowed": 10688,
    "unreasonable": 18164,
    "Ġprofessional": 7299,
    "Ġsunset": 8966,
    "Ġjetted": 24430,
    "Ġsquare": 2396,
    "Ġda": 5150,
    "Ġdecisive": 18485,
    "step": 2453,
    "Ġphilosopher": 12187,
    "Ġsolving": 2481,
    "Ġwooing": 19436,
    "Ġconsiderations": 9414,
    "el": 306,
    "inconsiderable": 21193,
    "imag": 6991,
    "Ġadjusts": 8984,
    "Ġcheck": 7271,
    "Ġutterly": 6102,
    "Ġenhance": 3218,
    "kindly": 14746,
    "worse": 14692,
    "Ġlashings": 25099,
    "Ġluxur": 12344,
    "Ġcondesc": 7182,
    "high": 6652,
    "revenge": 13844,
    "Ġpatients": 24809,
    "fen": 20851,
    "mentioning": 24885,
    "Ġburying": 19253,
    "Ġrule": 1533,
    "woe": 21137,
    "Ġpreparation": 13530,
    "Ġeleventh": 23371,
    "nical": 20992,
    "Ġslammed": 20450,
    "pull": 6797,
    "Ġjustify": 11075,
    "match": 15393,
    "Ġfaces": 6010,
    "Ġslyness": 25267,
    "ignominious": 26588,
    "deacon": 22150,
    "Ġjeopardized": 20232,
    "otherwise": 7672,
    "ificent": 8184,
    "Ġpulley": 2977,
    "ellation": 12753,
    "ray": 2434,
    "Ġv": 399,
    "Ġusage": 9734,
    "insist": 23067,
    "Ġparting": 9787,
    "Ġanointing": 25540,
    "deficient": 23119,
    "Ġskylight": 24073,
    "mind": 4626,
    "should": 3262,
    "Ġirre": 7468,
    "Ġreligion": 11418,
    "Ġmeasureless": 14712,
    "Ġpennies": 17272,
    "possesses": 24616,
    "unquiet": 21884,
    "Ġmiguel": 25766,
    "Ġscriptures": 26236,
    "Ġling": 7377,
    "Ġrolled": 4428,
    "Ġcondemn": 13446,
    "thing": 1482,
    "Ġcorporeal": 17362,
    "Ġinvaluable": 10186,
    "Ġscott": 22289,
    "Ġweight": 657,
    "Ġ44": 16680,
    "fishing": 20860,
    "Ġnomine": 26457,
    "ince": 4337,
    "Ġgretna": 26469,
    "Ġdeliriously": 23231,
    "Ġfull": 2176,
    "Ġspans": 18304,
    "ī": 236,
    "Ġrocking": 10972,
    "Ġparcels": 25466,
    "approached": 13487,
    "Ġsimply": 7218,
    "Ġidolator": 20000,
    "Ġrepent": 9867,
    "Ġjenny": 20164,
    "Ġvoyages": 6908,
    "Ġcup": 5697,
    "Ġmant": 9651,
    "hement": 13834,
    "obliged": 20633,
    "gered": 9280,
    "wanderer": 25424,
    "Ġperseverance": 13600,
    "Ġbene": 2033,
    "Ġnewsp": 9343,
    "Ġcolouring": 16752,
    "Ġsult": 10770,
    "successively": 24777,
    "causing": 25519,
    "Ġmultiplied": 23692,
    "pread": 7418,
    "Ġrelationship": 2316,
    "Ġimbecile": 17394,
    "torture": 26151,
    "Ġrazors": 22659,
    "Ġmoreover": 6165,
    "Ġanchor": 7368,
    "Ġsympathy": 6348,
    "men": 1487,
    "trick": 19415,
    "Ġirresistible": 13115,
    "Ġbecoming": 4396,
    "urry": 13995,
    "Ġcavity": 20490,
    "Ġweighted": 2089,
    "Ġconsisting": 8975,
    "Ġability": 2765,
    "Ġcoronet": 6346,
    "Ġaristotle": 25817,
    "Ġdiffer": 18677,
    "Ù": 154,
    "'": 11,
    "granting": 23415,
    "Ġmalice": 7153,
    "Ġview": 2763,
    "Ġcoil": 11822,
    "toes": 22567,
    "Ġawe": 7148,
    "Ġfol": 1286,
    "happiest": 19333,
    "vocation": 25086,
    "unwittingly": 25801,
    "lung": 17592,
    "Ġunsuccessful": 18257,
    "Ġ87": 19712,
    "whosoever": 22243,
    "Ġpostpone": 17309,
    "Ġex": 360,
    "Ġunsub": 22026,
    "bordered": 17500,
    "devouring": 24952,
    "Ġthere": 563,
    "Ġclump": 15971,
    "Ġstrata": 26027,
    "Ġsobs": 14134,
    "Ġproceeding": 9910,
    "ativeness": 15523,
    "pate": 21011,
    "poke": 18799,
    "ensation": 22548,
    "Ġforced": 4350,
    "Ġsubordinate": 18723,
    "Ġimmortal": 8018,
    "Ġcovers": 18590,
    "Ġethiopian": 26614,
    "danger": 10093,
    "fif": 9120,
    "myself": 5112,
    "Ġenjoying": 11237,
    "Ġjourneys": 19477,
    "violent": 14581,
    "Ġhole": 6080,
    "Ġadaptation": 3156,
    "buried": 14851,
    "Ġwearily": 18179,
    "Ġeigen": 4881,
    "&": 10,
    "Ġdestructive": 23487,
    "Ġcheap": 13091,
    "excitement": 19671,
    "im": 327,
    "Ġspikes": 22139,
    "Ġmechanical": 7938,
    "Ġmr": 660,
    "Ġbend": 9174,
    "next": 5893,
    "sharp": 10310,
    "Ġdante": 21445,
    "Ġhurried": 4027,
    "unken": 10240,
    "Ġdint": 15596,
    "ni": 1661,
    "Ġweeds": 21926,
    "fortune": 4974,
    "Ġardu": 22186,
    "guilt": 24071,
    "nur": 11509,
    "word": 2486,
    "Ġagric": 22518,
    "Ġbitterly": 8315,
    "Ġappend": 18360,
    "sher": 5217,
    "asing": 5913,
    "shroud": 20312,
    "rer": 3622,
    "Ġfinding": 3265,
    "tashtego": 9626,
    "Ġnatives": 17952,
    "abby": 14023,
    "Ġgouldings": 26188,
    "Ġunable": 4950,
    "Ġdisagreeable": 9302,
    "ĠĠĠĠĠĠĠĠĠĠĠĠĠĠĠĠĠĠĠĠĠĠĠĠĠĠĠĠĠĠĠĠĠĠĠĠĠĠĠĠĠĠĠ": 12158,
    "Ġtre": 2539,
    "impat": 11205,
    "Ġbridle": 24681,
    "Ġlevers": 18066,
    "Ġern": 8397,
    "Ġcandelabra": 26603,
    "Ġpleasanter": 19068,
    "Ġharvest": 13417,
    "minded": 9041,
    "achine": 603,
    "poky": 17645,
    "Ġdepressions": 25798,
    "Ġxiv": 23409,
    "Ġnoteworthy": 24164,
    "Ġpersuaded": 5769,
    "Ġmathemat": 3204,
    "Ġengraved": 17081,
    "blooded": 20025,
    "ision": 1855,
    "rim": 7139,
    "Ġhog": 13926,
    "lion": 20945,
    "Ġsuperior": 2753,
    "arer": 3964,
    "Ġoblivion": 26031,
    "sensible": 20054,
    "igators": 18047,
    "bra": 6221,
    "bacc": 7795,
    "previously": 17209,
    "lled": 10111,
    "Ġdepartments": 24244,
    "Ġsuperseded": 26225,
    "absolute": 17124,
    "Ġbob": 22639,
    "Ġtrim": 15965,
    "haz": 17565,
    "Ġneglecting": 25009,
    "Ġkeepers": 23541,
    "Ġalbertus": 25648,
    "posture": 16928,
    "Ġshook": 4468,
    "Ġunctuousness": 17236,
    "iocr": 20924,
    "angered": 16181,
    "Ġyields": 19658,
    "Ġpuff": 6527,
    "c": 71,
    "Ġ500": 24323,
    "jaw": 13745,
    "Ġslopes": 18942,
    "Ġglad": 3325,
    "figure": 13558,
    "Ġtear": 6725,
    "species": 13258,
    "Ġmultitude": 9329,
    "Ġsails": 5257,
    "rub": 15896,
    "archbishop": 22906,
    "Ġberyls": 25775,
    "Ġflip": 11915,
    "Ġevenings": 18754,
    "come": 2377,
    "merit": 19282,
    "Ġsoliloquized": 17304,
    "immortal": 21712,
    "Ġdim": 4756,
    "Ġfastened": 7067,
    "ashion": 3856,
    "Ġwhiff": 21720,
    "Ġmantelpiece": 15210,
    "Ġtight": 8108,
    "Ġunprofitable": 18267,
    "octial": 20007,
    "Ġdecreasing": 2440,
    "Ġsanguine": 25928,
    "Ġhesitated": 10006,
    "den": 938,
    "Ġsust": 7009,
    "Ġber": 5698,
    "droppers": 24757,
    "Ġbefell": 14012,
    "Ġdesk": 11910,
    "Ġdrags": 16942,
    "Ġdusty": 14927,
    "huzza": 20914,
    "est": 500,
    "Ġgale": 5823,
    "Ġchemical": 10413,
    "Ġfixedly": 19249,
    "Ġshore": 4834,
    "ergy": 2360,
    "repugnance": 16865,
    "Ġenergies": 25460,
    "Ġprematurely": 24008,
    "Ġveracity": 23891,
    "Ġunprinciple": 18254,
    "sympathy": 20544,
    "Ġbrain": 2087,
    "Ġprodigy": 19794,
    "Ġdialogue": 12407,
    "Ġ135": 24783,
    "Ġaboard": 6699,
    "Ġcircumspection": 25884,
    "Ġbalmy": 22904,
    "Ġunfelt": 24111,
    "Ġencourag": 1391,
    "Ġcomput": 609,
    "Ġtak": 15472,
    "Ġimbedded": 18333,
    "Ġblacks": 23390,
    "pered": 4195,
    "kitty": 10109,
    "Ġgroom": 13968,
    "Ġunsolved": 22036,
    "Ġlife": 1354,
    "impressed": 12695,
    "Ġefficient": 1042,
    "Ġassertion": 13491,
    "consequ": 18506,
    "objects": 13472,
    "Ġdevoutly": 25833,
    "Ġimproves": 22755,
    "Ġcub": 8415,
    "Ġbutterfly": 19911,
    "Ġescape": 2645,
    "zar": 11551,
    "Ġmoccas": 22439,
    "strip": 19832,
    "irting": 11689,
    "Ġcaucus": 17382,
    "Ġvacancies": 24344,
    "ror": 7351,
    "Ġpeev": 22695,
    "Ġrascal": 11704,
    "cc": 470,
    "Ġexcluded": 16390,
    "Ġpeculiarly": 8287,
    "arded": 5028,
    "resh": 8405,
    "sooner": 14779,
    "Ġnimble": 21530,
    "fugitive": 26131,
    "Ġmoluccas": 25629,
    "Ġperceptibly": 25821,
    "dep": 6787,
    "Ġarduous": 26530,
    "cures": 20806,
    "Ġsympathised": 14864,
    "flames": 14714,
    "anke": 15564,
    "reading": 12083,
    "Ġsoftness": 18918,
    "Ġindistinctly": 26117,
    "Ġdazzling": 15214,
    "emporary": 15801,
    "ides": 2160,
    "amped": 12036,
    "Ġpredicts": 2595,
    "Ġpipe": 4318,
    "Ġtides": 13823,
    "Ġcampa": 17175,
    "Ġpa": 2990,
    "omin": 4702,
    "Ġformations": 18749,
    "Ġpict": 3499,
    "Ġvac": 5024,
    "Ġstamp": 7864,
    "elopement": 23138,
    "Ġ107": 24414,
    "Ġconjectured": 10001,
    "Ġwee": 21921,
    "Ġgir": 2254,
    "Ġwinking": 17794,
    "Ġsprained": 15886,
    "Ġart": 751,
    "Ġtongs": 9965,
    "shirt": 22456,
    "anged": 3587,
    "Ġsle": 2014,
    "Ġcolour": 4461,
    "Ġswift": 3668,
    "etency": 21584,
    "birth": 15324,
    "Ġaccompl": 5167,
    "Ġindependently": 4243,
    "provided": 13640,
    "squeezing": 25913,
    "Ġbrilliancy": 20109,
    "âĢĶ.": 11759,
    "Ġdying": 2135,
    "Ġsphynx": 20713,
    "Ġaver": 1284,
    "glancing": 11217,
    "Ġsharp": 2413,
    "Ġnovelties": 24776,
    "eryton": 4093,
    "Ġtrophy": 20009,
    "Ġcandelab": 23851,
    "Ġhyster": 16874,
    "Ġoriginated": 24123,
    "ore": 418,
    "verse": 9692,
    "Ġforemost": 12008,
    "Ġpelt": 15613,
    "Ġfins": 9667,
    "streamed": 25966,
    "acit": 16083,
    "Ġdamps": 23475,
    "hanging": 10104,
    "ital": 4817,
    "Ġalchemists": 26488,
    "principal": 20661,
    "Ġburning": 5978,
    "Ġbust": 10171,
    "Ġappointment": 10650,
    "earthly": 24722,
    "Ġparlor": 13541,
    "Ġembarrassed": 11387,
    "Ġproperty": 6451,
    "Ġimpaling": 22390,
    "credit": 12452,
    "Ġdistribution": 2020,
    "ĠĠĠĠĠĠĠĠĠĠĠĠĠĠĠĠĠĠĠĠĠĠĠĠĠĠĠĠĠĠĠĠĠĠĠĠĠĠĠĠĠĠĠĠĠĠĠ": 16756,
    "extending": 22773,
    "Ġklan": 23663,
    "Ġardour": 8043,
    "glim": 19367,
    "vain": 15449,
    "Ġdoll": 10819,
    "Ġunbounded": 18259,
    "Ġintermediate": 18588,
    "Ġearnest": 3927,
    "Ġneville": 7399,
    "Ġhurtling": 24959,
    "Ġpacific": 5153,
    "Ġattempted": 8001,
    "Ġfret": 10809,
    "abases": 3006,
    "Ġinverted": 12641,
    "co": 2431,
    "ens": 701,
    "Ġhas": 823,
    "Ġkilburn": 18351,
    "Åĵ": 10747,
    "Ġconvolutional": 2162,
    "Ġriots": 23894,
    "Ġlif": 10199,
    "!)": 10073,
    "Ġschools": 9481,
    "Ġbloody": 9892,
    "fearfully": 25118,
    "swallowed": 14855,
    "Ġuproar": 22158,
    "dire": 15338,
    "Ġdaugh": 2291,
    "Ġharpooneers": 4731,
    "Ġcos": 2205,
    "won": 8395,
    "Ġespe": 21157,
    "ù": 186,
    "ed": 293,
    "Ġfumbled": 17882,
    "antingly": 22101,
    "threshold": 21990,
    "try": 7812,
    "Ġinfallible": 15073,
    "Ġentreaties": 9039,
    "Ġtigris": 25759,
    "ips": 2593,
    "Ġrelieved": 7667,
    "Ġprofessors": 14727,
    "Ġterror": 5123,
    "confid": 14869,
    "owards": 4594,
    "hus": 5071,
    "Ġvicissitudes": 12422,
    "wh": 509,
    "seventh": 12718,
    "apt": 724,
    "Ġseventy": 7880,
    "incl": 8110,
    "torm": 11534,
    "Ġpostscript": 14810,
    "Ġample": 11802,
    "Ð": 145,
    "À": 129,
    "Ġundivided": 24121,
    "Ġdecks": 6900,
    "become": 14248,
    "Ġchaos": 17010,
    "Ġturk": 6605,
    "Ġunob": 22018,
    "furthermore": 20006,
    "theories": 18080,
    "========": 2313,
    "Ġonto": 14034,
    "eng": 1489,
    "opement": 10315,
    "Ġxli": 14542,
    "Ġextent": 7657,
    "belais": 24040,
    "Ġreproached": 24891,
    "Ġravines": 25832,
    "steering": 16637,
    "ģ": 228,
    "Ġpopulous": 16827,
    "Ġvaliant": 9804,
    "Ġlightly": 13086,
    "ĠĠĠĠĠĠĠĠĠĠĠĠĠĠĠĠĠĠĠĠĠĠĠĠ": 5322,
    "hardly": 6492,
    "Ġhessian": 3548,
    "Ġ_": 840,
    "interchange": 23740,
    "Ġastr": 15496,
    "Ġsheet": 6264,
    "Ġlets": 18065,
    "Ġaccuracy": 1049,
    "dance": 17520,
    "visit": 7755,
    "fishers": 24928,
    "Ġswiss": 18881,
    "final": 19678,
    "emorial": 10247,
    "ela": 21571,
    "Ġpuppy": 12408,
    "Ġfocused": 16344,
    "ignity": 4373,
    "d": 72,
    "Ġmace": 21311,
    "secur": 18128,
    "Ġdeliber": 7268,
    "Ġfright": 3795,
    "Ġcontrad": 9759,
    "aration": 12604,
    "hammered": 19004,
    "Ġbouquet": 20685,
    "enhall": 13852,
    "ese": 4444,
    "belonged": 25597,
    "Ġstark": 7390,
    "Ġstages": 14007,
    "mayhew": 23994,
    "Ġf": 283,
    "Ġdependence": 18637,
    "Ġxxxvi": 24971,
    "Ġadvers": 4887,
    "Ġexpectantly": 23528,
    "erc": 5906,
    "Ġprot": 3845,
    "Ġlazarus": 15030,
    "gloom": 17141,
    "ordinate": 12880,
    "Ġweapon": 7776,
    "Ġcapt": 1291,
    "Ġunspeak": 8855,
    "Ġvillage": 5774,
    "anous": 21361,
    "Ġcatastrophe": 10487,
    "salis": 25150,
    "Ġshout": 4261,
    "Ġvectors": 1771,
    "Ġexig": 21829,
    "Ġguise": 14434,
    "Ġxxxi": 24968,
    "twig": 23701,
    "Ġthoughtfulness": 18774,
    "blades": 24131,
    "Ġhem": 8447,
    "Ġapolog": 9047,
    "Ġexposes": 22624,
    "Ġslates": 11110,
    "Ġduly": 13353,
    "meant": 7922,
    "Ġsport": 6690,
    "0": 20,
    "Ġarchbishop": 18710,
    "vering": 15719,
    "blood": 7780,
    "Ġsurv": 6082,
    "oun": 483,
    "Ġshoulders": 5566,
    "Ġpuzzling": 14900,
    "Ġcommunicates": 24546,
    "sentence": 2941,
    "canst": 22965,
    "Ġs": 265,
    "chors": 11647,
    "Ġsacr": 7194,
    "french": 9123,
    "Ġgrew": 5182,
    "soles": 18686,
    "Ġshutters": 9941,
    "Ġofficious": 19350,
    "vap": 13805,
    "who": 2443,
    "Ġstatue": 23152,
    "Ġprejudices": 13471,
    "Ġinvestig": 10553,
    "cet": 15327,
    "unfearing": 21895,
    "Ġsupper": 4665,
    "Ġmagnanimous": 17413,
    "Ġwoven": 9930,
    "Ġlifted": 6986,
    "Ġarsacidean": 20367,
    "Ġparallel": 1417,
    "Ġtermination": 16461,
    "izings": 14053,
    "Ġward": 10159,
    "Ġouthouse": 22317,
    "Ġfrighted": 24031,
    "Ġeight": 3898,
    "beer": 22491,
    "Ġhurst": 5582,
    "Ġen": 392,
    "Ġsum": 2698,
    "ak": 538,
    "Ġgrapple": 25811,
    "Ġsentences": 2681,
    "Ġregardless": 19325,
    "Ġug": 8141,
    "Ġrem": 955,
    "cheer": 9441,
    "Ġprocured": 8681,
    "liable": 3816,
    "Ġreplied": 2262,
    "Ġtranslation": 3086,
    "Ġdiscover": 4717,
    "ricane": 16280,
    "Ġco": 730,
    "Ġsnuffing": 25014,
    "Ġstrangely": 5677,
    "Ġdepicted": 14286,
    "mindful": 19601,
    "Ġwindsor": 16888,
    "Ġdiffused": 12072,
    "Ġlooked": 1801,
    "iving": 1724,
    "ugl": 23290,
    "Ġnic": 7376,
    "Ġobscurely": 20190,
    "Ġcurds": 22973,
    "tained": 4404,
    "Ġglit": 8564,
    "Ġdock": 15933,
    "ignorance": 17163,
    "rified": 15421,
    "Ġdisappointment": 6629,
    "Ġsuspended": 5665,
    "unity": 4149,
    "oundered": 14166,
    "Ġunlabeled": 3798,
    "magnifying": 25393,
    "threatened": 25463,
    "swept": 19788,
    "Ġgregarious": 18963,
    "Ġsalut": 10513,
    "Ġwitness": 4621,
    "begging": 22500,
    "Ġtormented": 8679,
    "Ġswallow": 8954,
    "Ġspl": 2985,
    "worth": 8631,
    "Ġbreadth": 10567,
    ").âĢĿ": 20742,
    "ropout": 1322,
    "Ġtwelve": 4962,
    "Ġauthorities": 11266,
    "Ġcorrespond": 6211,
    "rose": 6015,
    "Ġattracted": 8909,
    "reg": 2182,
    "knives": 14915,
    "Ġdimin": 3868,
    "Ġretiring": 16282,
    "Ġcourtesy": 9949,
    "jewel": 20348,
    "alvan": 21506,
    "Ġwriters": 13544,
    "Ġbeaut": 2393,
    "Ġsensational": 16395,
    "Ġkeener": 22916,
    "Ġyer": 15737,
    "Ġerr": 1323,
    "corn": 13702,
    "Ġforeman": 23447,
    "england": 18930,
    "arat": 9178,
    "txt": 12519,
    "Ġaxis": 12310,
    "Ġoutset": 15958,
    "description": 11096,
    "Ġuncomp": 15844,
    "Ġgra": 416,
    "Ġnorms": 3665,
    "illating": 22110,
    "unted": 6999,
    "Ġceaseless": 13490,
    "Ġmine": 3180,
    "asmuch": 10198,
    "Ġknowing": 4457,
    "explaining": 23147,
    "included": 19209,
    "sets": 17661,
    "Ġrevolver": 14902,
    "Ġseldom": 4629,
    "Ġseclusion": 18208,
    "Ġkings": 7197,
    "miraculous": 26397,
    "accompl": 9884,
    "Ġdefined": 11901,
    "Ġscheming": 23272,
    "com": 999,
    "leeward": 15213,
    "dough": 15337,
    "apothe": 22338,
    "Ġhugh": 15005,
    "Ġmot": 2986,
    "promising": 24724,
    "Ġswap": 23054,
    "Ġventilator": 8718,
    "iel": 11497,
    "Ġfrog": 23924,
    "Ġvacuous": 24343,
    "foolish": 12350,
    "meanwhile": 10613,
    "dw": 3332,
    "vent": 683,
    "phys": 18709,
    "Ġextrem": 2472,
    "fit": 6648,
    "Ġcens": 8414,
    "Ġcir": 21343,
    "Ġthanked": 9463,
    "entirely": 7782,
    "Ġtu": 6969,
    "beaut": 8515,
    "Ġflukes": 5267,
    "Ġsneering": 24695,
    "Ġpound": 12620,
    "war": 6803,
    "uguese": 20733,
    "Ġrusty": 14966,
    "aits": 20767,
    "Ġdistraction": 22509,
    "whispering": 26103,
    "window": 7743,
    "ressed": 3022,
    "Ġprompt": 3190,
    "Ġgossiping": 26244,
    "Ġamendment": 26024,
    "Ġredden": 15697,
    "Ġbased": 3338,
    "chester": 23807,
    "ulia": 18150,
    "Ġcable": 11584,
    "ized": 1528,
    "dangerous": 20242,
    "Ġind": 1219,
    "Ġobtruded": 20723,
    "Ġrepugnant": 26591,
    "mounting": 25208,
    "Ġportcull": 23865,
    "Ġcotton": 17381,
    "discoloured": 23499,
    "Ġ65": 24367,
    "Ġtalks": 23372,
    "kerchief": 7526,
    "Ġmist": 2879,
    "Ġoblige": 10492,
    "Ġelementary": 24810,
    "sprinkling": 24912,
    "Ġperempt": 13676,
    "Ġsorrow": 4628,
    "gods": 13369,
    "%": 9,
    "Ġwarb": 17788,
    "Ġsnugness": 20079,
    "Ġdreary": 10411,
    "tis": 4104,
    "Ġbarrels": 9440,
    "balance": 12010,
    "letters": 13176,
    "yielded": 25756,
    "Ġcongratulate": 9067,
    "Ġwa": 1754,
    "bird": 9589,
    "Ġoctavo": 15166,
    "lights": 13207,
    "create": 24161,
    "sies": 21056,
    "Ġcompos": 22572,
    "rel": 3752,
    "Ġutilize": 4797,
    "Ġtranspired": 16785,
    "emper": 18187,
    "hast": 5358,
    "Ġapril": 13665,
    "ynolds": 10040,
    "Ġpoisoned": 24886,
    "Ġexposed": 8525,
    "rench": 3963,
    "allied": 7410,
    "Ġirons": 7697,
    "structure": 2305,
    "pents": 11516,
    "duck": 22415,
    "Ġhandling": 8917,
    "omb": 10209,
    "ring": 1753,
    "niest": 18992,
    "Ġknocking": 10563,
    "ainty": 21790,
    "Ġpained": 19168,
    "Ġhisself": 21917,
    "Ġfitly": 24001,
    "urrection": 12412,
    "//": 11466,
    "Ġsource": 6806,
    "Ġdavy": 25951,
    "Ġimpudence": 26242,
    "Ġappeased": 23199,
    "Ġpositives": 4314,
    "astrous": 15889,
    "Ġdisabled": 18561,
    "mospheric": 17091,
    "ustomed": 6100,
    "Ġstabbed": 25457,
    "Ġcathed": 14548,
    "Ġdecency": 18483,
    "bore": 13689,
    "ucy": 15446,
    "Ġreaction": 15698,
    "Ġcups": 16883,
    "accompanied": 12425,
    "Ġpresto": 22233,
    "Ġnodded": 11973,
    "official": 24914,
    "Ġreality": 7060,
    "thoughts": 9939,
    "Ġtwos": 18657,
    "shabbily": 26247,
    "Ġexord": 21830,
    "Ġgarn": 13965,
    "robber": 21539,
    "informed": 17737,
    "Ġgi": 15669,
    "honest": 17004,
    "Ġcabman": 14606,
    "attering": 7419,
    "Ġsaf": 3997,
    "Ġarchipelagoes": 14349,
    "bureau": 20790,
    "feelings": 5674,
    "imprudence": 16558,
    "daughters": 13468,
    "Ġmonoton": 3636,
    "buck": 17492,
    "Ġconcocted": 26299,
    "le": 279,
    "formation": 22218,
    "Ġsad": 3864,
    "Ġalleg": 14019,
    "riving": 21929,
    "Ġgratifying": 13308,
    "Ġmerit": 9431,
    "hoping": 17567,
    "Ġclosed": 4605,
    "Ġanew": 11433,
    "Ġsweeter": 23920,
    "Ġneeds": 6607,
    "driven": 19773,
    "Ġhish": 21916,
    "Ġsquint": 22838,
    "odecim": 9836,
    "ball": 7793,
    "Ġscaramouch": 23829,
    "grampus": 18617,
    "Ġparched": 11731,
    "Ġimp": 587,
    "Ġdeclaration": 16638,
    "Ġwithout": 1119,
    "Ġnations": 8815,
    "Ġfavourable": 7959,
    "Ġauger": 21205,
    "Ġarve": 15901,
    "ms": 539,
    "Ġskill": 6872,
    "Ġacquired": 13047,
    "hercules": 22207,
    "spee": 9321,
    "heading": 5487,
    "Ġexceeding": 1577,
    "Ġchewing": 23286,
    "otions": 7181,
    "Ġgreat": 896,
    "Ġroutine": 13509,
    "Ġpaved": 17914,
    "hent": 12538,
    "thickness": 25368,
    "proves": 23396,
    "Ġmult": 1025,
    "Ġgleamed": 17077,
    "often": 6167,
    "Ġproceedings": 9911,
    "cloud": 11109,
    "Ġfinds": 6301,
    "Ġinn": 4590,
    "conveyed": 20523,
    "Ġdependencies": 2315,
    "queens": 22912,
    "ic": 304,
    "Ġneglected": 10381,
    "Ġtheatre": 21280,
    "Ġslouched": 13062,
    "Ġadmin": 23555,
    "Ġaltar": 9232,
    "Ġunfrequ": 19510,
    "Ġpiqu": 21479,
    "Ġappellation": 22225,
    "impatient": 13643,
    "velled": 9880,
    "supervised": 1938,
    "Ġswashing": 23058,
    "lance": 12485,
    "Ġunsc": 22017,
    "turbable": 24530,
    "Ġsecrets": 9058,
    "Ġlogic": 13080,
    "Ġgives": 5017,
    "Ġperched": 10303,
    "Ġupbraiding": 26227,
    "Ġthreads": 13120,
    "Ġpaper": 4280,
    "oh": 1574,
    "Ġnation": 12651,
    "Ġtrip": 16789,
    "Ġembodied": 25847,
    "Ġgips": 10844,
    "Ġcitizens": 25440,
    "Ġgazed": 6479,
    "Ġliberal": 12194,
    "further": 7536,
    "du": 604,
    "Ġgerman": 6143,
    "Ġepo": 21621,
    "Ġgidd": 25783,
    "t": 88,
    "confused": 19641,
    "Ġshuddered": 11303,
    "etite": 21581,
    "Ġchild": 2258,
    "Ġresentful": 24631,
    "onement": 21258,
    "clut": 23154,
    "Ġpaddle": 20061,
    "Ġmisfortunes": 7043,
    "absence": 12712,
    "Ġachieves": 4378,
    "Ġchimer": 24602,
    "Ġbaboon": 19695,
    "Ġgallery": 10528,
    "Ġproced": 2581,
    "Ġcompares": 20168,
    "Ġirretrie": 23376,
    "Ġprofusion": 23569,
    "smiles": 14694,
    "Ġsnatch": 14640,
    "Ġsavage": 4006,
    "repeat": 25155,
    "Ġcand": 3276,
    "Ġmorphology": 3010,
    "Ġankles": 17900,
    "Ġmien": 17809,
    "Ġreceiving": 4882,
    "Ġmother": 2067,
    "missed": 11212,
    "mies": 20969,
    "Ġbab": 5291,
    "Ġ177": 13414,
    "Ġinconstant": 21498,
    "Ġquicker": 16509,
    "vard": 21112,
    "Ġjest": 18403,
    "itation": 1781,
    "Ġwad": 13853,
    "natural": 2287,
    "Ġbeggar": 9353,
    "extraordinary": 9099,
    "flakes": 23970,
    "beds": 16623,
    "ulsive": 10237,
    "sound": 6800,
    "Ġsolicitude": 10044,
    "Ġbennets": 9810,
    "Ġeternally": 11372,
    "squ": 7809,
    "Ġmitigates": 3050,
    "Ġemployments": 12106,
    "anum": 17836,
    "maul": 11893,
    "estate": 12825,
    "Ġmarking": 16470,
    "Ġalternately": 15033,
    "plexy": 18575,
    "Ġlaughter": 9031,
    "spirit": 11316,
    "Ġpoliceman": 15261,
    "Ġforeseen": 16441,
    "Ġbluish": 23650,
    "Ġledge": 19403,
    "Ġinstantly": 3591,
    "Ġframe": 1991,
    "surrounded": 26088,
    "isbury": 21379,
    "Ġnational": 13944,
    "Ġbetokened": 18797,
    "Ġvisits": 8224,
    "lamp": 9612,
    "Ġapart": 4745,
    "Ġplay": 2625,
    "Ġinvolved": 8928,
    "Ġtransparen": 10545,
    "Ġpredict": 675,
    "Ġboa": 22638,
    "Ġbony": 12591,
    "semble": 1525,
    "plentiful": 21959,
    "Ġsunday": 7270,
    "Ġrele": 2919,
    "Ġindic": 2889,
    "Ġears": 4490,
    "Ġfitting": 21410,
    "Ġcommonly": 3264,
    "immediate": 20096,
    "Ġard": 5164,
    "Ġwhaleman": 4654,
    "Ġloss": 822,
    "render": 10294,
    "Ġimpossible": 3543,
    "henomena": 20274,
    "infant": 19829,
    "Ġherein": 16193,
    "Ġfurnaces": 24007,
    "Ġlength": 2499,
    "question": 5418,
    "less": 929,
    "Ġcompat": 2940,
    "Ġpan": 5081,
    "Ġinterlude": 16073,
    "Ġinferred": 14501,
    "Ġblotches": 25315,
    "inces": 13830,
    "moved": 9788,
    "Ġsight": 2110,
    "lings": 8750,
    "_,": 2800,
    "Ġhos": 4941,
    "Ġmenacing": 23110,
    "loaded": 22515,
    "Ġ23": 13192,
    "crat": 24086,
    "Ġprov": 4399,
    "activation": 3232,
    "Ġxxi": 24475,
    "Ġfearfulness": 23514,
    "Ġpri": 5814,
    "ouraged": 22861,
    "herfield": 3630,
    "Ġextravagant": 17280,
    "Ġcigars": 12256,
    "prepared": 13593,
    "Ġceremonies": 24836,
    "Ġdoub": 1838,
    "Ġscan": 22287,
    "Ġtransmit": 10308,
    "endeav": 7151,
    "Ġunful": 22014,
    "greatest": 10497,
    "governed": 25406,
    "Ġinstructions": 11199,
    "proceeding": 20143,
    "Ġfiftieth": 24701,
    "endurable": 22231,
    "Ġshallow": 14396,
    "Ġenlist": 21939,
    "skull": 24487,
    "content": 11201,
    "ter": 359,
    "Ġnewcom": 16224,
    "Ġdiscernment": 15071,
    "Ġsemantic": 1958,
    "Ġnative": 4640,
    "Ġmaiden": 13388,
    "Ġspilling": 22140,
    "Ġshaved": 22005,
    "Ġnoon": 6561,
    "Ġdeferred": 18826,
    "rayed": 23564,
    "Ġyears": 1893,
    "fatigue": 20659,
    "oundering": 11750,
    "Ġviews": 7290,
    "Ġsorting": 3236,
    "Ġgrowl": 16539,
    "Ġeither": 2604,
    "Ġtidings": 11400,
    "Ġhand": 859,
    "Ġtraffic": 23086,
    "tee": 16174,
    "repressed": 21245,
    "omit": 13976,
    "Ġfloated": 7288,
    "Ġtapering": 8776,
    "cu": 10087,
    "ourse": 8874,
    "expose": 23665,
    "Ġpleasantly": 14521,
    "Ġtolerably": 8068,
    "Ġrecalled": 8541,
    "Ġnumberless": 16418,
    "Ġ91": 24589,
    "Ġmanager": 11773,
    "Ġbrief": 6977,
    "himself": 3967,
    "Ġaddison": 14234,
    "Ġplanets": 24058,
    "Ġpeering": 8538,
    "Ġgallop": 19557,
    "Ġwester": 25156,
    "Ġcalhoun": 23045,
    "Ġconfirmation": 17212,
    "nut": 12498,
    "mess": 13755,
    "shutters": 20313,
    "Ġflanks": 11917,
    "Ġwag": 10778,
    "Ġdesolation": 12272,
    "having": 5211,
    "Ġeyed": 12671,
    "sect": 8153,
    "Ġdistorted": 14251,
    "Ġslashing": 23173,
    "ascertain": 21545,
    "Ġhun": 1497,
    "Ġpratt": 23222,
    "Ġsuspending": 19245,
    "lands": 8241,
    "Ġasking": 5651,
    "Ġnovelty": 13465,
    "ch": 321,
    "Ġdesmarest": 22983,
    "rushing": 10022,
    "Ġconception": 10323,
    "Ġdesirable": 8945,
    "bitterly": 20339,
    "Ġmates": 4872,
    "Ġportraits": 20144,
    "Ġpromotion": 23196,
    "Ġcalm": 3447,
    "ladyship": 14831,
    "Ġob": 861,
    "Ġwhether": 2001,
    "Ġhoary": 23356,
    "sun": 7141,
    "Ġsinging": 7724,
    "Ġreligions": 20110,
    "Ġtrades": 8232,
    "pets": 17637,
    "Ġcounterpane": 11346,
    "Ġpersonal": 7480,
    "Ġmes": 17797,
    "iscient": 17852,
    "ounds": 4154,
    "allowed": 5728,
    "Ġnapole": 15118,
    "Ġshouting": 10526,
    "Ġappearance": 3699,
    "Ġcrowder": 19458,
    "Ġrose": 3443,
    "Ġhuff": 21492,
    "evinced": 19927,
    "arboard": 7266,
    "Ġstud": 1584,
    "icide": 11622,
    "Ġangrily": 9411,
    "wheeling": 22874,
    "tolerable": 17689,
    "watson": 12247,
    "Ġsky": 3965,
    "Ġeigenvalues": 4997,
    "Ġsomething": 1794,
    "Ġheidelburgh": 11646,
    "Ġbeseeching": 26311,
    "Ġall": 422,
    "Ġcondition": 6765,
    "Ġbun": 6008,
    "pictures": 15093,
    "Ġdimension": 3242,
    "ordered": 8795,
    "Ġ18": 3405,
    "rise": 6228,
    "honorable": 19902,
    "Ġ38": 24080,
    "Ġtroub": 22347,
    "Ġoccurred": 4462,
    "bearer": 18521,
    "Ġworked": 6585,
    "Ġtest": 1587,
    "Ġscowl": 22293,
    "Ġconcentric": 20077,
    "Ġmel": 4816,
    "Ġcomplain": 6687,
    "Ġgemini": 26470,
    "Ġexcess": 3341,
    "strikes": 24670,
    "quakes": 21859,
    "true": 2587,
    "âĢĻ!âĢĿ": 18169,
    "ĠĠĠĠĠĠĠĠĠĠĠĠĠĠĠĠĠĠĠĠĠĠĠĠĠĠĠĠĠĠĠĠĠĠĠĠĠĠĠ": 19260,
    "Ġlivelong": 25512,
    "Ġlatitude": 8329,
    "alone": 10187,
    "Ġcorridor": 10675,
    "Ġbase": 5012,
    "Ġfurious": 10358,
    "Ġcrevice": 22728,
    "rison": 13781,
    "Ġnevertheless": 5039,
    "ouble": 2660,
    "Ġvillages": 14750,
    "ward": 705,
    "Ġhealthcare": 8016,
    "Ġlonely": 6823,
    "anybody": 12086,
    "Ġtravellers": 11311,
    "genteel": 19951,
    "lascar": 20961,
    "Ġsat": 1129,
    "Ġelizabeth": 1126,
    "Ġperforming": 7928,
    "Ġder": 1499,
    "Ġcuff": 17830,
    "Ġsundering": 23276,
    "Ġstudy": 1746,
    "Ġjumbled": 22300,
    "Ġdampening": 2897,
    "Ġlurked": 11294,
    "exam": 10979,
    "Ġ150": 22829,
    "Ġfoul": 7160,
    "didn": 9011,
    "responsible": 25763,
    "umphed": 23518,
    "ivided": 22081,
    "Ġplate": 8903,
    "Ġprovinces": 24192,
    "Ġscrutin": 26014,
    "Ġbraved": 23840,
    "Ġblocked": 19224,
    "exclaimed": 11794,
    "Ġbenches": 18782,
    "reserve": 17766,
    "Ġprecaution": 11200,
    "igan": 21701,
    "Ġidentity": 2525,
    "fil": 12466,
    "Ġcondescension": 10622,
    "Ġlongitudes": 22637,
    "tal": 17671,
    "Ġrustling": 24713,
    "Ġromans": 16760,
    "overlooked": 23326,
    "cowardly": 25749,
    "Ġspatial": 2729,
    "Ġreliance": 14387,
    "Ġ*": 1269,
    "Ġmerciless": 25247,
    "Ġgesture": 11402,
    "ization": 486,
    "Ġassailants": 20451,
    "coarse": 16488,
    "mariners": 19550,
    "Ġevidence": 5270,
    "Ġalmanac": 26486,
    "Ġleyden": 21735,
    "iday": 8835,
    "Ġlasting": 18792,
    "Ġpark": 5465,
    "damp": 15346,
    "Ġcorpse": 6641,
    "Ġcargo": 16293,
    "robustness": 26339,
    "Ġvineyarder": 25606,
    "Ġhogshe": 20494,
    "frequently": 9983,
    "dripping": 16906,
    "iffs": 9026,
    "Ġtruth": 3319,
    "Ġregrets": 18598,
    "treas": 17680,
    "Ġconsulted": 13432,
    "Ġpensive": 21477,
    "heed": 15500,
    "Ġrugged": 18721,
    "chief": 4644,
    "announced": 19761,
    "Ġcolleg": 22857,
    "Ġordered": 5833,
    "Ġshutting": 14761,
    "Ġassist": 3564,
    "itch": 10164,
    "belongs": 25596,
    "chop": 21690,
    "Ġschedules": 3385,
    "Ġpay": 3959,
    "complacency": 19915,
    "Ġwalked": 3139,
    "ounced": 4953,
    "Ġimprudently": 22393,
    "quickly": 14964,
    "gee": 15980,
    "barbar": 20240,
    "Ġyou": 366,
    "sche": 13022,
    "Ġimplicate": 24876,
    "Ġsuperstition": 15056,
    "Ġdem": 11677,
    "mblance": 7323,
    "Ġshilling": 18228,
    "Ġparmacetti": 20606,
    "painting": 17046,
    "iries": 18171,
    "Ġenc": 969,
    "abated": 14022,
    "Ġtranspointed": 22443,
    "Ġuncle": 3193,
    "ness": 852,
    "Ġbrooded": 23106,
    "Ġcompute": 2907,
    "joice": 9606,
    "Ġlighted": 7065,
    "Ġpierce": 17036,
    "osure": 5308,
    "Ġclinched": 17396,
    "pemberley": 9624,
    "ij": 7802,
    "Ġtable": 2497,
    "critters": 14777,
    "fulness": 4307,
    "questioning": 16851,
    "Ġsash": 17755,
    "Ġfaltering": 17885,
    "Ġunexpl": 22042,
    "Ġterminating": 23511,
    "Ġbeque": 18082,
    "Ġincredulity": 11314,
    "Ġtiller": 8969,
    "Ġusher": 22220,
    "Ġelbow": 12924,
    "ascertaining": 26461,
    "towards": 5002,
    "Ġexcessively": 9444,
    "ĠĠĠĠĠĠĠĠĠĠĠĠĠĠĠĠĠĠĠĠĠĠĠĠĠĠĠĠĠĠĠĠ": 2737,
    "vely": 3863,
    "united": 14062,
    "ĠĠĠĠĠĠĠĠĠĠĠĠĠĠĠĠĠĠĠĠĠĠĠĠĠĠĠĠ": 9979,
    "weave": 22687,
    "Ġtrain": 513,
    "theirs": 23603,
    "Ġpleas": 1907,
    "Ġrector": 21678,
    "wanted": 10746,
    "Ġanguish": 5584,
    "gul": 12469,
    "Ġapproxim": 1217,
    "Ġpupella": 20424,
    "Ġendeared": 26499,
    "Ġdebated": 9044,
    "Ġintrusion": 12769,
    "laughing": 15182,
    "Ġutility": 23515,
    "Ġ[\"": 19932,
    "Ġfaultless": 24539,
    "Ġobservant": 20112,
    "Ġcontention": 22429,
    "malicious": 19903,
    "ulgent": 18151,
    "Ġrocky": 13389,
    "lee": 11589,
    "chron": 21696,
    "Ġdevils": 7230,
    "advantages": 11274,
    "Ġlect": 9224,
    "Ġcommunication": 1872,
    "Ġvan": 1086,
    "Ġarmitage": 23582,
    "Ġvowed": 14086,
    "Ġthousandth": 23686,
    "Ġfanning": 23392,
    "Ġmonsters": 11077,
    "Ġshud": 5461,
    "misrepresented": 24213,
    "Ġcrocodile": 20741,
    "Ġrivers": 9446,
    "ç": 168,
    "third": 8168,
    "ition": 654,
    "P": 52,
    "amaz": 21847,
    "dr": 6223,
    "Ġtough": 13817,
    "Ġjar": 15953,
    "Ġlands": 6596,
    "Ġdomineer": 23660,
    "success": 6712,
    "Ġforgotten": 5679,
    "ingale": 21301,
    "Ġinterrupted": 6345,
    "Ġgallant": 8659,
    "agre": 18166,
    "Ġprinted": 11952,
    "Ġhinge": 25542,
    "covering": 15336,
    "Ġdives": 17894,
    "resent": 10772,
    "Ġdecidedly": 9513,
    "Ġ123": 24467,
    "avor": 14278,
    "Ġremains": 4910,
    "Ġburied": 7719,
    "Ġsuckling": 25997,
    "scornful": 26576,
    "unsuitable": 21896,
    "itoring": 21334,
    "ard": 465,
    "Ġimprinted": 22396,
    "Ġoxen": 19953,
    "lifeless": 24313,
    "urpation": 16304,
    "Ġsunshine": 14495,
    ".âĢĻâĢĿ": 6741,
    "vac": 15452,
    "change": 6393,
    "aven": 8209,
    "reject": 21238,
    "Ġschool": 5512,
    "Ġbir": 17854,
    "agra": 14068,
    "ribut": 814,
    "Ġedition": 16456,
    "mira": 20980,
    "Ġdoings": 18375,
    "Ġpsych": 10180,
    "perils": 22190,
    "ending": 1989,
    "Ġphysiology": 25333,
    "Ġcirculation": 16419,
    "Ġgrows": 4984,
    "ippers": 17577,
    "Ġexpense": 7653,
    "Ġsauce": 15893,
    "Ġabound": 8868,
    "illar": 5100,
    "Ġmetaphysical": 26066,
    "Ġregards": 16080,
    "Ġmoustache": 20486,
    "Ġxviii": 23411,
    "other": 1315,
    "ante": 11725,
    "Ġmince": 22833,
    "owal": 13998,
    "Ġvoyager": 16513,
    "seals": 21821,
    "Ġgenuine": 14887,
    "indul": 22376,
    "support": 9473,
    "Ġentertain": 6055,
    "atural": 949,
    "Ġfamiliarity": 16730,
    "quarried": 24947,
    "Ġbachelors": 24860,
    "drive": 8687,
    "pipe": 8701,
    "unimportant": 18161,
    "lives": 12489,
    "Ġreigned": 13989,
    "attempted": 20176,
    "ills": 1627,
    "ose": 718,
    "Ġomin": 11581,
    "ĠâĢĺ_": 11120,
    "charge": 9452,
    "```": 25893,
    "andering": 21870,
    "Ġdescent": 996,
    "vii": 13150,
    "Ġcontent": 5033,
    "Ġattractive": 25121,
    "Ġrewarding": 13439,
    "Ġhimself": 1353,
    "Ġvortex": 26209,
    "Ġscreams": 24603,
    "Ġsolemnity": 9945,
    "Ġexcellent": 4235,
    "Ġchimneys": 16973,
    "Ġpunish": 12163,
    "Ġrickety": 26506,
    "Ġstandards": 19015,
    "Ġsweetly": 23921,
    "Ġshortly": 6198,
    "trucks": 25420,
    "Ġoverjoyed": 17460,
    "Ġunqualified": 22064,
    "Ġexploring": 4302,
    "thoughtfully": 24046,
    "ah": 1833,
    "Ġsymph": 22211,
    "Ġplunging": 14954,
    "Ġleap": 5824,
    "za": 13812,
    "wives": 15457,
    "Ġgraves": 11712,
    "Ġensure": 23690,
    "Ġmalady": 24391,
    "quohog": 21861,
    "gyric": 19110,
    "Ġflamingo": 15103,
    "Ġtypically": 1534,
    "Ġceiling": 7997,
    "iding": 3844,
    "Ġfilled": 4393,
    "Ġexperiments": 23033,
    "rador": 19128,
    "Ġbrightness": 16578,
    "Ġbark": 10801,
    "Ġmagnifying": 16322,
    "Ġgroans": 14826,
    "Ġhil": 10824,
    "enial": 17781,
    "Ġegyptians": 25290,
    "same": 5362,
    "conside": 9294,
    "Ġfondly": 19618,
    "destiny": 16700,
    "Ġlingo": 24903,
    "Ġunreasonable": 12781,
    "steep": 19421,
    "soled": 14335,
    "Ġvalue": 2083,
    "ales": 3316,
    "Ġlately": 6388,
    ".]": 15301,
    "Ġresounds": 22545,
    "Ġembellish": 25848,
    "Ġdisclose": 16159,
    "Ġbucket": 8793,
    "Ġsaratoga": 26424,
    "Ġsleeves": 10664,
    "Ġhousemaid": 14467,
    "Ġcharacteristically": 23693,
    "staking": 21650,
    "Ġconstruct": 23343,
    "ontory": 10462,
    "commod": 16176,
    "Ġcape": 5146,
    "ust": 496,
    "saying": 8645,
    "joy": 3334,
    "Ġwhalemen": 3909,
    "Ġcolle": 8929,
    "produce": 20284,
    "Ġprescribed": 26010,
    "iter": 4390,
    "dignity": 15348,
    "ulls": 8843,
    "rey": 12542,
    "coloured": 7291,
    "av": 740,
    "Ġhereby": 10361,
    "removing": 17765,
    "Ġruss": 18720,
    "ceed": 1076,
    "define": 1526,
    "Ġaut": 1834,
    "Ġblow": 3373,
    "Ġsmoky": 22561,
    "Ġtruce": 24116,
    "contrad": 19292,
    "Ġcleaving": 23184,
    "Ġreasoning": 1990,
    "aced": 2406,
    "Ġdoxology": 22247,
    "behaviour": 11304,
    "handed": 7483,
    "honor": 19901,
    "tenham": 16323,
    "humoredly": 26325,
    "asked": 8916,
    "Ġmagnific": 16321,
    "Ġgratification": 24099,
    "Ġfreezing": 23885,
    "etence": 21579,
    "Ġpredicted": 2045,
    "Ġinasmuch": 10828,
    "Ġtent": 15469,
    "likeness": 19480,
    "Ġease": 5629,
    "Ġtennessee": 26597,
    "voices": 21119,
    "Ġplane": 11827,
    "Ġundoing": 22038,
    "Ġcoron": 4464,
    "Ġgentleness": 8714,
    "Ġaunts": 21202,
    "gravel": 22622,
    "Ġthroats": 24575,
    "Ġsly": 9636,
    "prit": 19344,
    "Ġ&": 6514,
    "awned": 19462,
    "starbuck": 6020,
    "Ġemail": 19075,
    "Ġmonotonically": 3831,
    "Ġate": 8845,
    "Ġreservoir": 20652,
    "Ġsquares": 11172,
    "punct": 20194,
    "uncontrollable": 20598,
    "Ġcet": 6672,
    "ourney": 3553,
    "Ġconsists": 11981,
    "Ġparents": 6754,
    "miserably": 24212,
    "Ġ111": 24435,
    "Ġanimate": 23424,
    "Ġtrinity": 22348,
    "occurred": 13340,
    "behaved": 24462,
    "Ġbigger": 19763,
    "Ġ19": 6721,
    "Ġprovince": 24191,
    "Ġfling": 9664,
    "su": 799,
    "Ġthanks": 6709,
    "destroyed": 15263,
    "condescended": 26249,
    "Ġpresum": 4837,
    "Ġwig": 9165,
    "darker": 24515,
    "Ġflank": 8229,
    "Ġdiscovers": 4426,
    "Ġmaintaining": 1508,
    "anders": 18154,
    "Ġtwentieth": 18659,
    "execution": 20474,
    "acey": 7651,
    "rative": 17653,
    "Ġparm": 15880,
    "spond": 5567,
    "Ġunspeakably": 25173,
    "Ġa": 263,
    "Ġgirl": 3085,
    "Ġsuck": 15865,
    "idual": 1558,
    "Ġscrew": 8872,
    "att": 1458,
    "Ġstead": 5650,
    "fooled": 24418,
    "======================================================================": 10072,
    "Ġstare": 10867,
    "rics": 13040,
    "ulate": 5233,
    "Ġglimp": 6067,
    "poise": 6173,
    "incible": 16499,
    "Ġpurchased": 12264,
    "Ġdirect": 1473,
    "Ġsharpened": 17367,
    "adel": 15732,
    "Ġhook": 6454,
    "Ġanxious": 4517,
    "pumps": 21028,
    "Ġboone": 11843,
    "Ġprestige": 22239,
    "miles": 10715,
    "Ġdescend": 7427,
    "grace": 5847,
    "rat": 8760,
    "Ġrecesses": 17262,
    "painful": 13503,
    "Ġdocumentation": 20556,
    "cord": 8728,
    "Ġack": 5622,
    "Ġsticking": 13429,
    "entreat": 17977,
    "Ġloop": 14148,
    "result": 12047,
    "ary": 990,
    "Ġfreighted": 16325,
    "Ġscarcely": 4004,
    "Ġjust": 1239,
    "circled": 24189,
    "tort": 17676,
    "Ġtopic": 9410,
    "unhappy": 10241,
    "Ġobtain": 8919,
    "bur": 4686,
    "Ġdictate": 20153,
    "puted": 8851,
    "Ġfidget": 15192,
    "semicirc": 26492,
    "Ġfields": 2141,
    "Ġvindictive": 20472,
    "usion": 3299,
    "Ġvariance": 1167,
    "Ġlighter": 12657,
    "ties": 2760,
    "Ġcorrupt": 11926,
    "Ġfold": 5531,
    "agne": 21908,
    "Ġmomentary": 11038,
    "modern": 1172,
    "inished": 17735,
    "Ġprisoner": 8677,
    "Ġshoulder": 5849,
    "inarticulate": 21197,
    "Ġholidays": 22924,
    "Ġdelicacy": 6342,
    "etw": 404,
    "Ġsplendour": 20226,
    "Ġlent": 21549,
    "Ġignor": 4007,
    "ached": 2322,
    "obedience": 17412,
    "boiling": 19000,
    "¿": 128,
    "Ġinvader": 23479,
    "Ġcurbstone": 26043,
    "Ġcardboard": 19981,
    "Ġdissimilar": 22534,
    "id": 338,
    "attered": 4014,
    "Ġgases": 21604,
    "Ġleaned": 7606,
    "sequently": 14584,
    "Ġcode": 1719,
    "Ġreco": 9795,
    "Ġmappings": 2145,
    "Ġperiodical": 14774,
    "Ġfully": 6344,
    "weaknesses": 26030,
    "Ġsqueaking": 26275,
    "Ġmusky": 19384,
    "Ġnod": 1890,
    "Ġgulp": 20031,
    "Ġmaids": 19693,
    "Ġmilitary": 11260,
    "cated": 20804,
    "rity": 13778,
    "elizabeth": 1986,
    "peter": 24299,
    "jam": 15374,
    "idity": 8836,
    "Ġmud": 11577,
    "Ġcolumbus": 26565,
    "ques": 2844,
    "Ġconceal": 5975,
    "Ġgratify": 19505,
    "Ġother": 760,
    "enesis": 24387,
    "Ġdoctor": 5066,
    "Ġagencies": 18541,
    "prev": 12871,
    "Ġstationary": 19696,
    "Ġhurry": 4913,
    "Ġcar": 1421,
    "www": 17253,
    "Ġcollege": 11427,
    "Ġconnected": 5393,
    "adagrad": 9695,
    "Ġcries": 7155,
    "Ġalong": 1978,
    "Ġpaws": 13923,
    "rocket": 13946,
    "han": 12476,
    "ected": 7873,
    "Ġprep": 4188,
    "Ġbelly": 10373,
    "plexion": 14262,
    "encoura": 15050,
    "[_": 5131,
    "Ġintellectual": 11404,
    "Ġincarnate": 20377,
    "Ġentirely": 3433,
    "ire": 492,
    "Ġendow": 23139,
    "pencil": 18828,
    "Ġaquiline": 26159,
    "Ġcircles": 7967,
    "izzy": 3094,
    "oriented": 2949,
    "Ġrestrict": 16379,
    "Ġbending": 12589,
    "fer": 1954,
    "Ġlaudanum": 20692,
    "iced": 3897,
    "Ġhumility": 12987,
    "Ġpath": 2113,
    "Ġsummarization": 3646,
    "Ġscore": 9742,
    "collar": 19329,
    "anging": 3551,
    "pract": 10123,
    "Ġeloquent": 16113,
    "invari": 21186,
    "Ġextinct": 14328,
    "Ġcompliance": 12118,
    "poled": 22908,
    "expected": 5780,
    "Ġdiscrimin": 2548,
    "icted": 5938,
    "Ġnever": 1022,
    "roylott": 20029,
    "Ġjacobian": 2894,
    "Ġrighted": 23181,
    "Ġyoke": 18097,
    "engthen": 14460,
    "Ġforget": 2633,
    "Ġsort": 1507,
    "ellig": 522,
    "Ġtowns": 11176,
    "thodox": 21991,
    "Ġvirtues": 9940,
    "Ġprimitive": 25063,
    "Ġbrass": 11051,
    "Ġdoted": 21440,
    "olence": 10234,
    "cour": 4479,
    "Ġminus": 18750,
    "Ġcrimson": 16438,
    "Ġskylarking": 19489,
    "prodig": 16429,
    "ble": 541,
    "Ġimpreg": 15991,
    "Ġcourt": 4166,
    "Ġcoiling": 12909,
    "Ġconsecutive": 20704,
    "Ġservice": 6472,
    "Ġelemental": 19920,
    "Ġxvi": 19105,
    "Ġattach": 14293,
    "persuaded": 15076,
    "Ġindignation": 8347,
    "Ġinterior": 8899,
    "score": 18856,
    "situation": 11440,
    "F": 42,
    "used": 3260,
    "Ġfree": 3374,
    "Ġoysters": 20581,
    "Ġsche": 1703,
    "Ġdiver": 2531,
    "Ġhysterical": 26092,
    "warrior": 24796,
    "Ġfejee": 18354,
    "portent": 25413,
    "Ġalexander": 17426,
    "Ġfacility": 19851,
    "Ġlucy": 17971,
    "Ġnursery": 19752,
    "Ġused": 2060,
    "Ġgaining": 9496,
    "Ġwillingly": 8889,
    "Ġaccomplish": 14878,
    "Ġcapture": 3383,
    "Ġsacred": 10933,
    "untering": 15779,
    "Ġvelocity": 10624,
    "oky": 8198,
    "ented": 4346,
    "lounged": 26133,
    "Ġapr": 12536,
    "Ġthrust": 5083,
    "inguish": 9401,
    "Ġbaleful": 24984,
    "Ġdashes": 21441,
    "Ġrises": 9717,
    "Ġnantucketers": 9898,
    "Ġinconsistency": 26183,
    "Ġcompliments": 8637,
    "obstructed": 15229,
    "Ġcontrivance": 17185,
    "english": 2775,
    "variance": 2654,
    "ind": 568,
    "strange": 6087,
    "acceler": 23599,
    "Ġundo": 15843,
    "Åĵuv": 15185,
    "Ġsporty": 19891,
    "Ġstile": 21738,
    "Ġintelligent": 1408,
    "Ġreminded": 10003,
    "bidden": 19739,
    "Ġhappen": 5571,
    "Ġcoincidence": 25484,
    "Ġfrocks": 23925,
    "Ġandromeda": 21510,
    "k": 79,
    "Ġforetold": 23451,
    "Ġinsignificance": 20459,
    "Åĵuvre": 25887,
    "Ġcareless": 11122,
    "shold": 2774,
    "Ġbundles": 26175,
    "Ġjew": 9471,
    "travellers": 24338,
    "Ġsuppose": 2869,
    "Ġezekiel": 26193,
    "Ġinvade": 19143,
    "Ġlines": 4534,
    "Ġparac": 12799,
    "pur": 7806,
    "Ġsocietal": 11439,
    "Ġinstrument": 7120,
    "inkled": 5477,
    ";âĢĶ": 3748,
    "Ġclutches": 20020,
    "Ġcontroverted": 23253,
    "ivorous": 22082,
    "Ġankers": 21447,
    "Ġnorm": 763,
    "Ġits": 706,
    "etwork": 438,
    "Ġgrate": 12967,
    "Ġrighteous": 18947,
    "aph": 10957,
    "olly": 3226,
    "Ġspecimens": 18858,
    "Ġjoined": 4564,
    "._]]": 5335,
    "Ġenterprise": 8646,
    "Ġdedication": 2779,
    "blocks": 25518,
    "Ġsegmentation": 17342,
    "oning": 7573,
    "Ġspr": 4020,
    "resolutions": 26164,
    "Ġunmolested": 15248,
    "Ġrevolve": 19732,
    "Ġpretend": 7722,
    "inching": 21191,
    "Ġstock": 7455,
    "Ġphotography": 24683,
    "hess": 4746,
    "Ġreversed": 15700,
    "helpless": 16791,
    "ep": 441,
    "pleasantness": 19772,
    "poverty": 22909,
    "anation": 5804,
    "clings": 23155,
    "suggested": 17301,
    "Ġdelay": 5748,
    "securer": 25602,
    "usage": 12836,
    "Ġclean": 5652,
    "Ġinexperience": 26099,
    "=": 33,
    "money": 8754,
    "bitts": 26122,
    "Ġproc": 5545,
    "Ġpret": 3035,
    "Ġdeity": 18136,
    "Ġunrecord": 16622,
    "Ġcentral": 7728,
    "fore": 688,
    "Ġbutter": 6842,
    "Ġsuspected": 9066,
    "æ": 167,
    "Ġhoars": 19078,
    "ĠĠĠĠĠĠĠĠĠĠĠĠĠĠĠĠ": 1218,
    "Ġmiscellaneous": 17464,
    "Ġunlo": 22015,
    "oftener": 23967,
    "eked": 16405,
    "lyph": 10855,
    "tw": 2813,
    "Ġcomplexion": 8210,
    "Ġplunged": 8697,
    "fred": 20856,
    "Ġtogether": 1880,
    "Ġexpensive": 12921,
    "Ġtwitched": 20446,
    "ulties": 12905,
    "Ġtoil": 6533,
    "fiercely": 25257,
    "Ġtolland": 24990,
    "oin": 17618,
    "Ġseasonable": 24405,
    "trying": 15440,
    "Ġreminds": 13433,
    "Ġstrateg": 1325,
    "gling": 10101,
    "ustration": 2257,
    "Ġdeclare": 6617,
    "Ġpurposes": 11171,
    "Ġordinarily": 20650,
    "Ġric": 18209,
    "Ġgreece": 17070,
    "revival": 26162,
    "delighted": 10566,
    "etch": 9208,
    "Ġexal": 10880,
    "Ġshaken": 10268,
    "Ġinquisitive": 26317,
    "Ġeach": 892,
    "Ġnoble": 3440,
    "uc": 1878,
    "Ġpassion": 4557,
    "Ġamours": 22484,
    "Ġcoun": 4175,
    "ellow": 3872,
    "Ġpretensions": 16559,
    "Ġperfidious": 25666,
    "Ġbroods": 23105,
    "Ġmccarthys": 19664,
    "bride": 19201,
    "Ġcaution": 11349,
    "Ġashes": 7618,
    "Ġhappier": 10362,
    "suff": 4960,
    "foundered": 20868,
    "Ġbands": 14886,
    "Ġlye": 21553,
    "Ġloite": 22114,
    "iah": 14418,
    "fanning": 20867,
    "received": 9642,
    "Ġsailed": 4889,
    "Ġclinging": 10295,
    "``": 15309,
    "Ġhurrah": 9873,
    "Ġhasn": 12928,
    "Ġcloudless": 16670,
    "Ġfancies": 10427,
    "Ġshrinking": 14807,
    "hotel": 20052,
    "Ġ183": 13240,
    "Ġnicely": 8713,
    "Ġpermitted": 9282,
    "asible": 21544,
    "ident": 3378,
    "Ġsubjects": 7074,
    "since": 5896,
    "Ġegress": 21623,
    "Ġadagrad": 2905,
    "Ġstrength": 4256,
    "Ġnoted": 15833,
    "my": 1316,
    "gam": 10099,
    "Ġsuggest": 5417,
    "prove": 11150,
    "Ġdispose": 23881,
    "Ġ182": 13239,
    "vest": 6232,
    "Ġyielding": 12190,
    "Ġla": 5914,
    "Ġm": 274,
    "Ġdetermines": 2367,
    "Ġlounged": 19956,
    "Ġswelling": 11928,
    "Ġmizzen": 20291,
    "hyena": 24254,
    "ologist": 22866,
    "Ġdefect": 8558,
    "Ġgreenness": 23768,
    "ache": 8521,
    "Ġapproach": 858,
    "set": 3862,
    "ai": 2527,
    "Ġverte": 9445,
    "different": 6502,
    "Ġinh": 10827,
    "Ġmonsieur": 12424,
    "iality": 8849,
    "Ġreduced": 11927,
    "Ġdaybreak": 18727,
    "hoped": 20911,
    "Ġdarkened": 16434,
    "Ġsong": 5904,
    "Ġdashed": 6011,
    "Ġjournal": 15221,
    "Ġhamper": 19391,
    "consist": 14818,
    "Ġcigaret": 16977,
    "Ġdesolate": 10017,
    "Ġextracted": 16290,
    "kily": 20938,
    "pre": 649,
    "Ġconsequence": 5542,
    "Ġsultanism": 25888,
    "gracechurch": 24581,
    "Ġlarge": 1065,
    "Ġsovereign": 10066,
    "Ġorigin": 4118,
    "Ġswing": 13039,
    "going": 6315,
    "Ġdeposition": 18614,
    "avers": 17482,
    "Ġimpenet": 14223,
    "Ġambition": 11435,
    "Ġnut": 12650,
    "okingly": 22384,
    "direct": 12460,
    "Ġjacobians": 2895,
    "Ġprophesied": 26062,
    "animals": 24736,
    "Ġnecessitated": 23931,
    "Ġceremonious": 24837,
    "net": 1193,
    "Ġpeter": 10539,
    "million": 25751,
    "Ġscalding": 16341,
    "Ġclang": 15968,
    "ength": 2314,
    "Ġabusive": 22276,
    "Ġsumm": 3355,
    "accursed": 20542,
    "guard": 12132,
    "perth": 22188,
    "Ġparagraph": 17456,
    "Ġmechanisms": 1573,
    "Ġclut": 7643,
    "Ġresponsiveness": 2899,
    "ful": 668,
    "Ġbou": 17853,
    "Ġincompatible": 25680,
    "Y": 61,
    "injured": 15135,
    "Ġfidgeted": 25889,
    "mbles": 23091,
    "umns": 14149,
    "Ġtahiti": 13622,
    "Ġmyst": 4046,
    "Ġribs": 7103,
    "Ġbunch": 11329,
    "Ġrejoined": 14929,
    "peaceful": 20449,
    "flatter": 23969,
    "Ġarguments": 8037,
    "Ã¦st": 24177,
    "Ġsage": 17753,
    "introdu": 8941,
    "Ġprojecting": 9989,
    "are": 639,
    "Ġancestry": 25641,
    "renched": 7907,
    "surprised": 9535,
    "Ĥ": 229,
    "Ġfretfulness": 25449,
    "mistaken": 12214,
    "Ġwindpipe": 23108,
    "arance": 4696,
    "Ġmainz": 22650,
    "Ġnetwork": 450,
    "Ġresid": 22541,
    "Ġstupid": 7608,
    "ned": 3492,
    "Ġ16": 7927,
    "beating": 22492,
    "Ġve": 1107,
    "Ġplough": 18608,
    "Ġtrade": 2549,
    "Ġauto": 23319,
    "Ġresistance": 13531,
    "iger": 8448,
    "Ġadhes": 22106,
    "Ġdisplayed": 10612,
    "mush": 20978,
    "_:": 17480,
    "Ġtransform": 739,
    "Ġfaster": 3199,
    "nurtured": 25525,
    "Ġboil": 16107,
    "Ġgradual": 20603,
    "Ġarrog": 18339,
    "Ġavert": 14427,
    "recognised": 15265,
    "Ġdrow": 21433,
    "Ġquarrelling": 13500,
    "Ġsubmitted": 11874,
    "Ġbingleys": 18995,
    "Ġprayers": 12127,
    "Ġnib": 13942,
    "Ġjavelin": 26104,
    "brad": 20781,
    "Ġevinced": 7102,
    "bid": 5611,
    "Ġquadruped": 20617,
    "max": 1684,
    "Ġdict": 9180,
    "_âĢĶâĢĻ": 13685,
    "Ġabounding": 12347,
    "Ġtowing": 9197,
    "Ġastern": 6091,
    "breath": 15165,
    "Ġcaroline": 7254,
    "Ġinterposed": 20621,
    "ies": 583,
    "Ġremoter": 20108,
    "ished": 1429,
    "10": 17474,
    "Ġbernard": 20686,
    "Ġirresolute": 24916,
    "Ġcomputations": 16007,
    "Ġfads": 21418,
    "Ġbawling": 25945,
    "icked": 10336,
    "opes": 10314,
    "Ġshoved": 23491,
    "Ġtistig": 26414,
    "Ġstartling": 14672,
    "ilies": 18058,
    "urously": 18051,
    "Ġcolony": 18766,
    "Ġhappily": 9335,
    "Ġpattering": 18649,
    "mediate": 16515,
    "smart": 23909,
    "hertfordshire": 10939,
    "ifully": 13186,
    "form": 494,
    "Ġconfinement": 19038,
    "Ġdishonoured": 20393,
    "Ġur": 5540,
    "Ġunquestion": 18248,
    "paddington": 20480,
    "Ġvoyage": 3053,
    "Ġstoop": 16313,
    "Ġpresented": 5183,
    "Ġwhar": 7388,
    "Ġul": 6828,
    "Ġdropped": 4471,
    "Ġbecalmed": 18088,
    "choose": 23675,
    "Ġtet": 21159,
    "ifts": 12739,
    "Ġovercome": 6045,
    "µ": 118,
    "discovery": 12020,
    "hoisting": 23718,
    "Ġfifth": 11259,
    "Ġrifle": 18212,
    "igin": 3655,
    "Ġemir": 23352,
    "ifice": 7198,
    "Ġyawning": 12303,
    "animate": 12581,
    "Ġugl": 12686,
    "Ġwarring": 16866,
    "atived": 21264,
    "ploy": 2019,
    "nerable": 16278,
    "hastily": 19704,
    "Ġdescends": 14289,
    "chairs": 21695,
    "mbl": 5947,
    "Ġhappens": 2186,
    "Ġstung": 21744,
    "rawling": 21638,
    "Ġhateful": 19715,
    "Ġilluminated": 20177,
    "Ġchil": 11755,
    "Ġsiam": 13840,
    "Ġparametric": 2395,
    "Ġsafie": 6620,
    "Ġbubb": 12588,
    "Ġcoals": 16076,
    "Ġenables": 726,
    "directly": 13711,
    "Ġhedge": 8364,
    "Ġanomaly": 25636,
    "Ġman": 544,
    "Ġlanguid": 14215,
    "Ġugliness": 20429,
    "Ġannounce": 13341,
    "Ġmarling": 23036,
    "grate": 23413,
    "Ġmoran": 9346,
    "vi": 2375,
    "Ġsplit": 7993,
    "Ġdownstairs": 11227,
    "dick": 11482,
    "ilated": 18059,
    "Ġrepresentation": 14407,
    "Ġobserve": 4670,
    "Ġneskye": 21533,
    "Ġ11": 5319,
    "fort": 1749,
    "Ġglacier": 11436,
    "Ġtrag": 13042,
    "Ġpitch": 5767,
    "orial": 8418,
    "Ġconfiding": 19037,
    "deploy": 22145,
    "Ġtall": 4034,
    "oided": 11512,
    "Ġrobert": 10973,
    "Ġswimming": 5507,
    "Ġreferences": 21676,
    "merely": 16137,
    "Ġcane": 10930,
    "Ġbloom": 9891,
    "intosh": 22942,
    "Ġsa": 474,
    "Ġsmoked": 10326,
    "saf": 11528,
    "mes": 1196,
    "sa": 8761,
    "earthquakes": 24723,
    "Ġindividual": 5744,
    "under": 3131,
    "Ġtended": 21168,
    "metallic": 19881,
    "Ġvibrating": 13539,
    "Ġdivined": 19445,
    "abhorred": 17338,
    "Ġconvincing": 19309,
    "Ġreports": 19085,
    "Ġsacrific": 15019,
    "possibility": 13364,
    "Ġunf": 4087,
    "Ġambergris": 8710,
    "Ġpossessing": 16577,
    "Ġsacrifice": 9559,
    "Ġrecent": 7436,
    "Ġreven": 18030,
    "place": 4151,
    "umber": 5241,
    "ments": 1402,
    "Ġarabian": 9094,
    "Ġplied": 22600,
    "bpp": 20773,
    "Ġoffend": 16147,
    "Ġkindred": 16380,
    "Ġshowed": 4496,
    "Ġunmo": 12777,
    "Ġpuffing": 12258,
    "Ġincalcul": 16066,
    "conced": 22471,
    "Ġcro": 4873,
    "Ġinsolence": 20255,
    "snow": 10727,
    "aving": 2405,
    "Ġarrest": 7409,
    "Ġmutable": 23957,
    "intense": 22938,
    "ud": 912,
    "Ġmood": 6278,
    "Ġrelaps": 18776,
    "Ġheiress": 20699,
    "fabulous": 20476,
    "Ġprincess": 23226,
    "waste": 21136,
    "Ġcombat": 16184,
    "Ġoce": 3030,
    "Ġadmir": 12025,
    "sweep": 24617,
    "icken": 6713,
    "finger": 10097,
    "Ġpicturesqueness": 24479,
    "Ġliberty": 7762,
    "Ġforgetting": 3434,
    "Ġfamilies": 8027,
    "Ġunex": 11717,
    "fortunes": 6334,
    "achalot": 15866,
    "Ġseconds": 16397,
    "bald": 16445,
    "paws": 21030,
    "Ġcastor": 19429,
    "Ġproposals": 10617,
    "Ġrind": 21972,
    "Ġstop": 2501,
    "Ġrelieve": 8223,
    "Ġgladly": 14682,
    "Ġattics": 22627,
    "000": 2562,
    "Ġdum": 10817,
    "Ġtrees": 4200,
    "proof": 16426,
    "Ġtornado": 24621,
    "Ġswears": 16464,
    "wont": 21134,
    "ades": 5631,
    "Ġwounded": 8662,
    "Ġhastened": 9008,
    "Ġslid": 7952,
    "beauty": 20106,
    "concl": 12873,
    "bast": 10081,
    "assisted": 22310,
    "Ġrattle": 10902,
    "Ġblue": 3454,
    "Ġrode": 16001,
    "Ġdisappoint": 24207,
    "Ġadvanced": 1515,
    "attacks": 23126,
    "Ġtrains": 10950,
    "ure": 357,
    "inhab": 10760,
    "iverer": 11720,
    "corpse": 24485,
    "Ġbright": 3214,
    "Ġinfall": 7960,
    "Ġparameters": 995,
    "inburgh": 15492,
    "Ġwantonly": 22895,
    "Ġcharger": 19005,
    "Ġbroken": 3448,
    "Ġentangled": 10347,
    "Ġaux": 21201,
    "whe": 1074,
    "Ġmotions": 8281,
    "Ġtallest": 15476,
    "Ġmuch": 922,
    "Ã¦us": 14819,
    "expressing": 16802,
    "Ġstre": 2107,
    "Ġdetaining": 25819,
    "Ġsigmoid": 2459,
    "Ġresponsible": 9890,
    "Ġwhiting": 10862,
    "yd": 21144,
    "Ġdisturb": 7109,
    "ivory": 10272,
    "carpenter": 11430,
    "Ġdood": 22245,
    "Ġheightens": 24156,
    "Ġbrood": 23103,
    "Ġprince": 18972,
    "izers": 18144,
    "Ġfoundations": 11076,
    "illation": 14143,
    "conditional": 9082,
    "Ġplunder": 22605,
    "towing": 17690,
    "pervised": 1612,
    "Ġofficers": 4424,
    "aintance": 3569,
    "Ġsuperiority": 14617,
    "Ġwearied": 15796,
    "ascar": 8436,
    "Ġincarnation": 25574,
    "mad": 5281,
    "Ġunravel": 26215,
    "Ġsinking": 7307,
    "Ġtimidity": 24687,
    "ss": 397,
    "ignorantly": 25190,
    "Ġrig": 4222,
    "Ġjav": 7902,
    "results": 20389,
    "Ġremedy": 18725,
    "Ġjib": 14195,
    "pitching": 24077,
    "loath": 22512,
    "being": 3910,
    "cannib": 11906,
    "boone": 23255,
    "Ġaltering": 18104,
    "Ġforbe": 8459,
    "Ġjewels": 12372,
    "Ġassistants": 9455,
    "irms": 18170,
    "Ġflesh": 5970,
    "Ġcommentaries": 20162,
    "ructive": 18543,
    "superst": 11328,
    "appre": 14372,
    "draught": 12094,
    "Ġneighb": 14076,
    "embraces": 25805,
    "Ġfulf": 6773,
    "drink": 10599,
    "Ġcarefully": 6306,
    "Ġabused": 22272,
    "Ġoffered": 5817,
    "Ġturned": 2132,
    "!_âĢĿ": 11379,
    "slo": 17657,
    "Ġpaid": 5014,
    "ifix": 21906,
    "Ġrecklessly": 16984,
    "Ġdoom": 6418,
    "Ġproudly": 19744,
    "Ġstrait": 23751,
    "Ġre": 317,
    "roof": 17955,
    "Ġactivity": 7920,
    "Ġoverpowering": 15252,
    "agreeable": 5830,
    "dra": 3413,
    "Ġtrans": 633,
    "Ġsagittarius": 24730,
    "Ġcringing": 25941,
    "Ġtennes": 23551,
    "addition": 13386,
    "Ġabsorb": 25114,
    "Ġviewing": 19265,
    "Ġscorched": 17101,
    "Ġdu": 4584,
    "Ġmerchant": 6468,
    "Ġwarsaw": 26167,
    "Ġromantic": 8031,
    "ifies": 6688,
    "Ġliquid": 22412,
    "Ġfavourites": 16646,
    "Ġguiding": 19242,
    "years": 6883,
    "spouting": 25002,
    "security": 26207,
    "Ġenjoined": 18191,
    "ras": 21038,
    "Ġstranded": 9779,
    "Ġjapanese": 10637,
    "ution": 4347,
    "Ġveins": 8936,
    "described": 18894,
    "Ġengine": 1920,
    "Ġresource": 10996,
    "Ġapple": 14170,
    "Ġoperated": 14547,
    "Ġfour": 2211,
    "Ġconsequ": 6256,
    "Ġlam": 21551,
    "prosperity": 20736,
    "Ġmerryweather": 9526,
    "Ġplanks": 5563,
    "guess": 14763,
    "Ġcoat": 4554,
    "steady": 14711,
    "Ġmccarthy": 5145,
    "Ġstri": 2805,
    "apologizing": 26545,
    "Ġplead": 14457,
    "Ġkeep": 2355,
    "Ġanswered": 2855,
    "Ġshank": 22000,
    "Ġevaluation": 16562,
    "itates": 13871,
    "Ġdone": 1816,
    "Ġ77": 24265,
    "Ġgallied": 19558,
    "Ġeastward": 13392,
    "is": 280,
    "Ġhercules": 14129,
    "Ġcaves": 15557,
    "Ġlot": 6680,
    "stone": 5088,
    "Ġcommission": 6714,
    ":âĢĶ": 4430,
    "magnet": 14972,
    "adie": 18090,
    "Ġpoles": 11006,
    "Ġsinister": 8573,
    "Ġrules": 1919,
    "osity": 14187,
    "immense": 18054,
    "Ġmix": 7578,
    "joke": 20931,
    "Ġpittance": 15620,
    "Ġestate": 6318,
    "deed": 1520,
    "wrinkled": 16555,
    "Ġcastles": 16641,
    "Ġprouder": 18973,
    "brilliancy": 26077,
    "Ġtaught": 6804,
    "Ġsakes": 18326,
    "mph": 20973,
    "Ġunforgiving": 25995,
    "speechless": 25396,
    "throwing": 11707,
    "Ġours": 4612,
    "taller": 26150,
    "Ġcontinual": 6778,
    "Ġsentiments": 7961,
    "mangled": 20982,
    "Ġrepublic": 14532,
    "breast": 11248,
    "Ġloggerhead": 13660,
    "Ġfore": 2150,
    "Ġswept": 7977,
    "mits": 13758,
    "Ġlouisiana": 25078,
    "Ġusages": 15921,
    "Ġstooped": 14466,
    "Ġsultan": 15187,
    "ols": 2411,
    "Ġtoss": 10188,
    "ece": 17532,
    "storm": 9686,
    "finer": 17547,
    "Ġ129": 24473,
    "Ġreleased": 2979,
    "ored": 3892,
    "Ġcent": 3254,
    "Ġspleen": 26422,
    "iments": 4944,
    "Ġsurpassing": 20470,
    "Ġmartin": 25437,
    "awing": 18916,
    "atmospheric": 17777,
    "Ġuneasy": 8666,
    "Ġbackwards": 12930,
    "walks": 19723,
    "Ġexecutioner": 12275,
    "Ġbanking": 19632,
    "uarded": 21107,
    "ient": 393,
    "Ġreluctant": 20527,
    "Ġback": 828,
    "Ġtaking": 3250,
    "Ġsuperglue": 23457,
    "Ġjoker": 22301,
    "animal": 16979,
    "Ġwaterloo": 11984,
    "abling": 1079,
    "Ġbless": 4340,
    "Ġtawny": 20484,
    "Ġeasily": 3887,
    "ific": 489,
    "Ġemac": 16409,
    "Ġpavement": 9581,
    "Ġblazing": 11899,
    "Ġconfidential": 9092,
    "Ġtaste": 5524,
    "Ġelastic": 4360,
    "bon": 13687,
    "classes": 12139,
    "makers": 20983,
    "Ġdanced": 7842,
    "Ě": 219,
    "Ġdealer": 23979,
    "Ġsmallest": 6431,
    "Ġbought": 8417,
    "era": 13849,
    "Ġchanged": 5243,
    "Ġprints": 16333,
    "Ġholds": 7975,
    "affection": 7488,
    "withstand": 23026,
    "Ġremorselessly": 16968,
    "Ġarches": 14162,
    "Ġthickets": 24025,
    "I": 45,
    "replied": 11569,
    "compasses": 19460,
    "Ġany": 689,
    "etting": 21582,
    "Ġhump": 5855,
    "Ġacross": 1332,
    "Ġhoarse": 14527,
    "Ġupset": 22156,
    "Ġhar": 5815,
    "putting": 14102,
    "Ġadmitting": 19185,
    "Ġcould": 703,
    "Ġostrich": 26431,
    "save": 13787,
    "Ġ[_": 15463,
    "prints": 23814,
    "Ġexecut": 4244,
    "Ġopine": 19229,
    "ired": 1446,
    "erxes": 21277,
    "85": 13684,
    "Ġfootsteps": 16574,
    "Ġdamp": 8264,
    "Ġegot": 18009,
    "Ġfluctu": 5268,
    "jar": 17578,
    "Ġbrougham": 17871,
    "armon": 23061,
    "Ġmortals": 9920,
    "Ġbrooding": 18908,
    "Ġposit": 1306,
    "Ġinco": 14261,
    "Ġbackwoods": 22664,
    "Ġhesitating": 16948,
    "Ġ130": 24779,
    "Ġgirdle": 19159,
    "alization": 732,
    "Ġhinting": 19651,
    "Ġfiver": 22783,
    "Ġfav": 1755,
    "icha": 11742,
    "filled": 9598,
    "surpr": 5998,
    "Ġmatrimony": 13638,
    "Ġsystemat": 18442,
    "Ġcompatibility": 2961,
    "Ġwinding": 8236,
    "Ġ37": 24079,
    "onts": 15521,
    "Ġfasten": 11135,
    "stad": 7599,
    "..": 5783,
    "Ġacts": 2295,
    "Ġloftiest": 16875,
    "Ġpeleg": 3737,
    "wat": 6233,
    "Ġgeneric": 18453,
    "meal": 22717,
    "Ġdisgusting": 19895,
    "Ġloaf": 15875,
    "uce": 11539,
    "Ġmust": 844,
    "Ġcommunic": 5751,
    "Ġdepression": 21843,
    "empty": 23635,
    "Ġxlix": 25860,
    "Ġerror": 1766,
    "lour": 15383,
    "swiftly": 20553,
    "Ġuser": 15920,
    "Ġevils": 9024,
    "Ġbumpkins": 25282,
    "clam": 13058,
    "Ġcaused": 5047,
    "text": 1972,
    "soft": 12513,
    "hind": 20895,
    "Ġsecondary": 23335,
    "greg": 6650,
    "Ġheaving": 7602,
    "Ġwritten": 4165,
    "enges": 13057,
    "crooked": 25746,
    "Ġinvulnerable": 19147,
    "Ġaffirmative": 15225,
    "Ġministers": 22835,
    "Ġeveryone": 8922,
    "Ġparadise": 11198,
    "Ġloun": 7167,
    "Ġnewfound": 22934,
    "Ġinequalities": 26454,
    "Ġhimmalehs": 26230,
    "Ġrights": 10400,
    "lar": 4483,
    "Ġjuggler": 26367,
    "oso": 12835,
    "fic": 20853,
    "Ġpaddles": 15150,
    "Ġsupreme": 13610,
    "Ġmy": 411,
    "Ġcrozetts": 19631,
    "Ġfranc": 16354,
    "Ġjuicy": 25371,
    "Ġbead": 21753,
    "Ġbig": 5806,
    "Ġexceed": 1347,
    "Ġlancaster": 26341,
    "Ġeyebrows": 23517,
    "Ġguar": 23046,
    "Ġpunctil": 20116,
    "ification": 1014,
    "Ġaccur": 3763,
    "Ġthus": 2037,
    "Ġvicinity": 7315,
    "Ġcontributed": 16012,
    "Ġremotest": 10056,
    "Ġaffront": 18789,
    "Ġso": 432,
    "low": 658,
    "Ġbeadle": 26485,
    "Ġlagged": 21560,
    "Ġreap": 18028,
    "Ġreason": 1358,
    "izon": 18143,
    "Ġdeficiency": 14405,
    "Ġside": 1386,
    "Ġbrah": 19359,
    "to": 714,
    "Ġsqualls": 17021,
    "Ġreserved": 7516,
    "Ġsailors": 4274,
    "iluvian": 18062,
    "ocations": 23709,
    "Ġavalanche": 17435,
    "Ġcharley": 19006,
    "Ġintrospect": 15831,
    "Ġshrunk": 16719,
    "gans": 11493,
    "Ġstripped": 10468,
    "Ġpolitical": 19225,
    "aring": 1479,
    "igantic": 5539,
    "Ġhorseman": 19609,
    "Ġindist": 14410,
    "attached": 11938,
    "Ġdepartment": 24243,
    "aby": 18108,
    "shavings": 22461,
    "uses": 11764,
    "Ġmankind": 6700,
    "z": 94,
    "Ġbutton": 10271,
    "apple": 22842,
    "Ġsymb": 2592,
    "denial": 18716,
    "Ġstr": 750,
    "Ġcomplimented": 14906,
    "Ġdivin": 13275,
    "metal": 24763,
    "changed": 7176,
    "tical": 10132,
    "isticated": 1585,
    "Ġcoff": 3507,
    "atlantic": 15526,
    "Ġevil": 3804,
    "Ġdev": 882,
    "_,âĢĻ": 12436,
    "Ġuttered": 7280,
    "Ġtasselled": 25921,
    "forth": 9325,
    "ü": 189,
    "Ġbasement": 24700,
    "Ġdiscourage": 3115,
    "ators": 7829,
    "Ġrack": 9316,
    "Ġperceived": 4713,
    "Ġtracing": 18889,
    "Ġfisherman": 12079,
    "Ġorganization": 7984,
    "Ġpore": 21460,
    "Ġimitated": 18330,
    "Ġabstra": 22274,
    "Ġpeeled": 14320,
    "Ġdoubloons": 13436,
    "fin": 5209,
    "irect": 5553,
    "Ġheroine": 24542,
    "Ġlist": 2365,
    "Ġarrowy": 25470,
    "Ġgodfrey": 15296,
    "restored": 18978,
    "Ġearning": 23943,
    "Ġsevent": 18202,
    "philosop": 9571,
    "condesc": 18505,
    "esting": 7412,
    "Ġexhale": 24401,
    "Ġale": 9158,
    "Ġintroducing": 11979,
    "isons": 17850,
    "Ġslime": 23164,
    "Ġfalls": 14645,
    "receiving": 12547,
    "Ġboarding": 12090,
    "Ġinfant": 11963,
    "Ġpoland": 23618,
    "Ġunimag": 12779,
    "va": 4742,
    "Ġfade": 21409,
    "hooked": 23717,
    "Ġoarsman": 8642,
    "five": 6358,
    "Ġovertake": 15975,
    "Ġrefill": 18703,
    "@": 36,
    "persons": 24176,
    "rigging": 20008,
    "Ġlat": 5086,
    "Ġdeny": 7489,
    "deaux": 22151,
    "Ġwaiting": 4320,
    "Ġmincer": 14368,
    "iciously": 17975,
    "disappointment": 11428,
    "din": 8374,
    "Ġczar": 12578,
    "Ġdangerously": 23939,
    "ilent": 21722,
    "Ġinequal": 21499,
    "bec": 4048,
    "Ġdignified": 15603,
    "dled": 9115,
    "pump": 21018,
    "Ġtroops": 24898,
    "elling": 5831,
    "cons": 4306,
    "Ġfi": 940,
    "Ġcaulking": 20295,
    "apes": 9745,
    "Ġapparent": 5466,
    "pit": 3979,
    "tender": 14475,
    "Ġcalmness": 12097,
    "visual": 24224,
    "Ġsple": 21217,
    "zers": 21148,
    "Ġbounded": 16628,
    "Ġshoal": 12019,
    "Ġwal": 6518,
    "Ġcountess": 11967,
    "Ġ101": 24408,
    "Ġmainly": 22651,
    "Ġshadow": 5596,
    "Ġprodigies": 19795,
    "oquence": 11389,
    "iage": 17574,
    "Ġwhistling": 19792,
    "Ġphilist": 16602,
    "Ġhints": 8431,
    "Ġsinned": 18952,
    "Ġimaginations": 16517,
    "Ġclam": 7416,
    "geneva": 13732,
    "Ġtrampling": 25493,
    "edily": 17945,
    "rints": 12506,
    "Ġsunken": 14494,
    "vellers": 16675,
    "Ġresolved": 3796,
    "7": 27,
    "het": 5435,
    "Ġloveliest": 20263,
    "Ġtarshish": 12032,
    "ulpt": 10888,
    "Ġcrumpled": 16439,
    "uled": 11540,
    "Ġpondered": 15169,
    "Ġnostrils": 10946,
    "separately": 25228,
    "Ġsingled": 23773,
    "Ġmental": 21321,
    "Ġbusily": 9389,
    "Ġforthwith": 16619,
    "infor": 2804,
    "Ġhoped": 5488,
    "Ġrelaxed": 12986,
    "observed": 7676,
    "Ġpump": 12625,
    "supposed": 13318,
    "Ġportly": 14679,
    "asons": 6016,
    "ushed": 2973,
    "itheat": 21340,
    "acled": 16084,
    "Ġaverages": 2398,
    "ricity": 23066,
    "nels": 12499,
    "Ġhilarity": 20299,
    "Ġlakeman": 6987,
    "Ġbeth": 9661,
    "Ġprofession": 6209,
    "Ġlessons": 7693,
    "Ġ550": 19638,
    "Ġpeeped": 10016,
    "Ġdeified": 18139,
    "Ġpilgrimage": 17310,
    "mutually": 26136,
    "uteness": 17987,
    "Ġpaddock": 25039,
    "Ġsentiment": 6590,
    "egypt": 15352,
    "Ġlargely": 14287,
    "odd": 21812,
    "yramid": 8368,
    "Ġincumbent": 16065,
    "contained": 22473,
    "tedious": 22635,
    "sticking": 21662,
    "Ġformal": 2944,
    "embow": 21934,
    "Ġbandaged": 16843,
    "disposed": 25012,
    "Ġapprehensions": 13406,
    "Ġsimplest": 16336,
    "incing": 15487,
    "Ġfeat": 10940,
    "Ġvigil": 9511,
    "Ġinscribed": 24940,
    "Ġunderstanding": 1832,
    "Ġwages": 13856,
    "Ġwoll": 21295,
    "Ġverd": 6919,
    "Ġphysiognomy": 25610,
    "enced": 4293,
    "Ġcritics": 23443,
    "Ġtransc": 12867,
    "resides": 23674,
    "own": 745,
    "Ġfrenzy": 13625,
    "Ġembellished": 25849,
    "Ġsurrounding": 12166,
    "Ġmay": 923,
    "Ġkinds": 14505,
    "Ġselfishness": 12292,
    "rested": 13077,
    "Ġwhites": 21719,
    "Ġbarbar": 6935,
    "Ġroom": 1465,
    "Ġperturbed": 20442,
    "Ġtener": 21165,
    "Ġplaited": 14285,
    "consp": 18504,
    "Ġlimber": 16480,
    "Ġprofess": 3698,
    "sank": 17663,
    "Ġimpart": 11784,
    "burn": 8371,
    "Ġhatchways": 24989,
    "Ġintelligible": 15944,
    "Ġallegor": 25546,
    "Ġimitation": 22174,
    "Ġdivide": 12114,
    "others": 7671,
    "consuming": 25674,
    "ous": 477,
    "Ġrobinson": 17465,
    "¨": 106,
    "Ġextra": 4090,
    "Ġwestmorland": 24389,
    "Ġunw": 7005,
    "wrath": 23757,
    "/(": 2983,
    "Ġblinds": 8007,
    "umbers": 10921,
    "Ġcasting": 12104,
    "Õ": 150,
    "lever": 2933,
    "sledge": 21059,
    "Ġtropical": 17066,
    "Ġatrocious": 21946,
    "Ġfumes": 21420,
    "frame": 17116,
    "Ġambiguous": 20166,
    "Ġdescribe": 2767,
    "Ġexcused": 23315,
    "Ġstiff": 6993,
    "Ġeaten": 14847,
    "Ġswe": 2288,
    "Ġwholly": 4447,
    "ered": 1683,
    "Ġ10": 5250,
    "bishop": 13697,
    "readily": 19364,
    "Ġawaiting": 11393,
    "rane": 17654,
    "thr": 12764,
    "Ġunprovided": 18260,
    "Ġhag": 12629,
    "mysterious": 26052,
    "Ġloaded": 8493,
    "actorily": 25576,
    "Ġoffice": 4964,
    "emptied": 23636,
    "pierced": 26141,
    "Ġjudiciously": 23880,
    "Ġpledged": 20689,
    "Ġstructures": 2719,
    "Ġnecessarily": 13251,
    "Ġforwards": 12707,
    "Ġyard": 5922,
    "Ġmend": 8407,
    "Ġsavann": 14685,
    "sorrow": 12512,
    "Ġcrippled": 25279,
    "Ġsweet": 3466,
    "Ġadviser": 25313,
    "Ġnice": 6678,
    "Ġuniversity": 13124,
    "batim": 25018,
    "Ġassiduous": 26293,
    "Ġmysteriously": 24601,
    "pointing": 12228,
    "refusal": 24734,
    "oura": 1061,
    "mechan": 11860,
    "Ġcyn": 13888,
    "Ġburnt": 9932,
    "Ġcompasses": 11269,
    "Ġassur": 6075,
    "Ġtelling": 5747,
    "mat": 2197,
    "Ġdear": 1537,
    "Ġrates": 1406,
    "Ġheeded": 13405,
    "inction": 6663,
    "resnet": 4066,
    "ift": 1607,
    "Ġunnearable": 26517,
    "Ġcheerfulness": 10520,
    "able": 453,
    "Ġcontrary": 5261,
    "Ġpriest": 7527,
    "Ġmid": 2615,
    "Ġeye": 2279,
    "ling": 735,
    "Ġcabinet": 23863,
    "Ġlunatic": 24992,
    "Ġgourmand": 26467,
    "Ġcooking": 16648,
    "Ġcin": 13877,
    "Ġtech": 1694,
    "Ġspind": 18307,
    "Ġcopies": 24937,
    "wearing": 22689,
    "Ġsternly": 16716,
    "Ġuntutored": 19167,
    "ism": 4874,
    "Ġpractical": 3164,
    "do": 1996,
    "Ġcrowds": 14741,
    "Ġdrunken": 12053,
    "Ġpredictions": 1457,
    "Ġinexper": 16981,
    "Ġinconvenient": 20012,
    "Ġdesires": 9460,
    "somewhat": 11163,
    "mped": 16649,
    "Ġboards": 14301,
    "Ġopened": 3512,
    "Ġsaving": 15890,
    "tale": 10131,
    "temper": 10008,
    "miseries": 16758,
    "Ġdespaired": 14670,
    "Ġcasts": 19428,
    "Ġchooses": 13349,
    "Ġmate": 3707,
    "thereby": 14449,
    "Ġincommun": 25309,
    "breeze": 20564,
    "circumspect": 26086,
    "Ġsufficiently": 8977,
    "lust": 15382,
    "kindred": 24051,
    "Ġaw": 2510,
    "figures": 20124,
    "Ġbelow": 4057,
    "Ġende": 21935,
    "Ġsympathies": 14863,
    "scho": 8764,
    "Ġasiatic": 20432,
    "achel": 7034,
    "Ġimposing": 11785,
    "Ġforty": 5719,
    "Ġsketches": 26271,
    "load": 12885,
    "apan": 6860,
    "Ġdawn": 6817,
    "mon": 2310,
    "hour": 7340,
    "Ġpequod": 2323,
    "impenetrable": 26197,
    "ospit": 22265,
    "Ġlatest": 16823,
    "Ġpresently": 5115,
    "Ġthimble": 15640,
    "Ġcanals": 22164,
    "Ġjourney": 3876,
    "Ġfarewell": 9524,
    "Ġtrepidation": 19217,
    "brother": 7093,
    "Ġcrockery": 24302,
    "Ġdav": 15595,
    "apply": 18759,
    "Ġvale": 14084,
    "eration": 10775,
    "Ġsund": 8249,
    "earn": 10699,
    "perceive": 12816,
    "claim": 9839,
    "Ġcaptioning": 23022,
    "said": 4103,
    "Ġlurking": 11292,
    "Ġmun": 12566,
    "bones": 8372,
    "Ġdisinterested": 16060,
    "Ġwrit": 8242,
    "usages": 22283,
    "Ġdarker": 13122,
    ",âĢĶâĢľ": 10074,
    "tackles": 25624,
    "burned": 25081,
    "Ġentr": 14340,
    "halloa": 17090,
    "sme": 17659,
    "Ġrenders": 13286,
    "becoming": 18519,
    "hing": 983,
    "ports": 13776,
    "arial": 5532,
    "Ġdisdained": 15011,
    "Ġcurved": 18846,
    "Ġdent": 13909,
    "Ġsanely": 24982,
    "Ġslackened": 15129,
    "Ġwane": 21290,
    "widely": 25344,
    "Ġattent": 4359,
    "loss": 22511,
    "Ġriot": 14689,
    "Ġeel": 18003,
    "certainly": 5340,
    "ateness": 15522,
    "Ġ1820": 25717,
    "Ġtortures": 14925,
    "Ġhadn": 9723,
    "Ġrichness": 19312,
    "Ġstarry": 16924,
    "ship": 1390,
    "shabb": 18493,
    "Ġservants": 6612,
    "Ġdetest": 8505,
    "Ġretrie": 10386,
    "beheaded": 22496,
    "Ġcons": 954,
    "Ġtal": 7565,
    "separation": 25227,
    "Ġthoughtless": 16195,
    "arranged": 19320,
    "Ġtravel": 5954,
    "taken": 7561,
    "Ġstriving": 9000,
    "Ġarthur": 7196,
    "Ġrecklessness": 24743,
    "remind": 23190,
    "Ġlodgings": 8312,
    "Ġanecd": 20156,
    "passage": 11263,
    "Ġvanish": 8932,
    "ild": 1154,
    "Ġbelf": 21383,
    "Ġlar": 765,
    "Ġnantucketer": 6914,
    "Ġoil": 3372,
    "Ġimplicit": 19960,
    "adequately": 20321,
    "shine": 9292,
    "ht": 376,
    "Ġmichael": 20681,
    "binder": 17501,
    "anter": 9170,
    "Ġlungless": 24863,
    "Ġcommonplaces": 16292,
    "Ġafternoon": 6054,
    "Ġpossibly": 4513,
    "Ġfretfully": 25448,
    "Ġgirth": 13137,
    "Ġglitter": 25126,
    "remote": 23192,
    "Ġcheapside": 23289,
    "Ġdoleful": 18376,
    "Ġlimit": 10446,
    "Ġmag": 1431,
    "inform": 10147,
    "Ġchests": 19673,
    "ersampling": 18216,
    "Ġconfided": 19036,
    "Ġtugged": 17290,
    "tering": 3805,
    "naught": 20995,
    "hatchet": 24818,
    "tomahawk": 25915,
    "Ġheroic": 14910,
    "liament": 16220,
    "uneasiness": 23689,
    "large": 6628,
    "prot": 6899,
    "contrast": 25594,
    ".;": 20745,
    "Ġarri": 2555,
    "ledge": 1331,
    "account": 5330,
    "Ġutmost": 5496,
    "Ġcommend": 10338,
    "Ġcomrades": 9237,
    "Ġdelirium": 10408,
    "Ġcomm": 839,
    "Ġvideo": 25366,
    "cks": 3079,
    "antled": 18287,
    "Ġabated": 18390,
    "clump": 23158,
    "Ġjava": 12315,
    "discovering": 24253,
    "Ġinmates": 15626,
    "Ġbott": 3148,
    "ram": 13974,
    "rapid": 12674,
    "Ġtipt": 21175,
    "cus": 3976,
    "Ġuncivil": 11158,
    "his": 1415,
    "Ġbabies": 19694,
    "Ġworld": 1596,
    "Ġimper": 4501,
    "Ġalbert": 12710,
    "vicious": 21120,
    "Ġfortresses": 23622,
    "Ġpeddler": 26180,
    "Ġcompany": 3720,
    "Ġoccas": 2701,
    "stiff": 12679,
    "fall": 5135,
    "Ġconvivial": 16549,
    "Ġemperors": 15162,
    "developed": 15267,
    ";": 31,
    "afric": 19181,
    "Ġvigilance": 12374,
    "Ġcompromising": 22576,
    "Ġbear": 3657,
    "emone": 21930,
    "Ġchambermaid": 24305,
    "ithmetic": 18063,
    "Ġjurymen": 16848,
    "Ġmerely": 3769,
    "Ġembalmed": 13659,
    "Ġdiscompose": 25579,
    "diversity": 25897,
    "Ġfield": 1254,
    "Ġacquire": 2722,
    "ony": 3029,
    "Ġobsole": 22700,
    "Ġforth": 3463,
    "Ġerie": 20056,
    "Ġstove": 6735,
    "independent": 26021,
    "return": 5489,
    "onse": 21251,
    "Ġcouples": 16853,
    "03": 20749,
    "Ġapproximates": 2416,
    "thrusting": 20261,
    "scenes": 16246,
    "Ġamiable": 4266,
    "Ġshipwrecked": 25687,
    "Ġmagnitudes": 3820,
    "Ö": 151,
    "Ġraging": 14309,
    "oses": 3943,
    "Ġdesperado": 19821,
    "riages": 10246,
    "Ġgovernesses": 25130,
    "Ġdeserved": 7737,
    "winds": 10525,
    "Ġgin": 13963,
    "Ġnormal": 1202,
    "nals": 16402,
    "Ġconjectures": 16926,
    "vour": 17700,
    "Ġchestnut": 19674,
    "Ġfrancisco": 26064,
    "Ġentreated": 9955,
    "Ġpemberley": 4588,
    "laug": 10710,
    "Ġint": 409,
    "ress": 931,
    "Ġest": 2263,
    "imin": 1769,
    "Ġgrove": 12150,
    "combined": 20322,
    "ef": 5134,
    "all": 485,
    "urmountable": 15282,
    "iture": 5696,
    "Ġtroubles": 19441,
    "Ġforecastle": 5495,
    "Ġanswers": 7072,
    "Ġblaming": 22932,
    "onian": 17768,
    "odiac": 14030,
    "Ġbacks": 8532,
    "mention": 7214,
    "Ġfreer": 23208,
    "gazed": 15364,
    "Ġpart": 860,
    "earth": 6503,
    "Ġkl": 2735,
    "Ġspasmodically": 17316,
    "necess": 4896,
    "rade": 9683,
    "character": 6333,
    "Ġoppression": 23651,
    "Ġthreat": 5154,
    "Ġoaken": 13867,
    "Ġmuskets": 17057,
    "erted": 7361,
    "Ġriddle": 14822,
    "Ġleathern": 15051,
    "tranquillity": 20548,
    "Ġgreedily": 18964,
    "Ġscrupled": 25051,
    "Ġtempor": 2366,
    "Ġcheat": 19018,
    "Ġstruggling": 12078,
    "Ġtie": 10753,
    "Ġgrave": 5099,
    "cords": 25139,
    "Ġcloser": 8664,
    "plendent": 21961,
    "Ġtambourine": 9568,
    "Ġtables": 9882,
    "Ġgest": 8134,
    "Ġsigma": 1539,
    "Ġsparing": 22132,
    "Ġconveyed": 8335,
    "hands": 5968,
    "Ŀ": 256,
    "Ġshrimp": 24159,
    "Ġmasterless": 23997,
    "Ġphase": 14473,
    "Ġgaped": 13969,
    "Ġprogrammed": 11061,
    "Ġuninter": 18246,
    "Ġheath": 15705,
    "sunlight": 24851,
    "ply": 6367,
    "Ġtimid": 6347,
    "Ġcompetition": 14268,
    "Ġpersisting": 18896,
    "Ġblankets": 24611,
    "did": 3197,
    "Ġcomprises": 22575,
    "Ġhimmale": 18329,
    "Ġwalker": 23312,
    "Ġgardener": 19135,
    "readiness": 19365,
    "describe": 1516,
    "Ġtumble": 16880,
    "Ġfrigid": 17354,
    "Ġque": 4156,
    "Ġscenari": 22295,
    "awk": 23116,
    "straw": 24098,
    "Ġglaring": 11911,
    "ve": 322,
    "Ġdissuade": 26257,
    "Ġdeg": 3281,
    "Ġdyspeps": 16496,
    "Ġouter": 6859,
    "Ġlaug": 3627,
    "Ġthread": 14540,
    "Ġtinkling": 25213,
    "Ġfading": 15587,
    "Ġadmitted": 8990,
    "Ġdesert": 6729,
    "blow": 9108,
    "Ġforebodings": 17306,
    "rees": 5436,
    "influ": 9545,
    "Ġundiscernible": 22071,
    "Ġentreat": 4509,
    "join": 12117,
    "Ġerad": 25030,
    "Ġterrier": 23401,
    "Ġnarration": 13505,
    "embarr": 17294,
    "transform": 8050,
    "protruding": 24812,
    "Ġbehaved": 13255,
    "Ġwaving": 8580,
    "Ġnarrating": 24350,
    "Ġpunishment": 9960,
    "ineffectual": 26508,
    "Ġinvari": 6530,
    "lesson": 22777,
    "Ġconcert": 11970,
    "ousness": 10278,
    "three": 5239,
    "ives": 1412,
    "Ġuns": 15839,
    "idirection": 2410,
    "Ġdeact": 18137,
    "leness": 4690,
    "Ġperpet": 7646,
    "Ġsatirical": 26280,
    "Ġthird": 4184,
    "Ġfabric": 25947,
    "Ġeating": 8136,
    "Ġbasin": 19849,
    "Ġpossessor": 23825,
    "Ġfra": 1856,
    "uble": 21104,
    "Ġsplin": 8623,
    "Ġequals": 4726,
    "Ġtropics": 17067,
    "Ġmislead": 22759,
    "Ġactually": 5389,
    "Ġsomnambul": 26577,
    "se": 358,
    "actor": 11841,
    "\":": 9585,
    "hither": 11496,
    "Ġtroubling": 26547,
    "ias": 6364,
    "âĢĿ)": 21817,
    "jumping": 20247,
    "Ġassembl": 20063,
    "const": 5940,
    "Ġunseen": 3524,
    "Ġhall": 4181,
    "horrible": 14601,
    "Ġdiscoloured": 15255,
    "tumultuously": 25613,
    "Ġadored": 18291,
    "Ġtraces": 7946,
    "Ġsidelong": 11441,
    "Ġcarelessness": 13078,
    "Ġalways": 1696,
    "Ġstormy": 16729,
    "Ġbury": 12044,
    "Ġevolved": 9895,
    "Ġstreaked": 19114,
    "tranqu": 14708,
    "Ġinstinctively": 13461,
    "Ġreturns": 11929,
    "Ġoccupy": 14733,
    "Ġspare": 5101,
    "Ġdesign": 4130,
    "vius": 23544,
    "Ġpreaching": 15929,
    "Ġsemblance": 20735,
    "Ġabaft": 22277,
    "Ġabstract": 17183,
    "Ġimport": 1062,
    "Ġeludes": 26555,
    "ev": 6952,
    "Ġindiam": 22955,
    "suffered": 24329,
    "https": 11688,
    "clouds": 25497,
    "increasing": 20271,
    "Ġkidn": 20207,
    "beaten": 20317,
    "Ġerroneous": 17411,
    "otics": 10227,
    "**:": 4736,
    "believed": 9937,
    "ple": 455,
    "derness": 11741,
    "Ġswan": 23053,
    "Ġdecrease": 4198,
    "Ġlegit": 16474,
    "Ġ1": 1019,
    "Ġsculpt": 15950,
    "minutely": 19595,
    "Ġsignals": 10589,
    "||": 4869,
    "'re": 12431,
    "Ġig": 3501,
    "Ġtapping": 10755,
    "rom": 420,
    "overspreading": 26139,
    "Ġinformed": 6719,
    "Ġmadame": 13152,
    "interrupted": 11420,
    "Ġpeeping": 16130,
    "Ġparent": 14646,
    "ga": 17551,
    "Ġsteam": 9357,
    "Ġpants": 21467,
    "Ġdeaden": 23461,
    "Ġyounge": 16291,
    "Ġrace": 5848,
    "flukes": 25206,
    "Ġpanther": 16820,
    "streets": 13397,
    "cheerfulness": 20182,
    "slouched": 24556,
    "Ġattendant": 11288,
    "Ġepid": 18006,
    "wouldn": 23538,
    "Ġseems": 2480,
    "giv": 13724,
    "separated": 20161,
    "closing": 23159,
    "throw": 14100,
    "icious": 7380,
    "data": 2237,
    "Ġcutting": 4982,
    "Ġarriving": 19219,
    "Ġperches": 18448,
    "phere": 21020,
    "Ġoptimizer": 5035,
    "wide": 10141,
    "Ġseaward": 22949,
    "Ġdire": 866,
    "Ġshepherd": 14154,
    "Ġwhaleboats": 18479,
    "homely": 25617,
    "tipt": 25085,
    "Ġanimated": 7702,
    "Ġhast": 3150,
    "enough": 6810,
    "Ġsentry": 19023,
[...]
