{
  "metadata": {
    "vocab_size": 26614,
    "algorithm": "BPE",
    "created_at": "2026-06-02 06:40:55",
    "special_tokens": [
      "<PAD>",
      "<SOS>",
      "<EOS>",
      "<UNK>",
      "<MASK>"
    ]
  },
  "vocab": {
    "Ġeast": 5370,
    "ders": 8074,
    "Ġbleak": 10558,
    "Ġclumsy": 9579,
    "Ġful": 4297,
    "Ġcivility": 4787,
    "Ġunf": 4089,
    "striking": 13439,
    "Ġexplored": 23517,
    "sea": 4762,
    "emph": 21925,
    "overs": 17621,
    "po": 1137,
    "accepted": 20135,
    "Ġshop": 9251,
    "what": 643,
    "Ġclosed": 4605,
    "belt": 24035,
    "Ġposted": 16724,
    "Ġrepaid": 19080,
    "âĢĶâĢľ": 2969,
    "Ġtwinkled": 14311,
    "Ġelasticity": 19557,
    "Ġproceedings": 9906,
    "Ġdood": 22239,
    "oped": 6046,
    "marks": 7346,
    "swells": 26148,
    "Ġdragged": 6889,
    "Ġpoisoned": 24886,
    "Ġelijah": 9099,
    "Ġundoubtedly": 8312,
    "Ġalpine": 18105,
    "Ġadapts": 3820,
    "Ġexempt": 21826,
    "Ġdiffident": 23782,
    "Ġmagnified": 23200,
    "weary": 22683,
    "Ġpathways": 11153,
    "Ġheavier": 13101,
    "hib": 15366,
    "Ġsung": 23269,
    "adv": 4537,
    "Ġapothecary": 13658,
    "Ġminima": 3465,
    "Ġfow": 6133,
    "arrived": 12606,
    "spir": 5738,
    "Ġhumorousness": 25377,
    "Ġanalogical": 25640,
    "Ġmarine": 23030,
    "tiger": 13796,
    "alike": 17942,
    "admitted": 18091,
    "Ġhers": 7888,
    "Ġdiscu": 4364,
    "Ġins": 2781,
    "iar": 2378,
    "Ġgretna": 26468,
    "Ġoversight": 22348,
    "hedge": 22498,
    "Ġbritish": 11337,
    "jep": 20925,
    "Ġfitted": 6243,
    "oars": 9614,
    "Ġcornelius": 13572,
    "Ġnavy": 14915,
    "Ġroom": 1461,
    "tea": 18741,
    "Ġcrotch": 9962,
    "osures": 22257,
    "Ġbeating": 8144,
    "Ġwaxed": 21296,
    "Ġwrongfully": 24248,
    "currents": 23842,
    "uncomfortable": 18160,
    "box": 5749,
    "Ġused": 2060,
    "Ġsignificance": 13279,
    "Ġgives": 5017,
    "Ġhunting": 7259,
    "ipotent": 10958,
    "Ġsixpence": 19316,
    "Ġson": 2983,
    "isted": 3299,
    "Ġblue": 3455,
    "Ġlakes": 8130,
    "stige": 21658,
    "found": 4214,
    "fork": 20856,
    "grief": 13730,
    "atible": 17772,
    "Ġsupport": 6728,
    "Ġdishonor": 25601,
    "Ġremembered": 5276,
    "Ġoverpowered": 15287,
    "Ġflank": 8228,
    "evidence": 25521,
    "Ġgirl": 3088,
    "elephant": 12349,
    "ureau": 10226,
    "Ġpossessions": 23822,
    "Ġrecoil": 18690,
    "Ġamaze": 22480,
    "Ġgarden": 3830,
    "Ġsoul": 2728,
    "Ġmot": 2985,
    "ceived": 1965,
    "Ġbehavior": 8001,
    "Ġsadly": 7302,
    "whalebone": 19118,
    "ition": 655,
    "Ġpips": 9843,
    "Ġdeer": 12717,
    "ced": 694,
    "Ġstorms": 11262,
    "univers": 15770,
    "down": 3470,
    "attentions": 13573,
    "Ġreduce": 7942,
    "Ġfidel": 12593,
    "Ġwails": 21295,
    "Ġcontradicted": 20210,
    "Ġalgorithm": 762,
    "scorched": 25697,
    "Ġfrightens": 24030,
    "Ġstem": 15717,
    "Ġflinging": 13584,
    "represent": 9637,
    "xter": 9146,
    "sory": 17659,
    "Ġadroop": 26001,
    "Ġ": 225,
    "wl": 17702,
    "Ġbeam": 2879,
    "Ġsabbath": 17254,
    "Ġur": 5540,
    "Ġmasked": 3697,
    "dum": 17518,
    "Ġwave": 7575,
    "opement": 10311,
    "Ġstabilizing": 3660,
    "ne": 646,
    "Ġcloudless": 16668,
    "additional": 20462,
    "Ġreducing": 1959,
    "ship": 1393,
    "Ġhoky": 17926,
    "Ġthereupon": 18434,
    "began": 6426,
    "Ġwrithed": 17106,
    "Ġchamounix": 14863,
    "ine": 406,
    "Ġplaymate": 23636,
    "Ġdripping": 13146,
    "Ġeclipsed": 26376,
    "rets": 12538,
    "Ġcyp": 21343,
    "Ġcharge": 5324,
    "Ġbeing": 1163,
    "------": 12131,
    "Ġtorment": 8673,
    "Ġlakeman": 6986,
    "iro": 20913,
    "ainted": 3662,
    "Ġarray": 12808,
    "Ġfulf": 6772,
    "Ġcontinents": 16849,
    "Ġgang": 9207,
    "Ġbarbara": 24818,
    "Ġhooks": 14967,
    "musket": 25341,
    "ig": 323,
    "Ġamiss": 18512,
    "Ġconsulted": 13429,
    "jub": 20928,
    "Ġfiled": 15578,
    "Ġsnows": 14726,
    "Ġfix": 2507,
    "Ġgate": 6825,
    "Ġalabama": 14018,
    "Ġcommissioned": 19894,
    "Ġsluggishly": 25891,
    "befall": 22494,
    "somewhat": 11160,
    "Ġpondered": 15165,
    "Ġsuffocated": 20727,
    "ladder": 19783,
    "Ġpeaked": 2296,
    "Ġattain": 12744,
    "Ġtweezers": 26556,
    "Ġpoltro": 23617,
    "Ġmixing": 24934,
    "yarn": 15457,
    "tawny": 26404,
    "Ġrow": 5309,
    "Ġgrip": 11626,
    "shirt": 22457,
    "overfitting": 13099,
    "Ġreluct": 14370,
    "Ġtomahawk": 7539,
    "Ġnarrowed": 24355,
    "Ġprob": 969,
    "help": 1479,
    "Ġreligious": 25121,
    "Ġaffirm": 11885,
    "complied": 19912,
    "Ġjewell": 19519,
    "Ġthings": 1963,
    "Ġdeliriously": 23229,
    "Ġmary": 3847,
    "led": 580,
    "simultaneously": 19863,
    "Ġkentuck": 19890,
    "ruff": 15898,
    "cest": 12442,
    "Ġtwitched": 20442,
    "Ġshirt": 8848,
    "Ġarm": 2492,
    "Ä": 133,
    "Ġidler": 16404,
    "Ġgods": 6454,
    "Ġfacts": 2289,
    "satisfied": 10578,
    "mile": 17597,
    "Ġreputed": 18035,
    "oring": 1864,
    "destiny": 16702,
    "lleg": 20950,
    "devouring": 24950,
    "stirred": 20423,
    "asing": 5911,
    "Ġdismantled": 20215,
    "Ġrefreshed": 15289,
    "parsee": 14515,
    "Ġsteps": 2863,
    "cence": 9588,
    "Ġcheese": 9375,
    "Ġparaphrasing": 26526,
    "Ġmiguel": 25766,
    "Ġtallow": 14777,
    "Ġfolios": 23016,
    "Ġrigged": 16717,
    "Ġsofa": 10269,
    "Ġstammered": 26199,
    "Ġfishery": 4175,
    "Ġoffers": 12943,
    "Ġwine": 6810,
    "frame": 17116,
    "fters": 20860,
    "Ġineffect": 13929,
    "Ġbenevolence": 9526,
    "þ": 191,
    "ilent": 21717,
    "Ġdromedary": 17438,
    "Ġfaithfulness": 24446,
    "Ġsurvive": 9066,
    "ental": 7168,
    "Ġeternally": 11369,
    "Ġcondem": 6338,
    "Ġdebated": 9040,
    "gast": 20870,
    "Ġemir": 23348,
    "Ġgoring": 21601,
    "Ġduly": 13349,
    "Ġtrades": 8231,
    "ulating": 10887,
    "ple": 455,
    "Ġbrandy": 11049,
    "Ġscandinav": 19959,
    "entering": 17976,
    "an": 278,
    "russian": 22182,
    "Ġiroquois": 26470,
    "Ġfleets": 23773,
    "Ġflamingo": 15099,
    "Ġmaritime": 23035,
    "ario": 14247,
    "Ġbust": 10167,
    "bs": 3755,
    "Ġuplifted": 11646,
    "visible": 10533,
    "fel": 8733,
    "Ġobjecting": 18896,
    "Ġtumbled": 13405,
    "Ġenjoyed": 8007,
    "Ġbiscuit": 12586,
    "yl": 7818,
    "caused": 25519,
    "Ġheadlands": 22893,
    "Ġepistle": 24904,
    "owards": 4594,
    "Ġneur": 812,
    "aster": 1870,
    "Ġmeanest": 12907,
    "Ġsurvivors": 25732,
    "Ġcurls": 22966,
    "Ġkilling": 13331,
    "vol": 715,
    "Ġassurances": 9999,
    "idered": 4553,
    "Ġexclude": 19041,
    "unted": 6998,
    "trowsers": 17691,
    "Ġdisd": 7030,
    "Ġreverie": 13456,
    "verbally": 25360,
    "Ġperf": 12847,
    "Ġwantest": 18789,
    "pistol": 17642,
    "Ġconveyed": 8334,
    "trip": 21090,
    "Ġwarring": 16865,
    "haired": 14766,
    "Ġmissionary": 25696,
    "Ġwail": 21285,
    "Ġcetology": 10008,
    "friendly": 13283,
    "direction": 17524,
    "Ġperish": 8874,
    "ldog": 21914,
    "Ġeducation": 5128,
    "Ġquoted": 22412,
    "representing": 25271,
    "Ġbristling": 20525,
    "ousness": 10274,
    "Ġimprudently": 22383,
    "Ġconfid": 7686,
    "Ġpremeditated": 22231,
    "Ġexpress": 2192,
    "Ġbroom": 18906,
    "Ġrudeness": 17124,
    "onym": 14649,
    "som": 3292,
    "equal": 14992,
    "Ġretrieval": 10674,
    "isting": 5551,
    "Ġcongreg": 8462,
    "oves": 15403,
    "mate": 5358,
    "Ġprick": 14477,
    "rrh": 26144,
    "Ġguessed": 11282,
    "request": 21240,
    "Ġstrugg": 3217,
    "Ġsums": 2902,
    "Ġstared": 8454,
    "Ġevening": 2650,
    "Ġgrunt": 18735,
    "annica": 24561,
    "Ġrolls": 8333,
    "verty": 8452,
    "rog": 15638,
    "Ġcalculating": 9924,
    "Ġslavish": 23171,
    "Ġcigars": 12250,
    "Ġqueerest": 16413,
    "drifting": 19823,
    "Ġpelt": 15608,
    "Ġleaves": 5020,
    "Ġsloping": 11937,
    "Ġtranced": 18420,
    "removing": 17764,
    "Ġsunk": 5752,
    "althily": 19357,
    "Ġgerm": 13963,
    "buckets": 26123,
    "Ġshot": 4544,
    "octial": 20003,
    "Ġservox": 23868,
    "Ġafghan": 22626,
    "jur": 17578,
    "ĠâĢľâĢĺ": 8503,
    "rings": 10722,
    "Ġcott": 3712,
    "oftener": 23963,
    "Ġnone": 3223,
    "Ġmilliner": 19883,
    "Ġrobots": 11082,
    "police": 10583,
    "Ġblanche": 18820,
    "Ġmisunderstand": 18704,
    "Ġbod": 4581,
    "Ġgum": 21592,
    "Ġsentence": 6187,
    "Ġabraham": 18395,
    "Ġoperations": 2299,
    "summon": 23414,
    "fight": 17538,
    "Ġharmony": 16814,
    "Ġargued": 13628,
    "Ġinvited": 6903,
    "pro": 2050,
    "Ġtablets": 13154,
    "ity": 417,
    "Ġinfatuated": 20533,
    "onden": 13843,
    "Ġoutfits": 22318,
    "madly": 24420,
    "Ġdesignated": 19520,
    "Ġvirtue": 4921,
    "Ġnat": 12642,
    "Ġrights": 10396,
    "Ġmisfortune": 5569,
    "Ġdusky": 13548,
    "gle": 20868,
    "ĠĠĠĠĠĠĠĠĠĠĠĠĠĠĠĠĠĠĠĠĠĠĠĠĠĠĠĠ": 9974,
    "gratulation": 24349,
    "Ġdreamt": 23936,
    "Ġ35": 24077,
    "bular": 15312,
    "Ġcoil": 11816,
    "Ġundivided": 24121,
    "Ġelij": 8909,
    "Ġpiratical": 24801,
    "safe": 10053,
    "Ġrelationships": 2924,
    "bildad": 9586,
    "regarded": 12006,
    "ver": 331,
    "Ġthreats": 13376,
    "Ġaperture": 26160,
    "infor": 3129,
    "devil": 7894,
    "Ġdecoyed": 18486,
    "Ġcircles": 7966,
    "az": 2179,
    "ifference": 5632,
    "Ġunravel": 26214,
    "control": 16542,
    "Ġabutted": 22272,
    "spiracle": 22732,
    "Ġcomposing": 16066,
    "Ġbedfellows": 23437,
    "neither": 9756,
    "surrounded": 26088,
    "Ġjourneying": 25564,
    "Ġ8": 5433,
    "aws": 8236,
    "be": 670,
    "Ġdang": 9174,
    "Ġinvader": 23479,
    "Ġmutilated": 23957,
    "Ġsill": 10765,
    "envelope": 17782,
    "Ġshiver": 12764,
    "Ġfugitives": 25634,
    "Ġfrequ": 3329,
    "Ġrenow": 18027,
    "Ġvessels": 6755,
    "Ġtrustworthy": 24107,
    "unicorn": 21886,
    "affording": 23776,
    "Ġhipp": 21489,
    "alty": 17938,
    "lose": 12879,
    "pequod": 7052,
    "Ġcolonel": 3407,
    "happy": 4424,
    "Ġnarrating": 24351,
    "facts": 19841,
    "erect": 20847,
    "Ġrecurrent": 1804,
    "Ġpartake": 18670,
    "aust": 15308,
    "onsensical": 18576,
    "Ġcolonial": 22855,
    "ological": 1886,
    "asburgh": 15645,
    "inted": 2647,
    "atiate": 12545,
    "ips": 2589,
    "Ġhere": 1090,
    "ulty": 22564,
    "rippling": 24713,
    "Ġchoke": 22246,
    "handled": 19261,
    "Ġhumane": 11882,
    "dried": 20826,
    "Ġaberdeen": 26541,
    "reckoning": 25270,
    "iquette": 26132,
    "Ġgoble": 14229,
    "islanders": 25442,
    "Ġcelebrate": 26357,
    "Ġprivileges": 25132,
    "Ġscornful": 24997,
    "offic": 7466,
    "Ġlength": 2500,
    "Ġsledge": 8110,
    "australian": 20560,
    "Ġspies": 22126,
    "Ġoutlines": 15956,
    "atherine": 2592,
    "ights": 8475,
    "Ġirreducible": 5519,
    "Ġlikewise": 5386,
    "Ġpurple": 10433,
    "infliction": 25924,
    "Ġmagnanim": 14471,
    "Ġassailants": 20447,
    "Ġsl": 1500,
    "pleasing": 14742,
    "Ġlot": 6678,
    "orton": 11754,
    "hands": 5966,
    "bel": 3839,
    "Ġburning": 5976,
    "Ġunexampled": 20358,
    "cold": 9589,
    "tar": 8097,
    "oir": 21001,
    "osen": 6855,
    "idel": 5299,
    "Ġrearing": 12674,
    "Ġpupp": 10820,
    "Ġsinging": 7723,
    "isp": 5528,
    "unusually": 15778,
    "Ġcousins": 9914,
    "Ġdecent": 10978,
    "deceptive": 22146,
    "kine": 15374,
    "Ġgross": 11624,
    "Ġresembles": 25969,
    ".âĢĻâĢĿ": 6739,
    "Ġinsolent": 13599,
    "Ġcounterpane": 11343,
    "Ġtreacherously": 25129,
    "Ñ": 146,
    "disappearing": 23502,
    "Ġod": 4438,
    "Ġdi": 6525,
    "pe": 1436,
    "falgar": 26130,
    "Ġmushroom": 13235,
    "Ġwakes": 11571,
    "Ġadvance": 5484,
    "Ġissued": 10599,
    "Ġconcert": 11965,
    "Ġmusket": 12294,
    "confused": 19643,
    "politeness": 16906,
    "Ġlancaster": 26340,
    "Ġne": 390,
    "spout": 7921,
    "tray": 21076,
    "Ġsample": 3180,
    "pleas": 3855,
    "ered": 1683,
    "Ġimpulse": 10023,
    "ses": 3027,
    "Ġhousekeeper": 7456,
    "Ġ1": 1015,
    "\"": 6,
    "Ġmerryweather": 9521,
    "aution": 9386,
    "arse": 7160,
    "Ġpatter": 833,
    "extremely": 26264,
    "Ġdiscerning": 25002,
    "flatter": 23965,
    "sigma": 3002,
    "vedale": 22709,
    "Ġunaccountable": 7885,
    "Ġinterruption": 9472,
    "aught": 2679,
    "Ġkindness": 4096,
    "Ġdiet": 13909,
    "arches": 10816,
    "Ġidentifies": 12013,
    "horses": 17567,
    "Ġveter": 15810,
    "inois": 17738,
    "Ġhon": 2536,
    "oda": 15747,
    "abri": 6682,
    "Ġgr": 976,
    "discover": 10539,
    "plague": 21956,
    "Ġlithe": 24668,
    "Ġproclaim": 18130,
    "000": 2558,
    "Ġbiographical": 22760,
    "attendants": 25495,
    "hab": 1080,
    "aet": 15306,
    "Ġloose": 4648,
    "Ġgu": 1328,
    "Ġeff": 685,
    "Ġinboard": 17932,
    "Ġregard": 3069,
    "bowsprit": 16853,
    "Ġhearts": 4971,
    "Ġenem": 4707,
    "Ġtransom": 22435,
    "Ġshadows": 8012,
    "Ġadvocate": 13675,
    "Ġ11": 5318,
    "inclination": 20056,
    "Ġbruised": 25772,
    "Ġlinen": 12405,
    "Ġislanders": 19500,
    "Ġforeheads": 23447,
    "Ġnonsensical": 21526,
    "stonecraft": 24356,
    "Ġagon": 10320,
    "Ġdesisted": 22975,
    "sadly": 25526,
    "appin": 18759,
    "Ġlinguistic": 12423,
    "Ġfireside": 23530,
    "play": 5098,
    "atoes": 17775,
    "Ġamazed": 14888,
    "Ġcobbler": 25829,
    "Ġspecks": 14307,
    "Ġlivelihood": 24774,
    "Ġhuff": 21487,
    "Ġmainland": 22653,
    "Ġparlor": 13539,
    "elope": 14456,
    "Ġcomprehend": 6494,
    "Ġgrinning": 9053,
    "Ġfit": 3687,
    "sig": 2874,
    "ulated": 6029,
    "Ġsplice": 19308,
    "Ġapprised": 18357,
    "coming": 3562,
    "Ġvon": 14080,
    "veil": 18042,
    "Ġscandal": 9081,
    "phr": 18706,
    "Ġcabinets": 23860,
    "max": 1684,
    "Ġinferiority": 17115,
    "Ġphysiognomical": 25611,
    "Ġwasting": 12725,
    "histicated": 20900,
    "Ġvigorous": 10566,
    "attacks": 23121,
    "fifty": 12350,
    "crow": 9590,
    "ackled": 22421,
    "perpet": 14158,
    "enances": 10153,
    "Ġpapers": 4023,
    "waste": 21133,
    "memory": 13616,
    "Ġraw": 3321,
    "sim": 6510,
    "brain": 13686,
    "meeting": 11018,
    "Ġdiscussed": 19558,
    "Ġshaster": 21995,
    "Ġapprehending": 26090,
    "Ġfanatic": 23390,
    "ident": 3380,
    "Ġadjust": 2153,
    "Ġmoran": 9341,
    "Ġdazzling": 15210,
    "Ġminutely": 14561,
    "Ġprudence": 13919,
    "Ġostentatious": 25736,
    "Ġsings": 15505,
    "sentence": 2937,
    "Ġconventional": 25547,
    "Ġseize": 8165,
    "Ġrealise": 16336,
    "recognised": 15261,
    "Ġlitter": 19828,
    "hand": 2758,
    "Ġupwards": 7633,
    "Ġimpress": 6862,
    "ergy": 2361,
    "achusetts": 20709,
    "Ġpay": 3966,
    "cabin": 8362,
    "Ġresides": 22537,
    "Ġtrifle": 10601,
    "Ġdimension": 3240,
    "riot": 18180,
    "thankful": 16806,
    "got": 6955,
    "Ġuncouth": 14549,
    "owing": 7601,
    "orn": 2243,
    "Ġcoding": 8115,
    "Ġsing": 3076,
    "Ġlessen": 14532,
    "Ġconditions": 8306,
    "Ġchained": 16387,
    "Ġexample": 5095,
    "Ġstarbuck": 2191,
    "movement": 25577,
    "Ġmouth": 3182,
    "bore": 13685,
    "Ġplanting": 16084,
    "Ġlightly": 13082,
    "Ġsaxe": 13627,
    "Ġsupreme": 13606,
    "Ġmockery": 12105,
    "opÃ¦": 12870,
    "Ġspool": 24806,
    "Ġzero": 1202,
    "Ġlug": 15650,
    "beauty": 20102,
    "imes": 1301,
    "Ġfrequencies": 4788,
    "Ġaverages": 2400,
    "pl": 402,
    "Ġframe": 1831,
    "Ġhonour": 3926,
    "Ġtashtego": 4487,
    "cil": 8720,
    "Ġscorched": 17101,
    "Ġwhisker": 23932,
    "Ġmuscles": 12086,
    "Ġ67": 19659,
    "Ġaccusations": 22374,
    "itioned": 22472,
    "Ġmichael": 20678,
    "Ġneedn": 19227,
    "Ġoverflowing": 17237,
    "adders": 24400,
    "Ġasyl": 12731,
    "Ġunimpeachable": 26522,
    "Ġspoiled": 11363,
    "eluded": 21572,
    "Ġpallid": 12297,
    "Ġranging": 8478,
    "Ġprematurely": 24006,
    "whatsoever": 18487,
    "Ġextracts": 9364,
    "Ġslighter": 18940,
    "eze": 20846,
    "holmes": 4430,
    "Ġabundant": 17154,
    "amp": 2602,
    "umblings": 23927,
    "Ġgrown": 5628,
    "Ġvestibule": 13536,
    "Ġconcerning": 4069,
    "Ġagencies": 18538,
    "Ġswap": 23050,
    "butter": 11783,
    "Ġburial": 16521,
    "once": 5903,
    "Ġpraying": 19553,
    "harbors": 20147,
    "Ġflogged": 23623,
    "soled": 14329,
    "Ġtheme": 16018,
    "Ġgreeted": 23212,
    "Ġwhosoever": 21716,
    "Ġfinished": 5043,
    "Ġattentively": 9949,
    "Ġdangling": 17174,
    "Ġlivelong": 25511,
    "Ġtren": 17721,
    "Ġcrystals": 20226,
    "inspect": 11558,
    "zers": 21145,
    "Ġbohem": 8526,
    "Ġchurch": 4710,
    "Ġhorrify": 23816,
    "baboon": 25516,
    "Ġweighing": 20014,
    "dorff": 15236,
    "Ġspeedy": 11172,
    "progra": 9394,
    "Ġdollars": 11455,
    "nameless": 19902,
    "gardiner": 12289,
    "Ġlanding": 11983,
    "imens": 1746,
    "Ġparameter": 877,
    "Ġrebell": 21666,
    "harmony": 25750,
    "lives": 12483,
    "Ġflask": 3040,
    "Ġpersuaded": 5769,
    "Ġunbroken": 18247,
    "Ġassembled": 9235,
    "Ġcontains": 2793,
    "Ġtemporary": 7980,
    "Ġtransfer": 2199,
    "tstone": 21083,
    "Ġdrops": 9032,
    "fig": 8734,
    "Ġusurpation": 18363,
    "Ġcrutch": 23445,
    "humanity": 24839,
    "Ġpig": 5705,
    "Ġreasons": 6019,
    "Ġdisastrous": 16059,
    "Ġoverpowering": 15248,
    "Ġdissol": 18551,
    "advance": 12154,
    "Ġheath": 15700,
    "Ġaffection": 2638,
    "Ġfron": 14487,
    "Ġconsecrated": 26488,
    "Ġ27": 8614,
    "Ġnobody": 6158,
    "divers": 15341,
    "Ġfat": 3463,
    "Ġdenoted": 16565,
    "bewil": 22497,
    "Ġgreyish": 24208,
    "Ġphase": 14470,
    "Ġresistance": 13529,
    "Ġflexible": 23774,
    "phew": 6368,
    "Ġornaments": 17451,
    "Ġharp": 17923,
    "valued": 2853,
    "oup": 2016,
    "hair": 9122,
    "promised": 12249,
    "oquence": 11386,
    "waiter": 24586,
    "Ġhardship": 18913,
    "Ġcrown": 5287,
    "Ġtranspired": 16784,
    "Ġclattered": 22359,
    "ober": 15406,
    "Ġang": 2510,
    "cun": 20794,
    "Ġwondered": 11125,
    "Ġmoderately": 22210,
    "Ġreneg": 21672,
    "Ġlace": 13948,
    "Ġop": 2599,
    "Ġconfident": 11138,
    "Ġannealing": 1552,
    "Ġelopement": 10330,
    "impotence": 23760,
    "Ġshelter": 17008,
    "Ġnarwhales": 24902,
    "Ġshoreless": 24295,
    "sideways": 14572,
    "Ġdru": 8421,
    "Ġdl": 3377,
    "pil": 15408,
    "Ġglobe": 6076,
    "Ġthis": 382,
    "Ġinclu": 1100,
    "Ġconvict": 23742,
    "Ġasse": 8159,
    "Ġunerring": 15846,
    "Ġlodged": 11252,
    "circumamb": 26087,
    "Ġadhering": 14139,
    "Ġimmortality": 26325,
    "Ġfainting": 16897,
    "Ġcame": 1300,
    "Ġcaw": 13882,
    "Ġpetulance": 24227,
    "X": 60,
    "Ġtangled": 13826,
    "gave": 7799,
    "hil": 8378,
    "Ġsatisfied": 4172,
    "cham": 10853,
    "Ġventure": 7739,
    "rat": 8755,
    "Ġworm": 9162,
    "helped": 18924,
    "olets": 21007,
    ";--": 8068,
    "perquis": 22178,
    "Ġblasphe": 17406,
    "Ġmanip": 8871,
    "Ġincumbent": 16061,
    "Ġfretfulness": 25448,
    "ì": 173,
    "Ġinfinite": 8576,
    "indirect": 22369,
    "Ġhereditarily": 25224,
    "Ġincorpor": 13164,
    "Ġbottom": 3677,
    "Ġreproachfully": 25251,
    "Ġflooded": 24959,
    "Ġidiot": 11970,
    "Ġimprecations": 25820,
    "icism": 13955,
    "Ġfiendish": 13326,
    "Ġblotting": 25313,
    "Ġheroines": 19750,
    "Ġnotwithstanding": 9713,
    "Ġgo": 613,
    "Ġalongside": 6311,
    "Ġcoats": 16075,
    "Ġbull": 7839,
    "Ġturbid": 23609,
    "Ġwith": 349,
    "Ġoversampling": 20514,
    "Ġrepresents": 4901,
    "Ġnice": 6676,
    "ieth": 10704,
    "project": 16424,
    "Ġsoutherly": 23332,
    "eled": 2358,
    "Ġmeant": 3550,
    "hing": 978,
    "Ġcattle": 12569,
    "confined": 24332,
    "mund": 13757,
    "out": 467,
    "Ġloathsome": 13527,
    "Ġheeds": 24520,
    "fow": 20852,
    "iriously": 18169,
    "Ġmomentous": 16168,
    "Ġmurderers": 16811,
    "Ġdies": 11592,
    "Ġpride": 3826,
    "Ġshift": 2283,
    "tum": 11531,
    "Ġask": 1494,
    "ow": 326,
    "countryman": 24639,
    "ignation": 11128,
    "Ġancestors": 25642,
    "Ġinsight": 16530,
    "keepers": 16659,
    "Ġdisclose": 16155,
    "Ġinfinity": 23281,
    "Ġslaughter": 20729,
    "surd": 6934,
    "absurd": 21792,
    "Ġgoodge": 22820,
    "Ġ26": 10470,
    "raising": 21629,
    "Ġ31": 12128,
    "Ġ69": 19660,
    "Ġoriginated": 24123,
    "Ġkl": 2738,
    "pleasant": 5874,
    "Ġinsignificant": 20455,
    "road": 6677,
    "Ġrolling": 5974,
    "Ġfools": 14481,
    "Ġrepl": 1593,
    "Ġachieved": 13165,
    "shire": 3019,
    "Ġvexation": 10586,
    "Ġepid": 18004,
    "Ġvol": 4189,
    "fluttering": 23971,
    "Ġpassionately": 16764,
    "Ġundaunted": 24120,
    "tips": 13795,
    "allowed": 5728,
    "Ġowed": 10780,
    "Ġsurpl": 19132,
    "agony": 14068,
    "Ġsecurity": 8977,
    "Ġstretch": 6993,
    "resp": 13838,
    "Ġbales": 21387,
    "Ġartistic": 18611,
    "ulgent": 18149,
    "Ġfru": 8419,
    "Ġinvisible": 7327,
    "Ġcheeks": 5957,
    "Ġperceive": 6699,
    "undertaking": 23786,
    "separated": 20158,
    "lessly": 4556,
    "rim": 7137,
    "probable": 17021,
    "Ġfired": 16153,
    "vers": 1325,
    "Ġsteal": 16283,
    "ash": 1994,
    "supplement": 14796,
    "Ġpopulation": 16827,
    "Ġdances": 10812,
    "Ġbrim": 12974,
    "Ġlost": 2634,
    "iogn": 20920,
    "Ġaffidavit": 20723,
    "Ġthrice": 10575,
    "Ġunobserved": 18246,
    "Ġcorruption": 15224,
    "tling": 9142,
    "hum": 3782,
    "Ġgraph": 10902,
    "Ġlangu": 572,
    "Ġpalpit": 16691,
    "Ġbounce": 21391,
    "unmistakable": 21892,
    "Ġmagnet": 10390,
    "Ġbitterest": 12400,
    "second": 6543,
    "discern": 14850,
    "origin": 7581,
    "Ġfollies": 16253,
    "Ġcompassion": 6487,
    "Ġstoutest": 24628,
    "asting": 12803,
    "Ġtheories": 13848,
    "Ġunprejudiced": 18266,
    "Ġindirectly": 8939,
    "ued": 7561,
    "Ġbass": 17855,
    "projecting": 26073,
    "Ġredden": 15692,
    "Ġcope": 17830,
    "Ġencouragement": 13040,
    "Ġfelony": 18952,
    "Ġundu": 15836,
    "Ġhenry": 5197,
    "examined": 17266,
    "Ġstationary": 19693,
    "Ġsum": 2701,
    "Ġvaliant": 9798,
    "Ġminimax": 5857,
    "Ġshoal": 12014,
    "rese": 15508,
    "Ġhardened": 14449,
    "Ġother": 759,
    "Ġinferred": 14502,
    "Ġmac": 15537,
    "Ġapologizing": 25197,
    "support": 9469,
    "Ġvenom": 24238,
    "Ġterribly": 10425,
    "perch": 18336,
    "Ġlashes": 17966,
    "asked": 8911,
    "haz": 17564,
    "Ġlimp": 19179,
    "oblivious": 26582,
    "dire": 15335,
    "Ġberyls": 25775,
    "rope": 3187,
    "trap": 24313,
    "etus": 21575,
    "Ġprim": 8243,
    "Ġminds": 6303,
    "Ġquestions": 3975,
    "Ġaxe": 15061,
    "Ġshakespeare": 20306,
    "ĠĠĠĠĠĠĠĠĠĠĠĠĠĠĠĠĠĠĠĠĠĠĠĠĠĠĠĠĠĠĠĠĠĠĠĠĠĠĠĠĠĠĠĠĠ": 9951,
    "Ġfond": 4754,
    "velling": 14762,
    "Ġtwine": 14310,
    "Ġabsent": 7014,
    "servant": 15035,
    "england": 18929,
    "Ġwouldst": 18502,
    "Ġforming": 7042,
    "Ġconnected": 5393,
    "breath": 15161,
    "Ġoverspread": 14202,
    "Ġdisturb": 7107,
    "roar": 17952,
    "another": 5439,
    "Ġamply": 22479,
    "Ġrich": 2993,
    "Ġcuriosities": 26288,
    "Ġsteepest": 3090,
    "Ġstrangeness": 16707,
    "Ġmor": 1249,
    "iber": 6506,
    "atlantic": 15523,
    "Ġchooses": 13345,
    "Ġanalyzing": 18799,
    "Ġcollinses": 19129,
    "mblance": 7323,
    "Ġfibres": 12948,
    "Ġbegged": 8230,
    "hitherto": 17283,
    "clim": 18930,
    "match": 15389,
    "Ġappalling": 8499,
    "swing": 15429,
    "Ġbowled": 23768,
    "Ġintercepted": 25826,
    "Ġstartled": 7082,
    "Ġdetain": 14173,
    "Ġrasc": 21971,
    "consolatory": 25306,
    "Ġlovel": 10271,
    "Ġreject": 7386,
    "gigantic": 15358,
    "Ġtigris": 25759,
    "Ġclimb": 15078,
    "composed": 14740,
    "Ġconstable": 19068,
    "dragging": 16609,
    "Ġnigh": 4877,
    "Ġrelative": 11881,
    "conceal": 25114,
    "Ġdig": 6135,
    "Ġcongregated": 20095,
    "Ġsailor": 3536,
    "Ġthing": 1635,
    "Ġintend": 12761,
    "Ġtroop": 24897,
    "Ġpretensions": 16558,
    "ĠâĢľ_": 6696,
    "Ġscenery": 11456,
    "Ġcorrected": 10448,
    "Ġthrusting": 10552,
    "landsmen": 25059,
    "iciency": 9574,
    "Ġbeauties": 10445,
    "Ġflag": 7242,
    "Ġcoco": 11000,
    "Ġcontemplate": 19891,
    "accomp": 10455,
    "Ġclutched": 13518,
    "Ġpistol": 7846,
    "Ġmappings": 2147,
    "Ġgasped": 11372,
    "arer": 3971,
    "settle": 16661,
    "Ġperusal": 14224,
    "Ġmix": 7576,
    "moor": 22701,
    "perpendicular": 14159,
    "inlaid": 21189,
    "Ġsurf": 19131,
    "Ġashes": 7616,
    "Ġbuckskin": 19950,
    "Ġmatted": 22908,
    "Ġsupers": 18275,
    "Ġconfidently": 24955,
    "Ġfemales": 14936,
    "mem": 10709,
    "Ġharshly": 25249,
    "Ġceleb": 20224,
    "gaff": 20881,
    "Ġnapoleons": 25885,
    "ò": 179,
    "gallery": 24693,
    "introduction": 15122,
    "Ġleft": 1760,
    "ullo": 12726,
    "ourage": 2453,
    "Ġuse": 829,
    "appeared": 4282,
    "Ġgranted": 22804,
    "Ġwretched": 4081,
    "Ġsupplies": 20325,
    "Ġrepute": 18034,
    "Ġsummoned": 9910,
    "Ġtiger": 11554,
    "Ġstiff": 6992,
    "rippa": 11341,
    "ë": 172,
    "Ġadler": 8173,
    "Ġirreduc": 5491,
    "Ġjoist": 19230,
    "Ġanyhow": 14254,
    "Ġbern": 17858,
    "mph": 20971,
    "Ġby": 384,
    "Ġeven": 1027,
    "Ġtools": 11608,
    "Ġplumber": 16083,
    "Ġinspired": 2518,
    "brilliancy": 26077,
    "Ġconceited": 12088,
    "Ġmaddening": 17243,
    "Ġrainbows": 19647,
    "Ġthousand": 2782,
    "Ġliterally": 15115,
    "Ġdiligent": 25075,
    "naught": 20993,
    "Ġtremble": 6906,
    "m": 81,
    "Ġune": 4598,
    "elastic": 17980,
    "Ġbackwoods": 22659,
    "Ġprynne": 25540,
    "Ġperceptibly": 25821,
    "ners": 3271,
    "itzerland": 9994,
    "Ġchronicled": 25328,
    "Ġregained": 18592,
    "Ġensigns": 23687,
    "Ġperfectly": 3703,
    "narrowly": 20346,
    "hawk": 7121,
    "sphere": 22729,
    "ek": 1908,
    "Ġdeity": 18137,
    "Ġforegoing": 23448,
    "relatively": 24014,
    "Ġdodge": 19885,
    "Ġacceptance": 14826,
    "iability": 20919,
    "Ġrule": 1533,
    "shooting": 16965,
    "Ġnearest": 8469,
    "txt": 12513,
    "glimmer": 26321,
    "Ġjewel": 9941,
    "odecimo": 11444,
    "ologically": 22862,
    "Ġcareful": 2608,
    "Ġspout": 3283,
    "Ġaffectionate": 5584,
    "Ġthreshold": 2809,
    "Ġchose": 7413,
    "garn": 20869,
    "Ġeffusion": 22514,
    "Ġpremium": 23902,
    "leisure": 21369,
    "ivial": 15861,
    "rants": 13777,
    "Ġdotted": 16792,
    "Ġcity": 4530,
    "Ġdislike": 6047,
    "Ġcustody": 13646,
    "Ġfun": 524,
    "izz": 7612,
    "Ġconvalescence": 23743,
    "Ġfro": 3472,
    "Ġpebbles": 16128,
    "immortal": 21707,
    "recol": 10150,
    "Ġarmed": 9259,
    "Ġpinioned": 21480,
    "ann": 5802,
    "Ġclutching": 24951,
    "ptember": 10893,
    "its": 1147,
    "follow": 5680,
    "Ġsunshine": 14495,
    "Ġfished": 21408,
    "Ġinquis": 19303,
    "Ġpage": 6978,
    "unhesitatingly": 26496,
    "Ġglobu": 23267,
    "Ġjovial": 19232,
    "Ġresolution": 5500,
    "baby": 25515,
    "Ġbreeds": 23346,
    "Ġsworn": 14435,
    "Ġleague": 6538,
    "Ġhempen": 13549,
    "io": 3805,
    "Ġac": 845,
    "heeded": 13833,
    "Ġdauntless": 26336,
    "Ġelud": 22646,
    "Ġsuddenness": 23380,
    "Ġentreaty": 10529,
    "lac": 17589,
    "Ġcalendar": 18876,
    "Ġobservable": 25126,
    "urean": 18122,
    "Ġmonuments": 22979,
    "direful": 25896,
    "Ġdew": 14044,
    "etian": 13958,
    "Ġspangled": 22133,
    "Ġdefiance": 11068,
    "Ġports": 10818,
    "Ġfriendless": 23023,
    "Ġprivile": 8645,
    "Ġfavourably": 16364,
    "Ġtranquo": 14842,
    "Ġrebellion": 26475,
    "shock": 19854,
    "unities": 15769,
    "Ġow": 8407,
    "aft": 9583,
    "Ġcontribut": 12856,
    "comfortableness": 24525,
    "flame": 16637,
    "Ġpreceded": 13427,
    "igner": 21699,
    "Ġcleaving": 23179,
    "uesday": 8587,
    "Ġcompanion": 3646,
    "Ġsagaciously": 24731,
    "Ġalcoves": 26486,
    "Ġtransparency": 10676,
    "Ġcoleridge": 18766,
    "Ġpurse": 12009,
    "cul": 1901,
    "col": 3105,
    "Ġengra": 7873,
    "Ġbreakfast": 3978,
    "Ġexhilarating": 26337,
    "Ġdarkness": 4278,
    "Ġbr": 1075,
    "Ġdestructive": 23487,
    "rut": 8091,
    "laden": 14928,
    "Ġgroan": 13323,
    "Ġsleepless": 14582,
    "Ġspacious": 18312,
    "mastod": 23972,
    "consult": 24169,
    "Ġmien": 17808,
    "Ġpitch": 5767,
    "Ġpack": 5444,
    "Ġcharacteristics": 8609,
    "Ġsteeply": 23721,
    "mmed": 7913,
    "soup": 21057,
    "tes": 11528,
    "Ġlarboard": 11009,
    "Ġtemporarily": 11167,
    "Ġweaken": 21919,
    "Ġfolding": 19726,
    "ken": 2801,
    "Ġmysterious": 7527,
    "Ġpunctil": 20112,
    "Ġ\"": 6119,
    "Ġasiatics": 20429,
    "Ġpeculiar": 3155,
    "Ġ30": 10511,
    "Ġrud": 8477,
    "Đ": 209,
    "Ġtrees": 4203,
    "Ġterm": 2269,
    "Ġstrat": 16090,
    "largely": 19573,
    "Ġturn": 1298,
    "Ġlongitudes": 22632,
    "Ġlulled": 17968,
    "inkled": 5477,
    "admit": 18090,
    "performances": 26006,
    "Ġexciting": 23310,
    "single": 10126,
    "theirs": 23600,
    "ibilities": 13005,
    "resting": 23234,
    "Ġdrank": 16535,
    "Ġvacancy": 9044,
    "ichron": 22165,
    "Ġvane": 22873,
    "Ġunfathom": 14788,
    "Ġpreparing": 8647,
    "rigged": 17062,
    "spikes": 10340,
    "Ġinterpretation": 19715,
    "Ġannals": 17898,
    "paused": 17373,
    "exceedingly": 9566,
    "pless": 6260,
    "Ġbeheading": 21751,
    "Ġcommenced": 8531,
    "Ġluggage": 25957,
    "Ġpagan": 7117,
    "Ġskiff": 16162,
    "Ġice": 3604,
    "Ġrespecting": 14483,
    "clopÃ¦": 13053,
    "Ġpangs": 15613,
    "ulity": 10886,
    "baned": 17495,
    "Ġappearance": 3702,
    "irt": 3079,
    "8": 28,
    "Ġstra": 2991,
    "icken": 6711,
    "ibility": 2390,
    "ither": 1546,
    "warmth": 20051,
    "Ġcircumn": 11982,
    "Ġfatt": 15577,
    "Ġusually": 6263,
    "Ġchast": 18380,
    "atherley": 7220,
    "Ġhistories": 14687,
    "Ġrestless": 10413,
    "Ġwhirling": 12246,
    "Ġcorrespondent": 19821,
    "fly": 13713,
    "icts": 22399,
    "Ġshel": 6847,
    "trad": 21075,
    "Ġcomfortably": 16615,
    "Ġstormy": 16728,
    "omon": 10206,
    "ational": 5716,
    "laug": 10707,
    "Ġancho": 15601,
    "âĢĶ": 517,
    "Ġengaging": 9335,
    "ried": 926,
    "nings": 9131,
    "ignorant": 13562,
    "Ġtrod": 15026,
    "fanc": 20863,
    "Ġvirtues": 9935,
    "Ġstranded": 9774,
    "Ġdinner": 4245,
    "unt": 2044,
    "Ġbubble": 13534,
    "brushing": 20787,
    "independent": 26021,
    "Ġandes": 12638,
    "decan": 22139,
    "Ġmistaken": 4985,
    "Ġawake": 8271,
    "Ġhope": 1790,
    "Ġcomplying": 18586,
    "B": 38,
    "sequent": 6831,
    "Ġvehicle": 20137,
    "usation": 18396,
    "Ġoscillations": 2898,
    "victim": 25530,
    "Ġglossy": 15226,
    "ientious": 11689,
    "Ġspaniards": 25555,
    "Ġsuffers": 2973,
    "Ġmira": 8406,
    "igms": 3046,
    "find": 6954,
    "elstrom": 17981,
    "dings": 2204,
    "Ġcopied": 20006,
    "Ġdinnertime": 16719,
    "okes": 9276,
    "ascertain": 21540,
    "/*": 10070,
    "ciousness": 20816,
    "Ġpolitical": 19222,
    "Ġslopes": 18941,
    "Ġhaw": 10251,
    "Ġjonah": 3481,
    "official": 24914,
    "Ġperth": 7022,
    "Ġseparating": 16685,
    "Ġroughly": 17040,
    "Ġdistended": 16043,
    "Ġdeject": 10881,
    "Ġpromises": 10400,
    "ostentatious": 20651,
    "Ġimprove": 1811,
    "Ġdocumentation": 20553,
    "#": 7,
    "Ġgoodness": 6058,
    "unfearing": 21889,
    "ntax": 934,
    "](": 11466,
    "Ġconvolutions": 21804,
    "Ġliveliness": 13642,
    "Ġslime": 23159,
    "Ġembodiment": 20526,
    "news": 23131,
    "Ġchemical": 10410,
    "Ġexplicit": 3589,
    "Ġwrig": 13065,
    "Ġcrozetts": 19628,
    "Ġblinds": 8006,
    "Ġunavailing": 26215,
    "polar": 24583,
    "Ġim": 475,
    "Ġimpediments": 26240,
    "Ġinhospit": 25452,
    "Ġphotography": 24683,
    "stock": 13220,
    "ay": 355,
    "umnal": 18300,
    "Ġtorpor": 25031,
    "ython": 1030,
    "Ġsweep": 8265,
    "Ġspr": 4026,
    "thine": 15823,
    "Ġ44": 16679,
    "playful": 24357,
    "_).": 5886,
    "Ġstump": 7602,
    "Ġtwo": 1044,
    "Ġaunts": 21199,
    "cont": 2919,
    "Ġfrosted": 19802,
    "exagger": 22425,
    "a": 69,
    "urged": 18047,
    "position": 15413,
    "ructed": 7029,
    "Ġweighty": 16032,
    "Ġreplace": 14476,
    "Ġentrances": 25834,
    "Ġservice": 6471,
    "Ġcannibal": 7773,
    "works": 6587,
    "secondly": 16984,
    "emin": 8470,
    "Ġagents": 9765,
    "Ġoffensive": 18694,
    "Ġlack": 17963,
    "ffy": 18317,
    "Ġlooks": 4166,
    "Ġfeeble": 12282,
    "Ġexclamations": 11361,
    "persuade": 13532,
    "bourgh": 19103,
    "Ġunwarrantable": 26353,
    "Ġmess": 7831,
    "accuracy": 9878,
    "Ġstratag": 26028,
    "Ġcrew": 2496,
    "Ġpork": 21455,
    "Ġval": 950,
    "content": 11197,
    "Ġanybody": 5313,
    "Ġmagn": 1553,
    "¬": 110,
    "gloom": 17139,
    "favourable": 12261,
    "Ġshaded": 14104,
    "Ġtalent": 12295,
    "Ġfidget": 15188,
    "concerted": 16671,
    "lucases": 20209,
    "source": 11525,
    "Ġfurthermore": 1170,
    "Ġcosmopol": 16456,
    "Ġfaithfully": 14886,
    "Ġrises": 9712,
    "capting": 24039,
    "Ġanticipatingly": 26102,
    "Ġreverber": 19868,
    "Ġbeliever": 25845,
    "created": 12448,
    "caves": 20815,
    "Ġvary": 15806,
    "icher": 9202,
    "Ġhieroglyph": 11969,
    "Ġinsert": 19904,
    "anqu": 4110,
    "thickness": 25367,
    "Ġsteel": 3892,
    "Ġretirement": 25378,
    "Ġhands": 1661,
    "Ġsneeze": 24699,
    "Ġundesired": 12775,
    "_.âĢĻâĢĿ": 17479,
    "Ġexchanging": 18132,
    "erve": 12546,
    "Ġjane": 1757,
    "Ġaffright": 9331,
    "Ġexclusiveness": 23924,
    "iliary": 21723,
    "Ġmungo": 25631,
    "istics": 1625,
    "Ġreaching": 7303,
    "ortion": 11755,
    "Ġtreatise": 19343,
    "Ġautonomous": 10675,
    "mushroom": 26395,
    "clerval": 7950,
    "Ġwrought": 11942,
    "Ġinclusive": 24163,
    "dict": 15338,
    "vener": 21110,
    "dece": 11732,
    "Ġsimil": 2530,
    "ellent": 3767,
    "Ġpreparations": 12308,
    "Ġaffair": 4463,
    "Ġvig": 5460,
    "Ġconsidering": 4615,
    "Ġsublime": 8065,
    "Ġdismember": 20214,
    "ways": 1441,
    "Ġsumat": 14128,
    "Ġdescends": 14287,
    "Ġscent": 10288,
    "Ġnative": 4640,
    "Ġfurn": 3713,
    "ma": 1149,
    "Ġconclusions": 10553,
    "ived": 1532,
    "Ġhelter": 24025,
    "wor": 3416,
    "Ġrecommend": 7102,
    "prepar": 22449,
    "Ġraised": 4660,
    "Ġdialogue": 12402,
    "Ġcombinations": 22850,
    "Ġcountenance": 3973,
    "usive": 8189,
    "Ġdepressed": 10883,
    "Ġenjoying": 11234,
    "Ġmadame": 13149,
    "Ġlounged": 19952,
    "Ġrepublican": 17411,
    "crimson": 24100,
    "Ġdrowsiness": 26445,
    "Ġmighty": 4230,
    "Ġprognost": 15280,
    "Ġlovely": 4709,
    "Ġpropriet": 9549,
    "Ġemigrant": 25859,
    "Ġdons": 17888,
    "Ġliar": 22405,
    "Ġminute": 4279,
    "Ġinsurg": 23679,
    "Ġsuit": 5725,
    "thes": 7391,
    "oil": 7805,
    "serv": 7451,
    "Ġderivative": 2999,
    "Ġthanks": 6707,
    "Ġaffections": 10384,
    "Ġventil": 8019,
    "sive": 4144,
    "Ġthousands": 6748,
    "unbounded": 21882,
    "Ġlike": 668,
    "rict": 8092,
    "establish": 17392,
    "Ġmargaret": 10376,
    "Ġindepend": 3671,
    "Ġhumiliation": 16198,
    "Ġdisagreeable": 9297,
    "Ġamusing": 11798,
    "Ġdepression": 21838,
    "Ġactivations": 2721,
    "Ġhysterical": 26092,
    "bearded": 18521,
    "Ġharvest": 13414,
    "umphed": 23516,
    "Ġpitched": 9444,
    "Ġundecided": 22043,
    "Ġqueequeg": 2014,
    "Ġmccarthys": 19661,
    "Ġgreatness": 12940,
    "Ġaerial": 21197,
    "Ġstraightway": 9016,
    "sterdam": 19087,
    "Ġattributed": 11831,
    "Ġgamb": 17997,
    "Ġfleece": 10614,
    "consist": 14815,
    "Ġleaking": 21742,
    "Ġexp": 778,
    "oga": 22695,
    "Ġinjunctions": 24269,
    "Ġfought": 12590,
    "Ġunknown": 4452,
    "Ġscrupled": 25049,
    "Ġreduces": 2342,
    "scythes": 26402,
    "ze": 1341,
    "Ġmend": 8405,
    "Ġwindow": 2997,
    "maul": 11888,
    "Ġglim": 9343,
    "wail": 21124,
    "Ġrecovered": 5481,
    "relieved": 13275,
    "Ġcocaine": 20720,
    "Ġbible": 9318,
    "zing": 7820,
    "Ġindirect": 18835,
    "Ġsmack": 9299,
    "Ġdecision": 2675,
    "dut": 10087,
    "aintance": 3569,
    "Ġcoldly": 14650,
    "Ġderision": 16308,
    "ok": 574,
    "Ġfrequently": 4679,
    "Ġorlop": 22090,
    "musical": 25340,
    "hetically": 21207,
    "Ġpartners": 11851,
    "your": 1986,
    "Ġpat": 1745,
    "Ġfreely": 7056,
    "fre": 5425,
    "Ė": 215,
    "Ġdiscover": 4717,
    "otes": 15742,
    "ios": 2188,
    "Ġindisc": 16226,
    "topp": 22562,
    "Ġblushed": 12999,
    "firmly": 20279,
    "Ġhissed": 15787,
    "digger": 24310,
    "Ġhelmeted": 19687,
    "dz": 4738,
    "concluding": 19479,
    "Ġsits": 10768,
    "Ġowen": 15093,
    "Ġextreme": 2515,
    "Ġentailed": 11027,
    "Ġklux": 22192,
    "angels": 22102,
    "iners": 4936,
    "Ġtomorrow": 21510,
    "Ġswimming": 5507,
    "Ġobstetrics": 24678,
    "Ġdeactivates": 20702,
    "Ġcomprises": 22569,
    "aited": 12433,
    "Ġcountenances": 11963,
    "Ġpeaceful": 9455,
    "Ġmimic": 3146,
    "Ġmethinks": 10388,
    "attacked": 23120,
    "unwittingly": 25801,
    "Ġric": 18211,
    "ä": 165,
    "Ġsolutions": 1949,
    "Ġamiable": 4270,
    "Ġoccurrence": 14381,
    "discoloured": 23498,
    "Ġresentful": 24631,
    "Ġconsiderably": 7714,
    "Ġgentlemen": 3645,
    "Ġchase": 3948,
    "Ġsplashing": 16549,
    "Ġdine": 7366,
    "Ġpainter": 19167,
    "Ġmercenary": 17193,
    "Ġdream": 3538,
    "viating": 14579,
    "Ġruns": 8594,
    "mitted": 5213,
    "linked": 17593,
    "fourths": 25509,
    "Ġstoutly": 16924,
    "Ġgestic": 21605,
    "bald": 16447,
    "Ġspect": 3552,
    "Ġtossings": 25356,
    "Ġscaramouch": 23825,
    "plifted": 9710,
    "Ġcoppers": 22582,
    "Ġreceiving": 4881,
    "icted": 5936,
    "Ġposture": 24164,
    "Ġexhib": 6349,
    "impress": 18051,
    "Ġetern": 7085,
    "Ġautomation": 13241,
    "boys": 13358,
    "Ġfairer": 20460,
    "Ġcrushing": 20175,
    "Ġmid": 2612,
    "Ġreco": 9788,
    "pton": 15790,
    "lement": 10166,
    "tut": 15434,
    "twilight": 23700,
    "Ġreconciled": 13586,
    "Ġaccomplished": 7104,
    "biting": 20779,
    "Ġopening": 5044,
    "Ġribs": 7101,
    "cks": 3082,
    "Ġshank": 21994,
    "Ġreassure": 21669,
    "dist": 4481,
    "Ġcontinental": 19704,
    "Ġlouisa": 13545,
    "Ġbespe": 19240,
    "Ġinco": 14259,
    "Ġbelieved": 4368,
    "Ġcommands": 16589,
    "Ġlimb": 9401,
    "Ġloggerhead": 13656,
    "kes": 3681,
    "Ġcomfits": 21849,
    "Ġsubur": 12953,
    "Ġsporty": 19889,
    "Ġimplements": 2486,
    "Ġmetaphys": 16416,
    ":": 30,
    "Ġwards": 17789,
    "Ġabsence": 4893,
    "Ġround": 1372,
    "addressed": 13384,
    "Ġnewcomers": 26041,
    "Ġpetrified": 19595,
    "Ġperilously": 24507,
    "Ġstanders": 19016,
    "odings": 4399,
    "Ġmeridian": 25714,
    "Ġexperienced": 6581,
    "Ġway": 1087,
    "Ġseeking": 7036,
    "Ġfebruary": 15911,
    "ercely": 12547,
    "pressing": 19015,
    "Ġsimply": 7218,
    "Ġequally": 5257,
    "Ġfinny": 23125,
    "ĠĠĠĠĠĠĠĠĠĠĠĠĠĠĠĠĠĠĠĠĠĠĠĠ": 5321,
    "Ġspo": 6846,
    "beth": 13687,
    "if": 376,
    "Ġleisure": 6539,
    "athan": 2954,
    "friends": 8305,
    "Ġthrew": 3976,
    "Ġcod": 8411,
    "Ġtwist": 11849,
    "Ġseaward": 22944,
    "begged": 18519,
    "his": 1412,
    "Ġpol": 2573,
    "Ġwar": 5526,
    "Ġinve": 17928,
    "Ġcheerless": 16694,
    "orers": 14102,
    "hors": 9598,
    "Ġfeasts": 25369,
    "cat": 15323,
    "Ġdumb": 7843,
    "Ġassurance": 7774,
    "Ġnasty": 17442,
    "Ġunearthly": 9036,
    "bureau": 20788,
    "missed": 11209,
    "Ġ97": 19773,
    "Ġrefer": 18697,
    "matters": 14873,
    "Ġfasten": 11132,
    "Ġcoiled": 11818,
    "Ġabundance": 17155,
    "Ġstain": 18064,
    "astic": 1871,
    "Ġacknowledgment": 16957,
    "iful": 2882,
    "Ġpython": 1073,
    "comparatively": 25839,
    "Ġexamine": 7734,
    "grim": 19106,
    "Ġgrey": 4513,
    "Ġbenefited": 19396,
    "Ġeurope": 8061,
    "Ġtypewriter": 19097,
    "ividual": 5463,
    "Ġpursuits": 12074,
    "Ġepidemic": 20694,
    "Ġcaroline": 7254,
    "attachment": 13049,
    "experienced": 15120,
    "disc": 4728,
    "Ġlower": 2660,
    "ellow": 3881,
    "Ġobe": 5800,
    "Ġrecall": 3859,
    "Ġfront": 3452,
    "Ġsplitting": 4383,
    "Ġarguments": 8036,
    "gs": 7338,
    "racts": 14361,
    "Ġwhatsoever": 18455,
    "het": 5435,
    "possibly": 10543,
    "manned": 18763,
    "Ġhesitating": 16947,
    "Ġsink": 4341,
    "thumb": 18218,
    "cries": 17510,
    "tube": 20409,
    "Ġacquies": 11098,
    "18": 20750,
    "Ġdouble": 4939,
    "dwell": 15340,
    "lier": 20948,
    "Ġhardware": 4903,
    "Ġmagnus": 18957,
    "allers": 22194,
    "Ġsturgeon": 20590,
    "remark": 7261,
    "Ġvelvet": 12396,
    "Ġriggers": 24156,
    "estim": 14169,
    "Ġming": 9645,
    "stuff": 15686,
    "proceeded": 25190,
    "Ġsaintly": 25931,
    "achable": 14137,
    "Ġhereby": 10358,
    "naturedly": 24840,
    "Ġkeeps": 8266,
    "Ġsuperior": 2754,
    "Ġpacific": 5153,
    "Ġpermanent": 13630,
    "calmly": 20138,
    "Ġspectator": 19404,
    "Ġhebrew": 13987,
    "Ġmourn": 8703,
    "Ġverdure": 10612,
    "Ġholiday": 12995,
    "Ġkissed": 10044,
    "Ġtokens": 1772,
    "Ġdissipate": 13632,
    "Ġjacket": 6489,
    "seam": 10874,
    "Ġgrasping": 12163,
    "opening": 10312,
    "Ġsqualls": 17020,
    "Ġmoods": 14950,
    "details": 19674,
    "Ġturbul": 23610,
    "Ġardent": 9969,
    "least": 8784,
    "walked": 10570,
    "Ġmixture": 9562,
    "Ġsufferer": 16258,
    "Ġcongregational": 25102,
    "Ġticklish": 25034,
    "Ġstarve": 24625,
    "Ġdistinctly": 7311,
    "arts": 6563,
    "Ġcurbstone": 26042,
    "Ġconnivance": 25225,
    "Ġexcused": 23311,
    "Ġfrankness": 16746,
    "Ġswords": 19896,
    "Ġdeuteronomy": 15758,
    "Ġfloundering": 16249,
    "Ġpaced": 7583,
    "magnitude": 17248,
    "Ġdistur": 5312,
    "Ġcontraction": 16007,
    "Ġsoaring": 22077,
    "regarding": 15070,
    "Ġelbows": 18643,
    "ben": 4925,
    "Ġrelev": 1713,
    "Ġimpressed": 8198,
    "Ġmuttered": 7086,
    "considerably": 13444,
    "Ġbending": 12582,
    "Ġlatent": 19654,
    "Ġstill": 1155,
    "Ġlab": 1874,
    "Ġspoken": 4835,
    "Ġdodo": 9072,
    "Ġpeculiarly": 8286,
    "Ġtombed": 25160,
    "Ġenormity": 19694,
    "mature": 20966,
    "companions": 15023,
    "Ġbackwards": 12924,
    "Ġfatigued": 13464,
    "Ġrelaps": 18775,
    "Ġobjects": 5578,
    "chest": 11208,
    "elop": 1473,
    ";âĢĿ": 7790,
    "Ġmitt": 21306,
    "ink": 755,
    "Ë": 140,
    "Ġvindictive": 20468,
    "ashions": 16417,
    "uses": 11758,
    "magistrate": 19862,
    "Ġauxiliary": 26418,
    "Ġpulled": 5660,
    "Ġtearing": 14397,
    "ğ": 224,
    "eline": 2236,
    "Ġvitality": 15171,
    "Ġdish": 6136,
    "Ġlingu": 11613,
    "Ġmeekly": 26490,
    "Ġpreservation": 24630,
    "Ġamelia": 26251,
    "Ġorgies": 18285,
    "Ġamerica": 6763,
    "Ġbubbling": 17325,
    "istence": 2416,
    "Ġlearnt": 7614,
    "calculating": 25689,
    "service": 15036,
    "thee": 9689,
    "Ġnetwork": 452,
    "Ġwalks": 8966,
    "Ġmonths": 3457,
    "Ġunsupp": 22016,
    "pray": 5429,
    "Ġwatson": 3597,
    "Ġsole": 3298,
    "Ġborn": 5224,
    "Ġhoe": 23349,
    "cause": 7795,
    "Ġembarkation": 25123,
    "Ġmidnight": 5265,
    "hook": 12051,
    "Ġshouldn": 14324,
    "Ġdriven": 6198,
    "Ġlifted": 6985,
    "hinting": 17569,
    "Ġcorporeally": 25729,
    "Ġfactory": 23274,
    "Ġtraged": 9351,
    "ladies": 9528,
    "cur": 3270,
    "wanderer": 25423,
    "curiosity": 8623,
    "ernal": 4312,
    "Ġbags": 24537,
    "Ġflourished": 15124,
    "withstanding": 8945,
    "Ġclapped": 9745,
    "Ġunsatisfied": 22039,
    "Ġillustrations": 17108,
    "Ġpeasant": 13550,
    "Ġunwearied": 20601,
    "agged": 9236,
    "Ġcapstan": 9098,
    "Ġminus": 18751,
    "Ġresearches": 13145,
    "Ġcult": 8781,
    "Ġscientific": 6858,
    "Ġther": 17778,
    "Ġjing": 15943,
    "Ġgrotes": 19562,
    "hon": 6793,
    "Ġfrankenstein": 7095,
    "jane": 4483,
    "Ġstiffly": 15005,
    "Ġencircling": 26271,
    "Ġalive": 4398,
    "Ġlap": 8436,
    "Ġcringed": 25942,
    "umerable": 11723,
    "can": 1233,
    "Ġdiscol": 12950,
    "Ġfavourable": 7958,
    "branch": 23576,
    "Ġshriek": 6637,
    "ates": 519,
    "aging": 2237,
    "Ġ275": 20109,
    "Ġhideous": 5982,
    "Ġprizes": 13072,
    "acrity": 14278,
    "levelled": 23642,
    "educated": 17259,
    "gled": 10699,
    "angible": 22101,
    "Ġaudience": 24769,
    "Ġstingy": 25455,
    "Ġanyways": 22517,
    "storm": 9681,
    "abling": 1081,
    "Ġdisplayed": 10608,
    "Ġanomaly": 25636,
    "Ġturkey": 19218,
    "Ġsettled": 3745,
    "Ġcalifornian": 25851,
    "Ġsutherland": 10148,
    "Ġmilitary": 11258,
    "Ġfolks": 14425,
    "Ġgratified": 8021,
    "lads": 20954,
    "Ġas": 374,
    "successful": 11358,
    "Ġiter": 2951,
    "Ġgurglings": 26465,
    "Ġreadability": 2727,
    "hollow": 24040,
    "cracy": 24690,
    "contriv": 19292,
    "while": 2933,
    "Ġobscure": 9553,
    "ignominious": 26587,
    "Ġballasted": 23980,
    "Ġnostrils": 10943,
    "irons": 10238,
    "Ġcondescending": 24868,
    "Ġnevertheless": 5039,
    "Ġfol": 1288,
    "reliable": 21239,
    "ratulations": 20124,
    "Ġadvise": 7934,
    "ak": 538,
    "Ġstage": 7389,
    "foolish": 12345,
    "Ġprovince": 24189,
    "destined": 24115,
    "incible": 16497,
    "Ġded": 2686,
    "reasonable": 7751,
    "hack": 20895,
    "ivable": 10911,
    "searching": 25103,
    "Ġmatrices": 4968,
    "system": 4098,
    "Ġclicked": 22362,
    "amid": 12721,
    "icles": 17972,
    "ifted": 4495,
    "Ġspaulding": 11730,
    "ductive": 23933,
    "Ġpier": 7162,
    "Ġapprehen": 16829,
    "Ġinadequate": 17936,
    "Ġelias": 18642,
    "prosper": 19100,
    "pen": 1204,
    "Ġalluding": 18269,
    "taught": 17684,
    "Ġdeigned": 18141,
    "browed": 25894,
    "sink": 11521,
    "Ġmetrics": 19092,
    "Ġintention": 5638,
    "Ġdepresses": 25797,
    "Ġdarling": 12601,
    "ortment": 22253,
    "Ġgenerating": 12846,
    "behold": 12875,
    "lied": 6507,
    "connected": 1309,
    "Ġrocked": 12853,
    "Ġdetaining": 25818,
    "ud": 917,
    "Ġadvertised": 17247,
    "tles": 10730,
    "whom": 8184,
    "Ġdisplay": 6428,
    "line": 1440,
    "Ġdimly": 9487,
    "gar": 5615,
    "Ġresolutely": 14609,
    "Ġseries": 7060,
    "Ġresults": 7308,
    "Ġgid": 13961,
    "care": 4927,
    "ancholy": 5069,
    "Ġperhaps": 1912,
    "warmly": 25026,
    "canoes": 16229,
    "Ġchimney": 6497,
    "Ġfell": 1978,
    "Ġsiamese": 20481,
    "guarded": 13293,
    "Ġslily": 23162,
    "Ġremorse": 6441,
    "Ġserpents": 13075,
    "Ġbodings": 21389,
    "Ġtable": 2499,
    "Ġcumbrous": 26432,
    "animation": 16979,
    "extinguished": 16152,
    "anders": 18152,
    "Ġgibe": 25959,
    "Ġunwe": 15837,
    "Ġawaken": 23584,
    "ression": 3405,
    "Ġphilipp": 23882,
    "Ġrind": 21966,
    "Ġchilly": 25562,
    "quick": 6400,
    "Ġsupposition": 9816,
    "Ġefficiently": 4231,
    "enorm": 17781,
    "Ġcorpora": 26580,
    "Ġpun": 4587,
    "boil": 18999,
    "Ġthoughtlessness": 16193,
    "Ġapp": 493,
    "Ġtunnels": 24620,
    "reduc": 5459,
    "sle": 9138,
    "Ġshun": 11707,
    "rights": 23673,
    "belais": 24038,
    "sacred": 17028,
    "Ġreplay": 5046,
    "Ġloft": 5642,
    "Ġecon": 9677,
    "Ġdesper": 6176,
    "Ġgent": 7383,
    "Ġeste": 6084,
    "keenest": 25662,
    "Ġcircling": 19090,
    "wives": 15455,
    "oubtedly": 6943,
    "er": 269,
    "kward": 6958,
    "round": 3369,
    "hatherley": 17568,
    "happening": 16564,
    ").âĢĿ": 20740,
    "investments": 25532,
    "Ġcommons": 22669,
    "reputation": 15515,
    "Ġconquered": 14025,
    "Ġmowers": 17812,
    "Ġsolicitude": 10039,
    "Ġadvanced": 1472,
    "Ġwonderfully": 10430,
    "speeches": 25239,
    "top": 4486,
    "Ġmoss": 9283,
    "Ġemblematical": 25788,
    "revealed": 20414,
    "uend": 21100,
    "Ġjost": 23629,
    "mil": 13751,
    "impenet": 18053,
    "Ġtrustees": 24108,
    "Ġfluffy": 19362,
    "Ġdisconnected": 22522,
    "Ġflutter": 16246,
    "vid": 916,
    "Ġexhaustion": 14960,
    "inctions": 17732,
    "remained": 8569,
    "quite": 4646,
    "Ġregretted": 13399,
    "exped": 16525,
    "ocris": 23706,
    "Ġhues": 21486,
    "Ġenterprise": 8641,
    "Ġemails": 13105,
    "entiful": 10836,
    "Ġsa": 474,
    "susceptible": 24661,
    "Ġinfluences": 14864,
    "Ġassoc": 6402,
    "ositories": 22260,
    "misfortunes": 16756,
    "Ġdaily": 5986,
    "Ġfifty": 4623,
    "Ġindependently": 4247,
    "Ġdoomed": 11342,
    "waters": 11333,
    "Ġplainpalais": 20736,
    "Ġcomposition": 1687,
    "irted": 14070,
    "Ġconviction": 6326,
    "Ġasi": 12729,
    "Ġcompass": 4408,
    "Ġinglorious": 24424,
    "Ġstruggles": 16578,
    "paid": 15414,
    "Ġvertebra": 20180,
    "ateful": 5926,
    "bur": 4686,
    "ceptive": 15964,
    "Ġoptimal": 1859,
    "Ġrains": 24340,
    "Ġsluggish": 25890,
    "Ġprofessors": 14725,
    "Ġunimaginable": 15245,
    "dition": 15339,
    "earnest": 12397,
    "actions": 8906,
    "lights": 13204,
    "algorith": 3735,
    "Ġpredecess": 18529,
    "Ġtheirs": 7024,
    "Ġ1890": 23893,
    "oner": 6124,
    "Í": 142,
    "Ġinspection": 14544,
    "Ġinvol": 985,
    "Ġpuppy": 12403,
    "erial": 4631,
    "Ġtowing": 9193,
    "alongside": 19788,
    "Ġoffences": 18693,
    "Ġtragedy": 10667,
    "Ġtomb": 8807,
    "east": 9115,
    "attain": 21260,
    "Ġanchor": 7368,
    "Ġunworthy": 11713,
    "oar": 12495,
    "Ġrapt": 7224,
    "Ġmonstr": 7667,
    "Ġcomb": 1056,
    "acity": 5735,
    "Ġmultiplication": 2871,
    "inisc": 15488,
    "family": 7324,
    "icirc": 15654,
    "Ġfaces": 6008,
    "Ġlaid": 3944,
    "want": 8765,
    "Ġfairy": 14627,
    "Ġtoes": 10829,
    "pronouncing": 25193,
    "Ġuncomp": 15840,
    "cut": 3125,
    "Ġimpenitent": 26548,
    "lone": 11499,
    "arat": 9180,
    "bast": 10076,
    "Ġjingling": 26014,
    "Ġunsh": 14113,
    "antique": 18287,
    "pig": 8752,
    "Ġblame": 6446,
    "ples": 6845,
    "ary": 984,
    "Ġcrying": 10786,
    "Ġrapid": 1411,
    "lanterns": 17428,
    "Ġlooking": 2475,
    "breast": 11246,
    "angling": 14140,
    "opposing": 24825,
    "Ġlect": 9222,
    "Ġsponge": 26004,
    "Ġweld": 8111,
    "Ġnot": 413,
    "masts": 19423,
    "apple": 22837,
    "endeav": 7150,
    "Ġlocker": 16911,
    "Ġdissip": 10992,
    "Ġbrooded": 23101,
    "Ġcopse": 17067,
    "Ġrighteous": 18946,
    "ite": 712,
    "degrees": 22147,
    "former": 11746,
    "Ġgiddy": 20495,
    "Ġvulture": 17338,
    "fect": 2300,
    "Ġcobb": 14271,
    "Ġover": 554,
    "ove": 1742,
    "Ġchased": 8861,
    "observation": 17269,
    "Ġchinese": 14183,
    "Ġcollins": 2178,
    "evening": 7089,
    "Ġgem": 21591,
    "Ġupdate": 2465,
    "Ġmotives": 7486,
    "ê": 171,
    "Ġslept": 8258,
    "Ġimpertinent": 9077,
    "softened": 20408,
    "Ġsecure": 4911,
    "Ġbinding": 20417,
    "Ġanimal": 2498,
    "cures": 20804,
    "tained": 4405,
    "Ġrecollect": 8309,
    "Ġentry": 11026,
    "Ġinsurgents": 26600,
    "Ġabridged": 26540,
    "Ġfanny": 23389,
    "Ġlife": 1355,
    "Ġdrows": 21433,
    "amongst": 24672,
    "ana": 15557,
    "Ġdefendants": 15139,
    "Ġsog": 22075,
    "Ġcustomary": 8669,
    "clearly": 25195,
    "Ġtor": 8105,
    "pardon": 10064,
    "irth": 5634,
    "Ġuniverse": 14122,
    "Ġlistless": 16476,
    "Ġconfiding": 19038,
    "ountain": 2917,
    "Ġsanction": 20024,
    "ar": 285,
    "halloa": 17090,
    "Ġstretching": 10014,
    "Ġinterruptions": 24186,
    "justice": 7957,
    "Ġmeantime": 6206,
    "Ġbelshazzar": 16224,
    "Ġimmortal": 8017,
    "Ġgulf": 10635,
    "conduct": 11795,
    "!_": 7329,
    "aled": 3947,
    "ľ": 255,
    "blubber": 15235,
    "thunder": 10262,
    "Ġportentous": 15228,
    "Ġsuburban": 17345,
    "ondescript": 22911,
    "Ġperformer": 18756,
    "Ġivory": 4477,
    "Ġdevoting": 22714,
    "Ġmarking": 16469,
    "Ġvind": 10249,
    "Ġers": 15460,
    "sec": 6152,
    "Ġsaving": 15886,
    "variety": 23183,
    "Ġstud": 1607,
    "Ġillustration": 19135,
    "vengeance": 13355,
    "title": 17287,
    "house": 4077,
    "Ġstockings": 19995,
    "were": 2556,
    "Ġgipsies": 12406,
    "ittarius": 22377,
    "Ġniagara": 26458,
    "Ġdetect": 1181,
    "Ġportcull": 23861,
    "Ġuniformity": 23484,
    "Ġpruning": 18970,
    "Ġapplies": 11956,
    "rived": 5373,
    "Ġsoothing": 8172,
    "Ġundet": 16704,
    "future": 13716,
    "Ġthought": 1094,
    "tempted": 26403,
    "entle": 1736,
    "Ġdata": 520,
    "ierce": 14390,
    "off": 1888,
    "Ġserenely": 13506,
    "Ġuncles": 23429,
    "before": 3116,
    "Ġwear": 6030,
    "Ġglen": 18851,
    "Ġconfederate": 17353,
    "Ġgrandeur": 8627,
    "joined": 13274,
    "Ġhammers": 13240,
    "lemag": 21370,
    "Ġwhirlp": 16963,
    "such": 3085,
    "iarity": 8743,
    "Ġsimplest": 16333,
    "Ġeye": 2282,
    "Ġcomplimented": 14903,
    "manners": 16183,
    "unwilling": 14060,
    "Ġcried": 1488,
    "pure": 17626,
    "Ġtreats": 19342,
    "denial": 18716,
    "Ġdz": 4755,
    "bottom": 11426,
    "Ġvint": 18194,
    "Ġallev": 18100,
    "actor": 11835,
    "Ġlob": 7627,
    "Ġfearfully": 23511,
    "Ġwherever": 8523,
    "Ġcapting": 23019,
    "phere": 21018,
    "Ġdeser": 3890,
    "Ġpockets": 8895,
    "boiling": 19000,
    "Ġhardihood": 23109,
    "Ġconject": 6026,
    "compar": 14357,
    "Ġcredit": 4817,
    "key": 5462,
    "Ġprisoner": 8672,
    "remental": 21246,
    "Ġproportion": 7281,
    "Ġpossible": 2581,
    "Ġparticular": 2451,
    "Ġstaid": 21732,
    "unnatural": 15771,
    "Ġdecaying": 2248,
    "Ġscenes": 5731,
    "iciously": 17973,
    "Ġsubsc": 22787,
    "monkey": 19169,
    "feel": 3815,
    "Ġrequisition": 22650,
    "period": 15894,
    "tuesday": 17690,
    "inations": 7567,
    "Ġdoor": 1738,
    "Ġgiant": 13967,
    "Ġdisrespect": 18553,
    "readiness": 19361,
    "lers": 10106,
    "Ġruined": 12951,
    "Ġdamning": 19139,
    "Ġetc": 7084,
    "Ġuttered": 7280,
    "theories": 18078,
    "Ġshow": 3402,
    "urry": 13992,
    "?âĢĻ": 2639,
    "country": 6103,
    "Ġdepths": 4326,
    "Ġguise": 14431,
    "roylott": 20025,
    "tubes": 25211,
    "ordered": 8789,
    "Ġorganize": 8991,
    "Ġwheeling": 18288,
    "Ġdisciple": 22779,
    "Ġunre": 3478,
    "perv": 1474,
    "Ġforgery": 25977,
    "express": 4894,
    "Ġship": 1092,
    "steps": 9404,
    "entieth": 17978,
    "Ġhook": 6453,
    "Ġporpoise": 7106,
    "!_âĢĶ": 19971,
    "jerked": 25618,
    "iform": 2197,
    "Ġeffective": 1248,
    "Ġreconsidered": 21670,
    "Ġinsincere": 26599,
    "Ġspleen": 26421,
    "Ġplun": 6281,
    "walks": 19720,
    "Ġcasually": 25093,
    "Ġpartially": 13121,
    "Ġfirm": 3874,
    "imprisonment": 23761,
    "Ġemboldened": 22984,
    "Ġacquired": 13041,
    "Ġpres": 9731,
    "Ġfingertips": 24017,
    "Ġcathed": 14548,
    "arp": 2028,
    "ically": 854,
    "him": 1942,
    "exc": 5169,
    "hereafter": 19215,
    "icious": 7380,
    "jer": 12478,
    "qu": 369,
    "Ġvector": 1972,
    "lar": 4484,
    "Ġdarcy": 1343,
    "Ġbattered": 17862,
    "mpus": 13756,
    "dem": 10691,
    "Ġgeometric": 3218,
    "Ġdevelopment": 7057,
    "Ġhandspikes": 12935,
    "Ġnomin": 10190,
    "Ġhospitality": 13512,
    "Ġenjoined": 18191,
    "Ġdrives": 14578,
    "Ġacted": 7422,
    "grave": 16093,
    "security": 26206,
    "ickory": 22666,
    "Ġdimin": 3875,
    "º": 123,
    "sne": 10124,
    "Ġwow": 15528,
    "anc": 6379,
    "Ġaccepted": 7750,
    "mouse": 15391,
    "Ġforg": 3791,
    "Ġcontro": 1686,
    "ojo": 7349,
    "Ġattractive": 25575,
    "Ġflora": 11416,
    "hoped": 20909,
    "stepfather": 19189,
    "Ġpresum": 4836,
    "Ġportions": 19367,
    "hom": 12471,
    "on": 267,
    "Ġsudden": 2001,
    "james": 15371,
    "Ġcubs": 20085,
    "alot": 15624,
    "ensities": 22543,
    "Ġhunts": 23156,
    "Ġsable": 15500,
    "Ġvalue": 2085,
    "Ġclever": 7054,
    "Ġbackstays": 22660,
    "misrepresented": 24211,
    "Ġpract": 1851,
    "Ġthat": 335,
    "ksome": 10104,
    "Ġenergies": 25459,
    "rad": 2258,
    "Ġsternly": 16715,
    "Ġmutual": 8295,
    "exact": 7909,
    "Ġmainz": 22651,
    "Ġaspects": 4174,
    "Ġglad": 3327,
    "labour": 23912,
    "Ġwhittingham": 26197,
    "terbury": 21821,
    "Ġaffront": 18786,
    "Ġpled": 17907,
    "Ġwiser": 14730,
    "Ġpewter": 17185,
    "Ġexplo": 2286,
    "Ġexercise": 8358,
    "Ġcolder": 22851,
    "Ġphilipses": 24452,
    "Ġlingering": 11379,
    "Ġshunned": 17292,
    "Ġends": 8237,
    "Ġtram": 11092,
    "Ġmost": 1019,
    "Ġfifteen": 6947,
    "Ġcaptiv": 16256,
    "vanished": 15060,
    "aurs": 20768,
    "Ġcomplicated": 14735,
    "constellation": 24607,
    "Ġcarr": 23088,
    "these": 3241,
    "Ġswarm": 23052,
    "Ġphysiology": 25332,
    "og": 860,
    "Ġcinque": 20484,
    "worse": 14690,
    "Ġannoy": 17198,
    "Ġcongratulate": 9063,
    "Ġmeasureless": 14709,
    "Ġlighting": 13081,
    "Ġcister": 13881,
    "special": 14704,
    "Ġsnaky": 23739,
    "Ġdominic": 25381,
    "Ġhelen": 16655,
    "Ġluc": 3311,
    "dragged": 16608,
    "Ġinser": 6820,
    "Ġhen": 3502,
    "igated": 15705,
    "taking": 5689,
    "inian": 21181,
    "Ġeaglet": 19304,
    "rises": 17655,
    "Ġhud": 10822,
    "Ġthirdly": 24143,
    "niest": 19019,
    "Ġhammock": 5768,
    "Ġtelegra": 11890,
    "Ġliberal": 12188,
    "Ć": 199,
    "pens": 17632,
    "Ġclin": 14204,
    "none": 6962,
    "Ġsuffoc": 18870,
    "Ġhinge": 25541,
    "Ġomens": 21326,
    "fourth": 11328,
    "itar": 15545,
    "drab": 23895,
    "eastern": 17533,
    "icates": 11616,
    "Ġpacket": 14892,
    "Ġsunday": 7270,
    "Ġaddressing": 11164,
    "Ġwreak": 16817,
    "Ġwretch": 6378,
    "Ġhorribly": 16341,
    "Ġrequesting": 24632,
    "needle": 20309,
    "ulations": 6028,
    "Ġfluctuating": 24417,
    "Ġsuperficial": 23455,
    "Ġdivision": 19442,
    "Ġhorseback": 14849,
    "haps": 1668,
    "Ġhand": 858,
    "Ġgardener": 19134,
    "Ġwhaleman": 4654,
    "gover": 10702,
    "Ġcaress": 16338,
    "Ġbeams": 14631,
    "car": 4212,
    "endent": 15921,
    "strom": 15682,
    "Ġputs": 19035,
    "ities": 1828,
    "Ġoysters": 20577,
    "Ġcontrivance": 17183,
    "Ġout": 542,
    "peleg": 16293,
    "Ġseriously": 7061,
    "Ġawaited": 17074,
    "Ġruskin": 25808,
    "Ġenrolled": 21934,
    "Ġalt": 18098,
    "Ġtyp": 1129,
    "both": 5785,
    "orney": 17873,
    "Ġmemorable": 16427,
    "sole": 6168,
    "Ġpulse": 13113,
    "Ġembarrassment": 10626,
    "Ġlocks": 11722,
    "declare": 25173,
    "broke": 14776,
    "time": 3149,
    "uttermost": 24940,
    "Ġlove": 2054,
    "Ġhypothesis": 14781,
    "Ġsquat": 14366,
    "women": 15456,
    "Ġaccomplishment": 19664,
    "Ġ2026": 12333,
    "bern": 20774,
    "ources": 2789,
    "ittle": 811,
    "Ġtusked": 25426,
    "Ġshine": 12763,
    "Ġwinds": 5746,
    "Ġguid": 2637,
    "Ġbreed": 19071,
    "orous": 5292,
    "Ġboth": 1651,
    "overspreading": 26139,
    "natured": 7110,
    "nowhere": 18418,
    "plish": 18208,
    "Ġsubsets": 2345,
    "sebastian": 21816,
    "previously": 17207,
    "Ġcritics": 23443,
    "Ġupdates": 1299,
    "inces": 13827,
    "matter": 5136,
    "Ġevidently": 6759,
    "Ġnooks": 26011,
    "perseus": 26005,
    "Ġextinguished": 10341,
    "Ġinclosed": 19537,
    "adel": 15727,
    "reduced": 15804,
    "Ġfiddle": 25444,
    "interrupted": 11417,
    "Ġobtruded": 20721,
    "flood": 19805,
    "achus": 18283,
    "Ġembal": 11906,
    "izure": 21831,
    "Ġdoran": 9179,
    "Ġcirclings": 26431,
    "Ġparalle": 1409,
    "7": 27,
    "inated": 6804,
    "Ġsingularly": 12146,
    "Ļ": 252,
    "Ġdesperation": 19817,
    "Ġwilled": 21290,
    "Ġjup": 15946,
    "Ġgrove": 12144,
    "Ġsolar": 22883,
    "loving": 18537,
    "trans": 5594,
    "Ġsticking": 13426,
    "Ġbe": 336,
    "Ġsupre": 10268,
    "Ġcart": 11582,
    "Ġchemist": 11134,
    "Ġbedside": 19121,
    "und": 4118,
    "noon": 5036,
    "Ġgin": 13960,
    "Ġharpooneers": 4731,
    "Ġbundles": 26175,
    "Ġsatisfy": 6912,
    "consid": 4923,
    "Ġstrip": 9420,
    "Ġstolen": 14006,
    "Ġking": 2304,
    "Ġglowed": 24864,
    "else": 6533,
    "fallen": 19658,
    "Ġunabated": 15851,
    "Ġadds": 1806,
    "oft": 3591,
    "Ġdownstairs": 11224,
    "Ġtro": 7356,
    "Ġspot": 4155,
    "ĺ": 251,
    "row": 1069,
    "estruct": 22219,
    "apprehens": 17405,
    "Ġhapp": 1091,
    "deceiving": 22141,
    "Ġexamples": 2601,
    "###": 3831,
    "Ġdipping": 15590,
    "Ġsamuel": 10032,
    "İ": 241,
    "Ġrepining": 23358,
    "Ġsom": 1275,
    "burned": 25079,
    "Ġvoices": 7875,
    "Ġthoughtless": 16192,
    "Ġhanover": 20584,
    "Ġstoper": 14462,
    "Ġcoat": 4554,
    "Ġemblazonings": 26043,
    "Ġvote": 21942,
    "yt": 17711,
    "Ġconverts": 2805,
    "Ġhysterics": 26093,
    "Ġchr": 3691,
    "Ġgoest": 22418,
    "Ġmeetings": 16532,
    "otics": 10223,
    "Ġthinnest": 24183,
    "crop": 20797,
    "Ġforefinger": 16444,
    "Ġsauntering": 18327,
    "trampled": 26333,
    "Ġloveliness": 13607,
    "Ġshut": 3945,
    "human": 7088,
    "Ġfrance": 7681,
    "everything": 6324,
    "osity": 14185,
    "«": 109,
    "leness": 4690,
    "Ġprodigious": 8056,
    "Ġonto": 14031,
    "Ġderives": 16307,
    "Ġbarn": 11586,
    "inity": 5693,
    "Ġserve": 9367,
    "ascending": 24707,
    "antly": 1990,
    "Ġlaugh": 4113,
    "Ġdocument": 15018,
    "scream": 11076,
    "Ġpowder": 11275,
    "Ġninetieth": 25357,
    "widows": 25344,
    "Ġconsistence": 23354,
    "contracting": 19293,
    "Ġprincely": 24148,
    "Ġshamefully": 24716,
    "Ġ]": 15459,
    "Ġcarriages": 11099,
    "Ġcustoms": 19651,
    "Ġst": 332,
    "ropout": 1319,
    "Ġincommod": 25307,
    "fixedly": 24929,
    "Ô": 149,
    "Ġtumultuous": 10615,
    "anything": 5518,
    "dipped": 20836,
    "iforn": 14063,
    "Ġintersect": 22572,
    "Ġsells": 21222,
    "ertain": 1207,
    "Ġextort": 22737,
    "sust": 15422,
    "Ġunstructured": 3003,
    "Ġintelligent": 1633,
    "ublic": 11227,
    "Ġeasterly": 25962,
    "sus": 6228,
    "love": 9293,
    "anyth": 5438,
    "Ġvineyarder": 25606,
    "othed": 16510,
    "Ġcongregation": 12327,
    "Ġsund": 8248,
    "Ġwonderland": 23423,
    "burst": 10537,
    "Ġspouting": 9439,
    "Ġviolent": 5117,
    "comput": 1977,
    "Ġoutlast": 22310,
    "Ġhereford": 22876,
    "whilst": 18372,
    "tering": 3810,
    "Ġstript": 23692,
    "Ġmoby": 3668,
    "Ġcomprehensiveness": 25072,
    "blast": 9587,
    "stiff": 12672,
    "ignific": 11952,
    "ster": 1954,
    "Ġsuffer": 4721,
    "ser": 1426,
    "Ġretire": 10381,
    "Ġenumerating": 15243,
    "Ġinclement": 22550,
    "Ġmead": 8835,
    "Ġvaguely": 17365,
    "splash": 25209,
    "\"]": 17470,
    "northern": 23666,
    "icket": 22665,
    "Ġunlimited": 26222,
    "Ġdevoutly": 25832,
    "writes": 4987,
    "commence": 19990,
    "Ġassuming": 16693,
    "Ġimposed": 14214,
    "Ġdisconsol": 18557,
    "tem": 6369,
    "standard": 22428,
    "Ġinnocently": 24028,
    "mock": 5174,
    "Ġdiscrimin": 2544,
    "irty": 4050,
    "Ġsixth": 16559,
    "Ġsubs": 2128,
    "im": 327,
    "delay": 16698,
    "interests": 19707,
    "Ġundo": 15839,
    "Ġstripping": 23694,
    "wishes": 13806,
    "Ġberths": 20113,
    "Ġadver": 5641,
    "suspicious": 25390,
    "by": 1157,
    "okingly": 22378,
    "Ġtreated": 7080,
    "Ġink": 8802,
    "51": 12429,
    "isbury": 21375,
    "ld": 385,
    "Ġhorizontally": 17012,
    "Ġearthy": 23710,
    "Ġmagg": 18905,
    "Ġlabeled": 3721,
    "Ġmaled": 21313,
    "bearer": 18520,
    "ivility": 12786,
    "Ġmusty": 22677,
    "Ġprice": 10403,
    "Ġpetty": 19594,
    "Ġsolemnity": 9940,
    "royal": 11393,
    "onness": 21253,
    "Ġlucerne": 23862,
    "Ġbeat": 4492,
    "cloud": 11105,
    "loat": 8886,
    "Ġlengthen": 15652,
    "Ġuninjured": 22051,
    "Ġqueer": 4479,
    "Ġverdant": 15002,
    "Ġunicorn": 22052,
    "Ġingenious": 12346,
    "Ġdishes": 16049,
    "Ġhelp": 1636,
    "Ġpursuit": 4732,
    "Ġcriminal": 7537,
    "ler": 3491,
    "Ġbody": 2438,
    "Ġfresh": 3673,
    "alley": 23021,
    "Ġbarred": 9002,
    "Ġdevil": 3614,
    "Ġfaultless": 24540,
    "Ġgrammar": 1064,
    "cavity": 26126,
    "Ġmahogany": 20576,
    "ind": 568,
    "Ġincorporated": 25711,
    "Ġmarlings": 23033,
    "Ġcheat": 19023,
    "order": 1961,
    "Ġfries": 21413,
    "Ġslips": 23164,
    "Ġmasters": 11574,
    "Ġindicate": 23720,
    "willing": 6592,
    "Ġseconds": 16397,
    "vib": 21114,
    "stalk": 21647,
    "Ġattribute": 16096,
    "comfortably": 16875,
    "Ġapplication": 2129,
    "Ġoff": 902,
    "Ġfirmament": 19469,
    "Ġyelled": 9693,
    "othing": 6995,
    "cules": 12389,
    "Ġvex": 5948,
    "objection": 19914,
    "Ġimperson": 14218,
    "ieties": 19027,
    "lean": 21363,
    "Ġsque": 18757,
    "Ġdownward": 10331,
    "Ġjollies": 20367,
    "cour": 4480,
    "desperate": 17351,
    "thought": 3852,
    "Ġplacing": 8900,
    "Ġessential": 7523,
    "correspond": 13397,
    "rolling": 9060,
    "Ġwidows": 24236,
    "draul": 9443,
    "esteem": 26008,
    "Ġseeming": 8540,
    "Ġremedy": 18724,
    "Ġox": 7153,
    "Ġtufted": 17014,
    "Ġdangerous": 6613,
    "Ġbell": 4635,
    "resembling": 25932,
    "Ġdecorum": 16020,
    "Ġscope": 15949,
    "**": 4685,
    "Ġwrapt": 24595,
    "H": 44,
    "Ĳ": 243,
    "Ġcontrivances": 12355,
    "rals": 21041,
    "Ġeager": 3571,
    "Ġcav": 13879,
    "Ġserpentine": 11360,
    "Ġtrans": 631,
    "mare": 17599,
    "Ġmile": 7151,
    "Ġpane": 21461,
    "Ġdon": 1611,
    "Ġreliance": 14384,
    "Ġbarnacled": 25536,
    "smitten": 23906,
    "Ġharpoone": 2910,
    "Ġabstra": 22268,
    "Ġeliza": 6437,
    "Ġdup": 21425,
    "Ġfurlong": 18740,
    "Ġforts": 21769,
    "Ġ51": 24320,
    "Ġcondemned": 7778,
    "Ġ9": 5900,
    "Ġkith": 22189,
    "Ġeverlasting": 9336,
    "Ġeffectually": 16166,
    "think": 3609,
    "Ġpsal": 15614,
    "go": 2063,
    "Ġdoubloons": 13433,
    "Ġglimmer": 15140,
    "ortunities": 15939,
    "Ġlobsters": 13516,
    "Ġgeological": 14533,
    "inates": 21179,
    "Ġaccordingly": 6619,
    "Ġbecomes": 6396,
    "surprise": 9529,
    "Ġtailed": 21167,
    "tu": 12509,
    "Ġhoars": 19075,
    "ids": 21760,
    "Ġdiffused": 12066,
    "chari": 21686,
    "Ġattend": 5034,
    "Ġspain": 15880,
    "flo": 6114,
    "tim": 13790,
    "true": 2582,
    "little": 3352,
    "Ġsalary": 13292,
    "fleece": 19946,
    "Ġrepulses": 26069,
    "Ġmodesty": 12814,
    "Ġarms": 3969,
    "Ġdit": 21418,
    "Ġdrugged": 12599,
    "Ġtranquil": 7310,
    "Ġunexpectedly": 19908,
    "Ġugl": 12679,
    "Ġbeaten": 10528,
    "Ġstocks": 23174,
    "justine": 7682,
    "Ġpron": 6451,
    "ck": 436,
    "Ġgouldings": 26187,
    "vour": 17699,
    "enough": 6809,
    "0": 20,
    "Ġovertaken": 18425,
    "Ġmanual": 14197,
    "dispositions": 25011,
    "umpled": 15875,
    "Ġjem": 18397,
    "pacific": 17641,
    "Ġtun": 5998,
    "iftings": 23223,
    "Ġtakes": 5006,
    "saying": 8640,
    "recover": 24622,
    "icy": 6140,
    "agos": 21901,
    "irresist": 21909,
    "Ġthirst": 7589,
    "Ġuncivil": 11155,
    "oing": 15401,
    "ggling": 19096,
    "moment": 3579,
    "Ġeach": 891,
    "tallow": 21084,
    "billows": 20235,
    "Ġyoke": 18095,
    "Ġcarved": 7946,
    "Ġpreceding": 7528,
    "Ġoat": 21321,
    "Ġrephrased": 26477,
    "ĠvertebrÃ¦": 11435,
    "Ġright": 1507,
    "Ġaccumulation": 2692,
    "cast": 2926,
    "eminent": 25104,
    "Ġpreside": 18365,
    "itten": 3442,
    "stumps": 21656,
    "ean": 20839,
    "Ġhard": 1442,
    "ittance": 12843,
    "mixed": 15393,
    "could": 2872,
    "disp": 7975,
    "Ġwindows": 4970,
    "isure": 6240,
    "Ġtranslation": 3089,
    "Ġdeposit": 17268,
    "frankly": 20020,
    "formed": 2552,
    "Ġobserve": 4670,
    "bestowed": 12223,
    "forbid": 14352,
    "mody": 16185,
    "Ġbrittle": 22864,
    "Ġunfelt": 24111,
    "Ġpolynesian": 26026,
    "Ġgay": 5535,
    "Ġdearest": 5457,
    "urg": 8141,
    "Ġresumed": 11810,
    "Ġidol": 7467,
    "Ġenables": 726,
    "Ġdiscreet": 16482,
    "Ġbills": 17860,
    "Ġhoney": 12629,
    "Ġresidual": 1678,
    "Ġbrightness": 16576,
    "Ġmout": 17798,
    "Ġleviathanic": 12078,
    "Ġstaring": 8824,
    "Ġprovided": 6577,
    "Ġinestimable": 17441,
    "gust": 6360,
    "Ġblankness": 24610,
    "Ġmem": 2069,
    "Ġdoctors": 12149,
    "Ġsolic": 7932,
    "Ġthrowing": 6335,
    "type": 16175,
    "âĢĿ;": 11669,
    "Ġviolet": 19088,
    "successively": 24779,
    "cripp": 20818,
    "Ġmotions": 8280,
    "Ġano": 11595,
    "ithmetic": 18061,
    "Ġlunch": 13525,
    "Ġtrusty": 24105,
    "Ġhelmsman": 10504,
    "elled": 3995,
    "Ġrecommence": 16812,
    "Ġclouded": 13289,
    "answering": 26003,
    "Ġincreased": 2209,
    "application": 12361,
    "âĢĿâĢĶ": 5721,
    "Ġunparalleled": 15852,
    "orrah": 17875,
    "Ġbreakers": 12053,
    "constantly": 24606,
    "î": 175,
    "Ġvanishing": 1346,
    "Ġstrands": 25574,
    "charitable": 23930,
    "Ġearls": 18903,
    "ifers": 15780,
    "mix": 20973,
    "quered": 11061,
    "Ġeuroc": 14958,
    "Ġsockets": 22079,
    "Ġreel": 9213,
    "Ġdined": 9176,
    "jammed": 25906,
    "Ġpennies": 17270,
    "Ġdoubloon": 6945,
    "evinced": 19925,
    "Ġcommissionaire": 17000,
    "Ġpit": 3420,
    "Ġsummarization": 3650,
    "Ġpostpone": 17306,
    "Ġbarbarians": 19586,
    "oura": 1062,
    "Ġgest": 8133,
    "ail": 566,
    "fresh": 13391,
    "Ġshaft": 18229,
    "wind": 4253,
    "Ġcoarsely": 25828,
    "Ġfake": 5810,
    "certain": 3679,
    "Ġrenowned": 26193,
    "Ġhilarity": 20296,
    "Ġapoplexy": 25265,
    "Ġhammered": 13239,
    "Ġaust": 4870,
    "Ġbegan": 2023,
    "Ġpikes": 21476,
    "furniture": 20241,
    "Ġsouthern": 7688,
    "Ġtrial": 6634,
    "Ġhawsers": 26502,
    "Ġforc": 9227,
    "Ġent": 903,
    "Ġfinger": 5273,
    "Ġintegr": 7968,
    "Ġvenge": 5420,
    "Ġxxiv": 24477,
    "affrail": 11205,
    "Ġbridge": 8348,
    "dream": 8727,
    "Ġrot": 10967,
    "Ġintru": 15826,
    "vii": 13147,
    "Ġdictating": 20151,
    "Ġto": 297,
    "Ġledge": 19399,
    "Ġarea": 14186,
    "Ġconfession": 11235,
    "Ġbecome": 3160,
    "alone": 10183,
    "chair": 5916,
    "nay": 7135,
    "Ġmuse": 13859,
    "trop": 15436,
    "drop": 15336,
    "=": 33,
    "Ġinsist": 9889,
    "affa": 23775,
    "distinct": 13334,
    "west": 10739,
    "Ġbehaved": 13253,
    "Ġhilariously": 25450,
    "Ġtom": 15631,
    "notwithstanding": 22750,
    "Ġnorris": 23198,
    "wet": 15452,
    "Ġpresence": 5030,
    "Ġorchard": 22091,
    "Ġcapsized": 20088,
    "coffin": 10662,
    "Ġcircular": 13109,
    "Ġreynolds": 10209,
    "effect": 8602,
    "distraction": 24200,
    "Ġconfess": 3771,
    "Ġscratching": 20368,
    "Ġpurpose": 2709,
    "Ġtwin": 12925,
    "Ġcovers": 18596,
    "Ġhooped": 23353,
    "appointment": 24059,
    "Ġexchange": 15754,
    "tranquil": 25870,
    "Ġpassages": 12967,
    "Ġsupply": 6066,
    "Ġtreating": 4284,
    "ogue": 9783,
    "Ġstanzas": 21741,
    "Ġloadstone": 25816,
    "Ġnoted": 15829,
    "itated": 4439,
    "Ġgrind": 18734,
    "safie": 20347,
    "Ġpitches": 23899,
    "Ġchoosing": 19589,
    "liberal": 26281,
    "Ġcards": 7580,
    "Ġbluish": 23648,
    "ĠĠĠ": 2114,
    "Ġprovision": 14824,
    "_.âĢĿ": 5885,
    "bran": 23572,
    "Ġadmission": 23553,
    "Ġcele": 9899,
    "Ġjerking": 12243,
    "Ġarchbishop": 18721,
    "Ġhumorous": 10361,
    "Ġcharitable": 23265,
    "abound": 15738,
    "world": 5057,
    "Ġfad": 17876,
    "Ġinde": 7371,
    "Ġtim": 4578,
    "Ġnibbling": 17384,
    "Ġespecial": 26410,
    "alle": 1294,
    "comra": 16171,
    "Ġrejoice": 10208,
    "ston": 15681,
    "Ġimputed": 12805,
    "programming": 10062,
    "Ġeu": 6390,
    "otograph": 5826,
    "é": 170,
    "Ġnational": 13941,
    "Ġspiteful": 19521,
    "Ġprofits": 16489,
    "Ġextravagant": 17278,
    "apside": 22957,
    "Ġthoughts": 3140,
    "Ġwelded": 9571,
    "Ġpages": 15606,
    "Ġattraction": 18618,
    "useness": 22279,
    "Ġtalker": 23369,
    "tt": 13789,
    "Ġformula": 2865,
    "commanders": 16989,
    "Ġunfitted": 24109,
    "fain": 13714,
    "Ġintimidated": 24805,
    "warm": 8101,
    "Ġinviting": 19143,
    "Ġquill": 12854,
    "silly": 24422,
    "pits": 15412,
    "Ġperuvian": 18453,
    "mult": 8747,
    "Ġpropont": 16349,
    "Ġenveloped": 12206,
    "brous": 19197,
    "app": 1042,
    "Ġtendency": 11329,
    "Ġexulting": 20257,
    "Ġrepeating": 11213,
    "felix": 10653,
    "Ġclenched": 14207,
    "Ġbuoyant": 13531,
    "bingley": 4926,
    "Ġbrink": 18771,
    "wear": 22680,
    "Ġthreat": 5154,
    "nd": 11503,
    "Ġsavannah": 17415,
    "Ġhasten": 10478,
    "Ġpry": 11599,
    "Ġcre": 888,
    "Ġsuperlatively": 26075,
    "persuasion": 20042,
    "Ġliquid": 22406,
    "Ġshoulders": 5566,
    "Ġplainer": 23702,
    "Ġnimble": 21525,
    "Ġlagged": 21555,
    "uguese": 20731,
    "Ġbackground": 18649,
    "careful": 14865,
    "jolly": 20930,
    "Ġneighbouring": 12116,
    "caroline": 24149,
    "Ġconfessor": 24019,
    "Ġparacels": 13666,
    "Ġharmless": 9964,
    "Ġmaw": 15538,
    "uneven": 23683,
    "olerable": 7182,
    "impressed": 12688,
    "oss": 10115,
    "magnificent": 20273,
    "Ġitalian": 12408,
    "guard": 12126,
    "Ġtoken": 2039,
    "tland": 21072,
    "Ġtry": 3136,
    "Ġdead": 2168,
    "Ġoutlined": 22317,
    "possession": 12219,
    "Ġintricacies": 15137,
    "izens": 18135,
    "Ġpre": 507,
    "sculptured": 26046,
    "finger": 10093,
    "Ġsentiments": 7960,
    "Ġwhales": 1829,
    "regard": 7972,
    "Ġgrating": 14354,
    "Ġsaturday": 6452,
    "Ġapplications": 4783,
    "Ġaccused": 8507,
    "Ġunex": 11711,
    "Ġwindigate": 18910,
    "Ġseemed": 1278,
    "Ġfruit": 12324,
    "goes": 10426,
    "Ġindiscreet": 22953,
    "Ġvariously": 18653,
    "henomen": 10494,
    "ooping": 21006,
    "handedness": 24920,
    "pudding": 17647,
    "Ġallured": 14124,
    "prolong": 23393,
    "classification": 4387,
    "batross": 9092,
    "Ġconstruct": 23340,
    "Ġabstained": 25231,
    "Ġapt": 9155,
    "Ġflanks": 11912,
    "ally": 530,
    "floated": 24643,
    "Ġhierarchical": 1930,
    "Ġide": 2121,
    "nobody": 16145,
    "Ġcarpets": 18902,
    "Ġxx": 5492,
    "mselves": 2862,
    "Ġbegin": 3100,
    "Ġadvancing": 6878,
    "Ġascent": 19617,
    "Ġsmote": 18574,
    "Ġsounds": 5190,
    "Ġpresently": 5116,
    "bres": 11471,
    "Ġmining": 22826,
    "Ġrepeat": 7999,
    "Ġante": 17896,
    "happiest": 19331,
    "Ġmaintain": 856,
    "Ġswayed": 15047,
    "Ġhoof": 23351,
    "Ġevermore": 18808,
    "Ġvexations": 24609,
    "Ġimpreg": 15986,
    "hearted": 6970,
    "Ġcorps": 13030,
    "lid": 20944,
    "oak": 21002,
    "iced": 3904,
    "itable": 5437,
    "abled": 12791,
    "scotland": 20527,
    "term": 3763,
    "Ġpillow": 10037,
    "ired": 1444,
    "hur": 6648,
    "Ġconvert": 11843,
    "Ġlest": 6395,
    "Ġflies": 13022,
    "around": 12605,
    "arrangement": 17414,
    "Ġinstruct": 2864,
    "sol": 1791,
    "aceti": 7111,
    "port": 10719,
    "Ġcircumference": 13544,
    "Ġdelicately": 24126,
    "Ġinno": 1463,
    "coal": 12023,
    "Ġsuch": 792,
    "Ġgeneva": 5450,
    "Ġdefile": 18824,
    "companies": 24894,
    "Ġtimidity": 24687,
    "pest": 6964,
    "pped": 2000,
    "Ġknight": 9726,
    "Ġbaron": 19333,
    "gates": 20871,
    "Ġpilgrim": 25599,
    "Ġtests": 8957,
    "concerns": 24067,
    "Ġax": 7822,
    "bery": 9786,
    "vitiated": 25754,
    "Ġbi": 920,
    "mit": 4932,
    "Ġendeavors": 16545,
    "Ġboundless": 10495,
    "Ġflushed": 13024,
    "Ġstride": 22613,
    "bag": 7542,
    "suitableness": 26260,
    "Ġvillanous": 24054,
    "Ġbenefits": 4287,
    "Ġpur": 2214,
    "Ġtunes": 24619,
    "iliar": 15712,
    "mingled": 14712,
    "Ġsepulchre": 20558,
    "Ġevinced": 7100,
    "Ġburned": 8630,
    "vo": 11539,
    "Ġindiam": 22950,
    "Ġsuggestions": 24453,
    "Ġshoots": 14569,
    "Ġinherit": 25352,
    "farewell": 12304,
    "Ġdut": 2988,
    "island": 10794,
    "Ġmonstrous": 7789,
    "Ġavoided": 13258,
    "Ġinequalities": 26453,
    "Ġbarbaric": 10013,
    "este": 15916,
    "ucumber": 19058,
    "properly": 24918,
    "Ġphilosophy": 7103,
    "lamps": 25260,
    "ction": 503,
    "blue": 13692,
    "lucas": 15150,
    "ishop": 9741,
    "ercial": 21273,
    "moil": 22702,
    "offended": 16395,
    "Ġexceptional": 19369,
    "Ġgl": 1254,
    "cerem": 15676,
    "preservation": 25305,
    "Ġcho": 4547,
    "photograph": 16150,
    "returning": 12203,
    "Ġwrecks": 16818,
    "Ġthenceforth": 25182,
    "Ġancest": 12611,
    "ô": 181,
    "Ġinexpressible": 17332,
    "prit": 19340,
    "Ġeagerness": 6608,
    "Ġdress": 4022,
    "Ġmorality": 22973,
    "Ġchivalry": 25819,
    "mean": 6438,
    "presented": 12989,
    "gr": 2086,
    "Ġsharkish": 24506,
    "Ġwander": 9031,
    "ipl": 20917,
    "ach": 434,
    "Ġscare": 18405,
    "Ġmartyr": 26360,
    "Ġcourtiers": 24137,
    "atively": 2696,
    "tormented": 13644,
    "nights": 16449,
    "terogene": 21822,
    "Ġdeg": 3281,
    "prow": 15411,
    "fierce": 25255,
    "Ġlater": 6016,
    "Ġcrumb": 16440,
    "Ġdepends": 1123,
    "Ġembark": 8560,
    "Ġheaving": 7600,
    "Ġfris": 23252,
    "nor": 2743,
    "Ġproportional": 2524,
    "proble": 9393,
    "travelling": 24317,
    "ompl": 4536,
    "ari": 672,
    "Ġinflexibly": 26370,
    "Ġrural": 21964,
    "Ġweapon": 7775,
    "well": 1691,
    "topic": 10527,
    "ascended": 24706,
    "remains": 10398,
    "heav": 5694,
    "Ġmariner": 7247,
    "adow": 18087,
    "Ġcoldness": 23758,
    "rap": 21625,
    "emper": 18185,
    "Ġquarto": 17295,
    "acqu": 4841,
    "Ġshelf": 12265,
    "Ġ221": 25068,
    "sham": 9760,
    "Ġ118": 19697,
    "Ġpestilent": 25777,
    "Ġimm": 3968,
    "omically": 13975,
    "Ġspray": 7893,
    "Ġmyself": 1453,
    "ssible": 2992,
    "Ġdistance": 3484,
    "Ġscor": 8190,
    "Ġpeculiarity": 12930,
    "Ġbay": 9168,
    "Ġblew": 9045,
    "Ġapplied": 6186,
    "Ġfalling": 6915,
    "Ġbled": 17856,
    "Ġdominant": 12394,
    "Ġhomage": 12353,
    "Ġsincerity": 13677,
    "Ġworrying": 22924,
    "uts": 8815,
    "cary": 10689,
    "persu": 8027,
    "Ġloved": 4599,
    "Ġxxxii": 24970,
    "Ġsnoo": 21227,
    "gling": 10097,
    "Ġtransitory": 16017,
    "Ġott": 13865,
    "knew": 9126,
    "regularly": 13207,
    "Ġyears": 1894,
    "Ġindign": 6173,
    "Ġunanswerable": 26521,
    "rect": 1597,
    "Ġbelong": 3889,
    "Ġtogether": 1881,
    "Ġpaints": 23523,
    "Ġmexic": 14030,
    "voy": 7143,
    "Ġiv": 4045,
    "swallowed": 14852,
    "long": 2911,
    "Ġcontinued": 2921,
    "Ġwent": 1535,
    "neighboring": 20615,
    "Ġtakings": 20571,
    "Ġoily": 13863,
    "Ġfundamentals": 14635,
    "Ġdisplays": 19856,
    "away": 4625,
    "Ġcalamity": 17348,
    "Ġjapan": 7639,
    "aples": 20767,
    "Ġantiquities": 25598,
    "health": 13832,
    "Ġgrope": 17994,
    "Ġallegro": 25794,
    "Ġcemeteries": 26375,
    "Ġvirginia": 13499,
    "erness": 6434,
    "Ġproble": 1108,
    "Ġav": 3582,
    "Ġmo": 629,
    "Ġsickening": 19603,
    "knives": 14912,
    "Ġmanipulated": 25178,
    "Ġbalances": 2338,
    "putting": 14099,
    "indul": 22367,
    "Ġstaggers": 24653,
    "Ġrevived": 11368,
    "Ġstrang": 4161,
    "supp": 4162,
    "Ġspurn": 18309,
    "Ġpredestinated": 18528,
    "Ġlarger": 1402,
    "Ġlawn": 7379,
    "gird": 20878,
    "Ġdeft": 21834,
    "shoes": 14241,
    "Ġrans": 21963,
    "Ġinconvenience": 9563,
    "Ġunhinged": 26216,
    "Ġprogeny": 17387,
    "Ġgros": 14822,
    "Ġavoid": 5199,
    "Ġtriumph": 5143,
    "igger": 21698,
    "Ġpowers": 5419,
    "icated": 7590,
    "Ġcontracting": 16010,
    "rous": 3757,
    "determined": 9079,
    "Ġdare": 3545,
    "Ġprepared": 5876,
    "Ġ57": 24325,
    "every": 2811,
    "ĠdÃ¦mon": 7844,
    "Ġfortifications": 23618,
    "material": 13128,
    "Ġdisconcerted": 18562,
    "Ġeyeing": 6460,
    "apologizing": 26544,
    "ancy": 4393,
    "Ġbelt": 13000,
    "Ġappalled": 22214,
    "Ġunsounded": 15848,
    "Ġwinc": 9642,
    "Ġreconcile": 25291,
    "Ġviewed": 10463,
    "Ġbough": 13893,
    "fatal": 17088,
    "Ġacting": 10991,
    "majesty": 26280,
    "andish": 18153,
    "ounding": 22390,
    "precip": 14664,
    "vings": 9750,
    "transition": 24513,
    "Ġlurking": 11289,
    "Ġclue": 7020,
    "Ġrobbed": 23017,
    "jud": 4482,
    "despicable": 24636,
    "ĠĠĠĠĠĠĠĠĠĠĠĠĠĠĠĠĠĠĠĠĠĠĠĠĠĠĠĠĠĠĠĠĠĠĠĠĠĠĠĠĠĠĠĠĠĠĠĠĠĠĠĠĠĠĠĠĠĠĠĠ": 19260,
    "Ġvillains": 14749,
    "ruction": 4358,
    "och": 21000,
    "Ġowe": 8114,
    "Ġunfinished": 19508,
    "repent": 15513,
    "Ġmass": 3784,
    "guilty": 19481,
    "Ġcarried": 3696,
    "Ġsolution": 9804,
    "Ġwing": 6665,
    "Ġbusks": 23337,
    "propagation": 1263,
    "dwelling": 20563,
    "Ġtheorem": 2324,
    "Ġsacrilege": 26228,
    "pump": 21016,
    "Ġfragment": 14492,
    "honor": 19899,
    "Ġbeasts": 10617,
    "Ġcontemptuously": 19832,
    "ĵ": 246,
    "Ġpagoda": 19787,
    "Ġcheerfulness": 10516,
    "Ġfowl": 11330,
    "no": 904,
    "Ġimpul": 7208,
    "induce": 22371,
    "Ġroanoke": 22404,
    "Ġhyena": 24519,
    "Ġ88": 19710,
    "Ġrival": 10485,
    "Ġapply": 1777,
    "Ġtatters": 21176,
    "Ġprofoundest": 16860,
    "Ġencountered": 8321,
    "Ġtraversed": 18893,
    "Ġender": 11688,
    "Ġindefatigable": 17177,
    "ara": 12603,
    "Ġthief": 11609,
    "Ġconcl": 5094,
    "Ġinc": 702,
    "Ġbier": 22758,
    "Ġwarrior": 24496,
    "Ġheave": 7599,
    "vand": 21107,
    "Ġperpendicular": 7209,
    "claimed": 9835,
    "sixty": 24852,
    "Ġconsult": 6056,
    "Ġimpass": 15984,
    "rent": 1171,
    "Ġgam": 11623,
    "sugg": 11836,
    "Ġjumbled": 22284,
    "Ġshall": 1141,
    "nant": 17609,
    "day": 1861,
    "pool": 16208,
    "Ġspind": 18307,
    "Ġformality": 22825,
    "Ġtightly": 13533,
    "Ġfancied": 7326,
    "Ġmounted": 7832,
    "Ġfir": 17877,
    "Ġgermany": 25785,
    "inished": 17734,
    "Ġgenerative": 5644,
    "ensions": 14258,
    "Ġawa": 7713,
    "Ġsporting": 16999,
    "Ġponder": 6819,
    "footsteps": 25199,
    "Ġitem": 12698,
    "iocr": 20922,
    "Ġconceit": 7295,
    "Ġdams": 16457,
    "Ġbaleen": 10036,
    "Ġwigwam": 11428,
    "Ġgunwale": 7325,
    "pedest": 24695,
    "imely": 13997,
    "Ġprevent": 757,
    "itu": 1226,
    "knowledge": 7478,
    "Ġpea": 14316,
    "Ġherds": 9715,
    "drunk": 24659,
    "Ġfrench": 4938,
    "Ġdaft": 19662,
    "taste": 10129,
    "Ġyawned": 15051,
    "Ġavalanche": 17432,
    "cuniary": 26379,
    "Ġtrifles": 16951,
    "Ġparticip": 16130,
    "Ġdesk": 11904,
    "Ġavowal": 19413,
    "Ġpolynes": 16078,
    "Ġwarning": 9058,
    "Ġkra": 18348,
    "Ġlanes": 19764,
    "skull": 24488,
    "Ġtrim": 15961,
    "Ġscaling": 3635,
    "Ġimmutable": 17357,
    "burgh": 6773,
    "Ġsubdivisions": 26037,
    "consciously": 19624,
    "Ġankles": 17899,
    "Ġdepl": 14045,
    "access": 11180,
    "Ġsharply": 9402,
    "sick": 13783,
    "batch": 1984,
    "omen": 4086,
    "nical": 20990,
    "Ġtong": 4869,
    "Ġdey": 11674,
    "Ġheroic": 14907,
    "cloudless": 20331,
    "inement": 11557,
    "Ġhanging": 5447,
    "extreme": 11029,
    "Ġlawyers": 25248,
    "Ġpreference": 9732,
    "Ġsoar": 18281,
    "Ġunderwent": 23237,
    "omist": 21635,
    "condite": 23244,
    "ain": 343,
    "Ġgodson": 23356,
    "greatly": 16623,
    "Ġcoffins": 13250,
    "Ġmagnanimous": 17410,
    "kindled": 16660,
    "Ġpipeline": 2249,
    "Ġinsensible": 12323,
    "Ġsubstantial": 14809,
    "Ġprefer": 6416,
    "lost": 8887,
    "deadly": 17100,
    "msman": 9269,
    "blades": 24131,
    "Ġsimilar": 4916,
    "Ĺ": 250,
    "Ġgover": 2463,
    "Ġardour": 8042,
    "Ġboards": 14298,
    "wedged": 24338,
    "persuaded": 15072,
    "Ġhe": 318,
    "Ġadmires": 19684,
    "\":": 9581,
    "pall": 17628,
    "Ġtow": 4395,
    "rip": 9240,
    "Ġrefresh": 10345,
    "Ġexclaimed": 4682,
    "Ġraft": 16108,
    "fail": 17540,
    "Ġmasts": 6465,
    "herald": 22202,
    "Ġhieroglyphic": 25587,
    "Ġimprovements": 14510,
    "Ġjoined": 4564,
    "Ġunfortunately": 10908,
    "Ġann": 4490,
    "Ġforgetting": 3435,
    "jam": 15370,
    "Ġsequ": 980,
    "astonished": 15032,
    "alarms": 21502,
    "Ġterra": 13115,
    "Ġbulky": 13228,
    "Ġbamboo": 17436,
    "Ġheighten": 19528,
    "wheeling": 22870,
    "Ġmes": 17796,
    "our": 535,
    "Ġtowering": 16739,
    "¤": 102,
    "sford": 5997,
    "Ġpersonality": 16477,
    "albatross": 15628,
    "ife": 1024,
    "steady": 14708,
    "Ġvoluntarily": 12138,
    "vens": 21111,
    "Ġwhe": 439,
    "Ġpointed": 4772,
    "marrying": 19546,
    "Ġirrespective": 23373,
    "Ġindefinitely": 25221,
    "Ġmicha": 17811,
    "Ġsunbeam": 23272,
    "striving": 24669,
    "Ġmatrix": 1604,
    "Ġcontin": 5382,
    "fired": 20859,
    "short": 6566,
    "Ġpaved": 17912,
    "natural": 2172,
    "Ġcaught": 3733,
    "cles": 8725,
    "Ġspinning": 15052,
    "inced": 3337,
    "Ġdesmarest": 22976,
    "Ġbloodshot": 23798,
    "Ġattachment": 6049,
    "pipe": 8696,
    "Ġquit": 5246,
    "isticated": 1563,
    "Ġcapacity": 10440,
    "shrouded": 26361,
    "Ġrecollecting": 17113,
    "Ġhunter": 5401,
    "Ġthreads": 13116,
    "ker": 5792,
    "Ġmusk": 7494,
    "hmael": 7342,
    "els": 1763,
    "god": 4862,
    "Ġrect": 18025,
    "Ġcritically": 23444,
    "Ġimpatience": 7509,
    "way": 764,
    "Ġtallest": 15474,
    "imble": 10858,
    "Ġequ": 1732,
    "Ġfew": 1224,
    "Ġforeb": 12002,
    "Ġuncontrollable": 25814,
    "Ġpropag": 16347,
    "Ġdis": 696,
    "Ġthey": 576,
    "ome": 536,
    "Ġcontroverted": 23248,
    "Ġevils": 9019,
    "ioning": 21506,
    "Ġilliter": 23469,
    "atra": 17771,
    "Ġ=": 1077,
    "Ġsix": 3044,
    "asher": 15644,
    "Ġsaucer": 20604,
    "Ġ36": 14767,
    "iet": 1774,
    "Ġcravat": 26307,
    "uary": 11537,
    "Ġscar": 3212,
    "Ġoutrageous": 20609,
    "Ġmate": 3711,
    "Ġexaggerate": 25649,
    "Ġcasks": 7521,
    "Ġcongenial": 12409,
    "Ġunfit": 14786,
    "Ġed": 2142,
    "Ġrising": 4356,
    "Ġbaleful": 24982,
    "Ġdining": 6977,
    "Ġcath": 17826,
    "Ġvirgin": 7328,
    "Ġcyl": 15555,
    "fine": 10090,
    "kitty": 10105,
    "Ġportable": 19368,
    "Ġunappe": 22013,
    "Ġexpressly": 16454,
    "Ġingenuity": 17163,
    "Ġbulge": 23855,
    "abashed": 21789,
    "Ġconge": 15744,
    "olence": 10229,
    "amed": 4447,
    "body": 2307,
    "idled": 21765,
    "Ġadmir": 12020,
    "Ġboys": 5194,
    "Ġarrang": 2470,
    "ent": 305,
    "rible": 3227,
    "Ġpronounced": 8350,
    "Ġpoultry": 17440,
    "Ġhomeless": 23385,
    "uits": 21103,
    "Ġtrials": 16789,
    "Ġthemselves": 3251,
    "Ġoozy": 21325,
    "arted": 2198,
    "Ġrushing": 7403,
    "Ġintroduce": 3206,
    "Ġwide": 4108,
    "Ġlevels": 12695,
    "Ġbouton": 17868,
    "Ġpiqu": 21475,
    "Ġthoughtful": 16191,
    "Ġbreat": 3462,
    "Ġfashioned": 13319,
    "Ġmissing": 6175,
    "arranted": 19319,
    "blending": 24129,
    "Ġrickety": 26505,
    "Ġapproved": 16023,
    "Ġwhalemen": 3916,
    "Ġpain": 2303,
    "otic": 15743,
    "30": 20753,
    "Ġwakeful": 24266,
    "asily": 13945,
    "Ġbetake": 22900,
    "Ġstores": 18068,
    "Ġfits": 8790,
    "Ġletter": 2194,
    "Ġenlar": 15799,
    "Ġskylight": 24073,
    "Ġcommonplaces": 16288,
    "Ġpuzz": 5533,
    "Ġsubstitute": 16726,
    "Ġcover": 3557,
    "hilar": 25081,
    "unte": 21870,
    "Ġshoved": 23490,
    "draughts": 20386,
    "Ġloud": 4700,
    "Ġepicurean": 20554,
    "bid": 5611,
    "Ġpir": 6818,
    "Ġarchitecture": 1138,
    "Ġworker": 23041,
    "Ġconstrued": 26301,
    "Ġcalcul": 3640,
    "licted": 20955,
    "Ġtainted": 21169,
    "icting": 12850,
    "res": 2760,
    "iny": 4294,
    "Ġmeditate": 16682,
    "Ġvenetian": 14846,
    "cob": 10086,
    "Ġunembarrassed": 22064,
    "ccarthy": 4887,
    "problem": 25244,
    "inav": 15483,
    "eed": 20840,
    "Ġcler": 11771,
    "liv": 9607,
    "Ġrelentless": 26277,
    "ortunity": 4403,
    "prot": 6899,
    "Ġconsoled": 18112,
    "pitchpoling": 25725,
    "excitement": 19668,
    "Ġhypotheses": 4386,
    "Ġblackness": 9392,
    "Ġrand": 1586,
    "Ġpoint": 2056,
    "Ġlearnedly": 23384,
    "ropol": 10952,
    "Ġparty": 3510,
    "Ġcuff": 17829,
    "hullo": 17570,
    "crooked": 25746,
    "Ġsmoke": 4714,
    "Ġsilent": 3411,
    "left": 6975,
    "arling": 10814,
    "ider": 21762,
    "Ġkinds": 14505,
    "Ġcorroded": 18875,
    "pra": 15407,
    "Ġindividually": 22954,
    "atived": 21261,
    "Ġslouched": 13056,
    "iod": 3843,
    "Ġfors": 21768,
    "danger": 10089,
    "chased": 18041,
    "Ġextent": 7655,
    "Ġir": 1995,
    "Ġface": 1720,
    "sympathy": 20541,
    "Ġrequest": 6050,
    "iards": 17574,
    "impatience": 25500,
    "Ġunostentatious": 22065,
    "Ġunh": 9252,
    "Ġscan": 22291,
    "Ġtoils": 10185,
    "sius": 13787,
    "ashes": 6015,
    "paddington": 20476,
    "Ġvap": 6837,
    "Ġtraps": 23078,
    "Ġvindict": 13604,
    "Ġseas": 3080,
    "enstein": 5799,
    "ented": 4349,
    "Ġseemingly": 9317,
    "Ġdusty": 14924,
    "Ġhis": 380,
    "Ġsymmet": 11745,
    "Ġinquir": 4243,
    "Ġproper": 1381,
    "Ġeconomical": 25287,
    "ulate": 5233,
    "Ġtrust": 4079,
    "Ġsinned": 18951,
    "Ġtorrid": 25032,
    "andy": 8157,
    "ts": 959,
    "aphys": 15200,
    "ah": 1835,
    "Ġclasped": 17206,
    "thanking": 24330,
    "Ġsparkling": 11356,
    "tired": 21071,
    "Ġgloom": 4202,
    "rift": 11519,
    "Ġforked": 11663,
    "Ġinjuring": 24268,
    "tastes": 21095,
    "desp": 6075,
    "icide": 11617,
    "Ġcharted": 22247,
    "Ġconference": 15745,
    "overcoat": 19051,
    "wed": 5002,
    "range": 3494,
    "atives": 2234,
    "Ġentertained": 9997,
    "Ġsunlight": 13084,
    "Ġvery": 636,
    "Ġforgot": 4683,
    "foreign": 18543,
    "Ġundertake": 14479,
    "Ġmates": 4871,
    "Ġsqualidness": 25842,
    "Ġextraction": 11253,
    "Ġmermaids": 26170,
    "slackened": 26094,
    "Ġenjoy": 3765,
    "dripping": 16905,
    "Ġhair": 3314,
    "Ġplight": 14280,
    "Ġpeels": 22688,
    "cating": 20801,
    "Ġencamped": 22800,
    ",âĢĻâĢĶ": 23526,
    "Ġruinous": 24633,
    "Ġprofess": 3701,
    "Ġstigma": 25791,
    "Ġkentuckian": 26342,
    "Ġstars": 6149,
    "resnet": 4070,
    "Ġgroves": 16740,
    "Ġvigour": 24462,
    "uttle": 6247,
    "Ġperu": 14222,
    "Ġrichness": 19310,
    "Ġnoteworthy": 24162,
    "arance": 4697,
    "Ġgaiters": 20459,
    "Ġmusical": 23891,
    "Ġdeclines": 23961,
    "!âĢĻ": 3333,
    "Ġdevious": 22713,
    "Ġspermacetti": 19049,
    "Ġpang": 15603,
    "sorrows": 17319,
    "Ġstated": 9688,
    "fluke": 25204,
    "Ġdependent": 14300,
    "Ġmultiple": 1189,
    "abez": 10222,
    "Ġfurlongs": 20722,
    "Ġgloomily": 14800,
    "keeping": 8634,
    "Ġturns": 4980,
    "Ġlur": 5226,
    "Ġberries": 13406,
    "Ġvincent": 15282,
    "Ġbehave": 23298,
    "foundered": 20866,
    "tri": 11529,
    "pious": 17633,
    "thar": 18217,
    "means": 9785,
    "Ġromish": 19583,
    "Ġvagueness": 25737,
    "agitation": 14067,
    "ks": 3148,
    "Ġhappening": 14382,
    "leeward": 15209,
    "Ġparcel": 15198,
    "cess": 534,
    "Ġbolivia": 24667,
    "sought": 15427,
    "Ġunp": 12768,
    "Ġhumped": 19768,
    "move": 11852,
    "Ġfee": 7199,
    "Ġinstigated": 18702,
    "Ġtempted": 9056,
    "Ġhag": 12622,
    "Ġfriendly": 9819,
    "Ġdear": 1537,
    "Ġinsensibly": 20074,
    "Ġinhaled": 25451,
    "Ġforbidden": 17078,
    "Ġstings": 21731,
    "get": 1020,
    "blasted": 20188,
    "Ġireland": 17334,
    "attent": 9358,
    "Ġcensured": 25094,
    "Ġpleated": 16296,
    "places": 7878,
    "Ġfing": 3762,
    "Ġsideboard": 10385,
    "leaving": 10791,
    "water": 4867,
    "ificial": 608,
    "Ġfeared": 5930,
    "lesc": 11040,
    "Ġoar": 6236,
    "mis": 4521,
    "Ġfact": 1726,
    "Ġgreenness": 23766,
    "Ġintensely": 17017,
    "Ġbend": 9170,
    "Ġwisely": 13271,
    "Ġdollar": 25283,
    "Ġchart": 10946,
    "Ġoverhanging": 22351,
    "flight": 15351,
    "Ġhearken": 21682,
    "Ġpaddock": 25037,
    "Ġtattoo": 7359,
    "Ġfierc": 18713,
    "ogr": 18672,
    "Ġabove": 2934,
    "ledyard": 22388,
    "Ġaccuracy": 1088,
    "âĢĻ-": 18172,
    "compan": 7301,
    "provided": 13636,
    "Ġthoroughfare": 16944,
    "wester": 21137,
    "Ġvisitors": 7984,
    "murderer": 13392,
    "Ġobliter": 14321,
    "Ġflorid": 17135,
    "common": 4128,
    "Ġsummons": 13231,
    "Ġspermaceti": 8967,
    "Ġwedge": 24070,
    "dropout": 3198,
    "sp": 893,
    "ª": 108,
    "orses": 6051,
    "darkness": 9511,
    "matlock": 23470,
    "Ġremoved": 5274,
    "quickness": 19850,
    "Ġsatirical": 26279,
    "Ġpunish": 12157,
    "Ġearning": 23938,
    "Ġparac": 12792,
    "ort": 521,
    "Ġchill": 11750,
    "Ġlong": 794,
    "Ġtears": 4232,
    "Ġbuoyed": 20039,
    "vering": 15714,
    "teak": 22812,
    "enses": 10994,
    "inked": 12910,
    "Ġtroublesome": 24002,
    "balance": 12005,
    "Ġendeavoured": 4917,
    "Ġassist": 3564,
    "Ġpicturesqueness": 24480,
    "Ġimpet": 11777,
    "ital": 4816,
    "despairing": 25074,
    "battering": 20785,
    "Ġcad": 12565,
    "Ġtant": 12522,
    "Ġcigaret": 16976,
    "Ġcurb": 16232,
    "Ġsap": 18323,
    "hun": 5210,
    "iltrated": 19305,
    "us": 531,
    "Ġfarewell": 9519,
    "nailed": 20995,
    "tumultuous": 20397,
    "ocratic": 17245,
    "Ġneared": 14072,
    "blunder": 24130,
    "Ġhum": 1099,
    "Ġabroad": 8865,
    "Ġtwelve": 4962,
    "Ġjacob": 1900,
    "Ġmornings": 16236,
    "ocean": 12399,
    "dler": 13705,
    "Ġadrift": 11720,
    "Ġtriumphant": 12187,
    "Ġshrieking": 24758,
    "Ġaccidentally": 9504,
    "adequ": 11020,
    "Ġproducing": 11897,
    "Ġnose": 4402,
    "Ġexh": 5232,
    "Ġpal": 4042,
    "mut": 17595,
    "Ġharpooned": 13261,
    "orns": 12589,
    "Ġfunctions": 1340,
    "gravel": 22617,
    "Ġmanilla": 15958,
    "Ġinteresting": 4325,
    "Ġdented": 17891,
    "indebted": 26158,
    "ogrand": 26261,
    "lass": 5992,
    "Ġresurrection": 12891,
    "Ġplunged": 8692,
    "Ġdefine": 9814,
    "Ġpush": 9184,
    "Ġrobinson": 17463,
    "happen": 19330,
    "Ġstudy": 1778,
    "Ġtease": 18810,
    "kings": 17583,
    "insist": 23062,
    "Ġoblong": 14320,
    "eous": 13711,
    "Ġheaths": 25972,
    "Ġlogical": 14486,
    "Ġlist": 2365,
    "derer": 4600,
    "Ġquite": 1739,
    "Ġtenth": 13824,
    "whaler": 20308,
    "angered": 16177,
    "all": 486,
    "/`": 12427,
    "Ġimbalanced": 18333,
    "Ġsleep": 2401,
    "Ġenvelopes": 24510,
    "Ġreputation": 11639,
    "mercenary": 26315,
    "Ġsocietal": 11436,
    "Ġabiding": 22267,
    "bra": 6219,
    "Ġcontinuously": 23202,
    "ambition": 13410,
    "shadow": 20313,
    "Ġdanger": 3520,
    "ĳ": 244,
    "Ġmichigan": 26427,
    "Ġpreaching": 15925,
    "Ġenlarged": 25985,
    "Ġharsh": 9520,
    "orts": 2553,
    "stranger": 9882,
    "Ġdisinclined": 22526,
    "compassion": 12366,
    "nson": 16087,
    "pie": 21010,
    "darkened": 24517,
    "during": 6787,
    "civilities": 24971,
    "Ġunbending": 25464,
    "Ġengland": 3860,
    "oled": 17619,
    "antingly": 22095,
    "Ġthree": 1374,
    "Ġcabin": 3303,
    "truth": 9918,
    "ron": 5216,
    "ertips": 23638,
    "Ġunce": 11709,
    "apparent": 11042,
    "uated": 10131,
    "aciously": 12904,
    "prevented": 20372,
    "itious": 8779,
    "visitor": 15057,
    "Ġjourneys": 19473,
    "Ġmarvelled": 18873,
    "Ġhemp": 9215,
    "Ġforesight": 13126,
    "Ġascending": 14853,
    "Ġpatent": 11957,
    "sue": 2077,
    "parameter": 3024,
    "Ġmiss": 1229,
    "Ġpour": 13913,
    "admire": 24943,
    "Ġrivals": 20270,
    "even": 3841,
    "fever": 22484,
    "wrote": 11546,
    "Ġhus": 3094,
    "Ġblowing": 10484,
    "Ġstre": 2107,
    "Ġbed": 2143,
    "mission": 5969,
    "Ġgalvan": 21614,
    "nurs": 20998,
    "Ġswain": 18879,
    "Ġoy": 15544,
    "Ġdifference": 1490,
    "Ġebony": 18008,
    "Ġungenerous": 18263,
    "bert": 4662,
    "nephew": 26397,
    "acting": 22627,
    "Ġtwit": 12926,
    "Ġrelatives": 12979,
    "linging": 16077,
    "Ġsangu": 15504,
    "positive": 20566,
    "Ġstagnant": 24654,
    "strade": 5064,
    "whisper": 17083,
    "purp": 8090,
    "bitterly": 20336,
    "Ġhoping": 11103,
    "Ġadventures": 7747,
    "Ġflann": 23009,
    "holder": 13281,
    "marching": 25752,
    "Ġendeav": 2952,
    "Ġraved": 22638,
    "Ġknowest": 12861,
    "mediate": 16513,
    "respectable": 19846,
    "Ġvisions": 12973,
    "Ġcrawford": 24893,
    "bell": 7332,
    "Ġcourses": 10411,
    "Ġthan": 736,
    "etieth": 21581,
    "Ġperfect": 2554,
    "Ġperceiving": 8875,
    "confid": 14866,
    "Ġscheme": 7064,
    "Ġevaporate": 26332,
    "engagements": 25853,
    "Ġunlikely": 10907,
    "Ġasleep": 6836,
    "Ġser": 1669,
    "Ġbegrim": 23013,
    "Ġhare": 5157,
    "abeth": 906,
    "Ġrecommending": 24337,
    "Ġgranite": 22805,
    "arded": 5028,
    "Ġbeadle": 26484,
    "Ġslipping": 13359,
    "abhor": 12704,
    "Ġblessed": 6931,
    "Ġobsequ": 14319,
    "Ġnav": 5818,
    "alled": 5910,
    "singing": 24363,
    "Ġpainful": 6462,
    "brows": 17496,
    "partly": 14602,
    "Ġjenkinson": 11431,
    "Ġrelaxed": 12981,
    "est": 499,
    "Ġwooden": 4729,
    "Ġsagacious": 14970,
    "Ġstool": 14461,
    "Ġdirest": 22706,
    "Ġcramped": 23529,
    "Ġtemptations": 24508,
    "savagery": 25025,
    "Ġber": 5698,
    "Ġcontributed": 16008,
    "Ġselfish": 7272,
    "ber": 885,
    "Ġhushed": 13924,
    "Ġsupervised": 2842,
    "Ġimple": 1813,
    "Ġhaz": 12752,
    "charles": 14698,
    "Ġcompletion": 12145,
    "Ġclear": 1951,
    "Ġreader": 11932,
    "Ġlords": 14641,
    "Ġstraining": 11327,
    "mong": 15388,
    "Ġsuspects": 16890,
    "!--": 10677,
    "Ġdevoured": 16134,
    "whenever": 11879,
    "Ġnewcastle": 16222,
    "Ġnonsense": 6982,
    "Ġspectrum": 4475,
    "Ġsemicircular": 26068,
    "ibank": 6880,
    "Ġmovement": 9967,
    "Ġreverse": 16982,
    "Ġsplit": 7992,
    "Ġamours": 22478,
    "mens": 20968,
    "elag": 12655,
    "ette": 15657,
    "Ġfootmarks": 19336,
    "spl": 9139,
    "unfortunate": 15775,
    "Ġleviathan": 3289,
    "Ġexasperated": 11412,
    "gypt": 8260,
    "Ġspans": 18304,
    "Ġrun": 2355,
    "Ġalco": 21779,
    "Ġlivery": 15999,
    "Ġgoat": 16005,
    "Ġdeploy": 2967,
    "por": 2149,
    "popular": 26140,
    "oran": 8788,
    "Ġprecaution": 11196,
    "Ġhonoured": 9880,
    "Ġimpenit": 22385,
    "Ġlewis": 15723,
    "Ġcostume": 16495,
    "Ġglowing": 12280,
    "onious": 15518,
    "Ġassizes": 11108,
    "paying": 25411,
    "actorily": 25576,
    "Ġmeryton": 4437,
    "determine": 19942,
    "atches": 13845,
    "Ġbaw": 15567,
    "taken": 7560,
    "--âĢĺ": 22843,
    "Ġadmitted": 8986,
    "Ġfrozen": 9012,
    "Ġnightfall": 23129,
    "Ġfarthing": 14453,
    "Ġcall": 2075,
    "Ġstudent": 14478,
    "Ġsemblance": 20733,
    "ī": 236,
    "archical": 1929,
    "Ġconnect": 796,
    "Ġbead": 21747,
    "Ġexcitement": 9380,
    "Ġimaginary": 11186,
    "isa": 17845,
    "Ġsea": 1208,
    "Ġsnugness": 20075,
    "Ġdemands": 19642,
    "Ġcalms": 23038,
    "Ġimmense": 4951,
    "Ġmat": 1146,
    "Ġspeculations": 22995,
    "iel": 11493,
    "raved": 18012,
    "Ġcreator": 7255,
    "Ġzoned": 22817,
    "Ġyielded": 14871,
    "Ġplanet": 14750,
    "Ġadmirals": 20383,
    "Ġinnermost": 12158,
    "Ġtoday": 12640,
    "Ġlets": 18076,
    "Ġposition": 1956,
    "Ġpained": 19166,
    "pregn": 18495,
    "liter": 11501,
    "patched": 17643,
    "Ġesteemed": 10588,
    "ulsive": 10233,
    "Ġeverybody": 4511,
    "Ġcom": 368,
    "fering": 17542,
    "ĠĠĠĠĠĠĠĠĠĠĠĠĠĠĠĠĠĠĠĠĠĠĠĠĠĠĠĠĠĠĠĠĠĠĠĠĠĠ": 16526,
    "Ġutility": 23513,
    "Ġwings": 9163,
    "Ġlard": 13946,
    "Ġtiara": 26415,
    "Ġmisty": 16539,
    "ide": 721,
    "Ġdante": 21436,
    "Ġgallows": 12143,
    "piece": 6655,
    "Ġblasp": 14401,
    "Ġcurly": 18843,
    "eping": 5834,
    "Ġ19": 6719,
    "Ġclosest": 16763,
    "Ġrosings": 4607,
    "Ġnumerical": 4246,
    "Ġsurplus": 26303,
    "Ġergo": 25029,
    "Ġsubterraneous": 20264,
    "plans": 21955,
    "Ġgrandfather": 19420,
    "Ġrivers": 9442,
    "Ġaristotle": 25817,
    "decease": 25557,
    "Ġconceived": 8149,
    "magnifying": 25392,
    "inhab": 10757,
    "Ġtails": 9901,
    "Ġunaffected": 14120,
    "Ġmisfortunes": 7041,
    "Ġmechanis": 1219,
    "nue": 15396,
    "Ġhansom": 13663,
    "Ġtradesman": 20071,
    "Ġeastern": 11628,
    "imodal": 17446,
    "Ġhired": 10177,
    "unavoid": 14061,
    "Ġwapping": 21293,
    "Ġbeget": 9225,
    "adventurous": 25361,
    "incidentally": 20538,
    "Ġcooper": 16076,
    "Ġpursuing": 9437,
    "Ġobedient": 20103,
    "Ġpunchbowl": 20230,
    "Ġfighting": 12195,
    "Ġloathed": 15874,
    "Ġreasoning": 1937,
    "Ġslaves": 23167,
    "Ġexagger": 12716,
    "speaks": 19718,
    "eth": 617,
    "ĠĠĠĠĠĠĠĠĠĠĠĠĠĠĠĠĠ": 22946,
    "abominable": 20592,
    "umbling": 6758,
    "sed": 4177,
    "smallest": 23909,
    "oured": 2671,
    "Ġexploit": 19161,
    "Ġsingers": 23770,
    "Ġsummoning": 23872,
    "Ġjunk": 15947,
    "distance": 12150,
    "clergyman": 20728,
    "Ġloves": 10915,
    "professional": 20274,
    "Ġstation": 5297,
    "Ġfire": 2331,
    "inch": 10755,
    "ral": 4627,
    "s": 87,
    "deliberated": 26118,
    "Ġallies": 18267,
    "etween": 774,
    "Ġrendering": 16657,
    "Ġowing": 6004,
    "Ġcure": 21338,
    "Ġbit": 2961,
    "colnett": 19329,
    "Ġpostponed": 20388,
    "having": 5211,
    "ness": 852,
    "arial": 5532,
    "Ġimmemorially": 25383,
    "Ġinmost": 17930,
    "Ġlungs": 8361,
    "Ġlux": 8813,
    "Ġshavings": 14109,
    "Ġtransparent": 9488,
    "Ġkill": 4453,
    "Ġinforming": 18743,
    "norm": 20984,
    "Ġi": 311,
    "addition": 13383,
    "Ġadroit": 26000,
    "warning": 25531,
    "shows": 22455,
    "tan": 4741,
    "Ġintending": 11703,
    "Ġdropt": 23674,
    "Ġfarm": 7840,
    "mbly": 9794,
    "Ġrag": 18633,
    "Ġrejoinder": 24597,
    "Ġappeared": 2775,
    "dressing": 11481,
    "Ġirreparable": 19997,
    "Ġrumpled": 24600,
    "Ġnew": 1197,
    "Ġseventeen": 26210,
    "Ġprompted": 23814,
    "kish": 20933,
    "Ġsag": 6514,
    "Ġhopeful": 19033,
    "discharging": 26305,
    "Ġclearness": 23181,
    "Ġentra": 18695,
    "Ġterms": 2560,
    "Ġinn": 4590,
    "Ġaccumulated": 11929,
    "arled": 21440,
    "countenance": 6925,
    "Ġevery": 927,
    "Ġseals": 11693,
    "impud": 23759,
    "Ġlashing": 11615,
    "Ġable": 3083,
    "Ġmillions": 11354,
    "Ġgold": 3278,
    "Ġdictionaries": 12338,
    "Ġswitzerland": 10379,
    "Ġext": 897,
    "Ġnin": 10187,
    "Ġcompanionship": 14919,
    "bent": 15310,
    "pard": 9618,
    "expression": 10547,
    "Ġtastes": 15477,
    "Ġgrizzled": 11450,
    "Ġexclusion": 19394,
    "perishing": 22174,
    "Ġleg": 2333,
    "ifled": 14062,
    "alice": 3209,
    "dependence": 17167,
    "Ġgrinned": 16857,
    "colonel": 8284,
    "arth": 4442,
    "Ġconcepts": 4551,
    "Ġseams": 12122,
    "inter": 2946,
    "Ġbeards": 21748,
    "mangled": 20980,
    "izings": 14043,
    "desired": 8956,
    "Ġtre": 2535,
    "Ġridges": 16731,
    "Ġgul": 7859,
    "scure": 22985,
    "med": 1909,
    "Ġreckoning": 14978,
    "arranging": 19317,
    "Ġterrible": 5327,
    "Ġunaware": 22054,
    "Ġschool": 5512,
    "Ġindignation": 8346,
    "Ġcompress": 21846,
    "agery": 21904,
    "yed": 3272,
    "Ġflannel": 26577,
    "Ġsighs": 22708,
    "Ġcrabs": 19173,
    "Ġferry": 24498,
    "Ġparc": 10920,
    "_)": 9101,
    "Ġagile": 22509,
    "Ġassault": 9836,
    "Ġprobabilities": 4965,
    "Ġsplendidly": 25327,
    "Ġdragging": 14475,
    "taller": 26150,
    "eded": 9673,
    "Ġwollstonecraft": 26425,
    "py": 17624,
    "queen": 12724,
    "tattoo": 21086,
    "Ġmadly": 16485,
    "gul": 12463,
    "Ġwip": 13852,
    "Ġdeplored": 20503,
    "Ġconsolidation": 5059,
    "Ġtil": 12521,
    "Ġdrunken": 12048,
    "Ġhistor": 3391,
    "Ġinher": 10179,
    "Ġnap": 8808,
    "Ġimpulses": 19960,
    "Ġdisclosed": 15152,
    "Ġcondition": 6764,
    "Ġcrimin": 6901,
    "Ġbranches": 6776,
    "Ġleather": 7606,
    "Ġyield": 5092,
    "appro": 7044,
    "axing": 18547,
    "Ġbetween": 789,
    "Ġrepenting": 25322,
    "sur": 4523,
    "Ġvouch": 15808,
    "worthy": 7732,
    "Ġstyled": 24671,
    "stained": 21652,
    "Ġendurance": 23143,
    "Ġtriangular": 14858,
    "Ġspl": 2984,
    "others": 7669,
    "Ġglow": 7170,
    "Ġtrapped": 23075,
    "Ġrehearsed": 25971,
    "omnipotent": 25964,
    "entirely": 7781,
    "Ġpoet": 8207,
    "Ġannounced": 9034,
    "Ġadorned": 15246,
    "Ġpopulous": 16826,
    "anum": 17835,
    "Ġdancing": 5703,
    "depths": 25663,
    "redit": 3879,
    "somehow": 12010,
    "Ġcalculates": 13264,
    "Ġaid": 6122,
    "Ġknitted": 19588,
    "Ġmicrosc": 20675,
    "10": 17472,
    "ilburn": 18059,
    "Ġrumors": 11321,
    "Ġcaved": 21351,
    "Ġstrife": 18613,
    "Ġabhorred": 9507,
    "loom": 18535,
    "melted": 25206,
    "Ġcharger": 19004,
    "Ġkitty": 3913,
    "Ġdesp": 3215,
    "Ġarose": 7360,
    "games": 20879,
    "pend": 6367,
    "Ġremoving": 12114,
    "pul": 8753,
    "Ġunche": 23427,
    "Ġfatal": 5871,
    "Ġsunda": 13543,
    "Ġdied": 4111,
    "Ġlearn": 365,
    "Ġhollows": 19740,
    "[_": 5131,
    "passing": 14811,
    "Ġrheumatic": 20704,
    "Ġordinary": 6096,
    "Ġplans": 7917,
    "Ġestimate": 19371,
    "quee": 4131,
    "Ġlaughter": 9027,
    "dimensional": 2348,
    "ezes": 9990,
    "Ġanom": 12608,
    "dogs": 25402,
    "fic": 20851,
    "Ġintense": 6157,
    "Ġensure": 23686,
    "Ġprecious": 5760,
    "Ġginger": 9210,
    "unity": 4152,
    "impat": 11202,
    "Ġobserving": 6080,
    "Ġprey": 6415,
    "Ġup": 463,
    "Ġrepresented": 8938,
    "diligence": 26110,
    "Ġminim": 1322,
    "ca": 20792,
    "Ġclassify": 1679,
    "Ġflows": 13007,
    "lane": 10706,
    "Ġdisreputable": 22531,
    "Ġowl": 20082,
    "tied": 21069,
    "Ġclimates": 25051,
    "tossed": 10996,
    "Ġproduced": 2454,
    "Ġendwise": 23142,
    "bul": 6951,
    "Ġhanged": 17924,
    "Ġblameless": 19858,
    "Ġamusement": 8055,
    "Ġply": 21451,
    "Ġreluctant": 20523,
    "Ġsiber": 17755,
    "ermost": 7430,
    "Ġplaying": 6909,
    "Ġenh": 2968,
    "Ġscrawled": 24580,
    "lins": 2027,
    "Ġversion": 10629,
    "Ġdiversion": 17197,
    "Ġharvard": 24573,
    "certainly": 5339,
    "alk": 1151,
    "retirement": 23137,
    "Ġsandwic": 24664,
    "Ġcomprise": 18585,
    "Ġglacier": 11433,
    "Ġxii": 11989,
    "Ġseen": 1371,
    "Ġshuttle": 12124,
    "Ġpope": 11601,
    "Ġunperceived": 22032,
    "formal": 14168,
    "Ġwiping": 25765,
    "feeder": 12359,
    "Ġeveryone": 8917,
    "exceed": 7910,
    "\",": 10678,
    "Ġpassionate": 11273,
    "Ġshocked": 9400,
    "Ġcarry": 4778,
    "Ġlongest": 18630,
    "exertion": 16015,
    "Ġpollard": 20384,
    "Ġw": 272,
    "Ġrole": 15996,
    "indisc": 22370,
    "ę": 218,
    "Ġinjurious": 24270,
    "Ġsky": 3972,
    "henry": 16625,
    "Ġcultivated": 17363,
    "heart": 4526,
    "olstadt": 7788,
    "Ġsaf": 4004,
    "Ġtimber": 13348,
    "pointing": 12222,
    "discovery": 12015,
    "sufficient": 6635,
    "Ġescort": 23505,
    "Ġdives": 17890,
    "Ġantelope": 24180,
    "ref": 6515,
    "Ġpeddling": 24799,
    "Ġted": 13811,
    "Ġproverb": 12713,
    "Ġachieves": 4379,
    "iloquent": 21722,
    "kept": 11715,
    "mmet": 10989,
    "vicious": 21117,
    "Ġp": 289,
    "Ġinterven": 10997,
    "15": 12428,
    "national": 20997,
    "Ġun": 422,
    "Ġaltar": 9228,
    "fr": 4803,
    "Ġconnecting": 18631,
    "tranqu": 14705,
    "Ġunchanged": 22026,
    "Ġdiscomp": 11864,
    "Ġtemperature": 1002,
    "cab": 7333,
    "approach": 24833,
    "Ġenvironments": 23945,
    "corpse": 24486,
    "Ġwreaths": 25937,
    "Ġspar": 10922,
    "uck": 1234,
    "united": 14059,
    "Ġanonym": 17897,
    "Ġbumpkin": 20199,
    "Ġgibraltar": 25787,
    "Ġobserved": 3541,
    "cially": 3490,
    "Ġdry": 5624,
    "Ġsmilingly": 22557,
    "painter": 24896,
    "Ġbitterly": 8314,
    "ason": 1232,
    "Ġhatherley": 7848,
    "Ġmaintained": 12931,
    "maged": 15392,
    "avo": 8517,
    "vil": 2734,
    "Ġdeclaration": 16636,
    "Ġcompleted": 8997,
    "ingley": 1544,
    "recklessly": 25269,
    "Ġmarvel": 23032,
    "Ġinstead": 2790,
    "Ġgrat": 4057,
    "Ġgreat": 894,
    "nets": 9132,
    "Ġcomplaint": 24776,
    "Ġnois": 4268,
    "Ġunlab": 3792,
    "quet": 6835,
    "Ġfif": 4217,
    "Ġgrows": 4984,
    "morland": 24153,
    "amous": 15759,
    "Ġbraved": 23835,
    "ill": 447,
    "ateur": 22003,
    "condemned": 26060,
    "delirium": 14784,
    "Ġnobly": 22238,
    "Ġcoronation": 13332,
    "99": 1897,
    "Ġproficiency": 19191,
    "Ġcomputers": 2643,
    "atre": 17770,
    "Ġflatt": 16245,
    "possess": 5983,
    "ediction": 17944,
    "Ġpaling": 21460,
    "Ġlobes": 22112,
    "Ġargosy": 24273,
    "Ġpicking": 11259,
    "Ġagree": 7646,
    "Ġhaughty": 11449,
    "ces": 578,
    "Ġbison": 21386,
    "Ġpersonally": 8598,
    "bpp": 20771,
    "Ġhauled": 11692,
    "Ġelated": 18641,
    "garity": 17554,
    "inquiries": 13576,
    "indef": 17735,
    "Ġchewing": 23284,
    "wil": 8395,
    "Ġpervading": 20612,
    "Ġunshored": 25813,
    "Ġcring": 15550,
    "Ġpassers": 18758,
    "Ġboldly": 9500,
    "erxes": 21274,
    "Ġray": 18634,
    "Ġrevisit": 21667,
    "Ġgallied": 19555,
    "Ġarrog": 18345,
    "side": 2301,
    "buncle": 13691,
    "esteemed": 26009,
    "likeness": 19476,
    "Ġarch": 948,
    "balanced": 14555,
    "Ġmurdered": 6464,
    "uncommonly": 25549,
    "akes": 2216,
    "Ġroads": 13287,
    "Ġadro": 15866,
    "zy": 2669,
    "Ġha": 400,
    "Ġinterest": 2250,
    "Ġsenior": 17171,
    "Ġmaddened": 17244,
    "talking": 10006,
    "Ġimproved": 7656,
    "safety": 20348,
    "Ġpretty": 3864,
    "Ġgloss": 11954,
    "Ġscraggy": 24579,
    "Ġmiller": 19882,
    "ily": 1034,
    "Ġamusements": 16913,
    "critical": 19502,
    "acetty": 24464,
    "fed": 11487,
    "Ġcane": 10927,
    "iver": 2049,
    "walton": 20248,
    "Ġspouts": 7729,
    "canallers": 22961,
    "Ġbrand": 16186,
    "Ġjohnson": 18404,
    "Ġchin": 4890,
    "sincerely": 24584,
    "Ġfancy": 3749,
    "Ġhang": 9187,
    "Ġexclaim": 11221,
    "Ġinit": 817,
    "Ġwhitewashed": 14468,
    "Ġpostp": 12141,
    "Ġsuperflu": 14554,
    "Ġveget": 11884,
    "Ġgable": 15665,
    "brink": 23574,
    "Ġpaus": 4299,
    "Ġinterview": 9769,
    "Ġplum": 11820,
    "Ġcourage": 4633,
    "Ġsubstit": 19539,
    "Ġsets": 8773,
    "e": 73,
    "employ": 10895,
    "toller": 20671,
    "solved": 7684,
    "Ġphilosopher": 12181,
    "Ġromantic": 8030,
    "Ġphrenolog": 12332,
    "Ġmarry": 4417,
    "Ġnotion": 7881,
    "Ġoffending": 22741,
    "Ġfacetious": 20582,
    "door": 6193,
    "Ġbehalf": 14509,
    "Ġknock": 9972,
    "Ġimproper": 22739,
    "Ġtime": 689,
    "Ġuprising": 12799,
    "assment": 9739,
    "becoming": 18518,
    "Ġadult": 18289,
    "Ġseverest": 14089,
    "Ġdomain": 3456,
    "Ġprodig": 6027,
    "Ġassumpt": 5415,
    "Ġsweetheart": 19393,
    "Ġcoincid": 20316,
    "resolutions": 26164,
    "Ġpartial": 2127,
    "Ġbravest": 23838,
    "Ġcomprised": 14267,
    "uch": 879,
    "Ġcouch": 12568,
    "Ġseats": 14087,
    "Ġmeddle": 19490,
    "Ġloc": 10914,
    "Ġsharp": 2415,
    "Ġtemperate": 16161,
    "dwelt": 23869,
    "threadbare": 25989,
    "ringle": 21039,
    "Ġsiam": 13837,
    "Ġmouthfuls": 20645,
    "Ġquiver": 16002,
    "Ġthe": 270,
    "crat": 24098,
    "Ġshame": 6410,
    "pockets": 16210,
    "Ġflail": 23004,
    "Ġpreluding": 18368,
    "ould": 428,
    "Ġlament": 7856,
    "Ġmaggie": 26291,
    "Ġbankers": 24302,
    "Ġlevel": 5019,
    "Ġsalesman": 13667,
    "Ġsharper": 17179,
    "Ġexam": 3714,
    "dancing": 12452,
    "Ġcaused": 5047,
    "sip": 10725,
    "Ġattacked": 10567,
    "Ġoughts": 23898,
    "Ġshrunk": 16718,
    "Ġrepentance": 15159,
    "ü": 189,
    "neighbours": 24881,
    "humoredly": 26324,
    "faint": 17545,
    "happened": 9432,
    "charge": 9448,
    "Ġreflection": 6440,
    "Ġvii": 13107,
    "Ġassailed": 23175,
    "Ġcognitive": 13633,
    "Ġresolute": 19243,
    "ington": 21300,
    "Ġindomitableness": 26571,
    "cruising": 12277,
    "Ġgrimly": 17052,
    "Ġunceasing": 20356,
    "ii": 4016,
    "Ġvoluntary": 14798,
    "Ġgazes": 24094,
    "Ġadvers": 4886,
    "Ġwearing": 12736,
    "ougher": 18279,
    "mai": 22909,
    "cle": 3958,
    "Ķ": 247,
    "society": 9971,
    "Ġpacked": 9979,
    "pires": 13774,
    "entreat": 17975,
    "articulate": 17397,
    "ists": 4003,
    "Ġconsideration": 5191,
    "germans": 20564,
    "distinguish": 19571,
    "duing": 22408,
    "Ġxerxes": 23409,
    "parted": 21015,
    "Ġtopmost": 14587,
    "only": 3308,
    "ignified": 14490,
    "understanding": 1148,
    "arrange": 23765,
    "leads": 21368,
    "igning": 12678,
    "Ġdistorted": 14249,
    "Ġtropical": 17065,
    "sul": 15421,
    "Ġevince": 24293,
    "precedented": 15173,
    "isms": 12577,
    "Ġcur": 1241,
    "tack": 12510,
    "stove": 21649,
    "Ġticking": 25033,
    "one": 614,
    "wise": 2571,
    "Ġhval": 21485,
    "acon": 10681,
    "Ġperformed": 8547,
    "restored": 18978,
    "Ġcells": 13884,
    "Ġprecision": 13188,
    "Ġperceived": 4713,
    "metic": 14983,
    "Ġcouple": 5423,
    "acquired": 24296,
    "lott": 6650,
    "Ġsuggestive": 11297,
    "rows": 6442,
    "Ġunra": 18234,
    "Ġcontemplated": 13463,
    "Ġleaving": 3908,
    "Ġphotograph": 6302,
    "Ġmethodic": 23111,
    "Ġchronicler": 20228,
    "_.,": 14562,
    "Ġflesh": 5968,
    "Ġindulge": 10582,
    "Ġenlightened": 12743,
    "Ġgrimes": 11034,
    "Ġlifelessly": 23048,
    "Ġsigmoid": 2464,
    "_âĢĶ": 11467,
    "rack": 18010,
    "Ġbefriend": 18081,
    "lakeman": 13750,
    "Ġtopsails": 19192,
    "rential": 22915,
    "Ġprocession": 11770,
    "ift": 1605,
    "Ġthrow": 3787,
    "Ġdefray": 22938,
    "enjoyments": 25433,
    "Ġwheeled": 14138,
    "Ġfeather": 8859,
    "Ġemptied": 24347,
    "Ġloath": 7889,
    "complacency": 19913,
    "Ġphysiogn": 12386,
    "evade": 24820,
    "Ġinevitably": 17230,
    "Ġlens": 8437,
    "iverse": 13114,
    "Ġseem": 914,
    "strip": 19829,
    "Ġperadventure": 22396,
    "Ġflapp": 23005,
    "Ġparticle": 18671,
    "Ġaffectionately": 13167,
    "ilations": 21719,
    "lingering": 18601,
    "ously": 2491,
    "Ġding": 12596,
    "ators": 7829,
    "rust": 2577,
    "Ġbam": 15564,
    "rifled": 21046,
    "furnish": 25338,
    "Ġast": 2958,
    "vice": 15449,
    "Ġdank": 21426,
    "Ġestab": 6315,
    "Ġoverhead": 11768,
    "Ġwash": 9702,
    "Ġatone": 15801,
    "Ġextinct": 14333,
    "Ġcultiv": 13555,
    "ifting": 6545,
    "rally": 17651,
    "Ġfashionable": 19543,
    "Ġinfle": 16365,
    "Ġfisheries": 17437,
    "ã": 164,
    "inders": 15980,
    "rubbery": 17341,
    "Ġsurgeon": 8981,
    "hatches": 19927,
    "Ġjackson": 24240,
    "Ġparticulars": 5754,
    "Ġfacial": 10605,
    "Ġdreading": 23797,
    "Ġbeneficial": 23929,
    "Ġthroats": 24575,
    "Ġimagine": 3927,
    "metallic": 19879,
    "axen": 22518,
    "Ġprestige": 22233,
    "itiousness": 21332,
    "Ġlany": 21551,
    "oboam": 9357,
    "as": 302,
    "aye": 3663,
    "gladness": 25194,
    "ressing": 8918,
    "nav": 17611,
    "Ġstalked": 20427,
    "Ġhotel": 8650,
    "apparatus": 26563,
    "Ġcompensated": 17400,
    "whis": 7897,
    "Ġpia": 21462,
    "Ġparties": 7038,
    "Ġsmoothe": 23654,
    "Ġromans": 16759,
    "Ġvariance": 1167,
    "Ġheroism": 24544,
    "uity": 12515,
    "Ġsprained": 15883,
    "anthrop": 17381,
    "magnet": 14969,
    "jour": 20926,
    "le": 279,
    "for": 963,
    "Ġaccording": 5508,
    "Ġpursu": 3239,
    "rely": 6123,
    "peasant": 23108,
    "Ġcautiousness": 19865,
    "Ġtags": 20570,
    "Ġmadman": 13150,
    "Ġstepfather": 7221,
    "Ġfloated": 7288,
    "ien": 10101,
    "Ġholding": 4978,
    "jephro": 26392,
    "why": 2829,
    "Ġpractice": 2776,
    "gg": 1998,
    "progress": 11986,
    "Ġstrainings": 24627,
    "Ġtrad": 9827,
    "Ġenclosure": 20622,
    "vest": 6230,
    "ume": 4834,
    "Ġsimulation": 2753,
    "Ġpatroness": 13509,
    "Ġhappy": 2467,
    "pleasures": 24046,
    "Ġreusability": 13557,
    "feather": 16037,
    "conclusions": 25672,
    "stolen": 13981,
    "methodically": 20663,
    "aved": 5475,
    "Ġhamper": 19387,
    "Ġstarboard": 7604,
    "Ġthere": 564,
    "Ġarticles": 7108,
    "eld": 965,
    "Ġventured": 7501,
    "Ġgracious": 8846,
    "reading": 12077,
    "tumult": 12421,
    "Ġhears": 8138,
    "Ġgossip": 18469,
    "Ġdad": 12597,
    "Ġretribution": 16281,
    "Ġgret": 21598,
    "Ġscorn": 7901,
    "Ġveil": 7933,
    "Ġoceans": 7995,
    "Ġblended": 16218,
    "Ġaffecting": 2322,
    "ifling": 15781,
    "onstr": 12543,
    "Ġmassive": 9931,
    "ivery": 17572,
    "Ġthickets": 24023,
    "bergen": 14326,
    "ribly": 8254,
    "Ġimpetuously": 20370,
    "Ġjeopard": 9942,
    "already": 6980,
    "lightning": 16551,
    "bale": 20773,
    "Ġball": 3626,
    "ends": 6038,
    "ĠĠĠĠĠĠĠĠĠĠĠĠĠĠĠĠĠĠĠĠĠĠĠĠĠĠĠĠĠĠĠĠĠĠĠĠĠĠĠĠ": 4517,
    "ulates": 14054,
    "neys": 23580,
    "Ġuneasiness": 9483,
    "Ġadmiration": 5328,
    "Ġstaple": 26198,
    "Ġfoundations": 11073,
    "isturbed": 18297,
    "Ġintricate": 15136,
    "Ġtempt": 5565,
    "Ġburn": 3686,
    "Ġadduced": 26524,
    "simp": 17665,
    "Ġjealous": 9468,
    "Ġeluded": 12919,
    "accompan": 11452,
    "ender": 9160,
    "sac": 7140,
    "Ġethere": 23949,
    "Ġclasses": 4055,
    "doing": 8584,
    "etwork": 443,
    "Ġprone": 18968,
    "hen": 3518,
    "Ġinterpret": 5490,
    "Ġobservation": 6597,
    "abomin": 15740,
    "cannibal": 15223,
    "Ġsyntax": 958,
    "Ġfarmhouse": 24984,
    "lod": 15377,
    "icial": 12652,
    "Ġbears": 6829,
    "gale": 13723,
    "Ġexacted": 23601,
    "islands": 21374,
    "71": 20755,
    "Ġprem": 3426,
    "Ġakin": 15495,
    "ancial": 21360,
    "Ġowners": 7662,
    "cing": 1014,
    "umps": 6317,
    "stationed": 25453,
    "Ġflattered": 10374,
    "witness": 10034,
    "Ġalders": 21781,
    "Ġroof": 6564,
    "it": 276,
    "ellation": 12750,
    "Ġwes": 8778,
    "Ġedward": 19119,
    "fal": 17536,
    "Ġwhitney": 11373,
    "Ġ270": 25130,
    "Ġglimmered": 20170,
    "Ġutilize": 4797,
    "ently": 1498,
    "Ġattached": 5392,
    "Ġvehemence": 26566,
    "Ġmassacre": 20546,
    "Ġgout": 21593,
    "Ġtunnel": 14929,
    "Ġsophisticated": 1578,
    "hidden": 17370,
    "Ġvault": 8840,
    "blister": 24128,
    "Ġsuspic": 4470,
    "judge": 13335,
    "emptied": 23634,
    "neg": 12862,
    "Ġgoodly": 22819,
    "Ġengraved": 17081,
    "Ġclouds": 5775,
    "Ġmutter": 23952,
    "delights": 19700,
    "Ġcounties": 23301,
    "Ġbushes": 16399,
    "Ġbert": 4582,
    "Ġwoke": 21288,
    "Ġanimated": 7701,
    "changing": 10854,
    "Ġtartar": 17321,
    "Ġestablished": 9069,
    "Ġlabors": 23327,
    "Ġadvantage": 4316,
    "Ġpup": 12616,
    "Ġfeelings": 2455,
    "whal": 10940,
    "Ġvariants": 1792,
    "Ġmon": 1251,
    "Ç": 136,
    "gives": 15356,
    "9": 29,
    "Ġreduced": 11922,
    "ariously": 18526,
    "Ġsharpened": 17364,
    "tails": 21085,
    "onents": 8776,
    "msprop": 2622,
    "Ġdairy": 20685,
    "ryphon": 4164,
    "Ġken": 22188,
    "Ġbast": 21377,
    "serpent": 16291,
    "Ġjerk": 16950,
    "epilogue": 22103,
    "Ġstony": 21736,
    "Ġaccusation": 22375,
    "vert": 15713,
    "Ġgaiety": 16749,
    "cheer": 9436,
    "Ġresolves": 23646,
    "Ġdiscuss": 9473,
    "Ġcarpenters": 16752,
    "zealand": 26054,
    "Ġabsurdities": 24878,
    "soc": 5175,
    "Ġcocks": 18597,
    "Ġnets": 21521,
    "Ġpretend": 7721,
    "Ġlogs": 16346,
    "Ġbri": 21376,
    "course": 6104,
    "throughout": 24087,
    "Ġhisself": 21911,
    "Ġnoises": 18374,
    "Ġpleased": 4064,
    "ils": 3184,
    "Ġportraits": 20141,
    "worked": 18994,
    "possibility": 13360,
    "Ġcalculated": 4476,
    "Ġprofessions": 11231,
    "mering": 12488,
    "Ġunderground": 18984,
    "fire": 6357,
    "Ġpractical": 3166,
    "88": 20757,
    "Ù": 154,
    "commission": 22815,
    "tears": 11037,
    "Ġnavigators": 19762,
    "rem": 1521,
    "Ġstudied": 11115,
    "Ġbegrimed": 26578,
    "Ġdeceiving": 21835,
    "Ġproposal": 10018,
    "avail": 18604,
    "Ġsympath": 4860,
    "Ġtooks": 23325,
    "assembled": 21542,
    "Ġgrief": 4620,
    "ov": 15400,
    "imony": 12687,
    "Ġla": 5912,
    "Ġattitude": 8902,
    "Ġflurry": 18860,
    "Ġreliably": 22878,
    "Ġgenial": 12192,
    "Ġsituation": 4072,
    "burn": 8370,
    "Ġgunw": 6212,
    "Ġware": 12551,
    "ament": 2441,
    "Ġende": 21929,
    "uling": 2259,
    "Ġpeasants": 12330,
    "rob": 5534,
    "Ġmaimed": 21315,
    "Ġshirr": 18231,
    "riety": 12740,
    "Ġsolid": 6443,
    "Ġjur": 12830,
    "scoured": 22990,
    "Ġvarying": 15809,
    "Ġhindrance": 25220,
    "Ġvessel": 3802,
    "Ġshield": 21996,
    "Ġprecipitous": 24835,
    "Ġrambling": 18636,
    "entered": 8814,
    "ence": 393,
    "Ġattaining": 15802,
    "Ġchalk": 15932,
    "Ġcool": 5734,
    "ý": 190,
    "swelled": 19609,
    "Ġsling": 21219,
    "å": 166,
    "killed": 15375,
    "Ġunique": 12774,
    "Ġmitigating": 1614,
    "Ġleech": 24155,
    "Ġacquisition": 18899,
    "display": 19154,
    "Ġmystical": 12130,
    "Ġinwards": 15619,
    "aby": 18106,
    "Ġbrooks": 25700,
    "neighb": 16022,
    "50": 6784,
    "Ġjud": 3358,
    "wouldn": 23534,
    "Ġsubsequently": 16159,
    "ouncement": 11743,
    "dia": 2133,
    "ativeness": 15520,
    "Ġbashful": 20418,
    "Ġaddresses": 3773,
    "Ġsailed": 4888,
    "bber": 4568,
    "Ġrippling": 17277,
    "Ġme": 351,
    "Ġshipping": 14103,
    "anyone": 16593,
    "Ġpulverize": 23391,
    "Ġlicence": 25096,
    "cross": 3576,
    "adventure": 17233,
    "Ġbiggest": 24566,
    "clair": 18933,
    "masculine": 24387,
    "Ġstudious": 23224,
    "sixteen": 24853,
    "enes": 5218,
    "eronomy": 15524,
    "Ġagreeing": 20017,
    "Ġpenet": 6888,
    "thy": 2932,
    "Ġentries": 22743,
    "Ġdoesn": 7438,
    "Ġprotect": 6337,
    "hauteur": 26391,
    "Ġbrightened": 23826,
    "Ġvoyages": 6908,
    "define": 1525,
    "Ġwight": 12550,
    "detached": 19673,
    "wh": 510,
    "Ġapproximates": 2419,
    "understand": 1132,
    "ordinate": 12872,
    "critters": 14783,
    "andromeda": 21865,
    "Ġtars": 21163,
    "Ġscound": 12834,
    "Ġarrayed": 25664,
    "Ġblankets": 24611,
    "fortun": 3539,
    "Ġspades": 12793,
    "Ġjoes": 19229,
    "Ġnile": 21518,
    "Ġleap": 5824,
    "Ġcocoan": 20315,
    "win": 6801,
    "Ġsucceed": 4545,
    "Ġpaused": 5416,
    "resol": 17760,
    "quimaux": 21856,
    "cri": 17505,
    "95": 17477,
    "Ġscholars": 26112,
    "Ġparamount": 15877,
    "delight": 5344,
    "Ġcorrob": 16263,
    "Ġclinging": 10292,
    "Ġinstability": 3816,
    "Ġapologized": 25198,
    "bantering": 25253,
    "Ġdecency": 18483,
    "Ġsustain": 10016,
    "b": 70,
    "aset": 10832,
    "innocence": 15182,
    "Ġdoct": 4454,
    "Ġconven": 6151,
    "Ġdeep": 820,
    "Ġdestroy": 5772,
    "Ġfeigned": 22205,
    "commendation": 26348,
    "Ġquench": 22416,
    "ap": 546,
    "solut": 3364,
    "Ġbreast": 8968,
    "steak": 14707,
    "steelkilt": 10046,
    "Ġidleness": 11143,
    "Ġsurrounds": 24231,
    "Ġrel": 1097,
    "Ġantichron": 24181,
    "Ġtop": 2472,
    "Ġwriters": 13542,
    "Ġissue": 2310,
    "Ġdependen": 1830,
    "data": 2435,
    "Ġbanquet": 15239,
    "Ġsentry": 19028,
    "Ġunrolled": 22033,
    "Ġmessages": 24981,
    "Ġimprobable": 9790,
    "asiness": 8128,
    "Ġciv": 3309,
    "Ĭ": 237,
    "enced": 4296,
    "ison": 3077,
    "Ġsustained": 13481,
    "nearer": 22447,
    "Ġunsettled": 14121,
    "Ġmur": 2489,
    "Ġundertaking": 8573,
    "Ġboyhood": 23753,
    "thinks": 16641,
    "Ġatt": 773,
    "Ġfog": 9661,
    "Ġwra": 5905,
    "Ġmoment": 987,
    "Ġformerly": 7493,
    "Ġwarbling": 26168,
    "Ġdispleasure": 16051,
    "etting": 21577,
    "Ġtr": 550,
    "Ġindulging": 16904,
    "alas": 8803,
    "Ġpiping": 23211,
    "Ġdeclined": 9920,
    "surface": 10530,
    "almost": 4942,
    "Ġtransparen": 10541,
    "tol": 17672,
    "bour": 2073,
    "Ġreser": 5170,
    "Ġoccurs": 1860,
    "Ġonly": 786,
    "Ġtelling": 5747,
    "recked": 17762,
    "Ġtotal": 4992,
    "Ġhorses": 6385,
    "excuse": 13380,
    "ell": 399,
    "Ġthankful": 14738,
    "Ġ87": 19709,
    "Ġstam": 18065,
    "Ġwept": 7184,
    "Ġexperiments": 23012,
    "sailor": 14714,
    "insensibility": 23067,
    "_.)": 7278,
    "cheered": 23804,
    "Ġdutch": 6327,
    "Ġlie": 4406,
    "Ġshelves": 14998,
    "Ġsmiling": 5474,
    "Ġslain": 8953,
    "scans": 22986,
    "Ġmending": 17804,
    "Ġingrat": 16840,
    "Ġbernard": 20683,
    "Ġcoloss": 11046,
    "gings": 7549,
    "4": 24,
    "hue": 20898,
    "Ġpreferment": 19852,
    "inguished": 6598,
    "Ġcome": 1242,
    "Ġburtons": 19252,
    "Ġmuffled": 10640,
    "Ġthames": 13937,
    "Ġtrembling": 7481,
    "Ġseason": 5238,
    "prior": 21031,
    "Ġfeathers": 15118,
    "Ġtribes": 20479,
    "Ġtimor": 24224,
    "Ġpeeled": 14317,
    "Ġopposite": 5120,
    "Ġmainten": 16114,
    "isis": 12576,
    "theless": 4261,
    "itively": 21329,
    "Ġwater": 1950,
    "Ġmixed": 6974,
    "dee": 11731,
    "Ġjura": 14189,
    "Ġestimated": 16594,
    "conject": 8879,
    "Ġantique": 19550,
    "adequately": 20318,
    "Ġreceives": 20353,
    "them": 3017,
    "cool": 19186,
    "ground": 4671,
    "Ġcatastrop": 3348,
    "shunned": 22464,
    "present": 1136,
    "Ġpaths": 2566,
    "slack": 16894,
    "Ġcaptains": 7457,
    "expected": 5780,
    "Ġ500": 24328,
    "Ġbottles": 16570,
    "rop": 539,
    "Ġsubstant": 14808,
    "wearing": 22684,
    "Ġtwentieth": 18659,
    "Ġhouse": 1505,
    "Ġobstacle": 16955,
    "farm": 15350,
    "sheet": 16285,
    "am": 367,
    "Ġwarnings": 16881,
    "fth": 20855,
    "Ġprovoked": 13324,
    "imperturbable": 25790,
    "prince": 23812,
    "sters": 6391,
    "Ġcalamities": 25699,
    "Ġinfant": 11959,
    "Ġruffled": 25835,
    "Ġscrutin": 26016,
    "Ġtempor": 2366,
    "Ġunfathomable": 20547,
    "Ġborne": 6351,
    "Ġeffectual": 18732,
    "Ġphil": 3386,
    "Ġgreedy": 3056,
    "Ġunion": 6839,
    "Ġthus": 2037,
    "irregular": 21908,
    "istrate": 7406,
    "Ġlandless": 23377,
    "regulated": 23468,
    "uvier": 9068,
    "Ġprecipice": 19939,
    "would": 2351,
    "Ġcaprice": 14577,
    "Ġsarat": 21226,
    "da": 17514,
    "Ġimperfectly": 25727,
    "Ġclerks": 17294,
    "hello": 13362,
    "Ġthyself": 6602,
    "ot": 346,
    "gunpowder": 25339,
    "Ġdisembow": 22534,
    "Ġanswering": 7477,
    "Ġmonarchs": 25846,
    "Ġintellig": 528,
    "hever": 13830,
    "numerous": 17430,
    "Ġbattle": 5907,
    "Ġmarbank": 23034,
    "shaw": 6864,
    "historical": 20464,
    "Ġcalled": 1973,
    "Ġyoked": 15733,
    "lynes": 15702,
    "Ġcareer": 11118,
    "Ġperilous": 7768,
    "aisance": 15073,
    "Ġsignature": 16493,
    "locked": 7677,
    "Ġprophets": 20449,
    "ething": 1600,
    "Ġbrothers": 13176,
    "izer": 2031,
    "Ġagric": 22511,
    "Ġaccommod": 14212,
    "Ġpass": 1040,
    "disposed": 25010,
    "Ġkilled": 4954,
    "Ġdestabilizing": 5052,
    "Ġrouse": 15820,
    "Ġdescent": 1013,
    "Ġcha": 6853,
    "log": 18534,
    "Ġreaches": 18031,
    "Ġunwillingness": 20030,
    "Ì": 141,
    "ox": 9133,
    "Ġanimate": 23421,
    "Ġ*/": 10373,
    "Ġmythologies": 26213,
    "hard": 4689,
    "Ġdecidedly": 9508,
    "Ġcolleague": 17159,
    "Ġreciprocating": 26369,
    "Ġcomical": 11677,
    "Ġcigarette": 20655,
    "Ġthink": 983,
    "Ġdropout": 1556,
    "pretty": 10621,
    "Ġbrook": 13045,
    "Ġdarker": 13118,
    "Ġglaciers": 20172,
    "Ġdetained": 18370,
    "lu": 596,
    "Ġawait": 17073,
    "Ġdod": 6672,
    "Ġladyship": 5045,
    "Ġmannish": 26237,
    "thank": 4949,
    "Ġmaz": 15540,
    "Ġdigging": 14937,
    "Ġgryphon": 4300,
    "Ġungover": 18252,
    "Ġsecondary": 23334,
    ".âĢĶ": 4249,
    "chamber": 13624,
    "mospheric": 17091,
    "Ġug": 8140,
    "Ġplank": 7033,
    "Ġforth": 3464,
    "Ġstoven": 23173,
    "Ġserene": 8166,
    "Ġclinch": 18432,
    "Ġholmes": 1308,
    "Ġcoral": 11920,
    "Ġfalsehood": 10523,
    "obscure": 23095,
    "Ġthreaten": 24374,
    "merely": 16133,
    "Ġextremity": 8988,
    "Ġunited": 6840,
    "Ġcistern": 17380,
    "legged": 10466,
    "etuous": 21580,
    "cst": 10084,
    "roy": 7853,
    "Ġarise": 7895,
    "there": 1424,
    "Ġtender": 5753,
    "housekeeper": 24102,
    "uation": 17694,
    "Ġguess": 4902,
    "bowing": 24454,
    "arter": 17893,
    "Ġmission": 13003,
    "Ġasylum": 13665,
    "start": 7598,
    "Ġbeamed": 23719,
    "coil": 23557,
    "fugitive": 26131,
    "Ġinsects": 25646,
    "plied": 10255,
    "Ġprescribed": 26010,
    "Ġdoing": 3664,
    "driven": 19770,
    "Ġaunt": 3179,
    "Ġlabrador": 23329,
    "Ġembeddings": 2220,
    "Ġtied": 7357,
    "Ġtouches": 20569,
    "xt": 2081,
    "Ġdinners": 23982,
    "Ġhood": 10823,
    "Ġandromeda": 21505,
    "iot": 9600,
    "Ġreturned": 2891,
    "Ġspiced": 22131,
    "haut": 20901,
    "Ġonset": 12708,
    "Ġraging": 14303,
    "Ġdispirited": 23880,
    "Ġinflict": 15001,
    "contempl": 13190,
    "Ġpines": 12614,
    "successfully": 14990,
    "children": 9055,
    "Ġdetermined": 2219,
    "Ġhumph": 22881,
    "Ġsublimity": 26345,
    "ss": 396,
    "Ġcascade": 20579,
    "Ġb": 281,
    "dog": 10692,
    "Ġconvers": 2906,
    "Ġmidships": 23632,
    "Ġdrown": 6815,
    "Ġoccur": 1084,
    "Ġdaggoo": 5441,
    "Ġbo": 795,
    "Ġpleasing": 6190,
    "Ġregards": 16072,
    "Ġcandles": 9907,
    "read": 3275,
    "Ġdepress": 14047,
    "Ġjustify": 11072,
    "Ġscarcity": 23824,
    "iles": 2861,
    "opposite": 19928,
    "crazy": 24691,
    "âĢĿ]": 21812,
    "himself": 3974,
    "oam": 8751,
    "depart": 12263,
    "clopÃ¦dia": 15255,
    "owal": 13995,
    "Ġrollicking": 24451,
    "utional": 17983,
    "catch": 17506,
    "Ġbackbones": 22658,
    "residence": 19263,
    "Ġbounty": 26437,
    "ufact": 10733,
    "turn": 4292,
    "actually": 14294,
    "hastily": 19701,
    "putable": 10901,
    "Ġabominate": 20063,
    "cannon": 22959,
    "Ġsettle": 6293,
    "Ġabstract": 17181,
    "Ġegypt": 9678,
    "alescence": 15923,
    "Ġbrad": 8786,
    "Ġjung": 12832,
    "inition": 11556,
    "Ġconfronted": 23306,
    "doom": 23375,
    "Ġsolace": 16199,
    "Ġsagacity": 16974,
    "waiting": 12218,
    "ascal": 10192,
    "Ġfain": 5808,
    "Ġincorrupt": 19233,
    "customary": 25895,
    "Ġmistaking": 23716,
    "activation": 3231,
    "Ġbuff": 9172,
    "av": 739,
    "Ġoctavo": 15162,
    "iveness": 2469,
    "Ġtip": 15471,
    "killing": 20941,
    "miseries": 16757,
    "Ġaccent": 10293,
    "inhabited": 13619,
    "Ġsleeve": 20139,
    "blacksmith": 17001,
    "Ġchildish": 13135,
    "Ġtone": 4040,
    "note": 14339,
    "heed": 15498,
    "Ġranges": 2883,
    "erm": 785,
    "Ġplow": 21457,
    "five": 6356,
    "companion": 9557,
    "tick": 17678,
    "seldom": 13786,
    "Ġexcell": 10417,
    "Ġobst": 6284,
    "Ġcrucial": 9891,
    "Ġwaistcoat": 12268,
    "daughters": 13465,
    "Ġglistened": 20171,
    "earth": 6502,
    "Ġshout": 4265,
    "though": 2115,
    "finding": 17013,
    "Ġfunction": 591,
    "famous": 16916,
    "Ġextended": 7922,
    "Ġintellectual": 11401,
    "Ġpresto": 22227,
    "Ġstillness": 12991,
    "ibles": 18784,
    "vain": 15447,
    "Ġreverend": 15258,
    "Ġcruises": 23703,
    "Ġperched": 10299,
    "armed": 7252,
    "Ġought": 3419,
    "Ġgateway": 24802,
    "Ġexped": 7650,
    "objections": 19915,
    "Ġdedication": 3304,
    "za": 13809,
    "Ġmerry": 5868,
    "Ġincom": 9768,
    "Ġcountrymen": 23593,
    "Ġsisters": 3643,
    "Ġai": 3130,
    "Ġignorance": 6618,
    "Ġrecursive": 4781,
    "Ġimpassable": 20611,
    "prodigious": 17466,
    "looked": 6083,
    "Ġeducated": 16785,
    "igation": 5917,
    "ision": 1857,
    "Ġextraordinary": 5414,
    "Ġoverall": 4359,
    "compl": 6873,
    "Ġpool": 5173,
    "Ġscrape": 14917,
    "pers": 4337,
    "Ġspark": 6689,
    "Ġwalked": 3143,
    "inaw": 21182,
    "Ġprofuse": 23564,
    "glow": 20873,
    "Ġplainpal": 19277,
    "goodbye": 12054,
    "Ġupbraid": 18318,
    "zas": 17712,
    "pan": 10716,
    "ount": 1110,
    "Ġduodecimo": 16767,
    "Ġintegrated": 13530,
    "Ġheire": 18036,
    "Ġpaces": 13918,
    "Ġbrit": 6289,
    "zes": 11548,
    "Ġexperiences": 13027,
    "Ġsuits": 22073,
    "tw": 2812,
    "mael": 6722,
    "Ġbabes": 24425,
    "Ġherein": 16190,
    "uries": 6147,
    "Ġpals": 13917,
    "throt": 25659,
    "urously": 18049,
    "Ġnormalizes": 1866,
    "Ġredeem": 20498,
    "Ġexpands": 25237,
    "Ġemployment": 8628,
    "Ġmanagement": 8192,
    "causes": 20342,
    "Ġleathern": 15050,
    "arbuck": 2026,
    "Ġsurely": 6307,
    "Ġuncovered": 23430,
    "fashion": 8080,
    "Ġsighing": 18678,
    "speak": 5504,
    "Ġdestination": 19149,
    "queequeg": 4335,
    "Ġmacro": 25939,
    "menced": 23144,
    "Ġentrapped": 26262,
    "adru": 15729,
    "Ġiron": 3235,
    "Ġcourtesy": 9944,
    "Ġchapters": 10473,
    "ised": 1050,
    "Ġskin": 5038,
    "Ġaval": 15493,
    "Ġarchy": 14348,
    "Ġeasily": 3894,
    "Ġblending": 14400,
    "Ġstarts": 16582,
    "Ġunrel": 14695,
    "cked": 2763,
    "Ġinvoluntarily": 8544,
    "xible": 13807,
    "Ġsteep": 2889,
    "Ġaustrian": 24300,
    "Ġhing": 11603,
    "Ġbabel": 24426,
    "Ġleyden": 21744,
    "Ġalert": 18101,
    "Ġanomalous": 25637,
    "iousness": 4898,
    "frequented": 25900,
    "Ġansw": 2202,
    "orne": 17872,
    "Ġagatha": 6866,
    "mped": 16647,
    "ens": 701,
    "right": 2769,
    "Ġfettered": 24568,
    "vember": 10855,
    "Ġoffered": 5816,
    "Ġdelusion": 18974,
    "ishments": 9272,
    "Ġtrait": 23072,
    "Ġmud": 11572,
    "Ġslyness": 25266,
    "Ġwig": 9161,
    "Ġabounding": 12342,
    "tackles": 25624,
    "rebell": 17763,
    "Ġjoists": 19231,
    "constit": 24604,
    "Ġastir": 14640,
    "Ġairs": 14512,
    "Ġexceed": 1345,
    "urbed": 15706,
    "deliver": 19503,
    "Ġparents": 6752,
    "crucible": 24842,
    "earthly": 24724,
    "Ġhedges": 19983,
    "Ġisle": 8832,
    "rear": 21231,
    "Ġreign": 13984,
    "ivot": 11716,
    "Ġprinces": 23221,
    "Ġgravel": 14101,
    "prehens": 9287,
    "Ġstarted": 4150,
    "inquiry": 15141,
    "Ġabominably": 20064,
    "Ġsweating": 16463,
    "Ġcassock": 20485,
    "Ġmouldings": 24737,
    "enge": 21279,
    "Ġxi": 16429,
    "emason": 18186,
    "Ġbir": 17853,
    "Ġcatholic": 20680,
    "Ġwrit": 8241,
    "Ġ55": 24323,
    "Ġnearly": 3363,
    "Ġstoner": 7178,
    "atural": 911,
    "Ġremembrance": 8317,
    "Ġviv": 6156,
    "Ġabide": 14187,
    "Ġtransformers": 1105,
    "Ġdilated": 24704,
    "Ġopenshaw": 7954,
    "Ġwars": 17785,
    "Ġgradients": 610,
    "Ġcounsel": 13614,
    "Ġrepublic": 14531,
    "Ġsheer": 14150,
    "================": 3726,
    "ella": 12749,
    "ursday": 12274,
    "Ġbone": 4694,
    "elt": 4115,
    "Ġcost": 2505,
    "Ġcrowded": 8011,
    "Ġmodified": 14166,
    "Ġdate": 7841,
    "Ġhereafter": 9329,
    "carriage": 9945,
    "Ġessence": 13404,
    "),": 1347,
    "Ġamused": 11797,
    "Ġbrown": 6298,
    "deal": 12796,
    "earliest": 20118,
    "Ġforgiven": 24027,
    "onged": 18410,
    "Ġmizen": 17258,
    "kicked": 20942,
    "ory": 1083,
    "whaling": 7898,
    "Ġthy": 2512,
    "syntax": 5866,
    "Ġgoblets": 20517,
    "tap": 17676,
    "Ġchair": 3665,
    "ray": 2439,
    "ood": 961,
    "Ġincensed": 18571,
    "rep": 5525,
    "Ġburst": 4380,
    "lled": 10107,
    "Ġ(âĢľ": 15994,
    "adding": 21756,
    "Ġcritic": 19124,
    "Ġdeduction": 14900,
    "Ġimper": 4502,
    "Ġscrolled": 22296,
    "Ġcompared": 2227,
    "Ġbaptized": 25774,
    "Ġdawned": 14993,
    "Ġdiary": 24739,
    "impression": 15709,
    "tle": 2410,
    "Ġletting": 10362,
    "deck": 4501,
    "Ġregardless": 19323,
    "Ġchecked": 9374,
    "Ġvinegar": 20098,
    "Ġoppressively": 25712,
    "Ġconversation": 3331,
    "drive": 8682,
    "Ġgale": 5822,
    "Ġbosom": 6939,
    "Ġeul": 21617,
    "closed": 23152,
    "Ġcastaway": 16640,
    "Ġreiterating": 26474,
    "jac": 8381,
    "Ġency": 21930,
    "lemency": 21372,
    "Ġdreaded": 8288,
    "Ġvoc": 4450,
    "flinging": 20867,
    "Ġvanish": 8927,
    "Ġaccelerate": 23226,
    "Ġpremises": 10487,
    "offer": 19060,
    "Ġclung": 10961,
    "Ġimpro": 900,
    "Ġrejecting": 17051,
    "Ġgame": 3631,
    "Ġvehic": 8933,
    "Ġaccidental": 16848,
    "Ġcontr": 1917,
    "ener": 562,
    "chariot": 26479,
    "alleging": 23022,
    "Ġfastened": 7065,
    "Ġtarred": 23607,
    "Ġwandering": 8653,
    "Ġsigned": 11177,
    "Ġequival": 4782,
    "Ġkeenest": 12159,
    "Ġdilatory": 24705,
    "Ġclutches": 20016,
    "cen": 17502,
    "ĝ": 222,
    "mechanical": 25578,
    "Ġelucidated": 26029,
    "Ġreinforcement": 3439,
    "Ġloomings": 24949,
    "Ġpudding": 17915,
    "Ġpreach": 14172,
    "Ġfronts": 20530,
    "Ġretention": 23069,
    "morrow": 4572,
    "urpation": 16300,
    "hee": 10760,
    "Ġskills": 1840,
    "Ġadded": 2718,
    "Ġworsted": 19993,
    "Ġpersecut": 16952,
    "Ġungracious": 18255,
    "Ġnom": 21516,
    "Ġobstin": 14952,
    "Ġscratch": 25566,
    "Ġaccomp": 4712,
    "Ġaspect": 3098,
    "Ġrestrain": 8964,
    "gish": 20872,
    "arctic": 12607,
    "Ġabuse": 18392,
    "Ġstately": 9833,
    "Ġqueens": 16706,
    "Ġtune": 17725,
    "Ġbelike": 18830,
    "Ġbreaks": 13184,
    "Ġcocked": 12901,
    "Ġwert": 12553,
    "Ġniag": 21527,
    "death": 6261,
    "Ġsearched": 15815,
    "confirmation": 26089,
    "Ġintervals": 5598,
    "Ġknocking": 10559,
    "Ġpuff": 6526,
    "Ġporing": 21465,
    "Ġspinal": 12300,
    "Ġneville": 7399,
    "Ġphysiognomy": 25610,
    "deserted": 18959,
    "Ġgrasp": 4663,
    "urn": 776,
    "Ġanvil": 11596,
    "Ġunbelief": 22044,
    "ccess": 3185,
    "Ġsepar": 4002,
    "Ġdisquis": 22524,
    "Ġdisinterested": 16056,
    "garious": 17558,
    "Ġmodular": 12813,
    "ourselves": 9010,
    "Ġeyes": 1335,
    "Ġsomething": 1796,
    "Ġalche": 21780,
    "Ġsant": 21213,
    "impregn": 21711,
    "04": 10679,
    "Ġaccountability": 10438,
    "liking": 22921,
    "prophet": 16181,
    "Ġhauling": 14086,
    "shazzar": 15288,
    "Ġcrystall": 20225,
    "Ġbandaged": 16842,
    "imin": 1768,
    "Ġpickle": 16722,
    "Ġsaturation": 2062,
    "Ġwalrus": 14972,
    "Ġswears": 16464,
    "Ġfolded": 7767,
    "Ġgrammars": 11402,
    "Ġunden": 22008,
    "Ġexhibit": 14955,
    "urning": 12914,
    "venerable": 26408,
    "Ġtransformations": 3485,
    "Ġpuzzling": 14897,
    "inite": 6001,
    "exerc": 16014,
    "Ġchoice": 2163,
    "90": 12430,
    "lest": 5288,
    "horizon": 23613,
    "zors": 21146,
    "Ġcrab": 13142,
    "Ġcent": 3253,
    "Ġscoundrel": 13669,
    "Ġkeeping": 7283,
    "Ġdried": 7367,
    "Ġconsecrate": 26489,
    "Ġaccounted": 10294,
    "hertfordshire": 10936,
    "ify": 1529,
    "Ġridiculous": 10628,
    "cond": 1664,
    "ire": 494,
    "Ġ12": 5483,
    "Ġerrone": 14429,
    "quit": 15760,
    "holloa": 19462,
    "Ġsally": 15502,
    "crossing": 19409,
    "Ġrecovering": 11861,
    "Ġmetallic": 19091,
    "Ġdecanting": 22440,
    "Ġunalterable": 15850,
    "Ġprosecut": 9697,
    "you": 1004,
    "Ġhints": 8429,
    "Ġtranquillity": 7536,
    "Ġlub": 15647,
    "volutional": 1938,
    "Ġtrample": 20326,
    "Ġquarrelling": 13498,
    "complet": 11383,
    "Ġflush": 14423,
    "mon": 2308,
    "Ġfur": 988,
    "Ġfurther": 1057,
    "Ġunholy": 26218,
    "ech": 4389,
    "teness": 23201,
    "Ġimpressions": 9552,
    "Ġleakage": 23458,
    "Ġabreast": 18394,
    "Ġenchantment": 24869,
    "Ġsickened": 16775,
    "Ġviolently": 6456,
    "Ġalarmed": 6923,
    ",âĢĶâĢĺ": 23801,
    "Ġspence": 22124,
    "Ġ120": 16858,
    "Ġunconcerned": 20508,
    "solving": 3101,
    "hist": 7130,
    "Ġtahiti": 13618,
    "Ġunrivalled": 26519,
    "keel": 14130,
    "don": 3544,
    "ez": 5683,
    "Ġsh": 419,
    "mccarthy": 15394,
    "Ġtrespass": 23598,
    "Ġstubbornness": 25380,
    "Ġmechanism": 2375,
    "jeroboam": 25619,
    "Ġconsecut": 18111,
    "consternation": 16912,
    "Ġtired": 9149,
    "Ġlegal": 10439,
    "Ġdiffers": 23780,
    "Ġprecipitate": 19940,
    "lur": 13746,
    "far": 5787,
    "Ġpreliminaries": 25176,
    "yrin": 12519,
    "Ġknelt": 12156,
    "Ġbook": 2703,
    "Ġlegisl": 23533,
    "Ġpenetrated": 13471,
    "Ġunheeded": 18258,
    "ve": 322,
    "mistress": 14904,
    "asion": 5714,
    "Ġanxious": 4518,
    "arian": 10316,
    "Ġmonotonically": 3837,
    "Ġoppressive": 20454,
    "Ġshouting": 10522,
    "Ġtransportation": 13641,
    "visual": 24222,
    "Ġdam": 2213,
    "Ġdiscernment": 15067,
    "Ġnarwhale": 12291,
    "circuit": 24188,
    "Ġrazor": 22642,
    "user": 5105,
    "?": 35,
    "Ġsharks": 4498,
    "Ġlabourers": 23330,
    "Ġnormalizing": 1822,
    "sculpt": 16244,
    "blocks": 25517,
    "presbyterian": 26368,
    "Ġrnns": 2395,
    "Ġpirate": 14996,
    "Ġult": 9074,
    "Ġsublim": 19965,
    "club": 26380,
    "approaching": 15011,
    "Ġworse": 4718,
    "interruption": 20110,
    "pip": 6654,
    "awned": 19458,
    "staking": 21645,
    "Ġoptim": 782,
    "hunsford": 24386,
    "Ġarabic": 24978,
    "Ġabsolutely": 4856,
    "Ġconcuss": 19046,
    "Ġspouter": 12795,
    "Ġpeddler": 24800,
    "Ġeleven": 9388,
    "Ġestimable": 23870,
    "ib": 1235,
    "Ġvictor": 5125,
    "ĠĠĠĠĠĠĠĠĠĠĠĠĠĠĠĠĠĠĠĠĠĠĠĠĠĠĠĠĠĠ": 24443,
    "Ġske": 4814,
    "Ġraises": 11839,
    "Ġmechan": 1186,
    "Ġseething": 18201,
    "Ġsect": 17751,
    "partner": 19220,
    "nable": 13761,
    "alescing": 23864,
    "_.âĢĶ": 23473,
    "Ġluxuries": 25163,
    "Ġacquiring": 2767,
    "vision": 5620,
    "Ġmention": 2986,
    "Ġinitialization": 1252,
    "chambers": 25454,
    "Ġmasterly": 23994,
    "Ġdesc": 775,
    "heavily": 24534,
    "Ġconveniently": 20077,
    "guinea": 16672,
    "ĠĠĠĠĠĠĠĠĠĠĠĠĠĠĠĠĠĠĠĠĠĠĠĠĠĠĠĠĠĠĠĠĠĠĠĠĠ": 14615,
    "super": 5942,
    "Ġdoes": 942,
    "Ġsaddest": 16662,
    "reflections": 24735,
    "ield": 2409,
    "penetrate": 20323,
    "frock": 20119,
    "Ġauthoritative": 19560,
    "Ġeffectively": 2624,
    "Ġfluke": 14673,
    "empty": 23633,
    "Ġcomputational": 1622,
    "Ġbrute": 8926,
    "ier": 1134,
    "sorrow": 12506,
    "Ġglac": 9345,
    "Ġcashier": 20197,
    "Ġfaulty": 14906,
    "ourers": 21447,
    "Ġbachel": 7158,
    "interference": 23735,
    "Ġhover": 15618,
    "Ġidly": 16403,
    "Ġsmacking": 20164,
    "dignity": 15344,
    "impetuous": 23762,
    "partiality": 13159,
    "Ġphant": 7055,
    "itives": 17819,
    "Ġsoap": 14132,
    "Ġpoignant": 22590,
    "strength": 13979,
    "Ġcorpse": 6638,
    "Ġheavy": 3747,
    "Ġfoes": 11949,
    "Ġbench": 7238,
    "harpoon": 9490,
    "ible": 1111,
    "spade": 10339,
    "Ġchamber": 6213,
    "happ": 3106,
    "ustry": 18359,
    "Ġbluff": 16517,
    "connections": 14427,
    "Ġgirls": 4280,
    "Ġfamiliar": 5511,
    "Ġchristmas": 6924,
    "roses": 17956,
    "Ġtraced": 10383,
    "declared": 15117,
    "Ġrecurring": 23231,
    "Ġlies": 5295,
    "Ġembarrassed": 11384,
    "Ġstable": 2699,
    "Ġbeheaded": 11655,
    "designated": 26295,
    "Ġoverwhel": 8195,
    "oology": 21005,
    "Ġprettier": 23764,
    "moved": 9784,
    "Ġcausing": 16357,
    "jected": 22711,
    "functions": 11238,
    "Ġbrougham": 17870,
    "Ġgould": 17989,
    "urp": 1471,
    "Ġdetail": 635,
    "vessel": 11377,
    "Ġstress": 18066,
    "slave": 16895,
    "Ġhelplessly": 20076,
    "Ġ117": 19696,
    "Ġz": 997,
    "endeavouring": 15015,
    "Ġwoe": 4792,
    "ghan": 19453,
    "Ġjealously": 24125,
    "Ġgrasped": 8033,
    "amy": 8467,
    "Ġaccidents": 10295,
    "Ġapprehensiveness": 16877,
    "substance": 15230,
    "reference": 13839,
    "Ġelevation": 14898,
    "Ġbeholding": 8668,
    "Ġnumbers": 2888,
    "Ġvillagers": 19472,
    "Ġleaping": 8340,
    "Ġdifferences": 18714,
    "greater": 13251,
    "Ġushered": 18362,
    "Ý": 158,
    "greek": 25404,
    "week": 12928,
    "Ġrendered": 5773,
    "foot": 9046,
    "Ġtables": 9877,
    "Ġbatch": 889,
    "crowning": 25748,
    "ildad": 3532,
    "Ġul": 6828,
    "Ġstowed": 21733,
    "Ġhabit": 6771,
    "haven": 20911,
    "Ġrope": 4339,
    "valu": 1698,
    "Ġmechanically": 14398,
    "Ġincreases": 3799,
    "clothed": 19737,
    "guilt": 24069,
    "Ġskul": 22793,
    "Ġthw": 21512,
    "sor": 7352,
    "Ġvisits": 8222,
    "bered": 4505,
    "Ġstory": 2901,
    "Ġhowling": 8509,
    "Ġbec": 1350,
    "Ġthinks": 6169,
    "Ġhurried": 4033,
    "acter": 2506,
    "Ġsurpasses": 25268,
    "Ġtimbers": 14838,
    "Ġshutter": 16670,
    "Ġ103": 24411,
    "Ġchurchyard": 16777,
    "Ġanticip": 7507,
    "neck": 14234,
    "Ġcares": 9365,
    "Ġah": 5074,
    "number": 10114,
    "Ġperfection": 19217,
    "asingly": 17960,
    "Ġinvitation": 5189,
    "Ġsoph": 1566,
    "horn": 8085,
    "Ġknowing": 4456,
    "Ġpersonified": 19177,
    "Ġsituations": 10491,
    "Ġshreds": 12767,
    "bennet": 5352,
    "Ġyanke": 18097,
    "Ġprairie": 8712,
    "individual": 18436,
    "Ġamaz": 5385,
    "ader": 14011,
    "negro": 18489,
    "Ġallusion": 7625,
    "Ġwantonly": 22890,
    "Ġeasiness": 23535,
    "Ġlexicon": 25974,
    "utter": 7593,
    "conda": 18992,
    "ball": 7792,
    "Ġservices": 11217,
    "Ġstroke": 6936,
    "Ġspitz": 14148,
    "Ġheadland": 22892,
    "Ġportra": 9008,
    "Ġstep": 752,
    "Ġamateur": 22482,
    "ause": 1313,
    "ger": 1104,
    "Ġsoil": 9254,
    "Ġpaper": 4283,
    "Ġunfav": 14787,
    "Ġpropontis": 17465,
    "Ġscheduling": 2349,
    "quadr": 15762,
    "Ġabsurdly": 19958,
    "Ġcensure": 15094,
    "anybody": 12080,
    "Ġgash": 15669,
    "Ġhistorically": 19376,
    "Ġbanish": 15568,
    "Ġcombined": 8548,
    "Ġreve": 2931,
    "ication": 1003,
    "transform": 8049,
    "ignorance": 17161,
    "Ġresume": 18565,
    "omuch": 21637,
    "Ġresponses": 23647,
    "_)âĢĶ": 20143,
    "Ġ59": 24327,
    "Ġrifled": 21973,
    "iable": 3335,
    "Ġris": 4885,
    "onomy": 12544,
    "Ġunwarrant": 20132,
    "succeeded": 15174,
    "Ġdeaf": 12718,
    "uted": 7592,
    "Ġabject": 18391,
    "Ġhotels": 19535,
    "unworthy": 18161,
    ".,": 5987,
    "Ġcit": 10783,
    "Ġforged": 12701,
    "Ġperempt": 13672,
    "Ġexceptionable": 25503,
    "hearse": 17748,
    "Ġslu": 13835,
    "Ġnapoleon": 20556,
    "Ġpractises": 23323,
    "billiard": 25334,
    "Ġmal": 5221,
    "Ġswearing": 16465,
    "Ġpatentee": 25586,
    "Ġtransformer": 2635,
    "icions": 21560,
    "beheaded": 22492,
    "Ġcausal": 3410,
    "Ġcreat": 1421,
    "atical": 10771,
    "Ġregularizer": 2337,
    "expectation": 14855,
    "Ġpasseng": 12968,
    "Ġparaph": 22117,
    "bearance": 22493,
    "computer": 1983,
    "Ġstoke": 10395,
    "Ġflattening": 26048,
    "pede": 19843,
    "Ġoverbearing": 12839,
    "Ġindec": 13927,
    "Ġunseason": 22047,
    "instant": 8651,
    "problems": 11434,
    "Ġlicense": 20089,
    "garet": 9597,
    "Ġsquad": 22832,
    "calm": 8934,
    "ĠĠĠĠĠĠĠĠĠĠĠĠĠĠĠĠĠĠĠĠĠĠĠĠĠĠĠĠĠĠĠĠĠĠĠĠĠĠĠĠĠĠ": 24209,
    "Ġsteersman": 13039,
    "Ġte": 1182,
    "Ġconsciousness": 9947,
    "instruct": 19541,
    "aling": 1036,
    "Ġdivide": 12108,
    "Ġstoop": 16309,
    "Ġnantucketer": 6914,
    "Ġimpaling": 22380,
    "Ġgurgling": 17445,
    "Ġ123": 24468,
    "surprised": 9530,
    "Ġapparent": 5466,
    "carpet": 25202,
    "Ġhadn": 9718,
    "sequence": 2856,
    "reported": 24493,
    "Ġconc": 1843,
    "Ġframework": 1918,
    "Ġpaintings": 15055,
    "Ġfierceness": 26265,
    "Ġkind": 1785,
    "Ġroving": 22400,
    "mortals": 25409,
    "Ġtroubles": 19437,
    "Ġmain": 808,
    "Ġexcessive": 3895,
    "Ġfift": 6382,
    "travellers": 24318,
    "Ġsavoury": 23875,
    "Ġboiling": 8525,
    "quin": 21850,
    "Ġsummers": 23871,
    "headsman": 16700,
    "Ġmachinery": 20483,
    "atched": 6375,
    "particular": 5757,
    "idirectional": 2422,
    "mat": 2196,
    "phil": 7924,
    "sequ": 2402,
    "Ġarom": 15492,
    "bourn": 3302,
    "Ġforesaw": 19127,
    "Ġcurv": 3511,
    "Ġphys": 5653,
    "folding": 24927,
    "barb": 10080,
    "Ġsetbacks": 11063,
    "headers": 23106,
    "Ġshape": 5639,
    "reporting": 24494,
    "semic": 21817,
    "Ġsolitary": 5854,
    "Ġfestoon": 20293,
    "Ġchord": 22242,
    "Ġgour": 21595,
    "1775": 26378,
    "leather": 13889,
    "Ġencomp": 12960,
    "Ġsoles": 22076,
    "shortened": 24748,
    "ances": 1337,
    "Ġreturning": 5325,
    "Ġain": 6969,
    "Ġhighland": 18712,
    "Ġfiner": 13050,
    "Ġwarden": 17224,
    "20": 20752,
    "injustice": 17737,
    "Ġscriptures": 26236,
    "Ġposterity": 17401,
    "tit": 11527,
    "Ġxavier": 2855,
    "hered": 5623,
    "Ġelevating": 19728,
    "Ġdavis": 25952,
    "Ġhandling": 8912,
    "abby": 14020,
    "Ġoaks": 16933,
    "Ġinteraction": 7424,
    "prehend": 14235,
    "Ġver": 3394,
    "Ġuninter": 18243,
    "Ġsuffice": 18869,
    "confl": 22466,
    "Ġpatches": 4238,
    "Ġdirection": 1793,
    "Ġparent": 14645,
    "Ġlarge": 1067,
    "slightest": 25416,
    "Ġlaurel": 20653,
    "attery": 18492,
    "Ġse": 401,
    "coloured": 7291,
    "Ġtrous": 10955,
    "Ġalien": 14017,
    "Ġpolar": 9410,
    "Ġgood": 998,
    "Ġregion": 2274,
    "Ġuncivilized": 25498,
    "fetch": 12462,
    "Ġgaped": 13966,
    "Ġpicture": 4855,
    "rium": 3135,
    "Ġmethods": 3162,
    "Ġfronted": 25854,
    "Ġda": 5150,
    "Ġexpanding": 25238,
    "Ġlawyer": 10668,
    "hyp": 15365,
    "university": 25983,
    "proved": 11985,
    "Ġ5": 4934,
    "Ġstupid": 7603,
    "Ġwired": 17786,
    "Ġnaked": 8126,
    "Ġwhom": 1833,
    "stamp": 21651,
    "Ġtrunk": 7205,
    "Ġexcess": 3343,
    "card": 11475,
    "study": 15116,
    "Ġbolts": 16943,
    "levi": 7047,
    "inburgh": 15490,
    "Ġinconsistency": 26182,
    "Ġfinds": 6299,
    "Ġcoverage": 4288,
    "Ġopened": 3512,
    "apter": 1195,
    "rail": 10204,
    "Ġindispens": 22951,
    "mology": 12489,
    "venge": 4658,
    "oldened": 22637,
    "Ġinterp": 16068,
    "Ġcamel": 25349,
    "Ġhedgehog": 10644,
    "mend": 20965,
    "Ġparagraph": 17453,
    "Ġindistinctly": 26117,
    "Ġlearned": 2025,
    "Ġwestward": 24389,
    "savage": 15074,
    "Ġsensit": 2944,
    "Ġmyth": 18220,
    "Ġ78": 19612,
    "Ġreserves": 19669,
    "Ġstaying": 8283,
    "Ġseal": 10254,
    "ats": 4254,
    "wound": 21125,
    "Ġtimely": 19593,
    "Ġunimpe": 22067,
    "Ġanticipation": 17057,
    "Ġspecial": 2102,
    "Ġpaltry": 16692,
    "roads": 17957,
    "Ġofficial": 7081,
    "inder": 9152,
    "presumption": 20440,
    "semicirc": 26491,
    "Ġunharmed": 15138,
    "Ġfaded": 10809,
    "Ġresemble": 15691,
    "Ġfewer": 16228,
    "code": 15328,
    "Ġmule": 13861,
    "shish": 11793,
    "ourse": 8869,
    "Ġlengthwise": 10452,
    "Ġgnawed": 25164,
    "Ġtumult": 7114,
    "Ġrewards": 10848,
    "Ġimparted": 15987,
    "Ġprimitive": 25061,
    "^{": 15303,
    "Ġsmo": 2702,
    "Ġencouraged": 9354,
    "Ġunidirectional": 3425,
    "Ġausten": 5880,
    "Ġunequal": 14841,
    "Ġheed": 5630,
    "Ġbrushed": 15569,
    "Ġtickled": 20055,
    "Ġmoodily": 19833,
    "Ġrepulsive": 14530,
    "Ġevident": 6612,
    "Ġtester": 21171,
    "Ġslee": 8974,
    "Ġmysticetus": 24922,
    "Ġproves": 14037,
    "thirty": 12759,
    "Ġregent": 18591,
    "quake": 11679,
    "Ġwhal": 5454,
    "ogy": 22696,
    "backs": 9390,
    "mid": 5617,
    "mild": 15390,
    "coat": 5407,
    "redible": 15803,
    "Ġencode": 4365,
    "unctions": 18155,
    "Ġshy": 10903,
    "difference": 13707,
    "Ġhistorical": 3649,
    "Ġrider": 24185,
    "never": 3154,
    "nur": 11505,
    "bread": 10684,
    "Ġwelcome": 5604,
    "ended": 1836,
    "Ġneighbourhood": 5126,
    "Ġtops": 14586,
    "Ġsmelling": 16065,
    "sleeve": 26108,
    "uture": 1118,
    "Ġundulations": 19514,
    "Ġhorse": 4724,
    "Ġrats": 21970,
    "._": 3220,
    "solely": 19815,
    "france": 24282,
    "tie": 21067,
    "Ġinterconnected": 1338,
    "Ġwarmer": 19184,
    "obli": 23092,
    "Ġacquiesce": 20328,
    "coburg": 13597,
    "Ġsaith": 14155,
    "Ġhorsey": 24249,
    "Ġelevate": 24502,
    "Ġcrashes": 13124,
    "mayhew": 23992,
    "Ġwarmed": 12022,
    "Ġwisest": 11232,
    "Ġgirdle": 19156,
    "grey": 14911,
    "Ġtransient": 18480,
    "Ġcampa": 17173,
    "itect": 994,
    "occupations": 24964,
    "piling": 15415,
    "Ġoutrages": 18414,
    "Ġjavel": 17084,
    "rus": 5929,
    "Ġshaped": 15833,
    "Ġwound": 4528,
    "Ġcusack": 26433,
    "ur": 325,
    "ĠĠĠĠĠĠĠĠĠĠĠĠĠĠĠĠĠĠĠĠĠĠĠĠĠĠĠĠĠĠĠĠĠĠĠĠĠĠĠĠĠĠĠĠĠĠĠĠĠ": 20036,
    "Ġmanif": 8870,
    "Ġtorrent": 17092,
    "Ġspokes": 18313,
    "Ġsmell": 7216,
    "kilt": 4865,
    "changed": 7175,
    "provid": 11149,
    "Ġblaming": 22927,
    "Ġconfirmation": 17210,
    "wrinkles": 16554,
    "Ġmalay": 24391,
    "Ġmagnifying": 16319,
    "Ġprot": 3851,
    "ĠĠĠĠĠĠĠĠĠĠĠĠĠĠĠĠĠĠĠ": 22947,
    "Ġscript": 18407,
    "Ġbelly": 10369,
    "fishery": 10031,
    "Ġdisown": 22521,
    "Ġcommercial": 22671,
    "Ġgraceful": 11296,
    "Ġfelix": 4847,
    "presum": 12866,
    "Ġpersuas": 23944,
    "chors": 11643,
    "Ġdistances": 22500,
    "liness": 8746,
    "barbar": 20237,
    "Ġprec": 2918,
    "Ġdegraded": 19225,
    "ites": 3902,
    "Ġapproximate": 2340,
    "Ġthereby": 7643,
    "commodore": 20624,
    "Ġsultan": 15183,
    "Ġsmite": 22554,
    "Ġflip": 11910,
    "Ġintermediate": 18590,
    "aren": 10073,
    "evil": 11485,
    "Ġsour": 21215,
    "Ġinstructive": 19285,
    "Ġpl": 744,
    "Ġgems": 9208,
    "enari": 21280,
    "Ġmari": 6813,
    "Ġalarming": 14779,
    "rib": 1948,
    "Ġoverwrites": 5032,
    "Ġoverwhelm": 25050,
    "Ġtext": 2270,
    "Ġpos": 1009,
    "Ġesq": 15107,
    "Ġgulp": 20027,
    "Ġberkshire": 16884,
    "Ġhollowly": 24526,
    "Ġpoetic": 17103,
    "Ġlandlady": 10422,
    "Ġsk": 960,
    "sound": 6799,
    "Ġreward": 6144,
    "Ġfruitless": 25605,
    "ural": 502,
    "senses": 25022,
    "Ġpresc": 15924,
    "Ġdoom": 6417,
    "Ġalacrity": 15735,
    "Ġdoubting": 13098,
    "Ġtumbling": 13825,
    "Ġrecom": 4555,
    "irious": 15784,
    "Ġapartments": 19613,
    "Ġbordering": 17228,
    "press": 1729,
    "oon": 6364,
    "Ġhinting": 19648,
    "numbers": 17616,
    "neighbourhood": 10024,
    "Ġlounging": 10021,
    "Ġreddening": 25970,
    "barr": 15319,
    "many": 5250,
    "Ġstrikes": 13182,
    "Ġlocket": 22110,
    "Ġjudged": 12081,
    "Ġordering": 18997,
    "Ġprender": 22232,
    "Ġeverything": 3157,
    "Ġdespaired": 14668,
    "Ġbronze": 22867,
    "coach": 23558,
    "Ġtrophy": 20005,
    "Ġunconnected": 18239,
    "included": 19207,
    "Ġoccupied": 5272,
    "Ġrattled": 15065,
    "aloft": 8806,
    "Ġtrace": 6181,
    "Ġbowlines": 19321,
    "Ġarchitects": 18744,
    "Ġtherein": 11774,
    "Ġtanning": 17729,
    "Ġsoup": 7067,
    "expressed": 9041,
    "Ġwool": 19431,
    "Ġxxxi": 24966,
    "Ġdefe": 21833,
    "Ġhymn": 24518,
    "Ġrept": 13982,
    "placed": 7879,
    "traversed": 19638,
    "atum": 21258,
    "Ġmap": 2392,
    "bedded": 13227,
    "Ġiii": 7860,
    "Ġcircumspect": 15083,
    "Ġsquare": 2398,
    "middle": 11310,
    "Ġoh": 2173,
    "Ġpedest": 14995,
    "broken": 8020,
    "Ġexploded": 15908,
    "Ġcou": 5286,
    "Ġsubdiv": 16158,
    "Ġappeal": 16313,
    "Ġsteadily": 8051,
    "Ġ10": 5249,
    "Ġvor": 15805,
    "ibly": 2995,
    "Ġpads": 21472,
    "Ġstopping": 2751,
    "Ġlamp": 4114,
    "jackets": 24895,
    "Ġ182": 13236,
    "peace": 13046,
    "Ġlibrary": 6423,
    "acetti": 13395,
    "sub": 4659,
    "Ġtug": 11550,
    "Ġapprobation": 10980,
    "desc": 1395,
    "illating": 22104,
    "Ġshipped": 9714,
    "dep": 6786,
    "leaned": 21367,
    "Ġconsole": 8150,
    "faced": 8079,
    "Ġhurtling": 24957,
    "Ġheroes": 10576,
    "Ġatrocious": 21939,
    "snow": 10724,
    "Ġmutiny": 13259,
    "Ġty": 6657,
    "Ġcork": 12566,
    "Ġsquared": 1384,
    "Ġresign": 18564,
    "prim": 23808,
    "Ġinf": 1756,
    "Ġcurving": 16233,
    "Ġtype": 2021,
    "Ġcle": 1512,
    "Ġinverted": 12634,
    "Ġintensified": 17018,
    "Ġdiscipl": 22780,
    "Ġpam": 21452,
    "so": 890,
    "Ġgrease": 26189,
    "Ġshipwreck": 20444,
    "Ġlongitude": 11011,
    "Ġforehead": 5261,
    "Ġvis": 1068,
    "discrimin": 19607,
    "Ġdressed": 5080,
    "Ġencamp": 22799,
    "remarks": 23186,
    "eridge": 15525,
    "Ġloosed": 22109,
    "Ġverte": 9441,
    "Ġaffronted": 22889,
    "joy": 3336,
    "Ġcomplexion": 8209,
    "rigging": 20004,
    "Ġavailed": 23950,
    "Ġhypocr": 19470,
    "culine": 19063,
    "Ġvacant": 9494,
    "Ġmidday": 23631,
    "Ġmastery": 23993,
    "Ġdowry": 20684,
    "Ġconcisely": 19044,
    "choice": 21688,
    "onde": 21250,
    "Ġcustom": 5077,
    "Ġgregarious": 18964,
    "Ġintended": 5548,
    "Ġcredited": 25153,
    "Ġhateful": 19712,
    "Ġrace": 5847,
    "ack": 615,
    "Ġindiscriminately": 20626,
    "Ġtumb": 21168,
    "swiftly": 20550,
    "Ġof": 298,
    "Ġfelt": 1744,
    "Ġdescending": 8904,
    "ootiful": 17372,
    "Ġhandkerchief": 8913,
    "Ġwounds": 17790,
    "vous": 2253,
    "Ġtenement": 23546,
    "ihood": 20921,
    "describe": 1515,
    "joice": 9602,
    "Ġnewfoundland": 26569,
    "mbling": 3346,
    "Ġfatally": 19392,
    "lad": 5991,
    "Ġhearty": 9846,
    "insulting": 26055,
    "landish": 11940,
    "between": 5070,
    "Ġfallen": 5967,
    "apt": 725,
    "Ġ91": 24589,
    "Ġfortunately": 12177,
    "Ġimpl": 7195,
    "Ġsimple": 1617,
    "Ġeconomy": 17200,
    "Ġesquimaux": 25150,
    "Ġsled": 21217,
    "ere": 6789,
    "arms": 10173,
    "Ġwhispered": 5337,
    "elihood": 4622,
    "Ġinsane": 19269,
    "Ġ(`": 12849,
    "raise": 18011,
    "securer": 25602,
    "cart": 10688,
    "Ġties": 12525,
    "Ġsanguine": 25928,
    "Ġsmile": 4272,
    "Ġopportunities": 19248,
    "Ġcables": 15556,
    "dread": 8728,
    "Ġcounterpart": 24721,
    "iffe": 21899,
    "Ġspan": 11727,
    "Ġpart": 859,
    "child": 5538,
    "tackle": 17320,
    "Ġdefy": 11895,
    "Ġropes": 10748,
    "Ġdisgusting": 19893,
    "Ġvalid": 1658,
    "Ġreigns": 21668,
    "Ġ124": 24469,
    "filled": 9594,
    "died": 10693,
    "Ġrealistic": 5860,
    "spark": 18688,
    "aloons": 20009,
    "Ġlists": 11166,
    "Ġadaptation": 3158,
    "Ġkiss": 8182,
    "Ġadvisable": 11442,
    "Ġberyl": 20488,
    "Ġimpelling": 22382,
    "Ġbald": 16206,
    "Ġfloat": 12030,
    "Ġsail": 1670,
    "heaving": 21206,
    "Ġperforming": 7927,
    "Ġnegro": 6447,
    "ister": 1295,
    "nurse": 15207,
    "growing": 13732,
    "ded": 2423,
    "ufactured": 15180,
    "Ġsqualid": 14367,
    "Ġsequential": 2131,
    "zen": 5140,
    "Ġwhereon": 16100,
    "Ġfo": 1648,
    "Ġindolent": 13002,
    "keen": 12783,
    "Ġdevotion": 22715,
    "asht": 4084,
    "Ġmaternal": 11058,
    "Ġpolitic": 23616,
    "Ġnecess": 3476,
    "anzas": 17840,
    "ensical": 18567,
    "Ġcurios": 18846,
    "lands": 8240,
    "Ġperennial": 22691,
    "repugnance": 16864,
    "Ġwant": 1116,
    "Ġfields": 2141,
    "Ġgrassy": 24379,
    "la": 10705,
    "hend": 13252,
    "under": 3134,
    "kitchen": 17585,
    "date": 17517,
    "brother": 7091,
    "Ġcast": 3606,
    "Ġdelicate": 6480,
    "Ġcompression": 18145,
    "Ġthrone": 12211,
    "Ġforbear": 17121,
    "dramatic": 19383,
    "Ġcomplexity": 1694,
    "Ġpioneer": 17918,
    "Ġcheering": 11133,
    "Ġing": 5283,
    "Ġstilly": 25973,
    "Ġverily": 16603,
    "then": 2053,
    "uerus": 26406,
    "em": 391,
    "Ġconvinced": 4206,
    "Ġcordially": 16836,
    "Ġadding": 2404,
    "Ġoutskirts": 17456,
    "Ġhopelessly": 16378,
    "iries": 18167,
    "Ġmathematical": 3351,
    "Ġtattered": 21170,
    "Ġprimal": 17107,
    "Ġassistant": 7298,
    "Ŀ": 256,
    "Ġseeks": 14304,
    "Ġgodfre": 14529,
    "Ġlamented": 24991,
    "Ġinstruments": 12221,
    "Ġhindoo": 17175,
    "agonies": 21906,
    "mont": 19168,
    "Ġalbert": 12703,
    "Ġwaggish": 25434,
    "Ġmediocr": 24084,
    "Ġcheered": 16371,
    "forehead": 8515,
    "lying": 7174,
    "Ġimp": 575,
    "Ġpenalty": 1842,
    "Ġdistinctions": 18532,
    "Ġsleeps": 10446,
    "Ġdupl": 9953,
    "drink": 10595,
    "response": 25762,
    "zed": 8103,
    "glorious": 19365,
    "Ġjob": 7015,
    "Ġslammed": 20446,
    "Ġsundial": 15081,
    "Ġafar": 14291,
    "Ġirresolute": 24916,
    "stood": 4116,
    "Ġforemost": 12003,
    "Ġtons": 11549,
    "Ġword": 1054,
    "Ġsequence": 1976,
    "Ġblinding": 14728,
    "poises": 11887,
    "mush": 20976,
    "Ġsabbee": 17255,
    "minute": 11274,
    "action": 3729,
    "punctual": 26355,
    "acca": 23595,
    "Ġliking": 23589,
    "Ġwhilst": 9218,
    "reception": 15514,
    "wandered": 20284,
    "Ġmerid": 13194,
    "Ġhairy": 23863,
    "Ġmerits": 13195,
    "formity": 10278,
    "Ġgra": 416,
    "Ġmerely": 3775,
    "Ġswim": 3823,
    "Ġ29": 23727,
    "Ġsculpt": 15952,
    "mp": 3730,
    "Ġfacing": 10171,
    "birth": 15321,
    "Ġtal": 7564,
    "felicity": 25140,
    "ampl": 21839,
    "Ġjungfrau": 15247,
    "Ġashen": 21896,
    "osc": 18387,
    "Ġaggreg": 12881,
    "Ġcolossal": 11459,
    "entropy": 1437,
    "Ġbrisk": 9802,
    "Ġcunning": 6238,
    "Ġtreatment": 12069,
    "Ġlunatic": 24990,
    "forward": 2184,
    "Ġdog": 4192,
    "Ġsomehow": 4840,
    "Ġnodded": 11968,
    "Ġrelevance": 5184,
    "Ġsickle": 24245,
    "calcul": 12984,
    "coarse": 16487,
    "fifth": 20145,
    "Ġprobable": 5570,
    "Ġdeceitful": 25733,
    "corrid": 24484,
    "Ġwides": 17788,
    "ous": 477,
    "intended": 11066,
    "conscience": 14859,
    "transformer": 25015,
    "Ġincidentally": 16954,
    "binder": 17499,
    "Ġdetestable": 15097,
    "Ġcongealed": 25981,
    "anx": 8783,
    "Ġemble": 13970,
    "Ġjoking": 12833,
    "brimmed": 14588,
    "results": 20385,
    "ĠâĢľ": 516,
    "Ġparametric": 2397,
    "Ġlazy": 17050,
    "Ġhandsom": 11124,
    "Ġretarded": 23070,
    "Ġeats": 15675,
    "Ġsuperiority": 14617,
    "Ġjupiter": 17455,
    "obtained": 23093,
    "Ġvan": 1089,
    "Ġtoad": 21507,
    "arpaul": 14536,
    "Ġplowdon": 26447,
    "Ġwerter": 15238,
    "Ġruled": 22781,
    "Ġinvoking": 19145,
    "stands": 22427,
    "vine": 10734,
    "Ġlo": 451,
    "Ġsands": 14947,
    "Ġseldom": 4629,
    "ough": 472,
    "Ġdiagon": 24740,
    "Ġcompan": 2170,
    "gabriel": 15359,
    "Ġchances": 9262,
    "Ġviolation": 23404,
    "volume": 18582,
    "atters": 18491,
    "Ġinscriptions": 20007,
    "Ġsubord": 22786,
    "Ġmislead": 22754,
    "Ġcruis": 14624,
    "Ġvoid": 14085,
    "Ġimage": 3403,
    "Ġchimneys": 16972,
    "Ġcomparable": 24278,
    "quer": 11678,
    "Ġindex": 17049,
    "Ġmonitors": 3159,
    "cept": 552,
    "Ġphysi": 9987,
    "Ġunb": 10906,
    "Ġscorch": 20065,
    "Ġshivering": 10265,
    "Ġinflamed": 13472,
    "ange": 1017,
    "simon": 16973,
    "Ġmemoirs": 26204,
    "pretend": 24882,
    "pleasantness": 19769,
    "Ġscho": 4435,
    "pushed": 21022,
    "Ġdespond": 14667,
    "now": 547,
    "arrow": 4180,
    "Ġnomine": 26456,
    "Ġshipmate": 8928,
    "Ġpersuading": 19408,
    "Ġissu": 6253,
    "Â": 131,
    "Ġgreatly": 5849,
    "Ġwounding": 19585,
    "----âĢĿ": 13305,
    "ropri": 2177,
    "Ġroast": 18457,
    "Ġbroad": 3642,
    "accusations": 23597,
    "ð": 177,
    "naturally": 14558,
    "Ġsplinter": 23745,
    "Ġben": 1107,
    "Ġtam": 7821,
    "Ġcommission": 6712,
    "rimsh": 17027,
    "Ġplaced": 3445,
    "Ġsuperst": 7703,
    "Ģ": 227,
    "fright": 9595,
    "Ġfill": 5701,
    "Ġpleasures": 11142,
    "anke": 15559,
    "Ġbarber": 23788,
    "leviathans": 19936,
    "Ġflash": 8229,
    "Ġcust": 11581,
    "lant": 20946,
    "Ġannihilated": 20251,
    "op": 656,
    "Ġ72": 19610,
    "Ġstalls": 25647,
    "ospit": 22259,
    "opp": 6963,
    "Ġsimul": 1807,
    "lings": 8745,
    "Ġbase": 5012,
    "Ġsmiting": 12895,
    "Ġoutrage": 15957,
    "Ġforetold": 23450,
    "gement": 13728,
    "bub": 15315,
    "Ġphren": 8571,
    "Ġquaff": 22411,
    "Ġextravagance": 17279,
    "Ġsufficiently": 8973,
    "eon": 8729,
    "Ġtraffic": 23081,
    "Ġinflex": 20633,
    "ret": 1477,
    "Ġsingle": 1692,
    "unsuitable": 21890,
    "ikes": 8086,
    "window": 7742,
    "Ġlight": 1700,
    "sar": 12502,
    "impregnable": 26481,
    "Ġdevotees": 25376,
    "Ġsuitable": 18276,
    "uther": 8816,
    "itous": 13866,
    "uments": 5552,
    "Ġfrigate": 13080,
    "agrad": 2748,
    "Ġovertook": 18424,
    "Ġwhir": 6393,
    "gno": 13726,
    "cap": 8372,
    "telling": 14439,
    "Ġemig": 14524,
    "shake": 22454,
    "ascar": 8434,
    "strils": 10458,
    "Ġjacobian": 2892,
    "Ġconvey": 9980,
    "fav": 6646,
    "collar": 19327,
    "Ġdrought": 19278,
    "Ġprofoundly": 16859,
    "Ġblood": 3170,
    "Ġdiminished": 16665,
    "gins": 12466,
    "anter": 9166,
    "Ġposs": 1613,
    "Ġtook": 1858,
    "writhed": 26080,
    "accompanied": 12420,
    "Ġcompasses": 11267,
    "Ġaccurate": 13226,
    "Ġunintelligible": 26514,
    "maid": 8552,
    "Ġintent": 6409,
    "effectually": 25128,
    "Ġmonogram": 26574,
    "Ġpassion": 4557,
    "Ġpastures": 23418,
    "ologies": 18768,
    "ateg": 1351,
    "Ġstepdaughter": 22610,
    "attoo": 6807,
    "remembered": 17350,
    "Ġmarks": 6746,
    "hound": 20894,
    "Ġunconquerable": 22058,
    "general": 7489,
    "rudence": 7092,
    "ĠĠĠĠĠĠĠĠĠĠĠĠĠĠĠĠĠĠĠĠĠĠĠĠĠĠĠĠĠĠĠĠĠĠĠĠĠĠĠĠĠĠĠ": 12152,
    "Ġcrouching": 23442,
    "representation": 20195,
    "Ġheels": 10850,
    "Ġcatching": 9477,
    "extensive": 18711,
    "Ġrespond": 11176,
    "kye": 20937,
    "Ġsevere": 6031,
    "overhearing": 19052,
    "Ġmuttering": 10499,
    "Ġgrowl": 16537,
    "Ġhimmalehs": 26230,
    "Ġdir": 21419,
    "Ġtough": 13814,
    "gence": 878,
    "Ġrobes": 16254,
    "Ġbrigs": 20321,
    "Ġdrag": 6184,
    "reast": 17758,
    "Ġburnwell": 13267,
    "Ġhypocritical": 20737,
    "Ġsickbed": 24246,
    "oin": 17617,
    "Ġtrying": 4837,
    "Ġrepay": 19079,
    "Ġinexorable": 12253,
    ".]": 15297,
    "Ġunsav": 18248,
    "amiable": 14052,
    "violent": 14580,
    "Ġdexter": 9700,
    "altering": 12637,
    "**:": 4736,
    "Ġcataract": 23426,
    "Ġways": 5396,
    "gun": 10096,
    "Ġtide": 6658,
    "ule": 6800,
    "Ġutter": 3977,
    "Ġfury": 7660,
    "Ġloom": 7628,
    "Ġglimpses": 13431,
    "Ġsound": 2242,
    "refuge": 24734,
    "Ġshe": 466,
    "foam": 24418,
    "Ġpremature": 3728,
    "Ġgoverning": 2795,
    "Ġcol": 1061,
    "Ġclosing": 11773,
    "Ġbambooz": 26119,
    "considered": 9580,
    "Ġascertained": 25296,
    "fatig": 17089,
    "salis": 25147,
    "Â·": 21148,
    "holland": 24041,
    "Ġtiar": 21166,
    "Ġsure": 1868,
    "Ġilleg": 21615,
    "sharp": 10307,
    "umberland": 16837,
    "fold": 7546,
    "ux": 7813,
    "âĢĶâĢĿ": 3300,
    "Ġepic": 15029,
    "°": 113,
    "Ġdiverse": 19208,
    "great": 3517,
    "wal": 10133,
    "ashing": 4823,
    "Ġrepresenting": 4061,
    "pres": 16024,
    "legs": 13183,
    "Ġplanning": 14751,
    "Ġmarshy": 20217,
    "Ġenhancement": 23754,
    "Ġmouldy": 14973,
    "convinced": 10622,
    "trust": 21077,
    "Ġimpregn": 26022,
    "fedallah": 25522,
    "Ġdown": 831,
    "incredible": 16498,
    "tried": 13793,
    "Ġsocially": 22078,
    "Ġarising": 10933,
    "Ġimbib": 22172,
    "Ġwalled": 15534,
    "Ġinnoc": 3798,
    "Ġhawk": 15172,
    "Ġphilist": 16601,
    "Ġrecords": 12193,
    "Ġsagittarius": 24732,
    "Ġexpon": 967,
    "Ġced": 10784,
    "luyt": 18454,
    "overlooked": 23321,
    "Ġpie": 13914,
    "tent": 21063,
    "ĠĠĠĠĠĠĠĠĠĠĠĠĠĠĠĠĠĠĠĠĠĠĠĠĠĠĠĠĠĠĠĠĠ": 12041,
    "Ġunwilling": 7884,
    "scrape": 25698,
    "unpardonable": 21887,
    "Ġbelf": 21379,
    "Ġopium": 8994,
    "Ġprocesses": 3636,
    "Ġcountryside": 23594,
    "Ġadored": 18291,
    "Ġpeak": 16125,
    "cused": 15331,
    "Ġcholera": 22250,
    "Ġtumble": 16879,
    "Ġscruples": 15077,
    "Ġtort": 5901,
    "sleepers": 24730,
    "Ġdecayed": 22822,
    "Ġbroke": 5322,
    "Ġblubber": 5666,
    "wretched": 10741,
    "Ġsite": 17753,
    "believing": 19460,
    "Ġseparation": 11248,
    "Ġleviathans": 8281,
    "Ġprank": 23217,
    "Ġtent": 15467,
    "signs": 16538,
    "wrapped": 15208,
    "daugh": 6788,
    "ama": 11676,
    "Ġrelations": 5852,
    "Ġsiberia": 26161,
    "sneezes": 11446,
    "Ġrack": 9311,
    "Ġodds": 13328,
    "Ġdidst": 11847,
    "Ġschoolmasters": 19719,
    "Ġcontrived": 10303,
    "Ġcontracted": 12857,
    "abular": 4761,
    "Ġlining": 13950,
    "Ġassumptions": 5517,
    "oforte": 14285,
    "wherever": 13117,
    "Ġtasks": 1789,
    "ladyship": 14828,
    "Ġalone": 2564,
    "etw": 408,
    "Ġ183": 13237,
    "Ġfresher": 23209,
    "instinct": 19542,
    "ized": 1527,
    "Ġele": 1964,
    "ich": 471,
    "Ġdevelop": 1609,
    "feit": 16036,
    "america": 17097,
    "obey": 11509,
    "Ġbrimming": 22866,
    "Ġbat": 10795,
    "Ġcoast": 4655,
    "Ġhandsomely": 25497,
    "Ġcliffs": 15975,
    "opes": 10310,
    "Ġgrew": 5182,
    "Ġagonising": 25373,
    "carefully": 13367,
    "Ġpanthe": 19652,
    "hereditary": 26419,
    "coo": 11170,
    "Ġoccas": 2704,
    "devilish": 17082,
    "flames": 14711,
    "Ġdipped": 15593,
    "Ġdiscern": 7925,
    "shattered": 22458,
    "ivorous": 22084,
    "Ġhyp": 3876,
    "commanded": 16988,
    "Ġexpanse": 14290,
    "lun": 20945,
    "Ġrespite": 13153,
    "penn": 18827,
    "Ġwolves": 25934,
    "Ġgamesome": 17289,
    "ulls": 8837,
    "@": 36,
    "omit": 13973,
    "Ġslides": 18939,
    "Ġtugged": 17288,
    "Ġsmall": 892,
    "sold": 15426,
    "mas": 5212,
    "Ġpitiless": 19386,
    "Ġemergencies": 17361,
    "Ġindic": 2887,
    "Ġstronger": 8578,
    "Ġindebted": 8707,
    "azz": 8261,
    "Ġprevailed": 7777,
    "Ġliving": 3065,
    "Ġsignal": 5944,
    "ls": 1291,
    "Ġadequately": 15197,
    "Ġprocure": 9509,
    "Ġpleases": 16297,
    "Ġtenants": 23545,
    "record": 16921,
    "Ġlinks": 13954,
    "Ġumbrella": 15264,
    "Ġcompose": 12899,
    "Ġangelic": 19626,
    "Ġunstructure": 2994,
    "umber": 5241,
    "mou": 10708,
    "stays": 15687,
    "Ġsweatings": 25710,
    "Ġspeech": 4610,
    "Ġimpossibility": 20646,
    "Ġphysical": 7522,
    "oqu": 7555,
    "gledy": 25403,
    "ding": 1230,
    "lounged": 26133,
    "Ġtraditions": 11443,
    "Ġcalling": 5662,
    "Ġmiscellaneous": 17462,
    "Ġwink": 11568,
    "icilian": 20690,
    "sherlock": 5422,
    "Ġdair": 17889,
    "Ġdiab": 10611,
    "sum": 2087,
    "Ġluxur": 12339,
    "Ġmoved": 4838,
    "nt": 922,
    "Ġserves": 4668,
    "empl": 5724,
    "Ġdisgust": 6705,
    "Ġmaintains": 2144,
    "Ġvibrating": 13537,
    "Ġneck": 4884,
    "smo": 10125,
    "Ġstream": 5186,
    "Ġsteadfast": 8678,
    "Ġsaloon": 24062,
    "Ġselection": 18202,
    "Ġaccompan": 5513,
    "rified": 15419,
    "Ġinformation": 1048,
    "G": 43,
    "princ": 8620,
    "Ġunerringly": 18262,
    "leader": 25351,
    "jury": 15372,
    "Ġreigned": 13986,
    "Ġponies": 21474,
    "Ġdistribut": 842,
    "acknowledge": 18470,
    "Ġarticulate": 24432,
    "Ġpequod": 2321,
    "Ġredeemed": 25789,
    "thest": 11653,
    "Ġresp": 2494,
    "Ġassaulted": 25320,
    "Ġgips": 10841,
    "outh": 2687,
    "elzebub": 26464,
    "ints": 3417,
    "Ġdamp": 8263,
    "Ġrecounted": 22734,
    "Ġlangs": 13953,
    "Ġhelpless": 8301,
    "Ġmadness": 6601,
    "Ġbaltic": 18793,
    "usable": 22276,
    "Ġzig": 18745,
    "black": 6768,
    "isance": 17847,
    "Ġstiffness": 24830,
    "light": 3015,
    "pieces": 8754,
    "suited": 22630,
    "fellow": 6792,
    "Ġnatural": 1096,
    "Ġgoverned": 23569,
    "Ġevangelical": 25506,
    "ridden": 24362,
    "Ġosc": 2835,
    "Ġfleeting": 19326,
    "twice": 14621,
    "sy": 2695,
    "Ġunjustly": 17126,
    "odecimoes": 25318,
    "Ġdial": 10810,
    "Ġcompassionate": 24723,
    "grant": 10427,
    "Ġchain": 1845,
    "Ġcharnel": 22249,
    "fell": 6953,
    "land": 1530,
    "awing": 18915,
    "Ġhawaiian": 25366,
    "carp": 9109,
    "hooked": 23713,
    "Ġadvoc": 12986,
    "Ġhaunt": 18197,
    "weight": 2938,
    "each": 7335,
    "Ġcask": 5527,
    "Ġunfavourable": 17416,
    "Ġwould": 653,
    "lance": 12479,
    "weave": 22682,
    "Ġghost": 6142,
    "Ġhandfuls": 17209,
    "Ġundeceive": 25552,
    "Ġapologies": 25196,
    "Ġlengthened": 25958,
    "Ġconcre": 16386,
    "riving": 21923,
    "swell": 17663,
    "Ġunfrequent": 24110,
    "hate": 20891,
    "ynolds": 10035,
    "Ġordered": 5832,
    "Ġtroubling": 26546,
    "Ġimbued": 17454,
    "orters": 21399,
    "Ġtahit": 10754,
    "Ġcapture": 3385,
    "irably": 13294,
    "became": 10514,
    "Ġradney": 6775,
    "Ġdiscomposure": 20377,
    "ly": 319,
    "staring": 18020,
    "otherwise": 7670,
    "Ġrapturously": 24888,
    "rd": 17649,
    "independ": 15981,
    "pression": 10407,
    "blazing": 24132,
    "Ġunful": 22006,
    "Ġchinks": 22248,
    "Ġomitted": 12561,
    "impart": 21706,
    "Ġfrank": 4419,
    "miserably": 24210,
    "Ġdangers": 12352,
    "mad": 5280,
    "Ġdeacon": 18143,
    "Ġthackeray": 26455,
    "Ġ101": 24409,
    "Ġforgive": 8009,
    "descending": 16284,
    "Ġauthor": 4375,
    "meantime": 9091,
    "hurt": 19877,
    "eye": 6224,
    "Ġflattened": 26047,
    "Ġsettles": 22916,
    "Ġhim": 476,
    "istan": 22105,
    "Ġcrept": 11021,
    "Ġwomen": 4749,
    "Ġfonder": 17880,
    "ophisticated": 22475,
    "»": 124,
    "Ġwell": 901,
    "Ġago": 3138,
    "Ġshake": 6033,
    "ories": 4752,
    "Ġbuzz": 23997,
    "Ġsurp": 9634,
    "Ġbite": 10797,
    "Ġpreser": 6040,
    "Ġ166": 25004,
    "Ġmilitia": 13316,
    "Ġboasting": 19934,
    "Ġsigma": 1539,
    "murmured": 24455,
    "Ġdisco": 3428,
    "Ġcontention": 22423,
    "Ġpredefined": 20716,
    "Ġscowl": 22297,
    "Ġheightened": 8648,
    "pered": 4198,
    "laughed": 20280,
    "banked": 25337,
    "practised": 20246,
    "touching": 15090,
    "Ġcomp": 724,
    "itions": 4148,
    "ration": 2006,
    "Ġcanes": 22160,
    "Ġjoky": 18401,
    "confess": 12173,
    "Ġderiv": 1734,
    "Ġwritten": 4168,
    "Ġparallel": 1414,
    "Ġlofty": 6217,
    "Ġinstance": 2543,
    "Ġprimary": 25060,
    "verd": 21724,
    "Ġsymb": 2588,
    "Ġproblems": 2849,
    "mighty": 9466,
    "figured": 20121,
    "tempest": 16959,
    "blame": 14793,
    "communication": 25881,
    "flutter": 23969,
    "snatched": 24850,
    "Ġlined": 15648,
    "eprints": 12789,
    "sheltered": 25585,
    "Ġseaport": 20598,
    "Ġknee": 7093,
    "youngest": 19742,
    "Ġremark": 2145,
    "Ġvision": 1568,
    "hunters": 16833,
    "Ġsobs": 14134,
    "spond": 5567,
    "ralian": 19599,
    "Ġquivers": 22410,
    "ounced": 4953,
    "Ġlothario": 26184,
    "ables": 7890,
    "Ġconquest": 15746,
    "inioned": 19286,
    "Ġlocked": 6034,
    "Ġmany": 1103,
    "Ġaskance": 23148,
    "Ġlordly": 23741,
    "Ġdistressed": 8514,
    "Ġentire": 2557,
    "Ġitaly": 10867,
    "Ġdeafened": 25651,
    "rity": 13775,
    "dington": 11899,
    "sorts": 21059,
    "Ġnecessitates": 23926,
    "Ġinqu": 2962,
    "dozen": 23376,
    "Ġ*": 1272,
    "Ġprofanely": 23568,
    "Ġtoy": 15632,
    "Ġnewcom": 16221,
    "Ġshouted": 5347,
    "Ġworshipped": 25691,
    "upper": 11538,
    "Ġminimizing": 3466,
    "Ġlastly": 16205,
    "Ġsooty": 25815,
    "Ġburied": 7718,
    "Ġaloof": 21782,
    "gences": 20876,
    "somers": 19366,
    "Ġdawn": 6816,
    "prepared": 13589,
    "Ġgifted": 17996,
    "reas": 986,
    ")(": 2980,
    "Ġselects": 4385,
    "Ġscraps": 16902,
    "Ġdisquiet": 18552,
    "Ġfour": 2212,
    "uge": 4018,
    "ins": 1380,
    "Ġsit": 4216,
    "improve": 15710,
    "Ġple": 1468,
    "Ġadjusting": 3412,
    "thorough": 21982,
    "uned": 21868,
    "anxiously": 15109,
    "ingham": 21299,
    "Ġhailed": 6407,
    "ineff": 21977,
    "Ġenorm": 5302,
    "Ġadaptive": 1326,
    "Ġinvest": 4977,
    "Ġperiod": 4006,
    "Ġinform": 995,
    "Ġdiscompose": 25579,
    "Ġcharity": 8862,
    "Ġcranial": 25592,
    "Ġpowerful": 1499,
    "screwed": 17187,
    "Ġinferences": 17934,
    "Ġsinners": 18950,
    "Ġreleased": 2977,
    "accessible": 13638,
    "break": 6101,
    "Ġeliminating": 20618,
    "tempered": 13445,
    "passage": 11261,
    "Ġdisappears": 18560,
    "Ġthre": 2059,
    "Ġbeef": 6830,
    "father": 3780,
    "ht": 375,
    "Ġhole": 6079,
    "Ġmult": 1022,
    "Ġrobustness": 18883,
    "jure": 20923,
    "Ġoutlandish": 12835,
    "Ġnursed": 16885,
    "Ġxiii": 25591,
    "neighbour": 7211,
    "Ġmedical": 9463,
    "oused": 6556,
    "Ġcub": 8413,
    "Ġlifting": 10196,
    "inj": 9151,
    "meryton": 10111,
    "Ġbitten": 21388,
    "Ġdifficult": 3572,
    "ower": 1028,
    "plumed": 21958,
    "Ġcurtains": 22969,
    "Ġextending": 11024,
    "combe": 7661,
    "besides": 8695,
    "Ġundoubted": 19513,
    "Ġwinding": 8235,
    "reached": 13840,
    "import": 5668,
    "screaming": 20324,
    "Ġday": 957,
    "backpropagation": 11984,
    "rane": 17653,
    "surround": 16758,
    "Ġapproach": 826,
    "Ġrifle": 18214,
    "Ġaye": 3353,
    "precision": 4331,
    "Ġenforced": 21935,
    "Ġsurve": 9873,
    "Ġbulldog": 23857,
    "Ġnumberless": 16414,
    "Ġathe": 17741,
    "Ġtestified": 16322,
    "Ġexplain": 545,
    "compared": 24033,
    "Ġempty": 5353,
    "Ġfertile": 20581,
    "thence": 23398,
    "alling": 6036,
    "Ġretreated": 13432,
    "Ġspirit": 3727,
    "interred": 23734,
    "Ġhastened": 9004,
    "Ġdimensions": 16571,
    "Ġfortnight": 6200,
    "Ġfearfulness": 23512,
    "Ġfountain": 7365,
    "cases": 12445,
    "Ġdivined": 19441,
    "/(": 2981,
    "Ġmccarthy": 5145,
    "Ġendeavored": 19302,
    "Ġoaken": 13864,
    "Ġwhirl": 13448,
    "Ġearnestness": 12123,
    "figures": 20120,
    "distrust": 19569,
    "âĢĶâĢĺ_": 24831,
    "Ġrece": 11637,
    "sav": 8096,
    "Ġforest": 9870,
    "Ġweighed": 8710,
    "Ġboneless": 19604,
    "wore": 21123,
    "Ġreminisc": 18725,
    "Ġatmosphere": 10897,
    "Ġmeasures": 1206,
    "Ġcommitting": 22670,
    "hyme": 19608,
    "iety": 2818,
    "Ġqu": 605,
    "asy": 5294,
    "Ġcentre": 5122,
    "Ġnonce": 23233,
    "Ġfreshly": 23987,
    "ected": 7872,
    "Ġnormalization": 1244,
    "Ġconflict": 17273,
    "Ġdigest": 24647,
    "Ġambitious": 18514,
    "lived": 12484,
    "Ġidentified": 19150,
    "amore": 21840,
    "acific": 4959,
    "Ġnobleman": 19390,
    "giving": 8738,
    "Ġfilm": 23922,
    "Ġadequate": 20307,
    "recollected": 25347,
    "Ġangel": 4851,
    "toed": 18578,
    "mass": 12487,
    "Ġtarget": 2821,
    "Ġatom": 18192,
    "Ġjaws": 5593,
    "igen": 4829,
    "Ġner": 1643,
    "rates": 21037,
    "Ġhelper": 24026,
    "generative": 4330,
    "Ġ1883": 23894,
    "ribe": 1222,
    "oration": 2207,
    "Ġtorm": 5434,
    "Ġlabours": 8582,
    "Ġgard": 2186,
    "Ġentertain": 6053,
    ":âĢĶâĢĺ": 24193,
    "Ġsweeter": 23915,
    "Ġcitadel": 25438,
    "Ġloops": 8852,
    "Ġnind": 17949,
    "Ġfraud": 19010,
    "Ġhellaswag": 24343,
    "Ġsupercil": 23453,
    "Ġtribe": 10751,
    "Ġorgans": 15864,
    "Ġslow": 2379,
    "protested": 13473,
    "bucket": 17493,
    "Ġcorn": 9349,
    "divided": 25018,
    "Ġknighthood": 25297,
    "ivia": 22081,
    "hounds": 20906,
    "Ġimbec": 14156,
    "idual": 1557,
    "Ġfe": 490,
    "Ġstatue": 23147,
    "ete": 9203,
    "Ġwhether": 2002,
    "sometimes": 5971,
    "exercise": 17459,
    "shold": 2773,
    "Ġulster": 14997,
    "Ġdiabolism": 25514,
    "ond": 1160,
    "Ġsuggests": 12198,
    "Ġsurging": 19133,
    "Ġuncounted": 19116,
    "Ġscold": 10951,
    "ith": 330,
    "Ġperfidious": 25666,
    "Ġplush": 18609,
    "Ġce": 3031,
    "Ġwhatever": 3474,
    "Ġparsee": 6413,
    "Ġoverboard": 6043,
    "loun": 17588,
    "apparently": 15203,
    "unc": 15767,
    "Ġhumbly": 16197,
    "Ġtolland": 24988,
    "Ġinhab": 5082,
    "Ġguardsmen": 20629,
    "Ġcanada": 22162,
    "yramid": 8367,
    "Ġtaller": 16688,
    "Ġsurround": 4617,
    "Ġdash": 8121,
    "Ġtells": 9360,
    "igan": 21696,
    "Ġnoise": 1074,
    "Ġorders": 5340,
    "Ġtex": 15472,
    "brill": 16491,
    "gate": 12464,
    "Ġital": 10866,
    "Ġ20": 8613,
    "Ġdeficient": 18825,
    "abash": 18107,
    "Ġwrath": 16316,
    "Ġsubaltern": 22789,
    "crippled": 26384,
    "Ġcommenting": 25228,
    "dÃ¦mon": 17527,
    "Ġappearances": 10451,
    "stars": 18019,
    "Ġcharlotte": 3893,
    "Ġpeaceable": 14723,
    "ubbub": 23241,
    "Ġblacksmith": 6595,
    "Ġdared": 5440,
    "Ġoce": 3030,
    "Ē": 211,
    "Ġmonarch": 14413,
    "Ġtuileries": 24826,
    "harpoone": 6107,
    "Ġalighted": 18103,
    "Ġcharacters": 9370,
    "Ġexploitation": 2347,
    "Ġdomains": 6611,
    "Ġnaturally": 2468,
    "crier": 20819,
    "unexpected": 15776,
    "Ġmeadow": 17151,
    "twain": 23698,
    "Ġwearied": 15792,
    "Ġporch": 19679,
    "Ġbefitting": 15724,
    "Ġthimble": 15635,
    "Ġshrivelled": 19702,
    "public": 17646,
    "Ġjer": 6266,
    "Ġfires": 16472,
    "itted": 2443,
    "Ġirreproachable": 24917,
    "Ġnurtured": 19748,
    "lux": 14226,
    "chose": 18040,
    "Ġscrewing": 20207,
    "Ġparch": 11724,
    "Ġoffic": 3189,
    "Ġbecoming": 4397,
    "Ġprepar": 7896,
    "Ġlac": 17964,
    "Ġsolved": 8931,
    "coronet": 16863,
    "acquainted": 7313,
    "kers": 7132,
    "Ġunde": 11710,
    "Ġfinish": 7948,
    "latitude": 25259,
    "plainly": 11090,
    "Ġdrags": 16941,
    "Ġview": 2762,
    "Ġmexico": 15279,
    "Ġalmanac": 26485,
    "urrection": 12407,
    "beautiful": 10648,
    "Ġcumulative": 4211,
    "Ġchick": 22244,
    "Ġbeaver": 18085,
    "Ġunluck": 8484,
    "rine": 21036,
    "Ġknocked": 9499,
    "Ġclasping": 20208,
    "Ġintegrity": 12311,
    "Ġoutriders": 26543,
    "Ġbristol": 14379,
    "Ġcircumvent": 25064,
    "Ġwilfully": 16766,
    "threat": 10900,
    "pagan": 17285,
    "placidity": 25988,
    "kl": 4864,
    "Ġpaint": 7707,
    "Ġfourteen": 12008,
    "Ġpanic": 11286,
    "wretch": 17708,
    "Ġjavelin": 26104,
    "Ġreservo": 16831,
    "ared": 771,
    "Ġaccompanied": 6780,
    "Ġfelicity": 7260,
    "Ġattorney": 18619,
    "Ġindef": 9189,
    "Ġsumm": 3356,
    "agement": 4188,
    "lace": 13747,
    "mbles": 23086,
    "queer": 10363,
    "soldiers": 25911,
    "ter": 359,
    "Ġquito": 24408,
    "Ġillum": 9399,
    "Ġexhale": 24402,
    "assistant": 25567,
    "hardly": 6491,
    "Ġaccord": 4027,
    "Ġfamine": 16327,
    "Ġdoctor": 5066,
    "Ġswallows": 18881,
    "Ġhom": 9186,
    "Ġmediterranean": 12313,
    "Ġswiss": 18880,
    "Ġsoftly": 7947,
    "Ġawfulness": 23585,
    "Ġdive": 10172,
    "Ġunlo": 22007,
    "rose": 6013,
    "pond": 21012,
    "osely": 9264,
    "Ġmassachusetts": 24022,
    "Û": 156,
    "Ġsee": 801,
    "Ġgemin": 21607,
    "delighted": 10562,
    "Ġceased": 6468,
    "Ġscene": 3099,
    "Ġmourning": 13477,
    "Ġjudgment": 5765,
    "crated": 16696,
    "Ġnephews": 24714,
    "valley": 16213,
    "Ġlucas": 3836,
    "Ġundoing": 22030,
    "Ġproportions": 16468,
    "ni": 1741,
    "Ġcomplaints": 12262,
    "Ġfaire": 13363,
    "scra": 13019,
    "early": 20117,
    "shavings": 22462,
    "Ġbordeaux": 24564,
    "Ġdone": 1818,
    "Ġinstrum": 6054,
    "Ġviewing": 19264,
    "Ġowest": 25091,
    "Ġlucky": 7758,
    "Ġplaces": 5390,
    "quely": 10231,
    "dear": 6555,
    "Ġfainted": 8791,
    "Ġsol": 1102,
    "Ġcrews": 8990,
    "Ġprov": 4400,
    "isl": 21373,
    "Ġpawnbroker": 13657,
    "attend": 11101,
    "Ġhaggerston": 26452,
    "Ġboisterous": 20441,
    "Ġclubbed": 26547,
    "dishon": 20402,
    "ef": 5134,
    "dared": 13701,
    "Ġlaug": 3630,
    "Ġunsc": 22009,
    "õ": 182,
    "iem": 20916,
    "Ġsullen": 9157,
    "ency": 3872,
    "Ġmajestic": 8639,
    "Ġthence": 8881,
    "manifested": 20524,
    "Ġentity": 10342,
    "Ġbrilliant": 11414,
    "rew": 3652,
    "Ġbeard": 11654,
    "Ġinconstant": 21493,
    "Ġbacking": 16116,
    "Ġdun": 6673,
    "duty": 20238,
    "appearance": 5333,
    "Ġplaid": 22598,
    "tumultuously": 25613,
    "wling": 11544,
    "probability": 17022,
    "letters": 13175,
    "Ġlascar": 9199,
    "Ġhastily": 5763,
    "azing": 7704,
    "aired": 8368,
    "Ġtwilight": 16120,
    "yd": 21141,
    "Ġgriefs": 16771,
    ",--": 2478,
    "Ġbump": 9659,
    "Ġbundle": 13425,
    "Ġcluster": 13570,
    "Ġdetailed": 12821,
    "Ġdisapprobation": 16057,
    "erick": 13847,
    "impressions": 20697,
    "Ġboat": 1277,
    "Ġequator": 7461,
    "Ġlabour": 7274,
    "resc": 21237,
    "Ġuniversally": 11998,
    "Ġdates": 6693,
    "unlike": 18156,
    "Ġribbons": 24329,
    "Ġbrush": 17864,
    "Ġsnugly": 17111,
    "blow": 9103,
    "Ġglared": 13015,
    "Ġwarrant": 17794,
    "plicable": 10256,
    "Ġexcite": 11964,
    "sings": 4252,
    "Ġblacksmiths": 19872,
    "poverty": 22904,
    "gging": 7696,
    "gaz": 20877,
    "Ġbracelets": 25502,
    "appalled": 18761,
    "Ġadmitting": 19182,
    "Ġmulti": 1045,
    "Ġslight": 3121,
    "Ġshallow": 14393,
    "whip": 22234,
    "Ġinsertion": 26343,
    "È": 137,
    "Ġprivilege": 11419,
    "Ġplants": 22596,
    "etts": 12657,
    "inu": 1113,
    "Ġenable": 686,
    "Ġwo": 3654,
    "Ġhot": 4258,
    "Ġfruits": 17118,
    "Ġunass": 14112,
    "riminately": 16483,
    "Ġnodding": 23333,
    "Ġentitled": 8538,
    "need": 10979,
    "Ġcertain": 1555,
    "Ġor": 437,
    "Ġbarely": 16936,
    "bulk": 19923,
    "spent": 12939,
    "Ġneglected": 10377,
    "incl": 8109,
    "Ġheavily": 6740,
    "Ġinstantaneously": 23656,
    "Ġgratefully": 20443,
    "ĠĠĠĠ": 459,
    "mic": 12486,
    "approb": 11043,
    "achalot": 15862,
    "Ġunattended": 15842,
    "Z": 62,
    "Ġspoilt": 24807,
    "sweeping": 24618,
    "Ġbig": 5805,
    "Ġruthless": 15284,
    "Ġrecognise": 12040,
    "Ġcooped": 22580,
    "lik": 3919,
    "ositions": 10282,
    "Ġgleamed": 17077,
    "Ġdropping": 7483,
    "fixed": 7548,
    "Ġadoration": 18290,
    "Ġcomputer": 1184,
    "voc": 8393,
    "Ġmagnificence": 20631,
    "ruin": 22179,
    "itime": 15546,
    "T": 56,
    "Ġvaluable": 5608,
    "bit": 3935,
    "Ġblend": 14399,
    "ige": 12677,
    "Ġdigress": 24648,
    "escript": 18471,
    "Ġbeware": 8827,
    "Ġxli": 14542,
    "Ġfundament": 2925,
    "Ġbingley": 1674,
    "Ġurging": 24505,
    "ceptibly": 22343,
    "million": 25751,
    "val": 1162,
    "Ġpedro": 14994,
    "ms": 543,
    "Ġtattooing": 15027,
    "Ġagency": 11803,
    "Ġpronouncing": 16969,
    "charlotte": 6473,
    "Ġselves": 21221,
    "Ġsaintsbury": 26372,
    "childhood": 16868,
    "Ġtheoretic": 23309,
    "Ġrushes": 20506,
    "Ġrokovoko": 22403,
    "Ġgiven": 1623,
    "Ġaverse": 11080,
    "E": 41,
    "Ġcompl": 3764,
    "Ġ126": 24471,
    "Ġtranquill": 6630,
    "ric": 1379,
    "Ġhaunts": 18198,
    "Ġtur": 2562,
    "Ġlow": 1644,
    "Ġsuggest": 5417,
    "allions": 22195,
    "Ġmorrow": 9342,
    "Ġlionel": 25286,
    "Ġglit": 8558,
    "Ġdetest": 8500,
    "Ġarranging": 11174,
    "will": 1969,
    "Ġherb": 15855,
    "igin": 3659,
    "recogn": 13424,
    "Ġchurned": 18385,
    "quietude": 24655,
    "Ġputting": 5326,
    "urons": 3133,
    "knowing": 10437,
    "Ġpicturesque": 14893,
    "throne": 25657,
    "arest": 4007,
    "engine": 18927,
    "reinforcement": 7826,
    "nine": 13760,
    "Ġcurses": 13010,
    "gathered": 13731,
    "Ġnecessitated": 23925,
    "Ġtattooed": 11378,
    "Ġprolonged": 8357,
    "rug": 18342,
    "flaming": 23968,
    "Ġdissimilar": 22528,
    "Ġmock": 3694,
    "Ġcurt": 18842,
    "ixed": 4850,
    "Ġarctic": 12809,
    "Ġwelfare": 12556,
    "uously": 7353,
    "Ġinevitable": 15166,
    "Ġjury": 5378,
    "Ġverge": 23885,
    "eaten": 20343,
    "retreat": 23134,
    "notice": 16146,
    "Ġinvolves": 1041,
    "Ġtwinkling": 12322,
    "phys": 18707,
    "oided": 11508,
    "Ġsur": 2180,
    "who": 2448,
    "Ġhatchway": 13524,
    "Ġlabyrin": 13103,
    "Ġprevailing": 24673,
    "Ġdestroying": 14729,
    "Ġyojo": 7610,
    "ailed": 3246,
    "have": 2058,
    "Ġcollateral": 20070,
    "ab": 345,
    "Ġluxurious": 17310,
    "using": 5468,
    "operations": 19973,
    "winds": 10521,
    "Ġpint": 17909,
    "Ġrascally": 26506,
    "icular": 2024,
    "subsided": 25830,
    "stealthily": 23960,
    "din": 8373,
    "Ġostr": 21323,
    "Ġbre": 1916,
    "Ġknot": 7011,
    "supposed": 13314,
    "scr": 16241,
    "Ġalbatross": 10871,
    "pur": 7806,
    "Ġnervousness": 23554,
    "Ġimbedded": 18332,
    "Ġstrategy": 2341,
    "Ġowned": 11874,
    "Ġlogits": 3451,
    "Ġengagements": 9977,
    "Ġextend": 18692,
    "wild": 8766,
    "ulous": 4449,
    "Ġnarrated": 14870,
    "Ġintruding": 21988,
    "vict": 11540,
    "Ġseized": 4832,
    "Ġrequire": 908,
    "nants": 17613,
    "Ġunhing": 18238,
    "Ġexec": 19491,
    "erably": 7573,
    "breakfast": 8687,
    "elfare": 11775,
    "Ġge": 1979,
    "turbable": 24531,
    "Ġgrazed": 15832,
    "ppered": 15789,
    "hoping": 17566,
    "77": 15299,
    "imagine": 19930,
    "ropes": 7902,
    "acled": 16080,
    "bru": 12437,
    "Ġinventing": 24861,
    "supers": 22631,
    "Ġploughing": 26259,
    "Ġgarments": 15192,
    "Ġpromotion": 23191,
    "uns": 21867,
    "civility": 17513,
    "Ġtinted": 13821,
    "Ġhalloa": 13315,
    "ront": 15418,
    "Ġplied": 22595,
    "Ġpromethe": 14467,
    "grasp": 16430,
    "Ġdeaden": 23459,
    "Ġobscurely": 20187,
    "Ġavocation": 23951,
    "Ġformations": 18750,
    "fear": 8512,
    "Ġunfair": 19506,
    "Ġencounter": 6627,
    "Ġalternately": 15031,
    "Ġvintage": 26209,
    "Ġcandelab": 23846,
    "Ġwindsor": 16887,
    "Ġ90": 24588,
    "Ġalbino": 20501,
    "Ġbuild": 6474,
    "Ġamel": 18510,
    "Ġequinoctial": 20531,
    "Ġinspirited": 23419,
    "Ġbrighter": 16187,
    "Ġhelped": 7459,
    "large": 6625,
    "of": 768,
    "Ġdifferent": 1428,
    "Ġhasn": 12922,
    "Ġoverjoy": 15965,
    "Ġrelent": 18774,
    "irting": 11684,
    "most": 1255,
    "Ġcanst": 8857,
    "Ġcomprehension": 15085,
    "Ġcandidate": 16701,
    "Ġscrew": 8868,
    "wilful": 25086,
    "Ġno": 511,
    "necess": 4895,
    "Ġseclusion": 18206,
    "riv": 3111,
    "Ġhast": 3153,
    "Ġrecess": 10847,
    "Ġrespected": 11950,
    "Ġbelongs": 8014,
    "Ġnext": 2138,
    "Ġindignity": 18833,
    "Ġczar": 12571,
    "Ġexternal": 8364,
    "larking": 17594,
    "misery": 13342,
    "Ġbuoy": 8003,
    "Ġkicks": 19767,
    "Ġpedestrian": 25879,
    "Ġsingular": 4423,
    "Ġgardens": 16453,
    "Ġfeeds": 16433,
    "Ġdaugh": 2293,
    "Ġaccept": 4410,
    "Ġscared": 14191,
    "Ġhoard": 23350,
    "Ġdecorated": 22442,
    "breathing": 25335,
    "Ġappropriate": 2251,
    "ifice": 7198,
    "Ġchat": 6560,
    "Ġimminent": 11245,
    "Ġsec": 2076,
    "Ġtossed": 5815,
    "ator": 1926,
    "Ġjustice": 5111,
    "iminished": 19026,
    "Ġhammer": 6093,
    "orrowed": 19289,
    "Ġdeformed": 14048,
    "ror": 7351,
    "Ġbonnet": 10655,
    "bitt": 17485,
    "ish": 551,
    "ob": 1419,
    "Ġwarmup": 3925,
    "aux": 14288,
    "rable": 11631,
    "Ġconsist": 1936,
    "Ġref": 912,
    "performed": 18339,
    "Ġdiscours": 18717,
    "Ġprotruded": 19468,
    "Ġinstruction": 14343,
    "process": 11148,
    "Ġclam": 7416,
    "Ġequality": 16358,
    "Ġlick": 21547,
    "hypothe": 25905,
    "Ġab": 527,
    "Ġleaders": 16627,
    "Ġalle": 11665,
    "shape": 10984,
    "ß": 160,
    "asper": 7854,
    "Ġboot": 11837,
    "onel": 3092,
    "Ġblush": 14402,
    "Ġreceptive": 1560,
    "Ġmum": 13857,
    "Ġunresting": 25553,
    "infant": 19826,
    "Ġnour": 10830,
    "twist": 23699,
    "degra": 22138,
    "âĢĶâĢľ_": 13203,
    "yingly": 23058,
    "Ġitself": 2521,
    "deliber": 17425,
    "Ġimpertin": 6933,
    "lic": 17587,
    "Ġreasonably": 11086,
    "Ġstrongly": 5657,
    "Ġremorselessly": 16967,
    "terrible": 8465,
    "Ġconclude": 8580,
    "Ġpsychology": 11448,
    "hog": 8379,
    "ulia": 18148,
    "Ġmerest": 14029,
    "cas": 20793,
    "Ġaugment": 8691,
    "wes": 17703,
    "Ġbeautifully": 13266,
    "Ġimmersed": 19483,
    "Ġforfeit": 21772,
    "kn": 5791,
    "Ġhail": 7400,
    "nikin": 23276,
    "destroyed": 15259,
    "weigh": 18665,
    "Ġscales": 4848,
    "Ġdeath": 2043,
    "empt": 2616,
    "ricade": 13036,
    "Ġadvised": 16204,
    "Ġlouisiana": 25076,
    "enit": 17779,
    "Ġbarrier": 16569,
    "athy": 14322,
    "Ġsanta": 26420,
    "Ġtrunks": 15963,
    ";âĢĻ": 15301,
    "Ġsusp": 2661,
    "Ġdire": 866,
    "Ġacceler": 1608,
    "Ġdelight": 2546,
    "Ġannihil": 10174,
    "Ġuses": 1209,
    "hau": 17562,
    "roc": 9674,
    "Ġsquee": 7928,
    "Ġdines": 21421,
    "ask": 857,
    "quietly": 10592,
    "Ġcompre": 4448,
    "Ġstock": 7455,
    "Ġheat": 5453,
    "Ġcorrespondence": 10594,
    "Ġpassing": 4315,
    "alliance": 22197,
    "Ġdescended": 7428,
    "ordinary": 4407,
    "spass": 18687,
    "Ġregimentals": 19857,
    "Ġwilful": 10534,
    "enderby": 25215,
    "Ġcruelly": 13374,
    "Ġhesitate": 16946,
    "twig": 23697,
    "Ġexpression": 4516,
    "?âĢĻâĢĿ": 23641,
    "reement": 15511,
    "wins": 21128,
    "Ġconfeder": 25708,
    "Ġappointment": 10646,
    "Ġcalculus": 23983,
    "Ġescapes": 23507,
    "ception": 6562,
    "avoiding": 25236,
    "Ġlocal": 1200,
    "!_âĢĿ": 11376,
    "udg": 22751,
    "ving": 593,
    "destroy": 19509,
    "Ġskirting": 22794,
    "Ġsecondly": 14519,
    "Ġlimit": 10443,
    "contrad": 19291,
    "Ġjacobians": 2893,
    "Ġrationally": 18215,
    "Ġform": 1023,
    "admiration": 11387,
    "Ġsalut": 10509,
    "utely": 8131,
    "Ġfolio": 11916,
    "Ġloading": 15873,
    "uff": 2733,
    "Ġminiature": 11041,
    "Ġrecommended": 8667,
    "mathematics": 26304,
    "Ġdocuments": 10022,
    "inople": 13828,
    "Ġarticulated": 24433,
    "Ġerred": 21155,
    "...": 24549,
    "Ġfugitive": 17326,
    "pat": 10116,
    "Ġhapless": 15811,
    "infidel": 24663,
    "athies": 22699,
    "Ġliberties": 19666,
    "Ġcraw": 7282,
    "Ġweedy": 15791,
    "ĠĠĠĠĠĠĠĠĠĠĠĠĠĠĠĠĠĠĠĠĠĠĠĠĠĠĠĠĠĠĠĠĠĠĠĠĠĠĠĠĠ": 19581,
    "Ġderanged": 23172,
    "Ġoptimize": 1621,
    "opotam": 22476,
    "Ġmemorand": 23403,
    "Ġdomes": 23657,
    "Ġwicked": 5960,
    "inkers": 22612,
    "ource": 5244,
    "Ġchemistry": 11460,
    "Ġoverladen": 22352,
    "quickly": 14961,
    "Ġwitnesses": 9485,
    "kingly": 20938,
    "peaceful": 20445,
    "produce": 20281,
    "fts": 18696,
    "Ġpince": 21469,
    "Ġdrawling": 19435,
    "µ": 118,
    "Ġwished": 3732,
    "Ġperiods": 13302,
    "Ġxxxix": 24968,
    "repe": 8775,
    "frozen": 25139,
    "dimens": 2316,
    "Ġjerked": 19831,
    "Ġglass": 4369,
    "yellow": 9624,
    "Ġfry": 17879,
    "Ġgenealogies": 25961,
    "charmed": 21693,
    "Ġrepugnance": 19084,
    "com": 993,
    "Ġpostmark": 16725,
    "flow": 2241,
    "Ġtrop": 7565,
    "collected": 13212,
    "Ġtusk": 25425,
    "Ġcharging": 23263,
    "Ġgoblet": 25823,
    "bitts": 26122,
    "isters": 11918,
    "Ġwretchedness": 9026,
    "Ġaltern": 7394,
    "Ġpondicherry": 20489,
    "Ġbetray": 7442,
    "prom": 6509,
    "Ġdiscernible": 15068,
    "southern": 20407,
    "Ġrides": 21968,
    "Ġneeded": 7717,
    "Ġvicissitudes": 12417,
    "hurried": 11353,
    "Ġflood": 7715,
    "turning": 8316,
    "onds": 12992,
    "Ġheadache": 22894,
    "Ġsembl": 19059,
    "believed": 9932,
    "Ġcastaways": 19426,
    "ics": 3256,
    "distinctive": 25726,
    "Ġhedgehogs": 25394,
    "istry": 22106,
    "Ġjump": 4504,
    "Ġfork": 15730,
    "Ġcatches": 23425,
    "Ġinner": 9670,
    "beards": 22490,
    "berries": 22719,
    "Ġasc": 4764,
    "ors": 855,
    "Ġhow": 597,
    "venant": 22624,
    "Ġtouching": 4680,
    "pher": 11511,
    "Ġdeference": 10882,
    "Ġdynamic": 5124,
    "================================": 5671,
    "Ġretreat": 6069,
    "Ġrelates": 12978,
    "Ġaffrighted": 13571,
    "confidence": 16808,
    "Ġyes": 2688,
    "Ġschedule": 2371,
    "aan": 20763,
    "itiously": 13870,
    "speaking": 12096,
    "Ġframed": 19011,
    "Ġconsists": 11976,
    "Ġadvantageously": 19544,
    "Ġscud": 14192,
    "Ġwrists": 11113,
    "fulness": 4310,
    "Ġthom": 21513,
    "Ġrecord": 5316,
    "Ġanonymous": 26178,
    "Ġhomely": 25219,
    "ĠĠĠĠĠĠĠ": 7631,
    "removed": 15516,
    "ispiece": 19724,
    "cular": 15327,
    "ouch": 2780,
    "Ġtube": 15003,
    "Ġinsipid": 26313,
    "spersed": 22731,
    "Ġfulfilled": 11362,
    "Ġglimpse": 6944,
    "Ġgarb": 21600,
    ":--âĢľ": 24550,
    "Ġperfections": 23606,
    "Ġmeal": 9696,
    "Ġbath": 9658,
    "Ġnorton": 12646,
    "than": 4088,
    "miserable": 8656,
    "Ġscarce": 8621,
    "Ġmeanness": 22594,
    "Ġperform": 1037,
    "Ġringed": 16750,
    "Ġcollections": 22854,
    "Ġremot": 8543,
    "Ġmechanisms": 1577,
    "rating": 7808,
    "Ġhandy": 12933,
    "Ġoutstanding": 22313,
    "Ġpupella": 20420,
    "Ġuntimely": 16467,
    "tomb": 21092,
    "Ġfloating": 6604,
    "ute": 4642,
    "Ġcomparatively": 9489,
    "Ġsoften": 23122,
    "Ġwheelbarrow": 17204,
    "Ġbusiness": 2231,
    "Ġinvincible": 23480,
    "french": 9119,
    "idays": 21767,
    "iling": 3095,
    "braid": 17494,
    "beholding": 16041,
    "Ġsocieties": 20181,
    "Ġarrant": 23297,
    "Ġpigs": 19746,
    "ermaid": 14295,
    "Ġdisposing": 19373,
    "Ġarithmetic": 18346,
    "Ġsolomon": 11052,
    "resembled": 21245,
    "Ġvexed": 9993,
    "Ġinquiry": 6484,
    "Ġminimize": 7050,
    "Ġfusion": 21412,
    "Ġmuskets": 17056,
    "Ġcharts": 12824,
    "Ġunderstood": 5655,
    "ricane": 16278,
    "Ġwoll": 21292,
    "Ġchanged": 5243,
    "Ġdivinely": 25723,
    "Ġconsidered": 4611,
    "anations": 12573,
    "Ġicebergs": 23973,
    "ogn": 2514,
    "aries": 6244,
    "Ġuniversal": 2232,
    "consequential": 26250,
    "Ġ95": 19772,
    "again": 3399,
    "etency": 21579,
    "Ġarrow": 10931,
    "snapping": 24849,
    "Ġquality": 3528,
    "uttural": 21586,
    "Ġyielding": 12184,
    "Ġundue": 25993,
    "reck": 9636,
    "Ġhaught": 10252,
    "Ġdefinition": 14404,
    "Ġ89": 19711,
    "Ġswarming": 16272,
    "flies": 19422,
    "Ġshrieks": 12197,
    "Ġble": 5223,
    "Ġcomplaisance": 19447,
    "discovering": 24251,
    "utting": 17984,
    "eter": 11620,
    "fireside": 24692,
    "subs": 14296,
    "Ġramad": 8527,
    "vere": 4882,
    "rin": 10121,
    "Ġmechanical": 7936,
    "Ġiterate": 13200,
    "interested": 9505,
    "hecy": 21205,
    "Ġallows": 3233,
    "Ġdiabolically": 25513,
    "et": 307,
    "Ġjoker": 22285,
    "Ġprior": 11318,
    "otam": 21795,
    "Ġgoes": 3856,
    "Ġpropriety": 10009,
    "Ġeucl": 24709,
    "Ġantagonist": 26328,
    "hester": 9631,
    "Ġfrenchman": 11283,
    "Ġpatient": 6892,
    "profess": 10634,
    "Ġlingo": 24903,
    "labours": 16617,
    "Ġwanted": 4967,
    "Ġregain": 22576,
    "rosings": 15642,
    "Ġstrained": 10218,
    "tremble": 17141,
    "Ġbalm": 22898,
    "Ġhaggard": 17329,
    "Ġprogress": 5022,
    "Ġ1869": 19382,
    "pet": 4866,
    "sky": 12508,
    "Ġstiggs": 25792,
    "Ġfoundation": 4233,
    "Ġhark": 8427,
    "Ġexempl": 21828,
    "Ġpiteous": 17917,
    "Ġacc": 570,
    "Ġkeels": 11060,
    "Ġtens": 17723,
    "Ġfreshness": 23988,
    "Ġspecialized": 3924,
    "nihil": 9854,
    "Ġemergency": 25731,
    "Ġcobweb": 22583,
    "urious": 21700,
    "Ġampl": 22477,
    "Ġguineas": 16269,
    "pane": 10120,
    "Ġfriendship": 7246,
    "Ġprairies": 20019,
    "rative": 17652,
    "lot": 3208,
    "Ġoffering": 3006,
    "U": 57,
    "Ġsphy": 18311,
    "Ġespecially": 3939,
    "ernsey": 8901,
    "³": 116,
    "Ġcrate": 19122,
    "Ġchange": 1996,
    "Ġinfallible": 15069,
    "Ġhaste": 9003,
    "Ġilluminating": 25245,
    "quaker": 15761,
    "Ġcond": 3878,
    "Ġfalse": 4344,
    "Ġsharing": 3477,
    "Ġrekindled": 21674,
    "Ġlances": 6984,
    "Ġhoisting": 9861,
    "ancies": 11583,
    "Ġmildly": 9029,
    "Ġknife": 7309,
    "increased": 20269,
    "Ġtoilet": 13936,
    "Ġdifficulty": 5770,
    "Ġappl": 1737,
    "sheets": 14441,
    "unavoidable": 17389,
    "Ġdoubling": 23317,
    "contin": 16541,
[...]
