{
  "metadata": {
    "vocab_size": 26615,
    "algorithm": "BPE",
    "created_at": "2026-08-25 02:55:48",
    "special_tokens": [
      "<PAD>",
      "<SOS>",
      "<EOS>",
      "<UNK>",
      "<MASK>"
    ]
  },
  "vocab": {
    "Ġprophetic": 20023,
    "Ġoct": 10160,
    "Ġinjurious": 24272,
    "Ġgenus": 24428,
    "unwillingness": 25803,
    "Ġacceded": 22383,
    "attacked": 23127,
    "Ġhas": 826,
    "Ġparadigms": 3058,
    "Ġcollection": 8223,
    "Ġhampshire": 15245,
    "Ġpave": 8803,
    "surv": 24215,
    "Ġapolog": 9045,
    "Ġvibration": 17099,
    "business": 5609,
    "Ġslam": 13062,
    "99": 1896,
    "rarely": 21638,
    "Ġ89": 19715,
    "abroad": 18111,
    "Ġnarrative": 6216,
    "tempestuous": 26098,
    "Ġlike": 667,
    "Ġhint": 5016,
    "Ġtrappers": 23086,
    "lance": 12485,
    "examination": 25479,
    "aried": 10988,
    "Ġspecialized": 3920,
    "rugg": 15905,
    "usation": 18402,
    "Ġconclusions": 10555,
    "wow": 21124,
    "Ġfowl": 11331,
    "ought": 829,
    "Ġexpansion": 22630,
    "hertfordshire": 10937,
    "Ġdistracted": 11807,
    "ston": 15685,
    "ribute": 7226,
    "Ġchiselled": 25560,
    "Ġbalmy": 22910,
    "Ġsystem": 572,
    "jury": 15376,
    "Ġinsanity": 12050,
    "ings": 633,
    "deceptive": 22154,
    "ourable": 4967,
    "Ġharriet": 24572,
    "Ġharrow": 17928,
    "Ġprejudices": 13472,
    "Ġoptim": 783,
    "sweeping": 24620,
    "Ġdemon": 7871,
    "Ġthrobbing": 16899,
    "Ġscept": 15505,
    "reserved": 13845,
    "Ġrails": 22657,
    "Ġapologized": 25199,
    "Ġwhiting": 10860,
    "member": 20977,
    "Ġapprised": 18359,
    "Ġungrateful": 14123,
    "Ġrap": 14306,
    "Ġrecounted": 22742,
    "Ġhis": 380,
    "Ġshare": 1659,
    "Ġintroduction": 8972,
    "Ġquestioning": 10465,
    "Ġpersons": 6181,
    "Ġdisown": 22529,
    "resc": 21241,
    "Ġquee": 1978,
    "Ġfarmhouse": 24989,
    "Ġstrides": 22615,
    "Ġsens": 1852,
    "Ġcomprehension": 15089,
    "Ġroll": 5381,
    "Ġwane": 21291,
    "Ġcircumference": 13547,
    "iem": 20919,
    "rabbit": 20594,
    "Ġreadiness": 13054,
    "was": 1422,
    "olidity": 18135,
    "freely": 16855,
    "ò": 179,
    "Ġforces": 12706,
    "Ġapproxim": 1218,
    "Ġprometheus": 15295,
    "Ġbled": 17858,
    "!âĢĿâĢĶ": 8534,
    "Ġconsp": 10226,
    "backs": 9393,
    "cheerfulness": 20183,
    "sery": 17662,
    "Ġurged": 6781,
    "Ġwhaling": 2782,
    "admire": 24946,
    "Ġcringing": 25942,
    "Ġhorizontal": 7783,
    "hon": 6793,
    "Ġcanes": 22168,
    "duct": 3507,
    "Ġwarmest": 16485,
    "Ġarrowy": 25470,
    "industrious": 26241,
    "inkled": 5477,
    "ilies": 18059,
    "Ġke": 1155,
    "Ġclearer": 16314,
    "Ġgiddy": 20500,
    "footman": 17164,
    "Ġaided": 17746,
    "Ġstockings": 20000,
    "Ġmuslin": 19386,
    "ceptible": 10963,
    "clusion": 16307,
    "attest": 23125,
    "Ġhumanity": 6732,
    "onian": 17768,
    "caroline": 24148,
    "Ġpalpitated": 26086,
    "orted": 4604,
    "bbs": 23695,
    "Ġloaded": 8492,
    "ipagos": 22370,
    "Ġdesperation": 19821,
    "servant": 15037,
    "window": 7743,
    "Ġsails": 5257,
    "Ġresist": 7918,
    "hoped": 20912,
    "aired": 8370,
    "Ġillustrative": 25069,
    "vious": 1783,
    "gpt": 5356,
    "Ġupward": 9723,
    "Ġferguson": 17471,
    "Ġflavor": 16253,
    "Ġrats": 21978,
    "Ġholland": 10367,
    "Ġfe": 491,
    "crop": 20800,
    "Ġvirt": 3907,
    "Ġabhorred": 9510,
    "arch": 1112,
    "Ġindicated": 10470,
    "Ġillustrations": 17108,
    "Ġgamy": 18001,
    "boats": 6205,
    "Ġallev": 18103,
    "utely": 8133,
    "pair": 21014,
    "Ġfood": 5080,
    "Ġbowels": 9432,
    "Ġmanhood": 22331,
    "Ġstrictest": 17042,
    "rers": 14720,
    "Ġpaling": 21466,
    "Ġregarded": 5762,
    "Ġdire": 865,
    "looking": 4030,
    "spending": 18690,
    "Ġregulations": 18593,
    "Ġhelter": 24028,
    "Ġanswer": 2599,
    "Ġnodding": 23338,
    "Ġmahogany": 20581,
    "Ġhandwriting": 14321,
    "Ġobjection": 6586,
    "Ġseethings": 26504,
    "Ġruinous": 24635,
    "Ġphaeton": 17466,
    "Ġcellar": 8060,
    "readers": 23851,
    "Ġdelivery": 18976,
    "Ġmouse": 4695,
    "understand": 1072,
    "admit": 18093,
    "once": 5905,
    "Ġarrogance": 26233,
    "unvarying": 21892,
    "Ġprouder": 18973,
    "ij": 7802,
    "¬": 110,
    "ify": 1475,
    "Ġseparating": 16683,
    "conv": 7212,
    "ifully": 13187,
    "Ġwhereon": 16104,
    "Ġpurchase": 12263,
    "Ġdismember": 20218,
    "Ġaccused": 8509,
    "Ġelusive": 22649,
    "Ġholy": 6592,
    "condite": 23251,
    "Ġbuffalo": 11430,
    "Ġlanded": 7468,
    "condesc": 18504,
    "Ġwoodlands": 23524,
    "Ġprinces": 23227,
    "Ġdescription": 7428,
    "quietude": 24656,
    "Ġpod": 15607,
    "entiful": 10837,
    "Ġelbow": 12924,
    "Ġalleg": 14019,
    "resides": 23675,
    "raise": 18014,
    "akers": 9741,
    "Ġhistorical": 3647,
    "Ġbroken": 3448,
    "andy": 8159,
    "Ġcasement": 25095,
    "Ġmelancholy": 5605,
    "Ġwisely": 13276,
    "Ġcrossed": 6070,
    "Ġgrievances": 20650,
    "Ġloos": 15874,
    "_âĢĶâĢĻ": 13685,
    "cible": 20808,
    "Ġanticipatingly": 26103,
    "Ġsun": 1722,
    "Ġtenement": 23551,
    "Ġinfluenced": 19635,
    "Ġcrosswise": 18887,
    "Ġmonsieur": 12424,
    "Ġgreyish": 24210,
    "Ġhighness": 22776,
    "Ġpairs": 4180,
    "patched": 17644,
    "Ġvehicle": 20141,
    "ograph": 4798,
    "_,": 2798,
    "Ġwired": 17788,
    "Ġwise": 6811,
    "Ġcens": 8415,
    "sip": 10726,
    "itect": 995,
    "hammer": 14490,
    "iteness": 4393,
    "Ġburglar": 17356,
    "Ġdevoted": 6574,
    "Ġexh": 5232,
    "ansion": 10926,
    "tick": 17679,
    "niece": 20997,
    "Ġencoun": 4511,
    "Ġcas": 8413,
    "Ġowl": 20087,
    "Ġcease": 7077,
    "Ġcomplaints": 12268,
    "concealed": 25118,
    "soundest": 24796,
    "Ġbush": 23341,
    "Ġhandful": 9785,
    "uled": 11538,
    "Ġadvance": 5484,
    "Ġvoyager": 16513,
    "icism": 13958,
    "Ġexhibit": 14958,
    "Ġantilles": 24181,
    "Ġlaughing": 5339,
    "Ġinfernal": 11964,
    "arnel": 18130,
    "Ġstaggers": 24654,
    "Ġconsiderations": 9412,
    "Ġdeliber": 7267,
    "leaves": 12582,
    "Ġsli": 4749,
    "Ġstartled": 7083,
    "ilight": 12697,
    "tering": 3807,
    "Ġtwopence": 18660,
    "Ġfelt": 1747,
    "Ġgrace": 5374,
    "Ġunlo": 22017,
    "Ġtwilight": 16124,
    "bug": 17494,
    "Ġstory": 2900,
    "Ġeyes": 1336,
    "Ġsprung": 11249,
    "Ġtricks": 13487,
    "Ġmedical": 9472,
    "Ġskul": 22801,
    "Ġpattern": 1396,
    "Ġsymbols": 2795,
    "fashioned": 9572,
    "Ġnonce": 23238,
    "Ġgesture": 11400,
    "Ġfrantic": 7958,
    "Ġrole": 16000,
    "authority": 13594,
    "Ġproceedings": 9909,
    "Ġimplement": 3011,
    "Ġmilitia": 13321,
    "Ġpedestrian": 25884,
    "Ġlesson": 7275,
    "Ġabhorrence": 9054,
    "overing": 6307,
    "estruct": 22228,
    "Ġimpul": 7208,
    "exagger": 22435,
    "perth": 22181,
    "dwelling": 20567,
    "Ġfing": 3758,
    "Ġexaggerated": 25651,
    "Ġtranqu": 4605,
    "Ġfrowning": 13626,
    "Ġejac": 10205,
    "custom": 15335,
    "rating": 7809,
    "Ġlit": 6247,
    "Ġdiffident": 23786,
    "Ġkeep": 2357,
    "Ġcongratulations": 10582,
    "Ġindomitableness": 26572,
    "charles": 14701,
    "Ġaudacity": 19884,
    "itated": 4440,
    "Ġperplex": 2714,
    "Ġhistor": 3391,
    "Ġangrily": 9409,
    "sl": 5794,
    "Ġstreaming": 19676,
    "ostentatious": 20654,
    "Ġblow": 3375,
    "Ġrans": 21971,
    "Ġyour": 635,
    "olence": 10232,
    "Ġterror": 5124,
    "Ġyell": 21782,
    "advise": 24219,
    "excited": 13383,
    "Ġmeetings": 16534,
    "Ġroast": 18458,
    "Ġringing": 13335,
    "Ġreligions": 20111,
    "pherd": 13647,
    "Ġshortened": 23484,
    "based": 2957,
    "oused": 6557,
    "!âĢĶâĢĻ": 23567,
    "Ġinsignificant": 20459,
    "Ġmonarch": 14418,
    "idation": 5022,
    "ad": 337,
    "Ġtremor": 24767,
    "appin": 18760,
    "Ġpre": 507,
    "Ġsultanism": 25889,
    "Ġtumult": 7115,
    "Ġobliged": 4285,
    "Ġpalp": 11251,
    "awed": 10393,
    "Ġforlorn": 14017,
    "asible": 21546,
    "Ġhorr": 3191,
    "Ġsurpassing": 20471,
    "Ġsparkling": 11357,
    "Ġcot": 13879,
    "muring": 17602,
    "Ġsubdued": 11031,
    "ayed": 12716,
    "Ġjo": 2609,
    "umps": 6318,
    "Ġwhom": 1831,
    "dz": 4740,
    "Ġrev": 6988,
    "Ġsigmoid": 2464,
    "Ġeight": 3901,
    "Ġshell": 11739,
    "Ġpurposed": 23555,
    "Ú": 155,
    "Ġfabulous": 25949,
    "op": 654,
    "Ġprodig": 6029,
    "Ġannouncement": 14835,
    "Ġflap": 14424,
    "ople": 2321,
    "Ġinform": 993,
    "voc": 8395,
    "Ġgroves": 16741,
    "Ġwow": 15531,
    "kne": 20937,
    "://": 11466,
    "Ġpleasantly": 14521,
    "kington": 11203,
    "pride": 11211,
    "ivable": 10911,
    "Ġcontradicted": 20214,
    "Ġannual": 14834,
    "asting": 12810,
    "Ġreefed": 20305,
    "prosperity": 20737,
    "wife": 8102,
    "Ġdared": 5440,
    "john": 11499,
    "writ": 16554,
    "Ġforever": 14554,
    "Ġphrenologically": 20397,
    "cks": 3081,
    "wished": 13807,
    "Ġlim": 2381,
    "formity": 10280,
    "Ġinvol": 1053,
    "Ġconcluding": 9859,
    "Ġfidelity": 15244,
    "Ġhug": 6979,
    "opy": 4458,
    "Ġweakened": 16824,
    "written": 7996,
    "americans": 25046,
    "Ġpeasants": 12335,
    "wanted": 10744,
    "rade": 9681,
    "Ġformidable": 8221,
    "ores": 2412,
    "ondon": 2705,
    "Ġstage": 7388,
    "irs": 14073,
    "Ġunsuccessful": 18258,
    "ulus": 21869,
    "autumn": 23346,
    "Ġbroker": 23106,
    "Ġheard": 1402,
    "felicity": 25143,
    "Ġdoings": 18377,
    "offing": 23336,
    "untary": 9869,
    "oms": 4594,
    "Ġdynamic": 5122,
    "Ġmultitudinous": 26275,
    "Ġspokes": 18314,
    "Ġavocation": 23956,
    "abhor": 12711,
    "pronouncing": 25194,
    "phant": 6288,
    "ortations": 22264,
    "stayed": 25291,
    "Ġunkindness": 22047,
    "Ġcetace": 14990,
    "Ġsells": 21226,
    "Ġbreezes": 14871,
    "listened": 15045,
    "Ġacid": 22686,
    "adopt": 25545,
    "Ġalive": 4399,
    "Ġhumorousness": 25378,
    "eck": 20846,
    "Ġfern": 21410,
    "Ġsentry": 19025,
    "Ġplowdon": 26448,
    "Ġtunnel": 14932,
    "Ġabstract": 17183,
    "Ġmisgivings": 15293,
    "Ġkilling": 13336,
    "assist": 11771,
    "carte": 25401,
    "Ġflat": 8229,
    "Ġdrows": 21439,
    "shell": 16289,
    "Ġundressed": 19516,
    "Ġsimil": 2532,
    "Ġmoulded": 16976,
    "Ġcreator": 7253,
    "Ġinj": 4761,
    "Ġabstracted": 17184,
    "Ġslumbers": 18944,
    "Ġeffort": 8204,
    "cast": 2925,
    "papers": 12505,
    "Ġunconditional": 15847,
    "hav": 20899,
    "poss": 4779,
    "inv": 8403,
    "squee": 15432,
    "Ġshifting": 12772,
    "ze": 1305,
    "Ġway": 1087,
    "Ġdaggoo": 5441,
    "Ġroving": 22408,
    "Ġimpl": 7194,
    "Ġsperma": 19050,
    "vast": 10737,
    "Ġinfallible": 15073,
    "Ġfirm": 3870,
    "Ġpaved": 17915,
    "Ġmathematical": 3352,
    "street": 6495,
    "forming": 15919,
    "Ġbutts": 15858,
    "irm": 3108,
    "Ġdisease": 14259,
    "Ġfluid": 11213,
    "Ġgord": 21604,
    "client": 18934,
    "Ġperpet": 7644,
    "driver": 14923,
    "Ġodd": 6626,
    "Ġwell": 901,
    "Ġhud": 10823,
    "Ġthither": 6820,
    "Ġsocks": 14135,
    "useness": 22297,
    "Ġcompliance": 12118,
    "disciple": 16779,
    "Ġraises": 11848,
    "Ġapparition": 8068,
    "wedding": 12525,
    "Ġsally": 15504,
    "cor": 5520,
    "Ġacre": 22685,
    "sticking": 21658,
    "Ġrobert": 10971,
    "Ġscotch": 12213,
    "Ġmilky": 9949,
    "Ġrucastles": 18721,
    "apes": 9743,
    "Ġimperial": 9483,
    "Ġinaccessible": 13936,
    "Ġascertain": 9708,
    "Ġunfl": 22025,
    "Ġvane": 22880,
    "Ġpaused": 5416,
    "Ġstrict": 7220,
    "thorough": 21987,
    "Ġgardener": 19136,
    "Ġnomine": 26457,
    "commencement": 26350,
    "mical": 9130,
    "Ġslices": 23170,
    "ived": 1534,
    "Ġdevouring": 11861,
    "Ġblot": 9814,
    "Ġarchbishop": 18723,
    "Ġpennies": 17272,
    "Ġunheeded": 18262,
    "Ġplanning": 14753,
    "Ġsending": 8779,
    "Ġdisembow": 22542,
    "conditionally": 24835,
    "castle": 3351,
    "Ġmutual": 8298,
    "Ġproceed": 3246,
    "Ġpunctures": 25136,
    "Ġexclaim": 11222,
    "Ġsale": 14156,
    "Ġafresh": 18629,
    "spermaceti": 12197,
    "Ġthrust": 5084,
    "Ġswinging": 7448,
    "Ġ17": 5740,
    "ology": 1536,
    "erve": 12553,
    "iature": 8745,
    "mp": 3729,
    "Ġravings": 18647,
    "adays": 14015,
    "hercules": 22211,
    "james": 15375,
    "Ġswelling": 11928,
    "Ġbones": 4584,
    "Ġpunchbowl": 20234,
    "Ġslanting": 23177,
    "M": 49,
    "Ġsoo": 15864,
    "Ġapplied": 6187,
    "Ġvictor": 5125,
    "ornamented": 26596,
    "Ġwhal": 5454,
    "Ġclose": 3038,
    "Ġcoincid": 20320,
    "Ġxx": 5492,
    "Ġlearns": 2642,
    "Ġprophes": 16351,
    "exposure": 19259,
    "amusement": 15285,
    "Ġinvis": 6901,
    "Ġruth": 14095,
    "expectations": 24278,
    "rospect": 11614,
    "Ġready": 3399,
    "ckets": 6842,
    "Ġdinn": 23984,
    "Ġsharpened": 17367,
    "liament": 16220,
    "Ġeyel": 17096,
    "Ġtwin": 12932,
    "bots": 10084,
    "Ġfrozen": 9015,
    "Ġarticles": 7109,
    "Ġbounding": 19403,
    "warmth": 20056,
    "Ġfresh": 3671,
    "Ġpeas": 8535,
    "Ġimpat": 4456,
    "Ġprivacy": 19527,
    "moored": 22710,
    "Ġlantern": 7117,
    "Ġfulfilment": 20190,
    "Ġforbearing": 25101,
    "bourn": 3304,
    "Ġappeals": 16319,
    "sters": 6391,
    "Ġglim": 9346,
    "Ġfriend": 1295,
    "Ġintelligible": 15944,
    "Ġextinction": 14342,
    "yourselves": 24961,
    "Ġlouis": 8358,
    "Ġvoluntarily": 12144,
    "Ġfeelings": 2452,
    "Ġrecre": 22741,
    "Ġcritic": 19123,
    "Ġjup": 15955,
    "Ġdivineness": 25724,
    "emotions": 15798,
    "lion": 20946,
    "Ġresuming": 12897,
    "Ġbumpkin": 20203,
    "divided": 25021,
    "Ġprepare": 8650,
    "Ġminimize": 7051,
    "Ġspur": 18304,
    "chastic": 2336,
    "ignific": 11958,
    "totally": 25418,
    "osures": 22266,
    "canonical": 22967,
    "Ġdevout": 14329,
    "provid": 11150,
    "Ġarsacides": 17296,
    "anted": 5027,
    "indifferent": 14210,
    "Ġunquestionable": 26223,
    "representing": 25272,
    "Ġale": 9156,
    "Ġ57": 24320,
    "Ĭ": 237,
    "Ġselfishness": 12292,
    "Ġadmin": 23556,
    "iled": 1765,
    "Ġjoists": 19235,
    "usions": 6160,
    "Ġknights": 15152,
    "houn": 20895,
    "Ġprecautions": 23729,
    "thousands": 16871,
    "Ġpays": 13300,
    "Ġsche": 1705,
    "Ġgrenadier": 21620,
    "Ġnovelties": 24777,
    "Ġdiminish": 14747,
    "Ġreasonably": 11091,
    "mitting": 20975,
    "Ġstar": 6024,
    "Ġsurface": 5119,
    "Ġegyptians": 25290,
    "captain": 3952,
    "fi": 12465,
    "into": 3682,
    "pitchpoling": 25725,
    "Ġburgled": 23658,
    "nursery": 26400,
    "pit": 3980,
    "Ġvainly": 9926,
    "Ġexecution": 6926,
    "onged": 18411,
    "rix": 1572,
    "Ġmutters": 23959,
    "Ġresolution": 5500,
    "believed": 9935,
    "Ġground": 2845,
    "unciation": 25983,
    "resist": 8277,
    "Ġfevers": 22214,
    "Ġglances": 10374,
    "mospheric": 17091,
    "Ġsight": 2110,
    "bb": 2799,
    "Ġcausal": 3412,
    "Ġlaboratory": 13615,
    "Ġarms": 3964,
    "name": 6795,
    "Ġupwards": 7633,
    "Ġthank": 3792,
    "Ġmonitors": 3158,
    "Ġsalary": 13297,
    "Ç": 136,
    "Ġtangles": 25762,
    "add": 5229,
    "slipped": 25530,
    "Ġmales": 17807,
    "Ġsymmet": 11750,
    "Ġconnectivity": 3668,
    "Ġtire": 17721,
    "irth": 5634,
    "sincerely": 24586,
    "Ġfee": 7198,
    "Ġstepmother": 16093,
    "Ġunrelieved": 20548,
    "Ġbash": 12590,
    "vapor": 25756,
    "Ġgipsies": 12411,
    ".âĢĶâĢľ": 20749,
    "Ġexerted": 15758,
    "Ġconf": 1820,
    "Ġspat": 2662,
    "pl": 402,
    "Ġcordial": 16836,
    "Ġdesol": 6880,
    "Ġadmeasurements": 26227,
    "Ġwad": 13853,
    "Ġbaked": 21389,
    "sample": 12510,
    "forgot": 11034,
    "Ġdeficiencies": 26571,
    "Ġfaults": 12216,
    "Ġethiopian": 26614,
    "Ġprincip": 5599,
    "Ġlances": 6984,
    "Ġthames": 13940,
    "89": 20761,
    "Ġdies": 11595,
    "Ġoutrid": 22320,
    "Ġparis": 8180,
    "appearing": 14638,
    "Ġbordering": 17230,
    "Ġsurvive": 9069,
    "Ġutility": 23515,
    "Ġunaware": 22064,
    "expressive": 24306,
    "Ġcarving": 14445,
    "Ġmournful": 12339,
    "Ġefficiently": 3615,
    "Ġkeys": 11999,
    "bib": 17493,
    "Ġplanisphere": 26608,
    "Ġflask": 3041,
    "Ġbolted": 12248,
    "Ġshock": 6083,
    "occasionally": 13523,
    "Ġdashing": 8799,
    "Ġcarried": 3695,
    "ensils": 22554,
    "philosophy": 13583,
    "studies": 25170,
    "bill": 10078,
    "Ġgermany": 25786,
    "Ġestablishment": 13582,
    "Ġhoe": 23355,
    "Ġguilty": 7249,
    "elastic": 17983,
    "Ġmakest": 25436,
    "Ġhorses": 6385,
    "Ġreplen": 11116,
    "Ġtroubles": 19442,
    "Ġsecrecy": 7315,
    "Ġringleader": 26214,
    "breeze": 20565,
    "Ġlaughed": 5059,
    "Ġappetite": 12387,
    "Ġwestward": 24388,
    "nowledge": 10291,
    "Ġyourself": 2593,
    "Ġcarpet": 9358,
    "Ġrestlessness": 23295,
    "notwithstanding": 22753,
    "F": 42,
    "Ġdistrusting": 25056,
    "Ġdons": 17890,
    "rival": 12747,
    "Ġdestiny": 8985,
    "whence": 23220,
    "Ġanno": 9669,
    "counterpart": 26361,
    "Ġgamb": 18000,
    "ans": 458,
    "libra": 22929,
    "Ġeuroclydon": 15299,
    "snap": 24849,
    "Ġscrewed": 15123,
    "Ġwatching": 4856,
    "Ġcruel": 5121,
    "Ġintercourse": 11000,
    "Ġrevel": 9216,
    "Ġfootpaths": 26319,
    "Ġdedication": 2944,
    "bec": 4050,
    "Ġrobust": 1393,
    "Ġshaved": 22007,
    "Ġunmindful": 22071,
    "Ġthunder": 4825,
    "Ġgleaming": 24998,
    "pend": 6367,
    "Ġpap": 8801,
    "shud": 18494,
    "Ġprompted": 23820,
    "Ġmoral": 6580,
    "Ġsigh": 10338,
    "Ġwrenched": 12562,
    "lad": 5993,
    "Ġstepfather": 7221,
    "congenial": 25400,
    "Ġpatter": 846,
    "Ġarab": 7824,
    "rut": 8093,
    "Ġineff": 12638,
    "Ġomens": 21331,
    "Ġstrongly": 5657,
    "Ġgeneva": 5450,
    "Ġsalesman": 13671,
    "anish": 2616,
    "Ġcombinations": 22879,
    "Ġpreventing": 885,
    "surgeon": 24216,
    "Ġaccur": 3612,
    "continuance": 19721,
    "humorously": 24023,
    "Ġconcealment": 16915,
    "Ġenveloped": 12212,
    "Ġnatural": 1103,
    "Ġforward": 1838,
    "Ġstating": 15725,
    "romang": 22010,
    "Ġrealities": 18982,
    "Ġforgot": 4685,
    "itive": 6670,
    "Ġsincerely": 7964,
    "Ġentranced": 25836,
    "ivation": 3110,
    "susp": 10598,
    "Ġdatasets": 2389,
    "eager": 12463,
    "Ġjoyously": 19350,
    "preser": 9761,
    "Ġforced": 4353,
    "latter": 15385,
    "Ġhousehold": 8570,
    "ĠâĢĶâĢĶ": 25758,
    "Ġele": 1962,
    "Ġi": 312,
    "Ġinterruption": 9475,
    "Ġunfavourable": 17419,
    "design": 19343,
    "Ġtiar": 21170,
    "invest": 11561,
    "Ġinsurgents": 26601,
    "Ġspeak": 2228,
    "Ġwar": 5526,
    "Ġpassages": 12974,
    "benefit": 24643,
    "Ġconcealed": 7494,
    "reader": 23850,
    "races": 21634,
    "Ġheadache": 22905,
    "Ġsheep": 10927,
    "features": 14809,
    "oky": 8199,
    "morn": 20978,
    "laz": 15388,
    "erting": 17778,
    "Ġstraw": 9431,
    "iqu": 7803,
    "Ġadmitting": 19185,
    "Ġmeagre": 21818,
    "Ġmr": 661,
    "Ġpremium": 23908,
    "rel": 3755,
    "rer": 3624,
    "ifications": 9731,
    "Ġkeepers": 23542,
    "pets": 17637,
    "Ġmarshalled": 25316,
    "Ġslavish": 23178,
    "Ġnightfall": 23136,
    "Ġdrag": 6185,
    "Ē": 211,
    "Ġpurport": 14582,
    "Ġcharity": 8865,
    "Ġcalls": 6745,
    "Ġsullen": 9159,
    "calmed": 16206,
    "Ġmur": 2490,
    "Ġmean": 742,
    "Ġcanvassed": 19938,
    "Ġvindication": 25365,
    "Ġafghan": 22633,
    "fr": 4805,
    "Ġsuspicions": 9481,
    "Ġremove": 7498,
    "irement": 18356,
    "bur": 4688,
    "istry": 22114,
    "Ġpipe": 4321,
    "Ġbrah": 19360,
    "Ġann": 4489,
    "oped": 6048,
    "ored": 3895,
    "Ġbennet": 1573,
    "alley": 23026,
    "ably": 1847,
    "Ġfantastic": 10061,
    "floated": 24644,
    "Ġobscured": 15012,
    "Ġwrinkles": 8573,
    "Ġslides": 18941,
    "ć": 200,
    "igning": 12685,
    "Ġunsavory": 20709,
    "Ġmurmur": 14590,
    "Ġinduced": 8674,
    "Ġreverber": 19871,
    "Ġdecl": 3590,
    "Ġjavan": 25002,
    "Ġrudeness": 17126,
    "metals": 24765,
    "Ġsheepfold": 25467,
    "Ġgums": 21615,
    "osy": 11761,
    "oga": 22699,
    "seven": 8465,
    "Ġinjustice": 9192,
    "):": 11462,
    "Ġsoothingly": 25050,
    "rum": 3469,
    "Ġcourage": 4635,
    "Ġprobed": 18734,
    "southern": 20412,
    "Ġutter": 3972,
    "Ġrejoicing": 13424,
    "extra": 8220,
    "Ġinherited": 25354,
    "Ġhissed": 15792,
    "Ġspeechless": 13357,
    "Ġcetacea": 20556,
    "Ġintending": 11708,
    "Ġgift": 10841,
    "Ġallowance": 14391,
    "Ġstratag": 26029,
    "Ġinterview": 9772,
    "gallantry": 15062,
    "Ġpagans": 16923,
    "Ġprofessional": 7298,
    "Ġimple": 1786,
    "speeches": 25240,
    "Ġst": 332,
    "Ġessays": 19747,
    "Ġdozing": 22248,
    "Ġthickening": 24027,
    "opes": 10312,
    "fitzwilliam": 11353,
    "Ġcabaco": 13170,
    "remains": 10400,
    "Ġcurve": 22970,
    "inating": 9155,
    "Ġopal": 23628,
    "Ġrecollect": 8311,
    "Ġanalyze": 1580,
    "istle": 15873,
    "Ġum": 10213,
    "chronicle": 26481,
    "Ġdubious": 17385,
    "Ġattempted": 8002,
    "Ġclear": 1949,
    "Ġtink": 9150,
    "Ġassembly": 10644,
    "Ġconstables": 19072,
    "Ġtumble": 16880,
    "Ġhead": 1126,
    "razor": 21641,
    "Ġstalked": 20432,
    "Ġoutputs": 2884,
    "seems": 10876,
    "Ġoutlandish": 12842,
    "Ġirre": 7467,
    "alo": 7587,
    "threshold": 21989,
    "soc": 5175,
    "Ġestimated": 16595,
    "approb": 11043,
    "danced": 20830,
    "pinn": 21028,
    "Ġspace": 1498,
    "dismal": 23499,
    "Ġcontinued": 2920,
    "interchange": 23741,
    "eringly": 23007,
    "Ġtaught": 6803,
    "Ġcupboard": 16884,
    "dling": 15342,
    "_âĢĿ": 20763,
    "Ġsevered": 18204,
    "Ġturing": 7565,
    "Ġslipped": 6492,
    "Ġplayed": 9418,
    "ear": 8734,
    "kshire": 13748,
    "Ġgo": 613,
    "ippi": 20247,
    "sentimental": 25682,
    "uvian": 12246,
    "denial": 18715,
    "aborate": 14024,
    "Ġlac": 17967,
    "flitted": 23972,
    "somers": 19371,
    "Ġagonized": 25373,
    "Ġresolutely": 14610,
    "vers": 1327,
    "craft": 12250,
    "cket": 3689,
    "passed": 8027,
    "ums": 10274,
    "Ġiter": 2950,
    "Ġrequested": 14297,
    "Ġanomalously": 25639,
    "oder": 2461,
    "Ġrasc": 21979,
    "Ġlizz": 21561,
    "Ġscores": 2713,
    "frost": 15109,
    "tarpaulins": 26406,
    "ending": 1987,
    "Ġrecogn": 2664,
    "ĠĠĠĠĠĠĠĠĠĠĠĠĠĠĠĠĠ": 22953,
    "Ġinflex": 20637,
    "announced": 19762,
    "Ġbranches": 6776,
    "Ġoverheard": 11777,
    "Ġavailed": 23955,
    "Ġdiary": 24738,
    "Ġscaffold": 18401,
    "Ġfoster": 18991,
    "impatiently": 20474,
    "odes": 18120,
    "Ġbase": 5013,
    "occup": 7753,
    "pieces": 8758,
    "Ġpatroness": 13512,
    "Ġsuperstition": 15058,
    "Ġswells": 9829,
    "Ġir": 1991,
    "Ġprinc": 4198,
    "Ġdard": 21426,
    "Ġthree": 1371,
    "Ġorigin": 4119,
    "Ġclout": 22351,
    "affect": 13215,
    "Ġglossy": 15230,
    "Ġindign": 6174,
    "clifford": 23162,
    "Ġpossibility": 7457,
    "impress": 18054,
    "Ġafraid": 3531,
    "ernsey": 8904,
    "Ġant": 4346,
    "Ġmidway": 14605,
    "Ġeconomy": 17202,
    "Ġpermanently": 25474,
    "Ġresistance": 13532,
    "Ġgrating": 14357,
    "Ġtalks": 23373,
    "Ġretarded": 23077,
    "walk": 5523,
    "Ġdeified": 18140,
    "younger": 11313,
    "sideways": 14573,
    "pivot": 21033,
    "Ġoverspread": 14208,
    "el": 306,
    "ura": 1057,
    "single": 10128,
    "anche": 10789,
    "collar": 19330,
    "Ġrespond": 11177,
    "Ġflu": 3281,
    "Ġvague": 6406,
    "devils": 20036,
    "presently": 9809,
    "eg": 17530,
    "Ġsabbath": 17256,
    "raltar": 24235,
    "shabb": 18499,
    "mency": 18928,
    "fl": 3600,
    "Ġcord": 5222,
    "thole": 21988,
    "umul": 1288,
    "Ġarrang": 2470,
    "commotion": 24914,
    "gentle": 5357,
    "Ġbrim": 12981,
    "Ġshaped": 15837,
    "uer": 21103,
    "Ġinsert": 19907,
    "Ġphys": 5653,
    "rador": 19129,
    "Ġdestitute": 14566,
    "Ġproposition": 23253,
    "Ġvagueness": 25738,
    "Ġundecided": 22053,
    "Ġenvelop": 5586,
    "assure": 9271,
    "Ġvillas": 24056,
    "Ġtoken": 2039,
    "judged": 14833,
    "fears": 18533,
    "Ġcin": 13877,
    "yp": 1045,
    "Ġstring": 11830,
    "Ġweb": 9242,
    "Ġhinted": 6013,
    "Ġyawn": 7609,
    "instr": 12535,
    "successful": 11359,
    "Ġgood": 997,
    "ulpt": 10886,
    "admitted": 18094,
    "ox": 9135,
    "Ġsubsiding": 23437,
    "ulating": 10888,
    "Ġiroqu": 21628,
    "impregn": 21718,
    "Ġrevolut": 3261,
    "Ġcurious": 3362,
    "Ğ": 223,
    "Ġcompatibility": 2956,
    "supportable": 12373,
    "oken": 4307,
    "I": 45,
    "Ġher": 427,
    "Ġlavenza": 17973,
    "attending": 18918,
    "Ġlanguid": 14215,
    "Ġincidentally": 16955,
    "buried": 14851,
    "Ġeu": 6390,
    "ug": 1767,
    "apidated": 22342,
    "hamed": 6306,
    "Ġprocedure": 2809,
    "tasted": 17688,
    "dw": 3335,
    "endering": 21287,
    "iguous": 18047,
    "tur": 5688,
    "Ġentire": 2559,
    "Ġinsip": 19269,
    "Ġinput": 608,
    "weeks": 14318,
    "Ġcapt": 1290,
    "bestowed": 12229,
    "Ġbone": 4696,
    "Ġsling": 21223,
    "Ġrecede": 25969,
    "capable": 13704,
    "Ġflock": 21415,
    "Ġdeft": 21841,
    "Ġcomforted": 19394,
    "Ġprince": 18972,
    "Ġantics": 24180,
    "scale": 3536,
    "Ġmince": 22834,
    "ske": 13784,
    "Ġknee": 7094,
    "belongs": 25597,
    "Ġdie": 3960,
    "uneven": 23688,
    "Ġfad": 17878,
    "Ġtempor": 2367,
    "Ġbristol": 14382,
    "Ġcathedral": 17415,
    "Ġgrop": 12668,
    "Ġdoubt": 2222,
    "Ġwarsaw": 26168,
    "half": 4932,
    "Ġsprain": 18306,
    "Ġprejudice": 9077,
    "Ġcocks": 18597,
    "Ġcollectively": 19971,
    "Ġanxious": 4517,
    "Ġconjecture": 9534,
    "Ġyards": 5371,
    "Ġcomprehensiveness": 25075,
    "Ġdiligence": 17114,
    "Ġswaths": 23062,
    "Ġsanct": 15066,
    "patient": 25343,
    "Ġcaval": 25770,
    "Ġhilarity": 20300,
    "Ġlowest": 11123,
    "ipped": 5790,
    "together": 3557,
    "Ġmanly": 22329,
    "ance": 478,
    "Ġlonger": 3361,
    "Ġjackson": 24242,
    "uce": 11537,
    "Ġfolios": 23023,
    "Ġunrestingly": 20364,
    "prolong": 23398,
    "Ġanecd": 20157,
    "Ġwaggish": 25435,
    "Ġdivin": 13277,
    "lished": 8384,
    "cures": 20807,
    "clergyman": 20731,
    "where": 2092,
    "Ġpref": 14173,
    "Ġrunning": 3950,
    "ohn": 4562,
    "Ġperv": 15989,
    "Ġblue": 3454,
    "Ġsquid": 11881,
    "Ġgone": 2106,
    "degrad": 22148,
    "Ġjunior": 15102,
    "waiting": 12224,
    "dening": 22780,
    "Ġcircum": 8259,
    "remarked": 12291,
    "Ġbrazier": 26322,
    "consider": 6349,
    "thin": 14098,
    "Ġunprinciple": 18255,
    "Ġacceptable": 16745,
    "Ġcommunicating": 16890,
    "Ġcondescending": 24869,
    "Ġrumors": 11322,
    "Ġpath": 2113,
    "Ġoutrageous": 20613,
    "onious": 15520,
    "allowing": 24357,
    "Ġblasts": 19999,
    "Ġcomplied": 14736,
    "Ġsires": 21229,
    "Ġsystems": 796,
    "welcomed": 24645,
    "ick": 835,
    "paused": 17376,
    "Ġbu": 3684,
    "Ġstronger": 8581,
    "Ġfavour": 3643,
    "Ġlabors": 23331,
    "eth": 618,
    "mounting": 25208,
    "untarily": 6313,
    "isition": 11588,
    "Ġinvitation": 5188,
    "tol": 17673,
    "mutually": 26137,
    "cri": 17507,
    "Ġfalse": 4344,
    "odings": 4400,
    "Ġproc": 5544,
    "))": 1517,
    "insult": 16282,
    "Ġreference": 2565,
    "Ġvict": 3763,
    "Ġluckily": 16799,
    "Ġentertained": 10000,
    "ressing": 8921,
    "Ġlodged": 11252,
    "Ġdoctor": 5067,
    "heav": 5694,
    "Ġmetaphysical": 26068,
    "plainly": 11092,
    "Ġvolition": 14799,
    "Ġconcernment": 23624,
    "Ġincites": 22557,
    "roar": 17955,
    "Ġelegance": 11333,
    "Ġdefile": 18825,
    "Ġuser": 15920,
    "alarms": 21509,
    "Ġindifference": 6726,
    "Ġfrolic": 23928,
    "Ġinstruct": 2863,
    "halloa": 17090,
    "ividually": 22085,
    "sin": 21051,
    "Ġhatchways": 24992,
    "thick": 10262,
    "Ġdig": 6136,
    "rol": 5713,
    "Ġinstead": 2789,
    "Ġheaving": 7600,
    "Ġgrass": 5177,
    "Ġbalance": 2021,
    "Ġvacant": 9497,
    "itch": 10162,
    "azz": 8263,
    "Ġfountain": 7364,
    "separately": 25228,
    "trowsers": 17692,
    "Ġbrighter": 16189,
    "limin": 8385,
    "Ġpaint": 7708,
    "acet": 5474,
    "Ġsubterraneous": 20268,
    "Ġpossible": 2584,
    "afer": 17483,
    "Ġsealed": 15818,
    "\":": 9583,
    "Ġfortitude": 9887,
    "Ġlunacy": 20031,
    "Ġincluding": 2850,
    "Ġbeast": 7179,
    "merely": 16137,
    "herald": 22212,
    "Ġcomrade": 11683,
    "admirably": 24947,
    "furthest": 19844,
    "Ġthings": 1961,
    "ashes": 6017,
    "Ġwondrously": 24067,
    "Ġshapes": 14111,
    "iveness": 2469,
    "Ġintegral": 25011,
    "Ġsurf": 19133,
    "worse": 14692,
    "cham": 10854,
    "Ġfearfully": 23513,
    "ques": 2839,
    "shut": 10982,
    "Ġjudged": 12087,
    "Ġunrestrained": 25555,
    "Ġwreck": 7313,
    "Ġgigantic": 5916,
    "Ġvi": 1952,
    "happening": 16565,
    "Ġmostly": 7664,
    "Ġbod": 4582,
    "Ġwreat": 15533,
    "Ġ125": 24469,
    "wants": 21133,
    "ground": 4673,
    "Ġpersecutor": 26097,
    "Ġundesired": 12783,
    "Ġgritted": 22809,
    "noticed": 14340,
    "Ġduncan": 13464,
    "Ġetern": 7086,
    "Ġbewitched": 25976,
    "Ġengaged": 3430,
    "Ġradney": 6775,
    "Ġcommitting": 22677,
    "Ġulster": 14998,
    "protested": 13477,
    "Ġwater": 1948,
    "Ġtrip": 16789,
    "Ġrifts": 21980,
    "fuller": 22485,
    "Ġairs": 14512,
    "Ġzer": 1096,
    "ong": 537,
    "Ġfirmly": 8015,
    "H": 44,
    "Ġgen": 5298,
    "Ġcoleman": 22592,
    "mechan": 11860,
    "Ġfinal": 5400,
    "----âĢĻ": 24098,
    "Ġgifted": 17999,
    "nez": 22452,
    "Ġfathers": 16298,
    "angered": 16180,
    "Ġangles": 23590,
    "000": 2560,
    "Ġhunt": 6184,
    "jub": 20931,
    "tee": 16173,
    "daggoo": 13709,
    "scene": 14422,
    "ay": 355,
    "Ġ(`": 12856,
    "rove": 21537,
    "Ġalarmed": 6922,
    "bad": 12439,
    "Ġmemo": 18122,
    "Ġbred": 9171,
    "Ġflickering": 23019,
    "Ġunrel": 14697,
    "Ġecc": 11630,
    "Ġdisenc": 22531,
    "bacc": 7795,
    "ropol": 10954,
    "icable": 6388,
    "Ġingen": 9051,
    "fearing": 18534,
    "Ġdromed": 15600,
    "Ġflannel": 26578,
    "iscuit": 10600,
    "paint": 21020,
    "ominy": 13984,
    "remes": 21240,
    "possibly": 10545,
    "Ġsoil": 9257,
    "Ġomin": 11579,
    "Ġinvest": 4978,
    "**": 4687,
    "Ġpunct": 8664,
    "sebastian": 21824,
    "Ġsecretary": 19445,
    "Ġcounted": 12143,
    "penetrate": 20327,
    "venerable": 26409,
    "Ġpleased": 4061,
    "Ġlikened": 16501,
    "Ġinfinitely": 8965,
    "ĠĠĠĠĠĠĠĠĠĠĠĠĠĠ": 22569,
    "Ġsublim": 19970,
    "Ġtap": 12530,
    "Ġheav": 1850,
    "Ġreiterating": 26475,
    "Ġclanking": 20614,
    "estone": 18364,
    "vere": 4884,
    "arranging": 19319,
    "shore": 10308,
    "finish": 24383,
    "capting": 24042,
    "superiority": 20188,
    "Ġevils": 9022,
    "Ġslop": 23167,
    "Ġantagonist": 26330,
    "believing": 19465,
    "Ġround": 1370,
    "indignation": 18439,
    "hole": 5585,
    "Ġeth": 17717,
    "Ġglancing": 5399,
    "Ġviewed": 10464,
    "heartily": 24217,
    "Ġalbino": 20506,
    "Ġstabilizing": 3658,
    "proof": 16426,
    "Ġpaws": 13923,
    "Ġturned": 2131,
    "ouse": 1193,
    "Ġrepulses": 26071,
    "Ġstr": 748,
    "Ġbirds": 5874,
    "Ġfoss": 9853,
    "Ġenjoined": 18192,
    "forest": 22523,
    "Ġsect": 17752,
    "antial": 8489,
    "Ġunchanged": 22036,
    "Ġplaint": 10327,
    "iterranean": 15553,
    "Ġburn": 3685,
    "Ġbended": 21388,
    "Ġgro": 4397,
    "Ġhowever": 1306,
    "Ġdifficult": 3572,
    "Ġadmiring": 16481,
    "Ġvices": 14085,
    "Ġbrightest": 13229,
    "Ġwindow": 2996,
    "Ġaverse": 11081,
    "string": 15688,
    "conscientious": 19629,
    "encouragement": 17425,
    "nson": 16096,
    "similar": 13456,
    "Ġdial": 10811,
    "Ġnin": 10189,
    "Ġpersevering": 20236,
    "laughed": 20284,
    "Ġtattooing": 15029,
    "rench": 3965,
    "<SOS>": 1,
    "Ġtracks": 18891,
    "Ġtem": 803,
    "Ġrendered": 5773,
    "Ġcurving": 16235,
    "screw": 9349,
    "Ġmarvel": 23037,
    "Ġsmoothed": 23661,
    "ware": 3934,
    "lever": 2929,
    "mild": 15394,
    "plexy": 18577,
    "Ġrec": 897,
    "getic": 12970,
    "Ġexeget": 24084,
    "Ġaquiline": 26160,
    "Ġwhel": 15869,
    "Ġpours": 17914,
    "Ġjenkinson": 11432,
    "dreaded": 25141,
    "Ġhovel": 8255,
    "Ġscaling": 3633,
    "Ġamply": 22488,
    "Ġtwins": 16123,
    "Ġflorid": 17137,
    "Ġoverhear": 15978,
    "Ġabaft": 22279,
    "Ġconvers": 2905,
    "Ġtip": 15473,
    "Ġbeheaded": 11658,
    "Ġbern": 17860,
    "affected": 10477,
    "ember": 1955,
    "Ġas": 374,
    "Ġey": 8136,
    "Ġarrives": 23609,
    "Ġunqualified": 22066,
    "Ġexpost": 18625,
    "ictions": 14227,
    "scot": 14420,
    "Ġlandscape": 12420,
    "belonged": 25598,
    "Ġrally": 21973,
    "sequ": 2400,
    "mble": 1408,
    "Ġimpartial": 15222,
    "Ġreel": 9215,
    "Ġbarbarously": 24816,
    "Ġfugitive": 17329,
    "Ġdeuteronomy": 15763,
    "Ġsciences": 15947,
    "Ġredoubled": 23755,
    "urements": 18126,
    "Ġthanking": 18604,
    "beings": 12880,
    "shel": 11933,
    "scr": 16244,
    "fen": 20852,
    "Ġglide": 22990,
    "Ġkings": 7196,
    "interview": 19300,
    "Ġweaver": 11690,
    "xter": 9148,
    "Ġcommunication": 1871,
    "pression": 10408,
    "foreseen": 14255,
    "ĠĠĠĠĠĠĠĠ": 711,
    "Ġapparently": 6778,
    "remediable": 26296,
    "Ġobey": 9521,
    "Ġinherent": 4592,
    "Ġsummit": 7731,
    "stretched": 10207,
    "truck": 15443,
    "Ġflesh": 5970,
    "vine": 10735,
    "waters": 11334,
    "Ġvarying": 15813,
    "fishermen": 17061,
    "Ġsaturation": 2062,
    "reshold": 21242,
    "prevent": 11796,
    "enged": 23152,
    "Ġomnipotent": 13551,
    "Ġard": 5164,
    "preserver": 20216,
    "Ġdecidedly": 9511,
    "Ġfigures": 8633,
    "civilities": 24976,
    "Ġsole": 3300,
    "shoulders": 16586,
    "Ġdut": 2986,
    "Ġhire": 21489,
    "Ġus": 498,
    "Ġshrunk": 16719,
    "Ġsee": 801,
    "Ġknown": 1644,
    "Ġjury": 5378,
    "Ġimbu": 15894,
    "Ġstamped": 13529,
    "haps": 1672,
    "Ġbachel": 7158,
    "Ġslee": 8976,
    "combined": 20323,
    "Ġbug": 11591,
    "inions": 8404,
    "appe": 2941,
    "Ġ1890": 23900,
    "Ġyarman": 12709,
    "Ġmant": 9649,
    "Ġplaces": 5390,
    "Ġreeling": 18035,
    "emy": 14075,
    "Ġscrews": 25178,
    "Ġrustling": 24714,
    "Ġsolemnity": 9943,
    "Ġequival": 4785,
    "Ġdiscriminator": 3392,
    "lude": 6162,
    "Ġpassers": 18759,
    "rants": 13780,
    "Ġconsult": 6058,
    "erable": 1917,
    "strils": 10459,
    "failed": 20865,
    "Ġunappalled": 22070,
    "ana": 15562,
    "mand": 3894,
    "Ġphilosophy": 7104,
    "Ġmeat": 8153,
    "kins": 7344,
    "Ġdistributed": 18661,
    "ition": 652,
    "Ġscott": 22286,
    "Ġseemingly": 9320,
    "×": 152,
    "hour": 7339,
    "fireside": 24693,
    "Ġern": 8398,
    "Ġconduct": 3735,
    "Ġbite": 10798,
    "farmer": 25900,
    "Ġhandled": 12942,
    "Ġfanatic": 23395,
    "Ġwintry": 17436,
    "Ġhenry": 5197,
    "pacific": 17642,
    "Ġplanting": 16089,
    "wake": 11547,
    "mbles": 23093,
    "Ġbade": 9173,
    "oniously": 21260,
    "chosen": 21699,
    "tackle": 17323,
    "Ġdeclining": 23967,
    "Ġsinned": 18953,
    "Ġprogress": 5023,
    "Ġinexhaustible": 16982,
    "Ġgreek": 10632,
    "Ġrescued": 24208,
    "Ġ132": 19898,
    "boiling": 19001,
    "Ġsuspended": 5665,
    "Ġportrait": 10663,
    "Ġtemptations": 24504,
    "ev": 6951,
    "Ġeconomical": 25288,
    "Ġhappens": 2188,
    "ulgent": 18152,
    "Ġender": 11693,
    "Ġsilly": 7686,
    "thrust": 10263,
    "Ġberry": 19749,
    "Ġinformation": 1047,
    "uracy": 1085,
    "warks": 5004,
    "Ġgnarled": 25169,
    "Ġflushed": 13032,
    "shells": 26057,
    "izure": 21846,
    "\"": 6,
    "Ġinterrupt": 4360,
    "Ġheidelburgh": 11645,
    "Ġshades": 9465,
    "Ġsurviving": 24638,
    "Ġusing": 719,
    "Ġcrawling": 17045,
    "Ġgenerative": 5644,
    "Ġloggerhead": 13660,
    "Ġsaucer": 20608,
    "uzz": 4524,
    "inition": 11558,
    "arity": 1303,
    "Ġlees": 18078,
    "Ġcollinses": 19131,
    "Ġincor": 2610,
    "95": 17479,
    "Ġfishe": 15589,
    "Ġ74": 24263,
    "Ġinquiry": 6484,
    "Ġhesitate": 16947,
    "Ġdifferent": 1429,
    "ras": 21039,
    "Ġsubsided": 14551,
    "Ġbeef": 6829,
    "Ġcigaret": 16977,
    "Ġstim": 18066,
    "ged": 1514,
    "Ġnorthumbria": 24172,
    "Ġringed": 16751,
    "linearity": 1652,
    "Ġsuch": 793,
    "crews": 15044,
    "animated": 14977,
    "Ġadie": 8490,
    "ase": 1158,
    "Ġdeputation": 21844,
    "prophet": 16182,
    "Ġambition": 11433,
    "Ġquery": 2481,
    "Ġswash": 23059,
    "Ġdarkly": 19116,
    "mis": 4520,
    "Ġcomposedly": 25186,
    "swimming": 24260,
    "Ġrepl": 1592,
    "Ġseeks": 14304,
    "erated": 21275,
    "Ġplainer": 23707,
    "fif": 9118,
    "anque": 13890,
    "Ġgrat": 4054,
    "Ġbegged": 8232,
    "Ġcred": 8784,
    "Ġqueens": 16704,
    "Ġincarnation": 25574,
    "Ġsimultaneously": 4311,
    "Ġslightly": 7292,
    "Ġfury": 7661,
    "Ġcrossing": 7252,
    "Ġrinal": 21982,
    "Ġfuriously": 9804,
    "Ġsupposed": 4559,
    "Ġalt": 18101,
    "Ġtale": 5142,
    "Ġadler": 8175,
    "sided": 17665,
    "ils": 3183,
    "Ġmove": 5107,
    "Ġhurling": 19112,
    "aly": 1090,
    "Ġloft": 5642,
    "Ġneighbor": 25806,
    "Ġsable": 15502,
    "mentioning": 24886,
    "Ġtouches": 20573,
    "paus": 13775,
    "her": 489,
    "Ġsteepest": 3089,
    "turns": 14908,
    "Ġdemonstrate": 24999,
    "Ġrecol": 4026,
    "traces": 24335,
    "wood": 5899,
    "oysius": 14368,
    "Ġcomplex": 741,
    "lied": 6507,
    "varieties": 23191,
    "Ġwreath": 25937,
    "Ġtoday": 12647,
    "Ġon": 350,
    "ail": 567,
    "Ġtalker": 23374,
    "Ġtruck": 19514,
    "watson": 12247,
    "Ġgraves": 11711,
    "ton": 1728,
    "Ġpromontory": 11944,
    "Ġgracechurch": 12202,
    "Ġsimpler": 2048,
    "trivial": 21095,
    "Ġhappier": 10361,
    "Ġblueprints": 13174,
    "accursed": 20543,
    "Ġstupendous": 20504,
    "gon": 17553,
    "Ġreceipt": 20358,
    "faced": 8081,
    "Ġinward": 11609,
    "Ġhier": 1895,
    "mured": 6959,
    "rimsh": 17028,
    "jackets": 24896,
    "byshire": 6173,
    "Ġpur": 2216,
    "Ġcontemptuously": 19836,
    "ernity": 18616,
    "Ġdamp": 8265,
    "discovery": 12019,
    "Ġcasks": 7520,
    "Ġedward": 19153,
    "Ġapparelled": 20440,
    "powerful": 24848,
    "visit": 7755,
    "Ġdates": 6694,
    "iour": 4035,
    "isticated": 1637,
    "Ġpunish": 12163,
    "oss": 10117,
    "Ġdeliberate": 15024,
    "ĠĠĠĠĠĠĠĠĠĠĠĠĠĠĠĠ": 1219,
    "Ġkicking": 16902,
    "expression": 10549,
    "beaten": 20318,
    "Ġchoose": 5983,
    "holes": 12057,
    "Ġdrinks": 24281,
    "Ġardu": 22189,
    "inite": 6003,
    "Ġbeings": 2491,
    "Ġsensational": 16391,
    "Ġassociated": 12253,
    "Ġbeholding": 8672,
    "sequently": 14584,
    "Ġcult": 8785,
    "pounds": 21027,
    "Ġcondition": 6764,
    "Ġhellaswag": 24342,
    "Ġcapsizing": 20092,
    "Ġif": 697,
    "incom": 21184,
    "Ġ12": 5483,
    "Ġpossibly": 4513,
    "Ġrecords": 12199,
    "Ġencapsulate": 13677,
    "Ġunimag": 12779,
    "poverty": 22914,
    "Ġisles": 8461,
    "ifferent": 4260,
    "whip": 22242,
    "cons": 4309,
    "Ġnod": 1889,
    "rying": 3187,
    "blog": 19842,
    "Ġtendency": 11330,
    "uttural": 21593,
    "Ó": 148,
    "deliber": 17428,
    "Ġapprove": 12877,
    "unctions": 18158,
    "Ġinter": 726,
    "Ġsinners": 18952,
    "Ġcampaign": 20663,
    "Ġdraught": 9847,
    "ne": 647,
    "parts": 14602,
    "agement": 4187,
    "div": 8077,
    "Ġsublimity": 26348,
    "Ġmankind": 6699,
    "lantic": 6364,
    "honorable": 19903,
    "unmistakable": 21900,
    "eight": 9593,
    "irations": 18173,
    "Ġreasoner": 14440,
    "Ġfreighted": 16326,
    "Ġdecoding": 3083,
    "T": 56,
    "avail": 18606,
    "brew": 11474,
    "Ġsn": 2947,
    "Ġshr": 4223,
    "Ġpyth": 21465,
    "Ġshore": 4836,
    "ang": 442,
    "cher": 5786,
    "Ġprobabilities": 4966,
    "vate": 21112,
    "Ġevolve": 3000,
    "entimes": 12660,
    "owe": 15711,
    "Ġresid": 22543,
    "Ġcommunicate": 10579,
    "Ġexpressed": 4467,
    "ipotence": 22369,
    "gin": 4931,
    "pening": 2831,
    "Ġpoliteness": 8275,
    "Ġcandelab": 23852,
    "Ġdisapprobation": 16061,
    "Ġriotous": 20547,
    "Ġblurred": 22935,
    "Ġsaints": 20677,
    "its": 1149,
    "Ġbott": 3150,
    "Ġfraud": 19033,
    "Ġhandsomer": 20336,
    "inarticulate": 21198,
    "Ġgrappling": 25813,
    "Ġdepose": 22601,
    "treasures": 26153,
    "Ġflow": 1240,
    "onies": 6806,
    "text": 1972,
    "hing": 979,
    "alice": 3210,
    "wishing": 21131,
    "Ġvictory": 16655,
    "ription": 5676,
    "Ġtoward": 17949,
    "Ġpopulation": 16828,
    "alike": 17945,
    "Ġleaks": 16447,
    "Ġsimilarity": 3168,
    "Ġnieces": 8435,
    "Ġdiscoverers": 26037,
    "Ġequals": 4728,
    "asked": 8914,
    "observed": 7675,
    "Ġtransparency": 10678,
    "Ġconcise": 23326,
    "Ġremain": 1874,
    "Ġslit": 13061,
    "Ġjacobian": 2891,
    "ctuous": 9207,
    "vour": 17700,
    "blot": 20785,
    "anning": 10166,
    "Ġwalton": 14974,
    "luent": 15999,
    "Ġencamped": 22807,
    "awe": 20767,
    "ention": 852,
    "Ġcele": 9902,
    "perpet": 14160,
    "Ġconvent": 11670,
    "Ġsometimes": 2166,
    "Ġengraving": 17080,
    "prisoner": 20546,
    "poles": 16212,
    "makes": 10712,
    "ivil": 6411,
    "Ġimmediate": 6090,
    "Ġdefects": 12336,
    "brevi": 24074,
    "Ġten": 2386,
    "uc": 1877,
    "idered": 4553,
    "Ġsimpl": 1578,
    "Ġdict": 9177,
    "liked": 10510,
    "Ġcreation": 6439,
    "Ġgrateful": 7660,
    "Ġproportions": 16469,
    "Ġashen": 21904,
    "Ġvestibule": 13539,
    "Ġcos": 2207,
    "Ġexplanation": 6693,
    "luxur": 25823,
    "aneous": 7239,
    "....": 11317,
    "rically": 15419,
    "Ġbrilliant": 11415,
    "seldom": 13789,
    "Ġcertain": 1557,
    "Ġsafer": 22175,
    "Ġglasses": 9477,
    "Ġtheore": 1830,
    "lording": 24053,
    "Ġvine": 8473,
    "drifting": 19827,
    "Ġpistol": 7848,
    "Ġshares": 23249,
    "ourers": 21453,
    "Ġunmolested": 15248,
    "Ġwaterloo": 11983,
    "nx": 17608,
    "Ġoutlast": 22318,
    "aternity": 21268,
    "ouncing": 8496,
    "empl": 5724,
    "touched": 15441,
    "Ġloudly": 7311,
    "Ġthrew": 3971,
    "Ġlanc": 19767,
    "Ġconditions": 8308,
    "Ġdistrust": 8206,
    "tube": 20414,
    "discoveries": 25386,
    "morning": 4860,
    "Ġpaw": 12624,
    "ines": 682,
    "wart": 17706,
    "Ġrent": 11641,
    "heavens": 19748,
    "Ġquarto": 17298,
    "distraction": 24202,
    "Ġcheerfulness": 10518,
    "Ġspout": 3286,
    "mistak": 16879,
    "ulled": 14058,
    "Ġbath": 9660,
    "Ġlaughter": 9029,
    "Ġintermediate": 18590,
    "palms": 25263,
    "ott": 1873,
    "Ġhasten": 10479,
    "Ġframed": 19034,
    "Ġstarry": 16924,
    "Ġanchors": 12617,
    "Ġsummers": 23876,
    "Ġcurb": 16234,
    "Ġsplinter": 23749,
    "Ġgladness": 16592,
    "Ġovertook": 18429,
    "arthur": 14832,
    "Ġschemes": 11132,
    "Ġpresentation": 14482,
    "brows": 17498,
    "Ġperman": 10965,
    "Ġintelligently": 4022,
    "Ġtragedies": 25242,
    "benevolent": 15236,
    "Ġflattered": 10376,
    "Ġoccurrences": 11051,
    "Ġcalifornian": 25853,
    "Ġray": 18643,
    "Ġheeds": 24519,
    "Ġprodu": 1205,
    "Ġprogrammed": 11059,
    "Ġfemin": 13439,
    "aulets": 18622,
    "Ġdeference": 10882,
    "mered": 8219,
    "Ġpierce": 17036,
    "inform": 10145,
    "Ġglo": 1714,
    "Ġmalay": 24390,
    "Ġgradient": 450,
    "Ġpace": 9185,
    "glory": 23855,
    "usive": 8193,
    "Ġmont": 8561,
    "Ġpencil": 11946,
    "Ġwashing": 9707,
    "cl": 1495,
    "cream": 15333,
    "Ġtacit": 21177,
    "Ġwitty": 21295,
    "Ġaccumulated": 11934,
    "Ġwrist": 8244,
    "Ġintru": 15830,
    "nder": 20989,
    "Ġphilosoph": 19654,
    "umber": 5241,
    "Ġpatted": 16381,
    "Ġseventh": 18205,
    "Ġshin": 18228,
    "Ġsubjects": 7073,
    "viv": 17699,
    "neck": 14236,
    "dry": 13706,
    "Ġunflinching": 26513,
    "Ġhobbling": 25645,
    "Ġrelative": 11886,
    "Ġsynd": 22207,
    "ms": 542,
    "gris": 8261,
    "Ġburial": 16523,
    "Ġnovember": 11752,
    "solute": 16599,
    "nothing": 3155,
    "irous": 8842,
    "Ġ83": 24458,
    "combe": 7662,
    "score": 18858,
    "Ġinestimable": 17444,
    "Ġgrimly": 17052,
    "Ġheaviest": 23328,
    "cils": 20816,
    "ogra": 4574,
    "Ġdressing": 7091,
    "Ġshouts": 19540,
    "Ġderive": 10396,
    "Ġhereditary": 10666,
    "fo": 5279,
    "Ġaids": 12232,
    "Ġtuning": 3074,
    "](": 11467,
    "quarter": 11389,
    "ppo": 18178,
    "Ġdefilements": 26286,
    "Ġweld": 8113,
    "nurs": 21001,
    "Ġamazement": 7765,
    "terrific": 25043,
    "luding": 6701,
    "ĠĠĠĠĠĠĠĠĠĠĠĠĠĠĠĠĠĠĠĠĠĠĠĠĠĠĠĠĠĠĠĠĠĠĠĠĠ": 14615,
    "Ġgid": 13964,
    "Ġensures": 3057,
    "Ġunknown": 4453,
    "Ġstarve": 24627,
    "ef": 5134,
    "Ġhus": 3093,
    "Ġhats": 14620,
    "Ġfitzwilliam": 5771,
    "Ġselfish": 7271,
    "Ġstowing": 18074,
    "Ġshutting": 14761,
    "saving": 21062,
    "Ġamericans": 14745,
    "comes": 5394,
    "Ġancestry": 25642,
    "Ġ134": 24783,
    "Ġbelong": 3885,
    "Ġrid": 4355,
    "Ġconsist": 1934,
    "Ġboy": 3023,
    "Ġgrieve": 14709,
    "Ġvitality": 15175,
    "Ġengagement": 5397,
    "Ġglacier": 11434,
    "Ġungenerous": 18267,
    "Ġdaughters": 4422,
    "yield": 13811,
    "Ġhorse": 4726,
    "ales": 3319,
    "Ġdown": 830,
    "Ġseamen": 5063,
    "Ġdetaining": 25819,
    "change": 6392,
    "Ġforgetting": 3435,
    "Ġhouse": 1505,
    "illa": 12797,
    "mere": 11858,
    "Ġgrap": 11710,
    "owers": 12688,
    "Ġresigned": 9770,
    "Ġpour": 13916,
    "asily": 13948,
    "Ġnegro": 6447,
    "Ġworked": 6584,
    "Ġoblong": 14323,
    "whel": 7665,
    "Ġschools": 9479,
    "Ġcrashes": 13128,
    "describe": 1516,
    "prodigious": 17468,
    "regulated": 23469,
    "Ġlong": 795,
    "þ": 191,
    "Ġmultiplied": 23693,
    "Ġheartily": 6889,
    "naturedly": 24841,
    "obliged": 20634,
    "orange": 21403,
    "Ġidentical": 10435,
    "Ġobeyed": 12220,
    "Ġcollateral": 20075,
    "Ġlip": 6533,
    "Ġcombines": 1184,
    "fortunes": 6333,
    "Ġserpent": 6738,
    "Ġexpired": 18624,
    "despicable": 24639,
    "Ġtransf": 22442,
    "Ġstupid": 7603,
    "ai": 2527,
    "Ġmantelpiece": 15210,
    "Ġfate": 4755,
    "inhab": 10758,
    "certain": 3677,
    "chooses": 23677,
    "Ġskipper": 22803,
    "Ġtimely": 19597,
    "Ġro": 600,
    "Ġsanctified": 25883,
    "heed": 15500,
    "Ġmut": 3583,
    "Ġhedgehogs": 25395,
    "Ġnarration": 13506,
    "concluded": 11244,
    "ulatory": 15771,
    "Ġmingled": 12380,
    "shadows": 25480,
    "Ġinfinity": 23285,
    "Ġregent": 18591,
    "Ġjiff": 22301,
    "Ġprogramming": 1183,
    "etuous": 21587,
    "stun": 18018,
    "Ġmuttered": 7087,
    "Ġpreside": 18366,
    "accents": 19214,
    "Ġkne": 4264,
    "cork": 20798,
    "Ġstacked": 21748,
    "Ġastir": 14641,
    "Ġpsychology": 11449,
    "enchant": 21286,
    "Ġobscure": 9556,
    "Ġdat": 495,
    "Ġresented": 22548,
    "Ġgros": 14825,
    "transom": 19737,
    "Ġmotionless": 8325,
    "Ġtheology": 21279,
    "Ġmich": 21308,
    "sun": 7140,
    "Ġabject": 18392,
    "Ġitself": 2523,
    "Ġsupport": 6729,
    "neighboring": 20620,
    "Ġridge": 14821,
    "Ġwand": 4342,
    "Ġrun": 2356,
    "ableness": 8150,
    "deserts": 25382,
    "fthand": 26387,
    "Ġfaltering": 17886,
    "Ġunnecessary": 8854,
    "explanations": 25235,
    "tree": 11535,
    "Ġrefresh": 10348,
    "Ġhardships": 14453,
    "Ġsupplied": 8945,
    "Ġkink": 22198,
    "Ġpilgrimage": 17310,
    "comprehensive": 20629,
    "Ġaw": 2512,
    "Ġpreceded": 13431,
    "Ġprocure": 9512,
    "Ġcomo": 21859,
    "Ġlakeman": 6986,
    "Ġweaving": 12744,
    "tles": 10731,
    "ux": 7814,
    "Ġlargely": 14287,
    "Ġbrill": 8550,
    "ĠcÃ¦": 15558,
    "honour": 13470,
    "Ġunre": 3477,
    "Ġtarshish": 12031,
    "Ġlurks": 11291,
    "Ġneutral": 12745,
    "Ġlion": 9677,
    "Ġobviously": 16811,
    "Ġfingertips": 24020,
    "Ġflights": 24752,
    "Ġ1836": 25721,
    "ribes": 23370,
    "horses": 17568,
    "Ġunerringly": 18266,
    "Ġimplicated": 24876,
    "Ġsweeping": 8987,
    "Ġcastaway": 16642,
    "Ġdread": 3164,
    "Ġgene": 15675,
    "Ġlaunched": 14928,
    "continuing": 24478,
    "ik": 17572,
    "Ġcheck": 7270,
    "beg": 22492,
    "Ġferocious": 17421,
    "Ġscandal": 9083,
    "Ġconsort": 18724,
    "Ġlines": 4534,
    "Ġvariations": 22670,
    "finger": 10095,
    "feeling": 6618,
    "Ġforcing": 3228,
    "Ġconstrained": 19242,
    "Ġthick": 3783,
    "Ġleaps": 14010,
    "discernible": 20553,
    "bowed": 10686,
    "Ġ76": 24264,
    "Ġlengthwise": 10453,
    "Ġsheath": 14153,
    "Ġpaying": 9940,
    "dataset": 23250,
    "Ġfundament": 2924,
    "Ġirreproachable": 24918,
    "mod": 1050,
    "Ġtracing": 18890,
    "Ġtarn": 21161,
    "Ġforging": 18096,
    "Ġaries": 21200,
    "Ġdeline": 16336,
    "Ġunwillingness": 20035,
    "Ġimpenitent": 26549,
    "Ġpreference": 9735,
    "Ġarisen": 11749,
    "Ġbull": 7840,
    "Ġstrata": 26028,
    "top": 4485,
    "Ġgovernment": 15179,
    "Ġstones": 9223,
    "Ġhastening": 19338,
    "horror": 13162,
    "Ġboa": 22640,
    "Ġliv": 6680,
    "ernal": 4312,
    "Ġsammy": 24933,
    "grin": 19107,
    "Ġpooh": 18605,
    "Ġcountenance": 3968,
    "Ġmaids": 19694,
    "Ġinference": 9673,
    "Ġremotest": 10054,
    "permitted": 18342,
    "Ġderbyshire": 6587,
    "Ġpout": 17908,
    "lemag": 21375,
    "Ġtechniques": 2866,
    "Ġbutler": 18271,
    "constantinople": 25508,
    "charming": 15709,
    "Ġcart": 11585,
    "Ġtraverse": 18892,
    "Ġdeject": 10881,
    "1775": 26379,
    "avast": 8900,
    "unbounded": 21890,
    "Ġmodeling": 2095,
    "Ġvexation": 10588,
    "conven": 6163,
    "Ġimagenet": 19248,
    "ryder": 18638,
    "entreat": 17978,
    "Ġlamb": 8816,
    "Ġsplice": 19310,
    "erm": 789,
    "Ġadmiral": 17307,
    "Ġdrunkard": 20180,
    "emone": 21930,
    "thereby": 14449,
    "Ġcleansed": 26295,
    "Ġlucases": 9012,
    "Ġhide": 4590,
    "ught": 2748,
    "englishman": 23680,
    "Åĵuv": 15185,
    "alot": 15629,
    "Ġrib": 4936,
    "perceive": 12813,
    "Ġcontents": 7209,
    "Ġsap": 18324,
    "antee": 22102,
    "unting": 21879,
    "fac": 17542,
    "Ġjail": 22299,
    "Ġsinusoid": 4782,
    "qualities": 25045,
    "cousins": 20121,
    "Ġtails": 9904,
    "Ġtutored": 20131,
    "Ġtook": 1854,
    "hitherto": 17285,
    "develop": 13520,
    "Ġunwe": 15841,
    "Ġtraces": 7947,
    "Ġsoot": 14133,
    "mate": 5359,
    "Ġentertainment": 12226,
    "tain": 558,
    "Ġpearl": 20380,
    "Ġdevelopments": 23230,
    "vicinity": 20483,
    "Ġkno": 5242,
    "Ġsay": 933,
    "Ġmuskets": 17056,
    "Ġcauldron": 25442,
    "vered": 4831,
    "Ġpurplish": 19142,
    "Ġfrankly": 16746,
    "Ġunimportant": 22035,
    "abst": 21793,
    "Ġneither": 3688,
    "Ġnetwork": 452,
    "renewed": 19707,
    "majesty": 26282,
    "Ġpreach": 14174,
    "ersed": 10261,
    "Ġtravel": 5954,
    "osc": 18388,
    "Ġmiddle": 4137,
    "Ġpresuming": 16794,
    "Ġforbidden": 17078,
    "ess": 409,
    "companies": 24895,
    "mes": 1198,
    "Ġcoffins": 13254,
    "inquiries": 13580,
    "blown": 25202,
    "riors": 18189,
    "Ġlanguage": 641,
    "Ġmatter": 1734,
    "Ġtaken": 2529,
    "Ġgrasping": 12169,
    "south": 8762,
    "Ġraven": 16118,
    "ousings": 18331,
    "atics": 15525,
    "^{": 15307,
    "zening": 21151,
    "succeed": 10331,
    "ult": 722,
    "Ġwouldn": 6047,
    "Ġincludes": 2010,
    "pute": 8848,
    "Ġproposed": 7459,
    "Ġrational": 8481,
    "orus": 10802,
    "Ġlikewise": 5386,
    "Ġgrapp": 14103,
    "neighbour": 7210,
    "Ġwhis": 3505,
    "Ġvac": 5025,
    "politeness": 16907,
    "Ġbackbone": 22663,
    "Ġfished": 21414,
    "arus": 13914,
    "Ġ166": 25007,
    "Ġhailed": 6407,
    "Ġavenues": 25430,
    "inspector": 13649,
    "Ġeverlasting": 9339,
    "Ġrisen": 9495,
    "huzza": 20915,
    "Ġcommencement": 12242,
    "bro": 4032,
    "Ġhed": 7386,
    "Ġangelic": 19630,
    "Ġrisks": 9966,
    "Ġconven": 6152,
    "oters": 21804,
    "Ġpine": 8800,
    "Ġperiod": 4000,
    "Ġscener": 10950,
    "Ġintensified": 17019,
    "oarsman": 25262,
    "Ġperpendicularly": 11375,
    "lement": 10168,
    "Ġensued": 11395,
    "Ġpurple": 10434,
    "ancient": 9657,
    "Ġfeathers": 15122,
    "itted": 2440,
    "Ġnorris": 23208,
    "ĠĠĠĠĠĠĠĠĠĠĠĠĠĠĠĠĠĠĠĠĠĠĠĠĠĠĠĠĠĠĠĠĠĠ": 14614,
    "Ġerad": 25031,
    "Ġmim": 3106,
    "Ġstricken": 9778,
    "Ġscarcity": 23830,
    "atters": 18508,
    "Ġdestroy": 5772,
    "ivance": 22080,
    "Ġstandpoint": 23281,
    "ulity": 10887,
    "Ġsailor": 3537,
    "Ġstat": 1492,
    "wherefore": 19110,
    "Ġswiftly": 5670,
    "Ġbelfry": 26439,
    "Ġdecanter": 22449,
    "Ġdepos": 11007,
    "Ġnative": 4642,
    "engagement": 14461,
    "Ġdisputing": 25825,
    "Ġmarlings": 23038,
    "Ġrides": 21976,
    "Ġy": 341,
    "į": 240,
    "etite": 21583,
    "Ġdeduce": 8338,
    "Ġfreely": 7057,
    "Ġcrime": 4617,
    "Ġdigging": 14940,
    "infer": 10146,
    "ship": 1391,
    "Ġplunged": 8696,
    "born": 7542,
    "female": 20669,
    "delirium": 14786,
    "Ġwill": 676,
    "Ġspanish": 2827,
    "Ġdejected": 20307,
    "Ġcompar": 4772,
    "audible": 17134,
    "many": 5251,
    "Ġdimensions": 16573,
    "iety": 2818,
    "ibilities": 13012,
    "Ġannoyance": 20664,
    "ctor": 13962,
    "green": 7116,
    "ineer": 11706,
    "ened": 1387,
    "rollable": 13947,
    "Ġxxxix": 24973,
    "ating": 664,
    "Ġemblem": 20501,
    "content": 11198,
    "Ġforbearance": 12331,
    "Ġver": 3395,
    "Ġcirculating": 23376,
    "favourite": 15146,
    "Ġinquire": 7720,
    "Ġruggedness": 26270,
    "Ġyoked": 15738,
    "Ġpregnant": 26536,
    "Ġbounce": 21396,
    "tubs": 15133,
    "ark": 847,
    "Ġwhitewashed": 14472,
    "Ġrash": 10899,
    "Ġdisput": 14257,
    "Ġcobbler": 25831,
    "Ġbiological": 1933,
    "Ġsweetheart": 19398,
    "Ġposted": 16725,
    "Ġharry": 24571,
    "Ġbad": 3984,
    "Ġemerging": 24614,
    "opius": 18507,
    "roded": 17958,
    "Ġheadsmen": 14734,
    "Ġarrog": 18344,
    "notice": 16150,
    "Ġpublisher": 24068,
    "Ġsteps": 2862,
    "ges": 2872,
    "Ġ9": 5902,
    "50": 6784,
    "Ġprimal": 17107,
    "Ġwhiteness": 5920,
    "Ġno": 511,
    "thesize": 24907,
    "variety": 23190,
    "Ġwear": 6032,
    "cupboards": 25402,
    "Ġshank": 22002,
    "Ġcompliment": 5673,
    "weakness": 16127,
    "Ġ1991": 3017,
    "tanh": 5204,
    "Ġreduces": 2345,
    "Ġpikes": 21482,
    "Ġdraw": 3672,
    "Ġjur": 12838,
    "_)âĢĶ": 20147,
    "Ġsexes": 25172,
    "Ġdespair": 4006,
    "sinking": 17669,
    "contact": 23730,
    "Ġshaping": 22008,
    "task": 13795,
    "Ġentr": 14338,
    "Ġindia": 10372,
    "cries": 17512,
    "Ġaltering": 18105,
    "produ": 10721,
    "fitters": 24760,
    "rec": 6005,
    "Ġexquis": 9701,
    "Ġgrant": 11876,
    "response": 25763,
    "Ġscheme": 7065,
    "Ġquivers": 22418,
    "Ġtempestuous": 20074,
    "Ġspurn": 18310,
    "prick": 19346,
    "bonnet": 25743,
    "avenue": 25060,
    "erland": 9642,
    "Ġzones": 22821,
    "armon": 23063,
    "Ġqualifications": 24676,
    "Ġentropy": 2032,
    "Ġghostliness": 24652,
    "circumspect": 26087,
    "Ġslighter": 18942,
    "Ġcaptured": 7244,
    "unusually": 15783,
    "Ġamidst": 9496,
    "alleled": 14431,
    "dancing": 12458,
    "tales": 17687,
    "unct": 18157,
    "Ġresp": 2495,
    "Ġtransfer": 2201,
    "ilities": 6991,
    "Ġupbra": 22159,
    "icting": 12857,
    "Ġcravat": 26308,
    "Ġaimed": 20253,
    "Ġdissect": 16056,
    "ppa": 10241,
    "mates": 5073,
    "acknowled": 10976,
    "Ġox": 7153,
    "Ġadvise": 7937,
    "aux": 14291,
    "phants": 9322,
    "towns": 24855,
    "Ġcaptivating": 26050,
    "Ġswitching": 23061,
    "tal": 17671,
    "orne": 17874,
    "Ġnosegay": 24194,
    "Ġstages": 14006,
    "Ġhatherley": 7850,
    "oton": 3607,
    "sombre": 23857,
    "inese": 12887,
    "urried": 21708,
    "Ġhurt": 7701,
    "mmed": 7916,
    "Ġbeggars": 20632,
    "Ġceremonies": 24837,
    "Ġjaw": 3321,
    "âĢľ_": 5720,
    "Ġinfatuated": 20536,
    "Ġguests": 12290,
    "Ġunsounded": 15852,
    "Ġhap": 18196,
    "Ġchimer": 24604,
    "log": 18538,
    "Ġentrapped": 26264,
    "Ġadded": 2715,
    "hound": 20897,
    "barn": 17484,
    "supper": 12927,
    "Ġruin": 6057,
    "ality": 2514,
    "lasting": 8012,
    "Ġboarded": 13237,
    "throughout": 24088,
    "Ġwhole": 1664,
    "Ġgoat": 16009,
    "Ġhall": 4182,
    "aited": 12438,
    "snatched": 24851,
    "Ġeditions": 19154,
    "Ġmurder": 4279,
    "gain": 8740,
    "quaker": 15765,
    "Ġsemantic": 1957,
    "jabez": 20935,
    "Ġslyness": 25267,
    "Ġferocity": 16872,
    "finds": 19929,
    "Ġprec": 2917,
    "Ġseizure": 21962,
    "ushing": 5731,
    "Ġtendinous": 16932,
    "cong": 10690,
    "Ġconcerning": 4066,
    "Ġbestirred": 20454,
    "urmount": 13998,
    "Ġdwell": 5813,
    "Ġsolomon": 11053,
    "Ġherb": 15859,
    "eminence": 20102,
    "Ġtell": 1469,
    "bour": 2072,
    "Ġsu": 432,
    "Ġallegro": 25795,
    "Ġcrimes": 8591,
    "Ġafford": 4366,
    "Ġtablets": 13158,
    "Ġconfirms": 23313,
    "frightened": 17197,
    "Ġimagined": 8610,
    "ood": 962,
    "Ġchanging": 11756,
    "Ġbrigandish": 25488,
    "humor": 19455,
    "Ġpenalizing": 13094,
    "Ġfulfil": 9553,
    "Ġlung": 7167,
    "Ġmatlock": 18805,
    "halfway": 24312,
    "Ġamel": 18510,
    "Ġyankees": 26203,
    "Ġfet": 5808,
    "str": 2577,
    "burgh": 6773,
    "Ġwarnings": 16882,
    "Ġtarred": 23611,
    "Ġbring": 3326,
    "Ġnapkins": 25165,
    "musical": 25341,
    "import": 5668,
    "Ġseptember": 18206,
    "Ġdef": 1201,
    "avoid": 9307,
    "Ġbending": 12589,
    "Ġinjunctions": 24271,
    "Ġbrightly": 13228,
    "Ġcompare": 9304,
    "ost": 5361,
    "oam": 8755,
    "Ġty": 6659,
    "Ġsus": 18278,
    "Ġabominate": 20068,
    "engagements": 25855,
    "ĭ": 238,
    "Ġnovel": 6696,
    "Ġenticing": 22748,
    "Ġincumbent": 16068,
    "ahawk": 23320,
    "keepers": 16661,
    "Ġmight": 963,
    "especially": 3573,
    "eting": 7169,
    "Ġunseasonable": 26521,
    "Ġcards": 7580,
    "Ġshavings": 14112,
    "Ġarranging": 11175,
    "Ġmouldings": 24736,
    "Ġmoderation": 12822,
    "Ġguns": 16777,
    "ogrand": 26263,
    "grained": 20885,
    "dawson": 26129,
    "experienced": 15124,
    "Ġunluck": 8486,
    "Ġgourmand": 26467,
    "]": 65,
    "Ġtroubled": 6617,
    "Ġswashing": 23060,
    "Ġtax": 13818,
    "ffic": 22156,
    "anc": 6379,
    "Ġstir": 5824,
    "others": 7670,
    "Ġxiv": 23411,
    "unavoid": 14064,
    "oftentimes": 19424,
    "Ġimitate": 14159,
    "relig": 15514,
    "Ġincul": 22555,
    "dest": 4102,
    "Ġwooing": 19437,
    "Ġborrow": 10172,
    "Ġingenuity": 17165,
    "Ġdew": 14045,
    "Ġkill": 4454,
    "Ġluc": 3313,
    "Ġser": 1673,
    "independent": 26022,
    "Ġ184": 16608,
    "Ġle": 333,
    "Ġmetrics": 19057,
    "deceiving": 22149,
    "Ġtroublesome": 24005,
    "iferous": 17293,
    "Ġvexed": 9996,
    "arp": 2028,
    "wick": 5363,
    "Ġvowed": 14086,
    "Ġhatter": 4111,
    "Ġcocaine": 20723,
    "Ġeffected": 14356,
    "Ġformed": 3883,
    "Ġflew": 5587,
    "loved": 14252,
    "onist": 21253,
    "cottage": 9571,
    "erring": 11058,
    "asht": 4082,
    "Ġimpression": 5732,
    "Ġprevailing": 24674,
    "thirds": 25049,
    "Ġobtain": 8917,
    "Ġrise": 5637,
    "Ġmargin": 11923,
    "cab": 7332,
    "presbyterian": 26370,
    "byter": 16215,
    "Ġkeenly": 9487,
    "Ġsanctioned": 26352,
    "Ġwithout": 1124,
    "Ġpatients": 24810,
    "Ġverify": 12091,
    "Ġfut": 15578,
    "Ġmachinery": 20488,
    "ediction": 17947,
    "Ġbrowne": 13305,
    "Ġours": 4613,
    "Ġeddies": 25089,
    "9": 29,
    "impropriety": 21717,
    "spark": 18689,
    "Ġfurnished": 6475,
    "Ġsanction": 20029,
    "stepfather": 19193,
    "Ġinflexibly": 26372,
    "Ġmethods": 3161,
    "Ġsqualidness": 25844,
    "Ġruined": 12958,
    "ourselves": 9013,
    "Ġlater": 6018,
    "Ġspong": 15884,
    "ements": 11108,
    "¢": 100,
    "Ġhollows": 19744,
    "eding": 7165,
    "ojo": 7348,
    "Ġdetained": 18373,
    "whilst": 18372,
    "Ġharvest": 13418,
    "Ġmeantime": 6207,
    "Ġzeal": 9100,
    "twelve": 14623,
    "Ġtapped": 11555,
    "aco": 12899,
    "Ġwithdrew": 9698,
    "Ġbegrimed": 26579,
    "Ġintolerably": 15832,
    "Ġtags": 20574,
    "ipt": 12482,
    "Ġsprout": 24089,
    "Ġflood": 7716,
    "Ġboxed": 24359,
    "fetch": 12468,
    "Ġsupremacy": 20263,
    "Ġopposed": 11189,
    "Ġinjunction": 19620,
    "eries": 6808,
    "Ġport": 3312,
    "humored": 19456,
    "Ġscramble": 24578,
    "Ġtreble": 16505,
    "Ġlocks": 11727,
    "Ġplush": 18611,
    "Ġaperture": 26161,
    "ives": 1410,
    "Ġtied": 7356,
    "Ġinfant": 11963,
    "Ġsec": 2075,
    "Ġreappeared": 21669,
    "isters": 11922,
    "magnificent": 20277,
    "Ġall": 422,
    "Ġeloped": 22648,
    "Ġguardians": 14945,
    "Ġanoint": 25538,
    "Ġaccording": 5508,
    "Ġclamped": 18427,
    "Ġshops": 22006,
    "Ġjug": 12839,
    "Ġantichron": 24183,
    "chat": 21690,
    "ispens": 8337,
    "Ġerud": 20058,
    "fro": 8736,
    "tremble": 17143,
    "Ġchemical": 10411,
    "Ġshuddering": 9053,
    "zen": 5140,
    "worship": 19390,
    "Ġregularization": 1173,
    "neys": 23584,
    "Ġappropri": 2226,
    "Ġsewing": 21959,
    "Ġspeaker": 19150,
    "Ġhints": 8432,
    "ust": 497,
    "Ġbowditch": 19324,
    "Ġcheerful": 6623,
    "activation": 3234,
    "Ġcontented": 9758,
    "Ġ96": 24594,
    "Ġxxx": 7767,
    "Ġdespised": 14668,
    "Ġeyelids": 26108,
    "Ġpetrified": 19599,
    "Ġperish": 8877,
    "Ġsuggested": 8322,
    "Ġgardens": 16452,
    "Ġslave": 7453,
    "skylight": 25624,
    "Ġimbued": 17457,
    "Ġdisturbed": 8675,
    "carpet": 25203,
    "wilful": 25152,
    "cun": 20797,
    "itals": 17822,
    "Ġsubterr": 10350,
    "Ġclank": 15970,
    "Ġcove": 22587,
    "Ġsuppression": 23004,
    "Ġlooking": 2476,
    "Ġpecks": 18670,
    "Ġautomatically": 3707,
    "fem": 17538,
    "Ġmarshy": 20221,
    "Ġenter": 4027,
    "whe": 1073,
    "Ġcirc": 1983,
    "Ġlocked": 6036,
    "Ġscrutin": 26015,
    "Ġchained": 16390,
    "Ġcurds": 22973,
    "moment": 3579,
    "Ġknowest": 12868,
    "rive": 9709,
    "Ġadventurous": 16734,
    "Ġperturbed": 20443,
    "oney": 3051,
    "Ġrespite": 13157,
    "Ġtransferred": 16454,
    "oided": 11510,
    "Ġdevoured": 16139,
    "Ġguessed": 11283,
    "Ġloop": 14148,
    "rians": 21935,
    "Ġ40": 14770,
    "Ġobliter": 14324,
    "mistaken": 12214,
    "called": 6293,
    "rods": 21542,
    "Ġpantry": 20298,
    "fulness": 4310,
    "Ġpetersburgh": 24230,
    "striving": 24670,
    "Ġwhip": 8453,
    "Ġjumped": 7097,
    "Ġtold": 2185,
    "Ġtroop": 24898,
    "ifled": 14065,
    "til": 17672,
    "declared": 15121,
    "guest": 19485,
    "Ġdeacon": 18143,
    "et": 307,
    "Ġportcullis": 26604,
    "Ġresentful": 24633,
    "Ġpeterson": 9485,
    "auley": 22627,
    "Ġdetection": 3205,
    "spee": 9319,
    "Ġpersuaded": 5769,
    "Ġinsights": 13182,
    "ening": 3105,
    "Ġsubt": 11871,
    "aim": 2753,
    "Ġaccompany": 9489,
    "path": 10120,
    "Ġadrift": 11726,
    "Ġnich": 21524,
    "izens": 18146,
    "oir": 21004,
    "Ġtranscend": 25668,
    "Ġconvey": 9983,
    "vative": 1489,
    "Ġredeemed": 25790,
    "imen": 12690,
    "Ġbang": 17856,
    "Ġoccasionally": 5589,
    "omit": 13980,
    "ustration": 2259,
    "Ġgathers": 24742,
    "Ġchanged": 5243,
    "herfield": 3632,
    "Ġref": 919,
    "Ġrejected": 12297,
    "Ġprefers": 20517,
    "alleging": 23027,
    "Ġapparatus": 24909,
    "Ġfrench": 4939,
    "Ġdemo": 10880,
    "Ġlegs": 4917,
    "grim": 19108,
    "Ġfoliage": 18869,
    "Ġswords": 19899,
    "Ġtahitian": 25428,
    "Ġpitiful": 13242,
    "Ġachieves": 4380,
    "Ġside": 1386,
    "everlasting": 18774,
    "bolts": 11421,
    "uned": 21876,
    "Ġconstrued": 26302,
    "Ġdrunken": 12053,
    "Ġinser": 6819,
    "Ġsm": 704,
    "conside": 9292,
    "Ġlance": 4880,
    "umn": 5836,
    "Ġaloud": 6253,
    "Ġinnumerable": 13355,
    "Ġupset": 22158,
    "brace": 16943,
    "osoever": 17345,
    "Ġsupplement": 23006,
    "art": 581,
    "fly": 13716,
    "wrapped": 15212,
    "Ġinvented": 17037,
    "imson": 12693,
    "ament": 2438,
    "ront": 15420,
    "Ġken": 22196,
    "Ġunrolled": 22043,
    "crated": 16684,
    "che": 3172,
    "bishop": 13697,
    "immediate": 20097,
    "Ġbabel": 24425,
    "Ġghostly": 24651,
    "Ġfishers": 19357,
    "language": 5129,
    "Ġmy": 412,
    "question": 5418,
    "Ġintegr": 7970,
    "Ġpunch": 9957,
    "Ġpredecess": 18528,
    "Ġword": 1051,
    "Ġdimin": 3871,
    "long": 2910,
    "finally": 9501,
    "scissors": 20729,
    "Ġunconcern": 14119,
    "Ġwheelbarrow": 17206,
    "Ġfamed": 16330,
    "Ġve": 1109,
    "olent": 8156,
    "Ġyawned": 15053,
    "particular": 5757,
    "Ġmusical": 23896,
    "Ġfoolscap": 24157,
    "Ġlone": 11615,
    "regarded": 12010,
    "Ġuncork": 23433,
    "sadly": 25527,
    "Ġharp": 17926,
    "orders": 12878,
    "acceptance": 25185,
    "Ġagree": 7646,
    "Ġmourn": 8707,
    "Ġresolve": 13173,
    "save": 13787,
    "anxiety": 25159,
    "gered": 9278,
    "Ġfainter": 14916,
    "Ġfins": 9665,
    "drawers": 19389,
    "ampling": 12731,
    "Ġasc": 4766,
    "Ġserves": 4670,
    "Ġdeserving": 14755,
    "onical": 21256,
    "Ġmunro": 25631,
    "Ġlifted": 6985,
    "Ġspatial": 2728,
    "Ġuninjured": 22061,
    "form": 494,
    "Ġrussian": 14350,
    "Ġgrasp": 4665,
    "Ġinvention": 19956,
    "Ġthinkings": 22814,
    "tranquillity": 20549,
    "Ġunexampled": 20363,
    "dam": 7798,
    "Ġwishes": 4796,
    "Ġsubtle": 6717,
    "Ġross": 2763,
    "Ġborn": 5224,
    "Ġcrane": 23440,
    "Ġstress": 18069,
    "Ġshould": 864,
    "Ġbesides": 3514,
    "Ġpipes": 9852,
    "copy": 5133,
    "honey": 20907,
    "shake": 22462,
    "tall": 17674,
    "Ġcruisings": 25865,
    "Ġdispute": 16059,
    "Ġindiam": 22957,
    "Ġarising": 10934,
    "reclining": 20577,
    "Ġpeople": 2544,
    "ers": 405,
    "Ġresc": 4506,
    "ye": 1407,
    "mingled": 14715,
    "ave": 978,
    "Ġgoverness": 8605,
    "Ġperempt": 13676,
    "nearer": 22455,
    "Ġknowing": 4457,
    "Ġquoin": 22423,
    "Ġhorribly": 16345,
    "Ġobjectionable": 16992,
    "ifying": 5235,
    "Ġunass": 14116,
    "resting": 23239,
    "solut": 3365,
    "ants": 1390,
    "Ġstructural": 2797,
    "Ġafterwards": 3532,
    "Ġtortoise": 16909,
    "urpr": 2288,
    "Ġimages": 1599,
    "Ġgrated": 22808,
    "Ġnature": 2539,
    "Ġcrad": 21352,
    "Ġoppressed": 11190,
    "Ġverdant": 15003,
    "Ġorganize": 8993,
    "staking": 21646,
    "pon": 17626,
    "Ġindividual": 5744,
    "purposes": 25024,
    "atre": 17771,
    "vously": 23506,
    "enari": 21284,
    "Ġmissed": 8557,
    "Ġastonishment": 4795,
    "foot": 9048,
    "unimportant": 18162,
    "Ġallows": 3236,
    "Ġworaciousness": 22933,
    "Ġdomes": 23650,
    "Ġexpressing": 12011,
    "Ġemigrant": 25860,
    "Ġsmite": 22563,
    "names": 16530,
    "Ġdone": 1818,
    "aning": 2254,
    "verize": 21733,
    "Ġdays": 2077,
    "sleeping": 13457,
    "Ġfil": 3472,
    "Ġscra": 5841,
    "judging": 24203,
    "Ġ1820": 25718,
    "Ġamused": 11802,
    "onet": 12549,
    "Ġfow": 6134,
    "Ġstain": 18067,
    "harpooned": 24287,
    "rem": 1523,
    "Ġsatirical": 26281,
    "small": 6472,
    "Ġinnocence": 6477,
    "rised": 10125,
    "unpardonable": 21895,
    "ging": 2601,
    "Ġclouds": 5775,
    "Ġcommon": 1414,
    "Ġterm": 2267,
    "Ġaloft": 4302,
    "Ġcomputers": 2644,
    "Ġunlab": 3789,
    "Ġdiana": 21440,
    "hypothe": 25906,
    "Ġbermud": 26440,
    "Ġchamp": 18382,
    "Ġknows": 4158,
    "athans": 7432,
    "Ġtry": 3136,
    "stove": 21650,
    "Ġinex": 6528,
    "dissatisfied": 26613,
    "âĢĻ,": 14072,
    "Ġattacking": 24464,
    "Ġgratefully": 20448,
    "Ġtoilette": 20496,
    "quarried": 24948,
    "Ġevery": 928,
    "clever": 20815,
    "move": 11857,
    "you": 1005,
    "Ġhair": 3316,
    "Ġillness": 8593,
    "Ġiroquois": 26473,
    "Ġpan": 5082,
    "Ġdiscu": 4364,
    "Ġfamous": 5256,
    "Ġadequ": 10914,
    "Ġrear": 6536,
    "Ġtreasures": 17047,
    "Ġperformance": 1308,
    "ech": 4390,
    "Ġremonstr": 16165,
    "Ġessential": 7522,
    "Ġparamount": 15881,
    "ineffectual": 26509,
    "Ġcatching": 9480,
    "Ġgregarious": 18965,
    "Ġboon": 22642,
    "veh": 12683,
    "Ġware": 12558,
    "Ġassailed": 23182,
    "Ġcorner": 4371,
    "Ġblindly": 12113,
    "Ġstove": 6734,
    "Ġinsular": 19270,
    "print": 23815,
    "Ġrevisit": 21674,
    "Ġequivalent": 4803,
    "pushed": 21025,
    "subtle": 24245,
    "Ġsunken": 14494,
    "darkness": 9514,
    "Ġdecember": 15008,
    "itute": 9653,
    "Ġhear": 1964,
    "Ġrevelations": 25224,
    "judges": 19576,
    "Ġdisreputable": 22539,
    "Ġced": 10785,
    "correspond": 13401,
    "consid": 4925,
    "Ġvigour": 24461,
    "ultural": 22574,
    "Ġdirection": 1793,
    "gives": 15360,
    "Ġscript": 18399,
    "direction": 17525,
    "Ġmultipl": 2790,
    "Ġclergy": 7642,
    "Ġunrivalled": 26520,
    "Ġhappy": 2467,
    "reach": 17758,
    "Ġutterly": 6101,
    "Ġembarks": 22977,
    "Ġspouted": 14676,
    "expressing": 16802,
    "Ġperennial": 22698,
    "Ġheld": 3586,
    "Ġveracity": 23892,
    "Ġbefitting": 15729,
    "Ġreconciled": 13590,
    "Ġresentment": 7529,
    "middle": 11311,
    "mies": 20970,
    "ival": 4224,
    "Ġconfinement": 19041,
    "Ġstirs": 14919,
    "Ġfrog": 23925,
    "âĢĶâĢĿ": 3302,
    "Ġdamps": 23476,
    "Ġfinished": 5044,
    "Ġhost": 7069,
    "Ġsaving": 15890,
    "Ġbreeze": 5681,
    "Ġvalue": 2084,
    "eer": 15350,
    "erranean": 9336,
    "Ġspleen": 26422,
    "Ġelixir": 26556,
    "Ġimpenetrable": 17400,
    "heum": 17748,
    "Ġplanet": 14752,
    "Ġcow": 13878,
    "ulates": 14057,
    "Ġuncovered": 23435,
    "Ġcreamy": 14332,
    "Ġnecessitates": 23933,
    "impressed": 12695,
    "ifers": 15785,
    "Ġexplaining": 15963,
    "Ġbeneath": 3240,
    "Ġfamiliar": 5511,
    "Ġcost": 2508,
    "Â£": 4813,
    "stating": 21645,
    "shaken": 16029,
    "warning": 25532,
    "Ġprim": 8245,
    "Ġmenacing": 23112,
    "Ġphara": 23206,
    "Ġliving": 3064,
    "Ġteach": 8554,
    "religion": 20578,
    "Ġestab": 6316,
    "holding": 7739,
    "Ġcontemptible": 16954,
    "topp": 22571,
    "Ġpenetrated": 13475,
    "Ġheathen": 10567,
    "Ġyelling": 18099,
    "rodu": 1819,
    "iber": 6506,
    "Ġinsensibly": 20079,
    "Ġlearnt": 7614,
    "Ġgrazed": 15836,
    "Ġartistic": 18615,
    "Ġearnestness": 12129,
    "atived": 21265,
    "Ġwarring": 16866,
    "Ġchace": 14180,
    "ui": 9146,
    "Ġsolemn": 4098,
    "Ġmapp": 2081,
    "ilt": 2966,
    "tum": 11533,
    "Ġstab": 10863,
    "eling": 6682,
    "Ġstings": 21739,
    "Ġcommence": 6168,
    ".âĢĿ": 464,
    "Ġkate": 15908,
    "Ġabsence": 4895,
    "Ġintercepted": 25828,
    "Ġsyllables": 25299,
    "Ġstick": 6027,
    "Ġmeadow": 17153,
    "netherfield": 9815,
    "am": 368,
    "principle": 10652,
    "Ġjoll": 11768,
    "Ġassure": 4419,
    "Ġprotecting": 24687,
    "pleased": 8856,
    "deaux": 22153,
    "ugl": 23292,
    "Ġrossum": 3014,
    "Ġignominy": 15088,
    "Ġpeels": 22695,
    "Ġvehic": 8935,
    "Ġwhere": 787,
    "Ġjane": 1758,
    "Ġrelates": 12985,
    "Ġnile": 21525,
    "Ġmishap": 20579,
    "uttered": 8443,
    "Ġcovers": 18596,
    "sweep": 24619,
    "Ġscope": 15946,
    "dia": 2133,
    "Ġ72": 19614,
    "--------": 14784,
    "ten": 1556,
    "Ġtoiled": 12646,
    "Ġpeered": 18669,
    "atic": 4014,
    "Ġheightened": 8652,
    "Ġconcl": 5095,
    "acknowledging": 25477,
    "Ġinclude": 1875,
    "Ġunfathom": 14790,
    "Ġclothe": 4713,
    "Ġnum": 1349,
    "rayed": 23565,
    "hip": 8744,
    "Ġcollecting": 12289,
    "ontory": 10460,
    "derest": 18316,
    "abouts": 9454,
    "Ġmau": 21313,
    "Ġseethe": 21961,
    "Ġbuilded": 24718,
    "Ġdurst": 20355,
    "aurs": 20771,
    "Ġacknowledged": 7533,
    "Ġregions": 10326,
    "Ġhuzza": 12637,
    "ousness": 10276,
    "Ġtreating": 4283,
    "ters": 1571,
    "Ġtickled": 20060,
    "Ġcloak": 9536,
    "Ġmills": 21314,
    "imental": 16535,
    "Ġmortal": 4683,
    "Ġrace": 5848,
    "stumps": 21657,
    "Ġasser": 6258,
    "Ġdiagon": 24739,
    "seat": 18127,
    "iquette": 26133,
    "ĠĠĠĠĠĠĠĠĠĠĠĠĠĠĠĠĠĠĠĠĠĠĠĠĠĠĠĠĠĠĠĠĠĠĠĠĠĠĠĠĠĠĠĠĠĠĠĠĠĠĠ": 20042,
    "Ġpromise": 4197,
    "Ġcircumnavigation": 20403,
    "Ġimpose": 22396,
    "Ġechoed": 20427,
    "Ġcrackling": 24963,
    "Ġarmada": 23582,
    "yrin": 12526,
    "Ġwondrous": 4736,
    "joined": 13279,
    "rear": 21235,
    "bal": 2156,
    "hunsford": 24385,
    "contrivance": 26317,
    "hastily": 19705,
    "laugh": 10110,
    "Ġsinging": 7724,
    "Ġprodigy": 19795,
    "Ġfond": 4756,
    "Ġlaying": 7910,
    "Ġfirst": 937,
    "pless": 6261,
    "Ġturbulence": 26598,
    "quished": 21848,
    "doom": 23380,
    "ll": 1141,
    "encyclopÃ¦dia": 16665,
    "telescope": 26563,
    "on": 267,
    "wil": 8769,
    "Ġcharges": 23272,
    "Ġdonkey": 23233,
    "Ġjan": 11765,
    "Ġimbib": 22180,
    "eag": 20844,
    "Ġmountain": 3373,
    "september": 14038,
    "del": 4074,
    "Ġfrontispiece": 23917,
    "flakes": 23971,
    "hered": 5622,
    "ertain": 1207,
    "Ġcontextually": 11962,
    "Ġnorm": 763,
    "Ġarticulate": 24431,
    "Ġrenowned": 26195,
    "Ġvouch": 15812,
    "Ġbeyond": 2460,
    "Ġsooner": 5572,
    "Ġfift": 6382,
    "instance": 24169,
    "Ġgreatly": 5850,
    "six": 7142,
    ";âĢĶ": 3751,
    "Ġtheory": 5799,
    "society": 9974,
    "Ġcontrivances": 12360,
    "final": 19679,
    "Ġglobu": 23275,
    "Ġsanity": 24984,
    "Ġconquer": 14029,
    "Ġseats": 14090,
    "ial": 410,
    "Ġsympath": 4862,
    "tw": 2811,
    "Ġign": 8296,
    "Ġthird": 4185,
    "Ġbowl": 11204,
    "Ġabst": 9268,
    "Ġdifferently": 10391,
    "Ġhandle": 3139,
    "Ġeach": 893,
    "Ġloite": 22116,
    "Ġrevellers": 21682,
    "Ġfasting": 16358,
    "elab": 21574,
    "Ġfollows": 7673,
    "Ġcherish": 10591,
    "Ġpilot": 5986,
    "algorithms": 8295,
    "here": 2549,
    "Ġtro": 7355,
    "establish": 17395,
    "Ġhimself": 1352,
    "mud": 20973,
    "chers": 11318,
    "bey": 10315,
    "Ġtrooped": 24900,
    "Ġlam": 21553,
    "Ġoxford": 11372,
    "Ġunguarded": 15853,
    "apping": 5852,
    "Ġmeditations": 25016,
    "Ġ24": 13194,
    "Ġelectric": 15197,
    "Ġparacels": 13670,
    "Ġmuster": 16125,
    "Ġhog": 13926,
    "ccas": 15888,
    "pron": 9008,
    "made": 4809,
    "yden": 21146,
    "Ġleaned": 7607,
    "prec": 3203,
    "orable": 8121,
    "pton": 15797,
    "Ġluckless": 16798,
    "vis": 4578,
    "burn": 8372,
    "Ġinfer": 7684,
    "Ġdistress": 5845,
    "Ġexclude": 19043,
    "enborough": 21288,
    "jur": 17579,
    "Ġerred": 21159,
    "Ġdamned": 13135,
    "Ġdishon": 12234,
    "dut": 10089,
    "Ġacted": 7421,
    "Ġremo": 3786,
    "kl": 4866,
    "Ġreal": 1634,
    "Ġtells": 9363,
    "ure": 356,
    "Ġbegins": 7243,
    "Ġprotested": 9936,
    "Ġcarrying": 6073,
    "Ġroughly": 17040,
    "apparent": 11042,
    "occurrences": 26333,
    "rier": 9244,
    "som": 3294,
    "gradu": 18617,
    "sac": 7141,
    "suspicions": 25392,
    "sy": 2768,
    "Ġwindsor": 16888,
    "game": 11492,
    "splash": 25210,
    "Ġcharmed": 16763,
    "Ġsurely": 6308,
    "note": 14339,
    "Ġbarbar": 6934,
    "Ġgases": 21606,
    "atives": 2234,
    "Ġwronged": 24249,
    "Ġelev": 5535,
    "Ġcompens": 14268,
    "Ġdiscipline": 26562,
    "ousand": 2428,
    "Ġcreditors": 20133,
    "agre": 18167,
    "Ġstruggles": 16580,
    "tolerable": 17689,
    "encountered": 20396,
    "Ġsmart": 11818,
    "Ġundo": 15843,
    "Ġcrust": 21354,
    "Ġinquiries": 5678,
    "ilated": 18060,
    "đ": 210,
    "Ġsame": 1342,
    "Ġconquered": 14028,
    "preservation": 25306,
    "Ġsudden": 1997,
    "illustration": 2284,
    "wooden": 24589,
    "Ġfri": 17880,
    "Ġoriginate": 24120,
    "Ġpeering": 8536,
    "Ġarrange": 3120,
    "honest": 17004,
    "Ġrude": 7233,
    "Ġaltitude": 26204,
    "Ġholding": 4979,
    "Ġpleasantest": 24136,
    "hot": 8085,
    "unerative": 21901,
    "Ġinsensibility": 17110,
    "Ġhistorically": 19381,
    "Ġimminent": 11246,
    "benevolently": 25601,
    "Ġbehaved": 13257,
    "Ġtalent": 12300,
    "Ġsaxon": 25469,
    "Ġlift": 8814,
    "Ġfuller": 11157,
    "ohnson": 16328,
    "bar": 7540,
    "Ġlexic": 15727,
    "Ġshrink": 14805,
    "Ġtigers": 25759,
    "Ġcous": 3437,
    "Ġsmells": 8893,
    "gely": 10701,
    "Ġcasts": 19429,
    "Ġfrequented": 16587,
    "Ġwhim": 14001,
    "iza": 6256,
    "Ġearnestly": 5980,
    "Ġaff": 1118,
    "stein": 5505,
    "butt": 15997,
    "Ġencourage": 10382,
    "cabinet": 25080,
    "Ġarchitect": 1000,
    "Ġsled": 21221,
    "neath": 12870,
    "Ġdutch": 6328,
    "Ġmodesty": 12821,
    "Ġlead": 3523,
    "Ġinvective": 26183,
    "Ġcool": 5735,
    "Ġcheating": 16369,
    "Ġbewildered": 15216,
    "speaks": 19722,
    "too": 4507,
    "fore": 686,
    "Ġboun": 21383,
    "thinness": 25810,
    "eyes": 5684,
    "Ġneighbours": 8304,
    "Ġunclad": 22059,
    "pleasure": 5979,
    "Ġknees": 6927,
    "Ġawait": 17073,
    "Ġsovere": 9258,
    "proceeding": 20144,
    "ple": 455,
    "Ġthinnest": 24185,
    "lying": 7174,
    "Ġperceiving": 8878,
    "Ġwestern": 10656,
    "Ġsultry": 20291,
    "est": 499,
    "Ġmanhandle": 22334,
    "Ġridic": 7507,
    "Ġfortunate": 6215,
    "Ġare": 527,
    "gus": 13727,
    "Ġtransports": 24279,
    "Ġremarkably": 7703,
    "Ġwond": 3938,
    "Y": 61,
    "Ġmainmast": 9781,
    "Ġvirtue": 4923,
    "Ġthereupon": 18435,
    "olds": 9313,
    "aves": 3599,
    "Ġscorched": 17101,
    "Ġdictating": 20155,
    "Ġquaker": 10972,
    "Ġreser": 5170,
    "leagues": 21376,
    "Ġlarge": 1062,
    "tomorrow": 25915,
    "Ġfel": 1519,
    "Ġasserted": 16950,
    "Ġrefusing": 11029,
    "Ġfixing": 13159,
    "Ġcalculate": 13268,
    "Ġgour": 21602,
    "Ġbetrayed": 9563,
    "Ġdaint": 15596,
    "witted": 17708,
    "usiveness": 22298,
    "Ġphaet": 16321,
    "anter": 9168,
    "Ġgrandeur": 8631,
    "Ġcreature": 2384,
    "Ġmyself": 1456,
    "Ġtobacco": 8368,
    "04": 10681,
    "Ġoversight": 22363,
    "Ġmonosy": 18853,
    "Ġmorris": 18852,
    "please": 8178,
    "Ġexig": 21831,
    "billiard": 25335,
    "Ġproviding": 1361,
    "Ġboards": 14303,
    "blind": 16703,
    "Ġundeceive": 25553,
    "establishment": 26114,
    "Ġfanny": 23394,
    "northern": 23669,
    "Ġform": 1022,
    "Ġcore": 13880,
    "Ġoverlooked": 15976,
    "Ġbelt": 13007,
    "wives": 15457,
    "Ġclusters": 25233,
    "Ġlaws": 8004,
    "inative": 15485,
    "rified": 15421,
    "Ġgentlemanly": 19317,
    "Ġsignificantly": 4518,
    "inion": 2874,
    "han": 12476,
    "izes": 887,
    "Ġcharlotte": 3889,
    "charge": 9450,
    "objects": 13473,
    "Ġnet": 3628,
    "faith": 15026,
    "Ġcrockery": 24302,
    "Ġveget": 11889,
    "Ġrumbling": 18212,
    "hard": 4691,
    "Ġembarrassment": 10628,
    "itically": 21333,
    "Ġwith": 349,
    "Ġenvy": 13211,
    "invisible": 17741,
    "Ġaboriginal": 14190,
    "Ġly": 2269,
    "Ġsigning": 22712,
    "Ġpolite": 9884,
    "momentum": 4991,
    "Ġarcher": 22190,
    "ptember": 10895,
    "Ġdrawing": 3917,
    "Ġsize": 1217,
    "Ġ98": 24595,
    "Ġlethar": 21751,
    "inement": 11559,
    "Ġcrack": 7710,
    "hist": 7131,
    "84": 15304,
    "Ġgoethe": 22429,
    "Ġli": 602,
    "nay": 7136,
    "Ġfaintly": 14917,
    "Ġfires": 16473,
    "happy": 4425,
    "Ġdisgu": 8207,
    "Ġcobweb": 22591,
    "Ġmathematics": 12077,
    "Ġthanked": 9461,
    "furthermore": 20007,
    "Ġadapted": 11041,
    "fourths": 25510,
    "Ġhearken": 21689,
    "Ġinert": 15625,
    "contriv": 19294,
    "Ġmimic": 3145,
    "agos": 21909,
    "Ġsurmis": 23465,
    "therefore": 5955,
    "Ġawkwardness": 13490,
    "Ġanswered": 2851,
    "closed": 23159,
    "opement": 10313,
    "Ġvag": 9710,
    "Ġfishes": 11593,
    "Ġvect": 1224,
    "Ġfiftieth": 24702,
    "Ġimplicate": 24877,
    "Ġeloquence": 11844,
    "Ġrods": 9756,
    "Ġisland": 4046,
    "allah": 5839,
    "Ġbillows": 7501,
    "circle": 16737,
    "Ġhad": 443,
    "ians": 2360,
    "Ġreplied": 2264,
    "ductive": 23939,
    "âĢĻ-": 18169,
    "Ġfootfall": 14662,
    "Ġreasoned": 23064,
    "Ġcake": 12574,
    "jac": 8383,
    "rable": 11634,
    "Ġpitiable": 9916,
    "Ġcum": 21345,
    "rushed": 10586,
    "resistible": 10645,
    "Ġreached": 4019,
    "greenland": 10023,
    "inaw": 21186,
    "Ġkeeps": 8268,
    "alter": 10827,
    "Ġfore": 2151,
    "Ġcomprehending": 24444,
    "Ġcontrive": 16013,
    "Ġdeplored": 20508,
    "Ġrosings": 4608,
    "Ġprinciples": 10013,
    "elag": 12662,
    "Ġscream": 5936,
    "ourse": 8872,
    "Ġskill": 6871,
    "interrupt": 8619,
    "Ġsnail": 19301,
    "Ġdeepest": 8215,
    "Ġclues": 18423,
    "pane": 10122,
    "ivities": 22082,
    "Ġcomply": 8894,
    "Ġwoollen": 12107,
    "impatient": 13643,
    "discrimin": 19611,
    "ruff": 15904,
    "Ġabating": 22272,
    "Ġcoronation": 13337,
    "Ġnewfound": 22936,
    "Ġgrim": 7438,
    "ular": 713,
    "Ġfooted": 23799,
    "Ġwild": 2602,
    "poor": 6062,
    "ker": 5792,
    "Ġgrows": 4985,
    "drive": 8686,
    "adem": 21762,
    "unders": 13314,
    "Ġfant": 9175,
    "stands": 22432,
    "Ġhigh": 932,
    "interrupted": 11418,
    "Ġolder": 9329,
    "Ġdavis": 25953,
    "glow": 20876,
    "Ġofficer": 6754,
    "20": 20755,
    "carries": 19530,
    "uesday": 8590,
    "Ġstilly": 25974,
    "Ġdamn": 11159,
    "education": 20304,
    "words": 7984,
    "Ġfuel": 13906,
    "valu": 1720,
    "measured": 19993,
    "ell": 398,
    "Ġancles": 21450,
    "Ġride": 12762,
    "degrees": 22155,
    "pract": 10121,
    "iage": 17574,
    "Ġexpedition": 10635,
    "gallant": 7781,
    "Ġsheaves": 22163,
    "alty": 17941,
    "ĠĠĠĠĠĠĠĠĠĠĠĠĠĠĠĠĠĠĠĠĠĠĠĠ": 5322,
    "Ġavoided": 13262,
    "calabash": 22902,
    "Ġiceland": 15149,
    "Ġunhinged": 26218,
    "Ġunintermitted": 26221,
    "Ġreigned": 13989,
    "Ġbasis": 16962,
    "Ġneighbors": 25807,
    "Ġattach": 14290,
    "pay": 10719,
    "pigs": 17142,
    "mixed": 17606,
    "Ġdreadful": 4921,
    "Ġkelson": 18351,
    "igms": 3048,
    "inferiors": 25347,
    "wickham": 5885,
    "woman": 5900,
    "ix": 1801,
    "ems": 5236,
    "numerous": 17433,
    "Ġmonoton": 3638,
    "Ġcollected": 2611,
    "Ġwarn": 5695,
    "Ġinterruptions": 24188,
    "Ġsig": 868,
    ".": 18,
    "Ġgorgeous": 20470,
    "eldest": 22798,
    "given": 8378,
    "iliary": 21731,
    "omical": 9684,
    "Ġconsolation": 6209,
    "Ġbehav": 3541,
    "Ġcomparison": 7100,
    "Ġemma": 20697,
    "yielded": 25757,
    "ckled": 9259,
    "signs": 16540,
    "rann": 21047,
    "Ġhearties": 18967,
    "puzz": 17641,
    "Ġgoble": 14231,
    "Ġcandle": 8293,
    "irresist": 21917,
    "coming": 3563,
    "gazed": 15364,
    "lessness": 5318,
    "Ġjeopardized": 20233,
    "Ġblood": 3169,
    "Ġtying": 15475,
    "Ġneat": 6999,
    "Ġabstra": 22276,
    "Ġvolumes": 14801,
    "ambition": 13414,
    "Ġand": 295,
    "prodig": 16429,
    "understood": 13219,
    "Ġanomalous": 25638,
    "Ġearthquake": 14629,
    "Ġcorresponding": 13441,
    "Ġclum": 8875,
    "Ġlakes": 8132,
    "necessary": 5883,
    "chair": 5918,
    "Ġgained": 4535,
    "Ġnets": 21528,
    "Ġniag": 21534,
    "Ġintrusion": 12769,
    "gover": 10703,
    "Ġfragments": 19035,
    "Ġdivide": 12114,
    "winds": 10523,
    "Ġu": 324,
    "ro": 301,
    "comfortably": 16876,
    "Ġvap": 6836,
    "Ġb": 281,
    "Ġbowsman": 11255,
    "Ġcolumn": 9330,
    "account": 5330,
    "Ġvest": 8164,
    "Ġcongrat": 5828,
    "tables": 19760,
    "Ġstabbed": 25457,
    "been": 3346,
    "maintained": 25023,
    "Ġbarn": 11589,
    "Ġcapabilities": 4378,
    "²": 115,
    "wear": 22687,
    "Ġ63": 24365,
    "elopement": 23140,
    "================": 3725,
    "pronounce": 25193,
    "Ġblazing": 11899,
    "Ġmiser": 18700,
    "aches": 6570,
    "Ġdriver": 16475,
    "anx": 8787,
    "Ġtasks": 1788,
    "Ġbowsprit": 16561,
    "writhed": 26081,
    "endar": 18365,
    "resp": 13841,
    "Ġnumberless": 16418,
    "Ġmasses": 10505,
    "ward": 706,
    "cannib": 11905,
    "Ġpsych": 10178,
    "Ġemig": 14525,
    "chief": 4646,
    "countenance": 6924,
    "Ġrigid": 16717,
    "Ġsine": 10764,
    "Ġattractions": 12921,
    "Ġunprofitable": 18268,
    "quimaux": 21853,
    "Ġshoals": 13137,
    "Ġlizzy": 3547,
    "woes": 21136,
    "shark": 14241,
    "Ġemblematical": 25789,
    "elson": 16373,
    "Ġsting": 10862,
    "Ġthroat": 7771,
    "orton": 11759,
    "isis": 12583,
    "Ġ28": 19296,
    "alliance": 22205,
    "Ġsoles": 22090,
    "Ġsched": 2339,
    "fluttering": 23976,
    "Ġic": 9627,
    "Ġenabled": 9298,
    "tears": 11037,
    "matical": 13132,
    "bowing": 24453,
    "Ġhit": 7163,
    "nest": 10115,
    "Ġsuperior": 2750,
    "Ġm": 274,
    "shed": 8096,
    "oline": 6833,
    "Ġwoof": 14723,
    "ls": 1289,
    "Ġpursuing": 9440,
    "insurance": 18889,
    "confirmed": 19643,
    "cano": 18841,
    "Ġcucumber": 21359,
    "remonstr": 23195,
    "Ġlouder": 13471,
    "ream": 2708,
    "fall": 5135,
    "Ġbequest": 21758,
    "Ġnarrow": 5086,
    "downstairs": 23923,
    "Ġdundee": 16998,
    "Ġsupports": 3052,
    "Ġscornful": 25001,
    "Ġextensive": 12950,
    "original": 9087,
    "Ġseriously": 7062,
    "Ġrod": 9282,
    "Ġhome": 2029,
    "insulting": 26056,
    "erted": 7360,
    "Ġresults": 7307,
    "Ġboisterous": 20446,
    "pockets": 16213,
    "scuttle": 11913,
    "Ġfossils": 20225,
    "Ġcomprehensive": 15090,
    "Ġresearch": 3121,
    "Ġensigns": 23692,
    "bons": 17488,
    "sim": 6510,
    "scy": 21058,
    "ger": 1108,
    "fa": 7335,
    "Ġhur": 2099,
    "Ġcurtains": 22974,
    "ited": 1751,
    "erial": 4633,
    "paid": 15416,
    "Ġhonors": 23603,
    "Ġbubbling": 17328,
    "certainly": 5340,
    "Ġrigger": 19533,
    "sence": 3309,
    "Ġbestowed": 6594,
    "inclination": 20061,
    "Ġheed": 5630,
    "Ġclutching": 24954,
    "Ġhoars": 19079,
    "Ġpig": 5705,
    "Ġknotted": 17020,
    "cask": 12450,
    "cried": 8728,
    "garious": 17559,
    "projecting": 26074,
    "Ġtattooed": 11379,
    "Ġpretence": 13208,
    "Ġremot": 8545,
    "Ġhorns": 11124,
    "Ġwarriors": 19726,
    "Ġshrivelled": 19706,
    "Ġwanting": 6722,
    "ald": 15628,
    "aft": 9585,
    "penn": 18828,
    "Ġgrowl": 16539,
    "Ġvarieties": 14312,
    "Ġneighb": 14078,
    "aths": 22705,
    "voyages": 24856,
    "nal": 1902,
    "initely": 7567,
    "Ġmalady": 24391,
    "Ġparallel": 1415,
    "Ġminutest": 14560,
    "Ġreputation": 11642,
    "iforn": 14066,
    "childhood": 16867,
    "Ġimposs": 16617,
    "Ġoctober": 17228,
    "interested": 9508,
    "awned": 19463,
    "atmosphere": 21267,
    "í": 174,
    "Ġlives": 4828,
    "ĠĠĠĠĠĠĠĠĠĠĠĠĠĠĠĠĠĠĠĠĠĠĠĠĠĠĠĠĠĠĠĠĠĠĠĠĠĠĠĠĠĠ": 24211,
    "Ġoppress": 13175,
    "langu": 4808,
    "Ġorb": 22096,
    "ratulations": 20129,
    "conversation": 7123,
    "deep": 1033,
    "Ġfeather": 8862,
    "Ġpillar": 21477,
    "za": 13812,
    "ments": 1403,
    "effect": 8607,
    "opposite": 19931,
    "beginning": 13564,
    "Ġano": 11598,
    "Ġdears": 18139,
    "opol": 12875,
    "Ġlikes": 9410,
    "Ġcovari": 2340,
    "Ġlaborious": 13106,
    "atus": 21263,
    "flo": 6115,
    "sell": 13783,
    "spirit": 11314,
    "rief": 6203,
    "building": 17311,
    "Ġguidance": 9419,
    "turbaned": 24531,
    "Ġbandaged": 16843,
    "example": 16016,
    "Ġboone": 11843,
    "Ġpotency": 14647,
    "Ġcontinent": 14890,
    "Ġesquimaux": 25154,
    "Ġwayward": 22874,
    "Ġharmony": 16815,
    "Ġreiter": 21670,
    "Ġplans": 7920,
    "Ġrecomm": 4996,
    "Ġfowler": 16938,
    "Ġpicturesqueness": 24479,
    "Ġintelligences": 12835,
    "Ġproficiency": 19195,
    "chorus": 19814,
    "Ġpelt": 15613,
    "Ġindulge": 10584,
    "Ġjoker": 22303,
    "owners": 16090,
    "faces": 13722,
    "Ġrelationship": 2317,
    "Ġdestroyed": 5272,
    "Ġprospect": 4706,
    "Ġtoma": 7372,
    "umbled": 8494,
    "Ġinfl": 6892,
    "ache": 8519,
    "Ġcalmly": 7734,
    "Ġsunshine": 14495,
    "anyone": 16594,
    "Ġcrowd": 6337,
    "Ġmembrane": 20507,
    "acies": 14260,
    "Ġhonestly": 19975,
    "Ġowed": 10781,
    "Ġhist": 2444,
    "Ġwealth": 7620,
    "Ġtightly": 13536,
    "Ġincisive": 18572,
    "abs": 11669,
    "Ġinsignific": 13183,
    "Ġindependence": 12108,
    "Ġlight": 1700,
    "page": 13773,
    "harbor": 13567,
    "osed": 1960,
    "Ġbeats": 21757,
    "Ġresidual": 1681,
    "Ġindignantly": 16940,
    "worth": 8630,
    "Ġtestified": 16316,
    "goodness": 19290,
    "cell": 10688,
    "Ġdoxology": 22249,
    "lar": 4483,
    "Ġapoplexy": 25266,
    "asher": 15649,
    "Ġgasped": 11373,
    "Ġcorp": 5573,
    "Ġthieves": 15639,
    "Ġfront": 3451,
    "slouched": 24556,
    "Ġdecency": 18484,
    "bree": 15317,
    "Ġflatter": 9350,
    "Ġtolerably": 8069,
    "Ġxliv": 23412,
    "Ġvapors": 19910,
    "Ġdarkness": 4276,
    "Ġcorrected": 10449,
    "Ġunavailing": 26217,
    "otle": 21802,
    "adow": 18090,
    "amuse": 14054,
    "Ġflowers": 8942,
    "seam": 10875,
    "Ġpallor": 13518,
    "lounged": 26134,
    "Ġshipw": 12983,
    "activity": 22637,
    "Ġfemale": 8346,
    "hours": 9126,
    "Ġcandles": 9910,
    "Ġloafer": 18300,
    "Ġinclud": 1513,
    "Ġsituations": 10493,
    "Ġcup": 5697,
    "moments": 19415,
    "sculpt": 16247,
    "eur": 7544,
    "Ġcaved": 21356,
    "Ġcensured": 25097,
    "Ġhelpless": 8303,
    "mut": 17596,
    "Ġeaster": 15678,
    "Ġstaggered": 9541,
    "kinder": 24846,
    "scotch": 25852,
    "Ġdevotedly": 24749,
    "Ġmab": 12564,
    "Ġlifting": 10198,
    "Ġadaptively": 4091,
    "Ġthread": 14540,
    "ocity": 8279,
    "kingly": 20941,
    "Ġplough": 18610,
    "bber": 4569,
    "aff": 3102,
    "Ġberth": 8683,
    "Ġcustomary": 8673,
    "equally": 19901,
    "Ġcautiously": 16978,
    "Ġdiscre": 2416,
    "Ġheaps": 11644,
    "Ġcons": 953,
    "Ġmystic": 7502,
    "Ġagony": 5388,
    "Ġinstituted": 18698,
    "Ġmarine": 23035,
    "Ġemper": 9863,
    "Ġhav": 12758,
    "nantucketer": 24977,
    "Ġpredefined": 20719,
    "Ġgoest": 22428,
    "Ġsoldier": 16921,
    "Ġsemi": 11971,
    "aimed": 3951,
    "±": 114,
    "cked": 2761,
    "iling": 3094,
    "Ġclap": 10958,
    "boscombe": 26122,
    "Ġpantheistic": 26337,
    "irt": 3078,
    "lig": 3174,
    "Ġroused": 7622,
    "Ġeleg": 6193,
    "magnetic": 20555,
    "Ġcoarse": 14279,
    "Ġsc": 530,
    "Ġdevilish": 11229,
    "Ġanswering": 7476,
    "Ġshapeless": 24523,
    "Ġhidden": 1375,
    "Ġleech": 24154,
    "Ġcontain": 1553,
    "iability": 20922,
    "pires": 13777,
    "van": 7815,
    "Ġspiced": 22138,
    "asburgh": 15650,
    "Ġserpents": 13080,
    "Ġfloat": 12035,
    "Ġspot": 4153,
    "circuit": 24190,
    "Ġlect": 9224,
    "Ġrelig": 8552,
    "Ġdirect": 1472,
    "Ġfatal": 5872,
    "rim": 7138,
    "sacrifice": 13495,
    "Ġ53": 19638,
    "harb": 9125,
    "otic": 15748,
    "antic": 1603,
    "erately": 21276,
    "Ġbench": 7237,
    "Ġexcuse": 5862,
    "Ġvirtues": 9938,
    "promontory": 24727,
    "Ġregret": 5561,
    "remote": 23194,
    "bab": 11469,
    "fortunate": 4793,
    "Ġadopted": 15181,
    "arance": 4699,
    "crowded": 20193,
    "Ġcreditor": 24291,
    "interruption": 20115,
    "Ġpoll": 12032,
    "persuaded": 15076,
    "build": 12191,
    "ine": 408,
    "Ġslo": 15508,
    "Ġfinish": 7950,
    "object": 6883,
    "Ġinferiority": 17115,
    "Ġfetched": 24567,
    "onel": 3091,
    "happen": 19333,
    "riage": 2122,
    "Ġhabitations": 24788,
    "Ġsounded": 8594,
    "sof": 17658,
    "Ġwallowing": 24046,
    "cement": 2781,
    "collect": 16564,
    "Ġbalances": 2342,
    "Ġwhimsical": 20431,
    "Ġnecessary": 4473,
    "shown": 22461,
    "surd": 6933,
    "odecimo": 11445,
    "Ġirrespective": 23378,
    "Ġfoundling": 22979,
    "great": 3517,
    "Ġcowards": 12577,
    "Ġproxim": 3201,
    "Ġscheming": 23274,
    "wl": 17703,
    "sounding": 24795,
    "Ġintrepid": 11709,
    "dark": 5613,
    "Ġbranded": 14381,
    "Ġtrade": 2547,
    "reported": 24492,
    "Ġbarbara": 24815,
    "Ġpatterns": 1214,
    "Ġacknowledgment": 16958,
    "Ġassistant": 7297,
    "Ġreverie": 13460,
    "borean": 25744,
    "Ġnaturally": 2468,
    "guess": 14763,
    "Ġrooted": 13172,
    "re": 266,
    "unearthly": 19275,
    "Ġintimately": 24801,
    "Ġsimple": 1619,
    "spoke": 11024,
    "py": 17625,
    "Ġfoolishly": 19785,
    "Ġproductions": 22950,
    "Ġrequire": 884,
    "mouse": 15395,
    "bouton": 17503,
    "infor": 2958,
    "sharp": 10309,
    "dirty": 20836,
    "isation": 13895,
    "Ġlovers": 9722,
    "Ġappalled": 22225,
    "Ġjoy": 3185,
    "Ġcivilised": 24246,
    "al": 292,
    "Ġindolent": 13009,
    "Ġtelegram": 15226,
    "Ġcompiled": 22576,
    "Ġfurnace": 19443,
    "!": 5,
    "Ġcoding": 8117,
    "Ġlull": 15654,
    "Ġtransplanted": 22446,
    "Ġparish": 8857,
    "aples": 20770,
    "Ġdifficulties": 11226,
    "Ġcaliforn": 14433,
    "Ġasylum": 13669,
    "Ġmichaelmas": 26376,
    "bit": 3931,
    "Ġmccarthys": 19665,
    "fre": 5425,
    "ension": 6571,
    "acc": 2534,
    "jumping": 20248,
    "ression": 3407,
    "inridge": 11562,
    "Ġbehooves": 20735,
    "Ġrespectful": 16348,
    "Ġwickedness": 9528,
    "Ġplumber": 16088,
    "Ġhand": 859,
    "necess": 4897,
    "osque": 22267,
    "ilted": 21727,
    "Ġpausing": 8656,
    "Ġsav": 3358,
    "Ġfaithfulness": 24445,
    "insisted": 23072,
    "unc": 15772,
    "noo": 9789,
    "83": 13683,
    "Ġfrance": 7682,
    "in": 262,
    "Ġpeg": 22693,
    "Ġtwisting": 18658,
    "likelihood": 4992,
    "suspected": 12375,
    "Ġket": 18348,
    "abode": 21796,
    "Ġoscillations": 2897,
    "Ġgratify": 19506,
    "control": 16544,
    "Ġcasked": 24496,
    "âĢĶâĢĶâĢĿ": 15942,
    "ressed": 3024,
    "Ġcunning": 6239,
    "Ġgrate": 12968,
    "bott": 9108,
    "ĠĠĠĠĠĠĠĠĠĠĠĠĠĠĠĠĠĠĠĠĠĠĠĠĠĠĠĠĠĠĠĠĠĠĠĠĠĠĠĠ": 4516,
    "Ġendowed": 18925,
    "Ġinterfere": 11820,
    "Ġhelp": 1642,
    "whar": 15930,
    "satisfaction": 9994,
    "Ġconfirmed": 11140,
    "Ġwo": 3652,
    "Ġpro": 359,
    "Ġcachalot": 17836,
    "retch": 4372,
    "figure": 13558,
    "can": 1232,
    "Ġbes": 2658,
    "ichever": 13959,
    "Ġboat": 1278,
    "ench": 21282,
    "Ġenriched": 26500,
    "Ġpouring": 12628,
    ".âĢĻâĢĿ": 6740,
    "Ġsty": 6252,
    "london": 9611,
    "enthus": 17980,
    "shoulder": 16585,
    "bourgh": 19105,
    "spite": 16141,
    "Ġisa": 14027,
    "Ġuncl": 22021,
    "rud": 4189,
    "rages": 15684,
    "Ġoblivion": 26032,
    "Ġtrail": 16285,
    "Ġlooked": 1803,
    "Ġ26": 10471,
    "Ġbegone": 11920,
    "promote": 24726,
    "anced": 1401,
    "Ġinventing": 24862,
    "moid": 2449,
    "Ġdollars": 11456,
    "Ġmorocc": 22983,
    "Ġdenote": 19335,
    "inery": 17734,
    "severe": 21823,
    "Ġecstasy": 11632,
    "Ġoust": 21327,
    "Ġobtained": 7431,
    "danish": 20835,
    "enger": 10774,
    "Ġsacrificed": 17424,
    "Ġhum": 1100,
    "Ġworlds": 11950,
    "Ġlima": 10443,
    "Ġrelation": 2141,
    "surprise": 9532,
    "Ġeligible": 10672,
    "simon": 16974,
    "Ġsauntering": 18328,
    "Ġtint": 13819,
    "Û": 156,
    "Ġviv": 6157,
    "Ġmurdering": 14813,
    "inuating": 16205,
    "Ġconjunction": 25103,
    "Ġsafely": 9027,
    "Ġpainting": 13144,
    "Ġbro": 1431,
    "Ġbind": 12586,
    "Ġresponsiveness": 2896,
    "Ġcelest": 9903,
    "istan": 22113,
    "render": 10292,
    "Ġtribute": 15477,
    "¥": 103,
    "Ġrobe": 18459,
    "Ġpreyed": 18367,
    "Ġblank": 5952,
    "Ġsickly": 16775,
    "Ġtwee": 22679,
    "vent": 681,
    "Ġblo": 2732,
    "Ġrelev": 1715,
    "Ġhovering": 10180,
    "prov": 16425,
    "Ġemploying": 23981,
    "Ġwa": 1754,
    "Ġmisunderstood": 18702,
    "Ġ>": 21154,
    "riety": 12748,
    "Ġeventually": 8620,
    "Ġinhabitants": 7523,
    "Ġsinks": 19552,
    "Ġplight": 14284,
    "Ġbraw": 23838,
    "Ġtales": 10143,
    "Ġguess": 4904,
    "Ġhinge": 25542,
    "Ġ(_": 3738,
    "Ġanatomy": 12323,
    "ie": 727,
    "uzza": 11271,
    "Ġyore": 21783,
    "better": 7120,
    "Ġpet": 4587,
    "anean": 7442,
    "ivened": 22969,
    "phil": 7927,
    "77": 15303,
    "Ġfluctuating": 24416,
    "Ġoutcast": 18415,
    "Ġtype": 2020,
    "Ġostrich": 26431,
    "Ġstationary": 19697,
    "Ġunf": 4087,
    "Ġencounters": 19583,
    "Ġforeseeing": 23452,
    "singular": 12192,
    "Ġdau": 21429,
    "Ġfifty": 4624,
    "matters": 14876,
    "pen": 1204,
    "ize": 770,
    "!âĢĻ": 3334,
    "Ġeleventh": 23372,
    "Ġye": 900,
    "web": 18664,
    "Ġfor": 340,
    "Ġfog": 9663,
    "Ġavert": 14427,
    "Ġfelicity": 7259,
    "quadrille": 20598,
    "meditation": 19073,
    "stranded": 19228,
    "Ġhoot": 19078,
    "Ġdenomin": 12071,
    "Ġinfidel": 13091,
    "Ġdot": 4822,
    "Ġemployed": 5200,
    "Ġimprobable": 9797,
    "Ġcompl": 3760,
    "Ġproject": 5545,
    "ability": 716,
    "engaged": 7451,
    "pemberley": 9622,
    "opolising": 25677,
    "iple": 4807,
    "Ġens": 2787,
    "ī": 236,
    "Ġcurbstone": 26043,
    "Ġretirement": 25379,
    "ensed": 10997,
    "Ġinmost": 17933,
    "Ġunsophisticated": 25993,
    "idge": 14016,
    "Ġhollowly": 24525,
    "\",": 10680,
    "match": 15393,
    "Ġdesisted": 22984,
    "Ġfloundering": 16252,
    "sick": 13786,
    "Ġcommonplaces": 16291,
    "scattered": 22999,
    "Ġoccurrence": 14384,
    "avenza": 17104,
    "Ġappeased": 23204,
    "leaned": 21372,
    "sul": 15423,
    "Ġ79": 24266,
    "list": 7550,
    "Ġthough": 989,
    "Ġreplay": 5047,
    "Ġinsulated": 23683,
    "oundering": 11745,
    "allions": 22203,
    "island": 10795,
    "Ġgallons": 14820,
    "Ġhaws": 21956,
    "Ġenviron": 4240,
    "Ġstum": 21736,
    "ino": 15481,
    "Ġpolar": 9413,
    "#": 7,
    "Ġlux": 8817,
    "Ġjudging": 16596,
    "Ġstrolled": 16771,
    "Ġet": 3581,
    "flag": 14713,
    "Ġstruggled": 9907,
    "takes": 21079,
    "Ġcontext": 1717,
    "pres": 16027,
    "Ġscal": 1522,
    "din": 8375,
    "Ġnearest": 8472,
    "Ġsledge": 8112,
    "Ġstranded": 9777,
    "Ġrevived": 11369,
    "Ġretired": 6072,
    "dron": 17526,
    "glit": 23853,
    "Ġthickness": 13281,
    "Ġrivals": 20274,
    "Ġiii": 7862,
    "Ġsentimental": 24753,
    "Ġweal": 21924,
    "less": 929,
    "Ġcam": 10163,
    "Ġendeavours": 8621,
    "pits": 15414,
    "Ġcorrectly": 9406,
    "Ġeel": 18004,
    "Ġhoary": 23358,
    "Ġhogshe": 20495,
    "Ġscuffle": 20611,
    "neat": 22453,
    "Ġfoaming": 18992,
    "wel": 6118,
    "sorrow": 12512,
    "!--": 10679,
    "alarm": 15630,
    "Ġhurtling": 24962,
    "Ġpreservation": 24632,
    "Ġgreenwich": 19322,
    "cannibals": 25585,
    "Ġroundabout": 23066,
    "Ġsuperflu": 14555,
    "ashion": 3859,
    "Ġdisciple": 22786,
    "kles": 17585,
    "Ġeul": 21622,
    "Ġplantation": 11424,
    "Ġdiscerned": 24959,
    "Ġhopeful": 19030,
    "Ġexposing": 11837,
    "Ġfeeds": 16436,
    "spe": 3561,
    "Ġfreshets": 25705,
    "Ġabroad": 8868,
    "Ġanew": 11431,
    "Ġworshipped": 25692,
    "iscient": 17853,
    "Ġenc": 967,
    "Ġsets": 8778,
    "Ġhousings": 21497,
    "Ġfelony": 18954,
    "Ġfearfulness": 23514,
    "Ġmeridian": 25713,
    "Ġcounterbalance": 24721,
    "keys": 15861,
    "detained": 24381,
    "Ġrepressed": 21672,
    "bell": 7331,
    "Ġastonished": 7088,
    "Ġever": 1179,
    "Ġdedu": 5582,
    "Ġtinted": 13824,
    "Ġbooks": 4677,
    "Ġunearthly": 9038,
    "grees": 20888,
    "puff": 21024,
    "raged": 9213,
    "Ġcrater": 16438,
    "Ġunst": 18239,
    "Ġdardanelles": 26444,
    "Ġfinite": 2327,
    "opportunity": 12278,
    "ucy": 15446,
    "ledge": 1329,
    "coiled": 16487,
    "Ġasiatic": 20433,
    "Ġhal": 1362,
    "Ġdecanting": 22448,
    "Ġberg": 24535,
    "Ġseething": 18202,
    "Ġnarrowed": 24354,
    "winding": 16721,
    "Ġswarm": 23058,
    "conduct": 11800,
    "Ġneglig": 18879,
    "Ġovercame": 9748,
    "Ġcottages": 14729,
    ";âĢĿâĢĶ": 20762,
    "Ġcompleted": 8999,
    "doctor": 19097,
    "Ġparty": 3511,
    "Ġanaly": 1121,
    "Ġcraven": 16471,
    "alescing": 23869,
    "osen": 6854,
    "Ġdifference": 1491,
    "scheme": 15257,
    "Ġparc": 10921,
    "Ġcanopy": 18323,
    "Ġconsequence": 5541,
    "Ġquenched": 22422,
    "Ġluxurious": 17313,
    "Ġmanufact": 22333,
    "ose": 717,
    "nineteenth": 26139,
    "Ġhostile": 19943,
    "Ġconceivable": 16614,
    "Ġtrop": 7564,
    "no": 876,
    "Ġbarmaid": 19337,
    "Ġmitt": 21310,
    "Ġtumbled": 13409,
    "Ġinexperience": 26100,
    "Ġdismissed": 12896,
    "asional": 17962,
    "Ġdecipher": 22451,
    "akes": 2218,
    "Ġthistle": 21921,
    "Ġplease": 4724,
    "cheerful": 13578,
    "Ġsacrifice": 9557,
    "Ġlod": 4040,
    "Ġapproximation": 2343,
    "Ġinsupportable": 13934,
    "Ġtener": 21166,
    "comple": 7440,
    "Ġut": 2280,
    "Ġshudderings": 25201,
    "Ġadequately": 15201,
    "uvier": 9070,
    "swaying": 25911,
    "Ġsolved": 8933,
    "Ġmounttop": 19981,
    "Ġemail": 19076,
    "Ġhiding": 9825,
    "Ġheaved": 9385,
    "trying": 15440,
    "Ġfowls": 8694,
    "Ġpressing": 9263,
    "etrics": 21589,
    "Ġworrying": 22931,
    "petulance": 24300,
    "Ġboister": 12923,
    "Ġholidays": 22926,
    "Ġhorrid": 8000,
    "Ġdeclare": 6616,
    "Ġdisd": 7030,
    "q": 85,
    "reckoning": 25271,
    "Ġdamning": 19141,
    "Ġcaged": 21355,
    "uneasy": 23689,
    "Ġtorch": 25033,
    "Ġinsurance": 23685,
    "derness": 11740,
    "Ġcondemned": 7779,
    "Ġnarr": 5085,
    "Ġabstraction": 26540,
    "Ġvagabond": 20206,
    "umst": 2506,
    "Ġroyalty": 19738,
    "Ġsaintly": 25932,
    "Ġcentury": 8292,
    "Ġinflu": 4910,
    "Ġendeavour": 4679,
    "Ġherbage": 25997,
    "present": 1139,
    "ret": 1478,
    "Ġevenings": 18755,
    "Ġaspect": 3097,
    "Ġproducing": 11902,
    "Ġnursery": 19753,
    "echo": 15351,
    "Ġanom": 12615,
    "acks": 11791,
    "run": 10722,
    "{": 95,
    "giving": 8742,
    "Ġ2026": 12338,
    "Ġoverboard": 6046,
    "Ġunful": 22016,
    "mbling": 3347,
    "Ġcomputing": 2219,
    "Ġsoftened": 11103,
    "Ġknob": 24406,
    "Ġnoiselessly": 22865,
    "Ġconsent": 5372,
    "Ġinsult": 6748,
    "Ġladder": 8602,
    "Ġintertw": 18588,
    "useful": 16504,
    "swed": 24255,
    "Ġhealthful": 24061,
    "Ġpaul": 12065,
    "Ġmad": 2425,
    "Ġleaf": 15726,
    "Ġbrood": 23105,
    "Ġunlocking": 20708,
    "intending": 22939,
    "Ġperseus": 10605,
    "mises": 20980,
    "setting": 13289,
    "dles": 11482,
    "Ġobe": 5801,
    "yd": 21145,
    "etts": 12664,
    "Ġenough": 1762,
    "uteronomy": 15667,
    "Ġinconvenience": 9565,
    "Ġmelbourne": 24290,
    "Ġdaft": 19666,
    "Ġundertake": 14481,
    "Ġsped": 22130,
    "clair": 18935,
    "Ġsuppose": 2865,
    "un": 373,
    "Ġtiara": 26416,
    "Ġpleasanter": 19069,
    "uning": 1313,
    "Ġbloom": 9889,
    "joice": 9604,
    "Ġprejudiced": 24806,
    "inn": 5364,
    "telesc": 22820,
    "Ġanywhere": 8518,
    "Ġheadway": 18795,
    "Ġcollapsed": 15084,
    "nes": 6960,
    "gay": 11490,
    "Ġhopes": 4231,
    "Ġgamming": 25543,
    "Ġnut": 12650,
    "Ġtrusting": 24104,
    "aciously": 12900,
    "ially": 9248,
    "Ġthreading": 23405,
    "Ġstrip": 9423,
    "Ġperpendicular": 7207,
    "mother": 5480,
    "Ġsleepers": 13152,
    "Ġwhereby": 11840,
    "Ĥ": 229,
    "Ġporch": 19683,
    "standing": 5557,
    "Ġlens": 8440,
    "Ġvari": 831,
    "Ġrefer": 18703,
    "distinct": 13339,
    "Ġgrosvenor": 17420,
    "Ġarrested": 9562,
    "Ġamusements": 16914,
    "mpus": 13759,
    "Ġcavity": 20491,
    "Ġprovocation": 24193,
    "Ġturbul": 23614,
    "Ġauger": 21206,
    "pidation": 18894,
    "casks": 20406,
    "Ġdepl": 14046,
    "hro": 20893,
    "Ġpress": 5933,
    "oric": 21399,
    "vius": 23545,
    "Ġundiscovered": 18253,
    "near": 5843,
    "Ġcontributed": 16012,
    "Ġcoppers": 22590,
    "Ġdoubtless": 6196,
    "Ġcommanding": 16591,
    "Ġrhine": 12359,
    "Ġvariety": 8532,
    "branch": 23580,
    "enth": 6681,
    "farewell": 12309,
    "Ġbutter": 6841,
    "Ġbroke": 5323,
    "Ġwaylaid": 22875,
    "Ġpalms": 8647,
    "Ġhack": 12760,
    "ulate": 5233,
    "Ġprow": 6685,
    "Ġsain": 17751,
    "offices": 19063,
    "Ġhunter": 5401,
    "ulia": 18151,
    "endure": 22230,
    "Ġconverted": 16114,
    "Ġ118": 19701,
    "Ġintruding": 21996,
    "Ġcomputes": 4769,
    "Ġmixed": 6974,
    "Ġjunk": 15956,
    "ą": 198,
    "Ġmistake": 6204,
    "jets": 20930,
    "Ġfrantically": 23262,
    "Ġunwonted": 15009,
    "Ġvolley": 24144,
    "ast": 473,
    "Ġspouter": 12802,
    "arial": 5531,
    "Ġchin": 4892,
    "tains": 10962,
    "anybody": 12086,
    "omination": 21666,
    "Ġannihilated": 20255,
    "Ġmoonlight": 9960,
    "Ġabsent": 7015,
    "kind": 3863,
    "erred": 6376,
    "uteness": 17988,
    "Ġarrived": 3748,
    "Ġflourish": 17162,
    "Ġglitter": 25126,
    "Ġstretched": 5921,
    "ses": 3029,
    "silver": 19693,
    "ô": 181,
    "Ġignited": 25072,
    "Ġrare": 7037,
    "separ": 9232,
    "È": 137,
    "yramid": 8369,
    "Ġwhar": 7387,
    "Ġterminated": 23511,
    "Ġwolves": 25935,
    "Ġdepended": 9779,
    "lic": 17588,
    "Ġsuperstitious": 13522,
    "Ġmajority": 13296,
    "Ġmart": 10780,
    "comparison": 25842,
    "Ġextant": 18695,
    "Ġuniverse": 14126,
    "ĠvertebrÃ¦": 11436,
    "bedded": 12446,
    "Ġpalm": 10515,
    "athered": 6972,
    "Ġ43": 14771,
    "Ġwish": 2097,
    "merchant": 10468,
    "Ġwield": 21293,
    "ol": 362,
    "Ġfangs": 12601,
    "Ġxxi": 24475,
    "days": 7688,
    "unhes": 21880,
    "aving": 2406,
    "vain": 15449,
    "Ġsighing": 18677,
    "Ġdance": 4442,
    "Ġath": 15804,
    "Ġaloof": 21790,
    "Ġsickbed": 24248,
    "Ġsharp": 2413,
    "Ġpatagonia": 25858,
    "Ġadversity": 24304,
    "Ġducks": 25161,
    "Ġdefinitions": 22948,
    "desired": 9007,
    ").": 1272,
    "osp": 6853,
    "quohog": 21852,
    "Ġdried": 7366,
    "Ġbusy": 6190,
    "derstand": 638,
    "Ġqualified": 14952,
    "Ġbenjam": 22895,
    "Ġmainland": 22652,
    "Ġdodging": 19889,
    "steelkilt": 10049,
    "Ġeffective": 1250,
    "Ġorange": 8488,
    "Ġcal": 1326,
    "Ġbreaks": 13186,
    ").âĢĿ": 20743,
    "Ġblown": 12089,
    "oboam": 9360,
    "Ġhath": 12632,
    "rations": 10724,
    "Ġirretrie": 23377,
    "ifies": 6687,
    "Ġproblem": 1271,
    "Ġwander": 9033,
    "Ġhardy": 8568,
    "ugn": 9380,
    "Ġdecide": 9288,
    "¯": 112,
    "itime": 15551,
    "ustry": 18360,
    "quely": 10233,
    "write": 14648,
    "oping": 5558,
    "Ġhurricane": 16434,
    "Ġcircumstances": 3925,
    "Ġemblazonings": 26044,
    "isf": 2433,
    "Ġgather": 6535,
    "peace": 13053,
    "sively": 13788,
    "Ġnaut": 13943,
    "Ġcharmingly": 24223,
    "Ġoftentimes": 20158,
    "Ġsports": 18311,
    "Ġhot": 4255,
    "Ġhood": 10824,
    "geese": 22372,
    "Ġrecital": 16145,
    "Ġhackluyt": 25656,
    "Ġdoesn": 7437,
    "Ġremains": 4911,
    "Ġendeavoured": 4919,
    "Ġancient": 5443,
    "Ġencouragement": 13047,
    "Ġexcursion": 26590,
    "Ġglaciers": 20176,
    "Ġimposing": 11786,
    "distinctive": 25726,
    "sleet": 20152,
    "Ġgiving": 4083,
    "Ġheading": 8937,
    "Ġmice": 13861,
    "Ġbee": 21754,
    "Ġvanity": 7046,
    "announcement": 24562,
    "Ġbeadle": 26485,
    "Ġtoll": 7853,
    "Ġscar": 3214,
    "Ġgreeting": 18964,
    "Ġconfirming": 25322,
    "Ġfatigue": 8701,
    "described": 18897,
    "adier": 18092,
    "Ġthousand": 2780,
    "entary": 21571,
    "absolut": 8460,
    "Ġsnar": 13201,
    "batim": 25019,
    "peculiarities": 13474,
    "officer": 17054,
    "Ġgenerous": 6274,
    "Ġglistening": 12368,
    "Ġtrif": 6269,
    "ience": 802,
    "everything": 6325,
    "islanders": 25443,
    "Ġknelt": 12162,
    "Ġcelestial": 10069,
    "Ġbutterfly": 19912,
    "Ġjeroboam": 10602,
    "Ġcolony": 18767,
    "Ġusurpation": 18362,
    "Ġlandsman": 11351,
    "Ġdisrespect": 18553,
    "gunpowder": 25340,
    "animals": 24737,
    "Ġsimplest": 16337,
    "shadow": 20317,
    "Ġdecisive": 18486,
    "Ġclimbing": 20073,
    "clear": 9026,
    "delightful": 12200,
    "Ġscorching": 20071,
    "igger": 21705,
    "earliest": 20123,
    "Ġmumbled": 17809,
    "Ġgrudge": 20696,
    "Ġshort": 2224,
    "Ġconfine": 14511,
    "baked": 20781,
    "Ġunfolding": 17086,
    "Ġsuperl": 16445,
    "Ġdecline": 9289,
    "band": 3060,
    "happiest": 19334,
    "Ġcured": 21350,
    "Ġdiggings": 24650,
    "Ġpatchwork": 24140,
    "Ġleast": 2064,
    "sed": 4174,
    "Ġscholars": 26113,
    "desol": 13221,
    "Ġvindictive": 20473,
    "Ġbrilliancy": 20110,
    "Ġcy": 13876,
    "urity": 8144,
    "diss": 17524,
    "Ġtram": 11093,
    "Ġthrown": 4641,
    "zas": 17713,
    "Ġphilosop": 5057,
    "start": 7598,
    "Ġbacked": 12929,
    "transition": 24509,
    "idable": 8147,
    "Ġconc": 1842,
    "inted": 2648,
    "Ġthin": 4348,
    "Ġdenied": 9002,
    "Ġcontemporary": 16015,
    "Ġjavelins": 26106,
    "Ġthoughts": 3140,
    "Ġdanish": 21435,
    "Ġdoor": 1740,
    "Ġgroup": 2038,
    "Ġuplifted": 11649,
    "Ġriver": 5411,
    "Ġobtruded": 20724,
    "deli": 15347,
    "aloes": 21506,
    "Ġreplace": 14479,
    "expectant": 24277,
    "Ġfellows": 8258,
    "Ġsecretly": 13275,
    "Ġgave": 2217,
    "Ġsuck": 15863,
    "rious": 11692,
    "Ġcreativity": 2817,
    "anxiously": 15113,
    "clouded": 20334,
    "caus": 11477,
    "hood": 2657,
    "Ġbravest": 23844,
    "Ġcivilities": 14850,
    "within": 6731,
    "base": 20779,
    "Ġ114": 24437,
    "Ġcontinu": 1164,
    "Ġengagements": 9980,
    "Ġjacobians": 2892,
    "Ġ126": 24470,
    "Ġcorporeally": 25729,
    "Ġrough": 7186,
    "Ġextraordinary": 5414,
    "Ġjonas": 20612,
    "Ġmorality": 22982,
    "Ġentrances": 25835,
    "independ": 15985,
    "Ġenglish": 3616,
    "courage": 17511,
    "Ġrept": 13985,
    "Ġbust": 10169,
    "Ġimputation": 22177,
    "inav": 15486,
    "sor": 7351,
    "Ġelect": 10843,
    "Ġcotton": 17381,
    "widely": 25344,
    "Ġgeography": 23375,
    "Ġfactory": 23280,
    "Ġtaller": 16688,
    "Ġhard": 1444,
    "Ġdisadvantages": 18558,
    "Ġcloth": 9745,
    "elope": 14459,
    "Ġinterrupting": 19560,
    "lingering": 18603,
    "Ġstreet": 2955,
    "Ġlasted": 11055,
    "Ġleeward": 6211,
    "Ġseaward": 22951,
    "Ġbeneficial": 23934,
    "harm": 13737,
    "Ġportcull": 23866,
    "plunging": 25988,
    "Ġwholly": 4447,
    "ounts": 4652,
    "congratulations": 20282,
    "Ġmig": 13858,
    "Ġcolt": 11045,
    "Ġrose": 3443,
    "Ġsteed": 13045,
    "Ġpuff": 6526,
    "Ġencoding": 4775,
    "Ġsophisticated": 1645,
    "ficial": 17549,
    "profitable": 17071,
    "thoroughly": 26508,
    "urer": 18124,
    "spect": 3235,
    "Ġmajesty": 5201,
    "Ġfavourites": 16646,
    "Ġmasts": 6465,
    "Ġcerem": 7078,
    "ste": 3585,
    "nose": 17611,
    "Ġrepe": 3284,
    "Ġhosea": 17333,
    "Ġcapacious": 19178,
    "Ġblocked": 19225,
    "Ġsmitten": 12906,
    "Ġbearing": 5300,
    "Ġplot": 14283,
    "flies": 19427,
    "Ġhazarded": 25655,
    "Ġcame": 1301,
    "Ġdividing": 12115,
    "Ġsoon": 1227,
    "Ġdirections": 1969,
    "pot": 10119,
    "Ġradiance": 13374,
    "Ġindulging": 16905,
    "Ġheadlands": 22904,
    "Ġpang": 15608,
    "Ġshuddered": 11301,
    "Ġyea": 8918,
    "felix": 10655,
    "Ġhyster": 16874,
    "sank": 17663,
    "Ġhermit": 15860,
    "Ġcaves": 15557,
    "Ġchallenges": 13633,
    "icates": 11619,
    "thus": 5158,
    "Ġchose": 7412,
    "racts": 14366,
    "pans": 13772,
    "lacings": 26135,
    "Ġunav": 18241,
    "obstructed": 15229,
    "Ġunembarrassed": 22076,
    "Ġfierc": 18711,
    "Ġadmeasure": 18296,
    "Ġsneezes": 24697,
    "Ġobservation": 6598,
    "Ġsadly": 7301,
    "Ġsuits": 22088,
    "rences": 9274,
    "apothe": 22340,
    "Ġquantity": 6947,
    "Ġchamounix": 14866,
    "oda": 15752,
    "exhibited": 18479,
    "Ġabounding": 12347,
    "Ġsuggest": 5417,
    "Ġoffended": 7041,
    "Ġpostscript": 14810,
    "binder": 17501,
    "Ġgettest": 23237,
    "opp": 6962,
    "Ġworn": 6445,
    "Ġesc": 2253,
    "ouching": 13180,
    "Ġsighs": 22713,
    "disappointed": 25192,
    "level": 2652,
    "pp": 384,
    "Ġcontribute": 12865,
    "Ġforegoing": 23451,
    "Ġreconciliation": 25293,
    "Ġbless": 4343,
    "Ġlanterns": 24577,
    "8": 28,
    "peleg": 16296,
    "Ġexpanded": 14292,
    "medium": 23641,
    "Ġfumbling": 21421,
    "Æ": 135,
    "Ġtiles": 17727,
    "specific": 10499,
    "airs": 2220,
    "Ġalien": 14020,
    "Ġvivacious": 19818,
    "Ġglobe": 6077,
    "flame": 16639,
    "Ġenlightened": 12750,
    "Ġverd": 6918,
    "og": 858,
    "Ġdece": 6996,
    "Ġchink": 15935,
    "additional": 20467,
    "jane": 4482,
    "ivers": 1981,
    "Ġscared": 14191,
    "Ġaccordance": 19501,
    "kindly": 14746,
    "Ġdoubted": 7966,
    "anatory": 21366,
    "ight": 403,
    "heard": 5009,
    "parameter": 3026,
    "crier": 20822,
    "Ġidly": 16406,
    "Ġspoilt": 24804,
    "fulfil": 16036,
    "quiet": 6155,
    "stead": 10847,
    "ib": 1235,
    "Ġremember": 2677,
    "habit": 16191,
    "Ġcommonplace": 11097,
    "enial": 17781,
    "Ġflung": 8565,
    "\"]": 17472,
    "umer": 9260,
    "Ġreceived": 2949,
    "volutions": 16325,
    "prev": 12871,
    "Ġwit": 3842,
    "ella": 12753,
    "Ġunche": 23432,
    "âĢĻ": 378,
    "Ġgle": 7860,
    "Ġtravels": 11930,
    "Ġneighbouring": 12122,
    "Ġquitted": 5312,
    "uneasiness": 23690,
    "veil": 18045,
    "Ġviol": 2071,
    "Ġoverhung": 15977,
    "reposed": 24491,
    "fastened": 19327,
    "lascar": 20962,
    "strip": 19833,
    "circumstances": 8048,
    "Ġdetest": 8502,
    "ulls": 8841,
    "warn": 11544,
    "Ġmantle": 25275,
    "irons": 10240,
    "ange": 1017,
    "Ġfashionable": 19547,
    "brown": 15320,
    "sorting": 17005,
    "Ġwall": 3843,
    "record": 16922,
    "Ġdisordered": 16058,
    "afraid": 10442,
    "itably": 10783,
    "cav": 17509,
    "Ġdampening": 2894,
    "sunlight": 24852,
    "Ġblows": 5974,
    "Ġunassuming": 20512,
    "Ġdeprec": 15761,
    "requirements": 24858,
    "ounding": 22389,
    "Ġriding": 14096,
    "Ġthreads": 13121,
    "alled": 5912,
    "fed": 11489,
    "Ġprovincial": 20652,
    "Ġceler": 15554,
    "Ġshortness": 23483,
    "Ġnerves": 2627,
    "Ġequal": 4134,
    "winter": 10741,
    "Ġdi": 6525,
    "Ġplug": 17149,
    "Ġdim": 4758,
    "stripped": 16946,
    "Ġtranspointed": 22445,
    "Ġsymbol": 7717,
    "networks": 2405,
    "rest": 1632,
    "Ġdrawling": 19440,
    "Ġbraided": 16583,
    "Ġsatisfy": 6911,
    "concern": 5876,
    "tor": 15434,
    "Ġexponential": 1056,
    "Ġwatery": 6297,
    "Ġgetting": 4063,
    "Ġshut": 3941,
    "years": 6882,
    "Ġrather": 1496,
    "Ġrending": 19470,
    "Ġpam": 21458,
    "Ġwindlass": 7255,
    "take": 4577,
    "Ġprograms": 7238,
    "Ġreproach": 9558,
    "Ġfearlessness": 19163,
    "Ġsparkled": 13465,
    "Ġ177": 13415,
    "commod": 16178,
    "Ġprepar": 7899,
    "Ġvig": 5460,
    "Ġuprising": 12806,
    "Ġslewed": 23388,
    "oquent": 12503,
    "greg": 6649,
    "Ġezek": 18012,
    "Ġmal": 5221,
    "Ġshouted": 5348,
    "Ġagatha": 6865,
    "ni": 1609,
    "Ġgreen": 3054,
    "Ġverily": 16604,
    "nephew": 26398,
    "intellect": 18823,
    "sleepy": 24728,
    "Ġcaus": 1726,
    "Ġexp": 778,
    "Ġloud": 4702,
    "Ġremarkable": 4916,
    "eds": 6530,
    "Ġcask": 5527,
    "Ġnavy": 14918,
    "odd": 21814,
    "Ġbrist": 14380,
    "carbuncle": 26383,
    "Ġorder": 1687,
    "clo": 5612,
    "Ġbitter": 4171,
    "Ġunctuous": 10268,
    "still": 4217,
    "Ġcause": 2409,
    "Ġwr": 1545,
    "Ġwide": 4107,
    "Ġsharks": 4497,
    "trained": 4236,
    "seemed": 4303,
    "Ġerrone": 14432,
    "compass": 9462,
    "ets": 1159,
    "Ġwaterward": 23371,
    "Ġascribe": 16783,
    "Ġdumplings": 15193,
    "Ġfierceness": 26266,
    "irting": 11688,
    "skeleton": 17378,
    "tart": 21070,
    "undant": 14793,
    "frequent": 15356,
    "Ġdarcy": 1343,
    "Ġhours": 2819,
    "Ġatt": 776,
    "ies": 582,
    "###": 3828,
    "Ġprofund": 13156,
    "Ġrefuse": 5739,
    "believe": 8305,
    "Ġundulated": 19519,
    "ith": 330,
    "Ġcheered": 16371,
    "Ġcolour": 4461,
    "pacing": 21023,
    "nt": 921,
    "Ġalleghan": 25796,
    "murmured": 24454,
    "Ġatlantic": 7000,
    "skull": 24487,
    "gressive": 2751,
    "ologically": 22864,
    "Ġemph": 14526,
    "Ġpleaded": 16301,
    "Ġwave": 7575,
    "estate": 12825,
    "Ġblades": 11898,
    "Ġeternities": 19946,
    "Ġhoof": 23357,
    "Ġsaw": 1351,
    "cavity": 26127,
    "Ġfootman": 8289,
    "Ġtables": 9880,
    "Ġautonom": 10416,
    "Ġextremely": 2667,
    "supplementary": 20552,
    "moved": 9787,
    "perfectly": 9088,
    "Ġconqueror": 25797,
    "Ġirrad": 19095,
    "Ġsucceed": 4545,
    "precision": 4331,
    "oles": 21007,
    "Ġashes": 7616,
    "//": 11464,
    "Ġforb": 11665,
    "Ġseverest": 14092,
    "meth": 11504,
    "Ġwapping": 21297,
    "gar": 5614,
    "Ġshine": 12770,
    "Ġletters": 3793,
    "Ġinstances": 5567,
    "Ġfeels": 6881,
    "without": 4848,
    "another": 5439,
    "raint": 18315,
    "================================": 5671,
    "method": 17286,
    "Ġworkman": 16274,
    "Ġperform": 1035,
    "salis": 25150,
    "Ġchal": 18379,
    "garnished": 26389,
    "Ġcircumn": 11986,
    "Ġtribes": 20484,
    "Ġpreferment": 19855,
    "alizing": 17942,
    "Ġfasten": 11133,
    "upp": 10132,
    "Ġrobbery": 11924,
    "drunk": 24660,
    "Ġcompletely": 4861,
    "Ġpatent": 11965,
    "Ġsung": 23276,
    "Ġsnuff": 7993,
    "itors": 2912,
    "Ġvincent": 15286,
    "Ġopportunities": 19251,
    "Ġpractices": 19065,
    "Ġende": 21937,
    "igators": 18048,
    "fin": 5209,
    "Ġlicense": 20094,
    "ally": 531,
    "wander": 17710,
    "Ġmarrying": 6178,
    "Ġdough": 8423,
    "Ġsunny": 13089,
    "Ĩ": 233,
    "Ġgradients": 610,
    "Ġrejecting": 17051,
    "betrayed": 24641,
    "Ġnoted": 15833,
    "greatest": 10495,
    "ortion": 11760,
    "etian": 13961,
    "Ġhunting": 7258,
    "Ġdistrict": 10319,
    "Ġbeckoned": 25794,
    "Ġvillanous": 24057,
    "Ġperfume": 25666,
    "Ġfronts": 19003,
    "Ġwitness": 4622,
    "addressing": 24400,
    "Ġinconstant": 21500,
    "coffin": 10664,
    "Ġtransition": 14235,
    "Ġlet": 1114,
    "rupt": 3212,
    "Ġserving": 14487,
    "ainty": 21792,
    "Ġdom": 2670,
    "Ġdissipate": 13636,
    "descried": 11932,
    "Ġobstacles": 19838,
    "Ġletter": 2196,
    "Ġunpleasant": 7190,
    "bbing": 6324,
    "Ġtowing": 9195,
    "growing": 13735,
    "kee": 18274,
    "volous": 18601,
    "whether": 5320,
    "Ġjones": 7203,
    "ĠâĢľâĢĶ": 9736,
    "Ġ27": 8618,
    "sli": 11524,
    "race": 11633,
    "Ġforged": 12708,
    "Ġlabor": 10419,
    "Ġkl": 2734,
    "Ġbury": 12045,
    "Ġdisplaying": 16967,
    "needle": 20313,
    "Ġpat": 1791,
    "hast": 5358,
    "ful": 658,
    "Ġvisit": 2583,
    "Ġmatches": 14398,
    "dispute": 23501,
    "Ġluxury": 20135,
    "ead": 2600,
    "Ġventing": 19496,
    "Ġnug": 21529,
    "older": 15759,
    "Ġunbelief": 22054,
    "rior": 12746,
    "Ġthrough": 603,
    "Ġinevitable": 15170,
    "Ġsecured": 6746,
    "Ġyounger": 5253,
    "Ġtimor": 24226,
    "Ġpersuasions": 16633,
    "Ġunostentatious": 22074,
    "Ġhom": 9188,
    "Ġhides": 16267,
    "oward": 6022,
    "vag": 8768,
    "Ġbast": 21382,
    "desc": 1395,
    "Ġarg": 4767,
    "Ġimplore": 24873,
    "Ġembarrassed": 11385,
    "Ġemer": 5960,
    "Ġlucerne": 23867,
    "Ġgripping": 26188,
    "Ġimparted": 15996,
    "countenances": 24150,
    "Ġfigure": 4205,
    "Ġcomposed": 8895,
    "Ġentreaty": 10531,
    "planks": 21965,
    "Ġpushed": 5911,
    "Ġexact": 2543,
    "Ġjob": 7016,
    "Ġbehind": 2807,
    "Ġmodel": 510,
    "Ġclaps": 22354,
    "Ġelemental": 19921,
    "ouched": 4638,
    "Ġencoder": 3637,
    "Ġbanking": 19633,
    "ronted": 14879,
    "Ġferoc": 14904,
    "covered": 11478,
    "Ġenforced": 21943,
    "diff": 9115,
    "darkened": 24513,
    "unfearing": 21897,
    "Ġlaid": 3940,
    "Ġreb": 15694,
    "answer": 11735,
    "consolation": 15155,
    "smooth": 20251,
    "Ġforming": 7043,
    "terr": 8155,
    "Ġwhalers": 8049,
    "ourably": 14379,
    "guard": 12132,
    "fth": 20858,
    "Ġmedicine": 15209,
    "cles": 8729,
    "Ġbubb": 12588,
    "Ġpallet": 21485,
    "Ġtransformer": 2636,
    "rugged": 6848,
    "dangerous": 20243,
    "Ġunwinding": 22065,
    "Ġesq": 15111,
    "Ġravine": 18648,
    "escaped": 14232,
    "Ġsearched": 15819,
    "ab": 345,
    "irregular": 21916,
    "wolf": 26410,
    "Ġconsider": 2568,
    "enter": 7859,
    "tedious": 22638,
    "endeavouring": 15017,
    "ifts": 12739,
    "ither": 1548,
    "Ġinterpreted": 1712,
    "ian": 1238,
    "Ġkuiperai": 10936,
    "urance": 10858,
    "Ġlomb": 21563,
    "Ġwooded": 23523,
    "owing": 7601,
    "Ġcities": 17829,
    "Ġvalidation": 2358,
    "Ġopenness": 18958,
    "Ġshipwrecked": 25688,
    "Ġexpress": 2194,
    "square": 15063,
    "Ġpoltroon": 26599,
    "Ġengraved": 17081,
    "hval": 20900,
    "gradient": 2275,
    "destruction": 11256,
    "swing": 15431,
    "Ġexc": 1832,
    "sound": 6799,
    "Ġghastly": 10062,
    "arding": 22162,
    "Ġunexplored": 26519,
    "Ġsurrounds": 24233,
    "Ġpres": 9734,
    "verest": 13993,
    "egyptians": 25899,
    "satisfied": 10580,
    "supplement": 14798,
    "Ġasleep": 6835,
    "Ġpanted": 21476,
    "(": 12,
    "Ġfrosted": 19806,
    "Ġjourneying": 25566,
    "outside": 12808,
    "Ġdexterously": 25296,
    "Ġrebell": 21673,
    "Ġouthouse": 22319,
    "Ġwoe": 4794,
    "commence": 19995,
    "Ġaccents": 14212,
    "Ġinstruction": 14344,
    "Ġunimaginable": 15249,
    "Ġsparing": 22134,
    "wer": 8397,
    "Ġmort": 3459,
    "decoder": 3646,
    "Ġedinburgh": 16458,
    "porary": 14552,
    "Ġdazzling": 15214,
    "Ġanalogical": 25641,
    "Ġjetted": 24430,
    "Ġapprovingly": 26254,
    "Ġconvergence": 973,
    "âĢĶ(": 15941,
    "Ġcramped": 23534,
    "Ġexpected": 3698,
    "Ġapples": 22222,
    "Ġspeakest": 23487,
    "Ġrapidly": 3249,
    "burst": 10539,
    "Ġpope": 11604,
    "gard": 7338,
    "menced": 23151,
    "test": 13794,
    "Ġtyro": 16995,
    "Ġtoad": 21514,
    "Ġpassionately": 16765,
    "Ġfoes": 11954,
    "Ġforth": 3462,
    "Ġsensationalism": 26067,
    "germans": 20568,
    "Ġhoped": 5488,
    "Ġcir": 21344,
    "io": 3802,
    "recollection": 25349,
    "Ġunimpe": 22077,
    "Ġboys": 5194,
    "Ġarrangements": 16516,
    "exciting": 19671,
    "dependence": 17169,
    "Ġpolynes": 16085,
    "Ġdisquis": 22532,
    "Ġbonnet": 10657,
    "Ġvideos": 13609,
    "Ġnodded": 11972,
    "Ġstaple": 26200,
    "Ġforgo": 21778,
    "Ġexclam": 6758,
    "scap": 22994,
    "Ġsinful": 18951,
    "impulse": 20647,
    "kill": 13746,
    "Ġdumb": 7844,
    "Ġworry": 18817,
    "eded": 9675,
    "Ġbroadway": 23987,
    "Ġachieved": 13169,
    "ħ": 232,
    "Ġ112": 24436,
    "Ġformations": 18750,
    "Ġunreasoning": 15848,
    "Ġsust": 7007,
    "Ġpower": 1197,
    "bru": 12442,
    "Ġimpart": 11785,
    "problem": 25245,
    "Ġsteward": 6585,
    "ortment": 22263,
    "Ġdisent": 22528,
    "unwholesome": 26498,
    "usual": 5842,
    "bul": 6950,
    "aking": 974,
    "Ġsoul": 2724,
    "oop": 10716,
    "Ġsteadily": 8053,
    "Ġhelplessness": 25074,
    "Ġenvelope": 7318,
    "Ġelucidated": 26030,
    "Ġglistened": 20175,
    "Ġavast": 9922,
    "Ġprovoked": 13329,
    "Ġinsufficient": 9674,
    "Ġdisastrous": 16063,
    "Ġfragrant": 13097,
    "thrasher": 25659,
    "Ġeuropean": 20049,
    "Ġsolic": 7934,
    "Ġvers": 7562,
    "Ġgallon": 24186,
    "Ġensuing": 12312,
    "ohog": 9845,
    "yt": 17712,
    "Ġcalm": 3447,
    "Ġfitted": 6244,
    "ulsive": 10235,
    "Ġdefiance": 11069,
    "Ġinteresting": 4325,
    "ogn": 2475,
    "oglyph": 11017,
    "Ġamendment": 26026,
    "sme": 17659,
    "ired": 1446,
    "Ġ61": 24363,
    "gale": 13726,
    "Ġtol": 6676,
    "Ġcommenting": 25229,
    "Ġaromatic": 25926,
    "Ġfamil": 4320,
    "roqu": 21538,
    "Ġwretch": 6378,
    "Ġgarb": 21607,
    "Ġleaders": 16629,
    "Ġsurrounding": 12166,
    "Ġcould": 703,
    "Ġcontent": 5034,
    "Ġrefuge": 8543,
    "Ġrect": 18028,
    "Ġexpedite": 24956,
    "Ġpersuas": 23950,
    "Ġgodlike": 23361,
    "assed": 6421,
    "Ġpens": 21464,
    "Ġveteran": 17452,
    "somehow": 12014,
    "coburg": 13601,
    "moderate": 22854,
    "Ġsallies": 21232,
    "verity": 14003,
    "Ġlaurel": 20656,
    "Ġdeficiency": 14405,
    "ineas": 15829,
    "allers": 22202,
    "Ġpettic": 14843,
    "forbidding": 25838,
    "vand": 21111,
    "visitors": 13352,
    "otent": 8835,
    "Ġentries": 22747,
    "Ġtoe": 13938,
    "anse": 12579,
    "Ġscrupled": 25052,
    "Ġeff": 673,
    "leather": 13892,
    "grant": 10428,
    "_).âĢĶ": 8685,
    "Ġgi": 15669,
    "piece": 6657,
    "compl": 6872,
    "flowing": 14571,
    "jointed": 24013,
    "cloudless": 20335,
    "Ġcompasses": 11268,
    "Ġlack": 17966,
    "Ġbeckoning": 20505,
    "ength": 2315,
    "Ġadieu": 10053,
    "Ġbraces": 14671,
    "Ġpersecut": 16953,
    "Ġcommunications": 16357,
    "Ġcondem": 6339,
    "ĠarchÃ¦": 22795,
    "Ġlegit": 16474,
    "Ġwollstonecraft": 26426,
    "ained": 3066,
    "Ġcalam": 13038,
    "Ġmonstrous": 7790,
    "taining": 7205,
    "Ġresolving": 9421,
    "Ġhammer": 6095,
    "Ġbox": 5109,
    "ilent": 21724,
    "Ġcheese": 9379,
    "Ġvirtuous": 14757,
    "Ġaid": 6123,
    "ective": 18177,
    "Ġanswerable": 23472,
    "frau": 15092,
    "Ġcontemplation": 11358,
    "Ġblast": 7444,
    "Ġreveren": 13198,
    "Ġnervous": 2404,
    "Ġshame": 6410,
    "Ġbible": 9321,
    "shelf": 20384,
    "Ġbreeds": 23352,
    "december": 25559,
    "namely": 23674,
    "uiperai": 10665,
    "pretty": 10623,
    "enormous": 26167,
    "Ġmonogram": 26575,
    "Ġsilent": 3413,
    "boo": 16353,
    "gunw": 17222,
    "lanter": 15390,
    "Ġgayer": 24497,
    "Ġfolding": 19729,
    "Ġspake": 18309,
    "Ġcategorization": 12140,
    "Ġendangered": 16305,
    "Ġresume": 18566,
    "iciously": 17976,
    "Ġwilfully": 16767,
    "Ġmounted": 7833,
    "stopping": 19353,
    "ush": 3634,
    "Ġways": 5396,
    "day": 1857,
    "Ġfab": 15579,
    "analy": 17840,
    "article": 22388,
    "Ġfathom": 17048,
    "Ġhero": 5715,
    "Ġcombined": 8551,
    "tossing": 18582,
    "Ġfringed": 17274,
    "braces": 24659,
    "Ġherein": 16193,
    "Ġconvince": 14643,
    "P": 52,
    "repent": 15515,
    "character": 6332,
    "Ġ92": 24592,
    "hy": 4741,
    "Ġblush": 14403,
    "esteemed": 26010,
    "Ġbump": 9661,
    "Ġhammers": 13244,
    "Ġhill": 5626,
    "weigh": 18665,
    "Ġbeards": 21756,
    "investments": 25533,
    "Ġphilipses": 24451,
    "Ġengra": 7876,
    "Ġbridal": 14956,
    "Ġblanched": 26284,
    "Ġpieces": 7368,
    "Ġstoven": 23180,
    "Ġcage": 17827,
    "Ġices": 21157,
    "iating": 3208,
    "Ġmysteriously": 24603,
    "Ġmexic": 14034,
    "Ġchancery": 20718,
    "Ġrhone": 25231,
    "Ġopenly": 8575,
    "cool": 19189,
    "Ġinnocently": 24031,
    "Ġtranque": 14202,
    "Ġmoustache": 20487,
    "Ġsteamer": 17190,
    "Ġgriefs": 16772,
    "Ġegotistical": 26193,
    "Ġentreat": 4509,
    "excellent": 8045,
    "Ġvenetian": 14849,
    "Ġgasfitters": 25041,
    "Ġillum": 9402,
    "dignity": 15348,
    "Ġdeparted": 5562,
    "Ġstoutest": 24630,
    "oyed": 14367,
    "Ġhandsomest": 20337,
    "however": 4374,
    "Ġunheard": 22030,
    "onness": 21257,
    "Ġrummaged": 16911,
    "Ġalbatross": 10872,
    "Ġor": 437,
    "Ġconvict": 23747,
    "Ġpore": 21462,
    "itude": 1418,
    "bers": 2570,
    "Ġbehoo": 19037,
    "summoned": 26592,
    "Ġcontin": 5382,
    "Ġgleams": 17312,
    "horrible": 14601,
    "Ġrefers": 1565,
    "hever": 13833,
    "Ġcuts": 14608,
    "pling": 8476,
    "Ġdiverse": 19212,
    "inations": 7566,
    "Ġrevive": 13482,
    "Ġdaunt": 19667,
    "Ġacross": 1330,
    "Ġsands": 14950,
    "Ġexpectations": 13146,
    "Ġoozy": 21330,
    "Ġshaggy": 13573,
    "Ġcolonnades": 26277,
    "Ġramble": 9315,
    "adventures": 20259,
    "Ġfly": 3869,
    "increasing": 20272,
    "Ġcelebrated": 13597,
    "watch": 6119,
    "Ġfleets": 23777,
    "dish": 12456,
    "Ġboxes": 13377,
    "Ġunaccountably": 26516,
    "taken": 7559,
    "probably": 10022,
    "Ġsphynx": 20714,
    "keenest": 25662,
    "Ġrested": 9381,
    "uity": 12521,
    "Ġfluctu": 5268,
    "Ġcure": 21343,
    "Ġassembl": 20064,
    "repid": 11566,
    "taught": 17685,
    "pret": 7211,
    "Ġkid": 9727,
    "iries": 18172,
    "ille": 9221,
    "roc": 9676,
    "Ġdug": 21434,
    "thank": 4950,
    "accepting": 20138,
    "Ġmark": 2333,
    "Ġapologies": 25197,
    "Ġperil": 5556,
    "Ġawaiting": 11391,
    "Ġdoors": 6418,
    "gro": 10096,
    "Ġinflamed": 13476,
    "romed": 10906,
    "ory": 1082,
    "Ġconversations": 9427,
    "Ġphilist": 16602,
    "gryphon": 15361,
    "prehend": 14237,
    "protected": 19923,
    "Ġequalled": 13316,
    "Ġindeed": 1682,
    "aution": 9390,
    "fanning": 20868,
    "Ġexposure": 16102,
    "Ġapparel": 20439,
    "Ġgrammars": 11403,
    "acquainted": 7312,
    "cooper": 19191,
    "hyp": 15369,
    "Ġminiatures": 20324,
    "Ġpractical": 3165,
    "Ġcalcul": 3639,
    "ho": 2857,
    "Ġamid": 4959,
    "Ġswears": 16465,
    "Ġlurk": 13386,
    "Ġdazed": 15599,
    "Ġdawned": 14996,
    "ys": 3958,
    "Ġryder": 10260,
    "Ġplains": 14624,
    "Ġhon": 2538,
    "Ġinferred": 14501,
    "Ġparasol": 22126,
    "Ġbland": 11065,
    "Ġcr": 2149,
    "expectation": 14858,
    "Ġresol": 2663,
    "Ġvile": 8474,
    "Ġunspeak": 8853,
    "Ġcertainty": 6735,
    "commendation": 26351,
    "Ġwhalebone": 10978,
    "Ġelijah": 9102,
    "=": 33,
    "Ġruled": 22788,
    "Ġupbraiding": 26228,
    "ĠĠĠĠĠĠĠĠĠĠĠĠĠĠĠĠĠĠĠĠĠĠĠĠĠĠĠ": 14888,
    "clopÃ¦dia": 15259,
    "osity": 14187,
    "Ġdrab": 13074,
    "ach": 435,
    "ese": 4444,
    "Ġimputable": 22178,
    "Ġsunrise": 9375,
    "Ġignorant": 5344,
    "tails": 21089,
    "slight": 10728,
    "Ġchurning": 15940,
    "complain": 14360,
    "comfortableness": 24524,
    "ă": 196,
    "Ġdescent": 999,
    "Ġmended": 21316,
    "prophecy": 22840,
    "Ġstand": 1736,
    "Ġstubbornness": 25380,
    "Ġpeep": 6869,
    "Ġnegative": 1465,
    "sing": 5138,
    "Ġtight": 8109,
    "Ġcanallers": 13630,
    "Ġdisagree": 22537,
    "iration": 4540,
    "characteristic": 24686,
    "Ġdotted": 16793,
    "Ġhabits": 6925,
    "Ġforgiven": 24030,
    "erne": 21272,
    "mund": 13760,
    "Ġheat": 5453,
    "Ġmorbidness": 20631,
    "Ġhumiliating": 22888,
    "Ġresidence": 8208,
    "pleasanter": 24050,
    "cape": 13700,
    "Ġoppose": 16521,
    "ooped": 17624,
    "Ġlower": 2660,
    "irr": 12741,
    "Ġbeating": 8146,
    "Ġdollar": 25284,
    "Ġaffrighted": 13575,
    "Ġmem": 2069,
    "Ġsnaky": 23744,
    "Ġsacrilege": 26230,
    "extric": 22769,
    "ruding": 9726,
    "Ġparad": 2841,
    "Ġantichronical": 26610,
    "Ġlofty": 6218,
    "¼": 125,
    "Ġdavy": 25952,
    "nue": 15399,
    "Ġaffability": 14389,
    "Ġpolitic": 23620,
    "Ġexpeditions": 24957,
    "watching": 16931,
    "Ġlegendary": 20540,
    "Ġthirteen": 15277,
    "medi": 2629,
    "books": 8667,
    "dogs": 25403,
    "Ġdiscovers": 4428,
    "commun": 15035,
    "iring": 1708,
    "Ġeducated": 16786,
    "Ġdestruction": 6601,
    "oll": 5456,
    "Ġguards": 16271,
    "Ġspeculations": 23002,
    "ĺ": 251,
    "Ġul": 6827,
    "Ġmusk": 7493,
    "ering": 1267,
    "envelope": 17784,
    "Ġgrud": 17998,
    "Ġcigar": 9547,
    "Ġowned": 11879,
    "shazz": 14244,
    "hush": 20908,
    "Ġincline": 18571,
    "Ġviolently": 6456,
    "Ġbarque": 23793,
    "Ġbumpkins": 25282,
    "ission": 6457,
    "claim": 9837,
    "Ġcompass": 4409,
    "Ġost": 9651,
    "Ġlow": 1649,
    "Ġcirclings": 26432,
    "century": 20050,
    "Ġnovelist": 24776,
    "prevailed": 17347,
    "Ġcumbrous": 26433,
    "Ġhereabouts": 12982,
    "orated": 12595,
    "impatience": 25501,
    "Ġchambers": 16800,
    "Ġnarrowly": 16821,
    "Ġtawn": 13825,
    "Ġsavag": 19377,
    "Ġadmon": 15871,
    "Ġunsupervised": 2624,
    "Ġconsistence": 23360,
    "formal": 14169,
    "Ġvexatious": 19784,
    "Ġconcert": 11970,
    "shutters": 20316,
    "mankind": 14376,
    "Ġmay": 924,
    "Ġshark": 5549,
    "izabeth": 906,
    "Ġtenderly": 11315,
    "arpaul": 14537,
    "itable": 5437,
    "venison": 22632,
    "Ġgently": 7171,
    "Ġwarmer": 19187,
    "Ġmanage": 7640,
    "Ġfif": 4215,
    "Ĝ": 221,
    "mushroom": 26396,
    "Ġdiscern": 7658,
    "Ġalphabetical": 17203,
    "expected": 5780,
    "Ġran": 3345,
    "binary": 20786,
    "Ġlandsc": 11147,
    "Ġprevious": 2089,
    "ascending": 24706,
    "Ġfris": 23259,
    "Ġirreparable": 20002,
    "Ġleaped": 8829,
    "une": 2785,
    "Ġdrives": 14579,
    "ineff": 21992,
    "brimmed": 14589,
    "Ġwarned": 16881,
    "Ġamerican": 5061,
    "Ġleakage": 23461,
    "Ġadorned": 15250,
    "Ġcountrymen": 23597,
    "bird": 9587,
    "splice": 17172,
    "beloved": 19464,
    "Ġsuccor": 25663,
    "mouthed": 12403,
    "itories": 15552,
    "Ġdrifted": 14626,
    "unks": 15778,
    "Ġweakness": 9969,
    "'m": 9584,
    "guessed": 25873,
    "harpoon": 9493,
    "Ġcapital": 7981,
    "monkey": 19172,
    "Ġmemorand": 23408,
    "Ġgifts": 21616,
    "mechanically": 17302,
    "Ġapplicable": 19012,
    "hab": 1078,
    "Ġdeserts": 10509,
    "âĢĻâĢĶ": 12740,
    "ached": 2323,
    "izard": 10884,
    "Ġtraits": 23080,
    "Ġvulture": 17341,
    "Ġpractises": 23340,
    "Ġdisturbing": 19949,
    "Ġmag": 1430,
    "Ġthreats": 13380,
    "pattern": 4626,
    "press": 1732,
    "ushes": 22296,
    "Ġconspicuous": 13606,
    "Ġexal": 10878,
    "Ġcalmed": 16270,
    "odecimoes": 25319,
    "Ġepidemic": 20698,
    "racing": 21635,
    "surpr": 5998,
    "quar": 7615,
    "Ġused": 2060,
    "Ġlitter": 19832,
    "situation": 11438,
    "car": 4210,
    "russian": 22194,
    "idav": 18095,
    "sympathy": 20545,
    "Ġstands": 5259,
    "Ġconsequent": 18113,
    "Ġspeedily": 7712,
    "loaded": 22517,
    "<PAD>": 0,
    "Ġ109": 24415,
    "shaw": 6863,
    "Ġdismally": 20217,
    "Ġmiscell": 16152,
    "Ġalco": 21787,
    "Ġgiant": 13970,
    "Ġfac": 6381,
    "rily": 7621,
    "lipped": 16219,
    "Ġknight": 9729,
    "Ġfull": 2177,
    "sax": 21059,
    "ows": 1918,
    "treas": 17680,
    "troubled": 17112,
    "ves": 696,
    "Ġmoreover": 6164,
    "decl": 8859,
    "Ġlump": 21556,
    "Ġglories": 16243,
    "Ġextended": 7926,
    "Ġcoats": 16082,
    "Ġimmensely": 13598,
    "eastward": 15132,
    "Ġcontribut": 12863,
    "objection": 19917,
    "Ġobvious": 4964,
    "voice": 7817,
    "Ġol": 17816,
    "ank": 1366,
    "consent": 18502,
    "looks": 12020,
    "Ġaunt": 3178,
    "Ġadventure": 5982,
    "Ġfellow": 2775,
    "low": 656,
    "Ġindolence": 16230,
    "Ġdeceive": 12726,
    "prospect": 23399,
    "Ġconcentrated": 15086,
    "Ġswell": 8951,
    "itives": 17821,
    "Ġcanted": 17833,
    "Ġlounged": 19957,
    "Ġscrupulous": 20072,
    "Ġcognitive": 13637,
    "Ġpioneer": 17921,
    "Ġimplies": 24874,
    "Ġflounders": 23018,
    "oper": 7346,
    "Ġbeheading": 21759,
    "Ġapartment": 6635,
    "Ġdizzy": 21436,
    "Ġindustry": 18839,
    "doubted": 17527,
    "isance": 17849,
    "Ġharness": 17930,
    "Ġfest": 10805,
    "drab": 23902,
    "condemned": 26061,
    "Ġamaze": 22489,
    "Ġrepetition": 8974,
    "Ġpled": 17909,
    "'": 11,
    "cutting": 23787,
    "Ġdeterm": 1270,
    "punishment": 15148,
    "slightest": 25417,
    "Ġtoes": 10830,
    "formed": 2554,
    "insula": 23071,
    "Ġvoid": 14088,
    "buff": 15321,
    "Ġunparalleled": 15856,
    "Ġchurchyard": 16778,
    "Ġexaggerate": 25650,
    "Ġmarble": 7669,
    "Ġbatt": 13901,
    "z": 94,
    "inging": 5908,
    "bidden": 19739,
    "Ġfifteen": 6946,
    "Ġundergone": 18986,
    "Ġoverjoy": 15974,
    "has": 4010,
    "omin": 4704,
    "Ġbook": 2701,
    "Ġdrive": 5055,
    "Ġoun": 13865,
    "Ġusage": 9733,
    "Ġcoming": 2617,
    "heavy": 10576,
    "Ġsmacking": 20168,
    "Ġendued": 14079,
    "Ġforg": 3788,
    "pressing": 19015,
    "Ġtombed": 25164,
    "Ġaux": 21202,
    "bohem": 19002,
    "Ġpitchpoling": 14913,
    "Ġcemeteries": 26377,
    "Ġmisgiv": 14345,
    "ercely": 12554,
    "Ġpo": 738,
    "Ġbeh": 1802,
    "perai": 10277,
    "!_": 7328,
    "Ġbenefits": 4286,
    "Ġopinions": 9417,
    "Ġraptures": 13499,
    "Ġsuppress": 13028,
    "Ġstanzas": 21749,
    "Ġbeware": 8831,
    "alization": 733,
    "alive": 10828,
    "Ġmarket": 7709,
    "Ġstig": 14004,
    "Ġsince": 1797,
    "Ġendeav": 2952,
    "Ġethere": 23954,
    "ulated": 6031,
    "Ġyaw": 18097,
    "Ġsuggestions": 24452,
    "Ġshifted": 14109,
    "nostril": 26560,
    "nesday": 8706,
    "aye": 3661,
    "Ġbreakers": 12058,
    "Ġaccepted": 7751,
    "Ġemblaz": 16238,
    "disappo": 8986,
    "Ġloved": 4600,
    "ruct": 694,
    "Ġsubset": 9872,
    "killing": 20944,
    "strength": 13977,
    "aud": 8523,
    "Ġminima": 3463,
    "oriental": 23723,
    "Ġcondu": 18112,
    "ě": 220,
    "Ġking": 2307,
    "determ": 7106,
    "Ġgroan": 13328,
    "anything": 5518,
    "Ġunderwent": 23242,
    "Ġsnatched": 10472,
    "Ġbrains": 2630,
    "iers": 5992,
    "Ġpoor": 1710,
    "Ġter": 2051,
    "Ġhandles": 22701,
    "Ġprotectors": 9072,
    "Ġxlvi": 25591,
    "chron": 21698,
    "Ġtunes": 24621,
    "Ġroasted": 18461,
    "Ġpresentiment": 18989,
    "very": 501,
    "infall": 21191,
    "Ġjudiciously": 23881,
    "Ġdetail": 636,
    "Ġmortification": 12098,
    "Ġundeniable": 26511,
    "Ġauthors": 10417,
    "Ġceremony": 8362,
    "Ġmet": 1860,
    "Ġoughts": 23904,
    "sis": 1835,
    "Ġruefully": 17303,
    "ud": 911,
    "shold": 2772,
    "Ġconvert": 11845,
    "fooled": 24418,
    "Ġdistance": 3482,
    "Ġany": 687,
    "Ġrobins": 16265,
    "Ġpitches": 23905,
    "Ġtars": 21167,
    "othing": 6995,
    "acon": 10683,
    "ed": 293,
    "conve": 14245,
    "Ġchanced": 8188,
    "rop": 540,
    "indul": 22375,
    "arted": 2200,
    "Ġdyspeps": 16496,
    "),": 1347,
    "Ġweighing": 20019,
    "Ġequally": 5258,
    "Ġbequeathed": 20704,
    "Ġbarrels": 9438,
    "Ġcarbuncle": 14447,
    "Ġangel": 4854,
    "Ġtomahawk": 7538,
    "Ġwent": 1538,
    "Ġfootmen": 23800,
    "Ġinvestigations": 17248,
    "Ġreddening": 25971,
    "Ġgarn": 13965,
    "Ġtash": 13822,
    "Ġstruggle": 3676,
    "[": 63,
    "Ġheavens": 5050,
    "Ġquieted": 23846,
    "Ġasiatics": 20434,
    "quick": 6400,
    "Ġwal": 6517,
    "hens": 3936,
    "Ġ1": 1015,
    "ically": 851,
    "Ġconcentric": 20078,
    "Ġreprehensible": 15702,
    "Ġparamet": 609,
    "Ġverte": 9443,
    "Ġprender": 22240,
    "police": 10585,
    "Ġunt": 2295,
    "Ġsubstance": 5510,
    "distrustful": 26332,
    "Ġfloating": 6605,
    "Ġinh": 10825,
    "may": 3681,
    "Ġbehaviors": 13258,
    "Ġlazarus": 15030,
    "Ġacquiescence": 20333,
    "eze": 20849,
    "Ġindul": 5857,
    "estab": 14172,
    "reve": 12543,
    "Ġgrego": 18963,
    "year": 11096,
    "Ġalpine": 18108,
    "evenings": 19466,
    "overs": 17622,
    "Ġsingers": 23774,
    "Ġminimizes": 2047,
    "adr": 6994,
    "Ġinside": 5448,
    "questions": 16761,
    "Ġleak": 2160,
    "Ġdispleasure": 16055,
    "Ġcrab": 13147,
    "Ġserv": 3331,
    "Ġalter": 6543,
    "Ġdepartments": 24244,
    "Ġbuoyed": 20044,
    "bennet": 5353,
    "constant": 11325,
    "Ġparticularly": 5056,
    "akness": 14196,
    "Ġofficially": 24839,
    "uncommonly": 25550,
    "eled": 2359,
    "Ġcorroborated": 26055,
    "Ġscrut": 15948,
    "Ġchoosing": 19593,
    "fted": 9120,
    "engthen": 14460,
    "dwell": 15344,
    "Ġspilling": 22142,
    "Ġbengal": 18785,
    "Ġheated": 21686,
    "Ġdream": 3539,
    "Ġmust": 842,
    "Ġdent": 13908,
    "inated": 6804,
    "aring": 1479,
    "bold": 17489,
    "Ġliberties": 19670,
    "Ġconcept": 684,
    "Ġcassock": 20490,
    "Ġimpud": 18451,
    "Ġbloodless": 19341,
    "occupation": 15060,
    "suitable": 18641,
    "arcy": 1274,
    "emberley": 4169,
    "okers": 18443,
    "Ġprotect": 6338,
    "antages": 7191,
    "barbar": 20241,
    "footsteps": 25200,
    "Ġfairness": 9896,
    "plan": 15821,
    "..": 5783,
    "feels": 22508,
    "Ġgnawed": 25168,
    "wondering": 19847,
    "Ġcorrupt": 11926,
    "Ġclasping": 20212,
    "Ġvib": 8166,
    "obser": 11100,
    "Ġaim": 10147,
    "Ġinjure": 16782,
    "Ġlimped": 19183,
    "Ġpads": 21478,
    "Ġlungs": 8363,
    "fee": 12883,
    "Ġbedroom": 7276,
    "Ġbulls": 23861,
    "Ġensemble": 1606,
    "Ġcorroded": 18877,
    "Ġrolling": 5976,
    "Ġdiffer": 18678,
    "Ġmicrosc": 20679,
    "wat": 6232,
    "Ġrabb": 4162,
    "Ġintolerable": 8483,
    "Ġforeshadowing": 26593,
    "scratch": 26045,
    "Ġabomination": 22283,
    "Ġuninter": 18247,
    "Ġresort": 18564,
    "ĠâĢĻ": 3045,
    "omet": 3077,
    "Ġbeheld": 4492,
    "Ġdaring": 8122,
    "venant": 22631,
    "Ġcate": 4108,
    "========": 2314,
    "carry": 19529,
    "Ġbent": 5149,
    "Ġpots": 9430,
    "Ġinspirited": 23424,
    "effectually": 25131,
    "anks": 3916,
    "Ġbound": 3519,
    "sleeves": 26110,
    "Ġentreated": 9953,
    "Ġfame": 21409,
    "Ġaccusation": 22385,
    "landish": 11945,
    "Ġchatbots": 11350,
    "Ġsodden": 25536,
    "Ġfacial": 10607,
    "Ġcorrespond": 6210,
    "Ġunbecoming": 22069,
    "course": 6105,
    "Ġpurse": 12013,
    "Ġvisited": 5949,
    "liable": 3819,
    "Ġclutches": 20021,
    "whew": 22871,
    "accompan": 11453,
    "Ġloitering": 22121,
    "Ġfordham": 21781,
    "handle": 11191,
    "offer": 19062,
    "hastening": 24447,
    "rie": 2786,
    "Ġwondering": 7972,
    "ribs": 23369,
    "Ġcontemplative": 19895,
    "Ġlandlord": 5580,
    "indifference": 15986,
    "olly": 3229,
    "Ġphrenolog": 12337,
    "feather": 16046,
    "Ġchasing": 11757,
    "Ġhelped": 7458,
    "Ġscatter": 18398,
    "Ġdissembling": 26256,
    "sar": 12508,
    "Ġlonged": 6436,
    "Ġimprinted": 22403,
    "Ġclient": 5555,
    "Ġlane": 5627,
    "Ġbluish": 23654,
    "Ġviews": 7289,
    "Ġquaint": 18466,
    "Ġcrystals": 20230,
    "tisement": 6767,
    "lucas": 15154,
    "Ġmenaces": 23111,
    "Ġbehavior": 8003,
    "Ġunreserved": 19400,
    "Ġconcern": 2585,
    "utterly": 20015,
    "Ġexamination": 8006,
    "Ġjuggling": 20442,
    "Ġstraighten": 24007,
    "Ġserve": 9371,
    "Ġlazily": 11381,
    "Ġdrink": 4788,
    "Ġindistinctly": 26118,
    "Ġgur": 21596,
    "Ġexamining": 8007,
    "Ġslew": 23386,
    "Ġcocoa": 25483,
    "perseus": 26006,
    "Ġresent": 6050,
    "Ġrepairing": 25590,
    "Ġantarctic": 19555,
    "Ġdearer": 14051,
    "illuminated": 17455,
    "Ġhappen": 5570,
    "Ġfree": 3376,
    "Ġimitation": 22176,
    "coarse": 16488,
    "Ġoars": 3897,
    "Ġglu": 15671,
    "Ġbeside": 5192,
    "Ġpresents": 8246,
    "iations": 11496,
    "arising": 17897,
    "developed": 15267,
    "haul": 14767,
    "ager": 6547,
    "reme": 2423,
    "sig": 2873,
    "Ġdenominated": 15231,
    "Ġavowal": 19418,
    "Ġmermaids": 26171,
    "Ġanxiety": 5408,
    "Ġinexper": 16981,
    "Ġdrugged": 12606,
    "Ġevents": 4472,
    "Ġlightnings": 16355,
    "enemy": 15529,
    "Ġvultures": 25654,
    "Ġlick": 21554,
    "stream": 15689,
    "Ġhaz": 12759,
    "Ġinhab": 5083,
    "belled": 24039,
    "oses": 3945,
    "Ġleading": 7296,
    "ú": 187,
    "onom": 9160,
    "accompanied": 12425,
    "jol": 20927,
    "Ġobliging": 13246,
    "Ġarchitects": 18743,
    "Ġestim": 3350,
    "Ġexpiring": 16101,
    "Ġunlocked": 14122,
    "Ġsubsisted": 19119,
    "Ġfret": 10807,
    "beef": 18521,
    "until": 6597,
    "Ġdepartment": 24243,
    "sat": 4811,
    "Ġsustained": 13485,
    "alth": 3259,
    "Ġconfining": 23310,
    "Ġsuperstitions": 17072,
    "amiable": 14055,
    "j": 78,
    "Ġunwarrantable": 26346,
    "Ġstatement": 5255,
    "Ġsums": 2901,
    "total": 17252,
    "Ġopen": 1551,
    "pursue": 24978,
    "desperate": 17359,
    "inence": 15483,
    "Ġminutes": 2999,
    "Ġreceiving": 4883,
    "Ġhamper": 19392,
    "Ġkettle": 26234,
    "Ġvoyagings": 19238,
    "Ġrehearsed": 25972,
    "Ġstream": 5186,
    "Ġonce": 1493,
    "Ġmiss": 1229,
    "hat": 6955,
    "Ġexists": 14043,
    "Ġfears": 5729,
    "Ġheaven": 3366,
    "Ġhammock": 5768,
    "maged": 15396,
    "Ġwarmth": 6904,
    "Ġoverwhelmed": 11404,
    "Ġpark": 5465,
    "convul": 24884,
    "ercial": 21277,
    "dripping": 16906,
    "Ġplainpal": 19279,
    "met": 6654,
    "Ġattent": 4361,
    "Ġconnivance": 25226,
    "ous": 476,
    "Ġrifled": 21981,
    "Ġrights": 10398,
    "Ġleaving": 3904,
    "omen": 4084,
    "Ġsurmise": 12298,
    "Ġstrokes": 16770,
    "Ġinjuring": 24270,
    "Ġsagacious": 14973,
    "inexplicable": 25811,
    "forgive": 18725,
    "tempered": 13449,
    "Ġepicures": 25880,
    "advance": 12160,
    "Ġtrustworthy": 24105,
    "Ġperfectly": 3702,
    "Ġalmanac": 26486,
    "reduc": 5459,
    "Ġskewer": 19623,
    "Ġincapable": 7422,
    "Ġostent": 13587,
    "isa": 17847,
    "iving": 1727,
    "Ġthunders": 15641,
    "Ġbaffled": 12406,
    "Ġmeanness": 22600,
    "Ġsurpl": 19134,
    "Ġeagerly": 4990,
    "Ġthief": 11612,
    "Ġbeloved": 5571,
    "Ġbenchmarks": 15023,
    "Ġenorm": 5304,
    "Ġassume": 10517,
    "Ġw": 272,
    "Ġdoze": 14178,
    "ony": 3031,
    "Ġcem": 17825,
    "Ġuntoward": 19167,
    "dued": 7911,
    "Ġrattled": 15071,
    "Ġdrowsiness": 26446,
    "omy": 6250,
    "my": 1317,
    "pat": 10118,
    "ham": 1701,
    "prehens": 9290,
    "sloop": 26146,
    "Ġhappening": 14385,
    "icking": 8913,
    "departed": 24793,
    "tottenham": 25419,
    "idled": 21773,
    "wich": 11545,
    "gal": 15358,
    "Ġprofited": 19194,
    "Ġtaking": 3253,
    "Ġmagnanimous": 17413,
    "Ġexecute": 7504,
    "whereby": 23421,
    "safety": 20352,
    "Ġrelics": 16198,
    "Ġ/*": 10141,
    "Ġbarbs": 10533,
    "ios": 2182,
    "Ġmonster": 3794,
    "Ġdl": 3377,
    "¹": 122,
    "regularly": 13209,
    "vishnoo": 21122,
    "inburgh": 15492,
    "Ġcommissionaire": 17001,
    "pens": 17633,
    "Ġdem": 11676,
    "Ġeliza": 6437,
    "abash": 18110,
    "Ġomitted": 12568,
    "Ġunsub": 22028,
    "pervading": 18993,
    "Ġtomorrow": 21517,
    "away": 4627,
    "gun": 10098,
    "Ġgrind": 18735,
    "Ġobscurely": 20191,
    "Ġmasonry": 13602,
    "Ġespecial": 26411,
    "braid": 17496,
    "Ġappertaining": 26534,
    "Ġ[_": 15463,
    "Ġbathed": 17867,
    "hug": 17564,
    "othed": 16512,
    "Ġlets": 18079,
    "hullo": 17571,
    "notches": 22752,
    "whales": 5187,
    "crawling": 16959,
    "Ġmerged": 19298,
    "Ġerected": 12237,
    "Ġballasted": 23983,
    "Ġsolemnly": 8024,
    "clim": 18932,
    "Ġpor": 5225,
    "oars": 9616,
    "tomb": 21096,
    "ifted": 4494,
    "Ġregardless": 19326,
    "Ġstingy": 25456,
    "Ġroanoke": 22412,
    "Ġuns": 15839,
    "aloud": 17943,
    "walking": 9984,
    "scans": 22993,
    "imin": 1769,
    "inclined": 10641,
    "Ġlik": 2524,
    "Ġinsatiate": 19272,
    "Ġsound": 2241,
    "irwin": 8470,
    "Ġcriminal": 7536,
    "Ġbleeding": 14882,
    "Ġsmallest": 6430,
    "Ġdistillation": 16048,
    "passage": 11262,
    "pity": 17628,
    "Ġbrand": 16188,
    "oices": 7347,
    "slide": 24555,
    "Ġguise": 14434,
    "powder": 17646,
    "Ġretain": 7865,
    "Ġrecollection": 6622,
    "Ġinsens": 8278,
    "soled": 14333,
    "fever": 22507,
    "penetrating": 25491,
    "Ġerr": 1322,
    "Ġchronic": 9931,
    "Ġeagerness": 6609,
    "bunger": 20405,
    "Ġhove": 17925,
    "delivered": 24099,
    "Ġglad": 3328,
    "Ġunfit": 14788,
    "Ġsymmetrical": 20370,
    "Ġarrest": 7408,
    "Ġcarve": 23097,
    "tha": 15825,
    "Ġspecies": 5112,
    "Ġajar": 21205,
    "Ġwor": 1189,
    "Ġsympathising": 24298,
    "Ġmartial": 20294,
    "Ġmerc": 9428,
    "Ġevangelists": 20342,
    "Ġgaff": 17996,
    "Ġbrushed": 15574,
    "composed": 14742,
    "Ġdescribing": 19256,
    "Ġrepro": 7274,
    "lleg": 20953,
    "Ġbuckle": 17033,
    "lengthwise": 19953,
    "bruary": 15238,
    "finer": 17547,
    "Ġattractive": 25576,
    "Ġmorning": 1749,
    "hed": 669,
    "Ġoverhead": 11776,
    "Ġrebounds": 25968,
    "Ġbil": 15568,
    "ined": 1261,
    "Ġjew": 9469,
    "Ġvineyarder": 25607,
    "train": 2035,
    "putable": 10902,
    "Ġfrig": 13084,
    "profess": 10636,
    "Ġcynicism": 25772,
    "Ġmoose": 22438,
    "Ġramsgate": 18649,
    "Ġsympathies": 14863,
    "ning": 948,
    "foundation": 16716,
    "Ġremorse": 6441,
    "standard": 22433,
    "gravel": 22624,
    "Ġfounder": 17885,
    "Ġsweating": 16464,
    "orney": 17875,
    "circled": 24189,
    "Ġexpensive": 12922,
    "apologizing": 26545,
    "Ġunquestion": 18249,
    "Ġlangu": 575,
    "Ġtempt": 5564,
    "Ġmaled": 21317,
    "Ġactually": 5389,
    "cet": 15327,
    "nades": 20999,
    "Ġhanover": 20589,
    "Ġdiffidence": 14660,
    "Ġsoup": 7068,
    "ulgences": 21870,
    "ails": 6161,
    "âĢĶ.âĢĿ": 22260,
    "Ġspeeding": 23566,
    "Ġintrospect": 15831,
    "Ġsilently": 6894,
    "Ġbackwoods": 22665,
    "Ġterti": 14539,
    "itters": 10782,
    "could": 2871,
    "harpooneer": 8692,
    "Ġchast": 18381,
    "Ġxxxvi": 24974,
    "ential": 827,
    "Ġfitting": 21412,
    "inities": 21188,
    "lesson": 22775,
    "mention": 7213,
    "Ġskil": 14354,
    "_:": 17480,
    "Ġantagon": 19553,
    "variance": 2654,
    "Ġrugged": 18720,
    "profound": 16428,
    "crowd": 25255,
    "Ġte": 1135,
    "Ġceleb": 20228,
    "Ġenjoying": 11236,
    "Ġleadenhall": 16630,
    "Ġresurrection": 12898,
    "Ġfiendish": 13331,
    "etimes": 1985,
    "lane": 10707,
    "_.": 2212,
    "Ġrazor": 22659,
    "Ġpleases": 16300,
    "Ġdinnertime": 16720,
    "Ġwrists": 11113,
    "supposing": 24133,
    "umerable": 11728,
    "Ġjokes": 18409,
    "Ġ0": 1903,
    "ny": 4012,
    "Ġdeception": 18142,
    "sigma": 3001,
    "Ġabridged": 26541,
    "Ġmasked": 3696,
    "Ġheinous": 18041,
    "Ġrespected": 11956,
    "Ġunprejudiced": 18270,
    "heart": 4526,
    "Ġdeclaring": 19423,
    "Ġstables": 23659,
    "Ġlose": 5028,
    "Ġauxiliary": 26419,
    "Ġgrandfather": 19425,
    "Ġdetails": 6566,
    "Ġcrouched": 23442,
    "Ġdestined": 7976,
    "chased": 18044,
    "ady": 992,
    "fort": 1750,
    "Ġhouses": 6139,
    "Ġe": 311,
    "Ġcares": 9369,
    "Ġthinner": 24184,
    "Ġsyntax": 959,
    "hatches": 19930,
    "hob": 20902,
    "Ġballarat": 14721,
    "informed": 17737,
    "Ġhovers": 19080,
    "Ġrambled": 20171,
    "dimens": 2319,
    "Ġblew": 9047,
    "Ġcomputations": 16002,
    "Ġeluc": 16111,
    "ason": 1254,
    "Ġappearances": 10452,
    "Ġsuccessful": 9925,
    "Ġcabin": 3305,
    "enet": 10154,
    "entitled": 21572,
    "Ġflattening": 26049,
    "Ġfacts": 2289,
    "Ġbison": 21391,
    "thine": 15826,
    "Ġuntamed": 19166,
    "Ġimmensities": 25331,
    "uncont": 15777,
    "Ġtamely": 24982,
    "Ġexplanatory": 22209,
    "Ġmagistrate": 8235,
    "scar": 9818,
    "Ġstark": 7389,
    "Ġest": 2266,
    "Ġpresc": 15928,
    "soles": 18687,
    "Ġsoftware": 18920,
    "Ġcooped": 22588,
    "ingle": 1038,
    "Ġcommissioned": 19897,
    "Ġour": 1009,
    "Ġseparated": 9466,
    "Ġexhaled": 19685,
    "Ġpound": 12620,
    "Ġimply": 18450,
    "Ġsavages": 9914,
    "towing": 17690,
    "Ġmitigates": 3053,
    "Ġnervously": 19186,
    "terrible": 8467,
    "Ġprojects": 9513,
    "atigable": 15273,
    "icorn": 15660,
    "Ġfurn": 3712,
    "Ġhalts": 3160,
    "Ġinvent": 7164,
    "electricity": 26386,
    "Ġfish": 2709,
    "lone": 11501,
    "Ġfavourably": 16364,
    "introduced": 15127,
    "Ġconstitution": 20112,
    "Ġbashful": 20423,
    "Ġaddresses": 3769,
    "Ġtinkling": 25213,
    "Ġconver": 804,
    "Ġsky": 3967,
    "Ġrevol": 5536,
    "Ġcamel": 25350,
    "Ġallies": 18235,
    "ounders": 22390,
    "Ġbetween": 792,
    "Ġwhispering": 14947,
    "zar": 11549,
    "card": 11476,
    "--âĢľ": 12976,
    "Ġbehaviour": 4385,
    "Ġostentatiously": 20472,
    "Ġchurch": 4712,
    "nals": 16402,
    "Ġshoved": 23492,
    "Ã¦us": 14819,
    "Ġwipe": 25765,
    "thanked": 24326,
    "Ġreading": 5114,
    "wail": 21128,
    "ignorance": 17163,
    "Ġsane": 21224,
    "Ġtechnique": 2265,
    "Ġinfiltrated": 23286,
    "Ġmaiden": 13389,
    "asons": 6016,
    "en": 271,
    "operation": 13503,
    "Ġnurtured": 19752,
    "Ġcet": 6671,
    "Ġfielding": 16231,
    "Ġins": 2779,
    "ned": 3492,
    "ommod": 13983,
    "Ġjune": 10290,
    "Ġbedford": 7474,
    "Ġpossessed": 5195,
    "Ġoccas": 2702,
    "Ġmurdered": 6464,
    "Ġcloudless": 16670,
    "Ġdeduction": 14901,
    "Ġfr": 1696,
    "vigorous": 25918,
    "helmsman": 24288,
    "unfort": 21881,
    "german": 11493,
    "shr": 10981,
    "Ġ1846": 26085,
    "rowing": 7932,
    "Ġunintelligible": 26515,
    "regards": 23468,
    "relations": 14735,
    "wonders": 17145,
    "fate": 17540,
    "umbrance": 22123,
    "partiality": 13163,
    "result": 12047,
    "oved": 5215,
    "Ġsurmised": 24920,
    "Ġcrushed": 9425,
    "Ġdirty": 9180,
    "Ġscuff": 15945,
    "posture": 16928,
    "Ġsteam": 9355,
    "Ġqualities": 7532,
    "Ġlandlady": 10423,
    "sentiment": 12918,
    "Ġkramm": 26235,
    "don": 3545,
    "Ġquiescent": 26244,
    "darted": 20834,
    "Ġoffences": 18692,
    "Ġhaven": 8475,
    "interval": 7992,
    "Ġjurymen": 16848,
    "Ġparr": 22124,
    "Ġconvinced": 4204,
    "Ġworthy": 7240,
    "Ġleg": 2337,
    "Ġstalk": 12701,
    "Ġmanned": 9273,
    "completed": 19997,
    "greater": 13255,
    "claps": 23158,
    "Ġ94": 17718,
    "Ġaffidav": 18791,
    "enjoy": 10775,
    "crossing": 19414,
    "consol": 9764,
    "igations": 18046,
    "cour": 4479,
    "Ġridges": 16732,
    "Ġheadsman": 13278,
    "solution": 14687,
    "Ġeber": 18006,
    "Ġcorre": 3887,
    "Ġinfat": 14500,
    "Ġstren": 15723,
    "Ġslabs": 13065,
    "Ġscho": 4436,
    "appears": 12063,
    "display": 19158,
    "pipe": 8700,
    "Ġwail": 21289,
    "lonely": 20959,
    "Ġreminisc": 18727,
    "istically": 14145,
    "iew": 2446,
    "moral": 14803,
    "whose": 6851,
    "Ġpurchased": 12264,
    "Ġfamilies": 8028,
    "Ġscientific": 6856,
    "try": 7813,
    "Ġdry": 5624,
    "every": 2810,
    "lacing": 17591,
    "unreasonable": 18165,
    "terns": 21827,
    "Ġarrayed": 25665,
    "ribed": 7693,
    "Ġentra": 18694,
    "justified": 19004,
    "Ġboston": 22643,
    "Ġself": 1778,
    "Ġunicorn": 22062,
    "quickly": 14964,
    "Ġunob": 22020,
    "Ġwint": 15535,
    "Ġcharles": 11959,
    "Ġregimentals": 19860,
    "ceptibly": 22371,
    "Ġtruest": 16701,
    "Ġconstantinople": 19840,
    "osa": 22265,
    "Ġrigging": 5600,
    "Ġtwitching": 25684,
    "progression": 20385,
    "Ġbully": 23859,
    "Ġmothers": 14541,
    "Ġresulting": 24200,
    "complaisance": 24808,
    "Ġslightest": 6093,
    "aming": 5829,
    "tu": 12515,
    "Ġdismast": 12892,
    "Ġsuperglue": 23459,
    "Ġbrightness": 16578,
    "Ġenjoyment": 7299,
    "Ġthroughout": 8879,
    "smoke": 17224,
    "Ġindirect": 18837,
    "Ġepaulets": 24906,
    "savagery": 25028,
    "elizabeth": 1984,
    "gorith": 551,
    "Ġbitterly": 8316,
    "learnt": 23527,
    "otics": 10225,
    "Ġalternate": 19989,
    "Ġsent": 1775,
    "ardy": 22161,
    "oth": 1185,
    "legs": 13185,
    "Ġfurrow": 22817,
    "Ġsuitable": 18281,
    "Ġdeposition": 18609,
    "trembling": 17144,
    "vest": 6231,
    "state": 13976,
    "herent": 2530,
    "beheld": 11804,
    "say": 3981,
    "venty": 6427,
    "Ġvictim": 6099,
    "Ġsluggish": 25891,
    "Ġimpatiently": 8339,
    "angs": 5834,
    "Ġsuddenness": 23385,
    "Ġdiabol": 11454,
    "Ġf": 283,
    "Ġmarsh": 9823,
    "ades": 5631,
    "Ġspiracle": 14151,
    "sutherland": 21065,
    "Ġimpro": 912,
    "Ġdied": 4110,
    "Ġpattering": 18667,
    "problems": 11435,
    "cceed": 4141,
    "magistrate": 19865,
    "ued": 7560,
    "heartedness": 24825,
    "omitted": 18026,
    "lings": 8749,
    "Ġnewspapers": 17188,
    "earnestly": 17315,
    "walton": 20252,
    "should": 3265,
    "rent": 1169,
    "Ġdecreed": 18485,
    "Ġaristotle": 25818,
    "influ": 9543,
    "relics": 24018,
    "Ġmungo": 25632,
    "Ġcorrespondent": 19825,
    "Ġmiller": 19885,
    "got": 6954,
    "<UNK>": 3,
    "confid": 14869,
    "Ġover": 554,
    "comprehens": 16179,
    "Ġpropont": 16352,
    "Ġband": 5292,
    "yes": 983,
    "Ġfors": 21776,
    "Ġjerk": 16951,
    "Ġabsolute": 6765,
    "Ġembod": 14415,
    "outs": 7009,
    "Ġdisposed": 7084,
    "Ġnotice": 4543,
    "Ġpince": 21475,
    "Ġurging": 24501,
    "Ġcomparable": 24280,
    "Ġbrick": 8928,
    "Ġhails": 21955,
    "Ġhearsed": 25042,
    "Ġmaria": 7125,
    "Ġprynne": 25541,
    "Ġfour": 2214,
    "Ġscorch": 20070,
    "punct": 20195,
    "Ġrepositories": 23368,
    "lac": 17590,
    "Ġobstinacy": 17423,
    "Ġdances": 10813,
    "cooks": 25070,
    "Ġcruising": 6912,
    "Ġburton": 23657,
    "Ġvul": 10249,
    "Ġcompanies": 14558,
    "Ġrue": 11870,
    "Ġguernsey": 9353,
    "Ġep": 7383,
    "Ġdiscrete": 2478,
    "Ġimpossibility": 20649,
    "Ġpresence": 5031,
    "aut": 1912,
    "Ġjoys": 13224,
    "Ġperhaps": 1911,
    "Ġwouldst": 18500,
    "Ġfolio": 11921,
    "Ġheels": 10851,
    "Ġdorm": 4823,
    "------": 12137,
    "Ġresisted": 22546,
    "incident": 14592,
    "ikes": 8088,
    "Ġmoderately": 22219,
    "althy": 8434,
    "Ġread": 1449,
    "Ġuncivilized": 25499,
    "Ġaglow": 22519,
    "inno": 10757,
    "Ġlive": 2733,
    "akened": 7414,
    "Ġbigger": 19764,
    "becoming": 18517,
    "Ġdesertion": 24786,
    "Ġalas": 5923,
    "Ġmanner": 2195,
    "sailing": 14716,
    "suffered": 24329,
    "Ġpomp": 12626,
    "iff": 3905,
    "Ġclimb": 15082,
    "Ġirresolute": 24917,
    "Ġentreating": 24209,
    "Ġpier": 7162,
    "folio": 10548,
    "achel": 7032,
    "Ġsakes": 18327,
    "capital": 15091,
    "othic": 16218,
    "ely": 622,
    "Ġinfants": 16366,
    "Ġsplit": 7994,
    "Ġpods": 17917,
    "distrust": 19573,
    "Ġheavier": 13105,
    "Ġstaid": 21740,
    "Ġinquirers": 24967,
    "Ġmogul": 12866,
    "inter": 2946,
    "Ġexceeded": 14435,
    "Ġeliminating": 20623,
    "Ġhumane": 11887,
    "intention": 10369,
    "stirring": 20429,
    "cre": 4248,
    "Ġconv": 2967,
    "ellect": 7380,
    "xology": 21144,
    "Ġsavann": 14685,
    "olera": 21838,
    "Ġxv": 23410,
    "Ġneurons": 975,
    "Ġrenew": 6146,
    "Ġmerryweather": 9524,
    "rah": 8138,
    "Ġmainz": 22650,
    "ram": 13974,
    "Ġmovement": 9970,
    "bus": 5355,
    "Ġsurmisings": 26594,
    "Ġstarts": 16584,
    "raved": 18015,
    "Ġhistory": 4004,
    "Ġtorm": 5434,
    "Ġberyls": 25776,
    "Ġmarvelled": 18875,
    "Ġtruthful": 23870,
    "J": 46,
    "verdict": 21734,
    "Ġcommod": 10335,
    "apprehens": 17408,
    "Ġprofounder": 23571,
    "Ġshows": 8484,
    "rudence": 7093,
    "supernatural": 19782,
    "judgment": 16754,
    "Ġexcess": 3344,
    "angu": 568,
    "Ġscalable": 1543,
    "Ġcabinet": 23864,
    "parlour": 16394,
    "Ġhoist": 11979,
    "regard": 7975,
    "Ġdictionaries": 12343,
    "sharks": 14242,
    "strained": 21656,
    "overcoat": 19053,
    "Ġroute": 11382,
    "Ġcircumspection": 25885,
    "Ġwitt": 17785,
    "Ġlodges": 19503,
    "ently": 1442,
    "Ġpluck": 15617,
    "Ġcrawford": 24894,
    "Ġunh": 9255,
    "Ġhoops": 9391,
    "traced": 19648,
    "Ġenthusiastic": 19969,
    "rendering": 22345,
    "emic": 18182,
    "ception": 6563,
    "Ġimbedded": 18335,
    "Ġhundred": 2692,
    "Ġalgorithm": 758,
    "Ġconsists": 11980,
    "Ġdelay": 5748,
    "ike": 5000,
    "Ġmarling": 23036,
    "Ġadvantage": 4316,
    "orrowed": 19291,
    "ñ": 178,
    "Ġappl": 1716,
    "scenes": 16246,
    "Ġhisself": 21919,
    "Ġlascar": 9201,
    "aching": 5832,
    "caused": 25520,
    "Ġlookest": 22720,
    "Ġfry": 17881,
    "Ġobtru": 18676,
    "Ġregion": 2273,
    "Ġloveliness": 13611,
    "Ġ52": 24316,
    "Ġexcite": 11969,
    "zers": 21149,
    "Ġannouncing": 16755,
    "biqu": 17499,
    "Ġusual": 3942,
    "wish": 8101,
    "Ġzigzag": 26274,
    "dressing": 11483,
    "asions": 12655,
    "Ġmadame": 13153,
    "scream": 11077,
    "aced": 2415,
    "operations": 19978,
    "Ġactivity": 7922,
    "ru": 483,
    "Ġplump": 14285,
    "istical": 8491,
    "Ġchick": 22252,
    "Ġcorpulence": 24505,
    "anxious": 15112,
    "uccas": 21109,
    "they": 1880,
    "Ġdaboll": 25951,
    "prudently": 21037,
    "bearing": 9767,
    "Ġmagician": 25061,
    "Ġiterate": 13202,
    "Ġenhancement": 23768,
    "leg": 2813,
    "Ġ*/": 10375,
    "changed": 7175,
    "squ": 7810,
    "Ġtrustees": 24106,
    "Ġmorocco": 26574,
    "Ġinterlude": 16076,
    "Ġquill": 12861,
    "Ġimmeas": 18333,
    "Ġbrink": 18773,
    "Ġpuffing": 12258,
    "ĠĠĠĠĠĠĠĠĠĠĠĠĠĠĠĠĠĠĠĠĠĠĠĠĠĠĠĠĠ": 19702,
    "Ġbrave": 6330,
    "Ġamerica": 6763,
    "Ġdependencies": 2316,
    "iar": 2379,
    "Ġmamm": 25093,
    "harrow": 20910,
    "painful": 13504,
    "idol": 21771,
    "Ġcond": 3874,
    "Ġdesert": 6728,
    "Ġalle": 11668,
    ",*": 17473,
    "Ġhapless": 15815,
    "odiac": 14031,
    "Ġnear": 1719,
    "hears": 12537,
    "oug": 431,
    "merry": 16538,
    "converse": 22480,
    "beside": 19879,
    "pumps": 21029,
    "Ġpuzzle": 11306,
    "bering": 18682,
    "Ġanointing": 25540,
    "Ġconductor": 24010,
    "Ġpenalties": 10413,
    "confidence": 16809,
    "tan": 4743,
    "Ġtwos": 18657,
    "flaming": 23973,
    "stee": 21649,
    "Ġcharming": 6630,
    "Ġupper": 5090,
    "Ġdreary": 10409,
    "Ġsolicitude": 10042,
    "Ġaccumul": 1412,
    "exact": 7912,
    "Ġprices": 15615,
    "nuee": 17432,
    "condem": 16346,
    "Ġpittance": 15620,
    "Ġsuper": 2153,
    "journey": 8748,
    "Ġoverwhelm": 25055,
    "Ġperplexity": 2752,
    "Ġembalmed": 13659,
    "gument": 20887,
    "settled": 10508,
    "Ġfounded": 8560,
    "Ġboldness": 24427,
    "Ġhandspike": 22702,
    "rub": 15902,
    "Ġconfess": 3767,
    "Ġansw": 2204,
    "Ġdive": 10174,
    "ringle": 21043,
    "vulgar": 25919,
    "yset": 21148,
    "eliest": 14748,
    "ppers": 7617,
    "Ġheel": 9686,
    "Ġbefall": 8832,
    "alas": 8807,
    "Ġamazing": 9979,
    "Ġclock": 9535,
    "Ġimprisonment": 22401,
    "Ġfreshly": 23990,
    "Ġpovelson": 26553,
    "ersampling": 18217,
    "Ġconfident": 11139,
    "ellation": 12754,
    "Ġnest": 10190,
    "Ġsom": 1275,
    "recurrent": 4994,
    "bears": 22495,
    "Ġdetain": 14175,
    "jewel": 20349,
    "Ġproced": 2579,
    "fishing": 20861,
    "Ġalone": 2566,
    "Ġprofess": 3700,
    "Ġropes": 10749,
    "Ġsailing": 5324,
    "Ġunspeakably": 25173,
    "Ġrippling": 17279,
    "Ġadvertisement": 6940,
    "Ġconsid": 1814,
    "Ġcouch": 12575,
    "accepted": 20139,
    "about": 3587,
    "abond": 15744,
    "Ġpresume": 8039,
    "Ġdespondence": 25870,
    "softened": 20413,
    "aways": 15313,
    "Ġhearers": 15706,
    "Ġmistifying": 23722,
    "Ġintimacy": 8704,
    "fere": 10990,
    "age": 504,
    "iv": 430,
    "Ġthursday": 12648,
    "blo": 6354,
    "Ġapothe": 12378,
    "entieth": 17981,
    "Ġfail": 4147,
    "Ġconsidered": 4612,
    "conclusive": 25674,
    "Ġpleasantness": 24137,
    "iony": 9193,
    "Ġincess": 8433,
    "ta": 13791,
    "rels": 6666,
    "Ġweep": 7619,
    "ieged": 22583,
    "_).": 5888,
    "Ġharmless": 9967,
    "Ġenvironments": 24158,
    "battering": 20788,
    "orers": 14105,
    "Ġserved": 8247,
    "Ġcheetah": 14503,
    "Ġaccomplishment": 19668,
    "Ġconnected": 5393,
    "Ġpunctil": 20117,
    "imper": 13999,
    "Ġwantonly": 22899,
    "Ġwheeling": 18287,
    "brad": 20782,
    "Ġtop": 2472,
    "Ġkeen": 4614,
    "ubbub": 23247,
    "Ġseer": 21957,
    "Ġexclusion": 19399,
    "Ġsedentary": 25431,
    "Ġadorn": 12796,
    "Ġbeautiful": 3673,
    "Ġgoing": 2066,
    "load": 12884,
    "Ġsaws": 23053,
    "Ġactor": 16051,
    "Ġanalogy": 25640,
    "Ġparagraph": 17456,
    "Ġcover": 3558,
    "Ġumbrell": 13653,
    "marriage": 7745,
    "Ġhere": 1091,
    "Ġring": 4452,
    "Ġwildness": 14604,
    "ĠĠĠĠĠĠĠĠĠĠĠĠĠĠĠĠĠĠĠĠĠĠĠ": 18834,
    "Ġexertion": 8055,
    "Ġtal": 7563,
    "Ġreluct": 14374,
    "blu": 12443,
    "Ġstartling": 14672,
    "larger": 24204,
    "broke": 14780,
    "Ġexerting": 21837,
    "Ġmend": 8408,
    "aintance": 3570,
    "Ġillust": 8264,
    "Ġpredomin": 16044,
    "Ġfeelingly": 23001,
    "Ġfanned": 19101,
    "Ġherring": 14128,
    "Ġgranting": 18737,
    "Ġaqu": 17743,
    "gings": 7548,
    "naturalist": 23520,
    "exceeded": 25004,
    "Ġentity": 10343,
    "Ġwidely": 8034,
    "Ġfacet": 15588,
    "Ġcumul": 4177,
    "atoes": 17776,
    "folly": 20864,
    "Ġweighted": 2090,
    "Ġpaper": 4282,
    "Ġbuzz": 24000,
    "glasses": 11216,
    "aren": 10076,
    "both": 5785,
    "Ġtowering": 16740,
    "Ġuniversal": 2232,
    "Ġselling": 21227,
    "Ġthre": 2059,
    "Ġslack": 8957,
    "rudently": 16712,
    "Ġnurse": 9519,
    "absence": 12712,
    "earnest": 12402,
    "Ġblocks": 6322,
    "Ġ1950": 11360,
    "Ġsoothe": 7404,
    "Ġappalling": 8501,
    "Ġbeale": 12703,
    "increas": 10455,
    "perform": 15897,
    "aggra": 21911,
    "ge": 560,
    "ernally": 22619,
    "Ġwarrant": 17796,
    "Ġincessantly": 11412,
    "._": 3224,
    "oro": 21398,
    "grat": 5052,
    "Ġintuitions": 17343,
    "Ġvint": 18195,
    "considering": 12178,
    "Ġtreated": 7081,
    "Ġpurpose": 2707,
    "Ġward": 10157,
    "Ġswore": 10380,
    "Ġdives": 17892,
    "Ġprofoundly": 16860,
    "Ġmissionary": 25697,
    "Ġgrie": 3584,
    "adequate": 15206,
    "ispensable": 9098,
    "Ġdrop": 4345,
    "Ġbutt": 14127,
    "Ġimproper": 22757,
    "cur": 3274,
    "Ġvisage": 18770,
    "Ġmacey": 12567,
    "ww": 10738,
    "thar": 18218,
    "girdling": 26390,
    "Ġyojo": 7610,
    "Ġnovelty": 13466,
    "gged": 3778,
    "ision": 1853,
    "vy": 21110,
    "spike": 16142,
    "Ġgradual": 20604,
    "Ġjoist": 19234,
    "strangely": 17278,
    "feeders": 25236,
    "Ġdishonoured": 20394,
    "Ġruskin": 25809,
    "Ġcitations": 25438,
    "oup": 2014,
    "Ġinspecting": 24615,
    "sterdam": 19092,
    "errand": 22915,
    "Ġkicks": 19771,
    "Ġbillow": 14782,
    "Ġtried": 3649,
    "inex": 14100,
    "Ġnamely": 20692,
    "protruding": 24813,
    "Ġimage": 3405,
    "goldsmith": 20150,
    "Ġrevolution": 3307,
    "Ġdiabolism": 25515,
    "Ġcomplement": 23712,
    "happiness": 6469,
    "Ġsuccessive": 10502,
    "Ġapplication": 2085,
    "Ġix": 12672,
    "Ġenormous": 5608,
    "ju": 13743,
    "dering": 5307,
    ",": 16,
    "i": 77,
    "ĠâĢľâĢĻ": 22259,
    "god": 4864,
    "process": 11149,
    "Ġarticle": 9504,
    "iffs": 9024,
    "Ġappal": 18357,
    "Ġinterval": 4051,
    "adjust": 21764,
    "Ġpulse": 13118,
    "Ġunsettled": 14125,
    "oof": 15407,
    "Ġborder": 10171,
    "smith": 5669,
    "iron": 3808,
    "Ġohio": 19130,
    "Ġtenants": 23550,
    "Ġschol": 17379,
    "Ġaboard": 6698,
    "Ġcamberwell": 25351,
    "Ġshamefully": 24715,
    "Ġwoll": 21296,
    "ard": 465,
    "Ġmeas": 1098,
    "alid": 13937,
    "Ġeverywhere": 9798,
    "Ġcod": 8414,
    "Ġsaloon": 24065,
    "Ġindignity": 18835,
    "imming": 9689,
    "Ġeager": 3571,
    "fatality": 25022,
    "Ġassoc": 6402,
    "generous": 16569,
    "Ġlatin": 16822,
    "Ġcounsel": 13618,
    "Ġcomprised": 14272,
    "Ġdodo": 9074,
    "Ġcompanionship": 14922,
    "abby": 14023,
    "Ġgarden": 3826,
    "Ġbul": 3296,
    "Ġdeclared": 5594,
    "Ġstubbs": 23298,
    "outward": 22167,
    "ician": 21569,
    "Ġgibberish": 25787,
    "Ġpredestinated": 18527,
    "Ġending": 18924,
    "Ġkills": 15909,
    "theirs": 23604,
    "oo": 7552,
    "Ġeastward": 13393,
    "Ġdisdain": 8361,
    "Ġpendulous": 25956,
    "Ġsqueaking": 26276,
    "Ġelements": 2665,
    "Ġappet": 9732,
    "contrast": 25595,
    "Ġempires": 19077,
    "moving": 11018,
    "shrouded": 26363,
    "Ġinverted": 12641,
    "Ġtransom": 22443,
    "beheaded": 22498,
    "Ġ90": 24590,
    "onted": 11569,
    "lur": 13749,
    "Ġconse": 21809,
    "sprinkling": 24913,
    "phere": 21021,
    "Ġprofound": 5497,
    "ains": 5094,
    "Ġlosing": 10917,
    "Ġquestioned": 14621,
    "Ġmoved": 4841,
    "bly": 6111,
    "entrance": 12661,
    "Ġcongratulated": 19769,
    "Ġtimid": 6346,
    "knows": 19174,
    "Ġbrief": 6976,
    "ok": 574,
    "Ġnoblest": 13245,
    "movement": 25578,
    "Ġperfection": 19221,
    "Ġvinegar": 20103,
    "wheeler": 16190,
    "Ġfurnish": 9021,
    "Ġdepart": 4658,
    "saf": 11526,
    "violently": 23546,
    "relieved": 13280,
    "Ġruddy": 17127,
    "forbid": 14353,
    "grown": 10101,
    "ricade": 13043,
    "Ġsuspense": 9420,
    "Ġbanish": 15573,
    "zza": 24168,
    "ek": 1908,
    "Ġholiday": 13000,
    "Ġextort": 22754,
    "Ġenthr": 22749,
    "Ġrapturously": 24889,
    "Ġowest": 25094,
    "Ġenjoyments": 24021,
    "Ġabsurd": 7201,
    "Ġmassac": 14738,
    "Ġg": 310,
    "Ġmaintain": 856,
    "levi": 7048,
    "Ġwisdom": 11235,
    ".;": 20746,
    "Ġcheering": 11134,
    "Ġbrother": 2746,
    "biscuit": 17502,
    "Ġwindibank": 7256,
    "known": 3569,
    "pher": 11513,
    "Ġremem": 4313,
    "``": 15309,
    "Ġcensure": 15098,
    "Ġweapons": 10595,
    "Ġclamorous": 24910,
    "highly": 24763,
    "ire": 492,
    "Ġstack": 21738,
    "Ġane": 9183,
    "ended": 1834,
    "Ġundertaking": 8576,
    "wonderful": 16961,
    "Ġhunks": 18938,
    "ural": 502,
    "Ġarticulated": 24432,
    "Ġschedules": 3387,
    "Ġoffensive": 18693,
    "Ġadro": 15870,
    "Ġmatrim": 11061,
    "Ġlocal": 1200,
    "Ġneg": 1334,
    "pervised": 1676,
    "pall": 17629,
    "Ġcustody": 13650,
    "commanded": 16989,
    "Ġbrad": 8790,
    "geon": 6271,
    "tipt": 25086,
    "Ġstared": 8456,
    "Ġdominion": 16517,
    "ĠĠĠĠĠĠĠĠĠĠĠĠĠĠĠĠĠĠĠĠĠĠĠĠĠĠĠĠĠĠĠĠĠĠĠĠĠĠĠĠĠĠĠĠĠĠĠĠĠ": 20041,
    "circum": 16738,
    "Ġattacked": 10569,
    "Ġvult": 12756,
    "Ġlime": 13950,
    "Ġrepeatedly": 9023,
    "âĢĿ": 354,
    "men": 1487,
    "Ġoccupies": 24011,
    "Ġclouded": 13294,
    "reg": 2184,
    "Ġgrown": 5628,
    "ipelag": 12848,
    "Ġcultiv": 13559,
    "arts": 6564,
    "Ġmatrimony": 13638,
    "redit": 3875,
    "Ġtogether": 1879,
    "Ġaged": 10322,
    "convolutional": 4958,
    "Ġboth": 1657,
    "Ġworldly": 16333,
    "family": 7323,
    "Ġvengeance": 5886,
    "animal": 16979,
    "Ġglorious": 11076,
    "Ġdelineations": 26059,
    "Ġsire": 15503,
    "Ġjabez": 11769,
    "ond": 1160,
    "Ġburke": 19253,
    "Ġloun": 7166,
    "Ġwidows": 24238,
    "nonsense": 17616,
    "Ġfloundered": 18864,
    "Ġcorrect": 2430,
    "Ġadoption": 24951,
    "Ġrighteous": 18948,
    "Ġvill": 3877,
    "Ġrus": 14094,
    "Ġdemanding": 16806,
    "uary": 11539,
    "urean": 18125,
    "nyder": 16686,
    "eastern": 17534,
    "iteous": 14266,
    "haw": 6362,
    "Ġcistern": 17383,
    "Ġprogressive": 5024,
    "Ġnapoleon": 20560,
    "quitted": 21851,
    "icted": 5938,
    "Ġexper": 1276,
    "Ġhyena": 24518,
    "Ġsecurity": 8979,
    "Ġpreferred": 14968,
    "Ġexcell": 10418,
    "Ġunwarranted": 24831,
    "Ġscandinav": 19964,
    "kicked": 20945,
    "Ġrival": 10487,
    "chase": 11647,
    "digger": 24311,
    "Ġisolation": 17152,
    "Ġsacrificial": 24872,
    "Ġresemble": 15696,
    "Ġru": 947,
    "Ġfetch": 7770,
    "Ġverdure": 10614,
    "Ġequilib": 4135,
    "Ġenem": 4709,
    "Ġnorthwards": 19549,
    "Ġjon": 15951,
    "won": 8396,
    "Ġshallow": 14397,
    "Ġlivery": 16003,
    "clay": 18933,
    "Ġeasy": 3452,
    "blending": 24127,
    "Ġimmedi": 2903,
    "omist": 21662,
    "Ġskirting": 22802,
    "ogr": 18671,
    "sister": 5139,
    "Ġnetherfield": 3930,
    "Ġnatur": 17336,
    "Ġwhaleboats": 18480,
    "Ġcold": 3034,
    "İ": 241,
    "Ġpatch": 4179,
    "Ġoccurred": 4462,
    "Ġsalisbury": 24066,
    "Ġday": 958,
    "Ġencl": 16170,
    "eleg": 20851,
    "Ġendless": 7054,
    "Ġmomentum": 1601,
    "Ġheap": 12682,
    "estation": 15923,
    "goose": 19103,
    "Ġposs": 1615,
    "Ġapproximate": 2344,
    "Ġrider": 24187,
    "wa": 5898,
    "arks": 2843,
    "Ġinterior": 8898,
    "falgar": 26131,
    "Ġqueequeg": 2012,
    "Ġpersisted": 13040,
    "Ġrescue": 13346,
    "arbuck": 2026,
    "uture": 1067,
    "pper": 3211,
    "declaration": 25176,
    "dimensional": 2350,
    "Ġamphitheat": 26253,
    "Ġpitied": 14693,
    "aws": 8238,
    "Ġclubs": 25180,
    "Ġworthless": 19568,
    "Ġsensitive": 13200,
    "zors": 21150,
    "Ġhemis": 21688,
    "swim": 16780,
    "Ġmap": 2391,
    "Ġgratified": 8022,
    "suff": 4961,
    "Ġjesty": 18406,
    "Ġobeisance": 19761,
    "Ġbedside": 19125,
    "Ġimpetuous": 25571,
    "oquence": 11387,
    "Ġcyn": 13888,
    "perquis": 22186,
    "Ġbefriend": 18084,
    "fierce": 25256,
    "lorn": 12491,
    "Ġchancing": 22253,
    "Ġchowder": 10282,
    "Ġunite": 9256,
    "Ġhose": 12631,
    "ished": 1428,
    "Ġsleeps": 10447,
    "fight": 17539,
    "Ġtumbling": 13827,
    "Ġfootpath": 19340,
    "Ġdish": 6137,
    "Ġchopping": 24221,
    "hester": 9633,
    "breaths": 25337,
    "Ġfeared": 5932,
    "Ġrewarding": 13440,
    "rad": 2152,
    "Ġpeddler": 26181,
    "ected": 7875,
    "Ġdropout": 1558,
    "Ġlarger": 1404,
    "Ġstarbuck": 2193,
    "Ġsnugness": 20080,
    "Ġlandau": 16422,
    "D": 40,
    "hailed": 17566,
    "isions": 6131,
    "talked": 14987,
    "Ġpallidness": 25605,
    "Ġsprained": 15886,
    "night": 2167,
    "Ġstacks": 18077,
    "brimming": 23579,
    "bred": 11470,
    "neighbours": 24882,
    "Ġtrucks": 19515,
    "Ġdiscovering": 13361,
    "Ġagrippa": 11810,
    "bureau": 20791,
    "Ġinterrupted": 6344,
    "Ġbodily": 6107,
    "Ġquarrels": 16567,
    "foreign": 18544,
    "els": 1764,
    "Ġig": 3502,
    "Ġmantel": 11440,
    "aps": 1228,
    "europe": 20668,
    "Ġalarm": 4045,
    "dire": 15338,
    "Ġsupposing": 6730,
    "Ġadmiration": 5329,
    "Ġraise": 6167,
    "Ġstamping": 20034,
    "andromeda": 21873,
    "Ġdoing": 3662,
    "Ġerect": 6144,
    "umpled": 15879,
    "shish": 11798,
    "racting": 10357,
    "alle": 1293,
    "Ġwallow": 19469,
    "devil": 7897,
    "Ġfreshness": 23991,
    "oct": 7553,
    "roused": 16654,
    "Ġgroping": 13668,
    "modern": 1150,
    "Ġkeels": 11062,
    "Ġcalled": 1971,
    "tfordshire": 4812,
    "Ġsullenly": 17174,
    "alions": 21505,
    "Ġhonoured": 9883,
    "actually": 14300,
    "Ġgirdled": 19161,
    "Ġskies": 8923,
    "Ġelimin": 16110,
    "agreeable": 5830,
    "Ġburied": 7719,
    "Ġdraughts": 20224,
    "desponding": 26343,
    "Ġcough": 11583,
    "Ġpatches": 4234,
    "Ġvagu": 13592,
    "Ġstarboard": 7604,
    "Ġwer": 12556,
    "Ġlacey": 10199,
    "Ġout": 543,
    "Ġspectacles": 12101,
    "successfully": 14993,
    "Ġexam": 3713,
    "Ġlabyrin": 13107,
    "Ġgroaned": 11267,
    "Ġnames": 4533,
    "Ġrifle": 18213,
    "Ġelab": 22645,
    "ecess": 17533,
    "aunted": 20772,
    "armed": 7250,
    "Ġenderby": 13654,
    "eman": 5636,
    "Ġapiece": 16814,
    "Ġpostpone": 17309,
    "itioned": 22474,
    "abular": 4763,
    "Ġworsted": 19998,
    "Ġspect": 3553,
    "Ġhelps": 9370,
    "Ġrussia": 26269,
    "Ġabiding": 22275,
    "Ġscrewing": 20211,
    "Ġissuing": 16949,
    "ersman": 11704,
    "urrection": 12412,
    "Ġclipping": 2439,
    "other": 1316,
    "Ġsouthwards": 19636,
    "Ġnarrated": 14873,
    "shoals": 24716,
    "Ġtongues": 14865,
    "Ġlimit": 10444,
    "gang": 17554,
    "ated": 732,
    "č": 206,
    "passion": 11261,
    "Ġcareful": 2612,
    "ical": 754,
    "Ġwindows": 4971,
    "Ġunfathomably": 25874,
    "inity": 5693,
    "Ġvit": 10247,
    "Ġsickened": 16776,
    "Ġsubsets": 2347,
    "Ġdomain": 3393,
    "Ġmuscles": 12092,
    ".]": 15301,
    "Ġprefer": 6416,
    "Ġunsupp": 22026,
    "Ġcondensed": 24055,
    "ert": 2632,
    "Ġunmethodically": 22075,
    "Ġdetestable": 15101,
    "comm": 7439,
    "Ġhanging": 5447,
    "backpropagation": 11988,
    "iably": 13740,
    "bulwarks": 12276,
    "Ġincredible": 9517,
    "Ġire": 12673,
    "bpp": 20774,
    "Ġtorture": 9067,
    "Ġgeneralize": 3101,
    "Ġaccustomed": 6860,
    "Ġdegraded": 19229,
    "Ġdeeper": 2083,
    "Ġyears": 1892,
    "antage": 3878,
    "itance": 13870,
    "shining": 18496,
    "Ġhandspikes": 12943,
    "dial": 20827,
    "med": 1914,
    "rocious": 21543,
    "glo": 8741,
    "yingly": 23065,
    "rossed": 11013,
    "sized": 15430,
    "osite": 4894,
    "circumamb": 26088,
    "Ġoper": 2119,
    "Ġmeasurement": 19426,
    "batch": 1980,
    "Ġassent": 12737,
    "Ġrevelry": 15139,
    "gra": 768,
    "Ġkick": 5838,
    "ific": 490,
    "Ġjuly": 17238,
    "Ġtranspired": 16785,
    "intend": 16226,
    "Ġshipping": 14106,
    "ributed": 8216,
    "Ġchanges": 2287,
    "daughters": 13469,
    "Ġglit": 8562,
    "Ġmaelstrom": 19359,
    "ortunities": 15943,
    "Ġexistence": 4708,
    "Ġsequ": 981,
    "Ġhorizon": 6634,
    "Ġresearches": 13131,
    "sk": 5521,
    "°": 113,
    "Ġthemselves": 3255,
    "Ġchivalry": 25820,
    "dep": 6786,
    "room": 2178,
    "Ġwalled": 15537,
    "wondered": 17117,
    "Ġcreaking": 14331,
    "Ġdrama": 16332,
    "Ġstrangled": 24132,
    "Ġsteersman": 13046,
    "Ġobsc": 7040,
    "Ġplunge": 13446,
    "Ġadapt": 1029,
    "currents": 23848,
    "eous": 13714,
    "cain": 15328,
    "win": 6801,
    "Ġspoon": 22139,
    "lamp": 9610,
    "Ġunrest": 11717,
    "Ġ34": 16678,
    "Ġopinion": 3144,
    "Ġparaphrasing": 26527,
    "fields": 14654,
    "Ġpervers": 11782,
    "Ġbitterness": 8025,
    "incl": 8111,
    "breadth": 20279,
    "Ġincalculable": 17462,
    "Ġblessed": 6930,
    "Ġhunts": 23163,
    "Ġdetect": 1212,
    "Ġstuff": 5717,
    "Ġthis": 382,
    "Ġforeshad": 23454,
    "Ġof": 298,
    "ricane": 16281,
    "Ġinfluence": 5515,
    "Ġlifts": 25359,
    "yesterday": 10354,
    "Ġsepulch": 15287,
    "Ġblossom": 26313,
    "Ġoverflowed": 20265,
    "Ġmarry": 4418,
    "Ġmention": 2984,
    "prise": 7727,
    "Ġfatality": 12099,
    "Ġneared": 14077,
    "udg": 22756,
    "vels": 5432,
    "nails": 17615,
    "insufferable": 21195,
    "sentence": 2936,
    "Ġxavier": 2854,
    "gratification": 24347,
    "Ġeddy": 13549,
    "Ġglist": 9347,
    "battle": 12445,
    "Ġargu": 10935,
    "Ġarched": 10933,
    "Ġimmovable": 15895,
    "dock": 16421,
    "sockets": 22734,
    "Ġencamp": 22806,
    "ancho": 4938,
    "Ġeasiness": 23540,
    "Ġcoil": 11821,
    "Ġwilled": 21294,
    "key": 5462,
    "Ġtemples": 18637,
    "vi": 2375,
    "Ġmore": 675,
    "itching": 21338,
    "kings": 17584,
    "Ġsurprised": 3831,
    "noted": 22751,
    "Ġarose": 7359,
    "congreg": 25399,
    "ak": 538,
    "Ġweap": 6156,
    "Ġcomparing": 14269,
    "30": 20756,
    "Ġenjoy": 3761,
    "Ġdilated": 24703,
    "Ġliterature": 17150,
    "Ġreckless": 13461,
    "isc": 6240,
    "Ġchapel": 9525,
    "Ġinstinct": 6575,
    "recollect": 17225,
    "Ġ67": 19663,
    "Ġsa": 474,
    "Ġmovable": 22440,
    "Ġcarved": 7948,
    "Ġpricking": 23226,
    "ract": 1026,
    "Ġemerged": 8688,
    "Ġartful": 22617,
    "Ġabundant": 17156,
    "reliable": 21243,
    "nut": 12498,
    "Ġloath": 7893,
    "Ġnoisy": 13322,
    "Ġendeavouring": 8036,
    "Ġtouched": 6002,
    "Ġpeeped": 10014,
    "mediterranean": 16409,
    "Ġnumbers": 2886,
    "Ġmultiple": 1187,
    "indef": 17736,
    "pond": 21015,
    "wra": 11543,
    "vener": 21114,
    "Ġbelie": 14409,
    "Ġstruggling": 12078,
    "Ġpel": 17906,
    "Ġtranslation": 3088,
    "whaler": 20312,
    "pag": 11512,
    "Ġpalsied": 25780,
    "y": 93,
    "Ġcrow": 3805,
    "Ġplaned": 24058,
    "share": 14239,
    "Ġmustard": 12934,
    "Ġhypocritical": 20740,
    "const": 5940,
    "dress": 17521,
    "heads": 4093,
    "Ġloose": 4650,
    "revenge": 13844,
    "Ġcall": 2074,
    "otted": 14026,
    "ihood": 20924,
    "wall": 10138,
    "Ġstudious": 23216,
    "Ġrevealed": 6752,
    "Ġmanual": 14199,
    "surf": 24214,
    "imagination": 13483,
    "Ġinterven": 10999,
    "bos": 17485,
    "Ġmenaced": 16295,
    "Ġcrumbs": 19124,
    "affairs": 14657,
    "steam": 23963,
    "liest": 6295,
    "Ġinclement": 22559,
    "Ġmeryton": 4438,
    "Ġdeterminate": 23008,
    "cen": 17504,
    "Ġlowerings": 23648,
    "(_": 7539,
    "Ġtom": 15636,
    "Ġgree": 7594,
    "Ġprob": 971,
    "gling": 10099,
    "curiosity": 8627,
    "Ġclosed": 4606,
    "Ġyield": 5093,
    "Ġgenerator": 3383,
    "Ġmagnetic": 17242,
    "main": 8089,
    "Ġtrifle": 10603,
    "Ġjoyful": 13225,
    "embow": 21934,
    "Ġirregularity": 25325,
    "Ġperilous": 7769,
    "Ġalbert": 12710,
    "aunt": 8371,
    "Ġimprec": 14224,
    "asable": 21545,
    "Ġinteractions": 12910,
    "Ġclerval": 4655,
    "hero": 21207,
    "Ġac": 843,
    "Ġdisappeared": 5645,
    "Ġtypewriting": 16423,
    "Ġovertake": 15975,
    "Ġlug": 15655,
    "Ġminds": 6304,
    "Ġimpatience": 7508,
    "dance": 17520,
    "Ġattested": 22626,
    "Ġdevoutly": 25834,
    "Ġproceeds": 12081,
    "Ġsongs": 13423,
    "Ġcondense": 21813,
    "ist": 449,
    "Ġoperations": 2301,
    "Ġsand": 6236,
    "ict": 596,
    "Ġloungers": 24863,
    "Ġcareer": 11119,
    "Ġsoar": 18283,
    "Ġwhit": 7177,
    "Ġformless": 22831,
    "Ġfrocks": 23926,
    "Ġkentuckian": 26344,
    "Ġtrump": 8196,
    "seeing": 7079,
    "ization": 484,
    "sory": 17660,
    "Ġrabbit": 4288,
    "Ġfru": 8422,
    "Ġdilig": 8351,
    "rees": 5436,
    "we": 845,
    "derment": 22165,
    "Ġ102": 24409,
    "Ġlimited": 23548,
    "Ġwhile": 606,
    "Ġsex": 8845,
    "Ġforbade": 15217,
    "willing": 6593,
    "Ġbudge": 15167,
    "minded": 9039,
    "Ġtrust": 4077,
    "Ġspain": 15883,
    "Ġsnoring": 23742,
    "ifference": 5632,
    "Ġhysterical": 26093,
    "Ġnaturalist": 22889,
    "Ġoffic": 3188,
    "Ġones": 3021,
    "Ġend": 1476,
    "floating": 12231,
    "Ġratio": 5066,
    "ira": 3956,
    "continually": 11303,
    "befriend": 22497,
    "walks": 19724,
    "Ġdiscovered": 4413,
    "ships": 5486,
    "Ġsymptom": 13486,
    "Ġexperienced": 6581,
    "Ġslate": 11941,
    "Ġgreenland": 5761,
    "Ġeffusion": 22505,
    "Ġuproar": 22160,
    "Ġanalog": 12616,
    "Ġeven": 1025,
    "gave": 7800,
    "Ġmarines": 16262,
    "Ġencounter": 6629,
    "na": 13762,
    "fold": 7545,
    "Ġunderstand": 833,
    "Ġcou": 5288,
    "oughed": 22086,
    "Ġobserver": 11991,
    "Ġresponded": 13641,
    "Ġsoftmax": 1690,
    "Ġgratification": 24097,
    "allied": 7409,
    "indispensable": 14211,
    "renadier": 18420,
    "Ġinformed": 6718,
    "Ġfiner": 13057,
    "allowance": 16825,
    "Ġoblivious": 26033,
    "Ġinvoked": 19146,
    "sailors": 9924,
    "Ġdesmarest": 22985,
    "Ġstudents": 23217,
    "Ġprocessions": 18433,
    "ice": 590,
    "Ġdivulged": 16650,
    "Ġcobbling": 20526,
    "atter": 659,
    "reputation": 15517,
    "Ġgardiner": 3241,
    "mountain": 10714,
    "Ġstriving": 8998,
    "extrem": 18709,
    "unusual": 21884,
    "Ġdiscoveries": 13362,
    "Ġutmost": 5496,
    "prises": 23817,
    "Ġdiscrimin": 2546,
    "Ġbashaw": 25634,
    "Ġrepenting": 25323,
    "Ġwhilst": 9220,
    "Ġentry": 11026,
    "Ġmoritz": 11909,
    "Ġparting": 9786,
    "brave": 19826,
    "wretch": 17709,
    "Ġopposition": 16522,
    "bowsprit": 16854,
    "uend": 21104,
    "Ġcasual": 11410,
    "soldiers": 25912,
    "Ġinanimate": 13935,
    "hampshire": 23268,
    "Ġfinishing": 23130,
    "Ġineffect": 13932,
    "began": 6426,
    "Ġbrown": 6299,
    "Ġtangle": 25761,
    "Ġentreaties": 9037,
    "Ġmargaret": 10378,
    "Ġrepelled": 19087,
    "Ġlands": 6595,
    "Ġcast": 3606,
    "dist": 4480,
    "scores": 22996,
    "ook": 21006,
    "Ġtwinkled": 14314,
    "Ġdefer": 18824,
    "imprudent": 14652,
    "Ġquarters": 8623,
    "inconsiderable": 21194,
    "Ġmallet": 17812,
    "Ġade": 22109,
    "Ġbetake": 22912,
    "Ġlay": 583,
    "oar": 12501,
    "barrow": 15323,
    "confined": 24327,
    "Ġpronouncing": 16970,
    "Ġsnatch": 14640,
    "arter": 17895,
    "Ġinstructions": 11196,
    "queer": 10365,
    "sion": 8095,
    "fingers": 17372,
    "asiness": 8130,
    "Ġimagination": 5759,
    "Ġfle": 3092,
    "Ġirish": 14535,
    "ipher": 18434,
    "Ġdisinclined": 22534,
    "Ġvoy": 2619,
    "ensical": 18569,
    "Ġdeeply": 4718,
    "doc": 23379,
    "balanced": 14556,
    "Ġhovered": 12635,
    "Ġlaure": 16910,
    "Ġdiscoloured": 15255,
    "Ġsatan": 14392,
    "Ġaddu": 22110,
    "verted": 10219,
    "Ġduty": 4068,
    "Ġcommission": 6713,
    "Ġhoofs": 14528,
    "Ġdisagreeable": 9300,
    "Ġexclaimed": 4684,
    "Ġalps": 10871,
    "¿": 128,
    "Ġweights": 898,
    "Ġfaster": 3199,
    "iciency": 9576,
    "Ġcastaways": 19431,
    "Ġalternately": 15033,
    "calm": 8936,
    "Ġsummar": 3525,
    "Ġverse": 16603,
    "Ġfiles": 21417,
    "Ġengine": 1920,
    "Ġhypotheses": 4387,
    "Ġagainst": 1698,
    "correct": 24482,
    "Ġspitzbergen": 15290,
    "Ġ{": 21155,
    "oding": 1463,
    "proportions": 22839,
    "Ġconversation": 3332,
    "Ġblanche": 18821,
    "Ġtested": 23200,
    "Ġatmosphere": 10898,
    "Ġedge": 5189,
    "thy": 2931,
    "Ġouter": 6858,
    "Ġundertone": 23243,
    "Ġparties": 7039,
    "ostent": 16847,
    "oise": 15406,
    "Ġrueful": 25582,
    "chanced": 18812,
    "Ġwore": 6377,
    "Ġfainted": 8795,
    "Ġgodfre": 14530,
    "Ġgod": 1936,
    "Ġpreparations": 12313,
    "anelles": 26435,
    "Ġunreasonable": 12781,
    "Ġj": 534,
    "Ġgenius": 8047,
    "mown": 20972,
    "coo": 11171,
    "Ġdisconcerted": 18562,
    "Ġpleasurable": 23344,
    "Ġpaced": 7583,
    "powers": 25411,
    "inate": 6234,
    "Ġscraps": 16903,
    "Ġassisting": 13261,
    "Ġbreathed": 11221,
    "Ġsund": 8250,
    "Ġliable": 14230,
    "inqu": 6122,
    "Ġsaleve": 17393,
    "Ġphant": 7056,
    "Ġcigars": 12256,
    "ification": 1011,
    "Ġairth": 23322,
    "stre": 5451,
    "Ġcorrespondence": 10596,
    "travelling": 24337,
    "Ġsociety": 3975,
    "Ġloves": 10916,
    "revol": 12544,
    "avoiding": 25237,
    "Ġafar": 14296,
    "mm": 674,
    "batross": 9095,
    "uated": 10133,
    "Ġdusk": 12330,
    "Ġclanging": 18424,
    "Ġfollies": 16256,
    "tr": 3580,
    "Ġintricate": 15140,
    "cut": 3124,
    "material": 13133,
    "Ġlain": 17964,
    "Ġcrammed": 16472,
    "vedale": 22714,
    "Ġsingularly": 12152,
    "georgiana": 26021,
    "alarmed": 21507,
    "bergen": 14330,
    "Ġspring": 4120,
    "marvell": 24174,
    "susceptible": 24662,
    "Ġmodified": 14168,
    "hooked": 23718,
    "Ġdol": 9666,
    "Ġ182": 13240,
    "hand": 2755,
    "intense": 22940,
    "Ġscroll": 14193,
    "Ġacquiesced": 25494,
    "this": 1440,
    "Ġven": 4649,
    "Ġprairie": 8716,
    "Ġfeast": 10279,
    "Ġsweet": 3465,
    "Ġfashioned": 13324,
    "fleece": 19951,
    "/`)": 13663,
    "Ġglimpse": 6943,
    "Ġpainful": 6462,
    "ifle": 10892,
    "Ġpresumably": 19627,
    "Ġpreaching": 15929,
    "transp": 24508,
    "piling": 15417,
    "Ġunacquainted": 12780,
    "obey": 11511,
    "Ġtypewriter": 19099,
    "Ġundulations": 19518,
    "Ġrecording": 24433,
    "Ġworsh": 13004,
    "Ġcon": 348,
    "dismay": 19156,
    "Ġportraits": 20145,
    "Ġdevious": 22721,
    "Ġprom": 1528,
    "Ġsleeve": 20143,
    "pe": 1437,
    "Ġgathering": 14980,
    "Ġlaugh": 4112,
    "themselves": 6541,
    "painting": 17046,
    "Ġburtons": 19255,
    "exertion": 16019,
    "irection": 2388,
    "Ġsurvivor": 17365,
    "Ġneedle": 8276,
    "Ġmira": 8409,
    "Ġsecondly": 14519,
    "aping": 8195,
    "ancial": 21365,
    "Ġpurely": 12235,
    "fam": 5990,
    "mend": 20968,
    "Ġunique": 12782,
    "Ġrejection": 19987,
    "Ġbody": 2434,
    "Ġstranger": 3484,
    "Ġ68": 24369,
    "belong": 12126,
    "Ġmistakes": 16542,
    "Ġbenefited": 19401,
    "Ġreckon": 19872,
    "Ġwaist": 6891,
    "Ġpursuit": 4734,
    "Ġplaning": 22608,
    "Ġrestrictions": 20638,
    "Ġsteelkilt": 5675,
    "smeer": 26148,
    "ilations": 21726,
    "Ġgods": 6454,
    "scure": 22992,
    "atha": 6573,
    "Ġledger": 19405,
    "Ġunprincipled": 20710,
    "blue": 13696,
    "Ġinviting": 19145,
    "Ġcross": 1373,
    ",âĢĶâĢĺ": 23805,
    "inctions": 17733,
    "Ġmarriage": 3189,
    "Ġinfallibly": 10043,
    "Ġpossessor": 23827,
    "Ġharbour": 19983,
    "usage": 12837,
    "Ġcovered": 5171,
    "feren": 766,
    "iline": 21725,
    "Ġchaps": 14181,
    "than": 4086,
    "Ġbri": 21381,
    "Ġphysical": 7521,
    "happ": 3104,
    "Ġbaleen": 10039,
    "same": 5362,
    "Ġgleamed": 17077,
    "icherry": 15138,
    "Ġroses": 11789,
    "apside": 22964,
    "Ġthoughtfully": 12984,
    ":--": 5784,
    "Ġrobbed": 23041,
    "heric": 15915,
    "turned": 7305,
    "itic": 11580,
    "eted": 7591,
    "Ġgri": 17990,
    "Ġwearisome": 19798,
    "Ġcream": 22728,
    "despond": 19803,
    "phew": 6368,
    "Ġdisposition": 5409,
    "Ġbow": 3062,
    "leness": 4692,
    "Ġbroods": 23107,
    "personal": 24968,
    "Ġframework": 2011,
    "Ġgets": 10840,
    "Ġundulates": 24117,
    "ps": 4575,
    "Ġloathsome": 13530,
    "Ġreconcile": 25292,
    "Ġpitch": 5767,
    "een": 725,
    "Ġserviceable": 24717,
    "Ġslaves": 23174,
    "Ġtigris": 25760,
    "Ġrum": 5925,
    "Ġthem": 640,
    "Ġmildness": 9946,
    "tips": 13798,
    "Ġsorely": 17258,
    "Ġinspire": 11998,
    "block": 11471,
    "Ġbigness": 19763,
    "ife": 1023,
    "tea": 18740,
    "Ġwardrobe": 17227,
    "kovoko": 20672,
    "Ġgratifying": 13309,
    "Ġissued": 10601,
    "Ġspending": 10924,
    "Ġcables": 15561,
    "Ġsplendour": 20227,
    "achusetts": 20712,
    "Ġestate": 6317,
    "gs": 7337,
    "Ġrambles": 17186,
    "thodox": 21990,
    "Ġgulp": 20032,
    "poling": 12223,
    "swinging": 25913,
    "avier": 2830,
    "Ġrout": 7401,
    "Ġprem": 3427,
    "Ġdoth": 13910,
    "coronet": 16864,
    "Ġapo": 9632,
    "lodged": 25908,
    "Ġsyrian": 18354,
    "depths": 25664,
    "drove": 16994,
    "Ġwounded": 8661,
    "Ġbelieves": 14410,
    "Ġnormal": 1203,
    "Ġthan": 737,
    "shapes": 22469,
    "Ġpestilent": 25778,
    "satisf": 5781,
    "Ġhessian": 3549,
    "australian": 20564,
    "Ġdark": 2111,
    "Ġspectator": 19409,
    "allet": 11083,
    "Ġchairs": 12830,
    "professional": 20278,
    "connection": 18870,
    "Ġner": 1648,
    "bag": 7541,
    "ordinary": 4408,
    "Ġentering": 6286,
    "mortal": 10114,
    "Ġunderground": 18985,
    "Ġdy": 2502,
    "Ġgorge": 13569,
    "Ġchurches": 12832,
    "Ġsurpasses": 25269,
    "intim": 22938,
    "Ġkidnapping": 26358,
    "Ġgateway": 24799,
    "ighb": 10424,
    "vel": 2385,
    "Ġadmit": 7711,
    "Ġconviction": 6327,
    "Ġwaned": 17793,
    "lege": 17843,
    "embarrassed": 20667,
    "Ġbeg": 1282,
    "Ġornaments": 17454,
    "Ġmou": 13857,
    "Ġungovernable": 20711,
    "olstadt": 7789,
    "Ġuniform": 2225,
    "adler": 21767,
    "Ġindebted": 8711,
    "ricted": 15422,
    "Ġbodies": 8033,
    "Ġreadability": 2723,
    "Ġsister": 1477,
    "Ġcruis": 14625,
    "Ġuntrodden": 23525,
    "Ġtre": 2537,
    "anous": 21362,
    "Ġubiquitous": 26197,
    "Ġsoothing": 8174,
    "lot": 3209,
    "Ġoccurring": 2791,
    "mblings": 19783,
    "pull": 6796,
    "sets": 17661,
    "upper": 11540,
    "ago": 14067,
    "simply": 20673,
    "Ġmonsie": 11448,
    "Ġswitzerland": 10381,
    "Ġgroups": 3721,
    "Ġinstructed": 19286,
    "appearance": 5334,
    "Ġh": 290,
    "Ġprotruded": 19473,
    "Ġacute": 16126,
    "Ġsumat": 14131,
    "Ġstunsail": 25544,
    "fare": 7799,
    "owner": 18612,
    "Ġsystematically": 4306,
    "Ġwondered": 11126,
    "inois": 17739,
    "Ġbadge": 16681,
    "Ġbreak": 2867,
    "Ġnobleman": 19395,
    "onden": 13846,
    "app": 1040,
    "Ġwelded": 9573,
    "Ġrespectfully": 18995,
    "remark": 7260,
    "Ġago": 3138,
    "Ġdefend": 9342,
    "Ġaccompaniments": 24481,
    "Ġbronze": 22870,
    "Ġhumaneval": 25583,
    "conclusion": 25672,
    "Ġjewels": 12372,
    "Ġsurtout": 23467,
    "Ġjoin": 4855,
    "Ġreplenished": 13639,
    "Ġfled": 6672,
    "Ġaint": 17745,
    "advancing": 14838,
    "Ġstatistics": 1684,
    "strikes": 24671,
    "Ġunsatisfied": 22049,
    "Ġpuzzling": 14898,
    "cart": 10691,
    "Ġspear": 9316,
    "Ġrighted": 23183,
    "Ġsteadfastly": 10653,
    "Ġcharted": 22255,
    "command": 6577,
    "Ġkinds": 14504,
    "hend": 13256,
    "gir": 8084,
    "grey": 14914,
    "contains": 16033,
    "Ġdiscussion": 17196,
    "Ġabandon": 12261,
    "Ġdistributing": 22683,
    "Ġrecklessly": 16984,
    "Ġfeebly": 24878,
    "Ġdoubtful": 19143,
    "eneva": 5118,
    "security": 26208,
    "arthy": 4824,
    "impul": 16557,
    "Ġfishermen": 5972,
    "Ġbirch": 26175,
    "Ġannounce": 13342,
    "Ġpurporting": 19184,
    "Ġtempted": 9058,
    "Ġ38": 24079,
    "aying": 15753,
    "Ġbottled": 23798,
    "Ġadmirals": 20388,
    "Ġphilosophical": 26336,
    "Ġscrawled": 24580,
    "hurried": 11354,
    "fol": 4863,
    "Ġagreeable": 4551,
    "helped": 18927,
    "hatherley": 17569,
    "create": 24159,
    "Ġrouse": 15824,
    "Ġbrougham": 17872,
    "above": 8149,
    "Ġtouching": 4682,
    "ues": 2079,
    "ages": 828,
    "snow": 10725,
    "Ġretiring": 16283,
    "Ġwarmly": 8989,
    "Ġgovernments": 20270,
    "ucket": 2485,
    "Ġcurved": 18847,
    "Ġperiodical": 14774,
    "Ġreturns": 11929,
    "Ġmoulton": 17437,
    "Ġcoin": 9773,
    "utter": 7593,
    "Ġadoration": 18293,
    "Ġvigorously": 11300,
    "Ġbourgh": 5069,
    "altern": 17944,
    "ezes": 9993,
    "Ġyer": 15737,
    "Ġrobinson": 17465,
    "Ġpriv": 4181,
    "Ġeleven": 9392,
    "solemn": 19820,
    "Ġsurmises": 17055,
    "Ġsharing": 3476,
    "ched": 1547,
    "Ġattended": 5391,
    "pine": 13771,
    "Ġthereby": 7643,
    "Ġmeditative": 25017,
    "Ġyoke": 18098,
    "Ġcontrol": 13083,
    "fiery": 13584,
    "dissatisf": 26130,
    "Ġlamp": 4113,
    "diversity": 25898,
    "taste": 10131,
    "nurtured": 25525,
    "Ġneedn": 19231,
    "itheat": 21341,
    "ense": 2052,
    "Ġcorresponds": 19824,
    "plate": 18208,
    "Ġemac": 16410,
    "Ġannealing": 1554,
    "Ġwomen": 4751,
    "Ġtreachery": 15104,
    "Ġmundane": 26430,
    "Ġjerking": 12249,
    "ag": 377,
    "Ġwisest": 11234,
    "à": 161,
    "Ġillustration": 19137,
    "ord": 666,
    "Ġmadam": 5663,
    "Ġgallantry": 15106,
    "Ġstrikes": 13184,
    "sford": 5999,
    "remembered": 17353,
    "Ġilleg": 21627,
    "typewritten": 26039,
    "Ġhardship": 18915,
    "Ġcommunion": 19009,
    "Ġundivided": 24119,
    "crane": 24086,
    "Ġdepicted": 14282,
    "Ġmanipulation": 10660,
    "Ġeffemin": 18531,
    "Ġsides": 4580,
    "Ġelias": 18634,
    "Ġruminated": 24601,
    "Ġdangerously": 23940,
    "stall": 21644,
    "tom": 15437,
    "Ġphysiognomically": 25613,
    "Ġunduly": 25995,
    "Ġpick": 4254,
    "consum": 12874,
    "tailed": 17686,
    "feature": 4268,
    "gerine": 22893,
    "Ġnewcomers": 26042,
    "consc": 4842,
    "Ġraising": 8912,
    "Ġroy": 4226,
    "Ġtomb": 8811,
    "Ġvaguely": 17368,
    "Ġgin": 13963,
    "allingly": 22204,
    "Ġusher": 22227,
    "Ġpassengers": 13678,
    "touching": 15094,
    "Ġpassive": 22845,
    "sleepers": 24729,
    "Ġazure": 12377,
    "Ġextracted": 16329,
    "oub": 1633,
    "conveyed": 20524,
    "rades": 8592,
    "'(": 2977,
    "hurry": 24762,
    "dum": 17519,
    "avings": 12025,
    "Ġcleans": 18950,
    "thr": 12764,
    "Ġcrows": 24034,
    "Ġpacifics": 24372,
    "walls": 25346,
    "Ġelephant": 8257,
    "enchanted": 26425,
    "Ġporpoise": 7107,
    "complet": 11384,
    "lightened": 12068,
    "Ġwooden": 4731,
    "Ġsundering": 23278,
    "pad": 13770,
    "Ġwinchester": 10068,
    "ap": 547,
    "Ġprincipal": 6496,
    "Ġoakshott": 12233,
    "Ġbrig": 11048,
    "Ġolfactories": 26172,
    "desire": 14663,
    "follow": 5680,
    "Ġdrags": 16942,
    "bergs": 18683,
    "Ġscold": 10951,
    "Ġxlix": 25861,
    "Ġphotography": 24684,
    "Ġmund": 21321,
    "amount": 10885,
    "Ġconjugal": 25104,
    "Ġscents": 22287,
    "forgotten": 12419,
    "Ġdeparture": 6490,
    "ames": 2951,
    "71": 20758,
    "rubber": 12816,
    "hide": 10704,
    "Ġunder": 1635,
    "Ġindic": 2885,
    "ĉ": 202,
    "Ġstabbing": 20306,
    "perhaps": 4121,
    "Ġpanic": 11287,
    "Å": 134,
    "uendoes": 26408,
    "arms": 10175,
    "thence": 23403,
    "Ġsmote": 18576,
    "Ġmizzen": 20292,
    "Â·": 21152,
    "Ġbulldog": 23862,
    "Ġuncomp": 15844,
    "Ġtrait": 23079,
    "gentlemen": 9506,
    "Ġbrit": 6290,
    "though": 2115,
    "canallers": 22968,
    "bent": 15314,
    "Ġalms": 21785,
    "Ġunspeakable": 10058,
    "Ġhaunts": 18199,
    "ods": 8838,
    "cd": 15325,
    "regarding": 15074,
    "Ġbritannica": 24681,
    "Ġluggage": 25958,
    "Ġwhipcord": 20098,
    "uish": 5431,
    "Ġbelief": 5856,
    "Ġwavering": 23283,
    "orously": 8421,
    "land": 1532,
    "Ġoffice": 4965,
    "ime": 626,
    "h": 76,
    "Ġ131": 24781,
    "Ġhen": 3503,
    "Ġguiding": 19243,
    "Ġdrawers": 12109,
    "Ġexpiration": 22629,
    "Ġnocturnal": 20717,
    "blades": 24129,
    "Ġcanaller": 25468,
    "mush": 20979,
    "Ġfascinated": 25636,
    "untering": 15779,
    "scorn": 22995,
    "Ġfriendly": 9822,
    "all": 486,
    "Ġrope": 4339,
    "solitude": 23299,
    "Ġmathemat": 3204,
    "Ġpra": 4347,
    "bl": 4140,
    "Ġmass": 3781,
    "Ġinstigated": 18699,
    "ilder": 15716,
    "Ġaddress": 2271,
    "Ġnotions": 14101,
    "Ġstreams": 12196,
    "Ġmany": 1107,
    "Ġbob": 22641,
    "Ġchalk": 15936,
    "Ġtreacle": 14596,
    "Ġaffections": 10386,
    "Ġfaulty": 14909,
    "Ġfright": 3797,
    "lu": 597,
    "Ġreturn": 1711,
    "Ġlxi": 21565,
    "resembled": 21249,
    "drawing": 10488,
    "Ġenlar": 15803,
    "sou": 12509,
    "Ġevaporate": 26334,
    "Ġeverybody": 4510,
    "Ġstammered": 26201,
    "Ġbefore": 809,
    "Ġderision": 16311,
    "leag": 21369,
    "Ġthreshold": 2808,
    "Ġhiss": 15791,
    "morrow": 4573,
    "tling": 9144,
    "Ġflapp": 23013,
    "Ġcryst": 9919,
    "Ġinevitably": 17232,
    "Ġcouples": 16853,
    "Ġcumberland": 21358,
    "Ġclifford": 22361,
    "impud": 23762,
    "Ġbier": 22765,
    "Ġadmired": 7983,
    "permission": 15899,
    "Ġhoisting": 9864,
    "Ġbespe": 19244,
    "circumstantial": 24443,
    "Ġunlucky": 10052,
    "Ġhip": 17923,
    "Ġlingo": 24904,
    "attended": 8954,
    "_âĢĶâĢĿ": 20765,
    "Ġpist": 12619,
    "delirious": 19508,
    "Ġbegun": 7242,
    "homage": 25617,
    "Ġmeaning": 1416,
    "Ġtreas": 7357,
    "retired": 11939,
    "communication": 25881,
    "Ġbuildings": 24719,
    "rush": 7011,
    "Ġmeditate": 16708,
    "line": 1441,
    "itations": 17819,
    "Ġbon": 8789,
    "Ġproport": 2300,
    "Ġhastily": 5763,
    "Ġhysterics": 26094,
    "outon": 12807,
    "Ġcad": 12572,
    "Ġcontraction": 16011,
    "ffy": 18318,
    "henomen": 10496,
    "Ġarctic": 12815,
    "Ġgreenness": 23770,
    "dared": 13705,
    "fav": 6648,
    "Ġgirls": 4278,
    "Ġconfined": 7464,
    "ouring": 6420,
    "Ġsigns": 2441,
    "Ġdrily": 23543,
    "Ġsoliloquized": 17304,
    "Ġjollity": 25567,
    "Ġaforethought": 25429,
    "connected": 1310,
    "grave": 16097,
    "Ġimmensity": 25330,
    "Ġcolds": 23760,
    "whims": 22244,
    "gre": 5788,
    "Ġassertion": 13492,
    "links": 20960,
    "Ġchil": 11754,
    "Ġhilarious": 20301,
    "Ġill": 2192,
    "hid": 13736,
    "impetuous": 23765,
    "Ġearned": 19408,
    "Ġsy": 487,
    "angels": 22107,
    "Ġspaulding": 11734,
    "Ġteacup": 16210,
    "Ġemerge": 14930,
    "Ġworms": 25217,
    "Ġbirth": 6524,
    "Ġaustralia": 15235,
    "Ġconsideration": 5191,
    "Ġdisc": 943,
    "hope": 5991,
    "nailed": 20998,
    "Ġglassy": 19563,
    "Ġstays": 16562,
    "Ġblinding": 14730,
    "want": 8770,
    "Ġassert": 7121,
    "persecut": 22185,
    "Ġneatly": 17017,
    "Ġcomprehended": 11295,
    "Ġelephants": 9866,
    "thickness": 25368,
    "icher": 9204,
    "Ġblowing": 10486,
    "understanding": 1105,
    "Ġcoolness": 16887,
    "work": 1746,
    "stretch": 13978,
    "Ġpsalmody": 20588,
    "Ġ*": 1273,
    "Ġchip": 12829,
    "ounced": 4954,
[...]
