{
  "metadata": {
    "vocab_size": 26616,
    "algorithm": "BPE",
    "created_at": "2026-07-26 05:30:36",
    "special_tokens": [
      "<PAD>",
      "<SOS>",
      "<EOS>",
      "<UNK>",
      "<MASK>"
    ]
  },
  "vocab": {
    "Ġtyrant": 24766,
    "Ġstings": 21738,
    "window": 7743,
    "ĳ": 244,
    "Ġoccup": 3741,
    "eous": 13715,
    "Ġsaturday": 6453,
    "Ġadam": 2126,
    ":": 30,
    "Ġomen": 11579,
    "Ġfobbing": 26443,
    "Ġsupple": 23003,
    "Ġspind": 18308,
    "Ġgrud": 17998,
    "otic": 15749,
    "Ġsquid": 11882,
    "Ġhistorically": 19381,
    "Ġsurm": 7477,
    "complete": 15037,
    "renew": 24450,
    "Ġquivering": 12863,
    "does": 6196,
    "Ġmayhew": 12955,
    "Ġcomment": 9235,
    "Ġcases": 3965,
    "Ġunsav": 18252,
    "Ġresolving": 9422,
    "bond": 17492,
    ";âĢĶ": 3751,
    "Ġmildness": 9947,
    "neck": 14244,
    "Ġgardiner": 3239,
    "Ġwheels": 10914,
    "assed": 6420,
    "thole": 21990,
    "body": 2306,
    "Ġvocabulary": 4995,
    "Ġ181": 23899,
    "Ġstudded": 18970,
    "Ġproflig": 23569,
    "nihil": 9849,
    "Ġinc": 702,
    "bits": 17491,
    "Ġcards": 7582,
    "ender": 9163,
    "Ġdelicately": 24128,
    "Ġturbid": 23613,
    "Ī": 235,
    "Ġsmile": 4273,
    "¹": 122,
    "Ġdoc": 7200,
    "Ġgold": 3278,
    "owner": 18611,
    "Ġgradual": 20604,
    "reat": 619,
    "attle": 4466,
    "right": 2773,
    "Ġindistinctly": 26118,
    "causes": 20346,
    "bounded": 13443,
    "roqu": 21537,
    "Ġclasses": 4057,
    "Ġwint": 15536,
    "Ġspecimen": 13029,
    "hailed": 17567,
    "Ġstra": 2992,
    "Ġerected": 12238,
    "inqu": 6123,
    "choice": 21694,
    "Ġpurpose": 2712,
    "Ġhint": 5016,
    "Ġderived": 8239,
    "Ġwhatsoever": 18456,
    "Ġrespects": 7269,
    "gird": 20881,
    "partiality": 13164,
    ";âĢĿâĢĶ": 20762,
    "sand": 21055,
    "Ġhel": 3789,
    "lev": 1238,
    "Ġslugg": 15272,
    "Ġdanish": 21434,
    "Ġimprec": 14216,
    "Ġperceptibly": 25822,
    "Ġbacked": 12925,
    "Ġmonotonous": 13267,
    "Ġtalker": 23374,
    "substance": 15235,
    "eneva": 5118,
    "Ġex": 360,
    "Ġfemales": 14940,
    "Ġalphabetical": 17204,
    "Ġsmack": 9303,
    "Ġaberdeen": 26543,
    "politeness": 16908,
    "ĠĠĠĠĠĠĠĠ": 711,
    "Ġestablish": 9546,
    "unfearing": 21896,
    "Ġscatter": 18399,
    "Ġmutually": 23960,
    "liking": 22927,
    "reflected": 24732,
    "Ġjiff": 22307,
    "Ġaugment": 8695,
    "testing": 12521,
    "awe": 20767,
    "atters": 18514,
    "anxious": 15113,
    "Ġbeach": 6543,
    "Ġimpunity": 14215,
    "Ġhides": 16266,
    "tuning": 1579,
    "Ġnoting": 18222,
    "Ġfilial": 16622,
    "Ġgallon": 24187,
    "Ġwiping": 25766,
    "quick": 6401,
    "Ġstarvation": 19794,
    "Ġbra": 3255,
    "Ġforgo": 21777,
    "Ġcrotch": 9966,
    "Ġarrows": 18342,
    "izard": 10885,
    "Ġsafety": 6341,
    "Ġspasmodically": 17317,
    "illing": 8175,
    "Ġglided": 7447,
    "position": 15416,
    "Ġpry": 11603,
    "Ġwa": 1752,
    "Ġresides": 22544,
    "bill": 10079,
    "produced": 25415,
    "pleasures": 24052,
    "Ġexcepting": 14682,
    "tale": 10130,
    "Ġmanufactured": 22334,
    "avating": 18606,
    "impregn": 21717,
    "Ġremained": 3141,
    "Ġbounding": 19403,
    "Ġprospects": 9962,
    "hess": 4748,
    "drove": 16995,
    "character": 6333,
    "Ġhatter": 4114,
    "Ġarid": 22186,
    "tum": 11534,
    "Ġdrank": 16538,
    "Ġnoises": 18374,
    "Ġpatent": 11960,
    "Ġunp": 12777,
    "encing": 21285,
    "Ġplun": 6283,
    "besides": 8699,
    "justified": 19007,
    "Ġresource": 10995,
    "Ġindec": 13931,
    "Ġket": 18348,
    "Ġbrittle": 22867,
    "Ġchains": 8251,
    "Ġpadded": 25039,
    "european": 26373,
    "Ġintricate": 15141,
    "pread": 7418,
    "Ġar": 480,
    "Ġskirts": 14356,
    "Ġnantucketers": 9898,
    "Ġgoodness": 6060,
    "Ġmidway": 14606,
    "Ġchatbots": 11351,
    "Ġjunior": 15103,
    "Ġreus": 8826,
    "Ġforlorn": 14018,
    "entreaties": 26187,
    "elson": 16377,
    "fashion": 8081,
    "Ġfound": 1247,
    "Ġhandled": 12942,
    "Ġaffright": 9335,
    "Ġprecipitous": 24836,
    "Ġawful": 6201,
    "wed": 5796,
    "Ġhierarchical": 1927,
    "Ġcornelius": 13577,
    "com": 1002,
    "Ġ122": 24467,
    "narwhale": 17321,
    "Ġprovoking": 16745,
    "recollection": 25349,
    "Ġstock": 7455,
    "ou": 287,
    "gging": 7698,
    "pans": 13773,
    "fordshire": 4677,
    "Ġbird": 3757,
    "suspicions": 25392,
    "Ġpossessed": 5195,
    "har": 20892,
    "Ġbrown": 6300,
    "Ġcosine": 2371,
    "Ġcataract": 23430,
    "Ġadding": 2402,
    "Ġyankees": 26203,
    "Ġpalaces": 24096,
    "eth": 620,
    "Ġrick": 21977,
    "Ġportentous": 15233,
    "aches": 6572,
    "Ġcrosswise": 18887,
    "imson": 12694,
    "illustration": 2280,
    "Ġdexterous": 15152,
    "bird": 9588,
    "Ġexpress": 2193,
    "Ġready": 3398,
    "Ġpotential": 3621,
    "Ġhackney": 20436,
    "Ġwhistling": 19793,
    "Ġfacial": 10608,
    "Ġsacri": 18328,
    "Ġbland": 11066,
    "Ġthirty": 4944,
    "Ġfolks": 14429,
    "iminished": 19025,
    "ą": 198,
    "fears": 18529,
    "Ġconcernment": 23647,
    "Ġlining": 13954,
    "dis": 2248,
    "Ġfloat": 12036,
    "Ġforked": 11667,
    "Ġbrimming": 22869,
    "Ġbumps": 21395,
    "Ġblandly": 20326,
    "Ġprotecting": 24687,
    "Ġdeserving": 14757,
    "Ġbristling": 20530,
    "Ġspending": 10925,
    "itty": 3557,
    "Ġgovernor": 16493,
    "Ġoutlast": 22317,
    "din": 8374,
    "M": 49,
    "verb": 10219,
    "provid": 11151,
    "Ġcursory": 18852,
    "Ġtitle": 11410,
    "Ġauto": 23328,
    "dington": 12070,
    "usually": 10287,
    "morland": 24156,
    "Ġclubbed": 26548,
    "stern": 8446,
    "sartain": 25623,
    "offers": 16398,
    "Ġhump": 5855,
    "Ġjumbled": 22308,
    "libr": 22926,
    "relig": 15515,
    "Ġautumnal": 19056,
    "Ġdealer": 23980,
    "loo": 10322,
    "vial": 17699,
    "Ġadmin": 23555,
    "Ġunwonted": 15010,
    "Ġamusements": 16915,
    "Ġmethinks": 10395,
    "Ġhedgehogs": 25395,
    "Ġgoblets": 20522,
    "Ġpulpit": 7470,
    "Ġpersons": 6182,
    "Ġlock": 5929,
    "Ġcrawford": 24894,
    "Ġdiet": 13913,
    "utterly": 20015,
    "Ġtimes": 2301,
    "itude": 1417,
    "Ġincarnation": 25574,
    "Ġresult": 4460,
    "Ġpartner": 6716,
    "steaks": 23964,
    "hurried": 11355,
    "Ġfossiliferous": 25610,
    "Ġinsolent": 13604,
    "Ġthree": 1369,
    "astic": 1868,
    "hampshire": 23268,
    "Ġimpossibility": 20649,
    "âĢĶ(": 15942,
    "Ġtesting": 23213,
    "Ġscheduling": 2348,
    "wol": 21125,
    "Ġplumber": 16088,
    "Ġvineyards": 25109,
    "dinner": 11408,
    "Ġglide": 22989,
    "Ġcondemned": 7779,
    "mrs": 3746,
    "Ġexecuted": 9475,
    "Ġdiscount": 22784,
    "Ġpublisher": 24071,
    "ped": 6964,
    "elaborate": 21579,
    "Ġforces": 12707,
    "apan": 6860,
    "ies": 582,
    "Ġextra": 4058,
    "Ġprotect": 6339,
    "Ġjuggler": 26368,
    "iving": 1726,
    "Ġalternating": 15033,
    "Ġmartial": 20294,
    "18": 20753,
    "hour": 7340,
    "Ġdante": 21441,
    "Ġinsulted": 14995,
    "Ġconfederate": 17356,
    "Ġintrepidity": 25551,
    "Ġpondicherry": 20494,
    "urns": 10216,
    "searching": 25106,
    "med": 1910,
    "Ġparaphrasing": 26528,
    "contemplated": 20461,
    "shows": 22455,
    "avery": 13687,
    "bearings": 25372,
    "Ġaforethought": 25429,
    "claims": 25320,
    "Ġrigid": 16718,
    "ributed": 8215,
    "Ġfordham": 21780,
    "Ġmessages": 24984,
    "land": 1532,
    "cring": 20813,
    "Ġinhabitants": 7525,
    "Ġscientific": 6857,
    "Ġcaul": 10789,
    "cloud": 11107,
    "Ġhyp": 3877,
    "Ġstop": 2501,
    "Ġbouquet": 20686,
    "Ġu": 324,
    "etween": 775,
    "Ġaltitude": 26204,
    "algorith": 3476,
    "Ġsuccessful": 9926,
    "mis": 4521,
    "Ġsorrows": 13359,
    "Ġtribes": 20484,
    "ribute": 7227,
    "acher": 6868,
    "Ġslaughtered": 26586,
    "shall": 4550,
    "Ġ----": 7146,
    "asion": 5714,
    "Ġdrawling": 19440,
    "Ġoutstanding": 22320,
    "Ġstretched": 5921,
    "gments": 12474,
    "Ġwindibank": 7256,
    "sole": 6170,
    "Ġimmensity": 25330,
    "Ġwitnessed": 14847,
    "rudent": 6483,
    "Ġbrine": 18770,
    "Ġpaths": 2569,
    "Ġtrial": 6637,
    "Ġdeference": 10883,
    "glances": 23856,
    "tling": 9145,
    "Ġbrighter": 16191,
    "Ġnovember": 11753,
    "á": 162,
    "rowing": 7931,
    "Ġaffront": 18788,
    "Ġdreading": 23801,
    "Ġluck": 4881,
    "Ġcarcase": 14447,
    "beheaded": 22496,
    "Ġinherited": 25354,
    "Ġextremest": 19197,
    "Ġmagnitude": 1942,
    "down": 3471,
    "Ġmor": 1249,
    "changing": 10856,
    "bingley": 4928,
    "Ġheaviest": 23329,
    "utter": 7595,
    "Ġlangu": 578,
    "Ġgardiners": 11159,
    "splash": 25210,
    "Ġinanimate": 13936,
    "thoughts": 9938,
    "Ġconfided": 19038,
    "sincere": 16909,
    "Ġdeficiencies": 26572,
    "Ġcrutch": 23446,
    "chain": 18042,
    "hest": 3370,
    "althy": 8433,
    "Ġwondered": 11127,
    "attempts": 17193,
    "Ġshel": 6847,
    "Ġballs": 9018,
    "hyena": 24255,
    "tor": 15435,
    "Ġsentinel": 26066,
    "designated": 26320,
    "Ġdespondency": 16580,
    "Ġmechanisms": 1574,
    "ĠlinnÃ¦us": 15279,
    "00": 1609,
    "Ġeffemin": 18543,
    "Ġ101": 24409,
    "Ġinferiority": 17116,
    "Ġshrieking": 24757,
    "Ġquality": 3530,
    "retched": 3070,
    "Ġsufferer": 16260,
    "Ġaroused": 15902,
    "Ġdesmarest": 22979,
    "asc": 6387,
    "Ġfisheries": 17441,
    "Ġurgent": 16871,
    "ython": 1030,
    "Ġsaves": 18324,
    "dug": 18463,
    "doublo": 24661,
    "welt": 12525,
    "Ġblameless": 19861,
    "Ġsqualidness": 25844,
    "Ġsmallest": 6431,
    "ocations": 23711,
    ">": 34,
    "Ġdefection": 22947,
    "unfortunate": 15781,
    "Ġman": 543,
    "pr": 3176,
    "Ġbaw": 15573,
    "Ġcand": 3276,
    "Ġsnar": 13204,
    "freighted": 14895,
    "Ġsuperiority": 14619,
    "irt": 3078,
    "Ġtor": 8106,
    "Ġrehears": 15704,
    "tol": 17674,
    "Ü": 157,
    "furnished": 20244,
    "Ġconceive": 8463,
    "dear": 6557,
    "deck": 4500,
    "Ġwildest": 16512,
    "Ġquiet": 3261,
    "painted": 17641,
    "pull": 6797,
    "Ġdesol": 6881,
    "Ġapproach": 851,
    "Ġperpendicular": 7209,
    "vity": 7815,
    "Ġfolly": 7941,
    "Ġdisorder": 16055,
    "imely": 14001,
    "downstairs": 23923,
    "Ġtempest": 8214,
    "Ġglo": 1716,
    "Ġinjustice": 9193,
    "enances": 10156,
    "Ġvect": 1229,
    "Ġdrop": 4345,
    "obtain": 23096,
    "generosity": 23789,
    "Ġnineveh": 13393,
    "Ġxxv": 19720,
    "arab": 21444,
    "Ġselfishness": 12293,
    "keeper": 5597,
    "faith": 15027,
    "Ġsupposing": 6731,
    "action": 3728,
    "results": 20390,
    "dissatisf": 26130,
    "Ġwished": 3731,
    "fish": 3518,
    "Ġlaughing": 5339,
    "rising": 7558,
    "Ġprograms": 7239,
    "}": 97,
    "Ġprot": 3852,
    "ket": 17584,
    "tro": 15436,
    "Ġclosest": 16765,
    "Ġadventures": 7748,
    "Ġinstruments": 12228,
    "Ġshining": 8172,
    "Ġknow": 632,
    "Ġpath": 2114,
    "icient": 795,
    "Ġsom": 1274,
    "Ġarg": 4767,
    "named": 9889,
    "charles": 14702,
    "Ġacceptance": 14830,
    "punishment": 15149,
    "Ġdidn": 4363,
    "pede": 19932,
    "cre": 4252,
    "Ġwalked": 3140,
    "Ġret": 1381,
    "sleep": 6512,
    "stones": 11639,
    "Ġinfamy": 14504,
    "reward": 15512,
    "Ġdragged": 6889,
    "removing": 17766,
    "homely": 25618,
    "bold": 17490,
    "Ġalgorith": 562,
    "Ġscru": 8192,
    "Ġwarnings": 16883,
    "exposure": 19259,
    "avenza": 17105,
    "Ġfan": 2038,
    "_:": 17481,
    "Ġrestricted": 19029,
    "Ġleave": 2456,
    "Ġgreenhorn": 23771,
    "alizing": 17942,
    "Ġcoff": 3510,
    "Ġsporty": 19892,
    "handkerchief": 14620,
    "Ġpolluted": 25594,
    "Ġthings": 1961,
    "Ġrifled": 21983,
    "regiment": 16452,
    "Ġcirculating": 23376,
    "Ġbeheading": 21758,
    "Ġpagans": 16924,
    "Ġwrinkles": 8574,
    "Ġunlabeled": 3802,
    "Ġreveal": 11202,
    "Ġfreezing": 23886,
    "Ġperempt": 13677,
    "stranger": 9886,
    "Ġdispelling": 23883,
    "beat": 10988,
    "Ġpromoting": 3162,
    "ham": 1704,
    "Ġinspiring": 19114,
    "confused": 19642,
    "Ġpromised": 5181,
    "Ġbackbone": 22643,
    "Ġfind": 1457,
    "Ġland": 1997,
    "Ġ104": 24412,
    "cannibal": 15228,
    "satisfaction": 9995,
    "Ġimpediments": 26242,
    "Ġadvised": 16216,
    "Ġforenoon": 19127,
    "resses": 16155,
    "Ġopinions": 9418,
    "Ġinseparable": 20691,
    "Ġfashionable": 19547,
    "Ġembarked": 17137,
    "falsehood": 25902,
    "saying": 8644,
    "Ġclin": 14202,
    "Ġfaced": 10810,
    "ahit": 9385,
    "Ġadjacent": 20713,
    "igantic": 5539,
    "whel": 7666,
    "Ġvirtual": 11241,
    "Ġunmanufactured": 20437,
    "fif": 9119,
    "Ġstrings": 11833,
    "daggoo": 13710,
    "wra": 11544,
    "ĠĠĠĠĠĠĠĠĠĠĠĠĠĠĠĠĠĠĠĠĠĠĠĠĠĠĠĠĠĠĠĠĠĠĠĠĠĠĠĠĠĠĠĠĠĠĠĠĠĠĠĠĠĠĠĠĠĠĠĠ": 19262,
    "Ġnetherfield": 3936,
    "Ġhabitations": 24788,
    ".": 18,
    "Ġflorid": 17138,
    "Ġalpine": 18108,
    "Ġdiscomposure": 20382,
    "Ġbackwards": 12926,
    "Ġdisastrous": 16064,
    "Ġspare": 5102,
    "sometimes": 5973,
    "Ġsalted": 14760,
    "Ġfilters": 3933,
    "Ġincredulity": 11313,
    "Ġperson": 2367,
    "dun": 17518,
    "Ġantics": 24181,
    "Ġconvolutional": 2161,
    "circumamb": 26088,
    "Ġtame": 17724,
    "rations": 10725,
    "Ġeasterly": 25963,
    "patched": 17645,
    "scotch": 25852,
    "indignation": 18438,
    "Ġobliquely": 12366,
    "Ġeliminating": 20623,
    "Ġsheltered": 19913,
    "Ġbrig": 11049,
    "ieces": 4773,
    "Ġreproof": 24891,
    "ĠâĢĻ": 3044,
    "Ġtremendous": 8353,
    "Ġ134": 24783,
    "Ġsphy": 18312,
    "Ġener": 10898,
    "Ġsentin": 16378,
    "Ġhandsomest": 20337,
    "jee": 17581,
    "Ġhorses": 6386,
    "epend": 3315,
    "mes": 1197,
    "sleepy": 24728,
    "Ġbravest": 23844,
    "antique": 18288,
    "irs": 14073,
    "Ġsteadily": 8052,
    "mantel": 26396,
    "sius": 13791,
    "onical": 21256,
    "net": 1194,
    "Ġdirest": 22708,
    "Ġconfidence": 6592,
    "ish": 552,
    "Ġsolicitude": 10043,
    "Ġhatchways": 24990,
    "arial": 5532,
    "Ġthoroughfare": 16946,
    "cal": 1119,
    "Ġdoorway": 14500,
    "isted": 3298,
    "time": 3146,
    "Ġcompact": 2259,
    "gent": 7131,
    "Ġflashed": 11918,
    "uracy": 1140,
    "Ġbarbara": 24815,
    "Ġcarpets": 18904,
    "Ġminute": 4280,
    "vell": 3963,
    "Ġtoast": 21515,
    "Ġcan": 473,
    "Ġoutward": 7904,
    "duing": 22415,
    "Ġbestowing": 16973,
    "groom": 8743,
    "Ġdepose": 22609,
    "skin": 10571,
    "!_": 7329,
    "Ġscepticism": 25928,
    "lee": 11588,
    "mingled": 14716,
    "Ġcombat": 16187,
    "uncle": 8159,
    "Ġhearth": 11986,
    "Ġboughs": 20492,
    "detained": 24382,
    "Ġinfluenced": 19635,
    "Ġpoetical": 25059,
    "religion": 20578,
    "consent": 18502,
    "stepfather": 19192,
    "Ġmap": 2391,
    "instance": 24171,
    "Ġdough": 8422,
    "ores": 2413,
    "Ġmediterranean": 12319,
    "Ġbinding": 20422,
    "fastened": 19327,
    "Ġloveliest": 20264,
    "Ġcurb": 16242,
    "Ġcigars": 12257,
    "Ġheadsmen": 14735,
    "Ġsheet": 6264,
    "Ġfac": 6382,
    "occupied": 12308,
    "Ġboomer": 20170,
    "Ġ{": 21155,
    "Ġimprisonment": 22388,
    "Ġglove": 14494,
    "Ġbeyond": 2457,
    "Ġfra": 1810,
    "Ġtakes": 5007,
    "Ġdolphin": 17315,
    "aples": 20770,
    "Ġmightiest": 12966,
    "oid": 3127,
    "Ġconcerns": 11972,
    "reply": 19725,
    "Ġsuch": 797,
    "Ġthoughtlessness": 16197,
    "Ġass": 1503,
    "Ġhoarsely": 26303,
    "ones": 2747,
    "Ġprudent": 9188,
    "Ġshe": 466,
    "Ġdrab": 13075,
    "Ġmeridian": 25713,
    "excuse": 13385,
    "Ġclifford": 22353,
    "Ġtempted": 9059,
    "admirably": 24947,
    "trap": 24334,
    "Ġcorrespondence": 10597,
    "Ġuttermost": 19491,
    "hello": 13368,
    "bling": 10685,
    "increased": 20273,
    "Ġcovers": 18593,
    "oftener": 23968,
    "mpus": 13760,
    "Ġhumbly": 16201,
    "Ġautonom": 10418,
    "account": 5330,
    "Ġloops": 8856,
    "Ġcompensated": 17404,
    "cases": 12452,
    "kitchen": 17587,
    "Ġunheard": 22027,
    "inement": 11560,
    "Ġeyed": 12672,
    "Ġplanned": 14756,
    "Ġunfulfilled": 26511,
    "lighted": 23757,
    "reng": 4004,
    "his": 1412,
    "Ġhare": 5157,
    "Ġslipping": 13365,
    "dil": 11480,
    "Ġweedy": 15797,
    "civilized": 17076,
    "requent": 3651,
    "Ġmissionary": 25697,
    "Ġdisinterested": 16061,
    "nal": 1900,
    "Ġconcealed": 7496,
    "Ġdeserts": 10510,
    "Ġfetched": 24568,
    "Ġbough": 13897,
    "Ġgrounded": 23715,
    "Ġcircumst": 2975,
    "cords": 25139,
    "complacency": 19916,
    "Ġbidirectional": 3756,
    "ingley": 1545,
    "_.âĢĻâĢĿ": 17482,
    "Ġelement": 6898,
    "Ġdexterity": 25295,
    "cour": 4479,
    "Ġtumble": 16881,
    "Ġrevolut": 3258,
    "Ġseven": 4542,
    "Ġknown": 1644,
    "Ġremoval": 12122,
    "ainted": 3660,
    "Ġinhab": 5083,
    "Ġchann": 15939,
    "Ġhertfordshire": 5377,
    "Ġ60": 14878,
    "Ġfilthy": 13253,
    "bethinking": 25746,
    "Ġagatha": 6866,
    "Ġpalmy": 19502,
    "Ġexplo": 2282,
    "Ġassurance": 7775,
    "edded": 8557,
    "Ġcopper": 7425,
    "reception": 15517,
    "Ġtropic": 17066,
    "fal": 17538,
    "Ġgoodly": 22825,
    "Ġpage": 6979,
    "rapt": 13976,
    "Ġaccumulation": 2696,
    "Ġfruits": 17121,
    "appalled": 18762,
    "Ġinquir": 4244,
    "Ġrock": 5311,
    "Ġbeard": 11658,
    "Ġtahitian": 25428,
    "Ġlanded": 7469,
    "Ġretirement": 25379,
    "Ġpedestrian": 25884,
    "Ġtranslates": 12055,
    "stein": 5505,
    "unte": 21877,
    "aven": 8209,
    "edd": 1189,
    "Ġprevailed": 7778,
    "Ġign": 8295,
    "bweb": 20793,
    "cil": 8724,
    "Ġmosses": 20166,
    "remembrance": 25703,
    "bewil": 22501,
    "aker": 3664,
    "Ġstrive": 23697,
    "Ġsimply": 7218,
    "Ġwardrobe": 17228,
    "ruct": 688,
    "Ġdagger": 21440,
    "spin": 22730,
    "henomena": 20275,
    "Ġidiot": 11976,
    "Ġfavoured": 16367,
    "otics": 10226,
    "Ġoper": 2120,
    "Ġpulverize": 23396,
    "Ġmoot": 22436,
    "Ġgid": 13965,
    "ayed": 12717,
    "Ġplow": 21462,
    "Ġprotectors": 9073,
    "Ġtawny": 20485,
    "derbyshire": 18322,
    "whale": 2139,
    "wide": 10140,
    "Ġrus": 14096,
    "Ġassid": 18947,
    "bethink": 25745,
    "aggra": 21910,
    "trick": 19416,
    "Ġarist": 14164,
    "Ġtophet": 23575,
    "Ġsepulchre": 20562,
    "Ġstud": 1595,
    "ively": 1318,
    "Ġfancy": 3747,
    "Ġhearty": 9848,
    "web": 18664,
    "Ġberth": 8683,
    "ters": 1571,
    "Ġsewing": 21965,
    "conc": 3952,
    "onts": 15522,
    "Ġappropriate": 2247,
    "Ġeff": 684,
    "Ġsupposed": 4558,
    "impropriety": 21716,
    "Ġquivers": 22417,
    "Ġsurvived": 14937,
    "Ġunman": 12779,
    "Ġhindrance": 25221,
    "mistak": 16880,
    "Ġbutchers": 18273,
    "programming": 10066,
    "Ġhorizon": 6635,
    "Ġirrespective": 23378,
    "system": 4206,
    "neath": 12871,
    "begins": 18526,
    "Ġpoising": 22594,
    "Ġflukes": 5267,
    "Ġeccentric": 13653,
    "visit": 7755,
    "flowing": 14585,
    "Ġted": 13815,
    "Ġfriesland": 26444,
    "Ġtea": 5041,
    "Ġachieve": 3674,
    "prepar": 22470,
    "Ġbarb": 4531,
    "Ġgermans": 25785,
    "jo": 3752,
    "counters": 25398,
    "lotte": 3331,
    "oft": 3593,
    "Ġcastaway": 16643,
    "Ġpirate": 14998,
    "Ġsurmise": 12299,
    "Ġunwearied": 20605,
    "declare": 25174,
    "Ġcompose": 12907,
    "cor": 5520,
    "command": 6578,
    "Ġmanifold": 13564,
    "Ġguest": 7249,
    "Ġsket": 18729,
    "Ġcapable": 5054,
    "Ġ-": 1943,
    "Ġearliest": 9833,
    "Ġherd": 7888,
    "dismay": 19156,
    "onstr": 12551,
    "Ġoce": 3031,
    "fatality": 25022,
    "ice": 588,
    "Ġskip": 1844,
    "Ġresolve": 13174,
    "Ġpersuade": 5874,
    "thar": 18218,
    "Ġplight": 14284,
    "Ġbenediction": 18785,
    "feren": 766,
    "sequently": 14584,
    "Ġbrougham": 17872,
    "Ġoverl": 18429,
    "Ġsevered": 18206,
    "Ġmisunderstand": 18705,
    "Ġcomparative": 10545,
    "umphed": 23520,
    "Ġfloats": 9416,
    "Ġproduce": 4368,
    "Ġendeav": 2955,
    "history": 15017,
    "Ġshrine": 19534,
    "Ġears": 4490,
    "Ġprofession": 6209,
    "Ġguard": 6180,
    "Ġanne": 1531,
    "Ġlocket": 22117,
    "Ġsub": 950,
    "Ġbarbs": 10534,
    "Ġincalculable": 17463,
    "Ġratio": 5066,
    "Ġwander": 9034,
    "hued": 20913,
    "contriv": 19295,
    "Ġcounsell": 25385,
    "Ġovercome": 6045,
    "Ġcringing": 25942,
    "Ġunclad": 22056,
    "idel": 5301,
    "Ý": 158,
    "reduced": 15809,
    "tfordshire": 4812,
    "Ġplunge": 13447,
    "Ġconsiderable": 4008,
    "rever": 21238,
    "Ġtram": 11094,
    "Ġtherein": 11779,
    "Ġsluggishly": 25892,
    "Ġsuffering": 8949,
    "difficult": 10061,
    "Ġequalled": 13317,
    "end": 502,
    "Ġexist": 9234,
    "rices": 4559,
    "Ġmaty": 22913,
    "Ġspurred": 22142,
    "Ġplaning": 22604,
    "Ġcentre": 5123,
    "Ġbridal": 14957,
    "Ġsweatings": 25709,
    "incess": 15485,
    "Ġ(`": 12858,
    "obser": 11101,
    "ans": 458,
    "sullen": 17671,
    "ribed": 7694,
    "uguese": 20734,
    "Ġpolar": 9414,
    "Ġstacks": 18077,
    "swept": 19789,
    "ring": 1751,
    "Ġced": 10786,
    "ondon": 2710,
    "whatsoever": 18488,
    "Ġposture": 24167,
    "Ġconcil": 23325,
    "Ġapproximate": 2341,
    "Ġrecoil": 18689,
    "Ġagonized": 25373,
    "Ġroaring": 10970,
    "Ġpaddling": 25286,
    "permitted": 18341,
    "resolved": 9642,
    "Ġenterprise": 8645,
    "Ġfondly": 19619,
    "oms": 4593,
    "Ġfondness": 16782,
    "Ġsickened": 16777,
    "Ġenric": 21938,
    "chet": 13221,
    "Ġproperties": 3119,
    "Ġfowls": 8694,
    "Ġemaciated": 20641,
    "Ġoccurrences": 11052,
    "situation": 11439,
    "Ġtradesmen": 17106,
    "Ġcorrob": 16267,
    "Ġjudges": 14687,
    "Ġfeared": 5932,
    "Ġweapons": 10596,
    "Ġbasin": 19850,
    "against": 5872,
    "wand": 10740,
    "Ġviewing": 19266,
    "Ġimpetuously": 20375,
    "Ġpercept": 14226,
    "Ġenquired": 21944,
    "Ġgl": 1255,
    "Ġdrawer": 13270,
    "Ġsignals": 10588,
    "anyone": 16595,
    "Ġincant": 18569,
    "Ġreservo": 16833,
    "Ġavail": 11228,
    "teenth": 11878,
    "contempt": 13194,
    "Ġkeel": 6445,
    "hertfordshire": 10938,
    "Ġpanted": 21475,
    "Ġpersecut": 16954,
    "Ġoutcast": 18415,
    "Ġgrat": 4059,
    "Ġdarker": 13124,
    "aving": 2405,
    "Ġattended": 5391,
    "Ġforcibly": 10064,
    "Ġperem": 12937,
    "Ġjoint": 12038,
    "Ġsucceeding": 16763,
    "sleet": 20152,
    "this": 1438,
    "Ġvow": 10249,
    "prospect": 23399,
    "Ġfortunately": 12184,
    "Ġperhaps": 1908,
    "erxes": 21278,
    "Ġreader": 11938,
    "Ġskies": 8924,
    "arled": 21445,
    "ohn": 4561,
    "Ġsacred": 10930,
    "Ġskeleton": 5514,
    "bul": 6951,
    "porpoise": 16437,
    "Ġparading": 23714,
    "kind": 3868,
    "Ġenthus": 7232,
    "Ġhans": 12631,
    "gings": 7550,
    "staff": 21659,
    "otherwise": 7672,
    "Ġcore": 13881,
    "Ġvind": 10252,
    "Ġsullen": 9160,
    "Ġkilled": 4955,
    "hetically": 21211,
    "Ġpilot": 5986,
    "Ġscuff": 15947,
    "Ġyours": 4125,
    "heim": 17748,
    "onym": 14651,
    "Ġgrowth": 14631,
    "Ġraging": 14309,
    "Ġsleet": 8978,
    "Ġupp": 13995,
    "telesc": 22819,
    "Ġmanilla": 15963,
    "Ġsmooth": 2782,
    "Ġterribly": 10427,
    "Ġincreasing": 8247,
    "Ġphaeton": 17467,
    "Ġdeduction": 14904,
    "Ġbegging": 11081,
    "Ġgodfrey": 15297,
    "treacle": 25151,
    "Ġquartered": 20376,
    "accomplished": 17214,
    "Ġsprained": 15887,
    "Ġfullest": 14817,
    "Ġproced": 2579,
    "nourished": 26400,
    "Ġrecognised": 8998,
    "Ġrom": 4525,
    "Ġag": 683,
    "Ġvultures": 25654,
    "whalers": 17266,
    "aboard": 21798,
    "Ġburgled": 23659,
    "mid": 5617,
    "plete": 10921,
    "satisfied": 10581,
    "Ġunnear": 22030,
    "Ġundoubtedly": 8313,
    "Ġvirtues": 9939,
    "interests": 19711,
    "stands": 22430,
    "Ġthenceforth": 25183,
    "chers": 11319,
    "Ġcountess": 11968,
    "Ġstru": 2169,
    "Ġcolony": 18767,
    "Ġbarrow": 12074,
    "Ġmagazine": 23102,
    "Ġquaff": 22418,
    "Ġsketch": 16169,
    "bows": 10084,
    "71": 20758,
    "conversation": 7124,
    "Ġdistracted": 11807,
    "attentions": 13578,
    "Ġsp": 457,
    "Ġapples": 22217,
    "Ġoriginated": 24125,
    "Ġstochastic": 3266,
    "Ġannual": 14835,
    "moran": 24155,
    "ces": 577,
    "ezes": 9994,
    "Ġkrempe": 10672,
    "Ġadjusts": 8983,
    "Ġrolling": 5976,
    "Ġxxxi": 24969,
    "approaching": 15014,
    "Ġregulations": 18600,
    "Ġquestions": 3976,
    "Ġclattering": 22351,
    "uplifted": 17697,
    "Ġra": 814,
    "accepted": 20139,
    "Ġinvolved": 8926,
    "Ġsidel": 9638,
    "swelled": 19613,
    "Ġmanhandle": 22333,
    "cano": 18841,
    "rained": 5162,
    "Ġerecting": 24653,
    "Ġunsupervised": 2530,
    "Ġdeacon": 18143,
    "sentiment": 12919,
    "aying": 15753,
    "crooked": 25747,
    "Ġwinter": 5220,
    "Ġstack": 21737,
    "Ġsaturn": 22903,
    "Ġbrain": 2089,
    "conditionally": 24835,
    "oping": 5559,
    "Ġbeautifully": 13271,
    "sil": 5283,
    "Ġscenari": 22296,
    "Ġaffords": 16736,
    "Ġswimmer": 19462,
    "ositions": 10286,
    "Ġliberties": 19670,
    "Ġvile": 8475,
    "Ġcapering": 21357,
    "phant": 6289,
    "countless": 24153,
    "Ġrespected": 11956,
    "Ġouter": 6859,
    "abil": 2009,
    "Ġwast": 21864,
    "younger": 11314,
    "Ġjost": 23632,
    "took": 6166,
    "gro": 10097,
    "Ġauthent": 14514,
    "coronet": 16865,
    "Ġmask": 1866,
    "eks": 4729,
    "Ġpoured": 8805,
    "Ġwrithed": 17107,
    "Ġgrey": 4513,
    "Ġpedest": 15067,
    "Ġtolland": 24991,
    "Ġmassa": 19457,
    "hosmer": 25903,
    "Ġcommonly": 3264,
    "share": 14238,
    "irably": 13300,
    "Ġscalding": 16338,
    "Ġbecoming": 4398,
    "Ġtrustworthy": 24109,
    "Ġimpulses": 19965,
    "volut": 1560,
    "Ġapprehensions": 13408,
    "spending": 18688,
    "Ġdebility": 24275,
    "grave": 16098,
    "=": 33,
    "Ġpicture": 4858,
    "for": 946,
    "entimes": 12661,
    "repugnance": 16866,
    "Ġvertebra": 20184,
    "macy": 18806,
    "Ġslippers": 19618,
    "Ġdying": 2135,
    "Ġ129": 24474,
    "Ġgiddy": 20500,
    "Ġfeeling": 3085,
    "Ġwert": 12561,
    "Ġdl": 3377,
    "Â£": 4813,
    "Ġmilliner": 19886,
    "Ġwilfully": 16768,
    "rushing": 10021,
    "chapter": 1404,
    "madness": 14885,
    "willingly": 11987,
    "Ġconfiding": 19039,
    "Ġexpanse": 14293,
    "uteness": 17988,
    "alously": 15633,
    "Ġtrim": 15973,
    "Ġpeter": 10538,
    "matlock": 23471,
    "Ġinjunction": 19620,
    "Ġhalyards": 21497,
    "Ġsavesoul": 26229,
    "farmer": 25900,
    "dreadful": 11423,
    "shadows": 25480,
    "Ġauthors": 10419,
    "rix": 1572,
    "confirm": 16809,
    "Ġdecisive": 18484,
    "Ġwhistled": 24624,
    "Ġheed": 5630,
    "Ġhav": 12759,
    "Ġcrests": 25686,
    "ushion": 14723,
    "nuee": 17433,
    "Ġgable": 15671,
    "heavy": 10577,
    "Ġreach": 4049,
    "Ġsundial": 15086,
    "Ġdism": 9770,
    "ĺ": 251,
    "Ġperforms": 11881,
    "Ġschedule": 2370,
    "Ġegypt": 9681,
    "organic": 25947,
    "Ġsickbed": 24249,
    "apothecary": 26547,
    "itage": 17818,
    "isters": 11923,
    "Ġprovoked": 13330,
    "Ġtainted": 21173,
    "Ġkn": 4546,
    "Ġexchange": 15757,
    "Ġwarden": 17227,
    "Ġinterrupted": 6345,
    "Ġbewil": 11660,
    "Ġmarvelled": 18875,
    "cence": 9591,
    "Ġmaps": 2964,
    "Ġpay": 3967,
    "oar": 12502,
    "Ġencomp": 12968,
    "non": 9614,
    "Ġnew": 1195,
    "Ġusefulness": 19411,
    "nose": 17612,
    "tempted": 26405,
    "lighter": 20961,
    "Ġencapsulate": 13678,
    "Ġdumb": 7843,
    "Ġbulls": 23861,
    "Ġadvancement": 24475,
    "Ġoffers": 12951,
    "ily": 1031,
    "Ġblotted": 20220,
    "oniously": 21260,
    "Ġbetween": 794,
    "R": 54,
    "Ġapprehension": 7115,
    "Ġroughly": 17041,
    "Ġmission": 13011,
    "bing": 7792,
    "Ġvicissitudes": 12423,
    "gang": 17555,
    "features": 14743,
    "Ġdetail": 635,
    "call": 8726,
    "Ġnewspapers": 17189,
    "Ġ96": 24593,
    "conducted": 25573,
    "Ġfrig": 13085,
    "respective": 19848,
    "Ġbulkington": 14679,
    "Ġfervent": 14899,
    "Ġvortex": 26210,
    "Ġtingling": 15096,
    "represented": 20198,
    "Ġ200": 19298,
    "onsible": 22565,
    "rinted": 21046,
    "Ġremarking": 13128,
    "Ġsilly": 7687,
    "arks": 2848,
    "Ġpondering": 17007,
    "labour": 23918,
    "ands": 21870,
    "Ġembellished": 25849,
    "Ġbutcher": 18272,
    "inferior": 12398,
    "Ġevanesc": 24296,
    "Ġjealousy": 13580,
    "haz": 17566,
    "Ġcucumber": 21359,
    "Ġgarnery": 17390,
    "Ġexultation": 15174,
    "Ġhappier": 10362,
    "leeward": 15214,
    "Ġregardless": 19326,
    "twig": 23703,
    "oline": 6834,
    "Ġrepay": 19083,
    "Ġmedit": 8025,
    "Ġoverpowered": 15292,
    "ighbour": 3389,
    "mouse": 15396,
    "lads": 20957,
    "Ġsuccour": 20438,
    "Ġourselves": 5127,
    "Ġadmeasure": 18294,
    "Ġgenerates": 3665,
    "isure": 6242,
    "Ġstatistical": 11106,
    "Ġprogressive": 5024,
    "Ġtolerable": 6949,
    "ras": 21039,
    "Ġsped": 22129,
    "Ġbids": 24646,
    "âĢĶâĢĻ": 8188,
    "rasing": 21048,
    "Ġclenched": 14205,
    "Ġenglishman": 11231,
    "Ġrallied": 14099,
    "Ġbarbarous": 13480,
    "match": 15394,
    "Ġlying": 4828,
    "Ġrequiring": 2923,
    "Ġbears": 6829,
    "Ġontario": 26206,
    "Ġlandsmen": 11353,
    "hack": 20898,
    "Ġpledged": 20690,
    "Ġspar": 10923,
    "Ġadaptation": 3156,
    "absolut": 8460,
    "Ġchewed": 16376,
    "adders": 24400,
    "Ġanytime": 12890,
    "endure": 22229,
    "Ġfive": 2840,
    "Ġmemorable": 16448,
    "Ġincarnate": 20378,
    "Ġsavi": 18325,
    "Ġoctober": 17229,
    "Ġjapanese": 10636,
    "atived": 21265,
    "Ġadopt": 10635,
    "Ġpoised": 22593,
    "Ġfulfilment": 20190,
    "Ġstructural": 2801,
    "ę": 218,
    "wondered": 17118,
    "Ġfettered": 24569,
    "answers": 22144,
    "Ġconvivial": 16550,
    "Ġexcited": 5580,
    "ney": 2493,
    "hopes": 15373,
    "Ġsearching": 13166,
    "Ġanoints": 25539,
    "Ġharm": 5017,
    "makers": 20984,
    "Ġfixed": 2688,
    "Ġbask": 8117,
    "Ġupstairs": 5837,
    "Ġt": 261,
    "inclined": 10642,
    "fleet": 15016,
    "Ġcautiously": 16979,
    "ateful": 5928,
    "Ġplaying": 6909,
    "able": 453,
    "itten": 3441,
    "Ġaccustomed": 6862,
    "Ġfixing": 13160,
    "idays": 21774,
    "ju": 13744,
    "Ġdisaster": 12892,
    "Ġsolved": 8933,
    "ires": 6039,
    "Ġdestroyer": 13417,
    "Ġblackstone": 23392,
    "Ġchili": 25562,
    "Ġdeliberately": 10627,
    "Ġsubproblems": 12963,
    "Ġcalf": 16268,
    "Ġcondemn": 13448,
    "sequ": 2400,
    "Ġungrateful": 14124,
    "apable": 6423,
    "impenetrable": 26198,
    "_,âĢĻ": 12437,
    "Ġmant": 9650,
    "Ġincreases": 3798,
    "Ġremember": 2681,
    "Ġhypocritical": 20740,
    "preserving": 25305,
    "dried": 20829,
    "Ġtoller": 9094,
    "dering": 5307,
    "buttoned": 13636,
    "Ġoccasioned": 13232,
    "aint": 2541,
    "Ġdiscerning": 25005,
    "sphere": 22732,
    "shortened": 24747,
    "Ġstarted": 4151,
    "Ġjourneys": 19478,
    "Ġremorse": 6442,
    "Ġexec": 19495,
    "step": 2455,
    "Ġ221": 25071,
    "Ġtoy": 15638,
    "smallest": 23915,
    "gentle": 5357,
    "Ġwickham": 2203,
    "rubbed": 22194,
    "unless": 9238,
    "Ġapparatus": 24909,
    "fatig": 17090,
    "Ġdowry": 20688,
    "arance": 4699,
    "Ġpacifics": 24373,
    "Ġbar": 3147,
    "Ġsheep": 10928,
    "specimen": 26607,
    "Ġrucastle": 5176,
    "andish": 18156,
    "Ġshooting": 11164,
    "Ġsignificantly": 4519,
    "Ġbought": 8417,
    "Ġyoungest": 7954,
    "wards": 1275,
    "Ġchaldee": 26236,
    "Ġkick": 5838,
    "Ġrede": 13987,
    "american": 11402,
    "ulls": 8842,
    "shrugged": 22459,
    "rollable": 13948,
    "Ġattendance": 12186,
    "opportunity": 12279,
    "distinction": 19574,
    "erted": 7361,
    "elfth": 22373,
    "Ġtyphoons": 20237,
    "Ġbremen": 23348,
    "alid": 13938,
    "Ġmaxim": 3086,
    "Ġcultured": 25158,
    "Ġhog": 13927,
    "Ġarrive": 6907,
    "oc": 2838,
    "Ġcombine": 4416,
    "Ġgraceful": 11298,
    "Ġenem": 4709,
    "Ġpray": 3904,
    "Ġbay": 9171,
    "torm": 11533,
    "thed": 8831,
    "Ġsutherland": 10151,
    "pronounced": 12350,
    "Ġconsult": 6058,
    "dor": 12456,
    "Ġfinishing": 23127,
    "Ġoperations": 2298,
    "Ġreap": 18029,
    "Ġlaughter": 9030,
    "nect": 663,
    "conce": 8513,
    "Ġwhisky": 23937,
    "Ġreleased": 2979,
    "afterwards": 7485,
    "Ġyon": 9696,
    "rights": 23679,
    "oriental": 23724,
    "Ġgospel": 18003,
    "iment": 2819,
    "Ġforce": 5092,
    "Ġanalog": 12617,
    "Ġdam": 2213,
    "Ġpress": 5933,
    "tart": 21070,
    "entials": 22667,
    "rolling": 9063,
    "Ġsuppressing": 23005,
    "Ġsustain": 10020,
    "ccess": 3184,
    "cause": 7796,
    "Ġvexed": 9997,
    "Ġdecisions": 6704,
    "vius": 23544,
    "plentiful": 21958,
    "Ġconsort": 18725,
    "affection": 7488,
    "Ġpredef": 18517,
    "Ġtro": 7356,
    "Ġlakeman": 6987,
    "Ġcontracted": 12865,
    "strained": 21661,
    "baden": 25616,
    "Ġtold": 2184,
    "pshaw": 21030,
    "Ġsob": 12793,
    "likes": 18816,
    "Ġforemost": 12009,
    "Ġprojected": 16873,
    "kee": 18274,
    "{": 95,
    "Ġeaten": 14848,
    "Ġcheerily": 13312,
    "Ġemail": 19076,
    "transp": 24512,
    "Ġinterconnected": 1337,
    "Ġtub": 7147,
    "Ġsagittarius": 24731,
    "usive": 8190,
    "Ġheadway": 18792,
    "collecting": 26082,
    "doc": 23379,
    "Ġambergris": 8709,
    "Ġconcentrate": 25066,
    "Ġbeheaded": 11659,
    "dra": 3414,
    "Ġcordial": 16837,
    "third": 8168,
    "missionary": 24616,
    "themselves": 6542,
    "dragged": 16610,
    "Ġsilvery": 13098,
    "Ġschoolboys": 24481,
    "Ġinvention": 19956,
    "Ġcosmopol": 16455,
    "Ġscattered": 6856,
    "Ġblanc": 11067,
    "Ġirritated": 17244,
    "asiness": 8129,
    "sively": 13789,
    "Ġxv": 23409,
    "Ġrecurrent": 1803,
    "interest": 5421,
    "Ġwax": 10778,
    "autions": 20769,
    "Ġpersevering": 20236,
    "Ġwatchman": 23672,
    "Ġ500": 24324,
    "Ġpleased": 4066,
    "Ġconsideration": 5191,
    "Ġuneasily": 24233,
    "Ġbr": 1069,
    "Ġruined": 12960,
    "Ġtransmit": 10307,
    "chan": 1161,
    "Ġmagnanim": 14475,
    "myself": 5113,
    "persuasion": 20047,
    "Ġevenness": 22838,
    "pendicular": 6500,
    "earn": 10698,
    "instr": 12536,
    "Ġgradients": 611,
    "eh": 13713,
    "Ġdiadem": 24740,
    "Ġindignation": 8347,
    "Ġbitter": 4174,
    "Ġfriendly": 9823,
    "Ġtarred": 23611,
    "masters": 16836,
    "Ġpassion": 4557,
    "Ġeve": 13973,
    "angle": 22108,
    "Ġwreak": 16819,
    "Ġbroods": 23105,
    "Ġsoftness": 18919,
    "Ġ100": 14369,
    "maintained": 25023,
    "Ġbank": 4878,
    "Ġinde": 7371,
    "Ġdisturb": 7109,
    "Ġ14": 9326,
    "vation": 4745,
    "Ġcannibal": 7774,
    "Ġgreas": 17994,
    "probability": 17024,
    "ighb": 10425,
    "Ġriv": 10748,
    "Ġcoachman": 15002,
    "idelburgh": 10564,
    "Ġrepresentation": 14410,
    "Ġclos": 4549,
    "Ġbrazen": 23843,
    "Ġunattended": 15847,
    "alot": 15630,
    "Ġ150": 22831,
    "like": 1885,
    "zy": 2673,
    "obst": 11936,
    "Ġimmediate": 6090,
    "Ġendeared": 26500,
    "Ġmorbid": 16238,
    "una": 21873,
    "utility": 21590,
    "Ġbubb": 12589,
    "Ġprayers": 12128,
    "Ġess": 5691,
    "Ġleeward": 6212,
    "tumultuous": 20402,
    "zed": 8104,
    "carpet": 25203,
    "Ġgiven": 1629,
    "spond": 5567,
    "erie": 21273,
    "Ġworshipper": 25693,
    "apply": 18761,
    "ision": 1853,
    "Ġcharing": 14181,
    "Ġresidence": 8207,
    "Ġlessened": 19089,
    "?âĢĿ": 700,
    "50": 6785,
    "Ġpredicted": 2047,
    "Ġnarrating": 24351,
    "Ġactivation": 918,
    "Ġtrait": 23077,
    "Ġforeb": 12008,
    "rugged": 6849,
    "Ġliveliness": 13647,
    "Ġmisgiv": 14348,
    "Ġcompute": 2908,
    "Ġwondering": 7971,
    "ures": 836,
    "lac": 17591,
    "ashions": 16421,
    "Ġgrin": 5482,
    "Ġaccuse": 14220,
    "jumped": 20249,
    "handedness": 24921,
    "rades": 8592,
    "Ġspotted": 12143,
    "Ġreal": 1637,
    "Ġrevealed": 6753,
    "Ġdives": 17892,
    "Ġeditions": 19154,
    "Ġvaliantly": 22806,
    "itting": 1151,
    "Ġtribute": 15478,
    "single": 10129,
    "newsp": 23136,
    "Ġdug": 21433,
    "Ġincorpor": 13169,
    "Ġnook": 15932,
    "Ġgurglings": 26467,
    "effectually": 25131,
    "earnestly": 17316,
    "introduction": 15127,
    "dipped": 20839,
    "Ġfitted": 6245,
    "Ġvindictiveness": 25739,
    "fins": 13722,
    "encoura": 15051,
    "Ġpatients": 24810,
    "Ġbery": 13901,
    "Ġsaintsbury": 26374,
    "ted": 792,
    "Ġabhor": 5467,
    "Ġsch": 13838,
    "Ġexercised": 24800,
    "Ġful": 4298,
    "proportion": 16182,
    "Ġlead": 3525,
    "Ġprecaution": 11199,
    "instantly": 7507,
    "ses": 3028,
    "Ġscraped": 16905,
    "mont": 19171,
    "momentum": 4991,
    "Ġnote": 4265,
    "Ġhappening": 14386,
    "ashes": 6017,
    "Ġrecommending": 24333,
    "riety": 12749,
    "japan": 15378,
    "passion": 11262,
    "umbered": 22121,
    "Ġebb": 21625,
    "Ġhowever": 1303,
    "proper": 7472,
    "95": 17480,
    "Ġengravings": 15069,
    "ivity": 1703,
    "commod": 16176,
    "Ġthereupon": 18434,
    "evening": 7091,
    "Ġlikelihood": 16503,
    "Ġeddystone": 25736,
    "Ġunsavory": 20709,
    "Ġfoot": 3163,
    "Ġqueens": 16705,
    "Ġunappe": 22020,
    "Ġsash": 17756,
    "Ġcostume": 16498,
    "Ġceremonious": 24838,
    "Ġactivity": 7920,
    "Ġunflinching": 26514,
    "Ġcos": 2205,
    "Ġsymphony": 26534,
    "Ġbulb": 23858,
    "Ġtroublesome": 24005,
    "hedge": 22502,
    "meetings": 20381,
    "iew": 2445,
    "Ġgranting": 18738,
    "Ġintrodu": 1925,
    "Ġqual": 6276,
    "ildad": 3535,
    "chor": 6148,
    "Ġethiop": 26156,
    "Ġtrifles": 16953,
    "Ġbe": 336,
    "Ġimprinted": 22390,
    "Ġhills": 6528,
    "fun": 4144,
    "Ġenjoying": 11236,
    "irmed": 9242,
    "ithmetic": 18064,
    "Ġnewspaper": 12368,
    "itime": 15552,
    "Ġhatchway": 13528,
    "cloth": 11941,
    "chair": 5918,
    "oice": 1383,
    "Ġexceedingly": 4615,
    "Ġineffectual": 17387,
    "Ġchristmas": 6924,
    "crucible": 24843,
    "Ġcombining": 22855,
    "beryls": 25310,
    "precision": 4332,
    "Ġalterations": 19873,
    "Ġtoken": 2041,
    "Ġrush": 5926,
    "Ġconstruction": 9388,
    "nial": 20986,
    "etent": 10202,
    "Ġunprincipled": 20710,
    "Ġhams": 16614,
    "Ġconstraint": 16516,
    "Ġargue": 16785,
    "Ġstreets": 5865,
    "Ġperfidious": 25667,
    "akened": 7415,
    "Ġdramatic": 4852,
    "Ġdragon": 14947,
    "Ġtroubled": 6618,
    "Ġdeclaring": 19423,
    "injustice": 17739,
    "eers": 20845,
    "Ġparsonage": 7125,
    "tains": 10964,
    "mael": 6725,
    "justine": 7684,
    "Ġirreduc": 5491,
    "Ġrobbed": 23040,
    "wreat": 21130,
    "seat": 18128,
    "Ġjog": 18405,
    "Ġlocking": 18299,
    "Ġapprehended": 26091,
    "Ġreference": 2565,
    "scheme": 15258,
    "Ġbutter": 6842,
    "therefore": 5955,
    "Ġbored": 16110,
    "Ġelevating": 19732,
    "Ġconsequently": 8060,
    "Ġentertainment": 12227,
    "ishly": 14206,
    "Ġgrating": 14358,
    "Ġlengthwise": 10454,
    "flying": 13724,
    "Ġvalue": 2086,
    "Ġspires": 11734,
    "antucket": 2645,
    "Ġearthly": 7990,
    "Ġunlab": 3791,
    "Ġspr": 4028,
    "ulent": 21866,
    "Ġhorror": 3775,
    "idirection": 2411,
    "Ġfurnishing": 16648,
    "glad": 9011,
    "Ġcurve": 22984,
    "ă": 196,
    "Ġfurlong": 18740,
    "dirty": 20836,
    "Ġdorm": 4823,
    "hideous": 25408,
    "Ġwoody": 23522,
    "Ġconfl": 11139,
    "second": 6545,
    "Ġminers": 22836,
    "Ġmad": 2425,
    "Ġbigot": 24566,
    "Ġvines": 12756,
    "Ġmercenary": 17196,
    "ology": 1610,
    "Ġirritation": 20269,
    "âĢĿ": 353,
    "ass": 533,
    "Ġmoves": 14234,
    "Ġwhite": 1539,
    "anity": 9657,
    "join": 12118,
    "Ġwidely": 8033,
    "believe": 8304,
    "Ġflashing": 13034,
    "Ġdocks": 14178,
    "Ġastonishing": 10504,
    "houn": 20895,
    "ructed": 7031,
    "Ġchildhood": 13141,
    "bib": 17494,
    "Ġwoke": 21292,
    "Ġkate": 15909,
    "Ġaffectionate": 5585,
    "Ġperishing": 22402,
    "Ġastonishment": 4795,
    "Ġreflections": 5948,
    "Ġdiscreet": 16485,
    "Ġbrooks": 25701,
    "Ġfoundation": 4234,
    "note": 14343,
    "beth": 13692,
    "ased": 1267,
    "tps": 11537,
    "oglyph": 11020,
    "Ġcup": 5697,
    "Ġdisclose": 16160,
    "Ġshipmates": 6722,
    "Ġuniversally": 12004,
    "osa": 22264,
    "Ġunprovided": 18261,
    "Ġwalks": 8969,
    "copy": 5133,
    "Ġrealistic": 5862,
    "Ġimperfectly": 25727,
    "Ġdoom": 6418,
    "Ġaustral": 12177,
    "Ġaged": 10324,
    "correspond": 13402,
    "liber": 18815,
    "urch": 3995,
    "Ġframework": 2051,
    "Ġfail": 4150,
    "wrapped": 15213,
    "bodily": 17318,
    "humour": 7499,
    "Ġheavily": 6742,
    "Ġswitching": 23058,
    "rig": 7557,
    "tot": 10730,
    "Ġhelped": 7459,
    "Ġfurious": 10356,
    "Ġclim": 8195,
    "Ġinterp": 16073,
    "Ġdilated": 24703,
    "Ġexposes": 22626,
    "uture": 1090,
    "Ġfloated": 7288,
    "Ġoutriders": 26545,
    "Ġrecre": 22736,
    "ermost": 7430,
    "Ġmanifested": 17160,
    "Ġdwell": 5813,
    "Ġestimable": 23875,
    "Ġcocoan": 20319,
    "û": 188,
    "Ġmichael": 20682,
    "king": 3061,
    "T": 56,
    "tears": 11038,
    "Ġletter": 2195,
    "Ġspringing": 10521,
    "Ġhisself": 21918,
    "Ġcongregational": 25105,
    "Ġdevelop": 1655,
    "Ġtinkling": 25213,
    "asses": 7017,
    "Ġdiscontented": 16063,
    "bitterly": 20340,
    "Ġrelent": 18775,
    "fetch": 12469,
    "load": 12886,
    "Ġsuperlative": 26075,
    "umblings": 23897,
    "eted": 7593,
    "Ġtig": 13816,
    "Ġconquer": 14030,
    "Ġiceberg": 14719,
    "Ġinterview": 9773,
    "reinforcement": 7826,
    "Ġamateur": 22489,
    "irations": 18171,
    "Ġinferior": 8366,
    "Ġblasphemy": 26116,
    "cool": 19189,
    "Ġwhereby": 11839,
    "everywhere": 23702,
    "pt": 387,
    "Ġholiday": 13003,
    "Ġsickening": 19607,
    "Ġjuggl": 20441,
    "Ġscript": 18400,
    ",âĢĶâĢľ": 10073,
    "Ġparties": 7040,
    "Ġdaughters": 4422,
    "Ġdecreed": 18483,
    "Ġtorpor": 25034,
    "Ġsomewhere": 5384,
    "Ġleads": 12101,
    "Ġgoat": 16010,
    "Ġoffence": 12950,
    "amuse": 14056,
    "Ġfluctu": 5268,
    "Ġmummy": 25769,
    "Ġsublimity": 26348,
    "ientious": 11695,
    "Ġsandwic": 24665,
    "Ġforcing": 3225,
    "`": 68,
    "fre": 5425,
    "Ġforever": 14554,
    "tossing": 18581,
    "Ġsimilar": 4918,
    "Ġcommons": 22675,
    "Ġbottomless": 12111,
    "mand": 3899,
    "Ġpopularly": 12246,
    "Ġfitzwilliam": 5771,
    "voc": 8394,
    "ç": 168,
    "Ġpants": 21468,
    "Ġpropos": 7064,
    "ribes": 23369,
    "Ġengine": 1918,
    "Ġmoist": 9288,
    "Ġcatholic": 20684,
    "bohemia": 20733,
    "Ġspouting": 9442,
    "Ġcrad": 21352,
    "Ġvertical": 16606,
    "stream": 15691,
    "Ġeasiest": 23540,
    "Ġlooking": 2473,
    "weekly": 25685,
    "enched": 10157,
    "Ġopposition": 16524,
    "gives": 15361,
    "Ġarrogance": 26233,
    "Ġresent": 6050,
    "Ġcircumn": 11988,
    "aring": 1477,
    "Ġescaping": 13138,
    "commendation": 26351,
    "Ġconfessor": 24022,
    "rely": 6125,
    "Ġgas": 8133,
    "Ġinexperience": 26100,
    "Ġannealing": 1553,
    "erect": 20850,
    "spiracle": 22735,
    "Ġpopulous": 16828,
    "Ġdesert": 6728,
    "ously": 2491,
    "Č": 205,
    "Ġpours": 17914,
    "Ġdrenched": 12608,
    "dia": 2133,
    "Ġchoked": 9267,
    "Ġmoth": 17804,
    "Ġripp": 11221,
    "Ġsofa": 10273,
    "liament": 16221,
    "Ġpredicts": 2593,
    "Ġwarned": 16882,
    "Ġ3": 3988,
    "Ġbewitched": 25976,
    "Ġlunging": 24992,
    "Ġservox": 23873,
    "lar": 4483,
    "Ġembarkation": 25125,
    "spite": 16142,
    "Ġcotton": 17382,
    "Ġcoincidence": 25484,
    "Ġbuoy": 8004,
    "Ġremot": 8546,
    "Ġassociated": 12254,
    "Ġexploit": 19164,
    "Ġsympathetic": 17362,
    "Ġcommunications": 16361,
    "Ġcreated": 2711,
    "lightened": 12069,
    "Ġshavings": 14113,
    "Ġbeaver": 18088,
    "Ġmagnanimous": 17414,
    "Ġcommunicating": 16891,
    "prior": 21035,
    "Ġmeals": 12716,
    "Ġtissu": 25921,
    "Ġdivined": 19446,
    "Ġpartaking": 22700,
    "Ġdiabol": 11455,
    "Ġdeemed": 7614,
    "Ġvalued": 12187,
    "Ġdocumentation": 20557,
    "Ġreckoned": 24743,
    "Ġprizes": 13078,
    "Ġrigging": 5601,
    "knight": 20942,
    "Ġtricks": 13488,
    "Ġomit": 17817,
    "mp": 3729,
    "Ġglared": 13023,
    "Ġblades": 11899,
    "utted": 15665,
    "Ġlanes": 19768,
    "ilight": 12698,
    "Ġinsince": 23683,
    "Ġfrankenstein": 7097,
    "steering": 16638,
    "Ġcoverage": 4289,
    "tottenham": 25419,
    "Ġstrengthen": 20703,
    "rut": 8092,
    "farm": 15355,
    "bushes": 24447,
    "Ġrestless": 10415,
    "ssip": 14081,
    "Ġ65": 24368,
    "Ġdespised": 14669,
    "rec": 6005,
    "Ġspiteful": 19525,
    "ougher": 18276,
    "Ġgamy": 18001,
    "bed": 3493,
    "Ġinches": 5846,
    "despairing": 25077,
    "confined": 24328,
    "Ġreplete": 15702,
    "Ġfrayed": 23303,
    "Ġunnearable": 26518,
    "terday": 4706,
    "Ġrepe": 3280,
    "Ġconfining": 23308,
    "Ġexperienced": 6582,
    "Ġhig": 753,
    "I": 45,
    "Ġpark": 5465,
    "Ġpleases": 16301,
    "Ġarthur": 7196,
    "Ġsmelling": 16070,
    "Ġcovent": 16076,
    "Ġuttering": 16464,
    "ospel": 17012,
    "comrade": 18744,
    "Ġintrusted": 21996,
    "Ġeverlasting": 9340,
    "rodden": 21538,
    "Ġchanged": 5242,
    "Ġmills": 21314,
    "isbury": 21380,
    "Ġ113": 19699,
    "Ġacquirement": 19257,
    "Ġpreaching": 15930,
    "gorith": 553,
    "Ġopp": 2701,
    "Ġstriding": 16097,
    "Ġlichen": 20095,
    "Ġpupella": 20425,
    "oldened": 22648,
    "towing": 17691,
    "are": 638,
    "Ġconcisely": 19047,
    "Ġmediocr": 24142,
    "storied": 18027,
    "Ġuncivilized": 25499,
    "retired": 11940,
    "Ġimm": 3969,
    "Ġquietly": 4567,
    "nyder": 16687,
    "Ġvictim": 6099,
    "Ġvulgar": 13608,
    "Ġguests": 12291,
    "Ġslaught": 23168,
    "mystic": 25317,
    "Ġruminated": 24600,
    "Ġprone": 18971,
    "dening": 22783,
    "Ġchaps": 14180,
    "Ġdiffers": 23784,
    "Ġwithhold": 18118,
    "istical": 8492,
    "ource": 5243,
    "Ġrenow": 18030,
    "sacred": 17030,
    "Ġrespectfully": 18995,
    "Ġgrowing": 6752,
    "Ġhumility": 12990,
    "utional": 17986,
    "Ġexploding": 2109,
    "Ġinsist": 9894,
    "analy": 17840,
    "Ġscra": 5842,
    "ignantly": 23269,
    "Ġmorris": 18845,
    "pursued": 17284,
    "sailing": 14717,
    "rons": 21042,
    "Ġgarden": 3828,
    "Ġheroic": 14911,
    "crow": 9593,
    "Ġabundant": 17157,
    "Ġstoven": 23176,
    "_--": 20764,
    "Ġtre": 2536,
    "Ġcarbuncle": 14448,
    "idy": 21768,
    "fishermen": 17063,
    "woman": 5900,
    "Ġput": 1798,
    "Ġconsuming": 22796,
    "roc": 9677,
    "Ġknee": 7095,
    "Ġbled": 17858,
    "Ġprovid": 1011,
    "Ġdetested": 14186,
    "Ġhall": 4185,
    "Ġdesc": 772,
    "awake": 14455,
    "anger": 2171,
    "====": 1482,
    "ralian": 19603,
    "Ġeaves": 15680,
    "Ġthankful": 14741,
    "fork": 20859,
    "pumps": 21029,
    "execution": 20475,
    "Ġadult": 18290,
    "Ġenthusiasm": 8065,
    "flukes": 25206,
    "Ġchurned": 18385,
    "walked": 10573,
    "Ġtrap": 7673,
    "Ġagain": 816,
    "Ġperches": 18450,
    "Ġarsac": 11746,
    "Ġstays": 16564,
    "Ġtreatment": 12076,
    "Ġhauled": 11700,
    "Ġcorridor": 10674,
    "Ġ48": 24085,
    "straw": 24100,
    "Ġruggedness": 26270,
    "ĠĠĠĠĠ": 3529,
    "Ġsickle": 24248,
    "Ġcrushed": 9426,
    "Ġhinting": 19652,
    "Ġabominably": 20069,
    "service": 15039,
    "Ġenjoyments": 24021,
    "cim": 8723,
    "Ġfriendship": 7246,
    "putting": 14103,
    "Ġreproofs": 24893,
    "uded": 6288,
    "Ġglacier": 11435,
    "assertion": 22304,
    "irregular": 21915,
    "whole": 6086,
    "Ġbelieved": 4369,
    "Ġreasoner": 14442,
    "cen": 17505,
    "nigh": 13766,
    "Ġsolutions": 1946,
    "vap": 13806,
    "oam": 8755,
    "Ġafrica": 12349,
    "london": 9612,
    "Ġfamilies": 8027,
    "Ġdemocracy": 25459,
    "Ġforeman": 23448,
    "Ġpant": 10819,
    "Ġapr": 12537,
    "Ġwhales": 1827,
    "Ġeluc": 16114,
    "far": 5787,
    "Ġunerring": 15851,
    "Ġhorsham": 10408,
    "Ġclank": 15968,
    "Ġcouples": 16854,
    "Ġgums": 21614,
    "Ġmalignant": 14881,
    "bec": 4055,
    "Ġinnoc": 3797,
    "Ġrogue": 22409,
    "foremost": 14255,
    "Ġdreadful": 4921,
    "Ġcrags": 23531,
    "urity": 8143,
    "revenge": 13845,
    "agreeable": 5830,
    "sher": 5217,
    "databases": 3025,
    "rederick": 14083,
    "acceptable": 25185,
    "Ġobliging": 13247,
    "Ġperchance": 15995,
    "Ġsprung": 11249,
    "Ġpent": 17905,
    "Ġravings": 18649,
    "contin": 16544,
    "Ġrifle": 18213,
    "rage": 10845,
    ";âĢĿ": 7791,
    "uarded": 21108,
    "ø": 185,
    "sounded": 12271,
    "Ġindulging": 16906,
    "Ġhousehold": 8571,
    "Ġcrib": 21351,
    "Ġwatch": 2748,
    "Ġdiff": 3116,
    "Ġconsiderations": 9413,
    "Ġlistened": 4469,
    "Ġsparks": 22136,
    "Ġtheoretic": 23315,
    "destined": 24117,
    "ilent": 21723,
    "Ġtouching": 4681,
    "Ġpanthe": 19656,
    "Ġnominally": 17234,
    "recked": 17764,
    "Ġencoura": 1366,
    "Ġstrategy": 2452,
    "Ġyelled": 9697,
    "Ġhard": 1442,
    "Ġredundant": 16553,
    "Ġvest": 8163,
    "Ġlaying": 7908,
    "Ġbehalf": 14508,
    "Ġfilm": 23929,
    "Ġperiodical": 14776,
    "irwin": 8471,
    "Ġapplications": 4784,
    "ortion": 11761,
    "hundred": 8331,
    "antingly": 22102,
    "subject": 6634,
    "Ġgeneva": 5450,
    "gardiner": 12295,
    "Ġliberally": 16832,
    "Ġcomical": 11680,
    "Ġvoyagings": 19238,
    "muring": 17603,
    "Ġflatt": 16249,
    "gates": 20874,
    "aky": 18412,
    "Ġninetieth": 25358,
    "Ġgushed": 21610,
    "Ġeventually": 8620,
    "iness": 1280,
    "Ġsex": 8846,
    "Ġaccelerate": 23230,
    "Ġsuperglue": 23458,
    "Ġgriefs": 16773,
    "iteness": 4393,
    "occ": 4484,
    "Ġepit": 18009,
    "sis": 1911,
    "Ġpollard": 20389,
    "Ġconcealing": 23906,
    "Ġhypocr": 19475,
    "mansion": 20985,
    "bre": 3982,
    "Ġdrugg": 17122,
    "Ġattack": 5478,
    "inders": 15984,
    "\",": 10681,
    "Ġferule": 24499,
    "game": 11493,
    "Ġvagu": 13593,
    "Ġlongitude": 11013,
    "xim": 1087,
    "safe": 10057,
    "Ġlanterns": 24578,
    "Ġtenth": 13829,
    "Ġvalid": 1744,
    "Ġsecuring": 11996,
    "Ġborder": 10172,
    "Ġmournful": 12340,
    "Ġgradient": 450,
    "Ġclouds": 5775,
    "skirted": 24489,
    "Ġ[\"": 19933,
    "Ġacquisition": 18901,
    "fatigue": 20660,
    "stumps": 21662,
    "Ġ_": 838,
    "Ġsafie": 6620,
    "Ġthrow": 3786,
    "Ġpaternal": 16353,
    "Ġrelates": 12986,
    "Ġpoor": 1711,
    "Ġsuggestion": 19710,
    "Ġsmall": 893,
    "Ġjoist": 19234,
    "Ġsuppose": 2869,
    "Ġacres": 14316,
    "Ġgreedy": 3054,
    "Ġcramped": 23533,
    "Ġburly": 19252,
    "Ġrim": 21972,
    "pequod": 7054,
    "diminished": 20841,
    "Ġfolding": 19730,
    "rot": 21535,
    "Ġnapoleon": 20560,
    "Ġtoo": 1165,
    "Ġdistingu": 2513,
    "Ġtrappings": 23085,
    "Ġtars": 21167,
    "Ġmajestic": 8643,
    "begin": 8887,
    "Ġmusty": 22683,
    "biscuit": 17503,
    "acency": 12913,
    "neglected": 25670,
    "seas": 14036,
    "Ġdegenerated": 20509,
    "ienced": 5685,
    "Ġconceals": 23907,
    "Ġcleaned": 23186,
    "Ġhoars": 19079,
    "Ġhoisted": 5961,
    "repent": 15516,
    "ctu": 5088,
    "Ġdong": 17889,
    "exceeded": 25002,
    "âĢĿ--": 21817,
    "att": 1456,
    "Ġpron": 6452,
    "Ġimpelling": 22386,
    "Ġfast": 1718,
    "difficulty": 12394,
    "arling": 10816,
    "Ġknelt": 12163,
    "Ġswim": 3823,
    "Ġflap": 14424,
    "Ġfootpaths": 26319,
    "Ġobst": 6286,
    "Ġintroduces": 3269,
    "Ġblade": 11897,
    "Ġforts": 21776,
    "spl": 9142,
    "Ġai": 3128,
    "Ġspacious": 18313,
    "Ġreceptive": 1562,
    "brew": 11475,
    "Ġharry": 24572,
    "ĠĠĠĠĠĠĠĠĠĠĠĠĠ": 22566,
    "Ġrefine": 3154,
    "Ġroused": 7625,
    "Ġdiamond": 15603,
    "actory": 8909,
    "Ġinquis": 19306,
    "Ġjing": 15953,
    "Ġbrand": 16190,
    "innacle": 7520,
    "Ġeyelids": 26108,
    "Ġfreshe": 13074,
    "Ġpenetration": 19919,
    "small": 6473,
    "Ġeastern": 11632,
    "Ġconclude": 8584,
    "numer": 15402,
    "ardy": 22160,
    "sherlock": 5422,
    "training": 2516,
    "Ġadmiral": 17308,
    "ators": 7829,
    "Ġsquires": 16185,
    "brace": 16944,
    "dimensional": 2347,
    "Ġcir": 21344,
    "mus": 10113,
    "Ġinquiring": 9002,
    "Ġdirt": 15598,
    "Ġbrightened": 23832,
    "minutes": 7513,
    "Ġexped": 7652,
    "Ġundisturbed": 19522,
    "ority": 8419,
    "Ġcategories": 4477,
    "Ġadvancing": 6879,
    "Ġpos": 1013,
    "erring": 11059,
    "Ġaccusation": 22394,
    "Ġcook": 3712,
    "Ġemm": 18005,
    "Ġpassages": 12975,
    "Ġdolph": 12384,
    "Ġgems": 9211,
    "Ġhats": 14621,
    "Ġadmission": 23557,
    "Ġarrayed": 25665,
    "Ġexceptional": 19374,
    "Ġtaught": 6804,
    "entreat": 17978,
    "reast": 17760,
    "gone": 6505,
    "Ġwealthy": 18181,
    "Ġparliament": 18303,
    "Ġhelmet": 19690,
    "inition": 11559,
    "Ġcruis": 14626,
    "Ġviolin": 16431,
    "quite": 4647,
    "laz": 15389,
    "prairies": 20569,
    "Ġlanguage": 651,
    "esu": 17903,
    "Ġchosen": 7201,
    "Ġless": 1937,
    "Ġexcurs": 23318,
    "iocr": 20925,
    "Ġexplanations": 15914,
    "Ġunrival": 22049,
    "Ġpaints": 23527,
    "Ġcrouched": 23441,
    "Ġsofas": 26226,
    "Ġbutler": 18271,
    "Ġcurt": 18847,
    "Ġsaloon": 24068,
    "Ġconverted": 16117,
    "Ġunresting": 25554,
    "dued": 7909,
    "Ġfamiliar": 5511,
    "overed": 2857,
    "Ġorgan": 2502,
    "pertaining": 22183,
    "host": 5869,
    "Ġalong": 1979,
    "Ġbreckinridge": 14525,
    "forgetting": 25486,
    "Ġscrupulous": 20072,
    "Ġparaph": 22124,
    "Ġabridged": 26542,
    "duchess": 18464,
    "Ġstripped": 10467,
    "Ġspleen": 26423,
    "Ġtrades": 8232,
    "folding": 24928,
    "mile": 17599,
    "balance": 12011,
    "Ġeurope": 8062,
    "enges": 13059,
    "Ġdigesting": 19812,
    "Ġconscience": 6929,
    "Ġworn": 6446,
    "ption": 7398,
    "Ġtash": 13823,
    "Ġnobler": 14176,
    "ooped": 17625,
    "Ġverd": 6919,
    "discharging": 26306,
    "ograph": 4798,
    "Ġphilist": 16603,
    "Ġsubmit": 11874,
    "icle": 10836,
    "mistakable": 20655,
    "patter": 3844,
    "Ġthese": 821,
    "Ġpunctually": 17141,
    "Ġtiger": 11557,
    "language": 5129,
    "oubtedly": 6943,
    "Ġexpeditions": 24957,
    "Ġtruest": 16702,
    "Ġestate": 6318,
    "Ġdebt": 12172,
    "dangerous": 20243,
    "Ġassailed": 23180,
    "Ġhospitality": 13516,
    "Ġattitudes": 16106,
    "Ġentreating": 24210,
    "ĠĠĠĠĠĠĠ": 7633,
    "Ë": 140,
    "Ġforth": 3464,
    "Ġexacted": 23605,
    "Ġbulkhead": 24511,
    "igned": 5656,
    "Ġintercourse": 11000,
    "Ġdescried": 7919,
    "Ġstreaming": 19676,
    "Ġsuddenness": 23385,
    "health": 13836,
    "difference": 13711,
    "python": 4693,
    "almost": 4943,
    "Ġhighly": 4846,
    "orter": 4257,
    "Ġpreluding": 18369,
    "Ġsignificant": 8637,
    "Ġwallowed": 24048,
    "resistible": 10646,
    "landish": 11946,
    "Ġinducement": 16845,
    "roar": 17955,
    "shirt": 22457,
    "Ġliberal": 12195,
    "iters": 21332,
    "movement": 25578,
    "Ġphilosoph": 19654,
    "Ġbaff": 10801,
    "Ġafforded": 8029,
    "Ġbackwoods": 22645,
    "Ġtruthful": 23870,
    "Ġprecisely": 6467,
    "grees": 20888,
    "Ġclouded": 13295,
    "Ġencountered": 8322,
    "convolutional": 4958,
    "Ġscold": 10952,
    "inating": 9156,
    "Ġabsolutely": 4859,
    "Ġtak": 15473,
    "Ġcopse": 17069,
    "Ġreappeared": 21668,
    "raltar": 24236,
    "mod": 1045,
    "erer": 8735,
    "Ġcontin": 5382,
    "bourne": 19104,
    "Ġdivers": 9668,
    "!âĢĶ": 2453,
    "!âĢĶâĢĻ": 23567,
    "ancing": 1758,
    "ĠĠĠĠĠĠĠĠĠĠĠĠĠĠĠĠĠĠĠĠĠĠĠĠĠĠĠĠĠĠ": 24443,
    "soc": 5175,
    "aths": 22702,
    "Ġroared": 7025,
    "Ġflo": 2587,
    "Ġchained": 16391,
    "Ġlo": 452,
    "Ġmiser": 18704,
    "Ġintelligent": 1390,
    "Ġbronze": 22870,
    "plain": 1357,
    "Ġsubordinate": 18724,
    "Ġviewed": 10465,
    "ssed": 3736,
    "Ġmalay": 24391,
    "Ġirregularly": 25324,
    "Ġoppose": 16523,
    "Ġslightly": 7293,
    "Ġwandering": 8657,
    "Ġlimit": 10445,
    "Ġcomprising": 16072,
    "output": 4402,
    "nineteenth": 26139,
    "Ġfought": 12598,
    "Ġgracious": 8851,
    "Ġassurances": 10003,
    "ipelag": 12846,
    "Ġarms": 3970,
    "Ġaust": 4872,
    "antages": 7192,
    "Ġhaunts": 18201,
    "iature": 8745,
    "Ġlies": 5297,
    "Ġdem": 11677,
    "during": 6788,
    "Ġbreadth": 10566,
    "untarily": 6314,
    "Ġposter": 14278,
    "Ġof": 298,
    "neural": 3068,
    "Ġtease": 18793,
    "brave": 19826,
    "transom": 19738,
    "cry": 12450,
    "Ġprofuse": 23568,
    "Ġway": 1082,
    "oppressed": 24821,
    "th": 408,
    "Ġhideous": 5984,
    "Ġpsych": 10179,
    "Ġelusive": 22655,
    "Ġemac": 16411,
    "Ġfearful": 6199,
    "Ġsemicirc": 16396,
    "Ġkiller": 19571,
    "nings": 9134,
    "Ġholy": 6593,
    "itors": 2916,
    "Ġquarrelling": 13502,
    "Ġaccordance": 19501,
    "ize": 762,
    "akers": 9743,
    "Ġetern": 7087,
    "okened": 15988,
    "Ġtranspointed": 22449,
    "whaling": 7899,
    "Ġensigns": 23693,
    "readily": 19365,
    "olently": 15761,
    "Ġtalking": 3862,
    "Ġsaxe": 13631,
    "sugg": 11845,
    "clings": 23153,
    "Ġdisliked": 12896,
    "ashed": 3787,
    "ptember": 10895,
    "Ġseethings": 26505,
    "Ġequivalent": 4803,
    "Ġdriver": 16476,
    "Ġsli": 4749,
    "slanting": 24558,
    "Ġacquire": 2727,
    "Ġsome": 653,
    "Ġnature": 2538,
    "Ġrevive": 13483,
    "pictures": 15094,
    "ench": 21282,
    "Ġplunging": 14955,
    "Ġfoe": 7681,
    "Ġgroans": 14827,
    "awing": 18917,
    "hist": 7132,
    "Ġunsocial": 18257,
    "Ġsol": 1103,
    "iloquent": 21729,
    "Ġrepeat": 8000,
    "Ġwes": 8783,
    "Ġsouls": 6310,
    "Ġsacrific": 15020,
    "Ġlavenza": 17973,
    "acknowledging": 25477,
    "enborough": 21288,
    "Ġtransient": 18486,
    "fer": 1914,
    "ced": 697,
    "Ġreplen": 11116,
    "Ġincrust": 22554,
    "Ġamount": 8514,
    "Ġconfidently": 24958,
    "wishes": 13810,
    "Ġcoffee": 6761,
    "final": 19679,
    "requiem": 24857,
    "gunwale": 20665,
    "Ġtemporarily": 11169,
    "zors": 21150,
    "Ġmists": 14632,
    "Ġdesolation": 12273,
    "Ġlouisiana": 25079,
    "Ġissu": 6255,
    "Ġflounders": 23017,
    "Ġimpulsive": 19966,
    "Ġlounging": 10025,
    "cares": 24311,
    "Ġsaint": 15510,
    "Ġembraced": 10009,
    "Ġbroiled": 18910,
    "il": 329,
    "Ġobedient": 20108,
    "perpet": 14161,
    "Ġseasons": 9434,
    "harm": 13738,
    "Ġridicule": 13515,
    "Ġcertain": 1556,
    "Ġdeferred": 18828,
    "Ġentertaining": 16928,
    "Ġsmacking": 20168,
    "Ġfellow": 2780,
    "Ġhudson": 15195,
    "Ġedition": 16458,
    "complied": 19915,
    "Ġcocoanuts": 26364,
    "Ġcrusad": 23710,
    "Ġburied": 7719,
    "urer": 18124,
    "discernible": 20553,
    "Ġsolicit": 22890,
    "naturalist": 23480,
    "oided": 11511,
    "okes": 9280,
    "Ġlurking": 11291,
    "Ġbene": 2034,
    "Ġcollinses": 19131,
    "Ġaccidentally": 9508,
    "Ġwoll": 21296,
    "ront": 15421,
    "Ġcrouching": 23443,
    "Ġwashing": 9708,
    "holland": 24047,
    "Ġlocker": 16913,
    "Ġfrigate": 13086,
    "endom": 15927,
    "Ġdebar": 24274,
    "Ġ85": 24460,
    "Ġarriving": 19220,
    "Ġ1000": 3118,
    "Ġcompetition": 14269,
    "Ġelaborate": 18640,
    "Ġreveren": 13201,
    "Ġme": 351,
    "ith": 330,
    "Ġrigged": 16719,
    ",âĢĻâĢĶ": 23530,
    "thee": 9693,
    "Ġwaters": 3598,
    "Ġrescued": 24209,
    "Ġ76": 24265,
    "Ġeth": 17718,
    "Ġriotous": 20547,
    "Ġrob": 1311,
    "sentimental": 25682,
    "Ġmonday": 6129,
    "Ġclassical": 22624,
    "Ġseasonable": 24406,
    "result": 12048,
    "Ġhadn": 9722,
    "osis": 18390,
    "wake": 11548,
    "ning": 949,
    "Ġcashier": 20201,
    "Ġresounded": 22548,
    "Ġassures": 14468,
    "cats": 17514,
    "Ġlift": 8815,
    "gest": 5426,
    "Ġmeanly": 12914,
    "Ġstuff": 5717,
    "mmed": 7914,
    "aciousness": 18607,
    "Ġamph": 18510,
    "Ġloosened": 26003,
    "Ġmiseries": 10349,
    "Ġdignity": 5704,
    "concealed": 25118,
    "Ġhumbled": 16200,
    "hav": 20899,
    "Ġtales": 10144,
    "Ġcompromised": 22575,
    "went": 6513,
    "Ġcau": 13884,
    "beards": 22494,
    "wit": 7817,
    "Ġlaid": 3946,
    "Ġdistraction": 22508,
    "Ġdrow": 21429,
    "Ġindepend": 3669,
    "Ġspan": 11732,
    "Ġconcern": 2658,
    "Ġengraved": 17082,
    "Ġtennes": 23551,
    "recl": 15513,
    "Ġjovial": 19236,
    "Ġunderstanding": 1783,
    "northern": 23671,
    "Ġlecture": 13571,
    "Ġwired": 17788,
    "propriety": 14368,
    "Ġxxx": 7767,
    "Ġhorizontally": 17014,
    "trans": 5594,
    "aws": 8237,
    "Ġmatters": 4974,
    "Ġneighbouring": 12123,
    "Ġhopeful": 19032,
    "Ġspoils": 24805,
    "compliment": 11366,
    "âĢĶâĢľ": 2971,
    "ext": 933,
    "Ġprimitive": 25064,
    "Ġfestival": 25446,
    "Ġliberality": 24377,
    "Ġconsummation": 17428,
    "Ġbenignity": 18783,
    "Ġstood": 2551,
    "Ġroast": 18458,
    "Ġtri": 4814,
    "Ġvener": 8164,
    "Ġtriumph": 5143,
    "crimes": 16686,
    "Ġacts": 2294,
    "kindness": 10508,
    "nue": 15400,
    "plish": 18197,
    "lingly": 9776,
    "Ġinstinct": 6576,
    "tic": 8391,
    "silent": 9977,
    "Ġdeceiving": 21841,
    "Ġhunger": 8570,
    "Ġcomes": 3423,
    "Ġenthusiastic": 19969,
    "Ġthreatening": 16830,
    "Ġpropose": 9856,
    "Ġvirt": 3912,
    "alloyed": 22205,
    "Ġuser": 15919,
    "Ġrand": 1581,
    "Ġsomeone": 6705,
    "gypt": 8261,
    "Ġjealously": 24127,
    "hauteur": 26393,
    "Ġpreferment": 19855,
    "Ġweep": 7621,
    "limin": 8384,
    "owal": 13999,
    "ww": 10739,
    "Ġmass": 3783,
    "erately": 21276,
    "ged": 1512,
    "philosop": 9570,
    "Ġquantity": 6948,
    "Ġmarking": 16471,
    "delirium": 14788,
    "Ġcross": 1372,
    "Ġbecher": 18880,
    "way": 764,
    "Ġdogs": 7742,
    "Ġglimpses": 13436,
    "Ġterrier": 23402,
    "neys": 23584,
    "Ġagreeing": 20022,
    "Ġgeometric": 3219,
    "impe": 21711,
    "Ġisinglass": 21806,
    "Ġchill": 11756,
    "Ġmacy": 19358,
    "otle": 21801,
    "Ġtortured": 14927,
    "Ġbol": 6243,
    "Ġscaling": 3634,
    "Ġcured": 21350,
    "Ġlighten": 23263,
    "Ġlic": 8437,
    "Ġcategorization": 12141,
    "!)": 10072,
    "eminent": 25107,
    "Ġmiddle": 4139,
    "Ġset": 1175,
    "iousness": 4900,
    "Ġrespective": 16348,
    "Ġsatur": 1930,
    "whips": 22242,
    "tin": 6118,
    "ember": 1956,
    "Ġuses": 1213,
    "Ġperiod": 4005,
    "Ġlurid": 19684,
    "Ġbring": 3324,
    "Ġunctuousness": 17237,
    "Ġresort": 18564,
    "Ġobviously": 16812,
    "sort": 6799,
    "itives": 17821,
    "Ġstreamed": 14547,
    "Ġexcused": 23317,
    "Ġearn": 3550,
    "limping": 26395,
    "ivot": 11722,
    "fortnight": 13091,
    "Ġendeavours": 8621,
    "ighter": 7968,
    "acious": 5562,
    "Ġalche": 21787,
    "lay": 5892,
    "vering": 15720,
    "Ġ31": 12135,
    "Ġword": 1052,
    "Ġfun": 524,
    "Ġtrappers": 23084,
    "Ġappals": 22219,
    "Ġdrunken": 12054,
    "precise": 19354,
    "Ġmarsh": 9824,
    "Ġcour": 1769,
    "Ġbennets": 9809,
    "Ġexpressions": 7706,
    "Ġglorious": 11077,
    "Ġbegone": 11921,
    "heavily": 24534,
    "great": 3519,
    "Ġbodings": 21394,
    "Ġlog": 1679,
    "sway": 15428,
    "Ġcontest": 18475,
    "Ġbattle": 5909,
    "Ġmonoman": 7939,
    "verize": 21732,
    "Ġorders": 5341,
    "ab": 345,
    "Ġnations": 8814,
    "Ġinvestment": 24332,
    "Ġante": 17898,
    "Ġbun": 6008,
    "Ġenlightened": 12751,
    "escaped": 14233,
    "perils": 22182,
    "blooded": 20026,
    "Ġtempt": 5565,
    "Ġescaped": 6460,
    "Ġessential": 7524,
    "Ġstoke": 10398,
    "path": 10121,
    "Ġcape": 5146,
    "Ġ1828": 25720,
    "Ġsane": 21224,
    "Ġveil": 7934,
    "pire": 9138,
    "Ġbraved": 23841,
    "Ġbusily": 9387,
    "vous": 2249,
    "axing": 18548,
    "Ġdurst": 20355,
    "Ġwits": 15535,
    "Ġquar": 3114,
    "Ġunbroken": 18251,
    "dar": 20826,
    "Ġtone": 4042,
    "civility": 17515,
    "Ġtufted": 17016,
    "Ġapproving": 18508,
    "lid": 20947,
    "clearer": 24074,
    "Ġframed": 19036,
    "james": 15376,
    "nearest": 16030,
    "ĠâĢĶâĢĶ": 25758,
    "Ġjuncture": 17132,
    "finally": 9502,
    "Ġexord": 21831,
    "Ġfrenz": 25447,
    "hering": 12819,
    "thes": 7391,
    "Ġalleys": 25979,
    "Ġpressure": 13426,
    "Ġpertin": 18451,
    "lydon": 13992,
    "lit": 9608,
    "Ġberyl": 20493,
    "otent": 8836,
    "Ġunprinciple": 18255,
    "uzzle": 19586,
    "Ġexposing": 11837,
    "Ġmeal": 9700,
    "Ġargued": 13633,
    "Ġenvironments": 24023,
    "Ġstyle": 6946,
    "leag": 21369,
    "Ġinput": 610,
    "we": 845,
    "Ġfreedom": 9085,
    "Ġjenkinson": 11433,
    "Ġswells": 9830,
    "feels": 22504,
    "Ġseal": 10259,
    "Ġteeth": 4168,
    "Ġbumpkins": 25282,
    "Ġcorresponds": 19824,
    "ampling": 12731,
    "id": 338,
    "Ġdepicted": 14287,
    "Ġsprings": 16688,
    "Ġdoth": 13911,
    "Ġparc": 10922,
    "Ġpaces": 13922,
    "scot": 14420,
    "Ġecstasy": 11633,
    "wickham": 5885,
    "Ġworkflow": 2626,
    "cking": 4267,
    "accompan": 11454,
    "Ġterms": 2562,
    "Ġtypes": 8939,
    "Ġentrance": 7233,
    "ep": 443,
    "Ġtrance": 12847,
    "Ġcriminal": 7538,
    "Ġrelev": 1717,
    "Ġtoil": 6533,
    "Ġvisitor": 5331,
    "Ġsebastian": 11702,
    "taught": 17686,
    "som": 3291,
    "necessarily": 19634,
    "ontory": 10461,
    "Ġhospitable": 17061,
    "vellers": 16676,
    "force": 12959,
    "quid": 18149,
    "Ġimmort": 19487,
    "Ġbeech": 18085,
    "Ġpersonally": 8602,
    "washed": 13051,
    "Ġconversations": 9428,
    "unt": 2046,
    "securing": 19816,
    "Ġsunshine": 14497,
    "Ġorganisation": 23585,
    "endeav": 7151,
    "mbly": 9790,
    "Ġeffects": 7236,
    "================================": 5671,
    "Ġlysander": 13142,
    "Ġarrived": 3748,
    "more": 1032,
    "ographical": 16788,
    "Ġchamounix": 14867,
    "asters": 8435,
    "enth": 6682,
    "repeated": 12343,
    "Ġthr": 5709,
    "Ġinspector": 6499,
    "Ġloathsome": 13531,
    "dischar": 19155,
    "Ġreusable": 13561,
    "idually": 21773,
    "Ġneighb": 14077,
    "Ġforced": 4353,
    "Ġdraws": 19439,
    "Ġmimic": 3143,
    "Ġepic": 15032,
    "Ġfriends": 2656,
    "minutely": 19596,
    "lucky": 24545,
    "apping": 5853,
    "ef": 5134,
    "nurse": 15212,
    "Ġconsidered": 4612,
    "Ġgang": 9210,
    "cheer": 9440,
    "Ġsulphur": 24934,
    "finds": 19929,
    "Ġflight": 6583,
    "Ġbaby": 6639,
    "chery": 24551,
    "elab": 21573,
    "disposed": 25013,
    "home": 7341,
    "Ġvacant": 9498,
    "recollected": 25348,
    "Ġnoted": 15834,
    "alike": 17945,
    "rese": 15511,
    "Ġfilled": 4395,
    "Ġascending": 14857,
    "Ġunheeded": 18262,
    "Ġgroups": 3720,
    "Ġobjective": 3766,
    "resolution": 17768,
    "Ġjohnson": 18410,
    "Ġpompous": 20426,
    "gle": 20871,
    "Ġlain": 17964,
    "Ġundertaking": 8577,
    "Ġnecks": 18182,
    "quadrille": 20598,
    "Ġbold": 5293,
    "Ġsovere": 9259,
    "Ġtransparen": 10544,
    "rid": 5137,
    "etite": 21582,
    "Ġisles": 8461,
    "Ġglim": 9347,
    "Ġstudents": 23222,
    "odox": 21820,
    "Ġtransition": 14236,
    "onom": 9161,
    "Ġworshippers": 25694,
    "Ġhuddled": 20302,
    "Ġfelicity": 7260,
    "extrem": 18712,
    "Ġpiratical": 24798,
    "Ġdaint": 15597,
    "atory": 6127,
    "required": 17031,
    "erest": 10699,
    "Ġinsens": 8277,
    "Ġconfound": 23306,
    "mr": 1899,
    "Ġconn": 9232,
    "Ġarter": 22187,
    "Ġdates": 6695,
    "mild": 15395,
    "espe": 3501,
    "Ġchristian": 6480,
    "Ġdiscove": 16159,
    "Ġunnatural": 7190,
    "Ġuniform": 2225,
    "Ġgap": 21602,
    "Ġdexter": 9704,
    "orum": 12595,
    "Ġbirds": 5875,
    "Ġcigarette": 20658,
    "Ġox": 7154,
    "perceived": 8862,
    "Ġ119": 24441,
    "emason": 18189,
    "inction": 6663,
    "Ġinhale": 20303,
    "Ġberths": 20118,
    "Ġmanipulated": 25179,
    "ansion": 10927,
    "Ġdifferent": 1427,
    "impulse": 20647,
    "Ġspectacle": 10499,
    "im": 327,
    "Ġsto": 1498,
    "used": 3260,
    "Ġfigure": 4209,
    "Ġsleeve": 20143,
    "collins": 6916,
    "Ġploughing": 26261,
    "nson": 16092,
    "Ġobstetrics": 24679,
    "exam": 10978,
    "Ġplatform": 17134,
    "Ġingrat": 16842,
    "Ġspire": 18307,
    "Ġanyways": 22524,
    "ha": 3984,
    "sion": 8094,
    "subs": 14305,
    "itect": 969,
    "oboam": 9361,
    "stretching": 20502,
    "sax": 21059,
    "Ġoccurred": 4462,
    "Ġarchitecture": 1109,
    "inte": 5144,
    "Ġcogent": 14276,
    "Ġbedroom": 7277,
    "Ġclutch": 15056,
    "concluding": 19484,
    "Ġrattling": 11397,
    "Ġshaded": 14108,
    "Ġappellation": 22221,
    "gris": 8260,
    "unmistakable": 21899,
    "Ġimmensities": 25331,
    "Ġhooded": 12410,
    "Ġlakes": 8131,
    "luxur": 25823,
    "Ġdownright": 16122,
    "occur": 19578,
    "Ġgangs": 21612,
    "Ġgallantry": 15107,
    "Ġgrant": 11877,
    "Ġdoleful": 18377,
    "necessities": 24308,
    "Ġthunder": 4825,
    "icherry": 15139,
    "Ġshowers": 16607,
    "blown": 25202,
    "Ġmitigating": 1617,
    "Ġconge": 15750,
    "Ġderivative": 3001,
    "Ġleviathans": 8282,
    "Ġeffaced": 18541,
    "rosc": 17957,
    "Ġcharitable": 23273,
    "Ġmelted": 19624,
    "glory": 23855,
    "Ġafter": 870,
    "Ġrelation": 2141,
    "Ġinsufficient": 9675,
    "Ġaccountability": 10440,
    "Ġcologne": 12980,
    "Ġhospitals": 24924,
    "Ġmountainous": 16601,
    "ĠĠĠĠĠĠĠĠĠĠĠĠĠĠĠĠĠĠĠĠĠĠĠĠĠĠĠĠĠĠĠĠĠĠĠĠĠĠĠĠĠĠĠĠĠĠ": 9956,
    "Ġtints": 17729,
    "Ġinhuman": 13932,
    "Ġdusting": 24597,
    "united": 14063,
    "Ġhalts": 3159,
    "Ġallegor": 25546,
    "Ġwhiteness": 5920,
    "reve": 12544,
    "Ġcorps": 13038,
    "arian": 10319,
    "Ġdomineering": 23650,
    "Ġstretch": 6994,
    "E": 41,
    "Ġpierce": 17037,
    "ind": 566,
    "Ġmissed": 8560,
    "Ġactiv": 833,
    "itates": 13872,
    "Ġtrifled": 24675,
    "Ġdivin": 13277,
    "rupt": 3212,
    "í": 174,
    "Ġprofessed": 14727,
    "Ġfake": 5811,
    "Ġcomprehensiveness": 25075,
    "phr": 18714,
    "crowd": 25255,
    "Ġtwos": 18657,
    "illum": 15873,
    "arnel": 18127,
    "Ġrephrased": 26479,
    "condition": 7061,
    "Ġplainly": 4382,
    "Ġred": 3006,
    "daring": 20831,
    "recur": 4437,
    "rigible": 24932,
    "Ġsect": 17753,
    "indust": 18435,
    "Ġ53": 19638,
    "clam": 13060,
    "Ġsour": 21219,
    "Ġmicha": 17813,
    "Ġknocking": 10562,
    "bour": 2074,
    "mush": 20979,
    "Ġundo": 15844,
    "Ġridiculous": 10632,
    "Ġpoetry": 15084,
    "Ġwisdom": 11235,
    "orses": 6053,
    "Ġassistance": 6335,
    "trop": 15439,
    "Ġaffidavit": 20726,
    "Ġbed": 2150,
    "Ġirresistible": 13117,
    "aped": 3765,
    "Ġbloom": 9891,
    "care": 4929,
    "squee": 15433,
    "behaviour": 11303,
    "Ġaddress": 2267,
    "bitts": 26123,
    "Ġnumer": 3640,
    "Ġther": 17780,
    "quickness": 19853,
    "Ġfinger": 5274,
    "ability": 716,
    "resolutions": 26165,
    "Ġamazement": 7765,
    "lish": 1951,
    "deduction": 23675,
    "renewed": 19707,
    "Ġdenomin": 12072,
    "alter": 10828,
    "Ġexample": 5096,
    "Ġplu": 8803,
    "Ġbuy": 8300,
    "warning": 25532,
    "hoisting": 23720,
    "robust": 19731,
    "©": 107,
    "ishnoo": 10960,
    "Ġshocks": 16460,
    "izing": 1066,
    "Ġbrief": 6977,
    "Ġappl": 1675,
    "Ġpeaked": 2295,
    "untary": 9870,
    "knew": 9129,
    "Ġperuvian": 18454,
    "Ġcritically": 23445,
    "Ġreplenished": 13640,
    "till": 6966,
    "Ġagonizing": 17241,
    "Ġindignity": 18835,
    "mured": 6960,
    "sweetly": 25137,
    "comprehensive": 20629,
    "Ġmastiff": 23728,
    "sincerely": 24585,
    "freely": 16856,
    "Ġdefendants": 15144,
    "ling": 735,
    "Ġassistants": 9455,
    "bringing": 17169,
    "Ġgreat": 895,
    "Ġjelly": 22311,
    "joined": 13279,
    "Ġloftiest": 16876,
    "Ġexchanged": 10880,
    "allowing": 24358,
    "oga": 22712,
    "wish": 8100,
    "Ġhandle": 3137,
    "Ġevaluate": 3197,
    "Ġbanks": 6815,
    "Ġseen": 1367,
    "astrous": 15889,
    "Ġslee": 8977,
    "rayed": 23565,
    "Ġaught": 8777,
    "Ġpyth": 21464,
    "Ġstat": 1490,
    "Ġcontrasting": 11156,
    "Ġintellectual": 11403,
    "Ġatmosphere": 10899,
    "Ġarmies": 16495,
    "Ġtaste": 5524,
    "Ġloitering": 22120,
    "Ġbrook": 13053,
    "Ġtennessee": 26598,
    "Ġtender": 5753,
    "Ġwhence": 5840,
    "Ġuncont": 14119,
    "stre": 5451,
    "ier": 1135,
    "lording": 24056,
    "Ġagrees": 22519,
    "Ġgene": 15676,
    "hue": 20901,
    "Ġfrightens": 24034,
    "pression": 10409,
    "Ġrot": 10969,
    "Ġinhabit": 5782,
    "te": 997,
    "ibilities": 13013,
    "uzz": 4524,
    "Ġbrightness": 16579,
    "liberal": 26283,
    "Ġcarr": 23093,
    "fifth": 20149,
    "arming": 8954,
    "Ġstrangers": 8314,
    "Ġtru": 4108,
    "Ġadditionally": 1174,
    "Ġequality": 16365,
    "Ġrequested": 14301,
    "Ġmexic": 14034,
    "Ġshadows": 8013,
    "rences": 9277,
    "Ġunostentatious": 22071,
    "Ġcoasts": 12168,
    "hark": 15369,
    "remed": 18955,
    "Ġboa": 22639,
    "Ġleft": 1760,
    "Ġplatonian": 25121,
    "Ġexploitation": 2346,
    "Ġflowery": 16237,
    "Ġtired": 9152,
    "Ġloving": 8176,
    "Ġdecreases": 3410,
    "Ġcomputing": 2217,
    "Ġscales": 4851,
    "Ġnewcomers": 26042,
    "Ġgrew": 5182,
    "exerc": 16019,
    "Ġunra": 18238,
    "ĝ": 222,
    "mody": 16186,
    "Ġpencil": 11947,
    "Ġamid": 4959,
    "Ġconstitutional": 25128,
    "guilt": 24075,
    "Ġcutting": 4983,
    "Ġexpand": 9310,
    "Ġcrust": 21354,
    "Ġorange": 8489,
    "Ġapproved": 16037,
    "lun": 20948,
    "Ġsympathies": 14864,
    "Ġtrees": 4204,
    "gallant": 7781,
    "ining": 3222,
    "Ġworms": 25217,
    "separ": 9233,
    "Ġable": 3082,
    "Ġdriven": 6200,
    "pronounce": 25193,
    "pul": 8757,
    "Ġappend": 18358,
    "Ġconfine": 14510,
    "Ġstunsail": 25544,
    "morrow": 4572,
    "Ġfavourite": 5271,
    "Ġlar": 765,
    "ities": 1825,
    "arp": 2029,
    "poise": 6173,
    "Ġmelt": 21321,
    "hot": 8084,
    "Ġcomputations": 16003,
    "sprang": 19994,
    "Ġtrif": 6271,
    "Ġcrammed": 16473,
    "Ġpir": 6818,
    "Ġabsurdities": 24879,
    "shel": 11934,
    "Ġiceland": 15150,
    "Ġdevoting": 22721,
    "Ġhor": 1663,
    "tem": 6370,
    "queens": 22894,
    "Ġevalu": 3094,
    "Ġdrawled": 23992,
    "Ġnormal": 1206,
    "Ġadvisable": 11444,
    "oul": 4700,
    "reflection": 13459,
    "elder": 21575,
    "Ġhurricane": 16434,
    "eling": 6683,
    "change": 6393,
    "Ġgardeners": 12125,
    "Ġfidget": 15193,
    "Ġflooring": 23625,
    "Ġflattening": 26049,
    "learned": 8604,
    "Ġcaptive": 14430,
    "acters": 9312,
    "weave": 22688,
    "former": 11752,
    "Ġturned": 2132,
    "Ġplum": 11826,
    "Ġped": 7845,
    "tern": 4226,
    "Ġapproximation": 2340,
    "athans": 7433,
    "informed": 17738,
    "Ġpreface": 18368,
    "loat": 8890,
    "Ġclatter": 22344,
    "bearded": 18523,
    "Ġdireful": 11019,
    "Ġtrump": 8196,
    "Ġdistrustful": 25057,
    "Ġtorment": 8677,
    "itating": 9653,
    "!": 5,
    "Ġensued": 11396,
    "or": 282,
    "Ġbefall": 8833,
    "anse": 12580,
    "alling": 6038,
    "Ġjabez": 11771,
    "Ġmajest": 24066,
    "Ġsignification": 19205,
    "Ġloved": 4599,
    "inative": 15486,
    "Ġrossum": 3014,
    "Ġexult": 10231,
    "Ġgaieties": 24198,
    "Ġdictionaries": 12344,
    "Ġbodiless": 24229,
    "know": 2318,
    "Ġsling": 21223,
    "screaming": 20328,
    "desp": 6094,
    "common": 4129,
    "Ġfemin": 13440,
    "Ġdi": 6526,
    "humoured": 11238,
    "Ġanguish": 5583,
    "trees": 10733,
    "conspicuous": 26249,
    "Ġlucas": 3835,
    "Ġthee": 2622,
    "five": 6358,
    "Ġmann": 18417,
    ".}": 20747,
    "Ġsimul": 1806,
    "Ġintersect": 22579,
    "Ġhoarse": 14528,
    "Ġwithin": 2162,
    "Ġsensationalism": 26067,
    "Ġenveloping": 19737,
    "presume": 25671,
    "Ġpeninsula": 23199,
    "erc": 5906,
    "Ġconsoled": 18115,
    "queen": 12732,
    "disinterested": 23505,
    "Ġvigil": 9510,
    "Ġ128": 24473,
    "Ġburns": 16526,
    "leads": 21373,
    "Ġ78": 19616,
    "Ġdict": 9178,
    "attending": 18918,
    "Ġwrecks": 16820,
    "Ġcaulk": 25441,
    "insufficient": 15492,
    "confirmation": 26090,
    "Ġcarriage": 3955,
    "Ġcomparatively": 9493,
    "Ġunreasoning": 15849,
    "-------": 20392,
    "Ġcasks": 7522,
    "usable": 22283,
    "red": 398,
    "Ġswears": 16466,
    "Ġfaults": 12217,
    "umber": 5240,
    "Ġfoundering": 21422,
    "Ġdispatched": 23884,
    "Ġ16": 7927,
    "Ġrussian": 14354,
    "rade": 9682,
    "Ġimpress": 6861,
    "inion": 2878,
    "reck": 9639,
    "Ġsimple": 1621,
    "Ġwager": 17794,
    "Ġ33": 16678,
    "Ġdrily": 23542,
    "Ġrevol": 5537,
    "itically": 21333,
    "Ġgraph": 10904,
    "aled": 3949,
    "Ġearl": 7677,
    "aning": 2251,
    "races": 21633,
    "ulatory": 15772,
    "Ġwrist": 8243,
    "Ġconsequ": 6256,
    "Ġledger": 19405,
    "terbury": 21828,
    "Ġestim": 3349,
    "Ġbelie": 14411,
    "enc": 7575,
    "Ġvivacity": 14944,
    "wives": 15458,
    "Ġemergency": 25731,
    "Ġentry": 11028,
    "Ġseizing": 7879,
    "Ġtawn": 13826,
    "Ġbilliard": 16690,
    "ĠĠĠĠĠĠĠĠĠĠĠĠĠĠĠĠĠĠĠĠĠĠĠĠĠĠĠĠĠĠĠĠĠĠĠĠĠ": 14616,
    "Ġcomplained": 17000,
    "somewhat": 11162,
    "pervised": 1605,
    "Ġscuttle": 7414,
    "Ġtilted": 20416,
    "Ġpap": 8802,
    "Ġinstruction": 14345,
    "mel": 9130,
    "Ġpreyed": 18367,
    "Ġcolt": 11046,
    "Ġstupidity": 15052,
    "Ġprofessor": 11232,
    "Ġnind": 17952,
    "Ġbohemia": 10652,
    "Ġrope": 4339,
    "Ġrecording": 24434,
    "Ġbuying": 23999,
    "suspect": 9543,
    "Ġrefinement": 18703,
    "Ġimpotently": 22391,
    "trunk": 23951,
    "Ġbulldog": 23862,
    "Ġtroops": 24899,
    "Ġanyone": 4459,
    "oology": 21008,
    "Ġhope": 1790,
    "Ġcurbstone": 26044,
    "Ġcapstan": 9102,
    "Ġsmells": 8893,
    "ometer": 19328,
    "uce": 11538,
    "Ġpainted": 7978,
    "Ġlowermost": 23244,
    "Ġlimbs": 5967,
    "Ġaccumulates": 2893,
    "al": 292,
    "Ġlamb": 8817,
    "arrangement": 17418,
    "Ġbalancing": 2430,
    "Ġplaned": 24061,
    "Ġseverest": 14094,
    "Ġcolourless": 19572,
    "Ġpepper": 9784,
    "Ġhowled": 12860,
    "Ġvii": 13113,
    "Ġabject": 18392,
    "Ġrelate": 6875,
    "Ġscrib": 22292,
    "preserver": 20216,
    "pure": 17628,
    "Ġnavy": 14919,
    "Ġanalogy": 25640,
    "Ġsnodhead": 19304,
    "âĢĶâĢĻâĢĿ": 20067,
    "Ġpart": 858,
    "``": 15310,
    "pow": 10719,
    "Ġhopkins": 23132,
    "bted": 7794,
    "Ġ7": 4746,
    "Ġdistur": 5313,
    "Ġcoffins": 13255,
    "Ġvainly": 9927,
    "passage": 11263,
    "icy": 6142,
    "Ġfurlongs": 20725,
    "Ġfield": 1226,
    "Ġhooks": 14971,
    "Ġjetted": 24431,
    "Ġswimming": 5507,
    "eping": 5834,
    "eridge": 15529,
    "Ġgenerous": 6273,
    "ctions": 952,
    "Ġdivinely": 25723,
    "bud": 10686,
    "alo": 7589,
    "Ġdefray": 22946,
    "Ġugl": 12687,
    "Ġbeh": 1801,
    "Ġclerval": 4654,
    "Ġtomorrow": 21516,
    "jerked": 25619,
    "Ġgets": 10841,
    "acquainted": 7313,
    "Ġassuring": 13069,
    "Ġclaws": 15970,
    "pend": 6368,
    "Ġface": 1723,
    "accustomed": 13161,
    "Ġproductions": 22951,
    "Ġpeasant": 13555,
    "ift": 1606,
    "Ġsobs": 14137,
    "Ġmetropol": 11146,
    "riers": 18185,
    "Ġpropensity": 19000,
    "Ġlat": 5087,
    "Ġsalisbury": 24069,
    "Ġclinging": 10293,
    "Ġfisher": 3223,
    "Ġsteal": 16287,
    "Ġmill": 6669,
    "Ġmacey": 12568,
    "col": 3104,
    "quired": 21859,
    "Ġpyramid": 8806,
    "Ġescorted": 23510,
    "drugg": 20840,
    "ledyard": 22395,
    "Ġdevout": 14330,
    "v": 90,
    "eagerly": 17319,
    "Ġascended": 8669,
    "Ġmemories": 14557,
    "Ġportions": 19372,
    "pl": 400,
    "rough": 590,
    "Ġsoldiers": 8690,
    "etch": 9207,
    "Ġhardihood": 23114,
    "Ġclimbing": 20073,
    "Ġmilky": 9950,
    "Ġsupers": 18279,
    "Ġwithal": 18116,
    "Ġcattle": 12577,
    "Ġfoundations": 11075,
    "Ġbenjam": 22893,
    "Ġinfle": 16369,
    "Ġpromote": 23196,
    "Ġgods": 6455,
    "super": 5945,
    "Ġjewels": 12373,
    "87": 20759,
    "belled": 24042,
    "Ġsuppress": 13030,
    "ounce": 6559,
    "thus": 5158,
    "Ġcommerce": 11017,
    "Ġflor": 8565,
    "itations": 17819,
    "Ġaghast": 16051,
    "K": 47,
    "Ġattacking": 24465,
    "«": 109,
    "Ġmightier": 18731,
    "connections": 14431,
    "Ġbars": 13900,
    "Ġslam": 13063,
    "heedful": 20576,
    "up": 1282,
    "Ġappearing": 9844,
    "copper": 19190,
    "erman": 5108,
    "daughters": 13470,
    "ĠâĢľ_": 6698,
    "Ġhur": 2100,
    "Ġgilt": 21609,
    "ents": 1895,
    "Ġwhispering": 14948,
    "based": 2960,
    "Ġenemies": 9041,
    "Ġethiopian": 26615,
    "Ġsail": 1674,
    "Ġperfectly": 3701,
    "unities": 15775,
    "Ġstealing": 18894,
    "uncommon": 11685,
    "Ġshattered": 7884,
    "cture": 15669,
    "visits": 24226,
    "stamp": 21657,
    "Ġdampening": 2898,
    "Ġcontract": 18477,
    "Ġungod": 22026,
    "Ġiii": 7861,
    "ent": 305,
    "Ġchips": 14182,
    "Ġdesirable": 8944,
    "Ġtwin": 12933,
    "lat": 9607,
    "Ġluggage": 25958,
    "Ġgood": 1004,
    "Ġmanners": 3793,
    "Ġcloudy": 19480,
    "disapprobation": 19159,
    "Ġgrief": 4621,
    "Ġdespair": 4011,
    "Ġinheritance": 25356,
    "ldog": 21921,
    "Ġ109": 24416,
    "Ġstren": 15724,
    "Ġeuroclydon": 15300,
    "luyt": 18455,
    "Ġseconds": 16397,
    "Ġprom": 1527,
    "shoe": 14970,
    "Ġchink": 15936,
    "Ġirreproachable": 24918,
    "hanging": 10103,
    "restored": 18980,
    "Ġinnocently": 24032,
    "breaking": 14768,
    "est": 500,
    "Ġgenus": 24429,
    "Ġshrubbery": 18233,
    "puzz": 17642,
    "âĢĶ": 518,
    "Ġmix": 7578,
    "endurable": 22232,
    "jah": 17583,
    "Ġmim": 3107,
    "Ġespecially": 3941,
    "isive": 10795,
    "Ġcables": 15562,
    "ated": 728,
    "ascertain": 21546,
    "Ġsouthern": 7690,
    "dock": 16422,
    "meas": 7434,
    "Ġgratitude": 5599,
    "preference": 22471,
    "Ġepistle": 24905,
    "Ġ26": 10472,
    "Ġstiffest": 24827,
    "Ġpurplish": 19142,
    "cab": 7333,
    "aan": 20766,
    "rages": 15685,
    "port": 10721,
    "Ġthirst": 7591,
    "arm": 1355,
    "Ġimpenet": 14218,
    "igen": 4831,
    "Ġfluffy": 19367,
    "Ġtypewriter": 19099,
    "Ġride": 12763,
    "ourse": 8873,
    "Ġanswered": 2855,
    "enes": 5218,
    "abroad": 18111,
    "Ġpots": 9431,
    "jam": 15375,
    "Ġoscillations": 2901,
    "ort": 520,
    "Ġhitting": 21490,
    "either": 6792,
    "Ġlistless": 16478,
    "Ġscarce": 8625,
    "Ġringle": 18211,
    "enderby": 25216,
    "Ġconnectivity": 3668,
    "Ġdavis": 25953,
    "Ġinhospit": 25453,
    "ino": 15482,
    "rob": 5534,
    "ede": 21509,
    "Ġbrute": 8929,
    "Ġroarings": 25303,
    "Ġadler": 8174,
    "Ġregret": 5561,
    "Ġagent": 6279,
    "tered": 2229,
    "Ġtend": 6122,
    "Ġkeys": 12001,
    "ore": 418,
    "benefact": 24642,
    "Ġdigress": 24649,
    "Ġfear": 2273,
    "Ġfastidious": 14495,
    "Ġfuller": 11158,
    "Ġsympath": 4862,
    "Ġcoupled": 16853,
    "Ġdangers": 12358,
    "Ġdeveloped": 16345,
    "Ġh": 290,
    "abs": 11670,
    "corn": 13703,
    "Ġknights": 15153,
    "ighted": 8479,
    "Ġbuckskin": 19955,
    "cruise": 24842,
    "Ġintu": 12768,
    "Ġcam": 10164,
    "bearers": 18525,
    "Ġbrave": 6331,
    "Ġyouth": 4263,
    "Ġbequeathed": 20704,
    "anim": 6523,
    "Ġexpectantly": 23528,
    "Ġencl": 16170,
    "Ġfever": 6560,
    "rodu": 1817,
    "Ġdetaining": 25820,
    "Ġpraise": 6487,
    "Ġcar": 1418,
    "eastward": 15133,
    "Ġdivision": 19447,
    "Ġmeadows": 11424,
    "Ġpyramids": 15118,
    "._": 3221,
    "conscience": 14863,
    "tremble": 17144,
    "Ġeternity": 12283,
    "Ġasyl": 12739,
    "construction": 19781,
    "Ġdup": 21430,
    "Ġpower": 1302,
    "actions": 8908,
    "Ġhumiliating": 22885,
    "Ġtask": 1308,
    "Ġprophetic": 20023,
    "Ġcot": 13880,
    "Ġfearlessness": 19163,
    "marest": 20982,
    "warks": 5004,
    "sig": 2877,
    "piteous": 21036,
    "Ġpangs": 15619,
    "Ġclimb": 15083,
    "Ġviciously": 24404,
    "Ġbrandy": 11051,
    "Ġinvulnerable": 19148,
    "Ġexclusion": 19399,
    "majesty": 26282,
    "Ġflushed": 13033,
    "menced": 23147,
    "acup": 14281,
    "holloa": 19467,
    "Ġnorm": 763,
    "Ġparticle": 18671,
    "Ġjabbering": 22314,
    "Ġdisputes": 25826,
    "knives": 14916,
    "Ġsketches": 26272,
    "Ġthence": 8885,
    "Ġchestnuts": 24381,
    "not": 909,
    "Ġpend": 15610,
    "departure": 15238,
    "Ġjavelins": 26106,
    "ocr": 10470,
    "comed": 8547,
    "stripped": 16947,
    "Ġrun": 2353,
    "Ġcav": 13883,
    "young": 7321,
    "success": 6712,
    "Ġlifeless": 8951,
    "?âĢĿâĢĶ": 12900,
    "Ġmanor": 14199,
    "spir": 5738,
    "interruption": 20115,
    "sheep": 23089,
    "venerable": 26410,
    "Ġaspired": 25985,
    "means": 9789,
    "iqu": 7803,
    "Ġsweating": 16465,
    "Ġsixteen": 8283,
    "Ġhag": 12630,
    "thick": 10263,
    "Ġric": 18210,
    "Ġinterpreter": 23216,
    "Ġmaled": 21317,
    "tes": 11531,
    "neat": 22466,
    "Ġplied": 22600,
    "brother": 7093,
    "egyptians": 25899,
    "rance": 5995,
    "ailed": 3248,
    "razor": 21640,
    "Ġunduly": 25995,
    "Ġeconomy": 17203,
    "osoever": 17346,
    "Ġdipped": 15599,
    "jonah": 11499,
    "rised": 10126,
    "Ġseemingly": 9321,
    "Ġmainmast": 9782,
    "Ġesquimaux": 25154,
    "Ġbamboo": 17440,
    "Ġshrunk": 16720,
    "Ġthickly": 12120,
    "Ġpiny": 21473,
    "Ġsagacious": 14974,
    "Ġblended": 16222,
    "raged": 9214,
    "stay": 9684,
    "Ġpalsy": 25779,
    "deal": 12804,
    "Ġtrying": 4840,
    "Ġstockings": 20000,
    "Ġimpregn": 26023,
    "Ġdimmed": 24270,
    "ity": 417,
    "Ġsl": 1496,
    "Ġnorton": 12654,
    "Ġname": 2084,
    "Ġcreature": 2383,
    "Ġoldest": 12978,
    "Ġfed": 5530,
    "Ġrepugnant": 26592,
    "Ġdarted": 4759,
    "Ġwritten": 4169,
    "Ġwishes": 4796,
    "Ĳ": 243,
    "learn": 2426,
    "hopeless": 16919,
    "Ġchoosing": 19593,
    "Ġbearded": 15731,
    "Ġwatched": 6299,
    "latitudes": 17199,
    "hval": 20900,
    "rennial": 22356,
    "view": 5897,
    "Ġendeavored": 19305,
    "Ġmurmuring": 23581,
    "Ġoverseeing": 22368,
    "Ġproudly": 19745,
    "Ġcling": 11775,
    "Ġgot": 2277,
    "Ġmalacca": 24393,
    "Ġfir": 17879,
    "Ġcolumb": 22861,
    "edmund": 17948,
    "Ġbathe": 25444,
    "Ġghast": 9212,
    "Ġreiterating": 26476,
    "Ġminds": 6305,
    "Ġscarlet": 13228,
    "Ġtorments": 13398,
    "swear": 16920,
    "Ġwrung": 14473,
    "Ġworst": 7444,
    "Ġmatches": 14399,
    "Ġinviting": 19145,
    "Ġsure": 1865,
    "Ġrecorded": 11295,
    "oftentimes": 19424,
    "sixteen": 24854,
    "Ġcares": 9370,
    "abilities": 3237,
    "previously": 17210,
    "Ġoverwhelming": 17103,
    "Ġtanning": 17731,
    "phren": 22781,
    "Ġcontinent": 14891,
    "Ġimagine": 3928,
    "Ġhemp": 9218,
    "Ġeliza": 6438,
    "Ġadmitted": 8989,
    "uel": 6967,
    "shaken": 16027,
    "Ġproving": 15759,
    "Ġkettle": 26234,
    "Ġpleasantness": 24141,
    "Ġquivered": 18468,
    "Ġcleaving": 23185,
    "Ġeloped": 22654,
    "Ġhaught": 10257,
    "Ġspeaker": 19150,
    "phants": 9323,
    "subjects": 19878,
    "Ġpaint": 7708,
    "prison": 14665,
    "Ġindistinct": 17411,
    "Ġrotation": 25475,
    "Ġclearly": 6897,
    "Ġcrescentic": 20624,
    "Ġguid": 2640,
    "Ġponies": 21479,
    "etian": 13962,
    "Ġsteals": 23087,
    "ude": 7563,
    "drawers": 19389,
    "Ġshakespeare": 20310,
    "stud": 8824,
    "exc": 5169,
    "Ġcomponents": 8896,
    "Ġcharger": 19009,
    "Ġvehic": 8935,
    "Ġcontemplated": 13468,
    "Ġdemean": 12728,
    "goodness": 19291,
    "Ġbark": 10800,
    "Ġinfinitely": 8966,
    "Ġdoxology": 22248,
    "Ġsealed": 15822,
    "Ġincor": 2608,
    "Ġhurling": 19112,
    "perpendicular": 14162,
    "reflect": 19867,
    "Ġten": 2385,
    "Ġgrapp": 14104,
    "Ġgrinned": 16859,
    "deserts": 25382,
    "recursion": 13333,
    "Ġlin": 10835,
    "Ġharpoons": 5659,
    "Ġtil": 12529,
    "Ġlibr": 16005,
    "fore": 686,
    "Ġkirwin": 8499,
    "Ġplaid": 22603,
    "Ġstaggered": 9542,
    "stra": 4048,
    "Ġgrateful": 7661,
    "succeed": 10331,
    "created": 12455,
    "Ġkeels": 11063,
    "Ġcheerfulness": 10519,
    "Ġearning": 23944,
    "Ġtelesc": 12993,
    "Ġineff": 12639,
    "arman": 11598,
    "Ġgr": 978,
    "Ġcool": 5734,
    "Ġrepro": 7275,
    "atherley": 7220,
    "Ġworld": 1593,
    "Ġrespectively": 23250,
    "Ġcheck": 7271,
    "ives": 1409,
    "assin": 22298,
    "Ġgrotesque": 26331,
    "respect": 6375,
    "lays": 14925,
    "Ġplying": 17916,
    "Ġexceeding": 1578,
    "Ġpositives": 4318,
    "Ġplunged": 8696,
    "Ġscud": 14193,
    "Ġdiscernment": 15072,
    "lop": 20950,
    "Ġeaster": 15679,
    "ival": 4229,
    "Ġanaly": 1158,
    "believing": 19465,
    "Ġnorthumbria": 24174,
    "ilege": 22262,
    "winter": 10742,
    "Ġgenerously": 22399,
    "Ġeighteen": 11240,
    "Ġantichron": 24184,
    "Ġtrousers": 12419,
    "ousings": 18336,
    "Ġpolynesian": 26027,
    "walls": 25346,
    "Ġcontents": 7210,
    "Ġconnecting": 18632,
    "Ġhelpless": 8302,
    "Ġow": 8409,
    "bag": 7543,
    "uting": 15664,
    "Ġpropont": 16356,
    "invite": 25091,
    "Ġwhat": 599,
    "stoke": 18025,
    "Ġlawless": 19438,
    "ality": 2511,
    "society": 9975,
    "Ġcorrected": 10450,
    "Ġbefallen": 12347,
    "Ġpatiently": 19920,
    "Ġinsolence": 20256,
    "Ġbackbones": 22644,
    "Ġsubsided": 14551,
    "Ġpresent": 1643,
    "vit": 13804,
    "Ġfa": 4821,
    "Ġstaring": 8829,
    "Ġsimilitude": 19213,
    "Ġconv": 2970,
    "Ġinconceivable": 17940,
    "Ġloses": 15877,
    "Ġconceivable": 16615,
    "Ġarc": 14163,
    "captain": 3958,
    "happiness": 6470,
    "Ġsnapped": 9900,
    "Ġgrammars": 11404,
    "overcoat": 19054,
    "mass": 12494,
    "ferred": 16409,
    "visitor": 15060,
    "sigma": 3004,
    "ecess": 17534,
    "Ġaccount": 2320,
    "got": 6955,
    "Ġobligation": 13248,
    "Ġchild": 2257,
    "romised": 14115,
    "Ġexempt": 21832,
    "Ġce": 3032,
    "Ġgn": 8822,
    "board": 3568,
    "towns": 24855,
    "Ġsize": 1222,
    "inces": 13831,
    "Ġcinque": 20489,
    "Ġsavann": 14686,
    "Ġinsurmountable": 16534,
    "Ġmeasuring": 22883,
    "Ġheire": 18039,
    "itzerland": 9998,
    "boys": 13364,
    "Ġfreshness": 23991,
    "Ġcrab": 13148,
    "Ġrelapses": 26280,
    "fuller": 22515,
    "ground": 4672,
    "Ġsacrificial": 24872,
    "Ġclock": 9536,
    "Ġdepresses": 25798,
    "Ġbats": 13903,
    "prop": 1009,
    "Ġinconsist": 17938,
    "Ġwidth": 16774,
    "Ġslavish": 23174,
    "thence": 23403,
    "Ġphrenologists": 25609,
    "Ġcomforts": 14696,
    "cons": 4310,
    "Ġtin": 15466,
    "Ġaft": 5737,
    "Ġhelm": 5276,
    "Ġhappiness": 2946,
    "Ġled": 3524,
    "scuttle": 11914,
    "gratulation": 24349,
    "invested": 17120,
    "Ġbu": 3683,
    "ethe": 9679,
    "dressing": 11484,
    "itics": 13875,
    "profound": 16429,
    "can": 1235,
    "Ġkramm": 26235,
    "Ġpossible": 2584,
    "increas": 10456,
    "Ġhovering": 10181,
    "Ġcreaking": 14331,
    "Ġclean": 5652,
    "Ġimpious": 15990,
    "plexy": 18576,
    "user": 5105,
    "ashion": 3863,
    "ee": 1662,
    "whispering": 26104,
    "attery": 18515,
    "human": 7090,
    "Ġur": 5540,
    "Ġcabin": 3303,
    "Ġinfl": 6894,
    "Ġsymmet": 11751,
    "Ġmerely": 3772,
    "osen": 6855,
    "urning": 12921,
    "Ġeyes": 1333,
    "Ġowns": 22829,
    "Ġspot": 4156,
    "Ġwhitney": 11375,
    "Ġtashtego": 4486,
    "jumping": 20248,
    "forbearance": 22788,
    "hawks": 24695,
    "Ġsuppl": 11080,
    "erns": 8782,
    "Ġexpressed": 4467,
    "greek": 25405,
    "Ġsuspicious": 9483,
    "trial": 20353,
    "Ġpassed": 2012,
    "fered": 5560,
    "Ġinstances": 5568,
    "opic": 22480,
    "tut": 15437,
    "rail": 10207,
    "Ġsports": 18311,
    "Ġtomahawk": 7540,
    "Ġ97": 19777,
    "Ġskylight": 24077,
    "Ġtechnically": 12370,
    "astes": 11743,
    "Ġdoubling": 23323,
    "Ġmonoton": 3638,
    "Ġpreparations": 12314,
    "ondescript": 22920,
    "Ġvisage": 18772,
    "mer": 2837,
    "Ġaye": 3353,
    "Ġgall": 4352,
    "Ġmistress": 8615,
    "solemn": 19820,
    "Ġbows": 4085,
    "Ġvesture": 20065,
    "Ġcomfor": 14055,
    "ensed": 10997,
    "Ġgibraltar": 25788,
    "Ġinasmuch": 10827,
    "Ġspasmodic": 20401,
    "Ġlizz": 21560,
    "Ġrequ": 791,
    "Ġindicate": 23726,
    "ick": 835,
    "Ġconditions": 8307,
    "sl": 5794,
    "alterable": 13628,
    "Ġprudential": 17922,
    "Ġlighter": 12658,
    "Ġarctic": 12816,
    "Ġoaks": 16935,
    "Ġplunder": 22605,
    "Ġix": 12673,
    "Ġexcuse": 5863,
    "Ġheartily": 6890,
    "streamed": 25967,
    "Ġfrancis": 26064,
    "Ġunited": 6840,
    "Ġcustomary": 8673,
    "es": 288,
    "Ġlob": 7629,
    "Î": 143,
    "both": 5785,
    "Ġforb": 11666,
    "osy": 11762,
    "och": 21003,
    "Ġhardly": 2432,
    "Ġadroit": 26001,
    "Ġghastly": 10063,
    "Ġindebted": 8711,
    "Ġvict": 3763,
    "avoiding": 25237,
    "Ġbranded": 14382,
    "heaving": 21210,
    "Ġprodig": 6029,
    "Ġstony": 21743,
    "Ġmig": 13859,
    "Ġtex": 15475,
    "Ġbrilliantly": 25123,
    "failed": 20865,
    "Ġdeadly": 5405,
    "Ġcompleted": 9000,
    "barbaric": 26360,
    "iger": 8448,
    "Ġpadd": 9672,
    "quered": 11055,
    "Ġsubsisted": 19119,
    "Ġreminding": 19800,
    "sed": 4177,
    "Ġrelentless": 26279,
    "Ġtep": 21164,
    "Ġthack": 21520,
    "Ġforbid": 7865,
    "Ġlend": 17965,
    "broken": 8020,
    "Ġslumbering": 25702,
    "Ġexpedition": 10637,
    "Ġsnake": 12065,
    "madly": 24420,
    "istence": 2311,
    "Ġcalculus": 23986,
    "Ġcompassionate": 24722,
    "empty": 23637,
    "Ġsocieties": 20185,
    "Ġattempts": 10493,
    "ensing": 12901,
    "mal": 6795,
    "forks": 26389,
    "Ġjohn": 5032,
    "Ġdisturbance": 15015,
    "Ġspoiled": 11365,
    "secur": 18129,
    "consequential": 26251,
    "Ġtwist": 11855,
    "Ġperformance": 1305,
    "Ġfashions": 17887,
    "real": 10152,
    "Ġdelineations": 26059,
    "Ġcompat": 2939,
    "Ġmouth": 3181,
    "msgate": 18413,
    "Ġstalls": 25648,
    "mastod": 23977,
    "Ġslips": 23167,
    "Ġinclosed": 19541,
    "Ġviolates": 3166,
    "Ġnarrated": 14874,
    "illings": 14145,
    "Ġhood": 10825,
    "Ġyouthful": 16725,
    "g": 75,
    "faces": 13723,
    "Ġ75": 19615,
    "Ġdisgusted": 14993,
    "cd": 15326,
    "Ġordin": 16653,
    "Ġnative": 4641,
    "cap": 8373,
    "clear": 9027,
    "harpooneer": 8692,
    "Ġenvy": 13187,
    "speech": 10669,
    "Ġrays": 10333,
    "quitted": 21861,
    "pooh": 18803,
    "resides": 23676,
    "Ġsqueezing": 25009,
    "Ġheartless": 13077,
    "Ġjar": 15954,
    "Ġmost": 1022,
    "Ġdesired": 4665,
    "Ġdeportment": 22611,
    "bout": 20775,
    "prob": 7071,
    "Ġeffected": 14357,
    "ipagos": 22361,
    "owed": 2266,
    "Ġlamps": 14795,
    "Ġreciprocating": 26371,
    "por": 2148,
    "catherine": 7129,
    "Ġrelics": 16199,
    "pet": 4868,
    "Ġpleasant": 4171,
    "Ġsmart": 11819,
    "Ġuntutored": 19168,
    "ersburgh": 18216,
    "Ġoffered": 5817,
    "Ġj": 534,
    "model": 3534,
    "Ġblanched": 26284,
    "ough": 470,
    "felt": 5890,
    "ugal": 19022,
    "Ġcoat": 4554,
    "½": 126,
    "anc": 6380,
    "eskye": 21453,
    "umps": 6319,
    "Ġstabilizing": 3658,
    "Ġple": 1468,
    "Ġtracks": 18891,
    "Ġterti": 14540,
    "Ġwoodcock": 19165,
    "stubb": 6019,
    "avering": 24792,
    "Ġeleventh": 23372,
    "Ġbubbles": 11400,
    "ign": 1705,
    "Ġlexicon": 25975,
    "Ġjoppa": 12040,
    "Ġlim": 2379,
    "Ġcove": 22583,
    "Ġbeck": 14012,
    "Ġassumpt": 5415,
    "Ġhabitual": 24789,
    "Ġ114": 24438,
    "Ġright": 1504,
    "4": 24,
    "Ġstrainings": 24628,
    "interview": 19301,
    "Ġmasts": 6466,
    "Ġsoftly": 7948,
    "ccarthy": 4890,
    "Ġhardened": 14453,
    "Ġunexpl": 22041,
    "compass": 9463,
    "Ġjustified": 11909,
    "Ġsher": 3764,
    "Ġlvi": 21556,
    "¡": 99,
    "Ġenraptured": 26502,
    "Ġboldly": 9504,
    "Ġlessen": 14534,
    "Ġastir": 14642,
    "Ġmagician": 25061,
    "orters": 21404,
    "hecy": 21209,
    "Ġcasc": 15560,
    "fever": 22503,
    "Ġvarious": 3512,
    "Ġcaress": 16342,
    "Ġlabors": 23332,
    "arrant": 10476,
    "promised": 12256,
    "Ġhol": 1181,
    "Ġundertaken": 18988,
    "order": 1959,
    "Ġadmirers": 19689,
    "Ġbound": 3521,
    "Ġcheeks": 5959,
    "Ġpratt": 23224,
    "follows": 24528,
    "arent": 4251,
    "Ġscraping": 13420,
    "Ġapology": 8328,
    "ifice": 7198,
    "Ġmyself": 1453,
    "Ġinf": 1755,
    "Ġwin": 9644,
    "Ġcloset": 19594,
    "Ġindelible": 25695,
    "Ġjew": 9470,
    "one": 616,
    "unwillingly": 21888,
    "alarms": 21508,
    "Ġsnapping": 19303,
    "Ġbrains": 2630,
    "comprehend": 14365,
    "Ġsublim": 19970,
    "Ġrefreshing": 20267,
    "Ġblunt": 11898,
    "ca": 20795,
    "Ġsal": 3943,
    "Ġthoughtfulness": 18774,
    "Ġimbued": 17458,
    "Ġtwenty": 3954,
    "encouragement": 17426,
    "anged": 3590,
    "ume": 4837,
    "Ġcraw": 7282,
    "response": 25763,
    "Ġstifle": 18076,
    "Ġgambler": 26192,
    "Ġturn": 1296,
    "Ġdistrict": 10321,
    "Ġbanquet": 15244,
    "knife": 6942,
    "Ġpeculiarly": 8287,
    "Ġwis": 3730,
    "Ġbeaks": 21759,
    "Ġpang": 15609,
    "flies": 19427,
    "Ġblinding": 14731,
    "Ġpurchas": 19876,
    "Ġreadily": 5254,
    "Ġroads": 13293,
    "urred": 8450,
    "Ġdepicting": 22610,
    "Ġprinces": 23227,
    "asily": 13949,
    "say": 3987,
    "Ġinsensible": 12329,
    "ran": 11518,
    "waving": 21134,
    "Ġroughs": 19960,
    "Ġdirectly": 2105,
    "Ġinconveniences": 24942,
    "lan": 15381,
    "Ï": 144,
    "luent": 16000,
    "ingham": 21303,
    "duty": 20242,
    "um": 454,
    "Ġextracts": 9368,
    "Ġcomplaisance": 19452,
    "sul": 15424,
    "unken": 10239,
    "filled": 9597,
    "Ġcontro": 1690,
    "Ġsnap": 11203,
    "Ġheal": 21684,
    "Ġmule": 13865,
    "Ġmagnus": 18959,
    "Ġretired": 6072,
    "Ġunconsc": 6554,
    "Ġinvestig": 10552,
    "Ġgriev": 16637,
    "Ġclapham": 17268,
    "Ġpract": 1826,
    "solut": 3364,
    "Ġuttered": 7280,
    "Ġrep": 1936,
    "Ġsc": 532,
    "remonstr": 23194,
    "mers": 9613,
    "handsome": 13180,
    "Ġsust": 7008,
    "desk": 23812,
    "ald": 15629,
    "Ġvillages": 14752,
    "Ġkicked": 10584,
    "Ġflutter": 16250,
    "pity": 17629,
    "Ġcarted": 21353,
    "Ġmeditative": 25017,
    "Ġcraggy": 23532,
    "Ġcask": 5527,
    "Ġstagger": 10594,
    "injured": 15136,
    "Ġdestructive": 23490,
    "Ġunhinged": 26218,
    "theless": 4262,
    "Ġvintage": 26211,
    "indulged": 22379,
    "Ġobeyed": 12221,
    "Ġprecip": 7076,
    "Ġslide": 10396,
    "clut": 23152,
    "Ġparticular": 2447,
    "Ġunw": 7005,
    "Ġmisanthrop": 22762,
    "Ġbrilliancy": 20110,
    "Ġemployment": 8632,
    "moonlight": 25376,
    "Ġglued": 20592,
    "southern": 20412,
    "Ġdisconsolate": 20721,
    "prosper": 19102,
    "Ġascent": 19621,
    "Ġbit": 2965,
    "Ġslabs": 13066,
    "Ġspecial": 2103,
    "Ġcontextual": 3744,
    "unk": 4539,
    "Ġeastward": 13394,
    "algorithm": 3866,
    "Ġrepressed": 21671,
    "Ġheighten": 19532,
    "ides": 2160,
    "Ġseptember": 18208,
    "beauty": 20107,
    "Ġactively": 18654,
    "Ġinquiries": 5678,
    "cuniary": 26381,
    "Ġbreak": 2871,
    "Ġchowder": 10282,
    "Ġtwinkled": 14315,
    "Ġang": 2510,
    "Ġconsiderably": 7715,
    "Ġsurpass": 13587,
    "Ġbye": 12743,
    "30": 20756,
    "Ġter": 2054,
    "inions": 8403,
    "Ġferocious": 17422,
    "Ġundergone": 18987,
    "ugl": 23292,
    "Ġfist": 21407,
    "Ġstr": 759,
    "accessory": 25500,
    "amed": 4449,
    "Ġsit": 4218,
    "isance": 17849,
    "Ġspectrum": 4474,
    "Ġcopestone": 24939,
    "coff": 9112,
    "?": 35,
    "Ġtags": 20574,
    "Ġself": 1779,
    "Ġsummoning": 23877,
    "Ġconstrain": 2628,
    "tooth": 18580,
    "Ġcompliment": 5673,
    "mental": 16052,
    "Ġjoining": 13168,
    "wheeling": 22873,
    "Ġser": 1673,
    "headers": 23111,
    "Ġwarrior": 24496,
    "scho": 8763,
    "appe": 2945,
    "cod": 12448,
    "isturbed": 18298,
    "cellar": 20280,
    "pun": 9620,
    "determination": 19948,
    "Ġmounted": 7832,
    "frankly": 20025,
    "Ġchair": 3663,
    "ears": 20847,
    "rily": 7623,
    "urried": 21707,
    ".)": 6784,
    "Ġfeelings": 2451,
    "houses": 9602,
    "Ġforgotten": 5679,
    "Ġmining": 22834,
    "Ġwantonly": 22896,
    "ascertaining": 26462,
    "Ġsets": 8778,
    "Ġpanic": 11288,
    "Ġaccomplishment": 19668,
    "Ġindefinite": 17179,
    "Ġconvenient": 8346,
    "03": 20750,
    "Ġpeered": 18668,
    "Ġrevolver": 14903,
    "arpaul": 14538,
    "anth": 13890,
    "con": 652,
    "Ġverify": 12092,
    "sisters": 13380,
    "soon": 4031,
    "Ġjavelin": 26105,
    "will": 1969,
    "prot": 6899,
    "ifers": 15786,
    "four": 6115,
    "inal": 15483,
    ";âĢĻ": 15306,
    "lakeman": 13754,
    "Ġcoast": 4656,
    "Ġstaircase": 20099,
    "ribe": 1228,
    "Ġhundred": 2697,
    "Ġmaking": 1780,
    "Ġnewfound": 22935,
    "Ġrouted": 24908,
    "Ġliable": 14231,
    "Ġed": 2239,
    "supp": 4163,
    "sec": 6154,
    "Ġincisive": 18571,
    "dom": 6224,
    "Ġhistorical": 3647,
    "Ġpanelled": 19657,
    "cho": 2765,
    "kill": 13747,
    "ternatural": 12720,
    "Ġrent": 11642,
    "ia": 1257,
    "ote": 4596,
    "Ġadm": 2401,
    "Ġneighbour": 3810,
    "Ġattent": 4361,
    "Ġcondescend": 19958,
    "Ġaccumulating": 2726,
    "involuntarily": 20418,
    "Ġgrudge": 20696,
    "Ġswords": 19899,
    "Ġpicked": 6343,
    "Ġsanctioned": 26352,
    "Ġdripping": 13151,
    "Ġalready": 2716,
    "Ġlouis": 8357,
    "rit": 21038,
    "Ġcaused": 5048,
    "Ġimpotent": 18447,
    "Ġott": 13869,
    "Ġensue": 18191,
    "Ġpettiness": 24232,
    "Ġcompanions": 5867,
    "Ġunluckily": 20105,
    "Ġclergy": 7644,
    "Ġconvenience": 11333,
    "Ġattributed": 11842,
    "Ġoriginal": 6104,
    "Ġginger": 9213,
    "nuts": 15401,
    "elled": 4025,
    "Ġlaws": 8003,
    "Ġmarvellous": 7539,
    "Ġoffending": 22742,
    "Ġmich": 21308,
    "Ġloves": 10917,
    "estone": 18364,
    "Ġfacil": 16964,
    "Ġshamefully": 24715,
    "Ġlimp": 19182,
    "hooked": 23719,
    "Ġmutters": 23959,
    "Ġimp": 572,
    "ights": 8478,
    "5": 25,
    "Ł": 258,
    "Ġreverend": 15263,
    "Ġlesson": 7276,
    "clearly": 25196,
    "brill": 16494,
    "alliance": 22204,
    "Ġstricken": 9779,
    "vo": 11542,
    "Ġdisputing": 25825,
    "Ġslammed": 20451,
    "Ġprognost": 15285,
    "Ġconcl": 5095,
    "Ġignoble": 19402,
    "Ġpubl": 3945,
    "reckoning": 25271,
    "arat": 9183,
    "icity": 2539,
    "winds": 10524,
    "Ġasiatics": 20434,
    "sens": 8096,
    "ately": 1682,
    "Ġbuildings": 24719,
    "Ġgout": 21599,
    "bolt": 25138,
    "Ġrepast": 16415,
    "swiftly": 20554,
    "killing": 20944,
    "Ġfewer": 16229,
    "bbing": 6325,
    "Ġoff": 903,
    "Ġmuteness": 19420,
    "Ġvale": 14085,
    "Ġimpat": 4456,
    "nameless": 19905,
    "Ġbraided": 16584,
    "Ġnovelist": 24776,
    "imod": 15714,
    "dead": 8180,
    "gigantic": 15363,
    "aurs": 20771,
    "fe": 673,
    "protested": 13478,
    "Ġvillains": 14753,
    "Ġladder": 8601,
    "backed": 9869,
    "Ġnecessity": 7296,
    "Ġoh": 2175,
    "unbidden": 21898,
    "pass": 4292,
    "chester": 23809,
    "Ġadored": 18292,
    "Ġbeholding": 8672,
    "Ġklan": 23665,
    "unaffected": 21887,
    "evid": 11487,
    "Ġ89": 19715,
    "Ġfocuses": 8653,
    "equal": 14996,
    "Ġoutskirts": 17460,
    "Ġhate": 5445,
    "Ġsupreme": 13611,
    "Ġireland": 17338,
    "Ġprincess": 23228,
    "Ġpig": 5705,
    "Ġgreenness": 23770,
    "dishonourable": 26367,
    "Ġheart": 1591,
    "dire": 15339,
    "Ġhearken": 21688,
    "Ġdegree": 3704,
    "Ġbitterness": 8024,
    "Ġforest": 9874,
    "Ġparamount": 15882,
    "Ġpauper": 26180,
    "Ġop": 2601,
    "Ġlace": 13952,
    "Ġlexic": 15728,
    "Ġmomentum": 1600,
    "drifting": 19827,
    "Ġfriend": 1294,
    "Ġunfolded": 10641,
    "robber": 21540,
    "Ġarrangements": 16518,
    "Ġsquares": 11171,
    "mosphere": 10046,
    "Ġjeopardy": 13600,
    "Ġempires": 19077,
    "Ġsavag": 19377,
    "saw": 5895,
    "Ġpot": 2991,
    "gun": 10099,
    "Ġscrew": 8871,
    "Ġnewsp": 9342,
    "Ġsales": 12811,
    "Ġmystical": 12137,
    "Ġbase": 5013,
    "bring": 9108,
    "Ġcondensed": 24058,
    "Ġmusket": 12300,
    "Ġpainfully": 13145,
    "vicinity": 20483,
    "companies": 24895,
    "Ġpattered": 18998,
    "inquiries": 13581,
    "persecutor": 26531,
    "terrors": 25044,
    "master": 5687,
    "Ġinstance": 2544,
    "affair": 14657,
    "Ġhonourable": 10458,
    "Ġobser": 2072,
    "ceased": 21629,
    "regarding": 15075,
    "Ġillustrative": 25069,
    "hear": 10149,
    "angel": 5726,
    "Ġdiscretion": 10350,
    "Ġrenowned": 26195,
    "nay": 7137,
    "peculiarity": 23112,
    "Ġroutine": 13511,
    "Ġcalling": 5662,
    "Ġstray": 18072,
    "Ġboon": 22641,
    "Ġcab": 2634,
    "Ġsuav": 22080,
    "fin": 5209,
    "Ġpredefined": 20719,
    "Ġfrequencies": 4790,
    "Ġfragment": 14509,
    "Ġagony": 5388,
    "Ġqueer": 4478,
    "Ġlowers": 23243,
    "aft": 9586,
    "Ġaccordingly": 6622,
    "Ġevery": 926,
    "kine": 15379,
    "qualities": 25046,
    "Ġduck": 8798,
    "Ġporch": 19683,
    "Ġarrang": 2467,
    "Ġweakness": 9970,
    "impatiently": 20474,
    "Ġservice": 6472,
    "!_âĢĶ": 19976,
    "consum": 12875,
    "Ġimpo": 3442,
    "Ġrevelations": 25224,
    "Ġpovelson": 26554,
    "Ġendeavors": 16548,
    "mend": 20968,
    "Ġcompliments": 8636,
    "Ġcircle": 4977,
    "Ġnowadays": 18547,
    "Ġreign": 13988,
    "Ġfurrow": 22816,
    "plumed": 21957,
    "Ġmanage": 7642,
    "Ġsexes": 25172,
    "inuating": 16206,
    "Ġdelight": 2548,
    "Ġlocations": 12417,
    "Ġunalterable": 15855,
    "Ġtempor": 2365,
    "Ġconsummate": 25311,
    "ù": 186,
    "renadier": 18425,
    "Ġselects": 4386,
    "sembled": 7263,
    "colonel": 8285,
    "Ġblessings": 24179,
    "Ġiron": 3236,
    "becoming": 18520,
    "Ġrotterdam": 25476,
    "directly": 13712,
    "Ġshrouded": 14972,
    "Ġanecd": 20157,
    "Ġpleasantest": 24140,
    "Ġ131": 24781,
    "Ġending": 18924,
    "interrupted": 11419,
    "Ġmembrane": 20507,
    "Ġyellowish": 24430,
    "Ġconse": 21808,
    "Ġilliter": 23470,
    "Ġswept": 7977,
    "Ġcritical": 7475,
    "Ġcobbling": 20526,
    "Ġscan": 22288,
    "Ġbewit": 15732,
    "there": 1423,
    "/`": 12433,
    "ues": 2081,
    "Ġincidentally": 16956,
    "suspected": 12376,
    "Ġsoutherly": 23338,
    "eler": 1570,
    "aved": 5475,
    "Ġducks": 25161,
    "Ġvisitors": 7985,
    "stove": 21655,
    "eastern": 17535,
    "sp": 894,
    "lance": 12486,
    "Ġstarts": 16585,
    "Ġhurriedly": 11250,
    "Ġrich": 2994,
    "sat": 4811,
    "accompanied": 12426,
    "arrang": 14654,
    "Ġunden": 22015,
    "Ġprofessions": 11233,
    "orne": 17874,
    "Ġdisengaged": 12894,
    "crop": 20800,
    "Ġcurved": 18850,
    "ott": 1872,
    "Ġusher": 22222,
    "Ġlatitude": 8329,
    "Ġgirdled": 19161,
    "Ġstudent": 14480,
    "Ġsocket": 12794,
    "ppings": 18179,
    "public": 17648,
    "capitals": 25083,
    "friends": 8306,
    "Ġsubst": 4275,
    "Ġxii": 11995,
    "Ġautomatically": 4014,
    "Ġislands": 6767,
    "daylight": 19057,
    "whales": 5187,
    "Ġmanip": 8875,
    "endured": 22231,
    "Ġpairs": 4183,
    "Ġfailed": 6674,
    "arians": 18527,
    "mas": 5212,
    "Ġyawned": 15054,
    "Ġrec": 896,
    "###": 3830,
    "Ġfow": 6135,
    "Ġtormenting": 15108,
    "Ġrusty": 14967,
    "rints": 12507,
    "assistant": 25566,
    "Ġvaults": 17156,
    "virtue": 20572,
    "murder": 10567,
    "Ġhelps": 9371,
    "cannon": 22967,
    "Ġshouted": 5348,
    "Ġdismast": 12893,
    "likely": 9026,
    "Ġhungry": 10535,
    "warm": 8102,
    "orough": 5700,
    "irr": 12741,
    "Ġrods": 9757,
    "Ġhereby": 10361,
    "----": 4060,
    "Ġruffled": 25838,
    "izarre": 17392,
    "Ġexcellence": 11453,
    "Ġexamined": 6336,
    "Ġvarieties": 14313,
    "Ġtax": 13819,
    "Ġinterfere": 11821,
    "Ġsystems": 813,
    "eldest": 22797,
    "Ġvit": 10248,
    "evidence": 25522,
    "Ġtrained": 8504,
    "Ġunhallowed": 17183,
    "otions": 7181,
    "icated": 7592,
    "Ġcontrivances": 12361,
    "Ġ67": 19663,
    "Ġ182": 13241,
    "manifested": 20529,
    "Ġfault": 5702,
    "Ġsupercil": 23455,
    "wam": 10138,
    "Ġstrategies": 1838,
    "stranded": 19228,
    "Ġartist": 12917,
    "scene": 14422,
    "Ġshalt": 18231,
    "reporting": 24494,
    "guess": 14765,
    "ancial": 21365,
    "Ġtinge": 25090,
    "Ġconcealment": 16916,
    "lemagne": 26438,
    "Ġpound": 12621,
    "Ġoverjoyed": 17461,
    "Ġinsurance": 23686,
    "Ġlifts": 25359,
    "blog": 19842,
    "ail": 565,
    "suitableness": 26262,
    "hap": 17561,
    "title": 17290,
    "Ġassum": 4067,
    "Ġnick": 21526,
    "dark": 5614,
    "Ġcharley": 19010,
    "specific": 10500,
    "promise": 12255,
    "Ġhurt": 7701,
    "Ġcolumn": 9331,
    "ited": 1749,
    "Ġreligion": 11417,
    "lydia": 6826,
    "Ġmodesty": 12825,
    "Ġboyhood": 23758,
    "andam": 10890,
    "Ġregarded": 5762,
    "sunlight": 24852,
    "Ġhereabouts": 12983,
    "Ġsobbing": 14138,
    "Ġvap": 6837,
    "ud": 913,
    "interrupt": 8619,
    "Ġcoincid": 20320,
    "glim": 19368,
    "č": 206,
    "Ġpaid": 5015,
    "Ġderivatives": 2369,
    "thrown": 8483,
    "parted": 21018,
    "Ġspiced": 22137,
    "Ġale": 9157,
    "Ġfo": 1653,
    "elling": 5831,
    "antled": 18287,
    "cheerful": 13579,
    "Ġessentials": 20006,
    "Ġmotioned": 19595,
    "pedest": 24823,
    "erde": 21271,
    "Ġmermaids": 26171,
    "Ġgilder": 21616,
    "clair": 18935,
    "Ġweak": 5098,
    "Ġpruning": 18973,
    "Ġrecourse": 22738,
    "Ġape": 21199,
    "served": 5043,
    "mbl": 5947,
    "Ġprophesied": 26063,
    "Ġfighting": 12202,
    "Ġstrangled": 24136,
    "Ġscruples": 15082,
    "Ġdormouse": 4926,
    "irth": 5634,
    "charming": 15710,
    "Ġmushroom": 13240,
    "poke": 18802,
    "Ġobserved": 3544,
    "Ġnarwhales": 24903,
    "Ġsweep": 8266,
    "Ġgallery": 10527,
    "pier": 17637,
    "senses": 25025,
    "Ġentrapped": 26264,
    "icable": 6389,
    "year": 11097,
    "Ġwears": 10243,
    "imental": 16536,
    "Ġarose": 7360,
    "lied": 6508,
    "Ġheard": 1401,
    "Ġmedical": 9473,
    "Ġhook": 6454,
    "Ġkey": 2102,
    "Ġphysiognomy": 25611,
    "Ġlam": 21552,
    "ct": 309,
    "Ġdeclaration": 16639,
    "counterpart": 26361,
    "Ġcontinu": 1166,
    "excepting": 19709,
    "Ġknew": 2058,
    "bpp": 20774,
    "Ġinher": 10182,
    ".*": 7331,
    "legra": 10791,
    "Ġbreath": 4792,
    "Ġkeeled": 18808,
    "Ġgrizzled": 11452,
    "Ġportly": 14680,
    "endous": 6850,
    "Ġfiercely": 12957,
    "Ġwhel": 15870,
    "uy": 21102,
    "mine": 5618,
    "les": 1018,
    "Ġcalculates": 13269,
    "Ġsystematic": 5244,
    "Ġscores": 2718,
    "Ġfoes": 11955,
    "watery": 19829,
    "Ġflowers": 8943,
    "Ġideal": 13125,
    "Ġnecessary": 4473,
    "iod": 3843,
    "Ġprepar": 7897,
    "Ġminor": 12973,
    "brimming": 23579,
    "Ġstage": 7389,
    "direct": 12461,
    "shaven": 18493,
    "Ġsurrender": 16450,
    "Ġxli": 14543,
    "Ġheightens": 24157,
    "arted": 2199,
    "Ġ(_": 3738,
    "Ġcongratulate": 9066,
    "immediately": 10052,
    "Ġsmitten": 12904,
    "Ġnodes": 1968,
    "top": 4485,
    "Ġcame": 1298,
    "hogs": 20085,
    "eric": 3473,
    "ernally": 22622,
    "cont": 2922,
    "luding": 6702,
    "inf": 6234,
    "Ġoutrageous": 20613,
    "pregn": 18499,
    "Ġte": 1128,
    "Ġreserves": 19673,
    "Ġdisconcerted": 18563,
    "Ġtant": 12530,
    "aph": 10956,
    "Ġflooded": 24962,
    "adventurous": 25362,
    "island": 10796,
    "Ġstupid": 7605,
    "renched": 7907,
    "Ġwarming": 23559,
    "Ġpreparation": 13532,
    "Ġvengeful": 14893,
    "Ġplaster": 16087,
    "Ġcorrespondent": 19825,
    "Ġgrounds": 6751,
    "Ġhal": 1361,
    "Ġshiny": 14109,
    "Ġnast": 15643,
    "assist": 11766,
    "Ġfails": 13318,
    "Ġdeceitful": 25733,
    "datasets": 11958,
    "Ġaver": 1285,
    "Ġpacket": 14896,
    "penny": 22950,
    "forster": 16161,
    "lott": 6653,
    "Ġnapkins": 25165,
    "Ġshifted": 14110,
    "Ġhourly": 23304,
    "tery": 14040,
    "ela": 21572,
    "Ġbriefly": 11369,
    "Ġcalhoun": 23046,
    "Ġvices": 14086,
    "Ġcommunicates": 24547,
    "Ġabandon": 12262,
    "Ġunlucky": 10053,
    "halloa": 17091,
    "Ġspans": 18305,
    "Ġing": 5284,
    "Ġevident": 6615,
    "resc": 21241,
    "Ġyellow": 5302,
    "yonder": 21147,
    "Ġowes": 20088,
    "Ġhilarity": 20300,
    "ellation": 12753,
    "mouth": 9133,
    "Ġkindly": 6078,
    "Ġwidows": 24239,
    "Ġagainst": 1700,
    "Ġpoint": 2059,
    "hammered": 19008,
    "sue": 2078,
    "Ġenhance": 2744,
    "Ġmisunderstood": 18706,
    "sadly": 25527,
    "Ġthrows": 14740,
    "tures": 21072,
    "soul": 9143,
    "Ġbaggy": 24538,
    "Ġthroughout": 8880,
    "Ġseasoned": 24405,
    "itably": 10784,
    "acy": 3959,
    "Ġunsh": 14118,
    "Ġjournal": 15222,
    "aulding": 11341,
    "Ġtruck": 19514,
    "experience": 17161,
    "atum": 21262,
    "Ġ*/": 10376,
    "dles": 11483,
    "urements": 18126,
    "sample": 12511,
    "yn": 7819,
    "followed": 8339,
    "Ġcomp": 723,
    "Ġsayest": 22772,
    "terr": 8154,
    "cott": 8074,
    "uttering": 12667,
    "Ġinexper": 16982,
    "istry": 22113,
    "didn": 9010,
    "stiff": 12680,
    "Ġguar": 23047,
    "Ġassizes": 11110,
    "odious": 21819,
    "Ġgown": 10204,
    "Ġdependen": 1828,
    "Ġwedged": 24936,
    "jacket": 12296,
    "Ġwitty": 21295,
    "igner": 21704,
    "Ġchronic": 9932,
    "Ġcorpulence": 24509,
    "fate": 17541,
    "angles": 18296,
    "Ġconsc": 4276,
    "Ġmorsel": 20680,
    "Ġfearfulness": 23516,
    "gged": 3780,
    "¿": 128,
    "Ġcontemporary": 16016,
    "gr": 2087,
    "Ġcircumstance": 4987,
    "seals": 21822,
    "Ġdance": 4442,
    "Ġpantaloons": 20299,
    "Ġplaguy": 22607,
    "waistcoat": 17364,
    "omeness": 18018,
    "Ġinconstant": 21499,
    "aby": 18109,
    "ipping": 2204,
    "Ġhabitu": 19531,
    "gl": 3290,
    "Ġstories": 10867,
    "oured": 2675,
    "Ġtutored": 20131,
    "Ġdragg": 23218,
    "Ġrelinquish": 17350,
    "Ġmiscell": 16153,
    "pursu": 11394,
    "Ġfollies": 16257,
    "Ġwrapped": 8342,
    "Ġdef": 1202,
    "Ġtweezers": 26558,
    "Ġclutches": 20021,
    "Ġadapts": 3820,
    "Ġemma": 20697,
    "Ġencode": 4365,
    "Ġsound": 2240,
    "Ġreaching": 7303,
    "Ġcleaning": 23184,
    "Ġbag": 5699,
    "Ġcased": 21349,
    "inking": 6711,
    "ckinridge": 11723,
    "Ġbankers": 24304,
    "Ġvineyard": 12334,
    "Ġdisabled": 18562,
    "Ġexistence": 4707,
    "Ġsar": 21216,
    "Ġpilgrimage": 17311,
    "Ġcrash": 12006,
    "recogn": 13429,
    "folly": 20864,
    "eli": 3878,
    "Ġrelief": 6061,
    "Ġsurviving": 24637,
    "era": 13850,
    "Ġsoliloquized": 17305,
    "Ġsimpleton": 16337,
    "Ġfigured": 16646,
    "Ġdefinitions": 22949,
    "Ġtumb": 21172,
    "Ġjeer": 24126,
    "Ġpicking": 11261,
    "Ġexagger": 12723,
    "Ġwasting": 12733,
    "Ġnoblest": 13246,
    "Ġprevented": 5943,
    "rom": 420,
    "cast": 2929,
    "Ġmemorand": 23461,
    "Ġaltering": 18105,
    "bread": 10688,
    "ult": 722,
    "abode": 21795,
    "Ġsevere": 6033,
    "considering": 12179,
    "oundered": 14167,
    "prises": 23817,
    "Ġescort": 23509,
    "sympathy": 20545,
    "Ġprivacy": 19527,
    "fitted": 17546,
    "Ġothers": 2582,
    "Ġenvironment": 3837,
    "Ġalbert": 12711,
    "Ġconfess": 3767,
    "Ġleading": 7297,
    "lacings": 26135,
    "athom": 12944,
    "Ġcarpet": 9359,
    "something": 4286,
    "Ġstronger": 8582,
    "ornamented": 26597,
    "Ġprejudices": 13473,
    "Ġdelusion": 18976,
    "Ġbenevol": 5963,
    "hawk": 7123,
    "Ġforming": 7044,
    "fab": 13719,
    "Ġmincing": 18753,
    "omet": 3077,
    "Ġferrule": 24500,
    "Ġdis": 694,
    "Ġspecific": 2002,
    "Ġlaure": 16911,
    "Ġinv": 2223,
    "Ġpurchasing": 19877,
    "found": 4216,
    "Ġavert": 14428,
    "yden": 21146,
    "rubbery": 17345,
    "civilities": 24974,
    "arthly": 8030,
    "Ġstared": 8456,
    "dient": 440,
    "Ġconstitutes": 13556,
    "wil": 8769,
    "ets": 1160,
    "form": 497,
    "Ġspo": 6846,
    "porary": 14552,
    "Ġge": 1978,
    "frozen": 25142,
    "Ġcomparing": 14267,
    "Ġconversed": 13192,
    "riet": 18183,
    "abounding": 25980,
    "Ġintegrity": 12317,
    "Ġnaught": 8128,
    "Ġliked": 5265,
    "Ġconvul": 13207,
    "Ġjewelled": 20186,
    "Ġellenborough": 26155,
    "Ġdrows": 21438,
    "brance": 7284,
    "icket": 22671,
    "Ġprofund": 13157,
    "leful": 17844,
    "Ġfervour": 19729,
    "romeda": 17265,
    "wretchedness": 17255,
    "opius": 18507,
    "Ġwick": 2007,
    "Ġminima": 3466,
    "Ġhearts": 4972,
    "attacked": 23124,
    "_),": 7127,
    "Ġdefence": 11069,
    "iline": 21724,
    "security": 26208,
    "ifying": 5252,
    "thy": 2935,
    "Ġvac": 5025,
    "iner": 2674,
    "Ġtheirs": 7026,
    "shut": 10982,
    "Ġcontempt": 6277,
    "Ġcruising": 6913,
    "living": 7135,
    "Ġxlvi": 25591,
    "servants": 15040,
    "Ġflapp": 23012,
    "Ġvolley": 24148,
    "Ġwoeful": 19622,
    "cherish": 24552,
    "measure": 10034,
    "Ġsperma": 19051,
    "Ġsubsequent": 7659,
    "Ġsap": 18323,
    "paws": 21031,
    "Ġpenet": 6888,
    "Ġarabian": 9093,
    "Ġprepared": 5878,
    "Ġsitt": 21220,
    "irc": 1730,
    "Ġrecip": 16145,
    "Ġjunk": 15957,
    "manif": 14376,
    "Ġkin": 15908,
    "maritime": 24176,
    "Ġhold": 2242,
    "stall": 21649,
    "Ġconnivance": 25226,
    "Ġweal": 21924,
    "Ġhurrah": 9872,
    "Ġsmoothe": 23661,
    "Ġbalmoral": 16211,
    "Ġcomprehending": 24445,
    "bur": 4688,
    "left": 6976,
    "Ġshri": 5375,
    "repressed": 21246,
    "Ġsong": 5904,
    "Ġemigrant": 25860,
    "Ġveneration": 25047,
    "Ġracket": 22662,
    "Ġfrederick": 15591,
    "Ġmob": 16021,
    "Ġcasement": 25095,
    "Ġsauntering": 18327,
    "Ġextremities": 19198,
    "Ġkeep": 2354,
    "cils": 20816,
    "Ġtablets": 13159,
    "Ġburned": 8634,
    "Ġbro": 1429,
    "ays": 6685,
    "Ġturnkeys": 23031,
    "Ġmixing": 24937,
    "exercise": 17462,
    "Ġparac": 12800,
    "Ġpersonal": 7480,
    "ibank": 6880,
    "Ġandrew": 21510,
    "jected": 22715,
    "Ġparch": 11730,
    "Ġpick": 4258,
    "Ġrelieve": 8224,
    "rogress": 21539,
    "exagger": 22434,
    "Ġnotes": 7189,
    "Ġcure": 21343,
    "Ġgothic": 18002,
    "erland": 9643,
    "simply": 20673,
    "Ġmates": 4873,
    "Ġcarriages": 11100,
    "Ġenclosure": 20627,
    "Ġph": 1548,
    "welcome": 10004,
    "pretending": 17042,
    "Ġspeechless": 13358,
    "Ġpointed": 4774,
    "Ġstands": 5259,
    ",âĢĶ": 3171,
    "Ġbequest": 21757,
    "Ġpile": 8425,
    "Ġpills": 21469,
    "Ġdarkness": 4279,
    "Ġpainful": 6463,
    "leading": 15566,
    "hills": 13739,
    "Ġtransferred": 16456,
    "Ġshutter": 16673,
    "arius": 14251,
    "Ġoccurrence": 14385,
    "Ġbelshazzar": 16230,
    "Ġeste": 6085,
    "Ġconjunction": 25103,
    "ullied": 23107,
    "omed": 13978,
    "folio": 10549,
    "Ġopen": 1550,
    "Ġclerical": 25569,
    "Ġwil": 4580,
    "irement": 18356,
    "whaler": 20312,
    "atigable": 15274,
    "address": 14884,
    "birth": 15325,
    "Ġcomposed": 8895,
    "Ġhusbands": 16645,
    "83": 13684,
    "pervading": 18966,
    "Ġfairy": 14629,
    "Ġdemonstrate": 24997,
    "Ġfiltering": 23930,
    "idled": 21772,
    "Ġresting": 7962,
    "rope": 3186,
    "ĠĠĠĠĠĠĠĠĠĠĠĠĠĠĠĠĠĠĠĠĠĠĠĠĠĠĠĠĠĠĠĠĠĠĠĠĠĠĠĠ": 4517,
    "Ġstubb": 1787,
    "row": 1065,
    "ologically": 22887,
    "Ġhas": 825,
    "Ġforgot": 4684,
    "Ġtrough": 15974,
    "Ġanew": 11432,
    "listen": 13517,
    "wandered": 20288,
    "women": 15459,
    "Ġnomine": 26458,
    "Ġgould": 17992,
    "travelling": 24338,
    "Ġportcullis": 26605,
    "Ġcuriously": 13019,
    "Ġunfinished": 19512,
    "domestic": 19828,
    "Ġglory": 6066,
    "Ġrespect": 1670,
    "bench": 16805,
    "Ġarts": 11010,
    "thro": 12766,
    "midnight": 14905,
    "Ġ61": 24364,
    "Ġunc": 2124,
    "10": 17475,
    "tumultuously": 25614,
    "Ġlordly": 23747,
    "Ġcalves": 13040,
    "drovand": 24759,
    "Ġenderby": 13655,
    "Ġtows": 19565,
    "brimmed": 14590,
    "Ġhissing": 15794,
    "emotions": 15801,
    "Ġhaste": 9006,
    "conclusions": 25673,
    "night": 2167,
    "itering": 17820,
    "Ġexclusiveness": 23931,
    "Ġparts": 4166,
    "Ġwhereupon": 14296,
    "Ġextort": 22740,
    "Ġrecollections": 10515,
    "Ġsensation": 6896,
    "daw": 17524,
    "Ġvers": 7564,
    "Ġclimax": 25054,
    "hurry": 24762,
    "iny": 4295,
    "throughout": 24092,
    "Ġhenry": 5197,
    "asol": 21543,
    "Ġencircling": 26273,
    "Ġadmirals": 20388,
    "Ġfeeds": 16436,
    "Ġdisagreeable": 9301,
    "plenty": 14090,
    "loss": 22510,
    "Ġanomalously": 25639,
    "maj": 18805,
    "horrors": 20544,
    "Ġcalamities": 25700,
    "Ġduly": 13355,
    "Ġlover": 7193,
    "ensity": 11817,
    "endeavour": 17032,
    "Ġis": 347,
    "Ġ34": 16679,
    "Ġintolerably": 15833,
    "Ġformations": 18751,
    "Ġrefused": 6717,
    "Ġtraitors": 23080,
    "Ġcleanse": 24527,
    "Ġtraged": 9355,
    "Ġfedallah": 6110,
    "ay": 354,
    "Ġconver": 807,
    "ksome": 10107,
    "Ġshaggy": 13574,
    "Ġprecise": 7077,
    "Ġblight": 18819,
    "aster": 1867,
    "Ġcrushing": 20179,
    "Ġswims": 12124,
    "onsensical": 18577,
    "Ġunst": 18239,
    "Ġunprecedented": 15858,
    "darted": 20834,
    "Ġtrusted": 10520,
    "Ġpractical": 3165,
    "bones": 8372,
    "Ġblunder": 18820,
    "Ġstaggering": 20276,
    "Ġobtru": 18672,
    "mish": 17600,
    "bearance": 22497,
    "Ġexclaiming": 13645,
    "ested": 3482,
    "bbings": 19278,
    "honor": 19902,
    "Ġalice": 1483,
    "family": 7324,
    "ague": 3911,
    "Ġserpentine": 11362,
    "Ġthw": 21518,
    "commanded": 16990,
    "Ġtears": 4233,
    "Ġgeneralize": 3102,
    "enance": 3372,
    "bergs": 18696,
    "Ġfrenchman": 11285,
    "Ġmysteriously": 24602,
    "officer": 17055,
    "Ġdepos": 11009,
    "Ġbravely": 23842,
    "attentive": 17192,
    "supers": 22650,
    "Ġoverhanging": 22369,
    "mown": 20972,
    "Ġdies": 11596,
    "Ġelud": 22652,
    "laden": 14932,
    "Ġniag": 21533,
    "assistance": 20373,
    "Ġhimself": 1351,
    "Ġpleasantly": 14522,
    "mission": 5971,
    "Ġsober": 10913,
    "Ġcontradict": 12389,
    "Ġtooks": 23330,
    "onde": 21254,
    "various": 10400,
    "allows": 15911,
    "Ġcomplexion": 8210,
    "Ġidiotic": 25589,
    "written": 7995,
    "Ġkra": 18349,
    "Ġfain": 5809,
    "Ġuncommon": 5026,
    "Ġpaddock": 25040,
    "athed": 7828,
    "ivial": 15864,
    "Ġthirt": 13942,
    "Ġheroines": 19754,
    "sim": 6511,
    "Ġbespe": 19244,
    "Ġhorribly": 16346,
    "Ġtren": 17723,
    "Ġflamingo": 15104,
    "Ġfiner": 13058,
    "ni": 1594,
    "Ġconsum": 9802,
    "Ġlobster": 11391,
    "convenient": 12242,
    "Ġheadsman": 13278,
    "uish": 5431,
    "royal": 11395,
    "Ġkissed": 10048,
    "nantucket": 7804,
    "Ġundue": 25994,
    "atter": 662,
    "blue": 13697,
    "imately": 12693,
    "Ġeclips": 20699,
    "Ġcanterbury": 22174,
    "remarks": 23192,
    "brous": 19201,
    "Ġboxed": 24360,
    "osing": 3690,
    "Ġgrim": 7439,
    "precaution": 23826,
    "Ġvisiting": 10360,
    "Ġmeagre": 21814,
    "Ġteased": 18794,
    "Ġrepositories": 23367,
    "boards": 23258,
    "were": 2558,
    "contains": 16034,
    "Ġtragic": 15259,
    "concerned": 24639,
    "Ġdiscredit": 22785,
    "Ġbottled": 23798,
    "ings": 630,
    "Ġcin": 13878,
    "ouble": 2664,
    "Ġrepugnance": 19088,
    "Ġsunrise": 9376,
    "Ġfountain": 7365,
    "atered": 22076,
    "Ġknob": 24407,
    "isions": 6132,
    "Ġunlikely": 10910,
    "Ġfig": 3626,
    "ortations": 22261,
    "Ġ35": 24081,
    "oll": 5456,
    "Ġpervers": 11787,
    "Ġdisent": 22527,
    "Ġthreats": 13381,
    "Ġdew": 14046,
    "tie": 21071,
    "advanced": 19591,
    "Ġharris": 13930,
    "Ġexig": 21830,
    "Ġresearch": 3453,
    "Ġalone": 2566,
    "âĢ": 294,
    "aried": 10989,
    "Ġsituated": 9451,
    "gies": 13729,
    "Ġgrandfather": 19425,
    "precious": 12077,
    "Ġexponentiating": 3446,
    "Ġ69": 19664,
    "Ġmounting": 19980,
    "Ġchocks": 13350,
    "Ġmajor": 13296,
    "Ġbeaten": 10531,
    "ordered": 8794,
    "terms": 15755,
    "native": 17613,
    "Ġbrut": 18769,
    "Ġgay": 5535,
    "haven": 20914,
    "Ġpossibly": 4514,
    "Ġlive": 2738,
    "deaux": 22152,
    "Ġmore": 677,
    "Ġjagged": 18408,
    "Ġsmell": 7216,
    "Ġswallowed": 7944,
    "Ġprofessional": 7299,
    "arranged": 19321,
    "Ġr": 405,
    "Ġ2": 2930,
    "humanity": 24840,
    "Ġoakshott": 12234,
    "Ġtenderly": 11316,
    "proved": 11991,
    "corpse": 24486,
    "Ġdejected": 20307,
    "Ġpractises": 23314,
    "omination": 21645,
    "Ġstead": 5650,
    "Ġajar": 21205,
    "Ġfrequ": 3328,
    "Ġglass": 4370,
    "ĠĠĠĠĠĠĠĠĠĠĠĠĠĠĠĠĠĠĠĠĠĠĠĠĠĠĠĠ": 9978,
    "brow": 15319,
    "unw": 14060,
    "Ġlikened": 16502,
    "Ġmarble": 7670,
    "lilies": 20963,
    "Ġimproper": 22755,
    "Ġfumbling": 21420,
    "Ġam": 660,
    "guilty": 19486,
    "across": 10327,
    "Ġcups": 16884,
    "Ġefficient": 1061,
    "Ġmeadow": 17154,
    "Ġvelvets": 25394,
    "Ġcounter": 6482,
    "chance": 6827,
    "Ġimpreg": 15991,
    "Ġincites": 22555,
    "Ħ": 231,
    "whip": 22241,
    "Ġinclusive": 24166,
    "Ġknock": 9976,
    "blind": 16704,
    "aurus": 20563,
    "tically": 3393,
    "ateness": 15523,
    "Ġdistillation": 16048,
    "Ġhonorable": 16878,
    "Ġcoleridge": 18768,
    "Ġ91": 24590,
    "Ġmeditate": 16709,
    "rim": 7139,
    "other": 1313,
    "Ġthreading": 23405,
    "atra": 17773,
    "ument": 5239,
    "zas": 17714,
    "Ġstroke": 6936,
    "Ġdie": 3966,
    "Ġfluctuations": 5516,
    "Ġboldness": 24428,
    "Ġhoist": 11981,
    "perv": 1582,
    "circumspect": 26087,
    "castle": 3350,
    "conjectured": 25182,
    "Ġstore": 8455,
    "beam": 16042,
    "oper": 7347,
    "iece": 3230,
    "Ġlacey": 10200,
    "Ġcous": 3436,
    "Ġwearily": 18180,
    "Ġcounterpart": 24720,
    "Ġrequirements": 9792,
    "surely": 10572,
    "iancy": 13014,
    "teous": 16175,
    "pton": 15796,
    "Ġmales": 17807,
    "oregressive": 3424,
    "Ġburglar": 17357,
    "arb": 1563,
    "Ġenable": 685,
    "Ġpallor": 13519,
    "seeking": 17155,
    "Ġprodu": 1208,
    "irium": 8162,
    "Ġovertook": 18430,
    "Ġfleecy": 17025,
    "Ġstuffed": 13413,
    "Ġflames": 7940,
    "Ġhoops": 9392,
    "Ġdiffer": 18678,
    "Ġrecent": 7436,
    "Ġcourtesy": 9948,
    "Ġquadrant": 11406,
    "protected": 19923,
    "aud": 8524,
    "Ġprison": 5403,
    "mankind": 14377,
    "Ġjesty": 18406,
    "Ġcould": 703,
    "Ġtelegra": 11894,
    "Ġgathered": 8444,
    "Ġcarries": 7675,
    "Ġbounty": 26439,
    "Ġsatirical": 26281,
    "guinea": 16675,
    "Ġvolition": 14801,
    "Ġbelow": 4064,
    "Ġfriday": 14491,
    "Ġsult": 10769,
    "Ġpeeled": 14321,
    "Ġauthority": 7749,
    "¯": 112,
    "lengths": 24847,
    "Ġbount": 15572,
    "Ġthumb": 6982,
    "Ġlast": 1121,
    "audible": 17135,
    "rived": 5373,
    "Ġsloping": 11943,
    "Ġdominion": 16519,
    "Ġcondescension": 10621,
    "Ġfreed": 7267,
    "hounds": 20909,
    "rece": 21237,
    "fiery": 13585,
    "Ġbosoms": 16797,
    "Ġstoutly": 16926,
    "holmes": 4431,
    "Ġnostrils": 10945,
    "Ġorganization": 7984,
    "Ġmiller": 19885,
    "bular": 15317,
    "Ġreminiscences": 26271,
    "ouder": 17902,
    "Ġstiff": 6993,
    "Ġacquainted": 5179,
    "Ġheadache": 22900,
    "aments": 12730,
    "hide": 10705,
    "Ġapplies": 11957,
    "Ġenveloped": 12213,
    "ificent": 8184,
    "dare": 12458,
    "twelvemonth": 25863,
    "Ġhumming": 12991,
    "Ġthereby": 7645,
    "Ġsensitiveness": 23738,
    "Ġst": 332,
    "Ġbambooz": 26120,
    "Ġfastening": 16363,
    "70": 17478,
    "olds": 9314,
    "mot": 17598,
    "Ġconcerned": 5332,
    "Ġromish": 19587,
    "Ġspirits": 3698,
    "Ġcomfits": 21851,
    "ul": 371,
    "Ġboards": 14304,
    "Ġunwillingly": 15852,
    "Ġinvested": 7279,
    "Ġsant": 21217,
    "ethics": 8881,
    "aguy": 21914,
    "Ġmocking": 24006,
    "Ġportraits": 20145,
    "Ġdetect": 1279,
    "guard": 12133,
    "Ġlicence": 25099,
    "Ġeffective": 1248,
    "Ġspread": 5161,
    "Ġarea": 14189,
    "ineering": 21971,
    "bott": 9109,
    "Ġsixth": 16561,
    "crew": 7545,
    "Ġentailed": 11029,
    "Ġnovelty": 13467,
    "aract": 17896,
    "Ġdaylight": 10353,
    "buff": 15322,
    "Ġappare": 12822,
    "enough": 6810,
    "welcomed": 24645,
    "Ġshows": 8485,
    "Ġrequisition": 22634,
    "Ġclue": 7021,
    "Ġjoyful": 13226,
    "proceed": 8979,
    "Ġluc": 3311,
    "Ġske": 4816,
    "idol": 21770,
    "Ġcanoes": 12812,
    "Ġdearly": 10404,
    "Ġscreaming": 13427,
    "Ġern": 8397,
    "humor": 19455,
    "Ġtort": 5903,
    "Ġcouldn": 7650,
    "Ġseeking": 7037,
    "place": 4155,
    "oting": 2749,
    "âĢĶâĢľ_": 13208,
    "flaming": 23973,
    "Ġbriony": 9332,
    "nailed": 20998,
    "Ġparticip": 16135,
    "Ġrooms": 5180,
    "swim": 16781,
    "Ġdissol": 18552,
    "Ġwires": 21298,
    "remarkable": 13501,
    "Ġnomin": 10193,
    "Ġlaz": 7378,
    "clock": 3938,
    "inkling": 16094,
    "Ġconflagration": 26366,
    "Ġblasphemer": 26117,
    "Ġunsc": 22016,
    "Ġassociations": 14966,
    "turn": 4293,
    "Ġstraggling": 23754,
    "Ġtrepidation": 19218,
    "Ġdiscerned": 25006,
    "surprise": 9533,
    "Ġhoping": 11105,
    "writ": 16555,
    "st": 316,
    "gen": 6504,
    "Ġrestoration": 19028,
    "Ġcunning": 6240,
    "Ġcareful": 2610,
    "frantic": 24285,
    "beef": 18524,
    "Ġawfulness": 23589,
    "Ġmuslin": 19386,
    "tables": 19760,
    "arrival": 15604,
    "Ġintervened": 25482,
    "Ġpaper": 4284,
    "attempt": 9363,
    "Ġmont": 8562,
    "ibule": 13012,
    "bale": 20776,
    "Ġmixed": 6975,
    "Ġnimble": 21531,
    "Ġpositive": 2296,
    "fes": 20853,
    "Ġtenants": 23549,
    "Ġgamb": 18000,
    "Ġpowder": 11277,
    "Ġcuff": 17831,
    "showed": 16029,
    "shine": 9291,
    "Ġdispose": 23882,
    "remain": 9841,
    "accounted": 16504,
    "eg": 17531,
    "Ġburying": 19254,
    "Ġshower": 11714,
    "anqu": 4112,
    "Ġwondrous": 4736,
    "Ġbrink": 18771,
    "Ġfunctions": 1339,
    "Ġpaddington": 17096,
    "Ġclothes": 4997,
    "shoals": 24716,
    "Ġintimidated": 24802,
    "Ġevent": 2951,
    "Ġclothed": 19609,
    "Ġloath": 7890,
    "Ġency": 21937,
    "Ġdevelopment": 7060,
    "ishop": 9748,
    "Ġredoubled": 23756,
    "Ġsnuffing": 25015,
    "Ġslave": 7454,
    "ifix": 21907,
    "Ġextinct": 14337,
    "Ġschedules": 3387,
    "Ġformerly": 7494,
    "Ġtravelling": 11309,
    "Ġ6": 5141,
    "Ġgain": 4829,
    "Ġreprehensible": 15703,
    "Ġloss": 824,
    "Ġimposed": 14213,
    "Ġchast": 18380,
    "herself": 4891,
    "Ġproposition": 23253,
    "xible": 13811,
    "Ġtransformer": 2638,
    "Ġnonce": 23237,
    "float": 19808,
    "fair": 10095,
    "degrad": 22147,
    "Ġphenomenon": 17919,
    "Ġunpardonable": 22064,
    "shipped": 18492,
    "Ġrepining": 23363,
    "Ġmuhammad": 26170,
    "Ġactually": 5389,
    "county": 25397,
    "Ġheav": 1850,
    "Ġinformed": 6719,
    "pivot": 21033,
    "Ġsole": 3297,
    "Ġinter": 726,
    "Ġ92": 24591,
    "Ġbuttoning": 17238,
    "Ġdaybreak": 18728,
    "trimmed": 23952,
    "correct": 24483,
    "Ġduplicity": 25332,
    "wr": 3029,
    "ublic": 11229,
    "Ġgrate": 12969,
    "Ġabominate": 20068,
    "Ġsummits": 14685,
    "Ġbrah": 19360,
    "Ġdramat": 23219,
    "Ġbrows": 13305,
    "Ġsyntax": 959,
    "ien": 10104,
    "Ġlighted": 7065,
    "Ġelephant": 8256,
    "Ġtist": 21165,
    "Ġsting": 10863,
    "Ġhasty": 10479,
    "lined": 12488,
    "fit": 6648,
    "lo": 680,
    "awk": 23116,
    "ulgences": 21869,
    "wherever": 13123,
    "ancient": 9658,
    "Ġconfeder": 25708,
    "Ġdiab": 10614,
    "Ġaskance": 23151,
    "Ġhomeless": 23390,
    "Ġtransfer": 2207,
    "Ġindolence": 16233,
    "Ġconsoling": 19460,
    "Ġd": 284,
    "allingly": 22203,
    "umbent": 12094,
    "Ġincom": 9772,
    "inkled": 5477,
    "hair": 9125,
    "crowded": 20193,
    "Ġpawnbroker": 13662,
    "Ġgift": 10842,
    "Ġinsensibility": 17111,
    "Ġnephews": 24712,
    "estic": 4956,
    "Ġbraces": 14672,
    "Ġwond": 3944,
    "tisement": 6768,
    "Ġbestow": 6456,
    "Ġdecks": 6900,
    "seam": 10876,
    "Ġmead": 8839,
    "lets": 7836,
    "umn": 5836,
    "Ġsuspicions": 9482,
    "Ġclimate": 9276,
    "Ġtalks": 23373,
    "Ġallurements": 22011,
    "Ġintegrated": 13534,
    "grew": 17557,
    "Ġhaving": 1880,
    "Ġruns": 8598,
    "Ġregrets": 18601,
    "Ġshaft": 18230,
    "opy": 4458,
    "hearty": 14837,
    "ĠĠĠĠĠĠĠĠĠĠĠĠĠĠĠĠĠĠĠĠĠĠĠĠĠĠĠĠĠĠĠĠĠĠĠĠĠĠĠ": 19261,
    "ctors": 21593,
    "dilig": 17285,
    ")âĢĶ": 20744,
    "isome": 17850,
    "Ġsymbolize": 24963,
    "hook": 12057,
    "ieged": 22581,
    "Ġafric": 8907,
    "elijah": 19476,
    "Ġconvention": 25547,
    "Ġtwain": 16123,
    "close": 9989,
    "Ġnorris": 23204,
    "Ġfaces": 6010,
    "Ġcraft": 4377,
    "Ġtroubles": 19442,
    "totally": 25418,
    "cated": 20805,
    "Ġchambermaid": 24306,
    "Ġshivered": 14111,
    "Ġsurvivors": 25732,
    "[": 63,
    "Ġpotency": 14648,
    "luckily": 19755,
    "wled": 15457,
    "Ġhatherley": 7849,
    "Ġcapture": 3385,
    "avish": 22597,
    "Ġentirely": 3433,
    "thrasher": 25659,
    "Ġtiny": 11555,
    "Ġradiating": 24331,
    "Ġwould": 649,
    "Ġampl": 22484,
    "Ġ42": 16680,
    "terns": 21826,
    "100": 11466,
    "Ġsalesman": 13672,
    "&": 10,
    "Ġrecommend": 7104,
    "declined": 25175,
    "Ġins": 2784,
    "ilingly": 21727,
    "seated": 11675,
    "Ġcurls": 22985,
    "Ġmasks": 23331,
    "computer": 2005,
    "thoughtfully": 24050,
    "Ġcontinual": 6778,
    "Ġoutermost": 22323,
    "Ġhide": 4589,
    "Ġsluggish": 25891,
    "misfortunes": 16758,
    "Ġlascar": 9202,
    "Ġdisordered": 16059,
    "Ġglac": 9349,
    "Ġflourishing": 25188,
    "itying": 21998,
    "Ġentertain": 6055,
    "its": 1149,
    "terrible": 8468,
    "them": 3020,
    "ctuous": 9208,
    "comparatively": 25841,
    "Ġholder": 6726,
    "Ġhearse": 10422,
    "Ġnose": 4403,
    "Ġbottles": 16573,
    "card": 11477,
    "lessness": 5318,
    "vy": 21110,
    "Ġequator": 7462,
    "inquire": 16934,
    "lant": 20949,
    "Ġglistened": 20175,
    "Ġtattooing": 15030,
    "deacon": 22151,
    "cross": 3578,
    "Ġmockery": 12112,
    "Ġconstantinople": 19840,
    "Ġprophet": 7682,
    "Ġshops": 22005,
    "Ġovercame": 9749,
    "Ġcrunched": 19122,
    "Ġpositional": 2596,
    "Ġoutrage": 15962,
    "Ġsensitive": 13203,
    "Ġband": 5292,
    "Ġarri": 2553,
    "Ġgirdle": 19160,
    "Ġsentry": 19027,
    "Ġbildad": 3784,
    "germ": 15360,
    "wered": 2693,
    "house": 4079,
    "create": 24162,
    "Ġaccelerating": 1618,
    "Ġfru": 8421,
    "Ġlid": 6984,
    "Ġtranquil": 7310,
    "Ġmeryton": 4438,
    "Ġreigning": 15705,
    "Ġpair": 5706,
    "une": 2789,
    "anting": 6413,
    "alty": 17941,
    "Ġloaf": 15876,
    "age": 506,
    "Ġinstantaneous": 14613,
    "evil": 11488,
    "unicorn": 21893,
    "Ġstrives": 23699,
    "forecastle": 10992,
    "Ġ(": 596,
    "unvarying": 21891,
    "osely": 9268,
    "ieve": 1660,
    "Ġimproves": 22756,
    "Ġvine": 8474,
    "Ġimplac": 24875,
    "Ġparadise": 11197,
    "cy": 655,
    "ï": 176,
    "Ġcrying": 10788,
    "Ġerrone": 14433,
    "Ġdatasets": 2388,
    "Ġcivilly": 19606,
    "Ġdint": 15595,
    "Ġflogged": 23626,
    "Ġabusing": 18394,
    "Ġgul": 7860,
    "Ġhurst": 5582,
    "Ġrobbery": 11925,
    "Ġglowing": 12287,
    "Ġinfatuation": 25858,
    "Ġhabitation": 14806,
    "Ġchurch": 4712,
    "Ġsignific": 3831,
    "name": 6796,
    "strangers": 20339,
    "Ġnathan": 21529,
    "Ġunrel": 14698,
    "Ġour": 1012,
    "commodore": 20628,
    "Ġnom": 21522,
    "Ġencouraging": 2260,
    "Ġfagged": 17884,
    "Ġkno": 5241,
    "Ġcombined": 8550,
    "spring": 7231,
    "Ġeternally": 11371,
    "Ġnumberless": 16419,
    "Ġhud": 10824,
    "bank": 10082,
    "expect": 4770,
    "destroyed": 15264,
    "infall": 21191,
    "request": 21244,
    "trembling": 17145,
    "Ġpreternatural": 12828,
    "fancy": 7337,
    "Ġtar": 2563,
    "Ġswarm": 23055,
    "Ġartful": 22612,
    "century": 20050,
    "Ġber": 5698,
    "Ġhanged": 17927,
    "Ġbest": 1975,
    "Ġinclination": 6626,
    "Ġrooted": 13173,
    "Ġanalyzing": 18809,
    "Ġtremulous": 14989,
    "Ġtinker": 15135,
    "Ġbul": 3293,
    "perai": 10278,
    "fortunes": 6334,
    "Ġundeserving": 18269,
    "supposing": 24137,
    "Ġuntoward": 19167,
    "Ġstages": 14007,
    "Ġimportance": 4901,
    "violence": 16480,
    "Ġbent": 5149,
    "sme": 17660,
    "Ġbal": 1131,
    "Ġroute": 11383,
    "Ġquohog": 10974,
    "lipped": 16220,
    "ario": 14250,
    "historical": 20469,
    "attacks": 23125,
    "Ġultimately": 17167,
    "Ġprof": 2459,
    "Ġcongregated": 20100,
    "iag": 20918,
    "sutherland": 21065,
    "rimsh": 17029,
    "Ġwallowing": 24049,
    "Ġdetained": 18387,
    "Ġjoyfully": 19349,
    "Ġbor": 5805,
    "Ġ81": 24457,
    "Ġextravag": 11254,
    "Ġpand": 21458,
    "Ġvanish": 8930,
    "d": 72,
    "brink": 23578,
    "ĠĠ": 352,
    "Ġtreats": 19347,
    "spot": 9793,
    "Ġdisregard": 22532,
    "Ġdial": 10812,
    "Ġfreckled": 18960,
    "continuing": 24479,
    "fully": 2200,
    "Ġfitting": 21411,
    "interval": 7991,
    "Ġdisadvantages": 18559,
    "Ġallev": 18103,
    "athies": 22703,
    "Ġsimilarly": 24310,
    "electricity": 26387,
    "Ġfeverish": 11350,
    "felicity": 25143,
    "received": 9641,
    "Ġaright": 11744,
    "che": 3172,
    "appetite": 22849,
    "Ġqueequeg": 2014,
    "Ġjumping": 13346,
    "Ġglimmering": 25241,
    "Ġtumult": 7116,
    "mate": 5359,
    "cess": 544,
    "goin": 23406,
    "consult": 24172,
    "Ġjeroboam": 10603,
    "Ġendangered": 16306,
    "cleanliness": 25872,
    "Ġbishop": 13905,
    "Ġunrolled": 22040,
    "disappointed": 25192,
    "curious": 10485,
    "ledge": 1328,
    "Ġyawn": 7611,
    "Ġwindpipe": 23108,
    "Ġquite": 1740,
    "adel": 15733,
    "Ġpsal": 15620,
    "Ġrecogn": 2669,
    "passenger": 24169,
    "Ġfour": 2212,
    "Ġcease": 7078,
    "Ġofficial": 7083,
    "ient": 394,
    "Ġmak": 10780,
    "Ġcloser": 8663,
    "Ġperturbed": 20443,
    "Ġcauses": 2561,
    "Ġdons": 17890,
    "slightest": 25417,
    "Ġstolen": 14010,
    "quarrel": 20018,
    "Ġastern": 6091,
    "Ġunspeak": 8854,
    "Ġbump": 9662,
    "Ġpays": 13301,
    "Ġisn": 7866,
    "Ġstreams": 12197,
    "Ġimpatience": 7510,
    "Ġdeep": 796,
    "iop": 20921,
    "philosophy": 13584,
    "Ġpuzz": 5533,
    "Ġann": 4489,
    "pipe": 8700,
    "Ġprinciple": 6771,
    "Ġprynne": 25541,
    "Ġtranquillity": 7537,
    "Ġchick": 22251,
    "Ġfarmhouse": 24987,
    "Ġharshly": 25250,
    "outside": 12809,
    "scream": 11078,
    "Ġgodson": 23361,
    "happened": 9436,
    "Ġsn": 2950,
    "Ġfiendish": 13332,
    "Ġcommenting": 25229,
    "Ġtongue": 6349,
    "Ġiroqu": 21627,
    "Ġstowed": 21740,
    "Ġunsolved": 22035,
    "bene": 6114,
    "Ġlabor": 10420,
    "Ġboisterously": 25683,
    "Ġpled": 17909,
    "Ġvulture": 17342,
    "Ġdescending": 8906,
    "ari": 672,
    "Ġheading": 8938,
    "iates": 13740,
    "Ġnay": 5711,
    "Ġzigzag": 26274,
    "Ġprince": 18974,
    "Ġgroping": 13669,
    "Ġrug": 16162,
    "Ġinduced": 8674,
    "Ġanim": 2113,
    "studies": 25170,
    "Ġchatting": 24746,
    "Ġfrankness": 16748,
    "og": 868,
    "Ġprevent": 755,
    "_)âĢĶ": 20147,
    "osition": 1374,
    "acknowledged": 15206,
    "Ġholes": 16412,
    "?_âĢĿ": 12320,
    "enterprise": 24995,
    "Ġsigns": 2441,
    "Ġbert": 4582,
    "anean": 7443,
    "89": 20761,
    "Ġunfathom": 14793,
    "Ġwives": 12560,
    "deceit": 25557,
    "Ġsharply": 9406,
    "Ġsolemnity": 9944,
    "Ġthereof": 22372,
    "adow": 18090,
    "Ġcas": 8412,
    "Ġtong": 4871,
    "Ġattractive": 25577,
    "Ġprize": 11952,
    "alogue": 25163,
    "neighbour": 7211,
    "greeting": 24554,
    "unity": 4153,
    "elevating": 20409,
    "Ġreced": 15696,
    "Ġevil": 3808,
    "1775": 26380,
    "Ġadrift": 11726,
    "Ġjuicy": 25371,
    "Ġdeny": 7489,
    "Ġfel": 1518,
    "Ġpaltry": 16693,
    "word": 2488,
    "Ġflapped": 23015,
    "ib": 1237,
    "Ġramadan": 9578,
    "Ġunfolding": 17087,
    "Ġprem": 3426,
    "Ġrichness": 19313,
    "Ġtelegraph": 25584,
    "Ġcast": 3608,
    "Ġwithheld": 18117,
    "anks": 3921,
    "Ġtook": 1854,
    "ary": 987,
    "Ġmale": 9651,
    "Ġadmitting": 19185,
    "Ġannoy": 17201,
    "finding": 17015,
    "shock": 19857,
    "Ġblaming": 22933,
    "Ġindisp": 18836,
    "inch": 10757,
    "Ġpieces": 7369,
    "Ġstaggers": 24654,
    "lings": 8749,
    "herald": 22209,
    "Ġalternate": 19989,
    "Ġhighest": 3531,
    "loud": 11503,
    "enary": 12556,
    "co": 2433,
    "Ġdevoutly": 25834,
    "Ġrevolt": 24504,
    "ural": 504,
    "Ġmusical": 23896,
    "Ġpowdered": 24240,
    "Ġmcc": 21309,
    "foam": 24418,
    "Ġstirs": 14920,
    "Ġhalting": 16277,
    "mai": 22916,
    "Ġindignant": 12244,
    "died": 11482,
    "Ġaccursed": 9449,
    "Ġwest": 5219,
    "Ġinflu": 4910,
    "myst": 9825,
    "fur": 6357,
    "loun": 17590,
    "uction": 15446,
    "Ġpurchase": 12264,
    "Ġkeepers": 23541,
    "ask": 856,
    "Ġpreside": 18366,
    "Ġremonstrate": 22799,
    "Ġscand": 7203,
    "Ġtacit": 21177,
    "expected": 5780,
    "Ġplague": 11828,
    "invari": 21187,
    "ipotent": 10961,
    "irectly": 6940,
    "Ġconjectures": 16927,
    "indian": 11781,
    "Ġare": 527,
    "Ġcerem": 7079,
    "argue": 21447,
    "Ġprejudiced": 24806,
    "Ġblinds": 8007,
    "sick": 13787,
    "Ġtarget": 2825,
    "Ġch": 511,
    "Ġpregn": 22236,
    "Ġangular": 19209,
    "Ġ90": 24589,
    "Ġshiver": 12772,
    "Ġattracted": 8911,
    "Ġimitated": 18330,
    "dw": 3333,
    "Ĭ": 237,
    "Ġsuspects": 16892,
    "Ġdrove": 4984,
    "_,âĢĿ": 6220,
    "Ġimbalance": 22178,
    "us": 531,
    "sust": 15425,
    "deception": 22149,
    "hend": 13257,
    "Ġadmirable": 8269,
    "ousand": 2429,
    "Ġmusic": 5269,
    "Ġcub": 8415,
    "Ġnantucket": 2842,
    "Ġtested": 23214,
    "Ġseverity": 15824,
    "Ġexhausting": 24709,
    "Ġdines": 21426,
    "devils": 20036,
    "wester": 21141,
    "tranquillity": 20549,
    "set": 3870,
    "Ġunceasing": 20361,
    "Ġwaves": 3923,
    "princip": 17139,
    "Ġaccomplish": 14879,
    "Ġthinking": 4034,
    "Ġparis": 8179,
    "Ġsemblance": 20736,
    "Ġsequential": 2131,
    "Ġevents": 4472,
    "Ġbead": 21754,
    "awn": 3838,
    "Ġsociety": 3981,
    "unhes": 21879,
    "ruding": 9727,
    "Ġstarbuck": 2192,
    "Ġbunch": 11328,
    "laugh": 10111,
    "occupations": 24967,
    "der": 468,
    "Ġslighter": 18942,
    "oqu": 7556,
    "gration": 9124,
    "keel": 14131,
    "smart": 23910,
    "Ġmu": 17797,
    "Ġsang": 12540,
    "blo": 6355,
    "Ġenvelopes": 24510,
    "peril": 18338,
    "sterdam": 19091,
    "consequ": 18505,
    "uneasiness": 23691,
    "Ġsees": 8847,
    "Ġmortals": 9919,
    "Ġunjust": 8486,
    "stool": 23823,
    "pract": 10122,
    "strange": 6087,
    "jaw": 13746,
    "Ġrecklessness": 24744,
    "Ġardent": 9973,
    "Ġcannon": 14158,
    "ly": 319,
    "Ġancestry": 25642,
    "ove": 1742,
    "much": 3706,
    "Ġ72": 19614,
    "Ġivory": 4476,
    "Ġsupports": 3051,
    "Ġcrews": 8993,
    "Ġstraits": 7994,
    "sings": 4253,
    "ĠvertebrÃ¦": 11437,
    "Ġthroes": 24575,
    "silver": 19693,
    "Ġdilig": 8350,
    "Ġevap": 19626,
    "Ġacknowledge": 13406,
    "Ġdodo": 9075,
    "Ġstroll": 13357,
    "Ġmisanthropic": 26562,
    "Ġcomprised": 14270,
    "Ġinfluence": 5515,
    "Ġinvolves": 1098,
    "Ġhardships": 14454,
    "Ġcharacteristic": 12052,
    "ushes": 22285,
    "Ġtranced": 18428,
    "wherein": 19109,
    "Ġimproved": 7658,
    "Ġsprout": 24093,
    "Ġtwitch": 22679,
    "employed": 17264,
    "Ġwrithing": 11950,
    "Ġfinanc": 23130,
    "Ġpursued": 6330,
    "eur": 7546,
    "enemy": 15530,
    "Ġfowler": 16939,
    "ivered": 7007,
    "Ġcetus": 19887,
    "beaten": 20318,
    "Ġtongs": 9964,
    "Ġpeasants": 12336,
    "Ġuncl": 22018,
    "mber": 5850,
    "Ġfrogs": 23927,
    "Ġscholars": 26113,
    "fulness": 4311,
    "heading": 5487,
    "Ġgame": 3630,
    ":--": 5784,
    "Ġmanif": 8874,
    "Ġmodels": 774,
    "Ġgleaming": 24996,
    "Ġdefine": 9818,
    "Ġeloquent": 16116,
    "Ġassist": 3567,
    "Ġhoof": 23356,
    "Ġbalances": 2339,
    "Ġmassacre": 20550,
    "Ġtuples": 13481,
    "Ġyourselves": 9031,
    "abby": 14024,
    "Ġcorpus": 13037,
    "Ġunembarrassed": 22073,
    "Ġunfitted": 24111,
    "oding": 1461,
    "Ġsweat": 13143,
    "gust": 6362,
    "Ġlizard": 12659,
    "Ġelevate": 24502,
    "Ġburning": 5978,
    "Ġperplexed": 23664,
    "paralleled": 14518,
    "Ġexhausted": 8697,
    "Ġthickets": 24027,
    "sorrows": 17323,
    "Ġinquirers": 24965,
    "Ġremain": 1873,
    "Ġenigmatical": 20600,
    "Ġmagical": 23101,
    "Ġomniscient": 20089,
    "Ġrafters": 22664,
    "ctic": 8443,
    "Ġocc": 887,
    "Ġflail": 23011,
    "Ġchannels": 26014,
    "Ġmeasurement": 19426,
    "imaux": 21715,
    "Ġshepherd": 14155,
    "Ġmaintain": 855,
    "Ġjoy": 3185,
    "Ġrudeness": 17127,
    "field": 3073,
    "Ġguiding": 19243,
    "determined": 9082,
    "Ġedges": 3829,
    "Ġshaved": 22006,
    "Ġexhibition": 14960,
    "rified": 15422,
    "meditation": 19071,
    "Ġsatisfied": 4173,
    "Ġmeantime": 6208,
    "Ġreading": 5114,
    "Ġasi": 12737,
    "valley": 16218,
    "Ġrightly": 13070,
    "encoun": 12302,
    "Ġamuse": 5941,
    "introdu": 8940,
    "Ġassented": 17341,
    "Ġpreserve": 7530,
    "Ġdistributing": 22682,
    "Ġobstacles": 19838,
    "aux": 14291,
    "Ġunlike": 7006,
    "darcy": 5208,
    "Ġhandsomely": 25498,
    "Ġsequel": 14359,
    "Ġmalignity": 10559,
    "Ġtipt": 21176,
    "Ġgirl": 3087,
    "neville": 22469,
    "ripp": 6406,
    "tolerably": 21098,
    "Ġstern": 4224,
    "Ġprivilege": 11421,
    "Ġfaith": 5351,
    "Ġrudder": 25110,
    "Ġpursu": 3240,
    "Ġroofs": 16987,
    "Ġerr": 1321,
    "Ġancient": 5443,
    "favouring": 24761,
    "flakes": 23971,
    "Ġstoner": 7179,
    "promising": 24725,
    "Ġinvincible": 23483,
    "Ġestablished": 9072,
    "Ġpickle": 16724,
    "Ġnail": 9198,
    "Ġnursery": 19753,
    "Ġclosely": 6489,
    "goes": 10428,
    "arthur": 14833,
    "hens": 3942,
    "Ġclever": 7056,
    "twist": 23705,
    "Ġclay": 7020,
    "burg": 16775,
    "Ġc": 277,
    "told": 7811,
    "arded": 5029,
    "Ġobstinacy": 17424,
    "ouri": 21450,
    "Ġdrug": 11412,
    "umul": 1288,
    "Ġlumps": 21559,
    "Ġthursday": 12649,
    "iah": 14419,
    "Ġdesisted": 22978,
    "Ġpoisoned": 24887,
    "Ġrespectability": 14487,
    "Ġrnns": 2394,
    "Ġsurely": 6309,
    "Ġoat": 21326,
    "Ġmichigan": 26428,
    "Ġbundle": 13430,
    "fleece": 19951,
    "Ġworsh": 13005,
    "varieties": 23190,
    "Ġcaresses": 26060,
    "contr": 12061,
    "somebody": 14567,
    "istrate": 7406,
    "Ġselling": 21227,
    "Ġreception": 9842,
    "Ġgibberish": 25787,
    "proportions": 22827,
    "lot": 3209,
    "Ġthreads": 13122,
    "Z": 62,
    "Ġvestibule": 13540,
    "Ġrider": 24188,
    "ologies": 18781,
    "Ġopportunity": 4787,
    "Ġwreck": 7314,
    "Ġcheered": 16375,
    "relu": 17761,
    "dial": 20827,
    "indef": 17737,
    "companion": 9560,
    "Ġimpatient": 5603,
    "ceived": 1963,
    "Ġmoreover": 6165,
    "Ġdining": 6978,
    "Ġintention": 5638,
    "desolate": 25717,
    "Ġstone": 4646,
    "eray": 21269,
    "presbyterian": 26370,
    "Ġcocks": 18594,
    "Ġanimal": 2498,
    "Ġincome": 7917,
    "amiable": 14057,
    "Ġburke": 19253,
    "leaving": 10793,
    "Ġfootman": 8288,
    "iff": 3910,
    "ckles": 22093,
    "Ġequinoctial": 20536,
    "Ġpolite": 9885,
    "Ġtis": 15468,
    "Ġyoked": 15739,
    "closing": 23157,
    "swing": 15432,
    "aloons": 20014,
    "Ġidly": 16406,
    "onze": 21258,
    "ioning": 21512,
    "Ġevidence": 5270,
    "Ġcaring": 23094,
    "provided": 13641,
    "Ġstem": 15723,
    "Ġrobes": 16263,
    "Ġ275": 20114,
    "hearth": 15502,
    "Ġchildish": 13140,
    "squeezing": 25914,
    "Ġmoritz": 11910,
    "Ġabstract": 17184,
    "Ġtraverse": 18892,
    "imitably": 21714,
    "Ġgrieved": 8298,
    "Ġ57": 24321,
    "scept": 21056,
    "ness": 850,
    "ditch": 17530,
    "Ġsacr": 7194,
    "plings": 11696,
    "Ġne": 389,
    "haw": 6363,
    "Ġsanely": 24983,
    "Ġhon": 2537,
    "Ġmisfortune": 5569,
    "Ġunlock": 18244,
    "Ġtropical": 17067,
    "behind": 6780,
    "Ġunjustly": 17129,
    "Ġislets": 21805,
    "ized": 1528,
    "Ġrevolutionized": 3368,
    "capable": 13705,
    "Ġreadability": 2728,
    "Ġmamma": 10051,
    "Ġdolphins": 20399,
    "apidated": 22340,
    "ifford": 15788,
    "Ġboun": 21383,
    "Ġjobs": 24833,
    "meaning": 2910,
    "Ġclearness": 23187,
    "Ġdecently": 22441,
    "Ġwaving": 8579,
    "Ġbehaviors": 13259,
    "tles": 10732,
    "Ġwreat": 15534,
    "Ġveracity": 23892,
    "Ġengagement": 5397,
    "ittance": 12850,
    "Ġthou": 1808,
    "erson": 7003,
    "inous": 8776,
    "Ġcourage": 4634,
    "/*": 10074,
    "¾": 127,
    "Ġtoilette": 20496,
    "Ġdes": 1250,
    "Ġclapped": 9747,
    "Ã": 132,
    "heric": 15915,
    "Ġunchanging": 22047,
    "Ġavenue": 13625,
    "temper": 10007,
    "Ġdisagree": 22536,
    "Ġsister": 1475,
    "enormous": 26167,
    "Ġhapp": 1085,
    "Ġdivulged": 16651,
    "growing": 13736,
    "Ġnoiseless": 10359,
    "Ġ45": 14774,
    "Ġdisappears": 18561,
    "bel": 3839,
    "luck": 5733,
    "ens": 701,
    "prodigious": 17469,
    "ulity": 10888,
    "Ġcheers": 16372,
    "tales": 17688,
    "Ġfortune": 4242,
    "Ġclutching": 24954,
    "Ġ18": 3407,
    "Ġplace": 1654,
    "Ġaslant": 21905,
    "shold": 2777,
    "Ġpermanent": 13635,
    "Ġstruck": 3390,
    "Ġhanging": 5447,
    "onement": 21259,
    "Ġstained": 11655,
    "ome": 536,
    "Ġsuperfluous": 17417,
    "Ġcensus": 15100,
    "Ġscenarios": 26544,
    "uesday": 8590,
    "Ġensuring": 11194,
    "spoken": 11864,
    "Ġgenealogies": 25962,
    "thesize": 24907,
    "each": 7335,
    "olidity": 18135,
    "such": 3084,
    "Ġuninter": 18247,
    "Ġobserving": 6081,
    "Ġretrogression": 26583,
    "Ġpause": 5707,
    "oubted": 5861,
    "Ġsteam": 9356,
    "Ġtruce": 24118,
    "tick": 17680,
    "Ġfonder": 17882,
    "reluct": 26164,
    "%": 9,
    "petulance": 24301,
    "inter": 2949,
    "Ġfit": 3685,
    "Ġcomplimented": 14907,
    "deeply": 16189,
    "Ġreluctant": 20528,
    "Ġyell": 21781,
    "Ġruefully": 17304,
    "Ġmilitia": 13322,
    "Ġjacket": 6490,
    "Ġjavel": 17085,
    "Ġfundamentals": 14637,
    "Ġsurp": 9637,
    "wanderer": 25424,
    "Ġexotic": 21835,
    "alse": 4186,
    "wid": 10137,
    "covered": 11479,
    "Ġslo": 15509,
    "embedding": 20360,
    "Ġdiscriminative": 4328,
    "Ġjo": 2607,
    "verted": 10220,
    "Ġimplicate": 24877,
    "Ġtarquin": 23612,
    "Ġgliding": 8564,
    "icting": 12857,
    "Ġaggregate": 25678,
    "Ġunlim": 18254,
    "Ġtelescope": 17351,
    "short": 6568,
    "Ġfranc": 16358,
    "Ġcurrent": 13018,
    "conjectures": 25181,
    "shelf": 20384,
    "Ġasc": 4766,
    "ĠĠĠĠĠĠ": 6415,
    "decl": 8860,
    "Ġdangerously": 23940,
    "Ġhearsed": 25042,
    "Ġcountries": 13101,
    "Ġmedic": 11258,
    "Ġsubstantiated": 25876,
    "ave": 980,
    "Ġresist": 7916,
    "Ġundulates": 24121,
    "arest": 4006,
    "Ġbounds": 9921,
    "ened": 1387,
    "strong": 6324,
    "Ġdignified": 15602,
    "Ġwriters": 13546,
    "ospit": 22267,
    "Ġhast": 3150,
    "spouting": 25003,
    "Ġsmoked": 10325,
    "Ġvisual": 5741,
    "Ġclo": 6044,
    "naturally": 14564,
    "craft": 12251,
    "procure": 23400,
    "Ġsaucer": 20608,
    "Ġbade": 9174,
    "Ġnights": 7258,
    "Ġlands": 6596,
    "Ġdotted": 16794,
    "Ġstrung": 22621,
    "Ġignited": 25072,
    "Ġserenity": 10031,
    "Ġwound": 4528,
    "Ġrace": 5848,
    "Ġmechan": 1176,
    "Ġtearless": 24785,
    "Ġsyrian": 18355,
    "Ġrevisit": 21673,
    "joice": 9605,
    "Ġeyebrows": 23519,
    "esy": 9185,
    "Ġyale": 21783,
    "Ġcompanion": 3645,
    "aston": 7408,
    "quin": 21857,
    "Ġpupp": 10822,
    "Ġstated": 9692,
    "Ġwight": 12558,
    "uncomfortable": 18163,
    "Ġharriet": 24573,
    ".âĢĶâĢľ": 20749,
    "Ġdeterm": 1269,
    "plunging": 25988,
    "featured": 24036,
    "slept": 17172,
    "verdict": 21733,
    "Ġboarders": 16602,
    "Ġcode": 1722,
    "hem": 6666,
    "pp": 384,
    "Ġcorrespond": 6211,
    "Ġeldest": 6573,
    "Ġbenefits": 4288,
    "favour": 9552,
    "Ġdescent": 979,
    "Ġsympathising": 24299,
    "ollion": 19718,
    "venor": 16101,
    "Ġblank": 5952,
    "Ġwind": 1432,
    "parable": 16394,
    "Ġwre": 5077,
    "ortment": 22260,
    "Ġmeth": 1473,
    "oric": 21399,
    "calmly": 20142,
    "Ġhero": 5715,
    "Ġboasted": 16111,
    "Ġappro": 659,
    "regret": 16451,
    "Ġyarman": 12710,
    "Ġwarbling": 26169,
    "raved": 18015,
    "Ġalleviated": 26205,
    "Ġrespectable": 6738,
    "Ġdiscoverer": 26036,
    "alluring": 18353,
    "Ġramadans": 25122,
    "Ġuncomp": 15845,
    "Ġtiresome": 26157,
    "Ġvic": 5236,
    "attered": 4021,
    "Ġrecurring": 23234,
    "Ġripples": 25506,
    "Ġforbade": 15218,
    "Ġexaggerate": 25650,
    "Ġrights": 10399,
    "Ġinoffensive": 21501,
    "adem": 21761,
    "iguous": 18046,
    "Ġunfrequently": 20741,
    "gage": 13727,
    "esty": 4307,
    "ckery": 22094,
    "Ġcoach": 6867,
    "persuaded": 15077,
    "onents": 8781,
    "Ġunconscious": 9550,
    "said": 4106,
    "Ġsteeply": 23727,
    "alyards": 18798,
    "Ġphrenologist": 25608,
    "Ġtight": 8108,
    "Ġloomed": 12305,
    "atmospheric": 17778,
    "Ġtheology": 21279,
    "mistaken": 12215,
    "Ġfrance": 7683,
    "knows": 19174,
    "mmet": 10991,
    "Ġcloak": 9537,
    "Ġhobbling": 25645,
    "Ġthink": 986,
    "Ġmolasses": 25629,
    "Ġresistance": 13533,
    "/": 19,
    "vinegar": 25421,
    "Ġmurdering": 14814,
    "Ġbrixton": 13667,
    "Ġxxxii": 24973,
    "Ġfashion": 4299,
    "Ġmagnific": 16322,
    "walk": 5523,
    "Ġyounge": 16291,
    "erm": 787,
    "8": 28,
    "abern": 21794,
    "famous": 16918,
    "Ġga": 4446,
    "Ġgasp": 7173,
    "Ġoffer": 4845,
    "Ġmingling": 20200,
    "Ġvide": 10253,
    "laws": 19810,
    "Ġthreaten": 24374,
    "Ġprogramming": 1182,
    "Ġwatchful": 16530,
    "fitzwilliam": 11354,
    "Ġmish": 15541,
    "hunter": 10558,
    "Ġplates": 11008,
    "Ġhumans": 8932,
    "Ġextravagance": 17282,
    "urbed": 15712,
    "Ġpausing": 8656,
    "ceiling": 21630,
    "since": 5896,
    "Ġordering": 19001,
    "prevailed": 17348,
    "Ġliving": 3064,
    "asons": 6016,
    "experienced": 15125,
    "Ġtremble": 6906,
    "Ġaccept": 4411,
    "Ġeloquence": 11846,
    "ghan": 19458,
    "Ġdesperate": 7777,
    "circum": 16739,
    "amaz": 21854,
    "Ġpunchbowl": 20234,
    "actually": 14297,
    "Ġsoften": 23126,
    "envelope": 17784,
    "accuracy": 9882,
    "ther": 482,
    "Ġpunishment": 9959,
    "impatience": 25501,
    "Ġplaymate": 23640,
    "innocent": 20289,
    "spread": 8389,
    "Ġarray": 12815,
    "Ġprofane": 13156,
    "osh": 18389,
    "Ġcanals": 22171,
    "appropri": 22845,
    "Ġhoky": 17929,
    "mblies": 24609,
    "'d": 12431,
    "Ġlocal": 1201,
    "abhorred": 17339,
    "Ġwatches": 11083,
    "Ġjustice": 5111,
    "Ġsatir": 18796,
    "Ġarrow": 10933,
    "combination": 25487,
    "Ġclumsy": 9582,
    "stirring": 20429,
    "Ġkitchen": 8498,
    "trifling": 19417,
    "Ġquito": 24408,
    "Ġdevelopments": 23247,
    "Ġsiamese": 20486,
    "Ġwinc": 9645,
    "ushed": 2972,
    "Ġsaxon": 25468,
    "unavoid": 14065,
    "Ġswell": 8952,
    "speechless": 25396,
    "wick": 5363,
    "Ġmischief": 8544,
    "Ġwings": 9166,
    "Ġw": 272,
    "Ġshares": 23248,
    "Ġsprain": 18306,
    "Ġunprofitable": 18268,
    "_).": 5888,
    "Ġsnatching": 10474,
    "Ġgin": 13964,
    "istered": 14147,
    "dece": 11738,
    "Ġswallow": 8953,
    "Ġcrowding": 13284,
    "Ġrambled": 20171,
    "aps": 1233,
    "thickness": 25368,
    "Ġcollege": 11426,
    "separately": 25228,
    "Ġyielding": 12191,
    "Ġopt": 782,
    "Ġheroism": 24544,
    "Ġmedium": 16708,
    "Ġhawk": 15177,
    "Ġsatisf": 2810,
    "consolation": 15156,
    "burned": 25082,
    "Ġadagrad": 2906,
    "Ġabrupt": 9739,
    "manned": 18765,
    "Ġspake": 18309,
    "Ġdescribed": 6608,
    "iftings": 23229,
    "staking": 21651,
    "talked": 14988,
    "Ġdevoid": 18681,
    "ims": 7177,
    "Ġadequate": 20311,
    "Ġenlar": 15804,
    "Ġdeliber": 7268,
    "Ġchanc": 18384,
    "Ġsensitivity": 3071,
    "Ù": 154,
    "merchant": 10469,
    "Ġowen": 15098,
    "osures": 22265,
    "Ġloo": 22114,
    "Ġcobweb": 22587,
    "tural": 21069,
    "vard": 21113,
    "spirits": 8055,
    "Ġexists": 14041,
    "Ġspy": 22127,
    "Ġseat": 4949,
    "motives": 26138,
    "Ġwithdra": 6399,
    "romising": 18234,
    "Ġfoam": 6891,
    "Ġforemast": 12010,
    "Ġversion": 10633,
    "ingly": 2134,
    "scissors": 20729,
    "trivial": 21095,
    "Ġprayed": 16670,
    "Ġjuly": 17239,
    "Ġstun": 11653,
    "Ġevaporate": 26334,
    "Ġdoubted": 7965,
    "ech": 4390,
    "Ġpad": 8125,
    "tram": 19646,
    "continuance": 19721,
    "ogra": 4573,
    "Ġjudge": 5502,
    "Ġwhoever": 10977,
    "Ġexecution": 6927,
    "Ġconducting": 16652,
    "rell": 11566,
    "by": 1157,
    "sufferable": 12181,
    "Ġseverely": 14936,
    "Ġate": 8844,
    "urn": 776,
    "warmly": 25029,
    "relation": 19450,
    "Ġwant": 1118,
    "mists": 17606,
    "feared": 11806,
    "Ġbite": 10799,
    "contrad": 19294,
    "enet": 10155,
    "ificial": 608,
    "Ġsomebody": 7912,
    ",*": 17474,
    "nerable": 16280,
    "Ġcommis": 22674,
    "comfort": 5647,
    "Ġunreasonably": 17454,
    "Ġexperiences": 13028,
    "design": 19343,
    "Ġdeigned": 18141,
    "##": 2316,
    "remem": 13072,
    "lass": 5994,
    "Ġ59": 24323,
    "Ġshrieked": 9551,
    "Ġneedles": 11186,
    "emb": 11693,
    "Ġbattalions": 25777,
    "Ġpictured": 16625,
    "Ġmaggie": 26293,
    "Ġseam": 3913,
    "Ġhazard": 20435,
    "Ġensemble": 1607,
    "Ġparadigms": 3058,
    "traced": 19648,
    "itary": 4752,
    "Ġwed": 7576,
    "learning": 2631,
    "iverse": 13120,
    "study": 15121,
    "Ġswelled": 11090,
    "Ġledge": 19404,
    "Ġprofoundly": 16861,
    "gee": 15981,
    "Ġmarvels": 11085,
    "tal": 17672,
    "armon": 23060,
    "Ġwhiskers": 10495,
    "Ġmanager": 11773,
    "downward": 16621,
    "Ġcreating": 2999,
    "Ġbroad": 3641,
    "before": 3115,
    "Ġwal": 6518,
    "Ġcommonplace": 11098,
    "Ġlike": 669,
    "Ġtrespass": 23602,
    "Ġviolence": 5964,
    "Ġleakage": 23460,
    "Ġexpressive": 8985,
    "Ġmar": 1309,
    "Ġchis": 11754,
    "gallery": 24694,
    "Ġbrightly": 13229,
    "distant": 13339,
    "Ġconject": 6028,
    "cles": 8729,
    "?âĢĻâĢĿ": 23645,
    "Ġcountry": 2532,
    "Ġsecretary": 19445,
    "Ġrout": 7402,
    "Ä": 133,
    "Ġtenderness": 12220,
    "Ġbones": 4583,
    "Ġendeavoured": 4919,
    "Ġdesper": 6178,
    "Ġsufferable": 16259,
    "comes": 5394,
    "ctive": 11626,
    "Ġcivilised": 24247,
    "Ġentity": 10345,
    "alas": 8808,
    "Ġpens": 21463,
    "excellent": 8044,
    "Ġgrizz": 10354,
    "volutional": 1934,
    "Ġparalle": 1410,
    "bone": 5612,
    "mock": 5174,
    "Ġsinews": 20290,
    "Ġformation": 2944,
    "Ġbarely": 16938,
    "favourite": 15147,
    "bl": 4142,
    "Ġconsid": 1812,
    "Ġbrides": 22868,
    "Ġautumn": 14513,
    "humoredly": 26326,
    "humorously": 24024,
    "Ġvivacious": 19818,
    "Ġprotracted": 19472,
    "Ġzoology": 22824,
    "altern": 17944,
    "Ġamends": 14248,
    "Ġapt": 9158,
    "Ġtimidly": 11340,
    "Ġcalm": 3447,
    "Ġsnows": 14729,
    "Ġabstraction": 26541,
    "yond": 2329,
    "Ġcomplain": 6687,
    "tried": 13797,
    "gno": 13730,
    "Ġtedious": 15271,
    "doom": 23380,
    "clothes": 9060,
    "Ġtoll": 7852,
    "Ġponderous": 8355,
    "Ġby": 383,
    "Ġcister": 13885,
    "uss": 8767,
    "Ġdeprived": 8211,
    "rr": 17652,
    "Ġbordered": 24564,
    "off": 1886,
    "olic": 14045,
    "diver": 20833,
    "Ġgeor": 3388,
    "ozy": 17624,
    "Ġobserver": 11993,
    "ache": 8521,
    "Ġerroneous": 17412,
    "cious": 6646,
    "factories": 19846,
    "Ģ": 227,
    "Ġunquestion": 18249,
    "Ġsystemat": 18449,
    "Ġfrosted": 19806,
    "pierced": 26142,
    "executed": 25740,
    "Ġlizzie": 26464,
    "reel": 21236,
    "Ġone": 567,
    "Ġconfusing": 23309,
    "wear": 22686,
    "deliberated": 26119,
    "belonged": 25598,
    "Ġfiddle": 25445,
    "Ġseas": 3079,
    "adoes": 11663,
    "nikin": 23220,
    "thankful": 16808,
    "smote": 23913,
    "Ġfeasts": 25370,
    "apparently": 15208,
    "Ġclients": 19735,
    "Ġcopy": 10166,
    "Ġthyself": 6604,
    "Ġrather": 1494,
    "Ġcoll": 8221,
    "Ġdistantly": 18532,
    "lances": 15387,
    "wail": 21128,
    "shoes": 14242,
    "eryton": 4096,
    "ere": 6790,
    "Ġlearns": 2644,
    "Ġnegro": 6448,
    "Ġoverall": 4359,
    "Ġbegrimed": 26580,
    "Ġregard": 3069,
    "Ġgroves": 16742,
    "Ġrunning": 3956,
    "Ġtangles": 25762,
    "strade": 5065,
    "Ġever": 1180,
    "mountains": 15184,
    "Ġjib": 14196,
    "aloft": 8811,
    "Ġretrie": 10385,
    "Ġdeact": 18138,
    "Ġcoron": 4464,
    "present": 1136,
    "Ġmadman": 13155,
    "Ġdifferen": 936,
    "Ġrearing": 12682,
    "phon": 4128,
    "Ġdanes": 25160,
    "Ġsmokes": 22563,
    "Ġscorching": 20071,
    "ronted": 14880,
    "Ġheroes": 10579,
    "Ġspared": 7893,
    "Ġproxim": 3202,
    "through": 4027,
    "Ġhastening": 19338,
    "Ġstupendous": 20504,
    "Ġrustling": 24714,
    "Ġhabits": 6926,
    "Ġbustle": 17230,
    "Ġoutlined": 22324,
    "mblance": 7323,
    "anxiously": 15114,
    "Ġproducing": 11905,
    "Ġfringed": 17275,
    "Ġpresum": 4839,
    "Ġwestern": 10657,
    "Ġamounts": 6706,
    "Ġregimentals": 19860,
    "Ġth": 299,
    "guest": 19485,
    "Ġtexture": 19162,
    "brandy": 19203,
    "Ġborrowed": 17232,
    "Ġ1950": 11361,
    "ord": 666,
    "prudently": 21037,
    "Ġepisode": 26349,
    "Ġpreviously": 3924,
    "Ġbattered": 17864,
    "aution": 9390,
    "following": 10575,
    "possessed": 9531,
    "ylon": 24978,
    "Ġexploring": 4306,
    "snow": 10726,
    "Ġsharkish": 24506,
    "Ġgoodge": 22826,
    "Ġemotion": 7691,
    "Ġminus": 18752,
    "Ġpracticable": 19043,
    "obliged": 20634,
    "Ġvib": 8165,
    "tra": 5002,
    "Ġunfor": 15843,
    "](": 11468,
    "Ġcathedral": 17416,
    "Ġforeign": 9875,
    "Ġbolted": 12249,
    "Ġbeef": 6830,
    "Ġnaut": 13944,
    "Ġfretfully": 25448,
    "ssible": 2993,
    "Ġlonely": 6823,
    "Ġprobably": 4315,
    "jur": 17580,
    "Ġinsult": 6749,
    "Ġlabours": 8586,
    "Ġannoyed": 17202,
    "Ġtops": 14588,
    "brary": 5755,
    "Ġ47": 14775,
    "Ġenumerating": 15248,
    "inridge": 11563,
    "uncontrollable": 20599,
    "Ġequal": 4136,
    "Ġheel": 9687,
    "oled": 17621,
    "Ġenticements": 26035,
    "Ġascribed": 14858,
    "Ġyarns": 15199,
    "rd": 17651,
    "ordinary": 4408,
    "Ġmarshal": 20222,
    "Ġvisions": 12982,
    "Ġherds": 9719,
    "Ġweeps": 24950,
    "Ġcath": 17828,
    "Ġell": 17717,
    "Ġchr": 3689,
    "Ġpatches": 4239,
    "dress": 17522,
    "Ġscream": 5936,
    "Ġexpatiate": 18624,
    "Ġpublic": 4333,
    "Ġwhe": 439,
    "ingle": 1036,
    "sperm": 5203,
    "hamlet": 23266,
    "Ġnantucketer": 6914,
    "Ġsuckling": 25998,
    "particular": 5757,
    "gree": 10703,
    "Ġmungo": 25632,
    "Ġchiefly": 5766,
    "Ġreproached": 24892,
    "Ġprior": 11320,
    "Ġfading": 15588,
    "Ġpalp": 11251,
    "Ġvoids": 25808,
    "Ġcondesc": 7182,
    "Ġhip": 17923,
    "Ġanonym": 17899,
    "Ġwraps": 19779,
    "pagan": 17288,
    "Ġhurled": 10431,
    "Ġclosed": 4604,
    "Ġsteeple": 19290,
    "natural": 2222,
    ")âĢĶâĢľ": 20745,
    "Ġprank": 23223,
    "Ġleaks": 16447,
    "new": 1465,
    "Ġmetaphys": 16410,
    "Ġreef": 10851,
    "Ġinflamed": 13477,
    "ruit": 22191,
    "gravel": 22623,
    "thomas": 18220,
    "Ġparson": 6689,
    "anter": 9169,
    "h": 76,
    "Ġupset": 22157,
    "Ġcasked": 24497,
    "Ġodorous": 19569,
    "female": 20669,
    "snatched": 24851,
    "Ġsain": 17752,
    "Ġmerited": 23734,
    "Ġhan": 15622,
    "Ġchord": 22249,
    "Ġthirdly": 24146,
    "beyond": 8886,
    "Ġofficio": 23819,
    "fright": 9598,
    "dinah": 20084,
    "man": 1053,
    "ompl": 4536,
    "Ġaverse": 11082,
    "Ġsolemnly": 8023,
    "Ġmock": 3692,
    "eprints": 12796,
    "iteous": 14264,
    "Ġherb": 15860,
    "Ġengagements": 9981,
    "ilder": 15717,
    "flight": 15356,
    "Ġcomplement": 23713,
    "lig": 3174,
    "Ġcurling": 9346,
    "landed": 18957,
    "isol": 17848,
    "Ġoppression": 23656,
    "omics": 21646,
    "Ġincreas": 1696,
    "Ġbob": 22640,
    "cooks": 25070,
    "Ġshaped": 15838,
    "han": 12477,
    "Ġslouched": 13064,
    "cet": 15328,
    ",--": 2477,
    "Ġcalifornian": 25853,
    "elephant": 12355,
    "flow": 2407,
    "constant": 11326,
    "ĠĠĠĠ": 459,
    "Ġcoloured": 11047,
    "Ġpulse": 13119,
    "Ġnecessarily": 13254,
    "large": 6628,
    "Ġinspect": 5965,
    "Ġsurgeon": 8984,
    "Ġadjac": 18293,
    "Ġwag": 10777,
    "Ġprompt": 3190,
    "Ġsavages": 9915,
    "Ġloathing": 15071,
    "Ġloc": 10916,
    "Ġrequired": 7223,
    "Ġquakers": 22420,
    "Ġlost": 2637,
    "Ġfry": 17881,
    "ortunity": 4404,
    "Ġthirteen": 15278,
    "usiveness": 22287,
    "Ġsliding": 9366,
    "rush": 7012,
    "Ġattics": 22636,
    "unearthly": 19275,
    "varied": 23188,
    "Ġexpands": 25238,
    "explaining": 23145,
    "damn": 20027,
    "mary": 8752,
    "Ġattacks": 12209,
    "Ġuntidy": 23526,
    "Ġmonarch": 14417,
    "constit": 24605,
    "Ġhails": 21961,
    "moreover": 12974,
    "Ġvess": 3295,
    "Ġinvaluable": 10185,
    "governed": 25406,
    "insulting": 26056,
    "Ġblu": 2689,
    "Ġunusual": 6555,
    "akin": 11772,
    "Ġrapture": 13499,
    "Ġadvert": 10574,
    "ĠĊ": 12528,
    "parad": 16393,
    "Ġcosmopolitan": 20643,
    "feature": 3815,
    "Ġwarmly": 8990,
    "Ġefforts": 11811,
    "umberland": 16839,
    "recurring": 24197,
    "Ġmappings": 2146,
    "Ġelapsed": 7655,
    "Ġintent": 6410,
    "smith": 5669,
    "hatchet": 24819,
    "Ġstops": 3167,
    "rench": 3971,
    "tide": 11535,
    "Ġrumours": 24599,
    "furthest": 19844,
    "Ġscept": 15506,
    "Ġoutsk": 15960,
    "Ġformula": 2868,
    "ette": 15663,
    "ggy": 13118,
    "assisted": 22300,
    "Ġswiftness": 9930,
    "Ġfate": 4755,
    "oses": 3951,
    "noted": 22752,
    "Ġafar": 14294,
    "Ġlatterly": 24087,
    "Ġstrat": 16096,
    "Ġperturbation": 20444,
    "reds": 12755,
    "Ġcoloss": 11048,
    "crated": 16685,
    "inquiry": 15146,
    "Ġbreathed": 11222,
    "Ġfrighted": 24033,
    "Ġsteep": 2892,
    "physiogn": 26267,
    "blocks": 25518,
    "accident": 11183,
    "Ġdissolved": 18555,
    "Ġpar": 456,
    "mention": 7214,
    ";--": 8069,
    "Ġofficious": 19351,
    "male": 15392,
    "kinson": 10029,
    "Ġ111": 24436,
    "Ġelopement": 10332,
    "Ġliquid": 22413,
    "Ĺ": 250,
    "Ġwhen": 513,
    "frisco": 16789,
    "phology": 3009,
    "Ġdoctrine": 24200,
    "fatal": 17089,
    "horn": 8086,
    "Ġtrowsers": 9630,
    "passing": 14815,
    "Ġkicks": 19771,
    "ancholy": 5070,
    "Ġnever": 1021,
    "ricted": 15423,
    "bbed": 6911,
    "sticks": 25966,
    "warp": 17708,
    "ux": 7813,
    "trowsers": 17693,
    "Ġcouple": 5423,
    "Ġguarded": 9829,
    "Ġheightened": 8652,
    "Ġheaded": 11057,
    "Ġconcocted": 26300,
    "Ġtimor": 24227,
    "Ġample": 11802,
    "Ġpredictions": 1454,
    "Ġhammock": 5768,
    "aciously": 12912,
    "Ġsoaked": 15866,
    "Ġpull": 5152,
    "sk": 5521,
    "Ġfiftieth": 24702,
    "Ġun": 422,
    "Ġcapricious": 20541,
    "vious": 1785,
    "Ġgenerative": 5644,
    "times": 8099,
    "embarrassed": 20667,
    "ms": 540,
    "pistol": 17644,
    "voices": 21120,
    "Ġsche": 1707,
    "Ġleviathan": 3289,
    "Ġbreathe": 9015,
    "tting": 17682,
    "Ġhieroglyphic": 25588,
    "Ġbes": 2662,
    "tempestuous": 26098,
    "inserted": 18888,
    "compliments": 24807,
    "Ġyard": 5922,
    "leap": 21370,
    "Ġseparated": 9467,
    "Ġrepulsive": 14532,
    "antarctic": 22103,
    "Ġjoll": 11770,
    "mult": 8751,
    "Ġmorass": 22974,
    "Ġunscrew": 22042,
    "eenth": 12465,
    "Ġcherry": 16937,
    "Ġdavy": 25952,
    "Ġpossibilities": 18978,
    "strength": 13983,
    "Ġprocopius": 19734,
    "Ġcumberland": 21358,
    "Ġbagging": 24539,
    "rees": 5436,
    "Ġreceptacle": 23195,
    "likelihood": 4992,
    "accusations": 23601,
    "tained": 4406,
    "Ġknowledge": 1445,
    "Ġfam": 1583,
    "Ġoverflow": 10295,
    "Ġricher": 12764,
    "Ġtranquill": 6633,
    "considered": 9583,
    "Ġstartling": 14673,
    "Ġsoc": 3528,
    "Ġmug": 21315,
    "Ġwithdrawn": 10609,
    "sequent": 6831,
    "asional": 17962,
    "Ġwillingly": 8888,
    "Ġimmovable": 15895,
    "Ġmors": 17803,
    "duodecimo": 16006,
    "apolog": 22336,
    "Ġtormented": 8678,
    "sulphur": 25910,
    "Ġdischarge": 18557,
    "Ġsincerely": 7963,
    "Ġinterval": 4056,
    "Ġtalk": 1970,
    "itz": 6007,
    "Ġconsulting": 13433,
    "americans": 25045,
    "Ġagreeably": 24955,
    "rudence": 7094,
    "eaten": 20347,
    "symp": 14618,
    "Ġcrimin": 6901,
    "Ġgeorge": 3750,
    "born": 7544,
    "Ġlovely": 4711,
    "Ġundoubted": 19517,
    "Ġmourn": 8707,
    "grand": 7970,
    "Ġmitt": 21310,
    "Ġtemple": 7656,
    "anywhere": 14684,
    "Ġascertaining": 17206,
    "iate": 6506,
    "Ġfergus": 16869,
    "Ġencourages": 2064,
    "Ġvacantly": 16817,
    "assemblies": 25957,
    "Ġgallows": 12150,
    "Ġthomas": 17950,
    "entiful": 10838,
    "drew": 7334,
    "tort": 17677,
    "Ġantip": 24180,
    "Ġdoubtful": 19143,
    "Ġbuckle": 17034,
    "Ġundet": 16703,
    "inced": 3336,
    "Ġwasn": 6998,
    "asions": 12656,
    "ben": 4927,
    "Ġhouse": 1502,
    "Ġtossings": 25357,
    "Ġschoolmasters": 19723,
    "izar": 14053,
    "Ġexpenses": 11838,
    "Ġpledge": 11604,
    "cul": 1898,
    "Ġplate": 8902,
    "ener": 561,
    "broad": 8646,
    "Ġlogic": 13082,
    "Ġblankets": 24612,
    "Ġscrews": 25178,
    "ulia": 18151,
    "Ġoccupied": 5273,
    "Ġcrawl": 11377,
    "exped": 16528,
    "ma": 1150,
    "Ġdenny": 9004,
    "alf": 4639,
    "Ġgoing": 2069,
    "...": 24549,
    "Ġdespaired": 14671,
    "Ġcountless": 16386,
    "Ġgranted": 22810,
    "Ġegyptian": 13590,
    "plexion": 14263,
    "Ġstepdaughter": 22614,
    "Ġobjects": 5578,
    "lest": 5290,
    "Ġcompression": 18147,
    "Ġpulling": 5864,
    "uttered": 8442,
    "Ġturbulence": 26599,
    "splice": 17173,
    "wat": 6233,
    "Ġsubdivisions": 26038,
    "Ġinvesting": 19644,
    "pattern": 3898,
    "sive": 4145,
    "Ġbelly": 10372,
    "Ġarrange": 3121,
    "Ġaid": 6124,
    "Ġfasting": 16362,
    "Ġadventurous": 16735,
    "intense": 22939,
    "stonecraft": 24356,
    "Ġtravel": 5954,
    "Ġbusy": 6191,
    "Ġnut": 12651,
    "Ġproportionably": 19974,
    "Ġchests": 19674,
    "Ġcannibals": 10590,
    "Ġinfirmity": 26299,
    "Ġspilled": 10926,
    "pulled": 25148,
    "Ġgradu": 15836,
    "Ġdissuade": 26258,
    "Ġsuck": 15863,
    "Ġpreced": 6041,
    "swell": 17665,
    "loose": 11808,
    "Ġacquaintance": 4134,
    "Ġallowance": 14392,
    "Ġoverflowing": 17240,
    "Ġghost": 6144,
    "Ġgamming": 25543,
    "inger": 6813,
    "Ġinnermost": 12165,
    "foundation": 16716,
    "Ġimagined": 8610,
    "Ġfielding": 16234,
    "beloved": 19464,
    "Ġbowing": 10477,
    "merc": 19283,
    "Ġdest": 2235,
    "Ġashes": 7618,
    "visitors": 13353,
    "inspector": 13650,
    "multiple": 15111,
    "Ġrespons": 2687,
    "Ġsurtout": 23467,
    "Ġeh": 6988,
    "Ġforegoing": 23450,
    "concent": 19483,
    "ifference": 5632,
    "Ġexcel": 3570,
    "Ġspray": 7894,
    "Ġinternal": 2244,
    "Ġcapric": 14577,
    "ading": 5091,
    "Ġcet": 6672,
    "Ġshow": 3402,
    "Ġsymb": 2590,
    "smeer": 26148,
    "Ġly": 2265,
    "Ġpromotion": 23197,
    "Ġmultipl": 2794,
    "Ġpresto": 22234,
    "Ġgardener": 19136,
    "vels": 5432,
    "Ġwhitish": 24867,
    "ê": 171,
    "eff": 2534,
    "Ġsubdued": 11035,
    "vers": 1326,
    "Ġarrested": 9563,
    "nnight": 20995,
    "Ġcharmed": 16764,
    "Ġpropriet": 9553,
    "Ġerrand": 11087,
    "Ġtrust": 4081,
    "Ġobliter": 14325,
    "Ġtoiled": 12647,
    "Ġsolely": 9913,
    "Ġbumpkin": 20203,
    "Ġmeta": 3452,
    "turbable": 24531,
    "with": 1295,
    "ang": 446,
    "Ġobtained": 7432,
    "Ġporpoise": 7108,
    "Ġreminisc": 18727,
    "Ġheeded": 13407,
    "Ġdeficiency": 14408,
    "Ġencouragement": 13048,
    "Ġbison": 21391,
    "Ġarm": 2492,
    "Ġsubsisting": 23437,
    "Ġvillas": 24059,
    "mut": 17597,
    "Ġbear": 3659,
    "Ġresounds": 22546,
    "Ġrhine": 12360,
    "Ġbreat": 3462,
    "Ġconstraints": 2743,
    "Ġearls": 18905,
    "Ġ1883": 23901,
    "affections": 17359,
    "sham": 9760,
    "Ġtotally": 9474,
    "Ġgives": 5018,
    "aus": 1500,
    "Ġbloodshed": 23803,
    "pine": 13772,
    "broke": 14782,
    "fanning": 20868,
    "racts": 14360,
    "Ġmartin": 25437,
    "Ġmutinous": 23961,
    "Ġquote": 18467,
    "Ġaccuracy": 1153,
    "Ġindispensable": 11906,
    "infernal": 24663,
    "Ġproceeds": 12082,
    "Ġinconsistency": 26184,
    "Ġprofessors": 14728,
    "rapidly": 15247,
    "Ġsubstituting": 26328,
    "Ġdedicated": 19211,
    "Ġusage": 9734,
    "Ġrecognition": 3013,
    "Ġharb": 7370,
    "ven": 780,
    "akness": 14197,
    "Ġflock": 21414,
    "-": 17,
    "Ġfoliage": 18869,
    "Ġresponsible": 9890,
    "strikes": 24671,
    "Ġspain": 15884,
    "Ġchase": 3950,
    "ement": 1501,
    "infliction": 25925,
    "Ġcalmly": 7734,
    "whaleman": 23438,
    "vest": 6232,
    "niece": 20997,
    "Ġflat": 8228,
    "Ġavowal": 19418,
    "Ġslightest": 6093,
    "Ġmem": 2163,
    "Ġingenuity": 17166,
    "Ġcompre": 4448,
    "Ġgasfitters": 25041,
    "accurately": 25862,
    "open": 7027,
    "Ġminimizing": 3467,
    "mysteries": 26051,
    "process": 11150,
    "road": 6679,
    "Ġwork": 1364,
    "Ġard": 5164,
    "Ġtrop": 7566,
    "Ġbarn": 11590,
    "Ġtunnels": 24621,
    "summit": 23419,
    "Ġinsights": 13183,
    "Ġinevitably": 17233,
    "Ġfrankly": 16747,
    "Ġfurnishes": 19444,
    "Ġregression": 4410,
    "escript": 18472,
    "Ġcust": 11585,
    "Ġconvey": 9984,
    "Ġthoughtful": 16195,
    "Ġpon": 10178,
    "Ġsm": 704,
    "Ġexhib": 6351,
    "Ġmomentary": 11037,
    "uniform": 18160,
    "nurtured": 25525,
    "reference": 13843,
    "adjust": 21763,
    "Ġlean": 7607,
    "Ġmerryweather": 9525,
    "Ġsand": 6237,
    "Ġalarming": 14785,
    "Ġnoticing": 18225,
    "ichever": 13960,
    "etus": 21581,
    "Ġpew": 9318,
    "abst": 21792,
    "Ġvirtuous": 14759,
    "Ġnod": 1888,
    "apprec": 22846,
    "stricken": 9887,
    "Ġelbowed": 16115,
    "Ġdischarged": 15224,
    "Ġslices": 23166,
    "tre": 8764,
    "Ġpioneer": 17921,
    "Ġstil": 15722,
    "thirst": 15829,
    "ers": 406,
    "gan": 2196,
    "Ġmadam": 5663,
    "faced": 8080,
    "Ġdissu": 18551,
    "Ġfollowed": 1794,
    "Ġproclaim": 18134,
    "Ġattach": 14302,
    "Ġpedro": 15066,
    "handed": 7483,
    "knell": 24555,
    "Ġscents": 22291,
    "Ġunforgiving": 25996,
    "deceiving": 22148,
    "Ġide": 2122,
    "notice": 16151,
    "177": 20754,
    "writes": 4988,
    "Ġwalk": 1824,
    "Ġeager": 3573,
    "grounds": 11153,
    "Ġterror": 5124,
    "mechanically": 17303,
    "Ġfootfall": 14663,
    "ean": 20842,
    "Ġsun": 1721,
    "Ġeyford": 10644,
    "artificial": 976,
    "Ġwoods": 5406,
    "Ġflu": 3277,
    "Ġgeese": 7695,
    "Ġinterpreted": 1713,
    "ing": 273,
    "âĢĻâĢĶ": 12742,
    "Ġact": 691,
    "pilot": 25909,
    "Ġ177": 13416,
    "Ġcit": 10785,
    "ester": 11601,
    "desire": 14664,
    "irty": 4052,
    "itely": 5365,
    "Ġdoubt": 2221,
    "Ġannihilated": 20255,
    "Ġcurtain": 14418,
    "Ġperiodically": 19497,
    "heidelburgh": 21214,
    "bast": 10080,
    "Ġa": 263,
    "Ġre": 317,
    "Ġmoderate": 10941,
    "attend": 11103,
    "Ġreturned": 2894,
    "Ġunfailing": 24114,
    "excitement": 19672,
    "Ġgoble": 14232,
    "Ġbravery": 23840,
    "Ġknave": 11274,
    "beries": 22748,
    "gument": 20887,
    "Ġpretended": 19316,
    "exhibited": 18479,
    "regularly": 13212,
    "church": 8140,
    "Ġcenturies": 8626,
    "Ġunderstand": 829,
    "ued": 7562,
    "Ġweaken": 21926,
    "Ġthe": 270,
    "Ġsurpl": 19134,
    "Ġavoided": 13263,
    "Ġcol": 1058,
    "Ġsnorting": 23744,
    "mology": 12496,
    "Ġuse": 830,
    "gallantry": 15061,
    "imes": 1299,
    "Ġpresumed": 10547,
    "Ġbristol": 14383,
    "assment": 9742,
    "relics": 24018,
    "Ġbrisk": 9806,
    "iction": 4270,
    "Ġungodly": 26515,
    "everything": 6326,
    "pard": 9621,
    "isson": 23463,
    "Ġcurv": 3514,
    "Ġplanning": 14755,
    "Ġvag": 9711,
    "Ġsuspic": 4470,
    "olera": 21837,
    "fts": 18697,
    "Ġkidnapping": 26358,
    "mmar": 953,
    "ge": 560,
    "traces": 24336,
    "achel": 7034,
    "Ġinsp": 2101,
    "Ġshrouds": 11346,
    "Ġhandsomer": 20336,
    "Ġharpooned": 13266,
    "..": 5783,
    "frau": 15093,
    "Ġmenacing": 23110,
    "Ġrejected": 12298,
    "Ġsuffice": 18871,
    "Ġdecaying": 2245,
    "swells": 26149,
    "Ġcharming": 6631,
    "Ġflinging": 13589,
    "stirred": 20428,
    "Ġcoronet": 6346,
    "calmed": 16207,
    "combined": 20323,
    "Ġcountryside": 23598,
    "hill": 15366,
    "honour": 13471,
    "âĢĶâĢĶâĢĿ": 15943,
    "igation": 5919,
    "Ġaustrian": 24302,
    "Ġhorsey": 24252,
    "additional": 20467,
    "absence": 12713,
    "Ġcr": 2149,
    "urons": 3131,
    "theories": 18081,
    "Ġfuel": 13907,
    "Ġchain": 1842,
    "tom": 15438,
    "Ġrough": 7187,
    "Ġproport": 2297,
    "osed": 1960,
    "Ġrespecting": 14486,
    "wolf": 26411,
    "Ġsund": 8249,
    "Ġmarchant": 14789,
    "Ġlaw": 3656,
    "Ġbrill": 8552,
    "beating": 22492,
    "Ġices": 21157,
    "Ġincomp": 12902,
    "Ġsaintly": 25932,
    "acle": 4717,
    "Ġeddies": 25089,
    "Ġout": 542,
    "Ġfanc": 6745,
    "ultaneously": 4194,
    "needles": 20317,
    "Ġpatted": 16351,
    "Ġpurely": 12236,
    "violent": 14581,
    "dispute": 23503,
    "delay": 16697,
    "Ġruinous": 24634,
    "Ġastonished": 7089,
    "Ġdestroying": 14732,
    "Ġlatent": 19658,
    "Ġantiquity": 15234,
    "Ġdrags": 16943,
    "Ġconfidential": 9091,
    "ler": 3494,
    "Ġloathed": 15879,
    "lovel": 22513,
    "Ġfortunes": 12183,
    "Ġrails": 22661,
    "Ġefficiently": 3713,
    "Ġintru": 15831,
    "Ġflowing": 14415,
    "hemat": 3129,
    "rics": 13043,
    "arpening": 21446,
    "Ġcreeping": 18683,
    "Ġstrangest": 14799,
    "plun": 15817,
    "Ġvictims": 19807,
    "vert": 15719,
    "ater": 3371,
    "bouton": 17504,
    "Ġheld": 3588,
    "Ġflee": 7081,
    "greenland": 10024,
    "Ġsen": 9159,
    "Ġtheorem": 2325,
    "marrying": 19550,
    "Ġrobots": 11086,
    "admitted": 18094,
    "ys": 3964,
    "Ġpagan": 7119,
    "Ġgained": 4535,
    "Ġforeshadowing": 26594,
    "Ġestates": 16462,
    "Ġsnugness": 20080,
    "Ġimprecations": 25821,
    "extending": 22777,
    "Ġfinding": 3265,
    "desponding": 26343,
    "liness": 8750,
    "Ġrecollected": 8311,
    "Ġaudio": 24771,
    "Ġextraordinary": 5414,
    "Ġbet": 1134,
    "Ġrising": 4356,
    "collar": 19330,
    "2": 22,
    "cent": 8073,
    "Ġunallied": 22034,
    "Ġtransformers": 1123,
    "||": 4870,
    "Ġapplicable": 18996,
    "Ġonce": 1491,
    "better": 7121,
    "Ġroanoke": 22411,
    "ap": 546,
    "Ġstatue": 23150,
    "fired": 20862,
    "Ġpatriot": 23252,
    "horner": 23616,
    "Ġcrush": 9425,
    "quarters": 24949,
    "Ġrelu": 1043,
    "Ġphant": 7057,
    "ulsive": 10236,
    "Ġdictionary": 15116,
    "Ġinterven": 10999,
    "ward": 705,
    "77": 15304,
    "Ġadmires": 19688,
    "eminently": 25108,
    "Ġconcre": 16390,
    "hurst": 19881,
    "Ġpersuasions": 16634,
    "hur": 6651,
    "withdrawn": 23029,
    "Ġwretched": 4083,
    "Ġstubbs": 23298,
    "Ġslip": 8957,
    "Ġempty": 5354,
    "Ġstrained": 10221,
    "Ġbanqu": 12593,
    "Ġphyset": 23203,
    "Ġunkindness": 22044,
    "Ġfors": 21775,
    "suspended": 15181,
    "Ġlightness": 23264,
    "Ġsinks": 19552,
    "offended": 16400,
    "Ġprized": 23225,
    "wise": 2574,
    "Ġappear": 2485,
    "Ġsplend": 9901,
    "Ġjutting": 22312,
    "Ġshuddered": 11302,
    "ivory": 10272,
    "rimin": 2422,
    "Ġah": 5075,
    "Ġboots": 5944,
    "Ġdegrad": 2588,
    "Ġunwillingness": 20035,
    "Ġhailed": 6408,
    "Ġposs": 1614,
    "clever": 20815,
    "_": 67,
    "mit": 4934,
    "apparat": 22848,
    "Ġcyp": 21348,
    "Ġcrippled": 25279,
    "Ġvillanous": 24060,
    "Ġlessons": 7693,
    "Ġrepresentations": 1875,
    "Ġexclam": 6759,
    "horr": 14601,
    "ook": 21006,
    "oning": 7573,
    "column": 19331,
    "listened": 15046,
    "Ġvessels": 6757,
    "iquette": 26133,
    "flood": 19809,
    "expound": 23666,
    "ĠĠĠĠĠĠĠĠĠĠĠĠ": 12905,
    "Ġpaddles": 15151,
    "tled": 3459,
    "Ġshudderings": 25201,
    "Ġturban": 23615,
    "proposal": 18746,
    "Ġnasty": 17446,
    "ii": 4017,
    "cnns": 3623,
    "Ġpurposes": 11170,
    "urmountable": 15283,
    "ank": 1365,
    "Ġadorn": 12797,
    "speed": 19412,
    "magnifying": 25393,
    "acies": 14280,
    "ipl": 20920,
    "Ġsa": 472,
    "descending": 16288,
    "Ġwithdrawing": 11342,
    "izabeth": 908,
    "orn": 2241,
    ".âĢĿ": 464,
    "Ġlays": 15993,
    "answ": 15888,
    "Ġhues": 21492,
    "Ġphrenolog": 12338,
    "honorable": 19903,
    "Ġcounterbalance": 24721,
    "Ġengrossed": 13002,
    "Ġacre": 22684,
    "Ġgoblet": 25824,
    "Ġcolle": 8927,
    "Ġvideos": 13610,
    "acceler": 23600,
    "uther": 8821,
    "Ġnice": 6678,
    "ivil": 6412,
    "abouts": 9456,
    "Ġden": 3108,
    "Ġweights": 897,
    "Ġcottagers": 6762,
    "puzzling": 26144,
    "Ġintuitions": 17344,
    "Ġprow": 6686,
    "³": 116,
    "state": 13982,
    "Ġhearing": 4762,
    "whe": 1070,
    "Ġsailed": 4889,
    "Ġapologized": 25199,
    "Ġcovari": 2337,
    "months": 9074,
    "sensible": 20055,
    "ame": 645,
    "rather": 5430,
    "Ġjet": 5309,
    "Ġtokens": 1773,
    "Ġwhatever": 3477,
    "Ġbeque": 18083,
    "Ġsalmon": 24067,
    "influence": 13582,
    "acific": 4960,
    "gown": 9599,
    "Ġunrelieved": 20548,
    "iot": 9603,
    "detective": 24383,
    "dman": 10091,
    "Ġnumbers": 2890,
    "Ġfidgeted": 25890,
    "Ġincorrect": 2732,
    "effort": 19217,
    "Ġbeliefs": 24583,
    "3": 23,
    "Ġfeels": 6882,
    "fortun": 3542,
    "Ġmonosyllable": 20728,
    "arrow": 4181,
    "otes": 15748,
    "deployment": 26529,
    "Ġvanquished": 22879,
    "takes": 21079,
    "Ġboard": 3384,
    "Ġarchitectures": 2912,
    "Ġbenchmarks": 15024,
    "Ġbecause": 2208,
    "Ġmeasure": 3596,
    "Ġpecks": 18669,
    "unction": 10237,
    "Ġdesperately": 24657,
    "Ġintrude": 25991,
    "Ġuntouched": 16468,
    "Ġcontr": 1913,
    "Ġbos": 4876,
    "Ġsharing": 3480,
    "Ġnoticed": 5549,
    "Ġdear": 1540,
    "gely": 10702,
    "dz": 4740,
    "Ġcarelessly": 11122,
    "Ġcharged": 9857,
    "gus": 13728,
    "Ġhonest": 7287,
    "uary": 11540,
    "ĭ": 238,
    "network": 1921,
    "Ġunintellig": 22028,
    "Ġcrumbs": 19124,
    "Ġvehicles": 10662,
    "Ġvictory": 16656,
    "Ġclasping": 20212,
    "Ġunb": 10909,
    "Ġcried": 1486,
    "Ġkeen": 4614,
    "othing": 6996,
    "buffalo": 20566,
    "Ġmagg": 18907,
    "Ġprofanely": 23572,
    "elsewhere": 19870,
    "Ġplug": 17150,
    "gaff": 20884,
    "Ġafore": 10760,
    "mem": 10711,
    "Ġmaj": 3931,
    "late": 11501,
    "Ġgentlemen": 3644,
    "Ġdesiring": 14416,
    "scar": 9819,
    "speak": 5504,
    "Ġcens": 8414,
    "res": 2764,
    "posted": 24636,
    "movable": 14327,
    "Ġmis": 917,
    "Ġlashed": 9201,
    "ists": 4002,
    "Ġimpul": 7207,
    "Ġadapted": 11045,
    "Ġmy": 411,
    "camp": 15333,
    "aited": 12439,
    "Ġlosing": 10918,
    "ĠĠĠĠĠĠĠĠĠĠĠĠĠĠĠĠĠĠĠĠĠĠĠĠĠĠĠĠĠĠĠĠĠĠĠĠĠĠĠĠĠĠĠĠĠĠĠĠĠĠĠĠĠ": 20043,
    "Ġweb": 9243,
    "asper": 7855,
    "Ġtowing": 9196,
    "quent": 2095,
    "Ġparade": 18302,
    "tempest": 16961,
    "é": 170,
    "Ġjoky": 18407,
    "Ġstabbed": 25457,
    "Ġaccompan": 5513,
    "ture": 7559,
    "Ġfur": 991,
    "ascended": 24705,
    "ople": 2319,
    "occasion": 7754,
    "ense": 2055,
    "Ġsing": 3075,
    "Ġimpulsively": 24881,
    "fem": 17539,
    "resp": 13842,
    "squ": 7809,
    "Ġintricacies": 15142,
    "edged": 15635,
    "biqu": 17500,
    "practised": 20250,
    "pyramid": 21032,
    "Ġscuffle": 20611,
    "giv": 13725,
    "propagation": 1203,
    "Ġakin": 15498,
    "Ġabuse": 18393,
    "Ġchestnut": 19675,
    "Ġdetailed": 12833,
    "Ġtents": 13821,
    "Ġanomalous": 25638,
    "Ġbites": 23746,
    "Ġwholly": 4447,
    "points": 14397,
    "Ġattorney": 18630,
    "Ġgills": 17995,
    "Ġthoroughfares": 26096,
    "Ġaristocratic": 20516,
    "Ġsight": 2111,
    "Ġperusal": 14227,
    "Ġemerging": 24613,
    "boast": 23256,
    "Ġocean": 3304,
    "Ġconductor": 24010,
    "saturday": 14861,
    "Ġmason": 10160,
    "sheltered": 25586,
    "Ġchronicle": 20231,
    "Ġperpendicularly": 11376,
    "Ġxiv": 23410,
    "Ġbluff": 16521,
    "vict": 11543,
    "angled": 6844,
    "Ġlimped": 19183,
    "somewhere": 12017,
    "rem": 1522,
    "Ġtransport": 11280,
    "Ġble": 5223,
    "Ġpane": 21466,
    "Ġlengthen": 15658,
    "Ġcad": 12573,
    "Ġcave": 10787,
    "Ġevince": 24295,
    "Ġpol": 2576,
    "Ġdelighted": 5499,
    "Ġalluded": 7885,
    "Ġwindow": 2998,
    "cannibals": 25585,
    "if": 375,
    "atic": 4020,
    "Ġlass": 15652,
    "Ġcy": 13877,
    "Ġshade": 6552,
    "Ġprejud": 6851,
    "Ġdiver": 2529,
    "naturedly": 24841,
    "Ġideas": 5494,
    "Ġpartly": 6715,
    "secre": 18130,
    "Ġlone": 11616,
    "Ġfeminine": 15267,
    "Ġembell": 14407,
    "Ġancho": 15607,
    "Ġgrope": 17997,
    "Ġprime": 10406,
    "blazing": 24134,
    "forming": 15921,
    "Ġwidow": 8666,
    "acquaintance": 6938,
    "Ġdemoniac": 15068,
    "Ġtechnique": 2220,
    "Ġdiscl": 9800,
    "Ġremarkably": 7703,
    "gainst": 25144,
    "flutter": 23974,
    "instinctively": 26329,
    "Ġcompetent": 11820,
    "anded": 5924,
    "pute": 8849,
    "Ġgive": 1714,
    "Ġstride": 22619,
    "longbourn": 9899,
    "Ġdissembling": 26256,
    "Ġjava": 12316,
    "Ġlassitude": 20590,
    "Ġbenjamin": 26569,
    "disappo": 8987,
    "ism": 4875,
    "Ġlap": 8438,
    "Ġexplored": 23521,
    "whosoever": 22244,
    "Ġwherefore": 8527,
    "Ġprofundities": 20456,
    "ements": 11109,
    "¤": 102,
    "ceptibly": 22357,
    "Ġindiscriminately": 20630,
    "Ġprev": 6266,
    "Ġfaded": 10811,
    "christ": 10213,
    "ial": 410,
    "binder": 17502,
    "Ġradney": 6776,
    "Ġgryphon": 4301,
    "Ġscound": 12838,
    "Ġincognita": 26553,
    "Ġeludes": 26556,
    "Ġinterrupt": 4360,
    "justice": 7958,
    "(-": 2981,
    "sake": 13786,
    "arthy": 4824,
    "Ġsecondary": 23336,
    "ub": 1230,
    "Ġparent": 14647,
    "sixty": 24853,
    "Ġwharf": 9562,
    "Ġprognostics": 20561,
    "adamite": 20596,
    "Ġ*": 1272,
    "alle": 1292,
    "Ġadmiring": 16483,
    "wich": 11546,
    "lock": 1469,
    "iding": 3851,
    "write": 14649,
    "Ġecho": 12671,
    "peleg": 16297,
    "Ġanswering": 7478,
    "date": 17519,
    "Ġtwinkling": 12328,
    "Ġtamer": 24979,
    "Ġ41": 24084,
    "kilt": 4867,
    "Ġamongst": 8962,
    "forget": 11033,
    "batim": 25019,
    "Ġreceives": 20357,
    "ime": 626,
    "ife": 1026,
    "Ġspool": 24803,
    "Ġeither": 2602,
    "Ġcontrary": 5261,
    "Ġgib": 13968,
    "acit": 16084,
    "Ġdoings": 18376,
    "Ġbushy": 16404,
    "Ġcobb": 14275,
    "Ġartfully": 22613,
    "aunt": 8370,
    "ribut": 817,
    "langu": 4808,
    "Ġsuggests": 12205,
    "Ġmothers": 14542,
    "Ġobsole": 22701,
    "mad": 5281,
    "Ġthrills": 24542,
    "Ġdoes": 941,
    "Ġsolitary": 5856,
    "halfway": 24313,
    "azine": 19132,
    "Ġcourt": 4170,
    "Ġlets": 18079,
    "Ġventured": 7502,
    "Ġhun": 1495,
    "Ġsallow": 12541,
    "Ġbuckler": 24860,
    "Ġchilled": 18382,
    "Ġapothe": 12379,
    "Ġproject": 5546,
    "Ġdreamed": 16632,
    "Ġforbearance": 12332,
    "Ġcounterpane": 11345,
    "according": 12032,
    "Ġlivers": 18462,
    "Ġdense": 8123,
    "Ġwidower": 24238,
    "Ġthin": 4348,
    "Â·": 21152,
    "Ġpretensions": 16560,
    "Ġresignation": 18567,
    "ening": 3106,
    "^{": 15308,
    "Ġsends": 14794,
    "Ġsimilarity": 3168,
    "Ġreaders": 18916,
    "Ġ22": 8279,
    "touched": 15442,
    "Ġrecollecting": 17114,
    "Ġchopping": 24222,
    "scratch": 26045,
    "Ġvacuous": 24344,
    "turned": 7306,
    "coarse": 16490,
    "Ġframe": 1949,
    "weaving": 18666,
    "Ġsons": 10768,
    "Ġpurest": 14942,
    "Ġdismantled": 20219,
    "Ġangelic": 19630,
    "Ġbroom": 18908,
    "Ġfascinated": 25636,
    "Ġshores": 8852,
    "Ġcho": 4547,
    "warn": 11545,
    "gn": 8082,
    "Ġjewel": 9945,
    "regarded": 12012,
    "Ġventilator": 8717,
    "Ġjustinian": 22972,
    "Ġcries": 7155,
    "ckets": 6843,
    "Ġwr": 1544,
    "Ġmature": 17801,
    "ider": 21769,
    "dimens": 2317,
    "Ġvoluntary": 14802,
    "queequeg": 4335,
    "dearest": 11739,
    "deploy": 22146,
    "Ġearnestness": 12130,
    "ophisticated": 22482,
    "Ġsynd": 22214,
    "Ġscaramouch": 23831,
    "Ġegress": 21624,
    "rian": 10244,
    "purposes": 25024,
    "erick": 13851,
    "Ġshag": 9254,
    "Ġvanity": 7047,
    "rumours": 23924,
    "_,âĢĻâĢĿ": 20404,
    "Ġspl": 2985,
    "Ġresembled": 18036,
    "Ġ130": 24780,
    "Ġcoarsely": 25830,
    "iences": 6957,
    "Ġworship": 10369,
    "Ġgradually": 3401,
    "Ġingratitude": 17471,
    "Ġ[": 6968,
    "Ġstripping": 23700,
    "Ġbraw": 23838,
    "conclusive": 25674,
    "Ġprocesses": 3635,
    "Ġfin": 1459,
    "Ġdomes": 23648,
    "jeroboam": 25620,
    "Ġadmits": 23556,
    "Ġunbounded": 18260,
    "Ġ183": 13242,
    "cried": 8728,
    "Ġwelded": 9574,
    "Ġapparel": 20439,
    "baby": 25516,
    "Ġlabel": 14519,
    "Ġreckon": 19872,
    "Ġvanishing": 1345,
    "ĠâĢĶ": 13814,
    "Ġwaiting": 4324,
    "Ġpredestinated": 18518,
    "Ġsi": 21215,
    "Ġtwink": 8216,
    "ugn": 9381,
    "arter": 17895,
    "Ġensures": 3057,
    "Ġpresuming": 16795,
    "Ġwild": 2600,
    "Ġparamore": 22126,
    "Ġsly": 9635,
    "Ġray": 18645,
    "Ġlanyard": 26463,
    "ta": 13792,
    "ade": 882,
    "wedding": 12526,
    "surpr": 5998,
    "finished": 10557,
    "allies": 14168,
    "Ġelectric": 15198,
    "opposition": 24820,
    "ignorant": 13567,
    "possibility": 13366,
    "ignorance": 17164,
    "Ġclimates": 25053,
    "ods": 8840,
    "Ġtattered": 21174,
    "Ġincluded": 8959,
    "gradually": 12920,
    "Ġtypewriting": 16424,
    "Ġarsacides": 17297,
    "Ġneedn": 19231,
    ",_": 11464,
    "Ġergo": 25032,
    "Ġlancaster": 26342,
    "Ġfable": 15581,
    "(_": 7541,
    "Ġvisits": 8223,
    "Ġunwe": 15842,
    "waiting": 12225,
    "Ġrenewed": 9541,
    "Ġsuggested": 8321,
    "Ġ118": 19701,
    "Ġcoming": 2616,
    "possible": 5743,
    "Ġfrolic": 23928,
    "cottage": 9572,
    "Ġli": 602,
    "Ġripe": 13239,
    "Ġexp": 779,
    "Ġpicturesque": 14897,
    "grass": 23415,
    "refuge": 24733,
    "atig": 13848,
    "Ġprediction": 2293,
    "Ġrhyme": 21985,
    "gentlemanlike": 20005,
    "Ġinhaled": 25452,
    "turbaned": 24532,
    "Ġsatiated": 22904,
    "Ġcopies": 24938,
    "Ġsable": 15503,
    "Ġhailing": 11699,
    "watching": 16932,
    "Ġjokes": 18409,
    "igning": 12685,
    "Ġfibres": 12956,
    "Ġasia": 11686,
    "Ġseventh": 18207,
    "Ġap": 5008,
    "Ġwindings": 18911,
    "Ġseeks": 14306,
    "Ġac": 843,
    "conception": 22478,
    "Ġblast": 7445,
    "Ġmistake": 6205,
    "missing": 13224,
    "condite": 23249,
    "Ġaltern": 7394,
    "artic": 14224,
    "Ġscrolled": 22293,
    "Ġjup": 15956,
    "daughter": 8354,
    "Ġcherished": 10593,
    "Ġago": 3136,
    "Ġshoot": 11163,
    "binnacle": 20789,
    "content": 11200,
    "Ġpreserved": 9265,
    "machines": 8385,
    "Ġlegendary": 20540,
    "ationally": 15709,
    "Ġrib": 4936,
    "Ġslavery": 16310,
    "aneous": 7240,
    "Ġdisplaying": 16968,
    "Ġmechanism": 2284,
    "Ġsaluted": 14762,
    "Ġneighbor": 25804,
    "Ġrhone": 25231,
    "ancho": 4938,
    "Ġshowing": 7732,
    "edily": 17946,
    "hastily": 19705,
    "pardon": 10068,
    "Ġvilla": 14751,
    "Ġsoftmax": 1692,
    "Ġheavy": 3745,
    "Ġterrors": 6918,
    "Ġstrugg": 3218,
    "Ġdiameter": 19869,
    "Ġcranial": 25593,
    "Ġconstructed": 9389,
    "Ġroar": 9756,
    "south": 8762,
    "Ġyoke": 18098,
    "provoke": 26072,
    "Ġextending": 11026,
    "Ġdead": 2170,
    "Ġsusp": 2666,
    "Ġdarkened": 16435,
    "Ġwrenched": 12563,
    "Ġnonsensical": 21532,
    "Ġshirt": 8853,
    "¥": 103,
    "Ġevangelists": 20342,
    "Ġphrase": 11190,
    "Ġcrucifix": 26080,
    "Ġsprawling": 22143,
    "Ġsung": 23276,
    "Ġsheaves": 22162,
    "Ġregarding": 13214,
    "utch": 21589,
    "aching": 5832,
    "Ġcrate": 19121,
    "Ġsupport": 6730,
    "Ġconcer": 23324,
    "Ġcapst": 8599,
    "Ġmart": 10781,
    "ple": 455,
    "feel": 3814,
    "Ġfluctuating": 24417,
    "fooled": 24419,
    "chie": 21693,
    "whereby": 23420,
    "Ġinsure": 13182,
    "Ġvague": 6407,
    "Ġincurable": 22556,
    "Ġbash": 12591,
    "benefit": 24643,
    "mercenary": 26316,
    "rably": 21636,
    "she": 1398,
    "Ġobscure": 9557,
    "stuff": 15692,
    "girls": 12323,
    "helped": 18927,
    "Ġvenge": 5420,
    "icorn": 15661,
    "Ġshouts": 19540,
    "Ġdissipate": 13637,
    "Ġcop": 7581,
    "pool": 16212,
    "Ġretrieval": 10677,
    "Ġinterlude": 16074,
    "masterly": 24530,
    "Ġfirmament": 19474,
    "Ġmanoir": 22335,
    "ú": 187,
    "vessels": 10628,
    "Ġcorrid": 9827,
    "Ġvigorously": 11301,
    "engagement": 14461,
    "ioneer": 15636,
    "ont": 2621,
    "ividual": 5463,
    "Ġinhabitant": 19758,
    "azz": 8262,
    "efficient": 2873,
    "Ġrepul": 16413,
    "Ġsignify": 16497,
    "fashioned": 9573,
    "abulary": 4801,
    "Ġadhes": 22107,
    "Ġaimed": 20253,
    "Ġarduous": 26533,
    "antee": 22101,
    "Ġworkman": 16278,
    "Ġbreathless": 12174,
    "publ": 17640,
    "Ġfished": 21413,
    "Ġgettest": 23236,
    "indispensable": 14212,
    "Ġallowed": 4061,
    "Ġvishnoo": 12758,
    "Ġbulky": 13233,
    "portuguese": 25414,
    "Ġhval": 21491,
    "Ġfatig": 6758,
    "Ġphaet": 16321,
    "Ġsires": 21229,
    "Ġquery": 2479,
    "lantern": 17431,
    "many": 5250,
    "Ġsqu": 1035,
    "tent": 21067,
    "Ġbitt": 10798,
    "Ġneville": 7399,
    "Ġspec": 1262,
    "Ġplaus": 22602,
    "Ġnorms": 3667,
    "Ġeasier": 11167,
    "committed": 18743,
    "Ġheaped": 18040,
    "Ġoptim": 783,
    "Ġpardon": 5727,
    "Ġinspection": 14545,
    "Ġpedd": 17911,
    "signs": 16541,
    "ativeness": 15524,
    "Ġinteraction": 7424,
    "erranean": 9337,
    "dy": 4077,
    "Ġinteractions": 12908,
    "hastening": 24448,
    "immortal": 21713,
    "carb": 20812,
    "fedallah": 25523,
    "Ġmount": 7362,
    "Ġscandalous": 24880,
    "deformity": 22150,
    "Ġadversity": 24305,
    "Ġdo": 510,
    "Ġfalls": 14646,
    "Ġunt": 2292,
    "Ġqueen": 3214,
    "Ġshoving": 23493,
    "piled": 21017,
    "peculiarities": 13475,
    "sufficient": 6638,
    "water": 4869,
    "Ġmountains": 4427,
    "Ġgrazed": 15837,
    "prim": 23814,
    "Ġdonkey": 23231,
    "Ġpeleg": 3740,
    "arus": 13915,
    "Ġbir": 17855,
    "Ġperemptorily": 17370,
    "Ġpursuit": 4734,
    "shell": 16290,
    "Ġcaptivating": 26050,
    "Ġmaiden": 13390,
    "Ġax": 7822,
    "orable": 8120,
    "Ġgone": 2107,
    "roylott": 20030,
    "aks": 8509,
    "pence": 15412,
    "Ġconvincing": 19310,
    "Ġcommonplaces": 16292,
    "Ġmien": 17810,
    "hurriedly": 25511,
    "Ġfaintness": 24571,
    "arson": 22751,
    "Ġsuns": 23277,
    "Ġsmoke": 4716,
    "plans": 21954,
    "librarian": 26570,
    "lucifer": 25302,
    "rugg": 15906,
    "belais": 24044,
    "Ġexclamations": 11363,
    "perplex": 18339,
    "Ġconjecture": 9535,
    "Ġcontracting": 16015,
    "Ġglobe": 6077,
    "sky": 12515,
    "Ġfits": 8795,
    "Ġvancou": 22878,
    "Ġlung": 7168,
    "linearity": 1651,
    "Ġmed": 4178,
    "Ġchorus": 10948,
    "Ġrecompense": 14841,
    "Ġhinge": 25542,
    "Ġsalt": 8017,
    "Ġdismal": 11814,
    "Ġamused": 11803,
    "earthquakes": 24724,
    "Ġbreaches": 14523,
    "Ġminuteness": 19140,
    "colnett": 19332,
    "itud": 2932,
    "Ġstarry": 16925,
    "Ġimmensely": 13599,
    "Ġproc": 5545,
    "Ġreckless": 13462,
    "Ġcalifornia": 20533,
    "Ġpleaded": 16302,
    "generally": 9438,
    "minute": 11276,
    "Ġpharaoh": 26587,
    "Ġhaunted": 10258,
    "rative": 17654,
    "Ġgallied": 19559,
    "sentence": 2940,
    "owing": 7603,
    "riminately": 16486,
    "Ġdoctors": 12156,
    "Ġdeploy": 2636,
    "murderer": 13397,
    "adequately": 20322,
    "wanted": 10745,
    "Ġdestination": 19151,
    "Ġlirra": 21563,
    "Ġgrown": 5628,
    "Ġindustry": 18839,
    "ille": 9222,
    "Ġenvironmental": 24040,
    "cturn": 17989,
    "Ġxxiv": 24477,
    "Ġgames": 11629,
    "Ġruff": 14353,
    "Ġdevoted": 6575,
    "Ġsuperhuman": 23454,
    "event": 8077,
    "Ġdrowsiness": 26447,
    "Ġinsurg": 23685,
    "Ġadditional": 7936,
    "adays": 14016,
    "Ġbelieve": 2145,
    "Ġoffences": 18692,
    "compose": 24037,
    "Ġexhibited": 9547,
    "_.âĢĶ": 23474,
    "Ġguardsmen": 20633,
    "blame": 14797,
    "pleas": 3856,
    "Ġpal": 4044,
    "Ġmention": 2987,
    "Ġinno": 1356,
    "hid": 13737,
    "Ġware": 12559,
    "erness": 6435,
    "it": 276,
    "foundered": 20869,
    "Ġgroan": 13329,
    "Ġsympt": 7014,
    "Ġtowns": 11175,
    "calabash": 22897,
    "ollen": 11300,
    "deli": 15348,
    "Ġcourtship": 24138,
    "Ġstillness": 13000,
    "Ġexpl": 486,
    "ortal": 6267,
    "Ġexact": 2542,
    "Ġguide": 3217,
    "Ġsed": 10763,
    "Ġintercept": 14272,
    "Ġferry": 24498,
    "long": 2914,
    "iffe": 21906,
    "Ġfurs": 18739,
    "Ġgrasped": 8034,
    "Ġfailing": 12142,
    "Ġpout": 17908,
    "Ġpondered": 15170,
    "Ġbald": 16210,
    "Ġcorners": 18876,
    "arse": 7161,
    "Ġbloodthirsty": 26603,
    "law": 6117,
    "Ġenough": 1761,
    "Ġarbitrary": 4737,
    "ernal": 4313,
    "Ġruin": 6057,
    "ribution": 14310,
    "bearing": 9768,
    "Ġoverhead": 11777,
    "cushion": 20823,
    "Ġwhere": 785,
    "prevent": 11799,
    "Ġpacing": 8427,
    "Ġinfiltrated": 23286,
    "Ġgale": 5823,
    "Ġdeposition": 18612,
    "Ġwedded": 15539,
    "otion": 4946,
    "eer": 15351,
    "lesson": 22769,
    "Ġburnished": 24001,
    "Ġcircumference": 13548,
    "cru": 7128,
    "Ġmonster": 3796,
    "Ġcrystall": 20229,
    "Ġrapturously": 24889,
    "gue": 12472,
    "rimshander": 20659,
    "sche": 13024,
    "Ġhousekeeper": 7456,
    "vulgar": 25919,
    "Ġloaded": 8493,
    "Ġstung": 21742,
    "Ġobligations": 12097,
    "Ġdirty": 9181,
    "Ġfle": 3092,
    "hinting": 17571,
    "Ġlungless": 24864,
    "Ġscenes": 5731,
    "parlour": 16395,
    "Ġbuffalo": 11431,
    "girl": 12322,
    "Ġcomo": 21846,
    "Ġalman": 21785,
    "icing": 9203,
    "stave": 21652,
    "Ġcorre": 3892,
    "iastic": 12484,
    "Ġclamped": 18424,
    "threatened": 25463,
    "Ġhath": 12633,
    "Ġleast": 2067,
    "ouses": 5163,
    "Ġres": 696,
    "firm": 10700,
    "Ġmute": 19419,
    "Ġfearfully": 23515,
    "Ġlinked": 15081,
    "conduct": 11801,
    "orated": 12596,
    "Ġambitious": 18513,
    "Ġoccupies": 24011,
    "returning": 12210,
    "Ġarticulated": 24433,
    "ructure": 760,
    "Ġunseason": 22054,
    "Ġcharacteristically": 23695,
[...]
