{
  "metadata": {
    "vocab_size": 26616,
    "algorithm": "BPE",
    "created_at": "2026-07-04 05:44:00",
    "special_tokens": [
      "<PAD>",
      "<SOS>",
      "<EOS>",
      "<UNK>",
      "<MASK>"
    ]
  },
  "vocab": {
    "Ġprobable": 5570,
    "or": 282,
    "imens": 1746,
    "amount": 10886,
    "Ġinexpressible": 17336,
    "scorched": 25698,
    "house": 4079,
    "again": 3402,
    "solved": 7685,
    "hundred": 8331,
    "Ġtrifle": 10604,
    "Ġjuggl": 20441,
    "raint": 18317,
    "bon": 13688,
    "Ġapr": 12537,
    "accordingly": 19214,
    "Ġthrowing": 6337,
    "awed": 10394,
    "Ġmonomania": 17086,
    "thodox": 21992,
    "Ġfluid": 11214,
    "hark": 15369,
    "Ġadagrad": 2900,
    "Ġconsult": 6058,
    "Ġmantelpiece": 15211,
    "Ġwithdrew": 9699,
    "insisted": 23071,
    "Ġinfinite": 8580,
    "Ġrelations": 5854,
    "Ġphrenologists": 25609,
    "Ġenraptured": 26502,
    "Ġaccompan": 5513,
    "Ġrock": 5311,
    "compose": 24035,
    "[": 63,
    "Ġproducts": 5198,
    "transformer": 25018,
    "peculiar": 6886,
    "Ġindependence": 12109,
    "onds": 13001,
    "Ġunprepared": 22052,
    "landlord": 9843,
    "Ġalbatross": 10873,
    "spirit": 11315,
    "moving": 11018,
    "Ġshave": 22000,
    "creat": 20802,
    "Ġdecanting": 22461,
    "embraced": 25805,
    "Ġprow": 6686,
    "Ġdecided": 5471,
    "ref": 6516,
    "ructure": 764,
    "inking": 6711,
    "Ġsubl": 7235,
    "upper": 11541,
    "Ġcontroverted": 23254,
    "Ġtechnical": 17194,
    "heeded": 13837,
    "Ġsalvation": 14760,
    "play": 5099,
    "jackets": 24896,
    "Ġsteady": 4849,
    "Ġjur": 12839,
    "Ġhagger": 21494,
    "arter": 17895,
    "ried": 925,
    "henomen": 10497,
    "av": 739,
    "cy": 641,
    "nt": 920,
    "clopÃ¦": 13061,
    "tormented": 13649,
    "savor": 25027,
    "het": 5435,
    "wis": 12523,
    "rying": 3184,
    "Ġlog": 1677,
    "Ġrelate": 6875,
    "Ġdeadliest": 14558,
    "Ġjunks": 25116,
    "irement": 18359,
    "Ġtrowsers": 9630,
    "Ġcivility": 4789,
    "par": 1904,
    "leisure": 21374,
    "Ġincapable": 7423,
    "Ġboats": 2637,
    "Ġalongside": 6313,
    "Ġkiller": 19571,
    "Ġslices": 23169,
    "Ġtuck": 10143,
    "squeezing": 25914,
    "Ġren": 3848,
    "Ġflung": 8566,
    "Ġsaintly": 25932,
    "Ġlingo": 24904,
    "Ġhead": 1122,
    "getic": 12971,
    "oses": 3949,
    "wantonly": 25153,
    "Ġbuck": 7158,
    "Ġnut": 12651,
    "icult": 3341,
    "Ġbranch": 8332,
    "Ġeyeing": 6461,
    "Ġslender": 11944,
    "obvious": 9360,
    "Ġoper": 2122,
    "Ġamid": 4959,
    "Ġvest": 8163,
    "bury": 9110,
    "Ġblame": 6447,
    "bastian": 10676,
    "Ġwre": 5077,
    "threshold": 21991,
    "dropout": 3194,
    "Ġproprietor": 12377,
    "onely": 6517,
    "Ġinevitably": 17233,
    "Ġmanifold": 13564,
    "Ġexhaustion": 14964,
    "Ġconceited": 12096,
    "Ġsays": 3564,
    "Ġstrikes": 13185,
    "Ġcommunications": 16358,
    "Ġledge": 19404,
    "prophecy": 22839,
    "lab": 3459,
    "gazed": 15365,
    "Ġnewfound": 22935,
    "performances": 26007,
    "Ġcomm": 839,
    "Ġtongues": 14866,
    "Ġdecember": 15009,
    "irwin": 8471,
    "Ġrepay": 19083,
    "throwing": 11707,
    "coll": 23782,
    "Ġgenteel": 19984,
    "Ġprot": 3850,
    "Ġdelights": 14598,
    "Ġpray": 3902,
    "Ġspiced": 22137,
    "Ġreptile": 15281,
    "Ġsallied": 12542,
    "Ġpractices": 19068,
    "ifts": 12740,
    "scand": 18857,
    "imag": 6991,
    "Ġhelmet": 19690,
    "Ġcolouring": 16753,
    "Ġregularization": 1167,
    "giv": 13725,
    "eling": 6683,
    "fowl": 17551,
    "swing": 15432,
    "Ġdil": 6384,
    "Ġgesture": 11401,
    "Ġsobs": 14138,
    "Ġwhistling": 19793,
    "chet": 13221,
    "Ġrevealing": 3928,
    "Ġvide": 10253,
    "atiate": 12553,
    "Ġlunging": 24992,
    "Ġillustrious": 17110,
    "exactly": 10639,
    "min": 4573,
    "bast": 10080,
    "passion": 11262,
    "heavy": 10577,
    "ckets": 6843,
    "Ġfolded": 7768,
    "iop": 20921,
    "Ġstings": 21741,
    "Ġprocessing": 895,
    "path": 10121,
    "Ġhandling": 8916,
    "ĳ": 244,
    "choose": 23673,
    "vap": 13806,
    "Ġtrust": 4081,
    "octial": 20008,
    "Ġagain": 814,
    "Ġwag": 10777,
    "Ġscud": 14193,
    "barrel": 17061,
    "ines": 664,
    "Ġpassengers": 13679,
    "Ġmeets": 7396,
    "Ġequ": 1733,
    "roused": 16655,
    "Ġrector": 21679,
    "âĢĶâĢľ": 2967,
    "Ġdolphin": 17315,
    "Ġanimation": 11154,
    "chant": 4262,
    "Ġpanther": 16821,
    "Ġdeposition": 18613,
    "Ġroylott": 7305,
    "servants": 15040,
    "Ġsy": 489,
    "Ġreneg": 21678,
    "pher": 11514,
    "Ġarchly": 22783,
    "Ġ36": 14770,
    "wherefore": 19110,
    "alous": 7372,
    "consider": 6350,
    "pun": 9620,
    "¦": 104,
    "Ġfurnaces": 24008,
    "oblig": 16294,
    "southern": 20412,
    "erc": 5906,
    "actions": 8910,
    "penetrating": 25491,
    "Ġnest": 10191,
    "Ġloungers": 24863,
    "wreat": 21130,
    "rel": 3756,
    "Ġstrangled": 24136,
    "rals": 21045,
    "Ġswift": 3672,
    "Ġwalk": 1825,
    "idents": 6152,
    "lemency": 21377,
    "Ġbible": 9322,
    "ication": 992,
    "Ġconsort": 18724,
    "connect": 1295,
    "Ġanalysis": 1961,
    "Ġthird": 4191,
    "Ġindisc": 16231,
    "Ġprobability": 1125,
    "Ġmemb": 14033,
    "prodig": 16430,
    "Ġgratified": 8021,
    "Ġnonce": 23236,
    "]": 65,
    "Ġdived": 9180,
    "Ġrussian": 14353,
    "Ġadoption": 24951,
    "Ġindomitableness": 26573,
    "Ġ131": 24781,
    "Ġstuck": 9225,
    "Ġinvented": 17038,
    "Ġleg": 2334,
    "Ġwas": 370,
    "pencil": 18829,
    "Ġtalked": 4424,
    "Ġrests": 13097,
    "Ġconsol": 3818,
    "Ġprofundities": 20456,
    "Ġengaged": 3432,
    "itting": 1151,
    "carries": 19530,
    "pol": 5894,
    "Ġsecrecy": 7316,
    "Ġreddening": 25971,
    "Ġbur": 2696,
    "Ġreflecting": 24750,
    "Ġboisterously": 25683,
    "Ġcomb": 1034,
    "erred": 6377,
    "Ġknave": 11274,
    "Ġdet": 513,
    "Ġmitt": 21310,
    "Ġwretched": 4083,
    "Ġembatt": 18839,
    "Ġhealthful": 24061,
    "Ġ73": 24263,
    "Ġhorrid": 7999,
    "christ": 10213,
    "increas": 10456,
    "ports": 13777,
    "fat": 8079,
    "loved": 14253,
    "chief": 4646,
    "caught": 8730,
    "trowsers": 17693,
    "Ġwithheld": 18117,
    "Ġturkey": 19220,
    "prevailed": 17348,
    "olerable": 7183,
    "pe": 1436,
    "Ġforemost": 12009,
    "Ġcongen": 10875,
    "susp": 10599,
    "reflection": 13459,
    "weaknesses": 26031,
    "Ġmorality": 22983,
    "Ġwrenched": 12563,
    "Ġcanted": 17833,
    "Ġapo": 9633,
    "Ġsake": 4093,
    "Ġnlp": 3057,
    "inent": 9631,
    "Ġcommenced": 8534,
    "letons": 14615,
    "Ġuprising": 12807,
    "cess": 539,
    "Ġspeeches": 22665,
    "Ġbolted": 12249,
    "Ġappalling": 8502,
    "Ġbloodshot": 23802,
    "Ġdegree": 3706,
    "Ú": 155,
    "lev": 1237,
    "Ġphr": 2679,
    "Ġcapric": 14578,
    "four": 6115,
    "rious": 11693,
    "Ġstaring": 8830,
    "Ġabject": 18392,
    "anoke": 21364,
    "Ġtriumphantly": 11289,
    "Ġmap": 2390,
    "grate": 23414,
    "Ġsou": 1884,
    "lested": 14886,
    "Ġdiffered": 22714,
    "Ġoppressive": 20458,
    "serv": 7451,
    "Ġcentury": 8291,
    "owe": 15712,
    "Ġhold": 2245,
    "Ġguitar": 16273,
    "nings": 9134,
    "Ġrese": 2280,
    "Ġswords": 19899,
    "Ġcauldron": 25442,
    "ubb": 1651,
    "encoura": 15051,
    "Ġhypothesis": 14786,
    "unders": 13315,
    "Ġhurried": 4033,
    "ball": 7793,
    "Ġforswe": 21778,
    "Ġstately": 9837,
    "Ġcler": 11774,
    "Ġspace": 1520,
    "Ġformer": 3323,
    "Ġbrougham": 17872,
    "bted": 7794,
    "Ġchron": 19441,
    "Ġpanic": 11288,
    "Ġflann": 23018,
    "ouch": 2776,
    "ory": 1081,
    "prophet": 16183,
    "Ġreplay": 5047,
    "Ġden": 3104,
    "mistakable": 20655,
    "Ġengage": 9338,
    "priv": 9622,
    "sequently": 14585,
    "Ġcatch": 4444,
    "Ġimbalance": 22178,
    "regret": 16451,
    "Ġglittering": 10056,
    "Ġaid": 6124,
    "Ġbri": 21381,
    "silent": 9977,
    "Ġaided": 17747,
    "rified": 15422,
    "Ġmiz": 10779,
    "Ġjup": 15956,
    "olera": 21837,
    "Ġvort": 18194,
    "Ġquery": 2479,
    "Ġfull": 2178,
    "been": 3345,
    "Ġmatters": 4973,
    "Ġfragrant": 13101,
    "Ġginger": 9213,
    "Ġsavory": 23879,
    "Ġply": 21456,
    "Ġodds": 13334,
    "Ġghosts": 12237,
    "lished": 8383,
    "Ġfront": 3454,
    "ouder": 17902,
    "necessary": 5883,
    "windibank": 24164,
    "Ġdepress": 14051,
    "meditated": 19074,
    "Ġcocksure": 26260,
    "Ġlearning": 386,
    "Ġlicensing": 20096,
    "found": 4218,
    "Ġfretfully": 25448,
    "Ġupward": 9724,
    "Ġheat": 5453,
    "declined": 25175,
    "orne": 17874,
    "Ġcabal": 23643,
    "Ġshocking": 10437,
    "Ġbeaut": 2392,
    "dying": 15344,
    "opÃ¦": 12877,
    "Ġbunch": 11328,
    "Ġjustine": 4970,
    "distant": 13339,
    "Ġcalculating": 9928,
    "Ġreference": 2565,
    "Ġungrateful": 14124,
    "abez": 10225,
    "Ġforehead": 5262,
    "Ġprobably": 4318,
    "Ġinconceivable": 17940,
    "Ġcoopman": 25829,
    "loaded": 22515,
    "indust": 18436,
    "Ġlic": 8437,
    "raised": 15683,
    "urmountable": 15283,
    "Ġbenefited": 19401,
    "Ġfoolishly": 19785,
    "Ġpainting": 13145,
    "ientific": 6549,
    "Ġchurned": 18385,
    "Ġpredecessor": 26255,
    "stairs": 5155,
    "Ġcling": 11775,
    "Ġliberality": 24377,
    "which": 1708,
    "Ġcaress": 16343,
    "constable": 24606,
    "Ġmaking": 1780,
    "growing": 13736,
    "Ġcentaurs": 23836,
    "Ġcalam": 13039,
    "Ġheedless": 14906,
    "impregnable": 26483,
    "Ġravines": 25833,
    "quadrille": 20598,
    "Ġjoker": 22302,
    "skinned": 25388,
    "Ġbre": 1913,
    "prepar": 22471,
    "final": 19679,
    "etymology": 14704,
    "peleg": 16297,
    "grateful": 10430,
    "joining": 19449,
    "Ġhartshorn": 26182,
    "ni": 1644,
    "Ġrooms": 5180,
    "Ġswarm": 23057,
    "smo": 10128,
    "Ġhands": 1665,
    "gay": 11491,
    "Ġnois": 4271,
    "dock": 16422,
    "inquiry": 15146,
    "faces": 13723,
    "Ġunrest": 11718,
    "Ġhorizon": 6635,
    "tol": 17674,
    "Ġgrasping": 12170,
    "Ġmutter": 23957,
    "different": 6502,
    "enthusiastic": 20695,
    "Ġgir": 2256,
    "Ġprobed": 18734,
    "Ġdirected": 5579,
    "Ġfatal": 5873,
    "Ġsoftware": 18920,
    "afric": 19181,
    "sul": 15424,
    "Ġbra": 3253,
    "Ġcapable": 5054,
    "token": 21085,
    "Ġsixteen": 8283,
    "Ġcosmetic": 23475,
    "Ġgradual": 20604,
    "fellows": 12278,
    "Ġrain": 5005,
    "itled": 7578,
    "Ġparticip": 16135,
    "vices": 21119,
    "mped": 16650,
    "peaceful": 20450,
    "Ġproportion": 7281,
    "Ġpout": 17908,
    "monsters": 19173,
    "Ġspout": 3281,
    "una": 21873,
    "comprehend": 14364,
    "Ġevil": 3809,
    "pshire": 21026,
    "ologist": 22874,
    "Ġforeign": 9875,
    "horizon": 23617,
    "Ġmerchants": 23735,
    "Ġclum": 8876,
    "Ġslaught": 23171,
    "Ġscepticism": 25928,
    "Ġted": 13815,
    "burning": 25081,
    "engines": 18930,
    "Ġumb": 11649,
    "Ġextent": 7656,
    "ibilities": 13017,
    "Ġleague": 6540,
    "conducted": 25573,
    "Ġoccurred": 4465,
    "howling": 18990,
    "Ġeconomically": 25289,
    "Ġnamed": 6141,
    "č": 206,
    "uity": 12522,
    "sales": 17669,
    "Ġrelish": 14387,
    "physiogn": 26267,
    "Ġbehind": 2803,
    "mbles": 23092,
    "Ġagatha": 6866,
    "respond": 12549,
    "Ġmates": 4873,
    "spouting": 25003,
    "Ġgilded": 17448,
    "Ġspectrum": 4477,
    "insulting": 26056,
    "Ġvault": 8845,
    "Ġinduced": 8674,
    "Ġcontentment": 14873,
    "Ġcoin": 9774,
    "Ġleviathans": 8282,
    "circumamb": 26088,
    "Ġtranqu": 4606,
    "Ġdeceased": 15008,
    "Ġunaccountably": 26517,
    "Ġprofile": 16490,
    "case": 5206,
    "promontory": 24727,
    "only": 3307,
    "Ġconsequ": 6256,
    "Ġwords": 1326,
    "cav": 17510,
    "oided": 11511,
    "bad": 12440,
    "Ġaccorded": 24093,
    "contriv": 19295,
    "Ġsliding": 9366,
    "Ġwrapt": 24596,
    "Ġusing": 714,
    "Ġgrampus": 21997,
    "Ġfireside": 23534,
    "Ġhourly": 23303,
    "homely": 25618,
    "Ġtongue": 6349,
    "Ġcontaining": 2233,
    "Ġforeman": 23448,
    "Ġextraordinary": 5414,
    "Ġmoisture": 12363,
    "continually": 11304,
    "Ġlav": 13953,
    "âĢĻâĢĶ": 12741,
    "Ġshortness": 23485,
    "Ġcom": 368,
    "society": 9975,
    "ĉ": 202,
    "Ġquar": 3110,
    "Ġdear": 1539,
    "influ": 9544,
    "Ġexterm": 21833,
    "tempest": 16961,
    "taken": 7560,
    "Ġtattooing": 15030,
    "Ġsadly": 7302,
    "Ġdeem": 18139,
    "Ġdespise": 14668,
    "Ġsnowy": 9021,
    "Ġwails": 21299,
    "sloop": 26146,
    "rudent": 6483,
    "Ġcart": 11586,
    "Ġerror": 1766,
    "Ġbands": 14887,
    "charmed": 21699,
    "ortion": 11761,
    "Ġimpulses": 19965,
    "Ġremark": 2145,
    "Ġ94": 17719,
    "ste": 3587,
    "oment": 919,
    "Ŀ": 256,
    "ĠâĢľâĢĶ": 9737,
    "ister": 1298,
    "hideous": 25408,
    "Ġdiscours": 18719,
    "anchor": 13892,
    "ark": 849,
    "Ġpaws": 13924,
    "artificial": 1054,
    "Ġclosed": 4607,
    "ouble": 2660,
    "rev": 17758,
    "rably": 21636,
    "Ġcyp": 21348,
    "Ġorlop": 22097,
    "Ġimm": 3967,
    "quadr": 15768,
    "Ġain": 6970,
    "tures": 21072,
    "Ġlip": 6534,
    "Ġpalmed": 24094,
    "Ġ97": 19777,
    "Ġverify": 12092,
    "tles": 10732,
    "Ġloun": 7167,
    "annica": 24562,
    "Ġhope": 1790,
    "rarely": 21637,
    "ha": 3983,
    "ony": 3024,
    "visitor": 15060,
    "Ġfrayed": 23305,
    "Ġprofessors": 14728,
    "prehensible": 12364,
    "Ġblunder": 18820,
    "Ġeagle": 13206,
    "ubbub": 23247,
    "Ġsaxe": 13631,
    "Ġ**": 4722,
    "magnitude": 17251,
    "Ġgeneralization": 982,
    "Ġdepend": 796,
    "Ġmonuments": 22989,
    "Ġdistinguishing": 16499,
    "stirring": 20429,
    "covered": 11479,
    "Ġassumed": 9468,
    "Ġcastle": 14720,
    "Ġhans": 12631,
    "Ġviolin": 16431,
    "Ġidentical": 10436,
    "draughts": 20391,
    "alo": 7588,
    "grounds": 11153,
    "Ġasc": 4766,
    "plex": 708,
    "proved": 11991,
    "porary": 14552,
    "Ġchristendom": 16696,
    "Ġtale": 5142,
    "Ġstable": 2697,
    "actorily": 25577,
    "Ġasser": 6259,
    "sacred": 17030,
    "Ġdilig": 8350,
    "Ġrecurred": 18978,
    "Ġflank": 8229,
    "uttering": 12667,
    "Ġsoil": 9258,
    "mo": 863,
    "cturn": 17989,
    "Ġstubbornness": 25380,
    "Ġunappalled": 22067,
    "Ġjura": 14195,
    "Ġtarts": 10755,
    "Ġemblematical": 25789,
    "gg": 1994,
    "Ġpuzz": 5533,
    "Ġbubble": 13538,
    "Ġunreasonably": 17454,
    "Ġsuffered": 5649,
    "Ġchag": 15935,
    "Ġnasty": 17446,
    "Ġpreser": 6042,
    "pen": 1202,
    "Ġmaria": 7126,
    "difficulty": 12394,
    "fortune": 4974,
    "Ġbackwater": 18650,
    "laying": 19775,
    "ference": 1879,
    "Ġpressure": 13426,
    "towing": 17691,
    "Ġdimin": 3874,
    "itated": 4443,
    "Ġcritically": 23445,
    "Ġleap": 5824,
    "Ġ128": 24473,
    "Ġbenchmarks": 15024,
    "quee": 4134,
    "Ġtempest": 8213,
    "Ġobst": 6286,
    "Ġmiguel": 25767,
    "descend": 23089,
    "announcement": 24563,
    "Ġalleged": 17293,
    "Ġassistant": 7298,
    "Ġconsulted": 13434,
    "Ġcases": 3963,
    "men": 1485,
    "âĢ": 294,
    "Ġsmiting": 12903,
    "Ġcomposure": 7217,
    "Ġfootmen": 23800,
    "Ġpredicting": 2414,
    "Ġgaily": 16750,
    "³": 116,
    "andam": 10890,
    "Ġhart": 17924,
    "hold": 3984,
    "Ġloaf": 15876,
    "Ġpresent": 1640,
    "Ġum": 10214,
    "Ġwave": 7576,
    "atoes": 17777,
    "Ġshowed": 4499,
    "shrouded": 26363,
    "Ġdance": 4445,
    "Ġjingling": 26018,
    "idge": 14017,
    "Ġhaggerston": 26454,
    "Ġoutward": 7904,
    "Ġnetwork": 455,
    "Ġdifference": 1488,
    "unned": 21882,
    "french": 9122,
    "antial": 8490,
    "Ġstrictly": 12289,
    "Ġscope": 15948,
    "provided": 13641,
    "canallers": 22974,
    "rucastle": 22192,
    "iences": 6957,
    "Ġtertiary": 15298,
    "Ġfarm": 7840,
    "Ġmaterial": 5178,
    "Ġinterpret": 5490,
    "fisher": 7547,
    "Ġod": 4442,
    "Ġsympathise": 16796,
    "Ġriv": 10748,
    "Ġalteration": 9549,
    ");": 7330,
    "Ġsmell": 7216,
    "inable": 11558,
    "cellar": 20280,
    "abled": 12799,
    "linearity": 1652,
    "Ġtransformed": 22611,
    "Ġblue": 3457,
    "Ġprocopius": 19734,
    "Ġdestroy": 5772,
    "Ġpil": 5014,
    "Ġindelicacy": 25696,
    "oura": 1061,
    "forced": 11033,
    "Ġcoolness": 16888,
    "Ġurged": 6782,
    "Ġreassure": 21675,
    "poured": 17639,
    "Ġpersevering": 20236,
    "thorough": 21989,
    "Ġdodo": 9075,
    "Ġswe": 2288,
    "Ġaffl": 14389,
    "bat": 8072,
    "Ġearliest": 9833,
    ",âĢĶ": 3168,
    "unks": 15779,
    "Ġuninterrupted": 22048,
    "Ġvillanous": 24057,
    "Ġconnexion": 11456,
    "Ġpetersburgh": 24231,
    "pain": 7350,
    "Ġpitches": 23905,
    "Ġendure": 5957,
    "Ġglistening": 12369,
    "Ġnav": 5819,
    "Ġpart": 860,
    "Ġlaughed": 5059,
    "bone": 5612,
    "Ġmarched": 18874,
    "Ġfam": 1587,
    "Ġbecoming": 4401,
    "Ġcarrying": 6073,
    "Ġreproachfully": 25252,
    "Ġdeser": 3889,
    "ulous": 4453,
    "umerable": 11729,
    "Ġtorments": 13398,
    "Ġarrow": 10933,
    "Ġgrowled": 19285,
    "Ġcalendar": 18879,
    "diver": 20833,
    "snow": 10726,
    "abases": 3002,
    "rivial": 9437,
    "ose": 718,
    "conclusion": 25672,
    "Ġguardsmen": 20633,
    "black": 6769,
    "Ġvisibly": 22887,
    "Ġwoeful": 19622,
    "wants": 21133,
    "Ġshed": 8181,
    "Ġaggregate": 25678,
    "general": 7489,
    "winds": 10524,
    "umer": 9261,
    "driver": 14924,
    "Ġpermitting": 22403,
    "Ġlowerings": 23648,
    "imitably": 21714,
    "Ġholiest": 18813,
    "Ġequinoctial": 20535,
    "Ġbizarre": 17873,
    "Ġdiverse": 19210,
    "Ġintellig": 526,
    "threw": 21988,
    "resist": 8276,
    "Ġleeward": 6212,
    "Ġpurch": 6601,
    "drowned": 17372,
    "Ġdella": 21442,
    "Ġsuff": 1307,
    "Ġconfidential": 9091,
    "Ġsells": 21226,
    "Ġrelationships": 2922,
    "Ġrecursive": 4783,
    "Ġsage": 17754,
    "elastic": 17983,
    "_).âĢĶ": 8685,
    "clu": 20801,
    "oke": 1857,
    "hue": 20900,
    "Ġtrucks": 19515,
    "Ġilliterate": 26596,
    "meryton": 10114,
    "Ġsolicited": 20040,
    "akened": 7415,
    "Ġominous": 12428,
    "Ġtrous": 10959,
    "icit": 3380,
    "Ġsuggestions": 24453,
    "Ġsan": 7824,
    "Ġaffectionately": 13172,
    "gen": 6504,
    "Ġnose": 4406,
    "incing": 15488,
    "brit": 19199,
    "ascertain": 21546,
    "collins": 6916,
    "Ġbitterest": 12406,
    "Ġlabor": 10420,
    "forgotten": 12420,
    "Ġunwinding": 22062,
    "swinging": 25913,
    "Ġhunter": 5401,
    "developed": 15268,
    "Ġroot": 2649,
    "do": 1993,
    "finish": 24384,
    "Ġgreenland": 5761,
    "lest": 5290,
    "Ġadmiring": 16482,
    "valu": 1751,
    "Ġturnpike": 23032,
    "Ġeavesdroppers": 25964,
    "pertaining": 22187,
    "Ġdrag": 6186,
    "Ġnominally": 17234,
    "pride": 11212,
    "Ġbal": 1133,
    "despairing": 25077,
    "Ġjo": 2608,
    "Ġphysiognomy": 25611,
    "Ġthumb": 6982,
    "Ġselecting": 16683,
    "offered": 14518,
    "ched": 1545,
    "Ġtransformers": 1117,
    "swept": 19789,
    "bordered": 17501,
    "51": 12435,
    "Ġmistake": 6205,
    "Ġ58": 24322,
    "Ġstricken": 9779,
    "Ġprem": 3429,
    "whose": 6852,
    "istics": 1627,
    "Ġont": 18121,
    "Ġblaze": 16224,
    "Ġdigging": 14941,
    "Ġfeatures": 1432,
    "Ġturn": 1302,
    "Ġelse": 2480,
    "Ġante": 17898,
    "dilig": 17285,
    "shunned": 22459,
    "Ġrosings": 4609,
    "caut": 20814,
    "soon": 4029,
    "unwholesome": 26499,
    "Ġmeasures": 1205,
    "Ġconfed": 13102,
    "Ġparted": 5930,
    "tal": 17672,
    "ignified": 14492,
    "Ġeth": 17718,
    "Ġacquiring": 2764,
    "Ġsixty": 7723,
    "Ġdeploy": 2930,
    "Ġharpoons": 5659,
    "K": 47,
    "Ġdecreed": 18491,
    "cripp": 20821,
    "nyder": 16687,
    "stove": 21655,
    "ober": 15409,
    "Ġvindictiveness": 25739,
    "icilian": 20694,
    "carrying": 16714,
    "Ġconsequently": 8060,
    "Ġdefects": 12337,
    "Ġascribed": 14858,
    "aggoo": 5130,
    "Ġanoint": 25538,
    "Ġfeedback": 23435,
    "Ġleaders": 16630,
    "offices": 19061,
    "Ġinsp": 2102,
    "Ġfavoring": 2343,
    "Ġprofessed": 14727,
    "Ġrec": 904,
    "Ġinflex": 20637,
    "Ġcruelly": 13379,
    "acquaintance": 6938,
    "Ġprophesied": 26063,
    "teness": 23207,
    "Ġpolitely": 8996,
    "rannical": 26403,
    "queen": 12732,
    "Ġsof": 18283,
    "Ġdried": 7367,
    "Ġlandscape": 12421,
    "irt": 3072,
    "Ġeas": 2352,
    "Ġwaste": 9237,
    "introduce": 25187,
    "rights": 23675,
    "Ġoccupant": 16654,
    "Ġintent": 6410,
    "Ġ[\"": 19933,
    "Ġhearing": 4762,
    "+": 15,
    "Ġidentify": 12018,
    "rons": 21042,
    "Ġwicked": 5962,
    "Ġabsorb": 25115,
    "Ġrecommence": 16814,
    "Ġdiscomp": 11870,
    "Ġtamer": 24979,
    "Ġbarred": 9005,
    "broken": 8020,
    "entered": 8819,
    "Ġspectre": 16633,
    "rings": 10724,
    "Ġunpleasant": 7191,
    "Ġpreviously": 3922,
    "Ġsymphony": 26534,
    "inked": 12918,
    "feel": 3815,
    "W": 59,
    "Ġaugmentation": 20119,
    "inished": 17736,
    "Ġmoonlight": 9961,
    "Ġbrood": 23104,
    "stood": 4119,
    "ientious": 11695,
    "Ġsteak": 9832,
    "Ġapartments": 19617,
    "Ġinvaluable": 10185,
    "Ġ55": 24319,
    "eland": 11623,
    "Ġdaunt": 19667,
    "Ġalarming": 14784,
    "indirectly": 18438,
    "appre": 14374,
    "Ġomens": 21331,
    "Ġcoins": 11823,
    "inate": 6235,
    "ĵ": 246,
    "hel": 4815,
    "Ġshepherd": 14155,
    "Ġbaggy": 24538,
    ",)": 9104,
    "changed": 7176,
    "Ġnegro": 6448,
    "Ġoverwrites": 5033,
    "sil": 5283,
    "Ġnugent": 26459,
    "Ġspectator": 19409,
    "Ġgidd": 25784,
    "hs": 8378,
    "isturbed": 18298,
    "inf": 6234,
    "Ġdrank": 16538,
    "Ġcircling": 19094,
    "Ġacquiescence": 20333,
    "Ġdress": 4022,
    "Ġenforced": 21942,
    "lane": 10708,
    "Ġcomparatively": 9493,
    "Ġrank": 6260,
    "Ġbethinking": 25280,
    "Ġinattention": 17934,
    "Ġneedles": 11186,
    "Ġperth": 7024,
    "ability": 717,
    "circumstantial": 24444,
    "Ġhappier": 10361,
    "Ġdestructive": 23490,
    "ele": 9117,
    "enged": 23150,
    "scra": 13027,
    "osition": 1375,
    "Ġfasc": 12603,
    "Ġwitty": 21295,
    "flitted": 23972,
    "Ġhasten": 10480,
    "Ġerrors": 2596,
    "Ġaverse": 11083,
    "Ġparlor": 13543,
    "tu": 12516,
    "Ġanswerable": 23474,
    "Ġbasement": 24701,
    "etent": 10202,
    "Ġavoid": 5199,
    "al": 292,
    "Ġbennet": 1576,
    "Ġsuperior": 2750,
    "receiving": 12548,
    "whosoever": 22244,
    "Ġheedfulness": 24522,
    "Ġocc": 887,
    "Ġinser": 6820,
    "Ġrevolutions": 23845,
    "Ġvesture": 20065,
    "Ġsummit": 7731,
    "castle": 3351,
    "Ġrambled": 20171,
    "Ġswallows": 18884,
    "Ġafraid": 3531,
    "Ġmitigating": 1615,
    "Ġchal": 18378,
    "Ġconsid": 1812,
    "analy": 17840,
    "Ġwarning": 9061,
    "warp": 17708,
    "Ġadvantages": 9811,
    "oward": 6022,
    "Ġvineyarder": 25607,
    "Ġ550": 19639,
    "brandy": 19202,
    "needles": 20317,
    "Ġcomparing": 14267,
    "angel": 5726,
    "Ġslides": 18941,
    "contains": 16034,
    "anning": 10167,
    "Ġpiazza": 26452,
    "omuch": 21643,
    "Ġsurvey": 13597,
    "shooting": 16967,
    "lection": 3656,
    "Ġissue": 2308,
    "lesc": 11041,
    "ifled": 14066,
    "Ġwillow": 18531,
    "together": 3559,
    "Ġcarried": 3696,
    "bourgh": 19105,
    "Ġopium": 8997,
    "Ġplumber": 16088,
    "Ġwife": 2586,
    "Ġbelt": 13008,
    "Ġloafer": 18300,
    "Ġextort": 22730,
    "Ġfew": 1183,
    "Ġpromoting": 3157,
    "Ġwealth": 7621,
    "Ġdevotedly": 24749,
    "pleasantness": 19773,
    "bound": 6222,
    "Ġfare": 5810,
    "Ġkeel": 6445,
    "Ġmuchness": 18705,
    "Ġtendency": 11331,
    "Ġpluck": 15618,
    "Ġsurrounds": 24234,
    "july": 20478,
    "Ġconversations": 9428,
    "Ġcoil": 11822,
    "flatter": 23970,
    "Ġgull": 15674,
    "aim": 2753,
    "Ġdataset": 12824,
    "Ġachieve": 3676,
    "stud": 8824,
    "Ġlater": 6018,
    "Ġelig": 9781,
    "Ġboarded": 13239,
    "Ġensemble": 1608,
    "ravelled": 18017,
    "Ġcreases": 22725,
    "worse": 14693,
    "Ġdatasets": 2385,
    "Ġundesired": 12784,
    "Ġvict": 3764,
    "cring": 20813,
    "icity": 2540,
    "Ġinclinations": 19542,
    "luxur": 25823,
    "Ġsit": 4220,
    "Ġtombed": 25164,
    "prop": 1031,
    "Ġfold": 5531,
    "Ġoutstanding": 22320,
    "_": 67,
    "pent": 3495,
    "Ġdiligently": 11407,
    "nikin": 23243,
    "Ġhit": 7164,
    "obst": 11936,
    "wolf": 26411,
    "han": 12477,
    "Ġtr": 553,
    "Ġbegrimed": 26580,
    "Ġrelinqu": 12987,
    "substance": 15235,
    "Ġonto": 14032,
    "Ġbart": 17859,
    "revol": 12545,
    "tout": 21068,
    "Ġne": 391,
    "received": 9641,
    "studies": 25170,
    "Ġcracking": 14576,
    "Ġinformed": 6719,
    "Ġencouragement": 13048,
    "Ġfangs": 12602,
    "Ġblo": 2731,
    "Ġpurchas": 19876,
    "king": 3055,
    "Ġresolutely": 14611,
    "Ġduc": 4698,
    "nels": 12500,
    "restrained": 16339,
    "_?âĢĿ": 15309,
    "Ġrepent": 9866,
    "Â£": 4813,
    "Ġreminding": 19800,
    "spond": 5567,
    "Ġscal": 1622,
    "where": 2094,
    "shortened": 24747,
    "oar": 12502,
    "floor": 14939,
    "hew": 5286,
    "iancy": 13018,
    "Ġquietude": 19363,
    "Ġmeditations": 25016,
    "Ġassum": 4066,
    "rigging": 20009,
    "humiliation": 24024,
    "sorrow": 12513,
    "Ġspermaceti": 8970,
    "forbid": 14354,
    "Ġcannibal": 7774,
    "aps": 1228,
    "Ġparsonage": 7125,
    "Ġengrossed": 13002,
    "afraid": 10443,
    "Ġharrow": 17928,
    "Ġaccounted": 10297,
    "Ġresearches": 13143,
    "Ġambergris": 8709,
    "Ġanticipation": 17058,
    "och": 21003,
    "culiar": 2816,
    "Ġequally": 5258,
    "Ġsplitting": 4387,
    "Ġorphans": 20207,
    "ede": 21509,
    "Ġlick": 21553,
    "oman": 2016,
    "Ġtempered": 12928,
    "Ġinvariably": 8064,
    "Ġacquiesce": 20332,
    "laughing": 15183,
    "Ġwherein": 14296,
    "Ġphilipp": 23887,
    "Ġhark": 8429,
    "quarter": 11390,
    "Ġadventures": 7748,
    "anges": 1675,
    "Ġanchor": 7368,
    "Ġpartners": 11857,
    "ipelag": 12849,
    "edmund": 17948,
    "Ġsyrian": 18354,
    "Ġfeared": 5932,
    "does": 6196,
    "Ġmuff": 8114,
    "ops": 5248,
    "Ġhus": 3087,
    "Ġwool": 19436,
    "Ġvoids": 25808,
    "Ġmotive": 6092,
    "Ġramadans": 25122,
    "Ġcommenting": 25229,
    "missionary": 24616,
    "Ġobviously": 16812,
    "Ġpot": 2987,
    "iag": 20918,
    "used": 3259,
    "ribut": 815,
    "Ġfrankness": 16748,
    "Ġhopelessly": 16379,
    "Ġreturn": 1710,
    "saf": 11527,
    "Ġming": 9648,
    "Ġfe": 490,
    "Ġruss": 18720,
    "Ġsmelt": 16069,
    "gue": 12472,
    "igned": 5656,
    "Ġbought": 8417,
    "anged": 3590,
    "Ġstat": 1489,
    "Ġunsounded": 15853,
    "Ġcurves": 18843,
    "Ġspend": 5306,
    "Ġroared": 7025,
    "Ġcaus": 1723,
    "Ġboyhood": 23758,
    "cible": 20808,
    "pervading": 18959,
    "chest": 11210,
    "Ġloathing": 15071,
    "Ġfaint": 5812,
    "Ġcastles": 16642,
    "sych": 9890,
    "Ġgrecian": 26297,
    "um": 453,
    "tical": 10131,
    "Ġiteratively": 3053,
    "Ġseedy": 21966,
    "sound": 6800,
    "Ġwhar": 7388,
    "latin": 25259,
    "dient": 441,
    "uish": 5431,
    "igger": 21704,
    "Ġcritic": 19123,
    "Ġislets": 21805,
    "Ġsearch": 2589,
    "Ġoldest": 12978,
    "ldog": 21921,
    "mselves": 2859,
    "Ġpiratical": 24798,
    "Ġexcel": 3570,
    "steering": 16638,
    "Ġclaimed": 14205,
    "charm": 13993,
    "icism": 13959,
    "Ġwhereupon": 14297,
    "angered": 16182,
    "Ġstretching": 10018,
    "Ġscene": 3092,
    "Ġcandelab": 23852,
    "ripp": 6405,
    "aky": 18412,
    "pt": 387,
    "Ġbowsman": 11256,
    "Ġbarmaid": 19337,
    "Ġpropagating": 20636,
    "Ġbarbara": 24815,
    "Ġpumps": 8428,
    "Ġfrown": 10809,
    "elling": 5831,
    "du": 605,
    "Ġhuzza": 12638,
    "Ġechoed": 20427,
    "Ġmoose": 22435,
    "Ġdesiring": 14417,
    "Ġmansion": 17811,
    "Ġperceptible": 18453,
    "dogs": 25403,
    "welt": 12525,
    "Ġrepresent": 1210,
    "Ġoblivious": 26033,
    "Ġhoof": 23356,
    "Ġgeological": 14535,
    "Ġetext": 23953,
    "Ġriveted": 13622,
    "Ġenticing": 22741,
    "iliation": 10862,
    "Ġanalog": 12617,
    "blocks": 25518,
    "Ġsoles": 22089,
    "equally": 19901,
    "Ġfright": 3799,
    "ingly": 2136,
    "Ġbedfellows": 23447,
    "10": 17475,
    "cour": 4482,
    "Ġconsum": 9802,
    "Ġsouthern": 7689,
    "Ġinterruptions": 24189,
    "murmured": 24455,
    "Ġundivided": 24122,
    "press": 1730,
    "parad": 16404,
    "commission": 22827,
    "Ġunwarrant": 19936,
    "dev": 7632,
    "Ġmassa": 19457,
    "Ġtent": 15470,
    "makers": 20984,
    "Ġlieu": 19567,
    "consent": 18502,
    "ogue": 9788,
    "Ġsurpass": 13587,
    "Ġembra": 6580,
    "Ĥ": 229,
    "wishing": 21131,
    "apter": 1193,
    "Ġyears": 1889,
    "ding": 3021,
    "erns": 8782,
    "Ġpref": 14174,
    "Ġyoung": 1507,
    "Ġimmemorially": 25384,
    "signed": 21064,
    "Ġmusic": 5269,
    "aston": 7408,
    "azed": 9402,
    "honorable": 19903,
    "Ġassociate": 13454,
    "Ġfid": 10805,
    "ą": 198,
    "Ġexpiration": 22626,
    "print": 23815,
    "Ġdrugged": 12607,
    "ison": 3070,
    "most": 1259,
    "Ġpeculiar": 3149,
    "deliberated": 26119,
    "iating": 3205,
    "oology": 21008,
    "consum": 12875,
    "Ġrestless": 10417,
    "irting": 11689,
    "Ġowning": 18746,
    "Ġstruggles": 16580,
    "sailors": 9925,
    "Ġstingy": 25456,
    "Ġelement": 6898,
    "Ġfriend": 1299,
    "ead": 2599,
    "are": 638,
    "Ġnavigators": 19766,
    "Ġought": 3422,
    "enial": 17782,
    "Ġequilibrium": 4144,
    "retched": 3063,
    "gling": 10100,
    "tracks": 19649,
    "ĠĠĠĠĠĠĠĠĠĠĠĠĠĠĠĠĠĠĠĠĠĠĠĠĠĠĠĠĠĠĠĠĠĠĠĠĠĠĠĠĠĠĠĠĠ": 9955,
    "remarkable": 13501,
    "joined": 13280,
    "characteristic": 24686,
    "learnt": 23539,
    "Ġcannibals": 10590,
    "Ā": 193,
    "Ġneared": 14078,
    "consp": 18503,
    "Ġbacks": 8531,
    "Ġshould": 864,
    "dem": 10695,
    "Ġprevented": 5943,
    "Ġoccasion": 3245,
    "Ġit": 339,
    "Ġcrosses": 23066,
    "Ġframe": 1954,
    "Ġdismissed": 12897,
    "Ġclim": 8196,
    "secure": 12240,
    "boards": 23257,
    "Ġcarve": 23096,
    "stochastic": 3776,
    "Ġbottled": 23798,
    "Ġcitadel": 25439,
    "composed": 14743,
    "iter": 4395,
    "Ġheaped": 18040,
    "consequence": 9766,
    "fo": 5279,
    "Ġquiet": 3260,
    "Ġcitizens": 25440,
    "Ġbashaw": 25634,
    "Ġhappening": 14386,
    "Ġsuper": 2155,
    "Ġvoy": 2619,
    "lounged": 26134,
    "Ġlifetime": 13606,
    "ifferent": 4266,
    "Ġimpious": 15990,
    "Ġbody": 2433,
    "Ġsleep": 2398,
    "Ġplaid": 22605,
    "Ġlirra": 21563,
    "Ġwheels": 10914,
    "quered": 11057,
    "Ġunicorn": 22059,
    "Ġwarehouses": 20421,
    "Ġpunctures": 25136,
    "Ġcomput": 607,
    "excited": 13384,
    "Ġdimmed": 24270,
    "©": 107,
    "iteness": 4396,
    "Ġveins": 8935,
    "spades": 14338,
    "Ġinco": 14262,
    "Ġsuspect": 5758,
    "opposite": 19931,
    "overs": 17623,
    "Ġofficers": 4429,
    "Ġsuffoc": 18873,
    "dozen": 23381,
    "Ġsignals": 10588,
    "Ġsuccessive": 10503,
    "Ġpeterson": 9486,
    "Ġburg": 23653,
    "Ġdisappointment": 6629,
    "Ġlivelong": 25512,
    "Y": 61,
    "Ġexclamation": 8702,
    "Ġhind": 9191,
    "Ġglens": 18856,
    "onse": 21252,
    "Ġpretend": 7722,
    "accuracy": 9882,
    "Ġanonymous": 26179,
    "Ġincessant": 15101,
    "Ġpry": 11603,
    "fri": 20856,
    "quaker": 15767,
    "Ġpulley": 2972,
    "Ġdirections": 1970,
    "Ġcaused": 5048,
    "iture": 5696,
    "Ġdanish": 21434,
    "Ġswiftness": 9930,
    "ives": 1410,
    "convers": 6569,
    "Ġfacing": 10174,
    "Ġman": 544,
    "Ġfled": 6673,
    "Ġemblem": 20501,
    "league": 17846,
    "Ġunseason": 22054,
    "landish": 11946,
    "Ġbildad": 3784,
    "ump": 2283,
    "exasper": 22431,
    "hurrying": 14986,
    "Ġrecourse": 22749,
    "coil": 23561,
    "Ġappropri": 2229,
    "humored": 19456,
    "Ġlent": 21550,
    "Ġgroup": 2036,
    "Ġacc": 572,
    "ė": 216,
    "gerine": 22891,
    "Ġscare": 18398,
    "Ġsubsequent": 7659,
    "Ġdrops": 9035,
    "ips": 2591,
    "Ġlaughter": 9030,
    "aet": 15311,
    "Ġunsur": 22024,
    "Ġcrawl": 11377,
    "Ġprotection": 9465,
    "Ġrouted": 24908,
    "braces": 24659,
    "Ġassoc": 6403,
    "Ġbridge": 8349,
    "Ġagonized": 25373,
    "roc": 9677,
    "ÿ": 192,
    "Ġunnatural": 7190,
    "Ġrecently": 11867,
    "Ġsubjected": 23574,
    "vital": 17702,
    "Ġconstrained": 19242,
    "shaven": 18488,
    "Ġnarrowed": 24355,
    "Ġtradesmen": 17106,
    "noon": 5037,
    "prick": 19346,
    "Ġscan": 22288,
    "Ġcircumspection": 25885,
    "diss": 17525,
    "still": 4223,
    "afternoon": 13189,
    "rote": 4594,
    "girdling": 26391,
    "Ġtroublesome": 24005,
    "hills": 13739,
    "orte": 14187,
    "Ġquadruped": 20618,
    "Ġcounterbalance": 24721,
    "Ġliving": 3058,
    "Ġreaching": 7303,
    "Ġproficiency": 19194,
    "Ġinstructed": 19286,
    "Ġbosom": 6939,
    "ars": 905,
    "Ġfogs": 25283,
    "1775": 26380,
    "Ġjealousy": 13580,
    "Ġvisitors": 7985,
    "Ġroanoke": 22409,
    "Ġbumpkins": 25282,
    "Ġamateur": 22489,
    "Ġpause": 5707,
    "Ġwapping": 21297,
    "Ġlimp": 19182,
    "Ġdost": 7637,
    "Ġmastiff": 23727,
    "attachment": 13057,
    "Ġelbows": 18636,
    "decided": 13219,
    "Ġcompiled": 22574,
    "Ġmere": 2711,
    "Ġfrock": 10492,
    "alloyed": 22205,
    "grin": 19107,
    "Ġdes": 1253,
    "unhappy": 10240,
    "Ġmacro": 25940,
    "neighbouring": 19967,
    "Ġunfold": 8022,
    "Ġmasts": 6466,
    "Ġgorgeous": 20470,
    "Ġvivid": 8058,
    "removing": 17766,
    "breast": 11248,
    "heart": 4528,
    "Ġembellish": 25849,
    "Ġpaling": 21465,
    "Ġdusky": 13553,
    "skill": 24487,
    "Ġcinque": 20489,
    "oled": 17621,
    "Ġmadam": 5663,
    "Ġaries": 21200,
    "Ġmarvell": 7248,
    "Ġemployed": 5200,
    "Ġopera": 23428,
    "usal": 7639,
    "Ġunder": 1632,
    "prehend": 14245,
    "Ġrecover": 9796,
    "Ġbrightest": 13231,
    "Ġrecollection": 6623,
    "Ġtokens": 1772,
    "Ġlunch": 13529,
    "ozy": 17624,
    "Ġlac": 17967,
    "Ġaged": 10324,
    "Ġmice": 13862,
    "Ġexceptions": 13235,
    "Ġapologized": 25199,
    "came": 4572,
    "Ġstraw": 9432,
    "Ġan": 286,
    "Ġagitation": 6865,
    "Ġdum": 10813,
    "Ġfulfilled": 11364,
    "Ġforgo": 21777,
    "Ġshetland": 22163,
    "hunted": 16834,
    "Ġentertainment": 12227,
    "Ġdifferent": 1427,
    "Ġindign": 6175,
    "Ġembarked": 17137,
    "Ġseptember": 18208,
    "Ġsealed": 15822,
    "Ġbunger": 9999,
    "choice": 21694,
    "despond": 19803,
    "Ġdistrustful": 25057,
    "article": 22411,
    "apology": 22338,
    "delights": 19704,
    "mole": 22704,
    "Ġelimin": 16111,
    "Ġpickle": 16724,
    "Ġcore": 13881,
    "constellation": 24608,
    "Ġstart": 3257,
    "appropri": 22850,
    "slipping": 25529,
    "plied": 10257,
    "Ġaffect": 1387,
    "Ġoffend": 16145,
    "Ġast": 2958,
    "Ġcour": 1768,
    "Ġcanal": 8182,
    "Ġiceland": 15150,
    "Ġsaves": 18324,
    "Ġidea": 2486,
    "Ġresol": 2664,
    "Ġdogs": 7742,
    "Ġexordium": 26494,
    "Ġinhabited": 12190,
    "prise": 7727,
    "Ġham": 3424,
    "Ġhoist": 11981,
    "Ġprivilege": 11421,
    "Ġyou": 366,
    "Ġcompared": 2230,
    "Ġacquies": 11099,
    "mbly": 9790,
    "ineffectual": 26509,
    "Ġdarcy": 1342,
    "Ġsuav": 22086,
    "scythes": 26404,
    "velled": 9879,
    "Ġminute": 4283,
    "Ġsomnam": 23011,
    "rib": 1945,
    "Ġcup": 5697,
    "Ġpinch": 15019,
    "ĠĠĠĠĠĠĠĠĠĠĠĠĠĠĠĠĠĠĠĠĠĠĠĠĠĠĠĠ": 9978,
    "Ġconsiderations": 9413,
    "inexplicable": 25810,
    "capt": 3839,
    "Ġpatience": 3049,
    "Ġimprobable": 9797,
    "everywhere": 23698,
    "Ġpore": 21460,
    "helm": 12176,
    "Ġagreeable": 4554,
    "Ġlancaster": 26342,
    "Ġmottled": 20681,
    "Ġcorporeal": 17363,
    "Ġthanked": 9462,
    "Ġhateful": 19716,
    "Ġall": 421,
    "Ġterrify": 19364,
    "Ġsculpt": 15951,
    "Ġtails": 9905,
    "Ġdanger": 3521,
    "Ġsabbath": 17257,
    "baden": 25616,
    "Ġpoised": 22593,
    "Ġstam": 18071,
    "Ġdistricts": 20266,
    "uy": 21102,
    "Ġdemanded": 8327,
    "washed": 13051,
    "Ġcommanding": 16592,
    "Ġkindness": 4099,
    "Ġcompunction": 18586,
    "swed": 24256,
    "sequence": 2852,
    "Ġcherub": 23290,
    "butter": 11790,
    "Ġsheaves": 22162,
    "Ġhurt": 7701,
    "Ġdecayed": 22829,
    "Ġexcell": 10419,
    "Ġcompetition": 14269,
    "Ġsens": 1851,
    "\"]": 17473,
    "Ġinnocence": 6478,
    "including": 23592,
    "Ġchord": 22249,
    "Ġhermits": 22078,
    "Ġadaptively": 4095,
    "Ġfolk": 10378,
    "Ġintrospect": 15832,
    "ounix": 14166,
    "Ġspilling": 22141,
    "Ġagencies": 18542,
    "doms": 20837,
    "Ġimagination": 5759,
    "confined": 24328,
    "Ġcareless": 11121,
    "Ġannesley": 19580,
    "Ġlay": 584,
    "bel": 3838,
    "text": 1973,
    "Ġforeheads": 23449,
    "Ġcontents": 7210,
    "compared": 24036,
    "bered": 4507,
    "engineer": 23151,
    "imly": 12692,
    "Ġinfatuated": 20537,
    "last": 3806,
    "Ġchas": 18379,
    "Ġequal": 4139,
    "Ġcollateral": 20075,
    "lust": 15383,
    "Ġbloody": 9892,
    "Ġpoltroon": 26600,
    "thumb": 18219,
    "Ġmapple": 11152,
    "mission": 5971,
    "Ġeggs": 12346,
    "animals": 24737,
    "atches": 13849,
    "spending": 18690,
    "Ġslily": 23168,
    "unavoidable": 17393,
    "conced": 22472,
    "Ġmyst": 4052,
    "spr": 7435,
    "until": 6598,
    "headsman": 16699,
    "visible": 10536,
    "uncommonly": 25550,
    "Ġfainting": 16899,
    "Ġalterations": 19873,
    "Ġfiend": 4415,
    "Ġcopied": 20011,
    "Ġstayed": 7998,
    "brought": 7285,
    "pattern": 4213,
    "Ġbegged": 8231,
    "ilar": 10218,
    "called": 6294,
    "another": 5439,
    "Ġsight": 2113,
    "yellow": 9627,
    "rose": 6015,
    "Ġlegendary": 20540,
    "ultural": 22572,
    "poor": 6062,
    "Ġrecklessly": 16985,
    "Ġgranted": 22809,
    "luding": 6702,
    "emberley": 4175,
    "Ġstripping": 23696,
    "Ġunparalleled": 15857,
    "Ġselection": 18205,
    "Ġquietly": 4569,
    "T": 56,
    "Ġdemands": 19641,
    "ase": 1158,
    "Ġclouds": 5775,
    "Ġstalked": 20432,
    "Ġlikewise": 5386,
    "fee": 12885,
    "uction": 15446,
    "Ġpunish": 12164,
    "Ġcomply": 8894,
    "Ġhalting": 16277,
    "Ġwhiteness": 5920,
    "Ġrh": 9247,
    "iron": 3553,
    "Ġcircumstantial": 14645,
    "picture": 11409,
    "covery": 11173,
    "cad": 17507,
    "âĢĶâĢľ_": 13208,
    "sey": 5543,
    "Ġplanted": 9777,
    "precip": 14667,
    "Ġmississippi": 20727,
    "Ġcreeping": 18683,
    "end": 503,
    "Ġimportance": 4901,
    "bul": 6951,
    "Ġloved": 4601,
    "Ġstrateg": 1372,
    "untering": 15780,
    "Ġcombine": 4419,
    "fifth": 20149,
    "Ġloggerhead": 13661,
    "Ġcalling": 5662,
    "Ġwilds": 16511,
    "yard": 5901,
    "Ġgam": 11627,
    "Ġnapkins": 25165,
    "Ġshook": 4471,
    "Ġwalton": 14975,
    "Ġmout": 17800,
    "Ġscales": 4851,
    "Ġbanks": 6815,
    "Ġcorrect": 2429,
    "top": 4488,
    "Ġmichigan": 26428,
    "inous": 8776,
    "swells": 26149,
    "Ġresulting": 24201,
    "Ġcompliment": 5673,
    "Ġquiescent": 26244,
    "Ġcovering": 13260,
    "big": 13689,
    "gging": 7697,
    "anned": 17841,
    "Ġilluminated": 20178,
    "Ġclin": 14204,
    "lighter": 20961,
    "dles": 11483,
    "Ġcontact": 9284,
    "Ġmou": 13858,
    "continued": 8679,
    "lanter": 15391,
    "Ġconditions": 8307,
    "Ġinconveniences": 24942,
    "Ġnoticing": 18225,
    "ishe": 13894,
    "zwilliam": 5074,
    "Ġderivatives": 2369,
    "bly": 6112,
    "Ġcandle": 8292,
    "Ġwitnessing": 19601,
    "etite": 21582,
    "allied": 7410,
    "Ġnin": 10190,
    "Ġtrotting": 19979,
    "Ġsubstantiated": 25876,
    "neying": 22467,
    "Ġcondescension": 10621,
    "Ġsafer": 22169,
    "Ġwherefore": 8527,
    "Ġcens": 8414,
    "Ġconfine": 14511,
    "bru": 12443,
    "Ġcoach": 6867,
    "wrote": 11549,
    "Ġtram": 11093,
    "Ġmasses": 10506,
    "Ġpaltry": 16693,
    "Ġunimag": 12780,
    "hack": 20898,
    "Ġverdure": 10615,
    "uff": 2728,
    "Ġchamp": 18381,
    "emptied": 23637,
    "Ġresemble": 15697,
    "Ġfir": 17879,
    "ordered": 8794,
    "Ġenvironments": 24063,
    "very": 499,
    "vings": 9756,
    "symp": 14613,
    "Ġdeplored": 20508,
    "Ġreplied": 2264,
    "cap": 8373,
    "Ġplus": 3885,
    "Ġsized": 11565,
    "Ġpreliminary": 10060,
    "ption": 7398,
    "words": 7983,
    "ears": 20847,
    "Ġunquestionable": 26223,
    "Ġshivering": 10268,
    "Ġ(âĢľ": 16001,
    "Ġrattled": 15070,
    "Ġsociety": 3979,
    "Ġinseparable": 20691,
    "Ġtalks": 23373,
    "Ġenrapt": 21943,
    "Ġscholars": 26113,
    "outon": 12808,
    "Ġalarm": 4049,
    "arial": 5532,
    "Ġcomposed": 8895,
    "trap": 24334,
    "Ġperennial": 22697,
    "Ġnapoleon": 20560,
    "Ġpatient": 6895,
    "Ġimpertinent": 9080,
    "nose": 17612,
    "Ġstreat": 15728,
    "Ġbliss": 13006,
    "Ġsprinkled": 19500,
    "Ġtreachery": 15105,
    "bles": 7019,
    "Ġjobs": 24833,
    "sneezes": 11448,
    "Ġaccidents": 10298,
    "Ġglide": 22991,
    "dream": 8731,
    "Ġpolite": 9885,
    "octavo": 11387,
    "pth": 2379,
    "Ġopinions": 9418,
    "assured": 10954,
    "Ġderivative": 2996,
    "benevolently": 25601,
    "Ġhelter": 24028,
    "?âĢĻ": 2640,
    "hidden": 17374,
    "Ġsouthwards": 19636,
    "Ġdolphins": 20399,
    "mph": 20974,
    "backpropagation": 11990,
    "bestow": 16931,
    "naught": 20996,
    "Ġdent": 13909,
    "Ġtrifled": 24675,
    "Ġmixed": 6975,
    "judging": 24204,
    "Ġsanely": 24983,
    "Ġbaltic": 18797,
    "ivates": 18277,
    "Ġimplements": 2485,
    "Ġviciously": 24404,
    "Ġleagues": 9224,
    "Ġrooted": 13173,
    "Ġmethod": 1465,
    "Ġdesperado": 19822,
    "Ġhilariously": 25451,
    "Ġmutineer": 19421,
    "Ġprecaution": 11198,
    "V": 58,
    "learned": 8598,
    "Ġexpress": 2196,
    "Ġalgorithm": 759,
    "Ġenjoyments": 24021,
    "wonder": 6372,
    "manner": 6172,
    "form": 498,
    "Ġfreed": 7267,
    "Ġpaste": 23421,
    "Ġturns": 4981,
    "legged": 10467,
    "Ġredress": 23755,
    "Ġlasting": 18793,
    "anging": 3554,
    "Ġcommendation": 13614,
    "Ġyon": 9696,
    "hunting": 24385,
    "Ġflavor": 16256,
    "Ġauxiliary": 26420,
    "wholly": 10943,
    "inquiries": 13581,
    "Ġconfl": 11139,
    "Ġshallow": 14397,
    "Ġskrimshander": 22803,
    "Ġdegenerated": 20509,
    "Ġsizes": 1522,
    "eleg": 20851,
    "Ġthen": 668,
    "Ġachieves": 4383,
    "stay": 9684,
    "alliance": 22204,
    "Ġarrows": 18337,
    "Ġshorter": 4501,
    "88": 20760,
    "Ġquicker": 16510,
    "Ġcondensed": 24055,
    "Ġprofessions": 11234,
    "Ġeccentric": 13653,
    "Ġhearken": 21688,
    "ntax": 934,
    "Ġting": 8399,
    "Ġbengal": 18785,
    "cies": 1813,
    "Ġschool": 5512,
    "husband": 8042,
    "Ġdoct": 4458,
    "odox": 21815,
    "Ġingen": 9052,
    "Ġsen": 9159,
    "Ġpoising": 22594,
    "Ġmassac": 14739,
    "subject": 6634,
    "berg": 11866,
    "enjoyments": 25434,
    "superstitious": 17283,
    "Ġdoctors": 12156,
    "Ġtheirs": 7026,
    "rec": 6005,
    "Ġstay": 3089,
    "taking": 5689,
    "Ġretreat": 6071,
    "Ġchildren": 3770,
    "X": 60,
    "Ġindoors": 18837,
    "ry": 805,
    "Ġowners": 7663,
    "Ġdispleasure": 16056,
    "este": 15923,
    "Ġstump": 7606,
    "Ġsporty": 19892,
    "ishop": 9745,
    "uiperai": 10666,
    "Ġinvariable": 13460,
    "Ġbrow": 3990,
    "Ġarguments": 8037,
    "Ġtastes": 15480,
    "é": 170,
    "viv": 17700,
    "Ġshield": 22003,
    "ils": 3180,
    "Ġblaming": 22933,
    "continu": 5501,
    "Ġmccarthy": 5145,
    "itig": 1332,
    "Ġantichronical": 26611,
    "Ġsubdiv": 16163,
    "Ġxlvi": 25591,
    "perfect": 7635,
    "Ġsor": 4150,
    "concluded": 11245,
    "Ġduplicity": 25332,
    "Ġcorroded": 18878,
    "Ġvalues": 2650,
    "embra": 14077,
    "Ġinhabitant": 19758,
    "_âĢĶâĢĻ": 13686,
    "Ġmachine": 782,
    "rather": 5430,
    "Ġhealthcare": 8016,
    "ondescript": 22919,
    "Ġcompassionate": 24722,
    "precedented": 15178,
    "commend": 19996,
    "Ġdistances": 22507,
    "onents": 8781,
    "Ġdisc": 944,
    "Ġbestow": 6456,
    "hors": 9601,
    "solic": 16380,
    "erxes": 21278,
    "ß": 160,
    "Ġuplifted": 11650,
    "surgeon": 24217,
    "jud": 4484,
    "Ġcheerfully": 12139,
    "Ġcherished": 10593,
    "Ġinvolve": 11043,
    "isted": 3298,
    "Ġforgetting": 3437,
    "Ġsimpl": 1580,
    "Ġuncomfortable": 8488,
    "infall": 21191,
    "Ġcruellest": 19661,
    "Ġeconomical": 25288,
    "Ġphysical": 7522,
    "Ġprevail": 13446,
    "Ġbig": 5806,
    "christmas": 20258,
    "Ġnotorious": 18224,
    "Ġyear": 3284,
    "phur": 16157,
    "Ġformation": 2940,
    "Ġrationally": 18214,
    "Ġcurt": 18841,
    "touching": 15095,
    "Ġcomplaints": 12269,
    "cd": 15326,
    "Ġheedful": 19743,
    "Ġdiv": 3734,
    "Ġverse": 16604,
    "Ġcongratulations": 10583,
    "ne": 646,
    "Ġhotel": 8654,
    "indebted": 26159,
    "irations": 18173,
    "Ġconcuss": 19046,
    "Ġsuffice": 18872,
    "Ġgliding": 8564,
    "Ġscared": 14192,
    "Ġestimated": 16596,
    "cloudless": 20335,
    "Ġjolly": 6858,
    "covering": 15337,
    "Ġwildest": 16512,
    "Ġfisheries": 17441,
    "Ġebb": 21625,
    "Ġoakum": 16936,
    "Ġgestures": 13539,
    "ugl": 23292,
    "enari": 21284,
    "Ġlanding": 11989,
    "foot": 9049,
    "Ġlittle": 867,
    "nament": 11509,
    "Ġpaced": 7584,
    "secut": 7867,
    "Ġunlucky": 10053,
    "engaged": 7452,
    "supplemental": 25875,
    "Ġsimpleton": 16337,
    "Ġpilot": 5986,
    "Ġpersuasions": 16634,
    "Ġcontriv": 9285,
    "Ġthom": 21519,
    "Ġbay": 9171,
    "Ġpiercing": 13497,
    "Ġantagonist": 26330,
    "Ġspong": 15885,
    "Ġabused": 22273,
    "Ġtennes": 23552,
    "believing": 19465,
    "declare": 25174,
    "Ġ83": 24459,
    "Ġhumiliation": 16202,
    "Ġheroine": 24543,
    "Ġunceasingly": 20362,
    "Ġelementary": 24811,
    "Ġaspects": 4178,
    "ari": 674,
    "Ġtune": 17727,
    "Ġtransitory": 16022,
    "Ġcandidate": 16700,
    "_.": 2214,
    "Ġafternoon": 6054,
    "Ġtame": 17724,
    "marry": 13328,
    "Ġhorn": 6187,
    "Ġworshipping": 22931,
    "Ġscarce": 8625,
    "Ġmomentum": 1602,
    "Ġroses": 11789,
    "Ġafloat": 9311,
    "ye": 1407,
    "Ġsecretary": 19445,
    "Ġlashing": 11619,
    "remed": 18955,
    "Ġmeat": 8152,
    "accounted": 16504,
    "duodecimo": 16005,
    "Ġlighten": 23262,
    "Ġdaniel": 15115,
    ";âĢĿâĢĶ": 20762,
    "Ġconcluded": 5658,
    "Ġcontains": 2789,
    "Ġmad": 2424,
    "Ġextinguished": 10342,
    "Ġdeferred": 18827,
    "particularly": 8340,
    "Ġrivers": 9445,
    "Ġyouth": 4265,
    "<SOS>": 1,
    "Ġrail": 7224,
    "itive": 6671,
    "Ġexam": 3713,
    "Ġdiscove": 16159,
    "Ġsufficiently": 8976,
    "Ġintric": 9249,
    "Ġcutting": 4983,
    "Ġleviathan": 3288,
    "Ġripple": 25505,
    "enchant": 21286,
    "Ġschoolmasters": 19723,
    "Ġintrospective": 20603,
    "Ġcunning": 6240,
    "binder": 17502,
    "Ġwanting": 6723,
    "Ġinterruption": 9476,
    "Ġclosing": 11776,
    "pity": 17629,
    "Ġcy": 13877,
    "Ġheaded": 11056,
    "Ġtelescopes": 25691,
    "contained": 22474,
    "ivity": 1693,
    "Ġenjoys": 19453,
    "Ġglobe": 6077,
    "harpoon": 9494,
    "Ġir": 1991,
    "Ġstation": 5299,
    "Ġzodiac": 16176,
    "Ġhairy": 23868,
    "pagans": 25526,
    "Ġgrinning": 9056,
    "vicinity": 20483,
    "intosh": 22943,
    "Ġenl": 18190,
    "inct": 3291,
    "Ġband": 5292,
    "Ġprivile": 8649,
    "Ä": 133,
    "rison": 13782,
    "Ġthickness": 13282,
    "tack": 12517,
    "anyth": 5438,
    "Ġbadly": 12136,
    "Ġwhistles": 24625,
    "Ġframed": 19035,
    "Ġisrael": 21807,
    "Ġraised": 4662,
    "isting": 5551,
    "Ġregardless": 19326,
    "Ġanxiety": 5408,
    "Ġbro": 1430,
    "Ġremains": 4911,
    "Ġemigrant": 25860,
    "owder": 8450,
    "Ġsuperst": 7704,
    "Ġconceits": 19393,
    "Ġancestors": 25643,
    "Ġgradient": 449,
    "/`)": 13664,
    "Ġinviting": 19145,
    "Ġplace": 1655,
    "Ġdispelling": 23883,
    "Ġskirts": 14356,
    "Ġdownstairs": 11227,
    "Ġencounter": 6630,
    "Ġstamped": 13530,
    "andering": 21871,
    "event": 8077,
    "chorus": 19814,
    "abriel": 6950,
    "Ġeat": 4645,
    "Ġinstinctively": 13463,
    "requirements": 24858,
    "Ġhaze": 18197,
    "Ġcarelessness": 13080,
    "Ġsunk": 5752,
    "Ġnote": 4267,
    "Ġmanoir": 22335,
    "belt": 24038,
    "acy": 3957,
    "Ġphys": 5653,
    "utored": 15667,
    "vid": 913,
    "Ġcrust": 21354,
    "ove": 1741,
    "Ġintrude": 25991,
    "Ġoffences": 18691,
    "shattered": 22453,
    "Ġremainder": 9861,
    "sorrows": 17323,
    "anything": 5518,
    "Ġgirl": 3081,
    "Ġbackwoods": 22662,
    "ergy": 2360,
    "Ġdeliverance": 15161,
    "add": 5229,
    "spiracle": 22737,
    "Ġsnuffed": 15076,
    "taste": 10132,
    "Ġsolutions": 1946,
    "Ġascertained": 25297,
    "screen": 23001,
    "Ġfairness": 9897,
    "Ġadmires": 19688,
    "Ġunclad": 22056,
    "Ġpave": 8804,
    "iriously": 18174,
    "§": 105,
    "Ġuneasy": 8665,
    "Ġsigh": 10339,
    "Ġsimultaneous": 22591,
    "Ġendued": 14080,
    "esu": 17903,
    "Ġheidelburgh": 11646,
    "Ġrefill": 18707,
    "uding": 16152,
    "Ġsalutations": 25383,
    "susceptible": 24662,
    "dec": 3109,
    "Ġview": 2759,
    "speaking": 12103,
    "lifted": 15390,
    "reement": 15514,
    "Ġsource": 6806,
    "Ġmercenary": 17196,
    "Ġalter": 6544,
    "Ġmoustache": 20487,
    "Ġseeks": 14305,
    "Ġano": 11599,
    "Ġweedy": 15797,
    "Ġtweezers": 26558,
    "Ġrates": 1406,
    "Ġunexpectedly": 19911,
    "Ġorders": 5341,
    "Ġworsted": 19998,
    "Ġcertain": 1560,
    "Ġexalted": 12416,
    "Ġsuited": 12790,
    "Ġplainer": 23707,
    "streets": 13399,
    "officers": 10630,
    "ornament": 23492,
    "Ġetc": 7086,
    "Ġnar": 7375,
    "Ġsurm": 7476,
    "ade": 881,
    "Ġcottages": 14730,
    "Ġdaugh": 2291,
    "shadow": 20315,
    "cod": 12448,
    "Ġuninhabited": 22053,
    "lying": 7175,
    "Ġnobleman": 19395,
    "Ġupheld": 22156,
    "Ġslowly": 3621,
    "weather": 7229,
    "Ġvolley": 24148,
    "Ġnegative": 1464,
    "Ġnoises": 18374,
    "Ġbilliard": 16690,
    "Ġverte": 9444,
    "Ġalco": 21786,
    "window": 7743,
    "you": 1005,
    "aby": 18109,
    "Ġprecious": 5760,
    "lays": 14925,
    "Ġcashier": 20201,
    "Ġstated": 9692,
    "Ġyawn": 7610,
    "Ġconstitutional": 25128,
    "Ġrede": 13987,
    "deaux": 22152,
    "Ġtimber": 13354,
    "asingly": 17963,
    "Ġmediocr": 24142,
    "[_": 5131,
    "wheel": 22872,
    "Ġtro": 7356,
    "Ġlord": 2963,
    "Ġmines": 21311,
    "desk": 23812,
    "Ġlatterly": 24086,
    "machine": 971,
    "Ġrespond": 11178,
    "Ġpreference": 9736,
    "itative": 13873,
    "verdict": 21733,
    "Ġkirwin": 8499,
    "indul": 22374,
    "Ġcorroborated": 26055,
    "Ġlodges": 19503,
    "Ġwait": 4908,
    "ching": 5156,
    "iamond": 14592,
    "Ġconvention": 25547,
    "Ġundaunted": 24121,
    "mrs": 3747,
    "Ġspont": 22135,
    "Ġsaws": 23052,
    "Ġsimul": 1806,
    "omen": 4088,
    "Ġmeridian": 25713,
    "Ġsignificant": 8637,
    "walking": 9985,
    "Ġneck": 4886,
    "Ġ74": 24264,
    "alleging": 23028,
    "Ġsob": 12793,
    "Ġexcluded": 16385,
    "Ġamusements": 16915,
    "orm": 425,
    "arming": 8954,
    "Ġstill": 1156,
    "Ġpup": 12624,
    "Ġbritish": 11339,
    "Ġhearers": 15707,
    "Ġconj": 8462,
    "Ġrepeating": 11215,
    "Ġbowlines": 19324,
    "c": 71,
    "half": 4932,
    "sun": 7141,
    "Ġearly": 2080,
    "izabeth": 907,
    "total": 17253,
    "aft": 9586,
    "ork": 418,
    "Ġcontrivances": 12361,
    "Ġpowerful": 1503,
    "edged": 15635,
    "penny": 22948,
    "resembling": 25933,
    "iquette": 26133,
    "dy": 4077,
    "Ġfurnished": 6476,
    "irms": 18171,
    "Ġshin": 18228,
    ".": 18,
    "purp": 8091,
    "Ġvalu": 5039,
    "Ġelijah": 9103,
    "damn": 20027,
    "usion": 3300,
    "Ġmatlock": 18802,
    "Ġquoin": 22422,
    "Ġzone": 14360,
    "pregn": 18499,
    "Ġswinging": 7449,
    "Ġpolynesian": 26027,
    "Ġdispel": 16598,
    "seized": 14038,
    "goes": 10428,
    "Ġremarkably": 7703,
    "andes": 18154,
    "ancing": 1758,
    "lac": 17591,
    "calmed": 16208,
    "Ġpedest": 15067,
    "ouching": 13181,
    "Ġflap": 14425,
    "Ġfoolscap": 24161,
    "Ġpromotion": 23197,
    "Ġhobbling": 25645,
    "Ġnecessitates": 23933,
    "Ġclock": 9536,
    "hotel": 20053,
    "deceit": 25557,
    "Ġlasted": 11055,
    "Ġspurred": 22142,
    "sed": 4180,
    "Ġtomb": 8812,
    "surv": 24216,
    "Ġcrevice": 22727,
    "etieth": 21587,
    "okened": 15988,
    "Ġglove": 14493,
    "Ġnecessarily": 13254,
    "elect": 20848,
    "Ġparc": 10922,
    "ource": 5244,
    "magnetic": 20555,
    "Ġaudible": 19883,
    "Ġcreates": 2007,
    "Ġby": 383,
    "Ġterr": 3272,
    "fulfil": 16041,
    "Ġcategorization": 12141,
    "Ġhaunt": 18198,
    "Ġlowest": 11124,
    "Ġconvul": 13207,
    "--âĢĺ": 22855,
    "opard": 9294,
    "Ġindec": 13931,
    "Ġgovernments": 20270,
    "Ġsooner": 5573,
    "Ġwives": 12560,
    "Ġsinew": 25432,
    ".--": 20748,
    "Ġdinners": 23985,
    "Ġenough": 1761,
    "featured": 24127,
    "educated": 17262,
    "Ġdiscriminative": 4331,
    "Ġdat": 494,
    "Ġencl": 16171,
    "borough": 20787,
    "Ġcompact": 2262,
    "Ġwitt": 17785,
    "will": 1968,
    "Ġthroughout": 8880,
    "odiac": 14031,
    "Ġbreaching": 23350,
    "Ġfundament": 2923,
    "Ġparad": 2839,
    "Ġconqueror": 25797,
    "Ġgrapes": 15219,
    "private": 13586,
    "Ġgold": 3277,
    "Ġwail": 21289,
    "Ġresnet": 5473,
    "onings": 21255,
    "Ġthames": 13941,
    "hering": 12819,
    "Ġclenched": 14207,
    "Ġtophet": 23575,
    "databases": 3019,
    "aying": 15754,
    "Ġgovernor": 16492,
    "ilations": 21725,
    "winding": 16722,
    "hurt": 19880,
    "Ġheels": 10852,
    "Ġstaves": 21747,
    "94": 4804,
    "entreaties": 26187,
    "Ġref": 922,
    "Ġshut": 3945,
    "plan": 15818,
    "offic": 7466,
    "Ġtuning": 3068,
    "Ġsulkily": 25882,
    "dering": 5307,
    "Ġchaise": 9079,
    "Ġpleasure": 2693,
    "Ġsupplication": 25492,
    "scheme": 15258,
    "Ġunfinished": 19512,
    "accepting": 20138,
    "Ġallowed": 4060,
    "Ġ183": 13243,
    "Ġreasoning": 2009,
    "venant": 22630,
    "Ġdistinct": 4611,
    "Ġaffright": 9335,
    "Ġhampshire": 15246,
    "Ġadmiration": 5329,
    "Ġhardship": 18915,
    "Ġdangerously": 23940,
    "Ġstow": 21737,
    "Ġallen": 5160,
    "Ġglu": 15672,
    "Ġtransformer": 2636,
    "has": 4015,
    "Ġimprisonment": 22391,
    "Ġmaritime": 23041,
    "Ė": 215,
    "Ġdo": 511,
    "Ġlap": 8438,
    "inaw": 21186,
    "strate": 12679,
    "Ġresult": 4463,
    "Ġgathered": 8444,
    "angry": 18295,
    "adm": 7609,
    "ashions": 16421,
    "strangers": 20339,
    "Ġletters": 3795,
    "Ġflapped": 23017,
    "Ġpant": 10819,
    "vain": 15450,
    "lung": 17593,
    "Ġastronomy": 25927,
    "Ġglim": 9347,
    "ignant": 11131,
    "Ġmodeling": 2097,
    "Ġbegan": 2020,
    "Ġlist": 2364,
    "Ġcircumnav": 12430,
    "eaten": 20347,
    "occurrences": 26333,
    "Ġshoot": 11163,
    "Ġupstairs": 5837,
    "Ġeluc": 16112,
    "lott": 6653,
    "Ġrealise": 16340,
    "Ġsports": 18311,
    "Ġunresting": 25554,
    "Ġnoiselessly": 22866,
    "crane": 24089,
    "Ġcoronation": 13338,
    "Ġtyph": 10011,
    "Ġhaught": 10255,
    "Ġdeacon": 18146,
    "Ġcl": 554,
    "impud": 23763,
    "Ġnineveh": 13393,
    "Ġdeserve": 8309,
    "commer": 22826,
    "Ġeu": 6391,
    "Ġvortex": 26210,
    "purposes": 25024,
    "Ġreminisc": 18726,
    "Ġjoist": 19232,
    "Ġswash": 23058,
    "Ġparacels": 13671,
    "Ġduring": 873,
    "alled": 5912,
    "Ġplausible": 26555,
    "kles": 17586,
    "Ġjago": 22303,
    "Ġoverall": 4362,
    "Ġacutely": 14317,
    "ductive": 23939,
    "Ġunra": 18238,
    "Ġinstructions": 11197,
    "Ġweight": 656,
    "Ġalpha": 13592,
    "diminished": 20841,
    "Ġalone": 2566,
    "Ġcosine": 2371,
    "birth": 15325,
    "irty": 4051,
    "Ġirregular": 9868,
    "mort": 10712,
    "continual": 20646,
    "rowsers": 8698,
    "Ġseverest": 14094,
    "Ġfro": 3474,
    "ection": 4948,
    "Ġalcoves": 26488,
    "Ġmorris": 18851,
    "Ġconsisting": 8974,
    "Ġ14": 9326,
    "va": 4744,
    "ological": 1881,
    "peculiarities": 13475,
    "sleeping": 13458,
    "waste": 21137,
    "melancholy": 12357,
    "station": 10846,
    "Ġtobacco": 8367,
    "bureau": 20791,
    "Ġwhether": 1998,
    "Ġwoodlands": 23524,
    "Ġtool": 21514,
    "Ġconfluent": 19040,
    "Ġkicks": 19771,
    "mont": 19171,
    "Ġshame": 6411,
    "Ġdivine": 6921,
    "impression": 15715,
    "ifying": 5235,
    "oused": 6558,
    "sank": 17664,
    "steaks": 23964,
    "book": 4671,
    "Ġoblig": 3448,
    "ither": 1546,
    "Ġsons": 10768,
    "Ġso": 434,
    "Ġdisadvantage": 12895,
    "otherwise": 7671,
    "Ġsums": 2899,
    "Ġsketches": 26272,
    "Ġkelson": 18351,
    "Ġfeels": 6882,
    "Ġlawy": 9458,
    "Ġthigh": 10189,
    "Ġbless": 4346,
    "Ġheh": 21683,
    "Ġthoughtless": 16196,
    "ellect": 7381,
    "sea": 4764,
    "Ġlances": 6985,
    "Ġgunw": 6214,
    "aled": 3947,
    "zas": 17714,
    "Ġthrusts": 24350,
    "Ġforesight": 13131,
    "Ġartful": 22598,
    "Ġchronicle": 20231,
    "Ġcongregated": 20100,
    "revealed": 20419,
    "Ġhindoo": 17178,
    "sh": 639,
    "unched": 10238,
    "d": 72,
    "entieth": 17981,
    "Ġoverl": 18428,
    "Ġrecommendation": 17027,
    "Ġscratching": 20372,
    "Ġemblazonings": 26043,
    "Ġparm": 15881,
    "lied": 6508,
    "pag": 11513,
    "Ġcrushing": 20179,
    "Ġtrod": 15029,
    "ceiving": 3905,
    "punishment": 15149,
    "Ġloosed": 22116,
    "flagged": 23975,
    "itching": 21338,
    "Ġfinest": 10395,
    "Ġtruly": 4797,
    "attention": 2112,
    "match": 15394,
    "miserably": 24213,
    "Ġfavourite": 5271,
    "Ġmoses": 21318,
    "Ġpraise": 6487,
    "mb": 882,
    "Ġsuffering": 8949,
    "fiercely": 25257,
    "rippa": 11343,
    "Ġplutarch": 22608,
    "factories": 19846,
    ".âĢĿ": 464,
    "forest": 22522,
    "rical": 11521,
    "Ġknights": 15153,
    "Ġeats": 15681,
    "speech": 10669,
    "Ġgrimesby": 11459,
    "solitary": 14508,
    "Ġfool": 4239,
    "eze": 20849,
    "Ġstability": 1362,
    "honor": 19902,
    "eyes": 5684,
    "cats": 17514,
    "Ġdeliberate": 15025,
    "Ġeddies": 25089,
    "col": 3100,
    "befall": 22499,
    "leading": 15566,
    "Ġforked": 11667,
    "gard": 7339,
    "whaling": 7899,
    "Ġcats": 8982,
    "Ġperry": 22400,
    "inferences": 17741,
    "Ġhandspike": 22699,
    "Ġarrogance": 26233,
    "Ġgather": 6536,
    "dia": 2135,
    "Ġbored": 16109,
    "Ġchis": 11754,
    "crews": 15045,
    "Ġsample": 3176,
    "Ġallev": 18103,
    "Ġsiberia": 26162,
    "Ġcarav": 18903,
    "reduced": 15809,
    "Ġenhancement": 23749,
    "Ġhunks": 18938,
    "just": 1699,
    "would": 2350,
    "Ġcomputer": 1204,
    "Ġbuilding": 8063,
    "triumph": 15443,
    "drive": 8686,
    "zening": 21151,
    "Ġcharitable": 23272,
    "Ġobstetrics": 24679,
    "osing": 3692,
    "Ġelbow": 12926,
    "Ġseldom": 4631,
    "impregn": 21717,
    "writer": 14650,
    "Ġkilburn": 18352,
    "Ġsurmised": 24920,
    "Ġalliance": 18236,
    "âĢĿâĢĶ": 5721,
    "depth": 12805,
    "themselves": 6542,
    "Ġnephews": 24713,
    "inated": 6805,
    "Ġnorris": 23204,
    "estations": 22228,
    "sized": 15431,
    "Ġheap": 12683,
    "Ġabsurd": 7202,
    "put": 414,
    "accessible": 13643,
    "Ġblinded": 13275,
    "Ġactivity": 7920,
    "furn": 10094,
    "Ġdecay": 1013,
    "alid": 13938,
    "Ġcomical": 11681,
    "Ġrind": 21973,
    "Ġheaths": 25973,
    "Ġaccomplishments": 13383,
    "Ġoffending": 22738,
    "Ġhundreds": 4332,
    "Ġopenness": 18958,
    "Ġwhereas": 3857,
    "pretending": 17042,
    "Ġexclaiming": 13645,
    "Ġplanisphere": 26609,
    "Ġkey": 2103,
    "advancing": 14839,
    "Ġwildness": 14605,
    "Ġcatherine": 2808,
    "Ġclaims": 13377,
    "Ġ(_": 3739,
    "ength": 2310,
    "Ġattached": 5392,
    "Ġcommentaries": 20163,
    "Ġforms": 6398,
    "Ġoverseeing": 22365,
    "wick": 5363,
    "Ġstupendous": 20504,
    "imental": 16536,
    "avier": 2826,
    "Ġopt": 786,
    "Ġactive": 7915,
    "Ġprodigy": 19795,
    "fill": 15354,
    "Ġpelt": 15614,
    "Ġtimes": 2300,
    "circumspect": 26087,
    "Ġdisobedience": 22539,
    "Ġgasfitters": 25041,
    "lob": 22510,
    "apers": 3483,
    "Ġfidget": 15193,
    "Ġdearer": 14054,
    "sullen": 17671,
    "ad": 337,
    "Ġformations": 18750,
    "Ġlaughing": 5339,
    "Ġcondemn": 13448,
    "Ġinsular": 19270,
    "fs": 17537,
    "Ġtitle": 11410,
    "Ġheavy": 3746,
    "Ġwarped": 25038,
    "Ġsmiling": 5474,
    "Ġbecause": 2212,
    "bbed": 6910,
    "analysis": 26174,
    "Ġsovereign": 10065,
    "Ġflows": 13019,
    "Ġtea": 5041,
    "Ġwhales": 1827,
    "haut": 20904,
    "Ġpace": 9186,
    "(-": 2977,
    "Ġeverlasting": 9340,
    "ouement": 21451,
    "Ġdines": 21426,
    "Ġarise": 7896,
    "Ġconfid": 7687,
    "Ġfeet": 2258,
    "Ġhyster": 16875,
    "ette": 15663,
    "Ġsentimental": 24753,
    "wrath": 23759,
    "Ġprecipitate": 19945,
    "Ġid": 1907,
    "ivil": 6412,
    "fights": 20867,
    "Ġclank": 15972,
    "Ġmonsieur": 12425,
    "owing": 7602,
    "Ġprejud": 6851,
    "Ġupdating": 2689,
    "Ġseemed": 1281,
    "disgu": 19157,
    "Ġimagenet": 19248,
    "canonical": 22973,
    "Ġrevelry": 15140,
    "Ğ": 223,
    "Ġfootman": 8288,
    "reshold": 21242,
    "Ġdiscerning": 25005,
    "nineteenth": 26139,
    "Ġducks": 25161,
    "Ġadmire": 5264,
    "frequented": 25901,
    "bishop": 13698,
    "bo": 1690,
    "remorse": 14470,
    "Ġtangles": 25762,
    "Ġlandsmen": 11353,
    "Ġsquared": 1383,
    "Ġunbending": 25465,
    "justine": 7683,
    "Ġstout": 6026,
    "Ġadorned": 15251,
    "Ġhighlands": 22776,
    "Ġeye": 2279,
    "iel": 11496,
    "Ġpausing": 8656,
    "Ġsmite": 22561,
    "Ġpick": 4260,
    "answer": 11736,
    "Ġpist": 12620,
    "Ġtumultuous": 10618,
    "Ġdisaster": 12892,
    "irresistible": 18176,
    "Ġeng": 1161,
    "escaped": 14233,
    "Ġemergencies": 17365,
    "accompanied": 12426,
    "Ġexchanged": 10880,
    "bestowed": 12230,
    "dwelling": 20567,
    "bethinking": 25746,
    "clean": 14763,
    "stat": 21647,
    "Ġeuroclydon": 15300,
    "ernsey": 8905,
    "Ġdownright": 16122,
    "Ġundiscovered": 18253,
    "hit": 20891,
    "Ġepoch": 26473,
    "tered": 2232,
    "companions": 15026,
    "Ġpapa": 10659,
    "ority": 8419,
    "Ġinsert": 19907,
    "Ġimpressed": 8199,
    "prot": 6899,
    "rations": 10725,
    "Ġnick": 21526,
    "handsome": 13180,
    "romeda": 17265,
    "Ġcreditors": 20133,
    "Ġgurg": 15677,
    "Ġsixpence": 19319,
    "Ġnatures": 16508,
    "nd": 11506,
    "âĢĿ;": 11673,
    "who": 2443,
    "Ġclang": 15970,
    "Ġlightly": 13088,
    "Ġdipping": 15596,
    "Õ": 150,
    "Ġtorrid": 25035,
    "Ġglances": 10375,
    "Ġloo": 22114,
    "Ġdirt": 15598,
    "iscuit": 10601,
    "Ġprominence": 18956,
    "Ġones": 3015,
    "Ġevalu": 3293,
    "ided": 2781,
    "Ġdefinitions": 22947,
    "Ġegyptian": 13590,
    "Ġ200": 19298,
    "hip": 8744,
    "asked": 8915,
    "Ġjig": 15955,
    "Ġnet": 3630,
    "Ġimpossible": 3544,
    "uarded": 21108,
    "Ġauthority": 7749,
    "Ġstro": 4597,
    "ences": 1266,
    "Ġ107": 24415,
    "hmael": 7342,
    "drawn": 9916,
    "Ġingrat": 16842,
    "Ġsickbed": 24249,
    "disinterested": 23505,
    "cri": 17508,
    "Ġhappily": 9334,
    "Ġblind": 3719,
    "precision": 4335,
    "Ġblown": 12090,
    ".}": 20747,
    "itted": 2438,
    "dis": 2251,
    "stately": 18024,
    "bular": 15317,
    "Ġother": 758,
    "Ġtotally": 9474,
    "discern": 14854,
    "Ġremorselessly": 16969,
    "instead": 14816,
    "Ġkicked": 10584,
    "hauled": 20671,
    "Ġbelfry": 26440,
    "Ġtortoise": 16910,
    "Ġspoon": 22138,
    "Ġhardened": 14453,
    "terdam": 18132,
    "condescended": 26250,
    "allowed": 5728,
    "Ġtyp": 1131,
    "max": 1684,
    "Ġplant": 8903,
    "conce": 8513,
    "Ġconveying": 19717,
    "sink": 11524,
    "fiery": 13585,
    "inspect": 11561,
    "Ġgirdle": 19160,
    "light": 3012,
    "Ġhovers": 19080,
    "oso": 12835,
    "attend": 11103,
    "irable": 5776,
    "Ġbow": 3056,
    "================================================================": 9993,
    "circled": 24190,
    "Ġattacks": 12209,
    "odes": 18119,
    "Ġbordering": 17231,
    "truck": 15444,
    "fol": 4863,
    "Ġsailed": 4890,
    "utherland": 9581,
    "Ġgladness": 16593,
    "probably": 10023,
    "emone": 21929,
    "gre": 5788,
    "Ġaccompany": 9490,
    "Ġintermix": 25827,
    "boone": 23256,
    "Ġundertaking": 8577,
    "illings": 14145,
    "Ġchances": 9266,
    "goodbye": 12060,
    "Ġrep": 1937,
    "hinting": 17571,
    "Ġappointed": 20106,
    "eration": 10774,
    "Ġflatt": 16251,
    "Ġdeeds": 15763,
    "boil": 19000,
    "Ġchestnut": 19675,
    "rit": 21038,
    "Ġrevolutionized": 3369,
    "bearers": 18525,
    "Ġangel": 4854,
    "Ġredden": 15698,
    "Ġcopper": 7425,
    "lifeless": 24314,
    "imagination": 13484,
    "Ġexquis": 9702,
    "mouse": 15396,
    "Ġinsipid": 26314,
    "Ġadequate": 20311,
    "å": 166,
    "Ġdot": 4822,
    "Ġtutored": 20131,
    "Ġaudibly": 24770,
    "Ġscrib": 22292,
    "Ġaudacious": 13464,
    "Ġquestion": 2774,
    "Ġattempting": 14699,
    "Ġing": 5284,
    "Ġfeature": 748,
    "Ġsec": 2077,
    "stige": 21664,
    "Ġhatch": 7848,
    "Ġprep": 4195,
    "Ġrelief": 6061,
    "Ġspecimens": 18860,
    "ceptibly": 22347,
    "Ġinteraction": 7424,
    "resolutions": 26165,
    "swallow": 24260,
    "orous": 5294,
    "usive": 8190,
    "richard": 17289,
    "ellig": 523,
    "ever": 1076,
    "haven": 20914,
    "Ġimmured": 24074,
    "dense": 18714,
    "Ġeasier": 11167,
    "Ġcell": 6239,
    "firm": 10700,
    "Ġsins": 13840,
    "Ġtheore": 1829,
    "olog": 1075,
    "<UNK>": 3,
    "Ġimpress": 6862,
    "Ġpossessor": 23827,
    "Ġalarmed": 6923,
    "playful": 24357,
    "boat": 3364,
    "Ġthem": 640,
    "Ġroman": 8323,
    "Ġimproves": 22757,
    "Ġdomain": 3622,
    "pire": 9138,
    "Ġloosened": 26003,
    "asing": 5913,
    "hard": 4691,
    "Ġsave": 4053,
    "Ġpau": 17910,
    "Ġany": 688,
    "Ġrelatives": 12986,
    "Ġest": 2265,
    "Ġconsoling": 19460,
    "Ġpersecut": 16954,
    "Ġloveliest": 20264,
    "spin": 22732,
    "compan": 7301,
    "ham": 1701,
    "eternal": 17985,
    "wound": 21129,
    "Ġfrantic": 7957,
    "Ġconsumm": 15158,
    "Ġexperiences": 13030,
    "despicable": 24638,
    "Ġprime": 10406,
    "Ġslip": 8957,
    "Ġparac": 12800,
    "Ġskip": 1843,
    "voyages": 24856,
    "Ġminister": 18753,
    "Ġfathom": 17049,
    "Ġspect": 3555,
    "farm": 15355,
    "Ġcapacious": 19178,
    "ometer": 19328,
    "Ġhandles": 22698,
    "Ġsunrise": 9376,
    "Ġfinanc": 23130,
    "Ġcoupled": 16853,
    "Ġdeb": 4765,
    "bus": 5355,
    "Ġduplicate": 17218,
    "Ġmisgivings": 15294,
    "Ġlargely": 14288,
    "Ġpropriet": 9553,
    "chel": 11209,
    "plexion": 14263,
    "Ġimitated": 18330,
    "Ġnooks": 26012,
    "Ġconspicuous": 13607,
    "Ġblush": 14404,
    "Ġpartner": 6716,
    "Ġbears": 6829,
    "Ġdoor": 1738,
    "alse": 4189,
    "Ġyard": 5922,
    "Ġinstability": 3816,
    "Ġimprudently": 22390,
    "Ġinvincible": 23483,
    "Ġaval": 15496,
    "destroyed": 15264,
    "ortations": 22262,
    "Ġtalk": 1969,
    "Ġdiscussion": 17197,
    "Ġfavourites": 16647,
    "Ġeels": 21623,
    "Ġag": 684,
    "Ġmonotonous": 13268,
    "comprehensive": 20629,
    "hardly": 6492,
    "Ġguidance": 9420,
    "Ġrealism": 18984,
    "Ġspiral": 14586,
    "Ġceremony": 8361,
    "Ġthro": 5818,
    "Ġfolds": 12211,
    "Ġhogshe": 20495,
    "Ġpovelson": 26554,
    "iful": 2878,
    "Ġvehemence": 26568,
    "laug": 10709,
    "Ġunluck": 8487,
    "Ġadmiral": 17308,
    "Ġblow": 3376,
    "Ġeve": 13973,
    "iety": 2814,
    "glancing": 11216,
    "Ġmaty": 22914,
    "orses": 6053,
    "Ġadvanced": 1455,
    "za": 13813,
    "ĠĠĠĠĠĠĠĠĠĠĠĠĠĠĠĠĠĠĠĠĠĠĠĠĠĠĠĠĠĠĠĠ": 2735,
    "Ġconveyed": 8335,
    "voyage": 7786,
    "augmented": 26288,
    "Ġfearless": 9878,
    "countless": 24153,
    "Ġaccounts": 7207,
    "draught": 12095,
    "tram": 19646,
    "Ġdistingu": 2513,
    "duty": 20242,
    "rants": 13781,
    "Ġohio": 19130,
    "Ġcalamities": 25700,
    "bearer": 18522,
    "resp": 13842,
    "Ġbattle": 5909,
    "yden": 21146,
    "oices": 7348,
    "Ġpockets": 8899,
    "Ġver": 3397,
    "Ġcontent": 5034,
    "cating": 20804,
    "Ġfrightened": 5342,
    "Ġprolonged": 8358,
    "Ġinglorious": 24424,
    "Ġvia": 2380,
    "jury": 15377,
    "frau": 15093,
    "Ġrug": 16161,
    "odhead": 18120,
    "Ġdedication": 3204,
    "urn": 775,
    "Ġpassionate": 11275,
    "Ġredoubled": 23756,
    "Ġmartyr": 26362,
    "Ġangrily": 9410,
    "Ġoscillations": 2894,
    "plifted": 9713,
    "erable": 1917,
    "77": 15304,
    "Ġamelia": 26253,
    "thread": 15830,
    "Ġactiv": 833,
    "Ġdomes": 23704,
    "ĠĠĠĠĠĠĠĠĠĠĠĠĠĠĠĠ": 1219,
    "Ġai": 3124,
    "Ġwarnings": 16883,
    "gang": 17555,
    "Ġcravat": 26308,
    "Ġadventurous": 16735,
    "Ġdying": 2137,
    "Ġaccumulating": 2720,
    "bub": 15320,
    "Ġanimals": 8981,
    "hertfordshire": 10938,
    "ree": 874,
    "Ġachieved": 13170,
    "forming": 15922,
    "Ġencirc": 18733,
    "Ġunderstand": 834,
    "Ġbeen": 626,
    "Ġribbons": 24325,
    "arus": 13915,
    "tastes": 21099,
    "iguous": 18047,
    "Ġwanted": 4968,
    "Ġbriefly": 11369,
    "Ġunreserved": 19400,
    "Ġalternative": 19990,
    "Ġlights": 8963,
    "along": 6014,
    "Ġellenborough": 26155,
    "Ġindians": 14412,
    "Ġsundial": 15086,
    "Ġdeliriously": 23232,
    "cheerful": 13579,
    "ellative": 21949,
    "Ġthomson": 26456,
    "Ġdisposal": 19379,
    "Ġtreasures": 17048,
    "amusement": 15286,
    "Ġ70": 11278,
    "sight": 5996,
    "ology": 1557,
    "nib": 5214,
    "that": 850,
    "Ġbefriend": 18084,
    "Ġignominy": 15089,
    "hem": 6666,
    "ital": 4819,
    "Ġrosy": 18458,
    "Ġinconsistency": 26184,
    "urpation": 16304,
    "Ġgrounded": 23714,
    "victim": 25531,
    "Ġzoned": 22821,
    "Ġpile": 8425,
    "eral": 9162,
    "sail": 3605,
    "Ġquarter": 3978,
    "Ġ60": 14878,
    "scruple": 26046,
    "gans": 11492,
    "Ġblasp": 14403,
    "Ġreappeared": 21668,
    "answ": 15888,
    "Ġmethodology": 2388,
    "Ġaffair": 4466,
    "Ġmeanings": 18609,
    "Ġwindlass": 7256,
    "crazy": 24692,
    "oped": 6048,
    "Ġwatson": 3599,
    "Ġexulting": 20261,
    "85": 13685,
    "ague": 3909,
    "Ġstrokes": 16771,
    "_.âĢĿ": 5887,
    "Ġunalterable": 15855,
    "Ġapples": 22220,
    "Ġviolently": 6457,
    "eries": 6809,
    "hastened": 16847,
    "Ġtraveller": 8049,
    "Ġwaving": 8579,
    "Ġrapidly": 3244,
    "Ġju": 10289,
    "osure": 5308,
    "Ġattributed": 11839,
    "Ġhysterics": 26094,
    "ectual": 21919,
    "ches": 2148,
    "Ġinsensible": 12329,
    "Ġunspeakable": 10059,
    "ulgent": 18152,
    "sufficient": 6638,
    "Ġdiffusion": 23785,
    "Ġcasualties": 25513,
    "Ġglobular": 19011,
    "Ġweaver": 11691,
    "Ġlace": 13952,
    "ange": 1017,
    "Ġpremeditated": 22238,
    "Ġmultipl": 2787,
    "thern": 4953,
    "around": 12613,
    "Ġtype": 2018,
    "Ġillustration": 19137,
    "Ġpilgrim": 25600,
    "Ġsecond": 1878,
    "dum": 17520,
    "Ġincommod": 25308,
    "Ġexempt": 21832,
    "Ġdenny": 9004,
    "Ġgodfrey": 15297,
    "Ê": 139,
    "Ġnewspapers": 17189,
    "Ġmister": 22763,
    "thin": 14100,
    "Ġburned": 8634,
    "nes": 6961,
    "bes": 6644,
    "Ġcranes": 20386,
    "Ġensl": 19276,
    "ojo": 7349,
    "Ġhow": 597,
    "Ġesteem": 7531,
    "ics": 3255,
    "shazzar": 15293,
    "emorial": 10244,
    "matter": 5136,
    "Ġuniversally": 12004,
    "yourself": 6744,
    "Ġmagn": 1558,
    "Ġgreece": 17070,
    "Ġic": 9628,
    "Ġsatur": 1930,
    "precisely": 6917,
    "Ġmurmur": 14591,
    "ented": 4352,
    "Ġwayward": 22876,
    "tete": 10734,
    "Ġpliny": 11829,
    "Ġstun": 11653,
    "Ġcourage": 4635,
    "Ġfumbling": 21420,
    "dick": 11481,
    "afford": 14656,
    "Ġeither": 2603,
    "Ġseam": 3911,
    "poises": 11893,
    "ide": 722,
    "Ġconsidering": 4617,
    "Ġsmitten": 12904,
    "Ġsupervised": 3258,
    "Ġcanall": 10932,
    "Ġconst": 1908,
    "taining": 7206,
    "fool": 9050,
    "Ġloop": 14149,
    "Ġdons": 17890,
    "Ġcaught": 3733,
    "Ġwondering": 7971,
    "yset": 21148,
    "Ġsubmitted": 11875,
    "marching": 25753,
    "Ġdecomp": 3814,
    "Ġrebellion": 26477,
    "Ġlogs": 16350,
    "Ġtrying": 4840,
    "âĢĻ": 378,
    "inese": 12879,
    "Ġobliquely": 12366,
    "nns": 1890,
    "Ù": 154,
    "lamps": 25261,
    "Ġouthouse": 22318,
    "Ġgore": 17991,
    "Ġexcl": 3477,
    "Ġvindication": 25365,
    "touched": 15442,
    "Ġstaid": 21742,
    "Ġmarshal": 20222,
    "Ġillum": 9403,
    "justice": 7958,
    "astrop": 3315,
    "Ġounce": 15276,
    "Ġliquid": 22413,
    "kov": 17588,
    "gone": 6505,
    "narrowly": 20350,
    "blubber": 15240,
    "Ġwarmly": 8990,
    "Ġwander": 9034,
    "machines": 8385,
    "Ġinstruction": 14345,
    "rever": 21238,
    "Ġlandlord": 5581,
    "Ġsombre": 18862,
    "Ġneighbourhood": 5126,
    "Ġbeauties": 10447,
    "Ġdestroyer": 13417,
    "seat": 18128,
    "Ġasp": 15785,
    "Ġdisco": 3431,
    "Ġheadway": 18794,
    "Ġhurled": 10431,
    "wrong": 13210,
    "Ġmortifying": 13250,
    "Ġbull": 7839,
    "lances": 15387,
    "ĠĠĠĠĠĠĠĠĠĠĠĠĠĠĠĠĠĠĠĠĠĠĠĠĠĠĠĠĠĠĠĠĠĠĠĠĠĠĠĠĠĠĠĠĠĠĠĠĠĠĠ": 20042,
    "Ġuttering": 16464,
    "athy": 14326,
    "ort": 522,
    "Ġinsignific": 13184,
    "umberland": 16839,
    "arpening": 21446,
    "Ġupbraid": 18319,
    "Ġers": 15463,
    "Ġworld": 1596,
    "Ġperceive": 6701,
    "Ġsatirical": 26281,
    "Ġcoleman": 22590,
    "Ġwretchedness": 9029,
    "Ġheaving": 7601,
    "li": 1188,
    ".;": 20746,
    "given": 8377,
    "Ġtrif": 6270,
    "Ġpersian": 11094,
    "Ġpursue": 6316,
    "Ġauthors": 10412,
    "Ġge": 1977,
    "clut": 23154,
    "enit": 17781,
    "Ġdiversity": 25285,
    "Ġsatiated": 22905,
    "Ġadieus": 25113,
    "Ġastonished": 7089,
    "beginning": 13565,
    "Ġsynd": 22210,
    "Ġforbearance": 12332,
    "Ġmu": 17797,
    "Ġ177": 13416,
    "Ġunav": 18241,
    "Ġrepositories": 23367,
    "achalot": 15865,
    "ropri": 2180,
    "Ġretire": 10384,
    "adventurous": 25362,
    "jol": 20927,
    "impotence": 23764,
    "Ġswiftly": 5670,
    "rapid": 12675,
    "Ġdisk": 22526,
    "Ġcooking": 16649,
    "Ġbackground": 18649,
    "Ġtyphoon": 12393,
    "specim": 23947,
    "Ġlothario": 26186,
    "Ġvon": 14084,
    "doubtless": 17004,
    "Ġsanguinary": 25930,
    "Ġtackle": 9516,
    "Ġactual": 3740,
    "nurs": 21001,
    "Ġminers": 22835,
    "Ġcollections": 22862,
    "Ġlens": 8439,
    "Ġnobler": 14176,
    "Ġtigers": 25759,
    "Ġtipped": 17730,
    "Ġrattle": 10901,
    "Ġadapted": 11037,
    "lemagne": 26438,
    "Ġphaet": 16321,
    "Ġshall": 1142,
    "Ġlearnt": 7613,
    "utional": 17986,
    "Ġplayfully": 19241,
    "strang": 11185,
    "Ġfountains": 13506,
    "Ġengagements": 9981,
    "shish": 11797,
    "behold": 12883,
    "Ġflying": 5413,
    "adv": 4539,
    "Ġdrowning": 19906,
    "rength": 4104,
    "Ġprec": 2916,
    "Ġempire": 11147,
    "Ġexisting": 12723,
    "deser": 10481,
    "somewhat": 11162,
    "Ġdownward": 10334,
    "waited": 24586,
    "Ġreceive": 4705,
    "adventure": 17236,
    "made": 4809,
    "Ġproves": 14041,
    "qualified": 17099,
    "fields": 14655,
    "Ġpointing": 5661,
    "Ġsa": 473,
    "Ġinterposed": 20622,
    "sustained": 20571,
    "Ġancest": 12619,
    "riety": 12748,
    "ĠĠĠĠĠĠĠĠĠĠĠĠĠĠĠĠĠĠĠĠĠĠĠĠĠĠĠĠĠĠĠĠĠĠĠĠĠĠĠĠĠĠ": 24212,
    "creature": 5347,
    "spir": 5738,
    "Ġprophet": 7681,
    "Ġtwelvemonth": 12182,
    "Ġrings": 11703,
    "Ġdarker": 13124,
    "Ġconsider": 2568,
    "make": 5793,
    "Ġrevive": 13483,
    "Ġdefined": 11902,
    "Ġradiating": 24331,
    "apping": 5853,
    "Ġpet": 4588,
    "Ġantiquity": 15234,
    "Ġbloodthirsty": 26603,
    "Ġpipe": 4325,
    "lic": 17589,
    "cr": 4014,
    "arily": 4129,
    "Ġadmin": 23556,
    "Ġcertainly": 2497,
    "Ġcheshire": 13094,
    "Ġwork": 1347,
    "Ġfreedom": 9085,
    "Ġemptied": 24347,
    "ogne": 12945,
    "Ġrandom": 1589,
    "Ġvices": 14086,
    "Ġgabriel": 7596,
    "Ġunconscious": 9550,
    "Ġsalisbury": 24067,
    "Ġmount": 7362,
    "Ġsaturation": 2063,
    "Ġlingered": 13508,
    "Ġexertions": 13414,
    "Ġimag": 2673,
    "vocation": 25087,
    "Ġmedic": 11258,
    "Ġcannib": 6037,
    "Ġfresh": 3673,
    "mense": 4781,
    "Ġbuilded": 24718,
    "Ġadmir": 12026,
    "Ġglossy": 15231,
    "Ġsnarl": 25714,
    "Ġmatrimonial": 25490,
    "Ġexasperate": 20101,
    "Ġcarpent": 4468,
    "abilities": 3235,
    "Ġfashions": 17887,
    "Ġghast": 9212,
    "Ġwardrobe": 17228,
    "Ġsam": 7569,
    "Ġcountenances": 11968,
    "Ġrepresents": 4903,
    "compasses": 19461,
    "Ġrush": 5926,
    "collecting": 26082,
    "Ġequival": 4785,
    "Ġmarket": 7709,
    "Ġzeros": 3325,
    "mason": 17604,
    "Ġberth": 8683,
    "satisfaction": 9995,
    "prob": 7071,
    "Ġrudimental": 25111,
    "vedale": 22713,
    "Ġxxiv": 24477,
    "seamen": 13630,
    "attain": 21264,
    "Ġjenkinson": 11433,
    "Ġsquare": 2395,
    "Ġhaul": 11696,
    "desired": 9008,
    "tempestuous": 26098,
    "Ġunrestingly": 20364,
    "Ġwhel": 15870,
    "month": 6464,
    "Ġdormouse": 4926,
    "honour": 13471,
    "Ġsails": 5257,
    "Ġchat": 6562,
    "Ġhiss": 15792,
    "Ġsmacking": 20168,
    "yt": 17713,
    "Ø": 153,
    "Ġmagic": 8233,
    "Ġdisplayed": 10611,
    "Ġsoothed": 10032,
    "goin": 23406,
    "Ġdefection": 22945,
    "acca": 23599,
    "Ġsucceed": 4547,
    "Ġvanquished": 22880,
    "appeared": 4286,
    "crowning": 25749,
    "Ġdyspepsia": 20645,
    "wedged": 24559,
    "Ġbugs": 13652,
    "rels": 6667,
    "arious": 10320,
    "ized": 1529,
    "Ġdiadem": 24740,
    "spite": 16142,
    "Ġfleets": 23777,
    "Ġdecaying": 2248,
    "absurd": 21799,
    "Ġgulf": 10638,
    "Ġannot": 15606,
    "Ġclasp": 9747,
    "Ġfinery": 23128,
    "Ġenlivened": 26209,
    "Ġpiqu": 21480,
    "Ġpacifics": 24373,
    "Ġglancing": 5399,
    "Ġreproach": 9559,
    "simply": 20673,
    "Ġforests": 13596,
    "lord": 3867,
    "Ġoriginal": 6104,
    "Ġdevotion": 22722,
    "Ġnuts": 17954,
    "Ġfranc": 16355,
    "Ġname": 2084,
    "ļ": 253,
    "Ġrheumatic": 20707,
    "ading": 5091,
    "rible": 3226,
    "Ġdeft": 21841,
    "Ġwollstonecraft": 26427,
    "ustomed": 6100,
    "bpp": 20774,
    "Ġstock": 7455,
    "reas": 988,
    "Ġleft": 1760,
    "Ġcomputation": 964,
    "Ġolder": 9330,
    "slowly": 9092,
    "Ġcovered": 5171,
    "Ġtraining": 530,
    "Ġexperiments": 23010,
    "Ġrule": 1534,
    "Ġconceals": 23907,
    "Ġphiladel": 23888,
    "Ġreefed": 20305,
    "figures": 20125,
    "Ġfuel": 13907,
    "iards": 17576,
    "dish": 12457,
    "putable": 10903,
    "Ġsynthe": 26008,
    "Ġploughed": 22610,
    "Ġgradually": 3404,
    "Ġsettles": 22922,
    "Ġmiller": 19885,
    "Ġfitzwilliam": 5771,
    "Ġdistress": 5845,
    "Ġexcuses": 19042,
    "soundest": 24796,
    "Ġamazement": 7765,
    "Ġlengthwise": 10454,
    "Ġnephew": 6406,
    "Ġworkflow": 2522,
    "Ġsitting": 3607,
    "than": 4090,
    "lour": 15384,
    "Ġeliminating": 20623,
    "Ġexpon": 967,
    "Ġwoll": 21296,
    "Ġuncles": 23433,
    "Ġpreserving": 19799,
    "Ġindebted": 8711,
    "arson": 22751,
    "Ġinclination": 6626,
    "sters": 6392,
    "orton": 11760,
    "Ġexactly": 2765,
    "infallibly": 26419,
    "aphys": 15205,
    "assed": 6422,
    "Ġunravel": 26216,
    "rendered": 22343,
    "Ġheightened": 8652,
    "Ġtiar": 21170,
    "Ġcausing": 16361,
    "Ġmightiest": 12966,
    "exciting": 19671,
    "atus": 21263,
    "Ġpicturesqueness": 24480,
    "ahit": 9385,
    "shut": 10981,
    "onical": 21256,
    "seeing": 7080,
    "Ġglobal": 2368,
    "caves": 20818,
    "Ġportions": 19372,
    "Ġvestige": 20066,
    "osp": 6854,
    "familiar": 19786,
    "zen": 5140,
    "advent": 10223,
    "rant": 11519,
    "unknown": 10892,
    "ishmael": 18421,
    "Ġfatigue": 8701,
    "Ġblocks": 6323,
    "twist": 23701,
    "Ġgeomet": 3189,
    "iv": 431,
    "Ġsquaw": 22846,
    "wish": 8100,
    "avery": 13687,
    "Ġhud": 10824,
    "Ġalphabetical": 17204,
    "Ġdecision": 2674,
    "yet": 3755,
    "akin": 11771,
    "Ġreligion": 11417,
    "skirted": 24489,
    "Ġlxi": 21564,
    "perquis": 22189,
    "cely": 3577,
    "Ġtreacherously": 25132,
    "Ġextras": 22731,
    "Ġoffers": 12951,
    "standing": 5558,
    ",âĢĶâĢľ": 10073,
    "Ġearning": 23944,
    "Ġknight": 9730,
    "Ġinformation": 1047,
    "horrors": 20544,
    "Ġprofund": 13157,
    "tub": 9146,
    "Ġlance": 4880,
    "meanwhile": 10612,
    "Ġstrainings": 24628,
    "Ġcalls": 6746,
    "Ġcame": 1304,
    "tolerably": 21098,
    "rederick": 14082,
    "Ġmr": 661,
    "cabinet": 25080,
    "Ġtim": 4580,
    "warm": 8102,
    "loat": 8890,
    "arth": 4446,
    "deed": 1521,
    "ther": 482,
    "Ġquieted": 23846,
    "ronted": 14880,
    "mounting": 25208,
    "Ġlottery": 19890,
    "Ġtoils": 10188,
    "Ġnorthern": 7265,
    "Ġissued": 10602,
    "ouncement": 11749,
    "Ġfrigid": 17355,
    "rep": 5525,
    "fireside": 24693,
    "Ġaccompl": 5167,
    "Ġdetermination": 9822,
    "Ġdur": 11595,
    "rance": 5995,
    "dist": 4483,
    "Ġpro": 360,
    "Ġpalm": 10516,
    "rug": 18345,
    "Ġentries": 22740,
    "lording": 24053,
    "Ġwandering": 8657,
    "amplified": 26496,
    "bourne": 19104,
    "Ġgroan": 13329,
    "Ġbundles": 26176,
    "Ġpursued": 6330,
    "Ġbranded": 14382,
    "Ġkindliness": 23297,
    "anean": 7443,
    "chronicle": 26482,
    "ĠâĢľâĢĺ": 8506,
    "vex": 21701,
    "Ġcustom": 5078,
    "Ġcaulk": 25441,
    "robotics": 11308,
    "Ġmortal": 4683,
    "cushion": 20823,
    "Ġinstantaneously": 23659,
    "Ġamply": 22486,
    "ples": 6845,
    "shell": 16290,
    "Ġtones": 8401,
    "Ġwealthy": 18181,
    "Ġdismal": 11814,
    "weaving": 18667,
    "Ġrefuse": 5739,
    "Ġbeam": 2876,
    "wind": 4256,
    "osoever": 17346,
    "Ġzealand": 12354,
    "bell": 7332,
    "Ġinflicted": 11367,
    "Ġbaptized": 25775,
    "Ġroaring": 10969,
    "Ġforster": 5230,
    "poles": 16213,
    "older": 15760,
    "Ġwhile": 608,
    "ays": 6685,
    "Ġlicense": 20094,
    "Ġdeath": 2042,
    "Ġutensils": 23518,
    "Ġbusiness": 2234,
    "Ġdecorum": 16029,
    "gunwale": 20665,
    "Ġwrithing": 11950,
    "Ġuntouched": 16468,
    "vil": 2729,
    "Ġdull": 6385,
    "Ġchall": 10946,
    "Ġwondrously": 24068,
    "Ġemig": 14526,
    "Ġtorn": 6001,
    "Ġerection": 24004,
    "Ġcarbuncle": 14448,
    "Ġpanthe": 19656,
    "Ġtheoretically": 3569,
    "Ġdelineate": 26058,
    "Ġbermud": 26441,
    "Ġforgive": 8010,
    "endless": 22230,
    "atre": 17772,
    "Ġunchanging": 22047,
    "Ġgenerously": 22398,
    "yth": 979,
    "Ġoff": 901,
    "estone": 18364,
    "kinson": 10029,
    "Ġconvey": 9984,
    "disposed": 25013,
    "Ġorganically": 3007,
    "Ġislands": 6767,
    "Ġorphan": 12387,
    "Ġbusks": 23340,
    "Ġincarn": 11818,
    "Ġevid": 3502,
    "Ġviii": 16417,
    "nearer": 22468,
    "Ġstorm": 4305,
    "photograph": 16158,
    "varied": 23188,
    "Ġpay": 3965,
    "Ġeducated": 16787,
    "abound": 15744,
    "Ġwrath": 16320,
    "ather": 740,
    "Ġinfiltrated": 23286,
    "Ġextended": 7923,
    "Ġshyness": 20309,
    "Ġnearly": 3365,
    "porpoise": 16437,
    "sent": 761,
    "elfth": 22373,
    "Ġpaint": 7708,
    "Ġcons": 953,
    "´": 117,
    "Ġstaving": 21744,
    "particulars": 11317,
    "Ġasked": 2276,
    "le": 279,
    "ameter": 3093,
    "elag": 12663,
    "ood": 962,
    "Ġisa": 14028,
    "Ġconc": 1840,
    "boxes": 16890,
    "begins": 18526,
    "purse": 20028,
    "Ġbearing": 5300,
    "Ġskylight": 24075,
    "Ġprayed": 16670,
    "Ġtribes": 20484,
    "Ġanne": 1530,
    "iac": 6227,
    "ason": 1260,
    "button": 10972,
    "Ġunearthly": 9039,
    "atively": 2694,
    "ibule": 13016,
    "tle": 2407,
    "Ġdisliked": 12896,
    "Ġfuss": 13908,
    "Ġstalk": 12703,
    "Ġrays": 10333,
    "surpr": 5998,
    "Ġchannel": 26013,
    "dark": 5614,
    "Ġenvelope": 7319,
    "Ġhor": 1662,
    "Ġsmith": 16068,
    "Ġclub": 8877,
    "lace": 13751,
    "merit": 19283,
    "Ġtester": 21175,
    "source": 11528,
    "Ġnast": 15643,
    "ç": 168,
    "movement": 25578,
    "gence": 876,
    "Ġsouth": 4912,
    "Ġsupreme": 13611,
    "dle": 3305,
    "Ġconsecut": 18114,
    "Ġharpooning": 23982,
    "Ġvastly": 23863,
    "Ġcra": 2331,
    "Ġiceberg": 14719,
    "Ġsumatra": 15290,
    "Ġleaped": 8829,
    "importance": 9992,
    "Ġwalled": 15538,
    "Ġperman": 10967,
    "representing": 25272,
    "Ġadvancing": 6877,
    "Ġinserting": 19908,
    "mitting": 20975,
    "whisper": 17084,
    "Ġdial": 10812,
    "seaman": 25458,
    "possession": 12226,
    "Ġpott": 21471,
    "repe": 8780,
    "Ġinmost": 17933,
    "Ġhosts": 19942,
    "Ġlabrador": 23332,
    "Ġpoll": 12034,
    "Ġreservoir": 20653,
    "Ġadmon": 15872,
    "Ġconcl": 5095,
    "Ġlydia": 2372,
    "deadly": 17101,
    "Ġsinks": 19552,
    "friend": 3865,
    "Ġdied": 4114,
    "Ġtranslation": 3082,
    "gaff": 20884,
    "Ġsensitivity": 3064,
    "whispered": 20037,
    "Ġsunny": 13090,
    "list": 7551,
    "Ġaltered": 7393,
    "Ġtread": 9412,
    "Ġsuperstition": 15057,
    "alizing": 17942,
    "social": 11024,
    "parlour": 16406,
    "Ġexeget": 24087,
    "Ġunob": 22017,
    "Ġadmirers": 19689,
    "Ġallured": 14116,
    "Ġalternating": 15033,
    "Ġpeeped": 10015,
    "aloft": 8811,
    "Ġarticle": 9505,
    "races": 21633,
    "within": 6732,
    "Ġf": 283,
    "guilty": 19486,
    "Ġheed": 5630,
    "ram": 13975,
    "Ġhovering": 10181,
    "Ġeaster": 15679,
    "Ġstrugg": 3215,
    "whiskers": 12315,
    "Ġslack": 8958,
    "Ġtrain": 515,
    "Ġalche": 21787,
    "Ġindisposed": 26289,
    "Ġobser": 2072,
    "Ġbitt": 10798,
    "¿": 128,
    "Ġdavy": 25952,
    "Ġbraz": 19361,
    "Ġsplice": 19311,
    "Ġstaggers": 24654,
    "olstadt": 7789,
    "reason": 4418,
    "according": 12032,
    "aits": 20768,
    "Ġtiles": 17728,
    "Ġsix": 3039,
    "illating": 22111,
    "frantic": 24285,
    "Ġresidence": 8207,
    "Ġmeasured": 9807,
    "Ġrout": 7402,
    "Ġjar": 15954,
    "Ġmes": 17798,
    "close": 9989,
    "Ġherbage": 25997,
    "Ġwin": 9644,
    "Ġyell": 21781,
    "ratulations": 20129,
    "Ġargument": 7100,
    "Ġhowever": 1308,
    "Ġsheepfold": 25467,
    "Ġreplacing": 3452,
    "Ġarchitects": 18738,
    "Ġof": 298,
    "Ġropes": 10750,
    "Ġmisunderstood": 18704,
    "Ġgirth": 13139,
    "canst": 22971,
    "Ġtash": 13823,
    "Ġlurks": 11292,
    "fatig": 17090,
    "Ġtopmost": 14589,
    "Ġwell": 900,
    "Ġpeaks": 16132,
    "Ġgall": 4355,
    "Ġgait": 13335,
    "animation": 16981,
    "Ġfootpaths": 26319,
    "Ġprograms": 7239,
    "Ġreader": 11938,
    "arrested": 15605,
    "striving": 24670,
    "Ġfilthy": 13253,
    "Ġnatives": 17953,
    "Ġcomparative": 10545,
    "Ġheroism": 24544,
    "Ġearnestly": 5980,
    "true": 2585,
    "Ġlabors": 23330,
    "inav": 15487,
    "Ġreliable": 18778,
    "Ġdefer": 18824,
    "father": 3779,
    "Ġcompromising": 22577,
    "menced": 23149,
    "Ġliv": 6681,
    "Ġblew": 9048,
    "Ġnorton": 12654,
    "nment": 20992,
    "Ġperiodical": 14775,
    "Ġstep": 752,
    "clay": 18933,
    "begin": 8887,
    "Ġcognitive": 13638,
    "murder": 10567,
    "Ġowl": 20087,
    "Ġexcellence": 11453,
    "Ġjerked": 19835,
    "Ġrises": 9716,
    "Ġfloated": 7288,
    "mast": 3604,
    "Ġoft": 9197,
    "express": 4896,
    "Ġblasphe": 17410,
    "gradually": 12920,
    "Ġremotest": 10055,
    "Ġambition": 11434,
    "alot": 15630,
    "Ġpushing": 10821,
    "ously": 2491,
    "ifers": 15786,
    "anxiety": 25159,
    "Ġacknowledged": 7534,
    "ium": 4865,
    "relation": 19450,
    "Ġdiscovery": 5412,
    "Ġsagaciously": 24730,
    "Ġcheers": 16369,
    "Ġpressing": 9264,
    "Ġmccarthys": 19665,
    "crack": 19843,
    "Ġhenceforth": 19645,
    "Ġchil": 11755,
    "Ġcrucifix": 26080,
    "Ġtomahawk": 7539,
    "Ġapologize": 15132,
    "Ġawaiting": 11392,
    "Ġmeet": 2800,
    "Ġactively": 18654,
    "proof": 16427,
    "Ġengraved": 17082,
    "Ġindolence": 16232,
    "Ġmessage": 13526,
    "Ġparched": 11731,
    "hen": 3519,
    "Ġthre": 2059,
    "blo": 6355,
    "Ġmallet": 17812,
    "suffer": 24329,
    "Ġah": 5075,
    "sleet": 20152,
    "Ġdeclares": 16994,
    "Ġnerve": 16344,
    "Ġrevelations": 25224,
    "ow": 325,
    "Ġbeseeching": 26312,
    "Ġjoyously": 19350,
    "Ġflounders": 23019,
    "orange": 21403,
    "fellow": 6793,
    "prow": 15414,
    "ortunity": 4407,
    "sockets": 22729,
    "if": 376,
    "Ġtasselled": 25922,
    "Ġearthly": 7990,
    "Ġinfancy": 10413,
    "Ď": 207,
    "Ġwarring": 16867,
    "Ġtransactions": 18483,
    "Ġsufferings": 7513,
    "earthquakes": 24724,
    "Ġtalent": 12301,
    "Ġalpine": 18108,
    "Ġexp": 778,
    "Ġworthy": 7241,
    "Ġinvolved": 8926,
    "Ġunh": 9256,
    "Ġpeering": 8537,
    "Ġ78": 19616,
    "Ġplied": 22602,
    "Ġeligible": 10673,
    "Ġbelong": 3888,
    "pleasanter": 24050,
    "circuit": 24191,
    "Ġinsult": 6749,
    "hab": 1077,
    "hered": 5623,
    "Ġsheer": 14153,
    "Ġsmoothe": 23657,
    "Ġunaware": 22061,
    "Ġabode": 7900,
    "iosity": 2208,
    "hearts": 13349,
    "Ġcontemplated": 13468,
    "Ġcopy": 10166,
    "isance": 17849,
    "handedness": 24921,
    "Ġmig": 13859,
    "Ġalso": 1343,
    "side": 2299,
    "Ġencoding": 4775,
    "Ġunfeeling": 14122,
    "Ġstirred": 12222,
    "Ġricher": 12764,
    "ython": 1030,
    "irection": 2386,
    "Ġbountiful": 25945,
    "Ġrealising": 18983,
    "Ġmadly": 16487,
    "Ġmornings": 16243,
    "Ġpeev": 22696,
    "bery": 9794,
    "Ġtarred": 23611,
    "uteronomy": 15668,
    "Ġsanctioned": 26352,
    "Ġturner": 7051,
    "Ġestablish": 9546,
    "entimes": 12661,
    "invisible": 17742,
    "Ġardent": 9973,
    "Ġpaul": 12066,
    "Ġcoleridge": 18768,
    "Ġvigorous": 10569,
    "stop": 11638,
    "lantern": 17431,
    "atiable": 17776,
    "Ġm": 274,
    "sen": 21052,
    "Ġshillings": 15839,
    "istical": 8492,
    "Ġubiqu": 18049,
    "Ġgnashed": 20136,
    "Ġrepeatedly": 9024,
    "Ġegress": 21624,
    "Ġunsatisfied": 22046,
    "madness": 14885,
    "Ġbarrel": 23794,
    "Ġbehooves": 20735,
    "itarian": 21340,
    "achus": 18282,
    "Ġmelted": 19624,
    "solution": 14688,
    "Ġedged": 23491,
    "Ġstillness": 13000,
    "Ġpat": 1847,
    "Ġcontradictory": 20400,
    "Ġx": 2075,
    "objection": 19917,
    "Ġhuge": 4701,
    "except": 5383,
    "Ġsoutherly": 23336,
    "Ġentrances": 25836,
    "Ġunmanufactured": 20437,
    "Ġrobots": 11074,
    "Ġsagacious": 14974,
    "Ġmomentary": 11038,
    "Ġdiligent": 25078,
    "vellers": 16676,
    "Ġdisplay": 6429,
    "Ġshout": 4268,
    "Ġungracious": 18259,
    "Ġcott": 3711,
    "Ġcostume": 16498,
    "Ġtells": 9364,
    "Ġsometimes": 2168,
    "Ġbohemian": 17136,
    "Ġdisposition": 5409,
    "Ġwedded": 15539,
    "stave": 21652,
    "Ġcalculated": 4478,
    "ogn": 2610,
    "Ġaffected": 5577,
    "Ġconsequent": 18113,
    "Ġretort": 23074,
    "dest": 4106,
    "Ġsteeple": 19289,
    "Ġgrandfather": 19425,
    "traces": 24336,
    "Ġbrought": 2515,
    "breckinridge": 24078,
    "below": 12126,
    "Ġcamel": 25350,
    "Ġforcibly": 10064,
    "Ġcompacted": 23512,
    "Ġavalanche": 17436,
    "osite": 4894,
    "Ġpanted": 21475,
    "Ġcocked": 12909,
    "Ġqualified": 14953,
    "Ġoverlook": 10962,
    "Ġstalls": 25648,
    "Ġcomputational": 1623,
    "Ġcharges": 23271,
    "inted": 2648,
    "comb": 11040,
    "Ġeleg": 6194,
    "idelburgh": 10564,
    "Ġharpo": 1942,
    "Ġnomine": 26458,
    "Ġsympathies": 14864,
    "Ġprocedures": 9415,
    "Ġtemple": 7654,
    "uous": 4149,
    "anque": 13891,
    "Ġexternal": 8365,
    "acceler": 23600,
    "Ġinclu": 1100,
    "olerably": 11676,
    "ĠĊ": 12528,
    "eu": 17532,
    "Ġpuppy": 12409,
    "boom": 18999,
    "Ġtimidity": 24688,
    "Ġregretted": 13404,
    "Ġminds": 6305,
    "Ġquaker": 10973,
    "tackle": 17324,
    "esy": 9185,
    "Ġjavelins": 26106,
    "Ġangle": 8606,
    "employ": 10897,
    "bers": 2570,
    "Ġtemptations": 24508,
    "jah": 17583,
    "Ġbosoms": 16797,
    "Ġconfiding": 19038,
    "attracted": 13056,
    "Ġforeshad": 23453,
    "Ġform": 1023,
    "mistak": 16880,
    "Ġacquire": 2721,
    "Ġqu": 606,
    "Ġexplored": 23521,
    "Ġindirectly": 8942,
    "Ġstore": 8455,
    "Ġdizzy": 21435,
    "Ġploughing": 26261,
    "azine": 19132,
    "allows": 15911,
    "Ġbast": 21382,
    "difference": 13711,
    "encounter": 20395,
    "Ġpillow": 10041,
    "apart": 15965,
    "Ġowns": 22828,
    "Ġran": 3344,
    "glo": 8741,
    "Ġinfl": 6893,
    "Ġlif": 10198,
    "Ġindustry": 18838,
    "Ġfav": 1754,
    "Ġintu": 12768,
    "icing": 9203,
    "Ġpoisoned": 24887,
    "Ġrules": 1919,
    "==": 945,
    "Ġsaf": 4003,
    "Ġfrocks": 23926,
    "jabez": 20935,
    "rrh": 26145,
    "proportions": 22838,
    "hau": 17564,
    "Ġrides": 21975,
    "touch": 8392,
    "driven": 19774,
    "vengeance": 13361,
    "Ġunrel": 14698,
    "Ġsprung": 11250,
    "Ô": 149,
    "Ġmexico": 15284,
    "Ġcontemplation": 11359,
    "Ġvertically": 19383,
    "bye": 5951,
    "Ġobjections": 8568,
    "deserts": 25382,
    "Ġcloset": 19594,
    "cription": 20820,
    "Ġostlers": 25277,
    "sometimes": 5973,
    "nez": 22465,
    "io": 3805,
    "Ġcrowded": 8012,
    "coast": 10451,
    "Ġtarget": 2817,
    "ske": 13785,
    "Ġassurance": 7775,
    "Ġinspection": 14545,
    "Ġclay": 7021,
    "Ġseek": 4511,
    "allowing": 24358,
    "Ġsore": 10766,
    "remaining": 20223,
    "Ġdefend": 9343,
    "Ġtransient": 18482,
    "Ġbirch": 26175,
    "Ġram": 11015,
    "claimed": 9839,
    "Ġimproper": 22756,
    "awn": 3837,
    "Ġenjoyed": 8008,
    "),": 1346,
    "Ġthis": 382,
    "Ġmoran": 9345,
    "mother": 5480,
    "Ġfortresses": 23623,
    "onsensical": 18577,
    "Ġpia": 21467,
    "Ġdraw": 3674,
    "Ġnext": 2140,
    "Ġchaplain": 19914,
    "Ġnowhere": 12891,
    "Ġfind": 1457,
    "gallantry": 15061,
    "Ġelsewhere": 7713,
    "nin": 17610,
    "Ġmarriage": 3186,
    "Ġhails": 21954,
    "Ġbolt": 11336,
    "Ġturbid": 23613,
    "consc": 4842,
    "Ġstri": 2799,
    "Ġwilson": 6632,
    "be": 672,
    "Ġsepulchre": 20562,
    "telescope": 26564,
    "Ġdeuteronomy": 15764,
    "Ġlacepede": 20498,
    "Ġstrings": 11833,
    "import": 5668,
    "Ġswish": 23056,
    "about": 3589,
    "Ġnoticed": 5549,
    "Ġspinning": 15055,
    "Ġinscrutable": 10675,
    "Ġbelieves": 14410,
    "cloud": 11107,
    "Ġuniform": 2228,
    "satisfied": 10581,
    "Ġpoet": 8208,
    "Ġawa": 7714,
    "irr": 12742,
    "honey": 20907,
    "Ġshapes": 14112,
    "Ġinex": 6529,
    "Ġguise": 14435,
    "Ġaffrighted": 13576,
    "Ġspirit": 3727,
    "Ġunexplored": 26520,
    "Ġincl": 4274,
    "bitter": 11243,
    "Ħ": 231,
    "Ġgospel": 18003,
    "Ġillness": 8593,
    "traversed": 19650,
    "Ġfirmly": 8014,
    "k": 79,
    "acious": 5562,
    "crop": 20800,
    "pursu": 11394,
    "Ġmoral": 6581,
    "admitted": 18094,
    "Ġlayer": 1012,
    "Ġpour": 13917,
    "Ġfiftieth": 24702,
    "vel": 2382,
    "Ġcyl": 15561,
    "Ġmabel": 17327,
    "concl": 12874,
    "Ġpretension": 23767,
    "dissemble": 23496,
    "ancy": 4397,
    "Ġshudder": 9053,
    "Ġstru": 2171,
    "Ġuncouth": 14550,
    "Ġfringed": 17275,
    "Ġneglected": 10380,
    "occupations": 24967,
    "Ġangular": 19208,
    "Ġbroiled": 18910,
    "cook": 8270,
    "Ġefforts": 11809,
    "Ġneville": 7399,
    "Ġcastor": 19430,
    "Ġdiary": 24738,
    "thus": 5158,
    "continuing": 24479,
    "Ġcomplex": 746,
    "Ġnoses": 18373,
    "Ġmeanwhile": 5736,
    "vard": 21113,
    "natured": 7112,
    "Ġgeese": 7694,
    "entials": 22666,
    "Ġaugust": 10600,
    "Ġincompetent": 25680,
    "Ġpaintings": 15058,
    "odecimoes": 25319,
    "Ġthirst": 7590,
    "hon": 6794,
    "clever": 20815,
    "gentleness": 24845,
    "broke": 14781,
    "Ġquohog": 10974,
    "Ġcomo": 21851,
    "anxiously": 15114,
    "anywhere": 14684,
    "Ġbrain": 2090,
    "Ġshares": 23249,
    "Ġseal": 10259,
    "Ġopposite": 5120,
    "pulling": 25149,
    "office": 16396,
    "Ġmanilla": 15963,
    "wil": 8769,
    "ille": 9222,
    "off": 1883,
    "Ġconting": 18473,
    "Ġcircumnavigation": 20403,
    "Ġagonies": 14254,
    "Ġpow": 4639,
    "manifested": 20529,
    "furthest": 19844,
    "sche": 13024,
    "Þ": 159,
    "Ġtorture": 9067,
    "Ġlaugh": 4116,
    "Ġswings": 11088,
    "Ġgarn": 13966,
    "heidelburgh": 21214,
    "Ġuntrodden": 23525,
    "Ġstature": 10865,
    "Ġinsect": 12641,
    "contrary": 23731,
    "Ġfru": 8421,
    "ody": 1479,
    "Ġplaited": 14286,
    "hear": 10149,
    "Ġch": 512,
    "idual": 1562,
    "wandered": 20288,
    "Ġcocks": 18598,
    "Ġdarkened": 16435,
    "Ġbroker": 23105,
    "Ġresolved": 3800,
    "Ġpang": 15609,
    "ishment": 3507,
    "Ġspreading": 13382,
    "Ġleisure": 6541,
    "Ġlanguor": 12852,
    "Ġsleek": 23387,
    "Ġrecognition": 3216,
    "entering": 17979,
    "Ġanytime": 12890,
    "Ġunfolded": 10641,
    "Ġdupl": 9957,
    "Ġdevilish": 11231,
    "Ġcouns": 10523,
    "hence": 16627,
    "eds": 6531,
    "wed": 5796,
    "appl": 9329,
    "Ġmeth": 1437,
    "Ġdiabolical": 20345,
    "overspreading": 26140,
    "Ġgrat": 4058,
    "ilege": 22260,
    "Ġcurve": 22966,
    "Ġphotograph": 6304,
    "Ġauthent": 14501,
    "Ġdiab": 10614,
    "shroud": 20313,
    "studied": 17152,
    "Ġdrifted": 14627,
    "coff": 9112,
    "intment": 4721,
    "Ġcrutch": 23446,
    "Ġtol": 6677,
    "Ġcontrasting": 11156,
    "Ġineffectual": 17387,
    "Ġexposes": 22625,
    "ispensable": 9099,
    "shudder": 26247,
    "butt": 16000,
    "ĠĠĠĠĠĠĠĠĠĠĠĠĠĠĠĠĠĠĠĠĠĠĠĠĠĠĠĠĠĠĠĠĠĠĠĠĠĠĠĠĠĠĠĠĠĠ": 9956,
    "Ġcosmopol": 16455,
    "Ġdeference": 10884,
    "Ġjones": 7204,
    "school": 10058,
    "chanced": 18814,
    "Ġfootpath": 19340,
    "Ġultimately": 17167,
    "Ġspurn": 18310,
    "Ġmuzzle": 21324,
    "Ġstrat": 16096,
    "Ġpitching": 16613,
    "Ġquitting": 7646,
    "wrapped": 15213,
    "Ġber": 5698,
    "Ġburton": 23654,
    "Ġstum": 21738,
    "Ġencouraging": 2263,
    "Ġefficient": 1055,
    "imony": 12695,
    "Ġhumbug": 18781,
    "Ġap": 5008,
    ",âĢĶâĢĺ": 23805,
    "Ġsutherland": 10151,
    "Ġgolden": 5337,
    "remember": 7262,
    "Ġshadowed": 24048,
    "Ġhandsomely": 25498,
    "'m": 9585,
    "utted": 15665,
    "anzas": 17842,
    "Ġsavi": 18325,
    "Ġfiles": 21416,
    "extreme": 11030,
    "mare": 17601,
    "rim": 7139,
    "Ġsunbeam": 23278,
    "Ġirretrie": 23377,
    "fra": 8375,
    "Ġpoker": 13925,
    "cest": 12449,
    "Ġrenders": 13288,
    "Ġremorseless": 13455,
    "Ġfished": 21413,
    "Ġsoaring": 22090,
    "Ġpython": 1069,
    "Ġintruding": 21995,
    "Ġguards": 16272,
    "Ġallures": 22010,
    "Ġprofuse": 23568,
    "Ġreiterating": 26476,
    "Ġconfessor": 24022,
    "jo": 3753,
    "Ġsensible": 4976,
    "Ġsublime": 8066,
    "dart": 20828,
    "design": 19343,
    "humanity": 24840,
    "Ġimport": 1027,
    "Ġmature": 17801,
    "Ġwilled": 21294,
    "Ġcomputes": 4769,
    "ø": 185,
    "swam": 24257,
    "Ġrelig": 8553,
    "gaze": 17559,
    "Ġpreserved": 9265,
    "Ġ86": 24461,
    "ued": 7561,
    "rd": 17651,
    "ond": 1160,
    "Ġemblaz": 16233,
    "Ġautomation": 13228,
    "Ġcollapsed": 15085,
    "Ġpoignant": 22596,
    "Ġchatbots": 11351,
    "aks": 8509,
    "rugg": 15906,
    "Ġmushroom": 13241,
    "meadow": 18680,
    "orient": 2875,
    "Ġwrap": 24595,
    "Ġgrind": 18735,
    "Ġinternal": 2247,
    "Ġbreast": 8971,
    "Ġfurlong": 18740,
    "Ġdec": 642,
    "Ġconsiderably": 7715,
    "possesses": 24617,
    "Ġsect": 17753,
    "gies": 13729,
    "Ġdisembow": 22541,
    "force": 12964,
    "collect": 16565,
    "uccas": 21109,
    "Ġig": 3503,
    "Ġexchange": 15758,
    "sand": 21055,
    "prejud": 11800,
    "âĢĶ(": 15942,
    "Ġwan": 15531,
    "flood": 19809,
    "Ġejac": 10206,
    "Ġcontribute": 12866,
    "Ġarbit": 4652,
    "Ġcuts": 14609,
    "Ġvivacity": 14944,
    "irra": 15789,
    "enses": 10996,
    "assin": 22309,
    "Ġcommentators": 25230,
    "Ġconcise": 23324,
    "Ġomen": 11579,
    "Ġscaled": 2107,
    "Ġ34": 16679,
    "romed": 10907,
    "Ġobscurely": 20191,
    "Ġidentifies": 12019,
    "Ġdav": 15594,
    "Ġfatig": 6758,
    "Ġcrown": 5289,
    "Ġflattering": 13035,
    "Ġ199": 3005,
    "mess": 13756,
    "umps": 6319,
    "Ġdowncast": 18652,
    "Ġlogic": 13082,
    "Ġgrasp": 4665,
    "Ġearned": 19408,
    "mme": 22504,
    "Ġsepul": 14093,
    "Ġwatched": 6299,
    "Ġscrupulous": 20072,
    "beings": 12882,
    "Ġprodigies": 19796,
    "Ġperilous": 7769,
    "send": 15426,
    "gs": 7338,
    "Ġcurv": 3513,
    "Ġweeds": 21928,
    "phantoms": 24680,
    "Ġreceived": 2949,
    "Ġirrad": 19095,
    "<": 32,
    "Ġswain": 18882,
    "Ġfight": 5366,
    "Ġinforming": 18742,
    "Ġxvi": 19106,
    "Ġcheered": 16372,
    "Ġthews": 21280,
    "jour": 20929,
    "Ġbough": 13897,
    "ancholy": 5070,
    "Ġtick": 8109,
    "Ġrepulsive": 14532,
    "Ġinquiring": 9002,
    "Ġinvoking": 19147,
    "Ġdoubtless": 6197,
    "umbent": 12094,
    "approached": 13489,
    "ippi": 20247,
    "Ġbrazier": 26322,
    "Ġunconnected": 18243,
    "Ġcaresses": 26060,
    "Ġfaithfully": 14890,
    "Ġmachinations": 25768,
    "Ġloving": 8176,
    "thousand": 5547,
    "Ġassigned": 16314,
    "Ġnarr": 5085,
    "Ġentitled": 8540,
    "Ġlikely": 3600,
    "local": 22513,
    "Ġdeity": 18140,
    "Ġremarking": 13128,
    "unity": 4156,
    "Ġprefers": 20517,
    "solute": 16600,
    "open": 7027,
    "ject": 875,
    "infant": 19830,
    "au": 777,
    "Ġsult": 10769,
    "Ġguilt": 6181,
    "Ġchecked": 9379,
    "Ġrifts": 21979,
    "Ġfairest": 20466,
    "dragging": 16611,
    "Ġcondem": 6340,
    "Ġtumble": 16881,
    "ful": 665,
    "Ġprogen": 14042,
    "Ġgloss": 11962,
    "haustible": 16893,
    "future": 13720,
    "Ġcur": 1230,
    "umbled": 8495,
    "alty": 17941,
    "Ġlivid": 14992,
    "Ġtartar": 17325,
    "south": 8762,
    "inj": 9154,
    "Ġtendons": 19811,
    "inclination": 20061,
    "abetical": 15747,
    "devoted": 20020,
    "Ġgiants": 25961,
    "overed": 2849,
    "Ġterrier": 23402,
    "amongst": 24673,
    "Ġassembl": 20064,
    "convalescence": 24885,
    "Ġheaviest": 23327,
    "Ġspeculations": 23003,
    "Ġqueer": 4481,
    "Ġdisguise": 10049,
    "interference": 23740,
    "isticated": 1635,
    "enstein": 5800,
    "Ġtrusty": 24106,
    "Ġenlightened": 12751,
    "Ġconvenience": 11333,
    "Ġmanor": 14199,
    "Ġaccommodate": 20520,
    "pocket": 9814,
    "Ġcasket": 19727,
    "Ġdair": 17891,
    "med": 1912,
    "Ġassumpt": 5415,
    "bbs": 23692,
    "ppa": 10242,
    "account": 5330,
    "Ġult": 9077,
    "ura": 1050,
    "Ġanswer": 2598,
    "crippled": 26386,
    "olen": 9703,
    "uer": 21103,
    "Ġdisturb": 7109,
    "counterpart": 26361,
    "É": 138,
    "Ġperse": 6274,
    "Ġtech": 1674,
    "ophisticated": 22482,
    "move": 11858,
    "bent": 15315,
    "Ġconcentrated": 15087,
    "Ġtrough": 15968,
    "Ġimpressions": 9556,
    "theast": 21752,
    "Ġfattened": 25950,
    "ag": 377,
    "Ġdotted": 16794,
    "aisance": 15078,
    "board": 3568,
    "silver": 19693,
    "Ġsympat": 13345,
    "small": 6473,
    "ho": 2854,
    "opes": 10313,
    "Ġ52": 24317,
    "approb": 11045,
    "thrown": 8483,
    "Ġmultiplicity": 19277,
    "Ġmainmast": 9782,
    "Ġape": 21199,
    "dued": 7909,
    "Ġparents": 6754,
    "Ġn": 300,
    "crow": 9593,
    "spout": 7924,
    "Ġpermanent": 13635,
    "hid": 13737,
    "Ġbirds": 5875,
    "Ġhatchway": 13528,
    "Ġpittance": 15621,
    "Ġscoundrel": 13674,
    "Ġpeddling": 21485,
    "ington": 21304,
    "Ġarrowy": 25470,
    "Ġinsure": 13182,
    "Ġmethinks": 10393,
    "Ġ46": 19494,
    "omed": 13978,
    "Ġobserving": 6081,
    "Ġparaph": 22124,
    "Ġindicate": 23725,
    "Ġedges": 3829,
    "mopol": 15399,
    "Ġmistifying": 23722,
    "investigations": 25534,
    "heavily": 24534,
    "Ġloathed": 15879,
    "eh": 13713,
    "Ġwasting": 12733,
    "Ġtweed": 22680,
    "might": 4080,
    "Ġacid": 22685,
    "fancy": 7337,
    "13": 20752,
    "indeed": 4490,
    "bowl": 14894,
    "onged": 18411,
    "yarn": 15460,
    "Ġpenn": 11114,
    "Ġshaken": 10267,
    "superior": 9528,
    "Ġflashed": 11919,
    "Ġunprofitable": 18268,
    "uncle": 8159,
    "frankenstein": 11393,
    "ater": 3372,
    "Ġcomparable": 24281,
    "Ġupd": 947,
    "clergyman": 20731,
    "Ġoffering": 3003,
    "attoo": 6808,
    "Ġrendering": 16660,
    "Ġhalloa": 13321,
    "peare": 18913,
    "Ġwrites": 23201,
    "Ġtranslates": 12054,
    "Ġbones": 4585,
    "Ġfamiliar": 5511,
    "Ġwhittling": 20702,
    "apprehension": 26115,
    "significant": 25085,
    "Ġthickets": 24026,
    "Ġbanished": 10619,
    "Ġadmirably": 16483,
    "Ġthrilling": 19751,
    "Ġrocked": 12858,
    "Ġspots": 11733,
    "Ġmeal": 9700,
    "ittingly": 18808,
    "Ġpush": 9187,
    "Ġmariner": 7247,
    "Ġlevelled": 11286,
    "Ġtwentieth": 18660,
    "Ġinsights": 13183,
    "Ġdiscl": 9800,
    "Ġcetacean": 25879,
    "Ġstand": 1734,
    "Ġclusters": 25233,
    "ction": 501,
    "Ġchival": 14183,
    "igh": 2027,
    "ath": 862,
    "Ġinquest": 16549,
    "Ġundecided": 22050,
    "things": 6034,
    "Ġeucl": 24708,
    "Ġseeth": 21964,
    "Ġembedd": 1398,
    "tooth": 18580,
    "Ġdest": 2238,
    "Ġdissuade": 26258,
    "ust": 493,
    "Ġnom": 21522,
    "abeth": 906,
    "Ġcircumnavigating": 25615,
    "Ġdiving": 12606,
    "employed": 17264,
    "Ġswiss": 18883,
    "Ġquant": 6425,
    "Ġwhoever": 10977,
    "Ġswim": 3823,
    "fear": 8516,
    "Ġsemicircle": 26068,
    "Ġfootfall": 14663,
    "rot": 21535,
    "Ġavowed": 16636,
    "mistake": 24529,
    "Ġbraided": 16583,
    "Ġresides": 22544,
    ";âĢĻ": 15306,
    "yingly": 23064,
    "Ġchanced": 8187,
    "soever": 11863,
    "drovand": 24759,
    "Ġerudite": 26353,
    "nep": 20988,
    "Ġproceed": 3241,
    "Ġappro": 659,
    "Ġsisters": 3644,
    "Ġandromeda": 21511,
    "Ġberyls": 25776,
    "Ġremonstrate": 22797,
    "Ġminut": 2205,
    "haust": 5777,
    "Ġdeterminate": 23009,
    "Ġanteced": 26178,
    "ipher": 18433,
    "Ġafric": 8909,
    "japan": 15378,
    "Ġdetail": 635,
    "Ġattendance": 12186,
    "Ġtortures": 14926,
    "terbury": 21828,
    "Ġcruelty": 9972,
    "Ġcontextual": 3745,
    "Ġwish": 2099,
    "Ġhis": 380,
    "Ġrickety": 26507,
    "Ġpythag": 26450,
    "Ġcadiz": 17328,
    "Ġtreasure": 9561,
    "izens": 18138,
    "Ġpewter": 17188,
    "Ġunwritten": 22036,
    "Ġabandon": 12262,
    "Ġescaped": 6460,
    "went": 6513,
    "Ġvision": 1650,
    "Ġsleepless": 14584,
    "Ġperson": 2367,
    "Ġjeopardy": 13600,
    "Ġvow": 10249,
    "Ġaggregated": 25679,
    "falsehood": 25902,
    "Ġsteel": 3891,
    "Ġsled": 21221,
    "Ġwashes": 21865,
    "Ġswallow": 8953,
    "byter": 16217,
    "ivering": 7698,
    "shrugged": 22454,
    "pause": 12505,
    "akeman": 6269,
    "itering": 17820,
    "iousness": 4900,
    "cannon": 22972,
    "6": 26,
    "Ġottoman": 17381,
    "Ġtre": 2537,
    "ace": 716,
    "Ġwonderful": 4565,
    "ren": 550,
    "Ġpopulation": 16829,
    "encouragement": 17426,
    "est": 500,
    "Ġz": 997,
    "Ġdisgraceful": 15022,
    "Ġfrosted": 19806,
    "eer": 15351,
    "morning": 4860,
    "Ġflit": 23012,
    "Ġmouldy": 14977,
    "stretch": 13984,
    "Ġ104": 24412,
    "Ġapt": 9158,
    "Ġpurposes": 11170,
    "Ġvapor": 8703,
    "happening": 16566,
    "Ġcompelled": 14268,
    "adding": 21765,
    "Ġcharmed": 16764,
    "Ġword": 1052,
    "acrity": 14282,
    "Ġcurds": 22969,
    "Ġsaintsbury": 26374,
    "chron": 21697,
    "hever": 13834,
    "Ġlaurel": 20656,
    "reflections": 24734,
    "fedallah": 25523,
    "Ġanyone": 4462,
    "laborers": 23919,
    "Ġphysiogn": 12392,
    "Ġplays": 12041,
    "Ġcopse": 17068,
    "Ġmillions": 11356,
    "...": 24549,
    "Ġcheat": 19020,
    "Ġmeasuring": 22884,
    "Ġretrogress": 23077,
    "Ġsummers": 23876,
    "st": 316,
    "bath": 13693,
    "Ġgreatest": 4094,
    "Ġaright": 11744,
    "arers": 12134,
    "particular": 5757,
    "sue": 2078,
    "Ġhalls": 19528,
    "Ġreview": 18033,
    "Ġtints": 17729,
    "Ġsang": 12540,
    "Ġtranquo": 14846,
    "Ġchronicled": 25329,
    "ssed": 3737,
    "Ġannoyance": 20664,
    "Ġcabaco": 13171,
    "Ġrather": 1494,
    "Ġdrinks": 24282,
    "Ġsuns": 23276,
    "mechanical": 25579,
    "Ġpuffed": 14980,
    "Ġunfrequent": 24111,
    "oundered": 14167,
    "Ġmonument": 16245,
    "thrill": 25657,
    "recurrent": 4994,
    "fashioned": 9573,
    "better": 7121,
    "Ġmillion": 14990,
    "Ġstreams": 12197,
    "Ġkidnapping": 26358,
    "Ġstudying": 9849,
    "Ġban": 7157,
    "Ġtake": 1579,
    "Ġsteep": 2885,
    "Ġwilt": 9646,
    "Ġdents": 13914,
    "Ġconceal": 5975,
    "curiosity": 8627,
    "romising": 18234,
    "Ġpassing": 4319,
    "point": 6064,
    "ins": 1378,
    "geese": 22371,
    "Ġfruit": 12330,
    "lin": 9606,
    "jack": 7344,
    "Ġreiter": 21669,
    "Ġthou": 1809,
    "Ġpicture": 4858,
    "bench": 16805,
    "cks": 3075,
    "Ġdissol": 18552,
    "ivial": 15863,
    "Ġhanover": 20589,
    "Ġfabulous": 25949,
    "Ġinfinitely": 8966,
    "built": 16827,
    "Ġrecovering": 11868,
    "Ġsickened": 16777,
    "Ġgrown": 5628,
    "byshire": 6174,
    "Ġingratitude": 17471,
    "Ġnormalizing": 1821,
    "tarpaul": 21100,
    "Ġglassy": 19563,
    "Ġaux": 21202,
    "Ġensure": 23688,
    "Ġrascally": 26508,
    "Ġvindictive": 20473,
    "Ġrewarding": 13441,
    "ites": 3901,
    "ego": 4037,
    "earn": 10698,
    "Ġhelplessness": 25074,
    "Ġindepend": 3671,
    "deal": 12804,
    "prove": 11149,
    "Ġnative": 4642,
    "readily": 19365,
    "imble": 10860,
    "Ġgretna": 26470,
    "Ġnumer": 3642,
    "darkened": 24517,
    "mingled": 14716,
    "Ġbelonged": 6922,
    "Ġhyper": 19742,
    "pictures": 15094,
    "Ġmott": 17805,
    "Ġpoorly": 9858,
    "retirement": 23145,
    "Ġhanged": 17927,
    "Ġblan": 18818,
    "vo": 11542,
    "Ġsurpr": 2550,
    "plunging": 25988,
    "Ġsuperiority": 14619,
    "propriety": 14370,
    "Ġforesaw": 19128,
    "irc": 1729,
    "Ġlithe": 24669,
    "Ġunlimited": 26224,
    "bows": 10084,
    "Ġprogram": 12998,
    "Ġsteal": 16287,
    "Ġdialogue": 12408,
    "Ġbest": 1974,
    "chor": 6148,
    "Q": 53,
    "Ġrare": 7038,
    "Ġexceedingly": 4616,
    "Ġcut": 2641,
    "Ġconducted": 10505,
    "dun": 17518,
    "Ġfalse": 4347,
    "Ġsupplies": 20329,
    "Ġlegs": 4917,
    "places": 7877,
    "tree": 11536,
    "kings": 17585,
    "pow": 10719,
    "stream": 15691,
    "Ġhave": 444,
    "Ġeyebrows": 23519,
    "Ġincomp": 12902,
    "lier": 20951,
    "Ġchildhood": 13141,
    "Ġinsepar": 17936,
    "exceeded": 25002,
    "Ġfielding": 16236,
    "Ġpronounce": 16970,
    "Ġglobules": 26590,
    "Ġreached": 4024,
    "!âĢĻ": 3332,
    "Ġattach": 14294,
    "Ġdiggings": 24650,
    "uel": 6967,
    "Ġcomprehens": 8320,
    "Ġconverted": 16115,
    "Ġstays": 16563,
    "Ġgenerative": 5644,
    "covenant": 23564,
    "Ġintermission": 18590,
    "icates": 11620,
    "emason": 18184,
    "Ġhues": 21492,
    "thankful": 16808,
    "Ġencoura": 1366,
    "Ġbewitching": 25977,
    "own": 745,
    "Ġfainted": 8796,
    "Ġdiscontented": 16063,
    "Ġfierc": 18711,
    "âĢľ_": 5720,
    "Ġmazes": 25941,
    "indispensable": 14212,
    "homage": 25617,
    "sli": 11525,
    "Ġmeantime": 6208,
    "Ġbriskly": 25312,
    "Ġallowing": 2175,
    "Ġmales": 17807,
    "Ġsides": 4581,
    "comput": 2030,
    "Ġrealities": 18982,
    "Ġext": 891,
    "incom": 21184,
    "Ġsent": 1776,
    "Ġvehem": 22892,
    "ateg": 1370,
    "Ġcommitted": 7431,
    "Ġwrist": 8243,
    "effort": 19215,
    "amp": 2605,
    "yourselves": 24959,
    "Ġstake": 14007,
    "marrying": 19550,
    "omitted": 18019,
    "Ġprevention": 16095,
    "hundreds": 25076,
    "Ġnoisier": 4626,
    "islands": 21379,
    "Ą": 197,
    "Ġreplaced": 13076,
    "Ġstarvation": 19794,
    "Ġeager": 3573,
    "ifix": 21907,
    "Ġnod": 1886,
    "informed": 17738,
    "wheels": 14384,
    "Ġworm": 9165,
    "Ġspecific": 2000,
    "Ġkettle": 26234,
    "Ġgossip": 18471,
    "Ġthat": 335,
    "Ġplay": 2626,
    "unk": 4541,
    "Ġsense": 3249,
    "Ġobservant": 20113,
    "possible": 5743,
    "irksome": 18175,
    "Ġadvent": 4360,
    "Ġcass": 13882,
    "uation": 17696,
    "Ġvocation": 10528,
    "Ġfluctuations": 5516,
    "etw": 408,
    "relatively": 24017,
    "leton": 5148,
    "Ġbristling": 20530,
    "dar": 20826,
    "Ġdistur": 5313,
    "ignomin": 23269,
    "Ġbrilliantly": 25123,
    "ordingly": 18519,
    "abomin": 15746,
    "Ġsilvery": 13098,
    "rudently": 16712,
    "Ġundoubtedly": 8313,
    "Ġhessian": 3550,
    "Ġlexic": 15722,
    "Ġowen": 15098,
    "Ġhieroglyphics": 17306,
    "ante": 11725,
    "Ġwhiff": 21721,
    "Ġaware": 5756,
    "Ġwhilst": 9221,
    "Ġvibration": 17100,
    "Ġbawling": 25946,
    "gunpowder": 25340,
    "Ġdough": 8422,
    "tes": 11531,
    "Ġbeth": 9660,
    "Ġtusks": 17256,
    "Ġconcrete": 20639,
    "seated": 11675,
    "moment": 3581,
    "Ġcurtain": 14415,
    "Ġtapering": 8775,
    "andish": 18156,
    "figured": 20126,
    "fig": 8738,
    "Ġbarnacled": 25537,
    "Ġterrific": 6756,
    "ĠâĢľâĢĺ_": 25114,
    "Ġ40": 14771,
    "Ġwheelbarrow": 17207,
    "Ġsignific": 3831,
    "Ġequality": 16362,
    "ilated": 18060,
    "ront": 15421,
    "Ġproper": 1379,
    "Ġtriumphal": 24371,
    "Ġundiscernible": 22070,
    "iantly": 13742,
    "Ġguest": 7249,
    "olidity": 18135,
    "Ġpartly": 6715,
    "Ġshare": 1659,
    "cific": 10088,
    "order": 1959,
    "passage": 11263,
    "philosophy": 13584,
    "Ġendwise": 23140,
    "zed": 8104,
    "restraint": 18980,
    "Ġcause": 2408,
    "Ġadmirals": 20388,
    "Ġhorseback": 14853,
    "Ġtwo": 1043,
    "kovoko": 20672,
    "tic": 8391,
    "examination": 25479,
    "mediate": 16516,
    "Ġ99": 10747,
    "absolutely": 10648,
    "Ġjudge": 5502,
    "leaned": 21372,
    "Ġshouldn": 14328,
    "Ġcased": 21349,
    "Ġnobody": 6160,
    "Ġdrought": 19280,
    "nay": 7137,
    "soo": 18684,
    "vult": 21116,
    "Ġthrew": 3975,
    "Ġwhoa": 22426,
    "adagrad": 9694,
    "lamp": 9611,
    "Ġoblige": 10491,
    "Ġdelic": 4138,
    "Ġlovel": 10274,
    "Ġunmolested": 15249,
    "Ġgrey": 4515,
    "Ġthrows": 14740,
    "recover": 24623,
    "Ġhousehold": 8571,
    "Ġtruck": 19514,
    "charles": 14702,
    "Ġbern": 17860,
    "Ġpreservation": 24631,
    "Ġcherry": 16937,
    "Ġtwitched": 20447,
    "Ġhum": 1099,
    "observing": 25495,
    "Ġride": 12763,
    "Ġcongrat": 5828,
    "Ġquickly": 4245,
    "cares": 24311,
    "stopping": 19353,
    "Ġbraw": 23838,
    "Ġunion": 6839,
    "Ġgrowth": 14631,
    "Ġfade": 21410,
    "Ġepsom": 19986,
    "stri": 6251,
    "Ġdictating": 20155,
    "lucas": 15155,
    "Ġrelent": 18776,
    "Ġinner": 9673,
    "uck": 1234,
    "wra": 11544,
    "one": 615,
    "Ġseizure": 21968,
    "Ġaccusations": 22383,
    "ario": 14250,
    "Ġsane": 21224,
    "Ġwax": 10778,
    "Ġmainly": 22651,
    "Ġperceived": 4715,
    "mass": 12494,
    "john": 11500,
    "Ġlying": 4827,
    "Ġhabitation": 14806,
    "Ġholiday": 13003,
    "Ġpossessions": 23828,
    "Ġzigzag": 26274,
    "Ġvineyards": 25109,
    "s": 87,
    "Ġintertw": 18589,
    "lie": 12487,
    "cas": 20796,
    "Ġselected": 9714,
    "Ġbrighter": 16191,
    "speaks": 19722,
    "Ġsurvive": 9069,
    "Ġadjusting": 3416,
    "Ġavast": 9923,
    "spell": 22733,
    "Ġnoteworthy": 24165,
    "Ġobserver": 11993,
    "Ġforbearing": 25101,
    "Ġjeopard": 9946,
    "Ġrephr": 21682,
    "Ġremain": 1870,
    "century": 20050,
    "parsee": 14520,
    "berish": 22743,
    "Ġimmensely": 13599,
    "teeth": 10357,
    "Ġchoke": 22253,
    "uesday": 8590,
    "dislike": 23498,
    "hatchway": 25905,
    "Ġaccelerating": 1616,
    "istan": 22112,
    "antique": 18288,
    "Ġaccost": 12851,
    "Ġcustody": 13651,
    "Ġexecution": 6927,
    "Ġessence": 13409,
    "Ġkindred": 16378,
    "Ġmask": 1863,
    "apt": 720,
    "amore": 21847,
    "plings": 11699,
    "real": 10152,
    "Ġcannot": 1667,
    "scar": 9819,
    "Ġstructures": 2718,
    "peasant": 23114,
    "ð": 177,
    "Ġpassenger": 14373,
    "Ġfreshet": 25704,
    "Ġlonging": 14300,
    "tural": 21069,
    "Ġdrawling": 19440,
    "Ġforecastle": 5495,
    "couldn": 23720,
    "Ġundersampling": 19521,
    "decan": 22145,
    "ached": 2319,
    "Ġdis": 696,
    "heard": 5009,
    "Ġremonstr": 16165,
    "Ġassign": 11111,
    "Ġpit": 3423,
    "Ġgales": 12670,
    "Ġadvancement": 24475,
    "Ġpleas": 1902,
    "Ġcolleague": 17162,
    "Ġpublished": 11244,
    "changing": 10856,
    "create": 24162,
    "desc": 1396,
    "Ġfumes": 21421,
    "ds": 4689,
    "Ġcam": 10164,
    "Ġpetrified": 19599,
    "Ĭ": 237,
    "Ġvessel": 3801,
    "Ġtrump": 8195,
    "Ġtanning": 17731,
    "Ġangles": 23590,
    "anche": 10790,
    "Ġsmelling": 16070,
    "ographical": 16788,
    "Ġimprecations": 25821,
    "Ġorb": 22095,
    "draw": 23903,
    "sincere": 16909,
    "Ġbas": 6381,
    "Ġcommunion": 19009,
    "Ġbulb": 23858,
    "Ġprognost": 15285,
    "Ġcurses": 13014,
    "Ġthrough": 604,
    "anc": 6380,
    "Ġfiver": 22774,
    "-": 17,
    "Ġsighing": 18674,
    "agrad": 2744,
    "ansion": 10927,
    "Ġanonym": 17899,
    "Ġconcocted": 26300,
    "Ġforgiven": 24030,
    "Ġstrangeness": 16706,
    "Ġmic": 17799,
    "itor": 12571,
    "atherley": 7220,
    "Ġwillingly": 8888,
    "Ġpurple": 10435,
    "Ġtoll": 7852,
    "Ġsleet": 8978,
    "Ġchemistry": 11462,
    "admit": 18093,
    "Ġfant": 9176,
    "z": 94,
    "sugg": 11845,
    "Ġcontest": 18474,
    "omeness": 18018,
    "fac": 17543,
    "Ġtashtego": 4489,
    "Ġbowl": 11206,
    "Ġprofusion": 23570,
    "Ġtouched": 6002,
    "ĠdÃ¦mon": 7844,
    "Ġlub": 15653,
    "Ġcobbling": 20526,
    "Ġdisposed": 7085,
    "Ġinfamous": 16368,
    "intelligence": 5884,
    "heric": 15915,
    "Ġfell": 1976,
    "Ġfoe": 7680,
    "Ġinterp": 16073,
    "Ġmamm": 25093,
    "pening": 2828,
    "com": 1006,
    "Ġresponsiveness": 2893,
    "Ġ125": 24470,
    "Ġindies": 22954,
    "athed": 7828,
    "Ġtransplanted": 22445,
    "lik": 3918,
    "cra": 6356,
    "Ġdeaden": 23462,
    "Ġslightest": 6093,
    "Ġthirdly": 24146,
    "Ġbrisk": 9806,
    "Ġprojecting": 9988,
    "Ġdeparted": 5564,
    "heredit": 21212,
    "ohn": 4563,
    "Ġenthusiasm": 8065,
    "Ġshowers": 16607,
    "mag": 6509,
    "snap": 24849,
    "Ġl": 303,
    "ushed": 2968,
    "Ġsavann": 14686,
    "Ġbodings": 21394,
    "far": 5787,
    "Ġair": 1834,
    "led": 582,
    "grasping": 20642,
    "maker": 12497,
    "Ġlengthened": 25959,
    "Ġtreat": 3174,
    "operations": 19978,
    "Ġoarsman": 8641,
    "Ġknob": 24407,
    "Ġbackward": 7655,
    "Ġhoofs": 14529,
    "Ġpam": 21457,
    "Ġtapped": 11556,
    "Ġche": 1763,
    "construction": 19781,
    "Ġpurposed": 23555,
    "Ġsilken": 16382,
    "Ġenjoined": 18192,
    "Ġspacious": 18313,
    "pond": 21015,
    "Ġencourag": 1395,
    "augment": 18830,
    "Ġswam": 6449,
    "retch": 4375,
    "Ġclimbing": 20073,
    "Ġinhabit": 5782,
    "Ġdetestable": 15102,
    "Ġhumming": 12990,
    "Ġscalable": 1653,
    "unteered": 26497,
    "Ġ156": 20173,
    "Ġmyth": 18221,
    "Ġdistinctions": 18533,
    "Ġperem": 12937,
    "itheat": 21341,
    "brushing": 20790,
    "Ġarri": 2553,
    "rive": 9710,
    "rocious": 21542,
    "musket": 25342,
    "Ġcheery": 16371,
    "tling": 9145,
    "tied": 21073,
    "Ġdepicted": 14287,
    "Ġvir": 7002,
    "Ġcarpenter": 4686,
    "transom": 19738,
    "Ġspaces": 3108,
    "unaccountable": 15783,
    "Ġsavesoul": 26229,
    "Ġoffices": 14340,
    "ubines": 22964,
    "uries": 6149,
    "stating": 21650,
    "Ġabundance": 17158,
    "Ġroyal": 5602,
    "Ġsteam": 9356,
    "Ġbath": 9661,
    "Ġinsurmountable": 16533,
    "ti": 8390,
    "Ġfrightful": 7736,
    "Ġstates": 1850,
    "Ġconsulting": 13433,
    "Ġenergy": 2552,
    "Ġgroaned": 11268,
    "Ġkept": 3347,
    "violence": 16480,
    "Ġinsane": 19271,
    "Ġtroub": 22349,
    "mong": 15393,
    "¨": 106,
    "orously": 8420,
    "Ġsecre": 5493,
    "Ġcellar": 8059,
    "Ġwhitney": 11375,
    "Ġearls": 18905,
    "happened": 9436,
    "izard": 10881,
    "Ġdisobey": 18560,
    "nial": 20986,
    "clam": 13060,
    "Ġcooked": 13274,
    "fl": 3602,
    "gods": 13371,
    "icking": 8914,
    "remark": 7261,
    "Ġxavier": 2851,
    "countenance": 6925,
    "himself": 3973,
    "inary": 3273,
    "Ġabominate": 20068,
    "ular": 713,
    "Ġclever": 7056,
    "Ġescort": 23509,
    "regiment": 16452,
    "Ġxv": 23409,
    "Ġprayer": 16669,
    "Ġdoings": 18376,
    "antly": 1987,
    "Ġcried": 1486,
    "keep": 3853,
    "½": 126,
    "Ġcompre": 4452,
    "igated": 15711,
    "Ġtemporarily": 11169,
    "Ġhorrible": 4906,
    "scratch": 26045,
    "Ġointment": 21329,
    "geneva": 13733,
    "Ġimpropri": 14218,
    "Ġheighten": 19532,
    "Ġstifle": 18079,
    "Ġflu": 3276,
    "Ġignoble": 19402,
    "Ġcordial": 16837,
    "Ġamerican": 5061,
    "Ġconstitutes": 13556,
    "Ġadult": 18290,
    "sav": 8097,
    "Ġboone": 11844,
    "iard": 9604,
    "Ġmealy": 18123,
    "Ġlombardy": 26465,
    "cruet": 17028,
    "turbable": 24531,
    "Ġcoop": 14273,
    "Ġrejoice": 10211,
    "Ġglories": 16246,
    "dismay": 19156,
    "eminence": 20102,
    "Ã": 132,
    "Ġcharge": 5325,
    "whal": 10942,
    "Ġdispersed": 16599,
    "Ġpresided": 20210,
    "dimly": 15350,
    "Ġsharpen": 13573,
    "boast": 23255,
    "Ġfoolish": 5981,
    "americ": 8156,
    "marks": 7346,
    "iliary": 21730,
    "loveliness": 26551,
    "sol": 1791,
    "Ġcircus": 19093,
    "cake": 20806,
    "Ġneglig": 18880,
    "achines": 1722,
    "aurs": 20771,
    "Ġundo": 15844,
    "Ġbenefit": 8294,
    "lit": 9608,
    "setting": 13290,
    "Ġbreeds": 23351,
    "Ġentreat": 4512,
    "Ġloves": 10917,
    "ias": 6364,
    "onym": 14651,
    "Ġunheeded": 18262,
    "Ġstraighten": 24007,
    "Ġirritated": 17244,
    "Ġfourth": 7707,
    "occasionally": 13524,
    "bulkington": 19927,
    "Ġdepose": 22613,
    "sory": 17661,
    "Ġstory": 2897,
    "Ġchoose": 5983,
    "neighbourhood": 10028,
    "Ġtinted": 13825,
    "Ġstones": 9226,
    "Ġtormenting": 15108,
    "Ġintegrity": 12317,
    "Ġbrutality": 26278,
    "ribute": 7226,
    "Ġkilled": 4955,
    "Ġsort": 1508,
    "Ġmary": 3846,
    "Ġgodlike": 23360,
    "Ġtedious": 15271,
    "Ġoutlandish": 12843,
    "Ġhove": 17925,
    "Ġtypically": 1536,
    "persuade": 13536,
    "draul": 9446,
    "Ġcrozetts": 19632,
    "paid": 15417,
    "ĠĠĠĠĠĠĠĠĠĠĠĠĠ": 22566,
    "chan": 1184,
    "Ġargosy": 24276,
    "Ġoccup": 3742,
    "Ġprender": 22239,
    "Ġferule": 24499,
    "Ġtreacher": 8608,
    "Ġflushed": 13033,
    "Ġsinners": 18952,
    "Ġvertebra": 20184,
    "Ġwoodcock": 19165,
    "desirable": 23813,
    "Ġ79": 24267,
    "Ġexhibiting": 19841,
    "advance": 12161,
    "elizabeth": 1985,
    "Ġcompute": 2902,
    "Ġelixir": 26557,
    "ht": 375,
    "nailed": 20998,
    "Ġhaven": 8476,
    "Ġsee": 801,
    "understood": 13220,
    "Ġhump": 5855,
    "Ġanalytical": 22897,
    "what": 643,
    "eric": 3473,
    "false": 15358,
    "largely": 19577,
    "Ġtransfer": 2222,
    "childhood": 16870,
    "Ġsmells": 8893,
    "Ġbanish": 15574,
    "mediterranean": 16409,
    "Ġmadame": 13154,
    "Ġlegible": 23536,
    "Ġmon": 1254,
    "Ġacquit": 18899,
    "occupation": 15059,
    "Ġdead": 2172,
    "Ġalman": 21785,
    "Ġdiameter": 19869,
    "Ġpurposely": 10446,
    "Ġjogged": 26238,
    "Ġsimon": 5172,
    "condition": 7061,
    "Ġspring": 4124,
    "aggo": 5097,
    "deep": 998,
    "Ġpompous": 20426,
    "Ġquiver": 16006,
    "ouse": 1192,
    "Ġboom": 9313,
    "Ġgret": 21604,
    "oise": 15407,
    "Ġbillows": 7502,
    "Ġquarters": 8623,
    "agra": 14069,
    "Ġcoff": 3509,
    "Ġavailed": 23955,
    "x": 92,
    "Ġmiss": 1229,
    "causes": 20346,
    "Ġdrily": 23543,
    "Ġvenom": 24241,
    "Ġmanaged": 7906,
    "neck": 14244,
    "Ġfists": 15587,
    "Ġguar": 23047,
    "Ġestim": 3350,
    "bitious": 16672,
    "Ġclung": 10961,
    "Ġwiping": 25766,
    "larger": 24205,
    "Ġcontro": 1686,
    "ilty": 6395,
    "Ġmuteness": 19420,
    "abling": 1078,
    "attending": 18918,
    "strade": 5065,
    "Ġshrouded": 14972,
    "Ġpetticoat": 15299,
    "Ġmarvels": 11086,
    "acid": 11008,
    "ld": 385,
    "Ġrand": 1584,
    "liberal": 26283,
    "iability": 20922,
    "Ġscandalous": 24880,
    "Ġlabour": 7274,
    "Ġcogn": 11004,
    "Ġferoc": 14900,
    "presumption": 20445,
    "Ġxiii": 25592,
    "Ġgemini": 26471,
    "Ġboa": 22638,
    "Ġtriumphant": 12194,
    "Ġcoats": 16080,
    "Ġcleaving": 23185,
    "Ġalthough": 4155,
    "Ġfishy": 16525,
    "alarms": 21508,
    "ar": 285,
    "Ġpeep": 6870,
    "lot": 3206,
    "Ġunderstanding": 1808,
    "Ġremnants": 22796,
    "Ġcargo": 16293,
    "Ġhushed": 13928,
    "Ġstiggs": 25793,
    "ground": 4673,
    "Ġfrosts": 19805,
    "Ġago": 3132,
    "Ġmocking": 24006,
    "Ġforc": 9230,
    "Ġgodly": 19082,
    "Ġtragedies": 25242,
    "Ġvivacious": 19818,
    "Ġabstra": 22275,
    "Ġdelighted": 5499,
    "Ġmarble": 7669,
    "Ġcrew": 2496,
    "bitt": 17488,
    "Ġcoming": 2617,
    "Ġdropped": 4474,
    "Ġintrusted": 21996,
    "Ġincline": 18570,
    "Ġtyro": 16996,
    "Ġintermediate": 18591,
    "Ġwinged": 16997,
    "Ġstruck": 3391,
    "Ġboston": 22641,
    "Ġoutrid": 22319,
    "pat": 10119,
    "Ġtheory": 5799,
    "Ġlodgings": 8312,
    "Ġunch": 18240,
    "Ġbanners": 24859,
    "Ġmerest": 14034,
    "othic": 16220,
    "tell": 1380,
    "Ġcrowding": 13284,
    "ancial": 21365,
    "handle": 11192,
    "luc": 9757,
    "Ġfragmentary": 25858,
    "Ġrugged": 18721,
    "virtue": 20572,
    "Ġpocket": 4899,
    "aments": 12730,
    "ified": 3225,
    "Ġoverheard": 11778,
    "Ġpants": 21468,
    "utter": 7594,
    "change": 6393,
    "endeav": 7151,
    "Ġassiduous": 26294,
    "Ġcomprehend": 6495,
    "Ġsluggish": 25891,
    "Ć": 199,
    "Ġpeasant": 13555,
    "Ġsemicircular": 26069,
    "Ġsuccess": 3612,
    "pole": 9336,
    "Ġaccumulated": 11935,
    "page": 13774,
    "Ġcontinual": 6778,
    "affold": 16564,
    "oin": 17619,
    "royal": 11395,
    "elop": 1497,
    "Ġpreluding": 18369,
    "Ġwonder": 2119,
    "Ġexploded": 15913,
    "vens": 21115,
    "Ġmisanthrop": 22767,
    "Ġinstigated": 18699,
    "Ġhempen": 13554,
    "Ġcus": 21346,
    "tempted": 26405,
    "Ġslopes": 18943,
    "hement": 13835,
    "imprudence": 16559,
    "perse": 15899,
    "Ġcontracted": 12865,
    "Ġdepart": 4658,
    "uvier": 9071,
    "Ġvaliant": 9803,
    "Ġautoregressive": 3434,
    "ension": 6571,
    "Ġneat": 7000,
    "vative": 1554,
    "Ġindex": 17050,
    "Ġgloomily": 14804,
    "Ġreputed": 18038,
    "Ġklux": 22199,
    "Ġschools": 9480,
    "report": 13403,
    "Ġincompatible": 25681,
    "Ġplaced": 3447,
    "Ġuniformity": 23487,
    "Ġsigns": 2439,
    "Ġascendency": 20235,
    "Ġpainful": 6463,
    "Ġcannon": 14158,
    "Ġpicked": 6343,
    "ougher": 18276,
    "leo": 21367,
    "Ġla": 5914,
    "Ġhappiness": 2942,
    "P": 52,
    "iz": 364,
    "Ġoverhear": 15980,
    "Ġpretensions": 16560,
    "gangway": 20670,
    "individual": 18437,
    ".*": 7331,
    "Ġthreaten": 24374,
    "Ġpast": 2100,
    "Ġmultitud": 18748,
    "Ġ132": 19898,
    "Ġdisclosed": 15157,
    "emotion": 21932,
    "also": 7851,
    "ighbour": 3390,
    "Ġnurtured": 19752,
    "gr": 2088,
    "Ġbeckoned": 25794,
    "Ġinputs": 843,
    "Ġclutched": 13522,
    "Ġcatastrophe": 10486,
    "Ġvigilance": 12375,
    "separation": 25227,
    "striking": 13444,
    "ara": 12611,
    "Ġreverend": 15263,
    "apple": 22849,
    "establish": 17396,
    "numerous": 17434,
    "Ġlisten": 4675,
    "threadbare": 25990,
    "Ġsymb": 2590,
    "Ġprosecution": 12385,
    "Ġgossiping": 26245,
    "Ġsemi": 11973,
    "Ġalert": 18104,
    "Ġabuse": 18393,
    "Ġchamois": 16802,
    "Ġexhaled": 19685,
    "robustness": 26340,
    "Ġperuvian": 18454,
    "drink": 10598,
    "Ġtot": 4190,
    "landed": 18957,
    "Ġwound": 4530,
    "Ġflanks": 11920,
    "Ġunobstructed": 18265,
    "necess": 4897,
    "Ġhasn": 12932,
    "arpo": 1755,
    "conquerable": 17402,
    "Ġvibrating": 13541,
    "Ġcompens": 14266,
    "extinguished": 16153,
    "Ġfanning": 23393,
    "Ġplaguy": 22609,
    "dough": 15338,
    "Ġarbitrary": 4737,
    "Ġdischar": 11812,
    "arp": 2025,
    "etical": 13961,
    "Ġjudgment": 5765,
    "Ġunrecord": 16623,
    "Ġpresc": 15929,
    "Ġbiscuit": 12594,
    "ucy": 15447,
    "Ġsighed": 10340,
    "Ġtidy": 17094,
    "Ġsil": 1797,
    "ying": 1367,
    "composure": 24037,
    "Ġ1825": 25719,
    "Ġdiverted": 14594,
    "Ġintelligent": 1382,
    "ban": 9587,
    "dÃ¦mon": 17529,
    "icil": 17974,
    "Ġattacked": 10570,
    "clock": 3936,
    "Ġcollected": 2611,
    "Ġinches": 5846,
    "Ġtell": 1469,
    "Ġhumour": 7932,
    "Ġjoes": 19231,
    "osen": 6855,
    "Ġhes": 6252,
    "Ġchuck": 8503,
    "Ġaltitude": 26204,
    "Ġgravel": 14105,
    "lovely": 16050,
    "ateur": 22075,
    "Ġinadequate": 17939,
    "george": 26020,
    "Ġsparkling": 11358,
    "Ġboon": 22640,
    "izer": 2028,
    "Ġchace": 14179,
    "Ġpermission": 9282,
    "Ġfeasts": 25370,
    "Ġbrass": 11050,
    "ilib": 4120,
    "ĩ": 234,
    "Ġpaddled": 20204,
    "Ġsunwards": 19012,
    "Ġplead": 14458,
    "come": 2375,
    "Ġdesper": 6178,
    "Ġwade": 17786,
    "Ġdevelop": 1634,
    "Ġglass": 4373,
    "Ġwhatever": 3476,
    "bacc": 7795,
    "Ġdaring": 8121,
    "Ġevangelical": 25507,
    "Ġtolerably": 8068,
    "Ġnoisy": 13323,
    "Ġtum": 5692,
    "Ġreminded": 10002,
    "terrible": 8468,
    "Ġlump": 21555,
    "itu": 1226,
    "Ġsweetness": 9449,
    "arrived": 12614,
    "Ġumbrella": 15269,
    "iar": 2376,
    "national": 21000,
    "comfortable": 7320,
    "Ġdelight": 2548,
    "luckily": 19755,
    "Ġkra": 18349,
    "oug": 430,
    "aired": 8369,
    "Ġrestored": 7068,
    "Ġcrocod": 19631,
    "Ġkick": 5838,
    "Ġblanc": 11067,
    "inite": 6003,
    "eties": 10839,
    "Ġreus": 8826,
    "Ġdependencies": 2311,
    "Ġcharm": 4550,
    "with": 1301,
    "Ġridicule": 13515,
    "meantime": 9095,
    "miniature": 16767,
    "cases": 12452,
    "Ġunivers": 2127,
    "Ġscowl": 22294,
    "skylight": 25624,
    "clings": 23155,
    "Ġcomplement": 23712,
    "Ġdriving": 3620,
    "Ġpremises": 10490,
    "decease": 25558,
    "Ġrainbows": 19651,
    "Ġbree": 5012,
    "neville": 22469,
    "Ġprodu": 1203,
    "Ġschemes": 11133,
    "interred": 23739,
    "Ġdel": 1612,
    "Ġdwell": 5813,
    "aceti": 7113,
    "sp": 894,
    "moral": 14805,
    "Ġbreathed": 11222,
    "Ġox": 7154,
    "explaining": 23147,
    "aintance": 3572,
    "scenes": 16249,
    "conf": 4957,
    "Ġgladstone": 23872,
    "Ġcucumber": 21359,
    "grave": 16098,
    "Ġconquered": 14029,
    "engthen": 14460,
    "Ġaccomp": 4714,
    "Ġsocietal": 11438,
    "supplementary": 20552,
    "axing": 18548,
    "kye": 20940,
    "Ġrachel": 11851,
    "invol": 12535,
    "Ġtows": 19565,
    "iling": 3088,
    "Ġoutrage": 15962,
    "uguese": 20734,
    "Ġmuse": 13863,
    "Ġconstable": 19070,
    "Ġflint": 23015,
    "Ġache": 18664,
    "Ġsubtle": 6718,
    "del": 4078,
    "Ġmalady": 24392,
    "Ġdisconcerted": 18563,
    "iferous": 17294,
    "Ġpike": 12628,
    "untary": 9870,
    "Ġjava": 12316,
    "Ġade": 22104,
    "Ġpyramid": 8806,
    "Ġkindling": 19030,
    "Ġerrone": 14433,
    "Ġsallow": 12541,
    "blot": 20785,
    "Ġpenal": 1773,
    "Ġorganization": 7984,
    "Ġmyself": 1453,
    "Ġunnearable": 26518,
    "avers": 17483,
    "Ġwarb": 17789,
    "ves": 694,
    "racts": 14361,
    "Ġbaleen": 10040,
    "Ġaccommod": 14215,
    "Ġinfall": 7960,
    "Ġprudent": 9188,
    "Ġanticipatingly": 26103,
    "Ġphren": 8575,
    "Ġsupre": 10272,
    "Ġunsolved": 22035,
    "Ġmute": 19419,
    "Ġtrampling": 25493,
    "Ġherd": 7888,
    "later": 20955,
    "ble": 542,
    "Ġket": 18348,
    "Ġunreliable": 3932,
    "conclude": 24070,
    "Ġbrown": 6300,
    "mine": 5618,
    "Ġsquad": 22844,
    "Ġcork": 12574,
    "scales": 22999,
    "Ġworms": 25217,
    "Ġassuming": 16694,
    "Ġaisle": 21204,
    "Ġspecial": 2104,
    "Ġ134": 24783,
    "Ġrecovery": 11443,
    "Ġembod": 14413,
    "Ġconject": 6028,
    "queg": 1770,
    "Ġfascinating": 17331,
    "Ġbenjamin": 26569,
    "Ġpursuit": 4734,
    "Ġlinguistic": 12429,
    "rine": 21040,
    "Ġgrowl": 16540,
    "ersman": 11706,
    "parted": 21018,
    "Ġregard": 3062,
    "Ġbigot": 24566,
    "Ġspread": 5161,
    "Ġwinter": 5220,
    "Ġgracechurch": 12203,
    "Ġfisher": 3221,
    "was": 1421,
    "icial": 12660,
    "Ġ=": 1073,
    "brim": 23577,
    "Ġbrotherhood": 23670,
    "Ġhumility": 12989,
    "Ġabsurdities": 24879,
    "experience": 17161,
    "Ġmarks": 6748,
    "Ġfacetious": 20587,
    "Ġoriginate": 24123,
    "Ġresembles": 25970,
    "Ġearthquake": 14630,
    "Ġslight": 3116,
    "Ġhideousness": 16917,
    "Ġmult": 1022,
    "immediately": 10052,
    "produced": 25415,
    "Ġdejected": 20307,
    "Ġcultiv": 13560,
    "linging": 16082,
    "paws": 21031,
    "arnel": 18124,
    "wling": 11547,
    "Ġtoma": 7373,
    "ample": 1363,
    "Ġphilosophical": 26336,
    "viating": 14581,
    "Ġevident": 6614,
    "Ġende": 21936,
    "Ġintensely": 17019,
    "brow": 15319,
    "Ġpersisting": 18894,
    "Ġstratag": 26029,
    "Ġfurnish": 9022,
    "Ġopinion": 3139,
    "Ġinclined": 6625,
    "Ġvital": 9246,
    "Ġwriter": 11949,
    "Ġtask": 1313,
    "Ġcred": 8785,
    "Ġbesides": 3515,
    "Ġmasoned": 20254,
    "ittance": 12850,
    "Ġconsideration": 5191,
    "influences": 25251,
    "Ġisland": 4050,
    "Ġhoriz": 4727,
    "ena": 11571,
    "Ġdrooping": 9423,
    "Ġconfinement": 19039,
    "Ġhull": 5446,
    "Ġgallows": 12150,
    "Ġbreed": 19075,
    "boiling": 19001,
    "Ġcin": 13878,
    "lemag": 21375,
    "believe": 8304,
    "istrate": 7406,
    "Ġhospitable": 17060,
    "iness": 1284,
    "Ġrobustness": 18871,
    "Ġslacked": 25189,
    "bearded": 18523,
    "Ġshared": 10266,
    "waving": 21134,
    "Ġbreach": 11978,
    "Ġtarshish": 12033,
    "Ġfloat": 12036,
    "Ġhoky": 17929,
    "Ġlustrous": 20159,
    "Ġhackluyt": 25656,
    "Ġmeagre": 21817,
    "revival": 26163,
    "pede": 19932,
    "Ġcheating": 16370,
    "startled": 24944,
    "Ġautumn": 14500,
    "lege": 17843,
    "Ġherb": 15860,
    "Ġextensive": 12947,
    "speptic": 23949,
    "behind": 6780,
    "Ġuse": 828,
    "7": 27,
    "Ġreported": 11984,
    "Ġvelvet": 12402,
    "seas": 14036,
    "Ġbreathes": 13251,
    "Ġspasmodic": 20401,
    "onious": 15521,
    "Ġsurpassing": 20471,
    "Ġcornelius": 13577,
    "Ġlack": 17966,
    "Ġhall": 4188,
    "Ġdup": 21430,
    "Ġclimax": 25054,
    "Ġwreat": 15534,
    "Ġworst": 7444,
    "sweetly": 25137,
    "Ġniagara": 26460,
    "ĠvertebrÃ¦": 11437,
    "Ġmah": 15545,
    "Ġhousings": 21496,
    "ience": 807,
    "Ġresults": 7308,
    "Ġagitates": 22521,
    "Ġslang": 23163,
    "Ġdesire": 3720,
    "Ġconstitution": 20112,
    "hair": 9125,
    "bellies": 19977,
    "gd": 3121,
    "%": 9,
    "Ġgenerous": 6273,
    "term": 3760,
    "Ġuproar": 22159,
    "Ġbordered": 24564,
    "ild": 1153,
    "bbings": 19278,
    "Ġclothes": 4997,
    "icest": 21567,
    "Ġmunro": 25631,
    "confl": 22473,
    "ez": 5683,
    "ough": 470,
    "Ġrestoration": 19027,
    "west": 10741,
    "Ġwandered": 6930,
    "Ġentreaty": 10532,
    "Ġpower": 1238,
    "ackinaw": 22425,
    "ible": 1112,
    "Ġxli": 14543,
    "Ġdiscre": 2415,
    "Ġregion": 2271,
    "aculate": 16086,
    "isles": 15568,
    "Ġimpulsive": 19966,
    "Ġcerem": 7079,
    "pure": 17628,
    "inqu": 6123,
    "links": 20960,
    "Ġcetace": 14991,
    "Ġbingleys": 18996,
    "Ġtempestuous": 20074,
    "Ġdozing": 22247,
    "Ġface": 1721,
    "Ġchewing": 23288,
    "know": 2316,
    "wandering": 20287,
    "Ġroom": 1462,
    "Ġdistinctly": 7311,
    "starbuck": 6020,
    "Ġhelmsman": 10507,
    "Ġreason": 1361,
    "sl": 5794,
    "Ġmurderer": 4980,
    "idated": 11664,
    "Ġcircle": 4977,
    "âĢĿ)": 21818,
    "Ġbandaged": 16844,
    "elsewhere": 19870,
    "shock": 19857,
    "Ġsch": 13838,
    "--": 1042,
    "Ġrude": 7234,
    "autumn": 23345,
    "sequent": 6831,
    "Ġcivil": 4680,
    "regular": 3036,
    "Ġborders": 15576,
    "walked": 10573,
    "Ġ61": 24364,
    "Ġperadventure": 22402,
    "inting": 9817,
    "Ġchrist": 4075,
    "dz": 4740,
    "Ġunmethodically": 22072,
    "Ġheav": 1849,
    "Ġreap": 18029,
    "warnings": 20354,
    "whole": 6086,
    "Ġpantaloons": 20299,
    "Ġpleasing": 6192,
    "Ġjav": 7902,
    "sky": 12515,
    "sailed": 17668,
    "Ġmiraculous": 13551,
    "age": 504,
    "sius": 13791,
    "E": 41,
    "harb": 9126,
    "surprised": 9534,
    "Ġmast": 2896,
    "Ġpenalizing": 13095,
    "ificent": 8184,
    "acetti": 13400,
    "finds": 19929,
    "complain": 14362,
    "9": 29,
    "Ġbeque": 18083,
    "omb": 10208,
    "xi": 17712,
    "Ġanimated": 7702,
    "bouton": 17504,
    "Ġlengths": 19207,
    "Ġpail": 15611,
    "Ġsquires": 16187,
    "Ġjoys": 13225,
    "Ġcenturies": 8626,
    "lightened": 12069,
    "icher": 9205,
    "maltese": 24794,
    "Ġspaniard": 20366,
    "Ġnumber": 1980,
    "instantly": 7506,
    "spot": 9792,
    "itect": 980,
    "Ġtowed": 11267,
    "earnest": 12403,
    "lights": 13209,
    "ropout": 1322,
    "(": 12,
    "Ġbusied": 19066,
    "Ġspeed": 2445,
    "Ġyounge": 16291,
    "too": 4510,
    "occurred": 13342,
    "ice": 590,
    "calculating": 25690,
    "Ġunt": 2292,
    "Ġimpart": 11784,
    "Ġhauled": 11698,
    "aring": 1477,
    "D": 40,
    "Ġdollar": 25284,
    "Ġsize": 1217,
    "Ġintervene": 25481,
    "cele": 21628,
    "Ġsanctified": 25883,
    "Ġloitering": 22120,
    "securer": 25603,
    "itious": 8784,
    "Ġstudents": 23225,
    "Ġdig": 6137,
    "Ġdiminish": 14748,
    "Ġfills": 12599,
    "hush": 20908,
    "Ġrover": 18455,
    "Ġexpense": 7652,
    "Ġdevoutly": 25834,
    "Ġdesc": 773,
    "trying": 15441,
    "Ġital": 10868,
    "sleeves": 26110,
    "ylon": 24978,
    "ccess": 3181,
    "ader": 14015,
    "island": 10796,
    "cordiality": 25140,
    "Ġscimet": 22297,
    "esteem": 26009,
    "ob": 1420,
    "Ġpavement": 9580,
    "50": 6785,
    "Ġbreathing": 9448,
    "intending": 22938,
    "Ġgrief": 4622,
    "Ġerud": 20058,
    "Ġsn": 2947,
    "Ġvengeful": 14893,
    "gest": 5426,
    "sprang": 19994,
    "Ġshort": 2227,
    "ľ": 255,
    "limping": 26395,
    "Ġfoundation": 4236,
    "Ġadds": 1805,
    "clump": 23158,
    "Ġtoad": 21513,
    "pale": 13775,
    "Ġadv": 1111,
    "ugues": 19022,
    "Ġescorted": 23510,
    "Ġgruff": 21617,
    "Ġawait": 17074,
    "antucket": 2643,
    "Ġunctuousness": 17237,
    "danced": 20830,
    "Ġcomprehen": 5350,
    "Ġmill": 6669,
    "Ġmanagement": 8193,
    "Ġreprehensible": 15703,
    "Ġoccasional": 7289,
    "Ġregiment": 6433,
    "downward": 16621,
    "Ġcrammed": 16473,
    "inc": 2519,
    "Ġspake": 18309,
    "Ġwhipcord": 20098,
    "Ġlabourers": 23333,
    "connected": 1312,
    "Ġunsavory": 20709,
    "Ġor": 437,
    "Ġstrain": 6025,
    "Ġconsolidation": 5060,
    "Ġtight": 8108,
    "rints": 12507,
    "Ġinsurgents": 26602,
    "urged": 18051,
    "Ġhopeless": 7462,
    "Ġshrugged": 12774,
    "Ġnervously": 19186,
    "shows": 22450,
    "Ġciv": 3308,
    "Ġproofs": 19817,
    "Ġundulated": 19519,
    "Ġconverts": 2801,
    "Ġarmitage": 23583,
    "Ġobedience": 11415,
    "scream": 11079,
    "chester": 23809,
    "Ġsymph": 22211,
    "Ġdagger": 21440,
    "Ġlacey": 10200,
    "Ġadhering": 14142,
    "Ġdue": 3847,
    "dled": 9114,
    "Ġunansw": 22060,
    "Ł": 258,
    "Ġattempted": 8001,
    "Ġpounds": 5368,
    "Ġabsent": 7016,
    "Ġexercising": 19909,
    "Ġslates": 11108,
    "Ġ25": 13198,
    "Ġbrixton": 13667,
    "autions": 20769,
    "cannibal": 15228,
    "wor": 3419,
    "letters": 13178,
    "manif": 14376,
    "Ġfab": 15580,
    "osque": 22265,
    "Ġsurging": 19135,
    "tort": 17677,
    "sighted": 19788,
    "Ġholes": 16412,
    "Ġprisoner": 8676,
    "Ġblack": 2032,
    "aviour": 11006,
    "Ġunctuous": 10269,
    "thoughts": 9938,
    "intolerable": 22941,
    "Ġsoothingly": 25050,
    "Ġmuscle": 14691,
    "Ġhereford": 22881,
    "inence": 15484,
    "Ġprofess": 3701,
    "ials": 11710,
    "inquir": 9539,
    "Ġbale": 7838,
    "Ġsatisfaction": 5667,
    "repugnance": 16866,
    "tch": 9144,
    "Ġhunts": 23161,
    "Ġruefully": 17304,
    "Ġthinker": 22812,
    "Ġbridegroom": 10607,
    "Ġsupposed": 4560,
    "Ġconception": 10316,
    "Ġclings": 15971,
    "Ġslink": 23167,
    "odious": 21814,
    "Ġchopping": 24222,
    "calculation": 25689,
    "ise": 707,
    "presbyterian": 26370,
    "Ġheroines": 19754,
    "Ġdismay": 11813,
    "Ġpregnant": 26537,
    "Ġvile": 8475,
    "Ġcust": 11585,
    "Ġscientific": 6857,
    "Ġvane": 22878,
    "ced": 692,
    "supportable": 12374,
    "Ġtelling": 5747,
    "Ġsnapped": 9900,
    "whe": 1072,
    "perquisites": 26533,
    "reeling": 21247,
    "Ġprom": 1528,
    "Ġruffled": 25837,
    "Ġpositive": 2295,
    "endurable": 22232,
    "Ġpret": 3030,
    "Ġpatronage": 17054,
    "Ġchristmas": 6924,
    "Ġmoulded": 16977,
    "indignation": 18439,
    "Ġsherlock": 3896,
    "Ġfavours": 23284,
    "cop": 20803,
    "runs": 25416,
    "Ġpatagonian": 20538,
    "attended": 8955,
    "passenger": 24169,
    "ucumber": 19058,
    "displayed": 20738,
    "isl": 21378,
    "Ġgarb": 21606,
    "Ġpractice": 2944,
    "beam": 16043,
    "Ġdeclared": 5595,
    "Ġbroken": 3451,
    "Ġskies": 8924,
    "Ġdard": 21425,
    "Ġstriding": 16097,
    "Ġrim": 21969,
    "nerable": 16279,
    "Ġremonstrance": 20626,
    "Ġstupid": 7607,
    "Ġrubber": 22790,
    "Ġfrosty": 14938,
    "Ġfetching": 16898,
    "Ġteacup": 16216,
    "rod": 10833,
    "Ġrambling": 18644,
    "Ġunwell": 22019,
    "isa": 17847,
    "clerval": 7951,
    "Åĵuvre": 25888,
    "Ġimpetuously": 20375,
    "Ġinasmuch": 10827,
    "ru": 481,
    "Ġcorroboration": 26054,
    "Ġsarat": 21230,
    "Ġimpenitent": 26550,
    "gment": 4394,
    "decoder": 3648,
    "Ġbracing": 16582,
    "tps": 11537,
    "Ġdoleful": 18377,
    "falling": 24361,
    "Ġostrich": 26432,
    "aguy": 21914,
    "sence": 3306,
    "Ġcar": 1419,
    "asleep": 21547,
    "gives": 15361,
    "Ġplot": 14283,
    "prepared": 13594,
    "fury": 17549,
    "embarrassed": 20667,
    "twelvemonth": 25863,
    "5": 25,
    "Ġtoler": 7589,
    "Ġassizes": 11110,
    "apothecary": 26547,
    "herfield": 3634,
    "Ġweal": 21924,
    "Ġsatisfied": 4176,
    "Ġsun": 1719,
    "Ġhelplessly": 20081,
    "Ġgratifying": 13310,
    "Ġspeech": 4612,
    "pression": 10409,
    "Ġtyros": 26102,
    "Ġswore": 10381,
    "publ": 17640,
    "pennies": 26287,
    "wealth": 22691,
    "Ġpurchase": 12264,
    "Ġlifting": 10199,
    "street": 6496,
    "Ġranges": 2879,
    "ads": 5718,
    "itch": 10163,
    "Ġencomp": 12968,
    "Ġtalker": 23374,
    "customary": 25896,
    "Ġpresumably": 19627,
    "Ġblackest": 19100,
    "Ġthoughtlessness": 16197,
    "Ġunw": 7005,
    "Ġder": 1499,
    "Ġcir": 21344,
    "Ġvalued": 12187,
    "Ġsummons": 13237,
    "Ġexplo": 2284,
    "albatross": 15634,
    "Ġdirecting": 16303,
    "Ġextracted": 16315,
    "Ġrunning": 3954,
    "Ġsings": 15508,
    "Ġbrightness": 16578,
    "liable": 3821,
    "Ġcharlotte": 3892,
    "gratification": 24348,
    "Ġcanes": 22170,
    "Ġhanded": 8217,
    "dom": 6224,
    "Ġslime": 23165,
    "Ġdemoniac": 15068,
    "engine": 18929,
    "sixteen": 24854,
    "Ġreluct": 14375,
    "impat": 11204,
    "Ġsigmoid": 2461,
    "dire": 15339,
    "don": 3545,
    "uling": 2257,
    "Ġblotches": 25315,
    "friendly": 13289,
    "german": 11494,
    "mell": 20966,
    "ev": 6952,
    "Ġpooh": 18604,
    "Ġcommanders": 23871,
    "hatchet": 24819,
    "Ġthroats": 24576,
    "Ġmolasses": 25629,
    "Ġesteemed": 10591,
    "ont": 2621,
    "combined": 20323,
    "Ġdeterm": 1271,
    "generations": 23788,
    "Ġvisit": 2583,
    "Ġpatron": 7465,
    "dry": 13707,
    "cet": 15328,
    "Ġdefray": 22944,
    "Ġabiding": 22274,
    "Ġtow": 4399,
    "Ġinestim": 15628,
    "Ġsacrificed": 17425,
    "avings": 12027,
    "ĠĠĠĠĠĠĠĠĠĠĠĠĠĠĠĠĠĠĠ": 22953,
    "ferent": 4198,
    "poke": 18800,
    "Ġprivate": 5346,
    "meaning": 2904,
    "Ġrecord": 5317,
    "Ġbattery": 21397,
    "Ġadvis": 9810,
    "Ġunallied": 22034,
    "_,": 2795,
    "rogress": 21539,
    "Ġresist": 7916,
    "erranean": 9337,
    "edd": 1213,
    "deploy": 22146,
    "Ġcalculate": 13269,
    "Ġeloquent": 16114,
    "Ġample": 11802,
    "anced": 1278,
    "Ġwaterward": 23370,
    "Ġweaving": 12745,
    "jephro": 26394,
    "Ġgener": 586,
    "Ġpurely": 12236,
    "Ġreasons": 6021,
    "Ġtoast": 21515,
    "ification": 1009,
    "Ġconnecting": 18631,
    "Ġviol": 2073,
    "Ġsp": 457,
    "Ġ1869": 19387,
    "Ġfunere": 22268,
    "wal": 10136,
    "Ġdarting": 7757,
    "Ġbelshazzar": 16229,
    "Ġconvent": 11671,
    "Ġchoicest": 24223,
    "Ġkentuck": 19893,
    "civility": 17515,
    "Ġseized": 4835,
    "Ġthousandth": 23684,
    "Ġworldly": 16332,
    "Ġgeneric": 18449,
    "Ġunrelieved": 20548,
    "Ġglit": 8563,
    "ivers": 1982,
    "Ġfossils": 20225,
    "razor": 21640,
    "Ġmarvel": 23038,
    "Ġsolemnisation": 24115,
    "evening": 7091,
    "Ġarrant": 23300,
    "Ġrushes": 20511,
    "Ġattorney": 18626,
    "wretched": 10743,
    "roll": 9199,
    "Ġtrees": 4206,
    "Ġsparkled": 13466,
    "naturalists": 23471,
    "Ġmultimodal": 18749,
    "here": 2549,
    "Ġstoop": 16313,
    "sheets": 14445,
    "to": 715,
    "Ġpieces": 7369,
    "Ġsoothing": 8173,
    "ableness": 8149,
    "perils": 22186,
    "Ġdismasted": 15255,
    "gage": 13726,
    "Ġmusky": 19385,
    "Ġcrouched": 23441,
    "sterns": 23371,
    "Ġenumerating": 15248,
    "Ġquestionable": 19268,
    "floating": 12232,
    "Ġattested": 22629,
    "Ġdeclining": 23967,
    "jaws": 20934,
    "Ġhysterical": 26093,
    "Ġvolition": 14801,
    "solving": 3097,
    "Ġmilan": 19538,
    "Ġunexpl": 22041,
    "joint": 24012,
    "rated": 6229,
    "pil": 15411,
    "Ġinaudible": 21502,
    "iverse": 13120,
    "Ġoppression": 23652,
    "Ġpencils": 23198,
    "Ġteneriffe": 26416,
    "Ġarticulate": 24432,
    "Ġbuckskin": 19955,
    "Ġwithdrawn": 10609,
    "Ġinvest": 4978,
    "Ġgentleman": 3035,
    "nothing": 3150,
    "listened": 15046,
    "gent": 7131,
    "lines": 6959,
    "Ġimperfectly": 25727,
    "ret": 1476,
    "anguish": 15987,
    "up": 1286,
    "Ġslide": 10396,
    "unwillingness": 25803,
    "quit": 15766,
    "Ġameric": 3856,
    "Ġchanging": 11757,
    "Ġrelationship": 2312,
    "Ġrepresented": 8941,
    "Ġtables": 9881,
    "aver": 6786,
    "Ġanaly": 1119,
    "Ġchoked": 9267,
    "Ġaims": 15499,
    "Ġbrigandish": 25488,
    "aur": 15312,
    "vessels": 10628,
    "Ġgibraltar": 25788,
    "Ġrect": 18028,
    "Ġbeck": 14012,
    "Ġwaxed": 21300,
    "Ġputs": 19032,
    "Ġcolours": 12979,
    "et": 307,
    "Ġserved": 8246,
    "Ġexcessive": 3894,
    "Ġsmiled": 5942,
    "Ġjumping": 13346,
    "igating": 21703,
    "Ġencode": 4368,
    "Ġmajority": 13297,
    "explained": 23148,
    "Ġferrule": 24500,
    "Ġmoderation": 12823,
    "Ġexclusiveness": 23931,
    "Ġeverybody": 4513,
    "hauteur": 26393,
    "Ġegg": 8823,
    "Ġshelter": 17010,
    "lads": 20957,
    "Ġcontinually": 5042,
    "urons": 3127,
    "Ġrows": 10563,
    "long": 2908,
    "Ġyoungest": 7954,
    "Ġgale": 5823,
    "Ġgour": 21601,
    "Ġplane": 11827,
    "wet": 15455,
    "Ġblazing": 11900,
    "Ġcream": 22723,
    "_.âĢĶ": 23476,
    "Ġcant": 17826,
    "Ġexerc": 6833,
    "Ġstil": 15725,
    "bread": 10688,
    "Ġcommunicating": 16891,
    "hic": 3247,
    "bildad": 9589,
    "Ġwhimsical": 20431,
    "leman": 21371,
    "treated": 21097,
    "ipped": 5790,
    "forget": 11034,
    "finger": 10096,
    "compliment": 11366,
    "aulding": 11341,
    "Ġexceeded": 14436,
    "Ġspeckled": 14311,
    "Ġlean": 7603,
    "Ġtener": 21166,
    "Ġeating": 8136,
    "Ġswell": 8952,
    "Ġreusability": 13562,
    "Ġmiddle": 4142,
    "Ġprestige": 22240,
    "ashed": 3787,
    "terrors": 25044,
    "Ġmalay": 24391,
    "cut": 3120,
    "Ġcolds": 23761,
    "Ġnameless": 7700,
    "Ġclients": 19735,
    "Ġcarving": 14446,
    "Ġarom": 15495,
    "Ġpowder": 11277,
    "Ġwhere": 783,
    "Ġshamefully": 24715,
    "Ġhypotheses": 4390,
    "Ġheading": 8938,
    "Ġdoing": 3664,
    "Ġvast": 3296,
    "obstructed": 15230,
    "property": 20003,
    "Ġdestabilizing": 5053,
    "invincible": 25092,
    "mariners": 19551,
    "ermost": 7430,
    "Ġans": 1645,
    "Ġdiffidence": 14661,
    "Ġlye": 21554,
    "Ġartic": 5315,
    "ensils": 22552,
    "Ġpleasant": 4174,
    "Ġexploit": 19164,
    "Ġuncommonly": 7760,
    "body": 2305,
    "Ġtax": 13819,
    "allic": 12818,
    "bolts": 11422,
    "ired": 1445,
    "ulations": 6030,
    "Ġgnawed": 25168,
    "Ġshirr": 18232,
    "calcul": 12994,
    "rog": 15644,
    "Ġblanche": 18821,
    "Ġdromed": 15601,
    "phere": 21021,
    "Ġ26": 10472,
    "Ġappet": 9734,
    "mount": 9132,
    "Ġperturbation": 20444,
    "Ġpall": 7583,
    "Ġdenomin": 12072,
    "¾": 127,
    "Ġarriving": 19218,
    "Ġgrandeur": 8631,
    "Ġ21": 11200,
    "Ġpupella": 20425,
    "irmed": 9242,
    "Ġowest": 25094,
    "Ġreleased": 2974,
    "Ġassisting": 13262,
    "could": 2869,
    "didn": 9010,
    "africa": 26309,
    "Ġcomfort": 3442,
    "oldened": 22642,
    "herself": 4891,
    "Ġsuite": 18279,
    "happiest": 19334,
    "kitchen": 17587,
    "Ġbushes": 16401,
    "Ġlimited": 23548,
    "totally": 25418,
    "Ġfamiliarity": 16731,
    "Ġdata": 516,
    "Ġmodesty": 12822,
    "Ġinherent": 4593,
    "rane": 17655,
    "Ġallude": 12776,
    "Ġsanity": 24982,
    ",_": 11464,
    "Ġmonogra": 22987,
    "keenest": 25662,
    "Ġlass": 15652,
    "Ġ133": 24782,
    "Ġsaleve": 17394,
    "swell": 17665,
    "Ġcampaign": 20663,
    "Ġflor": 8565,
    "Ġimbued": 17458,
    "Ġgreen": 3047,
    "rians": 21934,
    "ffy": 18318,
    "clergy": 18936,
    "Ġsl": 1498,
    "Ġbubbling": 17329,
    "Ġcommunicate": 10580,
    "Ġsmooth": 2775,
    "Ġare": 527,
    "impulse": 20647,
    "Ġadapt": 987,
    "bruary": 15239,
    "Ġstraightened": 12113,
    "hogs": 20085,
    "nson": 16092,
    "Ġlexicon": 25974,
    "Ġmoney": 3421,
    "!âĢĿâĢĶ": 8535,
    "exe": 11793,
    "ting": 1334,
    "fierce": 25256,
    "shine": 9289,
    "Ġbalance": 2019,
    "oo": 7553,
    "prepare": 20215,
    "Ġel": 800,
    "Ġstriving": 8998,
    "Ġlagged": 21561,
    "arabian": 26448,
    "Ġchuckled": 10650,
    "parameter": 3160,
    "Ġpovels": 22595,
    "Ġembodied": 25848,
    "instr": 12536,
    "Ġouter": 6859,
    "inev": 21983,
    "control": 16545,
    "Ġtruth": 3319,
    "fingers": 17373,
    "Ġtypewriting": 16424,
    "Ġquaff": 22418,
    "Ġentered": 2842,
    "Ġimpelling": 22389,
    "Ġdanes": 25160,
    "Ġbasics": 13452,
    "Ġunthinkingly": 26222,
    "Ġdandy": 17894,
    "Ġcoincid": 20320,
    "fearfully": 25119,
    "Ġadro": 15871,
    "germ": 15360,
    "fixedly": 24930,
    "title": 17290,
    "Ġfavoured": 16364,
    "Ġorganisation": 23585,
    "Ġdawned": 14997,
    "therly": 18347,
    "ivia": 22081,
    "eldest": 22799,
    "Ġswells": 9830,
    "omely": 21642,
    "Ġconstru": 19071,
    "Ġmccauley": 26429,
    "Ġsnar": 13204,
    "Ġtrail": 16285,
    "Ġpenetration": 19919,
    "france": 24284,
    "Ġnarratives": 24353,
    "Ġpleasantly": 14519,
    "ume": 4837,
    "Ġtricks": 13488,
    "occur": 19578,
    "temper": 10007,
    "hastily": 19705,
    "Ġsofas": 26226,
    "====": 1482,
    "Ġmakes": 3655,
    "Ġclear": 1948,
    "Ġinsol": 10183,
    "relate": 24014,
    "initely": 7568,
    "onsible": 22565,
    "Ġreposing": 23364,
    "Ġyojo": 7611,
    "Ġjour": 11768,
    "Ġdisinclined": 22533,
    "sery": 17663,
    "ingolstadt": 21306,
    "Ġactionable": 24560,
    "Ġstains": 21748,
    "Ġtougher": 21179,
    "Ġalms": 21784,
    "Ġlawless": 19438,
    "Ġunfulfilled": 26511,
    "....": 11318,
    "Ġobtaining": 16136,
    "Ġfishery": 4179,
    "'(": 2976,
    "Ġstamping": 20034,
    "Ġfrig": 13085,
    "Ġgurgling": 17449,
    "Ġrose": 3446,
    "som": 3290,
    "Ġmagician": 25061,
    "Ġtraversed": 18893,
    "Ġdoran": 9182,
    "ucket": 2483,
    "Ġsqualidness": 25844,
    "likelihood": 4992,
    "Ġorph": 9720,
    "Ġcaptiv": 16262,
    "Ġside": 1389,
    "Ġconfusing": 23309,
    "Ġfastening": 16360,
    "Ġcontrived": 10306,
    "earthly": 24723,
    "atever": 3074,
    "Ġmouthful": 16576,
    "quid": 18149,
    "arks": 2841,
    "Ġbetter": 1172,
    "ian": 1241,
    "atig": 13848,
    "azz": 8262,
    "Ġdarts": 16770,
    "alongside": 19792,
    "Ġcompanion": 3647,
    "Ġsorely": 17259,
    "Ġhired": 10180,
    "oysius": 14368,
    "Ġdistorted": 14252,
    "Ġcomforts": 14696,
    "Ġbiography": 22770,
    "Ġrome": 12160,
    "grandfather": 25012,
    "madam": 24421,
    "Ġmills": 21314,
    "Ġdirect": 1472,
    "distinguish": 19575,
    "Ġsincere": 11138,
    "iot": 9603,
    "opic": 22480,
    "Ġepicures": 25880,
    "nam": 2739,
    "malice": 17605,
    "Ġsuspense": 9421,
    "Ġ31": 12135,
    "Ġmind": 1617,
    "Ġspind": 18308,
    "affrail": 11207,
    "Ġcheer": 4068,
    "faith": 15027,
    "Ġslips": 23170,
    "Ġburst": 4384,
    "as": 302,
    "Ġphilist": 16603,
    "Ġisle": 8837,
    "Ġdependency": 3489,
    "Ġimpact": 10299,
    "akness": 14197,
    "chiefly": 14849,
    "omics": 21646,
    "igms": 3041,
    "Ġdiscern": 7926,
    "barrels": 15044,
    "Ġkicking": 16903,
    "Ġfors": 21775,
    "chase": 11648,
    "Ġcelebrated": 13598,
    "unwillingly": 21888,
    "Ġfacility": 19852,
    "Ġprofoundest": 16862,
    "Ġplantation": 11425,
    "narr": 12501,
    "ole": 9616,
    "Ġlangu": 576,
    "possess": 5985,
    "Ġcrimin": 6901,
    "ribes": 23369,
    "supposed": 13320,
    "Ġcompliments": 8636,
    "Ġpatroness": 13513,
    "Ġunattended": 15847,
    "Ġann": 4492,
    "estate": 12826,
    "Ġmerely": 3773,
    "Ġpreferment": 19855,
    "extent": 22758,
    "Ġappend": 18361,
    "ard": 465,
    "Ġremot": 8546,
    "Ġsamples": 2959,
    "peril": 18341,
    "Ġballarat": 14722,
    "sens": 8096,
    "consolatory": 25307,
    "Ġconse": 21808,
    "gazing": 12476,
    "Ġprair": 7747,
    "jac": 8382,
    "Ġdecks": 6900,
    "Ġautomatically": 3353,
    "reader": 23850,
    "Ġoccur": 1083,
    "sn": 7140,
    "remembrance": 25703,
    "Ġstripped": 10466,
    "'": 11,
    "Ġhousekeeper": 7456,
    "Ġmam": 8406,
    "prosperity": 20737,
    "Ġawkward": 7075,
    "Ġpresume": 8038,
    "<EOS>": 2,
    "Ġmiseries": 10347,
    "Ġsprout": 24092,
    "Ġflame": 7448,
    "Ġclaim": 5106,
    "protected": 19923,
    "lightning": 16554,
    "elev": 12463,
    "Ġstubborn": 10418,
    "Ġaroused": 15898,
    "Ġunb": 10909,
    "Ġhabitual": 24789,
    "enges": 13059,
    "resol": 17762,
    "Ġstowing": 18077,
    ".âĢĻâĢĿ": 6741,
    "Ġimposs": 16618,
    "phren": 22781,
    "Ġconfederate": 17356,
    "Ġsprawling": 22143,
    "asy": 5296,
    "Ġcherish": 10592,
    "next": 5893,
    "Ġeloquence": 11846,
    "Ġmerit": 9430,
    "quest": 4540,
    "god": 4864,
    "hint": 12480,
    "Ġjudges": 14687,
    "Ġdetaining": 25820,
    "forgive": 18728,
    "Ġbetween": 792,
    "confidence": 16810,
    "Ġgenerates": 3667,
    "actor": 11841,
    "civilities": 24974,
    "anth": 13890,
    "Ġind": 1220,
    "Ġreckless": 13462,
    "suspicions": 25392,
    "ething": 1601,
    "Ġestimation": 11220,
    "inger": 6813,
    "address": 14884,
    "Ġcontingency": 26246,
    "cork": 20798,
    "pling": 8477,
    "Ġrecogn": 2827,
    "minute": 11276,
    "Ġinexplicable": 12261,
    "steel": 8299,
    "patter": 4147,
    "Ġadvers": 4888,
    "Ġtist": 21165,
    "Ġproclaim": 18133,
    "Ġsymmetry": 20369,
    "per": 480,
    "Ġdinner": 4248,
    "Ġcommunicated": 9064,
    "everything": 6326,
    "Ġorthodox": 22099,
    "Ġcircumspect": 15088,
    "fordshire": 4678,
    "ix": 1800,
    "Ġcorrection": 5062,
    "oe": 7552,
    "Ġparticular": 2446,
    "Ġattract": 11838,
    "Ġbecher": 18881,
    "mightily": 24105,
    "Ġhopes": 4238,
    "practical": 17224,
    "Ġfinished": 5044,
    "fold": 7546,
    "blades": 24133,
    "Ġtwitch": 22679,
    "brill": 16493,
    "discrimin": 19611,
    "iver": 2048,
    "Ġquest": 1999,
    "Ġrefreshed": 15295,
    "fect": 2298,
    "Ġpunchbowl": 20234,
    "assistant": 25568,
    "Ġnewly": 9341,
    "singular": 12193,
    "intended": 11068,
    "ich": 469,
    "Ġintelligences": 12836,
    "erick": 13851,
    "Ġsolitude": 6876,
    "penn": 18828,
    "Ġdism": 9770,
    "Ġconsummate": 25311,
    "Ġplague": 11828,
    "Ġlow": 1648,
    "cc": 471,
    "topp": 22569,
    "Ġ/*": 10142,
    "oc": 2831,
    "cavity": 26127,
    "Ġdeputation": 21844,
    "Ġsnatched": 10473,
    "exception": 9979,
    "Ġmirth": 15549,
    "hour": 7340,
    "Ġslightly": 7293,
    "Ġphilips": 5410,
    "plexy": 18576,
    "Ġpom": 21455,
    "Ġoptimal": 1854,
    "those": 4498,
    "Ġbravely": 23842,
    "Ġshy": 10905,
    "Ġsuperiors": 23456,
    "Ġshrinking": 14808,
    "car": 4216,
    "hill": 15366,
    "liness": 8750,
    "Ġperplexed": 23660,
    "Ġunlocking": 20708,
    "Ġtree": 5285,
    "Ġintimacy": 8704,
    "Ġallegor": 25546,
    "aneously": 4061,
    "Ġcrossing": 7253,
    "yp": 1045,
    "Ġexecutors": 19536,
    "danish": 20835,
    "Ġhob": 12634,
    "Ġignor": 4013,
    "Ġdecl": 3592,
    "Ġscuttle": 7414,
    "ý": 190,
    "Ġknowingly": 18481,
    "Ġhyena": 24519,
    "Ġexpressions": 7706,
    "Ġremoved": 5275,
    "Ġparticulars": 5754,
    "Ġwalks": 8969,
    "gument": 20887,
    "Ġtravels": 11931,
    "Ġsuffusing": 23034,
    "Ġinterference": 8897,
    "Ġthrees": 23404,
    "j": 78,
    "Ġgene": 15676,
    "able": 452,
    "word": 2487,
    "Ġindestructible": 26574,
    "Ġbounding": 19403,
    "Ġdirection": 1793,
    "Ġadequately": 15202,
    "Ġties": 12532,
    "Ġsig": 868,
    "igan": 21702,
    "Ġcirc": 1984,
    "ollen": 11300,
    "Ġmixing": 24937,
    "vulgar": 25919,
    "Ġblurred": 22934,
    "interval": 7991,
    "Ġevent": 2948,
    "Ġshine": 12771,
    "Ġharbors": 24902,
    "Ġchest": 5185,
    "discover": 10542,
    "Ġluxury": 20135,
    "Ġdeceived": 6546,
    "Ġindist": 14411,
    "Ġtransformations": 3486,
    "Ġcaptains": 7457,
    "Ġoutweigh": 22326,
    "rences": 9275,
    "interchange": 23741,
    "Ġcrimson": 16439,
    "Ġenormousness": 24515,
    "Ġwarrior": 24496,
    "van": 7814,
    "ifting": 6547,
    "Ġemer": 5960,
    "important": 7114,
    "Ġcounting": 13099,
    "Ġlaz": 7378,
    "pot": 10120,
    "Ġcover": 3560,
    "Ġdefect": 8557,
    "Ġfear": 2275,
    "bag": 7542,
    "Ġhistorical": 3649,
    "Ġlung": 7168,
    "iles": 2858,
    "allers": 22201,
    "Ġreminiscences": 26271,
    "Ġtroubled": 6618,
    "Ġon": 351,
    "Ġdynam": 3163,
    "Ġmeta": 3287,
    "read": 3274,
    "Ġaloft": 4307,
    "Ġfidel": 12601,
    "Ġstudies": 7956,
    "Ġlatest": 16824,
    "Ġmetropolitan": 17278,
    "Ġcripple": 11442,
    "Ġapproved": 16037,
    "elly": 17982,
    "Ġsensations": 5260,
    "Ġhealth": 3906,
    "mpus": 13760,
    "foremost": 14255,
    "Ġbuckle": 17034,
    "Ġmalice": 7153,
    "gossip": 23407,
    "Ġaccomplish": 14879,
    "Ġhedgehog": 10647,
    "Ġcobbler": 25831,
    "Ġrevolved": 9987,
    "warmest": 25030,
    "cher": 5786,
    "Ġceaseless": 13492,
    "Ġasking": 5651,
    "Ġtrial": 6637,
    "Ġimprudence": 10300,
    "snapping": 24850,
    "Ġreceiving": 4883,
    "bounded": 13443,
    "Ç": 136,
    "Ġsucc": 12789,
    "phon": 4131,
    "ernity": 18616,
    "Ġslay": 16309,
    "Ġgazes": 24098,
    "Ġever": 1179,
    "Ġsufficient": 2001,
    "Ġslouched": 13064,
    "Ġr": 404,
    "Ġlatent": 19658,
    "Ġestablishment": 13583,
    "Ġfaintest": 24570,
    "exper": 8882,
    "stories": 18026,
    "Ġerroneous": 17412,
    "Ġresting": 7962,
    "Ġseparating": 16684,
    "Ġbeholding": 8672,
    "Ġslyness": 25267,
    "wharf": 20609,
    "aster": 1864,
    "Ġwet": 6519,
    "Ġlim": 2378,
    "beg": 22491,
    "Ġdeduce": 8337,
    "oforte": 14289,
    "Ġhypocr": 19475,
    "jerked": 25619,
    "Ġsignificantly": 4521,
    "Ġcocain": 18599,
    "Ġsnapping": 19303,
    "Ġfaintness": 24571,
    "phil": 7925,
    "Ġsurrey": 14560,
    "Ġlowly": 11123,
    "Ġwaves": 3921,
    "bantering": 25254,
    "Ġjoining": 13168,
    "Ġcoils": 9306,
    "arctic": 12615,
    "Ġwont": 9855,
    "Ġone": 569,
    "Ġpreservative": 24630,
    "Ġclosest": 16765,
    "Ġegot": 18010,
    "prep": 9762,
    "ilogue": 21728,
    "Ġbreakers": 12059,
    "Ġcommis": 22674,
    "undoubtedly": 13316,
    "trimmed": 23952,
    "osop": 4408,
    "Ġugly": 8719,
    "Ġsighs": 22710,
    "Ġarrested": 9563,
    "cst": 10087,
    "supposing": 24137,
    "Ġstre": 2110,
    "Ġlethar": 21735,
    "ringle": 21043,
    "###": 3830,
    "Ġgryphon": 4304,
    "Ġanxiously": 8290,
    "Ġstrata": 26028,
    "ĠĠĠĠĠĠĠĠĠĠĠĠĠĠĠĠĠĠĠĠĠĠĠĠ": 5322,
    "Ġvalley": 5852,
    "ipt": 12483,
    "Ġfring": 11129,
    "Ġ81": 24457,
    "lilies": 20963,
    "Ġdamned": 13135,
    "crimson": 24090,
    "Ġlegal": 10441,
    "Ġriverside": 25248,
    "Ġhorses": 6386,
    "remind": 23191,
    "Ġdined": 9179,
    "Ġwindigate": 18912,
    "ateful": 5928,
    "Ġclamped": 18427,
    "upid": 6584,
    "ool": 17620,
    "Ġcuba": 25098,
    "relig": 15515,
    "Ġregards": 16077,
    "Ġmarvellous": 7538,
    "Ġsangu": 15507,
    "Ġinhospit": 25453,
    "Ġsqu": 1038,
    "combe": 7662,
    "death": 6263,
    "stem": 566,
    "minutely": 19596,
    "Ġcalf": 16270,
    "Ġcelest": 9904,
    "Ġfiltering": 23930,
    "opp": 6963,
    "omin": 4704,
    "modesty": 22857,
    "Ã¦st": 24178,
    "Ġsufferer": 16264,
    "Ġcake": 12575,
    "completely": 12424,
    "globe": 25145,
    "Ġnow": 693,
    "betrayed": 24641,
    "Ġxii": 11995,
    "aux": 14291,
    "Ġdisplays": 19859,
    "amidst": 25653,
    "Ġstochastic": 3265,
    "Ġhugh": 15006,
    "please": 8177,
    "Ġott": 13869,
    "Ġenvironment": 3980,
    "indulged": 22379,
    "Ġsinging": 7724,
    "Ġruin": 6057,
    "Ġrippling": 17280,
    "Ġasiatic": 20433,
    "Ġgaze": 6932,
    "Ġeber": 18006,
    "Ġblu": 2685,
    "ifice": 7199,
    "Ġrubbed": 12960,
    "asher": 15650,
    "cery": 20810,
    "Ġpo": 738,
    "Ġdeeply": 4718,
    "Ġdaft": 19666,
    "Ġorgan": 2502,
    "Ġseas": 3073,
    "history": 15017,
    "Ġdefilements": 26286,
    "Ġjanuary": 13657,
    "outward": 22164,
    "Ġhamper": 19392,
    "Ġhung": 4562,
    "teringly": 21827,
    "Ġshiver": 12772,
    "Ġcarefully": 6306,
    "Ġcough": 11584,
    "Ġkrem": 9729,
    "uberance": 25917,
    "wise": 2574,
    "Ġflitting": 13032,
    "Ġmuffled": 10643,
    "really": 6972,
    "antically": 22100,
    "Ġfruits": 17121,
    "Ġens": 2784,
    "Ġunreason": 15846,
    "Ġwoody": 23522,
    "Ġindependently": 4250,
    "xible": 13811,
    "Ġrounds": 18886,
    "ontory": 10461,
    "snatched": 24851,
    "heav": 5694,
    "squall": 13525,
    "estab": 14173,
    "Ġblooming": 17215,
    "**": 4687,
    "Ġreco": 9795,
    "Ġgrows": 4985,
    "walks": 19724,
    "eastern": 17535,
    "Ġgums": 21614,
    "Ġvisited": 5949,
    "Ġbodily": 6108,
    "Ġphysiology": 25333,
    "brous": 19200,
    "Ġtout": 17721,
    "Ġabusive": 22277,
    "Ġabout": 633,
    "bare": 12445,
    "Ġcensure": 15099,
    "Ġvoyage": 3050,
    "Ġhorsham": 10408,
    "Ġnavigation": 9996,
    "moored": 22707,
    "tfordshire": 4812,
    "dressed": 10697,
    "awake": 14455,
    "Ġblasphemer": 26117,
    "Ġmood": 6278,
    "Ġflood": 7716,
    "Ġsincer": 13071,
    "soldiers": 25912,
    "oner": 6126,
    "Ġsleeping": 6321,
    "entirely": 7782,
    "Ġpeak": 16130,
    "sam": 21054,
    "Ġhebrew": 13991,
    "Ġprovince": 24192,
    "say": 3986,
    "Ġcommand": 3321,
    "Ġresentful": 24632,
    "Ġspanish": 2823,
    "separ": 9233,
    "Ġelderly": 13498,
    "ifully": 13188,
    "ravity": 21638,
    "disagreeable": 11165,
    "Ġmule": 13865,
    "ul": 371,
    "binnacle": 20789,
    "Ġwestmorland": 24390,
    "additional": 20467,
    "vitiated": 25755,
    "Ġguinea": 8950,
    "Ġmysteriously": 24602,
    "n": 82,
    "bur": 4688,
    "Ġwallowed": 24045,
    "grace": 5847,
    "Ġlawyers": 25249,
    "Ġfriends": 2653,
    "falgar": 26131,
    "bale": 20776,
    "putation": 7625,
    "Ġcreature": 2381,
    "treasures": 26153,
    "icorn": 15661,
    "Ġunceasing": 20361,
    "Ġmuscles": 12093,
    "Ġoverthrown": 18431,
    "linen": 25258,
    "Ġtext": 2267,
    "Ġcelebrate": 26359,
    "receive": 12547,
    "relu": 17761,
    "rench": 3969,
    "Ġcentre": 5123,
    "Ġwhatsoever": 18461,
    "Ġwired": 17788,
    "Ġsleeps": 10448,
    "Ġfetch": 7770,
    "Ġup": 463,
    "Ġobligation": 13249,
    "rigible": 24932,
    "Ġvirginia": 13503,
    "Ġinterment": 22578,
    "Ġincommun": 25309,
    "phia": 22782,
    "Ġshad": 3852,
    "re": 266,
    "Ġembarrassment": 10629,
    "Ġgleams": 17313,
    "Ġcountrymen": 23597,
    "rebell": 17765,
    "Ġcontemplate": 19894,
    "riages": 10246,
    "eked": 16403,
    "complained": 25840,
    "Ġexists": 14044,
    "Ġworkman": 16275,
    "meant": 7921,
    "avenza": 17105,
    "Ġinfallibly": 10044,
    "Ġphilistines": 26083,
    "Ġquivering": 12863,
    "oir": 21004,
    "Ġjabez": 11770,
    "Ġdispose": 23882,
    "Ġgowns": 25360,
    "Ġscratch": 25565,
    "Ġdefiance": 11070,
    "Ġpretending": 19317,
    "Ġsolar": 22888,
    "Ġtenderest": 23553,
    "Ġisn": 7866,
    "Ġto": 297,
    "Ġesq": 15112,
    "such": 3078,
    "australian": 20564,
    "Ġwounded": 8661,
    "fooled": 24419,
    "sticks": 25966,
    "Ġadviser": 25313,
    "Ġthief": 11613,
    "Ġunintelligible": 26516,
    "Ġcontinues": 18810,
    "hunter": 10558,
    "ibility": 2387,
    "Ġhorseman": 19610,
    "Ġpressed": 6043,
    "Ġabsolut": 3913,
    "Ġensuing": 12313,
    "six": 7143,
    "Ġmerryweather": 9525,
    "Ġethics": 15465,
    "Ġkindly": 6078,
    "Ġweeps": 24950,
    "Ġbod": 4583,
    "Ġdiscrimination": 23607,
    "Ġexperienced": 6582,
    "metic": 14987,
    "Ġvii": 13113,
    "Ġmanner": 2197,
    "understand": 1155,
    "Ġmen": 1434,
    "inations": 7567,
    "Ġstrangers": 8314,
    "Ġevanesc": 24296,
    "ologies": 18772,
    "Ġineffect": 13933,
    "ite": 712,
    "upset": 23023,
    "Ġindividually": 22960,
    "Ġweltering": 19588,
    "Ġbreadth": 10566,
    "Ġfish": 2708,
    "Ġvarieties": 14313,
    "ulia": 18151,
    "Ġmingled": 12381,
    "arboard": 7266,
    "sou": 12510,
    "mysteries": 26052,
    "Ġdearest": 5457,
    "ifted": 4497,
    "Ġgin": 13964,
    "Ġbrist": 14381,
    "Ġbasic": 24700,
    "Ġmonomaniac": 9571,
    "Ġcommonplace": 11098,
    "Ġmathematical": 3352,
    "Ġincoherent": 17403,
    "Ġturkish": 12266,
    "Ġexpert": 18861,
    "splinter": 25211,
    "ributed": 8214,
    "hatherley": 17570,
    "Ġbernard": 20687,
    "69": 17477,
    "semble": 1526,
    "estic": 4956,
    "venge": 4660,
    "Ġdiscrimin": 2546,
    "Ġjest": 18404,
    "bank": 10082,
    "Ġsavag": 19377,
    "jewell": 25524,
    "persu": 8028,
    "Ġsloop": 25931,
    "Ġhopeful": 19031,
    "Ġsaith": 14157,
    "gn": 8082,
    "Ġenticements": 26034,
    "oop": 10717,
    "during": 6788,
    "owners": 16090,
    "Ġreflection": 6441,
    "bow": 5424,
    "Ġado": 7627,
    "Ġmargin": 11925,
    "istered": 14147,
    "Ġgo": 614,
    "ccarthy": 4889,
    "Ġdiscerned": 25006,
    "steak": 14711,
    "impress": 18054,
    "soft": 12514,
    "tacit": 21101,
    "phant": 6289,
    "Ġbutchers": 18273,
    "Ġbehaviour": 4388,
    "Ġabandoned": 8352,
    "Ġperchance": 15995,
    "Ġuncounted": 19118,
    "stranded": 19226,
    "into": 3683,
    "iers": 5992,
    "Ġbug": 11592,
    "Ġshrubbery": 18233,
    "Ġflames": 7940,
    "Ġsum": 2698,
    "Ġapplication": 2108,
    "Ġlearnable": 3997,
    "ĠĠĠĠĠĠĠĠĠĠĠĠĠĠĠĠĠĠĠĠĠĠĠĠĠĠĠĠĠĠĠĠĠĠĠĠĠ": 14617,
    "travel": 24337,
    "Ġvicious": 24403,
    "hearted": 6971,
    "Ġsires": 21229,
    "angles": 18296,
    "Ġhussey": 7725,
    "Ġconve": 5455,
    "Ġcongeal": 25981,
    "atlantic": 15527,
    "determine": 19947,
    "Ġbehaved": 13258,
    "evade": 24817,
    "iasm": 8061,
    "Ġoffended": 7042,
    "grinder": 23417,
    "Ġwoods": 5406,
    "Ġeyford": 10644,
    "Ġsnorting": 23743,
    "Ġembark": 8559,
    "Ġstreets": 5865,
    "Ġextreme": 2514,
    "Ġpencil": 11947,
    "Ġinsensibility": 17111,
    "acies": 14280,
    "Ġgravity": 9251,
    "yards": 9626,
    "quite": 4648,
    "Ġdesperately": 24657,
    "beyond": 8886,
    "glanced": 19369,
    "Ġkrus": 18350,
    "riving": 21935,
    "rael": 21632,
    "ship": 1394,
    "Ġmanners": 3793,
    "fish": 3517,
    "Ġstarts": 16584,
    "pool": 16212,
    "Ġscreen": 17208,
    "batim": 25019,
    "supp": 4166,
    "tut": 15437,
    "Ġstaff": 14010,
    "Ġfair": 2834,
    "Ġrecurrent": 1803,
    "Ġcharging": 23270,
    "resemblance": 25934,
    "Ġfugitives": 25635,
    "Ġglimp": 6067,
    "alization": 733,
    "steam": 23963,
    "Ġearnestness": 12130,
    "Ġbil": 15569,
    "tired": 21075,
    "icant": 21565,
    "ounding": 22396,
    "Ġmundane": 26431,
    "caroline": 24152,
    "Ġsuperstitions": 17073,
    "Ġcakes": 13887,
    "Ġdaughter": 2866,
    "Ġunsettled": 14126,
    "rubber": 12817,
    "Ġsteelkilt": 5675,
    "Ġpeculiarities": 12075,
    "stained": 21658,
    "Ġvoracity": 25987,
    "Ġshadow": 5596,
    "sooner": 14780,
    "deserted": 19344,
    "moments": 19415,
    "Ġleaned": 7605,
    "Ġcynical": 25771,
    "Ġhay": 11608,
    "Ġpursuits": 12081,
    "gement": 13731,
    "Ġjurymen": 16849,
    "Ġpond": 13919,
    "Ġincomplete": 17211,
    "Ġrequest": 6052,
    "ffic": 22155,
    "etch": 9207,
    "Ġvillains": 14752,
    "beat": 10988,
    "Ġfr": 1696,
    "aren": 10077,
    "iments": 4945,
    "Ġmanly": 22328,
    "yd": 21145,
    "Ġfooted": 23799,
    "affair": 14657,
    "row": 1065,
    "Ġbanker": 8670,
    "Ġinvite": 14565,
    "Ġbitten": 21393,
    "Ġhush": 13215,
    "Ġtrusting": 24107,
    "Ġleaving": 3907,
    "Ġinoffensive": 21501,
    "Ġarmchair": 8271,
    "Ġdominic": 25381,
    "Ġpertaining": 18452,
    "bweb": 20793,
    "Ġwr": 1543,
    "orable": 8120,
    "Ġvaguely": 17369,
    "Ġtempted": 9059,
    "mn": 3579,
    "Ġsurvivor": 17366,
    "Ġdictated": 25219,
    "Ġcanoes": 12812,
    "Ġ$": 21153,
    "Ġsatan": 14393,
    "Ġplight": 14284,
    "Ġthreatened": 8330,
    "mur": 5428,
    "Ġess": 5691,
    "olstad": 7612,
    "icting": 12857,
    "Ġdefile": 18825,
    "Ġdesisted": 22985,
    "various": 10400,
    "Ġportent": 12086,
    "leaving": 10793,
    "Ġtwelve": 4963,
    "agatha": 21912,
    "Ġadmeasure": 18294,
    "Ġtechnique": 2389,
    "urable": 8927,
    "Ġappointment": 10649,
    "Ġshrouds": 11346,
    "entions": 17977,
    "Ġfang": 21406,
    "ssible": 2989,
    "Ġmillar": 13864,
    "Ġcanoe": 9726,
    "Ġwhen": 514,
    "Ġplanisp": 24060,
    "enorm": 17783,
    "boilers": 26298,
    "Ġdeportment": 22615,
    "ique": 8746,
    "owers": 12689,
    "Ġhorner": 8961,
    "Ġapprehension": 7115,
    "ilst": 8144,
    "Ġarmy": 11745,
    "Ġbitter": 4177,
    "Ġplainly": 4385,
    "mblance": 7323,
    "Ġsnaky": 23744,
    "Ġdescend": 7427,
    "Ġhats": 14621,
    "Ġspirits": 3700,
    "contrad": 19294,
    "Ġrailway": 15023,
    "Ġappar": 7411,
    "Ġmarvelled": 18876,
    "Ġwel": 4529,
    "Ġvelv": 10622,
    "Ġabilities": 8870,
    "ber": 903,
    "Ġ2026": 12339,
    "Ġjeer": 24125,
    "Ġocean": 3303,
    "Ġdarted": 4759,
    "Ġgout": 21599,
    "isation": 13896,
    "oun": 483,
    "Ġannoyed": 17202,
    "Ġunwarranted": 24831,
    "Ġplacing": 8904,
    "Ġsupplied": 8946,
    "aker": 3666,
    "great": 3518,
    "Ġdeserts": 10510,
    "Ġamusement": 8056,
    "Ġlash": 8440,
    "capable": 13705,
    "Ġinjuring": 24271,
    "od": 350,
    "amy": 8470,
    "Ġforged": 12709,
    "family": 7324,
    "Ġshades": 9466,
    "Ġmaj": 3930,
    "Ġweather": 3998,
    "Ġbrah": 19360,
    "Ġapparel": 20439,
    "reception": 15517,
    "Ġincisive": 18571,
    "convolutional": 4958,
    "Ġcolonies": 14378,
    "Ġcavity": 20491,
    "Ġguardian": 14945,
    "Ġdesirable": 8944,
    "cross": 3578,
    "torm": 11533,
    "Ġtribe": 10753,
    "Ġcategor": 4143,
    "Ġconfessed": 8009,
    "enthus": 17980,
    "Ġthey": 575,
    "Ġborn": 5224,
    "ancient": 9658,
    "greatly": 16626,
    "Ġunsh": 14118,
    "Ġglistened": 20175,
    "Ġintercourse": 11000,
    "Ġguiding": 19243,
    "Ġhookah": 16972,
    "Ġsweatings": 25709,
    "ctions": 951,
    "merry": 16539,
    "meat": 18679,
    "utting": 17987,
    "Ġlucerne": 23867,
    "Ġretired": 6072,
    "Ġdam": 2217,
    "Ġunequal": 14845,
    "verse": 9691,
    "Ġatone": 15806,
    "card": 11477,
    "Ġchiefly": 5766,
    "frankly": 20025,
    "Ġbringing": 5871,
    "Ġmight": 963,
    "Ġpublicly": 13327,
    "Ġcanvas": 7784,
    "mmet": 10990,
    "illar": 5101,
    "Ġspell": 8859,
    "Ġcode": 1720,
    "Ġunfailing": 24113,
    "Ġalders": 21788,
    "Ġglobu": 23274,
    "lone": 11502,
    "marriage": 7745,
    "Ġhearth": 11986,
    "igns": 8449,
    "Ġwaist": 6892,
    "Ġdivergence": 2725,
    "Ġknew": 2054,
    "Ġimpediments": 26242,
    "Ġenquired": 21944,
    "formal": 14171,
    "Ġshoulder": 5849,
    "grieved": 17320,
    "Ġmarsh": 9824,
    "Ġhearse": 10422,
    "Ġbetray": 7442,
    "Ġbank": 4878,
    "Ġduty": 4073,
    "Ġconfidence": 6592,
    "ley": 1815,
    "Ġperforming": 7928,
    "Ġmostly": 7664,
    "Ġinsatiable": 19274,
    "consist": 14819,
    "pump": 21019,
    "Ġfiddle": 25445,
    "Ġstraggling": 23754,
    "Ġbashee": 19851,
    "ighter": 7968,
    "Ġspec": 1265,
    "eye": 6226,
    "gracechurch": 24582,
    "Ġunaccountable": 7887,
    "Ġblessed": 6931,
    "Ġpul": 2040,
    "anatory": 21366,
    "Ġspasmodically": 17317,
    "Ġholder": 6726,
    "Ġfearlessness": 19163,
    "Ġfrigates": 25707,
    "circum": 16739,
    "Ġprize": 11953,
    "Ġfreighted": 16326,
    "Ġsounding": 8265,
    "facts": 19845,
    "riers": 18187,
    "Ġbits": 11591,
    "Ġparagraph": 17457,
    "Ġtoes": 10831,
    "merged": 11195,
    "Ġassur": 6075,
    "Ġundisturbed": 19522,
    "ocean": 12405,
    "wam": 10138,
    "Ġunavailing": 26217,
    "Ġshag": 9254,
    "woes": 21136,
    "extracts": 22762,
    "Ġbelongs": 8015,
    "all": 485,
    "vill": 10737,
    "ropol": 10955,
    "Ġbrotherly": 16530,
    "Ġflail": 23013,
    "baby": 25516,
    "idel": 5301,
    "atching": 8202,
    "Ġclink": 22353,
    "Ġforebodings": 17307,
    "Ġtrunks": 15969,
    "perv": 1555,
    "Ġpill": 7846,
    "algorith": 3440,
    "Ġperplexity": 2752,
    "Ġuntimely": 16469,
    "Ġreproof": 24891,
    "Ġsap": 18323,
    "Ġsevered": 18206,
    "L": 48,
    "footsteps": 25200,
    "Ġintrig": 21994,
    "Ġrespite": 13158,
    "Ġexperience": 1352,
    "urning": 12921,
    "Ġfan": 2034,
    "garn": 20872,
    "ial": 412,
    "Ġinjunctions": 24272,
    "Ġbewil": 11660,
    "stolen": 13985,
    "Ġstern": 4227,
    "Ġinsurg": 23681,
    "Ġsullenly": 17175,
    "000": 2560,
    "Ġsights": 7472,
    "leather": 13893,
    "ire": 496,
    "con": 651,
    "hate": 20894,
    "houn": 20895,
    "Ġbush": 23338,
    "Ġben": 1107,
    "pemberley": 9623,
    "\\": 64,
    "strip": 19833,
    "Ġensue": 18191,
    "cuniary": 26381,
    "Ġhoney": 12637,
    "Ġlogical": 14489,
    "ativeness": 15524,
    "pervised": 1585,
    "pin": 13770,
    "Ġiii": 7861,
    "Ġyet": 1028,
    "Ġimprinted": 22393,
    "trained": 4243,
    "Ġdedicated": 19238,
    "Ġobed": 8538,
    "gra": 770,
    "Ġshr": 4230,
    "Ġenters": 11027,
    "Ġsummer": 4791,
    "Ġbasin": 19850,
    "Ġconjure": 17126,
    "Ġsheets": 9725,
    "Ġrequire": 924,
    "Ġregularity": 22778,
    "Ġstrives": 23695,
    "Ġow": 8409,
    "Ġdiscoverers": 26037,
    "willing": 6594,
    "Ġarabian": 9093,
    "Ġfiends": 14831,
    "Ġmrs": 1468,
    "Ġourselves": 5127,
    "mes": 1196,
    "allingly": 22203,
    "Ġcynicism": 25772,
    "ased": 1269,
    ";âĢĿ": 7791,
    "parable": 16405,
    "ended": 1833,
    "tubes": 25212,
    "Ġbrings": 11884,
    "Ġdood": 22246,
    "Ġslumbering": 25702,
    "Ġworker": 23050,
    "Ġafter": 871,
    "Ġmurdering": 14814,
    "ected": 7873,
    "mosp": 8089,
    "orative": 21401,
    "philosop": 9570,
    "ury": 3311,
    "!_": 7329,
    "bloom": 24690,
    "Ġrow": 5246,
    "headers": 23112,
    "Ġsilent": 3415,
    "circumstances": 8047,
    "Ġeditions": 19154,
    "Ġshocked": 9404,
    "Ġdescrib": 2716,
    "Ġgould": 17992,
    "Ġclams": 19992,
    "Ġimage": 3407,
    "Ġawhile": 13833,
    "grim": 19108,
    "Ġdawn": 6817,
    "Ġcaul": 10789,
    "ol": 362,
    "Ġcommend": 10337,
    "ament": 2436,
    "Ġsmoking": 6430,
    "ser": 1425,
    "Ġvac": 5025,
    "Ġinsight": 16532,
    "Ġprendergast": 26539,
    "blame": 14797,
    "ureau": 10229,
    "Ġlavenza": 17973,
    "Ġexist": 9234,
    "Ġstrewed": 23424,
    "Ġwarn": 5695,
    "rifled": 21050,
    "evenings": 19466,
    "Ġimmaculate": 19489,
    "thrasher": 25659,
    "Ġbeaufort": 13572,
    "Ġattentions": 5879,
    "Ġelusive": 22649,
    "Ġclean": 5652,
    "filled": 9597,
    "ienced": 5685,
    "Ġwasn": 6998,
    "gather": 20877,
    "Ġsympathetic": 17362,
    "Å": 134,
    "Ġutmost": 5496,
    "Ġargu": 10936,
    "questioning": 16852,
    "gan": 2199,
    "ribbed": 16416,
    "ical": 753,
    "Ġexerted": 15759,
    "position": 15416,
    "shaw": 6864,
    "Ġrespectfully": 18995,
    "Ġapiece": 16815,
    "Ġdong": 17889,
    "ustration": 2259,
    "Ġexception": 11218,
    "Ġengravings": 15069,
    "Ġelemental": 19921,
    "Ġbuff": 9175,
    "atic": 4019,
    "Ġfrenzy": 13626,
    "Ġtickled": 20060,
    "Ġadopted": 15182,
    "abiding": 21797,
    "procure": 23400,
    "unwho": 21881,
    "erm": 785,
    "Ġluck": 4881,
    "grown": 10102,
    "loops": 12888,
    "Ġshoving": 23493,
    "Ġunlab": 3791,
    "Ġunreasonable": 12782,
    "Ġfinancial": 23131,
    "Ġornamented": 20365,
    "Ġtried": 3651,
    "Ġframework": 2057,
    "unc": 15773,
    "iscreet": 20685,
    "murdered": 12207,
    "Ġexcuse": 5863,
    "Ġ113": 19699,
    "Ġreusable": 13561,
    "Ġhandsom": 11126,
    "Ġfalsehood": 10526,
    "going": 6315,
    "Ġincognita": 26553,
    "pleasures": 24049,
    "Ġalive": 4402,
    "Ġgoverning": 2791,
    "Ġpained": 19169,
    "Ġconvalescence": 23748,
    "bern": 20777,
    "Ġdisgu": 8206,
    "Ġthr": 5709,
    "Ġfactory": 23279,
    "Ġfrankenstein": 7097,
    "Ġhem": 8447,
    "erce": 6128,
    "Ġconciliating": 19047,
    "wretch": 17710,
    "audible": 17135,
    "Ġsuitable": 18281,
    "countryman": 24640,
    "Ġarchipelagoes": 14351,
    "Ġpalpit": 16692,
    "orts": 2555,
    "otence": 14026,
    "instruct": 19545,
    "Ġgritted": 22807,
    "Ġsheeted": 19834,
    "fitzwilliam": 11354,
    "dearest": 11739,
    "related": 24015,
    "Ġwides": 17790,
    "Ġswaying": 15049,
    "Ġhare": 5157,
    "Ġcasts": 19429,
    "ructive": 18545,
    "Ġutterance": 14766,
    "Ġsituation": 4074,
    "orting": 9738,
    "ckinridge": 11723,
    "Ġactually": 5389,
    "Ġhad": 443,
    "Ġinsignificance": 20460,
    "Ġopenshaw": 7955,
    "Ġwoman": 2384,
    "Ġaudio": 24771,
    "Ġsubsided": 14551,
    "Ġop": 2602,
    "Ġunp": 12777,
    "Ġsingled": 23775,
    "Ġsoo": 15866,
    "science": 11914,
    "Ġthinner": 24185,
    "Ġstanzas": 21751,
    "comed": 8548,
    "Ġdusk": 12331,
    "Ġassistance": 6335,
    "floated": 24644,
    "Ġvapors": 19910,
    "Ġ123": 24468,
    "creation": 14809,
    "Ġeffemin": 18541,
    "Ġcollege": 11426,
    "Ġdropt": 23676,
    "ourselves": 9014,
    "ications": 4448,
    "Ġqueens": 16705,
    "Ġcarted": 21353,
    "Ġviolet": 19092,
    "Ġpetty": 19598,
    "Ġlonged": 6437,
    "successively": 24778,
    "raham": 18016,
    "Ġimmort": 19487,
    "Ġraving": 16117,
    "llable": 6879,
    "ulating": 10889,
    "ilted": 21726,
    "Ě": 219,
    "Ġland": 1995,
    "Ġhemis": 21687,
    "jammed": 25907,
    "iations": 11497,
    "Ġprosperity": 20260,
    "Ġidentity": 2523,
    "therefore": 5955,
    "Ġsinusoidal": 4802,
    "uther": 8821,
    "Ġheaved": 9386,
    "Ġwrit": 8242,
    "Ġembarks": 22962,
    "Ġconcern": 2655,
    "Ġtranced": 18422,
    "yours": 7695,
    "inclined": 10642,
    "exped": 16526,
    "Ġneighbours": 8303,
    "shoals": 24716,
    "pad": 13771,
    "Ġbidirectional": 3757,
    "Ġprogeny": 17391,
    "domestic": 19828,
    "Ġcarpets": 18904,
    "etts": 12665,
    "Ġcoopers": 20525,
    "addition": 13388,
    "circumstance": 7764,
    "testing": 12521,
    "Ġplaus": 22604,
    "oubted": 5861,
    "\",": 10681,
    "Ġpebbles": 16133,
    "harbor": 13568,
    "Ġchambermaid": 24306,
    "Ġreaches": 18034,
    "Ġtowing": 9196,
    "console": 22475,
    "$": 8,
    "woe": 21138,
    "Ġfrenz": 25447,
    "Ġabridged": 26542,
    "hav": 20899,
    "Ġfetched": 24568,
    "Ġfavourably": 16365,
    "Ġinquire": 7720,
    "Ġdiscover": 4719,
    "Ġsweep": 8266,
    "Ġscener": 10951,
    "Ġgleamed": 17078,
    "Ġ182": 13242,
    "Ġribbed": 16806,
    "alluring": 18353,
    "Ġdisconsol": 18558,
    "surprise": 9533,
    "onted": 11570,
    "Ġbroadway": 23987,
    "Ġmons": 10159,
    "length": 7136,
    "Ġcandid": 4101,
    "Ġinfallible": 15074,
    "Ġvestibule": 13540,
    "Ġillinois": 19138,
    "Ġhair": 3313,
    "Ġdr": 2820,
    "intim": 22937,
    "yield": 13812,
    "slide": 24556,
    "Ġburns": 16524,
    "Ġformal": 2939,
    "Ġprinted": 11954,
    "Ġbowels": 9433,
    "Ġadie": 8491,
    "Ġtarn": 21161,
    "loo": 10322,
    "Ġlivers": 18462,
    "Ġcurling": 9344,
    "Ġwhaleboats": 18479,
    "Ġmorcar": 13020,
    "Ġpirates": 9076,
    "Ġprophes": 16352,
    "ineer": 11705,
    "Ġascent": 19621,
    "ster": 1951,
    "Ġlard": 13950,
    "expressing": 16803,
    "Ġproposal": 10022,
    "Ġsar": 21216,
    "model": 4279,
    "Ġdeepest": 8215,
    "sick": 13787,
    "ounce": 6559,
    "oubtedly": 6943,
    "uendoes": 26409,
    "Ġsoftly": 7948,
    "Ġrepeated": 3834,
    "Ġmexic": 14035,
    "organ": 15578,
    "ourers": 21452,
    "Ġeternity": 12283,
    "Ġcotton": 17382,
    "communication": 25881,
    "render": 10293,
    "Ġserenity": 10031,
    "ulation": 5458,
    "ignific": 11960,
    "Ġjoin": 4855,
    "wherein": 19109,
    "Ġaudience": 24768,
    "english": 2771,
    "Ġdesperate": 7777,
    "Ġanalogy": 25640,
    "Ġmot": 2982,
    "Ġcomprehension": 15090,
    "enough": 6810,
    "gallant": 7781,
    "iration": 4542,
    "prejudiced": 17300,
    "Ġtower": 8319,
    "ades": 5631,
    "Ġern": 8397,
    "Ġsaw": 1350,
    "Ġbol": 6243,
    "atra": 17773,
    "Ġsavor": 23878,
    "Ġsensitive": 13203,
    "Ġsensibly": 14515,
    "Ġbonnet": 10658,
    "Ġrecre": 22747,
    "moderate": 22858,
    "compl": 6873,
    "Ġchurchyard": 16779,
    "Ġcologne": 12980,
    "Ġgra": 415,
    "Ġinn": 4592,
    "Ġjonah": 3482,
    "acity": 5735,
    "Ġtemporary": 7981,
    "ĠĠĠĠĠĠĠĠĠĠĠĠĠĠĠĠĠĠĠĠĠĠĠĠĠĠĠĠĠ": 19702,
    "poss": 4779,
    "crossing": 19414,
    "Ġscience": 1549,
    "Ġfireboard": 23535,
    "Ġbuttoned": 25369,
    "Ġgunwales": 12245,
    "ious": 771,
    "ricade": 13043,
    "Ġforgotten": 5679,
    "Ġjud": 3360,
    "impe": 21711,
    "etween": 774,
    "reject": 21239,
    "inian": 21185,
    "descried": 11933,
    "Ġmeant": 3552,
    "Ġwalked": 3137,
    "Ġdeformity": 11679,
    "Ġspitz": 14151,
    "Ġemb": 1224,
    "instance": 24171,
    "Ġladen": 19179,
    "Ġsimultaneously": 4315,
    "Ġshunned": 17296,
    "Ġpreyed": 18367,
    "verize": 21732,
    "Ġtw": 841,
    "bonnet": 25743,
    "Ġburke": 19253,
    "rail": 10207,
    "Ġdubious": 17386,
    "aways": 15314,
    "Ġeffects": 7236,
    "crowded": 20193,
    "mighty": 9469,
    "eager": 12464,
    "ration": 2002,
    "Ġardu": 22182,
    "Ġfleeting": 19329,
    "Ġtierce": 15481,
    "angling": 14143,
    "Ġinsolent": 13604,
    "thur": 7188,
    "ô": 181,
    "Ġtide": 6661,
    "Ġawed": 23587,
    "Ġwidespread": 20678,
    "Ġseeming": 8542,
    "distinct": 13340,
    "pronouncing": 25194,
    "Ġmildly": 9032,
    "Ġscor": 8191,
    "ier": 1137,
    "Ġretrogression": 26583,
    "Ġchanged": 5243,
    "ultaneous": 18583,
    "Ġextracting": 11113,
    "daggoo": 13710,
    "Ġwhitt": 18057,
    "Ġlion": 9678,
    "Ġtwilight": 16125,
    "Ġhugest": 17017,
    "Ġonly": 787,
    "ghan": 19458,
    "Ġbrook": 13053,
    "interruption": 20115,
    "sigma": 2999,
    "Ġgpt": 4354,
    "Ġdelicate": 6481,
    "Ġhonour": 3925,
    "Ġclearer": 16316,
    "Ġcellars": 24666,
    "Ġelated": 18634,
    "Ġfield": 1231,
    "rolling": 9063,
    "boys": 13364,
    "Ġsafely": 9028,
    "Ġclicked": 22360,
    "Ġsneeze": 24698,
    "Ġindicated": 10471,
    "civil": 7797,
    "Ġmicha": 17813,
    "whom": 8185,
    "umul": 1291,
    "Ġreplete": 15702,
    "Ġprofits": 16491,
    "Ġkissed": 10048,
    "enjoyment": 17260,
    "Ġsoften": 23126,
    "Ġsharkish": 24506,
    "Ġpattering": 18655,
    "Ġbarbarians": 19590,
    "Ġunstructured": 3000,
    "Ġlingu": 11617,
    "Ġattent": 4364,
    "Ġscandinav": 19964,
    "Ġbond": 21387,
    "Ġfluttered": 16253,
    "Ġmonarchs": 25851,
    "Ġsoul": 2723,
    "Ġprogramming": 1182,
    "utmost": 21591,
    "appointment": 24062,
    "recurring": 24197,
    "Ġleviathanic": 12085,
    "adopt": 25545,
    "Ġpervading": 20616,
    "Ġregularly": 7658,
    "Ġagency": 11810,
    "Ġunassuming": 20512,
    "Ġxxii": 24478,
    "Ġtypewriter": 19099,
    "Ġdiscount": 22785,
    "cures": 20807,
    "Ġcircular": 13115,
    "wondered": 17118,
    "Ġtang": 13817,
    "endure": 22229,
    "Ġintervals": 5598,
    "Ġsleeve": 20143,
    "umnal": 18301,
    "Ġimpotently": 22394,
    "original": 9088,
    "Ġlovely": 4711,
    "itchen": 7788,
    "ŀ": 257,
    "Ġsway": 7571,
    "aunted": 20772,
    "Ġdreamy": 14706,
    "Ġporing": 21470,
    "Ġrifled": 21980,
    "Ġchurch": 4712,
    "Ġdeficiency": 14405,
    "Ġplains": 14625,
    "remediable": 26296,
    "Ġtended": 21169,
    "chambers": 25455,
    "Ġwrest": 11574,
    "Ġextremest": 19196,
    "eat": 11485,
    "ula": 2821,
    "Ġtraced": 10386,
    "ring": 1752,
    "Ġexal": 10879,
    "Ġplainpalais": 20739,
    "Ġpleasantest": 24140,
    "Ġdoubloons": 13438,
    "Ġhawk": 15177,
    "Ġlads": 8601,
    "Ġdivulged": 16651,
    "owed": 2269,
    "widely": 25344,
    "initions": 21190,
    "Ġintricate": 15141,
    "ioneer": 15636,
    "ged": 1514,
    "represented": 20198,
    "Ġsill": 10767,
    "Ġnear": 1716,
    "gall": 6361,
    "resentment": 15189,
    "rope": 3183,
    "Ġlistener": 16477,
    "Ġphilosop": 5057,
    "nourished": 26400,
    "Ġpotential": 3623,
    "cent": 8073,
    "ivened": 22975,
    "Ġdrow": 21429,
    "conject": 8883,
    "ization": 487,
    "Ġshelves": 15000,
    "Ġrepel": 23362,
    "Ġsund": 8248,
    "Ġrough": 7187,
    "self": 617,
    "ohog": 9846,
    "useful": 16505,
    "Ġdews": 21843,
    "Ġsupport": 6730,
    "alth": 3254,
    "Ġsubord": 22791,
    "passing": 14815,
    "Ġstupidity": 15053,
    "teak": 22818,
    "Ġsol": 1103,
    "oured": 2670,
    "emy": 14076,
    "Ġsalut": 10512,
    "Ġproved": 4885,
    "Ġfloor": 4382,
    "Ġfatally": 19397,
    "Ġworaciousness": 22932,
    "Ġusefulness": 19411,
    "Ġrevolt": 24504,
    "Ġhoary": 23357,
    "Ġwreak": 16819,
    "storm": 9685,
    "Ġunintellig": 22028,
    "Ġmaster": 3684,
    "Ġwits": 15535,
    "ores": 2412,
    "Ġriver": 5411,
    "Ġlapl": 19780,
    "described": 18897,
    "Ġretribution": 16284,
    "Ġapproached": 5844,
    "Ġlascar": 9202,
    "Ġcrab": 13148,
    "hunters": 16835,
    "Ġpreserve": 7529,
    "lant": 20949,
    "Ġoverpowered": 15292,
    "Ġexasperated": 11414,
    ",âĢĻâĢĶ": 23530,
    "didst": 19352,
    "Ġcalmer": 23045,
    "Ġforbear": 17124,
    "bottom": 11428,
    "Ġhook": 6454,
    "clinging": 20824,
    "tese": 21086,
    "Ġpequod": 2320,
    "needle": 20316,
    "ato": 17771,
    "Ġ126": 24471,
    "theirs": 23604,
    "Ġsgd": 3126,
    "Ġfurrow": 22816,
    "genteel": 19952,
    "Ġstructured": 2969,
    "Ġwhispering": 14948,
    "fashion": 8081,
    "Ġgenerating": 12854,
    "Ġent": 902,
    "Ġreel": 9216,
    "farmer": 25900,
    "Ġindication": 22955,
    "Ġprocure": 9513,
    "Ġmet": 1885,
    "origin": 7582,
    "Ġwarmth": 6905,
    "persuaded": 15077,
    "Ġlayers": 816,
    "Ġtong": 4871,
    "Ġcondense": 21812,
    "watson": 12248,
    "although": 8810,
    "Ġtuesday": 9629,
    "ria": 15801,
    "Ġexhilar": 19686,
    "iring": 1707,
    "flutter": 23974,
    "arms": 10176,
    "Ġsocks": 14137,
    "Ġforced": 4356,
    "Ġleader": 14705,
    "authority": 13595,
    "Ġreaction": 15699,
    "Ġexistence": 4708,
    "Ġpartial": 2130,
    "Ġeagerly": 4990,
    "Ġornament": 11724,
    "ent": 305,
    "quished": 21858,
    "Ġgallied": 19559,
    "Ġlulled": 17971,
    "Ġmoments": 4847,
    "Ġbranches": 6777,
    "bermaid": 20792,
    "Ġfollows": 7673,
    "Ġluxuries": 25167,
    "skeleton": 17379,
    "feet": 6570,
    "Ġclutches": 20021,
    "Ġartfully": 22599,
    "Ġswung": 6450,
    "mouthful": 25209,
    "ocris": 23711,
    "ishes": 6524,
    "gratulation": 24349,
    "Ġquestions": 3974,
    "Ġ110": 24435,
    "Ġnew": 1195,
    "Ġtugged": 17291,
    "exposure": 19259,
    "Ġfem": 6136,
    "Ġunfrequently": 20741,
    "Ġthreading": 23405,
    "Ġpeaked": 2294,
    "knight": 20942,
    "Ġimperfect": 13344,
    "Ġgrove": 12151,
    "ources": 2785,
    "hil": 8379,
    "Ġdistension": 22508,
    "Ġslavish": 23177,
    "pread": 7418,
    "Ġforgiveness": 16659,
    "Ġascertain": 9709,
    "Ġspite": 4160,
    "million": 25752,
    "Ġprojected": 16873,
    "arled": 21445,
    "Ġbattered": 17864,
    "Ġsneezing": 12252,
    "30": 20756,
    "Ġrhone": 25231,
    "Ġisolation": 17153,
    "apparent": 11044,
    "Ġtu": 6969,
    "Ġplates": 11009,
    "Ġdoubloon": 6945,
    "otions": 7181,
    "Ġsubjects": 7074,
    "Ġinterm": 14271,
    "oons": 12503,
    "Ġbled": 17858,
    "perch": 18340,
    "eridge": 15529,
    "serve": 13052,
    "bewil": 22502,
    "mouthed": 12404,
    "Ġunhappiness": 14121,
    "Ġsuspicion": 6213,
    "Ġsle": 2012,
    "Ġpuzzle": 11307,
    "ill": 447,
    "Ġdreams": 7496,
    "Ġmurderers": 16813,
    "Ġexotic": 21835,
    "Ġinter": 728,
    "madly": 24420,
    "Ġstopped": 5958,
    "Ġduplicates": 17219,
    "_),": 7127,
    "Ġtus": 10751,
    "Ġfriendship": 7246,
    "trade": 19647,
    "bled": 5469,
    "other": 1317,
    "Ġenclosure": 20627,
    "Ġstress": 18072,
    "Ġcomplicated": 14738,
    "Ġje": 4126,
    "))": 1517,
    "Ġdoth": 13911,
    "Ġmanhood": 22330,
    "hom": 12478,
    "Ġcurios": 18845,
    "Ġscott": 22290,
    "Ġprick": 14479,
    "Ġserve": 9371,
    "heavens": 19748,
    "Ġfury": 7661,
    "Ġbanqu": 12593,
    "season": 14037,
    "Ġper": 587,
    "Ġrespected": 11957,
    "Ġmoved": 4841,
    "Ġgifts": 21615,
    "abri": 6684,
    "Ġvertu": 23893,
    "Ġbeheaded": 11659,
    "Ġineff": 12639,
    "Ġgloves": 8578,
    "angels": 22110,
    "Ġdevote": 10341,
    "Ġgreeted": 23212,
    "terms": 15755,
    "Ġstile": 21739,
    "pict": 8386,
    "Ġsleeper": 8604,
    "Ġadorn": 12795,
    "Ġthyself": 6604,
    "Ġstumble": 26485,
    "Ġcounterpart": 24720,
    "Ġamsterdam": 22488,
    "veil": 18045,
    "Ġsurp": 9637,
    "ging": 2600,
    "Ġeyel": 17097,
    "Ġprimary": 25063,
    "pha": 22780,
    "onstr": 12551,
    "Ġridge": 14822,
    "ixed": 4853,
    "Ġimperson": 14221,
    "Ġdomineering": 23706,
    "yder": 10141,
    "Ġtwain": 16123,
    "Ġmelt": 21320,
    "Ġconcept": 667,
    "Ġanatomical": 15080,
    "Ġnursing": 12219,
    "Ġhenry": 5197,
    "Ġdetermining": 14424,
    "ash": 1990,
    "python": 4693,
    "omnipotent": 25965,
    "elopement": 23162,
    "Ġexter": 7397,
    "Ġnash": 5820,
    "Ġcontrols": 1731,
    "Ġpuff": 6527,
    "Ġpopularly": 12246,
    "Ġsched": 2336,
    "Ġiterate": 13205,
    "Ġoily": 13867,
    "Ġflush": 14427,
    "Ġpages": 15612,
    "ĠâĢĶâĢľ_": 17720,
    "Ġfleetness": 20182,
    "Ġpleasurable": 23341,
    "cred": 9111,
    "mises": 20980,
    "Ġeldest": 6573,
    "Ġfancying": 12117,
    "Ġdissip": 10994,
    "Ġgrammatical": 13542,
    "hears": 12538,
    "sy": 2684,
    "Ġpeeling": 22695,
    "Ġoutput": 929,
    "Ġbutts": 15859,
    "regarded": 12012,
    "Ġindiscreet": 22959,
    "Ġtools": 11612,
    "intellig": 5321,
    "Ġvegetables": 15225,
    "Ġeighteenth": 14757,
    "Ġimpatience": 7509,
    "approaching": 15014,
    "Ġnaked": 8127,
    "Ġindifferent": 6176,
    "Ġagreeing": 20022,
    "backward": 2681,
    "Ġfowls": 8694,
    "Ġallies": 18235,
    "lover": 18537,
    "netherfield": 9816,
    "gained": 20883,
    "meal": 22716,
    "Ġsche": 1705,
    "Ġannealing": 1553,
    "Ġsharp": 2413,
    "Ġwestern": 10657,
    "sprit": 11384,
    "detective": 24383,
    "Ġfellow": 2773,
    "announced": 19762,
    "gown": 9599,
    "seemingly": 25363,
    "anger": 2173,
    "Ġneedless": 19230,
    "Ġhate": 5445,
    "Ġtries": 9153,
    "flask": 12104,
    "Ġfrequent": 3285,
    "throt": 25660,
    "dipped": 20839,
    "measureless": 20238,
    "dressing": 11484,
    "produ": 10722,
    "plun": 15819,
    "Ġawkwardness": 13491,
    "Ġanointing": 25540,
    "Ġcedar": 15192,
    "urements": 18127,
    "eding": 7166,
    "Ġjungfrau": 15252,
    "ilet": 12834,
    "anations": 12581,
    "Ġdispleased": 18556,
    "Ġincident": 6282,
    "Ġtant": 12530,
    "Ġparties": 7040,
    "Ġday": 956,
    "exhibited": 18478,
    "Ġguide": 3214,
    "Ġreck": 6539,
    "ray": 2434,
    "Ġcalcul": 3641,
    "opotam": 22483,
    "Ġdeed": 7868,
    "Ġnupt": 13946,
    "Ġdante": 21441,
    "Ġramad": 8530,
    "Ġcold": 3027,
    "Ġwant": 1115,
    "wives": 15458,
    "Ġgranting": 18737,
    "Ġrecent": 7436,
    "after": 2892,
    "Ġhover": 15624,
    "Ġrattler": 24998,
    "Ġincalculable": 17463,
    "Ġprosper": 10231,
    "cheer": 9440,
    "Ġmake": 1287,
    "discharging": 26306,
    "Ġcriminals": 19924,
    "Ġflora": 11418,
    "Ġbuoyed": 20044,
    "Ġ85": 24460,
    "princip": 17139,
    "walton": 20252,
    "ī": 236,
    "Ġlets": 18066,
    "Ġmilliner": 19886,
    "Ġfairly": 6327,
    "roqu": 21537,
    "_,âĢĻâĢĿ": 20404,
    "vari": 1518,
    "solid": 16381,
    "Ġexpanded": 14292,
    "Ġsticks": 14934,
    "Ġshone": 7404,
    "langu": 4808,
    "Ġrepresenting": 4062,
    "power": 7138,
    "Ġnosegay": 24195,
    "Ġreputation": 11643,
    "Ġpitiless": 19391,
    "hus": 5072,
    "adequately": 20322,
    "Ġcharcoal": 19008,
    "umst": 2503,
    "os": 524,
    "Ġsurgeon": 8984,
    "Ġaccused": 8510,
    "room": 2179,
    "Ġalex": 15137,
    "Ġexult": 10232,
    "urried": 21707,
    "idled": 21772,
    "Ġprey": 6416,
    "shown": 22448,
    "Ġbroke": 5323,
    "Ġglided": 7447,
    "Ġkeep": 2355,
    "Ġsurpl": 19134,
    "exertion": 16020,
    "contented": 14636,
    "Ġstrands": 25575,
    "Ġ87": 19713,
    "Ġthine": 7374,
    "Ġimbecile": 17395,
    "Ġprosperous": 15174,
    "prison": 14665,
    "Ġfre": 1572,
    "taffrail": 15445,
    "Ġdictionary": 15116,
    "Ġunbroken": 18251,
    "Ġoversampling": 20519,
    "mysterious": 26053,
    "orters": 21404,
    "osity": 14188,
    "arent": 4253,
    "Ġthoughts": 3134,
    "greek": 25405,
    "Ġrespectively": 23251,
    "Ġtwine": 14314,
    "Ġanyways": 22524,
    "belongs": 25597,
    "Ġrighteous": 18948,
    "Ġspur": 18304,
    "itar": 15551,
    "Ĳ": 243,
    "calabash": 22896,
    "ture": 7558,
    "Ġunsub": 22025,
    ">": 34,
    "Ġsurest": 19056,
    "Ġensuring": 11193,
    "shold": 2770,
    "Ġspile": 22131,
    "Ġgasped": 11374,
    "Ġmovable": 22437,
    "bethink": 25745,
    "Ġstoner": 7179,
    "Ġwelcomed": 9485,
    "doubtful": 24790,
    "northern": 23666,
    "ocation": 14628,
    "Ġdeeper": 2085,
    "Ġreserves": 19673,
    "Ġsow": 17751,
    "71": 20758,
    "vand": 21111,
    "agitation": 14071,
    "Ġspoils": 24805,
    "unreasonable": 18165,
    "erness": 6435,
    "Ġgrego": 18963,
    "Ġelucidated": 26030,
    "promised": 12256,
    "Ġprompted": 23820,
    "ctu": 5088,
    "iber": 6507,
    "Ġeasiness": 23540,
    "Ġpanelled": 19657,
    "Ġcoiled": 11824,
    "capting": 24042,
    "Ġdepresses": 25798,
    "hurry": 24762,
    "Ġelder": 7223,
    "knowledge": 7478,
    "Ġbuttoning": 17238,
    "provoke": 26072,
    "explanations": 25235,
    "ropy": 1102,
    "Ġunhallowed": 17183,
    "Ġnay": 5711,
    "Ġmicrosc": 20679,
    "Ġhonor": 5664,
    "ail": 567,
    "ined": 1263,
    "í": 174,
    "Ġcompar": 4772,
    "Ġsurface": 5119,
    "Ġgradients": 611,
    "aving": 2404,
    "exagger": 22432,
    "fitting": 1511,
    "Ġtendinous": 16933,
    "Ġlinks": 13958,
    "Ó": 148,
    "Ġdiver": 2529,
    "Ġinde": 7371,
    "Ġintending": 11708,
    "Ġinterchange": 16075,
    "Ġlitter": 19832,
    "network": 1915,
    "Ġdeaths": 14539,
    "eth": 619,
    "knot": 13748,
    "Ġendeav": 2952,
    "Ġhuff": 21493,
    "Ġsincerely": 7963,
    "cool": 19189,
    "iny": 4298,
    "Ġstraight": 3705,
    "events": 12321,
    "Ġstyled": 24672,
    "enty": 2912,
    "Ġwake": 4750,
    "âĢĶâĢĶâĢĿ": 15943,
    "Ġour": 1010,
    "apothe": 22339,
    "stirred": 20428,
    "laughed": 20284,
    "|": 96,
    "Ġmeans": 699,
    "beards": 22495,
    "icable": 6389,
    "Ġacceptance": 14830,
    "ners": 3270,
    "piled": 21017,
    "Ġmaiden": 13390,
    "Ġrussia": 26269,
    "Ġevolved": 9895,
    "subs": 14304,
    "enances": 10156,
    "trop": 15439,
    "Ġshaping": 22007,
    "thee": 9693,
    "Ġdeparture": 6491,
    "bergs": 18695,
    "Ġtinged": 20086,
    "orious": 6009,
    "icles": 17975,
    "prince": 23818,
    "inctions": 17734,
    "Ġjollity": 25567,
    "Ġbreakfast": 3977,
    "omn": 15686,
    "improve": 15716,
    "Ġwomanly": 23554,
    "convul": 24884,
    "Ġdebt": 12172,
    "azing": 7705,
    "whips": 22242,
    "Ġmistaking": 23721,
    "iteous": 14264,
    "waistcoat": 17364,
    "diff": 9116,
    "Ġwearisome": 19798,
    "Ġsystematic": 5245,
    "Ġcliffs": 15975,
    "Ġinspirited": 23423,
    "erting": 17779,
    "written": 7995,
    "Ġexquisitely": 20205,
    "Ġrefres": 14347,
    "ethics": 8881,
    "Ġwon": 1666,
    "charge": 9451,
    "saddest": 25528,
    "Ġnearer": 5303,
    "lar": 4486,
    "Ġawe": 7148,
    "grief": 13734,
    "hy": 4741,
    "Ġboasting": 19939,
    "Ġbutton": 10270,
    "Ġcheerful": 6624,
    "Ġraven": 16118,
    "Ġscrape": 14921,
    "Ġapproximation": 2340,
    "Ġunappe": 22020,
    "Ġrephrased": 26479,
    "Ġtraged": 9355,
    "Ġstruggled": 9908,
    "Ġdecoding": 3077,
    "Ġterritories": 23849,
    "stands": 22439,
    "cherish": 24552,
    "Ġamb": 9295,
    "begged": 18521,
    "ighb": 10425,
    "ificant": 22215,
    "Ġassisted": 11112,
    "Ġplacid": 11830,
    "Ġalighted": 18106,
    "Ġexpansion": 22627,
    "ack": 610,
    "ourage": 2448,
    "somewhere": 12017,
    "Ġexhale": 24402,
    "petulance": 24301,
    "retreat": 23142,
    "zza": 24170,
    "Ġantip": 24180,
    "Ġut": 2277,
    "Ġnoting": 18222,
    "Ġhen": 3504,
    "spirited": 19756,
    "Ġtorch": 25033,
    "concerned": 24639,
    "Ġelapsed": 7653,
    "Ġbarrier": 16571,
    "Ġjob": 7017,
    "Ġcharacteristically": 23691,
    "Ġlowers": 23245,
    "Ġimpossibility": 20649,
    "Ġgentlemanlike": 12071,
    "atural": 941,
    "æ": 167,
    "Ġdrink": 4788,
    "Ġmarry": 4421,
    "Ġdiscourse": 9801,
    "overhearing": 19052,
    "Ġmantel": 11441,
    "Ġbegging": 11082,
    "obser": 11101,
    "Ġleather": 7604,
    "abroad": 18111,
    "Ġsickly": 16776,
    "published": 26143,
    "Ġcredited": 25157,
    "Ġinexorable": 12260,
    "Ġpacked": 9983,
    "Ġpirate": 14998,
    "build": 12192,
    "Ġproposition": 23252,
    "Ġlegend": 14577,
    "Ġpremature": 3728,
    "chapter": 1405,
    "Ġgoest": 22427,
    "Ġwhistle": 9068,
    "rics": 13042,
    "Ġhost": 7070,
    "Ġlandlessness": 23383,
    "â": 163,
    "ung": 2743,
    "performed": 18343,
    "ements": 11109,
    "Ġconfounded": 16384,
    "Ġcontented": 9759,
    "miraculous": 26398,
    "itan": 10162,
    "comfort": 5647,
    "oted": 4599,
    "Ġcordage": 19681,
    "Ġpolic": 13165,
    "Ġflattening": 26049,
    "Ġdark": 2114,
    "Ġsorry": 4214,
    "Ġmartha": 16266,
    "Ġabundant": 17157,
[...]
