{
  "metadata": {
    "vocab_size": 26616,
    "algorithm": "BPE",
    "created_at": "2026-06-30 06:09:23",
    "special_tokens": [
      "<PAD>",
      "<SOS>",
      "<EOS>",
      "<UNK>",
      "<MASK>"
    ]
  },
  "vocab": {
    "Ġmasonry": 13603,
    "Ġdetermines": 2363,
    "Ġburgl": 13177,
    "civilities": 24974,
    "luxur": 25823,
    "relation": 19450,
    "Ġincome": 7917,
    "Ġconsequ": 6255,
    "prov": 16426,
    "ancies": 11587,
    "Ġerect": 6144,
    "Ġassembled": 9239,
    "subtle": 24245,
    "acetti": 13400,
    "&": 10,
    "Ġpitiless": 19391,
    "architect": 22894,
    "oned": 4630,
    "Ġassumed": 9468,
    "Ġwithout": 1123,
    "inuating": 16207,
    "ierce": 14394,
    "linearity": 1651,
    "Ġtower": 8319,
    "rodden": 21538,
    "Ġstiffness": 24828,
    "Ġrapt": 7225,
    "Ġwholesome": 16009,
    "Ġwipe": 25765,
    "Ġpals": 13921,
    "Ġtube": 15005,
    "oe": 7552,
    "Ġgamb": 18000,
    "Ġearnest": 3926,
    "rayed": 23565,
    "staff": 21659,
    "anoke": 21364,
    "charm": 13993,
    "Ġhave": 445,
    "Ġfalsely": 20585,
    "screw": 9349,
    "wail": 21128,
    "shortened": 24747,
    "ugal": 19023,
    "Ġwhir": 6393,
    "respectively": 24699,
    "oded": 11672,
    "Ġsundry": 20077,
    "baron": 24926,
    "athy": 14326,
    "Ġparents": 6753,
    "dried": 20829,
    "Ġattack": 5478,
    "prison": 14665,
    "eu": 17532,
    "Ġmanner": 2196,
    "Ġunfathomable": 20551,
    "Ġgaining": 9495,
    "Ġcruellest": 19661,
    "Ġconcerned": 5332,
    "Ġdiscuss": 9477,
    "Ġgenerative": 5644,
    "Ġimpenet": 14223,
    "Ġfamed": 16330,
    "Ġduties": 6610,
    "Ġgarden": 3824,
    "aco": 12911,
    "Ġterms": 2561,
    "Ġconducted": 10505,
    "aked": 2015,
    "Ġreputation": 11643,
    "Ġlub": 15653,
    "Ġcaliforn": 14434,
    "Ġdatasets": 2385,
    "sprinkling": 24913,
    "iloqu": 11651,
    "lesc": 11040,
    "Ġransacked": 26506,
    "gird": 20881,
    "ay": 355,
    "Ġburn": 3682,
    "ignant": 11131,
    "Ġslee": 8977,
    "altering": 12645,
    "liber": 18815,
    "heavens": 19748,
    "Ġdaintiest": 25954,
    "Ġbund": 17865,
    "Ġpink": 12623,
    "Ġstone": 4645,
    "isite": 15567,
    "_âĢĶ": 11469,
    "Ġspeak": 2230,
    "Ġcongrat": 5828,
    "recover": 24623,
    "Ġagitates": 22521,
    "fever": 22506,
    "Ġincorruption": 26310,
    "Ġtener": 21166,
    "cushion": 20823,
    "Ġstronger": 8581,
    "Ġfirm": 3868,
    "ival": 4223,
    "Ý": 158,
    "Ġrespectively": 23250,
    "Ġunaware": 22061,
    "Ġthee": 2621,
    "oration": 2209,
    "Ġcruc": 16537,
    "riors": 18185,
    "lacing": 17592,
    "Ġwelfare": 12564,
    "situ": 9624,
    "Ġadmeasurements": 26227,
    "Ġinvoking": 19147,
    "Ġintrodu": 1925,
    "Ġdoxology": 22248,
    "Ġcontriv": 9285,
    "orders": 12880,
    "Ġsatir": 18795,
    "pay": 10720,
    "evil": 11488,
    "Ġfurnish": 9022,
    "Ġjunior": 15103,
    "Ġhardly": 2430,
    "Ġkink": 22197,
    "Ġbenches": 18782,
    "Ġpips": 9851,
    "Ġsluggishly": 25892,
    "Ġtick": 8109,
    "yourself": 6743,
    "vult": 21116,
    "Ġswallowed": 7944,
    "Ġvort": 18194,
    "oul": 4699,
    "Ġnovels": 15933,
    "Ġmantle": 25275,
    "Ġmomentary": 11038,
    "us": 532,
    "Ġformation": 2942,
    "coach": 23562,
    "vol": 720,
    "Ġat": 395,
    "Ġthews": 21280,
    "Ġsculpt": 15950,
    "Ġnothing": 1360,
    "Ġactive": 7915,
    "Ġprevailing": 24674,
    "Ġign": 8295,
    "entiful": 10838,
    "Ġrigging": 5601,
    "Ġdesist": 16240,
    "Ġfossil": 12391,
    "Ġpalsy": 25779,
    "supportable": 12374,
    "Ġhunt": 6184,
    "Ġgiant": 13971,
    "Ġdesertion": 24786,
    "Ġmogul": 12867,
    "sullenly": 26150,
    "restored": 18979,
    "Ø": 153,
    "Ġimport": 1026,
    "Ġsimon": 5172,
    "stay": 9684,
    "Ġworaciousness": 22932,
    "upp": 10133,
    "Ġgovernments": 20270,
    "jeroboam": 25620,
    "Ġelias": 18635,
    "Ġprobable": 5570,
    "Ġcurric": 23008,
    "Ġcholera": 22257,
    "yours": 7695,
    "ard": 465,
    "Ġz": 1000,
    "Ġfacet": 15589,
    "Ġattained": 14081,
    "Ġcured": 21350,
    "Ġcanaller": 25468,
    "Ġpupils": 20424,
    "propagation": 1264,
    "Ġworth": 4414,
    "Ġstern": 4218,
    "orter": 4251,
    "Ġsubstances": 24166,
    "omit": 13977,
    "sterdam": 19091,
    "tained": 4403,
    "Ġunfor": 15843,
    "Ġrephr": 21682,
    "Ġsmilingly": 22564,
    "Ġpirates": 9076,
    "soled": 14337,
    "Ġpreacher": 18370,
    "Ġisle": 8837,
    "older": 15760,
    "Ġcontemplation": 11359,
    "Ġbottomless": 12111,
    "desire": 14664,
    "Ġsl": 1499,
    "Ġupd": 947,
    "Ġdisappearance": 9300,
    "Ġbountiful": 25945,
    "Ġthus": 2037,
    "Ġpicking": 11261,
    "Ġpaddling": 25286,
    "Ġpaintings": 15058,
    "ousings": 18336,
    "question": 5418,
    "stooped": 23825,
    "blasted": 20192,
    "Ġseek": 4505,
    "Ġcharacteristically": 23693,
    "Ġimpulses": 19965,
    "reported": 24493,
    "Ġminers": 22834,
    "Ġcastaways": 19431,
    "Ġpurp": 2389,
    "Ġbrightest": 13230,
    "nam": 2800,
    "Ġitem": 12706,
    "Ķ": 247,
    "Ġsport": 6689,
    "Ġnibbling": 17388,
    "âĢĶ(": 15942,
    "Ġconceit": 7294,
    "Ġbegone": 11921,
    "Ġjoking": 12842,
    "ants": 1387,
    "Ġmosses": 20166,
    "officers": 10630,
    "leman": 21371,
    "Ġblandly": 20326,
    "Ġnin": 10190,
    "Ġleg": 2332,
    "heavy": 10577,
    "Ġste": 1386,
    "onian": 17769,
    "ines": 663,
    "opposite": 19931,
    "mitting": 20975,
    "Ġparaphrasing": 26528,
    "whale": 2140,
    "Ġlevel": 5020,
    "forgot": 11035,
    "Ġpo": 738,
    "Ġinterruption": 9476,
    "Ġpresentation": 14483,
    "ruction": 4354,
    "steps": 9408,
    "like": 1885,
    "Ġinfatuated": 20536,
    "gently": 13731,
    "Ġcomforted": 19394,
    "Ġunconscious": 9550,
    "arthy": 4824,
    "Ġcarelessness": 13080,
    "ernal": 4308,
    "Ġsimil": 2531,
    "porary": 14553,
    "Ġthw": 21518,
    "inquir": 9539,
    "Ġeffect": 949,
    "Ġchannels": 26014,
    "Ġsequ": 984,
    "Ġindist": 14412,
    "estim": 14172,
    "gunw": 17223,
    "Ġforms": 6397,
    "ilated": 18060,
    "retion": 9366,
    "Ġ1": 1014,
    "Ġvir": 7001,
    "Ġfang": 21406,
    "Ġpedro": 15066,
    "Ġup": 463,
    "Ġrubbing": 9324,
    "Ġreturned": 2888,
    "Ġnash": 5820,
    "Ġvoy": 2618,
    "Ġwood": 2289,
    "impossible": 8828,
    "terogene": 21829,
    "Ġsanguine": 25929,
    "Ġtottenham": 24142,
    "ĠarchÃ¦": 22778,
    "Ġlik": 2521,
    "Ġseclusion": 18209,
    "Ġheartily": 6889,
    "Ġtu": 6968,
    "Ġinterven": 10999,
    "Ġfriendly": 9823,
    "Ġross": 2763,
    "Ã": 132,
    "Ġamericans": 14746,
    "shoes": 14241,
    "assin": 22309,
    "Ġlarge": 1066,
    "Ġhistory": 4002,
    "Ġfluid": 11214,
    "Ġfortunes": 12183,
    "Ġcompl": 3757,
    "Ġdarkened": 16436,
    "ost": 5361,
    "Ġac": 846,
    "Ġinstinctively": 13463,
    "snap": 24849,
    "doubted": 17528,
    "Ġgaieties": 24196,
    "Ġgate": 6824,
    "Ġjury": 5378,
    "Ġmanhandle": 22334,
    "pled": 7892,
    "Ġgiddy": 20500,
    "othed": 16513,
    "Ġvales": 21950,
    "Ġstructural": 2796,
    "Ġbeast": 7179,
    "Ġenchanting": 17040,
    "trembling": 17145,
    "Ġexhausted": 8697,
    "Ġescaped": 6459,
    "Ġadvantageously": 19548,
    "Ġspars": 3809,
    "rapidly": 15247,
    "tattoo": 21090,
    "Ġimaginations": 16518,
    "Ġleaped": 8830,
    "Ġq": 1086,
    "itional": 22472,
    "Ġbecame": 2691,
    "Ġdictator": 20156,
    "lement": 10169,
    "Ġbestowed": 6594,
    "falsehood": 25902,
    "54": 15303,
    "Ġsundial": 15086,
    "Ġchase": 3941,
    "Ġkindness": 4093,
    "Ġsympathies": 14864,
    "accustomed": 13161,
    "sideways": 14574,
    "Ġmarvellous": 7538,
    "Ġmaddening": 17245,
    "breaking": 14767,
    "Ġconversing": 14635,
    "Ġcondense": 21812,
    "iour": 4034,
    "home": 7340,
    "Ġconviction": 6327,
    "Ġchink": 15936,
    "Ġbattery": 21397,
    "Ġadmeasure": 18294,
    "@": 36,
    "Ġpossible": 2584,
    "Ġhorror": 3770,
    "renewed": 19707,
    "Ġuntouched": 16467,
    "forty": 9377,
    "Ġabsor": 8506,
    "Ġwildly": 9417,
    "Ġwithin": 2164,
    "Ġsurface": 5119,
    "Ġheroic": 14911,
    "Ġsee": 802,
    "Ġbag": 5699,
    "Ġunden": 22015,
    "Ġcom": 368,
    "gen": 6503,
    "Ġlord": 2966,
    "Ġsleepers": 13153,
    "Ġparting": 9786,
    "aways": 15314,
    "Ġproceed": 3245,
    "aired": 8369,
    "Ġgrammar": 1063,
    "Ġoccupied": 5273,
    "elter": 21574,
    "Ġrevelation": 25223,
    "Ġmatrim": 11061,
    "Ġmyster": 5926,
    "Ġconstantinople": 19840,
    "Ġreceptacle": 23198,
    "Ġdevoured": 16140,
    "seized": 14038,
    "Ġcontempl": 6702,
    "Ġscruples": 15082,
    "Ġspouting": 9442,
    "Ġmeddling": 21323,
    "Ġdeference": 10884,
    "Ġgeese": 7694,
    "ulged": 12735,
    "Ġlamentations": 17077,
    "Ġbasket": 9575,
    "discrimin": 19611,
    "Ġapolog": 9046,
    "Ġinnermost": 12165,
    "housekeeping": 24102,
    "aries": 6245,
    "Ġprovision": 14828,
    "Ġinsignificance": 20460,
    "sou": 12510,
    "Ġlowermost": 23244,
    "iven": 1235,
    "Ġharpoon": 3616,
    "gather": 20877,
    "athies": 22705,
    "Ġcruise": 12053,
    "Ġsubstance": 5510,
    "hetic": 12208,
    "Ġpanic": 11288,
    "fitted": 17546,
    "sad": 11523,
    "effort": 19216,
    "hills": 13739,
    "Ġupdates": 1299,
    "Ġgrapnels": 25552,
    "killer": 20479,
    "Ġ132": 19898,
    "Ġpratt": 23221,
    "assment": 9742,
    "Ġpunish": 12164,
    "Ġrespectable": 6737,
    "insisted": 23069,
    "Ġdeceitfulness": 25734,
    "Ġprecise": 7076,
    "Ġtilted": 20416,
    "Ġbolivia": 24668,
    "Ġev": 4830,
    "grin": 19107,
    "humor": 19455,
    "Ġmechanisms": 1579,
    "sank": 17664,
    "Ġstraits": 7994,
    "Ġcontraction": 16012,
    "arance": 4698,
    "considering": 12179,
    "Ġcousins": 9918,
    "Ġeyel": 17097,
    "Ġadvancing": 6876,
    "Ġcondensed": 24055,
    "Ġnimble": 21531,
    "lizzy": 6653,
    "gre": 5788,
    "isle": 13895,
    "Ġheathenish": 13620,
    "Ġstowing": 18074,
    "Ġtaking": 3251,
    "gue": 12472,
    "fam": 5989,
    "alescing": 23869,
    "Ġchapel": 9526,
    "Ġgloom": 4198,
    "onah": 3337,
    "fugitive": 26132,
    "pacific": 17643,
    "Ġreef": 10851,
    "liness": 8750,
    "Ġfrantic": 7957,
    "Ġrequirements": 9799,
    "irms": 18172,
    "Ġdone": 1816,
    "Ġdisadvantage": 12895,
    "Ġgomorrah": 21618,
    "darted": 20834,
    "Ġbrazier": 26322,
    "Ġbutterfly": 19912,
    "gee": 15981,
    "Ġlabour": 7273,
    "Ġchoking": 15938,
    "Ġshyness": 20309,
    "Ġwarrior": 24496,
    "Ġloved": 4598,
    "lucas": 15155,
    "Ġbetween": 793,
    "nar": 12498,
    "Ġmagnanim": 14476,
    "Ġsoftened": 11105,
    "itchen": 7787,
    "omb": 10208,
    "flex": 24844,
    "Ġunsuccessful": 18255,
    "Ġbanking": 19633,
    "pents": 11515,
    "Ġseventeen": 26212,
    "Ġsurveying": 25326,
    "Ġsatirical": 26281,
    "Ġbeam": 2876,
    "Ġdint": 15595,
    "Ġphilipp": 23887,
    "Ġlowering": 7987,
    "Ġkent": 6692,
    "Ġnotorious": 18224,
    "ifers": 15786,
    "Ġmetropolitan": 17278,
    "Ġguided": 10462,
    "Ġthanking": 18603,
    "manifested": 20529,
    "č": 206,
    "Ġmonomania": 17086,
    "Ġhandsomely": 25498,
    "belt": 24038,
    "Ġsuch": 794,
    "Ġquench": 22423,
    "germans": 20568,
    "Ġbrit": 6290,
    "Ġassertions": 19950,
    "Ġconsistent": 14530,
    "Ġinscrut": 10037,
    "Ġoppressed": 11191,
    "having": 5211,
    "Ġwaldman": 11347,
    "hunt": 20905,
    "midnight": 14905,
    "Ġsaws": 23052,
    "gia": 20878,
    "Ġdistributions": 1052,
    "Ġhatherley": 7849,
    "Ġtyros": 26102,
    "Ġfootmen": 23800,
    "conjectures": 25181,
    "elaborate": 21579,
    "Ġcomplain": 6686,
    "isturbed": 18298,
    "Ġstoop": 16314,
    "Ġchace": 14181,
    "extraordinary": 9098,
    "relig": 15515,
    "Ġmig": 13859,
    "reputation": 15518,
    "lorious": 17594,
    "Ġlock": 5928,
    "Ġsupreme": 13611,
    "Ġtestament": 23193,
    "aching": 5832,
    "top": 4482,
    "Ġwilful": 10537,
    "Ġbarbary": 24217,
    "ander": 6401,
    "Ġrecover": 9794,
    "Ġannals": 17900,
    "Ġchron": 19441,
    "Ġgales": 12670,
    "Ġwaifing": 25244,
    "Ġbi": 918,
    "Ġassist": 3565,
    "Ġmoses": 21318,
    "Ġruins": 16162,
    "Ġmicroscopic": 26375,
    "Ġstreamed": 14548,
    "Ġeager": 3571,
    "Ġmasts": 6465,
    "Ġcats": 8982,
    "travel": 24337,
    "common": 4123,
    "ffy": 18317,
    "satisfaction": 9995,
    "Ġkiss": 8183,
    "Ġsurprised": 3829,
    "Ġmoth": 17804,
    "Ġardently": 9501,
    "Ġbitter": 4167,
    "Ġhaul": 11696,
    "Ġrending": 19470,
    "Ġbedfellow": 16442,
    "Ġfun": 523,
    "Ġhideous": 5983,
    "Ġdire": 866,
    "Ġrind": 21973,
    "Ġreappearance": 21670,
    "Ġspeech": 4609,
    "anse": 12580,
    "ogn": 2460,
    "bethinking": 25746,
    "shel": 11934,
    "reed": 6373,
    "Ġattachment": 6050,
    "Ġthrice": 10578,
    "Ġinch": 7850,
    "Ġentities": 11868,
    "Ġfling": 9663,
    "ichever": 13960,
    "covered": 11479,
    "Ġinheriting": 25355,
    "ken": 2799,
    "Ġtwelvemonth": 12182,
    "Ġdiscipl": 22788,
    "ulsive": 10236,
    "Ġpretence": 13209,
    "Ġcongregated": 20100,
    "Ġarrangement": 2657,
    "Ġjetted": 24431,
    "request": 21244,
    "Ġeaves": 15680,
    "Ġconcealed": 7495,
    "Ġrejoinder": 24598,
    "Ġheh": 21683,
    "Ġsebastian": 11702,
    "injured": 15136,
    "Ġcommunication": 1869,
    "Ġresume": 18566,
    "Ġremainder": 9861,
    "prevailed": 17348,
    "rested": 13079,
    "alarms": 21508,
    "Ġstaggers": 24654,
    "Ġgladness": 16593,
    "Ġexercising": 19909,
    "Ġnatures": 16508,
    "waist": 13422,
    "Ġchili": 25562,
    "Ġopinions": 9418,
    "Ġevident": 6614,
    "Ġstrings": 11833,
    "inordinate": 21197,
    "Ġaccomp": 4713,
    "Ġpoker": 13925,
    "Ġ(": 595,
    "Ġshakes": 10906,
    "unbidden": 21898,
    "Ġsteed": 13045,
    "Ġrevisit": 21673,
    "Ġponder": 6818,
    "Ġdisown": 22528,
    "meaning": 2904,
    "oing": 15404,
    "animate": 12582,
    "outside": 12809,
    "Ġfrolic": 23928,
    "neville": 22464,
    "ggy": 13118,
    "Ġnut": 12651,
    "Ġsteel": 3886,
    "Ġener": 10898,
    "inence": 15484,
    "Ġurging": 24505,
    "Ġupbraid": 18319,
    "dread": 8732,
    "Ġbaling": 17861,
    "Ġopt": 782,
    "Ġbrother": 2747,
    "benevolently": 25601,
    "Ġpromethe": 14472,
    "entreat": 17978,
    "umberland": 16839,
    "somebody": 14568,
    "ĠĠĠĠĠĠĠĠĠĠĠĠĠĠĠĠĠĠĠĠĠĠĠĠĠĠĠĠĠĠĠĠĠĠĠĠ": 23668,
    "Ġsting": 10863,
    "again": 3399,
    "Ġtallow": 14782,
    "Ġharpoone": 2909,
    "Ġworked": 6584,
    "vital": 17702,
    "vanity": 24977,
    "Ġattractions": 12923,
    "Ġgrap": 11711,
    "Ġpanel": 13376,
    "ske": 13785,
    "Ġexcite": 11970,
    "access": 11182,
    "cut": 3124,
    "Ġvastly": 23863,
    "Ġbutchers": 18273,
    "unwillingness": 25803,
    "loun": 17590,
    "Ġdistinctly": 7310,
    "lucases": 20213,
    "Ġalco": 21786,
    "Ġfarther": 5955,
    "marrying": 19550,
    ".âĢĶ": 4244,
    "Ġdegradation": 2629,
    "gorith": 548,
    "roused": 16655,
    "sorts": 21063,
    "Ġtrusty": 24104,
    "Ġresounded": 22548,
    "Ġtriumphant": 12194,
    "approbation": 11460,
    "bered": 4501,
    "Ġnonsensical": 21532,
    "Ġverify": 12092,
    "darkness": 9515,
    "Ġquick": 2581,
    "Ġoarsman": 8641,
    "Ġcarried": 3692,
    "Ġeighteenth": 14757,
    "Ġconcern": 2656,
    "Ġoysters": 20582,
    "sounded": 12271,
    "specul": 23946,
    "moby": 8538,
    "decan": 22145,
    "Ġheaped": 18040,
    "cake": 20806,
    "Ġmout": 17800,
    "Ġvesu": 21953,
    "attest": 23122,
    "Ġmerry": 5869,
    "Ġarchbishop": 18713,
    "Ġsalad": 19482,
    "Ġprocession": 11779,
    "Ġmaintains": 2143,
    "philosop": 9570,
    "Ġeffemin": 18531,
    "stool": 23823,
    "Ġeduc": 4786,
    "ilege": 22260,
    "scor": 13021,
    "Ġcrags": 23531,
    "Ġsneezing": 12252,
    "Ġspecimen": 13024,
    "ë": 172,
    "Ġadditional": 7936,
    "Ġeagerly": 4990,
    "Ġripples": 25506,
    "arranging": 19319,
    "impregnable": 26483,
    "Ġdup": 21430,
    "Ġdreading": 23801,
    "Ġcoward": 7155,
    "Ġrap": 14307,
    "*": 14,
    "Ġsuperiors": 23457,
    "Ġyawned": 15054,
    "Ġsan": 7824,
    "Ġreceive": 4704,
    "Ġbowditch": 19324,
    "important": 7113,
    "load": 12886,
    "ails": 6161,
    "excuse": 13385,
    "inctions": 17734,
    "Ġstamping": 20034,
    "Ġcategories": 4474,
    "Ġpikes": 21481,
    "wouldn": 23539,
    "gloom": 17142,
    "Ġinn": 4589,
    "Ġdog": 4188,
    "Ġbressed": 21390,
    "Ġmoderate": 10940,
    "elfare": 11781,
    "Ġlearned": 2024,
    "enari": 21284,
    "Ġspoiled": 11365,
    "lers": 10109,
    "Ġdollars": 11457,
    "Ġfalsehood": 10526,
    "ured": 1656,
    "Ġasked": 2276,
    "depend": 9115,
    "path": 10121,
    "Ġfundament": 2924,
    "umul": 1290,
    "Ġinterp": 16073,
    "Ġdiscreet": 16484,
    "Ġdespise": 14668,
    "Ġrephrased": 26479,
    "bye": 5950,
    "Ġgun": 4702,
    "Ġnice": 6677,
    "Ġvoyages": 6907,
    "Ġlens": 8439,
    "Ġsepulchre": 20562,
    "manif": 14376,
    "Ġjack": 4652,
    "orte": 14187,
    "Ġtorrents": 20059,
    "Ġdoor": 1738,
    "Ġnoiselessly": 22867,
    "Ġproceeding": 9909,
    "hurrying": 14986,
    "edding": 4365,
    "Ġmouths": 7491,
    "inging": 5907,
    "Ġ1950": 11361,
    "Ġcompanions": 5866,
    "kine": 15379,
    "Ġassid": 18948,
    "Ġjaw": 3319,
    "Ġhesitated": 10005,
    "helmsman": 24289,
    "Ġcomply": 8894,
    "Ġdisease": 14260,
    "Ġwreak": 16819,
    "icious": 7379,
    "atherley": 7219,
    "Ġappals": 22219,
    "Ġengra": 7874,
    "Ġgrey": 4510,
    "Ġrumpled": 24601,
    "Ġsinned": 18954,
    "Ġcomfits": 21856,
    "Ġeddystone": 25736,
    "://": 11467,
    "maged": 15397,
    "Ġplaced": 3446,
    "Ġdashed": 6010,
    "Ġstructure": 834,
    "Ġcomputations": 16003,
    "Ġblazing": 11900,
    "sip": 10727,
    "Ġaspired": 25985,
    "Ġatlantic": 7000,
    "Ġgregarious": 18965,
    "atch": 675,
    "ern": 765,
    "Ġnovember": 11753,
    "Ġsake": 4088,
    "Ġvap": 6836,
    "Ġcountenance": 3966,
    "feed": 9296,
    "Ġgodfre": 14531,
    "Ġfif": 4213,
    "Ġkins": 22198,
    "Ġfall": 2986,
    "Ġuser": 15918,
    "addressing": 24401,
    "other": 1314,
    "dinah": 20084,
    "Ġdipped": 15599,
    "Ġarrangements": 16517,
    "Ġalleghan": 25796,
    "Ġfiss": 21415,
    "Ġgladstone": 23872,
    "Ġgardeners": 12125,
    "Ġgeological": 14535,
    "ced": 689,
    "keeping": 8638,
    "Ġaxis": 12311,
    "Ġconsumm": 15158,
    "Ġspecks": 14310,
    "vil": 2731,
    "superstitiousness": 25509,
    "appre": 14373,
    "Ġunmanufactured": 20437,
    "Ġsaddest": 16665,
    "deception": 22149,
    "Ġaimed": 20253,
    "Ġboast": 7035,
    "helping": 23146,
    "Ġstumble": 26484,
    "eprints": 12797,
    "Ġin": 291,
    "races": 21633,
    "Ġduck": 8798,
    "Ġsubterraneous": 20268,
    "Ġannihilation": 15169,
    "Ġglitter": 25126,
    "Ġfootsteps": 16575,
    "itious": 8784,
    "Ġbony": 12592,
    "stream": 15691,
    "insufficient": 15492,
    "mouthful": 25209,
    "mortal": 10115,
    "oo": 7553,
    "otes": 15748,
    "Ġscoundrel": 13674,
    "Ġreve": 2932,
    "Ġdimmed": 24270,
    "Ġdoub": 1836,
    "Ġdang": 9177,
    "Ġdistraction": 22510,
    "ortion": 11761,
    "Ġrevellers": 21681,
    "flagged": 23975,
    "Ġmillar": 13864,
    "Ġpervading": 20616,
    "fins": 13722,
    "Ġslain": 8956,
    "Ġyellow": 5302,
    "gentlemen": 9507,
    "oundered": 14167,
    "transom": 19738,
    "liked": 10511,
    "Ġremain": 1872,
    "Ġhumbled": 16200,
    "un": 373,
    "Ġimbalance": 22178,
    "Ġcrawford": 24894,
    "cement": 2931,
    "Ġaloysius": 15742,
    "none": 6961,
    "Ġalternately": 15034,
    "ittingly": 18806,
    "ug": 1767,
    "bred": 11471,
    "Ġexquisite": 12386,
    "Ġtie": 10752,
    "Ġundertaking": 8576,
    "Ġbasement": 24701,
    "Ġblinds": 8007,
    "significant": 25085,
    "Ġinviting": 19145,
    "characteristic": 24686,
    "totally": 25418,
    "Ġsiberia": 26162,
    "secondly": 16986,
    "Ġfiltering": 23930,
    "Ġdeftly": 26495,
    "Ġwrapt": 24596,
    "Ġcorpora": 26582,
    "Ġappal": 18359,
    "Ġstigma": 25792,
    "perse": 15897,
    "Ġpreceding": 7528,
    "Ġincalculable": 17463,
    "unts": 12736,
    "orters": 21404,
    "beaten": 20318,
    "Ġbristling": 20530,
    "ignorant": 13567,
    "Ġopal": 23627,
    "Ġtragedies": 25242,
    "Ġrely": 8825,
    "Ġcolumbus": 26566,
    "lessness": 5318,
    "Ġabject": 18392,
    "lac": 17591,
    "let": 2732,
    "Ġprofundity": 20455,
    "cra": 6355,
    "Ġdelay": 5748,
    "Ġlustre": 15138,
    "Ġpeeping": 16131,
    "Ġimprobable": 9797,
    "Ġcoefficient": 2881,
    "Ġliberty": 7761,
    "Ġcontemplated": 13468,
    "Ġhorribly": 16346,
    "Ġease": 5629,
    "ă": 196,
    "Ġsibbald": 21233,
    "Ġiterate": 13203,
    "ogue": 9787,
    "vial": 17699,
    "Ġsupposing": 6729,
    "gings": 7549,
    "derbyshire": 18323,
    "Ġocc": 889,
    "Ġdemo": 10882,
    "ceptive": 15972,
    "Ġeasily": 3888,
    "Ġbehaves": 23303,
    "smo": 10128,
    "Þ": 159,
    "Ġwhy": 1758,
    "ashtego": 4098,
    "Ġbarrow": 12074,
    "grandfather": 25012,
    "Ġdesp": 3217,
    "Ġabsorbed": 12335,
    "Ġtrue": 1340,
    "Ġachieved": 13170,
    "Ġconsiderable": 4001,
    "ades": 5631,
    "rowing": 7931,
    "Ġcontinue": 5398,
    "Ġdistinction": 8889,
    "Ġcapsizing": 20092,
    "Ġphyseter": 26588,
    "Ġincarn": 11818,
    "Ġrudimental": 25111,
    "Ġlovers": 9723,
    "Ġvolition": 14800,
    "Ġincredulity": 11313,
    "bbed": 6910,
    "organic": 25947,
    "Ġdrunk": 9427,
    "Ġcircumstance": 4987,
    "Ġvolume": 6769,
    "Ġentangled": 10346,
    "considerably": 13449,
    "Ġbalmoral": 16211,
    "Ġappear": 2483,
    "squ": 7809,
    "appalled": 18763,
    "suitableness": 26262,
    "Ġrolling": 5975,
    "concerted": 16674,
    "leave": 7837,
    "Ġrigger": 19533,
    "confirmed": 19643,
    "limping": 26395,
    "hopper": 23717,
    "Ġhoarsely": 26303,
    "Ġcontain": 1557,
    "vember": 10857,
    "Ġsocial": 7008,
    "Ġgrasp": 4663,
    "Ġposs": 1616,
    "Ġshark": 5550,
    "Ġseeming": 8542,
    "Ġwinding": 8236,
    "Ġshipwreck": 20449,
    "Ġoblig": 3447,
    "diligence": 26111,
    "osa": 22264,
    "Ġpaus": 4294,
    "ascribed": 24707,
    "Ġmultitud": 18748,
    "Ġcompassion": 6487,
    "Ġlarger": 1400,
    "Ġborder": 10172,
    "Ġsweetly": 23922,
    "ricade": 13043,
    "Ġspinning": 15055,
    "Ġancestry": 25642,
    "spersed": 22740,
    "Ġcomplicated": 14738,
    "sufficiently": 14984,
    "Ġ1836": 25721,
    "Ġhuddled": 20302,
    "Ġcandidate": 16700,
    "ä": 165,
    "ibilities": 13013,
    "ountain": 2916,
    "Ġhundreds": 4324,
    "Ġaver": 1286,
    "Ġcatholic": 20684,
    "Ġnaturalists": 10365,
    "Ġep": 7383,
    "Ġpacifics": 24373,
    "readiness": 19366,
    "Ġ135": 24784,
    "Ġcele": 9903,
    "tled": 3459,
    "irection": 2386,
    "william": 4560,
    "pity": 17629,
    "Ġwatched": 6298,
    "Ġwhispered": 5338,
    "Ġre": 317,
    "Ġbring": 3324,
    "Ġdeductions": 19736,
    "mult": 8751,
    "Ġvery": 636,
    "Ġtoller": 9094,
    "aurus": 20563,
    "turns": 14909,
    "Ġcowardice": 17033,
    "Ġwealthy": 18181,
    "igger": 21703,
    "Ġexecution": 6926,
    "kered": 18275,
    "Ġcompanion": 3643,
    "Ġshell": 11740,
    "humiliation": 24024,
    "prejudiced": 17300,
    "Ġstudded": 18978,
    "approb": 11044,
    "representation": 20199,
    "getting": 12972,
    "elled": 4017,
    "john": 11500,
    "Ġcurling": 9350,
    "Ġstamped": 13530,
    "Ġoutlandish": 12843,
    "highly": 24763,
    "Ġascendency": 20235,
    "concerned": 24639,
    "Ġ1991": 3016,
    "Ġrattling": 11397,
    "Ġchim": 5933,
    "hailed": 17567,
    "Ġsaints": 20677,
    "forbid": 14357,
    "marriage": 7744,
    "stalls": 26475,
    "Ġvon": 14084,
    "Ġlive": 2734,
    "Ġdesperado": 19822,
    "rapid": 12675,
    "youn": 5690,
    "disreputable": 23507,
    "Ġwomanly": 23554,
    "Ġharriet": 24573,
    "Ġwishes": 4796,
    "Ġwhaleman": 4654,
    "Ġperiodical": 14775,
    "torn": 17684,
    "Ġpositive": 2294,
    "ass": 536,
    "ops": 5247,
    "Ġproximity": 3221,
    "Ġloafer": 18300,
    "Ġmiser": 18706,
    "Ġfarm": 7840,
    "Ġmeridians": 17358,
    "prudently": 21037,
    "valu": 1675,
    "insensibility": 23071,
    "Ġsore": 10766,
    "Ġtown": 2453,
    "Ġapologize": 15132,
    "Ġvictor": 5125,
    "Ġprayers": 12128,
    "specific": 10500,
    "orrah": 17877,
    "Ġpasture": 14545,
    "Ġlowered": 6736,
    "vessels": 10628,
    "keel": 14131,
    "Ġpale": 4530,
    "elijah": 19476,
    "Ġbrimstone": 25687,
    "separated": 20162,
    "pike": 11517,
    "declaration": 25176,
    "Ġtremor": 24767,
    "escape": 16011,
    "Ć": 199,
    "absolut": 8460,
    "Ġthre": 2059,
    "Ġtoma": 7372,
    "Ġexciting": 23314,
    "Ġpause": 5707,
    "Ġoutrages": 18416,
    "otam": 21802,
    "Ġbrood": 23103,
    "etition": 7381,
    "Ġsav": 3357,
    "angling": 14143,
    "Ġthank": 3791,
    "Ġpubl": 3936,
    "datasets": 11955,
    "Ġwaterward": 23370,
    "Ġcalmed": 16272,
    "stays": 15693,
    "Ġinjunction": 19620,
    "Ġmantelpiece": 15211,
    "Ġneglecting": 25010,
    "Ġlouisiana": 25079,
    "Ġaud": 6663,
    "Ġmeanness": 22599,
    "gazing": 12476,
    "Ġsleeps": 10448,
    "Ġrumbling": 18212,
    "beards": 22495,
    "âĢľâĢĶ": 10874,
    "Ġconduct": 3731,
    "boards": 23257,
    "ica": 10201,
    "Ġvial": 10251,
    "Ġunacquainted": 12780,
    "binnacle": 20789,
    "Ġmightiest": 12965,
    "Ù": 154,
    ",âĢĶâĢľ": 10073,
    "danish": 20835,
    "provided": 13641,
    "Ġflutter": 16252,
    "smeer": 26148,
    "ferred": 16420,
    "bted": 7793,
    "cowardly": 25750,
    "iliating": 12700,
    "Ġcompasses": 11269,
    "Ġverdict": 13479,
    "Ġ64": 24367,
    "oring": 1859,
    "aren": 10077,
    "hos": 15367,
    "attendants": 25496,
    "Ġbagging": 24539,
    "Ġla": 5913,
    "Ġmutters": 23959,
    "embers": 21933,
    "tical": 10131,
    "Ġinconvenience": 9566,
    "Ġdecks": 6899,
    "Ġlittle": 867,
    "Ġwire": 13855,
    "Ġlucky": 7758,
    "Ġgovern": 10452,
    "Ġcour": 1768,
    "Ġexcepting": 14682,
    "inferior": 12398,
    "Ġextent": 7656,
    "Ġxlvi": 25591,
    "Ġgroups": 3717,
    "Ġshield": 22003,
    "tles": 10732,
    "Ġtranslations": 12056,
    "Ġteach": 8555,
    "Ğ": 223,
    "Ġpuzzled": 7316,
    "Ġmountain": 3373,
    "Ġextremely": 2668,
    "detached": 19677,
    "Ġwriggling": 15261,
    "nial": 20986,
    "Ġimpulsive": 19966,
    "Ġ82": 24458,
    "Ġunconsciously": 10008,
    "Ġsustained": 13486,
    "lesson": 22776,
    "Ġstr": 758,
    "Ġbeautiful": 3671,
    "Ġcrowds": 14742,
    "Ġflatt": 16251,
    "Ġreiterating": 26476,
    "Ġshining": 8172,
    "Ġlookest": 22720,
    "Ġchall": 10946,
    "Ġbowing": 10477,
    "madly": 24420,
    "ond": 1161,
    "Ġtraged": 9355,
    "Ġeggs": 12346,
    "legs": 13186,
    "Ġidentity": 2522,
    "etuous": 21586,
    "Ġnails": 12653,
    "itt": 570,
    "Ġinscriptions": 20012,
    "Ġwheelbarrow": 17207,
    "amount": 10886,
    "Ġfail": 4143,
    "Ġpresided": 20210,
    "ccarthy": 4889,
    "Ġpetersburgh": 24230,
    "Ġdrawings": 14725,
    "Ġensue": 18191,
    "Ġrevenue": 26196,
    "Ġcooking": 16649,
    "riminately": 16485,
    "gigantic": 15363,
    "ming": 3601,
    "Ġcompanionship": 14923,
    "Ġsparing": 22133,
    "bell": 7331,
    "Ġmeek": 21813,
    "Ġmeasures": 1207,
    "aster": 1865,
    "ething": 1604,
    "Ġfascinated": 25636,
    "Ġrivers": 9445,
    "Ġbargain": 23795,
    "smug": 23911,
    "repairing": 24495,
    "atha": 6573,
    "Ġsympathy": 6347,
    "Ġdetails": 6566,
    "Ġcurses": 13028,
    "Ġcrew": 2494,
    "Ġjoke": 8872,
    "Ġanybody": 5314,
    "Ġturner": 7050,
    "Ġlearnable": 3990,
    "tomorrow": 25915,
    "Ġweights": 898,
    "useful": 16505,
    "Ġrod": 9283,
    "oug": 432,
    "Ġrecovering": 11867,
    "Ġmeat": 8152,
    "Ġcubs": 20090,
    "Ġwast": 21864,
    "Ġfiver": 22782,
    "Ġnuptials": 20497,
    "Ġinevitable": 15171,
    "Ġcombines": 1138,
    "ĠvertebrÃ¦": 11437,
    "movement": 25578,
    "Ġindestruct": 22961,
    "ghost": 20889,
    "Ġjoyously": 19349,
    "Ġgrotes": 19566,
    "Ġcircumstantial": 14645,
    "ondency": 15273,
    "continue": 16863,
    "best": 6112,
    "Ġbreeding": 14524,
    "Ġprey": 6415,
    "O": 51,
    "fuller": 22490,
    "Ġspont": 22135,
    "tu": 12516,
    "Ġjoining": 13168,
    "walks": 19724,
    "conclusive": 25674,
    "Ġpresence": 5031,
    "Ġprim": 8244,
    "Ġforgive": 8010,
    "parlour": 16391,
    "Ġmagnetic": 17243,
    "angry": 18295,
    "ories": 4754,
    "Ġgrinned": 16859,
    "Ġcalcul": 3637,
    "Ġbrute": 8930,
    "Ġcircles": 7967,
    "ient": 394,
    "Ġdenny": 9004,
    "Ġfoolish": 5980,
    "Ġoverthrown": 18430,
    "ance": 478,
    "Ġ156": 20173,
    "deck": 4497,
    "Ġpell": 21459,
    "cheered": 23808,
    "fain": 13718,
    "Ġfive": 2834,
    "Ġskulls": 12964,
    "Ġknives": 14840,
    "ely": 623,
    "Ġmixing": 24937,
    "kers": 7133,
    "Ġobstetrics": 24679,
    "Ġsal": 3934,
    "doc": 23379,
    "touched": 15442,
    "Ę": 217,
    "striving": 24670,
    "Ġberm": 21386,
    "Ġhind": 9191,
    "Ġcolumb": 22860,
    "uff": 2730,
    "Ġprovoked": 13330,
    "Ġbrief": 6976,
    "butter": 11789,
    "Ġreputed": 18038,
    "Ġstacked": 21747,
    "Ġcontaining": 2232,
    "Ġcautious": 12258,
    "Ġknotted": 17021,
    "Ġemerged": 8688,
    "Ġreturn": 1709,
    "nowadays": 22342,
    "Ġgaunt": 11270,
    "Ġflow": 1237,
    "se": 358,
    "proved": 11991,
    "ilder": 15717,
    "amet": 585,
    "](": 11468,
    "glad": 9011,
    "Ġexpected": 3695,
    "erland": 9643,
    "Ġbell": 4635,
    "Ġpurplish": 19142,
    "Ġtags": 20574,
    "leton": 5148,
    "Ġwines": 21290,
    "resist": 8276,
    "ermaid": 14301,
    "pshire": 21026,
    "digger": 24312,
    "Ġspr": 4021,
    "run": 10723,
    "about": 3587,
    "Ġstatement": 5255,
    "Ġcupidity": 24535,
    "Ġexile": 12722,
    "vely": 3864,
    "peter": 24300,
    "Ġstrictly": 12289,
    "Ġalan": 10871,
    "Ġlovel": 10274,
    "Ġrandomly": 1921,
    "Ġparamet": 608,
    "speaking": 12103,
    "fresh": 13396,
    "rimsh": 17029,
    "Ġtester": 21175,
    "Ġcommonest": 23092,
    "instance": 24169,
    "Ġhuzza": 12638,
    "Y": 61,
    "Ġhard": 1443,
    "Ġcounting": 13100,
    "cheap": 23807,
    "Ġfine": 1317,
    "ified": 3228,
    "Ġapple": 14169,
    "Ġhospitality": 13516,
    "Ġdependency": 3488,
    "vig": 15449,
    "Ġsnuffing": 25015,
    "Ġterrors": 6917,
    "chairs": 21696,
    "Ġfit": 3683,
    "res": 2758,
    "intend": 16228,
    "Ġdoubled": 19640,
    "Ġloathsome": 13531,
    "Ġmajor": 13296,
    "deserving": 17248,
    "Ġimpreg": 15991,
    "moil": 22708,
    "Ġcab": 2632,
    "blooded": 20026,
    "Ġkneel": 14810,
    "Ġweighty": 16037,
    "oice": 1381,
    "ius": 5789,
    "Ġwretchedness": 9029,
    "uary": 11540,
    "mysterious": 26053,
    "Ġsolid": 6443,
    "Ġrespect": 1669,
    "Ġcasts": 19429,
    "Ġaccusation": 22384,
    "Ġlbs": 11618,
    "connection": 18869,
    "Ġslighter": 18943,
    "Ġtransparency": 10679,
    "arbuck": 2026,
    "lasting": 8011,
    "Ġthinner": 24183,
    "verty": 8454,
    "Ġlaborious": 13107,
    "hon": 6793,
    "Ġartful": 22612,
    "Ġpartially": 13127,
    "tal": 17672,
    "nment": 20992,
    "Ġenemy": 5605,
    "nails": 17616,
    "Ġthirty": 4944,
    "Ġxi": 16433,
    "Ġfortun": 4982,
    "Ġcarving": 14446,
    "arnel": 18127,
    "Ġlearn": 365,
    "Ġincluding": 2848,
    "imag": 6990,
    "Ġranging": 8480,
    "Ġexpose": 10330,
    "Ġinexper": 16982,
    "honey": 20907,
    "Ġinte": 2065,
    "Ġthoroughfare": 16946,
    "Ġattend": 5035,
    "trick": 19416,
    "Ġpress": 5932,
    "Ġrails": 22655,
    "Ġfathoms": 9086,
    "Ġfreshet": 25704,
    "Ġaccountability": 10440,
    "Ġtrepidation": 19217,
    "Ġtumb": 21172,
    "Ġdepartment": 24243,
    "Ġminutes": 2999,
    "Ġcomm": 839,
    "aust": 15313,
    "Ġmorbid": 16238,
    "here": 2548,
    "squall": 13525,
    "Ġmates": 4873,
    "charitable": 23936,
    "Ġconvivial": 16551,
    "Ġsave": 4048,
    "Ġchecked": 9379,
    "Ġ550": 19639,
    "spikes": 10344,
    "Ġlat": 5087,
    "Ġunsafe": 22043,
    "Ġinfidel": 13092,
    "Ġarrival": 4731,
    "orand": 21400,
    "Ġtelesc": 13002,
    "cro": 13700,
    "Ġtall": 4035,
    "ement": 1503,
    "Ġpostscript": 14811,
    "har": 20892,
    "Ġstubb": 1785,
    "Ġsharp": 2411,
    "ilities": 6991,
    "Ġgraphs": 25464,
    "Ġboarding": 12091,
    "ippers": 17578,
    "Ġplight": 14284,
    "persecut": 22184,
    "Ġmaimed": 21319,
    "met": 6654,
    "Ġrecommended": 8671,
    "Ġfleetness": 20182,
    "Ġengland": 3855,
    "Ġalike": 8147,
    "Ġtremendous": 8353,
    "with": 1297,
    "Ġarising": 10935,
    "Ġwalton": 14975,
    "Ġheroine": 24543,
    "green": 7116,
    "churning": 21700,
    "quickness": 19853,
    "christ": 10213,
    "Ġassures": 14468,
    "Ġcemeteries": 26377,
    "weigh": 18666,
    "Ġbids": 24646,
    "aware": 16299,
    "Ġlangu": 573,
    "irect": 5553,
    "urns": 10216,
    "Ġcrocod": 19631,
    "Ġedges": 3825,
    "iving": 1723,
    "aying": 15754,
    "Ġwalls": 6762,
    "Ġemma": 20697,
    "Ġvirtual": 11241,
    "Ġcivilized": 8668,
    "hack": 20898,
    "Ġbelief": 5856,
    "philosophers": 25253,
    "Ġaccidental": 16850,
    "secure": 12240,
    "Ġheap": 12683,
    "feren": 767,
    "featured": 24148,
    "morrow": 4571,
    "Ġexercise": 8359,
    "Ġbeatrix": 24205,
    "warrant": 21140,
    "Ġspinal": 12306,
    "Ġcurrent": 13026,
    "ĠĠĠĠĠĠ": 6414,
    "Ġdedu": 5584,
    "Ġprecip": 7075,
    "Ġmeasure": 3594,
    "swe": 5996,
    "Ġrealised": 18981,
    "Ġabsent": 7015,
    "opÃ¦": 12878,
    "Ġdenominated": 15232,
    "Ġinj": 4761,
    "oons": 12503,
    "Ġsnuff": 7992,
    "Ġreminded": 10002,
    "Ġdesignated": 19524,
    "Ġtransitory": 16031,
    "danger": 10092,
    "interruption": 20115,
    "Ġinterruptions": 24187,
    "Ġdigress": 24649,
    "Ĩ": 233,
    "Ġreciprocating": 26371,
    "Ġcompliments": 8636,
    "Ġcoupled": 16853,
    "Ġwired": 17788,
    "Ġremaining": 6189,
    "Ġskies": 8924,
    "Ġhandful": 9785,
    "Ġoccurred": 4459,
    "Ġaccident": 5380,
    "slide": 24556,
    "lat": 9607,
    "Ġfeasts": 25370,
    "masters": 16836,
    "Ġstart": 3260,
    "studies": 25170,
    "Ġcordial": 16837,
    "Ġadmirers": 19689,
    "Ġhedges": 19988,
    "Ġathe": 17743,
    "Ġneglected": 10380,
    "Ġplacing": 8904,
    "Ġperceive": 6700,
    "Ġeliza": 6437,
    "entirely": 7781,
    "ume": 4837,
    "Ġsu": 430,
    "Ġflashes": 11920,
    "Ġtemptation": 8681,
    "Ġeleventh": 23372,
    "take": 4575,
    "Ġhappy": 2464,
    "allowing": 24358,
    "Ġadds": 1806,
    "lucifer": 25303,
    "Ġbland": 11066,
    "Ġcries": 7154,
    "Ġcryst": 9920,
    "Ġhurts": 19113,
    "Ġsensations": 5260,
    "Ġcurbstone": 26047,
    "Ġshort": 2226,
    "acific": 4960,
    "q": 85,
    "feelings": 5674,
    "ister": 1295,
    "Ġic": 9628,
    "Ġprogra": 1145,
    "bast": 10080,
    "Ġhaughty": 11451,
    "Ġinvests": 14871,
    "antial": 8489,
    "Ġgruff": 21617,
    "Ġinstantly": 3592,
    "Ġaffectionately": 13172,
    "Ġomitted": 12569,
    "Ġfing": 3755,
    "Ġillustrious": 17110,
    "Ġspire": 18307,
    "Ġken": 22195,
    "Ġcaused": 5048,
    "Ġdart": 4584,
    "Ġsummit": 7730,
    "Ġmut": 3583,
    "Ġhearing": 4762,
    "Ġtaught": 6803,
    "sentence": 2938,
    "Ġproperties": 3119,
    "Ġrecip": 16145,
    "westward": 25425,
    "Ġwarehouse": 20420,
    "swiss": 24258,
    "Ġsche": 1704,
    "hatch": 15368,
    "Ġengagement": 5397,
    "ogy": 22702,
    "Ġcrockery": 24303,
    "pockets": 16214,
    "broker": 13309,
    "involuntarily": 20418,
    "seaman": 25458,
    "Ġappeal": 16319,
    "Ġstarted": 4144,
    "Ġduty": 4067,
    "Ġplainer": 23707,
    "ild": 1153,
    "otherwise": 7671,
    "Ġlone": 11616,
    "house": 4073,
    "Ġdeliver": 9849,
    "unted": 6998,
    "Ġslopes": 18944,
    "willingly": 11987,
    "Ġupdate": 2462,
    "Ġkilled": 4955,
    "prairies": 20569,
    "buncle": 13696,
    "Ġseams": 12129,
    "Ġheaven": 3366,
    "Ġlean": 7606,
    "baked": 20781,
    "pt": 388,
    "Ġdiscourage": 3117,
    "Ġworshipping": 22931,
    "Ġpush": 9187,
    "Ġcutting": 4983,
    "intim": 22937,
    "ctors": 21593,
    "Ġinclinations": 19542,
    "Ġaloud": 6253,
    "Ġdoubtfully": 23481,
    "ression": 3406,
    "Ġejaculated": 15173,
    "ð": 177,
    "Ġsaturation": 2062,
    "ord": 668,
    "Ġimputed": 12813,
    "plain": 1359,
    "Ġendeavor": 16548,
    "chet": 13219,
    "Ġsimul": 1807,
    "irous": 8843,
    "Ġslim": 18940,
    "Ġprehens": 22235,
    "Ġsperm": 1842,
    "id": 338,
    "Ġdeigned": 18144,
    "Ġwrest": 11574,
    "Ġlard": 13950,
    "whom": 8185,
    "ĠĠĠĠĠĠĠĠĠĠĠĠĠĠĠĠĠĠĠĠĠĠĠĠĠ": 24442,
    "flukes": 25206,
    "Ġgloomy": 7504,
    "Ġinsect": 12641,
    "Ġilliterate": 26596,
    "Ġbadge": 16682,
    "»": 124,
    "âĢľ": 344,
    "supernatural": 19782,
    "..": 5783,
    "lude": 6162,
    "Ġdeuteronomy": 15764,
    "adm": 7609,
    "distinguish": 19575,
    "py": 17626,
    "Ġtasselled": 25922,
    "adow": 18090,
    "Ġpreluding": 18369,
    "Ġpercept": 14226,
    "whereby": 23421,
    "credit": 12453,
    "ĠâĢľ": 516,
    "ignorantly": 25190,
    "circumstantial": 24444,
    "Ġduchess": 4800,
    "interference": 23740,
    "Ġthereof": 22372,
    "abled": 12799,
    "Ġthrob": 21521,
    "Ġpassive": 22842,
    "leading": 15566,
    "----": 4054,
    "Ġenthusiastic": 19969,
    "Ġspasmodically": 17317,
    "Ġpip": 1640,
    "Ġdeduce": 8337,
    "Ġprofusion": 23570,
    "Ġbore": 5079,
    "Ġbrides": 22869,
    "Ġpowers": 5419,
    "Ġflaming": 8566,
    "Ġadvice": 4902,
    "Ġrapturously": 24889,
    "Ġadorn": 12795,
    "Ġcran": 12005,
    "Ġnameless": 7699,
    "Ġexec": 19495,
    "culous": 11143,
    "Ġsteal": 16286,
    "Ġfixing": 13160,
    "spirited": 19756,
    "air": 1003,
    "Ġtablets": 13159,
    "itation": 1780,
    "Ġstifle": 18076,
    "rior": 12746,
    "Ġridicule": 13515,
    "Ġobtaining": 16136,
    "Ġuttermost": 19491,
    "ilingly": 21727,
    "Ġteased": 18810,
    "believed": 9936,
    "mindful": 19602,
    "Ġpraises": 16732,
    "Ġsuperb": 16445,
    "Ġhinge": 25542,
    "Ġprophesy": 26062,
    "Ġliter": 8816,
    "diver": 20833,
    "ux": 7813,
    "Ġpeace": 3691,
    "Ġreplete": 15702,
    "Ġneck": 4886,
    "drugg": 20840,
    "oard": 4810,
    "overed": 2851,
    "mm": 676,
    "Ġorders": 5341,
    "Ġproport": 2295,
    "nson": 16092,
    "social": 11025,
    "wishes": 13810,
    "Ġcrouched": 23442,
    "Ġpaunch": 23751,
    "Ġempty": 5354,
    "Ġpatted": 16369,
    "Ġmurmuring": 23581,
    "ssip": 14082,
    "Ġpresto": 22234,
    "Ġsubstantial": 14813,
    "Ġpatched": 16370,
    "Ġmournful": 12340,
    "Ġtutored": 20131,
    "Ġgeneric": 18448,
    "Ġyea": 8919,
    "instinctively": 26329,
    "Ġeul": 21621,
    "Ġdisputing": 25825,
    "ject": 875,
    "Ġeyed": 12672,
    "explanation": 12362,
    "th": 407,
    "ivable": 10912,
    "Ġchiswick": 25561,
    "cords": 25139,
    "sixteen": 24854,
    "Ġpredecess": 18519,
    "Ġsuccor": 25663,
    "dishon": 20407,
    "Ġbrilliant": 11416,
    "invest": 11562,
    "Ġminima": 3465,
    "ently": 1464,
    "Ġirrevoc": 15041,
    "Ġbells": 19604,
    "batch": 1982,
    "disguise": 26307,
    "Ġridges": 16733,
    "Ġhardware": 4905,
    "belongs": 25597,
    "Ġrecorded": 11295,
    "Ġstrata": 26028,
    "Ġtarshish": 12033,
    "Ġbelly": 10372,
    "rod": 10833,
    "Ġsnar": 13202,
    "(": 12,
    "gratitude": 16818,
    "Ġchanged": 5242,
    "imperturbable": 25791,
    "Ġgrasping": 12170,
    "Ġcritical": 7474,
    "langu": 4808,
    "Ġeleven": 9393,
    "Ġvigorously": 11301,
    "Ġregulate": 22582,
    "Ġrang": 9248,
    "leag": 21369,
    "Ġeffectively": 2427,
    "spades": 14339,
    "Ġprofund": 13157,
    "Ġunsavory": 20709,
    "empt": 2617,
    "Ġtoo": 1165,
    "Ġfoss": 9853,
    "ik": 17573,
    "Ġpunctil": 20117,
    "Ġalfred": 21790,
    "Ġlamb": 8817,
    "Ġovers": 14207,
    "Ġphyset": 23206,
    "end": 502,
    "Ġenslaved": 26315,
    "cused": 15335,
    "Ġwatery": 6297,
    "Ġilleg": 21626,
    "Ġinvolved": 8926,
    "Ġbewil": 11660,
    "count": 4209,
    "iality": 8848,
    "pursuit": 20343,
    "Ġeludes": 26556,
    "moving": 11019,
    "Ġtand": 21163,
    "eter": 11624,
    "Ġsimilarly": 24310,
    "Ġpalmed": 24092,
    "women": 15459,
    "Ġreservoir": 20653,
    "Ġreaped": 18032,
    "ch": 321,
    "Ġporus": 24398,
    "bohemia": 20733,
    "Ġmarrying": 6178,
    "dl": 20825,
    "Ġapprehending": 26092,
    "natured": 7111,
    "Ġboone": 11845,
    "Ġcruising": 6912,
    "Ġintrude": 25991,
    "Ġtedious": 15271,
    "Ġscales": 4851,
    "Ġjew": 9470,
    "Ġxxii": 24478,
    "Ġfore": 2152,
    "Ġhopelessly": 16382,
    "garden": 15028,
    "Ġevolve": 3001,
    "grace": 5847,
    "ilburn": 18062,
    "onel": 3089,
    "fold": 7546,
    "Ġbusiness": 2233,
    "Ġlid": 6983,
    "whar": 15931,
    "Ġruddy": 17128,
    "._": 3222,
    "ckles": 22093,
    "known": 3569,
    "Ġunsatisfied": 22046,
    "want": 8770,
    "Ġguar": 23049,
    "Ġmitig": 1337,
    "Ġsolic": 7933,
    "Ġ52": 24317,
    "Ġascend": 9963,
    "ouder": 17902,
    "Ġsides": 4578,
    "Ġhappened": 3711,
    "Ġpetticoat": 15299,
    "Ġarchipelagoes": 14350,
    "Ġmonotonically": 3832,
    "Ġvalued": 12187,
    "shipmates": 11932,
    "Ġgull": 15674,
    "arp": 2028,
    "Ġnamed": 6140,
    "tempest": 16961,
    "Ġaz": 9632,
    "Ġfade": 21410,
    "medical": 23344,
    "Ġphara": 23205,
    "Ġcongregation": 12333,
    "Ġflight": 6581,
    "tall": 17675,
    "acy": 3951,
    "Ġelaborate": 18637,
    "Ġsaucer": 20608,
    "ahawk": 23318,
    "Ġyellowish": 24430,
    "Ġprodig": 6028,
    "Ġperse": 6273,
    "sooner": 14780,
    "Ġbasic": 24700,
    "Ġrejoice": 10211,
    "emb": 11693,
    "Ġethere": 23954,
    "tolerably": 21098,
    "Ġaway": 1243,
    "Ġentrances": 25836,
    "Ġadvertised": 17250,
    "Ġserious": 4318,
    "country": 6104,
    "Ġruss": 18720,
    "Ġconfining": 23308,
    "merry": 16539,
    "lu": 598,
    "heavenly": 20048,
    "Ġscorn": 7901,
    "introduce": 25187,
    "Ġhomeward": 9395,
    "¯": 112,
    "accur": 14595,
    "Ġepis": 19985,
    "Ġpuff": 6526,
    "ising": 2254,
    "Ġnonsense": 6982,
    "Ġtuileries": 24824,
    "Ġbroods": 23105,
    "Ġglist": 9347,
    "atory": 6126,
    "Ġwarnings": 16883,
    "Ġtesting": 23191,
    "Ġcum": 21345,
    "Ġpriv": 4179,
    "commotion": 24914,
    "Ġsolitudes": 22889,
    "Ġimprec": 14221,
    "confl": 22475,
    "hateful": 20911,
    "treat": 12518,
    "oters": 21803,
    "eminent": 25107,
    "Ġconvul": 13205,
    "Ġtrophy": 20010,
    "Ġcyl": 15561,
    "Ġfamiliarly": 11305,
    "Ġdocile": 19962,
    "particularly": 8340,
    "Ġmeeting": 5193,
    "Ġcommodore": 12399,
    "pane": 10123,
    "Ġmachine": 800,
    "finish": 24384,
    "Ġhysterics": 26094,
    "s": 87,
    "forster": 16170,
    "Ġreliability": 22884,
    "rasing": 21048,
    "Ġdiscours": 18719,
    "Ġcaptured": 7244,
    "alyards": 18786,
    "Ġthoughtful": 16195,
    "arches": 10818,
    "oriously": 17876,
    "istically": 14146,
    "Ġshutting": 14762,
    "iltrated": 19307,
    "inclination": 20061,
    "Ġadmirer": 16840,
    "excited": 13384,
    "towards": 5003,
    "alions": 21504,
    "Ġtruck": 19514,
    "Ġesteemed": 10591,
    "Ġanew": 11432,
    "sperm": 5203,
    "furn": 10094,
    "Ġtransform": 749,
    "Ġcontrari": 23352,
    "shadows": 25480,
    "ğ": 224,
    "Ġwallow": 19469,
    "Ġadmission": 23558,
    "handkerchief": 14619,
    "Ġneighbouring": 12123,
    "Ġexclusion": 19399,
    "Ġfrighted": 24032,
    "Ġscenery": 11458,
    "Ġsands": 14951,
    "lish": 1952,
    "Ġelixir": 26557,
    "eel": 11486,
    "Ġringbolts": 24197,
    "Ġeasiness": 23540,
    "Ġchestnut": 19675,
    "Ġpeaceable": 14726,
    "Ġ133": 24782,
    "Ġhun": 1498,
    "Ġbusied": 19066,
    "easy": 9595,
    "Ġhideousness": 16917,
    "tackle": 17324,
    "Ġinvestig": 10552,
    "Ġattribute": 16104,
    "Ġprison": 5403,
    "Ġteacher": 22920,
    "Ġinclination": 6625,
    "position": 15416,
    "Ġdreaminess": 23943,
    "dogs": 25403,
    "Ġbenchmarks": 15024,
    "nur": 11508,
    "?âĢĶ": 3469,
    "endom": 15927,
    "Ġvision": 1507,
    "tender": 14477,
    "Ġcin": 13878,
    "Ġcombing": 22843,
    "Ġdesolated": 24809,
    "Ġinnumerable": 13356,
    "harbors": 20151,
    "rubbery": 17345,
    "Ĺ": 250,
    "Ġamply": 22486,
    "Ġwrongfully": 24251,
    "remem": 13072,
    "Ġlengthwise": 10454,
    "sur": 4521,
    "Ġwhalebone": 10979,
    "Ġsweetness": 9449,
    "redit": 3873,
    "Ġmaledictions": 26430,
    "leeward": 15214,
    "arson": 22751,
    "laws": 19810,
    "Ġampl": 22484,
    "Ġpenetrated": 13476,
    "Ġintimacy": 8704,
    "Ġvig": 5460,
    "deacon": 22151,
    "cim": 8723,
    "Ġdragged": 6888,
    "condemned": 26061,
    "Ġupset": 22157,
    "Ġunusual": 6554,
    "Ġroman": 8323,
    "Ġgaiety": 16751,
    "Ġbesee": 19245,
    "whosoever": 22244,
    "scrape": 25699,
    "Ġopposite": 5120,
    "Ġdonkey": 23228,
    "Ġevinced": 7101,
    "ggling": 19098,
    "pond": 21015,
    "Ġhollows": 19744,
    "hemat": 3129,
    "Ġreject": 7385,
    "Ġunfair": 19510,
    "Ġhardihood": 23114,
    "Ġarrived": 3745,
    "ester": 11601,
    "lantern": 17431,
    "Ġalas": 5922,
    "Ġemblematical": 25789,
    "Ġunrivalled": 26521,
    "evident": 25521,
    "commanded": 16990,
    "Ġhostile": 19943,
    "salesman": 20674,
    "Ġobservation": 6598,
    "ifled": 14066,
    "Ġsize": 1218,
    "Ġvapors": 19910,
    "Ġoccurrences": 11052,
    "Ġgalvan": 21620,
    "horner": 23616,
    "inisc": 15491,
    "Ġswaths": 23061,
    "ĠĠĠĠĠĠĠĠĠĠĠĠĠĠĠĠĠĠĠĠĠĠĠĠ": 5322,
    "judge": 13341,
    "gir": 8083,
    "happening": 16567,
    "Ġmid": 2614,
    "Ġintrepid": 11710,
    "Ġgul": 7860,
    "altern": 17944,
    "fourths": 25510,
    "intosh": 22943,
    "ĺ": 251,
    "Ġsaith": 14158,
    "Ġinquiring": 9002,
    "Ġgrandfather": 19425,
    "Ġignited": 25072,
    "vels": 5432,
    "Ġriots": 23895,
    "kish": 20936,
    "Ġsickly": 16776,
    "examine": 25478,
    "Ġacquit": 18899,
    "Ġregain": 22581,
    "behaved": 24463,
    "Ġcensus": 15100,
    "situation": 11439,
    "Ġcompat": 2937,
    "Ġchurchyard": 16779,
    "Ġbind": 12587,
    "tery": 14040,
    "Ġchain": 1843,
    "london": 9612,
    "Ġstormy": 16730,
    "Ġminded": 23230,
    "Ġunbounded": 18257,
    "Ġgive": 1711,
    "Ġstrictest": 17043,
    "pieces": 8758,
    "Ġsensit": 2946,
    "Ġforehead": 5262,
    "remed": 18956,
    "Ġjumped": 7097,
    "Ġpotent": 12068,
    "tro": 15436,
    "ifix": 21907,
    "ety": 3522,
    "Ġmankind": 6699,
    "Ġcolleague": 17162,
    "Ġminutest": 14562,
    "Ġcushion": 17835,
    "Ġlassitude": 20590,
    "Ġhogarth": 25781,
    "Ġreproof": 24891,
    "Ġmathematical": 3351,
    "inquire": 16934,
    "Ġelbows": 18636,
    "Ġball": 3623,
    "float": 19808,
    "Ġlinked": 15081,
    "heeded": 13837,
    "wearing": 22690,
    "Ġforge": 8458,
    "Ġhatch": 7848,
    "Ġpaved": 17915,
    "Ġsaviour": 20715,
    "A": 37,
    "ork": 416,
    "retaining": 21248,
    "ires": 6038,
    "communication": 25881,
    "uzz": 4522,
    "Ġconverts": 2804,
    "Ġchronicle": 20231,
    "Ġcarriage": 3947,
    "Ġalche": 21787,
    "Ġjungfrau": 15252,
    "Ġpang": 15609,
    "Ġyields": 19659,
    "placidity": 25989,
    "Ġpoints": 5248,
    "Ġsheep": 10928,
    "drowned": 17372,
    "ver": 331,
    "fun": 4171,
    "Ġyell": 21781,
    "mies": 20970,
    "Ġnarrower": 24354,
    "Ġ18": 3407,
    "Ġharpoons": 5659,
    "Ġdisclosed": 15157,
    "Ġimpotent": 18447,
    "Ġtarquin": 23612,
    "Ġdiscussed": 19562,
    "rougham": 15997,
    "ishnoo": 10957,
    "Ġfearlessness": 19163,
    "Ġmoderately": 22223,
    "Ġsw": 1356,
    "Ġtum": 5692,
    "preservation": 25306,
    "Ġadieus": 25113,
    "Ġsabbee": 17258,
    "Ġandromeda": 21511,
    "state": 13982,
    "Ġbled": 17859,
    "inction": 6662,
    "scy": 21058,
    "Ġstruggling": 12079,
    "Ġinexorable": 12260,
    "Ġmadman": 13155,
    "Ġtoast": 21515,
    "Ġdrow": 21429,
    "showing": 22450,
    "Ġdaresay": 14707,
    "Ġpawn": 12067,
    "Ġworry": 18817,
    "fiery": 13585,
    "Ġ70": 11278,
    "offices": 19063,
    "sin": 21051,
    "acca": 23599,
    "rifled": 21050,
    "Ġspirit": 3722,
    "discover": 10542,
    "Ġphilosoph": 19654,
    "pie": 21013,
    "dock": 16422,
    "Ġcourtiers": 24136,
    "difficult": 10061,
    "mist": 5686,
    "dued": 7909,
    "be": 671,
    "Ġscroll": 14194,
    "opposing": 24822,
    "Ġhoriz": 4726,
    "Ġemaciated": 20641,
    "Ġque": 4153,
    "card": 11477,
    "ound": 586,
    "Ġmultitude": 9328,
    "Ġskull": 6289,
    "Ġslit": 13062,
    "Ġnapoleon": 20560,
    "Ġhumiliating": 22887,
    "anzas": 17842,
    "Ġsally": 15505,
    "Ġsprinkled": 19500,
    "Ġvenetian": 14850,
    "bbles": 13695,
    "appro": 7045,
    "!âĢĻ": 3332,
    "true": 2585,
    "cy": 639,
    "Ĭ": 237,
    "Ġsoftware": 18920,
    "Ġrambled": 20171,
    "Ġmayhap": 18710,
    "Ġacross": 1332,
    "strade": 5065,
    "squee": 15433,
    "Ġunscrew": 22042,
    "alescence": 15928,
    "Ġgrounded": 23714,
    "ribs": 23368,
    "sue": 2076,
    "ifle": 10893,
    "Ġduc": 4697,
    "Ġoccasional": 7288,
    "Ġpilgrimage": 17311,
    "Ġfuriously": 9805,
    "Ġbawling": 25946,
    "Ġintegration": 9871,
    "Ġchurch": 4711,
    "Ġproducing": 11903,
    "Ġ85": 24460,
    "Ġexpensive": 12922,
    "Ľ": 254,
    "idol": 21770,
    "dispositions": 25014,
    "Ġveins": 8935,
    "Ġwithdra": 6398,
    "Ġcircumstances": 3922,
    "thur": 7187,
    "Ġwallet": 21301,
    "Ġscound": 12837,
    "Ġdash": 8122,
    "fth": 20858,
    "whole": 6085,
    "induce": 22378,
    "Ġungenerous": 18264,
    "Ġrecent": 7435,
    "Ġpants": 21468,
    "ny": 4010,
    "Ġimpropriety": 17399,
    "Ġcounties": 23305,
    "apers": 3482,
    "Ġintegrated": 13534,
    "Ġunctuous": 10269,
    "Ġjoyous": 14666,
    "rely": 6124,
    "Ġemails": 13111,
    "Ġderbyshire": 6587,
    "Ġsolicited": 20040,
    "Ġtoe": 13939,
    "dispute": 23503,
    "apt": 737,
    "crazy": 24692,
    "Ġnovelty": 13467,
    "err": 1141,
    "Ġbegging": 11082,
    "Ġornam": 15868,
    "Ġtranquo": 14846,
    "ims": 7176,
    "Ġcapacity": 10442,
    "Ġeffeminacy": 20720,
    "traced": 19648,
    "Ġdistinct": 4608,
    "Ġes": 8773,
    "Ġfirmly": 8014,
    "Ġrelation": 2141,
    "quarters": 24949,
    "adays": 14016,
    "Ġstoner": 7178,
    "Ġdeg": 3283,
    "Ġsixty": 7722,
    "Ġdardanelles": 26445,
    "Ġsunk": 5752,
    "fortun": 3540,
    "trad": 21078,
    "Ġinstability": 3812,
    "noise": 14332,
    "Ġclever": 7055,
    "bedroom": 14701,
    "Ġexpiration": 22626,
    "influences": 25251,
    "Ġcalamity": 17352,
    "Ġcoer": 22584,
    "Ġqualities": 7533,
    "swaying": 25911,
    "stricken": 9887,
    "Ġextinguished": 10341,
    "Ġcornelius": 13577,
    "levelled": 23645,
    "sed": 4172,
    "Ġobtru": 18676,
    "Â·": 21152,
    "Ġset": 1177,
    "Ġweaver": 11691,
    "Ġrob": 1251,
    "yl": 7818,
    "virt": 15454,
    "Ġgouldings": 26189,
    "Ġpry": 11603,
    "specimen": 26607,
    "Ġpole": 6433,
    "phur": 16155,
    "Ġadvis": 9810,
    "conditional": 9081,
    "Ġpet": 4585,
    "Ġcottagers": 6761,
    "Ġfeelingly": 22997,
    "Ġembattled": 26290,
    "Ġexploring": 4300,
    "Ġgild": 15673,
    "rove": 21536,
    "desk": 23812,
    "Ġostentatious": 25737,
    "Ġdelicate": 6480,
    "Ġmales": 17807,
    "Ġminutely": 14563,
    "fifth": 20149,
    "delay": 16697,
    "killed": 15380,
    "Ġpleasantly": 14522,
    "Ġodor": 12154,
    "Ġtransport": 11280,
    "Ġformer": 3323,
    "Ġcanall": 10930,
    "Ġshrieking": 24757,
    "ensing": 12901,
    "expanded": 23667,
    "cred": 9111,
    "Ġrationally": 18214,
    "Ġtwos": 18658,
    "Ġelegant": 7532,
    "vered": 4832,
    "embarr": 17295,
    "Ġconce": 3425,
    "Ġdaybreak": 18728,
    "think": 3609,
    "Ġcanvassed": 19938,
    "methodically": 20666,
    "Ġemployed": 5200,
    "Ġtandem": 26413,
    "crimin": 17511,
    "Ġcetus": 19887,
    "Ġstoutly": 16926,
    "old": 799,
    "friends": 8306,
    "batt": 20780,
    "Ġnom": 21522,
    "Ġunfelt": 24110,
    "Ġpitiful": 13243,
    "Ġsix": 3043,
    "cain": 15329,
    "fixed": 7548,
    "Ġcrying": 10788,
    "Ġperth": 7023,
    "Ġinheritance": 25356,
    "Ġaltitude": 26204,
    "Ġshar": 9253,
    "Ġdisregard": 22532,
    "Ġloaded": 8492,
    "Ġbug": 11592,
    "Ġinarticulate": 21503,
    "tons": 7559,
    "europe": 20668,
    "cet": 15328,
    "Ġgrain": 15835,
    "Ġconveniently": 20082,
    "Ġoutweigh": 22326,
    "Q": 53,
    "Ġceremony": 8361,
    "alse": 4181,
    "Ġonly": 789,
    "wolf": 26411,
    "rut": 8092,
    "trouble": 8296,
    "facts": 19845,
    "Ġlima": 10444,
    "arer": 3964,
    "chancing": 22911,
    "Ġblocked": 19225,
    "Ġoarsmen": 7737,
    "Ġscotland": 6641,
    "Ġdisinclination": 22540,
    "Ġthe": 270,
    "storm": 9685,
    "Ġdoes": 943,
    "Ġner": 1647,
    "Ġlistened": 4466,
    "impulse": 20647,
    "umerable": 11729,
    "Ġchronicler": 20232,
    "nuee": 17433,
    "Ġlies": 5297,
    "Ġrelieved": 7666,
    "garnished": 26390,
    "created": 12455,
    "Ġontario": 26207,
    "Ġstudy": 1804,
    "Ġsurmount": 20004,
    "Ġnewcastle": 16227,
    "Ġawaited": 17075,
    "possibility": 13366,
    "Ġhammered": 13244,
    "nervous": 16280,
    "Ġalarmed": 6922,
    "okers": 18442,
    "Ġburnwell": 13271,
    "atural": 925,
    "Ġloosed": 22116,
    "assured": 10954,
    "Ġresource": 10995,
    "childhood": 16870,
    "Ġcaroline": 7253,
    "enterprise": 24995,
    "Ġfinished": 5044,
    "libr": 22926,
    "Ġmills": 21314,
    "Ġsaf": 3996,
    "Ġanonym": 17899,
    "Ġhabits": 6925,
    "ative": 734,
    "Ġdisgusted": 14993,
    "Ġfixed": 2684,
    "Ġnewspaper": 12368,
    "Ġcollar": 11883,
    "Ġretire": 10384,
    "seated": 11675,
    "Ġacquainted": 5179,
    "Ġarchly": 22777,
    "Ġcounsel": 13619,
    "maritime": 24174,
    "Ġchapters": 10475,
    "colonel": 8285,
    "Ġcliffs": 15971,
    "Ġcongreg": 8464,
    "liking": 22927,
    "carrying": 16714,
    "Ġstained": 11655,
    "Ġagreed": 7029,
    "Ġwe": 386,
    "Ġinstinct": 6576,
    "Ġattendance": 12186,
    "pull": 6796,
    "Ġpeaked": 2293,
    "serv": 7450,
    "Ġcontents": 7209,
    "ressed": 3023,
    "ulance": 15771,
    "Ġclams": 19992,
    "Ġdisgraceful": 15022,
    "Ġreports": 19086,
    "ulence": 15770,
    "Ġnodes": 1967,
    "ples": 6844,
    "Ġflattened": 26048,
    "oup": 2014,
    "Ġissues": 9545,
    "Ġcommenting": 25229,
    "âĢĻ,": 14073,
    "Ġarranging": 11176,
    "Ġunfortunate": 5376,
    "arian": 10319,
    "Ġgreece": 17071,
    "Ġdisplayed": 10611,
    "ferent": 4191,
    "alf": 4638,
    "Ġvainly": 9927,
    "whip": 22241,
    "Ġaffrighted": 13576,
    "oting": 2743,
    "Ġburnt": 9931,
    "spouting": 25003,
    "Ġproclaim": 18133,
    "Ġshaded": 14108,
    "force": 12966,
    "colnett": 19331,
    "Ġcloud": 3908,
    "rix": 1577,
    "Ġplunging": 14955,
    "Ġflag": 7241,
    "Ġpresum": 4839,
    "benefit": 24643,
    "Ġlevi": 3034,
    "formed": 2553,
    "Ġtumbled": 13410,
    "maid": 8554,
    "Ġexult": 10232,
    "Ġlengths": 19208,
    "urmount": 13999,
    "greg": 6649,
    "lanter": 15391,
    "cating": 20804,
    "Ġstra": 2990,
    "Ġextremity": 8991,
    "Ġdelineations": 26059,
    "Ġcusack": 26435,
    "Ġdiscove": 16159,
    "paradise": 20639,
    "Ġbulkington": 14679,
    "Ġflourish": 17163,
    "agre": 18167,
    "Ġdomes": 23652,
    "iance": 5280,
    "Ġdie": 3958,
    "Ġstrateg": 1358,
    "Ġunderneath": 16341,
    "Ġimagine": 3920,
    "Ġrapidly": 3362,
    "Ġobjections": 8567,
    "propriety": 14375,
    "manned": 18766,
    "Ġhope": 1788,
    "Ġowed": 10782,
    "Ġprior": 11320,
    "Ġbelong": 3883,
    "iscreet": 20685,
    "Ġexeget": 24085,
    "Ġliberality": 24377,
    "Ġdebar": 24274,
    "borough": 20787,
    "ots": 3295,
    "parts": 14603,
    "Ġobtain": 8918,
    "Ġfulfilment": 20190,
    "Ġarched": 10934,
    "Ġdeparture": 6490,
    "bene": 6113,
    "Ġpolitely": 8996,
    "ources": 2787,
    "ignity": 4371,
    "links": 20960,
    "Ġsinusoid": 4782,
    "thouse": 21986,
    "observing": 25495,
    "Ġcoffins": 13254,
    "Ġgemin": 21613,
    "Ġastonished": 7088,
    "deal": 12804,
    "summer": 11998,
    "Ġdrowned": 9555,
    "Ġunwilling": 7885,
    "iasm": 8061,
    "Ġforgo": 21777,
    "robust": 19731,
    "Ġmouth": 3181,
    "longer": 8616,
    "Ġyouth": 4257,
    "Ġblunder": 18820,
    "Ġvomit": 21952,
    "Ġintact": 21993,
    "Ġdavis": 25953,
    "Ġsweeping": 8988,
    "jo": 3749,
    "vel": 2382,
    "dramatic": 19388,
    "biscuit": 17503,
    "inkled": 5477,
    "Ġaccustomed": 6860,
    "bitious": 16672,
    "ows": 1918,
    "--": 1041,
    "cup": 10694,
    "rushing": 10021,
    "ugues": 19024,
    "================": 3721,
    "Ġtraining": 529,
    "Ġenriched": 26501,
    "Ġcontro": 1688,
    "loud": 11503,
    "Ġswings": 11088,
    "iogn": 20923,
    "purp": 8091,
    "Ġheard": 1398,
    "supervised": 1868,
    "Ġdelusion": 18974,
    "distance": 12157,
    "Ġveiled": 16204,
    "Ġawkward": 7074,
    "rippa": 11343,
    "Ġdaughters": 4419,
    "uy": 21102,
    "Ġdisposition": 5409,
    "Ġolive": 12570,
    "Ġmislead": 22764,
    "Ġsem": 1876,
    "Ġcalm": 3449,
    "Ġanne": 1535,
    "Ġreverber": 19871,
    "Ò": 147,
    "iple": 4807,
    "hearth": 15502,
    "Ġconnect": 798,
    "Ġtrace": 6181,
    "Ġfundamental": 3013,
    "Ġprofundities": 20456,
    "Ġcoolly": 9775,
    "Ġsomnambul": 26578,
    "Ġbeyond": 2456,
    "Ġdiscovery": 5412,
    "Ġsequential": 2132,
    "Ġdirector": 18922,
    "Ġgritted": 22807,
    "Ġtimidity": 24688,
    "Ġkidnapping": 26358,
    "therefore": 5954,
    "Ġcaved": 21356,
    "kov": 17588,
    "supplied": 10522,
    "ract": 966,
    "Ġembraces": 19874,
    "Ġphilipses": 24452,
    "Ġwatch": 2742,
    "Ġjavelin": 26105,
    "ecess": 17534,
    "Ġcount": 1814,
    "Ġgrimly": 17053,
    "transp": 24512,
    "ĠĠĠĠĠĠĠĠĠĠĠĠĠ": 22566,
    "Ġarri": 2552,
    "Ġscud": 14193,
    "Ġsc": 530,
    "Ġjutting": 22305,
    "Ġencouraging": 2263,
    "agings": 18168,
    "Ġventil": 8019,
    "fleet": 15016,
    "Ġsomeone": 6704,
    "Ġunrival": 22049,
    "eze": 20849,
    "Ġluggage": 25958,
    "Ġrevelry": 15140,
    "Ġfavoured": 16364,
    "Ġplank": 7034,
    "Ġharpooneer": 3769,
    "Ġchancing": 22252,
    "ahit": 9385,
    "Ġbehaviors": 13258,
    "off": 1887,
    "Ġbarnacled": 25537,
    "Ġknows": 4154,
    "appin": 18761,
    "alog": 8809,
    "Ġflee": 7080,
    "Ġclo": 6043,
    "Ġcra": 2328,
    "Ġlightened": 23264,
    "handled": 19263,
    "fulfilment": 26026,
    "Ġ74": 24264,
    "Ġploughing": 26261,
    "adventure": 17236,
    "Ġerskine": 17435,
    "ifting": 6546,
    "Ġmonarch": 14418,
    "Ġbecoming": 4395,
    "Ġlethargy": 26485,
    "xi": 17712,
    "Ġbestir": 13114,
    "tremble": 17144,
    "Ġsecrecy": 7315,
    "Ġincred": 5646,
    "Ġmaiden": 13390,
    "absolute": 17125,
    "enty": 2914,
    "Ġcrowded": 8012,
    "Ġsweep": 8266,
    "Ġexasperate": 20101,
    "from": 1991,
    "gging": 7697,
    "Ġhundred": 2693,
    "view": 5896,
    "Ġcabaco": 13171,
    "Ġboston": 22643,
    "Ġcapt": 1292,
    "Ġacceptance": 14830,
    "Ġsomebody": 7912,
    "Ġsubsets": 2342,
    "Ġsoo": 15865,
    "Ġdusting": 24597,
    "Ġvectors": 1771,
    "Ġmaterially": 12196,
    "Ġselected": 9714,
    "ulty": 22571,
    "Ġswerve": 14440,
    "Ġcos": 2208,
    "Ġchildish": 13141,
    "atters": 18501,
    "Ġnoah": 10944,
    "thing": 1483,
    "equally": 19901,
    "Ġbeds": 14554,
    "Ġballarat": 14722,
    "Ġtransportation": 13646,
    "salis": 25150,
    "ppa": 10242,
    "eding": 7165,
    ",_": 11464,
    "elfth": 22373,
    "mil": 13755,
    "ableness": 8149,
    "gement": 13732,
    "Ġglens": 18850,
    "Ġand": 295,
    "Ġpanting": 11606,
    "oqu": 7555,
    "Ġdivert": 23595,
    "Ġincomp": 12902,
    "plied": 10257,
    ",": 16,
    "admiration": 11389,
    "Ġflor": 8564,
    "blacksmith": 17003,
    "omed": 13978,
    "Ġperuvian": 18453,
    "Ġaccidentally": 9508,
    "Ġformerly": 7493,
    "Ġbodings": 21394,
    "Ġdiminished": 16668,
    "Ġ115": 24439,
    "Ġneedle": 8275,
    "bit": 3928,
    "ribut": 812,
    "Ġtoiled": 12647,
    "find": 6953,
    "source": 11528,
    "Ġundone": 24117,
    "Ġjud": 3358,
    "Ġlancaster": 26342,
    "nantucket": 7804,
    "abashed": 21796,
    "convinced": 10625,
    "acing": 2717,
    "Ġleeward": 6211,
    "Ġsavannah": 17419,
    "Ġquit": 5246,
    "ß": 160,
    "Ġgirls": 4275,
    "Ġunerring": 15851,
    "Ġanalysis": 1971,
    "Ġrehearsed": 25972,
    "bounded": 13443,
    "Ġleatherhead": 20017,
    "Ġaghast": 16051,
    "Ġmalays": 19680,
    "Ġscholars": 26113,
    "'re": 12432,
    "Ġfrequ": 3328,
    "painful": 13505,
    "Ġwhirlpool": 20657,
    "scru": 16246,
    "ildad": 3533,
    "ropy": 1103,
    "aper": 4999,
    "Ġcustomary": 8673,
    "lower": 8884,
    "obstructed": 15230,
    "pushed": 21025,
    "Ġhappen": 5571,
    "Ġheeds": 24520,
    "affected": 10478,
    "Ġrigged": 16719,
    "ulent": 21866,
    "Ġcurvature": 3574,
    "gin": 4931,
    "Ġclosely": 6488,
    "Ġmanoir": 22336,
    "Ġdecomposes": 5506,
    "iverer": 11720,
    "Ġimaginative": 19249,
    "Ġyesterday": 5333,
    "Ġcorpulence": 24509,
    "Ġtempest": 8213,
    "Ġpumps": 8428,
    "Ġstill": 1156,
    "Ġsymmetrical": 20370,
    "Ġcasked": 24497,
    "gh": 3800,
    "adel": 15733,
    "Ġtrem": 6661,
    "coast": 10451,
    "blow": 9107,
    "Ġentertainment": 12227,
    "sacrifice": 13496,
    "Ġinf": 1754,
    "shape": 10983,
    "Ġso": 433,
    "Ġsecuring": 11996,
    "swed": 24256,
    "atives": 2236,
    "orse": 5807,
    "Ġcontempt": 6276,
    "hereabouts": 23608,
    "Ġunsub": 22025,
    "Ġfad": 17878,
    "Ġbluish": 23651,
    "Ġscenari": 22291,
    "Ġjustice": 5111,
    "hamed": 6306,
    "Ġrisen": 9496,
    "ancho": 4938,
    "Ġlists": 11168,
    "pole": 9336,
    "tempt": 21082,
    "Ġpours": 17914,
    "Ġalter": 6543,
    "Ġensl": 19276,
    "Ġdangerously": 23940,
    "anke": 15565,
    "Ġconfined": 7464,
    "ĠĠĠĠĠĠĠĠĠĠĠĠĠĠĠĠĠĠĠĠĠĠĠĠĠĠĠĠĠĠĠĠĠĠĠĠĠĠĠĠĠĠĠĠĠĠĠĠĠĠĠĠĠĠĠĠĠĠĠĠ": 19262,
    "Ġultimate": 12353,
    "Ġnomin": 10193,
    "Ġuns": 15840,
    "domestic": 19828,
    "Ġparticulars": 5754,
    "Ġcommit": 18656,
    "own": 744,
    "Ġfitted": 6244,
    "aments": 12730,
    "Ġblood": 3169,
    "Ġcircum": 8258,
    "Ġatonement": 21946,
    "anders": 18155,
    "moored": 22709,
    "character": 6332,
    "resnet": 4066,
    "allowance": 16826,
    "Ġvillanous": 24057,
    "educated": 17262,
    "Ġgettest": 23232,
    "Ġentr": 14342,
    "octavo": 11387,
    "Ġsilver": 7463,
    "Ġunre": 3479,
    "Ġcalculus": 23986,
    "Ġmakest": 25436,
    "Ġwing": 6667,
    "Ġdisregarded": 22534,
    "Ġbelf": 21384,
    "Ġunremitting": 26219,
    "Ġhypotheses": 4384,
    "Ġinterlacing": 22580,
    "Ġboard": 3384,
    "eight": 9594,
    "entrance": 12662,
    "reached": 13844,
    "Ġhart": 17924,
    "Ġfeverish": 11350,
    "Ġstrict": 7221,
    "fell": 6952,
    "Ġconverted": 16115,
    "Ġtendons": 19811,
    "attachment": 13057,
    "introdu": 8940,
    "Ġexposure": 16100,
    "ping": 9618,
    "Ġaffection": 2638,
    "Ġhesitation": 13445,
    "Ġsunny": 13090,
    "Ġpersecut": 16954,
    "Ġpurpose": 2708,
    "andromeda": 21872,
    "Ġeverlasting": 9340,
    "Ġhastening": 19337,
    "Ġbeamed": 23724,
    "strikes": 24671,
    "sudden": 5316,
    "13": 20752,
    "Ġdisplays": 19859,
    "Ġdisabled": 18562,
    "Ġsun": 1718,
    "Ġke": 1155,
    "Ġegot": 18010,
    "origin": 7582,
    "Ġhugest": 17017,
    "sius": 13791,
    "acet": 5476,
    "Ġcommended": 18657,
    "Ġnaut": 13944,
    "Ġpudding": 17918,
    "Ġprotesting": 14744,
    "Ġ40": 14771,
    "Ġdescended": 7427,
    "Ġespecial": 26412,
    "Ġinfer": 7684,
    "tashtego": 9625,
    "Ġavert": 14428,
    "Ġconj": 8462,
    "Ġclothed": 19609,
    "ashed": 3782,
    "reck": 9639,
    "unct": 18157,
    "ridden": 24362,
    "Ġquart": 11791,
    "Ġchristian": 6479,
    "ped": 6963,
    "Ġcramped": 23533,
    "looked": 6083,
    "nowhere": 18419,
    "Ġforgery": 25978,
    "Ġilluminate": 17195,
    "terrors": 25044,
    "Ġhighest": 3530,
    "Ġtar": 2562,
    "Ġburden": 8611,
    "asis": 12655,
    "Ġpeople": 2543,
    "Ġrobinson": 17466,
    "Ġarchy": 14349,
    "Ġ45": 14773,
    "Ġnecessarily": 13253,
    "Ġpurposed": 23555,
    "Ġ106": 24414,
    "ism": 4875,
    "Ġcentral": 7727,
    "ome": 535,
    "Ġinclement": 22557,
    "very": 501,
    "orough": 5700,
    "Ġdisent": 22527,
    "Ġhyperborean": 26341,
    "isa": 17847,
    "retreat": 23142,
    "Ġcult": 8786,
    "reliable": 21243,
    "loose": 11809,
    "Ġaccomplice": 24376,
    "Ġfrosted": 19806,
    "Ġorgies": 18286,
    "Ġforefinger": 16444,
    "onds": 13000,
    "Ġfruits": 17121,
    "Ġslabs": 13066,
    "Ġunaccountably": 26517,
    "Ġlimping": 23549,
    "Ġevangelists": 20342,
    "Ġgallery": 10527,
    "Ġprovinces": 24191,
    "Ġgrin": 5482,
    "relics": 24018,
    "residual": 19264,
    "used": 3261,
    "isol": 17848,
    "Ġhead": 1125,
    "Ġslice": 23163,
    "Ġslope": 14463,
    "Ġannouncement": 14836,
    "Ġlanguid": 14216,
    "terbury": 21828,
    "Ġautumn": 14514,
    "Ġhast": 3152,
    "Ġemotion": 7690,
    "Ġcunning": 6239,
    "Ġcourt": 4163,
    "exciting": 19671,
    "Ġpocket": 4899,
    "Ġjing": 15953,
    "Ġwid": 4632,
    "sensations": 20054,
    "ĠĠĠĠĠĠĠĠĠĠĠĠĠĠĠĠĠĠĠĠĠĠĠĠĠĠĠĠĠĠĠĠĠĠĠĠĠĠĠĠĠĠĠĠĠĠĠĠĠĠĠĠĠ": 20043,
    "windibank": 24162,
    "Ġkill": 4451,
    "su": 792,
    "Ġdistillation": 16049,
    "igators": 18047,
    "Ġsmallest": 6430,
    "Ġmilitary": 11260,
    "Ġcollateral": 20075,
    "Ġbush": 23338,
    "Ġoppress": 13176,
    "Ġcomparison": 7100,
    "Ġimpressed": 8199,
    "Ġcourage": 4633,
    "Ġconsented": 11297,
    "Ġnote": 4259,
    "ouching": 13181,
    "Ġconquest": 15752,
    "Ġinto": 648,
    "Ġcrucial": 9896,
    "Ġlot": 6679,
    "isc": 6240,
    "Ġsame": 1342,
    "Ġann": 4486,
    "honorable": 19903,
    "displayed": 20738,
    "eked": 16406,
    "Ġske": 4816,
    "tot": 10730,
    "negro": 18494,
    "icates": 11620,
    "Ġreasoned": 23091,
    "Ġphrase": 11189,
    "solved": 7685,
    "Ġcultivated": 17367,
    "perils": 22182,
    "Ġuncovered": 23435,
    "Ġtermination": 16462,
    "erie": 21274,
    "electricity": 26387,
    "Ġentries": 22748,
    "success": 6711,
    "general": 7489,
    "commencement": 26350,
    "Ġdisappearing": 22537,
    "Ġstubbornness": 25380,
    "Ġearn": 3548,
    "Ġdispelling": 23883,
    "Ġfrederick": 15591,
    "Ġprogrammed": 11059,
    "Ġtolerably": 8068,
    "Ġprogno": 14043,
    "Ġcarefully": 6305,
    "Ġsearched": 15823,
    "yonder": 21147,
    "ture": 7558,
    "uous": 4139,
    "thinness": 25811,
    "hurriedly": 25511,
    "Ġashen": 21903,
    "flames": 14715,
    "umbled": 8494,
    "Ġfearfully": 23515,
    "pivot": 21033,
    "cannon": 22965,
    "Ġtangles": 25762,
    "likewise": 13109,
    "Ġtusked": 25427,
    "Ġwooden": 4730,
    "Ġwishing": 7830,
    "flu": 9120,
    "fearing": 18534,
    "Ġ23": 13194,
    "Ġgifts": 21615,
    "utch": 21589,
    "Ġbarrens": 25502,
    "oot": 13768,
    "ojo": 7348,
    "bble": 17487,
    "clothes": 9060,
    "Ġupward": 9724,
    "Ġsleep": 2396,
    "Ġsparkled": 13466,
    "Ġfrenz": 25447,
    "ishes": 6523,
    "Ġaversion": 18867,
    "elves": 2159,
    "runs": 25416,
    "Ġstreng": 18073,
    "Ġing": 5284,
    "Ġovertake": 15974,
    "Ġintensity": 10019,
    "Ġcelerity": 17439,
    "Ġheaded": 11056,
    "pertaining": 22183,
    "Ġaffirm": 11891,
    "Ġheaths": 25973,
    "Ġindifferent": 6175,
    "Ġfortifications": 23622,
    "dancing": 12459,
    "Ġundeceive": 25553,
    "Ġgoug": 17993,
    "Ġprints": 16334,
    "east": 9118,
    "Ġcustom": 5078,
    "itancy": 21336,
    "narrow": 11510,
    "Ġreliable": 18778,
    "Ġfolding": 19730,
    "pid": 1401,
    "Ġimmovable": 15896,
    "Ġtam": 7821,
    "âĢĶâĢĺ": 7014,
    "uncle": 8159,
    "Ġfaith": 5351,
    "seen": 2877,
    "Ġcrystals": 20230,
    "Ġtatters": 21180,
    "stood": 4112,
    "contrasted": 17309,
    "Ġadhering": 14142,
    "hum": 3776,
    "singular": 12193,
    "Ġforenoon": 19127,
    "flutter": 23974,
    "kill": 13747,
    "Ġconception": 10316,
    "Ġcrackling": 24961,
    "Ġswing": 13041,
    "Ġseem": 914,
    "shudder": 26247,
    "Ġperseverance": 13601,
    "Ġmonogram": 26576,
    "Ġworshippers": 25694,
    "comprehens": 16174,
    "Ġtend": 6121,
    "Ġfurthest": 22819,
    "eager": 12464,
    "cull": 20811,
    "Ġabhorrent": 16858,
    "grounds": 11153,
    "Ġallurements": 22076,
    "Ġastronomy": 25927,
    "verdict": 21733,
    "Ġdistribut": 843,
    "active": 16107,
    "Ġsanta": 26422,
    "Ġalso": 1344,
    "ris": 9140,
    "Ġjones": 7203,
    "Ġnautical": 17389,
    "Ġchemical": 10412,
    "sulphur": 25910,
    "_:": 17481,
    "Ġaverse": 11083,
    "suff": 4961,
    "Ġmah": 15545,
    "Ġsteering": 10390,
    "Ġlove": 2054,
    "Ġredress": 23754,
    "Ġtucked": 12396,
    "Ġspaniard": 20366,
    "Ġgills": 17995,
    "Ġshetland": 22163,
    "Ġmultitudinous": 26275,
    "Ġi": 312,
    "Ġsweet": 3467,
    "Ġdistances": 22508,
    "ignific": 11960,
    "brimmed": 14590,
    "Ġcontortions": 18477,
    "Ġconvolutions": 21811,
    "speechless": 25396,
    "Ġmagnus": 18960,
    "Ġclapped": 9748,
    "Ġunknown": 4450,
    "Ġgipsies": 12412,
    "bro": 4031,
    "Ġaskance": 23153,
    "eyeing": 14949,
    "urious": 21706,
    "Ġkra": 18349,
    "Ġeverybody": 4507,
    "Ġtorment": 8677,
    "russian": 22193,
    "consciously": 19628,
    "Ġexpectation": 6903,
    "networks": 2402,
    "itect": 968,
    "Ġcandle": 8293,
    "Ġcring": 15556,
    "Ġshrouds": 11346,
    "eenth": 12465,
    "ensation": 22549,
    "Ġalluded": 7887,
    "Ġbarb": 4529,
    "Ġbye": 12743,
    "Ġyards": 5371,
    "move": 11858,
    "Ġamphitheat": 26254,
    "Ġrepute": 18037,
    "Ġsummer": 4791,
    "erable": 1917,
    "pherd": 13648,
    "Ġunhappily": 18260,
    "arius": 14251,
    "igantic": 5539,
    "Ġpipeline": 2451,
    "tumbled": 21093,
    "spee": 9320,
    "Ġirreparable": 20002,
    "Ġten": 2383,
    "month": 6463,
    "uding": 16154,
    "Ġuntimely": 16468,
    "Ġpartner": 6715,
    "Ġwearied": 15797,
    "Ġmounttop": 19981,
    "ards": 2502,
    "Ġwhirlp": 16965,
    "Ġunpleasing": 22057,
    "Ġinfant": 11964,
    "Ġqueen": 3215,
    "Ġmetal": 9387,
    "Ġentra": 18696,
    "Ġgidd": 25784,
    "drive": 8686,
    "Ġrossum": 3012,
    "Ġengaged": 3432,
    "sloop": 26146,
    "gaining": 20127,
    "uerus": 26408,
    "Ġperson": 2364,
    "surf": 24213,
    "Ġtwins": 16124,
    "Ġrefill": 18698,
    "province": 26073,
    "Ġmccauley": 26429,
    "Ġrambling": 18644,
    "Ġassured": 4369,
    "bil": 20773,
    "till": 6965,
    "Ġderivative": 2998,
    "Ġcred": 8785,
    "Ġrealising": 18983,
    "string": 15690,
    "Ġmultipl": 2789,
    "Ġsign": 2493,
    "immortal": 21713,
    "Ġamel": 18511,
    "Ġgeomet": 3192,
    "Ġsaratoga": 26425,
    "visits": 24225,
    "Ġmizen": 17261,
    "Ġresponsiveness": 2894,
    "Ġtraversed": 18893,
    "Ġdrunken": 12054,
    "Ġtendinous": 16933,
    "information": 12397,
    "Ġstrangled": 24133,
    "grees": 20888,
    "Ġprejudiced": 24806,
    "Ġsleepless": 14584,
    "Ġfloundered": 18863,
    "Ġwoof": 14724,
    "elstrom": 17984,
    "Ġczar": 12579,
    "Ġdeceived": 6545,
    "Ġusing": 715,
    "Ġ98": 24594,
    "irons": 10241,
    "hecy": 21209,
    "Ġvineyards": 25109,
    "rue": 1128,
    "ub": 1225,
    "Ġson": 2982,
    "Ġgems": 9211,
    "Ġrepeating": 11215,
    "lar": 4480,
    "Ġgable": 15671,
    "throwing": 11707,
    "Ġsed": 10763,
    "Ġforgiven": 24030,
    "Ġdismally": 20217,
    "Ġweeds": 21927,
    "qu": 369,
    "Ġwidespread": 20678,
    "Ġsubur": 12961,
    "zas": 17714,
    "high": 6651,
    "Ġscarce": 8625,
    "Ġlull": 15655,
    "deeply": 16182,
    "Ġmira": 8408,
    "Ġthirt": 13942,
    "^": 66,
    "Ġstrike": 4857,
    "ingly": 2135,
    "ñ": 178,
    "square": 15062,
    "mockery": 24378,
    "exagger": 22432,
    "nav": 17614,
    "Ġhardened": 14453,
    "Ġremedy": 18726,
    ",âĢĻâĢĶ": 23530,
    "Ġwildest": 16512,
    "Ġsuccour": 20438,
    "Ġinspired": 2517,
    "Ġcool": 5734,
    "asion": 5714,
    "Ġclubs": 25180,
    "Ġsisters": 3640,
    "asher": 15650,
    "Ġsprings": 16688,
    "had": 1951,
    "Ġclimb": 15083,
    "Ġcatch": 4438,
    "twelvemonth": 25863,
    "condesc": 18506,
    "||": 4870,
    "Ġschol": 17380,
    "library": 13004,
    "Ġwidest": 24236,
    "ounts": 4651,
    "Ġantichronical": 26611,
    "Ġfossils": 20225,
    "Ġlabyrinth": 13683,
    "Ġfossiliferous": 25610,
    "Ġwiser": 14733,
    "Ġcaulking": 20296,
    "rote": 4591,
    "iminished": 19025,
    "Ġretiring": 16283,
    "Ġdictate": 20154,
    "Ġsatiated": 22905,
    "dishonourable": 26367,
    "reproach": 15190,
    "Ġbra": 3256,
    "Ġsubdiv": 16164,
    "Ġduodecimo": 16769,
    "drovand": 24759,
    "Ġnames": 4531,
    "Ġyielded": 14875,
    "Ġtashtego": 4483,
    "ho": 2855,
    "Ġbequeathed": 20704,
    "Ġlimbs": 5966,
    "Ġuninterrupted": 22048,
    "Ġopulent": 23630,
    "Ġliveliness": 13647,
    "Ġinvented": 17038,
    "Ġther": 17780,
    "Ġpreparations": 12314,
    "collect": 16566,
    "star": 12677,
    "Ġkneeling": 12147,
    "rified": 15422,
    "Ġliver": 14230,
    "taking": 5689,
    "Ġmarket": 7708,
    "locks": 14459,
    "breathing": 25336,
    "hearing": 8404,
    "goose": 19103,
    "Ġunnecessary": 8855,
    "aid": 1922,
    "Ġdetect": 1217,
    "Ġcharcoal": 19008,
    "Ġhemp": 9218,
    "Ġplunged": 8696,
    "Ġashes": 7617,
    "Ġhamper": 19392,
    "Ġdesperation": 19821,
    "talked": 14988,
    "Ġwhirled": 14963,
    "Ġupbraided": 26530,
    "Ġsubtlety": 24779,
    "Ġai": 3128,
    "sebastian": 21824,
    "Ġdrinking": 12173,
    "Ġsovereign": 10065,
    "vapor": 25756,
    "Ġenumerating": 15248,
    "bitterly": 20340,
    "distressed": 24200,
    "steak": 14711,
    "forgotten": 12420,
    "Ġceler": 15555,
    "Ġundertaken": 18987,
    "Ġroyalty": 19739,
    "Ġholy": 6592,
    "Ġforeshadowing": 26594,
    "ratches": 20128,
    "Ġobscurely": 20191,
    "Ġbeck": 14012,
    "Ġlucy": 17972,
    "prit": 19344,
    "Ġpyramids": 15118,
    "Ġrendering": 16660,
    "Ġdefendants": 15144,
    "Ġtremulous": 14989,
    "Ġtinker": 15135,
    "Ġsupp": 1263,
    "lifted": 15390,
    "Ġno": 511,
    "summoned": 26593,
    "Ġsubstantiated": 25876,
    "Ġlogic": 13082,
    "fem": 17539,
    "Ġvalue": 2084,
    "Ġbeaufort": 13572,
    "Ġdarcy": 1343,
    "Ġtranquillize": 24756,
    "Ġpal": 4038,
    "Ġreceipt": 20358,
    "irmed": 9242,
    "germ": 15360,
    "Ġdetain": 14176,
    "Ġcy": 13877,
    "Ġwhereby": 11841,
    "ather": 740,
    "actory": 8911,
    "Ġloitered": 26527,
    "sche": 13020,
    "smote": 23913,
    "opposition": 24820,
    "dry": 13707,
    "ooped": 17625,
    "attered": 4013,
    "Ġnumberless": 16418,
    "Ġspringing": 10521,
    "Ġfolios": 23023,
    "Ġleaps": 14011,
    "Ġfaint": 5812,
    "corpse": 24486,
    "Ġlikewise": 5386,
    "Ġrecursive": 4783,
    "namely": 23695,
    "Ġincomplete": 17211,
    "olerably": 11676,
    "nades": 20999,
    "gracechurch": 24582,
    "Ġoverlooked": 15975,
    "Ġdespaired": 14671,
    "Ġinhale": 20303,
    "Ġsince": 1795,
    "piece": 6657,
    "Ġwrite": 3820,
    "Ġout": 543,
    "Ġunpleasant": 7190,
    "Ġadjacent": 20713,
    "inaw": 21186,
    "according": 12032,
    "Ġblindly": 12114,
    "Ġsummoned": 9914,
    "Ġkrusenstern": 26379,
    "Ġgenerously": 22399,
    "und": 4083,
    "Ġlivelong": 25512,
    "Ġawa": 7713,
    "pounds": 21027,
    "Ġshade": 6551,
    "Ġoutrageous": 20613,
    "Ġremembrance": 8318,
    "Ġspirits": 3696,
    "ousand": 2426,
    "Ġorganisation": 23585,
    "Ġpalmy": 19502,
    "mrs": 3743,
    "bedded": 12447,
    "Ġbl": 1191,
    "Ġafter": 870,
    "á": 162,
    "Ġsufferings": 7513,
    "Ġultimately": 17167,
    "Ġcontact": 9284,
    "Ġwager": 17794,
    "Ġpedest": 15067,
    "Ġsteered": 11093,
    "Ġdow": 17888,
    "Ġflit": 23011,
    "Ġwatching": 4856,
    "Ġbang": 17856,
    "admitted": 18094,
    "Ġintroduces": 3271,
    "ackinaw": 22429,
    "Ġsamples": 2962,
    "consp": 18505,
    "Ġcall": 2074,
    "io": 3801,
    "slow": 7810,
    "thou": 4709,
    "ourably": 14380,
    "Ġliterally": 15120,
    "jaws": 20934,
    "ulity": 10888,
    "face": 3676,
    "Ġlawless": 19438,
    "Ġdiffer": 18678,
    "hoping": 17568,
    "Ġhearken": 21688,
    "ronted": 14880,
    "vand": 21111,
    "Ġumbrella": 15269,
    "Ġneighbourhood": 5126,
    "robe": 15646,
    "Ġvigilance": 12375,
    "Ġireland": 17338,
    "Ġinternal": 2246,
    "shiver": 16025,
    "Ġguineas": 16275,
    "tort": 17677,
    "Ġhatchet": 16531,
    "ittarius": 22381,
    "socket": 22734,
    "made": 4809,
    "Ġvitality": 15176,
    "Ġages": 7028,
    "Ġreminding": 19800,
    "Ġcaul": 10789,
    "hawk": 7122,
    "Ġexclude": 19042,
    "Ġloops": 8856,
    "Ġunsav": 18249,
    "Ġdinners": 23985,
    "Ġselfishness": 12293,
    "Ġrejo": 5916,
    "leaped": 17845,
    "Ġensu": 7875,
    "Ġimag": 2674,
    "Ġsublime": 8066,
    "Ġfre": 1574,
    "Ġfranc": 16355,
    "eldom": 4411,
    "Ġsiamese": 20486,
    "brimming": 23579,
    "Ġinequal": 21500,
    "Ġtut": 8774,
    "Ġsocieties": 20185,
    "unicorn": 21893,
    "consequence": 9766,
    "Ġseasonable": 24406,
    "Ġsees": 8847,
    "sa": 8760,
    "Ġswear": 6461,
    "Ġbiting": 17863,
    "shazz": 14242,
    "seventh": 12719,
    "Ġ110": 24435,
    "body": 2304,
    "consist": 14819,
    "Ġdiscern": 7926,
    "preading": 18498,
    "âĢĿâĢĶ": 5721,
    "Ġxavier": 2852,
    "Ġprofane": 13156,
    "Ġbosoms": 16797,
    "imble": 10860,
    "estone": 18364,
    "compan": 7300,
    "narrowly": 20350,
    "ment": 696,
    "extinguished": 16152,
    "Ġgossiping": 26245,
    "Ġadoption": 24951,
    "Ġharvest": 13419,
    "Ġthirdly": 24143,
    "Ġport": 3310,
    "hauled": 20671,
    "Ġtuck": 10143,
    "crossed": 16635,
    "Ġunprotected": 22069,
    "Ġsoot": 14134,
    "Ġshowers": 16607,
    "Ġportable": 19373,
    "Ġcham": 4893,
    "Ġglowed": 24865,
    "enhall": 13853,
    "Ġunfortunately": 10910,
    "detained": 24382,
    "Ġcigaret": 16978,
    "×": 152,
    "Ġmax": 2006,
    "fellow": 6792,
    "Ġbennett": 16328,
    "ulates": 14058,
    "Ġderived": 8239,
    "ish": 551,
    "Ġthreatening": 16830,
    "Ġgateway": 24799,
    "ith": 330,
    "Ġenjoyment": 7299,
    "them": 3019,
    "feit": 16046,
    "ough": 470,
    "Ġunprecedented": 15858,
    "Ġspectacle": 10499,
    "Ġcrotch": 9966,
    "Ġpainful": 6462,
    "Ġheaps": 11645,
    "height": 21208,
    "Ġbr": 1074,
    "Ġgraceful": 11298,
    "formality": 22226,
    "Ġgradual": 20604,
    "room": 2179,
    "small": 6472,
    "Ġflames": 7940,
    "Ġrisks": 9967,
    "endure": 22229,
    "nowledge": 10292,
    "Ġsacrific": 15020,
    "Ġoutrid": 22319,
    "Ġvincent": 15287,
    "Ġlimped": 19183,
    "Ġslide": 10396,
    "Ġstabbed": 25457,
    "Ġwarm": 2422,
    "Ġdolphin": 17315,
    "Ġbarely": 16938,
    "Ġcharacter": 2792,
    "Ġpier": 7162,
    "Ġvac": 5025,
    "Ġhunts": 23161,
    "ldog": 21921,
    "audible": 17135,
    "Ġextort": 22718,
    "Ġfuture": 1098,
    "Ġanticipatingly": 26103,
    "ust": 492,
    "beg": 22491,
    "islanders": 25443,
    "Ġpreventing": 885,
    "Ġbald": 16210,
    "Ġbeliever": 25847,
    "nets": 9135,
    "ĩ": 234,
    "Ġasser": 6258,
    "Ġbathe": 25444,
    "Ġone": 569,
    "grasp": 16434,
    "Ġpaternal": 16371,
    "rarely": 21637,
    "Ġfelt": 1743,
    "Ġengraving": 17081,
    "Ġbeech": 18085,
    "destiny": 16701,
    "infer": 10147,
    "brown": 15321,
    "Ġaristotle": 25818,
    "Ġgrizz": 10355,
    "Ġfinger": 5274,
    "Ġharsh": 9524,
    "equal": 14996,
    "rennial": 22345,
    "Ġaspire": 21904,
    "Ġsympathising": 24299,
    "txt": 12520,
    "emph": 21932,
    "Ġansw": 2205,
    "Ġexpanding": 25239,
    "binary": 20786,
    "Ġtouching": 4680,
    "deployment": 26529,
    "§": 105,
    "grieved": 17320,
    "Ġghastly": 10063,
    "arb": 1569,
    "opportunity": 12279,
    "Ġcontrivances": 12361,
    "Ġgrizzled": 11452,
    "Ġjunks": 25116,
    "Ġgorgeous": 20470,
    "Ġregal": 16076,
    "dislike": 23498,
    "shown": 22443,
    "Ġxxiv": 24477,
    "connected": 1309,
    "Ġga": 4443,
    "fellows": 12278,
    "ability": 717,
    "Ġrenegades": 26478,
    "Ġencourage": 10383,
    "awe": 20767,
    "sufferable": 12181,
    "ascertain": 21546,
    "urday": 13998,
    "lee": 11588,
    "Ġsufficient": 2003,
    "Ġaggregated": 25679,
    "found": 4210,
    "Ġintim": 6837,
    "erick": 13851,
    "shortly": 12263,
    "Ġmiles": 3803,
    "copy": 5133,
    "tting": 17682,
    "tea": 18743,
    "Ġconstraints": 2739,
    "itous": 13870,
    "Ġmarking": 16470,
    "Åĵ": 10746,
    "Ġfulfil": 9554,
    "Ġcranial": 25593,
    "Ġpreserving": 19799,
    "Ġsanction": 20029,
    "Ġbegrimed": 26580,
    "Ġhorseback": 14853,
    "Ġmacy": 19358,
    "judging": 24202,
    "aiian": 23594,
    "Ġsprung": 11249,
    "Ġjollies": 20373,
    "Ġhoary": 23357,
    "Ġestim": 3349,
    "caroline": 24150,
    "Ġlengthened": 25959,
    "Ġbulls": 23861,
    "loa": 18537,
    "gether": 1598,
    "Ġcrystall": 20229,
    "iting": 2158,
    "aneously": 4056,
    "Ġorganically": 3011,
    "Ġgrasped": 8034,
    "Ġsilence": 3269,
    "Ġsummary": 19406,
    "Ġclassical": 22630,
    "otently": 21804,
    "Ġacquirement": 19257,
    "Ġcurving": 16250,
    "Ġmemo": 18119,
    "Ġsimilitude": 19212,
    "Ġhimmale": 18335,
    "Ġsubfield": 11873,
    "supper": 12924,
    "Ġbrace": 11213,
    "Ġupbra": 22158,
    "Ġchina": 8040,
    "boxes": 16890,
    "Ġnotions": 14102,
    "Ġarms": 3962,
    "Ġavowed": 16636,
    "Ġresentment": 7530,
    "excitement": 19672,
    "measure": 10034,
    "Ġsurely": 6308,
    "firmly": 20283,
    "ield": 2405,
    "ixed": 4853,
    "sery": 17663,
    "Ġsakes": 18327,
    "opolising": 25677,
    "Ġchosen": 7200,
    "Ġwives": 12560,
    "idered": 4551,
    "Ġpolynesian": 26027,
    "Ġless": 1940,
    ")": 13,
    "Ġexclam": 6758,
    "acled": 16085,
    "Ġcrust": 21354,
    "Ġlashed": 9201,
    "retrospect": 23144,
    "track": 24335,
    "Ġcolt": 11046,
    "Ġrushes": 20511,
    "re": 266,
    "Ġfaithfully": 14890,
    "Ġresistance": 13533,
    "Ġsher": 3761,
    "Ġpages": 15612,
    "doublo": 24661,
    "Ġrecommendation": 17027,
    "Ġrepair": 11983,
    "sullen": 17671,
    "Ġcanoe": 9726,
    "Ġjust": 1239,
    "Ġvanished": 6873,
    "sales": 17669,
    "Ġtrampling": 25493,
    "Ġdyspepsia": 20645,
    "Ġjewelled": 20186,
    "Ġivory": 4473,
    "Ġtrip": 16790,
    "hement": 13835,
    "phew": 6368,
    "Ġjoes": 19233,
    "Ġfaculties": 14961,
    "hamlet": 23265,
    "Ġowned": 11880,
    "Ġinasmuch": 10827,
    "ze": 1315,
    "Ġcabman": 14607,
    "avail": 18605,
    "Ġsunlight": 13089,
    "borean": 25744,
    "Ġwidow": 8666,
    "Ġwillingly": 8888,
    "thread": 15830,
    "Ġencoder": 3635,
    "miles": 10714,
    "bons": 17489,
    "Ġaccounting": 14575,
    "Ġdetermining": 14423,
    "solution": 14688,
    "Ġinclemency": 22559,
    "ie": 730,
    "Ġintend": 12769,
    "stating": 21650,
    "Ġcontextually": 11957,
    "Ġbustle": 17230,
    "Ġrapture": 13499,
    "Ġhopeful": 19032,
    "Ġlabel": 14518,
    "Ġchart": 10947,
    "Ġvalidate": 3412,
    "gpt": 5356,
    "legged": 10468,
    "Ġpinched": 17036,
    "Ġadvantage": 4312,
    "Ġconfounded": 16387,
    "antic": 1607,
    "crippled": 26386,
    "Ġundertone": 23241,
    "extremely": 26265,
    "Ġbreak": 2865,
    "Ġunwelcome": 12784,
    "Ġallegor": 25546,
    "Ġobserv": 8589,
    "Ġpolice": 4674,
    "elev": 12463,
    "mody": 16189,
    "Ġoutwardly": 25001,
    "former": 11752,
    "Ġanticipating": 17060,
    "Ġharpooneers": 4732,
    "ascertaining": 26462,
    "Ġunder": 1637,
    "hor": 2571,
    "Ġcompass": 4406,
    "Ġcheek": 8580,
    "Ġfab": 15580,
    "Ġtribute": 15478,
    "Ġlodges": 19503,
    "Ġferocity": 16868,
    "Ġenveloping": 19737,
    "Ġfinancier": 26585,
    "Ġnlp": 3061,
    "Ġshipw": 12984,
    "âĢĶâĢĶâĢĿ": 15943,
    "Ġviolates": 3166,
    "Ġpalp": 11251,
    "Ġimparted": 15992,
    "Ġkramm": 26235,
    "Ġheadstrong": 14391,
    "Ġtravellers": 11310,
    "Ġecstasy": 11633,
    "airing": 16180,
    "escript": 18471,
    "awake": 14455,
    "governed": 25406,
    "Ġalbatross": 10873,
    "specim": 23947,
    "expectation": 14859,
    "Ġtired": 9152,
    "Ġscaffold": 18401,
    "voices": 21120,
    "Ġkings": 7196,
    "ered": 1684,
    "Ġconsoling": 19460,
    "ged": 1517,
    "Ġcolonnades": 26277,
    "believe": 8304,
    "Ġwitnessing": 19601,
    "Ġporing": 21470,
    "Ġsolicit": 22890,
    "I": 45,
    "Ġpondering": 17007,
    "Ġornament": 11724,
    "oysius": 14367,
    "Ġsheath": 14154,
    "Ġunstructure": 2993,
    "Ġdiabolically": 25514,
    "igate": 8827,
    "Ġbrightly": 13229,
    "thinks": 16644,
    "Ġhandling": 8916,
    "Ġinconstant": 21499,
    "Ġmarty": 20293,
    "ributed": 8214,
    "Ġcare": 1639,
    "readily": 19365,
    "Ġbasin": 19850,
    "Ġcapric": 14578,
    "Ġwildness": 14605,
    "fect": 2297,
    "contrast": 25595,
    "Ġgarn": 13966,
    "Ġtheory": 5799,
    "Ġdisk": 22526,
    "Ġjames": 6419,
    "Ġsuspic": 4467,
    "powder": 17647,
    "Ġappeals": 16320,
    "fisher": 7547,
    "Ġdeduction": 14904,
    "Ġgilded": 17448,
    "Ġbuckler": 24860,
    "glue": 17558,
    "Ġdigest": 24648,
    "Ġbrooded": 23106,
    "anywhere": 14684,
    "Ġexploded": 15913,
    "stun": 18021,
    "Ġconfession": 11237,
    ",)": 9104,
    "note": 14345,
    "Ġboisterously": 25683,
    "violently": 23546,
    "Ġincapable": 7422,
    "Ġformed": 3881,
    "Ġanyone": 4456,
    "Ġdeterm": 1269,
    "Ġvintage": 26211,
    "archbishop": 22895,
    "Ġdam": 2217,
    "^{": 15308,
    "tis": 4101,
    "Ġbeque": 18083,
    "Ġobserved": 3542,
    "Ġslumbering": 25702,
    "grad": 2567,
    "jer": 12485,
    "Ġplanned": 14755,
    "Ġstrangely": 5677,
    "agra": 14069,
    "Ġsighs": 22712,
    "Ġyarn": 10870,
    "Ġintrepidity": 25551,
    "towing": 17691,
    "Ġmain": 807,
    "inv": 8402,
    "------": 12138,
    "asleep": 21547,
    "Ġrandom": 1590,
    "Ġ183": 13242,
    "Ġconfirmation": 17213,
    "bu": 5132,
    "Ġreverse": 16984,
    "Ġconvolutional": 2163,
    "Ġroll": 5381,
    "Ġapologies": 25197,
    "Ġwintry": 17437,
    "useness": 22296,
    "insanity": 23070,
    "Ġdeliber": 7267,
    "Ġslip": 8957,
    "Ġbully": 23859,
    "Ġpertaining": 18451,
    "cock": 12030,
    "maintained": 25023,
    "asons": 6015,
    "Ġrefusing": 11030,
    "ial": 409,
    "Ġcoats": 16080,
    "Ġdead": 2172,
    "rods": 21541,
    "Ġpulled": 5660,
    "Ġflail": 23012,
    "Ġmanners": 3788,
    "suggested": 17302,
    "Ġundergo": 23239,
    "Ġstiff": 6992,
    "Ġbehaved": 13257,
    "Ġshave": 22000,
    "Ġ[_": 15464,
    "te": 997,
    "Ġsixth": 16562,
    "Ġgallon": 24185,
    "twill": 21077,
    "writes": 4988,
    "daylight": 19055,
    "abhor": 12712,
    "ĠĠĠĠĠĠĠĠĠĠĠĠĠĠĠĠĠĠĠĠĠĠ": 16230,
    "Ġinterlude": 16074,
    "Ġcourtesy": 9948,
    "somerset": 26324,
    "Ġmutually": 23960,
    "Ġdeposit": 17271,
    "Ġindividuals": 24546,
    "Ġbreaking": 6311,
    "Ġbad": 3983,
    "Ġscornful": 24999,
    "sive": 4138,
    "Ġrib": 4936,
    "Ġseeth": 21964,
    "Ġasiatic": 20433,
    "Ġgrowl": 16540,
    "Ġdeliberation": 19972,
    "Ġcivilised": 24246,
    "Ġfiled": 15584,
    "Ġpreparation": 13532,
    "Ġdetached": 10282,
    "wic": 21123,
    "Ġbugs": 13652,
    "Ġinitial": 821,
    "Ġstrife": 18614,
    "Ġwriter": 11949,
    "Ġrounds": 18886,
    "gossip": 23407,
    "Ġdolphins": 20399,
    "jar": 17579,
    "Ġgerman": 6142,
    "Ġtwink": 8216,
    "abond": 15745,
    "Ġtea": 5041,
    "Ġinteresting": 4321,
    "Ġwand": 4338,
    "forgetting": 25486,
    "Ġjen": 9270,
    "Ġindepend": 3667,
    "Ġstack": 21737,
    "Ġdestroy": 5772,
    "Ġstreat": 15725,
    "Ġhumaneval": 25583,
    "departure": 15238,
    "Ġsurpasses": 25269,
    "Ġthunder": 4825,
    "Ġstole": 7953,
    "wid": 10137,
    "Ġharem": 9712,
    "Ġable": 3080,
    "Ġfant": 9176,
    "Ġstair": 8457,
    "Ġexpectations": 13147,
    "Ġattorney": 18626,
    "fate": 17541,
    "sensibility": 25026,
    "Ġdaring": 8121,
    "ember": 1957,
    "lob": 22511,
    "Ġturn": 1298,
    "encoun": 12302,
    "Ġreplace": 14479,
    "Ġunimportant": 22032,
    "Ġdisasters": 16057,
    "Ġopenly": 8575,
    "finding": 17015,
    "Ġkind": 1784,
    "cleanliness": 25872,
    "Ġbefall": 8833,
    "Ġadvanced": 1447,
    "za": 13813,
    "Ġgibe": 25960,
    "luded": 4225,
    "waste": 21137,
    "fish": 3517,
    "Ġunbelief": 22051,
    "immediate": 20097,
    "Ġmeditations": 25016,
    "lady": 4430,
    "caps": 20809,
    "Ġdisco": 3431,
    "Ġmoreover": 6164,
    "Ġk": 485,
    "Ġroofs": 16987,
    "Ġhilariously": 25451,
    "alogies": 25162,
    "Ġvanity": 7046,
    "boys": 13364,
    "fool": 9050,
    "ensities": 22550,
    "Ġpagoda": 19791,
    "imitably": 21714,
    "hence": 16627,
    "Ġembracing": 14983,
    "incidentally": 20542,
    "chants": 21695,
    "Ġterritories": 23849,
    "Ġflorid": 17138,
    "coloured": 7290,
    "Ġhemis": 21687,
    "aby": 18109,
    "Ġbrig": 11049,
    "else": 6534,
    "drawers": 19389,
    "learn": 2329,
    "Ġapprehensions": 13408,
    "anum": 17837,
    "Ġda": 5150,
    "ckery": 22094,
    "unforeseen": 21892,
    "Ġsunda": 13547,
    "Ġgraph": 10904,
    "unearthly": 19275,
    "succeeded": 15179,
    "unc": 15773,
    "Ġcrav": 19175,
    "superstitious": 17283,
    "Ġdoubling": 23321,
    "Ġglove": 14493,
    "Ġheat": 5453,
    "Ġlothario": 26186,
    "trowsers": 17693,
    "france": 24284,
    "pict": 8386,
    "Ġtrusting": 24105,
    "ertain": 1208,
    "tie": 21071,
    "Ġencl": 16171,
    "Ġdiscipline": 26563,
    "Ġpills": 21469,
    "sincerely": 24585,
    "Ġbeauty": 3767,
    "Ġarticles": 7109,
    "Ġwhispering": 14948,
    "strang": 11185,
    "opinion": 10987,
    "ontory": 10461,
    "cceed": 4137,
    "Ġumb": 11649,
    "attering": 7418,
    "abilities": 3238,
    "Ġbetray": 7441,
    "Ġhail": 7399,
    "Ġglimmered": 20174,
    "Ġmidships": 23635,
    "ological": 1884,
    "Ġoverfitting": 1547,
    "Ġoccurrence": 14385,
    "Ġcur": 1279,
    "goes": 10428,
    "Ġsatan": 14393,
    "comparatively": 25841,
    "inside": 23067,
    "Ġlivery": 16004,
    "ipp": 10105,
    "strained": 21661,
    "mechanical": 25579,
    "Ġbaronial": 23796,
    "another": 5439,
    "Ġannounce": 13343,
    "Ġmassa": 19457,
    "Ġdisturbance": 15015,
    "frisco": 16789,
    "oat": 13767,
    "Ġglorious": 11078,
    "Ġweapons": 10596,
    "Ġcetace": 14991,
    "handle": 11192,
    "Ġhooks": 14971,
    "Ġphilist": 16603,
    "in": 262,
    "surrounded": 26089,
    "Ġ120": 16860,
    "Ġimply": 18444,
    "Ġnevertheless": 5040,
    "Ġcomprehensiveness": 25075,
    "range": 3496,
    "Ġenraged": 10247,
    "Ġacknowledge": 13406,
    "Ġhelm": 5276,
    "Ġforegoing": 23451,
    "Ġheroines": 19754,
    "Ġallev": 18103,
    "Ġvect": 1224,
    "Ġmrs": 1471,
    "Ġapplicable": 19013,
    "Ġunrecorded": 17470,
    "Ġnecessitates": 23933,
    "species": 13260,
    "seems": 10877,
    "Ġwreck": 7313,
    "Ġavalanche": 17436,
    "Ġsteep": 2886,
    "Ġshock": 6082,
    "Ġattending": 3286,
    "Ġacquaintances": 17353,
    "Ġlastly": 16209,
    "Ġaffecting": 2320,
    "Ġrespectfully": 18994,
    "Ġbonnet": 10658,
    "gunpowder": 25340,
    "Ġsupports": 3049,
    "Ġperilous": 7768,
    "cater": 20817,
    "two": 3858,
    "Ġexhausting": 24709,
    "Ġdescends": 14290,
    "Ġwhiting": 10861,
    "Ġhappier": 10362,
    "Ġincarnation": 25574,
    "saved": 15434,
    "inglass": 21305,
    "Ġalgorith": 557,
    "angu": 567,
    "Ġpopular": 6217,
    "terday": 4705,
    "Ġshuddered": 11302,
    "consequ": 18507,
    "accidents": 19214,
    "Ġforlorn": 14018,
    "Ġlanguages": 1572,
    "Ġdoublo": 6078,
    "elze": 21576,
    "Ġimpud": 18445,
    "Ġeverywhere": 9798,
    "belonged": 25598,
    "Ġsm": 704,
    "Ġpractical": 3165,
    "Ġfle": 3090,
    "Ġnerves": 2625,
    "Ġturns": 4981,
    "orrow": 2913,
    "Ġcake": 12575,
    "benevol": 12231,
    "Ġmethod": 1461,
    "Ġscale": 1553,
    "Ġfighting": 12202,
    "alive": 10829,
    "Ġsouls": 6309,
    "Ġpartly": 6714,
    "ians": 2355,
    "le": 279,
    "Ġsmooth": 2776,
    "Ġflows": 13015,
    "idious": 11665,
    ",--âĢľ": 19199,
    "acknowledged": 15206,
    "Ġdecreasing": 2441,
    "scornful": 26577,
    "Ġsuccessive": 10503,
    "jected": 22717,
    "everlasting": 18774,
    "itives": 17821,
    "Ġrokovoko": 22410,
    "Ġchuckled": 10650,
    "Ġsharing": 3478,
    "Ġbraces": 14672,
    "Ġtantalizing": 20417,
    "Ġrejected": 12298,
    "Ġthreaten": 24374,
    "Ġmaternal": 11060,
    "Ġbarbarously": 24816,
    "Ġwhiskers": 10495,
    "thodox": 21992,
    "lucky": 24545,
    "Ġinsurance": 23684,
    "Ġblossom": 26313,
    "Ġdrama": 16332,
    "Ġrep": 1939,
    "Ġunlock": 18241,
    "Ġsurpr": 2549,
    "supplement": 14799,
    "worth": 8630,
    "Ġrace": 5848,
    "Ġimpute": 18332,
    "Ġpleases": 16302,
    "Ġcathed": 14550,
    "Ġimmaculate": 19489,
    "asily": 13949,
    "afterwards": 7484,
    "Ġcontext": 1653,
    "Ġsails": 5257,
    "Ġcommon": 1413,
    "Ġimpunity": 14220,
    "Ġstruggles": 16581,
    "mond": 20976,
    "Ġsam": 7569,
    "Ġgasping": 17039,
    "Ġmisunderstand": 18707,
    "Ġconsequently": 8060,
    "august": 11073,
    "Ġclamped": 18426,
    "relapse": 24019,
    "Ġwave": 7576,
    "Ġleader": 14705,
    "Ġabsolutely": 4859,
    "stern": 8446,
    "ptic": 21928,
    "married": 9952,
    "ician": 21568,
    "Ġorlop": 22097,
    "Ġpoverty": 9307,
    "harpooneer": 8692,
    "pat": 10119,
    "Ġfiddle": 25445,
    "Ġdifferent": 1429,
    "Ġband": 5292,
    "forming": 15922,
    "Ġretained": 7173,
    "aly": 1113,
    "breat": 10081,
    "bott": 9109,
    "stache": 15694,
    "utted": 15665,
    "sockets": 22735,
    "osely": 9268,
    "Ġunwarrantable": 26346,
    "vice": 15452,
    "Ġpsych": 10179,
    "Ġdissuade": 26258,
    "Ġpossessor": 23827,
    "Ġexpedite": 24956,
    "Ġpaddles": 15151,
    "Ġgu": 1330,
    "blocks": 25518,
    "brew": 11475,
    "Ġprow": 6685,
    "bank": 10082,
    "agrad": 2745,
    "sutherland": 21065,
    "jol": 20927,
    "does": 6195,
    "vellers": 16676,
    "Ġrecollections": 10515,
    "Ġsagaciously": 24730,
    "worked": 19018,
    "Ġkl": 2735,
    "Ġturtles": 19222,
    "Ġfatally": 19397,
    "peasant": 23113,
    "Ġabomin": 8189,
    "greeting": 24554,
    "Ġominous": 12428,
    "obed": 14449,
    "merely": 16138,
    "Ġuproar": 22159,
    "Ġrogue": 22409,
    "ravity": 21638,
    "uries": 6148,
    "Ġmanual": 14200,
    "undertaking": 23790,
    "Ġdrowsiness": 26447,
    "Ġubiqu": 18049,
    "Ġsurgeon": 8984,
    "Ġsubdued": 11032,
    "fact": 6359,
    "Ġpitiable": 9917,
    "Ġdeclared": 5595,
    "farm": 15355,
    "Ġacqu": 1416,
    "Ġcorner": 4367,
    "ents": 1897,
    "accessible": 13643,
    "Ġadmiral": 17308,
    "Ġrover": 18455,
    "ate": 421,
    "Ġlegisl": 23538,
    "Ġprojected": 16873,
    "owl": 12688,
    "Ġconnection": 5479,
    "Ġbake": 21385,
    "Ġcaptivating": 26050,
    "Ġhissed": 15793,
    "repro": 10772,
    "Ġii": 7384,
    "Ġfault": 5702,
    "ict": 594,
    "Ġyet": 1027,
    "Ġprimal": 17108,
    "Ġgangway": 20161,
    "ceived": 1964,
    "cooper": 19191,
    "fic": 20854,
    "Ġmisconduct": 22765,
    "Ġbarrier": 16572,
    "ozy": 17624,
    "Ġsheaves": 22162,
    "Ġcharing": 14183,
    "Ġfaintness": 24571,
    "Ġpresentiment": 18989,
    "winding": 16722,
    "Ġmention": 2985,
    "Ġarrive": 6906,
    "Ġcompatibility": 2959,
    "jonah": 11499,
    "Ġhunsford": 6302,
    "ulation": 5458,
    "Ġcher": 6130,
    "Ġscepticism": 25928,
    "Ġnuptial": 25783,
    "Ġemph": 14527,
    "Ġgentleness": 8713,
    "Ġheeded": 13407,
    "Ġdeploy": 2823,
    "volutional": 1936,
    "Ġcompassionate": 24722,
    "Ġwant": 1120,
    "Ġ(_": 3734,
    "pots": 11516,
    "bears": 22494,
    "Ġ19": 6720,
    "Ġinmost": 17933,
    "Ġcomposure": 7216,
    "Ġvindication": 25365,
    "Ġconveys": 16857,
    "inc": 2519,
    "Ġcities": 17829,
    "Ġinfiltrated": 23285,
    "published": 26143,
    "Ġbuoy": 8004,
    "sect": 8153,
    "Ġpartiality": 9401,
    "Ġrepeat": 8000,
    "Ġpiazza": 26452,
    "Ġmystic": 7503,
    "Ġthem": 638,
    "merit": 19283,
    "Ġconvergence": 974,
    "brary": 5755,
    "exc": 5169,
    "Ġadhes": 22106,
    "Ġorganization": 7984,
    "Ġtidy": 17094,
    "Ġutility": 23517,
    "Ġanonymous": 26179,
    "Ġdegenerated": 20509,
    "Ġwholly": 4444,
    "Ġbarbar": 6934,
    "devouring": 24953,
    "Ġsmoky": 22562,
    "Ġed": 2241,
    "Ġnewcom": 16226,
    "robotics": 11308,
    "Ġdeplored": 20508,
    "non": 9614,
    "Ġservox": 23873,
    "gris": 8260,
    "Ġtranquillity": 7536,
    "Ġconfirming": 25322,
    "_?âĢĿ": 15309,
    "repeat": 25155,
    "Ġlibraries": 20617,
    "formation": 22225,
    "Ġcharles": 11961,
    "desolate": 25717,
    "Ġdespatched": 23833,
    "explanations": 25235,
    "Ġpail": 15611,
    "Ġbronze": 22871,
    "âĢ": 294,
    "Ġfries": 21418,
    "Ġengaging": 9339,
    "behaviour": 11303,
    "Ġsell": 7825,
    "Ġwhole": 1663,
    "plague": 21957,
    "Ġdisguise": 10049,
    "cursed": 23847,
    "Ġchaff": 18384,
    "ech": 4387,
    "Ġesquimaux": 25154,
    "Ġvictim": 6098,
    "oro": 21398,
    "Ġimage": 3404,
    "pier": 17637,
    "Ġcatastrophic": 3543,
    ".}": 20747,
    "Ġfor": 340,
    "homely": 25618,
    "Ġsmoothed": 23661,
    "Ġunimaginable": 15250,
    "cules": 12395,
    "Ġkrusen": 20716,
    "Ġleathern": 15053,
    "Ġlooking": 2474,
    "against": 5871,
    "isson": 23463,
    "aried": 10989,
    "Ġinterment": 22578,
    "week": 12936,
    "commer": 22811,
    "richard": 17289,
    "mort": 10712,
    "cks": 3079,
    "Ġidentifies": 12019,
    "Ġ48": 24082,
    "Ġidiotic": 25589,
    "Ġstarlight": 24627,
    "Ġconsent": 5372,
    "Ġeyes": 1336,
    "Ġcontin": 5382,
    "unexpected": 15782,
    "Ġherd": 7888,
    "Ġdemands": 19641,
    "happiness": 6469,
    "Ġharshly": 25250,
    "Ġtahiti": 13623,
    "Ġmember": 8588,
    "Ġshrew": 22004,
    "dering": 5307,
    "Ġvag": 9711,
    "Ġcomes": 3426,
    "Ġsuit": 5725,
    "Ġfruitless": 25606,
    "Ġfeedforward": 2323,
    "Ġpreviously": 3916,
    "ly": 319,
    "Ġserene": 8167,
    "Ġcountenances": 11969,
    "Ġhardships": 14454,
    "Ġtrucks": 19515,
    "Ġepisode": 26349,
    "gers": 8376,
    "urous": 10215,
    "absent": 21793,
    "captain": 3950,
    "Ġhowling": 8511,
    "uced": 13803,
    "Ġeffusion": 22504,
    "preserve": 25304,
    "Ġdrug": 11412,
    "Ġlangsdorff": 15280,
    "introduced": 15128,
    "Ġvicious": 24403,
    "Ġdeveloped": 16345,
    "Ġthoughtfulness": 18775,
    "Ġcredited": 25157,
    "ography": 13367,
    "embra": 14079,
    "Ġdipping": 15596,
    "ushing": 5731,
    "secret": 12241,
    "Ġsyllables": 25299,
    "icted": 5937,
    "Ġcalifornian": 25853,
    "inea": 7624,
    "impe": 21711,
    "victim": 25531,
    "Ġstreet": 2958,
    "Ġblunt": 11898,
    "Ġiii": 7861,
    "dial": 20827,
    "Ġleviathan": 3290,
    "lets": 7836,
    "Ġfug": 12600,
    "instr": 12536,
    "Ġcapst": 8600,
    "consult": 24170,
    "Ġguardsmen": 20633,
    "given": 8377,
    "aloons": 20014,
    "ichron": 22170,
    "ination": 2911,
    "Ġsing": 3073,
    "Ġlionel": 25287,
    "Ġcomplying": 18587,
    "Ġevap": 19626,
    "inese": 12879,
    "Ġimmeasurable": 26231,
    "Ġrepairs": 19085,
    "necessarily": 19634,
    "threat": 10902,
    "ios": 2418,
    "beauty": 20107,
    "Ġundeniable": 26512,
    "washed": 13051,
    "Ġsus": 18276,
    "Ġstanzas": 21748,
    "sham": 9760,
    "mand": 3891,
    "ashion": 3857,
    "isters": 11923,
    "Ġimpo": 3444,
    "Ġrewards": 10850,
    "mblance": 7322,
    "Ġmiguel": 25767,
    "Ġspot": 4149,
    "Â": 131,
    "buttoned": 13636,
    "Ġsite": 17755,
    "rals": 21045,
    "ha": 3977,
    "Ġcocaine": 20723,
    "Ġmajority": 13297,
    "Ġodd": 6626,
    "Ġfemin": 13440,
    "awned": 19463,
    "Ġble": 5223,
    "dri": 5888,
    "Ġdundee": 16999,
    "Ġ14": 9326,
    "Ġcrept": 11024,
    "inj": 9154,
    "ella": 12754,
    "Ġjeopard": 9946,
    "impul": 16559,
    "rength": 4097,
    "Ġerud": 20058,
    "Ĳ": 243,
    "Ġcomplement": 23712,
    "Ġcharts": 12832,
    "400": 20757,
    "phology": 3008,
    "Ġloathed": 15879,
    "exped": 16527,
    "Ġmanhat": 22332,
    "acles": 8521,
    "Ġh": 290,
    "Ġreversed": 15701,
    "probably": 10023,
    "Ġshoulder": 5849,
    "Ġsturgeon": 20595,
    "rusted": 16509,
    "conduct": 11801,
    "Ġdimly": 9491,
    "pot": 10120,
    "tiest": 21084,
    "Ġbathed": 17867,
    "ram": 13975,
    "Ġpeeped": 10015,
    "olence": 10233,
    "Ġtints": 17729,
    "Ġflashed": 11918,
    "autions": 20769,
    "Ġlooked": 1802,
    "Ġdeficiencies": 26572,
    "Ġpallet": 21484,
    "riage": 2123,
    "Ġfavourably": 16365,
    "precisely": 6916,
    "Ġpresent": 1643,
    "news": 23137,
    "Ġscript": 18399,
    "ket": 17584,
    "moran": 24153,
    "Ġtransition": 14244,
    "Ġcorpus": 13037,
    "Ġothers": 2582,
    "Ġdecorum": 16028,
    "Ġ107": 24415,
    "Ġmarshalled": 25316,
    "Ġsenseless": 12083,
    "dan": 17517,
    "Ġstroll": 13357,
    "were": 2557,
    "gast": 20873,
    "Ġgener": 587,
    "hours": 9127,
    "Ġsisterly": 16308,
    "Ġcrammed": 16472,
    "chased": 18044,
    "emason": 18189,
    "Ġportly": 14680,
    "cong": 10691,
    "avating": 18606,
    "Ġtalks": 23373,
    "Ġankers": 21448,
    "Ġadieu": 10054,
    "Ġconnex": 10668,
    "Ġgard": 2189,
    "ercely": 12555,
    "Ġrudeness": 17127,
    "olently": 15761,
    "Ġarab": 7823,
    "Ġpouring": 12629,
    "Ġindulging": 16906,
    "chance": 6826,
    "Ġpin": 7161,
    "Ġrollicking": 24451,
    "plainly": 11091,
    "istence": 2590,
    "Ġalow": 18102,
    "sharks": 14240,
    "paralleled": 14512,
    "Ġjoosy": 23633,
    "wow": 21124,
    "Ġabundant": 17157,
    "Ġinsulated": 23682,
    "Ġnervousness": 23559,
    "Ġinsince": 23681,
    "smiles": 14695,
    "depth": 12805,
    "Ġawaken": 23588,
    "tawny": 26406,
    "Ġjavan": 25000,
    "inex": 14099,
    "full": 7419,
    "Ġfluttered": 16253,
    "features": 14803,
    "Ġtrousers": 12419,
    "luent": 16002,
    "Ġtak": 15473,
    "revealed": 20419,
    "Ġexperiments": 23033,
    "Ġbottle": 7490,
    "Ġergo": 25032,
    "driven": 19774,
    "conf": 4957,
    "threshold": 21991,
    "wrong": 13208,
    "actions": 8910,
    "Ġnephews": 24713,
    "Ġimmensely": 13599,
    "jub": 20931,
    "Ġshocks": 16459,
    "ched": 1550,
    "Ġnovelist": 24776,
    "accordingly": 19215,
    "remains": 10401,
    "Ġacts": 2292,
    "Ġpunctually": 17141,
    "Ġobjectionable": 16993,
    "Ġcellar": 8059,
    "jerked": 25619,
    "Ġmotionless": 8324,
    "eh": 13713,
    "Ġdiscoveries": 13363,
    "Ġdraughts": 20224,
    "Ġwrapped": 8342,
    "Ġamerica": 6763,
    "Ġhers": 7889,
    "elag": 12663,
    "Ġstreets": 5864,
    "landed": 18958,
    "whilst": 18372,
    "ing": 273,
    "Ġconsolation": 6209,
    "Ġyojo": 7611,
    "civilized": 17076,
    "Ġconfidence": 6591,
    "Ġrevolut": 3259,
    "beginning": 13565,
    "Ġamazing": 9980,
    "Ġfitting": 21411,
    "Ġtong": 4871,
    "Ġtreat": 3177,
    "Ġmorocc": 22977,
    "Ġoct": 10161,
    "Ġlightness": 23263,
    "eyed": 11489,
    "erns": 8782,
    "Ġhysterical": 26093,
    "arranged": 19320,
    "car": 4208,
    "Ġdimens": 3151,
    "idav": 18095,
    "mission": 5970,
    "Ġwar": 5526,
    "attention": 2110,
    "ax": 694,
    "ums": 10275,
    "Ġwhel": 15870,
    "Ġwayward": 22877,
    "umes": 10919,
    "animation": 16981,
    "Ġweld": 8112,
    "Ġinterested": 6458,
    "haustible": 16893,
    "Ġsuspicion": 6212,
    "Ġdetest": 8502,
    "Ġmodular": 12822,
    "Ġab": 528,
    "adv": 4535,
    "outon": 12808,
    "Ġgirdled": 19161,
    "Ġcondu": 18112,
    "Ġambition": 11434,
    "Ġcountry": 2532,
    "Ġcrouching": 23444,
    "la": 10707,
    "Ġwilderness": 14843,
    "Ġtastes": 15480,
    "orns": 12597,
    "Ġoptimizer": 5036,
    "Ġpeering": 8536,
    "draught": 12095,
    "Ġarchitectures": 2907,
    "wer": 8396,
    "size": 15428,
    "Ġloaf": 15876,
    "Ġalive": 4396,
    "Ġwhisker": 23938,
    "Ġcracks": 12024,
    "ong": 537,
    "Ġcompromising": 22577,
    "Ġmishap": 20579,
    "Ġtropics": 17068,
    "hetically": 21211,
    "Ġstrangeness": 16706,
    "Ġsaid": 577,
    "Ġperilously": 24507,
    "Ġrh": 9247,
    "Ġwhal": 5454,
    "Ġident": 2240,
    "onely": 6516,
    "Ġfile": 13906,
    "laughing": 15183,
    "Ġfactor": 19014,
    "Ġbespe": 19244,
    "omas": 12676,
    "Ġpup": 12624,
    "settle": 16664,
    "Ġburial": 16524,
    "Ġsalt": 8017,
    "requ": 7148,
    "culiarity": 11144,
    "Ġshoals": 13138,
    "Ġmumbling": 11577,
    "Ġsur": 2183,
    "ared": 771,
    "Ġtrivial": 10145,
    "instinct": 19546,
    "Ġstanders": 19016,
    "Ġmalady": 24392,
    "Ġliar": 22412,
    "Ġ33": 16678,
    "Ġrom": 4523,
    "Ġalmighty": 18107,
    "Ġwhar": 7387,
    "Ġloathing": 15071,
    "Ġneighb": 14077,
    "Ġhates": 21489,
    "Ġ73": 24263,
    "Ġwool": 19436,
    "Ġillness": 8593,
    "roc": 9677,
    "Ġxxxiv": 24970,
    "don": 3545,
    "Ġvishnoo": 12758,
    "Ġrecollect": 8310,
    "Ġvaults": 17156,
    "Ġpolynes": 16083,
    "Ġall": 423,
    "Ġright": 1506,
    "fixedly": 24930,
    "Ġsalmon": 24064,
    "const": 5939,
    "Ġcounty": 9033,
    "interval": 7991,
    "Ġdismantled": 20219,
    "Ġsteeply": 23726,
    "Ġthigh": 10189,
    "Ġevils": 9023,
    "Ġevolved": 9895,
    "Ġstud": 1629,
    "ight": 403,
    "Ġwonder": 2117,
    "regularly": 13210,
    "rew": 3648,
    "Ġarray": 12815,
    "Ġlower": 2662,
    "lan": 15381,
    "Ġwhine": 21718,
    "Ġheedless": 14906,
    "know": 2314,
    "olen": 9703,
    "century": 20050,
    "Ġthoroughfares": 26096,
    "Ġeuroc": 14962,
    "Ġsuns": 23276,
    "Ġmile": 7151,
    "Ġtemperate": 16167,
    "voyage": 7785,
    "shapes": 22451,
    "quarried": 24948,
    "repeated": 12343,
    "cruising": 12284,
    "Ġoutlines": 15961,
    "Ġresided": 11815,
    "Ġcave": 10787,
    "Ġglances": 10375,
    "south": 8762,
    "Ġxxi": 24476,
    "ĠĠĠĠĠĠĠĠĠĠĠĠĠĠĠĠĠĠĠĠĠĠĠĠĠĠĠĠĠĠĠĠĠĠĠĠĠĠĠĠĠĠĠĠĠĠĠ": 16757,
    "Ġbodily": 6107,
    "Ġpitching": 16613,
    "fired": 20862,
    "als": 2042,
    "Ġseriously": 7062,
    "structure": 2471,
    "malice": 17605,
    "Ġintelligible": 15945,
    "Ġforgot": 4683,
    "Ġsoldier": 16922,
    "Ġtriangular": 14862,
    "Ġreminisc": 18727,
    "Ġrounded": 14441,
    "nne": 20991,
    "Ġoverwhelm": 25055,
    "mme": 22505,
    "pr": 3176,
    "swells": 26149,
    "Ġdefici": 22946,
    "Ġdetestable": 15102,
    "o": 83,
    "Ġpromised": 5181,
    "Ġvic": 5236,
    "never": 3153,
    "rendering": 22344,
    "clever": 20815,
    "Ġacquiring": 2765,
    "Ġcheering": 11135,
    "rocket": 13947,
    "atiously": 15525,
    "Ġjudged": 12088,
    "Ġsocket": 12794,
    "Ġbes": 2660,
    "niece": 20997,
    "Ġglistened": 20175,
    "oce": 10716,
    "Ġtass": 15472,
    "Ġadversity": 24305,
    "sacred": 17030,
    "sculptured": 26046,
    "Ġobstin": 14956,
    "Ġsources": 10150,
    "Ġ81": 24457,
    "ta": 13792,
    "Ġcomputation": 967,
    "Ġunwarrant": 19936,
    "hood": 2659,
    "Ġ108": 19687,
    "Ġmaelstrom": 19359,
    "ig": 322,
    "Ġrested": 9382,
    "Ġvel": 7185,
    "glit": 23853,
    "Ġabominate": 20068,
    "Ġstanding": 2997,
    "Ġpregnant": 26537,
    "variety": 23189,
    "Ġscorching": 20071,
    "done": 6500,
    "Ġfals": 15585,
    "join": 12118,
    "ix": 1800,
    "Ġpendulous": 25956,
    "geons": 15983,
    "Ġcove": 22585,
    ",âĢĿâĢĶ": 14224,
    "Ġagonizing": 17241,
    "ivation": 3111,
    "Ġsolemnity": 9944,
    "Ġsquatted": 25843,
    "Ġbuttoning": 17238,
    "ication": 990,
    "inav": 15487,
    "Ġreusable": 13561,
    "Ġskul": 22798,
    "ĠĠĠĠĠĠĠĠĠĠĠĠĠĠĠĠĠĠĠĠĠĠĠĠĠĠĠĠĠĠĠĠĠĠĠĠĠĠĠĠ": 4514,
    "Ġglad": 3326,
    "Ġvoice": 2191,
    "Ġhunters": 6301,
    "Ġavoided": 13262,
    "Ġuntidy": 23526,
    "Ġxxv": 19720,
    "monograph": 23529,
    "shot": 2100,
    "Ġconn": 9232,
    "Ġrealistic": 5861,
    "Ġdefects": 12337,
    "oko": 18441,
    "Ġentitled": 8540,
    "Ġprincipal": 6496,
    "addition": 13388,
    "marry": 13328,
    "springs": 24912,
    "polar": 24584,
    "exception": 9979,
    "Ġassented": 17341,
    "Ġbower": 15571,
    "Ġhints": 8431,
    "Ġhas": 823,
    "Ġsticks": 14934,
    "Ġperturbed": 20443,
    "Ġ80": 24456,
    "Ġholmes": 1308,
    "esty": 4301,
    "rints": 12507,
    "Ġnewly": 9341,
    "between": 5071,
    "velled": 9879,
    "poss": 4779,
    "violent": 14582,
    "Ġcens": 8414,
    "Ġserviceable": 24717,
    "Ġreally": 2160,
    "Ġsumat": 14132,
    "Ġvisitor": 5331,
    "tallied": 21092,
    "`": 68,
    "Ġharp": 17926,
    "correspond": 13402,
    "Ġblock": 2575,
    "beth": 13692,
    "sorrow": 12513,
    "Ġrewarding": 13441,
    "soft": 12514,
    "Ġdab": 15592,
    "problem": 25245,
    "Ġstaple": 26200,
    "Ġgowns": 25360,
    "Ġunav": 18238,
    "devil": 7895,
    "Ġantelope": 24181,
    "Ġpaused": 5416,
    "Ġmutual": 8297,
    "umst": 2501,
    "Ġprocesses": 3633,
    "science": 11914,
    "Ġlinks": 13958,
    "Ġrescued": 24207,
    "Ġcravat": 26308,
    "Ġsteer": 10389,
    "Ġtrait": 23076,
    "cool": 19189,
    "Ġcolonial": 22862,
    "quarrel": 20018,
    "Ġdisciple": 22787,
    "....": 11318,
    "Ġaside": 5234,
    "Ġhealthful": 24061,
    "wheel": 22875,
    "Ġ25": 13196,
    "Ġwanderings": 20146,
    "Ġthought": 1095,
    "Ġmarsh": 9824,
    "Ġsinusoidal": 4802,
    "brother": 7092,
    "latitude": 25260,
    "Ġretribution": 16284,
    "Ġworshipped": 25692,
    "Ġtemples": 18638,
    "capting": 24042,
    "Ġimpudence": 26243,
    "Ġsacrifice": 9558,
    "Ġscreaming": 13427,
    "mon": 2305,
    "),": 1347,
    "asters": 8435,
    "gaz": 20880,
    "Ġdoted": 21436,
    "magnifying": 25393,
    "Ġrelease": 19292,
    "andam": 10890,
    "Ġcaw": 13886,
    "Ġexplo": 2283,
    "Ġrelatives": 12987,
    "Ġrepositories": 23367,
    "pipe": 8700,
    "Ġimpulsively": 24881,
    "Ġinjured": 9042,
    "Ġpatent": 11966,
    "Ġseventh": 18207,
    "Ġkeels": 11063,
    "Ġantiquity": 15234,
    "Ġmonarchs": 25851,
    "Ġhealthy": 10853,
    "zen": 5140,
    "Ġcried": 1489,
    "Ġsignification": 19205,
    "Ġequality": 16362,
    "meditated": 19072,
    "depart": 12270,
    "Ġzeal": 9101,
    "Ġsuspend": 14610,
    "**:": 4738,
    "Ġfishermen": 5971,
    "assist": 11771,
    "telescope": 26564,
    "Ġsacrificial": 24872,
    "Ġdines": 21426,
    "rrh": 26145,
    "Ġloom": 7629,
    "court": 7511,
    "ĠâĢľ_": 6697,
    "chanced": 18801,
    "Ġdeath": 2043,
    "zwilliam": 5074,
    "Ġsunrise": 9376,
    "Ġnorth": 4315,
    "mind": 4626,
    "Ġpurchasing": 19877,
    "Ġspared": 7893,
    "Ġtarts": 10755,
    "Ġspasmod": 12418,
    "Ġflea": 23776,
    "Ġorph": 9720,
    "wise": 2574,
    "ises": 3653,
    "Ġcruel": 5121,
    "Ġinsignific": 13184,
    "Ġasyl": 12739,
    "Ġhonor": 5664,
    "Ġpiling": 17913,
    "Ġshores": 8852,
    "skirted": 24489,
    "Ġcaps": 8416,
    "Ġlongitude": 11013,
    "Ġparty": 3512,
    "Ġaston": 3700,
    "Ġaccumulates": 2887,
    "Ġunjustifiable": 25112,
    "descending": 16287,
    "Ġ4": 3982,
    "apsed": 6296,
    "zening": 21151,
    "Ġdiligently": 11407,
    "Ġsurviving": 24637,
    "artic": 14217,
    "Ġpict": 3501,
    "Ġveter": 15815,
    "Ġthistle": 21920,
    "Ġafghan": 22633,
    "Ġcorresponds": 19824,
    "Ġfloat": 12036,
    "Ġagile": 22517,
    "Ġpott": 21471,
    "Ġsentimental": 24753,
    "sail": 3603,
    "wife": 8101,
    "garious": 17560,
    "Ġpeddling": 21485,
    "Ġpersuaded": 5769,
    "Ġfinally": 4666,
    "Ġmonosyllable": 20728,
    "Ġsoles": 22089,
    "laden": 14932,
    "instead": 14816,
    "Ġreckoning": 14982,
    "lesome": 12970,
    "Ġbounty": 26439,
    "Ġservants": 6611,
    "Ġregiment": 6432,
    "orily": 15577,
    "Ġwoeful": 19622,
    "Ġmilliner": 19886,
    "Ġnerve": 16343,
    "Ġgree": 7595,
    "Ġfancying": 12117,
    "Ġpictures": 5503,
    "Ġdiscovers": 4425,
    "Ġwondered": 11127,
    "loved": 14253,
    "Ġhyper": 19742,
    "Ġdiscol": 12958,
    "Ġgreenwich": 19322,
    "Ġrespected": 11958,
    "duct": 3508,
    "feather": 16047,
    "Ġabsurdly": 19963,
    "Ġdisappointing": 19582,
    "Ġcam": 10164,
    "Ġbrotherhood": 23672,
    "gely": 10702,
    "though": 2116,
    "Ġsupposed": 4556,
    "Ġwriters": 13546,
    "Ġmisgivings": 15295,
    "Ġgret": 21604,
    "Ġfru": 8421,
    "Ġretrieval": 10677,
    "Ġeligible": 10673,
    "«": 109,
    "Ġinstantaneous": 14613,
    "beautiful": 10651,
    "Ġpsal": 15620,
    "Ġyawn": 7610,
    "itage": 17818,
    "Ġadie": 8490,
    "Ġadro": 15871,
    "Ġtale": 5142,
    "Ġbarbarous": 13480,
    "Ġsigma": 1545,
    "Ġrepaid": 19084,
    "Ġspring": 4116,
    "Ġmysticetus": 24923,
    "Ġnewsp": 9342,
    "Ġsincerely": 7963,
    "Ġvapor": 8703,
    "Ġreader": 11938,
    "alot": 15630,
    "utions": 1890,
    "Ġdaughter": 2866,
    "Ġhowever": 1305,
    "Ġingenious": 12352,
    "anced": 1266,
    "Ġformidable": 8220,
    "arr": 3044,
    "Ġcompress": 21853,
    "Ġexploit": 19164,
    "mastod": 23977,
    "ording": 9767,
    "quin": 21857,
    "ach": 435,
    "igned": 5656,
    "Ġtame": 17724,
    "Ġtaken": 2527,
    "ouncement": 11749,
    "======================================================================": 10071,
    "adru": 15735,
    "groom": 8743,
    "Ġcapting": 23024,
    "Ġextracting": 11102,
    "Ġrattled": 15070,
    "tallow": 21088,
    "Ġrestraint": 15131,
    "Ġatom": 18193,
    "Ġhundredth": 16521,
    "Ġdest": 2237,
    "Ġsexes": 25172,
    "Ġalterations": 19873,
    "ason": 1289,
    "Ġspiced": 22137,
    "esu": 17903,
    "Ġcontracting": 16015,
    "wra": 11544,
    "Ġkne": 4262,
    "ivil": 6411,
    "Ġtiller": 8968,
    "Ġexecutioner": 12276,
    "Ġrat": 4350,
    "Ġgallons": 14821,
    "shaken": 16024,
    "Ġminister": 18753,
    "Ġtorrid": 25035,
    "kles": 17586,
    "orph": 21402,
    "Ġfront": 3453,
    "Ġeyford": 10644,
    "paying": 25412,
    "Ġmunro": 25631,
    "Ġbelieve": 2145,
    "Ġdependent": 14297,
    "arabian": 26448,
    "Ġsharply": 9406,
    "Ġintrospect": 15832,
    "Ġextraordinary": 5414,
    "shattered": 22448,
    "Ġmirth": 15549,
    "Ġbeat": 4488,
    "Ġfrequencies": 4790,
    "Ġradiating": 24331,
    "caus": 11478,
    "Ġproduces": 2092,
    "Ġresolutely": 14611,
    "urpr": 2285,
    "pump": 21019,
    "Ġinanimate": 13936,
    "oft": 3591,
    "Ġbuoyant": 13535,
    "Ġsnap": 11203,
    "Ġmole": 11795,
    "forget": 11034,
    "aimed": 3949,
    "eth": 620,
    "Ġcharms": 11132,
    "lift": 15388,
    "transferred": 24514,
    "Ġanoint": 25538,
    "Ġcataract": 23431,
    "Ġham": 3423,
    "rium": 3133,
    "Ġtypes": 8939,
    "ences": 1261,
    "fthand": 26388,
    "Ġrode": 16001,
    "Ġflorida": 20661,
    "Ġah": 5075,
    "uesday": 8590,
    "acceler": 23600,
    "enthusiastic": 20695,
    "Ġhoping": 11106,
    "saddest": 25528,
    "Ġwhistle": 9068,
    "intu": 22936,
    "Ġboxed": 24360,
    "Ġimperson": 14222,
    "Ġinev": 10184,
    "Ġsi": 21215,
    "cat": 15327,
    "Ġdent": 13909,
    "Ġdashes": 21437,
    "Ġmode": 8501,
    "Ġexceeding": 1583,
    "ego": 4032,
    "stopping": 19352,
    "Ġgene": 15676,
    "sleepy": 24728,
    "ceptibly": 22358,
    "ivot": 11722,
    "Ġcosmopolitan": 20643,
    "founded": 16715,
    "irium": 8162,
    "Ġacknowledgment": 16959,
    "Ġadequ": 10915,
    "bore": 13690,
    "Ã¦": 4334,
    "Ġdeaths": 14539,
    "Ġpaces": 13922,
    "Ġdepart": 4656,
    "hawks": 24695,
    "Ġfood": 5080,
    "Ġklux": 22199,
    "especially": 3573,
    "noticed": 14346,
    "Ġrises": 9716,
    "Ġguiltless": 16942,
    "wel": 6118,
    "contrivance": 26317,
    "Ġtracks": 18891,
    "Ġinitials": 11016,
    "trop": 15439,
    "Ġhealed": 21686,
    "Ġpersevering": 20236,
    "ocean": 12405,
    "gorge": 22328,
    "Ġcurrents": 13029,
    "Ġresnet": 5473,
    "Ġtinge": 25090,
    "ifference": 5632,
    "affa": 23779,
    "Ġroving": 22407,
    "Ġdollar": 25284,
    "quit": 15766,
    "Ġfrigid": 17355,
    "Ġrighteous": 18949,
    "Ġstable": 2698,
    "Ġpharaoh": 26587,
    "Ġhooded": 12410,
    "Ġchick": 22251,
    "Ġperpendicular": 7208,
    "Ġjabez": 11770,
    "Ġideal": 13125,
    "70": 17478,
    "Ġmuster": 16126,
    "Ġnetworks": 597,
    "Ġtalents": 15047,
    "Ġsubject": 2463,
    "bound": 6221,
    "going": 6314,
    "immedi": 8452,
    "thern": 4953,
    "Ġdisinclined": 22533,
    "Ġobjecting": 18896,
    "Ġpeaks": 16132,
    "hoisted": 19284,
    "poke": 18799,
    "Ġurged": 6781,
    "Ġsoften": 23126,
    "Ġalgorithm": 756,
    "Ġsul": 7570,
    "Ġthoughtlessness": 16197,
    "(-": 2979,
    "ificent": 8184,
    "away": 4625,
    "mast": 3602,
    "Ġunsh": 14117,
    "dor": 12456,
    "Ġworse": 4719,
    "stripped": 16947,
    "Ġsuppressing": 23001,
    "Ġimpass": 15989,
    "Æ": 135,
    "Ġconversed": 13190,
    "Ġbur": 2697,
    "Ġgar": 10840,
    "Ġjost": 23632,
    "Ġwitt": 17785,
    "Ġlowest": 11124,
    "empl": 5724,
    "Ġmomentous": 16175,
    "Ġconsort": 18725,
    "Ġdeer": 12725,
    "Ġbuffaloes": 25218,
    "Ġmanly": 22329,
    "haps": 1671,
    "ived": 1538,
    "icket": 22671,
    "Ġ7": 4746,
    "who": 2443,
    "Ġdun": 6675,
    "Ġmatch": 4527,
    "bishop": 13698,
    "Ġembarrassment": 10629,
    "Ġcorrupt": 11927,
    "Ġgreas": 17994,
    "Ġphysiognomical": 25612,
    "disagreeable": 11165,
    "ars": 905,
    "Ġmetropolis": 17277,
    "Ġpeasant": 13555,
    "Ġlob": 7628,
    "Ġsquat": 14370,
    "uguese": 20734,
    "ulated": 6030,
    "Ġpatches": 4233,
    "Ġglimp": 6066,
    "icil": 17974,
    "aborate": 14025,
    "Ġcondescend": 19958,
    "Ġhit": 7163,
    "Ġkindled": 19030,
    "Ġsne": 6372,
    "reel": 21236,
    "Ġadjusts": 8983,
    "ellations": 21948,
    "ension": 6570,
    "Ġexultation": 15175,
    "concealed": 25118,
    "soul": 9143,
    "bour": 2072,
    "Ġcurb": 16249,
    "ineff": 21984,
    "serious": 14451,
    "Ġbless": 4339,
    "Ġundec": 22021,
    "Ġmagnitudes": 3821,
    "arest": 3999,
    "Ġtrustees": 24107,
    "turning": 8317,
    "Ġunderstood": 5655,
    "develop": 13521,
    "Ġgraces": 18226,
    "Ġsheeted": 19834,
    "befall": 22499,
    "Ġprecisely": 6466,
    "clear": 9027,
    "extensive": 18703,
    "Ġvanquished": 22881,
    "Ġrecesses": 17263,
    "Ġlatent": 19658,
    "Ġoars": 3894,
    "Ġpalpit": 16692,
    "Ġigniting": 25073,
    "beef": 18524,
    "Ġapplication": 2106,
    "sole": 6169,
    "remind": 23194,
    "Ġkrempe": 10672,
    "V": 58,
    "Ġinform": 999,
    "Ġgods": 6454,
    "Ġmotion": 4564,
    "ĠĠĠĠĠĠĠ": 7632,
    "Ġsquires": 16184,
    "eous": 13715,
    "Ġflanks": 11919,
    "Ġstroke": 6935,
    "Ġdreamed": 16632,
    "Ġicy": 10749,
    "Ġman": 545,
    "Ġdeposed": 16091,
    "vere": 4884,
    "Ġprophes": 16352,
    "itics": 13875,
    "Ġbriefly": 11369,
    "Ġresign": 18565,
    "number": 10117,
    "Ġdecency": 18488,
    "Ġunwinding": 22062,
    "Ġsemicircular": 26069,
    "Ġdurst": 20355,
    "Ġhammer": 6094,
    "========": 2308,
    "anx": 8788,
    "opence": 18509,
    "Ġconcuss": 19047,
    "inridge": 11563,
    "decoder": 3644,
    "Ġprocopius": 19734,
    "presbyter": 20621,
    "Ġnetwork": 451,
    "Ġbarbara": 24815,
    "Ġern": 8397,
    "Ġdispleased": 18556,
    "Ġfurthermore": 1169,
    "Ġinfinitely": 8966,
    "Ġfibres": 12956,
    "cele": 21628,
    "mem": 10711,
    "Ġinterpretation": 19719,
    "tempered": 13450,
    "slackened": 26095,
    "Ġnear": 1716,
    "Ġeventually": 8620,
    "Ġrare": 7037,
    "previous": 9764,
    "Ġensemble": 1610,
    "Ġdisappointment": 6628,
    "ested": 3480,
    "Ġmatrix": 1608,
    "metals": 24765,
    "Ġimitated": 18330,
    "isive": 10795,
    "eridge": 15529,
    "olstad": 7612,
    "repaid": 24491,
    "reply": 19725,
    "Ġsemblance": 20736,
    "Ġbreadth": 10566,
    "Ġgunwales": 12245,
    "comes": 5394,
    "ning": 950,
    "Ġlurch": 21558,
    "Ġconcre": 16393,
    "cannibals": 25585,
    "Ġclimes": 12845,
    "ulgent": 18152,
    "quis": 7870,
    "airs": 2222,
    "Ġobserver": 11993,
    "inks": 6868,
    "drew": 7333,
    "Ġbrass": 11050,
    "teenth": 11878,
    "Ġcrawled": 17045,
    "Ġvacancies": 24345,
    "Ġexceedingly": 4613,
    "Ġconfidential": 9091,
    "playful": 24357,
    "Ġprocessions": 18434,
    "Ġbecalmed": 18089,
    "Ġsequence": 1976,
    "Ġunra": 18235,
    "Ġseated": 4539,
    "Ġblundering": 26285,
    "Ġsoup": 7068,
    "orts": 2554,
    "Ġexact": 2542,
    "Ġunallied": 22034,
    "Ġtriumphal": 24371,
    "doubt": 6782,
    "closed": 23157,
    "arter": 17895,
    "Ġtestified": 16317,
    "ek": 1907,
    "Ġpersonality": 16478,
    "posterity": 25489,
    "business": 5610,
    "Ġshould": 865,
    "scales": 22994,
    "crawling": 16960,
    "Ġwoes": 23989,
    "Ġresignation": 18567,
    "Ġprivacy": 19527,
    "Ġchr": 3687,
    "idually": 21773,
    "Ġevil": 3805,
    "hated": 17563,
    "Ġbreaths": 14860,
    "mish": 17600,
    "Ġimproved": 7657,
    "Ġhandsom": 11126,
    "Ġpretended": 19315,
    "Ġgrease": 26191,
    "Ġservice": 6471,
    "Ġwithstand": 10228,
    "any": 3338,
    "Ġvoid": 14089,
    "Ġsagittarius": 24731,
    "aths": 22704,
    "Ġdivine": 6920,
    "Ġess": 5691,
    "Ġwhitting": 18058,
    "Ġcontrived": 10305,
    "Ġword": 1053,
    "Ġspain": 15884,
    "X": 60,
    "Ġassuredly": 14825,
    "Ġpennies": 17273,
    "Ġbutton": 10270,
    "Ġdim": 4758,
    "rily": 7622,
    "Ġquohog": 10974,
    "Ġdealer": 23980,
    "Ġming": 9648,
    "Ġtents": 13821,
    "Ġglory": 6065,
    "ree": 874,
    "tooth": 18580,
    "Ġpassion": 4555,
    "Ġautomation": 13278,
    "tem": 6369,
    "Ġdata": 517,
    "suddenly": 6493,
    "Ġfid": 10805,
    "Ġgash": 15675,
    "Ġpugnacious": 26453,
    "Ġlisten": 4673,
    "Ġfervour": 19729,
    "Ġremembered": 5277,
    "Ġmisunderstood": 18708,
    "Ġjacket": 6489,
    "Ġslammed": 20451,
    "pair": 21014,
    "Ġpassed": 2010,
    "Ġchrist": 4069,
    "Ġpunctual": 17140,
    "ille": 9222,
    "Ġteaches": 18811,
    "Ġwarming": 23560,
    "present": 1135,
    "oblig": 16294,
    "ef": 5134,
    "Ġinfatuation": 25857,
    "Ġworldly": 16333,
    "Åĵuv": 15186,
    "Ġoakshott": 12234,
    "Ġcirculation": 16419,
    "Ġmbpp": 21325,
    "Ġassent": 12738,
    "_,": 2797,
    "Ġmodesty": 12823,
    "Ġnumerous": 6919,
    "Ġmasoned": 20254,
    "Ġju": 10289,
    "Ġwars": 17787,
    "chat": 21689,
    "amped": 12037,
    "eness": 2288,
    "Ġgunwale": 7324,
    "Ġtorrent": 17093,
    "ĕ": 214,
    "fro": 8736,
    "tubes": 25212,
    "Ġrefreshed": 15294,
    "sound": 6799,
    "holding": 7738,
    "expressive": 24307,
    "Ġluckily": 16800,
    "Ġcanted": 17833,
    "Ġnoticed": 5549,
    "Ġminuteness": 19140,
    "Ġtobacc": 7853,
    "Ġclaims": 13377,
    "rier": 9245,
    "ought": 829,
    "claim": 9838,
    "cher": 5786,
    "terrific": 25043,
    "Ġdisappo": 4502,
    "Ġtid": 8107,
    "Ą": 197,
    "Ġdear": 1543,
    "answer": 11736,
    "foolish": 12351,
    "K": 47,
    "vens": 21115,
    "marching": 25753,
    "zes": 11551,
    "Ġwantonly": 22897,
    "Ġexchange": 15758,
    "quar": 7616,
    "precipitance": 25868,
    "Ġvulgar": 13608,
    "Ġde": 364,
    "Ġmust": 845,
    "ward": 705,
    "ugging": 23293,
    "adagrad": 9694,
    "Ġisn": 7866,
    "Ġet": 3581,
    "quished": 21858,
    "Ġcreep": 22730,
    "Ġdrugg": 17122,
    "Ġmasters": 11578,
    "likely": 9026,
    "Ġgravity": 9251,
    "Ġaccounted": 10297,
    "Ġtapped": 11556,
    "Ġannual": 14835,
    "jane": 4479,
    "Ġeducation": 5128,
    "Ġdiabolical": 20345,
    "Ġbranch": 8332,
    "Ġfield": 1238,
    "itying": 21998,
    "Ġinsist": 9893,
    "Ġbosom": 6938,
    "kings": 17585,
    "telling": 14442,
    "Ġdeclaration": 16639,
    "Ġicelandic": 25887,
    "cturn": 17989,
    "Ġlargest": 6283,
    "Ġpoising": 22594,
    "Ġuniversity": 13126,
    "Ġpossess": 3206,
    "Ġwatson": 3597,
    "Ġdrawer": 13269,
    "passenger": 24167,
    "Ġhimself": 1351,
    "dropping": 14985,
    "gul": 12470,
    "crat": 24086,
    "erect": 20850,
    "asiness": 8129,
    "¸": 121,
    "Ġcopied": 20011,
    "Ġsupper": 4665,
    "Ġe": 311,
    "Ġpleasing": 6191,
    "Ġportraits": 20145,
    "Ġcolon": 18767,
    "mselves": 2859,
    "Ġslavish": 23176,
    "Ġcompact": 2262,
    "Ġsentinel": 26066,
    "Ġperry": 22401,
    "olerable": 7182,
    "distinctive": 25726,
    "urry": 13997,
    "rences": 9275,
    "Ġf": 283,
    "fail": 17542,
    "Ġcripple": 11442,
    "Ġcontributed": 16013,
    "Ġspurred": 22142,
    "didn": 9010,
    "Ġbob": 22641,
    "Ġcease": 7077,
    "Ġbrushed": 15575,
    "Ġpoultry": 17444,
    "mmet": 10990,
    "oriented": 2947,
    "Ġcrisp": 12007,
    "Ġenrapt": 21943,
    "Ġtheatre": 21281,
    "Ġstretching": 10018,
    "stirring": 20429,
    "Ġcaptioning": 23025,
    "Ġcandid": 4095,
    "ys": 3956,
    "Ġalpine": 18108,
    "Ġskirting": 22799,
    "Ġunpitying": 25661,
    "Ġapparition": 8067,
    "putting": 14103,
    "Ġskill": 6871,
    "splash": 25210,
    "Ġcultiv": 13560,
    "Ġur": 5540,
    "Ġarchitects": 18734,
    "``": 15310,
    "Ġdefiance": 11070,
    "unalterable": 21890,
    "Ġcynicism": 25772,
    "Ġhalloa": 13321,
    "Ġgrimesby": 11459,
    "Ġfavourite": 5271,
    "rus": 5930,
    "steaks": 23964,
    "Ġjavel": 17085,
    "Ġgr": 978,
    "Ġdischarge": 18557,
    "independ": 15986,
    "Ġreb": 15695,
    "tically": 3393,
    "Ġodorous": 19569,
    "itoring": 21335,
    "Ġmeans": 699,
    "Ġblinded": 13273,
    "Ġreport": 6192,
    "Ġcathedral": 17416,
    "Ġblow": 3375,
    "Ġpauses": 14818,
    "attery": 18502,
    "Ġpersuade": 5873,
    "Ġbloodthirst": 23804,
    "Ġadapted": 11045,
    "Ġmoran": 9344,
    "leader": 25352,
    "Ġirregularly": 25324,
    "muring": 17603,
    "Ġjo": 2608,
    "Ġdexter": 9704,
    "accompl": 9883,
    "resistible": 10646,
    "murderer": 13397,
    "devils": 20036,
    "son": 2325,
    "Ġconstruct": 23342,
    "Ġride": 12763,
    "senses": 25025,
    "Ġdealing": 14050,
    "Ġuneasy": 8665,
    "Ġgardens": 16453,
    "Ġtim": 4577,
    "Ġdiscerned": 25006,
    "higher": 20410,
    "Ġoutstanding": 22320,
    "try": 7812,
    "Ġoffering": 3007,
    "Ġamateur": 22489,
    "Ġnewton": 3534,
    "Ġgracious": 8851,
    "bel": 3834,
    "Ġtexas": 25923,
    "tish": 17679,
    "Ġcapricious": 20541,
    "Ġinexhaustible": 16983,
    "Ġdetected": 18833,
    "fordshire": 4676,
    "Ġeels": 21623,
    "Ġeaglet": 19306,
    "bitter": 11242,
    "Ġevid": 3502,
    "Ġabreast": 18395,
    "voice": 7816,
    "ardy": 22160,
    "Ġgoverness": 8605,
    "wharf": 20609,
    "Ġreverend": 15263,
    "Ġprime": 10406,
    "Ġtransparent": 9492,
    "Ġdemoniacal": 20559,
    "Ġbills": 17862,
    "Ġrevol": 5537,
    "etrics": 21588,
    "Ġdisliked": 12896,
    "Ġensures": 3054,
    "Ġpapered": 20134,
    "Ġpossesses": 19355,
    "beating": 22493,
    "Ġcoleman": 22590,
    "wit": 7817,
    "Ġrays": 10333,
    "Ġimmort": 19487,
    "Ġjupiter": 17459,
    "³": 116,
    "Ġwhipcord": 20098,
    "othic": 16219,
    "cross": 3576,
    "Ġestablish": 9546,
    "thrill": 25657,
    "Ĵ": 245,
    "Ġappar": 7410,
    "Ġobsequious": 17407,
    "Ġdaugh": 2290,
    "dreadful": 11423,
    "Ġflock": 21414,
    "chase": 11648,
    "Ġaids": 12233,
    "Ġcosine": 2368,
    "Ġcatherine": 2811,
    "Ġvehemently": 26040,
    "mag": 6508,
    "Ġresigned": 9771,
    "Ġtropical": 17067,
    "ĠĠĠĠ": 459,
    "Ġmagnificent": 9845,
    "Ġhelmsman": 10507,
    "illum": 15873,
    "Ġfacility": 19852,
    "chair": 5917,
    "atement": 17775,
    "Ġcherub": 23290,
    "Ġfleets": 23777,
    "Ġcomprehensive": 15091,
    ";âĢĻ": 15306,
    "unsuitable": 21897,
    "Ġcuriosity": 2644,
    "Ġsh": 419,
    "Ġmurdering": 14814,
    "Ġread": 1448,
    "Ġlic": 8437,
    "affrail": 11207,
    "fire": 6358,
    "Ġtro": 7355,
    "Ġrevel": 9217,
    "smart": 23910,
    "Ġthreats": 13381,
    "Ġbattle": 5908,
    "iners": 4937,
    "Ġglobules": 26590,
    "Ġjackal": 24241,
    "Ġdeserving": 14756,
    "glimmer": 26323,
    "Ġdoctors": 12156,
    "Ġearls": 18905,
    "Ġcommanded": 6331,
    "Ġindirect": 18837,
    "Ġhands": 1665,
    "Ġlatterly": 24084,
    "necessities": 24308,
    "Ġmothers": 14542,
    "rative": 17654,
    "Ġweakened": 16825,
    "os": 526,
    "mown": 20972,
    "Ġdense": 8123,
    "ause": 1313,
    "Ġfallen": 5968,
    "Ġbetake": 22908,
    "Ġdecomp": 3810,
    "Ġrevolver": 14903,
    "Ġtrod": 15029,
    "Ġsoftly": 7948,
    "Ġmagical": 23101,
    "Ġtear": 6724,
    "Ġbermud": 26441,
    "simp": 17667,
    "Ġillust": 8263,
    "Ġosc": 2833,
    "Ġangelic": 19630,
    "shut": 10981,
    "Ġpound": 12621,
    "ieves": 4000,
    "raising": 21635,
    "Ġducking": 17149,
    "Ġbravery": 23840,
    "gain": 8740,
    "Ġother": 759,
    "Ġfetching": 16898,
    "Ġhandkerchief": 8917,
    "Ġbeacon": 21760,
    "ant": 438,
    "Ġmeets": 7395,
    "iction": 4264,
    "Ġcrawling": 17046,
    "ater": 3371,
    "proposal": 18765,
    "Ġfundamentals": 14637,
    "resolution": 17768,
    "Ġloading": 15878,
    "Ġsatisfactory": 11194,
    "ilty": 6394,
    "lodged": 25908,
    "Ġquestion": 2775,
    "Ġoffers": 12951,
    "Ġfishing": 9665,
    "duing": 22415,
    "Ġlobster": 11391,
    "Ġecl": 18008,
    "imony": 12695,
    "Ġgranite": 22810,
    "seals": 21822,
    "paus": 13776,
    "Ġvivacity": 14944,
    "Ġsuperstitions": 17073,
    "requiem": 24857,
    "acc": 2533,
    "Ġenlar": 15804,
    "win": 6801,
    "ide": 722,
    "Ġhig": 754,
    "Ġnewfoundland": 26571,
    "prodigious": 17469,
    "impetuous": 23765,
    "Ġconsists": 11982,
    "Ġpuzzle": 11307,
    "promote": 24726,
    "informed": 17738,
    "advancing": 14839,
    "invested": 17120,
    "hester": 9634,
    "Ġnine": 5369,
    "Ġindistinctly": 26118,
    "Ġcrimin": 6900,
    "invariably": 26418,
    "Ġalteration": 9549,
    "Ġvindictiveness": 25739,
    "Ġcharger": 19006,
    "damn": 20027,
    "accents": 19213,
    "inate": 6234,
    "Ġeigenvalues": 4998,
    "quired": 21859,
    "Ġouthouse": 22318,
    "Ġbuy": 8300,
    "Ġappeared": 2773,
    "police": 10586,
    "pire": 9138,
    "Ġnow": 693,
    "Ġpermitting": 22404,
    "dischar": 19155,
    "ory": 1083,
    "Ġislands": 6766,
    "setting": 13290,
    "Ġprefer": 6416,
    "through": 4020,
    "Ġoccurs": 1856,
    "Ġher": 427,
    "some": 2235,
    "Ġoccurring": 2790,
    "Ġdoubted": 7965,
    "icip": 6389,
    "throne": 25658,
    "gyric": 19111,
    "Ġbumps": 21395,
    "Ġanger": 5442,
    "murderers": 25728,
    "Ġbrimming": 22870,
    "Ġtask": 1310,
    "Ġevalu": 2930,
    "Ġdates": 6694,
    "Ġtogether": 1878,
    "Ġstaff": 14009,
    "luding": 6701,
    "Ġwhereupon": 14299,
    "Ġineffect": 13933,
    "Ġlo": 453,
    "Ġchast": 18381,
    "Ġaltogether": 4833,
    "Ġsunken": 14495,
    "Ġperem": 12937,
    "Ġnorton": 12654,
    "approve": 19940,
    "Ġuncle": 3193,
    "Ġeloped": 22648,
    "greatest": 10496,
    "elihood": 4621,
    "Ġarid": 22186,
    "friend": 3860,
    "Ġduring": 872,
    "ert": 2631,
    "cano": 18841,
    "paper": 9139,
    "christmas": 20258,
    "Ġlogical": 14489,
    "boiling": 19001,
    "whaler": 20312,
    "Ġsplin": 8622,
    "Ġfeelings": 2450,
    "Ġprimitive": 25064,
    "gunwale": 20665,
    "Ġgentle": 1891,
    "impotence": 23763,
    "Ġmalicious": 10560,
    "Ġsepulchral": 25893,
    "Ġ55": 24319,
    "Ġfaults": 12217,
    "Ġyes": 2688,
    "league": 17846,
    "Ġstalked": 20432,
    "Ġungrateful": 14123,
    "Ġdece": 6996,
    "ginger": 13167,
    "Ġunprinciple": 18252,
    "Ġwarning": 9061,
    "loss": 22512,
    "baby": 25516,
    "Ġhop": 1463,
    "Ġfaster": 3199,
    "Ġaccept": 4408,
    "visible": 10536,
    "arn": 357,
    "Ġunw": 7004,
    "cery": 20810,
    "Ġfever": 6559,
    "Ġgallantry": 15107,
    "described": 18895,
    "Ġdoran": 9182,
    "Ġold": 1058,
    "verest": 13994,
    "Ġdelight": 2547,
    "Ġnotion": 7882,
    "Ġclattering": 22355,
    "clings": 23155,
    "oyed": 14366,
    "nt": 920,
    "nels": 12500,
    "yield": 13812,
    "dr": 6222,
    "Ġnodding": 23337,
    "rated": 6228,
    "Ġsupplying": 19801,
    "ament": 2437,
    "Ġsant": 21217,
    "Ġclock": 9536,
    "Ġconcocted": 26300,
    "Ġhuge": 4700,
    "arken": 18668,
    "prof": 7470,
    "Ġanyhow": 14257,
    "Ġbolted": 12249,
    "icorn": 15661,
    "Ġbefore": 808,
    "Ġattempting": 14699,
    "jointed": 24013,
    "Ġpoem": 22592,
    "dutch": 17221,
    "Ġguest": 7248,
    "Ġsheets": 9725,
    "Ġsong": 5903,
    "ook": 21006,
    "Ġausten": 5881,
    "Ġreflections": 5946,
    "Ġstrolled": 16772,
    "mushroom": 26397,
    "Ġought": 3421,
    "?âĢĿâĢĶ": 12900,
    "Ġtexel": 25924,
    "ctu": 5088,
    "izure": 21838,
    "Ġbeaver": 18088,
    "Ġexponential": 1059,
    "Ġvice": 6549,
    "avenue": 25060,
    "Ġlonging": 14303,
    "Ġinstincts": 16988,
    "Ġpurses": 23480,
    "Ġ166": 25007,
    "Ġnail": 9198,
    "tables": 19760,
    "Ġexactly": 2766,
    "Ġcasual": 11411,
    "Ġrenowned": 26195,
    "Ġquestioned": 14621,
    "Ġheadsman": 13277,
    "orus": 10803,
    "Ġtarred": 23611,
    "apology": 22338,
    "Ġhinted": 6012,
    "Ġferocious": 17422,
    "chiefly": 14849,
    "ordered": 8794,
    "intention": 10370,
    "Ġxl": 11994,
    "Ġexagger": 12724,
    "Ġflavor": 16256,
    "Ġpathetic": 19021,
    "Ġinattention": 17934,
    "Ġproduced": 2449,
    "Ġir": 1993,
    "Ġevanesc": 24296,
    "Ġedinburgh": 16458,
    "onsensical": 18576,
    "brows": 17499,
    "rison": 13782,
    "Ġequal": 4130,
    "Ġspikes": 22140,
    "ee": 1661,
    "Ġstare": 10866,
    "middle": 11312,
    "Ġconfeder": 25708,
    "Ġsafer": 22174,
    "Ġwoodlands": 23524,
    "Ġrobbery": 11912,
    "rench": 3963,
    "breaths": 25337,
    "progra": 9398,
    "Ġcompunction": 18588,
    "Ġglac": 9348,
    "Ġghostly": 24651,
    "Ġclimate": 9278,
    "arians": 18527,
    "bots": 10085,
    "Ġerr": 1323,
    "wich": 11546,
    "Ġwashing": 9708,
    "smith": 5669,
    "Ġmanhood": 22331,
    "bpp": 20774,
    "counter": 20281,
    "Ġgramm": 8171,
    "enjoyments": 25434,
    "sis": 1916,
    "Ġschools": 9480,
    "Ġbanqu": 12593,
    "Ġconfed": 13102,
    "while": 2934,
    "Ġpr": 1602,
    "pleasures": 24049,
    "degrad": 22147,
    "Ġtierce": 15481,
    "Ġsnuffed": 15076,
    "Ġtigris": 25760,
    "captains": 12132,
    "Ġbree": 5012,
    "Ġdeclaring": 19423,
    "Ġperishing": 22402,
    "Ġexplanatory": 22206,
    "jumping": 20248,
    "Ġefficient": 1051,
    "Ġeleg": 6193,
    "revolver": 25628,
    "Ġoptimizers": 18629,
    "Ġrank": 6259,
    "Ġjobs": 24833,
    "Ġjoyfully": 19348,
    "Ġalgorithms": 852,
    "Ġirksome": 13116,
    "Ġu": 324,
    "Ġdining": 6977,
    "dropout": 3198,
    "Ġdecap": 16027,
    "Ġnest": 10191,
    "Ġsmo": 2700,
    "Ġ75": 19615,
    "Ġclapping": 14205,
    "Ġspouter": 12803,
    "bat": 8072,
    "handsome": 13180,
    "Ġcarve": 23095,
    "Ġget": 1622,
    "Ġho": 1933,
    "stout": 21648,
    "enough": 6809,
    "Ġloc": 10916,
    "Ġbreath": 4792,
    "Ġdreadful": 4921,
    "extric": 22756,
    "Ġdepl": 14049,
    "Ġimitation": 22175,
    "Ġreflecting": 24750,
    "Ġgrapple": 25812,
    "barrels": 15044,
    "suited": 22637,
    "Ġavowal": 19418,
    "evinced": 19928,
    "ders": 8075,
    "shell": 16289,
    "acey": 7650,
    "iff": 3902,
    "Ġadmired": 7982,
    "Ġdifferen": 938,
    "Ġdescribed": 6607,
    "fug": 17545,
    "ump": 2282,
    "imes": 1301,
    "Ġ36": 14770,
    "burn": 8371,
    "Ġmisfortunes": 7042,
    "Ġbenediction": 18785,
    "Ġcanvas": 7783,
    "Ġcreaking": 14335,
    "unquiet": 21885,
    "Ġinvestment": 24332,
    "sprang": 19994,
    "Ġcreeping": 18687,
    "Ġsax": 10931,
    "Ġclustered": 25234,
    "reject": 21239,
    "asmuch": 10197,
    "Ġ1671": 25008,
    "Ġmercy": 9001,
    "unconquerable": 21895,
    "weaving": 18667,
    "Ġphilosophical": 26336,
    "pagan": 17288,
    "Ġwapping": 21297,
    "Ġjumping": 13346,
    "sl": 5794,
    "Ġdisgu": 8206,
    "hog": 8380,
    "Ġcommission": 6713,
    "Ġintruding": 21995,
    "Ġparac": 12800,
    "Ġindependently": 4242,
    "Ġdoth": 13911,
    "Ġreconc": 9686,
    "Ġans": 1646,
    "Ġusurpation": 18358,
    "ib": 1233,
    "enesis": 24388,
    "Ġshows": 8484,
    "appetite": 22852,
    "Ġrestrict": 16380,
    "Ġcolouring": 16753,
    "itory": 12572,
    "Ġulster": 14999,
    "determination": 19948,
    "Ġbone": 4695,
    "Ġarrant": 23301,
    "Ġcaress": 16342,
    "Ġparm": 15881,
    "Ġcoolness": 16888,
    "Ġfailing": 12142,
    "type": 16179,
    "ingu": 2119,
    "Ġsuffering": 8949,
    "Ġst": 332,
    "fly": 13717,
    "Ġeveryone": 8921,
    "description": 11094,
    "strom": 15688,
    "Ġcommunic": 5751,
    "Ġplague": 11828,
    "Ġperf": 12855,
    "Ġabstained": 25232,
    "devilish": 17083,
    "combe": 7661,
    "leep": 4634,
    "Ġgenus": 24429,
    "Ġsnarl": 25714,
    "Ġmouthfuls": 20648,
    "sher": 5217,
    "Ġagent": 6278,
    "inform": 10146,
    "Ġwidely": 8033,
    "ear": 8734,
    "Ġwonderfully": 10432,
    "omically": 13979,
    "Ġdoubtful": 19143,
    "owers": 12689,
    "Ġcarter": 18902,
    "Ġuncontrollable": 25815,
    "Ġsmith": 16068,
    "Ġshiver": 12772,
    "objections": 19918,
    "Ġegress": 21624,
    "Ġostrich": 26432,
    "iqu": 7802,
    "adler": 21766,
    "conditionally": 24835,
    "Ġimp": 578,
    "ellow": 3874,
    "atic": 4012,
    "Ġundo": 15844,
    "Ġpreprocessing": 26538,
    "Ġemm": 18005,
    "floor": 14939,
    "prejudice": 25572,
    "inal": 15483,
    "banked": 25338,
    "Ġrelieve": 8224,
    "Ġcomprehending": 24445,
    "Ġsombre": 18855,
    "Ġmilky": 9950,
    "Ġpitied": 14694,
    "Ġremains": 4911,
    "boo": 16354,
    "ĠĠĠĠĠĠĠĠĠĠĠĠĠĠĠĠĠĠĠĠĠĠĠĠĠĠĠĠĠĠĠĠĠĠĠĠĠĠĠĠĠĠĠĠ": 12158,
    "intellig": 5321,
    "Ġpreternatural": 12828,
    "Ġirene": 8445,
    "Ġglittering": 10056,
    "blu": 12444,
    "ise": 707,
    "Ġlitter": 19832,
    "Ġdemonstrate": 24997,
    "Ġeluded": 12927,
    "Ġdoll": 10815,
    "ineffectual": 26509,
    "ppers": 7618,
    "Ġexam": 3709,
    "quest": 4536,
    "Ġmystery": 5509,
    "Ġfluke": 14676,
    "absurd": 21799,
    "oblivious": 26584,
    "cook": 8270,
    "ocations": 23710,
    "Ġmarks": 6747,
    "Ġrequisite": 18652,
    "âĢĶâĢĿ": 3300,
    "Ġposter": 14278,
    "Ġwheel": 9721,
    "reduced": 15809,
    "scot": 14420,
    "ruded": 15907,
    "stirred": 20428,
    "Ġduncan": 13465,
    "Ġjulia": 22306,
    "agne": 21909,
    "Ġstorm": 4296,
    ".--": 20748,
    "_.âĢĻâĢĿ": 17482,
    "Ġcommunity": 19010,
    "Ġavoid": 5199,
    "simple": 13456,
    "Ġinsight": 16532,
    "Ġugl": 12687,
    "Ġnathan": 21529,
    "Ġtarget": 2819,
    "Ġshameful": 19854,
    "acceptance": 25186,
    "Ġgrim": 7438,
    "Ġperdition": 15996,
    "Ġsuperlative": 26075,
    "should": 3263,
    "attle": 4463,
    "etch": 9207,
    "iable": 3334,
    "Ġsuppression": 23000,
    "ads": 5718,
    "Ġissue": 2307,
    "Ġcontribut": 12864,
    "bug": 17495,
    "Ġquarters": 8623,
    "Ġimplicit": 19961,
    "Ġsoothe": 7404,
    "Ġhearses": 20063,
    "whatever": 6695,
    "acks": 11792,
    "swelled": 19613,
    "icing": 9203,
    "Ġpredef": 18517,
    "tranquil": 25871,
    "Ġtomb": 8812,
    "poles": 16213,
    "several": 5544,
    "Ġfinishing": 23129,
    "Ġstationary": 19697,
    "Ġhurrying": 11999,
    "unfortunate": 15781,
    "darker": 24516,
    "representativeness": 25273,
    "Ġtobacco": 8367,
    "Ġestimable": 23875,
    "safie": 20351,
    "gu": 3953,
    "Ġassemblage": 26354,
    "skull": 24488,
    "Ġcalifornia": 20533,
    "Ġuntrodden": 23525,
    "Ġadvise": 7935,
    "Ġoverlapping": 26240,
    "sens": 8096,
    "ittleness": 22380,
    "birth": 15325,
    "Ġrevealed": 6752,
    "Ġvine": 8473,
    "remonstr": 23197,
    "answered": 10276,
    "Ġsink": 4337,
    "Ġchilly": 25563,
    "Ġlydia": 2369,
    "Ġtour": 9150,
    "wedding": 12526,
    "isles": 15568,
    "sheets": 14444,
    "congratulations": 20282,
    "Ġdoctor": 5067,
    "points": 14396,
    "Ġtemporary": 7981,
    "vative": 1546,
    "urbed": 15713,
    "Ġprec": 2917,
    "Ġchopping": 24220,
    "Ġprisoner": 8676,
    "Ġincul": 22553,
    "oward": 6021,
    "Ġlizzie": 26464,
    "Ġgaz": 4040,
    "Ġpostponed": 20393,
    "Ġgore": 17991,
    "Ġheartfelt": 18968,
    "bask": 20778,
    "tears": 11039,
    "Ġwag": 10777,
    "verize": 21732,
    "Ġsafely": 9028,
    "Ġtimidly": 11340,
    "acity": 5735,
    "evenings": 19466,
    "Ġapoplexy": 25266,
    "Ġungracious": 18256,
    "inced": 3336,
    "Ġbeau": 9227,
    "Ġgrows": 4985,
    "Ġvelocity": 10623,
    "Ġupdating": 2690,
    "Ġassociation": 24710,
    "Ġgarments": 15197,
    "eliest": 14749,
    "Ġfrost": 6096,
    "Ġpersistence": 3347,
    "rously": 17656,
    "ale": 506,
    "exasper": 22431,
    "Ġuplifted": 11650,
    "Ġselect": 3993,
    "Ġcoiled": 11824,
    "cottagers": 20051,
    "Ġasserted": 16951,
    "othing": 6995,
    "una": 21873,
    "mercenary": 26316,
    "Ġgemini": 26471,
    "Ġtax": 13819,
    "Ġgiver": 21608,
    "pon": 17627,
    "Ġul": 6827,
    "ostent": 16848,
    "Ġcollected": 2610,
    "heric": 15915,
    "Ġindefatigable": 17180,
    "andish": 18156,
    "n": 82,
    "Ġdimension": 3243,
    "Ġwit": 3840,
    "Ġhoot": 19078,
    "completely": 12424,
    "saving": 21062,
    "urches": 12690,
    "gown": 9599,
    "construction": 19781,
    "yard": 5900,
    "Ġincommod": 25308,
    "Ġinsinuating": 19273,
    "Ġconfiding": 19039,
    "exper": 8882,
    "atively": 2695,
    "ĠdÃ¦mon": 7844,
    "Ġadequate": 20311,
    "Ġpiny": 21473,
    "onstrate": 17770,
    "esc": 615,
    "Ġdiadem": 24740,
    "lotts": 23829,
    "mistress": 14908,
    "Ġfishers": 19357,
    "rosings": 15648,
    "Ġjealously": 24124,
    "bolt": 25138,
    "ogene": 18674,
    "sort": 6798,
    "decided": 13217,
    "vers": 1329,
    "frock": 20124,
    "Ġsuspected": 9065,
    "Ġ79": 24267,
    "Ġ95": 19776,
    "ornament": 23492,
    "Ġworkmen": 23043,
    "astrop": 3316,
    "Ġ179": 19757,
    "Ġguid": 2637,
    "Ġsituations": 10494,
    "Ġfriends": 2654,
    "distraction": 24201,
    "Ġcomparative": 10545,
    "Ġdemanding": 16807,
    "Ġpam": 21457,
    "Ġrecommending": 24333,
    "Ġexper": 1303,
    "ometer": 19327,
    "Ġcareless": 11121,
    "Ú": 155,
    "Ġtreacherously": 25132,
    "henomen": 10497,
    "Ġescaping": 13139,
    "Ġtemper": 956,
    "Ġpropensity": 18996,
    "Ġclerks": 17298,
    "Ġroylott": 7304,
    "Ġjoky": 18407,
    "Ġbored": 16109,
    "Ġframe": 1927,
    "Ġjenkinson": 11433,
    "Ġobservable": 25129,
    "Ġcreate": 2090,
    "Ġthundering": 24293,
    "Ġrhone": 25231,
    "affairs": 14658,
    "Ġwear": 6031,
    "Ġeyelids": 26108,
    "Ġtus": 10751,
    "Ġeulogy": 26472,
    "âĢĿ]": 21819,
    "desper": 13221,
    "Ġdejection": 15200,
    "real": 10152,
    "heat": 15500,
    "Ġstaying": 8284,
    "Ġloomings": 24952,
    "Ġrepressed": 21671,
    "entieth": 17981,
    "Ġintrig": 21994,
    "quarter": 11390,
    "Ġhing": 11607,
    "itates": 13872,
    "Ġinsert": 19907,
    "Ġattacking": 24465,
    "Ġact": 692,
    "hing": 981,
    "engagement": 14461,
    "Ġanguish": 5583,
    "Ġbox": 5109,
    "Ġshortly": 6197,
    "Ġcharge": 5325,
    "Ġwitnesses": 9489,
    "auley": 22624,
    "ulties": 12906,
    "Ġelastic": 4358,
    "Ġtore": 6531,
    "Ġsound": 2242,
    "unte": 21877,
    "Ġgrop": 12669,
    "Ġviv": 6157,
    "Ġdiscriminative": 4323,
    "headsman": 16699,
    "see": 3046,
    "ager": 6547,
    "sar": 12509,
    "Ġbildad": 3779,
    "Ġprompt": 3190,
    "ustry": 18356,
    "drop": 15340,
    "Ġbutts": 15859,
    "Ġattractive": 25576,
    "Ġface": 1720,
    "Ġor": 437,
    "cruet": 17028,
    "Ġdances": 10814,
    "Ġdetaining": 25819,
    "pped": 1998,
    "?": 35,
    "fee": 12885,
    "folding": 24928,
    "tempestuous": 26098,
    "Ġshoved": 23494,
    "alvan": 21507,
    "vering": 15720,
    "arranted": 19321,
    "crop": 20800,
    "Ġusefulness": 19411,
    "Ġstones": 9224,
    "Ġspaniards": 25556,
    "whatsoever": 18492,
    "sounding": 24795,
    "Ġhue": 8430,
    "balls": 12309,
    "mot": 17598,
    "Ġpolar": 9414,
    "Ġposit": 1306,
    "Ġrue": 11871,
    "Ġreaction": 15699,
    "Ġloite": 22115,
    "cont": 2918,
    "Ġcrazed": 19177,
    "abular": 4763,
    "wl": 17704,
    "riages": 10245,
    "Ġscattered": 6855,
    "ampled": 18885,
    "Ġdeliriously": 23229,
    "Ġindestructible": 26574,
    "Ġreturns": 11930,
    "Ġimprudently": 22391,
    "Ġres": 697,
    "Ġhum": 1101,
    "Ġchief": 3382,
    "Ġarmy": 11745,
    "Ġthousands": 6749,
    "Ġproc": 5545,
    "S": 55,
    "Ġaught": 8777,
    "Ġutensils": 23518,
    "imprisonment": 23764,
    "Ġdistricts": 20266,
    "hill": 15366,
    "Ġstepmother": 16093,
    "european": 26373,
    "feared": 11807,
    "Ġentreated": 9954,
    "Ġgossip": 18470,
    "Ġdisobey": 18560,
    "Ġappropri": 2228,
    "Ġjustine": 4970,
    "Ġuseless": 7038,
    "aged": 2606,
    "Ġpertur": 12856,
    "Ġgazes": 24096,
    "ilent": 21723,
    "iences": 6956,
    "Ġsummons": 13236,
    "entials": 22661,
    "Ġstudies": 7956,
    "astron": 22173,
    "spe": 3561,
    "Ġmix": 7577,
    "quely": 10234,
    "dirty": 20836,
    "Ġyer": 15738,
    "neighboring": 20620,
    "Ġflukes": 5267,
    "Ġshuttle": 12131,
    "infall": 21191,
    "quickly": 14965,
    "Ġconsecutive": 20705,
    "\"],": 26121,
    "Ġgaze": 6931,
    "er": 269,
    "neck": 14243,
    "Ġleakage": 23461,
    "Ġheiress": 20700,
    "consideration": 14958,
    "20": 20755,
    "Ġaberde": 22281,
    "Ġherbage": 25997,
    "Ġparr": 22123,
    "iverse": 13120,
    "Ġgem": 21597,
    "stick": 15689,
    "Ġmansion": 17811,
    "three": 5238,
    "Ġstretched": 5920,
    "Ġlanding": 11989,
    "du": 605,
    "Ġelijah": 9103,
    "gods": 13371,
    "etween": 774,
    "disaster": 23497,
    "lit": 9608,
    "evid": 11487,
    "Ġranged": 10260,
    "Ġshout": 4260,
    "Ġcompleted": 9000,
    "precip": 14667,
    "bottom": 11428,
    "Ġbarrowful": 25596,
    "hus": 5072,
    "arth": 4440,
    "vo": 11542,
    "Ġsupply": 6067,
    "Ġspermaceti": 8970,
    "Ġwith": 349,
    "Ġwearily": 18180,
    "veil": 18048,
    "é": 170,
    "scure": 22988,
    "Ġbroadened": 23988,
    "Ġmemb": 14031,
    "Ġvolcano": 24147,
    "Ġze": 8547,
    "Ġproposition": 23251,
    "Ġnick": 21526,
    "Ġsponge": 26004,
    "Ġkept": 3346,
    "Ġdreaming": 11225,
    "cific": 10088,
    "Ġconsol": 3814,
    "Ġneedlessly": 23631,
    "Ġsaved": 6691,
    "Ġcircular": 13115,
    "Ġluckless": 16799,
    "similar": 13457,
    "fabulous": 20477,
    "Ġtrough": 15979,
    "Ġwashes": 21865,
    "rear": 21235,
    "Ġsurpassed": 25268,
    "Ġcongeal": 25981,
    "Ġsuffered": 5649,
    "calculating": 25690,
    "Ġexerting": 21836,
    "Ġmeasuring": 22885,
    "blubber": 15240,
    "Ġreplied": 2264,
    "Ġcrossing": 7251,
    "guessed": 25873,
    "opard": 9294,
    "Ġbaked": 21389,
    "Ġconfid": 7687,
    "Ġnourishment": 15196,
    "conducted": 25573,
    "Ġlivers": 18462,
    "Ġbaleen": 10040,
    "Ġ10": 5249,
    "possesses": 24617,
    "bones": 8372,
    "Ġsyn": 15917,
    "Ġhaunted": 10256,
    "Ġmeditative": 25017,
    "Ġsharks": 4494,
    "Ġmissionary": 25697,
    "inserted": 18888,
    "heim": 17748,
    "Ġdisput": 14258,
    "tuesday": 17692,
    "Ġhighland": 18714,
    "fingers": 17373,
    "substance": 15235,
    "Ġburgled": 23658,
    "Ġmanned": 9274,
    "rise": 6227,
    "Ġincidentally": 16956,
    "Ġflush": 14427,
    "Ġpompous": 20426,
    "Ġdwelt": 12610,
    "waistcoat": 17364,
    "imson": 12694,
    "Ġcloth": 9746,
    "entimes": 12661,
    "Ġcage": 17827,
    "Ġfestival": 25446,
    "astrous": 15890,
    "Ġthence": 8885,
    "narr": 12501,
    "Ġinserted": 8356,
    "dled": 9114,
    "Ġobedience": 11415,
    "shott": 11798,
    "honor": 19902,
    "dee": 11737,
    "anelles": 26436,
    "Ġmeant": 3551,
    "Ġmoody": 8201,
    "Ġburst": 4377,
    "br": 2477,
    "Ġflower": 16234,
    "odes": 18122,
    "Ġnapkins": 25165,
    "Ġsteersman": 13046,
    "Ġraptures": 13500,
    "Ġboldness": 24428,
    "Ġowest": 25094,
    "Ġsolely": 9913,
    "Ġimpetuously": 20375,
    "accomp": 10457,
    "Ġardour": 8043,
    "Ġsmell": 7215,
    "Ġcruis": 14626,
    "lines": 6958,
    "Ġsavag": 19377,
    "Ġcomplaisance": 19452,
    "vously": 23508,
    "etent": 10202,
    "acquaintance": 6937,
    "ĠĠĠĠĠĠĠĠĠĠĠĠĠĠĠĠĠĠĠĠĠĠĠĠĠĠĠĠĠĠĠĠĠĠĠĠĠĠĠĠĠĠ": 24210,
    "Ġexquis": 9702,
    "Ġtransformer": 2635,
    "guilty": 19486,
    "Ġcister": 13885,
    "Ġattentions": 5878,
    "inguished": 6599,
    "Ġmaintaining": 1511,
    "bowsprit": 16855,
    "mariners": 19551,
    "box": 5749,
    "Ġsignify": 16496,
    "osoever": 17346,
    "Ġcough": 11584,
    "Ġrevered": 23736,
    "Ġsecondary": 23334,
    "rop": 541,
    "antique": 18288,
    "Ġmincer": 14369,
    "tps": 11537,
    "Ġcontinental": 19708,
    "Ġsobbing": 14138,
    "Ġsunday": 7269,
    "Ġvindictive": 20473,
    "Ġfob": 21412,
    "veral": 2350,
    "ospel": 17012,
    "Ġentry": 11028,
    "Ġqual": 6275,
    "ential": 824,
    "Ġberyls": 25776,
    "Ġabandoned": 8352,
    "Ġpalm": 10516,
    "Ġchewing": 23288,
    "Ġdignity": 5704,
    "Ġruskin": 25809,
    "additional": 20467,
    "Ġhoney": 12637,
    "Ġpersecutor": 26097,
    "Ġplush": 18610,
    "Ġcobweb": 22589,
    "Ġguarded": 9829,
    "Ġauthent": 14515,
    "Ė": 215,
    "latitudes": 17199,
    "Ġbiological": 1934,
    "diversity": 25898,
    "Ġbegg": 16257,
    "soon": 4024,
    "gover": 10704,
    "yden": 21146,
    "Ġwarbling": 26169,
    "Ġmaddened": 17246,
    "Ġmortifying": 13249,
    "Ġcovering": 13259,
    "stiff": 12680,
    ";--": 8069,
    "algorithm": 3491,
    "Ġintricate": 15141,
    "ivided": 22084,
    "Ġlandsman": 11352,
    "Ġglasses": 9478,
    "silly": 24422,
    "Ġpovelson": 26554,
    "could": 2869,
    "Ġprob": 972,
    "uch": 877,
    "Ġgross": 11628,
    "Ġdomain": 3415,
    "pierced": 26142,
    "oy": 1013,
    "rim": 7138,
    "ror": 7350,
    "Ġaffidav": 18791,
    "Ġhuggins": 24826,
    "accomplishments": 25327,
    "Ġinspiring": 19114,
    "Ġfable": 15581,
    "¾": 127,
    "H": 44,
    "Ġexception": 11218,
    "ela": 21572,
    "Ġquaker": 10973,
    "Ġtombed": 25164,
    "Ġirrevocably": 15301,
    "ni": 1686,
    "Ġsplinters": 15106,
    "Ġwithheld": 18117,
    "Ġunmanner": 22031,
    "hooked": 23718,
    "Ġsorrowful": 10539,
    "Ġrallied": 14098,
    "illa": 12798,
    "finally": 9502,
    "Ġvary": 15811,
    "Ġmont": 8561,
    "Ġlexic": 15728,
    "Ġconfronted": 23310,
    "me": 873,
    "Ġdip": 13910,
    "Ġjourneys": 19478,
    "Ġbeale": 12704,
    "harpoon": 9494,
    "Ġ102": 24410,
    "mine": 5618,
    "reputable": 15520,
    "lengths": 24847,
    "idelburgh": 10564,
    "refuge": 24733,
    "saw": 5894,
    "Ġchancery": 20718,
    "Ġpupp": 10822,
    "Ġinherited": 25354,
    "igin": 3655,
    "wheels": 14384,
    "Ġbankrupt": 16798,
    "resides": 23674,
    "Ġargued": 13633,
    "endering": 21287,
    "Ġsob": 12793,
    "Ġinconsiderable": 21498,
    "Ġcannib": 6036,
    "1": 21,
    "00": 1613,
    "Ġespecially": 3932,
    "suspended": 15181,
    "guard": 12133,
    "Ġbreaching": 23348,
    "unwholesome": 26499,
    "comb": 11037,
    "topp": 22569,
    "Ġforgiveness": 16659,
    "their": 2540,
    "matical": 13133,
    "lean": 21368,
    "glow": 20876,
    "Ġpassenger": 14372,
    "pious": 17635,
    "mortals": 25410,
    "Ġmarling": 23037,
    "Ġparagraph": 17457,
    "icit": 3379,
    "innocent": 20289,
    "Ġaffinity": 18789,
    "Ġunduly": 25995,
    "Ġeven": 1025,
    "3": 23,
    "Ġpensive": 21478,
    "Ġindiscriminately": 20630,
    "ruding": 9727,
    "Ġactivations": 2719,
    "Ġrooms": 5180,
    "Ġdoom": 6417,
    "ressing": 8922,
    "retch": 4368,
    "Ġmomentum": 1605,
    "urg": 8142,
    "dick": 11481,
    "shold": 2771,
    "warmly": 25029,
    "Ġusages": 15919,
    "untarily": 6313,
    "Ġadmitting": 19185,
    "tier": 12519,
    "Ġexhibition": 14960,
    "uncommon": 11685,
    "Ġdiscoverer": 26036,
    "Ġ\"": 6120,
    "prehens": 9292,
    "biting": 20783,
    "ignified": 14492,
    "as": 302,
    "Ġtwo": 1042,
    "Ġcalendar": 18879,
    "super": 5943,
    "Ġtire": 17722,
    "english": 2772,
    "Ġ47": 14774,
    "Ġtennessee": 26598,
    "has": 4008,
    "securing": 19816,
    "Ġgratitude": 5599,
    "Ġthunders": 15642,
    "Ġassociate": 13454,
    "Ġinvested": 7278,
    "Ġconsum": 9802,
    "rivial": 9437,
    "Ġlizzy": 3547,
    "died": 11482,
    "mus": 10113,
    "Ġartic": 5315,
    "Ġmarchant": 14788,
    "Ġdolph": 12384,
    "Ġimbu": 15895,
    "Ġcuriosities": 26291,
    "disposition": 10045,
    "Ġladies": 3195,
    "Ġpromises": 10403,
    "Ġbre": 1913,
    "therly": 18347,
    "Ġdissect": 16056,
    "Ġsheepfold": 25467,
    "uine": 13802,
    "Ġ1828": 25720,
    "Ġpresenting": 18988,
    "Ġpotential": 3619,
    "however": 4370,
    "mush": 20979,
    "urpation": 16305,
    "Ġclutched": 13522,
    "Ġpythag": 26450,
    "Ġsneeze": 24698,
    "tried": 13797,
    "Ġpropont": 16353,
    "slee": 17171,
    "chosen": 21698,
    "Ġcompetition": 14269,
    "Ġextra": 4052,
    "conjecture": 15126,
    "Ġembarr": 7445,
    "long": 2910,
    "Ġluck": 4881,
    "Ġthenceforth": 25183,
    "okes": 9280,
    "Ġfluffy": 19367,
    "abeth": 906,
    "Ġcorrespondent": 19825,
    "Ġgrieved": 8298,
    "Ġsleeper": 8604,
    "indebted": 26159,
    "Ġmiz": 10779,
    "july": 20478,
    "Ġfuneral": 10285,
    "bec": 4049,
    "Ġunchanging": 22047,
    "whaling": 7899,
    "ructure": 762,
    "precaution": 23826,
    "Ġartfully": 22613,
    "Ġsecrets": 9057,
    "ascending": 24706,
    "linging": 16082,
    "Ġasking": 5651,
    "Ġsaves": 18325,
    "ilst": 8144,
    "Ġcroquet": 9965,
    "Ġdefilements": 26286,
    "agers": 5633,
    "Ġscreening": 25301,
    "Ġending": 18924,
    "civility": 17515,
    "osity": 14188,
    "Ġpref": 14174,
    "Ġforeheads": 23450,
    "Ġclos": 4547,
    "Ġhealth": 3900,
    "Ġaccordance": 19501,
    "uzzle": 19586,
    "Ġpreference": 9736,
    "gave": 7799,
    "sister": 5139,
    "Ġdisconsol": 18558,
    "hairs": 20906,
    "Ġthursday": 12649,
    "Ġinsisted": 12050,
    "Ġpitched": 9447,
    "Ġcoroner": 7510,
    "indirect": 22376,
    "Ġgestures": 13539,
    "Ġbloodshed": 23803,
    "Ġdeclare": 6616,
    "scale": 3536,
    "Ġbarmaid": 19336,
    "frau": 15093,
    "Ġebb": 21625,
    "cape": 13701,
    "ġ": 226,
    "Ġindel": 13009,
    "Ġplucked": 15117,
    "Ġtempt": 5565,
    "independent": 26022,
    "Ġextended": 7922,
    "Ġsqueaking": 26276,
    "Ġunlike": 7005,
    "encies": 4076,
    "Ġshare": 1659,
    "Ġfumbling": 21420,
    "ral": 4627,
    "companies": 24895,
    "constantinople": 25508,
    "Ġrestrain": 8967,
    "Ġref": 904,
    "viv": 17700,
    "Ġmort": 3461,
    "Ġlaunched": 14929,
    "Ġcarries": 7674,
    "stein": 5505,
    "Ġumbrell": 13654,
    "Ġweal": 21923,
    "Ġoverlooking": 22359,
    "£": 101,
    "Ġstupid": 7604,
    "Ġawaiting": 11392,
    "exceeded": 25002,
    "Ġenemies": 9041,
    "erred": 6376,
    "mentioned": 10626,
    "Ġseparating": 16684,
    "sensible": 20055,
    "Ġadapts": 3816,
    "Ġwardrobe": 17228,
    "Ġfugitives": 25635,
    "Ġplun": 6282,
    "threaten": 25462,
    "Ġpers": 1407,
    "christian": 17235,
    "land": 1536,
    "Ġraised": 4660,
    "Ġhall": 4180,
    "hospit": 25904,
    "Ġschedules": 3387,
    "Ġgayer": 24501,
    "arpaul": 14538,
    "Ġrosings": 4606,
    "ender": 9163,
    "stall": 21649,
    "Ġrates": 1403,
    "Ġinjurious": 24273,
    "Ġmuchness": 18709,
    "Ġcold": 3032,
    "posted": 24636,
    "Ġdeft": 21841,
    "Ġbond": 21387,
    "etus": 21581,
    "Ġpreced": 6040,
    "Ġquestionable": 19268,
    "aim": 2754,
    "Ġthomas": 17950,
    "Ġclutch": 15056,
    "Ġlestrade": 5826,
    "Ġunwillingness": 20035,
    "Ġcuriously": 13027,
    "beneath": 9538,
    "Ġscare": 18397,
    "Ġmade": 1049,
    "Ġcompar": 4772,
    "Ġapex": 24342,
    "Ġsires": 21229,
    "spanish": 14338,
    "Ġcharlotte": 3887,
    "ropri": 2180,
    "Ġunchanged": 22033,
    "hideous": 25408,
    "Ġtroubles": 19442,
    "ended": 1833,
    "orified": 21405,
    "consid": 4925,
    "Ġvagu": 13593,
    "Ġbash": 12591,
    "assumed": 22312,
    "Ġanalyze": 1594,
    "flood": 19809,
    "Ġghostliness": 24652,
    "broke": 14781,
    "melted": 25207,
    "Ġdecl": 3590,
    "Ġrelig": 8552,
    "ering": 1265,
    "Ġsofa": 10273,
    "ighted": 8478,
    "furnished": 20244,
    "Ġglare": 13018,
    "atoes": 17777,
    "Ġvarieties": 14313,
    "Ġcoins": 11823,
    "thither": 21987,
    "Ġjuncture": 17132,
    "Ġchannel": 26013,
    "ifiable": 18166,
    "hilar": 25084,
    "Ġcoronation": 13338,
    "procure": 23400,
    "sugg": 11843,
    "Ġstore": 8455,
    "Ġide": 2122,
    "osy": 11762,
    "Ġkith": 22196,
    "stand": 635,
    "Ġgates": 10203,
    "grate": 23415,
    "Ġangrily": 9410,
    "beheld": 11805,
    "Ġadvised": 16206,
    "Ġafar": 14295,
    "resolved": 9642,
    "Ġvariously": 18654,
    "floated": 24644,
    "Ġassisted": 11113,
    "dwell": 15345,
    "Ġhunks": 18939,
    "ortal": 6266,
    "Ġcontradictory": 20400,
    "Ġshakespeare": 20310,
    "Ġpattern": 1325,
    "lighter": 20961,
    "Ġillustrative": 25069,
    "Ġboasted": 16110,
    "azed": 9402,
    "Ġende": 21936,
    "Ġharbors": 24902,
    "Ġperverseness": 13658,
    "kicked": 20945,
    "Ġcolony": 18768,
    "Ġsufferable": 16261,
    "welt": 12525,
    "wickham": 5884,
    "consider": 6349,
    "Ġhonestly": 19975,
    "Ġbradstreet": 9579,
    "Ġhar": 5815,
    "mill": 13757,
    "Ġhasn": 12930,
    "to": 714,
    "Ġnay": 5711,
    "Ġsource": 6805,
    "rah": 8137,
    "Ġwears": 10243,
    "Ġunexampled": 20363,
    "Ġfo": 1652,
    "ĠĠĠĠĠĠĠĠĠĠĠĠĠĠĠĠĠĠĠĠĠĠĠĠĠĠĠĠĠĠĠĠĠĠ": 14615,
    "Ġtoils": 10188,
    "Ġhip": 17923,
    "emberley": 4165,
    "Ġlie": 4404,
    "Ġloses": 15877,
    "Ġpresumption": 10548,
    "icking": 8914,
    "Ġfreshly": 23990,
    "patched": 17645,
    "lingly": 9776,
    "Ġinferiority": 17116,
    "Ġfunctional": 3047,
    "Ġberths": 20118,
    "athan": 2956,
    "Ġrascally": 26508,
    "uberance": 25917,
    "clinging": 20824,
    "Ġveil": 7934,
    "Ġbordering": 17231,
    "quid": 18149,
    "Ġ121": 24466,
    "Ġwalked": 3141,
    "Ġanticipation": 17059,
    "Ġfeeding": 7972,
    "farintosh": 24553,
    "eryton": 4090,
    "invincible": 25092,
    "Ġinsane": 19271,
    "Ġseer": 21963,
    "Ġundiscernible": 22070,
    "toller": 20675,
    "Ġcongen": 10875,
    "biqu": 17500,
    "Ġindividual": 5744,
    "Ġfountains": 13506,
    "glancing": 11216,
    "Ġparagra": 15883,
    "Ġhospit": 7514,
    "Ġsafie": 6619,
    "bub": 15320,
    "Ġallen": 5160,
    "Ġcountess": 11968,
    "Ġcountries": 13101,
    "ourselves": 9014,
    "tiger": 13800,
    "using": 5468,
    "lance": 12486,
    "_;": 6642,
    "Ġstirs": 14920,
    "Ġwomen": 4751,
    "sought": 15430,
    "triumph": 15443,
    "Ġtapers": 11554,
    "Ġprocured": 8680,
    "Ġappropriate": 2249,
    "Ġlimb": 9405,
    "burned": 25082,
    "condescended": 26250,
    "Ġl": 303,
    "Ġdl": 3377,
    "grateful": 10430,
    "odecim": 9835,
    "Ġforg": 3785,
    "Ġimportance": 4901,
    "Ġactively": 18655,
    "bingley": 4928,
    "ool": 17620,
    "Ġsustain": 10020,
    "Ġanchors": 12618,
    "per": 479,
    "Ġferrule": 24500,
    "ĠĠĠĠĠĠĠĠĠĠĠĠĠĠĠĠĠĠĠĠĠĠĠĠĠĠĠĠĠ": 19702,
    "Ġlacey": 10200,
    "Ġrem": 955,
    "Ġaback": 22270,
    "Ġarist": 14164,
    "Ġdiffers": 23784,
    "Ġdrab": 13075,
    "Ġreconsidered": 21676,
    "¼": 125,
    "began": 6426,
    "arising": 17897,
    "uns": 21874,
    "Ġallow": 1127,
    "Ġgobern": 22427,
    "Ġweakness": 9970,
    "ateg": 1355,
    "Ġhipp": 21495,
    "material": 13134,
    "Ġsupplement": 23002,
    "Ġresiding": 16065,
    "Ġoutermost": 22323,
    "Ġsultry": 20291,
    "Ġbrows": 13305,
    "Ġmachinery": 20488,
    "gang": 17555,
    "include": 23591,
    "umbs": 14692,
    "national": 21000,
    "Ġ57": 24321,
    "uing": 17695,
    "Ġoverpow": 14209,
    "vib": 21118,
    "oir": 21004,
    "Ġdocuments": 10026,
    "Ġaccents": 14213,
    "Ġcheerfulness": 10519,
    "Ġdownstream": 3772,
    "whose": 6851,
    "Ġreassure": 21675,
    "satisf": 5781,
    "loveliness": 26551,
    "musket": 25342,
    "heaving": 21210,
    "Ġtread": 9412,
    "Ġharbor": 10030,
    "Ġtunnels": 24621,
    "Ġimmutable": 17361,
    "anean": 7442,
    "Ġriot": 14690,
    "Ġcleansed": 26295,
    "tap": 17678,
    "Ġbrawny": 13617,
    "edy": 2856,
    "better": 7120,
    "Ġemble": 13974,
    "Ġforwarded": 19044,
    "begged": 18521,
    "Ġhourly": 23304,
    "Ġgloss": 11962,
    "rie": 2785,
    "upper": 11541,
    "Ġsanguinary": 25930,
    "Ġaware": 5756,
    "Ġtroubled": 6617,
    "Ġhenceforth": 19645,
    "Ġresolve": 13174,
    "Ġandrew": 21510,
    "erity": 21270,
    "Ġmomentarily": 22816,
    "Ġslily": 23167,
    "Ġbade": 9174,
    "ologically": 22873,
    "Ġrouse": 15825,
    "enchant": 21286,
    "Ġsol": 1105,
    "Ġfeet": 2257,
    "flinging": 20870,
    "Ġsod": 11564,
    "flour": 23969,
    "trust": 21081,
    "Ġconsisting": 8974,
    "Ġencircling": 26273,
    "Ġtough": 13818,
    "jure": 20926,
    "Ġsensitivity": 3069,
    "Ġstudents": 23236,
    "alo": 7588,
    "unks": 15779,
    "constellation": 24608,
    "leather": 13893,
    "Ġbil": 15569,
    "sixty": 24853,
    "Ġloves": 10917,
    "Ġcleanse": 24527,
    "Ġpace": 9186,
    "rodu": 1817,
    "Ġdrawing": 3914,
    "Ġcover": 3558,
    "serpent": 16295,
    "atics": 15526,
    "Ġstrongly": 5657,
    "cles": 8729,
    "pless": 6261,
    "Ġpatterns": 1214,
    "Ġ129": 24474,
    "whims": 22243,
    "Ġcentaurs": 23836,
    "Ġbrill": 8551,
    "Ġvehicles": 10662,
    "Ġrese": 2190,
    "Ġpliny": 11829,
    "tes": 11531,
    "Ġsolemnisation": 24113,
    "Ġvarious": 3511,
    "Ġshut": 3938,
    "singing": 24363,
    "beings": 12882,
    "Ġswap": 23055,
    "otted": 14027,
    "avier": 2829,
    "wondrous": 12342,
    "Ġbird": 3754,
    "Ġrecognition": 3000,
    "ocity": 8278,
    "renew": 24450,
    "¥": 103,
    "Ġadmin": 23556,
    "Ġinfall": 7960,
    "Ġtows": 19565,
    "Ġderanged": 23177,
    "emper": 18188,
    "Ġdescrying": 18619,
    "gent": 7130,
    "Ġremoved": 5275,
    "mat": 2199,
    "Ġprot": 3846,
    "dish": 12457,
    "happened": 9436,
    "uction": 15446,
    "inous": 8776,
    "Ġantagon": 19553,
    "Ġret": 1379,
    "85": 13685,
    "fatality": 25022,
    "Ġlizard": 12659,
    "Ġzone": 14365,
    "Ġweight": 657,
    "Ġsandwich": 19831,
    "Ġfac": 6381,
    "Ġaf": 781,
    "Ġago": 3136,
    "writhed": 26081,
    "pha": 22772,
    "Ġrefusal": 10347,
    "ah": 1832,
    "lid": 20947,
    "majesty": 26282,
    "Ġscene": 3097,
    "Ġmethodically": 23128,
    "Ġsymmetry": 20369,
    "Ġbrighter": 16191,
    "Ġperplex": 2715,
    "uv": 6230,
    "asets": 2306,
    "Ġforging": 18096,
    "?âĢĿ": 700,
    "Ġtargets": 4201,
    "advent": 10223,
    "Ġwife": 2586,
    "_,âĢĻâĢĿ": 20404,
    "corners": 17371,
    "val": 1154,
    "Ġbreathed": 11222,
    "Ġencountered": 8322,
    "Ġpondered": 15170,
    "Ġknow": 631,
    "Ġslides": 18942,
    "Ġdaunt": 19667,
    "cooee": 12422,
    "Ġwhe": 439,
    "Ġexpressed": 4464,
    "ind": 568,
    "Ġameric": 3852,
    "Ġoverwhel": 8196,
    "Ġchristianity": 19863,
    "poverty": 22910,
    "Ġsuite": 18277,
    "Ġoverseeing": 22362,
    "Ġcollins": 2181,
    "Ġcuff": 17831,
    "Ġhalf": 1670,
    "Ġenvelop": 5588,
    "Ġintensified": 17020,
    "Ġaverage": 3140,
    "Ġcelebrated": 13598,
    "Ġtreasure": 9561,
    "Ġsaluted": 14761,
    "Ġaccuse": 14214,
    "Ġbear": 3657,
    "impregn": 21717,
    "Ġdesires": 9459,
    "Ġcomplacency": 19451,
    "tar": 8098,
    "Ġtugged": 17291,
    "Ġcamp": 9167,
    "Ġpow": 4637,
    "Ġprevention": 16095,
    "emotions": 15801,
    "Ġdetection": 3139,
    "Ġspecimens": 18854,
    "Ġjohnson": 18410,
    "Ġmingled": 12381,
    "cig": 17506,
    "moonlight": 25376,
    "dear": 6556,
    "Ġbroom": 18908,
    "Ġlosing": 10918,
    "Ġtex": 15475,
    "Ġmart": 10781,
    "finds": 19929,
    "bourine": 9399,
    "_.âĢĿ": 5886,
    "Ġdisagreeable": 9301,
    "Ġfriend": 1296,
    "Ġunfit": 14790,
    "augh": 1782,
    "Ġclattered": 22353,
    "print": 23815,
    "Ġanno": 9670,
    "Ġcasement": 25095,
    "vices": 21119,
    "ened": 1385,
    "Ġdens": 21427,
    "Ġgaff": 17996,
    "Ġrider": 24186,
    "ching": 5156,
    "abulary": 4801,
    "Ġlivid": 14992,
    "Ġprofessor": 11232,
    "event": 8077,
    "kerchief": 7525,
    "extreme": 11031,
    "Ġhistor": 3391,
    "Ġfires": 16473,
    "Ġastonishment": 4795,
    "Ġtenderest": 23553,
    "pet": 4868,
    "Ġfidelity": 15245,
    "Ġspeed": 2445,
    "stock": 13225,
    "aux": 14291,
    "Ġwip": 13856,
    "ark": 849,
    "Ġgang": 9210,
    "oars": 9617,
    "Ġqueequeg": 2012,
    "Ġdirt": 15598,
    "Ġturned": 2133,
    "Ġpitch": 5767,
    "Ġforger": 15737,
    "Ġcontradicted": 20214,
    "Ġpasses": 2678,
    "Ġfuller": 11158,
    "Ġclam": 7415,
    "armon": 23062,
    "Ġboa": 22640,
    "Ġabroad": 8869,
    "peaceful": 20450,
    "iger": 8448,
    "cellar": 20280,
    "Ġquantization": 19856,
    "including": 23592,
    "Ġperceiving": 8879,
    "ensed": 10997,
    "gladness": 25195,
    "Ġcabinets": 23865,
    "erde": 21271,
    "promontory": 24727,
    "pton": 15798,
    "ernally": 22622,
    "mor": 4211,
    "Ġdenomin": 12072,
    "eng": 1490,
    "wled": 15457,
    "Ġparmacetti": 20607,
    "Ġtit": 8400,
    "Ġclin": 14203,
    "blunder": 24129,
    "Ġinsensible": 12329,
    "scotch": 25852,
    "inching": 21192,
    "sil": 5283,
    "Ġdesign": 4127,
    "Ġfavoring": 2341,
    "Ġcrimson": 16440,
    "Ġhor": 1662,
    "vint": 21117,
    "Ġapproximate": 2339,
    "Ġparts": 4159,
    "Ġroasted": 18459,
    "Ġminimum": 23045,
    "Ġrel": 1099,
    "Ġlordly": 23746,
    "apes": 9744,
    "Ġmutiny": 13263,
    "Ġgain": 4829,
    "í": 174,
    "Ġ199": 3009,
    "ć": 200,
    "Ġhandle": 3137,
    "Ġwhite": 1542,
    "Ġjune": 10291,
    "Ġideas": 5494,
    "Ġvalid": 1792,
    "26": 10076,
    "Ġadrift": 11726,
    "kne": 20937,
    "Ġshelter": 17010,
    "honour": 13471,
    "Ġcondescending": 24869,
    "Ġbrightness": 16579,
    "Ġleaking": 21749,
    "Ġidolator": 20001,
    "fortunate": 4793,
    "Ġprediction": 2260,
    "Ġblowing": 10487,
    "Ġweariness": 19797,
    "izabeth": 907,
    "azine": 19132,
    "?--": 15307,
    "Ġpresents": 8245,
    "inkers": 22618,
    "wh": 508,
    "Ġsank": 5076,
    "itch": 10163,
    "Ġsupplied": 8946,
    "insulting": 26056,
    "Ġfidget": 15193,
    "Ġplunder": 22605,
    "Ġaloft": 4298,
    "uten": 11625,
    "girl": 12322,
    "Ġcraven": 16471,
    "cannibal": 15228,
    "Ġhampshire": 15246,
    "ws": 7354,
    "Ġtrustworthy": 24106,
    "Ġhow": 599,
    "Ġunprepared": 22052,
    "Ġfails": 13318,
    "Ġbo": 796,
    "Ġperu": 14225,
    "Ġsnake": 12065,
    "sneezes": 11448,
    "Ġfled": 6672,
    "scoured": 22993,
    "Ġiceland": 15150,
    "Ġangular": 19209,
    "letons": 14614,
    "lone": 11502,
    "15": 12434,
    "aret": 7416,
    "strils": 10460,
    "Ġwaking": 11573,
    "aisance": 15078,
    "Ġfeatures": 1433,
    "clusion": 16309,
    "Ġbrandy": 11051,
    "iates": 13740,
    "\":": 9584,
    "Ġparading": 23713,
    "Ġfa": 4821,
    "Ġresumed": 11816,
    "Ġeluc": 16112,
    "Ġomen": 11579,
    "Ġaccurate": 13282,
    "Ġquadrille": 13544,
    "Ġspite": 4150,
    "baggage": 24927,
    "Ġfast": 1715,
    "luyt": 18460,
    "Ġsubordinate": 18724,
    "Ġ20": 8617,
    "agues": 8161,
    "Ġneighbor": 25804,
    "Ġpersonages": 23544,
    "Ġ2": 2926,
    "een": 727,
    "Ġmilitia": 13322,
    "Ġyouthful": 16725,
    "resemblance": 25934,
    "wants": 21133,
    "Ġcarpent": 4462,
    "rossed": 11014,
    "Ġextend": 18682,
    "collar": 19329,
    "Ġwreaths": 25938,
    "penetrating": 25491,
    "vious": 1783,
    "Ġquestioning": 10466,
    "speeches": 25240,
    "Ġincorrupt": 19237,
    "Ġcord": 5222,
    "Ġoccasionally": 5590,
    "scuttle": 11915,
    "Ġstrength": 4255,
    "diff": 9116,
    "didst": 19351,
    "fatal": 17089,
    "atig": 13848,
    "morland": 24154,
    "tormented": 13649,
    "Ġcoincidence": 25484,
    "recogn": 13429,
    "Ġsaleve": 17394,
    "ready": 2356,
    "Ġprosperous": 15174,
    "Ġspaulding": 11735,
    "pleasanter": 24050,
    "prick": 19345,
    "Ġhighlands": 22780,
    "Ġwindlass": 7255,
    "culiar": 2818,
    "disgust": 23500,
    "Ġphiladelphia": 26606,
    "hear": 10149,
    "Ġfelicity": 7259,
    "augmented": 26288,
    "Ġterribly": 10427,
    "allingly": 22203,
    "Ġsavagely": 26325,
    "built": 16827,
    "prec": 3204,
    "Ġalexander": 17427,
    "Ġslouched": 13064,
    "Ġchanc": 18385,
    "reclining": 20577,
    "expedition": 26079,
    "without": 4848,
    "Ġunprejudiced": 18267,
    "Ġrejoined": 14930,
    "Ġemac": 16410,
    "Ġfrock": 10492,
    "Ġmurdered": 6464,
    "Ġvolumes": 14802,
    "Ġpatagonian": 20537,
    "Ġdecember": 15009,
    "Ġwoke": 21292,
    "Ġbestow": 6455,
    "Ġbashful": 20423,
    "Ġmedit": 8025,
    "Ġcheers": 16372,
    "wil": 8769,
    "Ġflights": 24752,
    "trucks": 25420,
    "greenland": 10024,
    "Ġanchored": 17443,
    "Ġbecause": 2211,
    "less": 928,
    "Ġfancies": 10426,
    "Ġtunes": 24620,
    "Ġinher": 10182,
    "Ġdishonoured": 20394,
    "Ġinland": 11611,
    "continued": 8679,
    "ivers": 1983,
    "ounded": 9751,
    "ravelled": 18017,
    "poky": 17646,
    "Ġmayhew": 12955,
    "empty": 23636,
    "Ġdesponding": 25869,
    "Ġmum": 13861,
    "ceiving": 3899,
    "Ġbambooz": 26120,
    "brous": 19201,
    "Ġhole": 6079,
    "Ġanatomy": 12324,
    "Ġunseasonable": 26522,
    "Ġpoet": 8208,
    "supers": 22638,
    "modern": 1181,
    "Ġpre": 507,
    "Ġmace": 21312,
    "Ġmorning": 1746,
    "Ġmenacing": 23110,
    "Ġblade": 11897,
    "Ġworship": 10369,
    "injury": 25214,
    "Ġassigned": 16315,
    "Ġaux": 21202,
    "Ġcaus": 1722,
    "powers": 25411,
    "Ġafraid": 3531,
    "Ġrepel": 23362,
    "phon": 4122,
    "Ġmock": 3690,
    "Ġrepugnance": 19088,
    "Ġhairs": 13235,
    "Ġintolerable": 8483,
    "threw": 21988,
    "Ġwandering": 8657,
    "Ġhealthcare": 8016,
    "Ġabsorb": 25115,
    "directly": 13712,
    "Ġwondrous": 4735,
    "ois": 9137,
    "sympathy": 20545,
    "ribution": 14306,
    "Ġterminating": 23514,
    "Ġrecollected": 8311,
    "Ġvi": 1954,
    "berish": 22722,
    "Ġphaeton": 17467,
    "Ġanx": 3182,
    "ulls": 8842,
    "hark": 15369,
    "Ġtragic": 15259,
    "Ġrusty": 14967,
    "Ġdecreas": 1649,
    "asional": 17962,
    "Ġbracing": 16583,
    "deceit": 25557,
    "Ġirresistible": 13117,
    "ven": 778,
    "prophet": 16186,
    "Ġtestimony": 14470,
    "Ġenv": 3202,
    "harrow": 20910,
    "Ġhouse": 1504,
    "Ġcommotion": 9783,
    "Ġnosegay": 24193,
    "Ġtruest": 16702,
    "duodecimo": 16006,
    "_),": 7126,
    "ilogue": 21728,
    "Ġbe": 336,
    "Ġastonishing": 10504,
    "Ġrewarded": 14943,
    "ele": 9117,
    "Ġbuilding": 8063,
    "nerable": 16279,
    "nlp": 8754,
    "Ġseverity": 15824,
    "bud": 10686,
    "Ġstating": 15726,
    "Ġrose": 3445,
    "Ġmexico": 15284,
    "Ġhans": 12631,
    "Ġleviathans": 8282,
    "Ġflounders": 23018,
    "Ġdaniel": 15115,
    "cord": 8727,
    "Ġmoot": 22434,
    "Ġmixed": 6974,
    "Ġdepending": 14296,
    "Ġexcessive": 3889,
    "Ġpersons": 6183,
    "Ġcreator": 7254,
    "lantic": 6364,
    "Ġtwelfth": 22681,
    "iluvian": 18063,
    "rers": 14721,
    "value": 18807,
    "<EOS>": 2,
    "Ġblubber": 5666,
    "Ġensigns": 23691,
    "Ġluxuries": 25167,
    "Ġwriting": 4667,
    "Ġhieroglyph": 11975,
    "Ġhopeless": 7462,
    "wish": 8100,
    "Ġneedless": 19232,
    "Ġlumber": 13955,
    "ked": 5616,
    "Ġcontrol": 13084,
    "Ġbalm": 22906,
    "Ġinspect": 5964,
    "must": 3578,
    "Ġunbending": 25465,
    "Ġwings": 9166,
    "Ġtheorem": 2322,
    "Ġstep": 752,
    "Ġhabitation": 14806,
    "weakness": 16128,
    "Ġsparks": 22136,
    "Ġstre": 2108,
    "Ġbakers": 17868,
    "lads": 20957,
    "sli": 11525,
    "Ġunited": 6839,
    "creation": 14809,
    "Ġembodiment": 20531,
    "Ġconvulsively": 25716,
    "Ġ78": 19616,
    "Ġencodings": 4777,
    "Ġweig": 7619,
    "Ġmeetings": 16535,
    "Ġcul": 17824,
    "Ġhoof": 23356,
    "lect": 1222,
    "Ġfinal": 5400,
    "bacc": 7794,
    "Ġpositional": 2597,
    "allen": 22200,
    "Ġtravelling": 11309,
    "rect": 1601,
    "Ġplanets": 24059,
    "Ġlasting": 18793,
    "approach": 24834,
    "uling": 2256,
    "Ġgreatly": 5850,
    "Ġsherry": 19454,
    "Ġpermitted": 9281,
    "Ġcomparable": 24281,
    "Ġtemple": 7654,
    "deemed": 18316,
    "Ġcarved": 7947,
    "Ġtorture": 9067,
    "Ġrepast": 16414,
    "moment": 3579,
    "oak": 21005,
    "Ġimpossibility": 20649,
    "reason": 4412,
    "<SOS>": 1,
    "Ġache": 18664,
    "Ġoscillations": 2895,
    "Ġlecture": 13571,
    "Ġforbear": 17124,
    "Ġalleg": 14020,
    "irene": 15921,
    "Ġunwound": 24829,
    "Ġofficers": 4423,
    "Ġsublim": 19970,
    "Ġjam": 10953,
    "zy": 2669,
    "Ġpadded": 25039,
    "Ġenvirons": 13227,
    "Ġspiritual": 9933,
    "Ġdiscre": 2413,
    "itia": 11582,
    "Ġuses": 1210,
    "mature": 20969,
    "Ġpulley": 2975,
    "jud": 4478,
    "Ġentreat": 4506,
    "Ġdived": 9180,
    "Ġendwise": 23140,
    "Ġperceived": 4714,
    "Ġtold": 2185,
    "Ġcurves": 18858,
    "Ġconsider": 2568,
    "anyone": 16595,
    "Ġtolerable": 6948,
    "Ġlevels": 12703,
    "Ġfarthest": 23119,
    "Ġcastors": 23979,
    "Ġspeechless": 13358,
    "Ġgriev": 16637,
    "Ġmalignant": 14881,
    "Ġmethodic": 23127,
    "bourne": 19104,
    "nephew": 26399,
    "Ġgreater": 3037,
    "Ġcontradict": 12389,
    "Ġstri": 2802,
    "Ġo": 275,
    "Ġsymbol": 7716,
    "begging": 22501,
    "idents": 6151,
    "Ġprecaution": 11199,
    "Ġacre": 22684,
    "sorrows": 17323,
    "reflect": 19867,
    "Ġoak": 6129,
    "Ġtakings": 20575,
    "Ġfire": 2330,
    "akes": 2220,
    "Ġgasfitters": 25041,
    "persecutor": 26531,
    "Ġlaws": 8003,
    "lamps": 25261,
    "thy": 2933,
    "departed": 24793,
    "Ġcig": 6520,
    "onze": 21258,
    "paint": 21020,
    "Ġprocuring": 16872,
    "Ġsust": 7007,
    "Ġcrane": 23440,
    "Ġsine": 10765,
    "Ġschoolmaster": 16864,
    "Ġheedfully": 24521,
    "Ġbaron": 19335,
    "Ġsales": 12812,
    "Ġcetacea": 20556,
    "Ġreneg": 21678,
    "within": 6731,
    "Ġpattered": 19020,
    "Ġits": 706,
    "written": 7995,
    "apparently": 15208,
    "idence": 4297,
    "Ġimposing": 11785,
    "Ġemploys": 19434,
    "Ġcannibals": 10590,
    "ints": 3419,
    "strongly": 24685,
    "law": 6116,
    "Ġscrib": 22287,
    "Ġrand": 1586,
    "ion": 296,
    "Ġmizzen": 20292,
    "Ġsignature": 16495,
    "ap": 547,
    "Ġger": 21594,
    "Ġfilled": 4392,
    "ifies": 6687,
    "Ġgap": 21602,
    "gallery": 24694,
    "Ġhove": 17925,
    "Ġscream": 5935,
    "Ġjove": 9271,
    "30": 20756,
    "Ġbespeaking": 26311,
    "bles": 7018,
    "âĢĿ": 354,
    "ieties": 19026,
    "irth": 5634,
    "Ġthree": 1369,
    "pits": 15415,
    "ss": 396,
    "Ġvalley": 5851,
    "Ġconference": 15751,
    "Ġcousin": 3703,
    "countryman": 24640,
    "elastic": 17983,
    "Ġhousekeeper": 7455,
    "Ġroughs": 19960,
    "eping": 5835,
    "ermost": 7429,
    "Ġbounding": 19403,
    "rying": 3187,
    "hereafter": 19218,
    "Ġfri": 17880,
    "Ġribs": 7102,
    "Ġanimal": 2496,
    "Ġbreast": 8971,
    "Ġprows": 19891,
    "Ġflourishing": 25188,
    "Ġshallow": 14397,
    "Ġdock": 15934,
    "remote": 23196,
    "george": 26020,
    "Ġgreenness": 23769,
    "block": 11472,
    "Ġsomehow": 4843,
    "Ġgroping": 13669,
    "Ġdate": 7841,
    "Ġdirected": 5579,
    "itar": 15551,
    "Ġubiquitous": 26197,
    "Ġconcentric": 20078,
    "inferences": 17741,
    "pondicherry": 26402,
    "Ġval": 991,
    "lace": 13751,
    "conc": 3943,
    "indust": 18436,
    "Ġbritain": 16958,
    "safe": 10057,
    "returned": 7765,
    "Ġaper": 17745,
    "Ġpos": 1009,
    "Ġcase": 1942,
    "Ġexhibited": 9547,
    "miss": 3175,
    "Ġunmo": 12777,
    "Ġanat": 8124,
    "Ġautoregressive": 3434,
    "Ġmidst": 7986,
    "back": 2017,
    "Ġleagues": 9226,
    "â": 163,
    "toed": 18579,
    "Ġglared": 13019,
    "Ġaffright": 9335,
    "Ġcomforters": 25801,
    "Ġharpo": 1944,
    "combined": 20323,
    "conveyed": 20524,
    "Ġugliness": 20430,
    "Ġproblems": 2845,
    "Ġunexpected": 6840,
    "Ġtimes": 2299,
    "Ġmajestic": 8643,
    "Ġgreeting": 18964,
    "erne": 21272,
    "already": 6980,
    "perfectly": 9089,
    "Ġdiligence": 17115,
    "octial": 20008,
    "Ġboon": 22642,
    "Ġdrawn": 4271,
    "Ġrequisition": 22667,
    "Ġhanged": 17927,
    "perform": 15898,
    "erval": 4014,
    "dra": 3416,
    "ieve": 1660,
    "Ġgra": 415,
    "withstanding": 8948,
    "Ġeverything": 3156,
    "Ġinfl": 6892,
    "Ġfict": 21408,
    "Ġspies": 22132,
    "Ġobliquely": 12366,
    "Ġdisaster": 12892,
    "notwithstanding": 22754,
    "Ġinex": 6528,
    "swift": 14855,
    "exp": 2736,
    "ositions": 10286,
    "Ġjoy": 3185,
    "mbl": 5947,
    "Ġmight": 963,
    "Ġfel": 1522,
    "eminence": 20102,
    "Ġsalutations": 25383,
    "Ġjealousy": 13580,
    "Ġdanes": 25160,
    "Ġembark": 8559,
    "cable": 20799,
    "angs": 5834,
    "brain": 13691,
    "Ġmaty": 22914,
    "sle": 9141,
    "Ġdomineering": 23654,
    "Ġreveries": 11349,
    "ackled": 22428,
    "Ġton": 15467,
    "Ġpaw": 12625,
    "interrupted": 11419,
    "Ġblankness": 24611,
    "fulness": 4306,
    "Ġpatroness": 13513,
    "Ġantip": 24178,
    "Ġanalogy": 25640,
    "Ġexc": 1830,
    "eded": 9676,
    "Ġif": 698,
    "obliged": 20634,
    "erring": 11058,
    "Ġpersisted": 13048,
    "rinted": 21046,
    "Ġabsolut": 3907,
    "Ġamounts": 6705,
    "missing": 13222,
    "crimson": 24088,
    "Ġheight": 4216,
    "Ġbequest": 21757,
    "Ġcontextual": 3740,
    "Ġowing": 6005,
    "Ġcongregational": 25105,
    "Ġentropy": 2032,
    "adamite": 20596,
    "Ġdodging": 19889,
    "Ġwaited": 4909,
    "Ġsplitting": 4380,
    "Ġcit": 10785,
    "Ġgoes": 3851,
    "Ġdoleful": 18378,
    "{": 95,
    "Ġclassify": 1560,
    "Ġhem": 8447,
    "ĠĠĠĠĠ": 3528,
    "erpillar": 5798,
    "Ġbeautifully": 13270,
    "msprop": 2623,
    "abilizing": 2922,
    "Ġ66": 24369,
    "Ġder": 1500,
    "Ġintegral": 25011,
    "Ġbackwoods": 22664,
    "Ġhanging": 5447,
    "delirious": 19508,
    "french": 9122,
    "Ġimproving": 1211,
    "bestowed": 12230,
    "dost": 14537,
    "fes": 20853,
    "Ġstomach": 11656,
    "Ġascertain": 9709,
    "Ġwhitened": 24868,
    "Ġforesaw": 19128,
    "venge": 4658,
    "Ġlurk": 13387,
    "discernible": 20553,
    "connections": 14431,
    "Ġremo": 3783,
    "acting": 22634,
    "Ġdazzling": 15215,
    "plans": 21956,
    "Ġconcise": 23324,
    "Ġbod": 4580,
    "Ġthankful": 14741,
    "Ġelij": 8912,
    "Ġcordiality": 24395,
    "Ġenvy": 13226,
    "rity": 13779,
    "Ġliking": 23593,
    "anting": 6412,
    "Ġnever": 1018,
    "ria": 15799,
    "Ġgrunt": 18737,
    "Ġcrocodile": 20742,
    "exertion": 16020,
    "Ġnaked": 8127,
    "Ġexamined": 6335,
    "Ġmildly": 9032,
    "Ġbeats": 21756,
    "Ġunalterable": 15855,
    "Ġrecognise": 12044,
    "Ġnation": 12652,
    "Ġinv": 2225,
    "arboard": 7265,
    "Ġpenalizing": 13095,
    "Ġ122": 24467,
    "Ġeffected": 14354,
    "aviour": 11006,
    "Ġmann": 18417,
    "romised": 14115,
    "Ġlees": 18078,
    "Ġcoll": 8222,
    "themselves": 6541,
    "uracy": 1073,
    "Ġquality": 3529,
    "Ġplaned": 24058,
    "presume": 25671,
    "Ġmiscell": 16153,
    "Ġcoasts": 12168,
    "assuming": 22314,
    "Ġduration": 20356,
    "umbered": 22121,
    "ulia": 18151,
    "Ġboister": 12925,
    "Ġscruple": 25051,
    "ove": 1741,
    "Ġnurse": 9520,
    "Ġlurking": 11291,
    "Ġtotal": 4993,
    "Ġdominant": 12400,
    "Ġliberties": 19670,
    "supposed": 13320,
    "Ġvarying": 15814,
    "Ġcopying": 17070,
    "entropy": 1439,
    "Ġfaded": 10811,
    "Ġprodigious": 8057,
    "Ġrummaged": 16912,
    "Ġgoodge": 22826,
    "Ġfonder": 17882,
    "ipher": 18432,
    "ery": 1268,
    "Ġstays": 16564,
    "stave": 21652,
    "Ġglistening": 12369,
    "tack": 12517,
    "commission": 22812,
    "nineteenth": 26139,
    "Ġlack": 17966,
    "Ġwhereof": 16106,
    "taller": 26151,
    "Ġmy": 412,
    "agon": 7871,
    "overing": 6307,
    "blast": 9590,
    "also": 7851,
    "Ġdiscoverers": 26037,
    "Ġcologne": 12981,
    "Ġcorn": 9353,
    "Ġobli": 9319,
    "Ġvenom": 24240,
    "steel": 8299,
    "host": 5868,
    "Ġrefuse": 5739,
    "Ġdust": 5909,
    "monsters": 19173,
    "ength": 2309,
    "master": 5687,
    "step": 2454,
    "breckinridge": 24076,
    "Ġmaterial": 5178,
    "overspreading": 26140,
    "Ġgeorgiana": 8629,
    "crowning": 25749,
    "Ġelig": 9781,
    "Ġjuggler": 26368,
    "Ġthreading": 23405,
    "follows": 24528,
    "uttural": 21592,
    "abb": 15743,
    "Ġsoftmax": 1690,
    "cor": 5520,
    "proves": 23397,
    "Ġ0": 1903,
    "Ġig": 3503,
    "Ġpaced": 7584,
    "Ġvestige": 20066,
    "Ġcast": 3606,
    "Ġopenshaw": 7955,
    "21": 10075,
    "process": 11150,
    "Ġshe": 466,
    "balanced": 14557,
    "Ġdilatory": 24704,
    "Ġforesight": 13131,
    "Ġade": 22104,
    "Ġgestic": 21611,
    "every": 2809,
    "illings": 14145,
    "ose": 718,
    "isure": 6241,
    "Ġorganize": 8994,
    "utarch": 15666,
    "shriek": 20523,
    "regard": 7973,
    "irable": 5776,
    "orial": 8418,
    "Ġdivergence": 2727,
    "Ġunful": 22013,
    "corrob": 24485,
    "hav": 20899,
    "Ġmingling": 20200,
    "Ġaltern": 7393,
    "passion": 11262,
    "tling": 9145,
    "ingham": 21303,
    "liberal": 26283,
    "Ġkentuck": 19893,
    "Ġdirecting": 16304,
    "Ġnearer": 5303,
    "Ġint": 410,
    "Ê": 139,
    "Ġbased": 3339,
    "Ġask": 1494,
    "Ġtr": 558,
    "Ġthen": 667,
    "Ġpetulance": 24229,
    "Ġgerm": 13967,
    "overcoat": 19052,
    "Ġbreakers": 12059,
    "Ġround": 1368,
    "Ġfoot": 3163,
    "Ġfowler": 16939,
    "movable": 14327,
    "vard": 21113,
    "Ġwantest": 18792,
    "Ġwestern": 10657,
    "Ġburton": 23657,
    "Ġmenaces": 23109,
    "flowing": 14565,
    "ake": 748,
    "Ġavast": 9923,
    "Ġstamp": 7864,
    "counters": 25398,
    "ener": 562,
    "Ġapprobation": 10986,
    "fortunes": 6333,
    "Ġlatest": 16824,
    "Ġforesee": 19126,
    "staking": 21651,
    "heum": 17749,
    "oriental": 23723,
    "Ġpaste": 23422,
    "Ġsavann": 14686,
    "Ġdraws": 19439,
    "Ġstren": 15724,
    "Ġers": 15463,
    "Ġcrop": 10165,
    "oil": 7805,
    "ously": 2489,
    "Ġvariance": 1167,
    ">": 34,
    "Ġfangs": 12602,
    "Ġdew": 14048,
    "Ġmummy": 25769,
    "Ġsocietal": 11438,
    "lied": 6507,
    "Ġportion": 7492,
    "Ġlimited": 23548,
    "Ġwise": 6811,
    "Ġneighbors": 25805,
    "Ġverge": 23890,
    "comprehensive": 20629,
    "paid": 15417,
    "a": 69,
    "alling": 6037,
    "Ġevenly": 4124,
    "isons": 17851,
    "Ġmovable": 22437,
    "Ġshillings": 15839,
    "mp": 3725,
    "wonderful": 16962,
    "aky": 18412,
    "Ġpronouncing": 16971,
    "Ġmien": 17810,
    "ooping": 21009,
    "Ġdesolation": 12273,
    "Ġprosecution": 12385,
    "Ġantiquities": 25599,
    "led": 581,
    "each": 7334,
    "mystic": 25317,
    "Ġquietude": 19363,
    "Ġgriff": 22808,
    "confirm": 16809,
    "please": 8177,
    "Ġhorrible": 4906,
    "slipped": 25530,
    "Ġsubstitute": 16728,
    "Ġphil": 3386,
    "Ġginger": 9213,
    "ive": 426,
    "tering": 3806,
    "remarks": 23195,
    "breast": 11247,
    "Ġbrooks": 25701,
    "Ġflooring": 23625,
    "Ġbos": 4876,
    "Ġpigeon": 9519,
    "Ġox": 7153,
    "´": 117,
    "phant": 6288,
    "Ġappearance": 3698,
    "racing": 21634,
    "Ġbars": 13900,
    "perpet": 14161,
    "Ġevangelist": 20341,
    "ertips": 23641,
    "violets": 23547,
    "umer": 9261,
    "kitty": 10108,
    "Ġinfrequent": 3823,
    "Ġchimney": 6497,
    "Ġram": 11015,
    "Ġunceasingly": 20362,
    "enge": 21283,
    "Ġsorting": 3236,
    "Ġfacil": 16964,
    "Ġregular": 935,
    "hush": 20908,
    "ms": 540,
    "Ġpath": 2114,
    "cried": 8728,
    "Ġlesson": 7275,
    "Ġwearer": 21926,
    "Ġinsomuch": 23685,
    "Ġjunk": 15957,
    "Ġunfailing": 24111,
    "riving": 21930,
    "esley": 17904,
    "Ġpage": 6978,
    "Ġunprincipled": 20710,
    "Ġrest": 1781,
    "Ġblessed": 6930,
    "Ġdaily": 5987,
    "Ġsobs": 14137,
    "Ġwindows": 4971,
    "Ġexamples": 2604,
    "Ġpint": 17911,
    "Ġspermacetti": 19050,
    "maltese": 24794,
    "Ġfanc": 6744,
    "Ġdeafened": 25652,
    "Ġunconnected": 18240,
    "Ġloath": 7891,
    "Ġelopement": 10332,
    "Ġqualified": 14953,
    "bewil": 22502,
    "Ġceiling": 7997,
    "west": 10741,
    "Ġbarricade": 14662,
    "Ġspeaker": 19150,
    "horizon": 23617,
    "eted": 7592,
    "Ġhisself": 21919,
    "inously": 21189,
    "Ġblame": 6446,
    "Ġboiling": 8527,
    "Ġconditions": 8307,
    "Ġsuburban": 17349,
    "Ġquarrel": 7291,
    "accounted": 16504,
    "Ġpained": 19169,
    "buff": 15322,
    "recked": 17764,
    "Ġlikelihood": 16502,
    "tempted": 26405,
    "Ġlaurel": 20656,
    "Ġsystemat": 18454,
    "flow": 2214,
    "Ġinsufficient": 9675,
    "Ġthief": 11613,
    "Ġstaving": 21741,
    "Ġhapp": 1091,
    "Ġbaggy": 24538,
    "throt": 25660,
    "ii": 4009,
    "Ġworm": 9165,
    "Ġexplain": 546,
    "Ġy": 341,
    "Ġprojecting": 9988,
    "persuasion": 20047,
    "Ġperceptible": 18452,
    "Ġwinged": 16997,
    "Ġregimentals": 19860,
    "based": 2960,
    "ufact": 10735,
    "surprising": 16921,
    "Ġprecipice": 19944,
    "Ġcape": 5146,
    "med": 1912,
    "Ġinestim": 15628,
    "uttermost": 24943,
    "Ġcrescent": 16141,
    "Ġuncertain": 4064,
    "Ġgrating": 14359,
    "Ġforfeit": 21779,
    "garet": 9600,
    "Ġdefine": 9818,
    "Ġembedding": 2103,
    "Ġevent": 2950,
    "Ġwil": 4579,
    "Ġbass": 17857,
    "fanc": 20866,
    "Ġcommunicating": 16891,
    "Ġlowers": 23243,
    "iles": 2858,
    "âĢĿ;": 11673,
    "Ġguiding": 19243,
    "Ġgout": 21599,
    "Ġluxuriant": 20398,
    "Ġtease": 18809,
    "Ġunheard": 22027,
    "Ġmatrices": 4969,
    "Ġsulk": 15048,
    "designated": 26320,
    "Ġcommentaries": 20163,
    "Ġfeature": 751,
    "Ġspecksnyder": 17406,
    "til": 17673,
    "Ġslu": 13839,
    "rowsers": 8698,
    "Ġsenate": 25215,
    "Ġaccelerate": 23227,
    "Ġzigzag": 26274,
    "ucumber": 19058,
    "Ġpri": 5814,
    "Ġwhitney": 11375,
    "Ġdeity": 18140,
    "Ġitalian": 12414,
    "Ġdamps": 23478,
    "rimshander": 20659,
    "Ġmechanically": 14399,
    "Ġadmit": 7710,
    "Ġepaulets": 24906,
    "masculine": 24387,
    "Ġeclips": 20699,
    "unnatural": 15777,
    "circuit": 24189,
    "Ġargemone": 24277,
    "Ġsuperfluous": 17417,
    "Ġinclud": 1516,
    "amuse": 14055,
    "kindled": 16663,
    "Ġices": 21157,
    "ote": 4595,
    "ium": 4865,
    "mas": 5212,
    "Ġpossession": 5589,
    "Ġbet": 1133,
    "Ġfoaming": 18992,
    "catch": 17509,
    "Ġchisel": 20371,
    "Ġengage": 9338,
    "dually": 3285,
    "omical": 9683,
    "Ġswelling": 11929,
    "Ġquies": 18465,
    "Ġpreceded": 13432,
    "Ġthirds": 16710,
    "Ġstirring": 10582,
    "Ġvent": 3992,
    "nature": 5360,
    "slack": 16896,
    "u": 89,
    "Ġselection": 18205,
    "Ġgaol": 19570,
    "Ġactivity": 7920,
    "trying": 15441,
    "Ġlip": 6533,
    "Ġbandages": 24427,
    "Ġfeatureless": 22615,
    "cons": 4305,
    "Ġparalle": 1410,
    "umblings": 23897,
    "condite": 23249,
    "Ġbackpropagation": 1278,
    "Ġshipped": 9718,
    "vul": 15451,
    "igh": 2030,
    "othe": 2613,
    "rann": 21047,
    "venth": 9298,
    "Ġriding": 14097,
    "kn": 5791,
    "Ġbarbaric": 10017,
    "youngest": 19746,
    "trifling": 19417,
    "arcy": 1273,
    "Ġunsolved": 22035,
    "Ġburned": 8634,
    "Ġrequ": 828,
    "spout": 7924,
    "van": 7814,
    "Ġrepining": 23363,
    "expose": 23666,
    "Ġscenarios": 26544,
    "Ġcomprehens": 8320,
    "wig": 17706,
    "Ġmoritz": 11910,
    "Ġvict": 3760,
    "Ġal": 342,
    "Ġconqueror": 25797,
    "ator": 1923,
    "Ġminimax": 5859,
    "rimin": 2420,
    "send": 15426,
    "Ġalleys": 25979,
    "Ġlatitude": 8329,
    "ultaneously": 4190,
    "Ġcascade": 20584,
    "uniform": 18160,
    "Ġsimpl": 1582,
    "Ġhills": 6527,
    "Ġtyrant": 24766,
    "Ġunexpectedly": 19911,
    "Ġclay": 7019,
    "covery": 11173,
    "fleece": 19951,
    "remained": 8572,
    "Ġflannel": 26579,
    "Ġamerican": 5061,
    "Ġprescribed": 26011,
    "Ġ126": 24471,
    "Ġzero": 1203,
    "adequately": 20322,
    "Ġunobstructed": 18262,
    "everything": 6325,
    "Ġexclaimed": 4682,
    "Ġvillagers": 19477,
    "Ġappetite": 12388,
    "Ġharpooning": 23982,
    "uring": 818,
    "Ġvexations": 24610,
    "Ġborne": 6352,
    "Ġviolation": 23409,
    "trunk": 23951,
    "Ġquiet": 3262,
    "travellers": 24339,
    "Ġmilan": 19538,
    "Ġstagger": 10594,
    "Ġderive": 10397,
    "Ġclergy": 7643,
    "Ġboarders": 16602,
    "ocris": 23711,
    "Ġtorn": 6000,
    "Ġguilty": 7249,
    "Ġpapa": 10659,
    "strip": 19833,
    "Ġclubb": 22352,
    "Ġlaughter": 9030,
    "irs": 14074,
    "greek": 25405,
    "cad": 17507,
    "circ": 4386,
    "Ġcomfortably": 16617,
    "Ġjournal": 15222,
    "Ġmistifying": 23722,
    "Ġmostly": 7664,
    "reflected": 24732,
    "ordingly": 18516,
    "tastes": 21099,
    "Ġ1839": 20463,
    "Ġdenied": 9003,
    "Ġtight": 8108,
    "ll": 1139,
    "Ġseaman": 8642,
    "Ġungodly": 26515,
    "Ġindisp": 18836,
    "Ġairs": 14513,
    "Ġfleshy": 24615,
    "ene": 2170,
    "Ġcro": 4874,
    "that": 850,
    "Ġhed": 7386,
    "Ġbeaut": 2390,
    "Ġgranted": 22809,
    "Ġash": 4834,
    "Ġbeaten": 10531,
    "ĠĠĠĠĠĠĠĠĠĠĠĠĠĠĠĠĠĠĠ": 22953,
    "Ġhush": 13213,
    "ihood": 20924,
    "service": 15039,
    "M": 49,
    "ibles": 18788,
    "Ġ1890": 23900,
    "Ġeighty": 19479,
    "Ġinvade": 19144,
    "Ġoverflowing": 17240,
    "contented": 14636,
    "Ġfireside": 23535,
    "Ġdampening": 2892,
    "Ġmouldings": 24736,
    "Ġbernard": 20687,
    "Ġprophe": 13083,
    "Ġeuroclydon": 15300,
    "application": 12367,
    "Ġcovari": 2335,
    "arab": 21444,
    "Ġcalves": 13040,
    "Ġretreat": 6070,
    "Ġdistrustful": 25057,
    "yarn": 15460,
    "thanking": 24326,
    "rese": 15511,
    "stad": 7598,
    "Ġgl": 1254,
    "oll": 5456,
    "Ġafloat": 9311,
    "town": 7143,
    "Ġate": 8844,
    "leg": 2812,
    "Ġacceptable": 16746,
    "iosity": 2507,
    "Ġextravagant": 17281,
    "Ġhose": 12632,
    "03": 20750,
    "Ġproofs": 19817,
    "outer": 9671,
    "Ġblasts": 19999,
    "Ġdoomed": 11344,
    "Ġmoluccas": 25630,
    "Ġicebergs": 23978,
    "Ġmule": 13865,
    "Ġforward": 1837,
    "Ġobstacles": 19838,
    "able": 452,
    "Ġclum": 8876,
    "ccas": 15889,
    "Ġgrievous": 13264,
    "Ġinquest": 16550,
    "Ġdefe": 21840,
    "beries": 22723,
    "Ġimitate": 14160,
    "Ġnecessitated": 23932,
    "Ġemperor": 15162,
    "relative": 24016,
    "Ġlab": 1870,
    "Ġassociations": 14966,
    "derest": 18315,
    "Ġspecies": 5112,
    "Ġknitting": 24219,
    "Ġfailure": 13319,
    "Ġchamber": 6214,
    "belais": 24041,
    "aff": 3102,
    "Ġdictated": 25219,
    "Ġbegins": 7243,
    "Ġra": 815,
    "Ġexisted": 15757,
    "Ġgrip": 11630,
    "puted": 8850,
    "resol": 17762,
    "Ġchoicest": 24221,
    "Ġforbe": 8459,
    "Ġstrives": 23698,
    "Ġsuggested": 8321,
    "aders": 21762,
    "Ġguardians": 14946,
    "acher": 6867,
    "Ġchiselled": 25560,
    "Ġstaring": 8829,
    "Ġinflict": 15003,
    "Ġ113": 19699,
    "Ġimplicated": 24876,
    "Ġformality": 22831,
    "agatha": 21912,
    "clouded": 20334,
    "australian": 20564,
    "Ġordinary": 6097,
    "Ġscraped": 16905,
    "scream": 11079,
    "Ġalbertus": 25649,
    "Ġplainpalais": 20739,
    "Ġstrive": 23696,
    "relu": 17761,
    "Ġam": 660,
    "ifling": 15787,
    "iless": 10284,
    "animal": 16980,
    "Ġpervers": 11787,
    "mark": 5282,
    "echo": 15352,
    "Ġvacantly": 16817,
    "ior": 2040,
    "Ġdesert": 6727,
    "Ġshad": 3848,
    "Ġlivel": 11357,
    "Ġgnawed": 25168,
    "Ġimplac": 24875,
    "reserve": 17767,
    "oline": 6833,
    "Ġcity": 4528,
    "Ġcongratulate": 9066,
    "Ġcause": 2407,
    "bearers": 18525,
    "building": 17312,
    "Ġinflicted": 11367,
    "Ġsoliloqu": 11889,
    "Ġstolen": 14010,
    "ignomin": 23269,
    "fright": 9598,
    "calm": 8937,
    "aning": 2253,
    "Ġbelshazzar": 16229,
    "Ġsquaring": 22841,
    "kind": 3861,
    "Ġgorge": 13570,
    "Ġsigns": 2440,
    "Ġahoy": 12189,
    "Ġenvironments": 24223,
    "Ġslewed": 23388,
    "Ġfight": 5366,
    "obedience": 17413,
    "Ġswallow": 8953,
    "cring": 20813,
    "Ġoperations": 2296,
    "deliver": 19507,
    "Ġunrestrained": 25555,
    "Ġhardy": 8568,
    "Ġconcussion": 26301,
    "Ġhymn": 24518,
    "ia": 1256,
    "Ġtusk": 25426,
    "aphs": 22340,
    "Ġsurprise": 3828,
    "Ġstood": 2550,
    "Ġcords": 14882,
    "bone": 5612,
    "ineering": 21985,
    "usage": 12838,
    "Ġinstigated": 18705,
    "Ġrighted": 23181,
    "Ġchoice": 2166,
    "Ġskirt": 18730,
    "ivility": 12792,
    "Ġclergyman": 8715,
    "prophecy": 22856,
    "Ġreaches": 18034,
    "Ġjackson": 24242,
    "Ġdrives": 14580,
    "Ġbook": 2701,
    "Ġmischief": 8543,
    "iquet": 17577,
    "Ġcopse": 17069,
    "Ġvengeance": 5885,
    "Ġsmells": 8893,
    "Ġtartar": 17325,
    "ute": 4642,
    "Ġpoles": 11005,
    "Ġdi": 6525,
    "ify": 1354,
    "Ġindisc": 16231,
    "Ġdarting": 7756,
    "tails": 21089,
    "Ġaccumul": 1411,
    "Ġsuspense": 9421,
    "Ġdivided": 8635,
    "Ġinexplicable": 12261,
    "Ġcrosswise": 18887,
    "more": 1033,
    "Ġsoda": 25535,
    "Ġacted": 7421,
    "osite": 4894,
    "Ġpleadings": 25854,
    "geese": 22371,
    "Ġmasterless": 23998,
    "Ġtongs": 9964,
    "exceedingly": 9569,
    "Ġplaning": 22604,
    "Ġrecurrent": 1803,
    "lur": 13750,
    "icles": 17975,
    "Ġfound": 1246,
    "trial": 20353,
    "Ġassisting": 13261,
    "henomena": 20275,
    "vishnoo": 21122,
    "Ġpropriet": 9553,
    "Ġdisquiet": 18553,
    "Ġsubmission": 22793,
    "Ġenraptured": 26502,
    "Ġmilk": 6485,
    "Ġunguarded": 15854,
    "Ġarrange": 3121,
    "ten": 1562,
    "Ġbab": 5291,
    "Ġfath": 7363,
    "Ġlongbourn": 3510,
    "mass": 12494,
    "onse": 21252,
    "¹": 122,
    "Ġpassage": 3882,
    "Ġpluck": 15618,
    "arded": 5029,
    "Ġintimidated": 24802,
    "Ġthough": 995,
    "Ġsy": 491,
    "knight": 20942,
    "Ġfaces": 6009,
    "Ġrightly": 13070,
    "Ġleft": 1759,
    "ud": 921,
    "Ġargosy": 24276,
    "sof": 17659,
    "Ġfamiliarity": 16731,
    "Ġblaze": 16223,
    "Ġopulence": 23629,
    "ficial": 17550,
    "Ġpressed": 6042,
    "Ġwooded": 23523,
    "Ġswift": 3668,
    "Ġrebellion": 26477,
    "anim": 6522,
    "Ġpuffed": 14980,
    "ancing": 1756,
    "sentiment": 12919,
    "Ġexpecting": 10438,
    "Ġtamely": 24980,
    "Ġgryphon": 4295,
    "Ġcanada": 22167,
    "Ġendurance": 23141,
    "Ġtouch": 3396,
    "Ġdetestation": 17130,
    "ging": 2600,
    "roy": 7854,
    "floating": 12232,
    "Ġexal": 10879,
    "Ġknights": 15153,
    "Ġswears": 16465,
    "Ġprematurely": 24009,
    "Ġflaw": 23015,
    "atiate": 12553,
    "Ġappertaining": 26535,
    "spite": 16142,
    "Ġrejecting": 17052,
    "Ġbid": 6132,
    "Ġdefault": 3038,
    "asburgh": 15651,
    "Ġexchanged": 10880,
    "Ġexterior": 19991,
    "Ġmasked": 3693,
    "road": 6678,
    "side": 2298,
    "last": 3802,
    "division": 20052,
    "conce": 8512,
    "revival": 26163,
    "verb": 10219,
    "Ġtimid": 6346,
    "Ġthing": 1641,
    "Ġanimated": 7701,
    "inf": 6233,
    "Ġyield": 5093,
    "Ġapril": 13666,
    "Ġcomputing": 2221,
    "Ġdesolate": 10016,
    "asible": 21545,
    "Ġnecks": 18186,
    "spin": 22736,
    "Ġhid": 1320,
    "Ġformless": 22830,
    "cordiality": 25140,
    "Ġ56": 24320,
    "Ġcleaned": 23186,
    "Ġpeels": 22694,
    "Ġidentical": 10436,
    "sufficient": 6637,
    "Ġdisobedience": 22539,
    "hard": 4690,
    "occur": 19578,
    "Ġye": 900,
    "iability": 20922,
    "Ġslackened": 15130,
    "Ġostr": 21328,
    "Ġdeposition": 18612,
    "etah": 12666,
    "Ġfed": 5530,
    "onents": 8781,
    "licted": 20958,
    "oughed": 22087,
    "Ġdel": 1615,
    "Ġsurvivors": 25732,
    "Ġepo": 21622,
    "Ġol": 17816,
    "ricity": 23065,
    "Ġselves": 21225,
    "point": 6063,
    "Ġwalk": 1824,
    "Ġflying": 5413,
    "Ġwaxed": 21300,
    "Ġpossessing": 16578,
    "pleas": 3850,
    "Ġmassive": 9935,
    "Ġyawning": 12304,
    "post": 6062,
    "Ġspiral": 14586,
    "intense": 22939,
    "Ġerrors": 2596,
    "Ġoperation": 12003,
    "Ġmapp": 2081,
    "gan": 2198,
    "scenes": 16247,
    "Ġhospitals": 24924,
    "Ġascertained": 25297,
    "Ġalcoves": 26488,
    "planted": 11700,
    "Ġassumpt": 5415,
    "Ġsideways": 6182,
    "dÃ¦mon": 17529,
    "Ġindex": 17050,
    "stat": 21647,
    "Ġfoundering": 21422,
    "Ġdisd": 7031,
    "Ġcontemplate": 19894,
    "mur": 5428,
    "trees": 10733,
    "Ġsplendid": 17216,
    "Ġoust": 21327,
    "Ġmexic": 14033,
    "Ġbounded": 16629,
    "Ġdecided": 5471,
    "Ġanon": 9669,
    "various": 10400,
    "constantly": 24607,
    "iage": 17575,
    "Ġtrick": 7021,
    "Ġscalable": 1626,
    "Ġportra": 9012,
    "Ġmaintainable": 12940,
    "Ġshutter": 16673,
    "Ġceremonious": 24838,
    "Ġhissing": 15794,
    "affair": 14657,
    "Ġpasseng": 12976,
    "Ġoutbreak": 22321,
    "curious": 10485,
    "Ġslips": 23169,
    "allows": 15911,
    "turn": 4287,
    "Ġyore": 21782,
    "roll": 9199,
    "Ġworshipper": 25693,
    "reward": 15512,
    "Ġstrewed": 23425,
    "entitled": 21571,
    "Ġfret": 10808,
    "pardon": 10068,
    "daw": 17524,
    "Ġtwisting": 18659,
    "coff": 9112,
    "Ġ----": 7145,
    "Ġalways": 1697,
    "Ġindiam": 22956,
    "Ġunsupervised": 2316,
    "settled": 10509,
    "Ñ": 146,
    "projecting": 26074,
    "Ġlombardy": 26465,
    "'s": 2468,
    "Ġglacier": 11435,
    "hastened": 16847,
    "cd": 15326,
    "95": 17480,
    "Ġassizes": 11111,
    "Ġpurport": 14583,
    "Ġsolomon": 11054,
    "undant": 14789,
    "Ġpast": 2097,
    "ash": 1992,
    "draw": 23903,
    "scorched": 25698,
    "beaut": 8514,
    "dorff": 15241,
    "Ġlifeless": 8951,
    "ī": 236,
    "Ġcarpet": 9359,
    "Ġaccursed": 9461,
    "Ġseethings": 26505,
    "Ġcommerce": 11017,
    "Ġpacing": 8427,
    "Ġproposal": 10022,
    "Ġpledged": 20690,
    "erman": 5108,
    "Ġpenn": 11114,
    "mad": 5281,
    "Ġbrick": 8929,
    "Ġfaced": 10810,
    "Ĝ": 221,
    "outre": 18321,
    "Ġsmoked": 10325,
    "Ġwitness": 4620,
    "Ġinformation": 1046,
    "steam": 23963,
    "100": 11466,
    "Ġblinding": 14731,
    "Ġinsanity": 12051,
    "Ġderives": 16312,
    "text": 1974,
    "recollected": 25348,
    "Ġpretending": 19316,
    "Ġdelightful": 6321,
    "etwork": 441,
    "Ġdissimilar": 22535,
    "clo": 5613,
    "Ġwits": 15535,
    "Ġscreams": 24604,
    "Ġsoaked": 15866,
    "Ġphren": 8574,
    "ighbour": 3389,
    "Ġearlier": 9090,
    "Ġreturning": 5326,
    "Ġobligations": 12097,
    "Ġindisposed": 26289,
    "Ġhath": 12633,
    "Ġscraping": 13420,
    "Ġcourting": 23294,
    "mixed": 17607,
    "Ġpossibility": 7457,
    "Ġmoments": 4847,
    "Ġtasks": 1787,
    "-------": 20392,
    "stolen": 13985,
    "mblings": 19783,
    "attent": 9363,
    "Ġunspeakable": 10059,
    "Ġsymphony": 26534,
    "Ġinadequate": 17939,
    "agonies": 21913,
    "qual": 8157,
    "Ġcope": 17832,
    "Ġarve": 15901,
    "ĠmanÅĵuv": 18418,
    "Ġcollections": 22861,
    "Ġyon": 9696,
    "Ġeaster": 15679,
    "Ġwa": 1751,
    "Ġvoc": 4448,
    "adventurous": 25362,
    "power": 7137,
    "Ġinhospit": 25453,
    "Ġshown": 5159,
    "Ġenjoying": 11236,
    "Ġenigmatical": 20600,
    "trans": 5594,
    "Ġembellish": 25849,
    "if": 375,
    "Ġincluded": 8959,
    "nursery": 26401,
    "Ġappeased": 23203,
    "ivial": 15864,
    "irc": 1729,
    ",--": 2476,
    "Ġfiner": 13058,
    "Ġdifferences": 18716,
    "announced": 19762,
    "Ġaqu": 17744,
    "Ġnightfall": 23135,
    "Ġsuper": 2154,
    "rolled": 9062,
    "Ġpetrified": 19599,
    "shout": 22441,
    "Ġfolds": 12211,
    "ķ": 248,
    "Ġnursing": 12219,
    "Ġabundantly": 17159,
    "Ġhere": 1090,
    "Ġimperilled": 19581,
    "sory": 17661,
    "rian": 10244,
    "Ġlistless": 16477,
    "Ġmists": 14632,
    "Ġzeros": 3325,
    "Ġcalms": 23046,
    "Ġcellars": 24666,
    "Ġquieted": 23846,
    "Ġmissed": 8557,
    "critical": 19499,
    "subject": 6633,
    "Ġmeals": 12715,
    "glory": 23855,
    "ock": 15405,
    "Ġmediocr": 24139,
    "hob": 20902,
    "profound": 16429,
    "pain": 7349,
    "etting": 21583,
    "Ġinterest": 2248,
    "Ġstooped": 14466,
    "sentimental": 25682,
    "pleased": 8857,
    "Ġready": 3398,
    "Åĵuvre": 25888,
    "Ġhydraulic": 10067,
    "ouch": 2778,
    "Ġwhisper": 6206,
    "Ġamph": 18512,
    "Ġsec": 2075,
    "Ġcattle": 12577,
    "Ġinconsist": 17938,
    "male": 15392,
    "Ġresolving": 9422,
    "Ġchiefly": 5766,
    "degrees": 22154,
    "Ġrhine": 12360,
    "companions": 15026,
[...]
