{
  "metadata": {
    "vocab_size": 26617,
    "algorithm": "BPE",
    "created_at": "2026-09-25 07:06:05",
    "special_tokens": [
      "<PAD>",
      "<SOS>",
      "<EOS>",
      "<UNK>",
      "<MASK>"
    ]
  },
  "vocab": {
    "weaknesses": 26032,
    "Ġmounted": 7831,
    "Ġcalculate": 13267,
    "Ġintelligent": 1660,
    "Ġcontin": 5382,
    "Ġhope": 1787,
    "iful": 2882,
    "Ġdwelt": 12610,
    "Ġfountains": 13506,
    "Ġnoting": 18224,
    "torture": 26153,
    "Ġbulky": 13233,
    "Ġagree": 7646,
    "hatchway": 25906,
    "atters": 18489,
    "cask": 12451,
    "Ġmoran": 9345,
    "renched": 7906,
    "Ġdem": 11678,
    "Ġcontribute": 12866,
    "ct": 309,
    "Ġappl": 1759,
    "ca": 20795,
    "--": 1044,
    "Ġbosoms": 16797,
    "Ġsomebody": 7911,
    "Ġrevolutionized": 3369,
    "Ġaug": 6235,
    "Ġcour": 1765,
    "Ġthrice": 10579,
    "Ġimmort": 19487,
    "Ġfront": 3452,
    "Ġborn": 5224,
    "Ġess": 5691,
    "Ġinsince": 23683,
    "Ġdeposit": 17271,
    "surprise": 9532,
    "Ġauthors": 10420,
    "Ġenumerating": 15248,
    "Ġcolumb": 22861,
    "orated": 12596,
    "Ġpleasanter": 19069,
    "Ġinconvenient": 20012,
    "Ġwintry": 17437,
    "appropri": 22848,
    "ceptibly": 22348,
    "comed": 8545,
    "roses": 17961,
    "Ġdial": 10813,
    "vessel": 11380,
    "handkerchief": 14621,
    "ography": 13367,
    "Ġbalanced": 12994,
    "Ġpig": 5705,
    "Ġthickest": 16657,
    "Ġwallowing": 24048,
    "Ġlagged": 21561,
    "Ġturns": 4982,
    "Ġinternal": 2244,
    "Ġfreshets": 25706,
    "Ġramble": 9316,
    "Ġenjoys": 19453,
    "dance": 17521,
    "urements": 18129,
    "zors": 21150,
    "Ġswashing": 23061,
    "Ġdiscol": 12958,
    "Ġhoist": 11981,
    "Ġbathing": 20201,
    "Ġmamma": 10052,
    "Ġjackets": 19604,
    "details": 19677,
    "inisc": 15491,
    "confess": 12180,
    "axed": 8892,
    "Ġwade": 17788,
    "Ġselected": 9715,
    "andy": 8157,
    "Ġ99": 10748,
    "pressing": 19014,
    "Ġperfectly": 3700,
    "Ġrelapses": 26281,
    "oil": 7804,
    "Ġexceptions": 13234,
    "oses": 3943,
    "vious": 1781,
    "Ġneedles": 11188,
    "dances": 17523,
    "crowded": 20192,
    "Ġexactness": 23608,
    "Ġcommence": 6168,
    "Ġunspeakable": 10060,
    "Ġpaltry": 16693,
    "assed": 6420,
    "Ġregarded": 5762,
    "vict": 11544,
    "likewise": 13110,
    "Ġchaise": 9079,
    "unwilling": 14064,
    "seized": 14038,
    "Ġpromptly": 23822,
    "Ġrolls": 8333,
    "country": 6104,
    "france": 24286,
    "Ġheartless": 13077,
    "Ġcocain": 18599,
    "Ġmons": 10160,
    "Ġstalls": 25649,
    "Ġundulations": 19518,
    "Ġsisterly": 16307,
    "straight": 9944,
    "Ġsuggestive": 11301,
    "nursery": 26402,
    "ired": 1447,
    "Ġli": 602,
    "Ġstrategies": 1840,
    "Ġpanted": 21475,
    "Ġdestructive": 23490,
    "Ġthrobbing": 16900,
    "Ġwheeling": 18290,
    "Ġwhitt": 18059,
    "Ġjabbering": 22308,
    "Ġattending": 3286,
    "Ġlegisl": 23538,
    "oug": 431,
    "closed": 23160,
    "have": 2058,
    "ĠĠĠĠĠĠĠĠĠĠĠĠĠĠĠĠĠĠĠĠĠĠĠ": 18834,
    "Ġbequest": 21757,
    "Ġfitness": 24005,
    "oke": 1860,
    "Ġslacked": 25189,
    "Ġseconds": 16397,
    "judging": 24206,
    "Ġaffected": 5577,
    "Ġpreserved": 9265,
    "azz": 8261,
    "X": 60,
    "Ġocean": 3306,
    "abode": 21795,
    "Ġblanched": 26285,
    "Ġvengeful": 14894,
    "Ġpushing": 10822,
    "Ġmissing": 6176,
    "at": 268,
    "Ġseethings": 26506,
    "bres": 11474,
    "sterns": 23371,
    "Ġjust": 1241,
    "Ġdew": 14046,
    "Ġstrokes": 16771,
    "Ġfairness": 9897,
    "sixteen": 24854,
    "sole": 6169,
    "Ġbrist": 14382,
    "Ġhorribly": 16344,
    "Ġtoast": 21515,
    "Ġcucumber": 21359,
    "Ġspeed": 2445,
    "Ġaccepted": 7750,
    "worm": 15456,
    "osc": 18388,
    "Ġgurgling": 17449,
    "Ġjudge": 5502,
    "rig": 7554,
    "iliating": 12700,
    "blot": 20785,
    "court": 7509,
    "speps": 14340,
    "aper": 5000,
    "rict": 8092,
    "Ġballs": 9018,
    "Ġbrine": 18770,
    "savagery": 25026,
    "Ġreinforcement": 3225,
    "Ġadduced": 26527,
    "matters": 14878,
    "Ġfiends": 14831,
    "itz": 6006,
    "Ġattendant": 11289,
    "Ġplaying": 6908,
    "thest": 11658,
    "Ġboundary": 11226,
    "nihil": 9858,
    "now": 549,
    "Ġsyllables": 25300,
    "ilburn": 18064,
    "Ġvict": 3761,
    "hess": 4748,
    "Ġmarbles": 18874,
    "Ġfamilies": 8026,
    "Ġaltern": 7392,
    "gle": 20871,
    "Ġproceeded": 5336,
    "Ġresided": 11816,
    "why": 2829,
    "Ġnavy": 14920,
    "Ġtenth": 13829,
    "Ġowning": 18746,
    "pleasantness": 19772,
    "Ġbethinking": 25280,
    "swallowed": 14857,
    "stupid": 12681,
    "calmly": 20141,
    "atre": 17774,
    "zar": 11551,
    "examined": 17269,
    "clean": 14764,
    "resist": 8275,
    "Ġquarters": 8623,
    "pair": 21014,
    "Ġpetrified": 19598,
    "Ġmccauley": 26430,
    "hued": 20913,
    "opement": 10315,
    "offices": 19065,
    "Ġenvied": 19312,
    "Ġbeads": 18088,
    "Ġsympathies": 14865,
    "Ġcruisings": 25866,
    "Ġillness": 8592,
    "hundreds": 25076,
    "Ġrelating": 2704,
    "Ġdegrad": 2589,
    "Ġcorridor": 10675,
    "greeting": 24556,
    "Ġdens": 21427,
    "Ġlirra": 21563,
    "Ġpartially": 13127,
    "Ġrelig": 8551,
    "mitted": 5213,
    "Ġinclu": 1100,
    "Ġbeyond": 2455,
    "deceit": 25558,
    "Ġloose": 4650,
    "Ġhearties": 18966,
    "ifiable": 18168,
    "hro": 20893,
    "good": 2899,
    "hunter": 10559,
    "Ġnecks": 18191,
    "Ġcarefully": 6304,
    "Ġaside": 5234,
    "Ġmusty": 22684,
    "Ġconsult": 6057,
    "Ġcontinu": 1165,
    "Ġmut": 3582,
    "Ġcollected": 2610,
    "Ġsain": 17754,
    "Ġspringing": 10522,
    "Ġmarshy": 20220,
    "additional": 20466,
    "figured": 20125,
    "bable": 8722,
    "ales": 3319,
    "Ġburns": 16525,
    "Ġtrag": 13045,
    "Ġsqueaking": 26277,
    "Ġgreeting": 18963,
    "Ġrem": 956,
    "Ġpyramid": 8806,
    "complexion": 14365,
    "Ġtex": 15475,
    "Ġbands": 14888,
    "bohemia": 20733,
    "earth": 6501,
    "Ġfe": 490,
    "Ġladies": 3195,
    "dry": 13707,
    "Ġrobust": 1360,
    "arcy": 1275,
    "Ġshirt": 8853,
    "hem": 6665,
    "Ġtreats": 19347,
    "Ġ32": 19492,
    "future": 13720,
    "Ġgetting": 4065,
    "Ġnapoleon": 20560,
    "Ġlassitude": 20590,
    "ij": 7801,
    "Ġperemptory": 25742,
    "Ġimpertin": 6932,
    "unken": 10240,
    "itement": 7834,
    "kindness": 10509,
    "Ġwhirlp": 16964,
    "ctions": 951,
    "Ġhistorically": 19381,
    "Ġimmured": 24075,
    "Ġhandspikes": 12943,
    "Ġpoland": 23621,
    "Ġmost": 1020,
    "eteenth": 20159,
    "oon": 6364,
    "Ġconsistence": 23359,
    "powder": 17647,
    "Ġsc": 532,
    "Ġprank": 23220,
    "Ġbelly": 10373,
    "aside": 10195,
    "spanish": 14338,
    "ses": 3027,
    "Ġminute": 4279,
    "Ġchild": 2257,
    "_,âĢĻâĢĿ": 20403,
    "Ġknee": 7093,
    "Ġrepugnant": 26593,
    "wling": 11548,
    "Ġamericans": 14747,
    "quickly": 14965,
    "Ġbrimming": 22874,
    "inspector": 13650,
    "Ġformula": 2866,
    "Ġcyl": 15561,
    "Ġabominably": 20068,
    "Ġmislead": 22762,
    "Ġeh": 6987,
    "Ġdiana": 21439,
    "Ġhowl": 12859,
    "Ġgateway": 24799,
    "Ġclasping": 20211,
    "Ġhorr": 3191,
    "Ġnursing": 12219,
    "lengthwise": 19952,
    "iot": 9603,
    "Ġslippers": 19617,
    "Ġsympathise": 16796,
    "Ġdull": 6383,
    "supper": 12927,
    "Ġunprecedented": 15858,
    "Ġgod": 1935,
    "Ġfret": 10809,
    "greenland": 10025,
    "yond": 2326,
    "taking": 5689,
    "Ġaudience": 24768,
    "Ġheh": 21683,
    "Ġrelation": 2138,
    "Ġhost": 7068,
    "Ġsends": 14794,
    "ighter": 7967,
    "ighbour": 3391,
    "Ġcharms": 11132,
    "Ġparr": 22123,
    "sford": 5998,
    "Ġdepended": 9781,
    "Ġsax": 10932,
    "Ġferguson": 17472,
    "pread": 7417,
    "Ġlunatic": 24993,
    "favourable": 12268,
    "ensical": 18570,
    "below": 12126,
    "Ġpompous": 20425,
    "alth": 3257,
    "Ġid": 1909,
    "Ġpumps": 8427,
    "Ġoxen": 19953,
    "rugg": 15910,
    "aited": 12439,
    "Ġreads": 23119,
    "Ġharpoon": 3615,
    "Ġphysiognomical": 25613,
    "inkling": 16094,
    "Ġasp": 15785,
    "Ġgroom": 13969,
    "âĢĶâĢĻ": 8187,
    "Ġsubdivisions": 26039,
    "alt": 12643,
    "morland": 24158,
    "Ġlingered": 13508,
    "Ġbricks": 13566,
    "Ġvary": 15809,
    "Ġsteadfastly": 10655,
    "Ġclank": 15977,
    "Ġwishes": 4797,
    "Ġapiece": 16815,
    "Ġdispositions": 13237,
    "ober": 15409,
    "Ġomn": 8410,
    "Ġwronged": 24252,
    ".*": 7329,
    "Ġwithdraw": 16965,
    "Ġtrowsers": 9630,
    "ascertaining": 26463,
    "Ġembark": 8557,
    "Ġmeasure": 3593,
    "vine": 10737,
    "lessness": 5318,
    "rades": 8591,
    "clo": 5613,
    "Ġthoughtfulness": 18775,
    "Ġadie": 8490,
    "Ġvault": 8845,
    "Ġnick": 21526,
    "Ġunderneath": 16340,
    "lish": 1950,
    "Ġjaws": 5593,
    "Ġdenying": 14661,
    "Ġback": 824,
    "âĢĻ,": 14073,
    "score": 18858,
    "Ġopens": 23630,
    "Ġconstantinople": 19838,
    "divided": 25021,
    "Ġparm": 15881,
    "Ġperhaps": 1911,
    "sinking": 17670,
    "Ġseeking": 7036,
    "Ġespecial": 26413,
    "Ġskull": 6288,
    "Ġfitzwilliam": 5771,
    "fight": 17540,
    "Ġrogue": 22410,
    "Ġinseparable": 20691,
    "oar": 12502,
    "Ġconsisting": 8974,
    "Ġcalcul": 3637,
    "Ġmerchantmen": 19860,
    "olerably": 11677,
    "towns": 24855,
    "encoura": 15052,
    "Ġcreating": 2996,
    "jack": 7342,
    "Ġdeser": 3885,
    "paying": 25413,
    "catch": 17509,
    "ispiece": 19727,
    "severe": 21823,
    "Ġfeed": 2125,
    "Ġnoticing": 18227,
    "turner": 19544,
    "Ġcircumnavigation": 20402,
    "Ġgamy": 18003,
    "uble": 21105,
    "riors": 18190,
    "loath": 22514,
    "educ": 10831,
    "Ġyelled": 9698,
    "Ġstep": 753,
    "Ġj": 533,
    "privilege": 25264,
    "Ġhind": 9191,
    "Ġbri": 21381,
    "Ġnotice": 4545,
    "Ġhospitable": 17060,
    "fixed": 7546,
    "Ġmedit": 8024,
    "Ġlexicon": 25975,
    "Ġscared": 14193,
    "Ġsuspects": 16892,
    "Ġtallest": 15477,
    "igantic": 5539,
    "abst": 21792,
    "indirect": 22377,
    "Ġslippery": 12171,
    "iron": 3685,
    "akened": 7413,
    "Ġeleventh": 23372,
    "Ġdz": 4757,
    "veil": 18047,
    "Ġprodu": 1205,
    "Ġpondicherry": 20493,
    "authority": 13595,
    "drawn": 9917,
    "delighted": 10566,
    "bour": 2072,
    "Ġconvincing": 19309,
    "Ġpausing": 8655,
    "piled": 21017,
    "wh": 509,
    "Ġquiet": 3262,
    "Ġdecide": 9289,
    "Ġsof": 18279,
    "raved": 18017,
    "istics": 1629,
    "achalot": 15867,
    "emed": 3383,
    "Ġhempen": 13554,
    "lesson": 22779,
    "Ġachieves": 4379,
    "travelling": 24340,
    "Ġskiff": 16168,
    "Ġpeak": 16130,
    "Ġchased": 8865,
    "ropy": 1102,
    "Ġwindow": 2997,
    "Ġforfeit": 21779,
    "Ġlord": 2966,
    "Ġordinarily": 20651,
    "Ġhal": 1365,
    "orient": 2879,
    "Ġaspects": 4176,
    "gaining": 20126,
    "Ġsoles": 22087,
    "diligence": 26112,
    "similar": 13457,
    "Ġus": 494,
    "Ġwest": 5219,
    "Ġuncertain": 4067,
    "Ġauthority": 7748,
    "eches": 8077,
    "Ġhousekeeper": 7454,
    "ursday": 12281,
    "Ġling": 7375,
    "lev": 1237,
    "Ġtalked": 4420,
    "native": 17614,
    "Ġthinks": 6170,
    "Ġthreshold": 2810,
    "Ġninetieth": 25359,
    "Ġdoorway": 14500,
    "untary": 9871,
    "attempted": 20176,
    "Ġcompact": 2260,
    "save": 13788,
    "Ġrejo": 5917,
    "Ġstro": 4597,
    "Ġdramatic": 4853,
    "Ġpearl": 20379,
    "Ġflying": 5413,
    "Ġtheatre": 21281,
    "Ġexposing": 11837,
    "Ġconsecut": 18116,
    "extrem": 18711,
    "ryphon": 4165,
    "Ġpoets": 11826,
    "Ġdripping": 13150,
    "ination": 2913,
    "Ġdumb": 7842,
    "elijah": 19476,
    "Ġyawn": 7609,
    "Ġcouch": 12576,
    "Ġgould": 17994,
    "Ġsymmet": 11752,
    "Ġineffable": 17335,
    "Ġconjured": 25102,
    "Ġcase": 1939,
    "jer": 12485,
    "Ġdiscerned": 25006,
    "inished": 17737,
    "sively": 13789,
    "Ġinserting": 19907,
    "Ġsage": 17756,
    "minds": 24237,
    "Ġ84": 19711,
    "guinea": 16675,
    "eaten": 20346,
    "bug": 17495,
    "Ġviol": 2071,
    "accountable": 7109,
    "abhorred": 17339,
    "copper": 19190,
    "Ġsoothe": 7403,
    "reed": 6372,
    "oney": 3048,
    "onym": 14652,
    "watson": 12248,
    "inger": 6812,
    "yra": 8102,
    "Ġpairs": 4184,
    "interests": 19710,
    "Ġkn": 4548,
    "Ġalfred": 21790,
    "securing": 19815,
    "Ġcollar": 11884,
    "Ġst": 333,
    "lone": 11503,
    "Ġhams": 16614,
    "moral": 14806,
    "Ġunlimited": 26225,
    "Ġbidding": 9539,
    "resentment": 15190,
    "Ġmechan": 1183,
    "Ġdecent": 10980,
    "Ġintending": 11710,
    "Ġbarber": 23793,
    "frock": 20123,
    "Ġtener": 21166,
    "rents": 5310,
    "Ġvowed": 14086,
    "itional": 22479,
    "Ġdisconsolate": 20721,
    "Ġpresented": 5183,
    "Ġalmighty": 18109,
    "mean": 6437,
    "Ġdisasters": 16058,
    "Ġdoubling": 23324,
    "Ġcrags": 23532,
    "Ġtrembled": 8705,
    "Ġchimney": 6496,
    "icide": 11622,
    "Ġcash": 9655,
    "Ġstamping": 20033,
    "Ġdeduction": 14905,
    "Ġuniformity": 23487,
    "Ġpreser": 6040,
    "izer": 2031,
    "elze": 21576,
    "Ġrecourse": 22742,
    "Ġweltering": 19587,
    "Ġnailing": 21530,
    "Ġintegral": 25011,
    "Ġinco": 14264,
    "Ġsplendidly": 25329,
    "Ġminimum": 23047,
    "Ġintervened": 25483,
    "Ġattaining": 15807,
    "Ġjets": 10291,
    "2": 22,
    "attain": 21264,
    "reds": 12756,
    "Ġvariation": 22669,
    "itigated": 23052,
    "Ġagitates": 22522,
    "maj": 18803,
    "permission": 15900,
    "Ġacknowledgment": 16958,
    "Ġsadder": 24056,
    "Ġlowerings": 23653,
    "Ġsign": 2493,
    "Ġlearnedly": 23389,
    "Ġperu": 14225,
    "Ġanyone": 4459,
    "Ġperplex": 2718,
    "uesday": 8589,
    "Ġbulb": 23860,
    "iple": 4808,
    "Ġ156": 20172,
    "Ġassign": 11112,
    "Ġmovements": 24361,
    "feit": 16046,
    "Ġalleghan": 25797,
    "spermaceti": 12198,
    "forks": 26390,
    "isco": 12586,
    "Ġwhistled": 24622,
    "Ġagitated": 7647,
    "Ġsnugly": 17112,
    "libr": 22928,
    "fits": 13721,
    "Ġendeared": 26501,
    "Ġvinegar": 20102,
    "Ġfavoured": 16363,
    "Ġincarnate": 20377,
    "Ġsums": 2902,
    "Ġcheck": 7269,
    "crowning": 25750,
    "ga": 17552,
    "Ġresp": 2492,
    "Ġgouge": 26191,
    "Ġbitter": 4175,
    "Ġrasc": 21979,
    "Ġbery": 13901,
    "yield": 13812,
    "Ġalterations": 19871,
    "concerted": 16674,
    "Ġgaiety": 16751,
    "contr": 12061,
    "Ġcoincidences": 26366,
    "Ġblind": 3715,
    "bride": 19201,
    "Ġtrail": 16286,
    "acceptance": 25186,
    "Ġslides": 18941,
    "Ġspades": 12801,
    "Ġpallidness": 25606,
    "ulation": 5458,
    "erring": 11058,
    "Ġrel": 1097,
    "social": 11025,
    "noise": 14330,
    "astrop": 3318,
    "Ġstress": 18074,
    "ateness": 15523,
    "olerable": 7181,
    "Ġpam": 21457,
    "Ġlane": 5627,
    "gences": 20879,
    "thole": 21991,
    "Ġwapping": 21297,
    "Ġadorned": 15251,
    "Ġexercise": 8357,
    "starbuck": 6019,
    "Ġadversity": 24307,
    "Ġabilities": 8870,
    "Ġnewcastle": 16226,
    "Ġanswers": 7070,
    "Ġonly": 788,
    "aire": 10684,
    "def": 1454,
    "Ġbuckets": 17035,
    "pots": 11517,
    "gold": 9123,
    "Ġponies": 21479,
    "unch": 14061,
    "âĢľ": 344,
    "Ġfurlong": 18741,
    "Ġimpenit": 22393,
    "gover": 10705,
    "Ġsurveying": 25327,
    "Ġsailor": 3536,
    "Ġevangel": 11284,
    "Ġannouncing": 16756,
    "Ġcoiling": 12910,
    "mar": 4335,
    "eel": 11487,
    "Ġnational": 13945,
    "amount": 10887,
    "Ġinterconnected": 1339,
    "Ġspite": 4157,
    "Ġcrab": 13147,
    "Ġdescending": 8906,
    "Ġlighter": 12658,
    "Ġstig": 14006,
    "Ġattested": 22636,
    "Ġreasonably": 11092,
    "Ġearly": 2078,
    "Ġconnex": 10669,
    "repressed": 21246,
    "pretending": 17042,
    "Ġconsoling": 19460,
    "Ġcriminal": 7535,
    "Ġplutarch": 22610,
    "Ġestate": 6316,
    "Ġunlocked": 14124,
    "Ġwithdrawing": 11342,
    "Ġrake": 18635,
    "Ġfab": 15580,
    "Ġadvertised": 17250,
    "proportion": 16184,
    "Ġharpooning": 23984,
    "weakness": 16128,
    "Ġprogram": 12998,
    "joy": 3337,
    "erpillar": 5798,
    "Ġunre": 3478,
    "Ġexhib": 6349,
    "species": 13260,
    "Ġmonsieur": 12425,
    "watches": 14951,
    "ently": 1440,
    "commotion": 24914,
    "hideous": 25409,
    "Ġalpha": 13592,
    "Ġworship": 10370,
    "Ġforming": 7042,
    "Ġcharacters": 9374,
    "prim": 23815,
    "imble": 10861,
    "tiness": 21074,
    "Ġcontent": 5035,
    "Ġpunch": 9959,
    "Ġsweetest": 13251,
    "germ": 15360,
    "Ġhastily": 5763,
    "Ġyes": 2688,
    "shore": 10309,
    "Ġruskin": 25810,
    "Ġmates": 4874,
    "Ġhearse": 10423,
    "Ġrepeatedly": 9024,
    "ples": 6844,
    "Ġresuming": 12898,
    "Ġperiod": 4003,
    "Ġdreaded": 8288,
    "gazed": 15365,
    "Ġhero": 5715,
    "Ġpled": 17911,
    "Ġgrosvenor": 17421,
    "Ġbon": 8790,
    "Ġborrow": 10174,
    "explaining": 23150,
    "Ġwavering": 23409,
    "Ġsurely": 6307,
    "Ġunappalled": 22069,
    "Ġrecre": 22740,
    "Ġgardiner": 3240,
    "partiality": 13164,
    "Ġpicking": 11263,
    "Ġhardy": 8567,
    "Ġnantucketer": 6913,
    "Ġgloried": 22992,
    "Ġendeavours": 8621,
    "Ġ21": 11203,
    "ht": 375,
    "Ġpods": 17919,
    "Ġbox": 5110,
    "elling": 5831,
    "Ġphyseter": 26589,
    "Ġminutest": 14563,
    "Ġcloud": 3910,
    "Ġnoisy": 13323,
    "phantoms": 24679,
    "Ġlandlord": 5581,
    "Ġcask": 5527,
    "Ġhysterical": 26094,
    "bat": 8071,
    "Ġpretty": 3859,
    "Ġmarlingspike": 26582,
    "Ġattentive": 9036,
    "Ġregrets": 18595,
    "Ġloveliness": 13612,
    "Ġincantation": 26260,
    "Ġtet": 21160,
    "Ġdeparture": 6489,
    "oning": 7570,
    "tro": 15436,
    "âĢĶ_": 3202,
    "Ġdeceitfulness": 25735,
    "Ġfright": 3796,
    "Ġthroat": 7770,
    "Ġoblique": 20171,
    "rop": 540,
    "sick": 13787,
    "Ġabased": 22273,
    "Ġknowest": 12868,
    "Ġcomforts": 14697,
    "ĠĠĠĠĠĠĠĠĠĠĠĠĠĠĠĠĠĠĠĠĠĠĠĠĠĠĠĠĠĠĠĠĠĠĠĠĠĠĠĠ": 4518,
    "Ġvintage": 26212,
    "away": 4627,
    "Ġplat": 8521,
    "Ġfought": 12598,
    "shott": 11799,
    "Ġsort": 1507,
    "Ġarduous": 26534,
    "Ġsignal": 5945,
    "safe": 10058,
    "let": 2735,
    "afraid": 10444,
    "Ġhelmet": 19689,
    "swed": 24258,
    "Ġbelieved": 4368,
    "glance": 16589,
    "Ġgranted": 22813,
    "employ": 10898,
    "ĥ": 230,
    "Ġcro": 4875,
    "Ġworkman": 16266,
    "Ġobsolete": 26561,
    "Ġidea": 2485,
    "spir": 5738,
    "Ġimperfectly": 25728,
    "Ġugl": 12687,
    "exagger": 22433,
    "Ġshrieking": 24757,
    "Ġaccelerate": 23227,
    "gins": 12473,
    "umblings": 23899,
    "Ġstove": 6734,
    "Ġrenegades": 26479,
    "Ġcircumference": 13548,
    "Ġaccordance": 19501,
    "Ġheinous": 18043,
    "gentlemanlike": 20004,
    "attracted": 13056,
    "Ġconstitution": 20111,
    "Ġskylight": 24077,
    "Ġvisit": 2584,
    "Ġkid": 9728,
    "phere": 21021,
    "Ġpemberley": 4590,
    "Ġminimax": 5860,
    "Ġtawny": 20484,
    "Ġencaps": 12967,
    "Ġsummits": 14686,
    "Ġcl": 556,
    "Ġ15": 9327,
    "Ġlikewise": 5386,
    "mology": 12496,
    "Ġdoor": 1737,
    "Ġrefused": 6716,
    "asc": 6385,
    "Ġcrate": 19121,
    "gallant": 7780,
    "Ġlect": 9223,
    "Ġrecl": 16144,
    "Ġespe": 21158,
    "Ġunfathomable": 20551,
    "Ġhydraul": 9516,
    "Ġprompted": 23821,
    "Ġdesertion": 24786,
    "Ġsons": 10769,
    "screen": 23001,
    "P": 52,
    "Ġtools": 11613,
    "Ġappeals": 16319,
    "Ġkindled": 19028,
    "Ġsmoky": 22564,
    "Ġstrangled": 24138,
    "narrative": 17322,
    "Ġhumor": 11053,
    "barbaric": 26361,
    "women": 15459,
    "Ġbreaking": 6310,
    "Ġlowly": 11123,
    "grand": 7969,
    "Ġplausible": 26556,
    "plete": 10922,
    "Ġever": 1180,
    "angle": 22108,
    "satisfied": 10582,
    "Ġcruis": 14627,
    "ouring": 6419,
    "pleased": 8857,
    "admit": 18095,
    "oso": 12835,
    "Ġhastened": 9007,
    "Ġmary": 3842,
    "Ġcounty": 9033,
    "Ġcaged": 21355,
    "Ġsheets": 9726,
    "Ġmiscellaneous": 17465,
    "._)": 10484,
    "Ġboys": 5194,
    "ď": 208,
    "purposes": 25024,
    "Ġattractions": 12923,
    "Ġconcealing": 23908,
    "Ġsalisbury": 24068,
    "Ġ132": 19897,
    "aurus": 20563,
    "Ġproduced": 2449,
    "Ġdent": 13909,
    "Ġbart": 17861,
    "soundest": 24796,
    "Ġclattered": 22364,
    "Ġfears": 5729,
    "foreseen": 14257,
    "Ġmixed": 6974,
    "leading": 15566,
    "Ġantiqu": 12149,
    "Ġdiscount": 22785,
    "Ġflu": 3278,
    "Ġhabitu": 19531,
    "Ġbrack": 23841,
    "Ġstoutly": 16925,
    "Ġconverted": 16119,
    "Ġslit": 13062,
    "readiness": 19366,
    "press": 1728,
    "Ġmaternal": 11060,
    "Ġconsideration": 5191,
    "jaw": 13746,
    "Ġdistances": 22509,
    "mole": 22708,
    "Ġperched": 10303,
    "Ġtyp": 1128,
    "Ġmemory": 2273,
    "Ġpistols": 17332,
    "Ġreminisc": 18727,
    "Ġinsupportable": 13935,
    "summer": 11998,
    "Ġspecies": 5113,
    "pursued": 17284,
    "quadr": 15768,
    "Ġtrophy": 20009,
    "swear": 16919,
    "pro": 2050,
    "Ġredeem": 20502,
    "Ġurgent": 16871,
    "madness": 14886,
    "Ġchancery": 20718,
    "seat": 18130,
    "Ġwhispered": 5338,
    "atmospheric": 17780,
    "z": 94,
    "Ġexig": 21830,
    "emorial": 10245,
    "Ġcommitting": 22677,
    "venor": 16101,
    "Ġarm": 2490,
    "Ġproced": 2580,
    "extinguish": 22775,
    "Ġpurest": 14943,
    "Ġ73": 24265,
    "georgiana": 26022,
    "Ġcarelessly": 11122,
    "Ġsalmon": 24066,
    "eling": 6682,
    "Ġsubtle": 6717,
    "Ġhuge": 4701,
    "spoke": 11026,
    "Ġbarb": 4533,
    "Ġpatriot": 23308,
    "Ġrepose": 6742,
    "Ġtear": 6724,
    "uck": 1235,
    "felicity": 25143,
    "Ġcane": 10930,
    "Ġdisputes": 25827,
    "Ġbourgh": 5070,
    "Ġnoises": 18374,
    "Ġhalyards": 21497,
    "Ġedges": 3825,
    "dra": 3416,
    "Ġspile": 22132,
    "Ġentailed": 11029,
    "Ġmice": 13862,
    "Ġlantern": 7116,
    "Ġtastes": 15480,
    "apidated": 22342,
    "Ġassuredly": 14825,
    "elves": 2155,
    "bowing": 24456,
    "Ġlastly": 16208,
    "rifice": 12508,
    "progression": 20384,
    "lighted": 23758,
    "numer": 15402,
    "Ġprocured": 8680,
    "Ġcrotch": 9967,
    "Ġarrested": 9562,
    "Ġdataset": 12824,
    "Ġnoble": 3441,
    "Ġsmite": 22563,
    "yden": 21146,
    "volume": 18606,
    "mph": 20974,
    "Ġempires": 19077,
    "Ġplant": 8903,
    "Ġaccompaniments": 24484,
    "ma": 1149,
    "Ġbuckler": 24860,
    "Ġabusive": 22278,
    "Ġsuggest": 5417,
    "Ġhum": 1099,
    "Ġaccomplished": 7104,
    "Ġhumane": 11889,
    "Ġdiary": 24737,
    "Ġe": 311,
    "Ġlivelong": 25513,
    "Ġpoetical": 25060,
    "gration": 9124,
    "rade": 9682,
    "Ġbunger": 10000,
    "Ġclatter": 22359,
    "dham": 20832,
    "Ġcarter": 18902,
    "Ġtrustees": 24111,
    "hated": 17563,
    "Ġdub": 13912,
    "Ġuncle": 3194,
    "Ġlightning": 5750,
    "Ġbuff": 9175,
    "Ġwashington": 17205,
    "savor": 25025,
    "Ġstre": 2106,
    "ivers": 1984,
    "andish": 18158,
    "Ġgener": 582,
    "Ġconjugal": 25104,
    "Ġjura": 14196,
    "Ġresolved": 3797,
    "Ġsympathising": 24301,
    "Ġansw": 2203,
    "determined": 9082,
    "imes": 1300,
    "impetuous": 23767,
    "ernsey": 8905,
    "axing": 18547,
    "Ġprovoke": 14829,
    "Ġlifeless": 8951,
    "thought": 3847,
    "Ġrates": 1408,
    "Ġneutral": 12749,
    "Ġwholesome": 16009,
    "imodal": 17450,
    "Ġsentinel": 26067,
    "Ġseven": 4544,
    "Ġrascally": 26509,
    "Ġsummoning": 23879,
    "inders": 15984,
    "Ġelias": 18642,
    "Ġ{": 21155,
    "Ġpangs": 15619,
    "greatest": 10497,
    "Ġmoot": 22437,
    "vessels": 10629,
    "Ġobligations": 12097,
    "Ġcorpulence": 24511,
    "Ġthoughtlessness": 16197,
    "Ġrecollection": 6622,
    "Ġobeying": 13418,
    "Ġtroop": 24898,
    "groom": 8743,
    "Ġbounce": 21396,
    "rs": 7806,
    "iteness": 4392,
    "Ġreminded": 10003,
    "Ġoppressed": 11193,
    "Ġsettled": 3741,
    "Ġunwillingly": 15852,
    "Ġapprehending": 26093,
    "digger": 24314,
    "Ġepicurean": 20558,
    "Ġrefres": 14347,
    "Ġmagnet": 10394,
    "Ġforest": 9875,
    "Ġapproximation": 2337,
    "Ġexpectation": 6903,
    "Ġpaths": 2569,
    "cop": 20803,
    "Ġinst": 910,
    "Ġundesired": 12784,
    "lun": 20948,
    "gus": 13728,
    "Ġlothario": 26187,
    "Ġcompanions": 5867,
    "librarian": 26571,
    "Ġloaf": 15876,
    "vain": 15450,
    "Ġeaglet": 19306,
    "Ġgettest": 23234,
    "Ġwhatever": 3474,
    "Ġbaker": 4697,
    "iger": 8447,
    "Ġwillingly": 8888,
    "Ġdidst": 11854,
    "Ġappend": 18361,
    "Ġsimilarity": 3167,
    "Ġhowling": 8510,
    "Ġax": 7821,
    "discrimin": 19610,
    "Ġrevenue": 26197,
    "happened": 9435,
    "Ġbones": 4585,
    "Ġdiscove": 16159,
    "accounted": 16503,
    "Ġ17": 5740,
    "Ġvillagers": 19477,
    "Ġice": 3603,
    "Ġsagittarius": 24730,
    "rodu": 1819,
    "studies": 25170,
    "Ġarrest": 7407,
    "fortunately": 9452,
    "ersed": 10263,
    "keeping": 8638,
    "Ġdinners": 23987,
    "Ġmaz": 15546,
    "uring": 820,
    "Ġwinchester": 10070,
    "Ġpresent": 1641,
    "Ġdispleasure": 16056,
    "mon": 2306,
    "onged": 18411,
    "ai": 2523,
    "Ġ62": 24367,
    "baden": 25617,
    "Ġderiv": 1734,
    "Ġelucidated": 26031,
    "carpet": 25203,
    "Ġjoyful": 13226,
    "Ġzealand": 12354,
    "Ġapplications": 4786,
    "commend": 19995,
    "Ġtomorrow": 21516,
    "Ġinfallible": 15075,
    "Ġglued": 20592,
    "Ġsolution": 9809,
    "iring": 1705,
    "Ġfebruary": 15917,
    "coward": 13704,
    "unforeseen": 21893,
    "Ġpalsied": 25781,
    "iating": 3208,
    "Ġrising": 4355,
    "Ġfortune": 4241,
    "apparent": 11043,
    "Ġtumb": 21172,
    "looks": 12022,
    "Ġgarn": 13966,
    "chains": 9688,
    "Ġrelatives": 12987,
    "Ġtrip": 16790,
    "Ġdolphins": 20398,
    "Ġmonkey": 8226,
    "africa": 26310,
    "Ġrallied": 14098,
    "Ġgodson": 23361,
    "proachable": 23401,
    "Ġdank": 21431,
    "Ġreign": 13988,
    "Ġlulled": 17973,
    "Ġpebbles": 16133,
    "Ġman": 545,
    "narwhale": 17321,
    "hurst": 19880,
    "Ġindefinitely": 25222,
    "Ġtints": 17730,
    "Ġexcell": 10418,
    "Ġfumes": 21421,
    "tle": 2406,
    "Ġdevilish": 11232,
    "needles": 20313,
    "spikes": 10345,
    "Ġgrasping": 12170,
    "ishments": 9276,
    "Ġstun": 11654,
    "nour": 20990,
    "Ġdrives": 14580,
    "Ġtexel": 25925,
    "omit": 13977,
    "Ġresolve": 13174,
    "Ġspind": 18308,
    "Ġanointing": 25541,
    "Ġimposed": 14218,
    "spin": 22734,
    "Ġlooks": 4167,
    "Ġbur": 2697,
    "lp": 897,
    "slave": 16897,
    "Ġwrist": 8242,
    "Ġexpans": 18622,
    "Ġark": 10280,
    "Ġaccusation": 22383,
    "Ġbroadway": 23989,
    "Ġpr": 1598,
    "caught": 8730,
    "Ġraises": 11846,
    "Ġalt": 18103,
    "Ġhog": 13927,
    "Ġrounds": 18887,
    "Ġparish": 8858,
    "notches": 22755,
    "Ġnorthwards": 19547,
    "egypt": 15353,
    "chancing": 22922,
    "aly": 1109,
    "Ġpist": 12620,
    "stolen": 13985,
    "Ġhug": 6979,
    "sequ": 2398,
    "Ġoblige": 10492,
    "âĢ": 294,
    "Ġcool": 5734,
    "thur": 7186,
    "Ġcleaned": 23188,
    "ave": 979,
    "zy": 2670,
    "Ġgazed": 6477,
    "Ġspectacle": 10500,
    "Ġobtruded": 20724,
    "Ġsupplying": 19800,
    "Ġattendance": 12186,
    "conside": 9293,
    "Ġadhering": 14143,
    "Ġtwelfth": 22682,
    "accepting": 20137,
    "Ġoffic": 3187,
    "Ġawaken": 23590,
    "Ġfleet": 9434,
    "Ġbumping": 25281,
    "tried": 13797,
    "rael": 21632,
    "Ġmorphology": 3011,
    "Ġcooped": 22588,
    "ctive": 11627,
    "regularization": 3515,
    "Ġleviathanic": 12085,
    "Ġawakened": 10456,
    "Ġtinkling": 25213,
    "stalls": 26476,
    "Ġaltered": 7391,
    "Ġmincer": 14370,
    "Ġtows": 19563,
    "Ġdestroyer": 13417,
    "Ġhail": 7398,
    "cooee": 12422,
    "mou": 10711,
    "Ġindoors": 18838,
    "Ġtrunk": 7203,
    "commanders": 16991,
    "cause": 7795,
    "obed": 14450,
    "Ġblast": 7443,
    "activity": 22633,
    "Ġchoke": 22254,
    "Ġgovernor": 16492,
    "Ġwept": 7182,
    "iteous": 14266,
    "home": 7339,
    "consequ": 18507,
    "Ġresolves": 23654,
    "ually": 2773,
    "Ġbeheaded": 11660,
    "sander": 11530,
    "Ġreceptive": 1565,
    "Ġpeleg": 3738,
    "Ġimputable": 22178,
    "Ġpatiently": 19919,
    "Ġgloss": 11961,
    "Ġerudite": 26354,
    "Ġprogno": 14044,
    "Ġrom": 4527,
    "Ġcuriosity": 2339,
    "finer": 17548,
    "Ġservox": 23875,
    "Ġmans": 15540,
    "Ġwitnesses": 9488,
    "supervised": 1975,
    "Ġfest": 10807,
    "mir": 20965,
    "between": 5072,
    "ralian": 19602,
    "Ē": 211,
    "Ġmanhat": 22333,
    "Ġgales": 12670,
    "ulate": 5233,
    "irs": 14074,
    "prof": 7698,
    "Ġmarty": 20292,
    "ative": 733,
    "mathemat": 19139,
    "Ġslaves": 23172,
    "compl": 6872,
    "recollection": 25350,
    "Ġblood": 3168,
    "Ġlancaster": 26343,
    "ped": 6963,
    "Ġcasket": 19726,
    "Ġdivide": 12115,
    "ć": 200,
    "ine": 406,
    "Ġmag": 1432,
    "ensation": 22551,
    "Ġpon": 10179,
    "habit": 16193,
    "Ġechoed": 20426,
    "Ġunwillingness": 20034,
    "Ġhydraulic": 10068,
    "chronicle": 26483,
    "itty": 3554,
    "gish": 20875,
    "Ġoil": 3375,
    "Ġmould": 6518,
    "Ġoccupies": 24013,
    "smug": 23913,
    "Ġdesolation": 12273,
    "rain": 465,
    "beyond": 8886,
    "Ġoutriders": 26546,
    "Ġfelicity": 7258,
    "Ġholland": 10369,
    "Ġgre": 1584,
    "Ġgrope": 17999,
    "seldom": 13790,
    "sory": 17661,
    "Ġdistribution": 2019,
    "musket": 25343,
    "Ġshaking": 6551,
    "flutter": 23976,
    "Ġab": 527,
    "Ġmask": 1866,
    "becoming": 18520,
    "Ġfif": 4219,
    "Ġcomplet": 4422,
    "imony": 12695,
    "cream": 15334,
    "Ġscarce": 8625,
    "Ġsystematic": 5245,
    "Ġstraightened": 12113,
    "Ġmeagre": 21817,
    "Ġcommerce": 11017,
    "Ġporch": 19682,
    "Ġtwopence": 18661,
    "Ġwalrus": 14976,
    "Ġpau": 17912,
    "kily": 20939,
    "Ġlashings": 25100,
    "atical": 10774,
    "(-": 2980,
    "Ġtennessee": 26599,
    "Ġpasses": 2679,
    "Ġchag": 15935,
    "idled": 21772,
    "club": 26383,
    "Ġadapted": 11040,
    "ortion": 11762,
    "Ġthis": 382,
    "Ġentranced": 25836,
    "Ġautonomous": 10679,
    "Ġcosine": 2370,
    "Ġlimped": 19183,
    "Ġfavourite": 5271,
    "fthand": 26389,
    "therefore": 5954,
    "Ġintelligently": 3963,
    "Ġpremium": 23910,
    "Ġchapel": 9525,
    "Ġnigh": 4880,
    "pth": 2379,
    "Ġillustrate": 25068,
    "Ġcovari": 2334,
    "imming": 9690,
    "antucket": 2643,
    "love": 9297,
    "Ġexplanatory": 22207,
    "able": 454,
    "Ġlac": 17969,
    "Ġswaying": 15050,
    "discoveries": 25387,
    "Ġalternative": 19989,
    "themselves": 6540,
    "Ġforesaw": 19128,
    "uttering": 12667,
    "unctions": 18160,
    "Ġdeep": 800,
    "Ġinsurmountable": 16533,
    "inkled": 5477,
    "uger": 21106,
    "Ġlumber": 13955,
    "iquet": 17577,
    "battle": 12446,
    "elius": 13291,
    "Ġpatronage": 17054,
    "Ġsevered": 18208,
    "Ġsides": 4581,
    "reply": 19724,
    "Ġunden": 22018,
    "circumst": 5349,
    "Ġphenomenon": 17921,
    "Ġhealth": 3902,
    "before": 3113,
    "Ġfrequ": 3330,
    "Ġblows": 5973,
    "Ġknees": 6927,
    "Ġaltering": 18107,
    "Ġresumed": 11817,
    "perceive": 12814,
    "Ġsummar": 3526,
    "Ġexploding": 2107,
    "allic": 12817,
    "S": 55,
    "Ġcorpusants": 13681,
    "avail": 18568,
    "Ġfixing": 13160,
    "bearers": 18525,
    "frantic": 24287,
    "Ġfinal": 5400,
    "scot": 14422,
    "Ġso": 432,
    "Ġmonotonically": 3832,
    "spot": 9793,
    "Ġgroan": 13328,
    "Ġlurking": 11293,
    "Ġpurposed": 23555,
    "dreadful": 11424,
    "igated": 15711,
    "laid": 10113,
    "Ġacting": 10993,
    "estruct": 22232,
    "misfortunes": 16758,
    "bull": 13694,
    "either": 6791,
    "monsters": 19173,
    "cable": 20799,
    "ires": 6037,
    "impud": 23764,
    "espe": 3499,
    "Ġcatastrop": 3350,
    "diver": 20833,
    "Ġcourses": 10414,
    "oman": 2018,
    "itarian": 21340,
    "Ġungracious": 18261,
    "Ġcadiz": 17328,
    "necessary": 5883,
    "Ġdam": 2214,
    "intentions": 22944,
    "fifth": 20148,
    "bushes": 24449,
    "tain": 559,
    "asters": 8434,
    "Ġirrevocably": 15301,
    "every": 2812,
    "Ġgrant": 11878,
    "Ġdraw": 3670,
    "Ġunbounded": 18262,
    "Ġarchangel": 8543,
    "Ġhelping": 3268,
    "Ġintegr": 7968,
    "Ġwounds": 17794,
    "Ġunrival": 22051,
    "depend": 9115,
    "Ġwake": 4750,
    "Ġfurther": 1056,
    "commanding": 24751,
    "ĠĠĠĠĠĠĠĠĠĠĠĠĠĠĠĠĠĠĠĠĠĠĠĠĠĠĠĠĠĠĠĠĠĠĠĠĠĠĠĠĠĠĠ": 12159,
    "Ġeastern": 11633,
    "brance": 7282,
    "Ġrehearsed": 25973,
    "eline": 2441,
    "inev": 21984,
    "Ġuntil": 2668,
    "Ġjinglers": 26020,
    "Ġdairy": 20689,
    "Ġcareful": 2611,
    "Ġcommentaries": 20162,
    "..": 5783,
    "Ġmar": 1311,
    "fer": 1943,
    "ively": 1305,
    "commendation": 26352,
    "kshire": 13749,
    "orph": 21402,
    "semble": 1528,
    "remem": 13072,
    "wondrous": 12342,
    "Ġoriginally": 7302,
    "Ġdropped": 4472,
    "disgu": 19157,
    "Ġdropout": 1561,
    "Ġgryphon": 4299,
    "Ġparasol": 22125,
    "Ġdirections": 1970,
    "Ġhast": 3151,
    "oing": 15404,
    "Ġbegan": 2022,
    "xible": 13811,
    "pervised": 1622,
    "Ġthre": 2059,
    "Ġwas": 370,
    "Ġtweed": 22681,
    "Ġhang": 9190,
    "zag": 17716,
    "Ġwrongfully": 24253,
    "Ġwoke": 21292,
    "ortal": 6266,
    "everything": 6324,
    "Ġjustified": 11910,
    "Ġadjac": 18294,
    "Ġvoices": 7875,
    "improve": 15716,
    "Ġfuneral": 10287,
    "Ġtumbled": 13410,
    "per": 479,
    "Ġpoor": 1707,
    "Ġprophetic": 20022,
    "etition": 7380,
    "Ġtwist": 11856,
    "Ġmaintenance": 17464,
    "Ġroofs": 16986,
    "usual": 5841,
    "Ġpresently": 5117,
    "clothes": 9060,
    "liked": 10512,
    "surprised": 9533,
    "atus": 21263,
    "Ġexpose": 10331,
    "Ġexped": 7650,
    "Ġnotions": 14102,
    "hard": 4691,
    "studied": 17152,
    "Ġtapping": 10755,
    "saying": 8644,
    "Ġintruder": 25993,
    "Ġparent": 14649,
    "Ġhooks": 14971,
    "Ġcoherent": 3264,
    "Ġshovel": 23495,
    "Ġpointed": 4774,
    "Ġhills": 6526,
    "ble": 542,
    "ies": 583,
    "Ġdisregard": 22533,
    "stands": 22435,
    "Ġautumn": 14514,
    "etween": 777,
    "rim": 7137,
    "Ġincreas": 1691,
    "Ġincessant": 15102,
    "Ġhieroglyphic": 25589,
    "Ġbeauties": 10448,
    "author": 9864,
    "ounts": 4653,
    "Ġtending": 17727,
    ";": 31,
    "Ġrefreshing": 20266,
    "original": 9088,
    "Ġfootsteps": 16575,
    "Ġcontro": 1684,
    "itchen": 7787,
    "anim": 6521,
    "Ġjudged": 12088,
    "ials": 11709,
    "Ġreverse": 16983,
    "Ġtricks": 13488,
    "marvell": 24176,
    "Ġcaves": 15558,
    "col": 3102,
    "Åĵuv": 15187,
    "Ġdre": 1742,
    "bearer": 18522,
    "Ġsermon": 12380,
    "Ġfilial": 16622,
    "irregular": 21916,
    "accompanied": 12426,
    "Ġ123": 24470,
    "Ġbier": 22766,
    "Ġclapping": 14210,
    "Ġlunacy": 20030,
    "Ġcare": 1637,
    "Ġ270": 25133,
    "oices": 7346,
    "Ġchurning": 15941,
    "Ġfisheries": 17441,
    "Ġoust": 21327,
    "Ġinheriting": 25356,
    "que": 1154,
    "Ġturning": 3329,
    "Ġflat": 8227,
    "ouraged": 22864,
    "Ġfem": 6135,
    "mend": 20968,
    "vour": 17702,
    "Ġplatform": 17134,
    "Ġhunch": 18937,
    "Ġhurriedly": 11253,
    "Ġforked": 11668,
    "Ġinference": 9674,
    "Ġallurements": 22014,
    "undant": 14796,
    "Ġindign": 6174,
    "omon": 10210,
    "Ġsar": 21216,
    "Ġbas": 6379,
    "alley": 23029,
    "uing": 17696,
    "^": 66,
    "Ġmeditations": 25016,
    "Ġsanity": 24982,
    "anybody": 12087,
    "plainly": 11091,
    "Ġbland": 11066,
    "Ġdeclare": 6616,
    "equ": 6790,
    "iop": 20921,
    "Ġarsacidean": 20367,
    "cracy": 24690,
    "Ġconfidence": 6591,
    "iem": 20919,
    "spades": 14339,
    "Ġpolished": 11186,
    "etts": 12665,
    "==": 943,
    "gal": 15359,
    "Ġbegun": 7241,
    "ithing": 11653,
    "Ġdauntless": 26339,
    "Ġprecise": 7075,
    "Ġbridge": 8348,
    "Ġspouting": 9441,
    "Ġforbe": 8458,
    "compasses": 19461,
    "unching": 18163,
    "vius": 23545,
    "Ġtrivial": 10146,
    "Ġcastaways": 19431,
    "ce": 313,
    "gun": 10100,
    "Ġif": 697,
    "Ġautomatically": 3976,
    "Ġsaturday": 6451,
    "Ġvales": 21949,
    "Ġbump": 9662,
    "Ġcharacter": 2797,
    "Ġcharging": 23272,
    "Ġapologies": 25197,
    "charm": 13993,
    "osing": 3689,
    "Ġactor": 16052,
    "dered": 2471,
    "Ġkiller": 19570,
    "Ġrejoinder": 24600,
    "Ġpermit": 9753,
    "inexplicable": 25811,
    "Ġsubstance": 5510,
    "Ġostr": 21328,
    "Ġmillion": 14991,
    "anger": 2170,
    "spouting": 25003,
    "Ġtiresome": 26158,
    "Ġembedding": 2102,
    "rob": 5534,
    "unaccountable": 15783,
    "Ġoccurrences": 11052,
    "crazy": 24691,
    "Ġcaution": 11348,
    "hatch": 15368,
    "Ġdominion": 16516,
    "Ġliked": 5265,
    "Ġrainy": 24343,
    "Ġwakeful": 24271,
    "Ġuplifted": 11651,
    "ittance": 12851,
    "Ġodious": 12155,
    "Ġcomplex": 745,
    "Ġhabitation": 14807,
    "Ġsmote": 18577,
    "Ġconcocted": 26301,
    "ted": 790,
    "narrow": 11511,
    "agon": 7870,
    "Ġreco": 9794,
    "Ġplace": 1652,
    "Ġscanning": 18401,
    "fortunes": 6332,
    "Ġframework": 2016,
    "Ġstern": 4225,
    "Ġlodge": 5779,
    "Ġhussey": 7724,
    "amples": 1823,
    "ixed": 4854,
    "Ġagreement": 18543,
    "Ġslammed": 20450,
    "Ġspots": 11734,
    "mbl": 5946,
    "Ġjetted": 24433,
    "Ġpopularly": 12246,
    "Ġgenus": 24431,
    "quently": 9706,
    "Ġbuoy": 8003,
    "plain": 1361,
    "Ġjourneys": 19478,
    "Ġmassacre": 20550,
    "recollect": 17226,
    "icles": 17977,
    "bies": 15316,
    "learning": 2474,
    "uge": 4016,
    "Ġexe": 3993,
    "Ġrepublic": 14533,
    "ents": 1897,
    "Ġstructures": 2722,
    "nearly": 8684,
    "ferent": 4196,
    "ause": 1313,
    "Ġdante": 21441,
    "ě": 220,
    "invite": 25091,
    "os": 523,
    "excepting": 19708,
    "odd": 21813,
    "Ġtasselled": 25923,
    "ospel": 17012,
    "passing": 14816,
    "ksome": 10108,
    "Ġcondition": 6764,
    "Ġtissu": 25922,
    "Ġgain": 4830,
    "Ġvalidate": 2707,
    "antingly": 22102,
    "Ġshepherd": 14156,
    "Ġvia": 2380,
    "ĠĠĠĠĠĠ": 6413,
    "Ġknows": 4161,
    "Ġactivity": 7919,
    "B": 38,
    "secre": 18132,
    "curiosity": 8627,
    "Ġmoist": 9288,
    "backs": 9392,
    "Ġswallow": 8953,
    "mown": 20972,
    "bright": 8992,
    "nantucketer": 24975,
    "resolved": 9642,
    "Ġwhites": 21720,
    "contrast": 25596,
    "Ġair": 1836,
    "Ġpondered": 15171,
    "Ġcoppers": 22590,
    "Ġarchipelagoes": 14354,
    "Ġincrust": 22556,
    "scythes": 26405,
    "anged": 3587,
    "Ġscientific": 6856,
    "ui": 9147,
    "typewritten": 26040,
    "etency": 21585,
    "Ġnimble": 21531,
    "Ġshocks": 16459,
    "Ġenjoyments": 24023,
    "asher": 15650,
    "unwillingly": 21889,
    "Ġeasier": 11168,
    "ancho": 4939,
    "sis": 1808,
    "Ġcontributed": 16013,
    "fellows": 12278,
    "osoever": 17346,
    "Ġcontrive": 16014,
    "lead": 10169,
    "Ġacquit": 18899,
    "Ġreject": 7384,
    "lydon": 13992,
    "enial": 17784,
    "Ġrosings": 4609,
    "abashed": 21796,
    "centred": 25020,
    "perch": 18337,
    "cher": 5786,
    "Ġinnocence": 6476,
    "umb": 3405,
    "Ġliterary": 25166,
    "Ġrevol": 5537,
    "answers": 22155,
    "Ġswan": 23056,
    "Ġmonsters": 11076,
    "crossing": 19414,
    "Ġfold": 5531,
    "precise": 19354,
    "alogies": 25162,
    "Ġhabits": 6925,
    "ª": 108,
    "iner": 2671,
    "dr": 6222,
    "Ġbarriers": 23798,
    "Ġjoyfully": 19349,
    "Ġhump": 5855,
    "Ġcaught": 3730,
    "hat": 6955,
    "Ġwished": 3729,
    "Ġgirls": 4280,
    "iries": 18174,
    "accident": 11185,
    "study": 15122,
    "Ġhousekeeping": 18946,
    "Ġreached": 4022,
    "robotics": 11310,
    "dening": 22784,
    "Ġacknowledged": 7532,
    "eze": 20849,
    "gentleman": 7516,
    "Ġphrenolog": 12338,
    "Ġpursuers": 13231,
    "Ġnoon": 6559,
    "Ġfails": 13318,
    "Ġmish": 15541,
    "Ġepis": 19984,
    "Ġescapes": 23511,
    "Ġunattended": 15847,
    "discovering": 24256,
    "Ġimprudent": 12853,
    "Þ": 159,
    "waters": 11336,
    "Ġfainting": 16899,
    "Ġsunny": 13090,
    "icking": 8914,
    "Ġ119": 24443,
    "Ġsquat": 14372,
    "behaviour": 11305,
    "Ġlords": 14644,
    "Ġquaint": 18466,
    "Ġdebts": 8035,
    "Ġfirmament": 19474,
    "Ġpropri": 6739,
    "Ġharm": 5018,
    "Ġcynical": 25772,
    "Ġpile": 8424,
    "protruding": 24813,
    "onden": 13847,
    "Ġitaly": 10870,
    "epend": 3317,
    "Ġgrudge": 20696,
    "care": 4930,
    "gain": 8740,
    "_âĢĿ": 20763,
    "Ġhoisted": 5960,
    "Ġtemptations": 24510,
    "Ġmediocrity": 26611,
    "Ġredu": 1356,
    "eight": 9594,
    "Ġwool": 19436,
    "Ġrubbing": 9324,
    "please": 8176,
    "Ġappropriate": 2247,
    "Ġholder": 6725,
    "descried": 11934,
    "event": 8076,
    "Ġfet": 5808,
    "Ġexcitement": 9383,
    "ċ": 204,
    "fo": 5279,
    "Ġtendency": 11332,
    "bald": 16446,
    "Ġripples": 25507,
    "algorithm": 3724,
    "Ġurging": 24507,
    "Ġgreatly": 5851,
    "probable": 17023,
    "Ġdistance": 3483,
    "Ġabruptly": 15155,
    "Ġconsoled": 18117,
    "Ġivory": 4478,
    "diss": 17525,
    "Ġreliance": 14389,
    "arches": 10819,
    "alo": 7586,
    "prodig": 16429,
    "Ġboneless": 19607,
    "bearded": 18523,
    "Ġtiles": 17729,
    "Ġri": 3397,
    "Ġpolice": 4676,
    "Ġve": 1107,
    "Ġpunctually": 17141,
    "Ġbelfry": 26441,
    "Ġopenness": 18958,
    "Ġspermacetti": 19052,
    "Ġkirwin": 8498,
    "Ġorgan": 2501,
    "promising": 24724,
    "Ġbracelets": 25504,
    ".âĢĻ": 1716,
    "Ġvigorously": 11303,
    "antages": 7190,
    "urrection": 12413,
    "ux": 7812,
    "oubted": 5861,
    "Ġcandelabra": 26605,
    "Ġhap": 18198,
    "plutarch": 21962,
    "lu": 595,
    "ines": 673,
    "Ġcontempt": 6276,
    "Ġdeline": 16334,
    "Ġphysical": 7520,
    "ierce": 14395,
    "ve": 322,
    "steel": 8298,
    "Ġmour": 6973,
    "Ġfrighted": 24034,
    "indifferent": 14212,
    "Ġacceded": 22381,
    "Ġassiduous": 26295,
    "cried": 8728,
    "Ġ6": 5142,
    "Ġgl": 1256,
    "Ġclaret": 22365,
    "Ġsoothing": 8172,
    "Ġshoulder": 5849,
    "Ġunfathomably": 25875,
    "Ġpsychology": 11451,
    "hurry": 24762,
    "fortune": 4976,
    "Ġinferences": 17939,
    "highly": 24763,
    "aren": 10078,
    "appear": 13200,
    "Ġprognost": 15285,
    "Ġpreternatural": 12828,
    "Ġreach": 4046,
    "offer": 19064,
    "gris": 8259,
    "Ġeffemin": 18519,
    "Ġpartake": 18671,
    "Ġroll": 5381,
    "pervading": 18973,
    "Ġsan": 7823,
    "Ġquivering": 12863,
    "wic": 21123,
    "Ġrecip": 16145,
    "Ġhinge": 25543,
    "Ġremind": 6058,
    "ogue": 9788,
    "Ġbamboo": 17440,
    "rr": 17652,
    "Ġpallid": 12303,
    "rah": 8136,
    "Ġdiffused": 12073,
    "inced": 3338,
    "Ġgrunted": 16173,
    "arranted": 19322,
    "cloud": 11108,
    "Ġwandered": 6929,
    "Ġming": 9648,
    "Ġuneasily": 24235,
    "Ġmuslin": 19386,
    "Ġundeviating": 15222,
    "Ġindividuality": 14913,
    "ol": 363,
    "less": 928,
    "Ġcalifornia": 20533,
    "umberland": 16839,
    "Ġvigour": 24464,
    "Ġbecher": 18880,
    "Ġcuba": 25098,
    "bourine": 9398,
    "kovoko": 20672,
    "Ġinjuries": 11281,
    "Ġposs": 1614,
    "whaleman": 23440,
    "Ġschooner": 16749,
    "Ġshaken": 10268,
    "Ġcompression": 18149,
    "Ġcheever": 23287,
    "Ġrepulses": 26072,
    "ientiously": 21937,
    "Ġpromises": 10404,
    "bation": 9106,
    "gratulation": 24351,
    "Ġreturns": 11931,
    "pe": 1439,
    "Ġgoverness": 8604,
    "ipotent": 10963,
    "Ġhumiliation": 16202,
    "Ġdeclaration": 16639,
    "Ġillustrations": 17109,
    "Ġhistories": 14690,
    "fury": 17549,
    "wedged": 24561,
    "familiar": 19784,
    "Ġmines": 21311,
    "irted": 14075,
    "Ġfather": 1453,
    "dear": 6555,
    "ateur": 22011,
    "Ġintimately": 24801,
    "Ġdischarged": 15225,
    "fam": 5989,
    "Ġtalker": 23374,
    "Ġunrolled": 22042,
    "atement": 17777,
    "presbyterian": 26371,
    "Ġireland": 17338,
    "eryton": 4093,
    "Ġpeas": 8534,
    "Ġfade": 21410,
    "Ġlashed": 9201,
    "waistcoat": 17364,
    "Ġceremonies": 24837,
    "slee": 17171,
    "Ġexistence": 4707,
    "ailed": 3249,
    "Ġor": 437,
    "Ġexcavating": 23320,
    "Ġtid": 8106,
    "rated": 6228,
    "ances": 1338,
    "trivial": 21095,
    "Ġirresistible": 13117,
    "shavings": 22468,
    "Ġmoonshine": 19599,
    "Ġme": 352,
    "regarded": 12012,
    "Ġnieces": 8433,
    "Ġwhist": 6022,
    "made": 4810,
    "Ġransacked": 26507,
    "Ġlevels": 12701,
    "sink": 11525,
    "Ġsmoked": 10326,
    "Ġterror": 5124,
    "Ġqualifications": 24677,
    "arrang": 14655,
    "Ġmechanically": 14402,
    "Ġunrestingly": 20363,
    "housekeeping": 24106,
    "Ġincident": 6281,
    "gladness": 25195,
    "Ġlong": 795,
    "ickory": 22673,
    "cordiality": 25140,
    "Ġtherein": 11780,
    "tempt": 21082,
    "Ġbordeaux": 24567,
    "Ġtakings": 20575,
    "Ġyour": 634,
    "tural": 21069,
    "had": 1949,
    "Ġmarlings": 23041,
    "struck": 7861,
    "onde": 21254,
    "posture": 16929,
    "Ġalb": 14019,
    "bishop": 13698,
    "20": 20755,
    "Ġwell": 901,
    "Ġrapture": 13498,
    "Ġnamed": 6140,
    "loom": 18539,
    "Ġnurtured": 19751,
    "streets": 13399,
    "Ġdramat": 23219,
    "Ġmorbidness": 20631,
    "Ġindiscreet": 22963,
    "Ġblight": 18819,
    "duing": 22416,
    "arming": 8954,
    "Ġdumplings": 15195,
    "whalebone": 19120,
    "ordered": 8794,
    "application": 12367,
    "Ġdomain": 3305,
    "ascal": 10196,
    "Ġfow": 6134,
    "befriend": 22498,
    "aneous": 7238,
    "innocence": 15188,
    "supplied": 10523,
    "user": 5106,
    "utter": 7592,
    "wa": 5898,
    "Ġcloudless": 16671,
    "smooth": 20250,
    "Ġkentuck": 19892,
    "actorily": 25577,
    "Ġsunwards": 19012,
    "lively": 12489,
    "grace": 5847,
    "oup": 2014,
    "eked": 16405,
    "isons": 17853,
    "Ġidiot": 11976,
    "illum": 15873,
    "host": 5869,
    "Ġdoubt": 2221,
    "Ġagitation": 6864,
    "miraculous": 26399,
    "happening": 16567,
    "Ġtried": 3647,
    "Ġslashing": 23176,
    "rie": 2789,
    "Ġdrawling": 19440,
    "Ġancestry": 25643,
    "Ġjerked": 19834,
    "Ġvesture": 20064,
    "Ġindispensable": 11907,
    "asked": 8915,
    "niece": 20997,
    "web": 18665,
    "visits": 24228,
    "Ġdecipher": 22451,
    "regular": 3041,
    "surrounded": 26090,
    "odiac": 14031,
    "Ġcoburg": 18600,
    "alse": 4187,
    "Ġblossom": 26314,
    "robustness": 26341,
    "Ġbelieving": 8224,
    "gryphon": 15362,
    "ĠĠĠĠĠĠĠĠĠĠĠĠĠĠĠĠĠĠĠĠĠĠĠĠĠĠĠĠĠĠĠĠĠĠĠĠĠĠ": 16528,
    "Ġunworth": 22040,
    "Ġbir": 17857,
    "Ġcard": 7361,
    "Ġdundee": 16999,
    "ige": 12685,
    "Ġfulfilled": 11365,
    "Ġprecipice": 19943,
    "Ġbag": 5699,
    "Ġpreceding": 7526,
    "leads": 21373,
    "shut": 10983,
    "llable": 6877,
    "Ġpup": 12624,
    "Ġsolve": 4198,
    "piling": 15418,
    "Ġrewarding": 13441,
    "ef": 5135,
    "Ġstalk": 12703,
    "Ġchemistry": 11463,
    "iogn": 20923,
    "feared": 11808,
    "elope": 14471,
    "illity": 18298,
    "ivable": 10913,
    "Ġniece": 5712,
    "Ġextend": 18682,
    "Ġenormous": 5609,
    "Ġdiabolism": 25516,
    "fold": 7544,
    "Ġsurrounding": 12167,
    "owners": 16091,
    "Ġallusion": 7625,
    "giv": 13725,
    "Ġcomo": 21846,
    "rubbery": 17345,
    "Ġlocking": 18300,
    "Ġobtained": 7430,
    "culous": 11143,
    "bbing": 6323,
    "ilted": 21726,
    "Ġglobules": 26591,
    "Ġoath": 7832,
    "tell": 1386,
    "err": 1139,
    "Ġinsens": 8276,
    "Ġatlantic": 7000,
    "Ġbug": 11593,
    "Ġgunwale": 7323,
    "Ġbuoyancy": 20044,
    "Ġ235": 25713,
    "Ġmo": 629,
    "Ġesteem": 7529,
    "Ġquantization": 19854,
    "Ġvolcano": 24152,
    "rown": 2191,
    "Ġsp": 457,
    "Ġmace": 21312,
    "beef": 18524,
    "Ġoverboard": 6043,
    "Ġbehaved": 13257,
    "ria": 15801,
    "Ġimmense": 4953,
    "mention": 7212,
    "gratitude": 16818,
    "Ġcomprises": 22578,
    "shaven": 18497,
    "g": 75,
    "ps": 4576,
    "Ġshoes": 7071,
    "ernal": 4311,
    "Ġspaces": 3110,
    "scotch": 25853,
    "ĠâĢľ_": 6697,
    "Ġdip": 13910,
    "Ġfrontispiece": 23919,
    "Ġensuring": 11196,
    "Ġmatlock": 18802,
    "Ġwilson": 6631,
    "ogne": 12944,
    "Ġunsupervised": 2551,
    "fallen": 19661,
    "Ġmoccas": 22441,
    "anke": 15565,
    "Ġunnatural": 7188,
    "Ġwash": 9707,
    "Ġfavourable": 7958,
    "Ġtambourine": 9566,
    "Ġexotic": 21835,
    "accompan": 11455,
    "Ġthrill": 24543,
    "fortnight": 13091,
    "uries": 6148,
    "Ġprocedure": 2811,
    "Ġwol": 15533,
    "oped": 6047,
    "Ġsubmission": 22794,
    "hend": 13256,
    "orters": 21404,
    "Ġsuck": 15866,
    "nostr": 22720,
    "rically": 15420,
    "Ġpint": 17914,
    "Ġdecidedly": 9511,
    "air": 1004,
    "Ġcomp": 725,
    "Ġbermud": 26442,
    "Ġgrip": 11631,
    "Ġobedience": 11416,
    "Ġfilling": 13412,
    "Ġ131": 24781,
    "Ġlanguages": 1569,
    "icient": 775,
    "Ġaround": 3610,
    "sy": 2709,
    "syntax": 5868,
    "Ġproble": 1110,
    "expressing": 16803,
    "Ġeuroclydon": 15300,
    "Ġreduce": 7942,
    "Ġflee": 7079,
    "indust": 18436,
    "Ġutil": 4674,
    "Ġgu": 1329,
    "venison": 22630,
    "inea": 7623,
    "ĠâĢĶâĢĶ": 25759,
    "Ġrusty": 14967,
    "Ġshallow": 14398,
    "Ġten": 2384,
    "iferous": 17294,
    "hearth": 15502,
    "Ġcastle": 14721,
    "Ġconsp": 10228,
    "sol": 1789,
    "Ġsplendour": 20226,
    "Ġdegrees": 7292,
    "Ġthoughtless": 16196,
    "apping": 5853,
    "surface": 10534,
    "flour": 23971,
    "Ġpropag": 16350,
    "varieties": 23192,
    "mming": 1172,
    "Ġoccupy": 14735,
    "Ġredress": 23756,
    "Ġglimmering": 25241,
    "Ġparallelization": 3432,
    "bler": 11475,
    "Ġbuilt": 8300,
    "Ġbloom": 9892,
    "eks": 4729,
    "Ġare": 526,
    "dest": 4103,
    "Ġforbearing": 25101,
    "signs": 16541,
    "Ġ38": 24083,
    "past": 8089,
    "Ġchasing": 11759,
    "<EOS>": 2,
    "Ġprivate": 5346,
    "inary": 3275,
    "itations": 17821,
    "downstairs": 23925,
    "Ġsarat": 21230,
    "nels": 12500,
    "fat": 8078,
    "esley": 17906,
    "Ġhollow": 5648,
    "congratulations": 20281,
    "umbling": 6613,
    "networks": 2402,
    "renew": 24452,
    "Ġeasiest": 23541,
    "Ġperches": 18450,
    "Ġheathenish": 13620,
    "Ġceler": 15555,
    "Ġzodiac": 16179,
    "Ġtrampled": 20330,
    "Ġhumility": 12990,
    "d": 72,
    "Ġrecess": 10850,
    "urs": 6989,
    "Ġpope": 11606,
    "Ġvirtuous": 14759,
    "Ġbriskly": 25313,
    "Ġperishing": 22402,
    "Ġplaymate": 23641,
    "ogr": 18674,
    "Ġslaughtered": 26587,
    "Ġquitted": 5312,
    "Ġmasoned": 20253,
    "Ġundertaken": 18987,
    "Ġworshipper": 25694,
    "youngest": 19745,
    "reflection": 13459,
    "atiable": 17778,
    "Ġmeasurement": 19426,
    "contemplated": 20460,
    "necessity": 13372,
    "Ġcoming": 2616,
    "perquisites": 26533,
    "Ġunwarranted": 24831,
    "chest": 11212,
    "Ġsolar": 22890,
    "suspect": 9542,
    "arks": 2845,
    "Ġrobbery": 11923,
    "murderers": 25729,
    "Ġmilky": 9951,
    "Ġconstrued": 26303,
    "heartily": 24220,
    "matical": 13132,
    "Ġpassive": 22846,
    "Ġslaught": 23174,
    "Ġquicker": 16510,
    "uberance": 25918,
    "Ġsubstituting": 26329,
    "desol": 13222,
    "Ġyon": 9697,
    "Ġgaiters": 20463,
    "discoloured": 23502,
    "Ġmourning": 13482,
    "Ġrepresent": 1211,
    "heric": 15916,
    "Ġhabitations": 24788,
    "lur": 13750,
    "Ġcoloss": 11047,
    "hyp": 15370,
    "Ġner": 1646,
    "destruction": 11259,
    "Ġap": 5009,
    "Ġassistance": 6333,
    "gloomy": 25147,
    "incidentally": 20542,
    "poling": 12224,
    "think": 3608,
    "Ġalbertus": 25650,
    "Ġinterrupt": 4359,
    "Ġcontinent": 14892,
    "Ġcent": 3255,
    "ective": 18179,
    "Ġopp": 2696,
    "û": 188,
    "Ġneskye": 21534,
    "excited": 13384,
    "rigging": 20008,
    "Ġjanuary": 13657,
    "Ġhandwriting": 14323,
    "Ġungovernable": 20711,
    "medi": 2626,
    "Ġconclusion": 5986,
    "rary": 4577,
    "steam": 23965,
    "Ġcanv": 7010,
    "Ġbeam": 2880,
    "erately": 21276,
    "Ġnortheast": 23208,
    "Ġbeats": 21756,
    "Ġstaves": 21745,
    "Ġishmael": 7393,
    "Ġdesponding": 25870,
    "ena": 11572,
    "Ġnewly": 9341,
    "Ġapartments": 19616,
    "giving": 8742,
    "Ġwr": 1546,
    "Ġexplo": 2284,
    "othic": 16219,
    "Ġsqualls": 17022,
    "Ġcognitive": 13638,
    "Ġfiss": 21415,
    "moon": 10339,
    "mangled": 20983,
    "Ġcheek": 8578,
    "induce": 22379,
    "oes": 4433,
    "Ġarguments": 8036,
    "izings": 14054,
    "block": 11473,
    "utted": 15665,
    "Ġtanning": 17732,
    "singular": 12193,
    "Ġsole": 3298,
    "omy": 6249,
    "ene": 2167,
    "phia": 22771,
    "cial": 2648,
    "achus": 18285,
    "summit": 23421,
    "master": 5687,
    "Ġcircumvent": 25067,
    "Ġshrouds": 11346,
    "barrow": 15324,
    "Ġimpropriety": 17398,
    "Ġentry": 11028,
    "Ġtoiled": 12647,
    "Ġcynicism": 25773,
    "Ġveteran": 17453,
    "unders": 13315,
    "acetty": 24466,
    "latitude": 25260,
    "Ġunprinciple": 18257,
    "Ġmeridians": 17358,
    "Ġwaited": 4913,
    "Ġsuspending": 19246,
    "Ġpetticoat": 15299,
    "impenetrable": 26199,
    "Ġkidn": 20207,
    "laughing": 15184,
    "Ġprodigies": 19794,
    "ileries": 18063,
    "Ġberth": 8683,
    "Ġwes": 8783,
    "Ġforg": 3787,
    "ral": 4629,
    "000": 2559,
    "Ġunknown": 4453,
    "Ġcontact": 9284,
    "post": 6062,
    "Ġclimbing": 20072,
    "Ġravines": 25833,
    "injustice": 17741,
    "Ġcomrade": 11682,
    "Ġstacked": 21750,
    "Ġapoplexy": 25266,
    "Ġincome": 7916,
    "Ġthirty": 4945,
    "Ġkrempe": 10673,
    "kings": 17585,
    "Ġvulgarity": 25365,
    "Ġplu": 8803,
    "engaged": 7450,
    "balls": 12309,
    "speaking": 12103,
    "is": 280,
    "ah": 1834,
    "ouch": 2783,
    "bout": 20775,
    "Ġcoll": 8220,
    "Ġcoff": 3508,
    "Ġphilips": 5410,
    "Ġsleepers": 13153,
    "Ġii": 7383,
    "Ġgamb": 18002,
    "Ġon": 351,
    "Ġenigmatical": 20600,
    "Ġcocoan": 20318,
    "Ġidentity": 2521,
    "ap": 547,
    "Ġenjoyment": 7298,
    "angular": 11728,
    "tackles": 25626,
    "Ġwinds": 5746,
    "Ġwrig": 13073,
    "walked": 10574,
    "support": 9471,
    "othed": 16513,
    "Ġdismally": 20216,
    "Ġamelia": 26253,
    "Ġtowering": 16741,
    "Ġklan": 23666,
    "vil": 2734,
    "Ġterrors": 6917,
    "Ġplush": 18611,
    "oology": 21008,
    "Ġprocesses": 3632,
    "Ġnext": 2136,
    "Ġpredecessor": 26256,
    "Ġrealising": 18983,
    "ortunity": 4403,
    "Ġlaud": 17972,
    "over": 1846,
    "Ġtwisting": 18659,
    "Ġrapidly": 3083,
    "despicable": 24639,
    "bottle": 20147,
    "Ġpersuasion": 10502,
    "Ġdist": 680,
    "character": 6331,
    "Ġcities": 17831,
    "æ": 167,
    "responsible": 25765,
    "Ġremarking": 13128,
    "sutherland": 21065,
    "Ġvoyagings": 19237,
    "ask": 855,
    "ething": 1600,
    "Ġderive": 10398,
    "Ġflight": 6582,
    "Ġquar": 3112,
    "Ġtransitory": 16022,
    "omas": 12676,
    "Ġmead": 8840,
    "Ġinsepar": 17938,
    "Ġstruct": 787,
    "Ġought": 3421,
    "burst": 10541,
    "Ġconfusing": 23312,
    "Ġflo": 2588,
    "nesday": 8706,
    "innocent": 20288,
    "Ġharpoons": 5659,
    "Ġopenly": 8574,
    "start": 7597,
    "ouement": 21451,
    "etian": 13962,
    "Ġmanxman": 9567,
    "Ġjoint": 12038,
    "Ġacross": 1331,
    "Ġclassify": 1626,
    "Ġliberated": 19668,
    "Ġdesert": 6728,
    "Ġpossessor": 23828,
    "Ġpom": 21455,
    "Ġsummers": 23878,
    "planted": 11701,
    "inity": 5693,
    "Ġcordage": 19680,
    "Ġbecause": 2208,
    "Ġrenow": 18032,
    "Ġgilder": 21616,
    ",âĢĿâĢĶ": 14224,
    "Ġlocks": 11729,
    "Ġpositively": 13036,
    "homely": 25619,
    "equally": 19900,
    "aling": 1037,
    "lipped": 16220,
    "Ġpluck": 15618,
    "utely": 8131,
    "Ġunav": 18243,
    "Ġwho": 611,
    "nne": 20991,
    "Ġtrack": 7448,
    "Ġed": 2239,
    "Ġcostume": 16497,
    "white": 4604,
    "ises": 3653,
    "Ġdetection": 3487,
    "tomorrow": 25916,
    "Ġyork": 11669,
    "Ġlighted": 7063,
    "nephew": 26400,
    "Ġappalled": 22226,
    "Ġstir": 5826,
    "Ġcan": 469,
    "Ġblasphemer": 26118,
    "testing": 12521,
    "Ġtow": 4395,
    "Ġpeaks": 16132,
    "Ġembarks": 22951,
    "pull": 6796,
    "ping": 9618,
    "Ġgeneralize": 3099,
    "Ġlibr": 16005,
    "Ġhopeless": 7460,
    "Ġlard": 13950,
    "Ġcommis": 22675,
    "projecting": 26075,
    "Ġclim": 8196,
    "Ġdismember": 20217,
    "happiness": 6468,
    "endured": 22230,
    "Ġjeopard": 9947,
    "Ġtaste": 5524,
    "attachment": 13057,
    "reserve": 17769,
    "Ġeng": 1162,
    "Ġunprepared": 22054,
    "Ġhindoo": 17178,
    "bad": 12440,
    "Ġuseless": 7037,
    "Ġtravell": 5576,
    "Ġbiscuit": 12594,
    "Ġboiling": 8526,
    "Ġpropriety": 10014,
    "Ġrestricted": 19027,
    "outward": 22165,
    "Ġflickering": 23020,
    "propriety": 14371,
    "Ġadd": 630,
    "Ġslight": 3119,
    "lights": 13209,
    "Ġdispute": 16060,
    "asmuch": 10198,
    "Ġchristians": 13313,
    "tale": 10131,
    "Ġresid": 22543,
    "ables": 7890,
    "Ġdeg": 3282,
    "Ġintricacies": 15143,
    "Ġde": 364,
    "Ġknowingly": 18481,
    "wag": 21126,
    "awful": 23123,
    "triumph": 15443,
    "Ġoverseeing": 22355,
    "postp": 24636,
    "town": 7142,
    "winds": 10525,
    "Ġservice": 6470,
    "solving": 3098,
    "hoped": 20912,
    "although": 8810,
    "Ġesquimaux": 25154,
    "Ġsleep": 2397,
    "tahit": 17695,
    "Ġstrife": 18614,
    "Ġbu": 3681,
    "zes": 11552,
    "Ġfailing": 12142,
    "Ġbalmy": 22907,
    "Ġlucifers": 16590,
    "Ġinferred": 14502,
    "Ġsplintered": 11421,
    "Ġquest": 2001,
    "Ġsavannah": 17419,
    "Ġmended": 21316,
    "Ġmogul": 12867,
    "Ġcomprehension": 15091,
    "frequent": 15357,
    "awake": 14456,
    "Ġbrighter": 16191,
    "Ġboarding": 12091,
    "ivities": 22081,
    "gay": 11492,
    "Ġreaching": 7301,
    "Ġaghast": 16051,
    "Ġcoron": 4464,
    "Ġgulp": 20031,
    "Ġformless": 22833,
    "Ġwestward": 24391,
    "these": 3244,
    "Ġstreams": 12197,
    "know": 2315,
    "iously": 2677,
    "Ġvacant": 9497,
    "cient": 4571,
    "Ġconnivance": 25226,
    "bounded": 13443,
    "Ġbigger": 19763,
    "Ġhired": 10181,
    "a": 69,
    "ingham": 21303,
    "Ġdomin": 10463,
    "ô": 181,
    "Ġhenry": 5197,
    "Ġlonely": 6822,
    "artic": 14228,
    "Ġaye": 3355,
    "awed": 10395,
    ")": 13,
    "hed": 671,
    "respect": 6373,
    "quet": 6834,
    "Ġpennies": 17273,
    "Ġpressing": 9264,
    "Ġunlike": 7005,
    "Ġelephant": 8255,
    "penetrating": 25492,
    "wins": 21132,
    "io": 3801,
    "Ġvirgin": 7326,
    "dun": 17518,
    "Ġpowder": 11279,
    "Ġbulkhead": 24513,
    "resc": 21241,
    "Ġundiscernible": 22072,
    "ublic": 11231,
    "embraced": 25806,
    "Ġglen": 18854,
    "Ġproprietors": 20188,
    "Ġinvisible": 7325,
    "Ġcalendar": 18878,
    "Ġcorrespondence": 10598,
    "Ġexcursion": 26592,
    "Ġtalent": 12301,
    "Ġlatent": 19657,
    "Ġfork": 15736,
    "Ġrags": 18637,
    "Ġcom": 367,
    "Ġspokes": 18314,
    "occupation": 15060,
    "Ġrationally": 18216,
    "endure": 22228,
    "Ġsto": 1500,
    "Ġsuccess": 3609,
    "Ġtidings": 11400,
    "gabriel": 15364,
    "ornamented": 26598,
    "pay": 10721,
    "vered": 4832,
    "Ġlucas": 3831,
    "Ġblacks": 23391,
    "none": 6961,
    "ñ": 178,
    "Ġ43": 14774,
    "Ġgouldings": 26190,
    "Ġstaircase": 20098,
    "hap": 17561,
    "Ġseam": 3907,
    "Ġdair": 17893,
    "Ġfeat": 10940,
    "inting": 9818,
    "Ġepic": 15033,
    "itting": 1150,
    "Ġinsertion": 26346,
    "Ġinfinite": 8577,
    "mccarthy": 15398,
    "Ġunhappy": 5640,
    "Ġcompassionate": 24721,
    "Ġmemorand": 23463,
    "Ġcran": 12005,
    "Ġbolivia": 24669,
    "Ġfrightful": 7735,
    "Ġshuddering": 9054,
    "Ġperuvian": 18454,
    "caterpillar": 26386,
    "Ġnaturalist": 22898,
    "Ġvortex": 26211,
    "led": 581,
    "Ġglancing": 5399,
    "ucy": 15447,
    "Ġselfish": 7270,
    "agatha": 21913,
    "idated": 11665,
    "Ġpush": 9187,
    "Ġminimizing": 3465,
    "5": 25,
    "Ġportra": 9012,
    "Ġthickening": 24029,
    "Ġstrand": 11833,
    "Ġoverwhelming": 17103,
    "Ġfinanc": 23135,
    "scorn": 22996,
    "spirits": 8054,
    "northern": 23671,
    "pardonable": 17220,
    "Ġabrid": 22277,
    "moored": 22711,
    "Ġtrappers": 23087,
    "eer": 15351,
    "Ġpious": 11603,
    "blue": 13697,
    "pur": 7805,
    "Ġtrace": 6182,
    "Ġrucastles": 18721,
    "maritime": 24177,
    ",": 16,
    "Ġuttering": 16464,
    "Ġcomplaisance": 19452,
    "uy": 21102,
    "Ġlectures": 17181,
    "Ġdome": 15593,
    "headsman": 16699,
    "onness": 21257,
    "Ġsatiated": 22905,
    "Ġdrag": 6185,
    "raining": 517,
    "dorff": 15241,
    "boilers": 26299,
    "Ġlot": 6679,
    "Ġtangled": 13830,
    "Ġtowed": 11269,
    "Ġcombing": 22855,
    "Ġcrash": 12006,
    "Ġpikes": 21481,
    "Ġarriving": 19219,
    "Ġforbade": 15219,
    "Ġserenity": 10032,
    "Ġannihilated": 20254,
    "floated": 24645,
    "Ġsne": 6371,
    "Ġwithin": 2160,
    "darkness": 9514,
    "Ġrascal": 11705,
    "Ġresponded": 13642,
    "Ġ8": 5433,
    "Ġopened": 3513,
    "Ġdough": 8421,
    "terrible": 8467,
    "4": 24,
    "condite": 23251,
    "inkers": 22619,
    "Ġscare": 18398,
    "Ġsentiment": 6590,
    "dressing": 11485,
    "Ġscolded": 25474,
    "Ġchallenge": 25473,
    "Ġhelplessly": 20080,
    "Ġprincipal": 6495,
    "relation": 19450,
    "Ġcandelab": 23854,
    "Ġtells": 9364,
    "hypothe": 25907,
    "Ġwall": 3841,
    "Ġcolt": 11045,
    "land": 1534,
    "Ġreiter": 21669,
    "entiating": 3439,
    "Ġpeople": 2542,
    "Ġtrampling": 25494,
    "Ġunluckily": 20104,
    "Ġbehaviors": 13258,
    "acknowledge": 18469,
    "Ġlands": 6595,
    "Ġattacking": 24467,
    "Ġpedestrian": 25885,
    "Ġones": 3020,
    "Ġenglishman": 11233,
    "ulgences": 21869,
    "Ġcurly": 18843,
    "Ġjonas": 20612,
    "aulets": 18621,
    "americ": 8155,
    "paused": 17377,
    "lands": 8240,
    "Ġcalam": 13039,
    "appl": 9329,
    "Ġhorizontally": 17014,
    "Ġwidest": 24239,
    "Ġscaled": 2104,
    "aet": 15311,
    "chor": 6147,
    "poison": 14396,
    "Ġmingling": 20199,
    "Ġabstra": 22276,
    "Ġfashioned": 13324,
    "Ġnarrated": 14875,
    "Ġobjecting": 18898,
    "wise": 2574,
    "Ġprocedures": 9414,
    "Ġresol": 2666,
    "anzas": 17844,
    "oded": 11673,
    "chooses": 23678,
    "langu": 4809,
    "Ġattributed": 11842,
    "Ġforgetting": 3436,
    "geneva": 13733,
    "expense": 22434,
    "figure": 13559,
    "Ġstat": 1491,
    "idered": 4555,
    "Ġfishers": 19357,
    "Ġroast": 18457,
    "staking": 21651,
    "Ġyoun": 1411,
    "spee": 9320,
    "mme": 22506,
    "Ġcalifornian": 25854,
    "Ġcongregational": 25105,
    "Ġfearlessness": 19163,
    "Ġhanding": 16134,
    "itancy": 21336,
    "ittingly": 18805,
    "Ġseizing": 7878,
    "Ġmightiest": 12966,
    "Ġarrant": 23301,
    "welcome": 10005,
    "Ġmaritime": 23043,
    "orers": 14106,
    "Ġanomaly": 25638,
    "ix": 1799,
    "Ġwhirlpool": 20657,
    "supplement": 14801,
    "servants": 15041,
    "Ġtopic": 9408,
    "Ġepo": 21622,
    "sooner": 14782,
    "Ġattorney": 18629,
    "anite": 17841,
    "Ġleft": 1757,
    "Ġnameless": 7699,
    "Ġsacri": 18329,
    "test": 13795,
    "underneath": 23792,
    "pract": 10123,
    "mounting": 25208,
    "Ġcost": 2504,
    "imprudence": 16560,
    "Ġtail": 3088,
    "Ġchamp": 18382,
    "confirm": 16809,
    "prevailed": 17348,
    "suitableness": 26263,
    "ifully": 13188,
    "Ġworry": 18817,
    "ler": 3492,
    "transp": 24514,
    "courageous": 26129,
    "Ġheron": 22077,
    "Ġtypically": 1538,
    "Ġbec": 1349,
    "Ġcode": 1718,
    "Ġunanswerable": 26524,
    "Ġmanhandle": 22335,
    "van": 7813,
    "seals": 21822,
    "Ġbells": 19603,
    "Ġsquaw": 22844,
    "Ġchosen": 7199,
    "reproach": 15191,
    "Ġplunging": 14956,
    "Ġ121": 24468,
    "Ġattack": 5478,
    "Ġbesides": 3514,
    "Ġgrapple": 25813,
    "Ġsinging": 7723,
    "Ġcarpet": 9359,
    "Ġoaths": 13527,
    "Ġwarmest": 16486,
    "alous": 7370,
    "bingley": 4929,
    "Ġimmutable": 17361,
    "Ġenh": 3134,
    "Ġsprang": 5065,
    "Ġnarwhales": 24903,
    "gratification": 24350,
    "Ġbuildings": 24718,
    "Ġane": 9184,
    "Ġinattention": 17936,
    "Ġdeacon": 18145,
    "Ġsparkling": 11359,
    "je": 11499,
    "Ġwestmorland": 24392,
    "intend": 16227,
    "Ġingenuity": 17166,
    "Ġ1828": 25721,
    "ffic": 22156,
    "la": 10708,
    "Ġtransferred": 16463,
    "Ġstock": 7453,
    "Ġparameters": 992,
    "Ġextending": 11023,
    "Ġcounsell": 25386,
    "Ġplacing": 8904,
    "flinging": 20870,
    "Ġcongenial": 12415,
    "happily": 14660,
    "sharpening": 22469,
    "Ġpermission": 9282,
    "Ġjacket": 6488,
    "Ġ129": 24476,
    "Ġtennes": 23552,
    "Ġringed": 16752,
    "Ġstumbling": 21749,
    "Ġapr": 12537,
    "Ġmincing": 18752,
    "Ġannoyance": 20664,
    "Ġbraided": 16584,
    "Ġmounting": 19979,
    "slept": 17172,
    "Ġbapt": 13899,
    "Ġaffright": 9335,
    "Ġtasted": 12534,
    "Ġendured": 6073,
    "gave": 7799,
    "Ġflood": 7715,
    "Ġcoer": 22586,
    "function": 4477,
    "Ġdisappo": 4507,
    "tossed": 10999,
    "Ġlunch": 13529,
    "Ġcontroverted": 23256,
    "Ġawful": 6200,
    "Ġbrazier": 26323,
    "icirc": 15660,
    "Ġedge": 5189,
    "Ġcorrectly": 9406,
    "Ġready": 3400,
    "Ġdistraction": 22511,
    "yd": 21145,
    "thyself": 19299,
    "Ġbanking": 19632,
    "Ġcheered": 16371,
    "Ġstraining": 9692,
    "benefact": 24643,
    "ners": 3272,
    "Ġswift": 3668,
    "allows": 15906,
    "Ġcompliments": 8636,
    "diminished": 20841,
    "Ġoverjoyed": 17461,
    "Ġreg": 730,
    "Ġfortifications": 23624,
    "Ġexclusiveness": 23933,
    "Ġign": 8294,
    "inted": 2649,
    "vard": 21113,
    "Ġborrowed": 17232,
    "iam": 2507,
    "usions": 6160,
    "Ġpouring": 12629,
    "Ġstrengthen": 20703,
    "Ġroughs": 19959,
    "Ġsinned": 18953,
    "itates": 13872,
    "Ġanswerable": 23474,
    "Ġclergy": 7642,
    "Ġegypt": 9681,
    "Ġgull": 15674,
    "Ġhandsom": 11126,
    "Ġeconomically": 25289,
    "Ġindication": 22959,
    "Ġthings": 1961,
    "Ġripp": 11223,
    "icting": 12858,
    "Ġoverheard": 11776,
    "awing": 18917,
    "Ġmajest": 24065,
    "avings": 12027,
    "tenderly": 20534,
    "agos": 21909,
    "Ġvindication": 25366,
    "Ġdid": 836,
    "Ġconcept": 665,
    "istry": 22113,
    "Ġlungs": 8361,
    "Ġparcel": 15204,
    "console": 22476,
    "attended": 8955,
    "Ġidler": 16407,
    "Ġimped": 18444,
    "Ġrack": 9315,
    "Ġob": 859,
    "Ġcreatures": 4137,
    "Ġadhes": 22107,
    "1": 21,
    "Ġcapsized": 20092,
    "aster": 1867,
    "âĢĻ-": 18171,
    "otograph": 5827,
    "arding": 22162,
    "Ġmagnus": 18959,
    "roar": 17957,
    "speeches": 25240,
    "avenue": 25059,
    "twill": 21077,
    "Ġsaluted": 14762,
    "Ġbed": 2147,
    "Ġstacks": 18082,
    "Ġsurrey": 14561,
    "Ġmutually": 23962,
    "Ġsoapstone": 20514,
    "comparison": 25843,
    "Ġdisappearing": 22538,
    "Ġcumberland": 21358,
    "Ġpurposes": 11171,
    "Ġtandem": 26414,
    "Ġverte": 9443,
    "Ġsale": 14158,
    "Ġspasmod": 12418,
    "Ġindomitableness": 26574,
    "wait": 11324,
    "Ġsplinter": 23751,
    "Ġfollow": 1401,
    "Ġfaire": 13369,
    "unreasonable": 18167,
    "Ġslope": 14464,
    "smallest": 23917,
    "Ġcottage": 4735,
    "ioning": 21512,
    "carrying": 16714,
    "charlotte": 6472,
    "Ġrushes": 20510,
    "Ġtars": 21167,
    "Ġsings": 15508,
    "Ġcorp": 5575,
    "Ġexquisite": 12385,
    "Ġcompassion": 6486,
    "impropriety": 21716,
    "Ġstrewed": 23426,
    "Ġunwarrant": 19935,
    "Ġcheerless": 16695,
    "Ġthoughtful": 16195,
    "iqu": 7802,
    "dreams": 12341,
    "whip": 22242,
    "teness": 23210,
    "itime": 15552,
    "Ġfed": 5530,
    "madly": 24422,
    "telesc": 22824,
    "Ġpawnbroker": 13662,
    "Ġchronic": 9933,
    "scr": 16245,
    "Ġoffended": 7040,
    "infl": 15490,
    "Ġsecure": 4914,
    "Ġilliter": 23472,
    "Ġfaded": 10812,
    "ders": 8074,
    "Ġintimate": 6549,
    "Ġaband": 6561,
    "Ġbrushed": 15575,
    "ments": 1405,
    "solitary": 14506,
    "Ġearlier": 9090,
    "Ġdood": 22247,
    "Ġadvent": 4356,
    "Ġadieus": 25113,
    "Ġimportant": 1070,
    "Ġscept": 15506,
    "formed": 2553,
    "Ġforthwith": 16620,
    "Ġsockets": 22090,
    "contrivance": 26318,
    "Ġwalled": 15538,
    "izers": 18147,
    "ittered": 18440,
    "Ġsnar": 13202,
    "Ġannounced": 9037,
    "unusual": 21884,
    "Ġugly": 8719,
    "Ġintended": 5549,
    "Ġterrify": 19364,
    "Ġmeantime": 6207,
    "Ġconfident": 11140,
    "Ġricher": 12764,
    "Ġriot": 14691,
    "Ġpervers": 11788,
    "crier": 20822,
    "cherish": 24554,
    "Ġdecl": 3589,
    "fic": 20854,
    "station": 10847,
    "Ġcakes": 13887,
    "pos": 15413,
    "ick": 837,
    "Ġvillains": 14753,
    "Ġlessons": 7691,
    ",âĢĶ": 3170,
    "Ġcounters": 24145,
    "Ġsubfield": 11874,
    "Ġbol": 6242,
    "Ġnom": 21522,
    "Ġrevelations": 25224,
    "advance": 12161,
    "Ġsub": 950,
    "ements": 11110,
    "Ġbrides": 22873,
    "Ġpersevering": 20235,
    "Ġoscill": 2857,
    "Ġlamps": 14795,
    "arnel": 18126,
    "eldest": 22802,
    "ruff": 15909,
    "arial": 5532,
    "Ġjoist": 19233,
    "Ġbast": 21382,
    "eed": 20843,
    "Ġunless": 4090,
    "Ġsolely": 9914,
    "Ġbestowing": 16972,
    "desponding": 26344,
    "Ġthroes": 24577,
    "Ġheath": 15706,
    "Ġattractive": 25578,
    "Ġprisoner": 8676,
    "Ġsearched": 15823,
    "Ġbre": 1914,
    "Ġcountess": 11967,
    "pick": 17636,
    "Ġdevote": 10343,
    "Ġcounterpane": 11345,
    "Ġimpressions": 9555,
    "Ġrounding": 16278,
    "Ġage": 3894,
    "acious": 5562,
    "Ġgoug": 17995,
    "Ġcivilised": 24249,
    "recol": 10154,
    "Ġstammered": 26202,
    "mur": 5428,
    "Ġfreely": 7056,
    "Ġhotels": 19539,
    "Ġdecoding": 3080,
    "Ġdream": 3538,
    "Ġcrozetts": 19631,
    ",--âĢľ": 19198,
    "uming": 8493,
    "racing": 21634,
    "Ġpliny": 11830,
    "Ġparadise": 11199,
    "iverse": 13120,
    "Ġespecially": 3933,
    "Ġremembering": 14613,
    "Ġbount": 15572,
    "anyth": 5438,
    "Ġmabel": 17327,
    "Ġsharper": 17182,
    "what": 642,
    "beg": 22493,
    "Ġherring": 14130,
    "moby": 8537,
    "Ġdissect": 16057,
    "Ġcreditable": 19624,
    "oried": 10805,
    "Ġarbitrary": 4737,
    "gunwale": 20665,
    "Ġgenerations": 10966,
    "Ġnarrations": 24354,
    "Ġcup": 5697,
    "Ġlanded": 7467,
    "Ġmercenary": 17196,
    "Ġrhone": 25231,
    "scattered": 23000,
    "ible": 1114,
    "right": 2772,
    "Ġblasts": 19998,
    "Ġlick": 21553,
    "Ġjerking": 12250,
    "pagans": 25527,
    "Ġallude": 12776,
    "inclined": 10643,
    "Ġsingular": 4423,
    "Ġerror": 1763,
    "conditionally": 24835,
    "assistance": 20373,
    "finding": 17015,
    "Ġul": 6827,
    "Ġrelev": 1712,
    "Ġnorris": 23207,
    "vigorous": 25919,
    "unhesitatingly": 26499,
    "reference": 13843,
    "Ġstandards": 19016,
    "Ġinit": 819,
    "Ġbenefited": 19401,
    "negro": 18492,
    "nep": 20988,
    "Ġdampening": 2895,
    "Ġconscious": 7743,
    "Ġhaggard": 17333,
    "Ġmizzen": 20291,
    "freely": 16856,
    "Ġdated": 10942,
    "Ġfigure": 4208,
    "orily": 15577,
    "ading": 5092,
    "attached": 11939,
    "Ġ1991": 3016,
    "canallers": 22976,
    "rippa": 11343,
    "Ġexcurs": 23319,
    "startled": 24944,
    "asse": 15649,
    "Ġspires": 11735,
    "Ġdepth": 2435,
    "Ġflashes": 11921,
    "Ġshalt": 18233,
    "Ġ100": 14369,
    "guilty": 19486,
    "Ġturbulence": 26600,
    "ulatory": 15772,
    "Ġscant": 22290,
    "bound": 6221,
    "Ġpromotion": 23200,
    "connections": 14432,
    "Ġbeat": 4493,
    "Ġpurchas": 19875,
    "Ġirregularity": 25326,
    "Ġenvirons": 13208,
    "language": 5130,
    "Ġparticularly": 5057,
    "oused": 6556,
    "azing": 7704,
    "exe": 11794,
    "ante": 11726,
    "Ġmulti": 1046,
    "Ġpriest": 7524,
    "irting": 11690,
    "tom": 15438,
    "worthy": 7732,
    "Ġbedroom": 7275,
    "itive": 6670,
    "decoder": 3644,
    "Ġspeech": 4612,
    "Ġunaware": 22063,
    "Ġspoil": 17009,
    "adders": 24402,
    "Ġcalves": 13040,
    "anter": 9169,
    "Ġdenny": 9004,
    "Ġflag": 7240,
    "Ġphilosop": 5058,
    "Ġfifth": 11261,
    "Ġdeposited": 25486,
    "Ġmaty": 22915,
    "exactly": 10640,
    "Ġsubtlety": 24779,
    "witted": 17710,
    "Ġcarve": 23098,
    "Ġsparks": 22137,
    "define": 1529,
    "aiian": 23596,
    "leag": 21369,
    "endeavouring": 15019,
    "onder": 3779,
    "st": 316,
    "Ġkin": 15903,
    "abomin": 15746,
    "secret": 12241,
    "Ġinstructed": 19286,
    "Ġdrawback": 23995,
    "Ġninety": 13605,
    "net": 1195,
    "Ġdisconcerted": 18562,
    "men": 1486,
    "aging": 2236,
    "Ġunpitying": 25662,
    "included": 19209,
    "Ġfortunes": 12183,
    "Ġcharm": 4550,
    "Ġprayer": 16669,
    "enances": 10157,
    "Ġnormalization": 1244,
    "deep": 971,
    "Ġimpunity": 14220,
    "Ġramadans": 25122,
    "Ġtawn": 13826,
    "Ġrumors": 11325,
    "humorously": 24025,
    "Ġyouth": 4262,
    "anywhere": 14685,
    "ounder": 11749,
    "naturally": 14586,
    "Ġabandoned": 8351,
    "Ġinvis": 6901,
    "Ġvex": 5949,
    "Ġpleated": 16300,
    "remaining": 20222,
    "dil": 11481,
    "Ġendure": 5956,
    "Ġshot": 4546,
    "Ġregression": 4409,
    "certain": 3675,
    "Ġdeliriously": 23231,
    "Ġpaying": 9942,
    "Ġsanctioned": 26353,
    "Ġobliquely": 12366,
    "Ġnervous": 2401,
    "Ġcell": 6238,
    "Ġvindictiveness": 25740,
    "Ġdissembling": 26257,
    "Ġthumb": 6981,
    "ither": 1549,
    "Ġnecessarily": 13253,
    "Ġvagabond": 20205,
    "Ġbuild": 6473,
    "conspicuous": 26250,
    "Ġrelease": 19292,
    "ispens": 8335,
    "ulsive": 10237,
    "Ġinterven": 11000,
    "Ġhagger": 21494,
    "ü": 189,
    "ituted": 13876,
    "hmael": 7340,
    "Ġbarrow": 12074,
    "narr": 12501,
    "Ġsails": 5257,
    "Ġbleeding": 14884,
    "hawks": 24694,
    "Ġmister": 22760,
    "Ġdrowning": 19905,
    "Ġu": 324,
    "Ġprized": 23222,
    "adding": 21765,
    "Ġpoison": 7217,
    "Ġfrig": 13085,
    "pens": 17634,
    "Ġalleg": 14020,
    "Ġbreach": 11978,
    "Ġirreparable": 20001,
    "imson": 12694,
    "msman": 9272,
    "Ġlobes": 22119,
    "isle": 13895,
    "irations": 18175,
    "Ġovertake": 15971,
    "Ġsil": 1795,
    "lect": 1223,
    "Ġconquest": 15752,
    "many": 5251,
    "itself": 7833,
    "Ġdeficiencies": 26573,
    "sherlock": 5422,
    "ratches": 20127,
    "Ġdistrust": 8204,
    "ather": 739,
    "dually": 3285,
    "high": 6651,
    "indifference": 15986,
    "ctic": 8442,
    "Ġdeclining": 23969,
    "Ġband": 5292,
    "ensions": 14263,
    "secut": 7866,
    "Ġpromethe": 14472,
    "cele": 21628,
    "Ġsoliloqu": 11890,
    "pan": 10719,
    "Ġorigin": 4120,
    "Ġstorms": 11266,
    "Ġ61": 24366,
    "Ġwiser": 14734,
    "Ġrudimental": 25111,
    "cut": 3124,
    "easily": 17536,
    "Ġwelcome": 5604,
    "Ġclinging": 10296,
    "rushed": 10588,
    "Ġsuperhuman": 23456,
    "bred": 11472,
    "retrospect": 23147,
    "imagination": 13484,
    "use": 2533,
    "Ġrap": 14306,
    "Ġrobert": 10972,
    "pleasing": 14746,
    "Ġpresume": 8037,
    "riptions": 14799,
    "feels": 22508,
    "gl": 3291,
    "ge": 561,
    "ĠĊ": 12528,
    "Ġimprovement": 7965,
    "itheat": 21341,
    "tuesday": 17693,
    "Ġcocked": 12909,
    "Ġjoppa": 12040,
    "Ġvane": 22881,
    "thrill": 25658,
    "ropout": 1322,
    "onted": 11571,
    "Ġstrives": 23699,
    "determine": 19946,
    "Ġmonster": 3793,
    "grateful": 10431,
    "Ġterminated": 23513,
    "Ġjo": 2608,
    "Ġobligation": 13248,
    "Ġlow": 1647,
    "Ġcushion": 17837,
    "bucket": 17496,
    "ù": 186,
    "Ġsundial": 15087,
    "Ġrecklessly": 16984,
    "respectively": 24698,
    "Ġgerm": 13967,
    "Ġanatomical": 15081,
    "Ġswell": 8952,
    "Ġhauled": 11699,
    "distinguished": 10530,
    "Ġuncounted": 19118,
    "desperate": 17360,
    "Ġausten": 5882,
    "Ġabatement": 22281,
    "Ġcritical": 7472,
    "consumed": 25677,
    "jammed": 25908,
    "Ġarsac": 11747,
    "Ġattentions": 5879,
    "Ġreview": 18035,
    "Ġmatrim": 11061,
    "Ġmasters": 11579,
    "Ġreport": 6192,
    "Ġbraces": 14673,
    "jected": 22719,
    "encounter": 20394,
    "Ġfoaming": 18992,
    "Ġdav": 15594,
    "izing": 1068,
    "trucks": 25421,
    "Ġoceans": 7995,
    "chester": 23810,
    "Ġshavings": 14113,
    "described": 18897,
    "Ġensuing": 12313,
    "Ġtrough": 15968,
    "exc": 5169,
    "Ġvinc": 14087,
    "apparatus": 26566,
    "inence": 15484,
    "Ġoutward": 7903,
    "Ġunfit": 14791,
    "Ġchapter": 2956,
    "Ġbody": 2433,
    "Ġforenoon": 19127,
    "Ġintact": 21994,
    "strength": 13983,
    "Ġcasually": 25096,
    "Ġhatchway": 13528,
    "des": 3172,
    "Ġobservations": 13557,
    "Ġmix": 7575,
    "Ġpump": 12626,
    "Ġswing": 13041,
    "opotam": 22484,
    "alliance": 22200,
    "Ġtrade": 2545,
    "dataset": 23249,
    "Ġrumpled": 24603,
    "security": 26209,
    "Ġga": 4446,
    "Ġpermanently": 25475,
    "colnett": 19332,
    "Ķ": 247,
    "Ġpressed": 6041,
    "Ġleaps": 14005,
    "Ġfilters": 3925,
    "Ġunsophisticated": 25994,
    "interview": 19300,
    "Ġpermitting": 22404,
    "Ġconjure": 17126,
    "Ġsteel": 3887,
    "Ġcomb": 1055,
    "Ġexerting": 21836,
    "Ġwaving": 8587,
    "instead": 14833,
    "²": 115,
    "========": 2309,
    "Ġwigwam": 11431,
    "smote": 23915,
    "passage": 11265,
    "Ġcondemned": 7778,
    "Ġforswe": 21778,
    "chants": 21695,
    "Ġsem": 1878,
    "Ġtogether": 1879,
    "Ġsw": 1357,
    "Ġtradesman": 20075,
    "Ġseat": 4950,
    "Ġjog": 18405,
    "Ġcompens": 14268,
    "Ġdeck": 2135,
    "obst": 23099,
    "Ġfurthermore": 1169,
    "Ġmostly": 7663,
    "Ġwindings": 18911,
    "Ġjove": 9271,
    "Ġproportional": 2522,
    "Ġxi": 16432,
    "fates": 20860,
    "etieth": 21587,
    "Ġindist": 14414,
    "ividually": 22084,
    "Ġinevitably": 17233,
    "anity": 9657,
    "avenza": 17104,
    "eps": 12795,
    "ashed": 3784,
    "Ġshy": 10906,
    "Ġforetold": 23454,
    "Ġagricultural": 26553,
    "encoun": 12302,
    "Ġfranc": 16355,
    "Ġoverhead": 11775,
    "Ġanaly": 1136,
    "furn": 10095,
    "Ġshaft": 18232,
    "Ġheard": 1404,
    "Ġvir": 7001,
    "in": 262,
    "Ġservant": 5764,
    "Ġmilitia": 13322,
    "Ġacted": 7420,
    "Ġphysiology": 25334,
    "Ġtexture": 19162,
    "Ġbags": 24539,
    "Ġdiadem": 24739,
    "Ġpositives": 4316,
    "Ġsequence": 1977,
    "Ġslavish": 23179,
    "superiority": 20187,
    "Ġemblematical": 25790,
    "aternity": 21268,
    "Ġgarden": 3824,
    "Ġher": 427,
    "Ġlogs": 16349,
    "insupportable": 21196,
    "ald": 15629,
    "Ġclass": 794,
    "herself": 4892,
    "Ġpattering": 18652,
    "sufficient": 6637,
    "boots": 11128,
    "condition": 7058,
    "Ġhearses": 20062,
    "Ġtranquilly": 12294,
    "Ġcaptiv": 16260,
    "Ġ120": 16860,
    "Ġthimble": 15641,
    "Ġunderstand": 833,
    "Ġscener": 10951,
    "onstrate": 17772,
    "Ġoy": 15550,
    "Ġjogged": 26239,
    "Ġigniting": 25073,
    "Ġxli": 14544,
    "Ġstupendous": 20503,
    "Ġenraged": 10248,
    "ocr": 10471,
    "tranqu": 14710,
    "Ġrecovery": 11444,
    "Ġsurviv": 13439,
    "Ġpages": 15612,
    "Ġglist": 9348,
    "finish": 24386,
    "din": 8373,
    "Ġblinded": 13273,
    "Ġshutter": 16673,
    "Ġvancouver": 26568,
    "amore": 21853,
    "Ġpurp": 2390,
    "trifling": 19417,
    "Ġenvelope": 7317,
    "Ġmumbled": 17811,
    "Ġremark": 2141,
    "herfield": 3629,
    "Ġmatted": 22916,
    "rendered": 22344,
    "bree": 15318,
    "jaws": 20934,
    "arers": 12134,
    "Ġdecisions": 6703,
    "complained": 25841,
    "Ġvineyarder": 25608,
    "ĠĠĠĠĠĠĠĠĠĠĠĠĠĠĠĠĠĠĠĠĠĠĠĠĠĠĠĠĠĠĠĠĠĠĠĠĠĠĠĠĠĠĠĠĠĠĠĠ": 7988,
    "iors": 9128,
    "expedition": 26080,
    "Ġretrogression": 26584,
    "Ġoh": 2175,
    "Ġsufferings": 7511,
    "Ġnightgown": 23139,
    "Ġq": 1088,
    "Ġlieuten": 13330,
    "Ġrepeating": 11217,
    "Ġsacrificial": 24872,
    "Ġrenowned": 26196,
    "Ġalleged": 17293,
    "Ġwor": 1189,
    "Ġcolleague": 17162,
    "bbs": 23696,
    "Ġscrape": 14922,
    "hurt": 19879,
    "Ġsplend": 9902,
    "Ġimmortality": 26328,
    "ousings": 18336,
    "Ġreigns": 21674,
    "Ġtide": 6660,
    "erm": 786,
    "mitting": 20975,
    "Ġstiffness": 24828,
    "Ġrudder": 25110,
    "rucastle": 22204,
    "Ġtown": 2452,
    "Ġoscillations": 2898,
    "etuous": 21586,
    "Ġthin": 4347,
    "Ġhanged": 17929,
    "horr": 14602,
    "Ġsaratoga": 26426,
    "Ġsingle": 1689,
    "Ġspace": 1533,
    "Ġcruelly": 13379,
    "Ġderbyshire": 6587,
    "Ġletter": 2196,
    "Ġcoldly": 14653,
    "gely": 10703,
    "Ġcab": 2630,
    "supposing": 24139,
    "ail": 566,
    "Ġqueerest": 16417,
    "@": 36,
    "igned": 5656,
    "Ġshutters": 9941,
    "conceive": 16033,
    "antarctic": 22103,
    "Ġencouraging": 2261,
    "Ġcomput": 601,
    "looking": 4032,
    "allen": 22196,
    "Ġexpands": 25238,
    "especially": 3572,
    "Ġupbra": 22159,
    "cess": 541,
    "Ġperem": 12937,
    "ench": 21282,
    "leg": 2815,
    "exception": 9980,
    "Ġcalled": 1972,
    "Ġsermons": 20196,
    "heart": 4528,
    "sey": 5543,
    "Ġprimitive": 25064,
    "lied": 6506,
    "Ġwines": 21290,
    "Ġshorter": 4500,
    "plate": 18202,
    "Ġsurrounds": 24236,
    "expressed": 9044,
    "unteered": 26498,
    "á": 162,
    "Ġcomforters": 25802,
    "nelson": 25622,
    "Ġsufficiently": 8976,
    "Ġgrud": 18000,
    "oked": 4307,
    "warnings": 20353,
    "Ġtens": 17726,
    "fi": 12466,
    "terror": 18133,
    "omach": 11638,
    "Ġfring": 11129,
    "civilized": 17076,
    "insufferable": 21195,
    "ark": 847,
    "cain": 15329,
    "Ġriggers": 24161,
    "Ġcretan": 22727,
    "pray": 5429,
    "Ġlazily": 11383,
    "buttons": 22406,
    "attered": 4018,
    "argue": 21447,
    "Ġsees": 8847,
    "Ġinjury": 10544,
    "anging": 3551,
    "used": 3261,
    "ows": 1917,
    "Ġpane": 21466,
    "Ġdistracted": 11809,
    "west": 10742,
    "Ġpresum": 4840,
    "Ġsucked": 14140,
    "Ġtechniques": 2868,
    "Ġgums": 21614,
    "Ġgruff": 21617,
    "Ġplayful": 19238,
    "Ġ85": 24462,
    "Ġhag": 12630,
    "insufficient": 15492,
    "fields": 14656,
    "jewell": 25525,
    "Ġsuppose": 2867,
    "Ġbennet": 1576,
    "Ġfowl": 11333,
    "Ġchim": 5934,
    "icket": 22672,
    "Ġexpressing": 12013,
    "Ġclosely": 6487,
    "Ġshoot": 11163,
    "Ġnav": 5819,
    "queg": 1767,
    "change": 6391,
    "Ġdense": 8122,
    "Ġhuff": 21493,
    "batt": 20780,
    "Ġshan": 9252,
    "Ġattent": 4360,
    "Ġpainting": 13144,
    "Ġpalm": 10517,
    "Ġexterior": 19990,
    "ye": 1409,
    "approaching": 15015,
    "entered": 8819,
    "Ġincapable": 7421,
    "Ġbarrels": 9438,
    "nib": 5214,
    "Ġfabric": 25949,
    "fters": 20863,
    "Ġpretend": 7721,
    "Ġranges": 2883,
    "legged": 10469,
    "Ġharvest": 13419,
    "Ġfarm": 7839,
    "Ġdefines": 1739,
    "Ġbeak": 18084,
    "Ġweighed": 8714,
    "Ġamaz": 5385,
    "Ġcosmopol": 16455,
    "Ġdelineate": 26059,
    "ingale": 21302,
    "Ġsooty": 25817,
    "Ġstunsail": 25545,
    "Ġsecre": 5493,
    "Ġsigh": 10340,
    "previous": 9765,
    "orough": 5700,
    "Ġcoefficient": 2884,
    "creator": 26384,
    "unfort": 21881,
    "Ġangels": 11182,
    "Ġpersistence": 3118,
    "Ġhammers": 13245,
    "dispute": 23503,
    "Ġrelief": 6060,
    "discern": 14855,
    "Ġexpressed": 4467,
    "Ġretain": 7862,
    "Ġwipe": 25766,
    "Ġsmelt": 16069,
    "ued": 7559,
    "Ġott": 13869,
    "Ġremarkable": 4917,
    "attentions": 13578,
    "Ġunintermitted": 26222,
    "Ġshr": 4228,
    "Ġenchanted": 9083,
    "Ġrampart": 20320,
    "Ġexeget": 24088,
    "cocks": 23565,
    "Ġtroubles": 19442,
    "Ġambition": 11435,
    "partly": 14605,
    "Ġpredestinated": 18530,
    "shortly": 12263,
    "Ġrushing": 7401,
    "Ġvigilance": 12375,
    "osy": 11763,
    "Ġphrase": 11191,
    "vels": 5432,
    "Ġpike": 12628,
    "?âĢĶ": 3468,
    "Ġuncl": 22020,
    "Ġgracechurch": 12203,
    "Ġstructure": 939,
    "Ġridicule": 13515,
    "Ġnarration": 13507,
    "bloom": 24689,
    "wig": 17707,
    "izz": 7614,
    "wretchedness": 17255,
    "Ġconjoined": 21810,
    "Ġpleasurable": 23344,
    "except": 5383,
    "Ġazores": 20195,
    "Ġbruited": 25775,
    "Ġcrumpled": 16440,
    "market": 16841,
    "Ġvouch": 15811,
    "sets": 17662,
    "elastic": 17985,
    "ia": 1258,
    "Ġefforts": 11806,
    "maul": 11895,
    "regards": 23470,
    "Ġgeneral": 1862,
    "Ġcork": 12574,
    "Ġresiding": 16065,
    "include": 23593,
    "idious": 11666,
    "Ġsurmisings": 26596,
    "Ġdisposed": 7083,
    "shortened": 24746,
    "objections": 19917,
    "Ġinfluence": 5515,
    "precedented": 15179,
    "Ģ": 227,
    "Ġghost": 6143,
    "guest": 19485,
    "Ġriveted": 13622,
    "pain": 7348,
    "Ġknitting": 24223,
    "Ġcamp": 9167,
    "Ġresidence": 8206,
    "Ġstrateg": 1375,
    "Ġloveliest": 20263,
    "Ġgrowl": 16540,
    "sold": 15429,
    "Ġwreat": 15534,
    "causes": 20345,
    "Ġcontrary": 5261,
    "relu": 17763,
    "Ġhus": 3091,
    "stove": 21655,
    "Ġjunior": 15104,
    "cook": 8269,
    "Ġfixed": 2685,
    "Ġrestlessness": 23295,
    "Ġitself": 2519,
    "scotland": 20532,
    "Ġexisting": 12722,
    "archbishop": 22913,
    "Ġjest": 18404,
    "Ġdiffident": 23787,
    "Ġblocked": 19224,
    "upwards": 18866,
    "bearings": 25373,
    "/`)": 13664,
    "Ġviewing": 19266,
    "Ġcompare": 9306,
    "Ġjiff": 22301,
    "Ġillustrious": 17110,
    "Ġpopulous": 16828,
    "Ġprobably": 4313,
    "modesty": 22866,
    "Ġcentrally": 23837,
    "Ġadmirer": 16840,
    "tick": 17681,
    "Ġoutside": 5554,
    "Ġlivel": 11358,
    "Ġimprecate": 20521,
    "salis": 25150,
    "Ġassaults": 15161,
    "Ġcot": 13880,
    "hurriedly": 25512,
    "leagued": 26438,
    "Ġsorry": 4211,
    "Ġgnarled": 25169,
    "trap": 24336,
    "ishnoo": 10957,
    "otions": 7179,
    "inhabited": 13624,
    "Ġaudio": 24771,
    "Ġmidnight": 5266,
    "Ġtigris": 25761,
    "house": 4077,
    "Ġconge": 15750,
    "tained": 4405,
    "Ġcomplacency": 19451,
    "Ġmab": 12565,
    "Ġcarrying": 6072,
    "Ġsusp": 2664,
    "Ġentra": 18694,
    "Ø": 153,
    "Ġgrandeur": 8631,
    "assisted": 22312,
    "same": 5362,
    "Ġn": 300,
    "Ġsch": 13838,
    "Ġunseason": 22056,
    "Ġharbor": 10031,
    "Ġwag": 10778,
    "Ġdeal": 3607,
    "Ġeel": 18006,
    "riminately": 16485,
    "Ġhurried": 4031,
    "icy": 6141,
    "frequently": 9983,
    "Ġemma": 20697,
    "worn": 13809,
    "Ã¦us": 14820,
    "Ġzero": 1201,
    "Ġthen": 666,
    "Ġmadame": 13154,
    "Ġconsecutive": 20705,
    "Ġundaunted": 24123,
    "Ġwoe": 4795,
    "Ġaffords": 16736,
    "Ġdents": 13914,
    "Ġannouncement": 14837,
    "infidel": 24665,
    "Ġjack": 4654,
    "topic": 10531,
    "Ġpalsy": 25780,
    "woes": 21136,
    "Ġdistillation": 16049,
    "Ġsocially": 22089,
    "acks": 11793,
    "Ġjungfrau": 15252,
    "school": 10059,
    "Ġoccasionally": 5590,
    "Ġtests": 8960,
    "Ġinputs": 842,
    "Ġslow": 2376,
    "Ġdynamic": 5125,
    "age": 505,
    "thankful": 16808,
    "urns": 10217,
    "unquiet": 21886,
    "collins": 6915,
    "Ġpaus": 4298,
    "Ġcontrol": 13084,
    "Ġpoverty": 9308,
    "aint": 2539,
    "Ġsymphony": 26535,
    "Ġbiological": 1932,
    "Ġmalicious": 10561,
    "Ġmat": 1147,
    "carried": 16713,
    "ues": 2079,
    "Ġfools": 14485,
    "Ġvanish": 8931,
    "È": 137,
    "brary": 5755,
    "Ġtemple": 7653,
    "Ġflattened": 26049,
    "honorable": 19902,
    "revolver": 25629,
    "mercenary": 26317,
    "ourers": 21452,
    "Ġafrican": 20139,
    "Ġpract": 1804,
    "Ġdistressed": 8515,
    "wide": 10141,
    "Ġanew": 11433,
    "Ġbat": 10798,
    "Ġconducted": 10506,
    "Ġmerrily": 23736,
    "Ġsoftmax": 1686,
    "Ġrouted": 24908,
    "iloqu": 11652,
    "Ġreusable": 13561,
    "bourgh": 19105,
    "Ġpry": 11604,
    "jee": 17581,
    "Ġcommercial": 22678,
    "ppered": 15795,
    "usion": 3301,
    "Ġhold": 2242,
    "Ġforgery": 25979,
    "Ġagile": 22518,
    "Ġrope": 4338,
    "k": 79,
    "dischar": 19155,
    "Ġincluded": 8959,
    "Ġused": 2060,
    "Ġwaterloo": 11985,
    "Ġtract": 21168,
    "Ġbo": 797,
    "soon": 4027,
    "iew": 2444,
    "Ġacceptable": 16746,
    "Ġreck": 6537,
    "Ġgirdled": 19161,
    "Ġloves": 10918,
    "venth": 9298,
    "================================================================": 9994,
    "Ġcharles": 11960,
    "rebellum": 26167,
    "umn": 5836,
    "177": 20754,
    "Ġindignantly": 16941,
    "thar": 18220,
    "Ġwallow": 19469,
    "Ġrequested": 14305,
    "Ġrenewed": 9540,
    "Ġqu": 605,
    "requ": 7147,
    "Ġprair": 7746,
    "opening": 10316,
    "Ġupdating": 2690,
    "Ġconcer": 23325,
    "Ġwillingness": 24911,
    "summon": 23420,
    "twain": 23704,
    "Ġimproving": 1210,
    "Ġma": 3254,
    "Ġspin": 7629,
    "aceti": 7111,
    "scheme": 15258,
    "Ġscrews": 25178,
    "fact": 6358,
    "Ġdetect": 1232,
    "Ġindignant": 12244,
    "sm": 3437,
    "Ġsoutherly": 23339,
    "Ġinf": 1753,
    "derest": 18315,
    "cheerful": 13579,
    "Ġreturned": 2891,
    "Ġtheore": 1831,
    "inter": 2948,
    "Ġtapers": 11555,
    "proble": 9395,
    "slo": 17658,
    "mixed": 17607,
    "Ġinforming": 18743,
    "ying": 1372,
    "miles": 10715,
    "Ġsnarled": 25716,
    "Ġworkflow": 2382,
    "Ġest": 2263,
    "ological": 1885,
    "Ġchestnut": 19674,
    "Ġwires": 21298,
    "Į": 239,
    "oking": 4608,
    "charles": 14703,
    "Ġunlock": 18246,
    "Ġshrouded": 14972,
    "Ġspacious": 18313,
    "byter": 16216,
    "Ġinsulted": 14996,
    "itors": 2914,
    "Ġrevolution": 3307,
    "Ġkl": 2738,
    "reached": 13844,
    "creation": 14810,
    "Ġaccustomed": 6860,
    "uteronomy": 15668,
    "queer": 10367,
    "Ġsuggestion": 19709,
    "Ġmetropol": 11142,
    "Ġwatch": 2745,
    "Ġincidents": 9303,
    "Ġsuppression": 23005,
    "Ġ25": 13196,
    "horn": 8085,
    "umps": 6317,
    "Ġtracks": 18893,
    "rosings": 15648,
    "Ġnarrowed": 24357,
    "Ġmemb": 14033,
    "ifting": 6545,
    "Ġshaved": 22007,
    "Ġmyst": 4050,
    "Ġrome": 12160,
    "Ġgpus": 3732,
    "Ġconsort": 18725,
    "Ġbritish": 11339,
    "Ġoccupation": 9935,
    "Ġheedless": 14907,
    "Ġaudible": 19882,
    "Ġplentiful": 12916,
    "Ġdexterity": 25296,
    "Ġstru": 2168,
    "Ġtucked": 12396,
    "Ġsupplied": 8946,
    "expectant": 24280,
    "connect": 1292,
    "Ġsalvation": 14761,
    "infliction": 25926,
    "Ġtrouble": 3690,
    "Ġshowing": 7731,
    "Ġconceals": 23909,
    "myself": 5114,
    "Ġtrib": 13822,
    "Ġnay": 5711,
    "dozen": 23381,
    "Ġstudying": 9850,
    "Ġsupernatural": 9877,
    "....": 11320,
    "Ġbirch": 26176,
    "cruise": 24842,
    "izon": 18146,
    "Ġplumber": 16089,
    "Ġduration": 20355,
    "Ġretains": 20032,
    "Ġcurios": 18846,
    "Ġforging": 18098,
    "affairs": 14659,
    "Ġbankrupt": 16798,
    "Ġdesolated": 24809,
    "Ġchann": 15939,
    "Ġfrock": 10493,
    "Ġconcise": 23327,
    "anxiety": 25159,
    "deprived": 19899,
    "Ġinnocent": 4923,
    "wonders": 17146,
    "oro": 21398,
    "Ġvoyages": 6907,
    "Ġalternating": 15034,
    "Ġdear": 1541,
    "?_âĢĿ": 12320,
    "Ġpredicted": 2045,
    "Ġbrings": 11885,
    "me": 872,
    "Ġprofession": 6208,
    "Ġquality": 3528,
    "Ġoftener": 13569,
    "Ġribbed": 16806,
    "Ġspeaking": 4026,
    "Ġreap": 18031,
    "ior": 2040,
    "tempted": 26406,
    "Ġbubb": 12589,
    "ney": 2491,
    "entirely": 7781,
    "Ġstating": 15729,
    "Ġstronger": 8579,
    "Ġfestoon": 20296,
    "Ġdrive": 5056,
    "Ġscratching": 20371,
    "Ġmodern": 3230,
    "inridge": 11564,
    "Ġconscience": 6928,
    "danish": 20835,
    "Ġ60": 14879,
    "ner": 1377,
    "whose": 6851,
    "ident": 3382,
    "Ġamel": 18510,
    "Ġungrateful": 14125,
    "Ġshowed": 4498,
    "umpled": 15880,
    "Ġrails": 22647,
    "alously": 15633,
    "Ġsex": 8846,
    "tail": 8765,
    "bastian": 10677,
    "Ġringing": 13336,
    "chose": 18045,
    "etymology": 14705,
    "tallied": 21092,
    "cannib": 11908,
    "Ġmartyr": 26363,
    "Ġcoach": 6866,
    "Ġsovere": 9259,
    "Ġheat": 5453,
    "Ġamongst": 8962,
    "======================================================================": 10072,
    "Ġsticking": 13431,
    "Ġruns": 8598,
    "Ġmustering": 18663,
    "trade": 19646,
    "Ġspectre": 16633,
    "august": 11073,
    "Ġhinges": 15217,
    "Ġterminating": 23514,
    "Ġrobinson": 17466,
    "Ġspirit": 3723,
    "Ġtem": 808,
    "Ġtrap": 7671,
    "jabez": 20935,
    "Ġenric": 21940,
    "Ġwrecks": 16820,
    "Ġreaders": 18916,
    "Ġhunting": 7257,
    "Ġadmirals": 20387,
    "Ġwhip": 8452,
    "Ġhilarious": 20300,
    "Ġremnants": 22800,
    "Ġuntamed": 19166,
    "Ġspars": 3809,
    "Ġrow": 5246,
    "Ġfootfall": 14664,
    "Ġdinah": 9455,
    "Ġfolding": 19729,
    "Ġoarsmen": 7737,
    "Ġdungeon": 16998,
    "Ġstories": 10868,
    "illating": 22111,
    "Ġemerge": 14932,
    "birth": 15325,
    "Ġvocabulary": 4996,
    "Ġpeterson": 9485,
    "stir": 12678,
    "Ġple": 1471,
    "personal": 24966,
    "Ġsung": 23278,
    "repeating": 20131,
    "sar": 12509,
    "Ġpyth": 21464,
    "Ġzoology": 22827,
    "Ġkrusen": 20716,
    "Ġwhen": 514,
    "Ġpoints": 5249,
    "Ġaccidents": 10299,
    "Ġkind": 1782,
    "sor": 7350,
    "chemical": 23812,
    "ientious": 11695,
    "precisely": 6916,
    "Ġpal": 4041,
    "Ġtra": 1391,
    "Ġfoolishly": 19783,
    "knot": 13748,
    "Ġimaginary": 11190,
    "terdam": 18134,
    "Ġbolts": 16945,
    "saddest": 25529,
    "Ġreliably": 22885,
    "Ġrepenting": 25324,
    "Ġconfessor": 24024,
    "Ġhindrance": 25221,
    "shows": 22461,
    "Ġzig": 18744,
    "Ġpassengers": 13679,
    "Ġveneration": 25047,
    "yth": 981,
    "bulk": 19925,
    "Ġbrows": 13305,
    "Ġskewer": 19622,
    "Ġcloser": 8663,
    "Ġextort": 22722,
    "Ġhyperborean": 26342,
    "Ġsquared": 1389,
    "successively": 24778,
    "Ġshake": 6033,
    "Ġpet": 4588,
    "Ġ110": 24437,
    "Ġrecursive": 4784,
    "Ġmon": 1253,
    "ibilities": 13017,
    "Ġchinks": 22256,
    "Ġsocket": 12790,
    "Ġsulky": 13518,
    "retion": 9365,
    "keen": 12787,
    "Ġdot": 4823,
    "hee": 10763,
    "fisher": 7545,
    "Ġdwelling": 7320,
    "Ġoblivious": 26034,
    "Ġimpertinence": 11369,
    "Ġship": 1093,
    "gives": 15361,
    "tips": 13799,
    "Ġsamuel": 10037,
    "added": 11663,
    "aping": 8193,
    "draw": 23905,
    "Ġrang": 9248,
    "unned": 21883,
    "Ġdistributions": 1052,
    "ognit": 19212,
    "amaz": 21854,
    "Ġgold": 3279,
    "Ġannum": 24208,
    "Ġcontrols": 1729,
    "Ġslu": 13839,
    "Ġsegmentation": 17343,
    "Ġreconc": 9686,
    "Ġaccumulating": 2725,
    "rest": 1631,
    "Ġincurable": 22558,
    "big": 13689,
    "Ġheight": 4222,
    "owner": 18612,
    "impatiently": 20473,
    "Ġzeros": 3327,
    "mother": 5480,
    "canst": 22973,
    "Ġwill": 679,
    "Ġsadly": 7300,
    "ivil": 6410,
    "friendship": 24053,
    "Ġmotioned": 19594,
    "Ġepid": 18009,
    "Ġrecognition": 3100,
    "Ġnot": 411,
    "ening": 3104,
    "Ġrecogn": 2750,
    "uned": 21875,
    "mouthful": 25209,
    "Ġdescribed": 6607,
    "centre": 17088,
    "Ġhilarity": 20299,
    "Ġhuddled": 20301,
    "pretend": 24883,
    "Ġturn": 1297,
    "Ġsoda": 25536,
    "Ġenvironments": 24103,
    "Ġaforethought": 25430,
    "ev": 6951,
    "Ġambitious": 18514,
    "Ġsize": 1217,
    "Ġdisgust": 6706,
    "Ġwrong": 4725,
    "Ġbal": 1130,
    "Ġouthouse": 22319,
    "Ġplunged": 8696,
    "Ġfamed": 16329,
    "bony": 15323,
    "Ġsled": 21221,
    "Ġtusks": 17256,
    "Ġthankful": 14742,
    "Ġdecember": 15010,
    "Ġreadability": 2727,
    "Ġmurdered": 6463,
    "Ġflashed": 11919,
    "Ġelder": 7224,
    "Ġarrival": 4732,
    "Ġprecipitous": 24836,
    "ertion": 12043,
    "peasant": 23117,
    "Ġwednesday": 9087,
    "Ġmagnanim": 14476,
    "Ġsteps": 2864,
    "Ġexceed": 1345,
    "Ġdiscovered": 4412,
    "<": 32,
    "sequence": 2856,
    "Ġriots": 23897,
    "Ġimplements": 2484,
    "Ġsle": 2013,
    "Ġb": 281,
    "Ġhaught": 10256,
    "Ġstrained": 10222,
    "Ġwise": 6811,
    "sailed": 17668,
    "Ġrec": 899,
    "Ġpillow": 10042,
    "Ġaversion": 18868,
    "Ġenlarged": 25987,
    "Ġconsume": 12964,
    "Ġthames": 13941,
    "oker": 10965,
    "Ġunman": 12779,
    "declined": 25175,
    "Ġmaintains": 2140,
    "atched": 6374,
    "safie": 20350,
    "Ġrender": 8304,
    "ashes": 6016,
    "Ġis": 347,
    "Ġsomewhat": 4899,
    "incess": 15485,
    "Ġdiscoveries": 13363,
    "Ġradiating": 24331,
    "vial": 17700,
    "_:": 17481,
    "Ġbrougham": 17874,
    "Ġhart": 17926,
    "firm": 10701,
    "Ġnapole": 15120,
    "neying": 22454,
    "sa": 8760,
    "Ġjabez": 11771,
    "Ġgives": 5019,
    "ricity": 23068,
    "eye": 6225,
    "Ġpat": 1818,
    "size": 15428,
    "Ġinstantly": 3591,
    "Ġemboldened": 22952,
    "Ġforcing": 3226,
    "arab": 21444,
    "bestow": 16931,
    "ips": 2592,
    "Ġaback": 22271,
    "Ġtube": 15006,
    "money": 8753,
    "arr": 3044,
    "strom": 15688,
    "Ġcloth": 9748,
    "Ġpresumably": 19626,
    "Ġdyspepsia": 20645,
    "Ġpertin": 18451,
    "aments": 12730,
    "sheltered": 25587,
    "handled": 19263,
    "conclude": 24071,
    "Ġscr": 11766,
    "whisper": 17084,
    "Ġrecklessness": 24743,
    "anthrop": 17385,
    "Ġlangu": 576,
    "Ġhairy": 23870,
    "Ġunwritten": 22038,
    "gorith": 548,
    "osp": 6853,
    "raction": 8137,
    "Ġears": 4492,
    "orted": 4605,
    "Ġride": 12763,
    "Ġworth": 4416,
    "!)": 10073,
    "13": 20752,
    "Ġenchanting": 17040,
    "Ġlacey": 10201,
    "Ġundiscovered": 18255,
    "Ġbelong": 3884,
    "Ġflaw": 23016,
    "Ġswamp": 14440,
    "Ġposition": 1953,
    "carbuncle": 26385,
    "Ġannounce": 13343,
    "ceiling": 21630,
    "Ġaberde": 22282,
    "Ġtolland": 24991,
    "Ġpleasantly": 14522,
    "aph": 10956,
    "Ġgrowth": 14632,
    "Ġtoilings": 24740,
    "Ġinvulnerable": 19148,
    "Ġpartiality": 9400,
    "incom": 21184,
    "Ġfastening": 16360,
    "Ġlandsman": 11353,
    "Ġallies": 18237,
    "Ġphren": 8573,
    "opposing": 24822,
    "Ġcolonel": 3410,
    "Ġoverpower": 12845,
    "Ġcapacious": 19178,
    "Ġdrew": 3537,
    "Ġ65": 24370,
    "shout": 22457,
    "umbled": 8494,
    "Ġmerest": 14034,
    "ille": 9222,
    "Ġmariner": 7245,
    "Ġincred": 5646,
    "Ġominous": 12428,
    "Ġplague": 11829,
    "sulphur": 25911,
    "Ġdecrease": 4202,
    "Ġdived": 9180,
    "Ġwars": 17789,
    "hole": 5586,
    "Ġped": 7844,
    "kitty": 10109,
    "Ġspecial": 2101,
    "Ġhas": 826,
    "Ġwindibank": 7255,
    "Ġloses": 15877,
    "Ġswain": 18881,
    "Ġwrists": 11115,
    "rushing": 10022,
    "ss": 395,
    "alongside": 19790,
    "odecimoes": 25320,
    "Ġadroit": 26002,
    "Ġonto": 14032,
    "Ġclaw": 22362,
    "exercise": 17462,
    "Ġcomical": 11681,
    "Ġbedfellow": 16441,
    "darker": 24518,
    "iscre": 17854,
    "Ġvisitor": 5331,
    "Ġgleams": 17313,
    "Ġglories": 16244,
    "Ġsword": 6733,
    "Ġcommunion": 19008,
    "Ġmis": 916,
    "hur": 6650,
    "awned": 19463,
    "Ġstrip": 9423,
    "Ġcurv": 3512,
    "Ġindestruct": 22965,
    "crippled": 26387,
    "ipper": 13743,
    "Ġjeer": 24127,
    "hate": 20894,
    "Ġuncompromised": 20606,
    "Ġaven": 10762,
    "measured": 19992,
    "untarily": 6312,
    "Ġmain": 812,
    "Ġpurch": 6600,
    "Ġregularity": 22783,
    "ek": 1907,
    "elev": 12463,
    "Ġbraced": 16582,
    "rowed": 22868,
    "Ġjuicy": 25372,
    "Ġengrossed": 13001,
    "Ġmasking": 2416,
    "pike": 11518,
    "Ġrival": 10489,
    "nikin": 23276,
    "match": 15394,
    "Ġshabby": 14114,
    "Ġascertain": 9710,
    "handedness": 24921,
    "Ġjustly": 11909,
    "ict": 596,
    "Ġnor": 1554,
    "Ġripe": 13239,
    "didst": 19352,
    "Ġinvested": 7277,
    "alle": 1293,
    "Ġflourish": 17163,
    "inarticulate": 21198,
    "Ġclient": 5556,
    "Ġrevolutions": 23847,
    "âĢĿ)": 21818,
    "Ġnormal": 1202,
    "Ġeverything": 3155,
    "caves": 20815,
    "dashed": 12460,
    "out": 467,
    "chased": 18046,
    "Ġtradesmen": 17106,
    "Ġproportions": 16470,
    "Ġcrabs": 19176,
    "Ġdisappointing": 19581,
    "Ġpatter": 828,
    "Ġfund": 2843,
    "Ġexec": 19495,
    "Ġleave": 2454,
    "Ġour": 1010,
    "olstad": 7612,
    "list": 7549,
    "Ġcommodores": 25376,
    "Ġdefined": 11904,
    "tons": 7557,
    "Ġforeshad": 23455,
    "Ġdiddled": 22671,
    "Ġhypotheses": 4386,
    "Ġprospect": 4708,
    "Ġconsulted": 13434,
    "feeders": 25236,
    "circle": 16738,
    "Ġjaw": 3321,
    "Ġquadrant": 11407,
    "Ġexclamations": 11364,
    "larking": 17596,
    "Ġfedallah": 6109,
    "Ġrelieved": 7665,
    "M": 49,
    "anxious": 15114,
    "Ġmeetings": 16534,
    "Ġ45": 14775,
    "confl": 22474,
    "prior": 21035,
    "ersampling": 18219,
    "Ġincl": 4271,
    "Ġchrysalis": 26541,
    "nerable": 16279,
    "Ġunwinding": 22064,
    "imet": 21709,
    "Ġcleat": 18949,
    "Ġvenerable": 9097,
    "aste": 4603,
    "Ġunsafe": 22045,
    "Ġflog": 23626,
    "Ġravine": 18639,
    "Ġsystem": 573,
    "squeezing": 25915,
    "Ġethiopian": 26616,
    "Ġentropy": 2032,
    "Ġabsence": 4896,
    "Ġfloundered": 18864,
    "affa": 23780,
    "Ġpointing": 5661,
    "year": 11097,
    "Ġsoldiers": 8690,
    "Ġannihilation": 15170,
    "middle": 11314,
    "Ġyear": 3287,
    "hearts": 13349,
    "pping": 1428,
    "Ġerecting": 24654,
    "Ġtune": 17728,
    "Ġexcl": 3475,
    "Ġweary": 5635,
    "Ġcubic": 20090,
    "rodden": 21538,
    "anguish": 15987,
    "Ġblock": 2575,
    "¯": 112,
    "Ġanoint": 25539,
    "mentioning": 24886,
    "Ġhardship": 18915,
    "Ġattached": 5392,
    "Ġcistern": 17384,
    "Ġunctuous": 10270,
    "Ġtin": 15466,
    "kilt": 4868,
    "Ġmccarthy": 5146,
    "Ġunfolding": 17087,
    "rison": 13782,
    "ats": 4254,
    "Ġremember": 2678,
    "Ġshun": 11714,
    "Ġdiabolically": 25515,
    "strang": 11187,
    "Ġinsensibility": 17111,
    "Ġlatest": 16824,
    "Ġsher": 3763,
    "Ġcomfor": 14055,
    "Ġidol": 7465,
    "idual": 1562,
    "Ġapprehensiveness": 16879,
    "retired": 11940,
    "ishmael": 18421,
    "moreover": 12974,
    "ights": 8477,
    "Ġunsuccessful": 18260,
    "iocr": 20925,
    "Ġarrang": 2467,
    "iii": 14781,
    "Ġtoad": 21513,
    "Ġdetermining": 14425,
    "Ġgeneva": 5450,
    "Ġserpent": 6738,
    "Ġhereafter": 9333,
    "Ġrespectively": 23252,
    "cou": 13699,
    "Ġmeadows": 11425,
    "import": 5668,
    "returns": 23146,
    "Ġreceive": 4705,
    "Ġdocument": 15022,
    "bread": 10689,
    "fs": 17537,
    "Ġwatson": 3596,
    "Ġrifts": 21980,
    "irra": 15789,
    "Ĝ": 221,
    "rimshander": 20659,
    "fac": 17543,
    "Ġinformed": 6718,
    "saw": 5895,
    "endurable": 22231,
    "Ġenlarge": 21941,
    "Ġhaughty": 11452,
    "Ġsum": 2699,
    "Ġcrime": 4618,
    "Ġtreat": 3176,
    "Ġmottled": 20681,
    "Ġindirectly": 8942,
    "ctuous": 9208,
    "Ġtorrent": 17093,
    "icilian": 20694,
    "Ġaccountability": 10441,
    "Ġramadan": 9577,
    "Ġig": 3502,
    "Ġtouching": 4682,
    "mouth": 9133,
    "Ġpince": 21474,
    "ateral": 19380,
    "pot": 10121,
    "Ġbadly": 12136,
    "Ġinsert": 19906,
    "quest": 4540,
    "Ġlesson": 7274,
    "Ġfearful": 6198,
    "Ġplaus": 22606,
    "Ġlug": 15656,
    "Ġpythag": 26451,
    "Ġolfactories": 26173,
    "reporting": 24496,
    "arman": 11599,
    "Ġgoest": 22428,
    "mbles": 23094,
    "Ġoverwhelm": 25053,
    "Ġimpro": 912,
    "dy": 4075,
    "hangs": 15372,
    "Ġdetected": 18841,
    "simon": 16974,
    "vember": 10858,
    "Ġinsulated": 23684,
    "Ġeigenvalues": 4999,
    "Ġhumorously": 18780,
    "Ġindul": 5858,
    "englishman": 23681,
    "gigantic": 15363,
    "lost": 8891,
    ";âĢĿ": 7790,
    "Ġbetake": 22908,
    "Ġfierceness": 26268,
    "Ġpubl": 3937,
    "Ġimagine": 3921,
    "Ġclouded": 13295,
    "intu": 22938,
    "Ġapproximates": 2414,
    "Ġlory": 12657,
    "generally": 9437,
    "Ġconflag": 20337,
    "Ġcrevice": 22728,
    "Ġaccord": 4025,
    "Ġrejoice": 10212,
    "Ġrobberies": 23025,
    "withdrawn": 23033,
    "mons": 17602,
    "reduced": 15815,
    "sne": 10128,
    "Ġinsc": 7584,
    "Ġsculpture": 26018,
    "Ġtransf": 22442,
    "Ġevent": 2951,
    "tha": 15827,
    "benevolent": 15237,
    "Ġdifferences": 18715,
    "Ġevil": 3805,
    "uzzle": 19585,
    "Ġopposing": 12044,
    "Ġsus": 18281,
    "laying": 19774,
    "Ġsoup": 7067,
    "ader": 14015,
    "Ġbeaufort": 13572,
    "Ġtoler": 7587,
    "Ġlinear": 3434,
    "Ġassistants": 9453,
    "christmas": 20257,
    "Ġmiller": 19884,
    "Ġpalpitated": 26087,
    "ener": 560,
    "lane": 10709,
    "strained": 21660,
    "Ġnone": 3224,
    "Ġ12": 5483,
    "Ġke": 1153,
    "produ": 10723,
    "Ġvertical": 16606,
    "Ġyouthful": 16725,
    "car": 4213,
    "meant": 7920,
    "kington": 11207,
    "Ġding": 12604,
    "possesses": 24615,
    "Ġlengthwise": 10455,
    "isturbed": 18299,
    "sort": 6798,
    "ulty": 22573,
    "Ġmaggie": 26294,
    "ission": 6456,
    "Ġindividual": 5744,
    "sence": 3309,
    "Ġgrown": 5628,
    "atches": 13849,
    "akers": 9743,
    "Ġtemporary": 7979,
    "ulged": 12735,
    "Ġmagical": 23105,
    "effort": 19216,
    "deliver": 19507,
    "Ġbegins": 7242,
    "arabian": 26449,
    "Ġrigging": 5601,
    "Ġdemanding": 16807,
    "Ġpersons": 6181,
    "illes": 12699,
    "Ġauthorities": 11268,
    "Ġmonuments": 22989,
    "iless": 10285,
    "Ġneeded": 7717,
    "Ġtalking": 3856,
    "recovered": 19788,
    "Ġcurving": 16236,
    "Ġwere": 558,
    "Ġcrammed": 16473,
    "cy": 637,
    "Ġlustrous": 20158,
    "bye": 5950,
    "Ġinsect": 12641,
    "explanation": 12362,
    "Ġantip": 24181,
    "involuntarily": 20417,
    "Ġstaving": 21744,
    "alescence": 15928,
    "ieving": 7031,
    "preserver": 20215,
    "rants": 13781,
    "Ġebb": 21625,
    "versed": 9829,
    "Ġtenement": 23551,
    "Ġtrusty": 24108,
    "Ġtrout": 22349,
    "Ġconsider": 2568,
    "Ġentreaties": 9038,
    "promontory": 24726,
    "comm": 7438,
    "Ġabroad": 8869,
    "Ġaffliction": 25847,
    "richard": 17289,
    "Ġoffspring": 16149,
    "Ġquestions": 3970,
    "atherley": 7218,
    "rum": 3470,
    "irection": 2386,
    "Ġselect": 3997,
    "despairing": 25077,
    "abash": 18112,
    "Ġdispel": 16598,
    "Ġaltitude": 26205,
    "x": 92,
    "Ġraising": 8912,
    "Ġdevoutly": 25835,
    "Ń": 260,
    "Ġmistifying": 23724,
    "Ġcharitable": 23274,
    "Ġmedium": 16708,
    "Ġlim": 2377,
    "Ġgrimes": 11036,
    "Ġcommenced": 8532,
    "Ġembarrassment": 10630,
    "enborough": 21288,
    "gerine": 22893,
    "Ġbrotherly": 16530,
    "Ġgermans": 25786,
    "wedding": 12526,
    "Ġspinal": 12306,
    "Ġmess": 7830,
    "Ġinexorable": 12260,
    "Ġmicha": 17815,
    "Ġdaniel": 15116,
    "perplex": 18339,
    "Ġpoles": 11006,
    "Ġarmchair": 8270,
    "Ġacknowledges": 24688,
    "ampl": 21852,
    "angs": 5835,
    "Ġdeliverer": 11954,
    "pulling": 25149,
    "Ġcapabilities": 4377,
    "Ġdisown": 22529,
    "confirmation": 26091,
    "Ġtropics": 17067,
    "Ġgloves": 8576,
    "Ġgenerative": 5644,
    "sworn": 24261,
    "Ġreducing": 1956,
    "Ġperry": 22401,
    "Ġapprehension": 7113,
    "Ġpanther": 16821,
    "otam": 21802,
    "imens": 1745,
    "Ġeighteen": 11242,
    "Ġsurrender": 16450,
    "Ġlevi": 3034,
    "trip": 21094,
    "Ġdisaster": 12892,
    "Ġmomentary": 11038,
    "Ġreconciliation": 25293,
    "alty": 17943,
    "Ġdifferen": 935,
    "Ġlandowner": 23384,
    "Ġerie": 20056,
    "Ġduncan": 13465,
    "boxes": 16890,
    "Ġcet": 6671,
    "ahead": 12438,
    "Ġenem": 4709,
    "rene": 5379,
    "Ġfrown": 10810,
    "Ġbluff": 16520,
    "hills": 13739,
    "reserved": 13846,
    "hark": 15369,
    "Ġjib": 14197,
    "trampled": 26336,
    "Ġprogressive": 5025,
    "Ġbars": 13900,
    "Ġcoolly": 9776,
    "Ġwithered": 19468,
    "Ġundergo": 23241,
    "Ġimply": 18445,
    "approb": 11044,
    "needle": 20312,
    "affections": 17359,
    "Ġporing": 21470,
    "Ġinstinctively": 13463,
    "Ġrumbling": 18214,
    "Ġblotted": 20219,
    "Ġashen": 21904,
    "Ġbaw": 15573,
    "Ġarising": 10936,
    "Ġacquitted": 18900,
    "Ġsupp": 1266,
    "Ġmonotonous": 13266,
    "Ġcurtains": 22972,
    "Ġcra": 2328,
    "Ġdestruction": 6601,
    "yielded": 25758,
    "direful": 25898,
    "tied": 21073,
    "comp": 3815,
    "happ": 3103,
    "dropping": 14986,
    "Ġfanatic": 23395,
    "Ġaccident": 5380,
    "Ġparading": 23714,
    "Ġfoundering": 21422,
    "Ġheeded": 13407,
    "nd": 11507,
    "Ġuttered": 7278,
    "collar": 19330,
    "Ġcraft": 4376,
    "Ġhill": 5626,
    "tal": 17672,
    "orses": 6052,
    "Ġlamp": 4114,
    "arms": 10177,
    "Ġwrenching": 17326,
    "simp": 17667,
    "Ġsettle": 6293,
    "Ġrigger": 19533,
    "unaffected": 21888,
    "Ġtyphoon": 12393,
    "Ġrepro": 7273,
    "Ġrephrased": 26480,
    "Ġsufficient": 2003,
    "oughed": 22085,
    "Ġdiscoloured": 15256,
    "unctuous": 21887,
    "ivia": 22080,
    "stairs": 5156,
    "Ġsprain": 22131,
    "Ġswim": 3819,
    "pin": 13770,
    "Ġtil": 12529,
    "ancient": 9658,
    "Ġstraighten": 24009,
    "mechanical": 25580,
    "Ġthine": 7372,
    "Ġperverseness": 13658,
    "Ġbranch": 8331,
    "Ġencounters": 19582,
    "Ġdisquis": 22532,
    "Ġriverside": 25248,
    "Ġsignification": 19204,
    "Ġshortness": 23485,
    "Ġlance": 4881,
    "Ġstepfather": 7219,
    "iny": 4294,
    "Ġhasty": 10480,
    "Ġhiss": 15792,
    "shock": 19855,
    "interred": 23741,
    "code": 15332,
    "Ġanimation": 11154,
    "Ġdependency": 3488,
    "Ġpromising": 10403,
    "Ġevanesc": 24298,
    "Ġsubmitted": 11876,
    "Ġnecess": 3476,
    "oise": 15406,
    "Ġdone": 1817,
    "considerably": 13449,
    "holder": 13286,
    "Ġhosmer": 6774,
    "Ġyields": 19658,
    "Ġmatrimonial": 25491,
    "Ġresignation": 18566,
    "Ġpretensions": 16561,
    "ondescript": 22920,
    "Ġhusband": 3619,
    "Ġhardest": 18914,
    "Ġthigh": 10190,
    "rin": 10125,
    "Ġaltar": 9231,
    "Ġcomment": 9235,
    "Ġsaint": 15510,
    "Ġscal": 1690,
    "Ġsuffusing": 23036,
    "Ġsparing": 22134,
    "Ġexcuse": 5863,
    "Ġcharing": 14184,
    "Ġsandwic": 24666,
    "marriage": 7744,
    "Ġsaves": 18325,
    "Ġ20": 8617,
    "Ġtimorous": 24230,
    "Ġefficiently": 3635,
    "Ġdanced": 7841,
    "ı": 242,
    "Ġarid": 22187,
    "Ġlounged": 19956,
    "ith": 330,
    "Ġrep": 1936,
    "Ġsingled": 23776,
    "Ġcountrymen": 23599,
    "Ġessence": 13409,
    "Ġbeg": 1282,
    "aves": 2541,
    "uber": 15448,
    "Ġwatching": 4857,
    "quakes": 21860,
    "Ġgiddy": 20499,
    "reen": 21234,
    "Ġstone": 4647,
    "Ġbinnacle": 8118,
    "Ġblackness": 9394,
    "mortals": 25411,
    "wheel": 22877,
    "circumspect": 26088,
    "need": 10981,
    "Ġrealism": 18984,
    "pier": 17637,
    "Ġdu": 4586,
    "Ġpals": 13921,
    "Ġperth": 7023,
    "alleled": 14433,
    "Ġthirdly": 24148,
    "Ġchancing": 22253,
    "Ġmuzzle": 21324,
    "Ġbreezes": 14873,
    "Ġ180": 16608,
    "Ġowed": 10783,
    "ellig": 525,
    "Ġleaped": 8829,
    "Ġfrosted": 19805,
    "immense": 18057,
    "knowledge": 7476,
    "Ġante": 17900,
    "Ġcivil": 4680,
    "Ġinsignific": 13184,
    "Ġcompromised": 22577,
    "Ġalche": 21787,
    "dden": 1803,
    "Ġamounts": 6705,
    "unavoidable": 17393,
    "iar": 2375,
    "<MASK>": 4,
    "hind": 20896,
    "listened": 15047,
    "Ġsanction": 20028,
    "Ġauxiliary": 26421,
    "expectations": 24281,
    "Ġvexation": 10590,
    "Ġfragment": 14507,
    "Ġbarrowful": 25597,
    "total": 17253,
    "Ġincompetent": 25681,
    "oment": 919,
    "Ġaboriginal": 14192,
    "dearest": 11739,
    "Ġcirculation": 16419,
    "Ġcompressed": 21849,
    "ower": 1033,
    "Ġexpedition": 10637,
    "Ġreminiscences": 26272,
    "Ġsultry": 20290,
    "Ġswe": 2288,
    "riers": 18189,
    "smoking": 23916,
    "Ġbroom": 18908,
    "seem": 10231,
    "Ġrequisite": 18632,
    "Ġburtons": 19255,
    "Ġsuav": 22091,
    "Ġcarried": 3693,
    "Ġtemper": 957,
    "Ġintently": 8168,
    "luc": 9756,
    "Ġharpooneer": 3771,
    "Ġprovided": 6578,
    "Ġcircumstances": 3923,
    "Ġ27": 8618,
    "Ġstrangest": 14800,
    "Ġpreacher": 18370,
    "Ġtormenting": 15109,
    "Ġfreedom": 9085,
    "glow": 20876,
    "Ġincarnation": 25575,
    "Ġeffeminacy": 20719,
    "asburgh": 15651,
    "®": 111,
    "Ġdishon": 12235,
    "lifeless": 24316,
    "ipelagoes": 13675,
    "epilogue": 22104,
    "Ġamber": 7027,
    "shorn": 22462,
    "snatched": 24851,
    "advanced": 19590,
    "uccas": 21109,
    "Ġcompany": 3720,
    "wandered": 20287,
    "Ġmarsh": 9825,
    "Ġsurviving": 24638,
    "Ġburst": 4380,
    "ī": 236,
    "limin": 8383,
    "Ġowner": 8925,
    "Ġunrest": 11719,
    "ios": 2153,
    "ario": 14251,
    "ý": 190,
    "ograph": 4799,
    "Ġcentaurs": 23838,
    "Ġmitigates": 3050,
    "axen": 22526,
    "Ġsequentially": 4916,
    "ws": 7353,
    "Ġardently": 9500,
    "Ġsmelling": 16070,
    "83": 13684,
    "Ġconcrete": 20640,
    "velled": 9880,
    "Ġquickly": 4242,
    "Ġcorpore": 13405,
    "advice": 12162,
    "hercules": 22211,
    "bon": 13688,
    "sh": 648,
    "Ġreappearance": 21670,
    "Ġincorruption": 26311,
    "Ġsettles": 22925,
    "Ġcowards": 12578,
    "Ġmerc": 9428,
    "Ġapparel": 20438,
    "Ġpilgrimage": 17311,
    "devilish": 17083,
    "disposition": 10046,
    "Ġmultiplied": 23694,
    "converse": 22478,
    "Ġits": 706,
    "Ġimpossible": 3543,
    "Ġpra": 4346,
    "Ġsavoury": 23882,
    "Ġcedars": 20294,
    "Ġmonoman": 7938,
    "Ġcounsel": 13619,
    "enit": 17783,
    "mortal": 10116,
    "Ġhogshe": 20494,
    "Ġcreamy": 14335,
    "sac": 7140,
    "Ġconsuming": 22799,
    "Ġwouldst": 18502,
    "company": 9462,
    "_;": 6642,
    "Ġlaug": 3626,
    "Ġaught": 8777,
    "Ġsaving": 15891,
    "Ġpretended": 19316,
    "Ġunsur": 22026,
    "Ġchiefly": 5766,
    "igh": 2030,
    "anation": 5804,
    "Ġtack": 5621,
    "Ġcavity": 20490,
    "fashion": 8080,
    "Ġseptember": 18210,
    "perfect": 7634,
    "Ġserene": 8166,
    "Ġyore": 21782,
    "Ġsigmoid": 2460,
    "Ġrequisition": 22644,
    "requent": 3649,
    "strade": 5066,
    "Ġwife": 2587,
    "Ġmamm": 25093,
    "articulate": 17401,
    "Ġhurts": 19113,
    "Ġmira": 8407,
    "obvious": 9360,
    "ged": 1513,
    "Ġsaved": 6691,
    "Ġworried": 22931,
    "ethe": 9679,
    "satisfactory": 16895,
    "Ġsant": 21217,
    "blast": 9590,
    "hauled": 20671,
    "sensible": 20054,
    "mm": 675,
    "desk": 23813,
    "law": 6116,
    "finds": 19928,
    "Ġblinds": 8006,
    "Ġcattle": 12577,
    "Ġrepairing": 25591,
    "atch": 674,
    "warmly": 25029,
    "iling": 3092,
    "Ġappar": 7409,
    "weight": 2939,
    "case": 5206,
    "å": 166,
    "Ġcyp": 21348,
    "Ġpittance": 15621,
    "shot": 2164,
    "Ġintentionally": 24525,
    "Ġslighter": 18942,
    "willing": 6593,
    "longer": 8616,
    "Ġtemptation": 8681,
    "Ġwip": 13856,
    "athies": 22707,
    "Ġreproofs": 24893,
    "Ġfigures": 8633,
    "Ġstates": 1853,
    "Ġchest": 5185,
    "Ġledge": 19404,
    "ghost": 20889,
    "Ġform": 1024,
    "Ġreasoner": 14443,
    "Ġsensitiveness": 23739,
    "abominable": 20597,
    "hairs": 20906,
    "Ġepoch": 26474,
    "arted": 2200,
    "Ġcoopman": 25830,
    "Ġunderstanding": 1785,
    "Ġsinews": 20289,
    "burnt": 20082,
    "hinting": 17571,
    "Ġintelligence": 562,
    "Ġcourtship": 24140,
    "tra": 5003,
    "uplifted": 17698,
    "Ġshadowed": 24050,
    "Ġsulk": 15049,
    "Ġdropping": 7481,
    "Ġcourting": 23294,
    "Ġsuperstitions": 17073,
    "Ġdisease": 14261,
    "lengths": 24847,
    "esteemed": 26011,
    "Ġregarding": 13214,
    "í": 174,
    "Ġheavier": 13107,
    "rolled": 9062,
    "Ġradiant": 16811,
    "Ġnetworks": 598,
    "Ġbridal": 14957,
    "_,": 2801,
    "lodged": 25909,
    "sixty": 24853,
    "Ġinsane": 19271,
    "Ġbrah": 19360,
    "Ġcomfits": 21851,
    "Ġnaturalists": 10366,
    "Ġdrama": 16331,
    "fig": 8738,
    "Ġwarehouses": 20420,
    "Ġdissimilar": 22536,
    "cell": 10690,
    "presbyter": 20621,
    "anything": 5518,
    "rise": 6227,
    "Ġstraits": 7993,
    "Ġindec": 13931,
    "stranger": 9887,
    "ked": 5616,
    "Ġtren": 17724,
    "Ġleathern": 15053,
    "Ġdesperate": 7776,
    "occurred": 13342,
    "Ġneg": 1333,
    "Ġsquid": 11883,
    "sleep": 6510,
    "Ġabounding": 12348,
    "Ġvon": 14083,
    "Ġnumberless": 16418,
    "Ġminded": 23232,
    "Ġender": 11696,
    "Ġfirm": 3868,
    "onet": 12550,
    "Ġhouses": 6139,
    "Ġimparted": 15992,
    "Ġordering": 18997,
    "Ġdum": 10814,
    "======": 9837,
    "Ġperpetual": 12307,
    "Ġjulia": 22307,
    "akeman": 6268,
    "Ġunimpe": 22076,
    "Ġsauce": 15894,
    "ta": 13792,
    "Ġbe": 336,
    "principal": 20662,
    "Ġsk": 962,
    "Ġsensibility": 14516,
    "buttoned": 13636,
    "overhearing": 19055,
    "Ġretribution": 16285,
    "Ġveracity": 23894,
    "Ġelemental": 19920,
    "Ġcrush": 9424,
    "Ġnatives": 17955,
    "Ġsociable": 19406,
    "whale": 2137,
    "bons": 17489,
    "Ġinhuman": 13932,
    "contin": 16544,
    "Ġproportion": 7279,
    "Ġbumpkins": 25282,
    "Ġimplicated": 24876,
    "Ġabandon": 12262,
    "Ġsympathy": 6346,
    "Ġglobu": 23277,
    "xter": 9149,
    "Ġ]": 15462,
    "erranean": 9337,
    "announce": 24563,
    "Ġpagans": 16923,
    "odious": 21814,
    "black": 6768,
    "Ġmadden": 10450,
    "Ġendeavouring": 8034,
    "Ġbrawn": 10485,
    "evade": 24817,
    "geor": 15982,
    "almost": 4944,
    "aff": 3101,
    "Ġbarricade": 14663,
    "twelve": 14625,
    "Ġsufferer": 16262,
    "seemingly": 25364,
    "Ġbloodless": 19341,
    "towards": 5004,
    "Ġunfrequent": 24113,
    "Ġcling": 11778,
    "Ġstrain": 7604,
    "Ġsnatched": 10474,
    "Ġhollows": 19743,
    "ggy": 13118,
    "Ġmantelpiece": 15212,
    "Ġspiral": 14587,
    "Ġchemical": 10413,
    "screw": 9350,
    "Ġplains": 14626,
    "onical": 21256,
    "Ġsporty": 19891,
    "Ġlost": 2633,
    "Ġadopt": 10635,
    "ool": 17620,
    "Ġexactly": 2771,
    "bath": 13693,
    "Ġhats": 14622,
    "Ġimmedi": 2904,
    "understand": 1121,
    "conclusive": 25675,
    "anatory": 21366,
    "hearse": 17752,
    "Ġtool": 21514,
    "enty": 2916,
    "Ġuser": 15920,
    "thank": 4951,
    "Ġunearthly": 9039,
    "scrape": 25700,
    "Ġcargo": 16293,
    "Ġcorrob": 16268,
    "blame": 14798,
    "Ġjoin": 4856,
    "Ġmysticetus": 24923,
    "Ġcollins": 2180,
    "ots": 3295,
    "vacancies": 25921,
    "Ġcottages": 14731,
    "Ġprizes": 13078,
    "Ġfullest": 14817,
    "rut": 8091,
    "aky": 18412,
    "Ġbanished": 10620,
    "Ġcaptivating": 26051,
    "maker": 12497,
    "isher": 2878,
    "Ġunite": 9257,
    "hopper": 23718,
    "Ġcollinses": 19131,
    "Ġinc": 702,
    "pulled": 25148,
    "Ġroute": 11384,
    "Ġconcernment": 23651,
    "hound": 20897,
    "Ġmr": 660,
    "iter": 4391,
    "Ġbreathes": 13250,
    "Ġeyes": 1335,
    "paddington": 20480,
    "elaborate": 21579,
    "Ġconfl": 11139,
    "glo": 8741,
    "Ġgentleness": 8713,
    "Ġexc": 1833,
    "rivial": 9436,
    "Ġpl": 744,
    "exact": 7909,
    "Ġdiscl": 9801,
    "Ġfruitless": 25607,
    "Ġspir": 2425,
    "Ġimprisonment": 22392,
    "Ġorder": 1683,
    "ifted": 4496,
    "ay": 355,
    "ipping": 2205,
    "Ġledgers": 23943,
    "mmet": 10990,
    "early": 20121,
    "illing": 8174,
    "ription": 5676,
    "investigations": 25535,
    "Ġrenders": 13287,
    "Ġsuspicions": 9481,
    "Ġtreacherously": 25132,
    "Ġpacific": 5154,
    "retreat": 23145,
    "shells": 26058,
    "Ġsunset": 8965,
    "arthly": 8029,
    "creatures": 7515,
    "Ġoccas": 2702,
    "Ġattacked": 10571,
    "masculine": 24389,
    "Ġincidentally": 16956,
    "Ġmounttop": 19980,
    "amused": 21856,
    "uniform": 18162,
    "Ġpolynes": 16083,
    "Ġpolar": 9413,
    "strike": 14953,
    "darkened": 24519,
    "Ġheightens": 24159,
    "Ġroving": 22408,
    "Ġhval": 21491,
    "Ġmason": 10161,
    "Ġenlivened": 26210,
    "Ġdistended": 16048,
    "helping": 23149,
    "Ġbarbarians": 19589,
    "Ġspread": 5162,
    "hanging": 10104,
    "Ġknights": 15154,
    "stocks": 23825,
    "conclusions": 25674,
    "prevent": 11800,
    "Ġsecurity": 8980,
    "Ġchalk": 15937,
    "Ġclassifies": 11843,
    "Ġreverber": 19869,
    "Ġpassing": 4314,
    "Ġhopkins": 23137,
    "Ġfrequented": 16588,
    "Ġdenied": 9003,
    "Ġrid": 4354,
    "Ġburg": 23658,
    "Ġmastery": 23998,
    "Ġthreatens": 24377,
    "Ġunlikely": 10911,
    "hen": 3518,
    "Ġcrosswise": 18888,
    "finger": 10097,
    "iant": 5427,
    "Ġgigantic": 5916,
    "Ġsimil": 2528,
    "Ġclutched": 13522,
    "Ġhurrying": 11999,
    "watching": 16932,
    "oo": 7551,
    "Ġnarr": 5086,
    "Ġprolonged": 8358,
    "augment": 18831,
    "Ġessentially": 24925,
    "Ġsuffers": 2973,
    "Ġliveliest": 24774,
    "bears": 22496,
    "Ġbracing": 16583,
    "rance": 5994,
    "Ġloomed": 12305,
    "Ġclerks": 17298,
    "poor": 6061,
    "ators": 7828,
    "gorge": 22329,
    "Ġindeed": 1678,
    "Ġkicked": 10585,
    "Ġbloss": 19258,
    "Ġbaggy": 24540,
    "voc": 8393,
    "fearing": 18533,
    "Ġtruth": 3322,
    "inctions": 17735,
    "estab": 14174,
    "ĠĠĠĠĠĠĠĠĠĠĠĠĠĠĠĠĠĠĠĠĠĠĠĠĠĠĠĠĠĠĠĠĠĠĠĠ": 23670,
    "Ġmaelstrom": 19359,
    "Ġcrazy": 8596,
    "inc": 2518,
    "track": 24337,
    "Ġincognit": 22560,
    "nment": 20992,
    "earthly": 24722,
    "Ġexpressive": 8985,
    "ruined": 18353,
    "satisfaction": 9996,
    "kinder": 24846,
    "vity": 7814,
    "picture": 11410,
    "Ġillustration": 19137,
    "Ġxxxix": 24971,
    "stealthily": 23967,
    "Ġcedar": 15193,
    "py": 17626,
    "Ġthe": 270,
    "Ġelij": 8913,
    "Ġpond": 13919,
    "Ġviciss": 11296,
    "Ġtransformations": 3484,
    "Ġware": 12559,
    "dued": 7908,
    "Ġending": 18924,
    "Ġeventually": 8620,
    "ĠĠĠĠĠĠĠĠĠĠĠĠĠĠĠĠĠ": 22956,
    "brothers": 17026,
    "chie": 21693,
    "fordshire": 4678,
    "Ġsplinters": 15107,
    "Ġprofoundly": 16861,
    "Ġgaze": 6931,
    "Ġinches": 5846,
    "Ġhurricane": 16434,
    "commun": 15037,
    "Ġquietude": 19363,
    "Ġtoss": 10188,
    "Ġintensity": 10020,
    "Ġlabrador": 23335,
    "Ġsodden": 25537,
    "Ġhell": 5020,
    "Ġforb": 11667,
    "express": 4897,
    "Ġventured": 7499,
    "Ġdiscernible": 15074,
    "Ġfads": 21419,
    "doub": 6224,
    "bag": 7540,
    "Ġeels": 21623,
    "Ġalmost": 1655,
    "determ": 7105,
    "Ġcommunity": 19009,
    "raid": 3280,
    "Ġbarque": 23794,
    "laden": 14933,
    "sig": 2875,
    "Ġwrapped": 8341,
    "quered": 11063,
    "Ġhaunts": 18201,
    "points": 14397,
    "achines": 1720,
    "Ġgeological": 14535,
    "Ġwhispering": 14949,
    "Ġpulverize": 23396,
    "renewed": 19706,
    "Ġrespecting": 14487,
    "Ġcalculating": 9929,
    "Ġhan": 15622,
    "hatherley": 17570,
    "Ġneuron": 1807,
    "Ġinconsiderable": 21498,
    "ignity": 4374,
    "Ġaud": 6663,
    "Ġarbit": 4652,
    "Ġshroud": 6482,
    "Ġdaring": 8120,
    "alogue": 25163,
    "seam": 10877,
    "Ġrevel": 9217,
    "sec": 6153,
    "Ġtuning": 3071,
    "Ġbest": 1974,
    "Ġawed": 23589,
    "mass": 12494,
    "Ġredden": 15698,
    "Ġscroll": 14195,
    "Ġcongealed": 25983,
    "ides": 2158,
    "Ġepisode": 26350,
    "Ġvess": 3296,
    "local": 22515,
    "Ġapothecary": 13663,
    "Ġoutlast": 22318,
    "hyena": 24257,
    "Ġdining": 6977,
    "ativeness": 15524,
    "Ġscrib": 22293,
    "Ġache": 18664,
    "Ġintrospect": 15833,
    "reported": 24495,
    "erest": 10700,
    "Ġfragrant": 13099,
    "Ġrecalled": 8538,
    "Ġbutcher": 18273,
    "asht": 4084,
    "Ġrede": 13987,
    "irect": 5553,
    "Ġjacobian": 2892,
    "Ġadver": 5641,
    "page": 13775,
    "igner": 21705,
    "Ġlordly": 23748,
    "Ġunconcerned": 20513,
    "Ġsaucer": 20608,
    "Ġrepining": 23363,
    "Ġseer": 21964,
    "te": 993,
    "iveness": 2465,
    "Ġexamined": 6334,
    "Ġsettling": 11064,
    "Ġlandsmen": 11354,
    "Ġmol": 12566,
    "Ġabound": 8867,
    "uteness": 17990,
    "homage": 25618,
    "Ġmuffled": 10644,
    "om": 315,
    "Ġreplace": 14479,
    "Ġfort": 2579,
    "baggage": 24927,
    "Ġtusk": 25427,
    "Ġdishonoured": 20393,
    "Ġwe": 388,
    "Ġexterm": 21833,
    "paralleled": 14512,
    "Ġinjuring": 24273,
    "Ġcigaret": 16977,
    "rings": 10725,
    "gpt": 5356,
    "oop": 10718,
    "Ġcoffee": 6760,
    "younger": 11316,
    "unconquerable": 21896,
    "Ġlaudanum": 20693,
    "Ġrevolve": 19732,
    "Ġmann": 18417,
    "Ġexceeded": 14437,
    "Ġx": 2073,
    "Ġlast": 1122,
    "Ġmarrying": 6178,
    "Ġresume": 18565,
    "Ġnineveh": 13393,
    "Ġcook": 3711,
    "mystery": 15160,
    "Ġjoking": 12842,
    "Ġcurric": 22970,
    "shabb": 18498,
    "paid": 15417,
    "poled": 22909,
    "avating": 18569,
    "Ġorgies": 18287,
    "Ġharpo": 1941,
    "entreaties": 26188,
    "spr": 7433,
    "Ġdup": 21430,
    "acies": 14281,
    "ture": 7556,
    "desolate": 25718,
    "Ġinvestigations": 17249,
    "Ġimmortal": 8017,
    "Ġdif": 869,
    "gered": 9279,
    "Ġunconscious": 9549,
    "Ġknight": 9730,
    "yards": 9626,
    "Ġpractical": 3164,
    "Ġgirth": 13139,
    "Ġenthusiasm": 8064,
    "Ġtreating": 4284,
    "dogs": 25404,
    "transom": 19737,
    "Ġseedy": 21967,
    "Ġdaresay": 14708,
    "Ġobscured": 15014,
    "Ġchis": 11755,
    "ropes": 7902,
    "Ġ103": 24413,
    "Ġtone": 4039,
    "because": 4925,
    "Ġgestures": 13539,
    "Ġhobbling": 25646,
    "mystical": 25319,
    "Ġoverfitting": 1545,
    "roded": 17960,
    "Ġstructured": 2972,
    "Ġrecol": 4028,
    "tish": 17680,
    "Ġoppressive": 20457,
    "Ġsallow": 12541,
    "where": 2090,
    "Ġeats": 15681,
    "Ġforcibly": 10065,
    "Ġeffectually": 16171,
    "agree": 14070,
    "Ġmediocr": 24144,
    "queequeg": 4334,
    "Ġconstraint": 16517,
    "Ġplay": 2624,
    "Ġcryst": 9921,
    "Ġsublim": 19969,
    "Ġadventure": 5981,
    "wrong": 13210,
    "Ġchamounix": 14868,
    "Ġafrica": 12349,
    "Ġpriests": 15044,
    "Ġenergies": 25461,
    "pushed": 21025,
    "cig": 17506,
    "animate": 12582,
    "Ġtext": 2265,
    "Ġstring": 11832,
    "Ġprincely": 24153,
    "Ġdepartments": 24247,
    "Ġpatches": 4239,
    "Ġdev": 888,
    "Ġventil": 8018,
    "Ġannals": 17902,
    "ite": 712,
    "Ġmankind": 6699,
    "iod": 3838,
    "Ġmockery": 12112,
    "Ġsacrifice": 9557,
    "footman": 17165,
    "Ġreward": 6145,
    "ole": 9616,
    "Ġfielding": 16234,
    "Ġdanish": 21434,
    "onian": 17771,
    "Ġgathers": 24741,
    "separation": 25227,
    "Ġenglishmen": 19433,
    "etwork": 445,
    "mises": 20980,
    "Ġcourtesy": 9949,
    "Ġcrav": 19175,
    "Ġdishes": 16054,
    "coronet": 16865,
    "Ġsuggests": 12205,
    "Ġslapped": 23177,
    "ells": 5305,
    "Ġaroused": 15902,
    "Ġinside": 5448,
    "pure": 17628,
    "ias": 6362,
    "Ġvital": 9246,
    "Ġfre": 1571,
    "Ġconstrain": 2638,
    "au": 779,
    "requiem": 24857,
    "Ġdames": 23477,
    "umnal": 18302,
    "emper": 18185,
    "Ġworking": 5574,
    "Ġduchess": 4801,
    "skeleton": 17379,
    "Ġsofas": 26226,
    "Ġcommonplace": 11098,
    "Ġunchanging": 22049,
    "Ġallegor": 25547,
    "vii": 13151,
    "ĠĠĠĠĠĠĠĠĠĠĠĠĠĠĠĠĠĠĠĠĠĠĠĠĠĠĠĠĠĠĠĠĠĠĠĠĠĠĠĠĠĠĠĠĠĠĠĠĠ": 20040,
    "trimmed": 23954,
    "elfare": 11781,
    "Ġentreaty": 10533,
    "ezing": 10577,
    "Ġlullaby": 20591,
    "ated": 724,
    "Ġperpendicularly": 11377,
    "Ġtablet": 19206,
    "Ġelements": 2667,
    "Ġstup": 14009,
    "Ġsigma": 1543,
    "ellow": 3875,
    "Ġacutely": 14318,
    "Ġyoke": 18100,
    "boiling": 19000,
    "oth": 1185,
    "Ġtrifled": 24676,
    "apolog": 22338,
    "government": 25408,
    "Ġlan": 5821,
    "Ġhun": 1497,
    "murder": 10568,
    "Ġnorthern": 7263,
    "Ġresemblance": 7980,
    "Ġ46": 19494,
    "Ġenhance": 3207,
    "Ġbetween": 791,
    "Ġnegative": 1466,
    "iz": 365,
    "apprec": 22849,
    "morn": 20978,
    "Ġdisapprobation": 16062,
    "Ġpride": 3822,
    "Ġtransmit": 10308,
    "bourn": 3302,
    "Ġsnap": 11205,
    "Ġ7": 4746,
    "Ġdefendants": 15145,
    "Ġhoars": 19079,
    "laws": 19809,
    "Ġpunish": 12164,
    "Ġglades": 19375,
    "Ġmot": 2985,
    "Ġpoising": 22596,
    "Ġengra": 7873,
    "Ġgul": 7859,
    "Ġrichness": 19313,
    "Ġburke": 19253,
    "ulating": 10890,
    "ivity": 1613,
    "awe": 20767,
    "ignorantly": 25190,
    "Ġfocuses": 8653,
    "Ġelig": 9782,
    "prehens": 9292,
    "Ġaxe": 15065,
    "Ġusefulness": 19411,
    "ntax": 933,
    "Ġfaith": 5351,
    "noble": 7921,
    "Ġworaciousness": 22934,
    "Ġblushed": 13007,
    "Ġlithe": 24670,
    "medical": 23346,
    "Ġexperiences": 13030,
    "stone": 5090,
    "Ġpoet": 8208,
    "sus": 6229,
    "garnished": 26391,
    "collecting": 26083,
    "Ġexquisitely": 20204,
    "Ġcupidity": 24537,
    "terr": 8153,
    "rush": 7012,
    "spiracle": 22739,
    "Ġdispose": 23884,
    "Ġstatement": 5255,
    "Ġboon": 22641,
    "Ġconstantly": 11977,
    "nuts": 15401,
    "aby": 18111,
    "bling": 10686,
    "Ġtruce": 24119,
    "Ġcrests": 25687,
    "Ġczar": 12579,
    "structure": 4469,
    "Ġbeadle": 26487,
    "Ġascribed": 14859,
    "september": 14039,
    "crowd": 25255,
    "Ġdeclares": 16994,
    "Ġslave": 7452,
    "Ġhosts": 19941,
    "Ġsleeping": 6319,
    "Ġfunction": 591,
    "Ġportion": 7490,
    "says": 13304,
    "prov": 16425,
    "foam": 24420,
    "Ġseeks": 14309,
    "Ġravings": 18638,
    "trunk": 23953,
    "Ġground": 2847,
    "intention": 10371,
    "Ġenvelopes": 24512,
    "crews": 15046,
    "Ġflushed": 13033,
    "Ġfoes": 11955,
    "aract": 17898,
    "Ġwhistles": 24623,
    "Ġcompetent": 11821,
    "say": 3983,
    "orious": 6008,
    "Ġforemost": 12009,
    "acute": 22599,
    "detained": 24384,
    "Ġacts": 2293,
    "dat": 1653,
    "Ġbeen": 626,
    "lic": 17589,
    "ensibility": 22553,
    "Ġarrives": 23611,
    "Ġmurmur": 14592,
    "horses": 17569,
    "Ġrelated": 3714,
    "servant": 15039,
    "Ġwhoever": 10975,
    "Ġwatchful": 16529,
    "Ġmutinous": 23963,
    "Ġconveys": 16857,
    "Ġcatching": 9480,
    "Ġshelter": 17010,
    "Ġsill": 10768,
    "leep": 4636,
    "Ġinvincible": 23483,
    "¿": 128,
    "sartain": 25624,
    "Ġpolic": 13165,
    "Ġinsinuating": 19273,
    "Ġauthent": 14515,
    "Ġdefence": 11069,
    "ulity": 10889,
    "dipped": 20839,
    "Ġlamb": 8817,
    "dishon": 20406,
    "heavenly": 20047,
    "remembrance": 25704,
    "unbounded": 21890,
    "Ġsaleve": 17394,
    "Ġissu": 6254,
    "Ġdau": 21428,
    "Ġknives": 14841,
    "eag": 20844,
    "sleeping": 13458,
    "noted": 22754,
    "Ġmonogra": 22987,
    "Ġpreceded": 13432,
    "Ġmisunderstand": 18705,
    "Ġamply": 22487,
    "Ġdesired": 4666,
    "resolutions": 26166,
    "Ġpossess": 3205,
    "Ġdiab": 10615,
    "Ġvertically": 19383,
    "oons": 12503,
    "prit": 19345,
    "Ġgaz": 4043,
    "Ġbow": 3059,
    "Ġkilburn": 18350,
    "_.âĢĿ": 5887,
    "Ġnecessary": 4474,
    "heaving": 21210,
    "Ġoutwardly": 25001,
    "Ġfanning": 23393,
    "Ġwarriors": 19725,
    "Ġsympt": 7013,
    "Ġagon": 10324,
    "Ġrecital": 16146,
    "Ġadaptively": 4168,
    "possess": 5984,
    "Ġslack": 8958,
    "sneezes": 11449,
    "quite": 4648,
    "companions": 15027,
    "Ġpunctual": 17140,
    "Ġnormalizing": 1822,
    "Ġdrugg": 17122,
    "Ġcommun": 1703,
    "Ġecc": 11632,
    "fast": 3069,
    "Ġpurple": 10436,
    "opposition": 24820,
    "Ġcompl": 3759,
    "Ġtears": 4233,
    "Ġmistress": 8615,
    "Ġsorrowful": 10540,
    "Ġholmes": 1308,
    "pute": 8849,
    "regiment": 16452,
    "Ġproper": 1385,
    "Ġcoronation": 13338,
    "Ġdab": 15592,
    "Ġmayhap": 18708,
    "totally": 25419,
    "soup": 21061,
    "Ġtuileries": 24824,
    "Ġfusion": 21417,
    "Ġplates": 11009,
    "problem": 25244,
    "contents": 12062,
    "Ġhogshead": 26370,
    "skin": 10572,
    "vent": 683,
    "Ġcease": 7076,
    "brain": 13691,
    "Ġhackney": 20435,
    "Ġrespects": 7267,
    "wind": 4253,
    "Ġfundament": 2926,
    "combe": 7660,
    "Ġheroes": 10580,
    "Ġcustoms": 19654,
    "luding": 6701,
    "Ġoctober": 17229,
    "Ġimpregn": 26024,
    "Ġsaf": 4000,
    "Ġoutweigh": 22327,
    "mell": 20966,
    "Ġcollapsed": 15086,
    "Ġdispirited": 23887,
    "Ġevidence": 5270,
    "ipelag": 12849,
    "Ġvagueness": 25739,
    "Ġwarning": 9061,
    "declaration": 25176,
    "Ġforemast": 12010,
    "Ġwondrously": 24069,
    "agement": 4190,
    "Ġmanufactured": 22336,
    "Ġfact": 1725,
    "tered": 2228,
    "Ġhans": 12631,
    "Ġadieu": 10055,
    "Ġjury": 5378,
    "Ġsurpassed": 25268,
    "Ġmaketh": 15192,
    "Ġbordering": 17231,
    "Ġushered": 18357,
    "haz": 17566,
    "initely": 7566,
    "Ġ3": 3984,
    "Ġexclude": 19044,
    "Ġcomplying": 18587,
    "Ġscre": 9741,
    "Ġunsupplied": 22047,
    "Ġbarbs": 10535,
    "Ġconsisted": 10422,
    "Ġexile": 12721,
    "Ġtracing": 18892,
    "Ġsymbolize": 24963,
    "Ġproceeding": 9910,
    "Ġnooks": 26013,
    "Ġmarch": 4082,
    "Ġsubset": 9874,
    "Ġrequire": 900,
    "royal": 11396,
    "Ġprynne": 25542,
    "obtained": 23102,
    "gainst": 25144,
    "onom": 9161,
    "ulated": 6029,
    "Ġkins": 22194,
    "Ġvehemence": 26569,
    "Ġrandom": 1589,
    "lod": 15382,
    "R": 54,
    "Ġdischar": 11813,
    "Ġvis": 1062,
    "Ġstaggering": 20275,
    "Ġbenchmarks": 15025,
    "viii": 12025,
    "Ġpleasing": 6191,
    "rium": 3133,
    "historical": 20468,
    "Ġhollowly": 24528,
    "Ġ36": 14772,
    "objection": 19916,
    "Ġlend": 17967,
    "pointed": 9812,
    "Ġchooses": 13351,
    "Ġinstructions": 11200,
    "Ġponder": 6818,
    "Ġdong": 17891,
    "aloft": 8811,
    "Ġstood": 2549,
    "Ġexploitation": 2345,
    "Ġcasual": 11412,
    "judgment": 16755,
    "bedded": 12447,
    "Ġneared": 14078,
    "perils": 22183,
    "exper": 8882,
    "Ġbend": 9173,
    "Ġameric": 3852,
    "mering": 12495,
    "Ġarticle": 9504,
    "oc": 2834,
    "Ġast": 2961,
    "Ġmaled": 21317,
    "lop": 20950,
    "Ġchambermaid": 24308,
    "Ġunful": 22016,
    "Ġartist": 12917,
    "formal": 14171,
    "steering": 16638,
    "Ġspinning": 15056,
    "Ġfrog": 23927,
    "Ġnurse": 9519,
    "Ġstarvation": 19792,
    "Ġpervading": 20616,
    "Ġknown": 1642,
    "pets": 17638,
    "Ġdistress": 5845,
    "square": 15063,
    "Ġrely": 8825,
    "coach": 23564,
    "Ġproving": 15759,
    "Ġdominant": 12400,
    "proved": 11991,
    "coffin": 10666,
    "belief": 13285,
    "Ġcalmer": 23049,
    "Ġthinkings": 22816,
    "bear": 10319,
    "ullo": 12734,
    "Ġlikeness": 11183,
    "Ġwholly": 4447,
    "Ġeloquence": 11849,
    "Ġhav": 12759,
    "Ġancho": 15607,
    "frau": 15094,
    "Ġhaste": 9006,
    "Ġcorner": 4370,
    "Ġmethodic": 23120,
    "fetch": 12469,
    "Ġevenly": 4129,
    "Ġspectrum": 4475,
    "damn": 20026,
    "Ġrugged": 18720,
    "Ġsounding": 8264,
    "Ġwreaths": 25939,
    "ilar": 10219,
    "Ġexpiration": 22627,
    "osely": 9268,
    "Ġdomestic": 6909,
    "Ġperish": 8878,
    "Ġinh": 10827,
    "Ġalleviated": 26206,
    "Ġbid": 6132,
    "Ġmacy": 19358,
    "Ġshocking": 10438,
    "Ġhurt": 7700,
    "Ġnephew": 6404,
    "Ġbarbaric": 10018,
    "Ġscene": 3096,
    "pine": 13772,
    "Ġhad": 443,
    "riend": 1186,
    "Ġmarks": 6747,
    "band": 3057,
    "Ġmontan": 22988,
    "Ġcircles": 7966,
    "Ġsimulates": 2741,
    "judges": 19575,
    "Ġindependence": 12109,
    "Ġthreatening": 16830,
    "outs": 7009,
    "Ġhopeful": 19030,
    "gracechurch": 24584,
    "corner": 13401,
    "Ġbowditch": 19325,
    "Ġplaid": 22607,
    "s": 87,
    "Ġimpact": 10300,
    "Ġasse": 8159,
    "Ġhighness": 22780,
    "completed": 19996,
    "Ġpull": 5153,
    "Ġum": 10215,
    "backward": 2683,
    "Ġcritic": 19123,
    "ale": 504,
    "iony": 9194,
    "Ġpotential": 3618,
    "Ġcope": 17834,
    "uneven": 23689,
    "feel": 3811,
    "Ġdistension": 22510,
    "attendants": 25497,
    "Ġadjust": 2151,
    "Ġparallel": 1417,
    "shed": 8094,
    "Ġtired": 9152,
    "tur": 5688,
    "Ġloom": 7628,
    "Ġpalmy": 19502,
    "backpropagation": 11990,
    "Ġmelt": 21320,
    "Ġaffairs": 6876,
    ".]": 15302,
    "ul": 371,
    "duodecimo": 16006,
    "Ġclutch": 15057,
    "Ġequal": 4135,
    "vib": 21118,
    "Ġfrivolous": 26178,
    "Ġsea": 1208,
    "lan": 15381,
    "places": 7876,
    "Ġrash": 10901,
    "ois": 9137,
    "Ġpurchasing": 19876,
    "Ġpleasantest": 24142,
    "piece": 6657,
    "Ġreminds": 13435,
    "Ġordered": 5833,
    "hr": 20890,
    "fireside": 24692,
    "fixedly": 24930,
    "Ġlumps": 21559,
    "Ġtunes": 24618,
    "Ġwithdrawn": 10610,
    "senses": 25027,
    "shold": 2777,
    "Ġpoised": 22595,
    "breath": 15167,
    "lanterns": 17432,
    "fem": 17539,
    "folly": 20864,
    "Ġtwitch": 22680,
    "Ġinvent": 7163,
    "Ġtree": 5285,
    "sun": 7139,
    "Ġsupervised": 3346,
    "Ġmummy": 25770,
    "Ġut": 2277,
    "Ġstake": 14007,
    "Ġconcluded": 5658,
    "onstr": 12551,
    "ial": 409,
    "Ġdeportment": 22603,
    "forgetting": 25487,
    "ized": 1531,
    "Ġcumulative": 4212,
    "mild": 15395,
    "Ġfuller": 11158,
    "Ġunhappily": 18265,
    "mn": 3576,
    "Ġxlix": 25862,
    "Ġpersonal": 7477,
    "Ġhers": 7888,
    "disputed": 23504,
    "Ġstray": 18077,
    "Ġinteresting": 4324,
    "Ġoccurring": 2795,
    "Ġmoody": 8200,
    "accessory": 25501,
    "Ġentertain": 6054,
    "Ġvexed": 9998,
    "Ġignoble": 19402,
    "Ġsubord": 22792,
    "Ġsoo": 15864,
    "Ġapproached": 5844,
    "velope": 17704,
    "Ġdur": 11596,
    "Ġrepaid": 19084,
    "agged": 9240,
    "apers": 3481,
    "Ġspending": 10926,
    "Ġxxv": 19719,
    "shaped": 10312,
    "Ġwo": 3650,
    "spl": 9142,
    "impress": 18056,
    "Ġmadly": 16487,
    "Ġblend": 14403,
    "gird": 20881,
    "Ġsignificant": 8637,
    "Ġencl": 16170,
    "½": 126,
    "Ġprevail": 13446,
    "conversation": 7122,
    "Ġexercised": 24800,
    "Ġwildest": 16512,
    "bowed": 10688,
    "Ġinexperienced": 26102,
    "ho": 2858,
    "esty": 4305,
    "^{": 15308,
    "Ġ199": 3010,
    "ignified": 14493,
    "Ġbeautiful": 3671,
    "Ġspy": 22127,
    "Ġhome": 2029,
    "Ġcalm": 3448,
    "Ġtranspointed": 22445,
    "Ġpursuing": 9440,
    "Ġsty": 6252,
    "Ġpreventing": 882,
    "Ġbattalions": 25778,
    "Ġthomas": 17952,
    "Ġassigned": 16315,
    "Ġprojecting": 9989,
    "rid": 5138,
    "Ġemotion": 7689,
    "Ġwindward": 6884,
    "Ġdisliked": 12896,
    "Ġdeject": 10883,
    "Ġthy": 2512,
    "ornament": 23492,
    "fluke": 25205,
    "Ġprudential": 17924,
    "deserving": 17248,
    "herald": 22212,
    "Ġpass": 1042,
    "Ġinvented": 17038,
    "ĠlinnÃ¦us": 15279,
    "Ġcomparatively": 9492,
    "Ġhorizontal": 7782,
    "learned": 8594,
    "weather": 7227,
    "imagine": 19933,
    "Ġunthink": 18250,
    "Ġunw": 7004,
    "Ġloud": 4702,
    "ott": 1873,
    "Ġflail": 23013,
    "ladyship": 14832,
    "Ġswelled": 11089,
    "entle": 1736,
    "Ġkrus": 18348,
    "Ġfangs": 12602,
    "Ġpromoting": 3161,
    "lined": 12488,
    "clut": 23157,
    "confidential": 25878,
    "the": 334,
    "Ġmetallic": 19057,
    "addressed": 13389,
    "Ġpeered": 18669,
    "Ġscandalous": 24880,
    "Ġimpelled": 11787,
    "Ġendow": 23142,
    "Ġmine": 3179,
    "ara": 12611,
    "Ġwhiskers": 10496,
    "Ġfaced": 10811,
    "ised": 1101,
    "Ġclings": 15976,
    "lid": 20947,
    "Ġsprung": 11252,
    "iction": 4269,
    "alarmed": 21506,
    "------": 12138,
    "Ġdi": 6524,
    "Ġglistened": 20174,
    "Ġcongratulations": 10584,
    "breeding": 16677,
    "ker": 5792,
    "Ġgunwales": 12245,
    "Ġdescribing": 19256,
    "Ġjutting": 22306,
    "Ġstiggs": 25794,
    "Ġwrites": 23204,
    "Ġpreservation": 24628,
    "Ġtranquill": 6632,
    "ciousness": 20819,
    "Ġfancies": 10427,
    "del": 4076,
    "Ġsummoned": 9915,
    "Ġfortitude": 9889,
    "Ġadm": 2399,
    "december": 25560,
    "Ġsingularly": 12153,
    "concerning": 9070,
    "Ġtorments": 13398,
    "Ġsparkled": 13466,
    "irt": 3075,
    "Ġinsights": 13183,
    "recogn": 13429,
    "ilies": 18061,
    "âĢĻâĢĶ": 12741,
    "Ġforces": 12707,
    "ulpt": 10888,
    "Ġwilliam": 3482,
    "Ġinferiority": 17116,
    "instr": 12536,
    "igation": 5919,
    "unity": 4153,
    "Ġequ": 1731,
    "globe": 25145,
    "Ġyarman": 12710,
    "Ġasph": 21903,
    "ess": 413,
    "Ġattentively": 9954,
    "urday": 13998,
    "Ġwoeful": 19621,
    "strils": 10461,
    "ails": 6161,
    "Ġreverie": 13461,
    "Ġwreck": 7312,
    "Ġcouldn": 7648,
    "chat": 21689,
    "Ġauto": 23329,
    "Ġvanishing": 1346,
    "fitters": 24760,
    "learn": 2278,
    "particulars": 11319,
    "Ġbefriend": 18086,
    "icing": 9203,
    "interested": 9508,
    "Ġdiscoursing": 26269,
    "Ġthinner": 24186,
    "Ġbarbar": 6934,
    "Ġerrand": 11087,
    "Ġlabel": 14518,
    "Ġminor": 12973,
    "cules": 12395,
    "expl": 9286,
    "Ġtreas": 7356,
    "Ġsinners": 18952,
    "Ġskul": 22803,
    "Ġaccursed": 9465,
    "pardon": 10069,
    "Ġclearing": 8239,
    "colonel": 8284,
    "arness": 11675,
    "told": 7810,
    "Ġtick": 8108,
    "Ġhousehold": 8569,
    "Ġtrades": 8231,
    "Ġusurpation": 18358,
    "Ġextremest": 19196,
    "Ġchips": 14185,
    "Ġcomplain": 6686,
    "ody": 1480,
    "german": 11495,
    "Ġunfelt": 24114,
    "mistaken": 12215,
    "Ġpowers": 5419,
    "Ġdarcy": 1343,
    "ication": 1008,
    "Ġannihil": 10178,
    "saved": 15434,
    "Ġinexpress": 12640,
    "Ġoutcast": 18415,
    "Ġcarbuncle": 14449,
    "Ġcondu": 18114,
    "limp": 20954,
    "vint": 21117,
    "Ġyoung": 1506,
    "derstand": 644,
    "zas": 17715,
    "Ġprograms": 7237,
    "nowled": 5470,
    "it": 276,
    "Ġwhims": 12697,
    "Ġpork": 21460,
    "Ġcensured": 25097,
    "Ġseverely": 14937,
    "Ġgovernment": 15181,
    "connection": 18870,
    "Ġunce": 11716,
    "Ġanticip": 7504,
    "Ġtingling": 15097,
    "Ġrob": 1284,
    "âĢĻ!âĢĿ": 18172,
    "readers": 23853,
    "Ġsurvivors": 25733,
    "utmost": 21591,
    "even": 3836,
    "execution": 20474,
    "uncomfortable": 18165,
    "buoy": 7760,
    "Ġbranded": 14383,
    "urons": 3131,
    "Ġarrogance": 26234,
    "garn": 20872,
    "Ġfacility": 19850,
    "ates": 519,
    "Ġflounders": 23019,
    "hastening": 24450,
    "Ġoctavo": 15168,
    "Ġmagnifying": 16323,
    "Ġgovernesses": 25130,
    "Ġconv": 2969,
    "Ġinsufficient": 9675,
    "smiled": 16616,
    "Ġant": 4345,
    "Ġardent": 9974,
    "uvian": 12247,
    "Ġauthentic": 20538,
    "Ġperturbation": 20443,
    "Ġindelicacy": 25697,
    "Ġtongue": 6347,
    "Ġdece": 6996,
    "Ġtelesc": 13002,
    "Ġrazor": 22649,
    "Ġapprehensions": 13408,
    "sens": 8096,
    "cull": 20811,
    "Ġexasper": 8468,
    "belled": 24041,
    "Ġoff": 902,
    "uled": 11540,
    "Ġplainly": 4381,
    "arying": 9805,
    "Ġcompared": 2226,
    "Ġearning": 23946,
    "therly": 18342,
    "Ġdisquiet": 18552,
    "Ġnever": 1019,
    "Ġmorass": 22981,
    "encountered": 20395,
    "Ġ24": 13195,
    "eries": 6808,
    "Ġbustle": 17230,
    "Ġapply": 1774,
    "hel": 4816,
    "Ġconfinement": 19042,
    "Ġpistol": 7846,
    "Ġhatred": 8612,
    "Ġprophet": 7680,
    "vens": 21115,
    "Ã¦": 4337,
    "Ġbrix": 12588,
    "Ġbou": 17856,
    "!âĢĿâĢĶ": 8533,
    "estations": 22233,
    "Ġborder": 10173,
    "Ġexertion": 8053,
    "ented": 4348,
    "Ġthrust": 5085,
    "origin": 7580,
    "Ġharpooned": 13265,
    "Ġexchanging": 18135,
    "Ġyarn": 10871,
    "Ġmahogany": 20581,
    "dog": 10697,
    "Ġspit": 22128,
    "º": 123,
    "Ġspitz": 14152,
    "Ġfrantically": 23263,
    "Ġexpert": 18861,
    "Ġencounter": 6629,
    "neighbouring": 19966,
    "hs": 8377,
    "Ġrefrain": 12952,
    "Ġjenkinson": 11434,
    "ssian": 3402,
    "oot": 13768,
    "orts": 2554,
    "increas": 10457,
    "Ġliberty": 7761,
    "Ġpriv": 4185,
    "strikes": 24672,
    "Ġfru": 8420,
    "gentle": 5357,
    "gage": 13727,
    "Ġ112": 24439,
    "Ġsavage": 4010,
    "work": 1744,
    "ub": 1227,
    "Ġrecom": 4557,
    "Ġboomer": 20169,
    "Ġclearly": 6895,
    "Ġmatrix": 1604,
    "Ġfreed": 7265,
    "asible": 21545,
    "eng": 1488,
    "vicious": 21121,
    "moran": 24157,
    "Ġsplashing": 16552,
    "Ġjune": 10292,
    "tears": 11039,
    "hab": 1079,
    "Ġeligible": 10674,
    "Ġearthy": 23716,
    "Ġrail": 7222,
    "dial": 20827,
    "humanity": 24840,
    "Ġinfamous": 16367,
    "Ġdented": 17895,
    "Ġuncommonly": 7759,
    "ze": 1351,
    "Ġetext": 23955,
    "utes": 5915,
    "Ġdesires": 9458,
    "rolling": 9063,
    "enderby": 25216,
    "ago": 14068,
    "Ġsurrounded": 5880,
    "Ġ76": 24267,
    "Ġyell": 21781,
    "Ġappal": 18360,
    "omin": 4704,
    "Ġunreasoning": 15849,
    "Ġengraved": 17082,
    "Ġreverence": 12063,
    "Ġmagnitude": 1942,
    "Ġalexander": 17427,
    "Ġelixir": 26558,
    "omet": 3074,
    "lot": 3209,
    "Ġmeasureless": 14714,
    "Ġscornful": 24999,
    "ificent": 8183,
    "reposed": 24494,
    "Ġgrizz": 10356,
    "quired": 21859,
    "Ġdisturb": 7107,
    "Ġwheelbarrow": 17207,
    "Ġguess": 4905,
    "wooden": 24590,
    "Ġcorrid": 9828,
    "Ġyielding": 12191,
    "Ġmil": 4255,
    "ester": 11602,
    "understanding": 1144,
    "features": 14767,
    "Ġordin": 16653,
    "Ġflooded": 24962,
    "province": 26074,
    "Ġimpass": 15989,
    "urning": 12921,
    "Ġhoarse": 14528,
    "Ġblame": 6445,
    "Ġern": 8396,
    "Ġirr": 10424,
    "Ġindefinite": 17179,
    "Ġbites": 23747,
    "Ġprov": 4400,
    "neural": 3064,
    "Ġantiquities": 25600,
    "Ġthough": 991,
    "Ġglory": 6065,
    "Ġloftiest": 16876,
    "Ġabsor": 8505,
    "counters": 25399,
    "thinking": 9017,
    "Ġdeposed": 16087,
    "Ġdivined": 19446,
    "Ġusing": 714,
    "Ġunchanged": 22035,
    "otion": 4947,
    "Ġtexas": 25924,
    "Ġtigers": 25760,
    "toss": 22572,
    "abbering": 21800,
    "Ġthereof": 22373,
    "Ġtartar": 17325,
    "Ġrespond": 11179,
    "Ġtophet": 23577,
    "Ġdarts": 16770,
    "gro": 10098,
    "sin": 21051,
    "Ġslang": 23165,
    "beryls": 25311,
    "Ġinwards": 15625,
    "Ġreceptacle": 23198,
    "Ġobsole": 22702,
    "Ġpurplish": 19142,
    "Ġconve": 5455,
    "Ġserving": 14489,
    "Ġtraverse": 18894,
    "wheeling": 22878,
    "draught": 12095,
    "intense": 22941,
    "Ġann": 4491,
    "Ġrange": 9716,
    "Ġnat": 12650,
    "Ġpatagonia": 25860,
    "ladies": 9531,
    "cun": 20797,
    "Ġreplen": 11116,
    "Ġremotest": 10056,
    "ager": 6546,
    "Ġgrandfather": 19425,
    "Ġvacuous": 24346,
    "reeling": 21247,
    "Ġjane": 1754,
    "Ġenvironment": 4140,
    "Ġpreservative": 24627,
    "erial": 4633,
    "ounds": 4159,
    "Ġwidth": 16774,
    "Ġmantel": 11442,
    "Ġgraze": 18229,
    "Ġkindness": 4096,
    "sust": 15425,
    "Ġdwell": 5813,
    "Ġname": 2082,
    "Ġgames": 11630,
    "Ġgrievous": 13264,
    "Ġinsists": 23682,
    "mankind": 14378,
    "Ġvanity": 7045,
    "Ġwords": 1326,
    "Ġpun": 4589,
    "ishly": 14203,
    "chiefly": 14850,
    "enced": 4295,
    "Ġanomalously": 25640,
    "Ġbuckle": 17034,
    "Ġgasp": 7171,
    "Ġcrawford": 24894,
    "Ġgrasp": 4665,
    "culine": 19067,
    "Ġtelegram": 15228,
    "Ġestimation": 11222,
    "Ġkitchen": 8497,
    "choose": 23677,
    "mense": 4782,
    "Ġnoisier": 4626,
    "Ġheated": 21685,
    "ą": 198,
    "Ġconducting": 16652,
    "Ġopera": 23430,
    "boscombe": 26123,
    "Ġpia": 21467,
    "Ġhoof": 23356,
    "Ġsneezes": 24696,
    "mies": 20970,
    "Ġoccupant": 16654,
    "asted": 4651,
    "Ġrent": 11643,
    "Ġconnect": 798,
    "Ġnur": 5710,
    "Ġaddressing": 11167,
    "ayed": 12717,
    "iated": 5891,
    "ckets": 6842,
    "gunpowder": 25341,
    "Ġain": 6969,
    "Ġflask": 3039,
    "draul": 9445,
    "Ġlvi": 21556,
    "Ġscheduling": 2347,
    "Ġmirror": 12382,
    "Ġhousemaid": 14468,
    "condesc": 18506,
    "Ġnoteworthy": 24167,
    "Ġstranger": 3485,
    "Ġheav": 1852,
    "different": 6500,
    "Ġinvoking": 19147,
    "Ġsighs": 22714,
    "Ġprospects": 9963,
    "observed": 7674,
    "Ġconquer": 14030,
    "Ġwhich": 503,
    "Ġeffective": 1250,
    "manner": 6171,
    "Ġswore": 10382,
    "Ġsymp": 4504,
    "ifferent": 4263,
    "dwelling": 20567,
    "Ġinjunctions": 24274,
    "Ġincul": 22555,
    "well": 1688,
    "creat": 20802,
    "icism": 13959,
    "Ġ18": 3409,
    "daughter": 8353,
    "avers": 17483,
    "flakes": 23973,
    "Ġpolicy": 10460,
    "Ġestates": 16461,
    "ten": 1559,
    "apan": 6859,
    "Ġwink": 11573,
    "cence": 9591,
    "Ġbriony": 9332,
    "Ġnook": 15932,
    "Ġexamples": 2604,
    "Ġover": 555,
    "Ġconsistent": 14530,
    "Ġmajestic": 8643,
    "Ġcornelius": 13577,
    "Ġwarmup": 3919,
    "Ġmartial": 20293,
    "Ġcanal": 8181,
    "Ġflukes": 5267,
    "Ġahab": 1215,
    "Ġinexper": 16981,
    "considering": 12179,
    "create": 24164,
    "Ġreplay": 5048,
    "Ġlifetime": 13606,
    "Ġstil": 15725,
    "fra": 8374,
    "inities": 21188,
    "principle": 10654,
    "erxes": 21278,
    "bene": 6113,
    "ordingly": 18516,
    "Ġdescribes": 3122,
    "ff": 461,
    "Ġvolat": 24149,
    "virt": 15454,
    "Ġpeddling": 21485,
    "riving": 21936,
    "Ġlaws": 8002,
    "Ġdun": 6675,
    "Ġdrow": 21429,
    "Ġconsequently": 8059,
    "secured": 16940,
    "unwholesome": 26500,
    "Ġadvantage": 4315,
    "Ġdisinterested": 16061,
    "Ġeggs": 12346,
    "Ġtorm": 5434,
    "Ġmasonry": 13603,
    "Ġsustained": 13486,
    "Ġrecommendation": 17027,
    "Ġreception": 9843,
    "Ġpang": 15609,
    "Ġinitialized": 3945,
    "Ġunworthy": 11720,
    "preced": 10313,
    "Ġmacey": 12568,
    "Ġmercifully": 20180,
    "ifications": 9733,
    "Ġsting": 10864,
    "going": 6313,
    "Ġbreeds": 23351,
    "harpoone": 6108,
    "Ġhos": 4943,
    "icest": 21567,
    "Ġintend": 12769,
    "Ġhawk": 15178,
    "Ġfordham": 21780,
    "knows": 19174,
    "Ġchord": 22250,
    "Ġdeserves": 13294,
    "Ġcircumstantial": 14646,
    "Ġholds": 7974,
    "Ġdow": 17890,
    "Ġexact": 2540,
    "Ġcomforter": 20509,
    "Ġmetal": 9385,
    "Ġclumsy": 9582,
    "Ġsome": 656,
    "Ġsnorting": 23745,
    "Ġcur": 1233,
    "critical": 19499,
    "urious": 21706,
    "valuable": 8247,
    "shining": 18495,
    "acc": 2531,
    "Ġignorance": 6620,
    "Ġportly": 14681,
    "mund": 13761,
    "Ġaloft": 4302,
    "ium": 4866,
    "Ġblo": 2736,
    "Ġer": 8104,
    "Ġcor": 1324,
    "Ġmonstr": 7667,
    "Ġdoubtful": 19143,
    "Ġyellow": 5302,
    "Ġblasp": 14405,
    "Ġsuperiors": 23458,
    "Ġphilosophy": 7103,
    "fainting": 20475,
    "_--": 20764,
    "Ġplan": 3880,
    "Ġcharmed": 16764,
    "Ġunshored": 25815,
    "Ġgi": 15670,
    "bly": 6111,
    "glimmer": 26324,
    "Ġintervals": 5598,
    "Ġvehem": 22894,
    "Ġacquiring": 2770,
    "Ġprender": 22240,
    "Ġcompanies": 14560,
    "Ġovercome": 6042,
    "Ġtwinkle": 12327,
    "cro": 13700,
    "Ġstoutest": 24626,
    "Ġinquiry": 6483,
    "Ġscorched": 17102,
    "Ġbusied": 19068,
    "Ġhappens": 2187,
    "Õ": 150,
    "Ġarom": 15495,
    "Ġirritation": 20268,
    "Ġawfulness": 23591,
    "Ġpred": 676,
    "Ġtempest": 8213,
    "Ġfitted": 6244,
    "Ġsilver": 7461,
    "Ġauthor": 4375,
    "Ġdescended": 7426,
    "oftentimes": 19424,
    "Ġboa": 22639,
    "Ġhereford": 22884,
    "Ġscrew": 8871,
    "Ġsouls": 6308,
    "rossed": 11015,
    "elephant": 12355,
    "hered": 5623,
    "Ġencoder": 3634,
    "iana": 7048,
    "Ġcupboard": 16885,
    "Ġshaster": 22003,
    "raham": 18018,
    "semic": 21825,
    "stains": 11641,
    "Ġoffences": 18692,
    "Ġprefers": 20517,
    "urp": 1474,
    "Ġimpute": 18332,
    "Ġzoned": 22826,
    "Ġforests": 13596,
    "oam": 8755,
    "Ġmoderation": 12823,
    "Ġix": 12673,
    "antled": 18288,
    "consol": 9766,
    "Ġforge": 8457,
    "Ġdesmarest": 22986,
    "Ġenterprise": 8645,
    "Ġformer": 3325,
    "Ġiterate": 13203,
    "Ġbomb": 17871,
    "mai": 22917,
    "Ġcoast": 4657,
    "Ġseverest": 14094,
    "Ġsoothed": 10033,
    "Ġalter": 6542,
    "Ġherds": 9720,
    "Ġfemales": 14941,
    "nel": 11508,
    "ooping": 21009,
    "clump": 23161,
    "Ġconfounded": 16386,
    "robber": 21540,
    "Ġimbib": 22180,
    "Ġpoll": 12034,
    "Ġleading": 7295,
    "Ġinfl": 6891,
    "Ġexplored": 23522,
    "Ġneatly": 17018,
    "zers": 21149,
    "Ġaccess": 9751,
    "Ġbuttons": 12786,
    "89": 20761,
    "Ġhelped": 7457,
    "are": 639,
    "Ġrace": 5848,
    "Ġdisturbing": 19948,
    "Ġread": 1449,
    "esteem": 26010,
    "Ġinflu": 4909,
    "Ġcompat": 2937,
    "Ġmagnified": 23209,
    "reduc": 5460,
    "attend": 11103,
    "Ġconvulsive": 19308,
    "dimens": 2314,
    "Ġbloodthirsty": 26604,
    "co": 2431,
    "Ġcolds": 23762,
    "scans": 22994,
    "yes": 984,
    "Ġ55": 24321,
    "croquet": 25749,
    "Ġharder": 14453,
    "Ġaston": 3701,
    "journey": 8748,
    "listener": 24931,
    "Ġlabyrin": 13109,
    "Ġinsurgents": 26603,
    "Ġgrey": 4514,
    "Ġjeroboam": 10604,
    "Ġinduce": 7762,
    "Ġhalls": 19528,
    "Ġenviron": 4071,
    "Ġdiscreet": 16484,
    "uend": 21104,
    "harpooneer": 8692,
    "Ġembodiment": 20531,
    "Ġfactory": 23282,
    "Ġassizes": 11111,
    "contact": 23732,
    "_âĢĶâĢĻâĢĿ": 25743,
    "Ġabsorbed": 12335,
    "taste": 10133,
    "choice": 21694,
    "Ġyea": 8919,
    "Ġlists": 11169,
    "Ġforecastle": 5495,
    "Ġsurtout": 23469,
    "rap": 21631,
    "possible": 5743,
    "Ġfog": 9664,
    "Ġconfined": 7463,
    "94": 4805,
    "Ġvivacious": 19817,
    "Ġled": 3522,
    "Ġsagaciously": 24729,
    "Ġdirt": 15598,
    "Ġsick": 4694,
    "Ġrestrictions": 20638,
    "Ġstage": 7387,
    "nets": 9135,
    "Ġcommendation": 13614,
    "ohog": 9847,
    "umes": 10920,
    "friends": 8305,
    "Ġfins": 9666,
    "afterwards": 7482,
    "terrific": 25043,
    "Ġsternly": 16717,
    "en": 271,
    "appetite": 22852,
    "Ġless": 1937,
    "when": 1591,
    "service": 15040,
    "Ġcontrived": 10307,
    "Ġringle": 18213,
    "Ġpuzzling": 14902,
    "magn": 10614,
    "Ġsobbed": 14138,
    "paint": 21020,
    "hit": 20891,
    "Ġbeheading": 21758,
    "Ġgidd": 25785,
    "Ġapothe": 12379,
    "Ġbathe": 25445,
    "omn": 15686,
    "quis": 7869,
    "Ġplanisp": 24062,
    "ferred": 16414,
    "Ġquakers": 22421,
    "Ġaloud": 6253,
    "waiting": 12225,
    "Ġcry": 3497,
    "Ġensl": 19276,
    "Ġdrug": 11413,
    "Ġextravagant": 17281,
    "Ġunmolested": 15249,
    "Ġbund": 17867,
    "Ġpaddling": 25286,
    "Ġlargest": 6283,
    "Ġmuse": 13863,
    "otle": 21801,
    "Ġobserving": 6080,
    "glasses": 11219,
    "abiding": 21797,
    "Ġglances": 10376,
    "sion": 8093,
    "Ġensued": 11397,
    "Ġmagnitudes": 3821,
    "shoals": 24715,
    "card": 11478,
    "facts": 19843,
    "Ġpick": 4257,
    "ibid": 18849,
    "sc": 1259,
    "unwillingness": 25804,
    "rages": 15685,
    "Ġmeditate": 16709,
    "Ġanalyzing": 18800,
    "Ġsigned": 11180,
    "train": 17675,
    "Ġgratify": 19506,
    "Ġpave": 8804,
    "Ġruffled": 25838,
    "unsupervised": 10892,
    "Ġindian": 4131,
    "Ġmanly": 22330,
    "Ġrecompense": 14842,
    "Ġmean": 742,
    "Ġtamely": 24980,
    "Ġmexic": 14035,
    "Ġpresumed": 10548,
    "Ġchallenges": 13634,
    "hes": 1403,
    "Ġgrace": 5374,
    "Ġcapering": 21357,
    "compar": 14363,
    "desc": 1399,
    "Ġpestilent": 25779,
    "olds": 9314,
    "Ġaffinity": 18788,
    "/*": 10075,
    "build": 12192,
    "rel": 3754,
    "promote": 24725,
    "Ġincalcul": 16067,
    "Ġradney": 6775,
    "hour": 7338,
    "Ġupp": 13995,
    "Ġquartered": 20375,
    "presence": 18499,
    "Ġadequ": 10916,
    "Ġpardon": 5727,
    "Ġbegged": 8230,
    "Ġunaccountable": 7886,
    "Ġgroaned": 11270,
    "record": 16922,
    "field": 3070,
    "Ġutter": 3972,
    "Ġmorning": 1746,
    "intimate": 22942,
    "Ġforever": 14555,
    "seated": 11676,
    "half": 4933,
    "Ġenter": 4029,
    "Ġwoll": 21296,
    "Ġhardihood": 23118,
    "Ġ98": 24596,
    "Ď": 207,
    "Ġmeek": 21816,
    "fourths": 25511,
    "Ġsuavely": 26526,
    "Ġconventional": 25549,
    "Ġiter": 2953,
    "kinson": 10030,
    "onze": 21258,
    "Ġearliest": 9835,
    "Ġscandal": 9084,
    "aneously": 4059,
    "Ġgenuine": 14889,
    "Ġlady": 1588,
    "grieved": 17320,
    "Ġlubber": 17447,
    "Ġprodigious": 8056,
    "urmountable": 15283,
    "ding": 3026,
    "Ġ49": 24086,
    "Ġgreek": 10634,
    "onds": 13000,
    "actually": 14300,
    "don": 3544,
    "Ġtimidity": 24687,
    "Ġferry": 24500,
    "Ġdiameter": 19867,
    "Ġsmiting": 12903,
    "Ġleakage": 23462,
    "Ġconsulting": 13433,
    "civil": 7796,
    "Ġparagraph": 17457,
    "fate": 17541,
    "dining": 13709,
    "repent": 15516,
    "Ġresembled": 18038,
    "drink": 10599,
    "commence": 19994,
    "Ġwaits": 23408,
    "captains": 12132,
    "ylon": 24978,
    "Ġmilan": 19538,
    "anations": 12581,
    "watch": 6119,
    "rous": 3752,
    "Ġpoliteness": 8273,
    "Ġsouthampton": 24311,
    "twelvemonth": 25864,
    "Ġano": 11600,
    "Ġintercepted": 25829,
    "Ġinterp": 16073,
    "offic": 7464,
    "dress": 17522,
    "Ġarrows": 18343,
    "Ġawake": 8271,
    "<SOS>": 1,
    "Ġhonour": 3920,
    "ke": 429,
    "str": 2578,
    "Ġpeev": 22697,
    "arris": 13213,
    "Ġxliv": 23413,
    "pper": 3211,
    "dutch": 17221,
    "noticed": 14345,
    "Ġinstability": 3812,
    "tie": 21071,
    "Ġlabor": 10421,
    "orrah": 17879,
    "shrouded": 26364,
    "Ġskirts": 14357,
    "Ġcorresponds": 19823,
    "Ġsolemn": 4099,
    "ascended": 24704,
    "Ġvillages": 14752,
    "Ġslumber": 13065,
    "Ġflamingo": 15105,
    "aviour": 10996,
    "Ġlined": 15654,
    "Ġgentleman": 3040,
    "Ġcomprehensive": 15092,
    "Ġfrancisco": 26066,
    "Ġinvariable": 13460,
    "Ġproceedings": 9911,
    "boys": 13364,
    "ement": 1502,
    "Ġprior": 11322,
    "Ġdiagon": 24738,
    "Ġmappings": 2143,
    "Ġincant": 18571,
    "Ġtravelled": 7771,
    "Ġclair": 6270,
    "Ġhovering": 10182,
    "extremely": 26267,
    "Ġleech": 24160,
    "Ġfreer": 23212,
    "istic": 976,
    "Ġcondense": 21812,
    "Ġassume": 10519,
    "huzza": 20915,
    "Ġfills": 12599,
    "sery": 17663,
    "Ġprogen": 14043,
    "Ġargu": 10937,
    "Ġdie": 3958,
    "Ġplaned": 24060,
    "Ġguise": 14436,
    "Ġcrushed": 9425,
    "zza": 24172,
    "turkish": 24535,
    "Ġschedu": 1824,
    "Ġmaids": 19693,
    "Ġcelest": 9905,
    "Ġplayfully": 19240,
    "Ġsummit": 7730,
    "Ġfugitives": 25636,
    "Ġrolling": 5975,
    "Ġrigged": 16719,
    "comput": 1960,
    "iel": 11497,
    "Ġarrangement": 2658,
    "rics": 13042,
    "Ġgloomily": 14805,
    "Ġfalling": 6914,
    "eers": 20845,
    "Ġmunro": 25632,
    "uation": 17697,
    "aths": 22706,
    "urean": 18128,
    "okes": 9280,
    "Ġundeniable": 26513,
    "Ġbunch": 11329,
    "Ġspoils": 24805,
    "Ġcauses": 2560,
    "rebell": 17767,
    "whilst": 18372,
    "!âĢĶ": 2451,
    "Ġtower": 8318,
    "Ġdinner": 4245,
    "abs": 11671,
    "opolising": 25678,
    "Ġhebrew": 13991,
    "Ġpenetration": 19918,
    "breat": 10082,
    "Ġgradients": 610,
    "Ġduties": 6610,
    "jol": 20927,
    "helpless": 16792,
    "iage": 17575,
    "Ġvener": 8163,
    "perth": 22181,
    "Ġslumbers": 18944,
    "Ġloath": 7889,
    "Ġmanif": 8874,
    "Ġcetus": 19886,
    "ğ": 224,
    "Ġeaster": 15679,
    "Ġwilful": 10538,
    "Ġadjusts": 8983,
    "Ġorphan": 12387,
    "ology": 1544,
    "Ġordained": 19448,
    "japan": 15378,
    "Ġovertook": 18424,
    "Ġdestro": 3721,
    "atter": 645,
    "vellers": 16676,
    "Ġmuteness": 19420,
    "touch": 8391,
    "Ġlowers": 23245,
    "Ġaverage": 3140,
    "Ġcountenance": 3968,
    "Ġgravely": 7882,
    "humiliation": 24026,
    "adopt": 25546,
    "Ġtask": 1310,
    "Ġbeheld": 4494,
    "Ġsurvived": 14938,
    "Ġlabors": 23333,
    "endous": 6849,
    "apside": 22967,
    "Ġabsolute": 6765,
    "Ġcruises": 23709,
    "Ġimpending": 22389,
    "Ġconfeder": 25709,
    "88": 20760,
    "comb": 11037,
    "Ġemblazonings": 26044,
    "Ġunwelcome": 12785,
    "Ġancestors": 25644,
    "arest": 4004,
    "allied": 7408,
    "Ġdri": 2360,
    "ores": 2410,
    "÷": 184,
    "av": 700,
    "Ġpo": 737,
    "Ġsuccour": 20437,
    "powers": 25412,
    "critters": 14780,
    "Ġward": 10159,
    "dancing": 12459,
    "tube": 20413,
    "racting": 10355,
    "iriously": 18176,
    "Ġairth": 23323,
    "Ġvexations": 24608,
    "Ġforegoing": 23452,
    "Ġenvelop": 5587,
    "Ġcrumbs": 19124,
    "Ġneglect": 7941,
    "idelburgh": 10565,
    "Ġimpulsively": 24881,
    "Ġentrances": 25837,
    "ertips": 23643,
    "example": 16017,
    "Ġcared": 8787,
    "Ġpromontory": 11945,
    "Ġgodly": 19082,
    "Ġundertaking": 8575,
    "Ġimpenetrable": 17400,
    "cely": 3574,
    "Ġthistle": 21921,
    "Ġconfluent": 19043,
    "Ġmagic": 8232,
    "Ġshamefully": 24714,
    "Ġwint": 15536,
    "Ġbran": 5252,
    "Ġsurprise": 3828,
    "Ġsullenly": 17175,
    "Ġnovelist": 24776,
    "cutting": 23788,
    "Ġdetain": 14178,
    "ise": 708,
    "Ġphantoms": 13490,
    "Ġaverted": 16258,
    "gradually": 12920,
    "failed": 20865,
    "Ġcontemplative": 19894,
    "Ġcanada": 22170,
    "Ġview": 2765,
    "Ġtierce": 15481,
    "comfortable": 7318,
    "Ġeyebrows": 23520,
    "introduced": 15129,
    "Ġshadows": 8012,
    "Ġinspirited": 23425,
    "loat": 8890,
    "bs": 3775,
    "extent": 22772,
    "rock": 15645,
    "Ġflutter": 16250,
    "Ġquick": 2582,
    "Ġgrammar": 1063,
    "wow": 21124,
    "Ġdelusion": 18975,
    "Ġdeliber": 7266,
    "founded": 16715,
    "Ġsensit": 2946,
    "Ġsincerity": 13682,
    "cure": 11477,
    "provoke": 26073,
    "tumultuously": 25615,
    "Ġranks": 21977,
    "Ġobviously": 16812,
    "Ġobtaining": 16136,
    "Ġinflict": 15004,
    "Ġparadigms": 3055,
    "Ġwildly": 9416,
    "Ġsubur": 12961,
    "Ġvelv": 10623,
    "ull": 1434,
    "Ġdissip": 10994,
    "Ġvolume": 6769,
    "Ġsailed": 4891,
    "Ġmodular": 12821,
    "steep": 19422,
    "Ġadro": 15871,
    "Ġassist": 3564,
    "erringly": 16214,
    "Ġvolley": 24150,
    "fee": 12885,
    "Ġcemet": 20683,
    "Ġpack": 5444,
    "ontory": 10462,
    "Ġmelted": 19623,
    "thine": 15828,
    "Ġpeels": 22695,
    "chari": 21692,
    "Ġaffl": 14390,
    "Ġjacob": 1899,
    "Ġyankees": 26204,
    "dict": 15341,
    "apped": 5395,
    "uts": 8820,
    "ignorance": 17164,
    "division": 20051,
    "erable": 1916,
    "Ġther": 17782,
    "Ġexultation": 15175,
    "Ġpir": 6817,
    "Ġfaces": 6009,
    "Ġprosper": 10233,
    "cowardly": 25751,
    "Ġmaker": 15547,
    "Ġfemale": 8344,
    "politeness": 16908,
    "Ġpersuas": 23952,
    "thoughtfully": 24049,
    "dient": 441,
    "Ġthank": 3791,
    "Ġseren": 7399,
    "Ġflies": 13031,
    "ubines": 22966,
    "Ġsometimes": 2165,
    "Ġfancy": 3746,
    "Ġdat": 497,
    "Ġgoblets": 20522,
    "himself": 3969,
    "Ġprivileged": 20115,
    "stirred": 20427,
    "ribes": 23369,
    "flight": 15356,
    "abern": 21794,
    "Ġpatagonian": 20537,
    "ry": 810,
    "Ġencountered": 8321,
    "Ġinsolence": 20255,
    "Ġwarsaw": 26169,
    "Ġlearns": 2642,
    "omics": 21646,
    "position": 15416,
    "Ġfluid": 11216,
    "Ġreliability": 22886,
    "pression": 10410,
    "Ġadvers": 4889,
    "Ġjumbled": 22302,
    "visual": 24227,
    "southern": 20411,
    "Ġwebster": 20163,
    "Ġgarb": 21606,
    "Ġimpertinent": 9080,
    "Ġsnatches": 16546,
    "Ġcrashes": 13129,
    "Ġpuffed": 14980,
    "Ġcurse": 7666,
    "hereabouts": 23610,
    "loops": 12888,
    "easy": 9595,
    "Ġbrightly": 13229,
    "liness": 8750,
    "Ġgans": 5822,
    "esy": 9185,
    "Ġaudits": 24769,
    "Ġplight": 14286,
    "Ġcertainly": 2495,
    "Ġtort": 5903,
    "Ġseaman": 8642,
    "iably": 13741,
    "abhor": 12712,
    "Ġfrankness": 16748,
    "amusement": 15286,
    "lighter": 20961,
    "Ġcommon": 1416,
    "seen": 2881,
    "Ġfully": 6342,
    "ologist": 22869,
    "Ġaccur": 3878,
    "Ġconceal": 5974,
    "Ġeasiness": 23540,
    "ration": 2004,
    "farmer": 25901,
    "adv": 4539,
    "da": 17516,
    "showing": 22466,
    "misrepresented": 24216,
    "Ġcurbstone": 26045,
    "begged": 18521,
    "Ġsi": 21215,
    "Ġwherever": 8524,
    "Ġcem": 17827,
    "collinses": 19924,
    "Ġappellation": 22227,
    "Ġdreading": 23802,
    "Ġpursue": 6314,
    "Ġartfully": 22615,
    "bale": 20776,
    "Ġmortally": 23922,
    "bare": 12445,
    "luyt": 18455,
    "Ġhove": 17927,
    "Ġforbid": 7864,
    "Ġxviii": 23414,
    "ression": 3408,
    "Ġreclining": 26035,
    "Ġdart": 4587,
    "mediate": 16515,
    "Ġexperience": 1354,
    "Ġextracts": 9366,
    "Ġpalpable": 15210,
    "bol": 8721,
    "mered": 8217,
    "Ġclasp": 9749,
    "Ġupset": 22158,
    "Ġremaining": 6189,
    "Ġbeacon": 21760,
    "Ġgreat": 894,
    "Ġforbidding": 17080,
    "Ġdelic": 4134,
    "Ġabhor": 5467,
    "Ġkeener": 22918,
    "stopping": 19353,
    "es": 288,
    "Ġpeaking": 22694,
    "adoes": 11664,
    "gir": 8082,
    "Ġgro": 4396,
    "cock": 12030,
    "duck": 22417,
    "Ġcircumspect": 15089,
    "Ġremembrance": 8317,
    "Ġpoetic": 17105,
    "scra": 13027,
    "denial": 18717,
    "conjecture": 15127,
    "Ġimpulses": 19964,
    "Ġlays": 15993,
    "respond": 12549,
    "Ġquarrel": 7290,
    "Ġaccelerating": 1617,
    "vac": 15453,
    "Ġbury": 12045,
    "Ġwitnessing": 19600,
    "Ġexpired": 18623,
    "Ġotherwise": 4659,
    "Ġfluctuating": 24419,
    "Ġfunctions": 1341,
    "Ġdimens": 3150,
    "Ġcruc": 16536,
    "Ġsetting": 7046,
    "Ġdrows": 21438,
    "Ġfang": 21406,
    "Ġviv": 6157,
    "Ġchin": 4893,
    "Ġprevious": 2087,
    "and": 372,
    "Ġracket": 22648,
    "bureau": 20791,
    "č": 206,
    "Ġmourn": 8707,
    "Ġfloats": 9415,
    "Ġhint": 5017,
    "Ġcomparative": 10546,
    "Ġvicious": 24405,
    "Ġburning": 5977,
    "Ġdiamond": 15603,
    "Ġtot": 4188,
    "Ġinterior": 8899,
    "Ġferocity": 16868,
    "heading": 5487,
    "Ġsmall": 891,
    "tap": 17679,
    "Ġ19": 6720,
    "Ġsol": 1103,
    "Ġtotally": 9473,
    "tisement": 6767,
    "ú": 187,
    "squee": 15433,
    "difficult": 10062,
    "Ġconcealment": 16915,
    "Ġteasing": 11896,
    "Ġdeceitful": 25734,
    "Ġ221": 25071,
    "Ġdetest": 8502,
    "itying": 21999,
    "Ġperch": 10302,
    "ĠcÃ¦sar": 20583,
    "persecut": 22185,
    "ĠâĢľâĢĺ_": 25114,
    "Ġnews": 3818,
    "Ġtransp": 4771,
    "Ġwatery": 6296,
    "(_": 7538,
    "lamp": 9611,
    "hor": 2571,
    "Ġundertake": 14483,
    "comrade": 18739,
    "Ġattain": 12752,
    "Ġdevotion": 22731,
    "Ġbreaching": 23350,
    "Ġterrified": 14675,
    "Ġval": 945,
    "glue": 17558,
    "Ġhor": 1659,
    "Ġrapid": 1419,
    "ifies": 6687,
    "Ġsiamese": 20485,
    "Ġlaurel": 20656,
    "Ġfeature": 749,
    "numerous": 17434,
    "lucifer": 25303,
    "Ġinsist": 9894,
    "Ġappare": 12825,
    "Ġing": 5284,
    "Ġaccompanied": 6780,
    "cheeks": 23811,
    "qual": 8156,
    "wants": 21133,
    "Ġregular": 934,
    "Ġcolle": 8927,
    "admiration": 11390,
    "oars": 9617,
    "Ġunqualified": 22065,
    "Ġraw": 3323,
    "aded": 3549,
    "note": 14344,
    "exceedingly": 9568,
    "og": 860,
    "Ġstead": 5650,
    "Ġforgiveness": 16659,
    "Ġeyford": 10645,
    "Ġhammered": 13244,
    "Ġtrim": 15967,
    "Ġbar": 3148,
    "ray": 2434,
    "Ġgoose": 5939,
    "Ġhosea": 17334,
    "prejudiced": 17300,
    "Ġdeceived": 6544,
    "convenient": 12242,
    "clerval": 7950,
    "ought": 831,
    "Ġended": 7949,
    "impul": 16559,
    "Ġantics": 24182,
    "aguy": 21915,
    "moid": 2447,
    "Ġforwards": 12708,
    "Ġfacing": 10175,
    "Ġswart": 14438,
    "andromeda": 21872,
    "Ġchair": 3661,
    "Ġgrowing": 6751,
    "Ġsubordinate": 18722,
    "il": 329,
    "whosoever": 22245,
    "Ġpermanent": 13635,
    "result": 12048,
    "ants": 1396,
    "countryman": 24641,
    "Ġforefinger": 16443,
    "ste": 3584,
    "overlooked": 23328,
    "Ġcock": 11002,
    "Ġmarket": 7708,
    "carries": 19530,
    "Ġsignificance": 13284,
    "yed": 3273,
    "pronounced": 12350,
    "Ġstupid": 7606,
    "Ġgases": 21605,
    "Ġspleen": 26424,
    "button": 10968,
    "&": 10,
    "Ġheap": 12683,
    "Ġparamet": 612,
    "Ġfinds": 6299,
    "ositories": 22268,
    "telescope": 26565,
    "Ġfarewell": 9522,
    "armed": 7249,
    "helmsman": 24291,
    "Ġinexperience": 26101,
    "Ġpolitical": 19225,
    "ribe": 1224,
    "Ġlottery": 19889,
    "Ġmoment": 989,
    "Ġunheard": 22029,
    "march": 13758,
    "Ġbrooded": 23110,
    "Ġrenew": 6146,
    "Ġmanaged": 7905,
    "both": 5785,
    "Ġwonders": 7498,
    "Ġthrob": 21521,
    "increasing": 20271,
    "Ġtales": 10145,
    "Ġlogger": 11958,
    "osque": 22266,
    "Ġautom": 3743,
    "Ġprove": 5232,
    "Ġgordon": 26470,
    "Ġimprove": 1895,
    "july": 20477,
    "opy": 4458,
    "Ġmonument": 16243,
    "blind": 16704,
    "Ġingrat": 16842,
    "âĢĶâĢĺ_": 24832,
    "earthquakes": 24723,
    "Ġsu": 433,
    "officer": 17055,
    "Ġgabriel": 7594,
    "Ġinterlude": 16074,
    "Ġwidower": 24240,
    "Ġdive": 10176,
    "Ī": 235,
    "Ġsens": 1854,
    "Ġtechnically": 12370,
    "Ġspices": 22135,
    "imperturbable": 25792,
    "Ġfished": 21413,
    "alizing": 17944,
    "Ġjail": 22299,
    "outh": 2687,
    "Ġreality": 7057,
    "Ġreconciled": 13591,
    "Ġext": 884,
    "Ġwind": 1436,
    "Ġdined": 9179,
    "Ġstated": 9693,
    "ulance": 15771,
    "Ġdeterminate": 23009,
    "Ġcorporeal": 17363,
    "Ġ117": 19699,
    "rip": 9244,
    "Ġbedside": 19125,
    "Ġwonderland": 23429,
    "Ġsin": 1514,
    "Ġhouse": 1503,
    "Ġfisherman": 12080,
    "neglect": 25670,
    "Ġmethinks": 10392,
    "urried": 21707,
    "Ġrecorded": 11297,
    "Ġchuck": 8503,
    "Ġprognostics": 20561,
    "talking": 10011,
    "Ġgreedily": 18965,
    "Ġcured": 21350,
    "Ġopposition": 16523,
    "cries": 17513,
    "Ġendeavoured": 4920,
    "Ġbattering": 13904,
    "Ġconfines": 23310,
    "Ġchaps": 14183,
    "adventurous": 25363,
    "Ġfowls": 8694,
    "Ġminiature": 11042,
    "Ġimbedded": 18333,
    "odox": 21815,
    "Ġirrevoc": 15042,
    "Ġlucky": 7758,
    "Ġmanager": 11774,
    "Ġtrue": 1340,
    "widows": 25346,
    "whole": 6085,
    "Ġvigil": 9509,
    "G": 43,
    "Ġpresence": 5032,
    "itics": 13875,
    "Ġshivered": 14111,
    "Ġattacks": 12209,
    "Ġoriginal": 6103,
    "Ġcontented": 9760,
    "Ġreddening": 25972,
    "Ġsharp": 2411,
    "Ġchoking": 15938,
    "Ġprincess": 23225,
    "Ġscarcity": 23832,
    "Ġrare": 7035,
    "Ġtrop": 7563,
    "Ĳ": 243,
    "Ġabuse": 18393,
    "ris": 9140,
    "returned": 7765,
    "Ġjenny": 20164,
    "Ġexchange": 15757,
    "ilations": 21725,
    "Ġdignity": 5704,
    "Ġfrench": 4940,
    "chapter": 1407,
    "Ġpurport": 14583,
    "Ġroasted": 18460,
    "Ġpaunch": 23755,
    "Ġgaping": 13972,
    "Ġargued": 13633,
    "ured": 1359,
    "romised": 14115,
    "Ġuntouched": 16468,
    "Ġnightmare": 18921,
    "Ġshrieks": 12204,
    "Ġtweezers": 26559,
    "ĠdÃ¦mon": 7843,
    "Ġcobb": 14277,
    "Ġaberdeen": 26544,
    "dum": 17520,
    "Ġmort": 3460,
    "Ġmun": 12567,
    "Ġgeorgiana": 8629,
    "Ġgoney": 14547,
    "Ġroads": 13293,
    "com": 987,
    "dense": 18716,
    "Ġunsh": 14118,
    "Ġequally": 5258,
    "Ġalthough": 4152,
    "Ġunconcern": 14121,
    "Ġexpectantly": 23529,
    "Ġsplendid": 17216,
    "Ġpracticable": 19037,
    "shipmates": 11933,
    "Ġtore": 6530,
    "oarsman": 25262,
    "oric": 21399,
    "rent": 1171,
    "Ġanoints": 25540,
    "Ġwonder": 2115,
    "Ġwarp": 8112,
    "Ġgradual": 20604,
    "Ġnature": 2536,
    "Ġthump": 11615,
    "mers": 9613,
    "rmsprop": 4524,
    "atching": 8202,
    "downward": 16621,
    "Ġfill": 5701,
    "Ġgard": 2188,
    "threaten": 25463,
    "Ġprice": 10406,
    "oard": 4811,
    "Ġprehensile": 26537,
    "Ġsublimity": 26349,
    "Ġeven": 1028,
    "pling": 8476,
    "Ġperceived": 4715,
    "Ġvoy": 2618,
    "Ġceaseless": 13492,
    "continuing": 24481,
    "Ġseamen": 5064,
    "daring": 20831,
    "Ġintellectual": 11404,
    "nson": 16092,
    "Ġdevouring": 11863,
    "Ġensure": 23692,
    "Ġintercept": 14274,
    "Ġpantry": 20297,
    "Ġdreadful": 4922,
    "Ġtutored": 20130,
    "Ġswept": 7976,
    "Ġsleeves": 10664,
    "placed": 7877,
    "Ġkrem": 9729,
    "cup": 10695,
    "killing": 20944,
    "nyder": 16687,
    "Ġebony": 18013,
    "Ġavalanche": 17436,
    "Ġseething": 18206,
    "Ġbohemian": 17136,
    "Ġunforgiving": 25997,
    "Ġashes": 7616,
    "luent": 16000,
    "writhed": 26082,
    "Ġgrain": 15835,
    "ense": 2052,
    "Ġrehears": 15704,
    "heredit": 21212,
    "Ġeducated": 16787,
    "Ġte": 1170,
    "lesome": 12970,
    "arrow": 4182,
    "Ġaw": 2509,
    "igators": 18050,
    "Ġinert": 15626,
    "Ġsinks": 19550,
    "arle": 21443,
    "Ġnash": 5820,
    "stumps": 21662,
    "remonstr": 23196,
    "Ġindiscriminately": 20630,
    "consolatory": 25308,
    "Ġprey": 6414,
    "calmed": 16207,
    "Ġwhalebone": 10979,
    "gressive": 2757,
    "deaux": 22152,
    "Ġtru": 4106,
    "Ġweigh": 10897,
    "Ġlionel": 25287,
    "zealand": 26056,
    "Ġ107": 24417,
    "Ġswords": 19898,
    "Ġtragedies": 25242,
    "Ġfaithfully": 14891,
    "attacked": 23129,
    "ason": 1265,
    "Ġforeboding": 20386,
    "Ġstopping": 2753,
    "Ġcas": 8411,
    "Ġbedford": 7473,
    "Ġcauldron": 25443,
    "Ġarc": 14164,
    "Ġoblong": 14325,
    "Ġbenefit": 8293,
    "bore": 13690,
    "snow": 10727,
    "concluding": 19484,
    "oko": 18442,
    "ins": 1382,
    "Ġshrunk": 16720,
    "Ġgent": 7381,
    "verty": 8453,
    "Ġunallied": 22036,
    "Ġhandsomely": 25499,
    "Ġrear": 6535,
    "Ġperceptible": 18453,
    "horrors": 20544,
    "Ġhom": 9189,
    "Ġstool": 14465,
    "success": 6711,
    "_âĢĶ": 11470,
    "Ġintrospective": 20603,
    "Ġscratches": 22296,
    "cloth": 11941,
    "surv": 24218,
    "cruising": 12284,
    "Ġdeclines": 23968,
    "Ġlovers": 9724,
    "Ġappeared": 2779,
    "Ġfacts": 2287,
    "dream": 8731,
    "Ġlocations": 12417,
    "Ġbreed": 19075,
    "jet": 13745,
    "bb": 2802,
    "Ġcoco": 11003,
    "round": 3370,
    "leisure": 21374,
    "bask": 20778,
    "Ġguardsmen": 20633,
    "Ġdarkly": 19116,
    "Ġropes": 10751,
    "Ġfettered": 24571,
    "shake": 22460,
    "Ġtotal": 4994,
    "Ġhusbands": 16645,
    "Ġbrahma": 26322,
    "Ġinequalities": 26456,
    "Ġbrown": 6298,
    "Ġsickly": 16776,
    "Ġneglig": 18879,
    "Ġimagenet": 19248,
    "extending": 22774,
    "Ġens": 2790,
    "Ġcho": 4549,
    "embers": 21932,
    "threshold": 21992,
    "log": 18538,
    "adjust": 21763,
    "Ġisinglass": 21806,
    "Ġcherry": 16937,
    "Ġattics": 22635,
    "Ġplayers": 12042,
    "Ġvote": 21950,
    "accessible": 13643,
    "sof": 17659,
    "Ġrefusal": 10348,
    "assertion": 22316,
    "distrust": 19572,
    "Ġdig": 6136,
    "Ġskirt": 18730,
    "Ġphase": 14475,
    "Ġchurchyard": 16779,
    "Ġwithheld": 18119,
    "entire": 6823,
    "gar": 5615,
    "type": 16180,
    "Ġinclination": 6625,
    "Ġplacid": 11831,
    "Ġdan": 8797,
    "onial": 11570,
    "Ġcitations": 25439,
    "Ġmildness": 9948,
    "Ġpeasant": 13555,
    "Ġblow": 3376,
    "speptic": 23951,
    "Ġcatastrophic": 3542,
    "Ġemptied": 24349,
    "Ġreligious": 25124,
    "Ġcolder": 22859,
    "Ġlbs": 11619,
    "Ġparac": 12800,
    "loved": 14254,
    "Ġcunning": 6239,
    "Ġhighly": 4847,
    "Ġcottagers": 6761,
    "Ġcalhoun": 23050,
    "Ġminima": 3464,
    "Ġoffend": 16148,
    "Ġportrait": 10665,
    "Ġunmannerly": 26520,
    "Ġchap": 5935,
    "Ġdescrying": 18619,
    "Ġorganically": 3012,
    "vex": 21701,
    "ĠĠĠĠĠĠĠĠĠĠĠĠĠĠĠĠĠĠĠĠĠĠĠĠĠĠĠĠĠĠĠĠĠĠĠĠĠĠĠĠĠĠĠĠĠĠĠĠĠĠĠĠĠ": 20042,
    "Ġwithdrew": 9700,
    "Ġappre": 5165,
    "Ġdied": 4111,
    "Ġspectacles": 12102,
    "appro": 7044,
    "Ġsenses": 8251,
    "eland": 11624,
    "Ġanon": 9669,
    "Ġbewitching": 25978,
    "Ġyellowish": 24432,
    "Ġrabb": 4163,
    "Ġmet": 1850,
    "Ġencircling": 26274,
    "Ġunst": 18241,
    "Ġbasic": 24699,
    "Ġprairie": 8716,
    "thousands": 16874,
    "Ġindulge": 10586,
    "imental": 16535,
    "lean": 21368,
    "constantinople": 25510,
    "wish": 8099,
    "tor": 15435,
    "Ġbradstreet": 9579,
    "octial": 20007,
    "Ġdir": 21424,
    "Ġstabilizing": 3656,
    "flukes": 25206,
    "Ġglassy": 19561,
    "Ġdemo": 10882,
    "persons": 24178,
    "Ġsheltered": 19912,
    "ellations": 21953,
    "Ġdiscovers": 4427,
    "ulgent": 18154,
    "evident": 25522,
    "Ġtranced": 18422,
    "Ġalgorithm": 754,
    "matic": 4620,
    "Ġtickled": 20059,
    "Ġpasture": 14545,
    "eminently": 25108,
    "aloons": 20013,
    "Ġdeity": 18139,
    "Ġsealed": 15822,
    "alone": 10187,
    "Ġsewing": 21966,
    "rear": 21235,
    "Ġowners": 7662,
    "Ġdenote": 19335,
    "Ġsearch": 2590,
    "cious": 6645,
    "apse": 14202,
    "Ġastronomy": 25928,
    "terms": 15755,
    "Ġblasphe": 17410,
    "scores": 22997,
    "Ġev": 4831,
    "Ġslim": 18939,
    "chery": 24553,
    "narrated": 25623,
    "Ê": 139,
    "Ġblown": 12090,
    "serve": 13052,
    "xes": 21143,
    "oblig": 16294,
    "Ġrequiring": 2921,
    "Ġestimable": 23877,
    "Ġwinking": 17797,
    "cat": 15327,
    "Ġsust": 7008,
    "Ġroom": 1465,
    "Ġopium": 8997,
    "Ġamendment": 26026,
    "Ġdraws": 19439,
    "fa": 7334,
    "Ġagreeably": 24955,
    "Ġworse": 4720,
    "Ġcomprised": 14272,
    "Ġprogeny": 17391,
    "Ġintim": 6837,
    "Ġneighbouring": 12123,
    "Ġcarved": 7946,
    "idirection": 2408,
    "Ġsalt": 8016,
    "Ġporus": 24400,
    "Ġeul": 21621,
    "Ġtolerably": 8067,
    "Ġsomeone": 6704,
    "otence": 14026,
    "Ġprovincial": 20652,
    "caused": 25521,
    "Ġsuperglue": 23460,
    "occupations": 24967,
    "Ġunwarrantable": 26347,
    "dependence": 17170,
    "reinforcement": 7825,
    "Ġidentify": 12018,
    "Ġsafely": 9028,
    "ety": 3521,
    "Ġreceives": 20356,
    "Ġcompanion": 3643,
    "r": 86,
    "yellow": 9627,
    "Ġpriority": 19764,
    "Ġcolumn": 9331,
    "arned": 21821,
    "Ġincreasingly": 9373,
    "ufact": 10736,
    "utored": 15667,
    "Ġpollard": 20388,
    "Ġbravely": 23844,
    "Ġremonstrance": 20626,
    "Ġunc": 2122,
    "Ġmakes": 3651,
    "stretched": 10211,
    "iality": 8848,
    "intim": 22939,
    "dro": 6646,
    "Ġrevers": 21667,
    "Ġalways": 1695,
    "Ġoutermost": 22324,
    "Ġsensational": 16395,
    "anning": 10168,
    "chors": 11648,
    "reg": 2183,
    "Ġaccusations": 22382,
    "Ġtoward": 17951,
    "flame": 16640,
    "Ġgothic": 18004,
    "receiving": 12548,
    "Ġmodest": 15918,
    "¥": 103,
    "aches": 6570,
    "Ġmouldy": 14977,
    "Ġseemed": 1279,
    "Ġdeprived": 8209,
    "Ġrapidity": 11099,
    "Ġpossession": 5589,
    "things": 6032,
    "Ġstretch": 6993,
    "Ġpost": 4273,
    "o": 83,
    "Ġdrowned": 9554,
    "Ġports": 10821,
    "Ġreferences": 21677,
    "Ġoften": 1954,
    "akness": 14198,
    "Ġdirect": 1473,
    "Ġprofounder": 23573,
    "Ġbranches": 6776,
    "Ġcommissioned": 19896,
    "Ġreal": 1633,
    "Ġpolitics": 19226,
    "Ġwharves": 13509,
    "vously": 23508,
    "mountain": 10716,
    "Ġpedest": 15068,
    "Ġvengeance": 5886,
    "Ġslackened": 15131,
    "Ġsang": 12540,
    "Ġpref": 14175,
    "Ġcompress": 21848,
    "sav": 8095,
    "collected": 13217,
    "Ġparaph": 22124,
    "Ġstrangeness": 16706,
    "Ġtun": 5999,
    "buried": 14853,
    "oin": 17619,
    "Ġfoul": 7158,
    "miserable": 8660,
    "anely": 17840,
    "dar": 20826,
    "Ġmiscell": 16153,
    "rey": 12543,
    "evid": 11488,
    "kne": 20937,
    "Ġpeaked": 2294,
    "Ġinduced": 8674,
    "Ġclam": 7414,
    "opÃ¦": 12877,
    "Ġmak": 10781,
    "Ġfoolscap": 24163,
    "Ġhomeless": 23390,
    "still": 4221,
    "embraces": 25805,
    "Ġremainder": 9862,
    "incing": 15488,
    "Ġmalignity": 10560,
    "ship": 1397,
    "Ġprecaution": 11201,
    "Ġcircus": 19093,
    "threw": 21989,
    "Ļ": 252,
    "joke": 20932,
    "Ġcity": 4532,
    "Ġnicely": 8712,
    "Ġcap": 2359,
    "Ġcommunicates": 24549,
    "ingley": 1547,
    "Ġdisp": 3361,
    "Ġbehind": 2809,
    "Ġnupt": 13946,
    "aws": 8236,
    "strate": 12679,
    "Ġnocturnal": 20717,
    "Ġstolen": 14011,
    "gledy": 25405,
    "Ġgas": 8132,
    "Ġhelen": 16658,
    "meth": 11506,
    "abri": 6683,
    "addressing": 24403,
    "Ġmoved": 4842,
    "Ġprobability": 1124,
    "Ġwaifing": 25245,
    "Ġlub": 15653,
    "Ġdecency": 18484,
    "Ġ80": 24458,
    "Ġoutright": 18414,
    "Ġpanthe": 19655,
    "Ġolder": 9330,
    "angible": 22109,
    "Ġtwelve": 4964,
    "pemberley": 9623,
    "umber": 5241,
    "Ġinsol": 10184,
    "pent": 3494,
    "Ġperf": 12855,
    "Ġlens": 8438,
    "Ġbanks": 6814,
    "ans": 459,
    "substance": 15235,
    "contrad": 19293,
    "Ġloudly": 7310,
    "Ġwarehouse": 20419,
    "escaped": 14234,
    "welt": 12525,
    "Ġsinful": 18951,
    "Ġembraced": 10010,
    "arking": 16129,
    "Ġbishop": 13905,
    "Ġgrap": 11712,
    "iving": 1722,
    "ground": 4673,
    "Ġexhaust": 6398,
    "Ġcondemn": 13448,
    "deal": 12804,
    "veral": 2351,
    "abouts": 9454,
    "Ġjamming": 17267,
    "ateful": 5928,
    "surround": 16760,
    "Ġdejected": 20306,
    "Ġunlo": 22017,
    "Ġwherein": 14298,
    "Ġsecretary": 19445,
    "grasping": 20642,
    "Ġnovelty": 13467,
    "han": 12477,
    "Ġunconsc": 6552,
    "contented": 14637,
    "Ġpeeped": 10016,
    "Ġspark": 6690,
    "garity": 17556,
    "Ġwondrous": 4736,
    "Ġapparent": 5466,
    "ifying": 5235,
    "pips": 21022,
    "Ġnorton": 12654,
    "Ġshipwreck": 20448,
    "Ġ135": 24784,
    "Ġmay": 922,
    "Ġhimmale": 18335,
    "heav": 5694,
    "Ġankers": 21448,
    "Ġunsavory": 20709,
    "angry": 18296,
    "Ġunavailing": 26218,
    "Ġsur": 2182,
    "Ġfeeding": 7971,
    "Ġiroqu": 21627,
    "Ġmerited": 23735,
    "ifers": 15786,
    "Ġunrestrained": 25556,
    "corrid": 24486,
    "ha": 3980,
    "Ġdiscover": 4719,
    "Ġcorporeally": 25730,
    "possibility": 13366,
    "Ġcoat": 4556,
    "Ġver": 3396,
    "Ġsemantic": 1957,
    "fortun": 3539,
    "nature": 5360,
    "Ġintrepid": 11711,
    "Ġtaking": 3251,
    "Ġchaff": 18384,
    "particip": 23620,
    "Ġnaval": 16901,
    "Ġforebodings": 17307,
    "little": 3354,
    "Ġwar": 5526,
    "Ġpause": 5707,
    "Ġdoing": 3660,
    "Ġveins": 8935,
    "shop": 14241,
    "Ġswinging": 7447,
    "Ġwakes": 11576,
    "cring": 20813,
    "Ġorganization": 7983,
    "guarded": 13299,
    "Ġcandour": 14676,
    "Ġwilds": 16511,
    "Ġtist": 21165,
    "Ġgroup": 2037,
    "Ġcondesc": 7180,
    "Ġshaded": 14108,
    "hig": 12479,
    "provid": 11151,
    "Ġjup": 15956,
    "Ġocc": 885,
    "Ġproflig": 23571,
    "Ġwhite": 1540,
    "Ġcommons": 22676,
    "ing": 273,
    "Ġpainfully": 13145,
    "Ġtremor": 24767,
    "Ġdetermined": 2220,
    "iled": 1762,
    "Ġstocks": 23182,
    "Ġexcess": 3344,
    "Ġshe": 466,
    "Ġbath": 9661,
    "profitable": 17072,
    "Ġjustine": 4971,
    "Ġsaintly": 25933,
    "Ġultimate": 12353,
    "Ġcolonies": 14379,
    "Ġdelightful": 6320,
    "important": 7112,
    "Ġconvey": 9985,
    "however": 4373,
    "Ġp": 289,
    "sympathy": 20545,
    "itals": 17824,
    "Ġmutters": 23961,
    "Ġmccarthys": 19664,
    "Ġglimp": 6066,
    "Ġconsc": 4275,
    "Ġkinds": 14505,
    "Ġthanks": 6708,
    "Ġstrangely": 5677,
    "Ġsal": 3935,
    "Ġglided": 7445,
    "jour": 20929,
    "tan": 4743,
    "Ġlip": 6532,
    "tri": 11533,
    "Ġcringing": 25943,
    "Ġrevolut": 3259,
    "Ġhazard": 20434,
    "Ġpar": 456,
    "Ġstile": 21739,
    "Ġincline": 18572,
    "attending": 18918,
    "Ġlearning": 386,
    "Ġrevolving": 9987,
    "Ġdodging": 19888,
    "www": 17254,
    "lant": 20949,
    "Ġcomponents": 8897,
    "icacy": 15662,
    "marry": 13327,
    "Ġhundreds": 4327,
    "Ġnich": 21523,
    "Ġtelescope": 17351,
    "Ġfootpath": 19340,
    "ickering": 22674,
    "utarch": 15666,
    "ilege": 22261,
    "Ġparacels": 13671,
    "wearing": 22691,
    "acrity": 14283,
    "Ġtension": 13827,
    "chair": 5918,
    "Ġdepresses": 25799,
    "inn": 5364,
    "antic": 1603,
    "Ġbraz": 19361,
    "istle": 15874,
    "wich": 11547,
    "Ġardu": 22189,
    "luckily": 19754,
    "Ġsinew": 25433,
    "f": 74,
    "ensing": 12901,
    "Ġappals": 22225,
    "Ġpeter": 10539,
    "Ġpublisher": 24070,
    "Ġsuperl": 16445,
    "Ġcomposed": 8896,
    "uncommon": 11686,
    "Ġkith": 22192,
    "Ġeternity": 12283,
    "pondicherry": 26403,
    "Ġfossils": 20224,
    "uity": 12522,
    "Ġknocked": 9502,
    "merc": 19282,
    "dough": 15338,
    "Åĵuvre": 25889,
    "Ġvultures": 25655,
    "nades": 20999,
    "Ġfurious": 10358,
    "Ġpitchpoling": 14915,
    "urer": 18127,
    "overfitting": 13106,
    "Ğ": 223,
    "olidity": 18137,
    "Ġinstances": 5568,
    "ĠĠĠĠĠĠĠĠĠĠĠĠĠĠĠĠĠĠĠĠĠĠĠĠĠĠĠĠĠĠ": 24445,
    "Ġsnapping": 19302,
    "ven": 781,
    "Ġaddresses": 3768,
    "Ġwhitewashed": 14473,
    "Ġconvention": 25548,
    "Ġbreadth": 10567,
    "lement": 10170,
    "Ġcut": 2640,
    "Ġbeginning": 4244,
    "Ġthrusts": 24352,
    "Ġimpress": 6861,
    "va": 4744,
    "Ġuncomp": 15845,
    "Ġshaggy": 13574,
    "Ġrattled": 15071,
    "Ġbruised": 25774,
    "Ġhue": 8429,
    "Ġinterrupting": 19558,
    "Ġclimate": 9278,
    "Ġcarr": 23096,
    "Ġubiqu": 18051,
    "Ġelasticity": 19559,
    "Ġhop": 1463,
    "Ġpondering": 17007,
    "Ġhelm": 5276,
    "Ġsitt": 21220,
    "bergen": 14343,
    "Ġactively": 18655,
    "bordered": 17501,
    "Ġembodied": 25848,
    "Ġgaol": 19569,
    "Ġstriking": 6088,
    "Ġfi": 925,
    "Ġmeddle": 20580,
    "Ġeduc": 4787,
    "copyright": 5278,
    "alling": 6036,
    "emone": 21930,
    "Ġfunny": 7637,
    "Ġpreferment": 19853,
    "Ġath": 15805,
    "Ġcuriosities": 26292,
    "dirty": 20836,
    "se": 358,
    "Ġimpaling": 22388,
    "stonecraft": 24358,
    "unhes": 21879,
    "Ġplatonian": 25121,
    "Ġstream": 5186,
    "Ġjago": 22304,
    "voices": 21120,
    "Ġdowncast": 18653,
    "sil": 5283,
    "ork": 417,
    "Ġagonized": 25374,
    "Ġthoughts": 3139,
    "Ġtarts": 10756,
    "Ġcasts": 19429,
    "Ġadditionally": 1176,
    "Ġscarcely": 4008,
    "Ġdistributing": 22683,
    "Ġpag": 6011,
    "Ġcasting": 12105,
    "Ġlisten": 4675,
    "liable": 3817,
    "Ġhorns": 11125,
    "clu": 20801,
    "Ġaccumulated": 11936,
    "niest": 19010,
    "Ġplainpal": 19279,
    "imprudent": 14654,
    "Ġbagging": 24541,
    "odings": 4399,
    "Ġjollies": 20372,
    "Ġimplement": 3121,
    "vert": 15719,
    "Ġstare": 10867,
    "iver": 2049,
    "Ġacceler": 1608,
    "Ġmorals": 22982,
    "Ġprudence": 13923,
    "amed": 4449,
    "Ġlab": 1872,
    "swallow": 24262,
    "Ġboil": 16108,
    "Ġmentioning": 9903,
    "comprehend": 14364,
    "Ġsprinkled": 19500,
    "ssed": 3734,
    "health": 13836,
    "Ġspiteful": 19525,
    "ompl": 4538,
    "Ġsteady": 4850,
    "Ġdreaminess": 23945,
    "farewell": 12310,
    "impotence": 23765,
    "bows": 10085,
    "Ġpublicly": 13326,
    "Ġneighb": 14079,
    "Ġchristendom": 16696,
    "Ġernest": 8720,
    "Ġjudiciously": 23883,
    "Ġwreath": 25938,
    "sorrows": 17323,
    "Ġposted": 16726,
    "Ĥ": 229,
    "ters": 1573,
    "inst": 4435,
    "live": 7548,
    "Ġbachelors": 24861,
    "Ġsacrilege": 26231,
    "Ġpretension": 23768,
    "Ġrot": 10969,
    "Ġkissed": 10049,
    "Ġacquiesced": 25495,
    "bran": 23578,
    "Ġshown": 5160,
    "urned": 9309,
    "nowadays": 22343,
    "Ġgrapnels": 25553,
    "Ġcorre": 3886,
    "Ġauger": 21206,
    "each": 7333,
    "Ġlaugh": 4113,
    "Ġmischief": 8542,
    "ounders": 22399,
    "Ġheedfulness": 24524,
    "Ġfasten": 11134,
    "enc": 7572,
    "Ġomitted": 12569,
    "ulence": 15770,
    "Ġser": 1671,
    "tram": 19645,
    "Ġreef": 10852,
    "madam": 24423,
    "Ġrenewing": 19812,
    "Ġcin": 13878,
    "ieces": 4773,
    "Ġinvestig": 10553,
    "vineyard": 25423,
    "oner": 6125,
    "×": 152,
    "Ġmelancholy": 5606,
    "butt": 15998,
    "anel": 21360,
    "sk": 5521,
    "Ġfattened": 25951,
    "Ġchecking": 23289,
    "Ġpleasures": 11145,
    "bbed": 6910,
    "Ġdelay": 5748,
    "pre": 650,
    "Ġmonosyllable": 20728,
    "Ġbambooz": 26121,
    "Ġprofits": 16491,
    "Ġcleans": 18950,
    "Ġvor": 15808,
    "Ġdepending": 14295,
    "Ġpresc": 15929,
    "Ġscho": 4436,
    "Ġwandering": 8656,
    "quer": 11684,
    "spade": 10344,
    "tes": 11532,
    "Ġembarr": 7444,
    "Ġimpressed": 8198,
    "ications": 4445,
    "Ġmastiff": 23729,
    "đ": 210,
    "Ġsleepy": 8267,
    "Ġsound": 2240,
    "emic": 18184,
    "Ġmemo": 18124,
    "Ġdiscomposed": 25582,
    "proof": 16426,
    "ryder": 18648,
    "final": 19678,
    "princip": 17139,
    "Ġalluded": 7884,
    "Ġcrockery": 24305,
    "Ġscattered": 6855,
    "Ġcomprehend": 6493,
    "Ġbringing": 5871,
    "Ġgown": 10205,
    "Ġbureau": 11594,
    "iters": 21332,
    "oned": 4632,
    "Ġpounds": 5368,
    "Ġcontour": 18475,
    "umst": 2502,
    "Ġnarrative": 6216,
    "Ġroses": 11791,
    "reach": 17761,
    "Ġcommands": 16591,
    "Ġpatterns": 1214,
    "Ġinvol": 1080,
    "porary": 14553,
    "Ġcrop": 10166,
    "rying": 3186,
    "biting": 20783,
    "tawny": 26407,
    "Ġdiggings": 24651,
    "knew": 9129,
    "Ġcharged": 9857,
    "Ġrotterdam": 25477,
    "enger": 10776,
    "Ġdecently": 22447,
    "Ġrandomly": 1920,
    "Ġdisposition": 5409,
    "Ġdoth": 13911,
    "braces": 24660,
    "pents": 11516,
    "conject": 8883,
    "Ġtransom": 22443,
    "Ġglobular": 19011,
    "Ġcaptioning": 23028,
    "Ġ*": 1273,
    "Ġmeas": 1098,
    "Ġpunctilious": 26356,
    "Ġstared": 8455,
    "prop": 1039,
    "Ġscript": 18400,
    "ert": 2629,
    "Ġhey": 11645,
    "Ġbackground": 18650,
    "irmed": 9242,
    "Ġdomineer": 23647,
    "Ġcompacted": 23512,
    "Ġalders": 21788,
    "Ġfors": 21775,
    "âĢĺ": 938,
    "ariously": 18528,
    "row": 1067,
    "Ġherd": 7887,
    "Ġimmensities": 25332,
    "warn": 11546,
    "Ġbigot": 24568,
    "tumbled": 21093,
    "Ġpictures": 5503,
    "Ġalco": 21786,
    "quent": 2093,
    "Ġapart": 4747,
    "Ġbreakers": 12059,
    "freighted": 14896,
    "ashions": 16420,
    "Ġhalloa": 13321,
    "Ġmock": 3691,
    "Ġspain": 15884,
    "lers": 10110,
    "presume": 25672,
    "erns": 8782,
    "icorn": 15661,
    "Ġl": 303,
    "Ġheel": 9687,
    "Ġplowdon": 26450,
    "ardy": 22161,
    "main": 8087,
    "Ġopinions": 9417,
    "Ġkate": 15904,
    "Ġbeggars": 20632,
    "Ġleadenhall": 16631,
    "Ġgree": 7593,
    "Ġunfulfilled": 26512,
    "oof": 15408,
    "across": 10328,
    "Ġcontinuation": 22921,
    "Ġlater": 6017,
    "Ġcylinders": 25945,
    "wound": 21129,
    "Ġanticipated": 13514,
    "Ġken": 22191,
    "ational": 5716,
    "Ġlig": 21551,
    "Ġslaugh": 18940,
    "Ġsho": 2243,
    "ounded": 9752,
    "Ġelevate": 24504,
    "Ġmeat": 8151,
    "Ġunreason": 15846,
    "Ġenveloped": 12213,
    "superior": 9527,
    "Ġforeseeing": 23453,
    "Ġsentin": 16374,
    "ridge": 9499,
    "Ġgirl": 3085,
    "Ġhorror": 3772,
    "Ġarmada": 23584,
    "Ġhall": 4186,
    "Ġhazarded": 25656,
    "Ġbaron": 19336,
    "Ġhappiness": 2944,
    "Ġdoings": 18377,
    "Ġheal": 21684,
    "Ġharb": 7368,
    "Ġunhe": 22015,
    "Ġschedules": 3389,
    "Ġpropont": 16352,
    "Ġprotection": 9463,
    "tar": 8097,
    "Ġshriek": 6639,
    "keys": 15862,
    "mature": 20969,
    "Ġmorality": 22983,
    "Ġquadr": 8199,
    "iff": 3904,
    "message": 17375,
    "bun": 12442,
    "ties": 2762,
    "etch": 9207,
    "befall": 22501,
    "Ġattempted": 8000,
    "Ġcaptured": 7243,
    "Ġtraveller": 8048,
    "Ġundersampling": 19521,
    "Ġmaimed": 21319,
    "Ġspend": 5306,
    "infant": 19829,
    "Ġundoing": 22039,
    "Ġoutstanding": 22321,
    "worth": 8630,
    "execut": 13659,
    "shr": 10982,
    "insult": 16282,
    "gement": 13732,
    "Ġunfor": 15843,
    "Ġgracious": 8851,
    "appears": 12064,
    "uff": 2733,
    "Ġinjection": 3467,
    "Ġguarded": 9830,
    "Ġgravel": 14105,
    "Ġfolio": 11924,
    "Ġbended": 21388,
    "oss": 10119,
    "Ġfolds": 12211,
    "Ġclutches": 20020,
    "confused": 19641,
    "Ġmuch": 921,
    "Ġfatally": 19397,
    "Ġoakshott": 12234,
    "Ġchamber": 6214,
    "Ġanchored": 17443,
    "onsense": 6430,
    "Ġrise": 5637,
    "iet": 1771,
    "Ġnaut": 13944,
    "vener": 21114,
    "dost": 14537,
    "ny": 4015,
    "Ġdocumentation": 20557,
    "Ġtemporal": 2612,
    "ledyard": 22396,
    "Ġunexpectedly": 19910,
    "Ġstalked": 20431,
    "blazing": 24136,
    "daggoo": 13710,
    "Ġscream": 5936,
    "Ġmechanisms": 1577,
    "Ġgout": 21599,
    "ories": 4754,
    "Ġfee": 7196,
    "Ġdepos": 11008,
    "Ġinducement": 16845,
    "Ġgills": 17997,
    "Ġthom": 21519,
    "surpr": 5997,
    "merry": 16538,
    "Ġlivers": 18462,
    "Ġsuspected": 9065,
    "als": 2042,
    "Ġlandsc": 11148,
    "delights": 19703,
    "omnipotent": 25966,
    "marks": 7344,
    "Ġmethod": 1450,
    "castles": 14639,
    "Ġplays": 12041,
    "vag": 8768,
    "Ġhaz": 12760,
    "Ġshutting": 14763,
    "ion": 296,
    "Ġderick": 9368,
    "Ġstraggling": 23754,
    "Ġrecesses": 17263,
    "Ġtrains": 11181,
    "complied": 19914,
    "Ġthickness": 13281,
    "appe": 2943,
    "Ġissued": 10603,
    "Ġimpose": 22387,
    "Ġwarb": 17791,
    "Ġgodfrey": 15297,
    "descend": 23091,
    "ricade": 13043,
    "Ġnovelties": 24777,
    "**": 4687,
    "turbable": 24533,
    "Ġannot": 15606,
    "Ġshillings": 15839,
    "amid": 12729,
    "\\": 64,
    "Ġspurred": 22143,
    "zwilliam": 5075,
    "Ġabund": 8868,
    "Ġdriving": 3616,
    "Ġinconvenience": 9565,
    "Ġelevated": 7316,
    "Ġseas": 3076,
    "Ġsperm": 1843,
    "holland": 24046,
    "penet": 11072,
    "Ġshrugged": 12774,
    "Ġtrumpet": 9575,
    "Ġproxim": 3201,
    "Ġsandwich": 19830,
    "Ġnaturally": 2464,
    "Ġwestern": 10658,
    "Ġfidel": 12601,
    "Ġsleek": 23387,
    "Ġpronounce": 16969,
    "Ġinject": 2713,
    "Ġhighlands": 22781,
    "althily": 19362,
    "Ġexplanations": 15914,
    "Ġreference": 2564,
    "Ġwides": 17792,
    "Ę": 217,
    "Ġkink": 22193,
    "Ġchildish": 13140,
    "ning": 949,
    "Ġjurors": 17347,
    "Ġaffirmative": 15227,
    "Ġcomputational": 1624,
    "fancy": 7335,
    "boards": 23259,
    "Ġextract": 1489,
    "Ġsettlement": 19837,
    "ġ": 226,
    "magnificent": 20276,
    "Ġperfidious": 25668,
    "folding": 24928,
    "Ġdimmed": 24272,
    "Ġbanker": 8670,
    "Ġilliterate": 26597,
    "Ġencompassed": 15257,
    "Ġembal": 11905,
    "Ġawhile": 13833,
    "rods": 21541,
    "Ġdesperately": 24658,
    "asses": 7017,
    "Ġraving": 16112,
    "oura": 1060,
    "Ġopulent": 23632,
    "garet": 9600,
    "Ġcherished": 10594,
    "Ġpassed": 2010,
    "achusetts": 20712,
    "alled": 5912,
    "ifer": 11689,
    "Ġdominic": 25382,
    "claims": 25321,
    "pieces": 8758,
    "Ġreeled": 13989,
    "Ġxl": 11994,
    "Ġsuccessive": 10504,
    "Ġobliged": 4286,
    "Ġend": 1475,
    "9": 29,
    "Ġmississ": 18840,
    "Ġpatent": 11969,
    "Ġrecognised": 8998,
    "Ġscra": 5842,
    "Ġinsatiate": 19272,
    "Ġfing": 3757,
    "Ġmantle": 25275,
    "Ġgrief": 4622,
    "Á": 130,
    "innacle": 7517,
    "Ġhon": 2535,
    "Ġaimed": 20252,
    "cart": 10693,
    "acter": 2505,
    "Ġprincipally": 11313,
    "zeal": 16275,
    "tolerable": 17691,
    "Ġwaist": 6898,
    "forehead": 8516,
    "Ġmeasuring": 22887,
    "Ġhanover": 20589,
    "Ġcoronet": 6344,
    "leman": 21371,
    "Ġxxxvi": 24972,
    "olstadt": 7788,
    "Ġcultivation": 17148,
    "Ġderivatives": 2368,
    "resembled": 21249,
    "Ġenslaved": 26316,
    "sheets": 14446,
    "rench": 3964,
    "Ġfrequently": 4681,
    "disgrace": 16460,
    "prise": 7726,
    "Ġinventing": 24862,
    "mental": 16053,
    "overcoat": 19054,
    "Ġembarkation": 25125,
    "reat": 614,
    "pretty": 10625,
    "Ġextreme": 2514,
    "dashing": 20838,
    "Ġfocused": 16343,
    "Ġbenevol": 5962,
    "iscuits": 24668,
    "dressed": 10698,
    "Ġdemonstrate": 24997,
    "Ġinfinity": 23285,
    "Ġfeeble": 12288,
    "Ġbecome": 3158,
    "inously": 21189,
    "Ġtongues": 14867,
    "rat": 8759,
    "be": 670,
    "Ġbreeze": 5681,
    "Ġnominally": 17234,
    "Ġunob": 14119,
    "cary": 10694,
    ",)": 9104,
    "brevi": 24078,
    "Ġreleased": 2977,
    "Ġquee": 1981,
    "Ġsugg": 4501,
    "Ġbarbara": 24815,
    "Ġvices": 14085,
    "onist": 21253,
    "Ġflapp": 23014,
    "Ġdeliberation": 19971,
    "Ġworthless": 19566,
    "Ġcountry": 2530,
    "ensive": 6280,
    "Ġvult": 12754,
    "transformers": 8718,
    "Ġacqu": 1420,
    "ertain": 1207,
    "sea": 4764,
    "Ġconcussion": 26302,
    "Ġcir": 21344,
    "Ġadvisable": 11445,
    "Ġassumpt": 5415,
    "resolution": 17770,
    "Ġhates": 21489,
    "Ġdeaf": 12726,
    "enance": 3373,
    "Ġspl": 2984,
    "open": 7026,
    "Ġpolitely": 8996,
    "distance": 12157,
    "Ġattitude": 8910,
    "erne": 21272,
    "Ġduring": 871,
    "Ġmin": 1027,
    "Ġstole": 7952,
    "Ġhasten": 10481,
    "including": 23594,
    "Ġgiven": 1625,
    "Ġtus": 10752,
    "Ġencomp": 12968,
    "till": 6965,
    "Ġanonymous": 26180,
    "Ġhermit": 15861,
    "decor": 23784,
    "Ġdue": 3843,
    "nlp": 8754,
    "ost": 5361,
    "Ġacres": 14317,
    "hundred": 8330,
    "phants": 9323,
    "acquired": 24300,
    "12": 20751,
    "Ġsympath": 4863,
    "Ġmind": 1618,
    "ĠĠĠĠĠĠĠĠĠĠĠĠĠĠĠĠĠĠĠĠĠĠĠĠĠĠĠĠĠĠĠĠĠĠĠĠĠĠĠĠĠĠĠĠĠĠĠ": 16757,
    ".âĢĶâĢľ": 20749,
    "ĠĠĠĠĠĠĠĠĠĠĠĠĠĠĠĠĠĠĠĠĠĠĠĠĠ": 24444,
    "Ġroylott": 7303,
    "Ġshed": 8180,
    "time": 3147,
    "gained": 20883,
    "bering": 18695,
    "various": 10401,
    "rom": 420,
    "Ġay": 15494,
    "sebastian": 21824,
    "ableness": 8148,
    "Ġrefuge": 8541,
    "Ġambiguous": 20166,
    "inement": 11561,
    "Ġ28": 19296,
    "Ġimproper": 22757,
    "ergy": 2358,
    "Ġobsequious": 17407,
    "Ġwhom": 1832,
    "Ġpe": 850,
    "countenance": 6924,
    "100": 11467,
    "Ġsoap": 14134,
    "Ġcuriously": 13013,
    "spe": 3560,
    "Ġrefreshment": 17242,
    "Ġrmsprop": 3357,
    "Ġassertion": 13493,
    "i": 77,
    "shad": 10984,
    "85": 13685,
    "remarks": 23194,
    "Ġviolation": 23410,
    "Ġton": 15467,
    "Ġcontributes": 15254,
    "Ġeloquent": 16118,
    "Ġ23": 13194,
    "scoured": 22998,
    "Ġmaw": 15544,
    "Ġbabes": 24427,
    "rann": 21047,
    "Ġuproar": 22160,
    "figures": 20124,
    "afer": 17484,
    "cc": 471,
    "ogy": 22705,
    "uture": 1073,
    "Ġfishe": 15590,
    "Ġpenetrated": 13476,
    "pp": 384,
    "aried": 10989,
    "ot": 346,
    "Ġerect": 6144,
    "Ġcategories": 4479,
    "Ġnarwhale": 12297,
    "Ġwards": 17793,
    "Ġabide": 14191,
    "Ġdiabol": 11456,
    "Ġtreatment": 12076,
    "inaw": 21186,
    "nurtured": 25526,
    "Ġsuperb": 16444,
    "Ġinhabitants": 7522,
    "Ġjoes": 19232,
    "Ġhardships": 14455,
    "Ġ51": 24318,
    "impart": 21712,
    "Ġcircumst": 2974,
    "Ġloathed": 15879,
    "cred": 9111,
    "obliged": 20634,
    "beat": 10988,
    "Ġwith": 349,
    "Ġmargaret": 10380,
    "Ġwander": 9034,
    "Ġanimals": 8981,
    "Ġhesitate": 16948,
    "Ġprocure": 9512,
    "Ġhelmeted": 19690,
    "search": 8466,
    "Ġunbending": 25466,
    "Ġhues": 21492,
    "flood": 19808,
    "Ġflowers": 8943,
    "Ġcontemplated": 13468,
    "Ġburnished": 24003,
    "bunger": 20404,
    "Ġreduces": 2340,
    "\",": 10682,
    "neurons": 3136,
    "Ġunche": 23433,
    "Ġmisfortunes": 7041,
    "Ġmutable": 23960,
    "Ġdang": 9177,
    "cost": 19188,
    "slouched": 24559,
    "Ġforbear": 17124,
    "Ġcastors": 23981,
    "did": 3197,
    "noon": 5038,
    "ancies": 11588,
    "Ġdying": 2133,
    "furnished": 20243,
    "sive": 4145,
    "very": 499,
    "Ġincorrect": 2731,
    "Ġadvertisement": 6940,
    "00": 1609,
    "Ġwoodlands": 23525,
    "Ġunnecessary": 8855,
    "Ġjeopardized": 20232,
    "ns": 752,
    "all": 485,
    "Ġclinch": 18431,
    "Ġinfancy": 10412,
    "olence": 10234,
    "ingle": 1041,
    "Ġsuspicious": 9482,
    "Ġimmaculate": 19489,
    "Ġbush": 23341,
    "Ġprepared": 5878,
    "enthusiastic": 20695,
    "otent": 8836,
    "hus": 5073,
    "Ġbehave": 23302,
    "advent": 10224,
    "Ġfriends": 2655,
    "erate": 7148,
    "Ġwarmth": 6904,
    "Ġthoughtfully": 12985,
    "hours": 9127,
    "Ġdismay": 11814,
    "aid": 1921,
    "Ġduodecimo": 16769,
    "deck": 4502,
    "degrad": 22147,
    "wear": 22687,
    "bingleys": 19636,
    "disaster": 23497,
    "catherine": 7127,
    "Ġturk": 6604,
    "independent": 26023,
    "arpening": 21446,
    "Ó": 148,
    "valu": 1693,
    "Ġmatter": 1730,
    "riage": 2121,
    "Ġaper": 17747,
    "Ġromish": 19586,
[...]
