{
  "metadata": {
    "vocab_size": 26613,
    "algorithm": "BPE",
    "created_at": "2026-08-04 05:13:36",
    "special_tokens": [
      "<PAD>",
      "<SOS>",
      "<EOS>",
      "<UNK>",
      "<MASK>"
    ]
  },
  "vocab": {
    "ulgent": 18149,
    "Ġminimize": 7050,
    "certainly": 5339,
    "pulled": 25145,
    "Ġalready": 2713,
    "eur": 7545,
    "Ġroared": 7023,
    "Ġpetersburgh": 24227,
    "Ġsafety": 6339,
    "Ġdeveloped": 16336,
    "ieged": 22576,
    "Ġhatchet": 16527,
    "Ġshattered": 7885,
    "msman": 9268,
    "Ġpovels": 22590,
    "Ġsublim": 19965,
    "volutional": 1935,
    "Ġzealand": 12347,
    "Ġvisited": 5948,
    "Ġqual": 6274,
    "ootiful": 17371,
    "Ġindisc": 16225,
    "Ġdissect": 16050,
    "Ġchimney": 6497,
    "lovely": 16041,
    "Ġuseless": 7037,
    "Ġreassure": 21670,
    "Ġeastern": 11627,
    "Ġcuriously": 13009,
    "Ġtakings": 20571,
    "Ġdenote": 19332,
    "Ġvowed": 14082,
    "Ġjavel": 17083,
    "Ġwer": 12548,
    "Ġ27": 8614,
    "known": 3568,
    "chain": 18039,
    "heed": 15496,
    "Ġmeridian": 25714,
    "nin": 17607,
    "Ġlou": 6822,
    "Ġdire": 866,
    "Ġeffeminacy": 20716,
    "division": 20047,
    "Ġoutputs": 2886,
    "comfortableness": 24524,
    "Ġjavelin": 26104,
    "ually": 2769,
    "hoped": 20909,
    "Ġample": 11795,
    "Ġreveal": 11198,
    "Ġswitzerland": 10378,
    "seemed": 4302,
    "Ġrequ": 791,
    "ĠĠĠĠ": 460,
    "Ġunjust": 8483,
    "Ġsurveying": 25325,
    "Ġmasters": 11573,
    "Ġretarded": 23071,
    "Ġimport": 1063,
    "Ġastonished": 7087,
    "Ġforg": 3785,
    "Ġlect": 9221,
    "igated": 15703,
    "adel": 15725,
    "Ġseries": 7060,
    "Ġvi": 1955,
    ".*": 7331,
    "Ġunmo": 12769,
    "Ġaffrighted": 13569,
    "Ġinterchange": 16068,
    "Ġmermaids": 26170,
    "Ď": 207,
    "Ġdoted": 21432,
    "entiful": 10835,
    "Ġalleys": 25978,
    "hills": 13734,
    "Ġmethinks": 10387,
    "umbrance": 22116,
    "Ġviolates": 3170,
    "Ġconfidential": 9086,
    "Ġcrowder": 19454,
    "59": 17472,
    "Ġthus": 2036,
    "Ġtoiled": 12639,
    "Ġenthusiasm": 8065,
    "Ġrighted": 23177,
    "Ġcopper": 7425,
    "circumspect": 26086,
    "question": 5418,
    "chess": 16572,
    "Ġinvari": 6529,
    "Ġunspeakable": 10054,
    "Ġeveryday": 22770,
    "rage": 10842,
    "stumps": 21651,
    "diligence": 26110,
    "Ġalabama": 14017,
    "oglyph": 11015,
    "Ġextract": 1497,
    "Ġfirmly": 8014,
    "underneath": 23787,
    "verd": 21725,
    "Ġstrain": 6024,
    "Ġblueprints": 13168,
    "Ġsublime": 8066,
    "Ġmassa": 19452,
    "Ġsurp": 9633,
    "Ġprofessor": 11229,
    "abash": 18107,
    "Ġdefects": 12330,
    "acceptance": 25185,
    "Ġ[\"": 19929,
    "tured": 13793,
    "Ġshrubbery": 18232,
    "exper": 8877,
    "confidence": 16807,
    "Ġsolemn": 4099,
    "Ġmexic": 14030,
    "encountered": 20391,
    "orting": 9733,
    "urring": 21703,
    "Ġsources": 10146,
    "Ġidentity": 2524,
    "Ġbankers": 24301,
    "robotics": 11305,
    "Ġcleared": 6075,
    "useness": 22280,
    "Ġpier": 7162,
    "Ġsettling": 11061,
    "luding": 6700,
    "Ġlips": 3990,
    "ook": 21003,
    "confess": 12172,
    "true": 2586,
    "Ġnineveh": 13386,
    "Ġfriday": 14487,
    "ermaid": 14296,
    "alescence": 15921,
    "wondered": 17028,
    "deep": 994,
    "Ġforeign": 9870,
    "Ġlimped": 19180,
    "Ġembellish": 25847,
    "el": 306,
    "osal": 11756,
    "Ġoppose": 16518,
    "Ġeffemin": 18518,
    "lections": 4752,
    "explanation": 12355,
    "oder": 2459,
    "Ġunpitying": 25660,
    "Ġstandards": 19018,
    "icated": 7590,
    "Ġexperienced": 6580,
    "antediluvian": 24345,
    "Ġfossils": 20221,
    "ite": 712,
    "Ġcarve": 23091,
    "Ġelevation": 14895,
    "Ġtechnically": 12363,
    "ated": 717,
    "Ġgrope": 17994,
    "urious": 21701,
    "Ġintegration": 9866,
    "Ġpawn": 12060,
    "inburgh": 15488,
    "Ġsurpasses": 25268,
    "arpening": 21442,
    "ensing": 12893,
    "Ġwhite": 1541,
    "Ġdefiance": 11067,
    "Ġdeity": 18137,
    "worship": 19385,
    "Ġpubl": 3937,
    "_--": 20761,
    "Ġbuff": 9171,
    "Ġclos": 4548,
    "wl": 17701,
    "Ġinnermost": 12157,
    "remind": 23186,
    "Ġcanvas": 7784,
    "Ġdispersed": 16596,
    "Ġbarrier": 16567,
    "preservation": 25305,
    "Ġrevive": 13476,
    "ishing": 1147,
    "rann": 21043,
    "oak": 21002,
    "splash": 25209,
    "Ġexisting": 12714,
    "ledyard": 22380,
    "article": 22381,
    "Ġcomplement": 23708,
    "Ġrouse": 15818,
    "nel": 11503,
    "Ġcetology": 10007,
    "obscure": 23096,
    "Ġcategor": 4138,
    "supp": 4161,
    "inguished": 6598,
    "Ġdan": 8791,
    "ladyship": 14826,
    "Ġtranspointed": 22438,
    "unched": 10234,
    "Ġthunders": 15634,
    "izer": 2030,
    "ms": 543,
    "Ġ-": 1946,
    "Ġfuneral": 10281,
    "wag": 21122,
    "Ġextremely": 2666,
    "Ġcaus": 1725,
    "Ġfolios": 23017,
    "Ġtight": 8108,
    "Ġveracity": 23887,
    "Ġwilt": 9642,
    "Ġcorporeal": 17358,
    "Ġsurvivors": 25732,
    "bid": 5610,
    "anim": 6522,
    "Ġexceptional": 19369,
    "staking": 21640,
    "Ġwoes": 23983,
    "Ġtaking": 3253,
    "Ġhelmet": 19686,
    "Ġgeological": 14532,
    "scissors": 20726,
    "ctic": 8442,
    "racts": 14352,
    "ĵ": 246,
    "Ġdissol": 18551,
    "Ġclamorous": 24909,
    "Ġcollecting": 12283,
    "Ġinsulted": 14990,
    "superstitiousness": 25508,
    "Ġhorribly": 16340,
    "Đ": 209,
    "Ġcontinuation": 22915,
    "Ġwad": 13849,
    "mus": 10109,
    "Ġcracks": 12016,
    "self": 617,
    "Ġshrink": 14801,
    "officer": 17053,
    "Ġtouch": 3398,
    "hind": 20893,
    "mem": 10708,
    "fate": 17538,
    "title": 17286,
    "Ġastronomy": 25926,
    "Ġfavourable": 7959,
    "Ġgaily": 16747,
    "Ġsore": 10763,
    "aud": 8521,
    "circuit": 24186,
    "Ġbusier": 23337,
    "hospit": 25903,
    "ahab": 4288,
    "Ġdormouse": 4925,
    "Ġrubbed": 12951,
    "Ġbag": 5699,
    "cross": 3575,
    "vital": 17699,
    "Ġpike": 12620,
    "Ġgret": 21599,
    "Ġrack": 9310,
    "restrained": 16333,
    "bench": 16802,
    "laden": 14927,
    "Ġestimable": 23870,
    "Ġbeards": 21749,
    "Ġpictures": 5503,
    "ye": 1406,
    "Ġjewel": 9940,
    "Ġapproved": 16032,
    "Ġbully": 23854,
    "Ġmortar": 19391,
    "cordiality": 25137,
    "Ġdit": 21419,
    "Ġbridges": 24682,
    "Ġseparation": 11246,
    "jammed": 25906,
    "Ġactually": 5389,
    "slow": 7811,
    "Ġliterature": 17147,
    "scru": 16240,
    "tee": 16171,
    "Ġenable": 686,
    "quohog": 21850,
    "Ġcorporeally": 25729,
    "Ġpreparations": 12307,
    "Ġpecks": 18669,
    "Ġsalt": 8017,
    "Ġyield": 5093,
    "Ġmixture": 9561,
    "Ġdozing": 22241,
    "Ġelimin": 16104,
    "persecut": 22178,
    "cost": 19185,
    "growing": 13731,
    "surpr": 5997,
    "Ġeul": 21616,
    "Ġweighty": 16029,
    "escape": 16004,
    "pagans": 25525,
    "č": 206,
    "Ġxvi": 19104,
    "li": 1188,
    "Ġcareer": 11117,
    "Ġremote": 8918,
    "Ġpad": 8125,
    "tremendous": 20672,
    "Ġpilgr": 12177,
    "ge": 560,
    "Ġillustrative": 25066,
    "Ġvariety": 8530,
    "sche": 13014,
    "itled": 7577,
    "Ġbelonging": 8308,
    "wretchedness": 17251,
    "Ġselling": 21223,
    "Ġanswers": 7070,
    "winding": 16719,
    "Ġannoy": 17197,
    "ract": 973,
    "Ġbarbaric": 10012,
    "Ġbanqu": 12585,
    "shapes": 22460,
    "retaining": 21244,
    "Ġbolivia": 24667,
    "Ġpertin": 18449,
    "bring": 9103,
    "Ġrender": 8305,
    "ifford": 15780,
    "Ġbought": 8416,
    "Ġax": 7823,
    "Ġdifficulties": 11224,
    "Ġquito": 24407,
    "Ġcoil": 11815,
    "elephant": 12348,
    "utherland": 9577,
    "Ġstruggle": 3674,
    "Ġleaned": 7607,
    "eld": 960,
    "Ġelias": 18635,
    "million": 25751,
    "Ġattaining": 15800,
    "Ġarrant": 23298,
    "Ġrelinquish": 17345,
    "Ġprivate": 5345,
    "Ġrenowned": 26193,
    "Ġbuoy": 8004,
    "Ġunconcern": 14114,
    "Ġlabelled": 23329,
    "Ġstory": 2902,
    "Ġflour": 8943,
    "youn": 5690,
    "Ġsmart": 11812,
    "Ġchat": 6560,
    "Ġlessen": 14531,
    "Ġdecisions": 6702,
    "Ġalphabetical": 17200,
    "Ġmeagre": 21811,
    "Ġsomewhat": 4897,
    "tormented": 13642,
    "Ġdaboll": 25950,
    "Ġimprec": 14218,
    "Ġdrily": 23538,
    "Ġscarcely": 4007,
    "Ġcomfits": 21857,
    "Ġliving": 3064,
    "Ġstones": 9220,
    "Ġcakes": 13882,
    "Ġshocks": 16455,
    "Ġarrow": 10930,
    "Ġware": 12550,
    "Ġadmeasurements": 26225,
    "iary": 15368,
    "Ġterti": 14537,
    "Ġrisen": 9491,
    "Ġplanisp": 24054,
    "born": 7543,
    "Ġheading": 8934,
    "Ġpuffed": 14975,
    "display": 19154,
    "mmar": 953,
    "Ġcasualty": 20340,
    "Ġclever": 7054,
    "Ġcirculation": 16413,
    "Ġvolley": 24143,
    "tornadoes": 26153,
    "Ġmelancholy": 5605,
    "Ġpairs": 4180,
    "generous": 16566,
    "Ġaccuracy": 1061,
    "mistak": 16877,
    "Ġadvertising": 25389,
    "Ġfumes": 21417,
    "ilight": 12690,
    "Ġcoincid": 20316,
    "Ġcondescending": 24868,
    "threat": 10899,
    "solved": 7685,
    "Ġpersevering": 20232,
    "Ġinterpreter": 23213,
    "itories": 15545,
    "cloud": 11104,
    "Ġnin": 10186,
    "inions": 8402,
    "Ġeighteenth": 14752,
    "9": 29,
    "barbs": 20236,
    "Ġhorsham": 10405,
    "nur": 11504,
    "udding": 11862,
    "placidity": 25988,
    "phant": 6286,
    "thick": 10259,
    "Ġastonishing": 10500,
    "rally": 17650,
    "Ġacres": 14311,
    "Ġlavater": 20494,
    "hero": 21203,
    "Ę": 217,
    "Ġregarding": 13207,
    "Ġspoils": 24808,
    "Ġoccupies": 24005,
    "Ġpondicherry": 20489,
    "Ġhapless": 15809,
    "Ġalternative": 19985,
    "Ġledgers": 23935,
    "died": 10692,
    "Ġecl": 18005,
    "igger": 21699,
    "Ġretort": 23069,
    "Ġknives": 14835,
    "Ġdood": 22240,
    "Ġinstant": 2704,
    "ishop": 9740,
    "Ġnaked": 8127,
    "Ġtravel": 5953,
    "exceed": 7912,
    "Ġrevelry": 15134,
    "Ġbraved": 23835,
    "Ġprosperity": 20257,
    "Ġlungs": 8362,
    "Ġbun": 6007,
    "despair": 8344,
    "vil": 2732,
    "âĢĶ_": 3204,
    "Ġplat": 8520,
    "Ġimpenitent": 26547,
    "Ġdesk": 11904,
    "insensibility": 23068,
    "Ġmaj": 3924,
    "Ġimbedded": 18334,
    "plied": 10253,
    "Ġreconcile": 25291,
    "cous": 8721,
    "complained": 25838,
    "Ġknew": 2055,
    "ssip": 14077,
    "ohn": 4560,
    "ĠâĢĶâĢľ_": 17717,
    "acher": 6868,
    "Ġdere": 21833,
    "Ġassembly": 10641,
    "dismal": 23495,
    "Ġsweetly": 23916,
    "Ġcogn": 11001,
    "Ġtalk": 1971,
    "Ġspatial": 2730,
    "Ġmurmured": 7480,
    "Ġringbolts": 24194,
    "Ġunacquainted": 12772,
    "Ġspect": 3552,
    "ely": 625,
    "Ġpill": 7846,
    "Ġtasselled": 25921,
    "bowl": 14889,
    "Ġinsure": 13175,
    "Ġbegrimed": 26577,
    "hall": 8085,
    "clear": 9022,
    "Ġvisiting": 10357,
    "Ġimped": 18443,
    "Ġwarring": 16864,
    "resistible": 10642,
    "Ġsnail": 19299,
    "Ġroasted": 18460,
    "Ġtars": 21163,
    "Ġfamiliarly": 11302,
    "Ġknowing": 4455,
    "sea": 4763,
    "Ġappertaining": 26532,
    "Ġlanguid": 14212,
    "things": 6033,
    "Ġmechanisms": 1577,
    "Ġsour": 21215,
    "Ġtwitched": 20442,
    "Ġfascinating": 17326,
    "Ġmock": 3690,
    "places": 7878,
    "ities": 1828,
    "Ġwhistling": 19789,
    "Ġgaol": 19566,
    "Ġtitle": 11407,
    "Ġregard": 3069,
    "strong": 6322,
    "Ġfarther": 5955,
    "Ġcompl": 3758,
    "hur": 6648,
    "Ġomnipotent": 13545,
    "Ġcharnel": 22250,
    "Ġadmit": 7711,
    "hor": 2570,
    "ouncing": 8494,
    "Ġcost": 2505,
    "Ġapparition": 8067,
    "Ġdesist": 16234,
    "Ġimpenetrable": 17396,
    "Ġsagacious": 14969,
    "Ġrats": 21971,
    "Ġrec": 898,
    "Ġstiffness": 24830,
    "Ġcruc": 16533,
    "Ġwarped": 25035,
    "Ġload": 14144,
    "Ġunknown": 4451,
    "Ġsins": 13835,
    "investigations": 25533,
    "Ġcrockery": 24300,
    "ibles": 18786,
    "Ġno": 511,
    "hitherto": 17282,
    "Ġrecourse": 22739,
    "Ġrampart": 20317,
    "Ġcaptains": 7457,
    "Ġoccasioned": 13223,
    "thur": 7188,
    "addition": 13381,
    "stun": 18015,
    "Ġservices": 11216,
    "Ġerred": 21155,
    "ensity": 11810,
    "miserably": 24209,
    "Ġwisdom": 11232,
    "Ġpaddles": 15145,
    "Ġblotted": 20216,
    "Ġobjections": 8564,
    ";": 31,
    "Ġgam": 11622,
    "Ġevolve": 3004,
    "Ġadvoc": 12987,
    "uced": 13798,
    "arent": 4248,
    "Ġtotal": 4993,
    "Ġswan": 23049,
    "Ġtortured": 14922,
    "ĠĊ": 12519,
    "Ġey": 8135,
    "Ġbrilliancy": 20105,
    "professor": 17248,
    "Ġporch": 19679,
    "Ġguilty": 7250,
    "fitzwilliam": 11351,
    "Ġtransparen": 10540,
    "discovering": 24250,
    "Ġarid": 22185,
    "Ġbeth": 9656,
    "Ġimprecate": 20516,
    "abb": 15735,
    "Ġimmensity": 25329,
    "¢": 100,
    "Ġins": 2779,
    "Ġpositively": 13026,
    "Ġdesponding": 25868,
    "rential": 22916,
    "Ġspade": 9257,
    "aternity": 21264,
    "Ġcomparable": 24277,
    "Ġaudience": 24769,
    "Ġsurvive": 9066,
    "Ġexcited": 5579,
    "Ġprized": 23219,
    "Ġdispel": 16595,
    "Ġliv": 6679,
    "Ġcheap": 13086,
    "reat": 616,
    "Ġdancing": 5703,
    "glance": 16586,
    "Ġpersuas": 23944,
    "rences": 9270,
    "Ġforeboding": 20382,
    "Ġweak": 5098,
    "snatched": 24850,
    "Ġwhither": 10213,
    "Ġhabitu": 19527,
    "vine": 10733,
    "Ġsmooth": 2777,
    "Ġdealing": 14045,
    "Ġsponge": 26003,
    "rushing": 10016,
    "Ġmethodic": 23110,
    "house": 4076,
    "protested": 13471,
    "anel": 21355,
    "Ġfreshe": 13066,
    "Ġsplendid": 17212,
    "Ġanswer": 2599,
    "Ġurgent": 16866,
    "Ġspo": 6846,
    "Ġeffectively": 2830,
    "save": 13783,
    "Ġwrites": 23196,
    "Ġshared": 10262,
    "Ġcommitting": 22671,
    "scuttle": 11907,
    "inition": 11555,
    "Ġsoil": 9253,
    "Ġinsects": 25646,
    "meeting": 11016,
    "Ġslacked": 25188,
    "Ġignorant": 5343,
    "aulding": 11338,
    "osed": 1963,
    "Ġsqualid": 14366,
    "Ġbows": 4082,
    "noise": 14329,
    "ails": 6160,
    "orial": 8417,
    "fired": 20859,
    "Ġeclipsed": 26376,
    "Ġbaked": 21384,
    "Ġglance": 4232,
    "Ġroused": 7622,
    "stories": 18020,
    "derer": 4600,
    "Ġbedfellows": 23437,
    "Ġtendinous": 16930,
    "Ġconstantly": 11969,
    "itiousness": 21332,
    "Ġsensibly": 14513,
    "Ġunwillingly": 15845,
    "Ġchooses": 13343,
    "Ġremoved": 5274,
    "Ġboth": 1657,
    "Ġboomer": 20166,
    "Ġrigger": 19529,
    "arying": 9799,
    "Ġyouth": 4260,
    "Ġbrothers": 13172,
    "aboard": 21792,
    "arthur": 14827,
    "Ġrossum": 3014,
    "Ġunquestion": 18245,
    "Ġmult": 1024,
    "Ġcelestial": 10065,
    "establishment": 26113,
    "condite": 23245,
    "Ġdisgusting": 19893,
    "Ġroanoke": 22405,
    "Ġsheaves": 22156,
    "Ġimproved": 7656,
    "Ġfaint": 5811,
    "prior": 21031,
    "Ġrepositories": 23363,
    "Ġwooded": 23517,
    "Ġcrimson": 16439,
    "Ġcoach": 6867,
    "Ġencounters": 19579,
    "end": 502,
    "innocent": 20285,
    "Ġassertion": 13486,
    "Ġarising": 10932,
    "Ġyields": 19655,
    "Ġhesitation": 13438,
    "Ġdiscernment": 15053,
    "Ġtravell": 5575,
    "Ġcaroline": 7255,
    "ess": 412,
    "Ġantichron": 24179,
    "emorial": 10240,
    "Ġtorch": 25030,
    "ians": 2360,
    "hook": 12050,
    "Ġgladstone": 23867,
    "89": 20758,
    "advent": 10219,
    "Ġbarb": 4530,
    "Ġplanks": 5562,
    "circumstance": 7764,
    "Ġfranc": 16349,
    "Ġlength": 2500,
    "chery": 24550,
    "Ġsuddenly": 2645,
    "escript": 18471,
    "Ġexclude": 19043,
    "Ġtigris": 25759,
    "Ġleaky": 2347,
    "Ġdug": 21429,
    "Ġruss": 18719,
    "Ġnone": 3226,
    "ace": 715,
    "Ġintermission": 18587,
    "atha": 6572,
    "yea": 23086,
    "kindness": 10504,
    "rooms": 10431,
    "Ġaid": 6122,
    "Ġsubmission": 22789,
    "opportunity": 12271,
    "Ġsupply": 6067,
    "Ġchapters": 10472,
    "impul": 16554,
    "Ġfr": 1696,
    "over": 1847,
    "Ġstupidity": 15048,
    "Ġyale": 21777,
    "Ġagric": 22513,
    "Ġrambles": 17183,
    "Ġkingdom": 12015,
    "Ġpollard": 20384,
    "quarrel": 20013,
    "tossing": 18580,
    "fthand": 26385,
    "je": 11494,
    "Ġlumber": 13950,
    "Ġluxur": 12338,
    "agne": 21903,
    "ivery": 17571,
    "Ġyelling": 18096,
    "Ġsmall": 894,
    "Ü": 157,
    "Ġagencies": 18542,
    "reflected": 24733,
    "Ġmagnus": 18957,
    "Ġwrinkled": 7264,
    "depend": 9111,
    "Ġnoticed": 5548,
    "Ġquarrel": 7292,
    "ters": 1573,
    "Ġreliance": 14383,
    "Ġnursing": 12211,
    "Ġopportunity": 4786,
    "Ġmaze": 23828,
    "july": 20473,
    "Ġpall": 7582,
    "Ġtreatment": 12068,
    "Ġargemone": 24273,
    "anks": 3914,
    "Ġfuss": 13903,
    "Ġdoorway": 14497,
    "romang": 22003,
    "Ġscrupled": 25049,
    "Ġbitterest": 12399,
    "Ġmisfortunes": 7041,
    "Ġbriony": 9327,
    "repeated": 12336,
    "Ġexult": 10227,
    "chapter": 1404,
    "Ġmarbles": 18872,
    "olstad": 7611,
    "Ġchoking": 15931,
    "seized": 14033,
    "Ġsaves": 18324,
    "Ġ95": 19772,
    "Ġdispirited": 23880,
    "Ġfrogs": 23920,
    "athies": 22702,
    "ming": 3600,
    "Ġstretch": 6993,
    "autions": 20766,
    "Ġsummary": 19402,
    "Ġtarts": 10752,
    "yl": 7819,
    "Ġlanc": 19763,
    "Ġheat": 5453,
    "Ġheadland": 22894,
    "arboard": 7266,
    "Ġobser": 2071,
    "into": 3679,
    "Ġballasted": 23977,
    "Ġspending": 10922,
    "pin": 13765,
    "Ġdisappearing": 22531,
    "Ġlarger": 1403,
    "Ġconfusing": 23306,
    "Ġperf": 12846,
    "Ġpots": 9426,
    "Ġlooking": 2473,
    "Ġmisery": 3811,
    "obtained": 23094,
    "ivers": 1984,
    "Ġbeliever": 25845,
    "izure": 21832,
    "lantern": 17426,
    "Ġgips": 10840,
    "adders": 24399,
    "Ġnortheast": 23200,
    "tit": 11526,
    "©": 107,
    "Ġhospitable": 17058,
    "history": 15013,
    "iocr": 20922,
    "Ġshovel": 23489,
    "Ġgentle": 1890,
    "Ġprofit": 14584,
    "Ġvague": 6406,
    "gradient": 2273,
    "increase": 20267,
    "Ġproposal": 10017,
    "Ġprocedural": 12027,
    "aution": 9385,
    "Ġlike": 668,
    "ingale": 21298,
    "man": 1054,
    "Ġellenborough": 26154,
    "Ġgarments": 15191,
    "Ġoccasions": 7988,
    "Ã¦st": 24173,
    "paradise": 20636,
    "Ġglobe": 6077,
    "Ġforcing": 3227,
    "Ġconsp": 10224,
    "ppers": 7617,
    "Ġmig": 13854,
    "Ġdiffers": 23780,
    "severe": 21816,
    "cons": 4307,
    "direct": 12453,
    "Ġbarmaid": 19334,
    "Ġelix": 22643,
    "olidity": 18132,
    "Ġisland": 4047,
    "shell": 16284,
    "Ġram": 11012,
    "Ġinfamy": 14501,
    "Ġcouldn": 7648,
    "Ġconnect": 801,
    "kl": 4865,
    "Ġmagnitudes": 3819,
    "coat": 5407,
    "shr": 10979,
    "road": 6677,
    "Ġwood": 2290,
    "Ġtreas": 7358,
    "Ġsoften": 23123,
    "ader": 14010,
    "reigned": 21241,
    "fuller": 22484,
    "endar": 18364,
    "reen": 21230,
    "Ġdecision": 2675,
    "Ġrosings": 4607,
    "Ġpetulance": 24226,
    "Ġpromising": 10398,
    "Ġwould": 651,
    "Ġlegal": 10438,
    "Ġcele": 9898,
    "Ġmounttop": 19976,
    "Ġscaled": 2105,
    "O": 51,
    "Ġexcuses": 19044,
    "impulse": 20644,
    "accomplishment": 20222,
    "Ġet": 3580,
    "Ġvows": 15805,
    "insist": 23063,
    "renew": 24449,
    "ug": 1768,
    "Ġadmiral": 17303,
    "wreat": 21126,
    "perpet": 14157,
    "fast": 3073,
    "Ġadhes": 22100,
    "Ġreception": 9837,
    "Ġexhilarating": 26337,
    "outon": 12800,
    "Ġjustify": 11071,
    "shudder": 26245,
    "phew": 6368,
    "Ġsteersman": 13037,
    "Ġstick": 6026,
    "Ġreciproc": 20620,
    "Ġpharaoh": 26584,
    "Ġbraz": 19356,
    "Ġslavish": 23172,
    "Ġhorr": 3194,
    "brim": 23573,
    "Ġstationary": 19693,
    "ses": 3027,
    "Ġglancing": 5399,
    "Ġsurvey": 13590,
    "astes": 11736,
    "ondescript": 22914,
    "Ġcoverage": 4286,
    "countenance": 6925,
    "aret": 7417,
    "Ġranks": 21970,
    "confidential": 25876,
    "Ġlance": 4879,
    "Ġsnatch": 14638,
    "Ġharpoone": 2911,
    "par": 1898,
    "Ġstars": 6149,
    "Ġskill": 6872,
    "Ġbaker": 4696,
    "Ġdeformed": 14047,
    "affections": 17355,
    "Ġleft": 1761,
    "fool": 9046,
    "Ġleaning": 5228,
    "Ġimposing": 11778,
    "Ġpatients": 24813,
    "Ġandes": 12638,
    "Ġroods": 22402,
    "Ġinexperience": 26099,
    "Ġhunter": 5401,
    "Ġweap": 6155,
    "Ġtowards": 1729,
    "previously": 17206,
    "Ġsalmon": 24058,
    "Ġcatching": 9476,
    "Ġconstit": 8583,
    "Ġarrog": 18344,
    "Ġreversed": 15693,
    "Ġoaths": 13521,
    "Ġimpression": 5732,
    "Ġprogno": 14039,
    "meas": 7432,
    "Ġtrousers": 12412,
    "tic": 8391,
    "ton": 1727,
    "tree": 11532,
    "Ġhoe": 23350,
    "Ġbowls": 23769,
    "Ġevangelists": 20338,
    "Ġdynamic": 5122,
    "Ġsubtle": 6716,
    "Ġthankful": 14736,
    "intellig": 5320,
    "Ġnoting": 18221,
    "iform": 2200,
    "Ġsavesoul": 26227,
    "Ġadversarial": 5606,
    "Ġblinding": 14726,
    "works": 6587,
    "hullo": 17569,
    "ating": 663,
    "Ġexcavating": 23316,
    "nihil": 9846,
    "considering": 12171,
    "Ġspecially": 11994,
    "Ġassociated": 12246,
    "Ġunhappily": 18259,
    "Ġclin": 14200,
    "unwilling": 14059,
    "Ġhut": 15615,
    "Ġinquiries": 5678,
    "Ġplacing": 8899,
    "approve": 19935,
    "Ġsuperb": 16443,
    "woman": 5899,
    "Ġindicate": 23721,
    "perv": 1523,
    "Ġfrosty": 14933,
    "Ġdut": 2990,
    "ulled": 14054,
    "iving": 1726,
    "Ġovertaken": 18429,
    "recklessly": 25269,
    "sul": 15419,
    "Ġshown": 5159,
    "Ġfish": 2710,
    "Ġtens": 17722,
    "chat": 21684,
    "Ġvect": 1223,
    "Ġnuptial": 25782,
    "icular": 2023,
    "Ġdesired": 4664,
    "Ġlabel": 14514,
    "honey": 20904,
    "cham": 10852,
    "expect": 4769,
    "ere": 6789,
    "pointed": 9806,
    "Ġsailors": 4275,
    "Ġbuttons": 12778,
    "Ġhints": 8430,
    "Ġallev": 18100,
    "Ġphrase": 11186,
    "Ġasleep": 6836,
    "Ġhappier": 10358,
    "Ġseverely": 14931,
    "Ġimplicated": 24875,
    "Ġmary": 3840,
    "Ġjung": 12833,
    "ighter": 7968,
    "Ġnaval": 16898,
    "whale": 2138,
    "Ġpublisher": 24062,
    "mmed": 7915,
    "Ġmun": 12558,
    "Ġfollow": 1397,
    "overed": 2852,
    "Ġlegs": 4916,
    "Ġfashion": 4296,
    "Ġlisten": 4673,
    "Ġcourses": 10410,
    "Ġmarked": 4619,
    "Ġfamiliar": 5511,
    "Ġtum": 5692,
    "Ġcastaways": 19426,
    "Ġlubber": 17442,
    "Ġdebated": 9039,
    "Ġexpedite": 24953,
    "Ġger": 21589,
    "Ġsymp": 4502,
    "Ġriotous": 20543,
    "Ġupbraiding": 26226,
    "Ġhorns": 11122,
    "Ġarrang": 2468,
    "Ã": 132,
    "ckets": 6843,
    "Ġthreatened": 8330,
    "Ġoptimize": 1586,
    "Ġnods": 19062,
    "asis": 12647,
    "charlotte": 6473,
    "Ġsymbolize": 24962,
    "ieving": 7031,
    "rest": 1633,
    "fashioned": 9569,
    "Ġimpul": 7208,
    "Ġproced": 2579,
    "Ġmonosyllable": 20725,
    "inated": 6804,
    "Ġruinous": 24634,
    "Ġsubterr": 10347,
    "Ġtype": 2020,
    "Ġcham": 4892,
    "Ġhatches": 12042,
    "aped": 3763,
    "zors": 21146,
    "Ġdetailed": 12821,
    "ards": 2504,
    "hogs": 20080,
    "Ġbeaten": 10527,
    "Ġwhisker": 23932,
    "computer": 1952,
    "Ġcharlotte": 3888,
    "Ġsurrounding": 12159,
    "Ġfulfilment": 20186,
    "groom": 8739,
    "Ġdelights": 14595,
    "Ġplenty": 6708,
    "Ġwrecked": 9964,
    "volutions": 16319,
    "especially": 3572,
    "Ġlearnable": 3994,
    "Ġduncan": 13458,
    "ieves": 4004,
    "Ġjoke": 8867,
    "falsehood": 25901,
    "Ġcomra": 7183,
    "jewel": 20345,
    "Ġapolog": 9042,
    "fifth": 20145,
    "Ġmisfortune": 5568,
    "Ġbern": 17858,
    "Ġtypes": 8935,
    "Ġhereford": 22876,
    "Ġdodging": 19886,
    "imodal": 17445,
    "powerful": 24847,
    "pass": 4289,
    "Ġveget": 11883,
    "pretty": 10620,
    "asol": 21538,
    "Ġseaward": 22945,
    "Ġhelplessness": 25071,
    "Ġaccurately": 4475,
    "appl": 9324,
    "Ġstaid": 21733,
    "Ġwhales": 1830,
    "pursued": 17280,
    "Ġsolemnity": 9939,
    "Ġsoothed": 10027,
    "Ġchildhood": 13135,
    "Ġhire": 21483,
    "Ġsnugness": 20075,
    "earliest": 20118,
    "disapprobation": 19155,
    "remote": 23188,
    "Ġguards": 16267,
    "ose": 718,
    "Ġloos": 15868,
    "thank": 4950,
    "Ġcorp": 5574,
    "Ġ115": 24438,
    "Ġoutright": 18412,
    "Ġimprecations": 25820,
    "ide": 722,
    "Ġavowed": 16632,
    "Ġsharing": 3476,
    "owed": 2266,
    "Ġtraveller": 8049,
    "Ġunder": 1636,
    "doubtless": 17001,
    "Ġlun": 7856,
    "rollable": 13943,
    "bout": 20772,
    "Ġsauntering": 18327,
    "Ġwight": 12549,
    "scar": 9814,
    "Ĩ": 233,
    "lines": 6959,
    "Ġpicked": 6341,
    "Ġcoarsely": 25828,
    "Ġbatt": 13897,
    "iancy": 13004,
    "Ġobsequious": 17402,
    "attachment": 13047,
    "abil": 2007,
    "Ġfainted": 8790,
    "sequence": 2854,
    "Ġapplication": 2141,
    "Ġwhaleboats": 18479,
    "Ġexpectantly": 23522,
    "Ġ1000": 3118,
    "Ġserm": 9632,
    "Ġwaxed": 21296,
    "Ġgeorgia": 23884,
    "nour": 20987,
    "Ġtrag": 13035,
    "Ġpositives": 4316,
    "Ġstubbornness": 25380,
    "Ġaloft": 4301,
    "rigging": 20004,
    "Ġstur": 15713,
    "opius": 18508,
    "Ġshoulders": 5565,
    "dition": 15338,
    "Ġsensationalism": 26066,
    "Ġnorms": 3665,
    "uiperai": 10662,
    "Ġtomb": 8806,
    "Ġ17": 5740,
    "laughing": 15177,
    "Ġexotic": 21829,
    "Ġshining": 8172,
    "Ġfishe": 15582,
    "Ġunnear": 22022,
    "Ġbloodthirsty": 26600,
    "Ġmirror": 12375,
    "Ġofficio": 23813,
    "polar": 24584,
    "Ġunclad": 22048,
    "Ġhomeward": 9389,
    "Ġinex": 6528,
    "Ġassault": 9835,
    "harpooneer": 8688,
    "Ġsalted": 14754,
    "Ġwish": 2097,
    "mou": 10707,
    "Ġinvoluntarily": 8547,
    "drawers": 19384,
    "Ġindirect": 18835,
    "avating": 18605,
    "Ġallen": 5160,
    "enge": 21279,
    "recollect": 17222,
    "knife": 6942,
    "swimming": 24257,
    "Ġdeliriously": 23228,
    "Ġlab": 1872,
    "Ġpea": 14315,
    "Ġfavourite": 5270,
    "ase": 1159,
    "Ġdistinct": 4609,
    "bb": 2799,
    "Ġeasterly": 25962,
    "Ġdevout": 14324,
    "Ġgans": 5821,
    "Ġclang": 15962,
    "Ġinstruments": 12220,
    "Ġjoints": 12032,
    "colour": 9901,
    "Ġsunken": 14493,
    "sell": 13779,
    "Ġbelshazzar": 16223,
    "Ġincredible": 9513,
    "Ġpoverty": 9302,
    "Ġentirely": 3435,
    "Ġrespond": 11175,
    "pipe": 8696,
    "Ġexpost": 18623,
    "Ġcasually": 25093,
    "Ġevinced": 7100,
    "Ġdegree": 3702,
    "Ġbasics": 13445,
    "Ġcaution": 11345,
    "ream": 2709,
    "Ġestablish": 9541,
    "neighbouring": 19962,
    "Ġindel": 12999,
    "nez": 22445,
    "mission": 5970,
    "laug": 10706,
    "Ġassented": 17336,
    "Ġjealousy": 13573,
    "Ġpeculiarity": 12930,
    "Ġelapsed": 7652,
    "Ġunnatural": 7190,
    "Ġbleeds": 24396,
    "claps": 23151,
    "x": 92,
    "Ġremained": 3145,
    "Ġangular": 19206,
    "may": 3678,
    "Ġdocuments": 10021,
    "somehow": 12008,
    "Ġlandlessness": 23378,
    "###": 3824,
    "Ġstands": 5258,
    "elaborate": 21574,
    "Ġjapanese": 10631,
    "Ġhaught": 10251,
    "Ġuninjured": 22050,
    "Ġdonkey": 23227,
    "sartain": 25622,
    "uning": 1311,
    "utional": 17983,
    "pretend": 24882,
    "Ġunnecessary": 8850,
    "Ġnocturn": 18375,
    "educ": 10827,
    "Ġearnestness": 12122,
    "Ġincreasingly": 9369,
    "Ġbuoyant": 13529,
    "Ġbath": 9657,
    "Ġprotesting": 14739,
    "Ġfills": 12591,
    "Ġinterruption": 9471,
    "Ġgallows": 12142,
    "Ġjumped": 7096,
    "dan": 17514,
    "Ġdisposition": 5409,
    "precedented": 15172,
    "Ġhind": 9187,
    "Ġforming": 7042,
    "Ġmourning": 13475,
    "Ġcoer": 22579,
    "Ġstranded": 9773,
    "Ġchained": 16385,
    "ficial": 17547,
    "Ġsubdiv": 16157,
    "ĠĠ": 353,
    "nable": 13760,
    "Ġstrangers": 8314,
    "Ġcrav": 19172,
    "Ġuppermost": 15276,
    "coun": 10685,
    "Ġfeminine": 15261,
    "couldn": 23716,
    "med": 1910,
    "Ġshaping": 22001,
    "Ġ]": 15457,
    "Ġchecking": 23285,
    "Ġwidespread": 20674,
    "Ġundulations": 19514,
    "Ġconstrued": 26301,
    "Ġtrap": 7672,
    "Ġpersever": 10001,
    "Ġcreat": 1400,
    "Ġbuilt": 8300,
    "Ġbelong": 3884,
    "stealthily": 23959,
    "american": 11399,
    "Ġinfernal": 11958,
    "Ġnames": 4532,
    "Ġscarcity": 23824,
    "til": 17670,
    "Ġpalm": 10512,
    "mightily": 24102,
    "Ġflies": 13021,
    "Ġlessened": 19085,
    "Ġclicked": 22353,
    "Ġearthquake": 14626,
    "derstand": 638,
    "Ġdisobedience": 22533,
    "Ġvirtue": 4922,
    "keeper": 5596,
    "complain": 14355,
    "Ġfourteen": 12006,
    "sh": 648,
    "leviathans": 19936,
    "Ġthird": 4185,
    "vacancies": 25919,
    "unavoid": 14060,
    "Ġrespective": 16342,
    "Ġphilosophers": 10550,
    "determine": 19942,
    "Ġtreated": 7080,
    "Ġindomit": 22953,
    "Ġportent": 12078,
    "Ġbidden": 24646,
    "collinses": 19922,
    "Ġtrades": 8232,
    "Ġgrin": 5482,
    "Ġlightning": 5750,
    "gown": 9595,
    "Ġgrace": 5374,
    "Ġraft": 16112,
    "spite": 16135,
    "Ġproperly": 7945,
    "Ġstochastic": 3270,
    "Ġindifferent": 6174,
    "Ġmaz": 15538,
    "Ġguide": 3219,
    "Ġascertain": 9704,
    "Ġsultan": 15182,
    "Ġbeheaded": 11654,
    "condescended": 26248,
    "ĠĠĠĠĠĠĠĠ": 711,
    "blot": 20782,
    "Ġflushed": 13023,
    "occup": 7753,
    "Ġdig": 6135,
    "folio": 10545,
    "Ġplatform": 17130,
    "Ġinno": 1408,
    "Ġdeacon": 18143,
    "cruet": 17025,
    "Ġenchanted": 9079,
    "Ġflexible": 23774,
    "Ġrem": 955,
    "Ġtendency": 11328,
    "Ġasp": 15777,
    "Ġdeafened": 25651,
    "Ġquicker": 16506,
    "Ġstudious": 23223,
    "Ġmercenary": 17192,
    "caterpillar": 26382,
    "Ġv": 399,
    "Ġchagrin": 20606,
    "ssible": 2995,
    "axen": 22519,
    "ribution": 14305,
    "Ġexpressive": 8981,
    "Ġdanced": 7843,
    "yn": 7820,
    "ands": 21864,
    "Ġalex": 15131,
    "Ġdy": 2537,
    "osing": 3688,
    "bohemia": 20730,
    "Ġarticle": 9500,
    "amaz": 21842,
    "Ġunfulfilled": 26508,
    "Ć": 199,
    "Ġverge": 23885,
    "Ġtormenting": 15102,
    "Ġsuspicion": 6211,
    "Ġwashington": 17201,
    "mysteries": 26050,
    "boxes": 16887,
    "Ġinquiring": 8998,
    "Ġdeemed": 7614,
    "Ġplan": 3880,
    "Ġbristol": 14378,
    "Ġsauc": 15885,
    "Ġchr": 3687,
    "uded": 6287,
    "Ġ6": 5141,
    "orate": 10799,
    "offensive": 16391,
    "Ġspeak": 2227,
    "Ġtranced": 18421,
    "Ġtear": 6722,
    "Ġviciss": 11291,
    "Ġalacrity": 15733,
    "proud": 9902,
    "Ġshyness": 20305,
    "dreaded": 25138,
    "Ġent": 905,
    "prepare": 20211,
    "ester": 11601,
    "interval": 7991,
    "Ġsincerely": 7963,
    "Ġminority": 18752,
    "Ġo": 275,
    "Ġstillness": 12990,
    "ellig": 522,
    "theories": 18078,
    "Ġaccompaniments": 24481,
    "Ġfits": 8789,
    "Ġbarriers": 23793,
    "hemat": 3131,
    "Ġlucas": 3829,
    "Ġslew": 23381,
    "aph": 10953,
    "Ġlawyer": 10667,
    "Ġfurthest": 22814,
    "Ġpains": 5965,
    "Ġdu": 4584,
    "clair": 18932,
    "Ġvertical": 16603,
    "repressed": 21242,
    "Ġinspection": 14543,
    "Ġgrowth": 14627,
    "Ġfretfully": 25447,
    "Ġdesmarest": 22974,
    "Ġinexper": 16979,
    "Ġfeelings": 2453,
    "Ġcombination": 22854,
    "sword": 10725,
    "Ġmilan": 19534,
    "Ġgovernesses": 25127,
    "Ġinco": 14258,
    "Ġvap": 6837,
    "commander": 16986,
    "Ġboister": 12917,
    "ilege": 22254,
    "Ġextant": 18683,
    "Ġperempt": 13671,
    "valu": 1724,
    "Ġtwenty": 3946,
    "Ġcolonnades": 26275,
    "ulus": 21862,
    "Ġelegance": 11331,
    "unbounded": 21883,
    "Ġprivile": 8645,
    "Ġsensitiveness": 23733,
    "Ġjudiciously": 23876,
    "opard": 9289,
    "Ġplaced": 3445,
    "Ġhellish": 10549,
    "pow": 10716,
    "Ġwhip": 8451,
    "entreat": 17975,
    "Ġxlix": 25860,
    "libra": 22923,
    "Ġfluffy": 19362,
    "Ġgeneric": 18453,
    "Ġleisure": 6539,
    "Ġcheever": 23283,
    "Ġexultation": 15168,
    "Ġdefines": 1743,
    "horrors": 20540,
    "buoy": 7761,
    "Ġthom": 21514,
    "posterity": 25488,
    "less": 928,
    "Ġslewed": 23383,
    "Ġspacious": 18312,
    "Ġ26": 10469,
    "Ġtriangular": 14857,
    "Ġseething": 18203,
    "Ġtablets": 13152,
    "Ġsalutations": 25382,
    "Ġemig": 14523,
    "commencement": 26347,
    "Ġphysiognomical": 25611,
    "library": 12994,
    "itect": 969,
    "Ġbrains": 2630,
    "teous": 16172,
    "Ġhorseman": 19606,
    "relics": 24012,
    "Ġindefinite": 17175,
    "blubber": 15234,
    "Ġque": 4158,
    "Ġsignifies": 19203,
    "Ġrustling": 24715,
    "âĢĶâĢľ_": 13201,
    "sad": 11519,
    "batt": 20777,
    "Ġfunny": 7637,
    "Ġaloysius": 15734,
    "sence": 3309,
    "Ġrows": 10560,
    "_.,": 14561,
    "Ġsparks": 22130,
    "Ġgirl": 3088,
    "Ġocc": 887,
    "Ġsplashing": 16548,
    "Ġexplained": 5936,
    "Ġhurried": 4029,
    "living": 7133,
    "Ġhumbled": 16194,
    "tubs": 15128,
    "yesterday": 10352,
    "Ġswing": 13032,
    "Ġchopping": 24218,
    "Ġbulkington": 14676,
    "Ġbeckoned": 25793,
    "trop": 15434,
    "Ġvocabulary": 4995,
    "Ġposit": 1304,
    "Ġcorrected": 10447,
    "Ġcopying": 17067,
    "hence": 16623,
    "Ġchance": 3320,
    "Ĳ": 243,
    "itives": 17819,
    "flesh": 13487,
    "Ġspanish": 2826,
    "tempt": 21078,
    "romising": 18233,
    "through": 4021,
    "unerative": 21894,
    "Ġgriev": 16633,
    "Ġincreasing": 8247,
    "ainted": 3658,
    "Ġeverlasting": 9335,
    "Ġtepid": 26411,
    "hatchway": 25904,
    "Ġfing": 3756,
    "Ġlanded": 7469,
    "jo": 3750,
    "Ġbasis": 16960,
    "Ġgrunt": 18735,
    "Ġnavel": 24575,
    "Ġclut": 7641,
    "Ġportcullis": 26602,
    "isen": 10791,
    "Ġseparate": 5778,
    "Ġavail": 11225,
    "sombre": 23852,
    "Ġevolved": 9889,
    "ippers": 17575,
    "Ġunobserved": 18246,
    "indirectly": 18437,
    "happ": 3105,
    "Ġnostrils": 10942,
    "not": 909,
    "Ġpudding": 17913,
    "infant": 19826,
    "Ġdisent": 22521,
    "ts": 959,
    "Ġthreatens": 24374,
    "Ġdrinking": 12165,
    "Ġrail": 7225,
    "Ġtanning": 17728,
    "itying": 21992,
    "Ġfine": 1317,
    "express": 4895,
    "Ġcamberwell": 25350,
    "och": 21000,
    "utely": 8132,
    "Ġargued": 13626,
    "Ġostlers": 25276,
    "Ġdecisive": 18487,
    "Ġpushing": 10818,
    "Ġdisgusted": 14988,
    "stoke": 18019,
    "Ġsquaring": 22836,
    "oun": 483,
    "hilar": 25081,
    "Ġrus": 14090,
    "Ġaverred": 18865,
    "explained": 23140,
    "regard": 7974,
    "Ġcoincidences": 26363,
    "Ġresponded": 13635,
    "Ġ1991": 3017,
    "walking": 9980,
    "Ġunt": 2292,
    "cul": 1902,
    "dle": 3251,
    "inquiry": 15140,
    "Ġclothed": 19605,
    "dled": 9109,
    "om": 316,
    "Ġaccusation": 22376,
    "Ġsearched": 15816,
    "smote": 23907,
    "Ġramadan": 9574,
    "accounted": 16499,
    "Ġadjusts": 8979,
    "Ġ200": 19294,
    "husband": 8042,
    "Ġringed": 16749,
    "±": 114,
    "ortal": 6265,
    "Ġbench": 7238,
    "Ġrenewing": 19809,
    "Ġannihilated": 20251,
    "iece": 3231,
    "intervals": 10636,
    "Ġassisted": 11110,
    "pag": 11509,
    "Ġsmelling": 16063,
    "rily": 7621,
    "Ġhawsers": 26501,
    "Ġwolfish": 25935,
    "Ġamazement": 7765,
    "commence": 19990,
    "Ġwhereon": 16098,
    "Ġantics": 24176,
    "Ġpretence": 13204,
    "conce": 8510,
    "Ġperpendicular": 7209,
    "Ġpained": 19166,
    "lives": 12482,
    "Ġpocket": 4898,
    "Ġrover": 18456,
    "Ġattraction": 18625,
    "Ġbuttoning": 17234,
    "Ġreynolds": 10208,
    "warks": 5004,
    "ica": 10197,
    "but": 592,
    "Ġcushion": 17833,
    "Ġhaz": 12752,
    "and": 372,
    "Ġ73": 24259,
    "byshire": 6172,
    "Ġtoken": 2038,
    "Ġbarrels": 9434,
    "Ġremedy": 18725,
    "Ġrandom": 1589,
    "gments": 12466,
    "wit": 7818,
    "Ġschooner": 16746,
    "Ġcanals": 22162,
    "Ġbalm": 22901,
    "Ġmakest": 25435,
    "Ġaggregated": 25678,
    "Ġspiteful": 19521,
    "Ġstreams": 12189,
    "Ġcounty": 9029,
    "Ġformless": 22826,
    "Ġbill": 4039,
    "does": 6194,
    "ilogue": 21722,
    "mayhew": 23989,
    "Ġcocked": 12901,
    "aye": 3659,
    "paws": 21028,
    "Ġalbert": 12703,
    "Ġton": 15462,
    "veral": 2354,
    "once": 5904,
    "Ġhamper": 19387,
    "Ġcalamity": 17347,
    "thou": 4709,
    "Ã¦": 4337,
    "Ġelucidated": 26029,
    "Ġaffirm": 11884,
    "iminished": 19024,
    "Ġterrible": 5327,
    "Ġsoothing": 8173,
    "Ġstubb": 1789,
    "rible": 3230,
    "ountain": 2919,
    "Ġfirmness": 11236,
    "Ġgroping": 13663,
    "Ġunable": 4951,
    "§": 105,
    "gyric": 19109,
    "Ġconsent": 5372,
    "Ġunite": 9252,
    "ast": 473,
    "Ġdipped": 15591,
    "Ġpropensity": 18997,
    "Ġhistorically": 19376,
    "Ġwhichever": 13998,
    "ational": 5716,
    "cro": 13694,
    "Ġgaiety": 16748,
    "ĠâĢĶ": 13809,
    "occupations": 24966,
    "izarre": 17387,
    "Ġtugged": 17287,
    "Ġsubdued": 11032,
    "rebellum": 26165,
    "Ġsanctified": 25883,
    "Ġresearch": 3071,
    "Ġburg": 23653,
    "Ġabsolut": 3908,
    "Ġrealised": 18981,
    "serv": 7451,
    "Ġfeasts": 25369,
    "Ġindolent": 13000,
    "abated": 14018,
    "Ġpugnacious": 26450,
    "Ġcatches": 23425,
    "Ġnewly": 9336,
    "acy": 3952,
    "Ġvelvets": 25393,
    "Ġincorrect": 2729,
    "Ġpeleg": 3737,
    "Ġexperiments": 22997,
    "Ġjustinian": 22965,
    "lings": 8745,
    "Ġgratify": 19501,
    "oding": 1462,
    "fav": 6646,
    "Ġapproximation": 2342,
    "gentleman": 7518,
    "wise": 2573,
    "antique": 18288,
    "kind": 3862,
    "girls": 12316,
    "Ġly": 2265,
    "Ġreluctant": 20523,
    "hug": 17562,
    "eu": 17529,
    "fail": 17539,
    "Ġcontinu": 1165,
    "Ġsibbald": 21229,
    "Ġideas": 5494,
    "Ġele": 1965,
    "Ġquick": 2581,
    "Ġsqualidness": 25842,
    "Ġdegra": 2589,
    "ford": 2821,
    "Ġcarved": 7947,
    "Ġgenerating": 12848,
    "singular": 12185,
    "Ġglances": 10371,
    "written": 7995,
    "Ġexcel": 3567,
    "Ġhospital": 15038,
    "Ġfrancisco": 26064,
    "Ġdeliverance": 15155,
    "Ġpope": 11599,
    "utarch": 15658,
    "Ġcurv": 3511,
    "gammon": 20242,
    "Ġsequ": 982,
    "Ġiter": 2954,
    "binnacle": 20786,
    "disguise": 26306,
    "Ġfaithful": 9501,
    "ashing": 4824,
    "Ġevident": 6612,
    "regiment": 16450,
    "keenest": 25661,
    "Ġpolice": 4674,
    "Ġrebounds": 25967,
    "Ġwaves": 3916,
    "Ġprivileges": 25132,
    "Ġamid": 4959,
    "Ġspars": 3807,
    "rank": 21040,
    "venge": 4658,
    "achel": 7032,
    "Ġgroups": 3717,
    "Ġspotted": 12135,
    "Ġtwelvemonth": 12174,
    "pressed": 6588,
    "Ġfork": 15728,
    "crowded": 20189,
    "Ġrights": 10395,
    "Ġpadded": 25036,
    "stationed": 25453,
    "illing": 8175,
    "Ġdevils": 7230,
    "Ġspe": 822,
    "Ġauger": 21202,
    "eting": 7169,
    "ifled": 14061,
    "scale": 3535,
    "é": 170,
    "Ġshore": 4834,
    "Ġprow": 6684,
    "lot": 3210,
    "Ġvoice": 2191,
    "lled": 10106,
    "ate": 423,
    "Ġhigher": 1822,
    "Ġundec": 22013,
    "ersampling": 18210,
    "Ġairy": 23318,
    "homage": 25616,
    "Ġseasoned": 24404,
    "itance": 13866,
    "Ġaristotle": 25817,
    "Ġchemical": 10409,
    "Ġridic": 7508,
    "lipped": 16214,
    "shoulder": 16582,
    "Ġmincing": 18750,
    "isc": 6239,
    "Ġsupre": 10268,
    "Ġdarted": 4758,
    "Ġpaths": 2568,
    "Ġoctober": 17225,
    "intended": 11065,
    "Ġcreaking": 14330,
    "Ġeyed": 12664,
    "blooded": 20021,
    "fer": 1939,
    "Ġbeggars": 20628,
    "Ġcoron": 4463,
    "Ġvolcanoes": 24144,
    "Ġcontrivance": 17182,
    "years": 6883,
    "Ġcritically": 23444,
    "Ġdecreas": 1649,
    "Ġsquare": 2396,
    "viating": 14578,
    "Ġdem": 11672,
    "pop": 17630,
    "Ġbra": 3258,
    "Ġsombre": 18860,
    "Ġgreas": 17991,
    "Ġvagu": 13586,
    "ceed": 1076,
    "rict": 8093,
    "Ġknots": 15007,
    "Ġclatter": 22345,
    "Ġfifteen": 6947,
    "Ġbracing": 16579,
    "Ġchaplain": 19911,
    "Ġsurtout": 23464,
    "Ġpreserving": 19795,
    "Ġepicures": 25880,
    "Ġcrucial": 9890,
    "Ġ88": 19710,
    "Ġle": 333,
    "Ġgang": 9206,
    "Ġslip": 8953,
    "Ġstrolled": 16769,
    "Ġmuscle": 14688,
    "Ġsounds": 5190,
    "etus": 21576,
    "Ġcommons": 22670,
    "Ġarmchair": 8271,
    "ele": 9113,
    "Ġ20": 8613,
    "Ġfabric": 25947,
    "Ġlively": 5449,
    "Ġarithmetic": 18345,
    "Ġmacey": 12559,
    "Ġsacr": 7194,
    "Ġ119": 24440,
    "Ġdens": 21423,
    "wharf": 20605,
    "Ġcrossing": 7253,
    "acle": 4716,
    "Ġintercourse": 10997,
    "ments": 1402,
    "legra": 10788,
    "Ġperpetually": 17069,
    "Ġbelf": 21379,
    "Ġtribute": 15473,
    "Ġenters": 11025,
    "----âĢĻ": 24095,
    "Ġalleviated": 26203,
    "Ġlaborers": 19057,
    "Ġdiscoveries": 13355,
    "Ġyesterday": 5332,
    "Ġinclusive": 24161,
    "begged": 18523,
    "Ġancest": 12611,
    "Ġveins": 8931,
    "Ġsells": 21222,
    "Ġstag": 6148,
    "Ġcounted": 12136,
    "Ġcontemplated": 13461,
    "Ġcomplain": 6685,
    "Ġconcentrated": 15081,
    "Ġcurrent": 13008,
    "Ġdata": 519,
    "Ġunworth": 22030,
    "employ": 10894,
    "Ġsail": 1673,
    "impotence": 23759,
    "circum": 16736,
    "Ġundeceive": 25552,
    "Ġ\"": 6119,
    "tart": 21066,
    "fury": 17546,
    "lee": 11583,
    "orough": 5700,
    "tables": 19756,
    "Ġexec": 19491,
    "instance": 24166,
    "whalemen": 10430,
    "leader": 25351,
    "Ġcent": 3257,
    "Ġadvertised": 17246,
    "notches": 22748,
    "Ġattend": 5036,
    "saddest": 25527,
    "Ġfurnish": 9017,
    "unusual": 21877,
    "Ġnerve": 16338,
    "giana": 7801,
    "Ġdiscrimination": 23603,
    "Ġbarbarously": 24819,
    "aunted": 20769,
    "blocks": 25517,
    "Ġgust": 21595,
    "modern": 1145,
    "project": 16422,
    "Ġopposition": 16519,
    "Ġspasmod": 12411,
    "Ġstretching": 10013,
    "Ġdesirous": 8941,
    "enjoyment": 17256,
    "urons": 3133,
    "inction": 6660,
    "Ġhove": 17922,
    "tub": 9142,
    "brothers": 17023,
    "Ġdesigns": 13007,
    "Ġentered": 2844,
    "easy": 9591,
    "Ġboard": 3385,
    "Ġdark": 2111,
    "Ġemir": 23349,
    "Ġstrict": 7222,
    "orm": 425,
    "ired": 1446,
    "Ġchewed": 16367,
    "Ġabated": 18390,
    "card": 11474,
    "Ġbat": 10794,
    "Ġjustly": 11900,
    "ru": 480,
    "Ġwilds": 16507,
    "Ġw": 272,
    "Ġpred": 669,
    "term": 3757,
    "Ġtrustees": 24106,
    "Ġoperate": 19115,
    "erc": 5905,
    "Ġparagraph": 17452,
    "Ġuncertain": 4067,
    "osition": 1373,
    "Ġcapering": 21352,
    "consequential": 26249,
    "Ġnewspapers": 17185,
    "Ġsorts": 6887,
    "Ġgrew": 5182,
    "Ġhumming": 12981,
    "tiger": 13795,
    "Ġindulgence": 11318,
    "thirds": 25046,
    "Ġstronger": 8578,
    "Ġferocious": 17417,
    "Ġasked": 2277,
    "Ġworkmen": 23038,
    "Ġsalisbury": 24060,
    "vitality": 20477,
    "Ġferrule": 24516,
    "zetts": 17713,
    "rush": 7010,
    "Ġsigned": 11176,
    "Ġfixed": 2684,
    "Ġmarket": 7709,
    "Ġconstable": 19068,
    "favour": 9547,
    "antarctic": 22097,
    "peaceful": 20445,
    "Ġtreasure": 9557,
    "Ġflowed": 10370,
    "Ġintric": 9245,
    "Ġmovements": 24358,
    "une": 2784,
    "Ġratio": 5066,
    "Ġfacility": 19849,
    "Ġfitting": 21407,
    "feel": 3809,
    "Ġperches": 18448,
    "lashed": 20953,
    "chronicle": 26479,
    "Ġasse": 8160,
    "Ġintercept": 14267,
    "Ġinfallibly": 10039,
    "brought": 7285,
    "Ġlandsman": 11349,
    "Ġpriest": 7526,
    "Ġsinned": 18950,
    "hearse": 17747,
    "Ġfamil": 4319,
    "amore": 21841,
    "bright": 8988,
    "Ġlent": 21545,
    "Ġflowers": 8939,
    "indust": 18435,
    "æ": 167,
    "atiate": 12544,
    "Ġtoast": 21510,
    "out": 467,
    "embraced": 25804,
    "lutions": 20949,
    "Ġlowerings": 23644,
    "Ġspeakest": 23484,
    "acquired": 24295,
    "Ġeagerness": 6608,
    "Ġblasphemer": 26116,
    "Ġburst": 4379,
    "young": 7321,
    "presence": 18498,
    "Ġanno": 9666,
    "comes": 5394,
    "Ġboldly": 9499,
    "Ġdevoting": 22715,
    "itary": 4751,
    "ivering": 7698,
    "caus": 11475,
    "Ġspecksnyder": 17401,
    "served": 5043,
    "lop": 20947,
    "Ġconstru": 19069,
    "inuating": 16200,
    "Ġderived": 8239,
    "Ġrecol": 4026,
    "Ġblurred": 22929,
    "ocations": 23706,
    "Ġbegging": 11078,
    "Ġlikelihood": 16498,
    "Ġtouched": 6001,
    "Ġcalmer": 23042,
    "Ġmorality": 22971,
    "why": 2827,
    "Ġsol": 1104,
    "powers": 25410,
    "ctive": 11621,
    "Ġsecure": 4912,
    "consc": 4840,
    "Ġrefresh": 10342,
    "Ġsqueeze": 10037,
    "Ġrickety": 26504,
    "Ġthorough": 6245,
    "eman": 5636,
    "th": 407,
    "cept": 557,
    "specimen": 26604,
    "rusion": 11322,
    "riet": 18184,
    "Ġscheming": 23270,
    "enhall": 13848,
    "Ġaffecting": 2325,
    "Ġbarrow": 12066,
    "Ġreasoning": 2016,
    "agony": 14067,
    "stir": 12669,
    "Ġimages": 1600,
    "remembrance": 25702,
    "Ġmonotonous": 13259,
    "Ġguessed": 11281,
    "Ġcrashes": 13123,
    "ree": 874,
    "adagrad": 9689,
    "ass": 538,
    "gems": 20883,
    "despairing": 25074,
    "short": 6566,
    "persu": 8028,
    "ipped": 5790,
    "Ġkept": 3348,
    "dham": 20829,
    "Ġlower": 2660,
    "stepfather": 19189,
    "Ġboast": 7034,
    "Ġhil": 10820,
    "rud": 4189,
    "iences": 6957,
    "Ġoft": 9193,
    "perform": 15891,
    "Ġdistillation": 16040,
    "Ġsum": 2700,
    "Ġlonely": 6823,
    "Ġroads": 13285,
    "onious": 15516,
    "cousins": 20116,
    "Ġhitherto": 5880,
    "Ġtrack": 7450,
    "Ġbleak": 10557,
    "Ġhog": 13922,
    "Ġseasonable": 24405,
    "Ġapprehensions": 13401,
    "Ġrespectability": 14483,
    "Ġbetrayed": 9560,
    "Ġparacels": 13665,
    "pt": 386,
    "Ġbullion": 24985,
    "superstitious": 17279,
    "Ġstruggling": 12071,
    "Ġcorpor": 23039,
    "concerns": 24582,
    "Ġproble": 1110,
    "Ġperpetual": 12300,
    "Ġglimpses": 13429,
    "chors": 11642,
    "Ġforbidding": 17078,
    "Ġnarrow": 5086,
    "Ġstave": 11649,
    "Ġ&": 6513,
    "simple": 13449,
    "Ġtrees": 4201,
    "def": 1453,
    "ĠcÃ¦sar": 20578,
    "whims": 22237,
    "impressions": 20697,
    "Ġhulls": 13924,
    "cheer": 9435,
    "fug": 17542,
    "ĠĠĠĠĠĠĠĠĠĠ": 18577,
    "Ġsave": 4050,
    "Ġ42": 16677,
    "Ġability": 2762,
    "ral": 4627,
    "Ġgenius": 8046,
    "chief": 4644,
    "accompl": 9878,
    "Ġcomfort": 3440,
    "Ġdoze": 14175,
    "ong": 536,
    "Ġredoubled": 23751,
    "Ġjelly": 22298,
    "attendants": 25495,
    "ceiving": 3900,
    "Ġaboard": 6697,
    "angry": 18294,
    "Ġblackest": 19096,
    "ispensable": 9094,
    "shipping": 10306,
    "Ġintimately": 24804,
    "cull": 20808,
    "Ġpanelled": 19653,
    "myst": 9820,
    "Ġcompression": 18147,
    "Ġpallet": 21479,
    "Ġrmsprop": 3357,
    "Ġgangway": 20157,
    "Ġnarrowed": 24354,
    "anchor": 13887,
    "nantucketer": 24974,
    "Ý": 158,
    "str": 2577,
    "Ġmilky": 9945,
    "Ġdifferently": 10388,
    "timidity": 25753,
    "Ġninetieth": 25357,
    "etymology": 14699,
    "Ġmoss": 9282,
    "Ġiii": 7861,
    "Ġclutches": 20016,
    "same": 5361,
    "sin": 21047,
    "Ġcurling": 9341,
    "Ġinducements": 24967,
    "Ġfaces": 6009,
    "Ġspouter": 12795,
    "Ġfem": 6134,
    "Ġregret": 5560,
    "pier": 17634,
    "Ġrebell": 21667,
    "Ġmerely": 3769,
    "Ġundulates": 24117,
    "Ġconvince": 14641,
    "castle": 3352,
    "aved": 5475,
    "Ġprem": 3428,
    "seem": 10226,
    "Ġrecursive": 4782,
    "Ġchast": 18380,
    "intern": 23734,
    "Ġshrunk": 16717,
    "Ġtuples": 13474,
    "stump": 21645,
    "Ġdeposed": 16084,
    "Ġhur": 2099,
    "derick": 22160,
    "Ġelements": 2664,
    "leness": 4691,
    "Ġinc": 702,
    "Ġohio": 19128,
    "Ġcriminals": 19921,
    "Ġexertions": 13407,
    "frost": 15104,
    "Ġsamples": 2964,
    "length": 7134,
    "misrepresented": 24210,
    "Ġsleepers": 13146,
    "additional": 20462,
    "Ġdescription": 7429,
    "Ġbaptized": 25774,
    "Ġprettier": 23763,
    "ault": 2306,
    "Ġcanes": 22161,
    "Ġjew": 9466,
    "chooses": 23672,
    "Ġvices": 14081,
    "ifer": 11682,
    "Ġmoran": 9339,
    "70": 17474,
    "Ġcamel": 25349,
    "Ġimple": 1784,
    "explanations": 25234,
    "Ġjurors": 17342,
    "zza": 24165,
    "Ġsuffusing": 23027,
    "relations": 14731,
    "Ġinfluence": 5515,
    "Ġcredulous": 17143,
    "Ġbarbs": 10530,
    "atmospheric": 17775,
    "Ġmat": 1150,
    "loun": 17587,
    "consol": 9760,
    "Ġdevelopment": 7058,
    "Ġhurricane": 16429,
    "favourable": 12260,
    "Ġpaunch": 23747,
    "Ġvirtual": 11238,
    "akness": 14193,
    "Ġbargain": 23791,
    "ners": 3275,
    "Ġunstructured": 3006,
    "Ġhaws": 21949,
    "Ġlose": 5028,
    "Ġexcept": 3315,
    "Ġberths": 20113,
    "Ġreaped": 18029,
    "ropri": 2179,
    "Ġslumbers": 18941,
    "Ġunceasingly": 20357,
    "Ġplay": 2626,
    "inspector": 13643,
    "vell": 3956,
    "enormous": 26166,
    "itia": 11577,
    "Ġslo": 15504,
    "Ġalexander": 17422,
    "Ġgazes": 24092,
    "nue": 15395,
    "ume": 4835,
    "Ġbloodthirst": 23800,
    "Ġwoof": 14719,
    "accompanied": 12419,
    "urmountable": 15277,
    "Ġwondrously": 24061,
    "Ġsure": 1865,
    "Ġproper": 1378,
    "Ġpropriety": 10008,
    "Ġshun": 11706,
    "trem": 17680,
    "mped": 16646,
    "ernal": 4310,
    "Ġbarnacled": 25536,
    "irable": 5776,
    "eminence": 20097,
    "Ġpolicy": 10456,
    "Ġsab": 10761,
    "gging": 7697,
    "Ġjustice": 5111,
    "Ġdrinks": 24278,
    "Ġresurrection": 12891,
    "respond": 12540,
    "Ġcommendation": 13607,
    "Ġcaved": 21351,
    "Ġpersuaded": 5769,
    "cab": 7333,
    "Ġbefitting": 15722,
    "hamlet": 23262,
    "ges": 2873,
    "Ġshone": 7404,
    "Ġignited": 25069,
    "ferred": 16408,
    "Ġaccomplishments": 13376,
    "leading": 15558,
    "gun": 10095,
    "Ġsilence": 3272,
    "Ġrobe": 18458,
    "Ġdisobey": 18559,
    "Ġjenny": 20161,
    "Ġbolt": 11333,
    "afford": 14653,
    "ibank": 6880,
    "humored": 19451,
    "Ġromantic": 8031,
    "Ġboiling": 8525,
    "Ġput": 1801,
    "Ġparted": 5929,
    "Ġbizarre": 17871,
    "Ġachieve": 3672,
    "Ġnetherfield": 3928,
    "Ġpowerful": 1545,
    "Ġregularization": 1174,
    "ernity": 18613,
    "Ġgums": 21609,
    "Ġappropri": 2225,
    "mic": 12485,
    "Ġblindly": 12106,
    "Ġmot": 2987,
    "Ġhovers": 19076,
    "Ġgrate": 12960,
    "Ġannouncing": 16753,
    "Ġrephr": 21677,
    "main": 8088,
    "Ġproperties": 3119,
    "racing": 21629,
    "building": 17307,
    "unhappy": 10236,
    "Ġdiscerned": 24956,
    "Ġadd": 630,
    "host": 5866,
    "Ġsemicircle": 26067,
    "Ġrequisite": 18629,
    "Ġdifficulty": 5770,
    "encounter": 20390,
    "ained": 3066,
    "Ġembarrassed": 11383,
    "Ġgratitude": 5598,
    "------": 12130,
    "Ġweeping": 11684,
    "Ġinhabitants": 7524,
    "Ġsomething": 1798,
    "Ġaccompanying": 11303,
    "ills": 1630,
    "degree": 12798,
    "escaped": 14229,
    "Ġinstructive": 19284,
    "Ġdipping": 15588,
    "nine": 13759,
    "Ġlung": 7167,
    "rum": 3417,
    "lamps": 25260,
    "white": 4602,
    "Ġqualities": 7533,
    "Ġechoed": 20422,
    "bellies": 19972,
    "ignor": 8960,
    "marvell": 24170,
    "Ġrio": 23889,
    "isms": 12577,
    "Ġstrained": 10217,
    "mush": 20976,
    "Ġcompress": 21854,
    "icle": 10833,
    "Ġunfaltering": 24111,
    "urpr": 2286,
    "bless": 22310,
    "¤": 102,
    "Ġlives": 4826,
    "Ġpredefined": 20717,
    "feather": 16043,
    "meditated": 19067,
    "Ġphilipses": 24451,
    "orte": 14183,
    "rength": 4100,
    "consciousness": 13362,
    "imprisonment": 23760,
    "Ġsatisfactory": 11191,
    "Ġeternal": 5976,
    "Ġcrosses": 23061,
    "entrance": 12654,
    "Ġloth": 17965,
    "H": 44,
    "dist": 4480,
    "lest": 5288,
    "Ġspermacetti": 19051,
    "Ġbewitching": 25976,
    "Ġquest": 2001,
    "Ġscale": 1552,
    "Ġgraph": 10901,
    "iltrated": 19305,
    "leads": 21368,
    "Ġasiatics": 20429,
    "Ġtorments": 13391,
    "urred": 8449,
    "assment": 9738,
    "turtle": 12208,
    "Ġsimple": 1620,
    "Ġscolding": 15198,
    "Ġelegant": 7532,
    "Ġingrat": 16839,
    "relatively": 24011,
    "elizabeth": 1987,
    "Ġinsensible": 12322,
    "Ġinstability": 3810,
    "Ġjoosy": 23630,
    "Ġconducting": 16648,
    "evid": 11483,
    "Ġclients": 19730,
    "Ġmutters": 23953,
    "Ġexpressing": 12005,
    "sleeve": 26108,
    "Ġshipping": 14102,
    "Ġscoundrel": 13668,
    "reputation": 15513,
    "Ġ110": 24434,
    "Ġind": 1220,
    "Ġstrenuously": 17446,
    "ility": 624,
    "cry": 12442,
    "python": 4692,
    "Ġfaire": 13361,
    "christ": 10209,
    "Ġwarsaw": 26167,
    "Ġhummed": 18777,
    "awk": 23114,
    "Ġhoisted": 5960,
    "Ġperch": 10297,
    "ater": 3372,
    "goin": 23401,
    "Ġcontroverted": 23251,
    "Ġrestore": 9378,
    "Ġrounds": 18884,
    "lins": 2026,
    "animation": 16978,
    "Ġmemories": 14540,
    "Ġadmiration": 5328,
    "bers": 2569,
    "Ġcomposed": 8890,
    "Ġnoisy": 13315,
    "Ġeas": 2353,
    "Ġrav": 14303,
    "Ġvapors": 19907,
    "rougham": 15990,
    "Ġrelentless": 26277,
    "needle": 20309,
    "ching": 5156,
    "Ġpulley": 2978,
    "Ġsuperstition": 15055,
    "Ġoxen": 19949,
    "lour": 15378,
    "Ġarr": 1802,
    "Ġresounded": 22542,
    "ection": 4948,
    "Ġernest": 8716,
    "Ġmeaning": 1417,
    "vour": 17698,
    "Ġoverwrites": 5033,
    "rets": 12537,
    "Ġinjury": 10539,
    "Ġbids": 24645,
    "Ġfamilies": 8027,
    "pursue": 24975,
    "because": 4923,
    "Ġmuster": 16119,
    "Ġshores": 8846,
    "Ġraises": 11842,
    "ryphon": 4162,
    "recked": 17761,
    "Ġcomfortably": 16614,
    "Ġgn": 8816,
    "Ġfellows": 8257,
    "Ġubiquitous": 26195,
    "Ġunmindful": 22060,
    "Ġlight": 1702,
    "Ġbetter": 1175,
    "scenes": 16241,
    "Ġdisappointment": 6626,
    "Ġstained": 11650,
    "guilty": 19481,
    "Ġpile": 8424,
    "Ġwrithed": 17105,
    "Ġfearful": 6197,
    "Ġstrangeness": 16706,
    "Ġaft": 5737,
    "vision": 5619,
    "Ġsle": 2013,
    "mens": 20968,
    "Ġsaturation": 2062,
    "Ġsucking": 12784,
    "crow": 9589,
    "ateral": 19375,
    "Ġidly": 16401,
    "haw": 6361,
    "Ġ235": 25713,
    "Ġflogged": 23623,
    "conjecture": 15120,
    "Ġdrawings": 14720,
    "din": 8374,
    "Ġbegins": 7244,
    "accept": 8896,
    "Ġrecurring": 23230,
    "Ġjustine": 4970,
    "ism": 4874,
    "ucket": 2482,
    "Ġconfinement": 19039,
    "Ġmetropolitan": 17274,
    "Ġarrangements": 16513,
    "imble": 10857,
    "Ġpause": 5707,
    "Ġgrimly": 17051,
    "Ġgnashed": 20131,
    "Ġripp": 11218,
    "Ġfireboard": 23531,
    "Ġaffair": 4462,
    "Ġtreatise": 19343,
    "Ġwanderings": 20142,
    "Ġamerica": 6763,
    "ocratic": 17244,
    "Ġpurch": 6599,
    "brow": 15313,
    "Ġfug": 12592,
    "Ġcandour": 14671,
    "Ġclimax": 25051,
    "Ġoverwhelming": 17101,
    "sheet": 16283,
    "bl": 4140,
    "anded": 5923,
    "Ġpuzzle": 11304,
    "cork": 20795,
    "Ġbet": 1135,
    "Ġinland": 11606,
    "Ġmetaphys": 16419,
    "Ġhaze": 18196,
    "drab": 23895,
    "ices": 2135,
    "appin": 18757,
    "Ġcuts": 14606,
    "Ġbrief": 6976,
    "hardly": 6491,
    "arers": 12126,
    "entreaties": 26185,
    "alluring": 18352,
    "iverer": 11713,
    "Ġcomputation": 965,
    "Ġrest": 1783,
    "Ġspilling": 22135,
    "Ġunimpe": 22066,
    "Ġgur": 21590,
    "Ġhaw": 10250,
    "Ġexact": 2543,
    "Ġasc": 4765,
    "abond": 15737,
    "atches": 13844,
    "Ġrasc": 21972,
    "Ġlock": 5928,
    "))": 1518,
    "sust": 15420,
    "Ġvessels": 6755,
    "Ġplaces": 5390,
    "Ġgood": 1004,
    "arrow": 4178,
    "Ġmature": 17799,
    "startled": 24941,
    "Ġve": 1108,
    "move": 11854,
    "Ġjoyfully": 19344,
    "Ġconvivial": 16546,
    "Ġdefine": 9813,
    "Ġlimp": 19179,
    "Ġblown": 12082,
    "Ġextracted": 16303,
    "Ġmans": 15533,
    "Ġprincip": 5599,
    "appropri": 22839,
    "Ġrecent": 7436,
    "quished": 21846,
    "Ġjoist": 19231,
    "Ġbrighter": 16185,
    "loved": 14249,
    "wor": 3418,
    "Ġcy": 13872,
    "Ġtoma": 7373,
    "Ġpettic": 14839,
    "reporting": 24493,
    "nowhere": 18418,
    "Ġpulse": 13111,
    "travel": 24315,
    "Ġtoo": 1164,
    "shock": 19854,
    "Ġirrespective": 23373,
    "who": 2446,
    "Ġblaming": 22928,
    "smoking": 23908,
    "Ġchairs": 12823,
    "Ġrepugnance": 19084,
    "!âĢĻâĢĿ": 16591,
    "rees": 5436,
    "Ġoften": 1957,
    "iloqu": 11646,
    "Ġdividing": 12108,
    "inkers": 22614,
    "oquence": 11385,
    "carries": 19526,
    "Ġvan": 1088,
    "Ġdetection": 3142,
    "prosperity": 20734,
    "gallant": 7781,
    "Ġvehemently": 26039,
    "Ġquit": 5246,
    "emic": 18179,
    "Ġsteamer": 17187,
    "ĠâĢľâĢĺ": 8503,
    "Ġwaterproof": 19086,
    "Ġburtons": 19252,
    "Ġexercise": 8358,
    "flies": 19422,
    "Ġgreater": 3037,
    "Ġgovern": 10449,
    "Ġlikely": 3597,
    "Ġdeceived": 6544,
    "Ġshook": 4467,
    "although": 8804,
    "Ġexclam": 6757,
    "Ġsex": 8840,
    "seldom": 13785,
    "orts": 2555,
    "unaccountable": 15775,
    "satisfaction": 9990,
    "Ġexal": 10876,
    "Ġgenealogies": 25961,
    "ildad": 3532,
    "cowardly": 25749,
    "Ġslipped": 6492,
    "Ġcreamy": 14331,
    "chie": 21688,
    "Ġmeets": 7396,
    "Ġswell": 8948,
    "Ġrebellion": 26474,
    "Ġcocoanuts": 26362,
    "zed": 8104,
    "Ġbabes": 24424,
    "Ġwis": 3726,
    "Ġcra": 2333,
    "Ġtransported": 11278,
    "Ġprompt": 3193,
    "altering": 12637,
    "D": 40,
    "Ġelasticity": 19557,
    "lynes": 15700,
    "Ġhollowly": 24525,
    "Ġthrusting": 10551,
    "admiration": 11386,
    "Ġpeeped": 10010,
    "stones": 11633,
    "Ġregarded": 5762,
    "glory": 23850,
    "ious": 771,
    "Ġhy": 5625,
    "Ġconducted": 10501,
    "net": 1195,
    "Ġate": 8838,
    "É": 138,
    "Ġtemper": 956,
    "quietude": 24655,
    "Ġabstained": 25231,
    "Ġlunatic": 24992,
    "Ġstrike": 4855,
    "Ġbecher": 18879,
    "Ġfad": 17876,
    "Ġpenet": 6888,
    "Ġvigil": 9505,
    "unknown": 10889,
    "airing": 16175,
    "entering": 17976,
    "fact": 6358,
    "Ġpurporting": 19181,
    "Ġmark": 2332,
    "ugn": 9376,
    "Ġcologne": 13660,
    "Ġdismal": 11807,
    "Ġintelligences": 12828,
    "nails": 17613,
    "hammer": 14489,
    "Ġhinges": 15210,
    "Ġreported": 11976,
    "Ġq": 1085,
    "Ġconsciousness": 9946,
    "Ġobligation": 13241,
    "Ġkne": 4265,
    "uther": 8815,
    "profitable": 17070,
    "ock": 15400,
    "veh": 12676,
    "eland": 11618,
    "active": 16100,
    "Ġwasting": 12725,
    "Ġdifferences": 18715,
    "Ġcontradicted": 20210,
    "Ġcheerless": 16693,
    "Ġinterp": 16066,
    "iew": 2447,
    "tell": 1379,
    "Ġhappily": 9329,
    "Ġacquaintance": 4132,
    "Ġsimil": 2531,
    "set": 3864,
    "tol": 17671,
    "Ġprogress": 5023,
    "Ġautonom": 10412,
    "iah": 14415,
    "Ġhandspikes": 12935,
    "aintance": 3569,
    "ched": 1549,
    "Ġdefault": 3038,
    "Ġhimmale": 18329,
    "Ġthoughtless": 16190,
    "Ġengineering": 3026,
    "Ġteeth": 4166,
    "clopÃ¦dia": 15254,
    "related": 24009,
    "included": 19207,
    "Ġdependent": 14292,
    "Ġdemanded": 8327,
    "Ġparlour": 12318,
    "Ġesteemed": 10587,
    "Ġbunch": 11325,
    "Ġrejection": 19982,
    "Ġmoustache": 20482,
    "Ġforwarded": 19045,
    "Ġdiv": 3729,
    "Ġcountries": 13093,
    "Ġintelligence": 558,
    "speak": 5504,
    "Ġguise": 14430,
    "stache": 15685,
    "Ġaerial": 21197,
    "Ġindulged": 13414,
    "?âĢĿ": 700,
    "Ġden": 3108,
    "programming": 10061,
    "Ġhing": 11602,
    "functions": 11249,
    "plunging": 25987,
    "vanished": 15061,
    "Ġlamentations": 17075,
    "bbings": 19275,
    "Ġsodden": 25535,
    "Ġdisagreeable": 9296,
    "Ġsecretly": 13267,
    "Ġpreceding": 7528,
    "Ġlearnedly": 23384,
    "Ġ55": 24322,
    "thought": 3846,
    "Ġthirst": 7589,
    "Ġmaelstrom": 19354,
    "Ġmending": 17804,
    "Ġtreading": 16502,
    "Ġmanif": 8869,
    "abulary": 4800,
    "coil": 23557,
    "sphere": 22733,
    "showing": 22459,
    "âĢĿ)": 21812,
    "Ġsobs": 14131,
    "Ġhistory": 4006,
    "lected": 1638,
    "Ġsolace": 16197,
    "Ġcooper": 16074,
    "Ġunalterable": 15848,
    "Ġperched": 10298,
    "uplifted": 17694,
    "be": 670,
    "Ġfrigates": 25707,
    "Ġdrawling": 19435,
    "Ġbasic": 24701,
    "Ġtwist": 11848,
    "Ġnic": 7376,
    "Ġhaunts": 18198,
    "Ġbreaking": 6310,
    "Ġplayed": 9414,
    "iable": 3336,
    "Ġinoffensive": 21496,
    "Ġbalmoral": 16204,
    "Ġpredecessor": 26253,
    "Ġdaring": 8121,
    "Ġsegment": 12754,
    "being": 3911,
    "Ġ84": 19708,
    "aw": 1450,
    "Ġrobbery": 11918,
    "Ġequinoctial": 20531,
    "Ġpendulous": 25955,
    "Ġwol": 15527,
    "Ġanswering": 7477,
    "cloudless": 20331,
    "Ġstubborn": 10415,
    "Ġguests": 12284,
    "Ġpain": 2303,
    "right": 2768,
    "Ġun": 421,
    "Ġdisdain": 8360,
    "Ġreturning": 5325,
    "poverty": 22905,
    "Ġparticularly": 5056,
    "Ġkrus": 18349,
    "Ġweapon": 7776,
    "Ġmechanical": 7938,
    "Ġmonotonically": 3830,
    "Ġnameless": 7700,
    "Ġscreamed": 9522,
    "embarrassed": 20595,
    "Ġ106": 24413,
    "Ġdarling": 12601,
    "Ġheedless": 14901,
    "backpropagation": 11982,
    "neck": 14233,
    "Ġaugust": 10596,
    "ough": 472,
    "Ġpardon": 5727,
    "shut": 10980,
    "Ġcaval": 25769,
    "Ġfainter": 14912,
    "Ġapproxim": 1217,
    "warp": 17705,
    "renadier": 18419,
    "Ġchis": 11747,
    "ikes": 8087,
    "Ġst": 332,
    "orton": 11753,
    "fred": 20854,
    "Ġexponential": 1057,
    "Ġtechni": 1697,
    "Ġheathenish": 13613,
    "plexion": 14259,
    "good": 2899,
    "hello": 13360,
    "Ġgall": 4351,
    "angered": 16176,
    "Ġmysteries": 11321,
    "must": 3577,
    "Ġunmingled": 18260,
    "usoid": 4767,
    "Ġorange": 8486,
    "Ġvehicle": 20137,
    "Ġproportionate": 17042,
    "Ġfound": 1245,
    "Ġposs": 1616,
    "Ġalluded": 7888,
    "Ġbattered": 17862,
    "cture": 15661,
    "Ġencompassed": 15251,
    "Ġhinted": 6012,
    "poises": 11886,
    "Ġfossil": 12384,
    "Ġ100": 14361,
    "fourths": 25509,
    "Ġremonstr": 16159,
    "Ġloveliness": 13605,
    "foremost": 14251,
    "Ġimmense": 4952,
    "Ġflourishing": 25187,
    "Ġaverse": 11079,
    "Ġdearest": 5457,
    "Ġcens": 8413,
    "calculation": 25688,
    "follows": 24527,
    "Ġpossessing": 16574,
    "Ġappeals": 16313,
    "50": 6784,
    "Ġholiest": 18813,
    "Ġworsh": 12995,
    "mag": 6508,
    "Ġfurled": 22812,
    "Ġru": 947,
    "dee": 11729,
    "ho": 2856,
    "Ġmythologies": 26213,
    "desper": 13065,
    "stud": 8818,
    "Ġfinding": 3269,
    "Ġhyena": 24518,
    "Ġparticular": 2449,
    "Ġinvests": 14866,
    "mother": 5480,
    "larger": 24201,
    "Ġgo": 614,
    "Ġhowled": 12852,
    "Ġtearless": 24786,
    "Ġtwisting": 18658,
    "Ġ275": 20109,
    "phren": 22751,
    "affrail": 11204,
    "ishness": 22340,
    "Ġorganizations": 12311,
    "Ġactiv": 835,
    "Ġdirest": 22707,
    "cannib": 11899,
    "james": 15370,
    "Ġpig": 5705,
    "Ġtarshish": 12025,
    "Ġrecommence": 16811,
    "ov": 15398,
    "Ġspires": 11727,
    "Ġpink": 12615,
    "organ": 15570,
    "Ġimproving": 1209,
    "distinguished": 10525,
    "Ġconfess": 3765,
    "sails": 7497,
    "Ġshocked": 9399,
    "dancing": 12451,
    "idol": 21764,
    "inging": 5907,
    "anch": 15556,
    "tale": 10126,
    "Ġenjoyments": 24015,
    "highest": 20406,
    "formation": 22213,
    "rell": 11562,
    "century": 20045,
    "Ġarches": 14161,
    "apers": 3481,
    "Ġanyways": 22518,
    "Ġnorris": 23199,
    "Ġfur": 992,
    "lat": 9603,
    "itative": 13868,
    "Ġburton": 23654,
    "Ġsurmount": 19999,
    "Ġresp": 2493,
    "public": 17645,
    "Ġwhoa": 22418,
    "Ġers": 15458,
    "Ġsubproblems": 12954,
    "Ġsullen": 9156,
    "Ġpave": 8798,
    "Ġcat": 2120,
    "pity": 17626,
    "prob": 7069,
    "detached": 19673,
    "reated": 10301,
    "Ġglimmered": 20170,
    ",âĢĿâĢĶ": 14213,
    "Ġbedfellow": 16435,
    "Ġenriched": 26498,
    "Ġsaddest": 16661,
    "Ġcedar": 15186,
    "Ġpens": 21458,
    "Ġexclaimed": 4683,
    "Ġwhisper": 6205,
    "months": 9070,
    "Ġvener": 8164,
    "gerine": 22886,
    "Ġendangered": 16301,
    "board": 3565,
    "Ġglory": 6065,
    "Ġscrolled": 22287,
    "ilburn": 18059,
    "Ġimperfectly": 25727,
    "mend": 20965,
    "Ġcontracted": 12857,
    "Ġincognit": 22552,
    "Ġstrategies": 1841,
    "impregn": 21712,
    "Ġbrilliantly": 25120,
    "Ġconcent": 8250,
    "Ġleech": 24153,
    "Ġadequ": 10912,
    "perceived": 8857,
    "accessible": 13636,
    "Ġpips": 9850,
    "iour": 4036,
    "Ġpositional": 2598,
    "Ġturner": 7049,
    "adler": 21760,
    "Ġbi": 920,
    "Ġadapted": 11037,
    "ophisticated": 22476,
    "Ġdelightfully": 13155,
    "oker": 10962,
    "leaning": 10789,
    "Ġasserted": 16948,
    "Ġbowditch": 19322,
    "Ġfarmhouse": 24986,
    "conquerable": 17397,
    "Ġadds": 1809,
    "Ġslid": 7952,
    "ioneer": 15628,
    "Ġfacing": 10170,
    "Ġapprobation": 10984,
    "Ġrational": 8479,
    "cer": 6642,
    "uring": 820,
    "Ġsteak": 9827,
    "Ġselection": 18204,
    "Ġdiscompose": 25579,
    "Ġcontinually": 5042,
    "indef": 17734,
    "Ġnormalizing": 1823,
    "farm": 15349,
    "sorrows": 17318,
    "Ġinmost": 17930,
    "deser": 10401,
    "ource": 5244,
    "databases": 3025,
    "Ġvoyagings": 19235,
    "Ġvehicles": 10658,
    "Ġsettee": 22919,
    "Ġdecent": 10977,
    "Ġsam": 7569,
    "Ġdivinely": 25723,
    "Ġcontour": 18474,
    "Ġpleasantest": 24136,
    "bohem": 19002,
    "Ġbeaches": 18084,
    "Ġfolks": 14424,
    "Ġdistension": 22501,
    "gins": 12465,
    "Ġtram": 11091,
    "Ġlake": 5227,
    "Ġbestow": 6455,
    "Ġmagg": 18905,
    "scream": 11075,
    "odiac": 14026,
    "Ġpupils": 20419,
    "friends": 8306,
    "Ġmanifested": 17156,
    "zy": 2667,
    "Ġirrevocably": 15295,
    "locks": 14454,
    "Ġdownwards": 8529,
    "trick": 19411,
    "Ġempires": 19073,
    "Ġrelation": 2139,
    "alizing": 17939,
    "Ġexhibition": 14955,
    "Ġglittering": 10051,
    "Ġutil": 4672,
    "Ġproceeding": 9904,
    "Ġ61": 24363,
    "Ġunprofitable": 18264,
    "bitter": 11239,
    "Ġcounterpart": 24721,
    "Ġcrowd": 6336,
    "irements": 22210,
    "Ġeternity": 12275,
    "Ġintricate": 15135,
    "Ġsqueaking": 26274,
    "icket": 22666,
    "Ġsepar": 3998,
    "Ġadaptively": 3947,
    "believed": 9931,
    "rane": 17652,
    "Ġearls": 18903,
    "Ġpersisting": 18877,
    "dece": 11730,
    "ľ": 255,
    "Ġclosed": 4605,
    "understand": 1101,
    "offered": 14515,
    "Ġremarkably": 7703,
    "Ġforeheads": 23447,
    "witness": 10033,
    "waves": 10741,
    "stochastic": 3772,
    "surgeon": 24213,
    "Ġshoes": 7071,
    "Ġdepend": 784,
    "Ġacceler": 1612,
    "aired": 8369,
    "Ġsoftened": 11101,
    "quimaux": 21851,
    "hem": 6663,
    "Ġdescent": 1000,
    "Ġcruisings": 25864,
    "Ġspire": 18306,
    "chains": 9683,
    "inders": 15977,
    "Ġprendergast": 26536,
    "Ġpri": 5813,
    "system": 4677,
    "vard": 21109,
    "Ġsometimes": 2166,
    "Ġii": 7385,
    "Ġgerman": 6141,
    "Ġminimum": 23040,
    "xible": 13806,
    "ware": 3932,
    "Ġvigilant": 20183,
    "Ġthistle": 21914,
    "Ġsheltered": 19910,
    "Ġutility": 23511,
    "Ġcountess": 11961,
    "Ġtown": 2455,
    "Ġscound": 12830,
    "Ġcare": 1639,
    "Ġskirt": 18729,
    "Ġshield": 21997,
    "wer": 8395,
    "nets": 9131,
    "fem": 17536,
    "Ġlascar": 9198,
    "least": 8783,
    "Ġtame": 17721,
    "Ġfatigue": 8697,
    "Ġano": 11594,
    "Ġrealise": 16334,
    "Ġstir": 5823,
    "ĠĠĠĠĠĠĠĠĠĠĠĠĠĠĠĠĠĠĠĠĠĠĠĠĠĠĠĠĠĠĠĠĠĠĠĠĠĠĠĠĠĠĠ": 12151,
    "reference": 13838,
    "too": 4507,
    "luent": 15993,
    "Ġsentence": 6187,
    "introduce": 25186,
    "Ġforgo": 21771,
    "ctor": 13958,
    "leagued": 26434,
    "wolf": 26408,
    "beth": 13686,
    "Ġpaddington": 17094,
    "tps": 11533,
    "icles": 17972,
    "Ġcourtship": 24134,
    "philosop": 9566,
    "orily": 15569,
    "Ġendured": 6073,
    "Ġwhaling": 2781,
    "cated": 20802,
    "pick": 17633,
    "Ġelab": 22641,
    "Ġharness": 17927,
    "Ġshine": 12763,
    "trivial": 21091,
    "mir": 20962,
    "Ġcousins": 9913,
    "Ġsuffoc": 18870,
    "ricane": 16276,
    "uncle": 8159,
    "commend": 19991,
    "deeply": 16170,
    "lacing": 17589,
    "gn": 8082,
    "Ġjinglers": 26018,
    "Ġwhilst": 9217,
    "Ġclink": 22346,
    "twas": 15435,
    "Ġmass": 3778,
    "ion": 296,
    "majesty": 26280,
    "warn": 11541,
    "Ġrifts": 21973,
    "elzebub": 26463,
    "saf": 11523,
    "Ġi": 312,
    "upon": 2722,
    "rogress": 21534,
    "Ġaskance": 23148,
    "Ġworldly": 16327,
    "propagation": 1251,
    "etimes": 1988,
    "high": 6649,
    "Ġthickest": 16653,
    "Ġreproached": 24891,
    "Ġtragedies": 25241,
    "train": 2034,
    "Ġpurplish": 19140,
    "race": 11629,
    "cruise": 24841,
    "Ġsparkling": 11355,
    "Ġsecured": 6745,
    "Ġchag": 15928,
    "Ġsign": 2495,
    "warmest": 25027,
    "mistake": 24528,
    "iv": 433,
    "Ġpublicly": 13319,
    "Ġdevoutly": 25832,
    "Ġdoom": 6417,
    "quaker": 15759,
    "onden": 13842,
    "fiery": 13578,
    "Ġdecomposes": 5506,
    "tfordshire": 4811,
    "Ġenigmatical": 20596,
    "Ġameric": 3852,
    "rossed": 11011,
    "refuge": 24734,
    "divers": 15340,
    "Ġale": 9153,
    "blo": 6353,
    "volume": 18600,
    "Ġnois": 4266,
    "Ġjost": 23629,
    "Ġbrine": 18769,
    "concluded": 11241,
    "Ġresc": 4506,
    "ppery": 10891,
    "Ġobjecting": 18896,
    "Ġangrily": 9405,
    "Ġshift": 2281,
    "room": 2178,
    "Ġperchance": 15988,
    "Ġrept": 13981,
    "Ġcomrades": 9553,
    "Ġfedallah": 6108,
    "Ġsorting": 3236,
    "Ġsatin": 12983,
    "Ġaround": 3611,
    "Ġdirect": 1471,
    "Ġabstraction": 26538,
    "Ġceti": 24773,
    "Ġsteals": 23083,
    "hoisted": 19281,
    "Ġfielding": 16227,
    "onse": 21248,
    "Ġmacro": 25939,
    "Ġagonies": 14250,
    "Ġkrem": 9724,
    "Ġcoat": 4553,
    "constable": 24606,
    "principle": 10649,
    "ording": 9762,
    "general": 7489,
    "hotel": 20048,
    "Ġzones": 22818,
    "Ġsuperfluous": 17412,
    "Ġdamned": 13129,
    "oise": 15402,
    "iling": 3095,
    "yset": 21144,
    "Ġincludes": 2011,
    "Ġallusion": 7625,
    "abbering": 21794,
    "Ġfrown": 10806,
    "Ġimpose": 22384,
    "oughed": 22080,
    "Ġmaiden": 13383,
    "Ġbalmy": 22902,
    "arctic": 12607,
    "Ġstuff": 5717,
    "Ġrefusal": 10341,
    "ancho": 4938,
    "Ġbusiness": 2230,
    "Ġordained": 19443,
    "feels": 22510,
    "ĠĠĠĠĠĠĠĠĠĠĠĠĠĠĠĠĠĠĠĠĠĠĠĠĠĠĠĠĠĠĠĠĠĠĠĠĠĠĠĠĠĠĠĠĠĠ": 9951,
    "Ġprehensile": 26533,
    "story": 9211,
    "ivates": 18282,
    "Ġwheeling": 18286,
    "poured": 17636,
    "Ġdreary": 10407,
    "rons": 21038,
    "ches": 2149,
    "threaten": 25461,
    "Ġunqualified": 22055,
    "Ġhauling": 14085,
    "Ġsemicirc": 16387,
    "twain": 23699,
    "Ġinsurance": 23680,
    "Ġyes": 2687,
    "Ġlights": 8959,
    "Ġwane": 21287,
    "hastily": 19701,
    "Ġgrapnels": 25551,
    "Ġepaulets": 24905,
    "Ġ134": 24784,
    "Ġinflu": 4909,
    "Ġshriek": 6637,
    "dwell": 15339,
    "Ġlivers": 18461,
    "Ġoverseeing": 22358,
    "Ġconvict": 23743,
    "Ġpropriet": 9548,
    "Ġplanted": 9772,
    "Ġoriginally": 7304,
    "Ġnug": 21523,
    "Ġstrangled": 24132,
    "Ġvouch": 15806,
    "queequeg": 4334,
    "Ġforbearance": 12325,
    "eridge": 15523,
    "bunger": 20400,
    "Ġheartily": 6890,
    "sher": 5217,
    "Ġunwe": 15835,
    "deceit": 25556,
    "crat": 24096,
    "Ġconduct": 3731,
    "elihood": 4622,
    "Ġsteeple": 19286,
    "Ġpresentation": 14479,
    "Ġgoney": 14544,
    "Ġmagical": 23097,
    "Ġinconsist": 17935,
    "Ġattitude": 8902,
    "Ġaperture": 26160,
    "Ġbites": 23741,
    "rifle": 21045,
    "Ġtr": 551,
    "uctive": 17695,
    "ittingly": 18806,
    "Ġresistance": 13527,
    "Ġcommodores": 25374,
    "Ġadieus": 25110,
    "à": 161,
    "summit": 23415,
    "Ġhimmalehs": 26229,
    "Ġnervousness": 23554,
    "another": 5439,
    "secondly": 16983,
    "Ġdeft": 21835,
    "Ġconfeder": 25708,
    "Ġexhaled": 19681,
    "Ġpresentiment": 18989,
    "Ġbuoyancy": 20040,
    "Ġsurviv": 13432,
    "Ġmariners": 6068,
    "neys": 23580,
    "Ġinadequate": 17936,
    "stirred": 20423,
    "Ġtranslation": 3089,
    "Ġintroduced": 7691,
    "doctor": 19093,
    "shine": 9286,
    "Ġdefend": 9338,
    "Ġembarkation": 25122,
    "Ġlances": 6984,
    "Ġiceberg": 14714,
    "Ġdismasted": 15249,
    "Ġreturns": 11923,
    "rising": 7557,
    "Ġfool": 4234,
    "itute": 9650,
    "Ġrewards": 10847,
    "Ġruns": 8594,
    "assault": 22304,
    "moonlight": 25375,
    "Ġindul": 5856,
    "Ġindisp": 18834,
    "Ġboun": 21378,
    "presently": 9805,
    "Ġclassical": 22632,
    "Ġpearl": 20375,
    "Ġattics": 22623,
    "Ġcoats": 16073,
    "cient": 4569,
    "Ġjon": 15945,
    "Ġsagaciously": 24731,
    "Ġmuff": 8114,
    "striking": 13437,
    "Ġimbib": 22173,
    "unts": 12728,
    "Ġwillow": 18531,
    "Ġwhaleman": 4654,
    "Ġnuts": 17951,
    "Ġenv": 2935,
    "Ġanchor": 7368,
    "begging": 22496,
    "unting": 21872,
    "roused": 16651,
    "pooh": 18798,
    "Ġconnected": 5393,
    "Ġstorm": 4299,
    "Ġlucy": 17969,
    "sprit": 11381,
    "Ġcumul": 4177,
    "consternation": 16911,
    "Ġmerc": 9424,
    "fit": 6645,
    "Ġtransformers": 1120,
    "Ġpreferred": 14964,
    "make": 5793,
    "berries": 22720,
    "feeders": 25235,
    "Ġlar": 767,
    "extric": 22766,
    "Ġvindict": 13602,
    "miraculous": 26395,
    "distinct": 13332,
    "Ġ116": 24439,
    "rid": 5137,
    "Ġforced": 4352,
    "Ġintend": 12761,
    "called": 6292,
    "endeavoured": 12277,
    "Ġbritannica": 24680,
    "Ġholland": 10364,
    "Ġstrangest": 14793,
    "Ġsty": 6251,
    "Ġuseful": 3558,
    "circumamb": 26087,
    "Ġdidst": 11846,
    "Ġcre": 890,
    "Ġscornful": 24998,
    "provoke": 26071,
    "Ġpedest": 14994,
    "Ġfounded": 8557,
    "Ġdevice": 1929,
    "Ġproduce": 4366,
    "Ġconfession": 11234,
    "elder": 21570,
    "Ġslumbering": 25701,
    "ooped": 17622,
    "Ġmanners": 3788,
    "Ġlengthen": 15650,
    "declared": 15116,
    "Ġexpert": 18859,
    "noble": 7924,
    "Ġdelicate": 6480,
    "ignific": 11952,
    "Ġpanther": 16818,
    "Ġdireful": 11018,
    "Ġinsipid": 26313,
    "erick": 13846,
    "Ġsentinel": 26065,
    "Ġpott": 21466,
    "Ġcuring": 21342,
    "aration": 12604,
    "Ġ91": 24590,
    "Ġservice": 6471,
    "Ġfam": 1587,
    "asets": 2309,
    "contains": 16027,
    "Ġlethargy": 26482,
    "Ġspring": 4120,
    "children": 9054,
    "Ġyarman": 12702,
    "lightened": 12062,
    "igns": 8447,
    "Ġclapham": 17264,
    "Ġscimet": 22291,
    "lun": 20945,
    "reliable": 21239,
    "Ġfoolscap": 24156,
    "necessarily": 19630,
    "Ġclosest": 16762,
    "Ġwaste": 9232,
    "Ġprank": 23217,
    "Ġsee": 804,
    "Ġdistinction": 8884,
    "Ġpreced": 6040,
    "Ġdraw": 3670,
    "prodigious": 17465,
    "Ġarticulated": 24432,
    "Ġemm": 18002,
    "Ġte": 1143,
    "Ġhereabouts": 12972,
    "Ġparading": 23709,
    "Ġchestnuts": 24380,
    "wes": 17702,
    "quadrille": 20593,
    "ban": 9583,
    "proved": 11983,
    "Ġselecting": 16683,
    "Ġgrip": 11625,
    "Ġced": 10783,
    "robustness": 26338,
    "hic": 3252,
    "adequ": 11019,
    "ades": 5631,
    "Ġuncle": 3196,
    "Ġfates": 15574,
    "Ġproprietor": 12370,
    "eternal": 17982,
    "unities": 15767,
    "Ġnew": 1196,
    "Ġtreble": 16501,
    "Ġmurderer": 4980,
    "Ġmeant": 3550,
    "frightened": 17194,
    "germans": 20564,
    "gest": 5426,
    "cake": 20803,
    "Ġeloquence": 11839,
    "Ġmissionary": 25696,
    "Ġtattooings": 24900,
    "Ġarmed": 9258,
    "control": 16541,
    "Ġenhancement": 23764,
    "dig": 4929,
    "Ġextraordinary": 5414,
    "Ġinterference": 8892,
    "Ġconce": 3424,
    "Ġweakness": 9965,
    "Ġdrab": 13067,
    "olly": 3228,
    "Ġrare": 7036,
    "Ġnecessity": 7296,
    "eldom": 4412,
    "flo": 6114,
    "Ġhes": 6250,
    "Ġascertained": 25296,
    "mists": 17604,
    "Ġsubstit": 19539,
    "Ġcranial": 25592,
    "Ġconfronted": 23307,
    "sit": 13778,
    "kin": 7131,
    "Ġcopied": 20006,
    "ableness": 8149,
    "Ġoccurred": 4461,
    "anned": 17839,
    "moor": 22704,
    "ĠâĢĺ": 1632,
    "Ġast": 2963,
    "work": 1656,
    "Ġfa": 4819,
    "atement": 17772,
    "inked": 12910,
    "wonder": 6371,
    "Ġtrunk": 7205,
    "starbuck": 6019,
    "contempt": 13185,
    "Ġmole": 11788,
    "departed": 24794,
    "Ġgable": 15663,
    "Ġcreditors": 20128,
    "Ġsmitten": 12896,
    "Ġimmedi": 2905,
    "Ġextrem": 2474,
    "Ġthis": 382,
    "Ġpew": 9313,
    "arman": 11593,
    "reserve": 17764,
    "iration": 4539,
    "Ġporpoise": 7106,
    "Ġpeddler": 24800,
    "Ġswells": 9825,
    "Ġfaithfully": 14885,
    "animal": 16977,
    "Ġcountenance": 3968,
    "ashes": 6016,
    "woods": 13416,
    "customary": 25895,
    "Ġwhosoever": 21717,
    "Ġclouded": 13287,
    "Ġhussey": 7725,
    "Ġdiff": 3116,
    "Ġlifelessly": 23048,
    "conject": 8878,
    "Ġcough": 11579,
    "Ġdav": 15586,
    "Ġcub": 8414,
    "Ġfootpaths": 26318,
    "Ġvancouver": 26564,
    "Ġvertically": 19378,
    "Ġsundry": 20072,
    "<EOS>": 2,
    "Ġmalay": 24390,
    "Ġbiggest": 24565,
    "Ġstrides": 22616,
    "isation": 13891,
    "Ġalert": 18101,
    "ourable": 4967,
    "apside": 22958,
    "Ġpun": 4587,
    "r": 86,
    "contain": 18502,
    "iny": 4292,
    "joy": 3337,
    "vable": 10131,
    "accents": 19211,
    "cerem": 15674,
    "Ġwand": 4341,
    "Ġcorner": 4369,
    "Ġcrate": 19122,
    "Ġiroqu": 21622,
    "Ġpropos": 7062,
    "Ġsight": 2110,
    "Ġenorm": 5302,
    "Ġgiving": 4084,
    "Ġanointing": 25539,
    "Ġnights": 7258,
    ",âĢĻ": 2329,
    "Ġrucastles": 18721,
    ".âĢĶâĢľ": 20746,
    "Ġfresher": 23207,
    "better": 7119,
    "street": 6495,
    "detained": 24381,
    "Ġjohnson": 18409,
    "Ġdiscriminative": 4326,
    "counterpart": 26359,
    "Ġviolently": 6456,
    "occur": 19574,
    "Ġinserted": 8356,
    "Ġhalloa": 13313,
    "Ġbounce": 21391,
    "Ġsuccess": 3610,
    "Ġbor": 5804,
    "Ġsubfield": 11866,
    "redible": 15801,
    "ception": 6562,
    "Ġfusion": 21413,
    "mblance": 7323,
    "Ġstripped": 10464,
    "Ġgallop": 19554,
    "Ġflourished": 15123,
    "assistant": 25567,
    "Ġstaving": 21735,
    "Ġomens": 21326,
    "Ġreached": 4020,
    "Ġai": 3130,
    "Ġwounds": 17790,
    "Ġstudied": 11114,
    "Ġund": 4118,
    "idate": 21765,
    "fainting": 20471,
    "Ġplank": 7033,
    "Ġsurprise": 3826,
    "oblig": 16288,
    "Ġfollows": 7673,
    "Ġhunting": 7259,
    "ves": 698,
    "Ġcommunications": 16352,
    "Ġfeel": 1262,
    "Ġdoing": 3660,
    "Ġnarrower": 24353,
    "Ġevidence": 5269,
    "Ġicelandic": 25886,
    "Ġmagician": 25058,
    "Ġconfiding": 19038,
    "penn": 18827,
    "Ġwo": 3650,
    "Ġfaintest": 24568,
    "Ġancho": 15599,
    "Ġpaper": 4281,
    "Ġlim": 2381,
    "Ġwhereof": 16099,
    "iop": 20918,
    "ifferent": 4261,
    "Ġsire": 15499,
    "Ġinjure": 16780,
    "drawing": 10485,
    "Ġheeds": 24519,
    "Ġkeeled": 18807,
    "Ġhearts": 4972,
    "Ġlingering": 11378,
    "Ġmatches": 14394,
    "scratch": 26044,
    "amouch": 21843,
    "Ġwalrus": 14971,
    "than": 4087,
    "Ġspare": 5102,
    "india": 22369,
    "Ġboisterous": 20441,
    "Ġunimpeachable": 26521,
    "concluding": 19479,
    "london": 9608,
    "speaks": 19718,
    "Ġnoiseless": 10355,
    "Ġsaw": 1352,
    "Ġodor": 12146,
    "Ġtwilight": 16118,
    "poss": 4778,
    "Ġpitch": 5767,
    "rapidly": 15241,
    "enchant": 21282,
    "dis": 2247,
    "Ġunkindness": 22036,
    "Ġcongregated": 20095,
    "Ġransacked": 26503,
    "itage": 17816,
    "dam": 7798,
    "Ġinde": 7371,
    "five": 6356,
    "Ġvexations": 24610,
    "7": 27,
    "versed": 9823,
    "Ġsprung": 11247,
    "aceti": 7111,
    "arse": 7160,
    "alty": 17938,
    "Ġfrightened": 5341,
    "Ġbrightest": 13221,
    "ler": 3491,
    "Ġevil": 3803,
    "Ġindispensable": 11897,
    "Ġassures": 14464,
    "contrivance": 26316,
    "Ġbert": 4582,
    "Ġprograms": 7239,
    "perth": 22174,
    "ilty": 6394,
    "wound": 21125,
    "Ġpersonages": 23539,
    "Ġdistinguished": 8273,
    "aly": 1111,
    "Ġalbatross": 10870,
    "Ġtahitian": 25427,
    "ni": 1625,
    "Ġmurderers": 16810,
    "Ġbedroom": 7277,
    "Ġwaking": 11568,
    "Ġscenari": 22290,
    "Ġdecline": 9285,
    "Ġpersonified": 19177,
    "Ġchronicled": 25328,
    "mpus": 13755,
    "Ġthickening": 24021,
    "Ġbrist": 14376,
    "lamp": 9607,
    "Ġroses": 11783,
    "Ġnought": 21520,
    "asiness": 8129,
    "Ġtill": 1826,
    "Ġisrael": 21801,
    "Ġresidence": 8207,
    "inable": 11554,
    "magnitude": 17247,
    "occ": 4484,
    "Ġswart": 14432,
    "acked": 10973,
    "Ġadv": 1140,
    "atmosphere": 21263,
    "getic": 12962,
    "Ġxii": 11987,
    "crews": 15041,
    "tin": 6116,
    "Ġstabbing": 20302,
    "Ġgnarled": 25165,
    "Ġsiberia": 26161,
    "Ġincalcul": 16060,
    "Ġharpooneer": 3770,
    "appointment": 24056,
    "Ġtusk": 25425,
    "uous": 4144,
    "obser": 11098,
    "Ġjav": 7903,
    "Ġchips": 14180,
    "erred": 6376,
    "Ġappend": 18358,
    "Ġloomings": 24949,
    "Ġstacked": 21741,
    "Ġdeficient": 18825,
    "Ġtuesday": 9625,
    "Ġupbraided": 26527,
    "Ġdiscrimin": 2546,
    "outside": 12801,
    "posture": 16926,
    "Ġabide": 14186,
    "Ġadroop": 26001,
    "Ġcreate": 2091,
    "Ġbelie": 14405,
    "Ġinspired": 2518,
    "correspond": 13395,
    "Ġseemed": 1279,
    "Ġreefed": 20301,
    "Ġdiadem": 24741,
    "avering": 24793,
    "Ġunrecorded": 17466,
    "Ġincreas": 1694,
    "Ġ51": 24319,
    "decease": 25557,
    "Ġyojo": 7610,
    "Ġreturned": 2891,
    "Ġclue": 7020,
    "ren": 549,
    "Ġsquid": 11875,
    "Ġhurled": 10428,
    "Ġtransc": 12861,
    "Ġost": 9648,
    "Ġslop": 23161,
    "ornament": 23486,
    "Ġintellig": 526,
    "Ġdoub": 1838,
    "onomy": 12543,
    "Ġventure": 7740,
    "preserve": 25303,
    "olstadt": 7789,
    "Ġrecoil": 18692,
    "reproach": 15184,
    "government": 25406,
    "umbered": 22115,
    "manner": 6170,
    "Ġmeekly": 26489,
    "dissatisf": 26129,
    "inian": 21181,
    "Ġroundabout": 23060,
    "Ġbridge": 8349,
    "Ġbeliefs": 24581,
    "daugh": 6788,
    "Ġnegro": 6447,
    "Ġprevents": 2557,
    "Ġungrateful": 14118,
    "proof": 16421,
    "Ġmaking": 1781,
    "aset": 10831,
    "persecutor": 26528,
    "Ġinestim": 15620,
    "eminently": 25105,
    "Ġstructured": 2974,
    "tarpaulins": 26404,
    "Ġrifled": 21974,
    "Ġaglow": 22512,
    "Ġtides": 13819,
    "topp": 22563,
    "Ġori": 8409,
    "sized": 15426,
    "acup": 14276,
    "Ġstrongest": 11134,
    "Ġflattened": 26047,
    "Ġvex": 5949,
    "nar": 12490,
    "Ġtender": 5753,
    "icken": 6711,
    "Ġbehind": 2806,
    "unsuitable": 21891,
    "ination": 2914,
    "min": 4571,
    "Ġtropic": 17063,
    "recognised": 15260,
    "dient": 440,
    "crowd": 25254,
    "augmented": 26286,
    "Ġhalyards": 21492,
    "Ġgrass": 5177,
    "Ġhonors": 23599,
    "Ġwalking": 4323,
    "Ġwhist": 6022,
    "mosp": 8089,
    "Ġtransition": 14232,
    "ago": 14063,
    "Ġnapoleon": 20556,
    "Ġleviathanic": 12077,
    "Ġthings": 1964,
    "sockets": 22730,
    "Ġpresenting": 18988,
    "Ġnor": 1554,
    "Ġworks": 5857,
    "Ġremot": 8543,
    "Ġwarm": 2427,
    "Ġnearest": 8470,
    "invested": 17116,
    "Ġjac": 1900,
    "Ġchilled": 18382,
    "gall": 6359,
    "bra": 6219,
    "Ġsupplication": 25491,
    "Ġenh": 2994,
    "....": 11315,
    "intellect": 18822,
    "Ġstrung": 22617,
    "Ġundeserving": 18265,
    "marks": 7346,
    "umst": 2503,
    "Ġconsol": 3812,
    "Ġsashes": 21224,
    "Ġfugitive": 17325,
    "sample": 12503,
    "tail": 8761,
    "Ġdiscriminator": 3393,
    "interest": 5421,
    "requ": 7148,
    "Ġhereditarily": 25224,
    "Ġmuttering": 10498,
    "convers": 6567,
    "Ġtolland": 24990,
    "Ġmocking": 24000,
    "Ġbone": 4695,
    "Ġpallidness": 25604,
    "baron": 24925,
    "Ġdoubled": 19641,
    "Ġemb": 1244,
    "Ġthro": 5817,
    "Ġschedu": 1825,
    "Ġabsorbing": 17127,
    "repeating": 20127,
    "Ġenvy": 13193,
    "happiest": 19331,
    "Ġassizes": 11108,
    "Ġbestowed": 6593,
    "Ġimpulsively": 24880,
    "Ġextinct": 14326,
    "ravelled": 18014,
    "Ġbosoms": 16794,
    "Ġconquered": 14024,
    "erated": 21269,
    "Ġincant": 18568,
    "Ġvariants": 1795,
    "Ġcrystall": 20225,
    "Ġtick": 8109,
    "Ġsob": 12780,
    "Ġbenevolent": 7773,
    "Ġrocked": 12853,
    "Ġphrenolog": 12331,
    "Ġpray": 3897,
    "Ġslackened": 15124,
    "Ġinitialization": 1252,
    "Ġothers": 2582,
    "Ġparis": 8179,
    "anite": 17837,
    "Ġneighbour": 3805,
    "Ġoutlandish": 12835,
    "aces": 2069,
    "henomen": 10493,
    "rents": 5308,
    "Ġbast": 21377,
    "Ġtoilet": 13935,
    "lid": 20944,
    "ks": 3149,
    "glass": 9907,
    "Ġfished": 21409,
    "Ġashore": 5351,
    "Ġcustom": 5078,
    "Ġthereof": 22366,
    "Ġportrait": 10660,
    "Ġcommonplace": 11095,
    "task": 13791,
    "Ġbernard": 20683,
    "Ġgarnery": 17385,
    "Ġapprehended": 26091,
    "Ġjeopardized": 20229,
    "Ġsquaw": 22835,
    "spe": 3560,
    "Ġif": 697,
    "Ġsobbing": 14132,
    "pursu": 11391,
    "(": 12,
    "Ġalms": 21778,
    "Ġlooks": 4165,
    "hro": 20890,
    "Ġchart": 10944,
    "Ġindec": 13926,
    ",âĢĶâĢĺ": 23801,
    "Ġpumps": 8427,
    "Ġinexpressible": 17331,
    "Ġmiriam": 25273,
    "ially": 9244,
    "Ġsuperiority": 14615,
    "ria": 15795,
    "Ġfruit": 12323,
    "honorable": 19900,
    "Ġpail": 15603,
    "Ġtrick": 7018,
    "Ġlaw": 3654,
    "Ġpaternal": 16375,
    "Ġrider": 24183,
    "Ġpleasantly": 14519,
    "Ġoverwhel": 8197,
    "sam": 21050,
    "Æ": 135,
    "Ġscr": 11758,
    "learned": 8605,
    "Ġwaylaid": 22872,
    "Ġnomine": 26455,
    "Ġstriving": 8995,
    "Ġlets": 18076,
    "eenth": 12457,
    "Ġfact": 1728,
    "Ġpersistence": 2765,
    "Ġferoc": 14900,
    "Ġintention": 5638,
    "Ġpaddock": 25037,
    "Ġflamingo": 15098,
    "Ġpoliteness": 8274,
    "Ġupbra": 22152,
    "Ġwarn": 5695,
    "dispositions": 25011,
    "Ġorgies": 18285,
    "okers": 18442,
    "cred": 9106,
    "dil": 11477,
    "activation": 3233,
    "Ġteaching": 10363,
    "Ġjoined": 4563,
    "quired": 21847,
    "rine": 21036,
    "ellow": 3875,
    "Ġcompanies": 14556,
    "Ġtwelfth": 22676,
    "Ġarcher": 22188,
    "Ġguardians": 14941,
    "Ġgeor": 3389,
    "dz": 4739,
    "Ġsec": 2076,
    "akes": 2217,
    "Ġinject": 2711,
    "Ġcultiv": 13553,
    "ld": 385,
    "Ġploughing": 26259,
    "Ġturn": 1297,
    "Ġtreacherously": 25129,
    "Ġreposing": 23360,
    "Ġtraits": 23074,
    "reason": 4413,
    "ackinaw": 22420,
    "Ġbus": 1906,
    "Ġbec": 1351,
    "Ġregiment": 6432,
    "Ġplaus": 22597,
    "imate": 4221,
    "Ġconcealed": 7495,
    "Ġcynicism": 25771,
    "rolling": 9059,
    "Ġforeshad": 23451,
    "gives": 15355,
    "obtain": 23092,
    "Ġoakshott": 12226,
    "Ġdisdained": 15008,
    "Ġconvey": 9979,
    "Ġunwinding": 22054,
    "respectively": 24700,
    "thanking": 24329,
    "Ġarrested": 9559,
    "Ġoccupations": 9455,
    "Ġ_": 841,
    "Ġcollections": 22860,
    "Ġinterment": 22572,
    "Ġdisput": 14254,
    "Ġlirra": 21558,
    "Ġhiss": 15784,
    "Ġhandfuls": 17208,
    "Ġsettled": 3740,
    "Ġimpious": 15984,
    "Ġsqueezed": 20034,
    "Ġlodger": 24090,
    "Ġacquisition": 18899,
    "Ġappeased": 23195,
    "Ġcasting": 12097,
    "wond": 8767,
    "itude": 1419,
    "Ġdeer": 12717,
    "Ġspangled": 22133,
    "interests": 19707,
    "achment": 5464,
    "Ġanoints": 25538,
    "Ġschedules": 3388,
    "irations": 18170,
    "Ġsix": 3046,
    "Ġaltered": 7393,
    "Ġtipt": 21172,
    "ladder": 19783,
    "Ġprovincial": 20649,
    "Ġforesight": 13125,
    "Ġgradually": 3403,
    "Ġrails": 22651,
    "Ġundoing": 22029,
    "Ġswore": 10377,
    "Ġreflected": 2909,
    "Ġnook": 15925,
    "Ġpreviously": 3917,
    "Ġbelly": 10368,
    "Ġoverspread": 14205,
    "otent": 8830,
    "osa": 22258,
    "Ġshort": 2223,
    "Ġpaddle": 20057,
    "Ġlongest": 18630,
    "Ġleaves": 5021,
    "Ġbond": 21382,
    "Ġserious": 4320,
    "Ġcruelty": 9967,
    "gain": 8736,
    "shavings": 22461,
    "Ġinsip": 19266,
    "Ġprofuse": 23564,
    "nearly": 8680,
    "Ġnantucketer": 6914,
    "Ġsucceeded": 6105,
    "Ġingratitude": 17467,
    "Ġprop": 1681,
    "baby": 25515,
    "Ġsorrows": 13351,
    "Ġextremities": 19194,
    "Ġconstitution": 20107,
    "Ġrobots": 11083,
    "bound": 6220,
    "Ġcylinders": 25943,
    "Ġhath": 12625,
    "inde": 17730,
    "tut": 15432,
    "flowing": 14558,
    "Ġhyster": 16872,
    "Ġchill": 11749,
    "Ġembark": 8556,
    "ad": 337,
    "Ġprayed": 16666,
    "Ġcorroded": 18875,
    "invariably": 26415,
    "loveliness": 26548,
    "speaking": 12095,
    "Ġvisit": 2583,
    "Ġbloss": 19255,
    "Ġentrances": 25834,
    "Ġgull": 15666,
    "yder": 10137,
    "Ġhardest": 18912,
    "Ġshad": 3847,
    "forever": 22517,
    "Ġ126": 24470,
    "Ġimminent": 11243,
    "Ġenabling": 1080,
    "upper": 11537,
    "Ġoverboard": 6045,
    "precise": 19349,
    "Ġrepetition": 8971,
    "embra": 14072,
    "Ġdetails": 6565,
    "Ġtremor": 24768,
    "limp": 20951,
    "Ġchanced": 8187,
    "myster": 16259,
    "frequented": 25900,
    "Ġgeneral": 1862,
    "holes": 12051,
    "Ġcommentators": 25229,
    "Ġunhing": 18238,
    "Ġexcite": 11963,
    "Ġincorporate": 20453,
    "¡": 99,
    "please": 8177,
    "Ġfilm": 23922,
    "Ġrightly": 13060,
    "sof": 17656,
    "Ġtennes": 23547,
    "Ġ120": 16857,
    "rear": 21231,
    "vely": 3865,
    "Ġattic": 16094,
    "Ġmagnific": 16316,
    "judges": 19572,
    "wester": 21137,
    "Ġslaughter": 20729,
    "Ġwell": 903,
    "Ġalleged": 17289,
    "Ġcondesc": 7181,
    "Ġevap": 19622,
    "Ġeagerly": 4990,
    "Ġneither": 3685,
    "Ġoverlapping": 26238,
    "appeared": 4280,
    "gan": 2198,
    "conversation": 7122,
    "Ġmile": 7151,
    "Ġdisconnected": 22523,
    "Ġalan": 10868,
    "Ġfreshets": 25705,
    "Ġrim": 21963,
    "Ġeluded": 12919,
    "Ġgallon": 24182,
    "Ġerrone": 14428,
    "avenza": 17103,
    "Ġwitty": 21291,
    "Ġbroiled": 18908,
    "Ġrash": 10897,
    "Ġexecutioner": 12268,
    "Ġkno": 5242,
    "bourne": 19102,
    "aked": 2015,
    "Ġleaking": 21743,
    "shark": 14237,
    "Ġshamefully": 24716,
    "Ġchivalrous": 20513,
    "ois": 9133,
    "square": 15060,
    "sincere": 16906,
    "Ġcanv": 7009,
    "remediable": 26294,
    "Ġ114": 24437,
    "infer": 10143,
    "Ġpart": 860,
    "matlock": 23468,
    "Ġdoubloon": 6945,
    "Ġhilarity": 20296,
    "ursday": 12273,
    "ump": 2283,
    "Ġris": 4886,
    "ving": 594,
    "Ġoverjoy": 15968,
    "unwho": 21875,
    "shutters": 20312,
    "officers": 10626,
    "Ġlegit": 16471,
    "Ġtransformed": 22609,
    "wig": 17703,
    "Ġdiamond": 15595,
    "Ġfrosts": 19801,
    "Ġdrugged": 12599,
    "cures": 20804,
    "surf": 24211,
    "Ġrefuge": 8538,
    "Ġbier": 22762,
    "Ġunconcerned": 20508,
    "intolerable": 22936,
    "Ġcirculating": 23371,
    "Ġhardship": 18913,
    "Ġfondly": 19615,
    "Ġanatomy": 12317,
    "haust": 5777,
    "Ġcaught": 3728,
    "Ġpeaked": 2294,
    "doesn": 19819,
    "closed": 23152,
    "Ġclaws": 15966,
    "Ġjoking": 12834,
    "Ġstrewed": 23420,
    "Ġinvader": 23477,
    "mn": 3576,
    "ladies": 9527,
    "plifted": 9708,
    "south": 8758,
    "Ġmanufactured": 22328,
    "Ġcannot": 1666,
    "delivered": 24099,
    "Ġsilk": 11960,
    "unless": 9233,
    "icult": 3343,
    "aneously": 4058,
    "ĠĠĠĠĠĠĠĠĠĠĠĠĠĠĠĠĠĠĠĠĠĠĠĠĠĠĠĠĠ": 19698,
    "soundest": 24797,
    "gunw": 17219,
    "Ġaddison": 14231,
    "ctuous": 9204,
    "Ġsimpl": 1581,
    "Ġfeed": 2126,
    "crimes": 16696,
    "Ġharry": 24570,
    "Ġvirgin": 7328,
    "Ġsparkled": 13459,
    "jets": 20927,
    "Ġlurking": 11288,
    "Ġneck": 4885,
    ");": 7330,
    "Ġrapture": 13493,
    "Ġcontribute": 12858,
    "oko": 18441,
    "nals": 16396,
    "ved": 869,
    "Ġlick": 21548,
    "Ġpieces": 7369,
    "umns": 14146,
    "Ġsallies": 21228,
    "pling": 8474,
    "withdrawn": 23024,
    "Ġsnorting": 23739,
    "irm": 3109,
    "Ġsnap": 11200,
    "Ġperfectly": 3699,
    "librarian": 26567,
    "whatsoever": 18489,
    "ost": 5360,
    "Ġincorruption": 26309,
    "Ġherd": 7889,
    "Ġmines": 21307,
    "plish": 18200,
    "injustice": 17736,
    "Ġrobinson": 17462,
    "owners": 16083,
    "Ġinfle": 16360,
    "Ġrely": 8819,
    "Ġspont": 22129,
    "Ġicicles": 25264,
    "ective": 18174,
    "miss": 3178,
    "Ġshaded": 14103,
    "Ġinser": 6820,
    "Ġtaken": 2528,
    "toller": 20671,
    "ichron": 22166,
    "Ġwait": 4907,
    "rating": 7809,
    "Ġtorpor": 25031,
    "Ġhypotheses": 4385,
    "Ġequator": 7461,
    "pate": 21009,
    "describe": 1516,
    "Ġconsulted": 13427,
    "Ġvibrated": 25045,
    "headers": 23107,
    "sw": 4741,
    "bull": 13688,
    "delirium": 14782,
    "Ġnaught": 8128,
    "Ġsome": 656,
    "Ġdemocracy": 25458,
    "Ġblended": 16216,
    "writing": 7721,
    "edy": 2857,
    "irwin": 8468,
    "Ġincognita": 26550,
    "Ġarm": 2491,
    "const": 5939,
    "Ġbanking": 19629,
    "Ġnowhere": 12883,
    "Ġorphan": 12380,
    "gered": 9274,
    "Ġsplinter": 23745,
    "Ġgent": 7383,
    "Ġentire": 2559,
    "Ġ500": 24327,
    "crooked": 25746,
    "Ġcongrat": 5827,
    "Ġships": 3712,
    "Ġtissu": 25920,
    "Ġmiz": 10776,
    "pemberley": 9619,
    "Ġstate": 1813,
    "Ġdauntless": 26336,
    "Ġanx": 3185,
    "Ġbacked": 12922,
    "Ġasi": 12729,
    "Ġpinched": 17034,
    "bulwarks": 12269,
    "iding": 3844,
    "Ġassumptions": 5517,
    "ot": 346,
    "Ġwits": 15529,
    "Ġswift": 3668,
    "Ġplumage": 17296,
    "Ġshuttle": 12123,
    "anted": 5027,
    "Ġimpreg": 15985,
    "Ġreflect": 6574,
    "ill": 447,
    "Ġpremium": 23902,
    "suspicious": 25390,
    "Ġabaft": 22272,
    "special": 14703,
    "Ġdoubting": 13097,
    "Ġreg": 730,
    "rift": 11518,
    "mer": 2832,
    "Ġdoubtful": 19141,
    "Ġharsh": 9519,
    "rab": 7596,
    "laborers": 23913,
    "fr": 4804,
    "mystic": 25316,
    "Ġcrosswise": 18885,
    "Ġstump": 7602,
    "Ġvinegar": 20098,
    "almost": 4943,
    "Ġdeeds": 15755,
    "Ġnumerous": 6920,
    "keepers": 16658,
    "glancing": 11213,
    "tenham": 16318,
    "Ġchancery": 20715,
    "Ġnothing": 1359,
    "coiled": 16484,
    "Ġafloat": 9306,
    "mira": 20978,
    "Ġunlike": 7004,
    "Ġmotives": 7486,
    "Ġdisplaying": 16965,
    "shows": 22454,
    "dued": 7910,
    "Ġgrey": 4512,
    "ateness": 15517,
    "tube": 20409,
    "Ġscrews": 25177,
    "Ġwhalemen": 3910,
    "Ġbrink": 18770,
    "rals": 21041,
    "them": 3020,
    "Ġ30": 10510,
    "Ġfancy": 3744,
    "Ġlocked": 6035,
    "Ġfell": 1978,
    "wil": 8396,
    "inev": 21977,
    "avoid": 9303,
    "Ġpositive": 2295,
    "Ġhas": 826,
    "Ġdearer": 14049,
    "fa": 7336,
    "mming": 1171,
    "Ġdeference": 10881,
    "ù": 186,
    "unalterable": 21884,
    "Ġsaved": 6690,
    "Ġvul": 10246,
    "benevolently": 25600,
    "Ġsad": 3866,
    "Ġarguing": 25470,
    "shelf": 20379,
    "Ġambitious": 18513,
    "apologizing": 26543,
    "bud": 10681,
    "Ġfarewell": 9518,
    "Ġbequeathed": 20700,
    "Ġviews": 7290,
    "uvian": 12239,
    "bo": 1691,
    "vast": 10735,
    "Ġbirch": 26174,
    "Ġsplintered": 11417,
    "Ġillinois": 19136,
    "Ġbriskly": 25311,
    "Ġmaterials": 11287,
    "Ġunsettled": 14120,
    "Ġtenderness": 12212,
    "Ġglen": 18852,
    "Ġtattered": 21170,
    "Ġbressed": 21385,
    "Ġthrills": 24541,
    "untary": 9865,
    "papers": 12498,
    "Ġrelu": 1048,
    "Ġmarched": 18871,
    "Ġperturbation": 20439,
    "Ġforests": 13589,
    "Ġ1894": 5196,
    "Ġhig": 756,
    "Ġbehold": 5049,
    "Ġsubsisted": 19117,
    "Ġeaster": 15671,
    "icing": 9199,
    "Ġheedfully": 24520,
    "heric": 15909,
    "brows": 17495,
    "Ġinto": 649,
    "Ġfairness": 9891,
    "Ġpoles": 11002,
    "Ġprevailed": 7778,
    "Ġorigin": 4119,
    "Ġallured": 14123,
    "Ġjoes": 19230,
    "clay": 18930,
    "Ġgeneralization": 983,
    "Ġsch": 13833,
    "Ġspite": 4155,
    "Ġcarries": 7674,
    "Ġappetite": 12381,
    "twig": 23698,
    "stock": 13218,
    "Ġcrocodile": 20739,
    "Ġpredecess": 18521,
    "savage": 15073,
    "Ġtremulous": 14984,
    "Ġaugmented": 15103,
    "Ġcautious": 12250,
    "Ġarve": 15899,
    "Ġundoubtedly": 8313,
    "Ġmistakes": 16539,
    "Ġdeduced": 12204,
    "unken": 10235,
    "omitted": 18023,
    "traced": 19636,
    "Ġprick": 14476,
    "Ġher": 427,
    "Ġwondrous": 4735,
    "rived": 5373,
    "shroud": 20311,
    "resolved": 9638,
    "Ġodds": 13326,
    "reproof": 25432,
    "Ġhost": 7068,
    "Ġinj": 4760,
    "Ġfins": 9662,
    "omination": 21660,
    "ufactured": 15179,
    "Ġexerted": 15750,
    "Ġmeasure": 3593,
    "Ġdad": 12597,
    "breat": 10076,
    "Ġembal": 11902,
    "Ġappare": 12816,
    "Ġensu": 7876,
    "binary": 20783,
    "Ġgiver": 21603,
    "Ġslanting": 23171,
    "Ġmicrosc": 20675,
    "Ġadviser": 25312,
    "Ġobserving": 6081,
    "Ġnursed": 16884,
    "Ġembra": 6578,
    "Ġheart": 1595,
    "Ġimprobable": 9793,
    "Ġdistributes": 4194,
    "Ġcivilized": 8664,
    "Ġbetray": 7442,
    "Ġunlimited": 26222,
    "Ġmistress": 8611,
    "Ġfol": 1288,
    "luckily": 19751,
    "Ġtriumphantly": 11286,
    "Ġsymmetry": 20364,
    "exception": 9974,
    "amplified": 26493,
    "Ġhunt": 6183,
    "Ġtuileries": 24826,
    "ĠĠĠĠĠĠĠĠĠĠĠĠĠĠĠĠĠĠĠĠĠĠĠĠĠĠĠĠĠĠĠĠĠĠĠĠĠĠĠĠĠĠĠĠĠĠĠ": 16754,
    "restoration": 23235,
    "Ġalas": 5922,
    "Ġcontextually": 11954,
    "wedded": 24338,
    "Ġorb": 22089,
    "Ġblame": 6446,
    "ĠvertebrÃ¦": 11434,
    "Ġwhalers": 8048,
    "Ġencoder": 3635,
    "Ġlastly": 16202,
    "Ġcontrari": 23348,
    "Ġshiny": 14104,
    "Ġbaff": 10798,
    "Ġplump": 14280,
    "Ġoutput": 930,
    "Ġsheepfold": 25466,
    "as": 302,
    "Ġfog": 9660,
    "Ġconclusion": 5986,
    "example": 16010,
    "Ġdepression": 21839,
    "Ġnine": 5369,
    "Ġvortex": 26208,
    "Ġsingularly": 12145,
    "itates": 13867,
    "Ġenjoyment": 7300,
    "successfully": 14989,
    "ail": 567,
    "Ġopulent": 23627,
    "wled": 15452,
    "Ġimpudence": 26241,
    "robber": 21535,
    "Ġslice": 23159,
    "similar": 13450,
    "rior": 12739,
    "Ġunrestingly": 20359,
    "Ġcompasses": 11266,
    "rudential": 16709,
    "Ġ35": 24074,
    "narrated": 25621,
    "erably": 7573,
    "usable": 22277,
    "Ġlongitudes": 22633,
    "Ġunreasoning": 15842,
    "biting": 20779,
    "Ġtoes": 10828,
    "Ġpalsy": 25778,
    "Ġprevailing": 24673,
    "Ġounce": 15270,
    "ues": 2080,
    "ject": 875,
    "were": 2558,
    "Ġinterested": 6458,
    "Ġchuck": 8501,
    "cruising": 12276,
    "Ġensuring": 11190,
    "Ġunrival": 22041,
    "Ġacts": 2293,
    "Ġshaggy": 13567,
    "Ġrode": 15995,
    "Ġwere": 555,
    "verb": 10215,
    "Ġflapped": 23010,
    "tle": 2410,
    "Ġslu": 13834,
    "ceptible": 10960,
    "rated": 6227,
    "hypothe": 25905,
    "correct": 24482,
    "olds": 9309,
    "sutherland": 21061,
    "ways": 1443,
    "Ġdried": 7367,
    "ooping": 21006,
    "Ġhate": 5445,
    "instantly": 7506,
    "Ġshreds": 12767,
    "iply": 22361,
    "haul": 14763,
    "Ġflask": 3039,
    "problem": 25244,
    "Ġperiod": 4002,
    "Ġremove": 7499,
    "Ġrepresenting": 4059,
    "construction": 19777,
    "Ġbr": 1073,
    "bag": 7542,
    "Ġinteractions": 12900,
    "Ġheidelburgh": 11641,
    "Ġunerring": 15844,
    "Ġdissolved": 18554,
    "Ġchann": 15932,
    "shel": 11927,
    "my": 1315,
    "Ġcompliments": 8632,
    "qual": 8157,
    "brÃ¦": 11174,
    "Ġcir": 21339,
    "Ġadie": 8488,
    "Ġjar": 15947,
    "Ġpitiful": 13236,
    "Ġbaboon": 19692,
    "slack": 16893,
    "Ġpand": 21453,
    "fle": 7128,
    "69": 17473,
    "aged": 2607,
    "Ġwave": 7575,
    "Ġsurmis": 23462,
    "Ġstaple": 26198,
    "Ġwrig": 13063,
    "Ġsalutation": 12394,
    "ue": 1180,
    "relu": 17758,
    "Ġcalculus": 23980,
    "agatha": 21906,
    "vac": 15448,
    "Ġsain": 17749,
    "Ġcatastrophe": 10482,
    "ional": 1084,
    "Ġdeaden": 23459,
    "Ġauto": 23291,
    "Ġvanished": 6874,
    "weave": 22683,
    "network": 1871,
    "idean": 14261,
    "metal": 24765,
    "Ġpledge": 11598,
    "fulfil": 16033,
    "Ġwild": 2602,
    "Ġsche": 1706,
    "emptied": 23634,
    "Ġtumb": 21168,
    "Ġtutored": 20126,
    "Ġaustralia": 15230,
    "iated": 5890,
    "visits": 24222,
    "Ġbiting": 17861,
    "Ġrefused": 6715,
    "cape": 13695,
    "Ġporpoises": 13379,
    "Ġdelay": 5748,
    "aurus": 20559,
    "joined": 13271,
    "Ġcasts": 19424,
    "rous": 3751,
    "Ġattained": 14076,
    "Ġprot": 3845,
    "Ġbewildered": 15211,
    "Ġrespite": 13151,
    "creator": 26380,
    "Ġconve": 5455,
    "Ġfavourably": 16359,
    "fever": 22509,
    "Ġagonizing": 17237,
    "Ġlighted": 7063,
    "Ġtransports": 24276,
    "Ġsuperiors": 23454,
    "Ġdepends": 1095,
    "Ġexile": 12713,
    "whar": 15924,
    "winter": 10739,
    "ationally": 15701,
    "Ġdundee": 16996,
    "look": 2258,
    "Ġobsolete": 26557,
    "Ġforswe": 21772,
    "Ġspecks": 14306,
    "examine": 25477,
    "Ġpainfully": 13139,
    "Ġunfrequent": 24108,
    "untarily": 6312,
    "Ġroar": 9751,
    "abeth": 907,
    "pre": 650,
    "Ġoverl": 18427,
    "Ġworth": 4415,
    "Ġlaunched": 14924,
    "Ġwinding": 8236,
    "country": 6103,
    "Ġwelcomed": 9480,
    "Ġtoad": 21508,
    "Ă": 195,
    "Ġpitiless": 19386,
    "Ġscand": 7203,
    "Ġbudge": 15162,
    "Ġvit": 10244,
    "sensible": 20050,
    "Ġtrail": 16280,
    "lived": 12483,
    "Ġdrunkard": 20176,
    "Ġarchitectures": 2910,
    "Ġtoler": 7588,
    "Ġtrans": 641,
    "Ġreverse": 16981,
    "aging": 2235,
    "rote": 4592,
    "Ġextremity": 8987,
    "jug": 17579,
    "Ġgazette": 19499,
    "ruding": 9722,
    "Ġhatchway": 13522,
    "Ġdollars": 11454,
    "Ġsecrets": 9053,
    "Ġcomprehens": 8320,
    "Ġdemand": 4947,
    "Ġdoubtfully": 23476,
    "/*": 10069,
    "bottle": 20144,
    "measureless": 20234,
    "Ġbusied": 19064,
    "uce": 11534,
    "Ġobtain": 8913,
    "Ġuncounted": 19116,
    "ign": 1704,
    "Ġfailed": 6671,
    "Ġdip": 13905,
    "Ġduty": 4070,
    "Ġnovember": 11746,
    "Ġsweet": 3466,
    "Ġsacrifice": 9554,
    "itical": 5801,
    "Ġinfluenced": 19631,
    "Ġview": 2760,
    "ended": 1836,
    "Ġreve": 2933,
    "asible": 21540,
    "desperate": 17350,
    "Ġbottled": 23794,
    "$": 8,
    "outward": 22158,
    "Ġtriumphant": 12186,
    "Ġavenues": 25429,
    "Ġgour": 21596,
    "naught": 20993,
    "entle": 1740,
    "Ġpleased": 4062,
    "Ġslugg": 15266,
    "sculptured": 26046,
    "Ġtransient": 18483,
    "erting": 17776,
    "iron": 3608,
    "Ġdrought": 19277,
    "ivial": 15859,
    "Ġdisd": 7030,
    "extremely": 26264,
    "Ġthickness": 13273,
    "Ġwildness": 14602,
    "Ġlouisiana": 25076,
    "Ġslender": 11937,
    "Ġhotel": 8650,
    "Ġrain": 5005,
    "black": 6768,
    "fare": 7799,
    "Ġdoomed": 11341,
    "Ġfringe": 17270,
    "Ġbuffaloes": 25217,
    "Ġzeal": 9096,
    "Ġjane": 1758,
    "za": 13808,
    "Ġfreshly": 23984,
    "towards": 5002,
    "Ġlords": 14640,
    "minute": 11273,
    "Ġinv": 2222,
    "Ġexagger": 12715,
    "gledy": 25403,
    "Ġpicturesque": 14892,
    "inkling": 16086,
    "Ġconsc": 4273,
    "isles": 15560,
    "Ġtraditions": 11442,
    "Ġbod": 4581,
    "Ġdeliberately": 10623,
    "Ġsubordinate": 18723,
    "vering": 15712,
    "Ġbundle": 13423,
    "chor": 6146,
    "Ġforging": 18093,
    "Ġchamp": 18381,
    "ioning": 21507,
    "merry": 16535,
    "Ġled": 3522,
    "urg": 8142,
    "proachable": 23396,
    "ĠâĢĶ_": 3459,
    "Ġundertone": 23238,
    "Ġpo": 737,
    "uling": 2254,
    "fere": 10988,
    "Ġpooh": 18603,
    "Ġenumerating": 15242,
    "glim": 19363,
    "Ġwre": 5077,
    "Ġpondering": 17004,
    "itself": 7835,
    "Ġgossip": 18470,
    "_),": 7125,
    "Ġdances": 10811,
    "Ġgrave": 5100,
    "Ġrhine": 12353,
    "87": 20756,
    "Ġreflections": 5946,
    "Ġnarrations": 24351,
    "mopol": 15394,
    "Ġ**": 4721,
    "ately": 1738,
    "Ġadvantage": 4315,
    "Ġslang": 23158,
    "pervading": 18952,
    "Ġfearfully": 23509,
    "Ġtwitching": 25683,
    "Ġalgorith": 565,
    "Ġprevail": 13439,
    "semble": 1527,
    "Ġharriet": 24571,
    "ife": 1026,
    "Ġscreening": 25300,
    "lydon": 13987,
    "Ġconfidence": 6590,
    "acency": 12905,
    "Ġdisconsol": 18557,
    "Ġdot": 4820,
    "Ġwindpipe": 23104,
    "Ġfair": 2836,
    "Ġtranquillity": 7536,
    "symp": 14631,
    "ideas": 18581,
    "Ġsafely": 9024,
    "Ġchina": 8040,
    "bitterly": 20336,
    "Ġethiopian": 26612,
    "admire": 24943,
    "cob": 10085,
    "Ġchosen": 7201,
    "Ġlaug": 3627,
    "Ġreplace": 14475,
    "Ġcompanions": 5865,
    "Ġfeverish": 11347,
    "Ġlithe": 24668,
    "aire": 10679,
    "chest": 11207,
    "Ġtearing": 14392,
    "gigantic": 15357,
    "Ġfunctional": 3050,
    "Ġvehemence": 26565,
    "otion": 4946,
    "elfare": 11773,
    "Ġreal": 1635,
    "irresist": 21910,
    "Ġdropt": 23674,
    "Ġstowing": 18071,
    "Ġrevisit": 21668,
    "tical": 10127,
    "Ġboa": 22636,
    "Ġcolourless": 19568,
    "Ġpersons": 6180,
    "Ġverses": 17062,
    "Ġconverts": 2804,
    "cuniary": 26378,
    "Ġrobberies": 23036,
    "Ġclattered": 22350,
    "Ġspurn": 18309,
    "Ġavailed": 23949,
    "Ġproverb": 12716,
    "Ġblubber": 5666,
    "allowing": 24357,
    "Ġdeficiencies": 26569,
    "Ġmaintaining": 1509,
    "Ġderbyshire": 6586,
    "Ġpurchased": 12257,
    "scept": 21052,
    "Ġhyper": 19738,
    "peleg": 16291,
    "Ġsparing": 22127,
    "Ġfif": 4217,
    "flutterings": 26605,
    "Ġsciences": 15942,
    "Ġhole": 6080,
    "rights": 23673,
    "Ġuplifted": 11645,
    "Ġabroad": 8864,
    "ulty": 22565,
    "igators": 18045,
    "staff": 21648,
    "Ġegress": 21619,
    "Ġcheating": 16364,
    "cool": 19186,
    "Ġrinal": 21975,
    "Ġprivilege": 11418,
    "alarms": 21503,
    "mell": 20963,
    "Ġblew": 9044,
    "hunted": 16831,
    "Ġframe": 1808,
    "Ġtou": 15464,
    "resol": 17759,
    "Ġguest": 7249,
    "Ġremoter": 20104,
    "Ġparamount": 15875,
    "boast": 23252,
    "Ġchase": 3942,
    "Ġbarbar": 6935,
    "Ġswamp": 14434,
    "inlaid": 21189,
    "Ġgrenadier": 21614,
    "wrong": 13203,
    "Ġdang": 9173,
    "Ġwoollen": 12100,
    "igantic": 5538,
    "mel": 9126,
    "Ġanoint": 25537,
    "grat": 5052,
    "forks": 26386,
    "icions": 21561,
    "jack": 7344,
    "Ġshortly": 6196,
    "ceptibly": 22364,
    "bes": 6641,
    "Ġskull": 6288,
    "Ġblazing": 11893,
    "Ġrecogn": 2689,
    "pract": 10118,
    "Ġsaloon": 24059,
    "eling": 6681,
    "teenth": 11871,
    "ling": 735,
    "Ġcombined": 8548,
    "Ġcontin": 5382,
    "infernal": 24662,
    "Ġabundantly": 17155,
    "separ": 9229,
    "hunter": 10554,
    "Ġinformed": 6717,
    "Ġnecessarily": 13246,
    "birds": 15142,
    "Ġbel": 1215,
    "Ġformula": 2864,
    "recurring": 24192,
    "==": 944,
    "Ġhermit": 15854,
    "ortions": 10947,
    "âĢľ": 344,
    "ferences": 10325,
    "Ġpod": 15600,
    "Ġjoyful": 13217,
    "Ġimplac": 24874,
    "Ġscandalous": 24879,
    "jumping": 20244,
    "Ġbottom": 3673,
    "Ġaverted": 16250,
    "school": 10053,
    "ä": 165,
    "Ġdiscoverers": 26036,
    "Ġpossessed": 5195,
    "Ġinfrequent": 3821,
    "alk": 1154,
    "ifying": 5235,
    "cadence": 26125,
    "Ġanimate": 23421,
    "Ġcomparatively": 9488,
    "Ġattends": 19649,
    "Ġtoward": 17946,
    "Ġequivalent": 4802,
    "Ġunfeeling": 14116,
    "arness": 11670,
    "ry": 807,
    "ulls": 8836,
    "Ġplainpal": 19276,
    "Ġpurple": 10432,
    "uish": 5431,
    "irmed": 9237,
    "ĠĠĠĠĠĠĠĠĠĠĠĠĠĠĠĠĠĠĠĠĠĠĠĠĠĠĠĠĠĠĠĠĠĠĠĠĠĠĠĠĠĠĠĠĠĠĠĠĠĠĠĠĠ": 20038,
    "partner": 19221,
    "mariners": 19547,
    "rove": 21531,
    "ulties": 12898,
    "Ġpronounced": 8351,
    "leviathan": 7785,
    "Ġupdate": 2463,
    "Ġbred": 9168,
    "Ġopera": 23424,
    "Ġrules": 1920,
    "lovel": 22507,
    "details": 19674,
    "Ġperusal": 14223,
    "Ġcomposition": 1689,
    "Ġlbs": 11613,
    "later": 20952,
    "Ġmatrim": 11059,
    "Ġintegr": 7969,
    "Ġoutbreak": 22315,
    "ologies": 18762,
    "Ġric": 18211,
    "swift": 14850,
    "Ġendurance": 23143,
    "ality": 2511,
    "Ġimpressive": 14998,
    "gee": 15974,
    "smoke": 17221,
    "Ġpurposes": 11167,
    "ott": 1873,
    "Ġ49": 24079,
    "Ġsugg": 4499,
    "Ġtottenham": 24140,
    "nne": 20988,
    "Ġdisgrace": 7215,
    "Ġlabyrinth": 13677,
    "prairies": 20565,
    "Ġcorrob": 16264,
    "atiously": 15519,
    "Ġprophecy": 25706,
    "mons": 17599,
    "promote": 24727,
    "achable": 14136,
    "Ġfurnishing": 16644,
    "readily": 19360,
    "Ġreiterating": 26473,
    "Ġjove": 9266,
    "audible": 17131,
    "Ġcondemn": 13441,
    "constantinople": 25507,
    "neville": 22449,
    "Ġbal": 1134,
    "Ġstepping": 9352,
    "treacle": 25148,
    "aus": 1501,
    "Ġpugn": 21478,
    "sli": 11521,
    "13": 20749,
    "Ġhymn": 24517,
    "Ġaffairs": 6877,
    "ever": 1077,
    "Ġhammock": 5768,
    "Ġghastly": 10058,
    "Ġpolynesian": 26026,
    "Ġach": 2621,
    "Ġsher": 3762,
    "Ġsculpture": 26016,
    "bast": 10075,
    "ides": 2161,
    "Ġmachinery": 20483,
    "Ġdangling": 17173,
    "rubbed": 22184,
    "Ġ*/": 10372,
    "Ġrenow": 18027,
    "ridge": 9495,
    "hog": 8380,
    "promise": 12247,
    "Ġcosmopol": 16453,
    "disagreeable": 11162,
    "Ġdebt": 12164,
    "cooee": 12415,
    "Ġclub": 8872,
    "charles": 14697,
    "Ġanimated": 7702,
    "partly": 14601,
    "Ġintruder": 25991,
    "Ġfame": 21404,
    "Ġbeloved": 5571,
    "Ġgenerally": 4157,
    "Ġahead": 6662,
    "Ġlewis": 15721,
    "Ġshudder": 9049,
    "inder": 9151,
    "oat": 13762,
    "Ġcitizens": 25439,
    "Ġspaulding": 11728,
    "Ġunimaginable": 15244,
    "Ġinconceivable": 17937,
    "Ġcane": 10926,
    "Ġwarehouse": 20415,
    "Ġitself": 2522,
    "Ġmotion": 4565,
    "Ġdog": 4191,
    "saw": 5894,
    "Ġnapoleons": 25885,
    "incl": 8110,
    "Ġdestroyed": 5271,
    "Ġlaborious": 13100,
    "solitary": 14507,
    "fowl": 17548,
    "varied": 23183,
    "Ġunob": 22009,
    "garnished": 26387,
    "anation": 5803,
    "osure": 5306,
    "preading": 18499,
    "Ġirr": 10420,
    "Ġlay": 583,
    "Ġsnatched": 10470,
    "Ġexecution": 6927,
    "cop": 20800,
    "Ġrecess": 10846,
    "Ġclock": 9531,
    "ilated": 18057,
    "track": 24313,
    "Ġassaulted": 25320,
    "Ġhumorous": 10359,
    "Ġweek": 2825,
    "ibule": 13002,
    "oga": 22693,
    "Ġsa": 474,
    "Ġdelivered": 11115,
    "avers": 17479,
    "Ġtim": 4578,
    "rubber": 12807,
    "prof": 7699,
    "Ġjavan": 24999,
    "Ġstroll": 13349,
    "intment": 4720,
    "Ġsomehow": 4841,
    "Ġassistance": 6333,
    "Ġpremeditated": 22232,
    "Ġtresses": 21174,
    "mon": 2308,
    "Ġoffice": 4965,
    "Ġdarker": 13116,
    "Ġretiring": 16278,
    "Ġblo": 2734,
    "thee": 9688,
    "Ġoutwardly": 25000,
    "lean": 21363,
    "Ġfun": 524,
    "Ġcocoa": 25482,
    "Ġtide": 6658,
    "glanced": 19364,
    "Ġsoaring": 22075,
    "errand": 22907,
    "loa": 18534,
    "Ġexcess": 3344,
    "Ġhoot": 19074,
    "rowsers": 8694,
    "ission": 6457,
    "stein": 5505,
    "Ġmatrimony": 13632,
    "Ġgreenness": 23766,
    "Ġtormented": 8674,
    "Ġcommunity": 19012,
    "allowance": 16823,
    "Ġmeat": 8152,
    "different": 6501,
    "Ġsketches": 26270,
    "ket": 17581,
    "moil": 22705,
    "Ġconventional": 25547,
    "Ġproperty": 6450,
    "Ġhobbling": 25644,
    "Ġspoutings": 14674,
    "rim": 7137,
    "Ġinevitable": 15165,
    "Ġbandaged": 16841,
    "Ġindef": 9188,
    "Ġviolation": 23404,
    "Ġslave": 7454,
    "Ġowner": 8920,
    "admirably": 24944,
    "Ġpartly": 6713,
    "Ġhel": 3784,
    "orses": 6052,
    "rical": 11517,
    "floating": 12224,
    "gloom": 17138,
    "Ġtail": 3091,
    "isis": 12576,
    "Ġrheum": 18216,
    "Ġinsane": 19268,
    "Ġrapturously": 24888,
    "vessels": 10624,
    "Ġscratching": 20367,
    "Ġwharves": 13503,
    "stands": 22425,
    "aning": 2250,
    "Ġdeact": 18138,
    "Ġottoman": 17376,
    "Ġstraggling": 23749,
    "Ġcompact": 2259,
    "time": 3150,
    "Ġcargo": 16287,
    "Ġgives": 5018,
    "rack": 18010,
    "suppose": 8644,
    "Ġselfish": 7272,
    "Ġhappy": 2465,
    "Ġassistant": 7298,
    "Ġcashier": 20197,
    "Ġtexas": 25922,
    "Ġcongratulatory": 19766,
    "attending": 18916,
    "Ġtreat": 3180,
    "Ġrucastle": 5176,
    "Ġgryphon": 4298,
    "Ġdirectly": 2104,
    "itics": 13870,
    "Ġbloodshed": 23799,
    "ishmael": 18420,
    "uerus": 26405,
    "walks": 19720,
    "vand": 21107,
    "pyramid": 21029,
    "Ġdives": 17890,
    "Ġanteced": 26177,
    "eag": 20841,
    "exasper": 22427,
    "Ġphysi": 9986,
    "wished": 13803,
    "Ġpond": 13914,
    "ant": 439,
    "ultaneously": 4192,
    "oquent": 12496,
    "Ġthimble": 15633,
    "Ġarranging": 11173,
    "Ġtaste": 5524,
    "Ġrecognised": 8994,
    "Ġroyals": 19531,
    "Ġsecret": 3718,
    "Ġlump": 21550,
    "Ġvillain": 8635,
    "astrous": 15883,
    "ahawk": 23317,
    "stricken": 9882,
    "Ġminds": 6303,
    "puzzling": 26143,
    "jump": 10102,
    "Ġmouse": 4694,
    "Ġinarticulate": 21498,
    "luded": 4227,
    "Ġsummoned": 9909,
    "Ġwhen": 514,
    "Ġhandful": 9781,
    "'s": 2469,
    "smile": 23903,
    "drive": 8682,
    "Ġhonorable": 16875,
    "Ġbadge": 16682,
    "itate": 6667,
    "canallers": 22962,
    "Ġconsecrate": 26488,
    "Ġrejoiced": 8683,
    "enter": 7858,
    "Ġgrimesby": 11456,
    "haired": 14764,
    "Ġfashionable": 19543,
    "cable": 20796,
    "Ġbehaviors": 13251,
    "Ġcaring": 23090,
    "Ġhydraulic": 10062,
    "Ġextinction": 14327,
    "Ġdiscerning": 24955,
    "tattoo": 21086,
    "Ġvillains": 14747,
    "Ġbackstays": 22660,
    "prejudice": 25571,
    "Ġassertions": 19945,
    "absolutely": 10644,
    "Ġunceasing": 20356,
    "agree": 14065,
    "Ġlizz": 21555,
    "full": 7420,
    "consid": 4924,
    "Ġimperial": 9479,
    "gir": 8083,
    "hurriedly": 25510,
    "Ġeverybody": 4510,
    "west": 10738,
    "Ġpatched": 16374,
    "instr": 12527,
    "clergy": 18933,
    "Ġtoilings": 24742,
    "hush": 20905,
    "butter": 11782,
    "Ġpassage": 3883,
    "chard": 21685,
    "Ġinspector": 6498,
    "Ġblowing": 10483,
    "ages": 829,
    "Ġmuttered": 7086,
    "elect": 20845,
    "Ġcombines": 1168,
    "Ġcommanded": 6330,
    "Ġcursory": 18851,
    "apparent": 11040,
    "mistakable": 20652,
    "burnt": 20078,
    "Ġpraying": 19553,
    "Ġmermaid": 17813,
    "Ġbru": 13893,
    "slouched": 24556,
    "ivered": 7005,
    "burg": 16772,
    "Ġkuiperai": 10934,
    "Ġdragging": 14474,
    "Ġelij": 8907,
    "Ġsurmisings": 26592,
    "Ġpin": 7161,
    "Ġremonstrate": 22793,
    "Ġoverflowing": 17236,
    "und": 4117,
    "Ġavoid": 5199,
    "determ": 7105,
    "round": 3370,
    "Ġparade": 18301,
    "Ġproduct": 3534,
    "Ġbrought": 2515,
    "Ġalternate": 19984,
    "Ġcoupled": 16850,
    "throughout": 24084,
    "Ġdecomp": 3808,
    "lied": 6507,
    "Ġpossibility": 7458,
    "Ġwerter": 15237,
    "Ġhorror": 3771,
    "oub": 1634,
    "Ġreview": 18030,
    "Ġquivers": 22411,
    "Ġlurked": 11290,
    "Ġneville": 7399,
    "pain": 7350,
    "Ġstiff": 6992,
    "Ġbapt": 13894,
    "Ġmapple": 11149,
    "Ġfocused": 16339,
    "Ġserene": 8167,
    "Ġparalle": 1411,
    "Ġhempen": 13547,
    "Ġthither": 6821,
    "Ġglacier": 11432,
    "Ġhab": 4218,
    "nants": 17612,
    "solute": 16597,
    "Ġhooded": 12403,
    "Ġimprudent": 12845,
    "acet": 5476,
    "Ġperhaps": 1913,
    "Ġ125": 24469,
    "Ġtem": 805,
    "Ġworthy": 7241,
    "Ġquies": 18464,
    "surd": 6934,
    "Ġlandlady": 10421,
    "aring": 1475,
    "Ġradiant": 16808,
    "J": 46,
    "Ġengaging": 9334,
    "Ġshowed": 4496,
    "Ġsoliloqu": 11882,
    "Ġfund": 2842,
    "Ġcame": 1299,
    "assure": 9267,
    "Ġay": 15489,
    "Ġencoura": 1366,
    "Ġinfl": 6893,
    "unct": 18154,
    "nal": 1904,
    "Ġitalian": 12407,
    "Ġresponsible": 9884,
    "Ġben": 1109,
    "Ġvisits": 8223,
    "steps": 9403,
    "Ġinner": 9669,
    "blame": 14791,
    "Ġloath": 7892,
    "baned": 17494,
    "Ġnod": 1888,
    "Ġjollity": 25566,
    "Ġintegrated": 13528,
    "import": 5668,
    "fallen": 19658,
    "Ġhist": 2445,
    "Ġprofoundly": 16858,
    "cele": 21623,
    "Ġcontro": 1688,
    "Ġroy": 4228,
    "Ġcalmness": 12089,
    "uting": 15656,
    "Ġranging": 8478,
    "Ġassum": 4063,
    "Ġglassy": 19559,
    "possibly": 10542,
    "incident": 14590,
    "Ġventing": 19492,
    "likelihood": 4992,
    "height": 21204,
    "visitor": 15058,
    "health": 13831,
    "historian": 25735,
    "Ġcaptain": 1603,
    "Ġd": 284,
    "Ġoysters": 20577,
    "Ġdirty": 9177,
    "Ġbackground": 18650,
    "alous": 7372,
    "Ġsooner": 5572,
    "Ġsomebody": 7913,
    "Ġaugmentation": 20114,
    "Ġunbroken": 18247,
    "Ġsunk": 5752,
    "Ġactive": 7916,
    "gers": 8376,
    "seated": 11669,
    "tahit": 17691,
    "Ġfac": 6381,
    "Ġoffending": 22741,
    "annica": 24560,
    "value": 18809,
    "fre": 5425,
    "Ġbinnacle": 8119,
    "Ġproved": 4884,
    "ange": 1019,
    "Ġdrew": 3537,
    "given": 8377,
    "Ġsnoo": 21227,
    "shuff": 18493,
    "Ġsummons": 13229,
    "Ġisles": 8459,
    "Ġunwearied": 20601,
    "ifice": 7198,
    "ofs": 11827,
    "Ġcheshire": 13087,
    "aken": 1869,
    "Ġrelaps": 18775,
    "me": 861,
    "Ġchronicle": 20227,
    "Ġpointing": 5661,
    "Ġencourag": 1394,
    "Ġinter": 728,
    "Ġmerchant": 6467,
    "Ġsands": 14946,
    "showed": 16024,
    "Ġberries": 13404,
    "Ġtakes": 5007,
    "Ġmasked": 3693,
    "Ġascribe": 16781,
    "Ġwooden": 4730,
    "Ġnets": 21522,
    "Ġflood": 7716,
    "Ġtransparent": 9487,
    "Ġunshored": 25813,
    "saying": 8640,
    "pol": 5893,
    "grass": 23411,
    "Ġusages": 15915,
    "neath": 12863,
    "Ġinferred": 14500,
    "Ġgasfitters": 25038,
    "rable": 11630,
    "Ġmak": 10777,
    "suit": 18631,
    "Ġunheard": 22019,
    "Ġtribe": 10750,
    "behaved": 24462,
    "Ġhandsome": 4906,
    "asserted": 22307,
    "iality": 8842,
    "retirement": 23137,
    "Ġperv": 15987,
    "Ġinvade": 19142,
    "at": 268,
    "table": 5795,
    "Ġintervened": 25481,
    "hee": 10759,
    "Ġdegenerating": 25799,
    "Ġhish": 21912,
    "Ġlawn": 7379,
    "iest": 4035,
    "conclusions": 25672,
    "indebted": 26158,
    "rect": 1598,
    "Ġmalicious": 10556,
    "Ġreconciliation": 25292,
    "Ġhunted": 7453,
    "uity": 12514,
    "oves": 15401,
    "Ġheaped": 18037,
    "Ġdescribed": 6606,
    "Ġrazor": 22653,
    "pher": 11510,
    "diversity": 25897,
    "Ġanecdote": 26354,
    "water": 4868,
    "opening": 10311,
    "Ġexceedingly": 4614,
    "apolog": 22330,
    "Ġtumbled": 13403,
    "steady": 14707,
    "rence": 5554,
    "asht": 4083,
    "Ġsubstantiated": 25875,
    "wling": 11543,
    "Ġmallet": 17810,
    "Ġplun": 6281,
    "gue": 12464,
    "Ġdisappeared": 5645,
    "drowned": 17367,
    "carpet": 25202,
    "Ġsports": 18310,
    "Ġdupl": 9952,
    "Ġhyp": 3871,
    "Ġtoy": 15630,
    "Ġbestirred": 20450,
    "Ġfertile": 20581,
    "Ġmenaces": 23105,
    "Ġshadows": 8013,
    "punctual": 26355,
    "Ġwoodlands": 23518,
    "occasion": 7754,
    "hes": 1399,
    "ht": 375,
    "Ġrelationship": 2315,
    "Ġ87": 19709,
    "Ġlevel": 5020,
    "Ġjapan": 7639,
    "soo": 18687,
    "sentimental": 25681,
    "east": 9114,
    "Ġdummy": 25449,
    "games": 20879,
    "Ġbilliard": 16688,
    "Ġcorresponds": 19820,
    "Ġflog": 23621,
    "Ġdescried": 7920,
    "ĸ": 249,
    "Ġplanting": 16082,
    "Ġabove": 2938,
    "Ġlayers": 818,
    "handkerchief": 14616,
    "Ġur": 5539,
    "Ġtistig": 26412,
    "Ġforty": 5719,
    "Ġmonogra": 22975,
    "Ġduring": 873,
    "Ġcott": 3707,
    "Ġgrieve": 14705,
    "Ġsturgeon": 20590,
    "Ġderision": 16307,
    "Ġsequence": 1977,
    "unt": 2044,
    "Ġtablet": 19204,
    "mble": 1407,
    "Ġscrib": 22286,
    "Ġfront": 3452,
    "earn": 10695,
    "Ġdeath": 2043,
    "aint": 2542,
    "event": 8077,
    "Ġcentury": 8291,
    "angs": 5834,
    "Ġfore": 2153,
    "Ġconquer": 14025,
    "edged": 15627,
    "Ġhindrance": 25220,
    "ig": 323,
    "Ġrevolutions": 23839,
    "Ġproducts": 5198,
    "Ġreasonably": 11090,
    "Ġ0": 1905,
    "expressed": 9040,
    "could": 2872,
    "Ġindolence": 16226,
    "training": 2517,
    "exerc": 16012,
    "ord": 665,
    "anybody": 12079,
    "vedale": 22710,
    "```": 25893,
    "combination": 25486,
    "women": 15454,
    "Ġinclement": 22551,
    "Ġtur": 2564,
    "Ġnecessitated": 23925,
    "oice": 1382,
    "Ġchim": 5933,
    "isp": 5528,
    "discern": 14849,
    "Ġkrusenstern": 20713,
    "added": 11657,
    "oles": 21004,
    "Ġluxury": 20130,
    "Ġswe": 2288,
    "Ġusually": 6263,
    "Ġpau": 17906,
    "Ġruin": 6056,
    "Ġoffering": 3009,
    "yet": 3752,
    "Ġaveraging": 2419,
    "Ġ1825": 25719,
    "Ġsounding": 8265,
    "Ġgraphs": 25463,
    "Ġparadigms": 3058,
    "perceive": 12806,
    "excuse": 13378,
    "Ġabstract": 17180,
    "Ġhonourable": 10455,
    "Ġdivulged": 16647,
    "Ġupbraid": 18318,
    "Ġimbued": 17453,
    "âĢĿ": 354,
    "assed": 6421,
    "Ġpenalties": 10411,
    "Ġthrill": 24540,
    "Ġpist": 12612,
    "acknowledged": 15200,
    "Ġprocesses": 3633,
    "Ġcontinued": 2923,
    "tot": 10727,
    "column": 19328,
    "continu": 5501,
    "Ġenthusiastic": 19964,
    "Ġhar": 5814,
    "pan": 10715,
    "iating": 3209,
    "Ġcalculating": 9923,
    "Ġfidelity": 15239,
    "sixty": 24852,
    "Ġsubstitute": 16725,
    "een": 727,
    "Ġfixedly": 19247,
    "asional": 17959,
    "affold": 16560,
    "Ġworked": 6583,
    "igh": 2029,
    "Ġlocker": 16910,
    "Ġnaturalist": 22906,
    "Ġcosmetic": 23470,
    "says": 13296,
    "Ġcontemptuously": 19832,
    "Ġverily": 16602,
    "ourney": 3553,
    "Ġskip": 1846,
    "blacksmith": 17000,
    "Ġgrammatical": 13536,
    "Ġbald": 16203,
    "Ġgentleman": 3040,
    "temper": 10002,
    "ertain": 1206,
    "Ġcaresses": 26059,
    "Ġawoke": 7286,
    "Ġcoast": 4655,
    "unworthy": 18161,
    "Ġgazing": 5876,
    "Ġlaboratory": 13609,
    "Ġoozy": 21325,
    "Ġhorrible": 4905,
    "Ġtra": 1383,
    "Ġbegg": 16249,
    "Ġtask": 1308,
    "Ġwished": 3727,
    "Ġmoney": 3420,
    "Ġcharmed": 16761,
    "Ġincumbent": 16059,
    "Ġravings": 18646,
    "infallibly": 26416,
    "tremble": 17140,
    "Ġincompatible": 25680,
    ",âĢĶ": 3175,
    "Ġendeavouring": 8035,
    "Ġ11": 5318,
    "Ġcoffin": 4427,
    "thunder": 10261,
    "Ġsuff": 1302,
    "Ġinexpress": 12632,
    "Ġgazed": 6478,
    "Ġlighting": 13080,
    "thoughts": 9933,
    "acted": 11009,
    "_âĢĶâĢĿ": 20762,
    "Ġdisgraceful": 15018,
    "returning": 12202,
    "Ġjunks": 25113,
    "deformity": 22143,
    "Ġhoof": 23352,
    "Ġunparalleled": 15850,
    "Ġerected": 12230,
    "Ġfasting": 16353,
    "Ġfix": 2507,
    "Ġungover": 18252,
    "Ġscenery": 11455,
    "Ġcomprehending": 24444,
    "Ġengra": 7875,
    "Ġinfallible": 15068,
    "Ġonto": 14027,
    "brother": 7091,
    "Ġoutskirts": 17455,
    "ables": 7891,
    "Ġdevotion": 22716,
    "old": 802,
    "Ġsockets": 22077,
    "Ġhabitation": 14800,
    "Ġobstacles": 19834,
    "Ġsuits": 22079,
    "Ġcircumn": 11980,
    "Ġcoloured": 11044,
    "chance": 6827,
    "Ġharbors": 24901,
    "pse": 21008,
    "enchanted": 26423,
    "performed": 18339,
    "Ġanon": 9665,
    "ible": 1116,
    "Ġendeared": 26497,
    "Ġcunning": 6238,
    "L": 48,
    "Ġner": 1647,
    "ested": 3479,
    "Ġsped": 22123,
    "Ġtension": 13822,
    "ologically": 22851,
    "Ġpat": 1788,
    "Ġenig": 15796,
    "inced": 3338,
    "Ġoct": 10157,
    "Ġpapa": 10655,
    "ributed": 8214,
    "vously": 23502,
    "iftings": 23225,
    "province": 26072,
    "uth": 3019,
    "adding": 21757,
    "originally": 24937,
    "continually": 11301,
    "Ġout": 542,
    "Ġobserve": 4670,
    "Ġdiscuss": 9472,
    "Ġrejoice": 10207,
    "cooks": 25067,
    "Ġin": 291,
    "Ġsurrounds": 24230,
    "Ġfrontispiece": 23911,
    "Ġantichronical": 26608,
    "Ġcard": 7363,
    "Ġawkwardness": 13484,
    "effectually": 25128,
    "Ġdrowsy": 26443,
    "Ġfed": 5529,
    "verest": 13989,
    "og": 858,
    "ĠĠĠĠĠĠĠĠĠĠĠĠĠĠĠĠĠĠĠĠĠĠĠĠ": 5321,
    "Ġcities": 17827,
    "Ġleaps": 14006,
    "Ġobli": 9314,
    "swam": 24253,
    "Ġlifts": 25358,
    "Ġbloody": 9886,
    "cet": 15323,
    "Ġmarble": 7669,
    "Ġdivined": 19441,
    "Ġis": 347,
    "'m": 9581,
    "silenced": 24422,
    "crimin": 17507,
    "oso": 12827,
    "chel": 11206,
    "Ġplucked": 15111,
    "Ġstammered": 26199,
    "Ġuncommon": 5026,
    "Ġlionel": 25286,
    "Ġwid": 4632,
    "formal": 14166,
    "orted": 4603,
    "Ġrepairs": 19081,
    "neither": 9755,
    "go": 2063,
    "Ġanxiously": 8290,
    "Ġowning": 18744,
    "Ġshel": 6847,
    "Ġinference": 9670,
    "Ġmemb": 14028,
    "didn": 9005,
    "Ġfeatureless": 22611,
    "isance": 17847,
    "kshire": 13744,
    "ļ": 253,
    "Ġbreakfast": 3973,
    "ccas": 15882,
    "Ġbrilliant": 11413,
    "Ġrepairing": 25589,
    "Ġcathedral": 17411,
    "Ġamateur": 22483,
    "Ġmy": 411,
    "Ġwebster": 20160,
    "Ġdrink": 4787,
    "Ġtenderest": 23548,
    "Ġfit": 3683,
    "Ġfrivolous": 26176,
    "horizon": 23613,
    "Ġfire": 2334,
    "humour": 7498,
    "Ġmotive": 6092,
    "Ġdreading": 23797,
    "Ġhighland": 18713,
    "atural": 948,
    "proportions": 22847,
    "Ġeuroc": 14957,
    "Ġchristianity": 19860,
    "dial": 20824,
    "omics": 21661,
    "Ġrecomm": 4996,
    "Ġprogra": 1148,
    "Ġcraven": 16468,
    "Ġassign": 11109,
    "Ġafrican": 20136,
    "Ġspas": 10921,
    "Ġpiratical": 24801,
    "Ġimprove": 1853,
    "Ġalow": 18099,
    "conclude": 24063,
    "some": 2232,
    "Ġgems": 9207,
    "Ġbrougham": 17870,
    "Ġfinny": 23126,
    "judged": 14829,
    "Ġland": 1997,
    "ach": 435,
    "Ġspecial": 2102,
    "aves": 3598,
    "Ġsurely": 6307,
    "Ġinher": 10178,
    "congratulations": 20278,
    "Ġautoregressive": 3433,
    "Ġinfall": 7960,
    "alyards": 18785,
    "chairs": 21691,
    "Ġclaim": 5106,
    "Ġbeside": 5192,
    "Ġspine": 7407,
    "Ġagon": 10319,
    "Ġthan": 736,
    "Ġirksome": 13108,
    "prints": 23810,
    "Ġarrogance": 26231,
    "Ġshears": 18319,
    "Ġforeman": 23446,
    "elter": 21569,
    "chari": 21687,
    "Ġprediction": 2270,
    "Ġlabyrin": 13101,
    "secre": 18126,
    "Ġtrembling": 7481,
    "Ġsunset": 8961,
    "um": 454,
    "Ġequal": 4134,
    "canst": 22959,
    "ellest": 21572,
    "actorily": 25576,
    "owner": 18610,
    "Ġvictim": 6098,
    "swiftly": 20550,
    "en": 271,
    "Ġmetropol": 11145,
    "Ġpull": 5152,
    "Ġcelebrate": 26357,
    "Ġcrouched": 23440,
    "Ġlament": 7857,
    "Ġperiods": 13300,
    "lanter": 15385,
    "atra": 17770,
    "xt": 2081,
    "Ġ64": 24366,
    "Ġrevol": 5536,
    "great": 3517,
    "Ġbenches": 18781,
    "Ġhanging": 5447,
    "Ġsickly": 16773,
    "Ġflint": 23008,
    "_.âĢĿ": 5886,
    "Ġticklish": 25034,
    "Ġdisplay": 6428,
    "blister": 24126,
    "Ġwhatsoever": 18455,
    "Ġbanish": 15566,
    "Ġterra": 13113,
    "Ġselects": 4384,
    "Ġcirc": 1986,
    "Ġlife": 1354,
    "itable": 5437,
    "Ġopportunities": 19248,
    "ulation": 5458,
    "Ġwitnessing": 19597,
    "dles": 11479,
    "choose": 23671,
    "schoolmaster": 15159,
    "Ġtoe": 13934,
    "Ġreproachfully": 25251,
    "Ġmyself": 1455,
    "ø": 185,
    "finer": 17545,
    "Ġmob": 16014,
    "caroline": 24147,
    "culine": 19063,
    "ivance": 22081,
    "Ġprobably": 4312,
    "Ġcolumb": 22859,
    "Ġdeprived": 8210,
    "Ġrude": 7234,
    "conf": 4957,
    "Ġfeet": 2255,
    "Ġpool": 5173,
    "Ġentreaties": 9034,
    "bucket": 17492,
    "Ġscra": 5841,
    "Ġproud": 5654,
    "Ġirreducible": 5519,
    "Ġalbertus": 25648,
    "Ġcomprising": 16065,
    "asc": 6386,
    "Ġtale": 5142,
    "erve": 12545,
    "Ġgive": 1714,
    "Ġraging": 14304,
    "Ġillustrate": 25065,
    "Ġdepressions": 25798,
    "Ġspam": 7630,
    "Ġglue": 15670,
    "promised": 12248,
    "Ġgloom": 4200,
    "swelled": 19609,
    "deserts": 25379,
    "Ġappointment": 10645,
    "Ġpretension": 23762,
    "intending": 22933,
    "Ġdiminishing": 4208,
    "venor": 16097,
    "Ġenthr": 22745,
    "doub": 6223,
    "Ġunexpl": 22033,
    "Ġgaff": 17993,
    "Ġwor": 1189,
    "Ġdoings": 18376,
    "Ġdealer": 23974,
    "Ġobligations": 12088,
    "Ġrequires": 998,
    "Ġpint": 17907,
    "youngest": 19742,
    "Ġflutter": 16244,
    "Ġtemperature": 1007,
    "Ġpavement": 9576,
    "Ġhot": 4256,
    "Ġporing": 21465,
    "hounds": 20906,
    "mselves": 2860,
    "Ġunforgiving": 25995,
    "Ġpencil": 11940,
    "Ġreckoning": 14977,
    "Ġmuteness": 19415,
    "Ġlandlord": 5580,
    "Ġphil": 3387,
    "Ġcramped": 23529,
    "Ġwitnessed": 14842,
    "tray": 21076,
    "Ġinstituted": 18703,
    "Ġbegrim": 23014,
    "Ġaccelerate": 23226,
    "Ġaffectionate": 5584,
    "Ġmercifully": 20177,
    "Ġrelent": 18774,
    "thes": 7391,
    "fleet": 15012,
    "creation": 14803,
    "Ġsteadfastly": 10650,
    "Ġomin": 11575,
    "Ġpressed": 6042,
    "Ġdownstairs": 11223,
    "Ġplaying": 6909,
    "Ġstalk": 12694,
    "Ġsadness": 13283,
    "Ġbee": 21747,
    "Ġsympathetic": 17357,
    "Ġfollies": 16251,
    "stubb": 6018,
    "Ġgenial": 12191,
    "founded": 16713,
    "ulgences": 21863,
    "record": 16920,
    "Ġprecaution": 11195,
    "Ġsullenly": 17171,
    "Ġ550": 19640,
    "heavenly": 20043,
    "Ġrepast": 16407,
    "omeness": 18022,
    "Ġbrah": 19355,
    "skirted": 24488,
    "Ġcapst": 8595,
    "ez": 5683,
    "Ġdangerous": 6613,
    "Ġvoc": 4449,
    "queg": 1771,
    "dation": 2614,
    "Ġstepfather": 7221,
    "Ġshades": 9460,
    "Ġknave": 11271,
    "borough": 20784,
    "electricity": 26384,
    "rages": 15677,
    "Ġabst": 9264,
    "Ġfibres": 12947,
    "adv": 4536,
    "Ġtrust": 4078,
    "Ġwrapt": 24596,
    "Ġregions": 10322,
    "neglect": 25668,
    "Ġunfrequently": 20738,
    "Ġparish": 8853,
    "Ġmolasses": 25628,
    "Ġeasiest": 23536,
    "Ġsaluted": 14756,
    "nelson": 25620,
    "bted": 7794,
    "Ġmadden": 10446,
    "Ġmothers": 14539,
    "application": 12360,
    "Ġdeliberation": 19967,
    "float": 19804,
    "mpt": 6653,
    "Ġcommentaries": 20159,
    ".}": 20744,
    "Ġbride": 6291,
    "Ġearnestly": 5979,
    "Ġspecimens": 18858,
    "Ġimpro": 913,
    "grounds": 11150,
    "Ġsatisf": 2805,
    "Ġkilburn": 18351,
    "Ġwarmth": 6905,
    "Ġrocking": 10968,
    "Ġepisode": 26346,
    "Ġintently": 8169,
    "Ġroman": 8323,
    "Ġincommunicable": 26610,
    "footman": 17161,
    "lever": 2932,
    "Ġshin": 18227,
    "Ġushered": 18360,
    "ught": 2750,
    "pistol": 17641,
    "azore": 23461,
    "loat": 8885,
    "Ġeight": 3899,
    "awn": 3831,
    "bal": 2156,
    "Ġcutting": 4983,
    "Ġri": 3397,
    "Ġpiazza": 26449,
    "Ġatrocious": 21941,
    "iliar": 15710,
    "bred": 11468,
    "Ġrevolver": 14896,
    "americ": 8156,
    "engagement": 14456,
    "oted": 4597,
    "Ġarched": 10931,
    "Ġdesign": 4131,
    "Ġvillanous": 24051,
    "Ġassuming": 16692,
    "Ġjoyously": 19345,
    "Ġlook": 879,
    "furthest": 19840,
    "Ġundesired": 12775,
    "Ġscener": 10948,
    "Ġspecific": 2002,
    "Ġindies": 22949,
    "Ġchristmas": 6924,
    "Ġvagueness": 25737,
    "Ġroots": 11184,
    "Ġneighb": 14074,
    "antingly": 22096,
    "Ġquarters": 8619,
    "Ġdrank": 16534,
    "Ġsends": 14787,
    "opement": 10310,
    "Ġgen": 5296,
    "ed": 293,
    "musical": 25340,
    "sacred": 17027,
    "Ġhelper": 24023,
    "person": 7746,
    "itt": 572,
    "Á": 130,
    "Ġpredict": 676,
    "21": 10070,
    "urpation": 16298,
    "Ġartfully": 22608,
    "Ġconsid": 1815,
    "kington": 11202,
    "Ġremembr": 24168,
    "committed": 18737,
    "Ġprofounder": 23567,
    "Ġpreposter": 12819,
    "Ġhospitals": 24923,
    "watery": 19825,
    "Ġphilipp": 23882,
    "ceased": 21624,
    "sticks": 25964,
    "nearer": 22448,
    "Ġabrid": 22270,
    "Ġimpute": 18333,
    "Ġdespaired": 14667,
    "isters": 11916,
    "Ġvelvet": 12395,
    "shining": 18494,
    "Ġwitt": 17783,
    "Ġvineyards": 25106,
    "liber": 18814,
    "brance": 7284,
    "ib": 1234,
    "Ġaddressing": 11163,
    "ch": 321,
    "Ġperennial": 22692,
    "Ġarchipelagoes": 14346,
    "Ġrachel": 11844,
    "prophecy": 22848,
    "sip": 10724,
    "Ġrestlessness": 23292,
    "Ġemails": 13103,
    "uine": 13797,
    "widows": 25344,
    "surrounded": 26088,
    "Ġgabriel": 7595,
    "gentle": 5356,
    "yielded": 25756,
    "Ġdaft": 19662,
    "oboam": 9356,
    "Ġquoted": 22413,
    "Ġflanks": 11912,
    "Ġespe": 21154,
    "commendation": 26348,
    "Ġcured": 21345,
    "Ġtrue": 1342,
    "Ġexperience": 1341,
    "beries": 22718,
    "girdling": 26388,
    "Ġarch": 935,
    "Ġprompted": 23814,
    "Ġallurements": 22068,
    "Ġlaid": 3938,
    "Ġnorthward": 13318,
    "Ġswords": 19896,
    "islands": 21374,
    "Ġcuba": 25095,
    "devouring": 24950,
    "Ġtwit": 12926,
    "Ġhangs": 11604,
    "grinder": 23413,
    "Ġlegible": 23532,
    "enes": 5218,
    "Ġunhallowed": 17179,
    "ė": 216,
    "Ġgloves": 8574,
    "Ġredu": 1355,
    "rad": 2253,
    "advise": 24216,
    "Ġthrough": 602,
    "searching": 25103,
    "ipotence": 22362,
    "Ġworshipped": 25691,
    "this": 1439,
    "Ġcomplacency": 19446,
    "enborough": 21284,
    "Ġtermination": 16458,
    "ull": 1432,
    "bedded": 13224,
    "Ġswash": 23053,
    "Ġregular": 936,
    "Ġvideos": 13603,
    "Ġniag": 21528,
    "Ġpe": 851,
    "tastes": 21095,
    "Ġcontemptible": 16952,
    "Ġgallery": 10523,
    "Ġic": 9624,
    "Ġeyelashes": 26106,
    "Ġmundane": 26428,
    "Ġrelics": 16193,
    "fixedly": 24929,
    "Ġwrithing": 11943,
    "Ġrecovering": 11860,
    "Ġinfer": 7684,
    "varying": 13802,
    "flung": 16637,
    "mine": 5617,
    "Ġcircumspect": 15082,
    "Ġxi": 16427,
    "tum": 11530,
    "Ġshowing": 7732,
    "Ġvisions": 12973,
    "acetti": 13393,
    "Ġpresumably": 19623,
    "eliest": 14744,
    "Ġbreaching": 23346,
    "Ġgushed": 21605,
    "Ġtease": 18799,
    "romised": 14110,
    "Ġdespairing": 14771,
    "cular": 15326,
    "Ġimprinted": 22391,
    "Ġsow": 17748,
    "Ġwhitney": 11372,
    "turn": 4290,
    "atum": 21258,
    "assertion": 22309,
    "ties": 2757,
    "Ġarrange": 3122,
    "Ġdeep": 828,
    "Ġbrill": 8549,
    "Ġriots": 23890,
    "eldest": 22794,
    "hercules": 22205,
    "Ġgraze": 18226,
    "sius": 13786,
    "oline": 6834,
    "Ġclubbed": 26546,
    "Ġnovel": 6695,
    "Ġbelief": 5855,
    "van": 7815,
    "Ġexpiring": 16092,
    "Ġwrinkles": 8570,
    "ailed": 3250,
    "desol": 13064,
    "Ġthinker": 22809,
    "Ġfriesland": 26441,
    "Ġbeholding": 8668,
    "penetrating": 25490,
    "andish": 18153,
    "Ġcorpulence": 24505,
    "Ġpie": 13913,
    "Ġmotionless": 8324,
    "Ġfascinated": 25635,
    "Ġsoup": 7067,
    "Ġyork": 11663,
    "arpo": 1756,
    "deav": 2673,
    "landish": 11939,
    "Ġthink": 986,
    "Ġcanopy": 18322,
    "rust": 2580,
    "^": 66,
    "Ġcit": 10782,
    "Ġfreer": 23206,
    "Ġconjectured": 9995,
    "aract": 17894,
    "lance": 12478,
    "Ġharpooneers": 4732,
    "sticking": 21652,
    "ppa": 10238,
    "ir": 379,
    "Ġprematurely": 24003,
    "tting": 17679,
    "Ġtechn": 9366,
    "Ġremnants": 22792,
    "Ġslyness": 25266,
    "Ġcircum": 8258,
    "15": 12427,
    "Ġinanimate": 13931,
    "Ġweep": 7619,
    "fisher": 7547,
    "inguish": 9395,
    "Ġheightens": 24152,
    "Ġdeserted": 8636,
    "Ġblind": 3714,
    "Ġfinanc": 23127,
    "john": 11496,
    "jumped": 20245,
    "Ġaids": 12225,
    "Ġreverend": 15257,
    "Ġcertain": 1559,
    "cloth": 11934,
    "Ġsplend": 9896,
    "Ġarduous": 26530,
    "Ġ101": 24408,
    "mortal": 10111,
    "Ġ129": 24473,
    "Ġhave": 445,
    "sings": 4250,
    "Ġsunlight": 13082,
    "Ġcomplied": 14732,
    "Ġplunging": 14950,
    "accustomed": 13154,
    "Ġmingled": 12374,
    "Ġpoured": 8799,
    "Ġinterpreted": 1713,
    "Ġstring": 11824,
    "spond": 5566,
    "individual": 18436,
    "inous": 8771,
    "Ġtelegraph": 25583,
    "Ġsluggishly": 25891,
    "Ġresist": 7917,
    "ellent": 3760,
    "Ġflavor": 16248,
    "irty": 4048,
    "cabin": 8363,
    "Ġtemporary": 7981,
    "!_âĢĶ": 19971,
    "Ġdisgu": 8206,
    "Ġirish": 14533,
    "Ġwisest": 11231,
    "Ġsting": 10860,
    "Ġpersecut": 16951,
    "roar": 17952,
    "Ġsolve": 4195,
    "Ġannihilation": 15163,
    "Ġslowly": 3618,
    "iful": 2882,
    "Ġlottery": 19887,
    "Ġinfinite": 8576,
    "Ġtinged": 20081,
    "Ġducks": 25157,
    "nostr": 22723,
    "Ġscho": 4434,
    "Ġwalk": 1827,
    "Ġbohemian": 17132,
    "commanded": 16987,
    "Ġcle": 1512,
    "Ġconvolutions": 21805,
    "Ġsplash": 16547,
    "Ġrescales": 5068,
    "trad": 21075,
    "cursed": 23841,
    "_,": 2798,
    "Ġunce": 11708,
    "Ġfern": 21405,
    "Ġtoilette": 20491,
    "Ġceremonies": 24836,
    "Ġcountrymen": 23593,
    "Ġcork": 12565,
    "cturn": 17986,
    "Ġfootmen": 23796,
    "aught": 2679,
    "Ġevince": 24292,
    "Ġdying": 2134,
    "Ġindulge": 10581,
    "Ġcanvassed": 19933,
    "Ġevid": 3500,
    "condem": 16341,
    "folding": 24927,
    "Ġbasement": 24702,
    "Ġfreighted": 16320,
    "Ġescapes": 23505,
    "Ġseen": 1368,
    "inea": 7623,
    "brown": 15315,
    "²": 115,
    "utored": 15659,
    "Ġsilvery": 13091,
    "Ġantiquity": 15228,
    "Ġregulate": 22578,
    "comparison": 25840,
    "Ġisinglass": 21800,
    "Ġexploit": 19161,
    "Ġnovelist": 24777,
    "Ġfastening": 16354,
    "enderby": 25215,
    "Ġlightly": 13081,
    "Ġestimates": 3746,
    "arp": 2027,
    "Ġmutiny": 13256,
    "Ġfootmarks": 19336,
    "Ġinsurmountable": 16529,
    "content": 11196,
    "Ġprobed": 18732,
    "gl": 3294,
    "birth": 15320,
    "i": 77,
    "Ġhousehold": 8567,
    "Ġboone": 11838,
    "clopÃ¦": 13051,
    "Ġhumour": 7932,
    "Ġbrazier": 26320,
    "missing": 13215,
    "ictions": 14224,
    "Ġingen": 9048,
    "tawny": 26403,
    "Ġpistol": 7847,
    "Ġblessed": 6931,
    "Ġstead": 5650,
    "Ġfacts": 2287,
    "Ġyer": 15730,
    "promising": 24726,
    "Ġminim": 1326,
    "yra": 8103,
    "Ġeffusions": 18517,
    "Ġstruck": 3391,
    "ell": 398,
    "Ġgu": 1330,
    "merit": 19280,
    "Ġbachelors": 24860,
    "ently": 1447,
    "ostentatious": 20651,
    "Ġdiabolically": 25513,
    "Ġcommon": 1414,
    "Ġdissu": 18550,
    "Ġringing": 13328,
    "Ġdiligent": 25075,
    "Ġvector": 1973,
    "Ġclimbing": 20068,
    "accomplished": 17210,
    "Ġproclaim": 18131,
    "Ġinhabited": 12182,
    "ustry": 18356,
    "Ġstile": 21730,
    "Ġpittance": 15613,
    "Ġsatirical": 26279,
    "possession": 12218,
    "flagged": 23969,
    "mass": 12486,
    "Ġwonders": 7500,
    "gossip": 23402,
    "trunk": 23945,
    "Ġseats": 14087,
    "Ġdepicting": 22605,
    "Ġsurviving": 24638,
    "get": 1022,
    "Ġpoisonous": 24887,
    "Ġagrees": 22514,
    "Ġautomatically": 3515,
    "wed": 5003,
    "upwards": 18864,
    "azing": 7705,
    "Ġinsincere": 26598,
    "Ġ60": 14873,
    "ó": 180,
    "odhead": 18117,
    "Ġfeeling": 3086,
    "bread": 10683,
    "restraint": 18980,
    "unexpected": 15774,
    "Ġcleanse": 24526,
    "Ġbachelor": 7787,
    "Ġtwentieth": 18659,
    "Ġbeeches": 9225,
    "impe": 21706,
    "mun": 20961,
    "Ġsnake": 12058,
    "Ġvanish": 8926,
    "Ġkate": 15902,
    "endent": 15919,
    "Ġsneezing": 12244,
    "mology": 12488,
    "Ġstru": 2170,
    "considerably": 13442,
    "Ġpen": 1534,
    "Ġactionable": 24558,
    "Ġtribes": 20479,
    "Ġpreacher": 18369,
    "Ġcook": 3710,
    "Ġwhe": 438,
    "Ġperpendicularly": 11373,
    "iasm": 8061,
    "sc": 1259,
    "Ġfearlessness": 19160,
    "Ġgrounded": 23710,
    "skelter": 24489,
    "Ġitaly": 10866,
    "Ġwhitting": 18055,
    "magn": 10609,
    "Ġornament": 11717,
    "Ġargosy": 24272,
    "mystical": 25317,
    "shells": 26056,
    "Ġundu": 15834,
    "Ġextort": 22721,
    "mbly": 9792,
    "lanterns": 17427,
    "eted": 7591,
    "Ġmatrix": 1608,
    "Ġpalace": 16689,
    "wow": 21120,
    "Åĵuv": 15180,
    "madness": 14880,
    "Ġnamely": 20688,
    "Ġdarcy": 1345,
    "Ġcapstan": 9097,
    "Ġ9": 5901,
    "coloured": 7291,
    "ole": 9612,
    "cription": 20817,
    "threw": 21982,
    "Ġanimating": 23422,
    "Ġincluding": 2846,
    "Ġknelt": 12155,
    "doublo": 24660,
    "Ġdimmed": 24266,
    "Ġbumpkin": 20199,
    "Ġcranes": 20381,
    "Ġtracing": 18888,
    "Ġstranger": 3485,
    "Ġsevered": 18205,
    "initely": 7568,
    "chant": 4257,
    "Ġvisibly": 22877,
    "cim": 8719,
    "fol": 4862,
    "Ġvint": 18194,
    "Ġmimic": 3147,
    "wanderer": 25423,
    "lested": 14881,
    "typewritten": 26038,
    "ickering": 22668,
    "labours": 16616,
    "Ġsayest": 22775,
    "dman": 10087,
    "Ġgore": 17988,
    "ter": 359,
    "Ġsubterranean": 13608,
    "Ġcorpusants": 13675,
    "wantonly": 25149,
    "Ġsudden": 1999,
    "Ġmarbank": 23033,
    "amet": 586,
    "Ġringleader": 26212,
    "Ġdyspepsia": 20642,
    "Ġdispositions": 13230,
    "Ġeaves": 15672,
    "erxes": 21274,
    "started": 10844,
    "Ġpa": 2991,
    "retion": 9360,
    "Ġshetland": 22157,
    "Ġdeserve": 8309,
    ".": 18,
    "looked": 6084,
    "Ġspur": 18303,
    "knowing": 10436,
    "Ġnourishment": 15190,
    "Ġcistern": 17379,
    "Ġadvice": 4901,
    "Ġfoes": 11948,
    "Ġmeanwhile": 5736,
    "rosc": 17954,
    "Ġsne": 6372,
    "Ġkra": 18348,
    "crown": 13696,
    "Ġperseus": 10602,
    "Ġhorn": 6185,
    "repeat": 25151,
    "Ġexactness": 23602,
    "Ġblameless": 19858,
    "Ġfragment": 14488,
    "Ġeast": 5370,
    "Ġsearching": 13159,
    "hmael": 7342,
    "tered": 2228,
    "Ġscarlet": 13219,
    "rah": 8137,
    "Ġutilize": 4798,
    "grasp": 16428,
    "iliation": 10859,
    "Ą": 197,
    "Ġ56": 24323,
    "Ġpeg": 22687,
    "Ġdust": 5909,
    "Ġ68": 24369,
    "Ġbrooded": 23102,
    "Ġbias": 1192,
    "Ġliberal": 12187,
    "Ġlogic": 13074,
    "allet": 11081,
    "Ġquote": 18466,
    "tempestuous": 26097,
    "bbs": 23690,
    "bro": 4032,
    "Ġcoop": 14268,
    "ceremony": 20588,
    "Ġauthority": 7749,
    "Ġhoneymoon": 25645,
    "Ġnumbers": 2888,
    "Ġimpatiently": 8338,
    "friendship": 24045,
    "Ġsurvived": 14932,
    "towing": 17688,
    "Ġadmiring": 16478,
    "Ġproficiency": 19191,
    "Ġslight": 3120,
    "y": 93,
    "ashed": 3782,
    "¼": 125,
    "used": 3263,
    "abominable": 20592,
    "dashed": 12452,
    "Ġoffend": 16141,
    "Ġstared": 8454,
    "Ġevanesc": 24293,
    "parted": 21015,
    "Ġtrem": 6659,
    "instruct": 19541,
    "captain": 3951,
    "wondering": 19844,
    "Ġstony": 21737,
    "Ġadvert": 10570,
    "Ġrecklessness": 24745,
    "Ġelbows": 18636,
    "Ġcommodore": 12392,
    "Ġdriver": 16472,
    "osque": 22260,
    "ollen": 11297,
    "Ġwandered": 6930,
    "Ġdread": 3168,
    "impart": 21707,
    "pless": 6260,
    "Ġexponentiating": 3447,
    "Ġscot": 5643,
    "inex": 14094,
    "Ġobjectionable": 16990,
    "ingham": 21299,
    "Ġissu": 6253,
    "wheeler": 16186,
    "Ġconversations": 9423,
    "horror": 13156,
    "pillar": 5618,
    "Ġmedical": 9462,
    "Ġmug": 21311,
    "Ġshivered": 14106,
    "quis": 7871,
    "Ġundiscernible": 22062,
    "Ġrud": 8477,
    "pips": 21019,
    "Ġmumbling": 11572,
    "Ġwhirlp": 16962,
    "Ġloathed": 15872,
    "Ġrat": 4353,
    "Ġwithdrawing": 11339,
    "approbation": 11457,
    "Ġgradual": 20600,
    "fters": 20860,
    "Ġconsider": 2567,
    "Ġgirdled": 19157,
    "Ġhence": 4989,
    "Ġmechanically": 14401,
    "Ġimplore": 24872,
    "jac": 8382,
    "Ġinspecting": 24614,
    "Ġsult": 10766,
    "balanced": 14554,
    "bles": 7017,
    "Ġglove": 14491,
    "sure": 5522,
    "Ġdetail": 635,
    "Ġyards": 5371,
    "Ġtidy": 17092,
    "Ġagreement": 18543,
    "Ġtang": 13812,
    "yourself": 6742,
    "Ġhand": 859,
    "fal": 17535,
    "ically": 836,
    "calmed": 16201,
    "Ġhitting": 21485,
    "Ġquant": 6424,
    "Ġbreezes": 14867,
    "mentioned": 10622,
    "Ġtack": 5620,
    "Ġmeanness": 22594,
    "station": 10843,
    "owards": 4594,
    "Î": 143,
    "elopement": 23156,
    "drove": 16992,
    "Ġopenly": 8572,
    "Ġimpart": 11777,
    "Ġmagnitude": 1945,
    "compass": 9457,
    "copy": 5133,
    "Ġspot": 4154,
    "ulity": 10885,
    "second": 6543,
    "Ġcigaret": 16975,
    "imperturbable": 25790,
    "Ġseason": 5238,
    "Ġwretch": 6378,
    "Ġacquaintances": 17348,
    "Ġaccomplished": 7104,
    "Ġpawnbroker": 13655,
    "lads": 20954,
    "Ġwhiff": 21716,
    "burgh": 6773,
    "Ġsingle": 1693,
    "garden": 15024,
    "Ġhearse": 10419,
    "leisure": 21369,
    "Ġengineer": 11971,
    "Ġhandsomest": 20333,
    "parameter": 3123,
    "Ġjulia": 22300,
    "gia": 20875,
    "delay": 16697,
    "Ġinterlude": 16067,
    "Ġcrowding": 13275,
    "Ġappe": 1543,
    "sequ": 2400,
    "obed": 14444,
    "Ġathe": 17740,
    "Ġable": 3083,
    "pper": 3212,
    "Ġpreparation": 13526,
    "Ġseam": 3906,
    "pat": 10115,
    "Ġattendance": 12178,
    "consider": 6348,
    "Ġplainpalais": 20736,
    "90": 12429,
    "Ġblessings": 24174,
    "globe": 25142,
    "Ġpleases": 16295,
    "sor": 7352,
    "Ġcrests": 25685,
    "bug": 17491,
    "generosity": 23785,
    "eneva": 5118,
    "Ġinterlacing": 22574,
    "Ġshepherd": 14151,
    "Ġconvincing": 19307,
    "Ġswaths": 23056,
    "Ġautumn": 14503,
    "Ġerection": 23998,
    "Ġlawy": 9452,
    "preserving": 25304,
    "form": 494,
    "Ġauthors": 10413,
    "Ġpondered": 15164,
    "positive": 20566,
    "hoisting": 23715,
    "Ġghosts": 12229,
    "_": 67,
    "gast": 20870,
    "Ġanomalous": 25637,
    "unpardonable": 21888,
    "Ġranges": 2883,
    "Ġgreeks": 20011,
    "ag": 377,
    "Ġtracks": 18889,
    "archbishop": 22888,
    "urmount": 13994,
    "private": 13579,
    "Ġslain": 8952,
    "Ġsubt": 11865,
    "hour": 7340,
    "anse": 12572,
    "chanced": 18810,
    "izens": 18135,
    "Ġrationally": 18215,
    "thousands": 16869,
    "Ġluxuries": 25163,
    "arned": 21819,
    "Ġall": 422,
    "aul": 6352,
    "tick": 17677,
    "deceptive": 22146,
    "Ġlanguages": 1569,
    "Ġderive": 10393,
    "insufficient": 15487,
    "movement": 25578,
    "Ġpicking": 11258,
    "Ġsoda": 25534,
    "Ġaffords": 16733,
    "Ġdiscomposed": 25580,
    "Ġham": 3423,
    "Ġerror": 1766,
    "Ġcertainty": 6734,
    "impression": 15707,
    "Ġprovide": 7750,
    "Ġpipes": 9851,
    "ensions": 14257,
    "Ġstress": 18066,
    "lant": 20946,
    "Ġbrigs": 20321,
    "ugnance": 12364,
    "intelligence": 5883,
    "Ġrelates": 12976,
    "Ġobject": 1396,
    "sorting": 17003,
    "Ġcolog": 12567,
    "dening": 22779,
    "Ġexactly": 2767,
    "Ġbl": 1190,
    "Ġsavannah": 17414,
    "Ġenjoying": 11233,
    "usually": 10283,
    "Ġidolator": 19996,
    "smart": 23904,
    "Ġyanke": 18097,
    "ushed": 2973,
    "Ġabed": 22263,
    "Ġlanding": 11981,
    "Ġbust": 10166,
    "mil": 13750,
    "Ġripples": 25505,
    "Ġraised": 4660,
    "Ġtongs": 9959,
    "Ġuninterrupted": 22040,
    "abling": 1079,
    "Ġgibraltar": 25787,
    "one": 615,
    "indeed": 4487,
    "Ġserpentine": 11359,
    "commotion": 24913,
    "Ġheavily": 6740,
    "Ġsustenance": 19932,
    "Ġwond": 3936,
    "vulgar": 25918,
    "obedience": 17408,
    "Ġripple": 25504,
    "hyp": 15364,
    "Ġimpressions": 9551,
    "sery": 17660,
    "ates": 518,
    "phr": 18701,
    "alescing": 23864,
    "Ġimpossible": 3543,
    "superiority": 20184,
    "Ġmowers": 17812,
    "poise": 6171,
    "Ġcurtain": 14414,
    "earthquakes": 24725,
    "Ġgaieties": 24193,
    "Ġ65": 24367,
    "Ġdiscours": 18718,
    "apparat": 22842,
    "Ġreplacing": 3450,
    "Ġextending": 11020,
    "Ġevangelical": 25506,
    "tumult": 12420,
    "Ġrudeness": 17123,
    "Ġlet": 1112,
    "Ġhealed": 21681,
    "Ġlowest": 11121,
    "Ġgodly": 19078,
    "Ġsmack": 9298,
    "Ġmajestic": 8639,
    "altogether": 12636,
    "sail": 3602,
    "encies": 4079,
    "Ġperception": 9748,
    "dear": 6555,
    "Ġaccosted": 13670,
    "Ġinterest": 2245,
    "Ġplausible": 26552,
    "sect": 8153,
    "Ġamongst": 8958,
    "sou": 12502,
    "Ġinstantly": 3591,
    "Ġmanage": 7640,
    "Ġmonsters": 11073,
    "shaken": 16022,
    "Ġfri": 17878,
    "senses": 25022,
    "Ġpel": 17902,
    "Ġlizzie": 26461,
    "Ġbennet": 1576,
    "Ġjail": 22292,
    "urbed": 15705,
    "Ġgrandeur": 8627,
    "permission": 15893,
    "Ġsuns": 23273,
    "emone": 21923,
    "hen": 3518,
    "Ġprocopius": 19729,
    "hold": 3980,
    "dipped": 20836,
    "Ġnobleman": 19390,
    "Ġaberdeen": 26540,
    "Ġadequate": 20307,
    "Ġswaying": 15045,
    "Ġwrath": 16314,
    "Ġtoiling": 15631,
    "Ġcadiz": 17323,
    "Ġcreeping": 18686,
    "Ġbodily": 6106,
    "Ġforces": 12699,
    "Ġacknowledge": 13399,
    "Ġexpired": 18622,
    "Ġabraham": 18395,
    "Ġdon": 1614,
    "Ġweaver": 11685,
    "Ġwines": 21286,
    "continuing": 24478,
    "Ġbarricade": 14659,
    "Ġ76": 24261,
    "Ġdisguises": 25055,
    "disappo": 8983,
    "Ġcapricious": 20537,
    "eteenth": 20156,
    "Ġprolong": 6833,
    "Ġsphynx": 20711,
    "Ġmonth": 2848,
    "ouraged": 22852,
    "Ġanvil": 11595,
    "Ġinclude": 1875,
    "Ġloathing": 15067,
    "Ġbattering": 13899,
    "luyt": 18454,
    "egyptians": 25898,
    "Ġupdates": 1298,
    "Ġbalance": 2021,
    "aried": 10986,
    "Ġvictims": 19803,
    "Ġpermitting": 22397,
    "Ġbutterfly": 19909,
    "Ġaccidents": 10294,
    "Ġslips": 23165,
    "Ġbore": 5079,
    "ports": 13772,
    "Ġcontr": 1916,
    "cream": 15329,
    "Ġconfirming": 25321,
    "otted": 14022,
    "felix": 10652,
    "Ġimmort": 19482,
    "Ġeventually": 8616,
    "Ġexternal": 8365,
    "cannibal": 15222,
    "Ġoccup": 3738,
    "Ġcrow": 3802,
    "Ġtherein": 11772,
    "Ġunerringly": 18262,
    "borrowed": 20791,
    "give": 4689,
    "Ġequatorial": 13506,
    "yourselves": 24958,
    "Ġrunning": 3949,
    "succeeded": 15173,
    "wonderful": 16959,
    "Ġoy": 15542,
    "Ġdisastrous": 16057,
    "Ġob": 862,
    "archangel": 18780,
    "Ġmisled": 22757,
    "advancing": 14834,
    "isely": 4488,
    "Ġsoap": 14129,
    "Ġsaint": 15505,
    "Ġgri": 17987,
    "Ġwigwam": 11427,
    "Ġ10": 5249,
    "Ġpantheistic": 26335,
    "Ġprivately": 19522,
    "Ġvolcano": 24145,
    "orand": 21395,
    "wam": 10134,
    "reinforcement": 7827,
    "Ġtwinkling": 12321,
    "Ġamaz": 5385,
    "ops": 5247,
    "Ġtops": 14585,
    "former": 11745,
    "Ġdrown": 6815,
    "semic": 21818,
    "soup": 21057,
    "Ġcursed": 6727,
    "englishman": 23675,
    "surround": 16757,
    "Ġheavenly": 12081,
    "see": 3049,
    "Ġkirwin": 8496,
    "Ġerrors": 2596,
    "Ġbenevolence": 9525,
    "Ġwrite": 3818,
    "Ġresults": 7308,
    "Ġinsensibly": 20074,
    "Ġroaring": 10967,
    "Ġkiller": 19567,
    "Ġeddy": 13120,
    "brill": 16489,
    "summon": 23414,
    "Ġpinioned": 21480,
    "cl": 1492,
    "Ġtoller": 9089,
    "ulence": 15762,
    "Ġbrand": 16184,
    "fluttering": 23970,
    "Ġfring": 11126,
    "sho": 6425,
    "Ġgranted": 22805,
    "Ġprairie": 8712,
    "Ġprophet": 7681,
    "uzz": 4523,
    "wh": 510,
    "libr": 22921,
    "Ġrecollected": 8311,
    "Ġirregular": 9863,
    "å": 166,
    "ifully": 13181,
    "become": 14245,
    "Ġessence": 13402,
    "Ġasyl": 12731,
    "inte": 5144,
    "cup": 10689,
    "Ġhay": 11603,
    "fatigue": 20657,
    "Ġcaravan": 26290,
    "nlp": 8750,
    "Ġgame": 3628,
    "Ġsubs": 2128,
    "irectly": 6940,
    "offic": 7466,
    "Ġinterpre": 1590,
    "Ġminute": 4277,
    "loops": 12879,
    "eel": 11482,
    "fits": 13716,
    "ipelag": 12841,
    "france": 24281,
    "Ġmajesty": 5201,
    "cri": 17504,
    "Ġsuppress": 13020,
    "Ġcompre": 4447,
    "Ġbrix": 12580,
    "hig": 12471,
    "befriend": 22491,
    "Ġowners": 7663,
    "Ġroot": 2649,
    "Ġide": 2121,
    "circumst": 5348,
    "irons": 10237,
    "moral": 14799,
    "hist": 7130,
    "Ġturing": 7566,
    "unk": 4538,
    "final": 19675,
    "Ġwickham": 2205,
    "neighbour": 7211,
    "ps": 4574,
    "Ġshakespeare": 20306,
    "la": 10704,
    "Ġregrets": 18592,
    "Ġtrample": 20326,
    "Ġwith": 348,
    "pus": 3416,
    "secur": 18125,
    "Ġgathers": 24743,
    "--âĢľ": 12968,
    "row": 1069,
    "dev": 7631,
    "ither": 1550,
    "proble": 9392,
    "Ç": 136,
    "Ġarchly": 22776,
    "Ġworshippers": 25693,
    "prisoner": 20542,
    "Ġaut": 1779,
    "Ġcorrid": 9822,
    "Ġneskyeuna": 26458,
    "Ġmadame": 13147,
    "Ġpiqu": 21475,
    "claims": 25319,
    "Ġskiff": 16161,
    "Ġintact": 21987,
    "Ġvow": 10245,
    "methodically": 20663,
    "Ġconscience": 6929,
    ".)": 6783,
    "stays": 15684,
    "Ġbend": 9169,
    "paused": 17372,
    "Ġglossy": 15225,
    "Ġfundamentals": 14634,
    "Ġponies": 21474,
    "Ġunit": 1849,
    "ethics": 8876,
    "heidelburgh": 21210,
    "Ġbooks": 4675,
    "belonged": 25597,
    "Ġspeeding": 23562,
    "falling": 24360,
    "Ġenveloped": 12205,
    "Ġconfound": 23303,
    "damp": 15341,
    "slipped": 25529,
    "isl": 21373,
    "dred": 2527,
    "Ġturkish": 12258,
    "meant": 7922,
    "Ġwilling": 7421,
    "Ġdeduce": 8337,
    "flu": 9116,
    "looks": 12014,
    "mber": 7804,
    "Ġchannel": 26012,
    "Ġweapons": 10592,
    "crack": 19839,
    "Ġromans": 16758,
    "Ġaside": 5234,
    "sprang": 19989,
    "Ġjudges": 14684,
    "Ġballs": 9013,
    "Ġaspect": 3098,
    "Ġforgotten": 5679,
    "Ġmomentous": 16169,
    "on": 267,
    "Ġeulogy": 26469,
    "ampton": 18144,
    "mary": 8748,
    "Ġunholy": 26218,
    "Ġshadowed": 24042,
    "peace": 13044,
    "Ġterrific": 6754,
    "Ġillust": 8263,
    "Ġsufficient": 2003,
    "Ġgrieved": 8297,
    "Ġirene": 8444,
    "m": 81,
    "Ġheard": 1401,
    "scra": 13017,
    "Ġpointed": 4773,
    "Ġbureau": 11588,
    "Ġbony": 12584,
    "Ġtouches": 20569,
    "Ġbeautiful": 3671,
    "Ġtestimony": 14473,
    "Ġxv": 23405,
    "justine": 7683,
    "Ġframework": 1896,
    "Ġrobert": 10969,
    "Ġvirginia": 13497,
    "Ġsuccession": 12098,
    "asingly": 17960,
    "Ġactions": 6278,
    "Ġjack": 4652,
    "village": 25422,
    "jud": 4481,
    "becoming": 18522,
    "Ġdew": 14043,
    "remembered": 17349,
    "Ġsuccour": 20433,
    "flaming": 23967,
    "Ġlxi": 21559,
    "Ġawful": 6199,
    "onness": 21253,
    "Ġimitated": 18331,
    "Ġrevolut": 3261,
    "twenty": 6607,
    "cement": 2712,
    "agery": 21905,
    "Ġdif": 871,
    "expectation": 14854,
    "Ġglide": 22984,
    "Ġpursuit": 4733,
    "Ġje": 4122,
    "entiating": 3439,
    "Ġgreatness": 12940,
    "Ġcocoan": 20315,
    "Ġble": 5223,
    "Ġtongue": 6347,
    "Ġuncomp": 15838,
    "Ġunintelligible": 26513,
    "tempest": 16958,
    "Ġdefray": 22939,
    "Ġread": 1449,
    "Ġcrocod": 19627,
    "Ġinfat": 14499,
    "Ġdiscove": 16152,
    "Ġstrang": 4160,
    "beards": 22490,
    "Ġjacobian": 2892,
    "Ġpress": 5932,
    "Ġimpotently": 22392,
    "Ġcasement": 25092,
    "Ġmode": 8497,
    "Ġconspicuous": 13600,
    "lies": 15379,
    "landlord": 9838,
    "early": 20117,
    "unreasonable": 18162,
    "actions": 8905,
    "raved": 18012,
    "Ġlegitimate": 20641,
    "Ġcomplaints": 12261,
    "Ġsupper": 4665,
    "Ġhandles": 22695,
    "Ġcoun": 4176,
    "Ġskil": 14350,
    "sink": 11520,
    "Ġslily": 23163,
    "Ġitem": 12698,
    "voices": 21116,
    "Ġseal": 10255,
    "Ġshaster": 21996,
    "loom": 18536,
    "Ġoxford": 11370,
    "endure": 22223,
    "august": 11070,
    "formality": 22214,
    "Ġcandidate": 16700,
    "Ġstraightway": 9015,
    "ensibility": 22545,
    "Ġoverwhelmed": 11402,
    "Ġingenious": 12345,
    "Ġportents": 14678,
    "Ġlevers": 18077,
    "Ġark": 10275,
    "Ġstrateg": 1392,
    "/`": 12426,
    "Ġrejoined": 14925,
    "Ġthames": 13936,
    "inform": 10142,
    "itably": 10781,
    "leag": 21364,
    "ivot": 11715,
    "sk": 5521,
    "ribs": 23364,
    "phon": 4126,
    "Ġconfused": 7964,
    "iners": 4937,
    "Ġfinery": 23125,
    "Ġtinkling": 25212,
    "oard": 4809,
    "allen": 22194,
    "Ġcler": 11767,
    "clump": 23153,
    "Ġwildest": 16508,
    "aited": 12432,
    "Ġbeh": 1804,
    "helpless": 16789,
    "Ġune": 4598,
    "Ġmerchants": 23731,
    "Ġraved": 22649,
    "Ġplaned": 24052,
    "Ġultimately": 17163,
    "Ġinflicted": 11364,
    "hatred": 24821,
    "joice": 9601,
    "Ġasiatic": 20428,
    "que": 1127,
    "vess": 7354,
    "Ġdecap": 16017,
    "ientiously": 21930,
    "reading": 12076,
    "Ġmidst": 7986,
    "derbyshire": 18321,
    "Ġbowsprit": 16558,
    "difficulty": 12387,
    "fight": 17537,
    "Ġhollows": 19740,
    "Ġerskine": 17430,
    "Ġit": 339,
    "Ġblasted": 7937,
    "probable": 17020,
    "Ġsleeping": 6319,
    "Ġchocks": 13342,
    "Ġyou": 366,
    "Ġfundament": 2927,
    "Ġmention": 2988,
    "avo": 8517,
    "robe": 15638,
    "eye": 6224,
    "Ġjuly": 17235,
    "Ġdedicated": 19208,
    "mrs": 3743,
    "Ġdining": 6977,
    "hunting": 24384,
    "ring": 1753,
    "except": 5383,
    "Ġdriving": 3617,
    "Ġthanked": 9456,
    "Ġengrossed": 12992,
    "ologist": 22850,
    "Ġsport": 6688,
    "wart": 17704,
    "Ġpush": 9182,
    "Ġsun": 1720,
    "Ġpopularly": 12238,
    "Ġcriminal": 7537,
    "Ġtamely": 24979,
    "Ġstrategy": 2516,
    "perch": 18336,
    "own": 744,
    "sneezes": 11445,
    "Ġdagger": 21436,
    "Ġfinally": 4666,
    "Ġcountenances": 11962,
    "Ö": 151,
    "presbyterian": 26368,
    "Ġgarn": 13961,
    "op": 658,
    "Ġspool": 24806,
    "Ġstop": 2501,
    "Ġdecay": 1015,
    "Ġvacancy": 9043,
    "stayed": 25290,
    "Ġrecover": 9790,
    "Ġimpatience": 7509,
    "destroy": 19509,
    "worse": 14689,
    "ption": 7398,
    "Ġbarrowful": 25595,
    "Ġoverthrow": 18431,
    "Ġmastery": 23990,
    "Ġbenjam": 22890,
    "barn": 17481,
    "Ġbasin": 19847,
    "passion": 11259,
    "ascal": 10191,
    "Ġsimpler": 2048,
    "Ġcircumference": 13542,
    "Ġwards": 17789,
    "Ġbuffalo": 11428,
    "Ġsigns": 2443,
    "Ġrapidity": 11099,
    "Ġcos": 2207,
    "Ġtigers": 25758,
    "Ġbreaks": 13180,
    "Ġbristles": 25843,
    "Ġboundary": 11221,
    "wr": 3028,
    "third": 8168,
    "nuts": 15396,
    "mers": 9609,
    "Ġknot": 7011,
    "Ġchron": 19436,
    "Ġmarines": 16255,
    "alling": 6037,
    "Ġinterrupted": 6343,
    "forth": 9320,
    "Ġgoverning": 2794,
    "Ġstructures": 2720,
    "Ġaccumulates": 2890,
    "figures": 20120,
    "Ġmund": 21317,
    "Ġhealth": 3901,
    "helmsman": 24286,
    "Ġearliest": 9829,
    "glimmer": 26321,
    "Ġclinging": 10290,
    "Ġroll": 5381,
    "Ġaccumul": 1412,
    "Ġ121": 24465,
    "bourn": 3305,
    "Ġtapers": 11550,
    "Ġrue": 11864,
    "Ġvarious": 3509,
    "ĥ": 230,
    "fugitive": 26131,
    "Ġdre": 1745,
    "constellation": 24608,
    "Ġgrand": 3592,
    "Ġdevote": 10337,
    "Ġmanager": 11766,
    "pike": 11513,
    "Ġ122": 24466,
    "sounded": 12263,
    "Ġgarb": 21601,
    "maker": 12489,
    "Ġhessian": 3548,
    "fifty": 12349,
    "native": 17610,
    "ield": 2409,
    "Ġparticle": 18674,
    "Ġbehavioral": 11395,
    "Ġinconsistency": 26182,
    "Ġlays": 15982,
    "assistance": 20369,
    "pocket": 9807,
    "star": 12668,
    "istical": 8489,
    "itional": 22466,
    "numerous": 17429,
    "aiian": 23590,
    "Ġengland": 3855,
    "Ġbanished": 10615,
    "ulnerable": 18150,
    "Ġrise": 5637,
    "Ġhaggerston": 26451,
    "ribed": 7693,
    "Ġmodes": 22211,
    "Ġdetect": 1179,
    "apped": 5395,
    "Ġol": 17814,
    "itty": 3554,
    "Ġjudging": 16594,
    "Ġgaining": 9490,
    "Ġcurly": 18847,
    "Ġopenshaw": 7955,
    "`": 68,
    "arthly": 8030,
    "Ġsuffer": 4722,
    "withstand": 23023,
    "flames": 14710,
    "maintained": 25020,
    "eries": 6808,
    "Ġmotions": 8281,
    "Ġlimping": 23544,
    "infliction": 25924,
    "inary": 3278,
    "Ġnerves": 2627,
    "Ġruled": 22784,
    "Ġhabitations": 24789,
    "feit": 16042,
    "Ġliable": 14227,
    "Ġweig": 7618,
    "Ġderick": 9363,
    "Ġsurrounded": 5879,
    "displayed": 20735,
    "Ġvultures": 25653,
    "Ġmuch": 924,
    "Ġconnections": 971,
    "ned": 3492,
    "Ġexistence": 4706,
    "#": 7,
    "Ġelig": 9776,
    "Ġvor": 15803,
    "Ġinputs": 844,
    "Ġcruises": 23704,
    "Ġglobu": 23271,
    "Ġyarns": 15193,
    "Ġdeliber": 7268,
    "Ġhighlands": 22774,
    "urre": 10855,
    "conven": 6162,
    "ratulations": 20124,
    "club": 26379,
    "sweet": 8685,
    "civilized": 17074,
    "sur": 4522,
    "unfortunate": 15773,
    "Ġrepulsive": 14529,
    "Ġpertur": 12847,
    "Ġmended": 21312,
    "ots": 3298,
    "Ġswimmer": 19457,
    "Ġabounding": 12341,
    "moderate": 22846,
    "Ġpoem": 22587,
    "Ġflows": 13005,
    "whenever": 11878,
    "Ġslipping": 13357,
    "linging": 16075,
    "mult": 8747,
    "dum": 17517,
    "Ġthou": 1812,
    "Ġfail": 4148,
    "Ġoffensive": 18698,
    "ricity": 23062,
    "Ġleast": 2064,
    "weaving": 18666,
    "Ġcellar": 8059,
    "alas": 8802,
    "anean": 7443,
    "shoes": 14239,
    "watch": 6118,
    "Ġhump": 5853,
    "affa": 23775,
    "Ġholding": 4979,
    "renewed": 19703,
    "Ġsilently": 6895,
    "Ġrepaid": 19080,
    "shone": 22451,
    "asting": 12803,
    "lace": 13746,
    "remaining": 20219,
    "Ġadmirer": 16837,
    "sax": 21055,
    "Ġmic": 17797,
    "an": 278,
    "Ġintroduce": 3208,
    "threadbare": 25989,
    "Ġreliably": 22878,
    "Ġripe": 13232,
    "affairs": 14655,
    "uts": 8814,
    "Ġpractical": 3169,
    "Ġbou": 17852,
    "Ġscept": 15501,
    "useless": 14593,
    "Ġallowed": 4057,
    "Ġappropriate": 2246,
    "oir": 21001,
    "bul": 6951,
    "Ġaw": 2509,
    "Ġmonths": 3456,
    "cond": 1667,
    "Ġsensitivity": 3072,
    "painful": 13499,
    "Ġstoper": 14461,
    "Ġwallowing": 24040,
    "Ġcister": 13880,
    "nevertheless": 8286,
    "Ġtimid": 6345,
    "offing": 23332,
    "Ġlids": 12272,
    "erring": 11056,
    "Ġimpenet": 14220,
    "Ġprehens": 22229,
    "Ġexcellence": 11450,
    "oused": 6556,
    "Ġretention": 23070,
    "Ġgum": 21593,
    "willingness": 24755,
    "oniously": 21256,
    "Ġravines": 25831,
    "Ġhats": 14617,
    "Ġtyphoons": 20233,
    "acled": 16078,
    "Ġseals": 11694,
    "employed": 17260,
    "custom": 15331,
    "youth": 11872,
    "Ġwrap": 24595,
    "Ġprofundities": 20452,
    "Ġagrippa": 11804,
    "Ġrequirements": 9786,
    "Ġcarpent": 4464,
    "Ġshoe": 14566,
    "Ġambiguous": 20163,
    "Ġimpending": 22386,
    "Ġplace": 1654,
    "Ġbigness": 19759,
    "pleasantness": 19769,
    "Ġsepulchral": 25892,
    "testing": 12513,
    "sake": 13781,
    "Ġpossible": 2584,
    "aut": 1914,
    "inv": 8401,
    "Ġradiating": 24334,
    "Ġbrown": 6298,
    "Ġappearing": 9839,
    "opes": 10309,
    "Ġtwain": 16116,
    "Ġunwarrant": 20132,
    "Ġpreferment": 19852,
    "apple": 22838,
    "Ġsympat": 13337,
    "advantage": 8658,
    "genteel": 19947,
    "Ġgods": 6454,
    "Ġbil": 15561,
    "Ġedward": 19119,
    "Ġazure": 12371,
    "Ġquartered": 20371,
    "prevent": 11792,
    "Ġtinker": 15129,
    "ush": 3631,
    "uteness": 17985,
    "cigar": 26124,
    "breadth": 20275,
    "attacks": 23122,
    "characteristic": 24685,
    "Ġletting": 10360,
    "Ġcounter": 6481,
    "Ġaddresses": 3767,
    "Ġquaff": 22412,
    "hav": 20896,
    "Ġgradu": 15829,
    "etuous": 21581,
    "Ġsuccor": 25662,
    "Ġnews": 3816,
    "warm": 8102,
    "Ġherself": 1568,
    "osely": 9263,
    "N": 50,
    "forced": 11029,
    "Ġus": 498,
    "bular": 15311,
    "Ġtroops": 24898,
    "Ġundertaken": 18987,
    "Ġmusical": 23891,
    "Ġbled": 17856,
    "Ġirritation": 20265,
    "cheap": 23803,
    "anche": 10787,
    "igations": 18043,
    "Ġapprehens": 5682,
    "Ġapproximates": 2418,
    "uten": 11620,
    "Ġvide": 10249,
    "Ġactuated": 18545,
    "Ġmatch": 4528,
    "Ġright": 1505,
    "Ġparaph": 22118,
    "ahit": 9380,
    "Ġexchange": 15749,
    "Ġgaping": 13967,
    "Ġmiddle": 4137,
    "prise": 7727,
    "Ġexplanations": 15908,
    "Åĵ": 10743,
    "meadow": 18676,
    "resnet": 4069,
    "Ġbart": 17857,
    "Ġpyth": 21459,
    "steam": 23957,
    "Ġhelmsman": 10503,
    "apes": 9739,
    "ees": 13709,
    "Ġinsufferable": 13929,
    "hurried": 11352,
    "inu": 1117,
    "Ġscared": 14188,
    "itching": 21333,
    "Ġcollect": 7237,
    "ispiece": 19724,
    "Ġforged": 12701,
    "poster": 11055,
    "Ġbell": 4635,
    "Ġvehem": 22889,
    "Ġrefreshing": 20263,
    "do": 1995,
    "Ġbitterly": 8315,
    "xter": 9145,
    "Ġevils": 9018,
    "Ġ135": 24785,
    "Ġopposite": 5120,
    "feet": 6568,
    "Ġreader": 11931,
    "disp": 7977,
    "Ġmediocr": 24081,
    "Ġembarr": 7446,
    "grace": 5846,
    "Ġmonarch": 14413,
    "ium": 4864,
    "Ġweedy": 15789,
    "grie": 12467,
    "Ġenviron": 3974,
    "rop": 540,
    "Ġpatagonian": 20534,
    "Ġlogs": 16344,
    "Ġcharge": 5324,
    "Ġdumbly": 24987,
    "Ġsig": 868,
    "musket": 25341,
    "Ġignominy": 15083,
    "yours": 7695,
    "between": 5071,
    "whiskers": 12308,
    "Ġattached": 5392,
    "Ġcorpse": 6638,
    "people": 7677,
    "Ġpeaks": 16125,
    "ounded": 9746,
    "Ġjen": 9265,
    "inqu": 6121,
    "Ġhapp": 1091,
    "rians": 21928,
    "Ġfath": 7364,
    "Ġstagnant": 24654,
    "Ġrattled": 15066,
    "Ġfourth": 7707,
    "Ġinnoc": 3792,
    "Ġscheduling": 2350,
    "odd": 21807,
    "Ġcharms": 11129,
    "hundred": 8331,
    "Ġobtru": 18677,
    "ste": 3584,
    "Ġstopped": 5957,
    "S": 55,
    "relate": 24008,
    "pun": 9616,
    "Ġwindward": 6885,
    "prolong": 23393,
    "Ġgrandfather": 19420,
    "Ġshapes": 14107,
    "Ġsakes": 18326,
    "Ġtelling": 5747,
    "ondon": 2706,
    "Ġturbid": 23609,
    "Ġreprehensible": 15695,
    "darker": 24512,
    "Ġsket": 18728,
    "unnatural": 15769,
    "Ġwhispering": 14943,
    "Ġtorm": 5434,
    "Ġsli": 4748,
    "----": 4056,
    "Ġthoughtful": 16189,
    "Ġbaling": 17859,
    "Ġpince": 21469,
    "exact": 7911,
    "Ġchiswick": 25560,
    "Ġpomp": 12619,
    "Ġanalyzing": 18802,
    "Ġtashtego": 4486,
    "Ġlambton": 10656,
    "idge": 14012,
    "ca": 20792,
    "patched": 17642,
    "fif": 9115,
    "arr": 3047,
    "Ġscaramouch": 23825,
    "Ġconference": 15743,
    "Ġabating": 22265,
    "information": 12390,
    "Ġpatroness": 13507,
    "Ġinfancy": 10408,
    "atigable": 15268,
    "ieces": 4772,
    "Ġdreamy": 14701,
    "impressed": 12688,
    "office": 16389,
    "Ġperfect": 2556,
    "Ġnatures": 16504,
    "Ġkilled": 4955,
    "Ġtests": 8956,
    "Ġinasmuch": 10824,
    "rodu": 1820,
    "Ġliber": 5168,
    "soldiers": 25911,
    "Ġseem": 915,
    "dances": 17520,
    "Ġtalks": 23368,
    "Ġspared": 7894,
    "questions": 16759,
    "Ġexposed": 8522,
    "Ġblow": 3376,
    "Ġprecautions": 23725,
    "Ġagents": 9764,
    "hered": 5622,
    "Ġcoroner": 7510,
    "Ġribbons": 24328,
    "Ġloads": 22112,
    "Ġult": 9073,
    "burn": 8371,
    "merely": 16129,
    "Ġgenerate": 1491,
    "Ġconsiderable": 4005,
    "Ġungracious": 18255,
    "Ġjoppa": 12033,
    "Ġrepented": 23361,
    "Ġbelike": 18830,
    "Ġunprovided": 18257,
    "Ġfalsehood": 10522,
    "Ġtrib": 13817,
    "perse": 15890,
    "Ġdesisted": 22973,
    "spring": 7231,
    "Ġazores": 20192,
    "Ġinequalities": 26452,
    "warmly": 25026,
    "coming": 3562,
    "Ġherring": 14125,
    "Ġsong": 5903,
    "Ġ[_": 15459,
    "dock": 16415,
    "Ġcould": 703,
    "Ġwilson": 6629,
    "malicious": 19901,
    "developed": 15262,
    "Ġblotting": 25313,
    "Ġbead": 21748,
    "Ġpostscript": 14805,
    "Ġcontinents": 16848,
    "Ġhilarious": 20297,
    "commission": 22808,
    "mand": 3892,
    "Ġpapered": 20129,
    "Ġsupernatural": 9871,
    "Ġfatal": 5871,
    "adru": 15727,
    "Ġunmolested": 15243,
    "Ġscrutin": 26014,
    "wel": 6117,
    "tide": 11531,
    "marest": 20979,
    "Ġcelest": 9899,
    "Ġcastaway": 16639,
    "Ġeuropean": 20044,
    "Ġpoker": 13920,
    "Ġsacrificial": 24871,
    "remarks": 23187,
    "Ġpeevish": 26556,
    "Ġcalculated": 4474,
    "Ġresolved": 3795,
    "Ġpromised": 5181,
    "Ġrepressed": 21666,
    "Ġimpersonal": 17395,
    "Ġdraught": 9842,
    "Ġthoroughfare": 16943,
    "Ġdard": 21421,
    "Ġcreative": 9828,
    "retreat": 23134,
    "ortunity": 4402,
    "furthermore": 20002,
    "violent": 14579,
    "Ġaltitude": 26202,
    "Ġcompass": 4407,
    "Ġnail": 9194,
    "Ġdoct": 4453,
    "unvarying": 21885,
    "Ġmeasureless": 14708,
    "Ġ183": 13235,
    "Ġfrighten": 13274,
    "Ġrehearsed": 25971,
    "Ġveiled": 16198,
    "Ġes": 8768,
    "blu": 12437,
    "Ġscant": 22283,
    "Ġshut": 3939,
    "ċ": 204,
    "Ġinsurg": 23679,
    "ape": 1907,
    "Ġunderstand": 833,
    "Ġfull": 2177,
    "approach": 24833,
    "Ġreading": 5114,
    "aching": 5831,
    "thickness": 25367,
    "Ġenglishman": 11228,
    "racted": 4776,
    "Ġworm": 9161,
    "best": 6111,
    "Ġfritters": 23256,
    "Ġwrote": 5011,
    "Ġcompany": 3719,
    "Ġskulls": 12956,
    "Ġsleeps": 10445,
    "calling": 12446,
    "Õ": 150,
    "goodbye": 12053,
    "ground": 4671,
    "Ġdented": 17891,
    "Ġafar": 14290,
    "appalled": 18759,
    "broad": 8642,
    "bonnet": 25742,
    "moreover": 12965,
    "lilies": 20960,
    "Ġstr": 762,
    "perpetually": 20510,
    "Ġhuggins": 24828,
    "omen": 4085,
    "pockets": 16207,
    "Ġpent": 17901,
    "ols": 2413,
    "heaved": 21209,
    "Ġtip": 15469,
    "window": 7743,
    "ias": 6362,
    "aside": 10190,
    "wretch": 17707,
    "Ġ93": 24592,
    "Ġlikes": 9406,
    "ribute": 7227,
    "Ġfiftieth": 24703,
    "Ġharpooned": 13258,
    "Ġpicture": 4856,
    "Ġappet": 9728,
    "Ġoccas": 2703,
    "Ġdressed": 5081,
    "Ġrespecting": 14482,
    "Ġangel": 4852,
    "Ġmur": 2488,
    "Ġacid": 22680,
    "Ġdreadfully": 7726,
    "Ġflitting": 13022,
    "Ġcarbuncle": 14443,
    "Ġchief": 3383,
    "rob": 5533,
    "Ġdisguise": 10044,
    "Ġdecanting": 22441,
    "Ġdetain": 14172,
    "murdered": 12199,
    "hued": 20910,
    "observed": 7675,
    "trouble": 8295,
    "guilt": 24065,
    "consequence": 9761,
    "Ġmarking": 16467,
    "Ġmask": 1866,
    "Ġstabbed": 25456,
    "suddenly": 6493,
    "Ġsand": 6235,
    "Ġstaves": 21738,
    "Ġabsorbed": 12328,
    "Ġgovernor": 16488,
    "Ġopened": 3512,
    "Ġrelate": 6875,
    "progra": 9393,
    "Ġsculpt": 15944,
    "Ġwisely": 13268,
    "mindful": 19598,
    "Ġtinted": 13820,
    "Ġvibrating": 13535,
    "Ġhurts": 19111,
    "Ġcour": 1769,
    "Ġdolphin": 17310,
    "Ġprelimin": 8859,
    "ë": 172,
    "awake": 14450,
    "Ġreaders": 18914,
    "ina": 21178,
    "Ġjeer": 24122,
    "Ġfaded": 10808,
    "halloa": 17089,
    "Ġyawn": 7609,
    "Ġperemptory": 25740,
    "Ġruefully": 17299,
    "supposed": 13312,
    "Ġsubsets": 2346,
    "suggest": 20374,
    "Ġaccordingly": 6619,
    "Ġwrought": 11941,
    "Ġcoarse": 14272,
    "Ġtwitch": 22674,
    "Ġinduce": 7763,
    "comprehend": 14357,
    "Ġincidents": 9297,
    "lady": 4431,
    "ake": 750,
    "university": 25983,
    "steelkilt": 10045,
    "Ġdarkened": 16430,
    "Ġforeseen": 16441,
    "two": 3858,
    "Ġreproofs": 24892,
    "tooth": 18579,
    "Ġimplicate": 24876,
    "Ġsentiment": 6589,
    "Ġaxis": 12304,
    "latitudes": 17195,
    "Ġtoday": 12640,
    "Ġdistinctly": 7311,
    "Ġteach": 8552,
    "Ġcusack": 26432,
    "owers": 12681,
    "ental": 7168,
    "atics": 15520,
    "tch": 9140,
    "sub": 4659,
    "umnal": 18300,
    "Ġelusive": 22645,
    "enstern": 17781,
    "shore": 10304,
    "Ġeager": 3570,
    ".]": 15296,
    "Ġcornelius": 13570,
    "Ġoptimizer": 5035,
    "ire": 492,
    "Ġbreathe": 9010,
    "Ġstoke": 10394,
    "mp": 3725,
    "Ġdraws": 19434,
    "Ġcav": 13878,
    "Ġemploy": 3615,
    "bewil": 22497,
    "Ġchamounix": 14862,
    "ified": 3229,
    "nyder": 16685,
    "tales": 17685,
    "Ġderives": 16306,
    "Ġcapsizing": 20087,
    "ificant": 22203,
    "Ġreceiving": 4882,
    "wherever": 13115,
    "Ġcolours": 12970,
    "Ġsidelong": 11437,
    "ay": 355,
    "Ġtheories": 13847,
    "Ġrelative": 11880,
    "Ġhudson": 15189,
    "Ġdaily": 5987,
    "Ġlichen": 20090,
    "Ġelephant": 8256,
    "Ġhideousness": 16914,
    "Ġfireplace": 13142,
    "nurtured": 25524,
    "rip": 9239,
    "eter": 11619,
    "abby": 14019,
    "Ġboston": 22639,
    "Ġsquares": 11168,
    "ician": 21563,
    "Ġsubsiding": 23432,
    "eked": 16399,
    "tolerable": 17687,
    "Ġbroad": 3639,
    "Ġnind": 17949,
    "gor": 548,
    "pious": 17632,
    ";âĢĻ": 15300,
    "Ġwatchman": 23667,
    "higher": 20405,
    "addressing": 24400,
    "iferous": 17290,
    "illings": 14141,
    "rying": 3190,
    "luck": 5733,
    "?--": 15301,
    "Ġicy": 10746,
    "befall": 22494,
    "Ġcrash": 11998,
    "mbling": 3347,
    "Ġext": 888,
    "Ġentertainment": 12219,
    "concl": 12866,
    "Ġcontrols": 1733,
    "Ġmulti": 1046,
    "Ġthrew": 3971,
    "gr": 2086,
    "authority": 13588,
    "Ġcringing": 25941,
    "Ġwh": 328,
    "Ġreusability": 13555,
    "december": 25558,
    "achine": 611,
    "rimsh": 17026,
    "postp": 24635,
    "Ġdavy": 25951,
    "thrasher": 25658,
    "ě": 220,
    "Ġparcels": 25465,
    "Ġfallen": 5968,
    "t": 88,
    "âĢĻ,": 14068,
    "arranted": 19319,
    "Ġgun": 4702,
    "gathered": 13730,
    "Ġbiographical": 22764,
    "ember": 1958,
    "analy": 17838,
    "Ġensemble": 1610,
    "Ġhit": 7163,
    "Ġmyth": 18220,
    "fishery": 10030,
    "Ġchaff": 18383,
    "kinson": 10024,
    "Ġco": 731,
    "Ġshouts": 19536,
    "fts": 18700,
    "Ġwhitened": 24867,
    "Ġbumps": 21390,
    "ocation": 14624,
    "liking": 22922,
    "Ġtortoise": 16907,
    "Ġsunrise": 9371,
    "evil": 11484,
    "Ġaslant": 21899,
    "Ġsuddenness": 23380,
    "Ġcore": 13876,
    "retched": 3070,
    "Ġro": 600,
    "Ġscuff": 15940,
    "Ġgpt": 4350,
    "Ġcurious": 3363,
    "Ġlying": 4825,
    "Ġlowers": 23240,
    "omn": 15686,
    "isher": 2878,
    "dwelling": 20563,
    "ssed": 3732,
    "Ġmodeling": 2095,
    "Ġrepining": 23359,
    "Ġribbed": 16803,
    "Ġhanding": 16127,
    "Ġdec": 643,
    "Ġstirs": 14915,
    "Ġburglar": 17353,
    "mis": 4520,
    "nns": 1893,
    "Ġunexampled": 20358,
    "Ġoverlooking": 22355,
    "Ġpersecutor": 26096,
    "susp": 10595,
    "Ġdoleful": 18377,
    "ond": 1161,
    "bearance": 22493,
    "Ġplead": 14453,
    "bon": 13682,
    "Ġanchored": 17438,
    "Ġcontriv": 9280,
    "makes": 10710,
    "Ġshocking": 10434,
    "visual": 24221,
    "Ġtried": 3647,
    "Ġattractions": 12915,
    "Ġrepelled": 19083,
    "Ġcenturies": 8622,
    "Ġstagger": 10590,
    "ran": 11514,
    "masculine": 24386,
    "Ġsatiated": 22900,
    "corners": 17366,
    "Ġspread": 5161,
    "Ġ82": 24457,
    "harpoons": 24284,
    "othing": 6995,
    "Ġunanswerable": 26520,
    "Ġreduces": 2344,
    "12": 20748,
    "Ġcrouching": 23442,
    "imson": 12686,
    "Ġdreaminess": 23937,
    "Ġtiresome": 26156,
    "Ġunallied": 22026,
    "collect": 16561,
    "Ġinscribed": 24938,
    "Ġstrives": 23693,
    "Ġwires": 21294,
    "Ġstandard": 14496,
    "gment": 4389,
    "Ġcheek": 8577,
    "Ġcan": 469,
    "Ġchiefly": 5766,
    "Ġgir": 2252,
    "Ġeducation": 5128,
    "Ġbrightly": 13220,
    "Ġencountered": 8322,
    "Ġprognost": 15279,
    "distrust": 19569,
    "Ġhearers": 15699,
    "tur": 5688,
    "Ġphara": 23197,
    "Ġrespectful": 16343,
    "skinned": 25387,
    "buckets": 26123,
    "ella": 12746,
    "Ġintroducing": 11972,
    "uble": 21101,
    "._": 3223,
    "Ġenjoys": 19448,
    "Ġbountiful": 25944,
    "Ġconcise": 23323,
    "Ġremotest": 10050,
    "Ġbar": 3151,
    "acks": 11785,
    "Ġalike": 8147,
    "Ġbump": 9658,
    "Ġbeak": 18079,
    "Ġrival": 10484,
    "Ġintervening": 17266,
    "Ġresigned": 9766,
    "deadly": 17099,
    "vere": 4883,
    "Ġwaving": 8575,
    "Ġaroused": 15900,
    "smith": 5669,
    "hoist": 23712,
    "straight": 9938,
    "Ġhumbly": 16195,
    "arken": 18667,
    "Ġdinner": 4243,
    "Ġfitly": 23996,
    "pretending": 17040,
    "amount": 10883,
    "Ġcabinet": 23859,
    "Ġglided": 7447,
    "Ġwicked": 5961,
    "anxiously": 15108,
    "Ġcorruption": 15223,
    "Ġoutline": 15951,
    "apology": 22331,
    "inkled": 5477,
    "resemblance": 25933,
    "Ġindelicacy": 25695,
    "Ġlandau": 16416,
    "Ġdecorated": 22443,
    "Ġancient": 5443,
    "Ġspin": 7629,
    "Ġattentions": 5878,
    "Ġpaved": 17910,
    "announcement": 24561,
    "Ġway": 1086,
    "Ġbenefit": 8293,
    "tains": 10961,
    "Ġhogshe": 20490,
    "Ġcarry": 4779,
    "Ġcolder": 22857,
    "investments": 25532,
    "Ġtomahawk": 7539,
    "Ġ59": 24326,
    "Ġinferiority": 17114,
    "Ġebony": 18008,
    "Ġindiam": 22951,
    "Ġcollectively": 19966,
    "flask": 12096,
    "Ġmon": 1250,
    "mor": 4215,
    "Ġdeploy": 2934,
    "erer": 8731,
    "Ġwhim": 13997,
    "dden": 1807,
    "Ġpret": 3035,
    "Ġexempt": 21826,
    "eds": 6674,
    "Ġpom": 21450,
    "eer": 15345,
    "norm": 20984,
    "Ġstraits": 7994,
    "rederick": 14078,
    "Ġprometheus": 15290,
    "Ġpregnant": 26534,
    "Ġburn": 3682,
    "upt": 13796,
    "Ġplanisphere": 26606,
    "monkey": 19169,
    "obviously": 25242,
    "Ġconjure": 17122,
    "aggra": 21904,
    "Ġhabitual": 24790,
    "Ġrans": 21964,
    "Ġfav": 1755,
    "ile": 520,
    "property": 19998,
    "Ġsluggish": 25890,
    "Ġmott": 17803,
    "Ġdeserved": 7737,
    "Ġsympathies": 14859,
    "reds": 12745,
    "Ġsquires": 16178,
    "Ġequival": 4783,
    "persuaded": 15071,
    "Ġpeeled": 14316,
    "Ġuntoward": 19164,
    "Ġcruis": 14622,
    "Ġexamples": 2605,
    "respectable": 19846,
    "whence": 23214,
    "ricted": 15418,
    "Ġepis": 19980,
    "Ġmagnifying": 16317,
    "Ġtasted": 12525,
    "hed": 671,
    "Ġbenignity": 18782,
    "Ġju": 10285,
    "âĢĺ": 940,
    "splice": 17169,
    "using": 5468,
    "Ġformations": 18748,
    "stad": 7597,
    "Ġpenny": 16311,
    "origin": 7581,
    "Ġuniverse": 14121,
    "Ġmanned": 9269,
    "Ġtranspired": 16783,
    "Ġpillow": 10036,
    "Ġconvulsive": 19306,
    "Ġpulled": 5660,
    "pleasing": 14740,
    "grow": 10097,
    "Ġrelations": 5852,
    "Ġwrecks": 16817,
    "Ġperseverance": 13594,
    "Ġmarrying": 6177,
    "Ġskeleton": 5514,
    "Ġeffort": 8202,
    "Ġvacancies": 24344,
    "Ġeven": 1028,
    "neighboring": 20615,
    "ang": 446,
    "whaling": 7900,
    "brated": 12023,
    "Ġcoachman": 14999,
    "Ġspermaceti": 8966,
    "irious": 15782,
    "oregressive": 3426,
    "Ġremoval": 12114,
    "runs": 25415,
    "Ġflorid": 17134,
    "olerably": 11671,
    "ientific": 6547,
    "Ġcomprehend": 6494,
    "discover": 10538,
    "humoured": 11235,
    "persuade": 13530,
    "Ġantiquities": 25598,
    "apable": 6422,
    "Ġmounting": 19975,
    "Ġ5": 4935,
    "ordinate": 12872,
    "Ġtelegra": 11888,
    "Ġwreak": 16816,
    "usions": 6159,
    "Ġsuavely": 26522,
    "Ġcome": 1240,
    "clings": 23150,
    "ded": 2422,
    "venth": 9293,
    "ishes": 6523,
    "bone": 5611,
    "brew": 11472,
    "Ġfiltering": 23923,
    "Ġunlock": 18240,
    "cen": 17501,
    "77": 15298,
    "Ġtap": 12522,
    "Ġfrance": 7682,
    "tisement": 6767,
    "prevailed": 17343,
    "tre": 8760,
    "istence": 2236,
    "tender": 14471,
    "Ġjerked": 19831,
    "more": 1034,
    "hun": 5210,
    "Ġgibberish": 25786,
    "Ġcomforted": 19389,
    "Ġwears": 10239,
    "vices": 21115,
    "Ġsway": 7571,
    "Ġbub": 8118,
    "Ġchanges": 2285,
    "Ġprender": 22233,
    "Ġunravel": 26214,
    "Ġcleansed": 26293,
    "Ġexceed": 1347,
    "Ġdispleased": 18555,
    "Ġtawny": 20480,
    "kins": 7345,
    "Ġlinked": 15075,
    "rig": 7556,
    "doubt": 6782,
    "Ġthen": 664,
    "Ġgovernment": 15174,
    "discernible": 20549,
    "Ġrun": 2355,
    "always": 5708,
    "Ġambition": 11431,
    "Ġthreading": 23400,
    "arth": 4441,
    "Ġboarded": 13231,
    "Ġancles": 21445,
    "Ġpulverize": 23391,
    "innocence": 15181,
    "alterable": 13621,
    "Ġwatchful": 16525,
    "ah": 1835,
    "blood": 7780,
    "Ġwhit": 7177,
    "bounded": 13436,
    "happen": 19330,
    "armed": 7251,
    "Ġobstetrics": 24678,
    "Ġimpropriety": 17394,
    "Ġstreat": 15717,
    "aunt": 8370,
    "etite": 21577,
    "=": 33,
    "ep": 443,
    "anoke": 21359,
    "anxiety": 25155,
    "Ġappearance": 3698,
    "bermaid": 20789,
    "Ġlargest": 6282,
    "Ġmasoned": 20250,
    "Ġdru": 8422,
    "Ġdivide": 12107,
    "Ġsees": 8841,
    "Ġbowels": 9428,
    "Ġretreating": 19798,
    "Ġwe": 388,
    "able": 452,
    "Ġr": 405,
    "itating": 9649,
    "Ġ77": 24262,
    "spirit": 11312,
    "abular": 4762,
    "Ġstraw": 9427,
    "Ġagile": 22511,
    "successively": 24779,
    "Ġdilatory": 24705,
    "build": 12184,
    "stra": 4044,
    "Ġwager": 17792,
    "mod": 1043,
    "Ġshiver": 12764,
    "Ġprejud": 6851,
    "Ġdare": 3545,
    "clearly": 25195,
    "Ġconvenience": 11330,
    "Ġ103": 24410,
    "Ġjagged": 18407,
    "walton": 20248,
    "Ġcolony": 18766,
    "Ġxxv": 19716,
    "Ġbulb": 23853,
    "strom": 15679,
    "Ġsinks": 19548,
    "Ġ89": 19711,
    "Ġscream": 5935,
    "illity": 18296,
    "Ġrhyme": 21976,
    "abilizing": 2925,
    "holding": 7739,
    "Ġcleaned": 23181,
    "non": 9610,
    "Ġpup": 12616,
    "Ġplaymate": 23636,
    "Ġgrasshopper": 24379,
    "Ġinsepar": 17933,
    "Ġfigures": 8629,
    "Ġreign": 13983,
    "Ġmarks": 6746,
    "Ġrepresents": 4902,
    "prov": 16420,
    "Ġglades": 19370,
    "sand": 21051,
    "Ġfingers": 5672,
    "Ġspecies": 5112,
    "Ġhundreds": 4327,
    "ington": 21300,
    "Ġirretrie": 23372,
    "velope": 17700,
    "Ġflag": 7242,
    "Ġcheese": 9375,
    "ĠĠĠĠĠĠĠĠĠĠĠĠĠĠĠĠĠĠĠĠĠĠĠĠĠĠĠĠĠĠĠ": 19699,
    "Ġbehoo": 19036,
    "Ġimpud": 18445,
    "ster": 1962,
    "Ġsystem": 571,
    "rain": 462,
    "Ġcring": 15548,
    "Ġcivil": 4679,
    "Ġpouring": 12621,
    "eration": 10771,
    "Ġarrows": 18343,
    "Ġenormous": 5608,
    "gratitude": 16815,
    "Ġcommissioned": 19894,
    "Ġimper": 4501,
    "sum": 2087,
    "Ġreser": 5170,
    "Ġsap": 18323,
    "Ġpropose": 9849,
    "furniture": 20241,
    "hew": 5364,
    "icient": 773,
    "concent": 19478,
    "Ġbowing": 10474,
    "Ġfare": 5809,
    "upid": 6582,
    "Ġdisown": 22522,
    "Ġinvestment": 24335,
    "Ġcarriages": 11097,
    "Ġconnectivity": 3666,
    "car": 4212,
    "Ġbedside": 19121,
    "Ġceasing": 23755,
    "Ġsignify": 16492,
    "Ġsupposed": 4557,
    "Ġ47": 14769,
    "Ġcrushing": 20175,
    "Ġrested": 9377,
    "instinctively": 26327,
    "Ġsled": 21217,
    "Ġperfection": 19218,
    "lowering": 16028,
    "sm": 3437,
    "Ġjuicy": 25370,
    "pidation": 18893,
    "Ġbrutality": 26276,
    "miles": 10711,
    "Ġho": 1932,
    "lord": 3863,
    "gods": 13363,
    "Ġpockets": 8894,
    "Ġengravings": 15065,
    "err": 1142,
    "signs": 16537,
    "Ġgigantic": 5915,
    "Ġunfinished": 19508,
    "itively": 21329,
    "Ġbravery": 23834,
    "Ġmarvellous": 7538,
    "Ġcolumbus": 26563,
    "Ġexceeding": 1582,
    "Ġchimneys": 16971,
    "'t": 3148,
    "smug": 23905,
    "Ġtemple": 7653,
    "Ġfrozen": 9011,
    "Ġchurned": 18385,
    "Ġhunts": 23157,
    "japan": 15372,
    "vari": 1519,
    "Ġbehaviour": 4383,
    "Ġbands": 14882,
    "Ġhandsom": 11123,
    "Ġtranquill": 6630,
    "Ġmists": 14628,
    "consist": 14813,
    "Ġprecipices": 12274,
    "Ġcabal": 23640,
    "boats": 6204,
    "ibly": 2998,
    "fulness": 4308,
    "eyeing": 14944,
    "Ġhop": 1461,
    "ĠmanÅĵuv": 18417,
    "hecy": 21205,
    "Ġhatty": 19264,
    "Ġanimation": 11151,
    "iously": 2676,
    "Ġforwards": 12700,
    "Ġbennett": 16321,
    "Ġbillow": 14776,
    "Ġgetting": 4064,
    "Ġvisage": 18772,
    "Ġcreator": 7254,
    "coo": 11169,
    "pal": 9615,
    "Ġhousekeeping": 18943,
    "Ġfreemason": 23208,
    "Ġjog": 18404,
    "Ġimaginary": 11185,
    "Ġclaw": 22348,
    "stuff": 15683,
    "Ġpencils": 23193,
    "Ġhunters": 6300,
    "simultaneously": 19863,
    "dare": 12450,
    "Ġproviding": 1360,
    "Ġdeactivates": 20702,
    "Ġdoran": 9178,
    "Ġeconomy": 17199,
    "Ġsystematic": 5245,
    "Ġmanner": 2196,
    "Ġsk": 962,
    "wouldn": 23534,
    "Ġalleghan": 25795,
    "swed": 24252,
    "Ġsermon": 12373,
    "Ġnailing": 21525,
    "everything": 6324,
    "Ġdream": 3538,
    "Ġinvisible": 7327,
    "Ġodd": 6624,
    "Ġoverhanging": 22359,
    "Ġchry": 22244,
    "Ġaright": 11737,
    "Ġobscure": 9552,
    "Ġruff": 14347,
    "Ġreigns": 21669,
    "Ġprior": 11317,
    "Ġunexpectedly": 19908,
    "dat": 1679,
    "Ġsolar": 22883,
    "Ġreconc": 9681,
    "Ġdaughters": 4420,
    "Ġchains": 8251,
    "Ġcatch": 4439,
    "uttle": 6247,
    "Ġexperiences": 13019,
    "Ġmutinous": 23955,
    "Ġweary": 5635,
    "until": 6596,
    "Ġwantonly": 22892,
    "orne": 17872,
    "striving": 24669,
    "eers": 20842,
    "Ġraiment": 22650,
    "reve": 12535,
    "Ġpertaining": 18450,
    "rival": 12740,
    "Ġbarbary": 24215,
    "ignantly": 23265,
    "draul": 9441,
    "houses": 9598,
    "ause": 1313,
    "abst": 21786,
    "Ġsqualls": 17019,
    "Ġhagger": 21489,
    "Ġdropping": 7483,
    "Ġmap": 2391,
    "queens": 22897,
    "¬": 110,
    "88": 20757,
    "Ġross": 2763,
    "Ġconversing": 14632,
    "Ġunreliable": 3926,
    "Ġspirit": 3722,
    "Ġdisadvantages": 18558,
    "Ġdoctrine": 24195,
    "Ġcomplimented": 14902,
    "Ġshot": 4543,
    "edmund": 17945,
    "Ġsympathy": 6346,
    "enterprise": 24994,
    "Ġburgled": 23655,
    "Į": 239,
    "Ġmachines": 1777,
    "Ġdeaths": 14536,
    "contrary": 23727,
    "Ġlittle": 867,
    "Ġdreadful": 4920,
    "frankenstein": 11390,
    "linearity": 1652,
    "Ġpromoting": 3166,
    "pictures": 15088,
    "Ġunflinching": 26511,
    "Ġmisunderstood": 18707,
    "position": 15411,
    "hatches": 19927,
    "Ġemploying": 23975,
    "Ġsandwic": 24664,
    "Ġrobbed": 23035,
    "lung": 17590,
    "Ġhears": 8139,
    "Ġemerge": 14926,
    "serve": 13042,
    "indifference": 15979,
    "Ġsimilar": 4917,
    "Ġbeneficial": 23929,
    "Ġshipw": 12974,
    "le": 279,
    "Ġprejudice": 9074,
    "unicorn": 21887,
    "oken": 4305,
    "Ġskrimshander": 22798,
    "Ġsus": 18277,
    "reported": 24492,
    "omed": 13977,
    "Ġverd": 6919,
    "maj": 18804,
    "Ġvic": 5237,
    "Ġfulf": 6772,
    "Ġadoption": 24948,
    "'re": 12425,
    "orrah": 17875,
    "Ġcauldron": 25441,
    "attain": 21260,
    "Ġshapeless": 24523,
    "proceed": 8975,
    "ribes": 23365,
    "strongly": 24684,
    "contrasted": 17304,
    "nui": 20999,
    "Ġfears": 5729,
    "merc": 19279,
    "admitted": 18091,
    "Ġgeomet": 3195,
    "invite": 25088,
    "bub": 15314,
    "Ġviii": 16410,
    "rically": 15415,
    "tom": 15433,
    "cary": 10688,
    "orified": 21400,
    "Ġglad": 3328,
    "Ġcharming": 6628,
    "Ġconcil": 23322,
    "Ġph": 1551,
    "equally": 19898,
    "Ġbarbara": 24818,
    "Ġsupple": 22998,
    "Ġsly": 9631,
    "Ġplants": 22596,
    "Ġgreedily": 18965,
    "european": 26371,
    "Ġfeeding": 7972,
    "receiving": 12539,
    "Ġmates": 4872,
    "Ġresort": 18563,
    "Ġextreme": 2514,
    "erness": 6434,
    "Ġsworn": 14433,
    "Ġbubbling": 17324,
    "resides": 23670,
    "Ġdimens": 3153,
    "Ġmomentarily": 22811,
    "sent": 761,
    "Ġthere": 563,
    "answered": 10272,
    "Ġelementary": 24814,
    "impossible": 8822,
    "Ġcultivated": 17362,
    "Ġexhausting": 24710,
    "100": 11463,
    "Ġbrick": 8924,
    "iana": 7048,
    "Ġbarbed": 14833,
    "Ġretired": 6071,
    "Ġregal": 16069,
    "Ġconversed": 13183,
    "sense": 11522,
    "Ġincoherent": 17398,
    "uck": 1233,
    "Ġprecisely": 6466,
    "Ġgap": 21597,
    "Ġworshipping": 22926,
    "Ġoccur": 1083,
    "Ġshipmate": 8927,
    "Ġupd": 946,
    "iture": 5696,
    "Ġdid": 837,
    "iday": 8828,
    "Ġsat": 1133,
    "ardy": 22154,
    "firm": 10697,
    "Ġusurpation": 18361,
    "71": 20755,
    "conced": 22468,
    "Ġunctuous": 10265,
    "Ġfloundered": 18862,
    "ipher": 18432,
    "Ġdisrespect": 18553,
    "Ġtwelve": 4963,
    "sky": 12507,
    "Ġprimal": 17106,
    "ateg": 1388,
    "Ġatmosphere": 10896,
    "Ġunsur": 22016,
    "Ġnocturnal": 20714,
    "Ġrepeated": 3828,
    "Ġfejee": 18354,
    "emy": 14071,
    "handed": 7482,
    "ouch": 2778,
    "guess": 14759,
    "Ġbenefited": 19396,
    "Ġamidst": 9492,
    "humor": 19450,
    "Ġcinque": 20484,
    "venerable": 26407,
    "Ġfevers": 22207,
    "abetical": 15739,
    "Ġrelapses": 26278,
    "Ġawhile": 13828,
    "royal": 11392,
    "Ġexclamation": 8698,
    "frantic": 24282,
    "Ġtechniques": 2867,
    "Ġmizen": 17257,
    "Ġmabel": 17322,
    "hol": 3835,
    "Ġprofoundest": 16859,
    "Ġcontents": 7210,
    "Ġsucc": 12782,
    "tired": 21071,
    "Ġwarrior": 24495,
    "Ġcircles": 7967,
    "object": 6884,
    "================================================================": 9988,
    "presume": 25670,
    "raise": 18011,
    "consequ": 18506,
    "distinction": 19570,
    "Ġwoe": 4793,
    "Ġcatherine": 2812,
    "Ġardour": 8043,
    "abez": 10221,
    "oke": 1860,
    "Ġcables": 15554,
    "awe": 20764,
    "Ġrelationships": 2926,
    "Ġweeds": 21922,
    "call": 8722,
    "opp": 6963,
    "occurrences": 26331,
    "Ġpower": 1257,
    "Ġplayfulness": 23635,
    "Ġaper": 17742,
    "Ġhans": 12623,
    "ĠĠĠĠĠĠĠĠĠĠĠĠ": 12897,
    "gen": 6503,
    "Ġstrokes": 16768,
    "gallantry": 15059,
    "still": 4219,
    "opinion": 10983,
    "Ġcrumpled": 16440,
    "Ġplush": 18609,
    "Ġregularizer": 2340,
    "fro": 8732,
    "Ġpropont": 16347,
    "beauty": 20102,
    "Ġconsec": 21803,
    "Ġsacrificed": 17420,
    "Ġcarn": 17821,
    "Ġstark": 7390,
    "Ġsmoking": 6429,
    "ator": 1924,
    "mixed": 15392,
    "Ġreceptacle": 23190,
    "ifts": 12732,
    "¥": 103,
    "Ġnasty": 17441,
    "aisance": 15072,
    "Ġwelcome": 5603,
    "Ġconsistence": 23355,
    "wrote": 11545,
    "Ġshutters": 9935,
    "Ġmem": 2070,
    "Ġintermediate": 18588,
    "Ġsemantics": 2894,
    "Ġimperson": 14219,
    "Ġamaze": 22481,
    "ascending": 24707,
    "Ġencirc": 18731,
    "ids": 21761,
    "Ġcoinc": 11000,
    "Ġpack": 5444,
    "Ġpol": 2575,
    "lur": 13745,
    "Ġrepeating": 11212,
    "dart": 20825,
    "beloved": 19459,
    "Ġmutually": 23954,
    "lyph": 10851,
    "Ġcreatures": 4136,
    "spades": 14334,
    "iline": 21719,
    "Ė": 215,
    "Ġresting": 7962,
    "Ġexhaust": 6399,
    ",*": 17470,
    "Ġtowers": 16737,
    "Ġexhilar": 19682,
    "Ġweighing": 20014,
    "cannibals": 25584,
    "Ġservants": 6610,
    "assured": 10951,
    "heredit": 21208,
    "sheep": 23085,
    "Ġslumber": 13055,
    "rese": 15506,
    "adier": 18089,
    "declare": 25173,
    "Ġsimulation": 2751,
    "Ġimparted": 15986,
    "ille": 9218,
    "ily": 1033,
    "Ġbetween": 793,
    "Ġcumulative": 4211,
    "Ġtints": 17726,
    "ios": 2275,
    "Ġbetake": 22903,
    "bloom": 24689,
    "Ġdated": 10938,
    "Ġvain": 3629,
    "Ġreminding": 19796,
    "Ġcus": 21341,
    "oubtedly": 6943,
    "Ġprodigies": 19792,
    "Ġvicissitudes": 12416,
    "Ġbingleys": 18996,
    "Ġdeterminate": 23003,
    "Ġstraighten": 24001,
    "Ġstalls": 25647,
    "Ġvarying": 15807,
    "Ġ118": 19697,
    "dawson": 26128,
    "Ġsecond": 1891,
    "Ġtyro": 16993,
    "Ġmagnificence": 20631,
    "Ġigniting": 25070,
    "octavo": 11384,
    "Ġrust": 6408,
    "Ġperforming": 7928,
    "weather": 7229,
    "obvious": 9355,
    "ishnoo": 10954,
    "perplex": 18338,
    "Ġprogen": 14038,
    "opÃ¦": 12869,
    "Ġgleams": 17308,
    "Ġsighing": 18678,
    "Ġteasing": 11887,
    "Ġlamps": 14788,
    "Ġexpedition": 10632,
    "Ġmoves": 14230,
    "Ġdirections": 1972,
    "Ġcapture": 3386,
    "mr": 1903,
    "Ġsuspended": 5665,
    "Ġsympathise": 16793,
    ")": 13,
    "Ġmarshy": 20217,
    "ğ": 224,
    "Ġgreek": 10629,
    "Ġrnns": 2394,
    "spr": 7435,
    "corpse": 24485,
    "Ġsimultaneous": 22586,
    "acquaintance": 6938,
    "ing": 273,
    "Ġlawless": 19433,
    "Ġsuperhuman": 23452,
    "Ġcarav": 18901,
    "Ġmore": 675,
    "trip": 21090,
    "ourably": 14373,
    "destroyed": 15258,
    "Ġdeg": 3285,
    "Ġcab": 2633,
    "Ġcarcase": 14442,
    "surprise": 9528,
    "Ġglaring": 11905,
    "Ġmasterless": 23992,
    "Ġzero": 1201,
    "Ġdescribes": 3124,
    "wers": 12516,
    "Ġtries": 9149,
    "Ġimmortal": 8018,
    "bation": 9101,
    "Ġball": 3623,
    "Ġbush": 23336,
    "Ġliter": 8810,
    "arrant": 10473,
    "reasoning": 9474,
    "Ġscruples": 15076,
    "Ġinterests": 14568,
    "Ġclubs": 25179,
    "reward": 15507,
    "lim": 9605,
    "nant": 17608,
    "Ġfries": 21414,
    "iant": 5427,
    "Ġadjac": 18292,
    "Ġpenetrating": 17010,
    "Ġbaffled": 12400,
    "Ġretrogress": 23072,
    "Ġtraps": 23079,
    "Ġcalhoun": 23043,
    "peare": 18911,
    "Ġthyself": 6602,
    "draw": 23896,
    "Ġacquirement": 19254,
    "Ġresulting": 24197,
    "Ġdialogue": 12401,
    "oured": 2671,
    "Ġchimer": 24603,
    "Ġreco": 9789,
    "Ġgiants": 25960,
    "Ġshow": 3404,
    "Ġtidings": 11396,
    "fights": 20864,
    "bling": 10077,
    "Ġassist": 3564,
    "circumstances": 8047,
    "atig": 13843,
    "Ġunsolved": 22027,
    "Ġsailor": 3536,
    "Ġfigure": 4206,
    "Ġverdant": 15001,
    "roses": 17956,
    "purpose": 10042,
    "Ġenabled": 9294,
    "valued": 2851,
    "Ġonly": 789,
    "Ġexplore": 15906,
    "Ġwhistles": 24625,
    "abounding": 25979,
    "Ġspices": 22128,
    "Ģ": 227,
    "Ġinvented": 17036,
    "Ġloss": 824,
    "remem": 13062,
    "Ġhers": 7890,
    "engaged": 7452,
    "Ġcombat": 16183,
    "Ġbutter": 6842,
    "Ġvoices": 7877,
    "Ġvalu": 5039,
    "gal": 15353,
    "grant": 10426,
    "Ġahoy": 12181,
    "Ġconcerning": 4068,
    "houn": 20892,
    "Ġcarter": 18900,
    "Ġintrepidity": 25550,
    "Ġpods": 17912,
    "ga": 17549,
    "aviour": 11003,
    "Ġswain": 18880,
    "Ġtranque": 14199,
    "Ġfearfulness": 23510,
    "Ġdefy": 11894,
    "Ġresult": 4459,
    "Ġterrify": 19359,
    "Ġpane": 21461,
    "Ġboat": 1278,
    "Ġsubsequent": 7659,
    "Ġsembl": 19059,
    "Ġbarque": 23789,
    "pendicular": 6499,
    "Ġpiercing": 13491,
    "first": 3931,
    "Ġconcl": 5095,
    "strugg": 21654,
    "letons": 14611,
    "Ġprotracted": 19467,
    "warmth": 20051,
    "Ġcoal": 18593,
    "Ġpolitely": 8992,
    "Ġtiger": 11553,
    "Ġpuzzling": 14894,
    "influ": 9539,
    "fatig": 17088,
    "remain": 9836,
    "icha": 11735,
    "gloves": 25143,
    "af": 2377,
    "Ġhumans": 8928,
    "unquiet": 21879,
    "Ġcod": 8412,
    "Ġfastened": 7065,
    "bastian": 10672,
    "Ġdiscover": 4718,
    "Ġoat": 21321,
    "onic": 7828,
    "reshold": 21238,
    "iles": 2859,
    "Ġidentical": 10433,
    "Ġpantry": 20294,
    "tstone": 21083,
    "porpoise": 16436,
    "Ġanne": 1532,
    "Ġmornings": 16233,
    "Ġrecompense": 14836,
    "Ġ128": 24472,
    "Ġugl": 12679,
    "Ġentertain": 6054,
    "ignant": 11128,
    "Ġvales": 21944,
    "ogene": 18671,
    "Ġinvited": 6903,
    "Ġlightnings": 16350,
    "Ġcircumspection": 25884,
    "Ġwhar": 7388,
    "representativeness": 25272,
    "bergs": 18682,
    "encoura": 15047,
    "Ġgrimes": 11033,
    "Ġparadise": 11193,
    "deduction": 23555,
    "ean": 20839,
    "Ġfake": 5810,
    "solemn": 19816,
    "bidden": 19735,
    "Ġtroubles": 19437,
    "Ġtot": 4184,
    "Ġtaught": 6803,
    "Ġparamore": 22120,
    "Ġassent": 12730,
    "Ġawaited": 17073,
    "lish": 1954,
    "Ġreally": 2159,
    "Ġmanhat": 22325,
    "last": 3800,
    "Ġdocile": 19957,
    "Ġharb": 7370,
    "Ġgle": 7859,
    "ources": 2787,
    "Ġhoping": 11102,
    "Ġeng": 1162,
    "body": 2307,
    "Ġcronies": 23441,
    "Ġheavy": 3742,
    "ulatory": 15764,
    "Ġindistinct": 17406,
    "Ġresources": 2939,
    "Ġlest": 6395,
    "trembling": 17141,
    "quered": 11054,
    "Ġdefence": 11066,
    "favouring": 24762,
    "determined": 9078,
    "Ġfancies": 10423,
    "regarding": 15069,
    "Ġfleet": 9430,
    "stone": 5089,
    "Ġpervers": 11780,
    "ken": 2800,
    "ieth": 10703,
    "lude": 6161,
    "been": 3346,
    "deemed": 18315,
    "helm": 12168,
    "Ġmu": 17795,
    "Ġdeserts": 10506,
    "writer": 14647,
    "Ġpartial": 2127,
    "Ġdefilements": 26284,
    "Ġinfatuated": 20532,
    "Ġhideous": 5983,
    "54": 15297,
    "Ġraven": 16111,
    "Ġessential": 7523,
    "Ġcord": 5222,
    "Ġmont": 8558,
    "Ġtyphoon": 12386,
    "Ġboldness": 24427,
    "Ġbales": 21387,
    "Ġfordham": 21774,
    "constantly": 24607,
    "bow": 5424,
    "Ġhonest": 7287,
    "Ġsixth": 16557,
    "Ġtingling": 15090,
    "Ġbank": 4877,
    "Ġfeature": 752,
    "Ġplaguy": 22602,
    "Ġaccounting": 14572,
    "Ġtweezers": 26555,
    "Ġshade": 6550,
    "thinks": 16640,
    "Ġinsufficient": 9671,
    "Ġafterwards": 3531,
    "Ġwakes": 11570,
    "Ġrug": 16154,
    "Ġgettest": 23231,
    "idav": 18092,
    "limping": 26392,
    "Ġlory": 12649,
    "Ġpostponed": 20388,
    "forgot": 11031,
    "changing": 10853,
    "preser": 9758,
    "Ġchrist": 4072,
    "dream": 8727,
    "Ġdenial": 13211,
    "Ġoverpowering": 15247,
    "lips": 13748,
    "Ġsimpleton": 16332,
    "gaff": 20881,
    "Ġexpecting": 10435,
    "ument": 5240,
    "Ġarea": 14185,
    "ires": 6038,
    "Ġsustained": 13479,
    "ample": 1363,
    "Ġpurposed": 23550,
    "Ġetern": 7085,
    "protected": 19920,
    "Ġinteresting": 4324,
    "Ġhearsed": 25039,
    "Ġtempest": 8213,
    "Ġembraced": 10004,
    "meanwhile": 10608,
    "Ġfronted": 25854,
    "Ġsenate": 25214,
    "Ġexplicit": 3588,
    "Ġboy": 3023,
    "Ġgestures": 13533,
    "Ġcrunched": 19123,
    "Ġpersuasions": 16630,
    "Ġhinting": 19648,
    "uttermost": 24940,
    "Ġapology": 8328,
    "fig": 8734,
    "Ġdemoniac": 15064,
    "Ġriggers": 24154,
    "Ġsliding": 9362,
    "ificent": 8184,
    "Ġfrank": 4418,
    "careful": 14864,
    "Ġtheology": 21275,
    "Ġwept": 7184,
    "Ġdoubling": 23320,
    "Ġinvolved": 8922,
    "watson": 12240,
    "urable": 8921,
    "Ġthinks": 6169,
    "ertion": 12036,
    "Ġmeddling": 24080,
    "Ġoverall": 4358,
    "ust": 495,
    "Ġtimorous": 24224,
    "Ġpagan": 7117,
    "Ġscenarios": 26541,
    "Ġnightfall": 23130,
    "Ġburke": 19250,
    "Ġunhappiness": 14115,
    "Ġcanaan": 22164,
    "assembled": 21543,
    "alization": 732,
    "kee": 18273,
    "hs": 8378,
    "Ġchip": 12822,
    "calmly": 20138,
    "Ġankers": 21444,
    "Ġbed": 2143,
    "Ġblu": 2685,
    "Ġwiping": 25765,
    "Ġdeliverer": 11947,
    "Ġstatue": 23147,
    "pump": 21016,
    "*": 14,
    "absence": 12705,
    "Ġtranquillize": 24757,
    "Ġinterconnected": 1340,
    "Ġ36": 14765,
    "asons": 6015,
    "onings": 21251,
    "Ġdemean": 12720,
    "Ġgladness": 16590,
    "friend": 3861,
    "gover": 10701,
    "Ġrogue": 22403,
    "Ġsoft": 1459,
    "infl": 15485,
    "Ġceaseless": 13485,
    "Ġsnatches": 16542,
    "etts": 12657,
    "nect": 662,
    "Ġdelicious": 14790,
    "Ġmany": 1105,
    "Ġimpropri": 14216,
    "sar": 12501,
    "ve": 322,
    "factories": 19842,
    "Ġprobability": 1128,
    "Ġsom": 1276,
    "ascribed": 24708,
    "Ġcha": 6853,
    "altern": 17941,
    "Ġaust": 4871,
    "Ġinns": 17929,
    "Ġcondescended": 19954,
    "Ġwonder": 2116,
    "Ġislanders": 19500,
    "ptember": 10892,
    "Ġpenetrated": 13469,
    "Ġportentous": 15227,
    "Ġhurrying": 11991,
    "Ġbehooves": 20732,
    "okes": 9275,
    "Ġharpo": 1943,
    "kne": 20934,
    "Ġaggregate": 25677,
    "Ġdivision": 19442,
    "Ġvesuvius": 26500,
    "Ġoutlaws": 22321,
    "Ġentangled": 10344,
    "Ġrecorded": 11292,
    "Ġretreat": 6070,
    "paint": 21017,
    "fresh": 13389,
    "Ġsinging": 7724,
    "ĠĠĠĠĠĠĠĠĠĠĠĠĠĠĠĠĠ": 22947,
    "Ġinsignificant": 20455,
    "Ġlullaby": 20586,
    "jabez": 20932,
    "Ġnewfoundland": 26568,
    "Ġconveys": 16854,
    "leagues": 21371,
    "Ġarrived": 3745,
    "Ġuniformly": 19147,
    "Ġhval": 21486,
    "em": 389,
    "Ġunconditional": 15841,
    "ugl": 23288,
    "mockery": 24377,
    "Ġcompassion": 6487,
    "summoned": 26590,
    "Ġreverie": 13454,
    "appre": 14368,
    ".,": 5988,
    "dashing": 20835,
    "Ġejaculated": 15167,
    "Ġquery": 2478,
    "ineff": 21978,
    "A": 37,
    "uries": 6147,
    "requirements": 24857,
    "Ġbroadened": 23982,
    "practised": 20246,
    "Ġby": 383,
    "Ġcapable": 5054,
    "Ġhundredth": 16517,
    "Ġcigars": 12249,
    "atically": 2426,
    "kles": 17583,
    "streets": 13392,
    "Ġcad": 12564,
    "Ġincarn": 11811,
    "Ġeternally": 11368,
    "Ġdams": 16454,
    "Ġidler": 16402,
    "Ġresolute": 19244,
    "oled": 17618,
    "Ġcrown": 5287,
    "Ġdisputing": 25824,
    "Ġposterity": 17400,
    "Ġwalled": 15532,
    "Ġdeductions": 19731,
    "estim": 14168,
    "Ġmamm": 25090,
    "Ġreflecting": 24751,
    "argue": 21443,
    "beneath": 9533,
    "Ġwheels": 10911,
    "Ġbaleful": 24984,
    "sol": 1794,
    "Ġstealing": 18892,
    "Ġinflict": 15000,
    "Ġstupid": 7603,
    "Ġkilling": 13329,
    "Ġwindibank": 7257,
    "Ġslaught": 23166,
    "up": 1284,
    "consumed": 25675,
    "Ġconc": 1843,
    "Ġinfinitely": 8962,
    "Ġnatural": 1139,
    "Ġcoiling": 12902,
[...]
