{
  "metadata": {
    "vocab_size": 26616,
    "algorithm": "BPE",
    "created_at": "2026-08-10 03:51:26",
    "special_tokens": [
      "<PAD>",
      "<SOS>",
      "<EOS>",
      "<UNK>",
      "<MASK>"
    ]
  },
  "vocab": {
    "Ġgradient": 450,
    "osed": 1961,
    "Ġthigh": 10189,
    "Ġsuits": 22087,
    "Ġspell": 8859,
    "Ġyoun": 1407,
    "Ġalbertus": 25649,
    "trop": 15439,
    "existence": 16018,
    "Ġneville": 7399,
    "Ġunprecedented": 15858,
    "fif": 9119,
    "ette": 15663,
    "Ġzeal": 9101,
    "Ġconsolidation": 5060,
    "Ġphotography": 24684,
    "hetically": 21211,
    "Ġhopeful": 19035,
    "proper": 7471,
    "benevol": 12231,
    "Ġswung": 6450,
    "creature": 5347,
    "poured": 17639,
    "fail": 17542,
    "Ġdue": 3849,
    "rically": 15420,
    "Ġporthole": 24399,
    "uth": 3020,
    "kine": 15379,
    "Ġalliance": 18236,
    "Ġsimulation": 2752,
    "finished": 10557,
    "Ġobservant": 20113,
    "Ġpoison": 7219,
    "³": 116,
    "Ġdimmed": 24270,
    "Ġgir": 2256,
    "Ġtarn": 21161,
    "Ġremains": 4911,
    "Ġcoll": 8221,
    "Ġhospit": 7514,
    "renadier": 18420,
    "Ġdeclare": 6616,
    "sales": 17669,
    "Ġassembled": 9239,
    "Ġwarsaw": 26168,
    "Ġpaddock": 25040,
    "Ġmultiplication": 2871,
    "Ġsinned": 18953,
    "Ġdeline": 16336,
    "]": 65,
    "flame": 16640,
    "tish": 17679,
    "Ġauthority": 7749,
    "Ġsung": 23275,
    "Ġinconven": 7587,
    "treas": 17681,
    "respective": 19848,
    "legged": 10467,
    "necessity": 13372,
    "iliary": 21730,
    "humoured": 11238,
    "Ġpatent": 11964,
    "reen": 21234,
    "Ġrocky": 13391,
    "folly": 20864,
    "Ġmixing": 24937,
    "prejudiced": 17300,
    "Ġissu": 6255,
    "Ġlull": 15655,
    "grief": 13734,
    "Ġencodings": 4776,
    "acquired": 24298,
    "Ġinsatiable": 19274,
    "strongly": 24685,
    "answered": 10276,
    "Ġuppermost": 15282,
    "Ġacquiescence": 20333,
    "Ġoff": 901,
    "superior": 9528,
    "Ġsmote": 18576,
    "Ġchry": 22250,
    "circ": 4390,
    "Ġhaste": 9006,
    "overing": 6308,
    "**:": 4738,
    "Ġopine": 19229,
    "Ġrefreshment": 17242,
    "rary": 4577,
    "Ġrichness": 19313,
    "cruise": 24842,
    "Ġtyro": 16996,
    "Ġant": 4346,
    "Ġgaz": 4045,
    "Ġblackstone": 23392,
    "ivering": 7698,
    "vere": 4884,
    "Ġhull": 5446,
    "Ġimmedi": 2904,
    "Ġbetokened": 18798,
    "Ġartist": 12911,
    "Ġfounded": 8561,
    "Ġchaldee": 26236,
    "Ġtoday": 12648,
    "disputed": 23502,
    "Ġsemicircle": 26068,
    "favourable": 12268,
    "aft": 9586,
    "valu": 1671,
    "Ġbitt": 10798,
    "repairing": 24495,
    "Ġphys": 5653,
    "Ġsatir": 18796,
    "Ġremained": 3143,
    "icable": 6389,
    "Ġconsistence": 23359,
    "Ġindiscriminately": 20630,
    "Ġ101": 24409,
    "courage": 17512,
    "Ġplum": 11826,
    "Ġdepose": 22613,
    "Ġassailed": 23181,
    "Ġindicates": 3197,
    "ryphon": 4162,
    "Ġthereupon": 18435,
    "Ġsobbing": 14138,
    "unwho": 21881,
    "Ġwhipping": 21719,
    "Ġchasing": 11758,
    "Ġcrushing": 20179,
    "magistrate": 19865,
    "tstone": 21087,
    "Ġcomplain": 6687,
    "Ġglobules": 26590,
    "Ġstockings": 20000,
    "!_âĢĿ": 11378,
    "Ġdives": 17892,
    "Ġdivined": 19446,
    "Ġspeech": 4612,
    "ilst": 8144,
    "Ġseal": 10257,
    "somewhere": 12017,
    "Ġlondon": 2839,
    "stretched": 10210,
    "Ġsquaring": 22841,
    "gal": 15359,
    "Ġthink": 983,
    "Ġhip": 17923,
    "Ġrol": 3556,
    "Ġminds": 6305,
    "Ġsmoked": 10325,
    "Û": 156,
    "Ġroman": 8323,
    "Ġhonest": 7287,
    "Ġdan": 8797,
    "Ġindu": 5295,
    "Ġuncounted": 19118,
    "Ġcharing": 14183,
    "mockery": 24378,
    "Ġirr": 10423,
    "Ġsouthampton": 24309,
    "Ġshrivelled": 19706,
    "Ġcareless": 11121,
    "Ġpursu": 3241,
    "reproach": 15190,
    "Ġcorrespondent": 19825,
    "Ġsatisf": 2808,
    "countenances": 24153,
    "Ġsupercil": 23455,
    "²": 115,
    "Ġragged": 11850,
    "Ġseek": 4511,
    "ches": 2149,
    "Ġimpatience": 7509,
    "Ġclapped": 9748,
    "terdam": 18132,
    "network": 1869,
    "Ġdelayed": 9521,
    "Ġperfidious": 25667,
    "axen": 22525,
    "Ġapologized": 25199,
    "Ġmuster": 16126,
    "Ġuser": 15919,
    "Ġtug": 11553,
    "Ġimpat": 4459,
    "Ġoptimize": 1645,
    "chat": 21689,
    "lydon": 13992,
    "Ġcreature": 2382,
    "Ġhimmalehs": 26232,
    "Ġopenly": 8576,
    "uing": 17695,
    "Ġlanguage": 653,
    "aborate": 14025,
    "Ġsecret": 3722,
    "Ġfierce": 7437,
    "tastes": 21099,
    "Ġtreated": 7082,
    "Ġbullion": 24986,
    "ised": 1092,
    "Ġsne": 6373,
    "Ġhob": 12634,
    "relapse": 24019,
    "plendent": 21968,
    "Ġdiabolical": 20345,
    "Ġvillains": 14752,
    "direction": 17526,
    "Ġilleg": 21621,
    "fortunes": 6334,
    "Ġdiv": 3734,
    "Ġdut": 2990,
    "ut": 308,
    "Ġdefinition": 14408,
    "Ġundertaking": 8577,
    "Ġhither": 4760,
    "days": 7688,
    "Ġferoc": 14900,
    "Ġcomputational": 1622,
    "move": 11858,
    "rane": 17655,
    "Ġpoultry": 17444,
    "aited": 12439,
    "blazing": 24133,
    "itiousness": 21337,
    "gates": 20874,
    "Ġprivacy": 19527,
    "itoring": 21335,
    "inaw": 21186,
    "Ġencourages": 2061,
    "ency": 3872,
    "Ġdescribing": 19256,
    "ourers": 21452,
    "gi": 17553,
    "Ġnight": 1465,
    "ulates": 14058,
    "lover": 18537,
    "Ġfrocks": 23926,
    "quarried": 24948,
    "Ġunmolested": 15249,
    "yingly": 23063,
    "Ġmission": 13011,
    "Ġsane": 21224,
    "Ġaugust": 10600,
    "accompl": 9883,
    "Ġwonderfully": 10432,
    "Ġsharp": 2414,
    "Ġaristotle": 25818,
    "Ġgettest": 23236,
    "Ġsimon": 5172,
    "Ġric": 18210,
    "unities": 15775,
    "anelles": 26436,
    "Ġlands": 6596,
    "headsman": 16699,
    "kington": 11204,
    "...": 24549,
    "Ġrevol": 5537,
    "Ġgoney": 14546,
    "Ġstri": 2805,
    "Ġunpleasing": 22057,
    "Ġlogger": 11959,
    "Ġvide": 10253,
    "Ġgoble": 14232,
    "ognit": 19187,
    "Ġmexico": 15284,
    "Ġsteer": 10389,
    "Ġhoist": 11981,
    "Ġconsidering": 4617,
    "ped": 6964,
    "outh": 2689,
    "goodbye": 12060,
    "Ġhide": 4591,
    "Ġbrazier": 26322,
    "ge": 560,
    "partiality": 13164,
    "execution": 20475,
    "Ġdaft": 19666,
    "connect": 1293,
    "combination": 25487,
    "Ġtwitching": 25684,
    "Ġcigarette": 20658,
    "gered": 9279,
    "ized": 1528,
    "Ġsmooth": 2781,
    "expense": 22433,
    "conditional": 9081,
    "impossible": 8828,
    "neville": 22469,
    "glim": 19368,
    "cial": 2651,
    "savagery": 25028,
    "Ġpam": 21456,
    "icates": 11620,
    "Ġinternal": 2247,
    "ethe": 9679,
    "Ġ/*": 10142,
    "Ġcivilities": 14851,
    "mopol": 15399,
    "Ġbeloved": 5572,
    "conve": 14246,
    "Ġobliged": 4285,
    "Ġpremium": 23908,
    "Ġreasoning": 2104,
    "isive": 10795,
    "Ġfireplace": 13149,
    "Ġafghan": 22632,
    "Ġprestige": 22240,
    "erve": 12554,
    "bowed": 10687,
    "Ġ200": 19298,
    "arth": 4446,
    "Ġramadans": 25122,
    "wreck": 21139,
    "Ġsutherland": 10151,
    "power": 7138,
    "Ġfashions": 17887,
    "univers": 15776,
    "sequence": 2856,
    "Ġprofessional": 7299,
    "Ġcranial": 25593,
    "itically": 21333,
    "Ġhire": 21488,
    "Ġassurance": 7775,
    "Ġpallidness": 25605,
    "Ġverbal": 19382,
    "Ġabomin": 8189,
    "Ġoughts": 23904,
    "Ġconcre": 16390,
    "seamen": 13630,
    "Ġseasons": 9434,
    "Ġinherited": 25354,
    "fatality": 25022,
    "python": 4693,
    "pine": 13772,
    "Ġinit": 817,
    "ach": 435,
    "unte": 21877,
    "Ġconsulting": 13433,
    "Ġplanted": 9777,
    "Ġsnar": 13204,
    "Ġtistig": 26415,
    "Ġmasterly": 23997,
    "Ġprivately": 19526,
    "sharpening": 22458,
    "Ġevenly": 4129,
    "Ġremot": 8546,
    "cnns": 3621,
    "itig": 1331,
    "such": 3086,
    "Ġgoblet": 25824,
    "Ġpriv": 4182,
    "Ġimproves": 22756,
    "Ġcommunity": 19011,
    "Ġrises": 9716,
    "Ġbeatrix": 24207,
    "Ġbehavioral": 11398,
    "preserving": 25305,
    "jury": 15377,
    "Ġleghorn": 13150,
    "Ġrejoicing": 13425,
    "considerable": 10551,
    "Ġenumerating": 15248,
    "Ġacceptance": 14830,
    "headed": 4319,
    "bethinking": 25746,
    "Ġeyelashes": 26107,
    "Ġscaramouch": 23831,
    "Ġordinary": 6098,
    "Ġamongst": 8962,
    "Ġmug": 21315,
    "Ġmissionary": 25697,
    "Ġincreases": 3800,
    "Ġadvoc": 12993,
    "Ġpoorly": 9858,
    "Ġteach": 8556,
    "Ġstre": 2108,
    "Ġhag": 12630,
    "Ġenig": 15803,
    "Ġmorocco": 26575,
    "Ġsincerity": 13682,
    "vib": 21118,
    "coloured": 7291,
    "Ġgor": 9209,
    "whiteness": 18372,
    "Ġsubset": 9873,
    "Ġdecanting": 22461,
    "î": 175,
    "yielded": 25757,
    "Ġsearched": 15820,
    "Ġabhor": 5467,
    "pening": 2832,
    "Ġunscrew": 22042,
    "Ġconsid": 1814,
    "Ġwhittling": 20702,
    "Ġwhirlpool": 20657,
    "cruising": 12284,
    "Ġweep": 7620,
    "Ġremove": 7499,
    "the": 334,
    "arabian": 26448,
    "Ġmarriage": 3191,
    "Ġperforming": 7928,
    "ý": 190,
    "Ġfailing": 12142,
    "Ġcringed": 25943,
    "Ġmarchant": 14788,
    "rer": 3622,
    "Ġfool": 4234,
    "Ġneed": 2609,
    "enc": 7574,
    "Ġconcentric": 20078,
    "Ġjust": 1241,
    "arrange": 23769,
    "Ġurgent": 16871,
    "Ġdissatisfied": 14259,
    "Ġwilling": 7421,
    "exe": 11793,
    "ancies": 11587,
    "Ġsplendour": 20227,
    "Ġpair": 5706,
    "inch": 10757,
    "Ġbrotherly": 16530,
    "severe": 21822,
    "Ġnarratives": 24353,
    "Ġaffectation": 14443,
    "Ġgoring": 21607,
    "Ġwaxed": 21300,
    "Ġart": 739,
    "Ġsold": 6004,
    "Ġenabled": 9299,
    "mystic": 25317,
    "Ġmerciless": 25247,
    "Ġflag": 7242,
    "profitable": 17072,
    "ersampling": 18217,
    "Ġelevating": 19732,
    "cull": 20811,
    "centred": 25020,
    "Ġpersisting": 18885,
    "Ġmere": 2714,
    "government": 25407,
    "Ġhailing": 11697,
    "eminence": 20102,
    "Ġincluded": 8959,
    "corrid": 24484,
    "Ġpredecess": 18517,
    "quickly": 14965,
    "Ġfortun": 4982,
    "Ġdistant": 5387,
    "Ġbutchers": 18273,
    "worse": 14693,
    "Ġruns": 8598,
    "Ġyourself": 2593,
    "Ġbrothers": 13179,
    "nered": 18495,
    "Ġport": 3309,
    "Ġclimb": 15083,
    "Ġestim": 3348,
    "Ġcrystal": 17217,
    "ries": 3353,
    "Ġmention": 2988,
    "vessel": 11379,
    "Ġfine": 1317,
    "ateral": 19380,
    "rict": 8093,
    "alescence": 15928,
    "Ġun": 422,
    "valley": 16216,
    "prep": 9762,
    "Ġlewis": 15729,
    "Ġcontained": 7679,
    "Ġperverseness": 13658,
    "Ġsneeze": 24698,
    "stamp": 21657,
    "Ġponderous": 8355,
    "Ġaffability": 14390,
    "Ġclutches": 20021,
    "loa": 18534,
    "Ġmamma": 10051,
    "Ġhawsers": 26504,
    "Ġarrangement": 2660,
    "acknowled": 10977,
    "Ġjogged": 26238,
    "Ġslight": 3121,
    "throwing": 11707,
    "Ġexpressions": 7706,
    "Ġtasted": 12534,
    "õ": 182,
    "Ġwhistle": 9068,
    "Ġhumorousness": 25378,
    "Ġattitudes": 16100,
    "rigging": 20009,
    "owal": 13996,
    "iards": 17576,
    "usions": 6161,
    "Ġwonderful": 4565,
    "Ġcannib": 6037,
    "stationed": 25454,
    "Ġpapa": 10659,
    "Ġresc": 4509,
    "ution": 4350,
    "Ġmanipulated": 25179,
    "interruption": 20115,
    "Ġflashing": 13033,
    "ama": 11680,
    "Ġactive": 7915,
    "Ġobserver": 11993,
    "bree": 15318,
    "Ġsupplied": 8946,
    "towing": 17691,
    "Ġdepl": 14047,
    "Ġsteamer": 17191,
    "Ġvortex": 26210,
    "Ġhemisphere": 26480,
    "Ġ102": 24410,
    "Ġmccarthy": 5145,
    "Ġpassing": 4316,
    "eties": 10839,
    "Ġacquitted": 18900,
    "Ġdiscoverers": 26037,
    "advanced": 19591,
    "Ġdenny": 9004,
    "uvian": 12247,
    "Ġweather": 3998,
    "Ġhandsomely": 25498,
    "expectation": 14859,
    "Ġcot": 13880,
    "action": 3729,
    ",--": 2476,
    "Ġprocession": 11779,
    "sartain": 25623,
    "growing": 13736,
    "Ġhowling": 8512,
    "phia": 22788,
    "Ġbless": 4343,
    "?âĢĿâĢĶ": 12900,
    "Ġweighted": 2088,
    "modesty": 22863,
    "Ġbor": 5805,
    "stubb": 6019,
    "Ġspacious": 18313,
    "Ġsqu": 1037,
    "Ġarrived": 3750,
    "ny": 4017,
    "inguished": 6600,
    "Ġbacks": 8531,
    "ets": 1159,
    "Ġdefilements": 26286,
    "Ġwriting": 4669,
    "examination": 25479,
    "Ġlime": 13951,
    "Ġretains": 20033,
    "enger": 10775,
    "decl": 8860,
    "Ġocean": 3303,
    "Ġbeside": 5192,
    "notches": 22752,
    "voice": 7816,
    "Ġunctuous": 10269,
    "Ġblessed": 6931,
    "inno": 10758,
    "Ġstroll": 13357,
    "iliar": 15718,
    "res": 2761,
    "_.": 2212,
    "Ġprevailed": 7778,
    "Ġinter": 726,
    "Ġeasier": 11167,
    "Ġuses": 1210,
    "Ġupdates": 1301,
    "Ġhomeless": 23390,
    "Ġchaff": 18384,
    "sebastian": 21823,
    "Ġlottery": 19890,
    "intend": 16228,
    "Ġtech": 1711,
    "idly": 12705,
    "Ġstup": 14008,
    "nowled": 5470,
    "Ġprecise": 7077,
    "Ġsympt": 7014,
    "Ġesq": 15112,
    "Ġhouses": 6140,
    "earliest": 20123,
    "Ġasiatics": 20434,
    "Ġtoll": 7852,
    "ernal": 4313,
    "sorrows": 17323,
    "Ġgibraltar": 25788,
    "Ġfurn": 3712,
    "taffrail": 15445,
    "octial": 20008,
    "Ġoriental": 9100,
    "cain": 15329,
    "Ġczar": 12579,
    "verted": 10220,
    "ouched": 4638,
    "Ġadvancement": 24475,
    "afford": 14656,
    "Ġexcuse": 5863,
    "wick": 5363,
    "confirmation": 26090,
    "Ġlimped": 19183,
    "Ġthese": 819,
    "Ġmeridian": 25713,
    "public": 17648,
    "animation": 16981,
    "while": 2935,
    "Ġleave": 2456,
    "Ġsemblance": 20736,
    "Ġlikes": 9411,
    "Ġlast": 1124,
    "sweep": 24618,
    "Ġwight": 12558,
    "Ġslightly": 7293,
    "88": 20760,
    "Ġunwe": 15842,
    "judgment": 16755,
    "ivation": 3112,
    "outer": 9671,
    "Ġseamen": 5063,
    "tal": 17672,
    "progra": 9398,
    "Ġscepticism": 25928,
    "Ġconce": 3423,
    "Ġberyl": 20493,
    "Ġdigesting": 19812,
    "Ġsealed": 15819,
    "Ġsurmount": 20004,
    "Ġruins": 16160,
    "lead": 10168,
    "van": 7814,
    "Ġfeedforward": 2326,
    "Ġpresented": 5183,
    "deserving": 17248,
    "Ġwickedness": 9529,
    "Ġnoon": 6561,
    "Ġslew": 23386,
    "Ġtrace": 6183,
    "V": 58,
    "Ġalone": 2566,
    "Ġajar": 21205,
    "oriously": 17876,
    "Ġdictated": 25219,
    "iquet": 17577,
    "Ġshield": 22003,
    "Ġutter": 3978,
    "ssed": 3737,
    "Ġrisks": 9967,
    "Ġblasphe": 17410,
    "histor": 13495,
    "Ġtro": 7356,
    "Ġnarrower": 24354,
    "Ġor": 437,
    "Ġsophisticated": 1679,
    "Ġdrowsiness": 26447,
    "Ġcelebrate": 26359,
    "proud": 9907,
    "having": 5211,
    "Ġimperilled": 19581,
    "attest": 23122,
    "mouth": 9133,
    "Ġsitting": 3605,
    "Ġprecautions": 23730,
    "Ġrely": 8825,
    "uity": 12522,
    "possibility": 13366,
    "Ġeliminating": 20623,
    "Ġagitates": 22520,
    "Ġincorporated": 25710,
    "ouder": 17902,
    "eers": 20845,
    "combined": 20323,
    "perishing": 22190,
    "plun": 15823,
    "Ġblame": 6447,
    "fitters": 24760,
    "garn": 20872,
    "painful": 13505,
    "ixed": 4853,
    "Ġentreating": 24210,
    "worshipping": 16612,
    "pervading": 18966,
    "Ġunaffected": 14125,
    "?_âĢĿ": 12320,
    "forbearance": 22795,
    "Ġbalances": 2339,
    "Ġamb": 9295,
    "thankful": 16808,
    "Ġedged": 23489,
    "attend": 11103,
    "atre": 17772,
    "Ġboxes": 13378,
    "Ġdecoyed": 18493,
    "catherine": 7129,
    "Ġgaiety": 16751,
    "Ġrelieve": 8223,
    "ainty": 21791,
    "libr": 22926,
    "Ġvillage": 5774,
    "Ġsatiated": 22905,
    "sway": 15427,
    "tained": 4407,
    "Ġtrowsers": 9630,
    "Ġstraighten": 24007,
    "Ġsiberia": 26162,
    "Ġhereditary": 10667,
    "Ġn": 300,
    "fugitive": 26132,
    "god": 4864,
    "Ġinvis": 6902,
    "tuning": 1580,
    "Ġcould": 704,
    "hereabouts": 23608,
    "arled": 21445,
    "Ġsubaltern": 22794,
    "covered": 11479,
    "Ġcurt": 18845,
    "compl": 6873,
    "Ġplantation": 11425,
    "system": 4241,
    "Ġunexampled": 20363,
    "gloom": 17142,
    "Ġpick": 4256,
    ",âĢĿ": 580,
    "Ġpettiness": 24232,
    "Ġsized": 11565,
    "Ġprevent": 756,
    "Ġoverlooking": 22365,
    "Ġelizabeth": 1130,
    "Ġaye": 3352,
    ".,": 5989,
    "ancing": 1761,
    "Ġrecognised": 8998,
    "Ġcontains": 2795,
    "parameter": 3072,
    "Ġdischarge": 18557,
    "Ġsabbath": 17257,
    "revenge": 13845,
    "Ġgathered": 8444,
    "Ġmal": 5221,
    "tery": 14040,
    "Ġorders": 5341,
    "Ġwood": 2291,
    "Ġredu": 1352,
    "Ġhotel": 8654,
    "Ġhinting": 19652,
    "vishnoo": 21122,
    "Ġturks": 14600,
    "Ġlived": 3993,
    "Ġgunw": 6214,
    "Ġsummarization": 3646,
    "thing": 1482,
    "Ġhooped": 23358,
    "ologically": 22875,
    "Ġsho": 2246,
    "Ġderick": 9367,
    "ula": 2826,
    "Ġcontinents": 16851,
    "Ġendeavours": 8621,
    "Ġaveraging": 2419,
    "Ġsat": 1132,
    "Ġveins": 8935,
    "agged": 9240,
    "hoisting": 23717,
    "Ġvectors": 1773,
    "watches": 14950,
    "Ġrecords": 12200,
    "Ġimplac": 24875,
    "getting": 12972,
    "_).": 5888,
    "Ġfisherman": 12080,
    "Ġenergetic": 15201,
    "Ġinterp": 16073,
    "angels": 22110,
    "breeze": 20565,
    "uracy": 1100,
    "Ġcovers": 18591,
    "Ġunqualified": 22063,
    "known": 3569,
    "Ġvexed": 9997,
    "ullen": 8235,
    "Ġworldly": 16334,
    "column": 19331,
    "Ġpurposely": 10446,
    "Ġeastward": 13394,
    "I": 45,
    "Ġsmile": 4271,
    "woman": 5900,
    "Ġbegone": 11920,
    "esley": 17922,
    "Ġvideos": 13610,
    "output": 4403,
    "Ġ131": 24781,
    "Ġpawn": 12067,
    "kins": 7345,
    "Ġploughing": 26261,
    "sixteen": 24854,
    "nest": 10116,
    "ouncing": 8497,
    "Ġprocessions": 18434,
    "Ġconcrete": 20639,
    "Ġconvenient": 8346,
    "Ġreservoir": 20653,
    "anybody": 12087,
    "Ġconviction": 6328,
    "lement": 10169,
    "Ġwakes": 11575,
    "Ġbiscuit": 12594,
    "christian": 17235,
    "Ġwhose": 2009,
    "Ġgracefully": 13395,
    "Ġcalculates": 13270,
    "fee": 12885,
    "Ġliterature": 17151,
    "mn": 3577,
    "Ġobedience": 11415,
    "Ġauthor": 4376,
    "ropol": 10955,
    "Ġchinese": 14186,
    "Ġvibrated": 25048,
    "venge": 4660,
    "Ġpeculiarly": 8287,
    "Ġele": 1965,
    "Ġstrasburgh": 18615,
    "ached": 2321,
    "Ġtwenty": 3952,
    "Ġfielding": 16233,
    "Ġ62": 24365,
    "Ġgeneral": 1859,
    "Ġtheorem": 2325,
    "Ġstage": 7389,
    "kn": 5791,
    "ivory": 10271,
    "Ġarmies": 16495,
    "Ġequatorial": 13513,
    "Ġtobacco": 8367,
    "Ġpinch": 15019,
    "Ġinterm": 14271,
    "rical": 11521,
    "Ġwarming": 23559,
    "Ġcondescended": 19959,
    "Ġfeels": 6882,
    "Ġpassengers": 13679,
    "acknowledge": 18469,
    "Ġbright": 3215,
    "Ġunreserved": 19400,
    "onel": 3093,
    "Ġraiment": 22655,
    "faces": 13723,
    "Ġdiminishing": 4207,
    "privilege": 25264,
    "Ġsecondly": 14520,
    "momentum": 4991,
    "rann": 21047,
    "Ġsil": 1798,
    "Ġsoon": 1230,
    "sank": 17664,
    "Ġeveryday": 22773,
    "Ġrespectfully": 18994,
    "Ġslumber": 13065,
    "we": 848,
    "rolling": 9063,
    "comprehensive": 20629,
    "asp": 3340,
    "Ġclouded": 13295,
    "gers": 8376,
    "[_": 5131,
    "ines": 675,
    "sford": 5999,
    "Ġstabbing": 20306,
    "Ġunfl": 22022,
    "Ġaz": 9632,
    "Ġantiqu": 12149,
    "Ġcaptioning": 23025,
    "marriage": 7745,
    "Ġinsip": 19269,
    "Ġcompar": 4772,
    "waving": 21134,
    "Ġexotic": 21835,
    "client": 18934,
    "Ġnovel": 6697,
    "Ġwick": 2006,
    "indul": 22374,
    "Ġlxi": 21564,
    "Ġaccents": 14213,
    "Ġimpropriety": 17398,
    "Ġimpet": 11783,
    "ubb": 1646,
    "property": 20003,
    "Ġwounds": 17792,
    "Ġunconsc": 6554,
    "Ġcoffin": 4431,
    "Ġfelicity": 7260,
    "Ġlabourers": 23333,
    "Ġwherever": 8526,
    "Ġrusty": 14967,
    "Ġassociations": 14966,
    "taking": 5689,
    "Ġparty": 3511,
    "overhearing": 19054,
    "Ġdisappearing": 22537,
    "Ġdejected": 20307,
    "Ġburned": 8634,
    "Ġthrusts": 24350,
    "sadly": 25527,
    "Ġmusket": 12300,
    "Ġgrammar": 1060,
    "Ġdel": 1613,
    "Ġdegrees": 7294,
    "mun": 20964,
    "mble": 1406,
    "inching": 21192,
    "Ġape": 21199,
    "Ġsanguine": 25929,
    "Ġwords": 1325,
    "Ġstrange": 2273,
    "Ġpursuers": 13231,
    "dial": 20827,
    "mber": 5850,
    "Ġfrequent": 3287,
    "Ġhero": 5715,
    "Ġaxis": 12311,
    "omics": 21646,
    "Ġcleans": 18950,
    "Ġungodly": 26515,
    "Ġlimbs": 5967,
    "erative": 21275,
    "Ġdelicacy": 6342,
    "ĠĠĠĠĠĠĠĠĠĠĠĠĠĠĠĠĠĠĠ": 22953,
    "gone": 6505,
    "Ġsolemnity": 9944,
    "Ġhedges": 19988,
    "innocent": 20289,
    "Ġeasily": 3894,
    "Ġbingleys": 18996,
    "redible": 15808,
    "Ġconfusion": 7273,
    "gra": 768,
    "exceeded": 25002,
    "Ġendurance": 23141,
    "Ġstrove": 9960,
    "spirit": 11315,
    "removing": 17766,
    "Ġsavesoul": 26229,
    "Ġsoles": 22089,
    "Ġshining": 8172,
    "igned": 5656,
    "rift": 11522,
    "ittingly": 18805,
    "destruction": 11257,
    "Ġimm": 3969,
    "fol": 4863,
    "Ġsund": 8249,
    "aver": 6786,
    "Ġouthouse": 22318,
    "Ġdit": 21423,
    "gu": 3961,
    "stee": 21654,
    "Ġice": 3604,
    "Ġstupid": 7604,
    "Ġturing": 7566,
    "ident": 3378,
    "thinking": 9017,
    "lost": 8891,
    "Ġmagnanim": 14476,
    "Ġdrugg": 17122,
    "roll": 9199,
    "Ġpoint": 2056,
    "Ġlegal": 10441,
    "Ġarg": 4767,
    "bble": 17487,
    "Ġfulfilment": 20190,
    "Ġproceed": 3244,
    "Ġlump": 21555,
    "Ġwaste": 9237,
    "Ġwheelbarrow": 17207,
    "Ġskip": 1844,
    "mown": 20972,
    "Ġmiguel": 25767,
    "Ġglared": 13023,
    "Ġgene": 15676,
    "teen": 6371,
    "Ġeffectually": 16170,
    "Ġbeheaded": 11659,
    "Ġrisen": 9496,
    "gin": 4931,
    "learned": 8606,
    "keeping": 8638,
    "pips": 21022,
    "Ġxx": 5492,
    "Ġportcull": 23866,
    "Ġpry": 11602,
    "Ġyoked": 15739,
    "gallery": 24694,
    "Ġscandalous": 24880,
    "Ġuncles": 23433,
    "def": 1449,
    "Ġwhereby": 11840,
    "Ġlust": 9200,
    "Ġdesolated": 24809,
    "izard": 10885,
    "log": 18535,
    "increase": 20271,
    "Ġsoap": 14135,
    "Ġmay": 923,
    "Ġuniversally": 12004,
    "Ġkinds": 14507,
    "acon": 10684,
    "baned": 17498,
    "perfectly": 9089,
    "Ġadmirer": 16840,
    "ivered": 7007,
    "putable": 10903,
    "Ġcoming": 2619,
    "drown": 13708,
    "speed": 19412,
    "arrived": 12614,
    "slack": 16896,
    "exped": 16527,
    "Ġshrubbery": 18233,
    "peculiarities": 13475,
    "preced": 10312,
    "impe": 21711,
    "Ġassert": 7122,
    "Ġpossessed": 5195,
    "Ġfolio": 11922,
    "Ġpaltry": 16693,
    "Ġthought": 1090,
    "Ġtroops": 24899,
    "Ġjoke": 8872,
    "Ġdamning": 19141,
    "humoredly": 26326,
    "Ġferrule": 24500,
    "representing": 25272,
    "Ġparish": 8858,
    "Ġmuskets": 17057,
    "obtain": 23097,
    "Ġ26": 10472,
    "Ġfortunate": 6216,
    "grin": 19107,
    "hav": 20899,
    "Ġgentlemanlike": 12071,
    "Ġforwarded": 19045,
    "resh": 8405,
    "Ġjud": 3357,
    "barbaric": 26360,
    "Ġpleasures": 11144,
    "rights": 23676,
    "deformity": 22150,
    "conject": 8883,
    "lace": 13751,
    "Ġdoubtfully": 23479,
    "wrong": 13210,
    "Ġ1991": 3018,
    "Ġmet": 1963,
    "steaks": 23964,
    "Ġplaguy": 22609,
    "!âĢĻâĢĿ": 16594,
    "Ġstrict": 7222,
    "Ġhedgehogs": 25395,
    "Ġholmes": 1309,
    "Ġemployer": 19435,
    "Ġsupported": 9821,
    "Ġabased": 22272,
    "Ġnavy": 14919,
    "idea": 9304,
    "Ġluxuries": 25167,
    "Ġflank": 8229,
    "Ġpocket": 4899,
    "oked": 4309,
    "@": 36,
    "Ġdistributes": 4194,
    "Ġhipp": 21495,
    "Ġrecom": 4557,
    "Ġtrif": 6270,
    "Ġsentry": 19027,
    "athom": 12945,
    "Ġantichron": 24183,
    "andish": 18156,
    "introduce": 25187,
    "mysteries": 26052,
    "Ġsullen": 9160,
    "silent": 9977,
    "Ġsill": 10767,
    "boone": 23256,
    "Ġright": 1506,
    "prick": 19346,
    "Ġlarge": 1062,
    "Ġrallied": 14098,
    "placed": 7880,
    "Ġerrone": 14433,
    "Ġcords": 14882,
    "Ġdissect": 16057,
    "Ġcommunicative": 24548,
    "wholly": 10943,
    "Ġutility": 23515,
    "Ġlawyer": 10671,
    "oubled": 23649,
    "ler": 3492,
    "Ġpredictions": 1454,
    "court": 7511,
    "wra": 11544,
    "sulphur": 25910,
    "Ġbounce": 21396,
    "Ġendow": 23139,
    "Ġ80": 24456,
    "Ġfattened": 25950,
    "quickness": 19853,
    "Ġshower": 11714,
    "Ġob": 861,
    "Ġunwound": 24829,
    "Ġdeadliest": 14558,
    "Ġslides": 18941,
    "Ġscale": 1548,
    "Ġfunere": 22263,
    "Ġvagu": 13593,
    "ospel": 17012,
    "Ġgri": 17990,
    "Ġregulate": 22590,
    "Ġvocation": 10528,
    "Ġstare": 10866,
    "return": 5489,
    "press": 1732,
    "fresh": 13396,
    "Ġadviser": 25313,
    "Ġfourteen": 12014,
    "Ġfriendless": 23028,
    "feeling": 6619,
    "Ġpoker": 13925,
    ".)": 6784,
    "Ġiter": 2953,
    "Ġshriek": 6640,
    "glad": 9011,
    "Ġwaterward": 23370,
    "Ġpermanently": 25474,
    "arded": 5029,
    "Ġneatly": 17018,
    "agony": 14072,
    "anzas": 17842,
    "knives": 14916,
    "Ġinheriting": 25355,
    "Ġleathern": 15053,
    "Ġspitz": 14151,
    "consideration": 14958,
    "Ġmeridians": 17358,
    "rious": 11692,
    "Ġcommanded": 6332,
    "Ġcontinuous": 1561,
    "Ġguide": 3217,
    "Ġfebruary": 15916,
    "Ġmogul": 12867,
    "false": 15358,
    "Ġtinge": 25090,
    "Ġfilters": 3931,
    "let": 2733,
    "Ġ1828": 25720,
    "fluke": 25205,
    "valuable": 8247,
    "swiss": 24258,
    "member": 20977,
    "ssing": 3813,
    "Ġrogue": 22409,
    "Ġmo": 629,
    "Ġsec": 2074,
    "influence": 13582,
    "Ġgurg": 15677,
    "Ġtrial": 6637,
    "Ġvicious": 24403,
    "earn": 10698,
    "idelburgh": 10564,
    "Ġquantization": 19856,
    "Ġdeduction": 14904,
    "ipelag": 12845,
    "Ġdevotedly": 24749,
    "glimmer": 26323,
    "Ġskiff": 16168,
    "Ġwestward": 24389,
    "nowledge": 10292,
    "ouncement": 11749,
    "interview": 19301,
    "ees": 13714,
    "Ġindul": 5858,
    "Ġbaltic": 18797,
    "ming": 3601,
    "Ġvaried": 11852,
    "sloop": 26146,
    "Ġservant": 5764,
    "Ġcontortions": 18477,
    "Ġmiser": 18702,
    "Ġdifferences": 18713,
    "Ġbolt": 11336,
    "Ġstart": 3260,
    "o": 83,
    "iony": 9194,
    "Ġunche": 23431,
    "Ġleadenhall": 16631,
    "orton": 11760,
    "Ġpetersburgh": 24231,
    "Ġslide": 10396,
    "acks": 11792,
    "hecy": 21209,
    "F": 42,
    "Ġinterchange": 16075,
    "Ġfrequented": 16588,
    "Ġcoin": 9774,
    "Ġcorrespondence": 10597,
    "rene": 5379,
    "Ġmentioned": 4330,
    "Ġrecept": 1524,
    "Ġconfided": 19039,
    "Ġmasses": 10506,
    "Ġden": 3109,
    "sleeping": 13458,
    "Ġdomineer": 23723,
    "Ġromish": 19587,
    "rudent": 6483,
    "Ì": 141,
    "bad": 12440,
    "Ġrail": 7226,
    "Ġmistress": 8615,
    "Ġparsee": 6414,
    "bots": 10085,
    "Ġgrooves": 16743,
    "Ġlittle": 867,
    "driven": 19774,
    "Ġmusical": 23896,
    "Ġboxed": 24360,
    "bunger": 20405,
    "rix": 1572,
    "Ġislets": 21805,
    "Ġgiddy": 20500,
    "Ġmand": 21307,
    "ks": 3147,
    "Ġdramatic": 4852,
    "headers": 23112,
    "Ġpresentation": 14483,
    "Ġpoet": 8208,
    "Ġaccidental": 16850,
    "94": 4804,
    "drop": 15340,
    "Ġmoved": 4841,
    "Ġqu": 605,
    "Ġfireside": 23532,
    "Ġshortened": 23484,
    "delirious": 19508,
    "due": 22414,
    "Ġplan": 3885,
    "Ġillum": 9403,
    "Ġadvised": 16206,
    "invari": 21187,
    "bitt": 17488,
    "take": 4578,
    "pron": 9009,
    "Ġcobb": 14275,
    "home": 7341,
    "Ġorganizations": 12318,
    "Ġdisease": 14260,
    "Ġlashings": 25100,
    "ood": 962,
    "Ġstoner": 7179,
    "case": 5206,
    "draw": 23903,
    "utmost": 21591,
    "Ġhoisted": 5961,
    "'": 11,
    "sings": 4251,
    "Ġnurtured": 19752,
    "Ġcasualty": 20344,
    "Ġnoses": 18374,
    "Ġalien": 14021,
    "mes": 1198,
    "Ġbegun": 7243,
    "Ġcomstock": 21855,
    "Ġvib": 8165,
    "accur": 14595,
    "Ġ10": 5250,
    "wandering": 20287,
    "iates": 13740,
    "Ġstraightened": 12113,
    "Ġbitterness": 8024,
    "Ġbitterest": 12406,
    "offing": 23335,
    "Ġnimble": 21531,
    "Ġwra": 5907,
    "ase": 1158,
    "Ġreport": 6193,
    "Ġvolcano": 24149,
    "ures": 838,
    "Ġunwell": 22019,
    "Ġringbolts": 24199,
    "Ġrobes": 16258,
    "Ġcandidate": 16700,
    "Ġjolly": 6858,
    "lever": 2932,
    "Ġtechn": 9375,
    "mis": 4523,
    "Ġfusion": 21417,
    "earnestly": 17316,
    "Ġwriggling": 15261,
    "Ġinjection": 3466,
    "Ġbrand": 16190,
    "spout": 7922,
    "Ġantilles": 24181,
    "Ġsensational": 16392,
    "Ġlays": 15993,
    "Ġilluminating": 25246,
    "Ġconstable": 19066,
    "Ġpenetrate": 12274,
    "Ö": 151,
    "Ġemperor": 15162,
    "Ġpalsy": 25779,
    "mell": 20966,
    "Ġ66": 24369,
    "Ġchased": 8865,
    "iscuit": 10601,
    "Ġgratified": 8021,
    "Ġintrig": 21994,
    "Ġeyford": 10644,
    "apple": 22843,
    "Ġmig": 13859,
    "Ġaugment": 8695,
    "mem": 10711,
    "Ġnews": 3823,
    "Ġinsupportable": 13935,
    "Ġsoften": 23126,
    "Ġguarded": 9829,
    "Ġlod": 4044,
    "Ġjealously": 24126,
    "Ġoceans": 7996,
    "ď": 208,
    "aulding": 11341,
    "Ġrevolut": 3259,
    "Ġbride": 6293,
    "reference": 13843,
    "Ġornamented": 20365,
    "ons": 709,
    "Ġadventures": 7748,
    "Ġvolumes": 14802,
    "surrounded": 26089,
    "commence": 19995,
    "idity": 8835,
    "Ġbritish": 11339,
    "Ġjesty": 18406,
    "iven": 1238,
    "Ġthough": 990,
    "inated": 6805,
    "omuch": 21643,
    "derest": 18315,
    "Ġshone": 7404,
    "Ġsp": 457,
    "Ġaddison": 14235,
    "Ġrepresentation": 14409,
    "Ġunsh": 14118,
    "Ġdownright": 16122,
    "Ġbowlines": 19324,
    "Ġsmelt": 16069,
    "particularly": 8340,
    "Ġprogramming": 1181,
    "Ġcalves": 13040,
    "grown": 10102,
    "Ġdiscount": 22779,
    "stains": 11640,
    "aut": 1911,
    "Ġslouched": 13064,
    "Ġpersuading": 19413,
    "Ġclever": 7056,
    "Ġscoundrel": 13674,
    "jam": 15375,
    "Ġtraps": 23083,
    "Ġimagination": 5759,
    "Ġprotracted": 19472,
    "Ġcocoanuts": 26364,
    "brill": 16494,
    "Ġwink": 11572,
    "unreasonable": 18165,
    "Ġscolded": 25473,
    "Ġapproaching": 6286,
    "Ġintruding": 21995,
    "service": 15039,
    "jacket": 12296,
    "falgar": 26131,
    "evid": 11487,
    "Ġmoby": 3664,
    "Ġencode": 4365,
    "Ġeddying": 17119,
    "Ġdiction": 8799,
    "sl": 5794,
    "limp": 20954,
    "ckery": 22094,
    "Ġfunny": 7638,
    "Ġrequ": 801,
    "Ġreproached": 24892,
    "Ġglance": 4232,
    "octavo": 11387,
    "rals": 21045,
    "Ġskewer": 19623,
    "Ġsneezing": 12252,
    "itary": 4752,
    "pair": 21014,
    "Ġprevented": 5943,
    "crews": 15045,
    "sad": 11523,
    "corn": 13703,
    "Ġbelonging": 8308,
    "eted": 7592,
    "Ġhatter": 4112,
    "lorn": 12492,
    "Ġatlantic": 7001,
    "Ġlodger": 24096,
    "Ġcompact": 2262,
    "ually": 2772,
    "ct": 309,
    "icult": 3341,
    "Ġpervers": 11787,
    "ĠĠĠ": 2117,
    "Ġenvelope": 7319,
    "indust": 18436,
    "Ġmouth": 3183,
    "7": 27,
    "ograph": 4798,
    "approb": 11044,
    "rossed": 11014,
    "Ġmaj": 3930,
    "Ġhandsomest": 20337,
    "Ġguidance": 9420,
    "Ġassembl": 20064,
    "Ġjunior": 15103,
    "Ġsafer": 22174,
    "Ġawake": 8272,
    "cavity": 26127,
    "tete": 10734,
    "rolled": 9062,
    "Ġindef": 9192,
    "Ġcrabs": 19176,
    "Ġpeaking": 22693,
    "artic": 14222,
    "Ġrevolver": 14903,
    "ā": 194,
    "ithmetic": 18064,
    "Ġjustify": 11074,
    "Ġtransparency": 10679,
    "Ġabhorrence": 9055,
    "Ġherds": 9719,
    "ĠĠĠĠĠĠĠĠĠĠĠĠĠĠĠĠĠĠĠĠĠĠĠĠĠĠĠĠĠ": 19702,
    "Ġcataract": 23430,
    "Ġrevers": 21667,
    "Ġgazed": 6479,
    "Ġninetieth": 25358,
    "Ġwrinkled": 7264,
    "Ġpeep": 6870,
    "olently": 15761,
    "Ġgriefs": 16773,
    "weather": 7229,
    "subst": 12169,
    "pressed": 6590,
    "Ġscratches": 22290,
    "someone": 14565,
    "Ġgums": 21614,
    "Ġcaptiv": 16262,
    "Ġnich": 21523,
    "Ġsurm": 7476,
    "Ġbury": 12046,
    "Ġimpetus": 25570,
    "accomplished": 17214,
    "whosoever": 22244,
    "Ġling": 7377,
    "Ġglistening": 12369,
    "Ġestimates": 3751,
    "ductive": 23939,
    "Ġunfavourable": 17420,
    "Ġtranquilly": 12294,
    "Ġvivacity": 14944,
    "Ġinquirers": 24965,
    "Ġspeculations": 23001,
    "Ġsimulates": 2739,
    "pos": 15413,
    "Ġdeigned": 18141,
    "ï": 176,
    "Ġhinges": 15216,
    "pshaw": 21030,
    "ulity": 10888,
    "Ġern": 8397,
    "Ġtreating": 4283,
    "Ġdemanding": 16807,
    "Y": 61,
    "Ġdexterity": 25295,
    "Ġperished": 11788,
    "constit": 24605,
    "Ġwhen": 513,
    "Ġvort": 18194,
    "Ġclinch": 18427,
    "tim": 13794,
    "Ġinwards": 15625,
    "dismal": 23499,
    "Ġelectric": 15198,
    "zwilliam": 5074,
    "hunting": 24385,
    "Ġidleness": 11145,
    "Ġenlarged": 25986,
    "Ġinexhaustible": 16983,
    "Ġilliter": 23470,
    "surprised": 9534,
    "scence": 14422,
    "Ġstraight": 3705,
    "ief": 2046,
    "Ġstumped": 24945,
    "Ġbowls": 23773,
    "Ġpronounced": 8351,
    "Ġrestore": 9383,
    "Ġunfit": 14789,
    "Ġbusy": 6191,
    "sal": 8761,
    "Ġwines": 21290,
    "<EOS>": 2,
    "axing": 18548,
    "exciting": 19671,
    "meeting": 11021,
    "answering": 26005,
    "consider": 6350,
    "15": 12434,
    "177": 20754,
    "wards": 1277,
    "Ġlighten": 23262,
    "Ġantip": 24179,
    "Ġlengthwise": 10454,
    "è": 169,
    "Ġtucked": 12396,
    "Ġmeddling": 21323,
    "inn": 5364,
    "Ġrobberies": 23022,
    "Ġlanded": 7469,
    "Ġrespons": 2686,
    "Ġreefed": 20305,
    "Ġdiminished": 16668,
    "Ġpolluted": 25594,
    "Ġcompiled": 22574,
    "Ġimmaculate": 19489,
    "would": 2350,
    "Ġrails": 22656,
    "erpillar": 5798,
    "Ġobligations": 12097,
    "ader": 14015,
    "cient": 4571,
    "Ġinflexibly": 26372,
    "Ġuninter": 18247,
    "Ġunwarrant": 19936,
    "Ġarbitrary": 4737,
    "Ġshell": 11740,
    "hauteur": 26393,
    "py": 17626,
    "Ġsaying": 3245,
    "Ġco": 729,
    "Ġallusions": 10908,
    "Ġbefallen": 12347,
    "Ġhilarity": 20300,
    "braid": 17497,
    "Ġbutts": 15859,
    "quarrel": 20018,
    "ilingly": 21727,
    "Ġwish": 2097,
    "Ġcorpulence": 24509,
    "gallantry": 15061,
    "retch": 4372,
    "Ġodious": 12155,
    "Ġsegment": 12762,
    "Ġroving": 22407,
    "na": 13763,
    "xology": 21144,
    "ifications": 9731,
    "Ġasser": 6259,
    "Ġdeserve": 8309,
    "Ġdangling": 17177,
    "like": 1886,
    "renched": 7907,
    "Ġsurvived": 14937,
    "Ġpyramids": 15118,
    "Ġstung": 21742,
    "bern": 20777,
    "Ġestimable": 23875,
    "Ġ30": 10514,
    "Ġejaculation": 20257,
    "concluded": 11244,
    "Ġtransom": 22442,
    "Ġstages": 14007,
    "ork": 416,
    "tired": 21075,
    "uch": 877,
    "Ġsupposition": 9820,
    "Ġgross": 11628,
    "Ġemph": 14527,
    "Ġwalker": 23313,
    "upset": 23020,
    "thrown": 8483,
    "ailing": 7023,
    "Ġanchor": 7368,
    "Ġtherein": 11780,
    "Ġambiguous": 20167,
    "prevent": 11799,
    "Ġaries": 21200,
    "level": 2656,
    "Ġobtain": 8918,
    "accusations": 23601,
    "backward": 2685,
    "anges": 1673,
    "Ġfads": 21419,
    "metic": 14987,
    "extending": 22760,
    "Ġamaz": 5385,
    "Ġaskance": 23153,
    "Ġimbecile": 17395,
    "excellent": 8044,
    "free": 8739,
    "Ġpavement": 9580,
    "iers": 5992,
    "Ġdiverse": 19211,
    "Ġdisposed": 7085,
    "Ġspilling": 22141,
    "Ġstrands": 25575,
    "reme": 2424,
    "uts": 8820,
    "cottagers": 20051,
    "cra": 6356,
    "Ġestimation": 11220,
    "Ġorange": 8489,
    "b": 70,
    "hopeless": 16919,
    "whiskers": 12315,
    "contempt": 13194,
    "Ġstab": 10864,
    "iam": 2509,
    "sue": 2075,
    "transformer": 25018,
    "s": 87,
    "oro": 21398,
    "Ġconquest": 15752,
    "avail": 18606,
    "Ġintelligence": 554,
    "emed": 3379,
    "Ġaccident": 5380,
    "cible": 20808,
    "Ġscuttle": 7414,
    "Ġturbul": 23614,
    "Ġreduces": 2342,
    "Ġpun": 4589,
    "Ġbespeaking": 26311,
    "shock": 19857,
    "`": 68,
    "Ġcrav": 19175,
    "Ġremarkable": 4916,
    "virtue": 20572,
    "embraces": 25806,
    "arn": 358,
    "grim": 19108,
    "Ġpig": 5705,
    "Ġresentful": 24632,
    "ulus": 21868,
    "Ġmoments": 4847,
    "entire": 6824,
    "alt": 12643,
    "angling": 14143,
    "Ġconverts": 2807,
    "arus": 13915,
    "Ġobstetrics": 24679,
    "Ġnor": 1550,
    "Ġkitty": 3913,
    "ulous": 4453,
    "eaten": 20347,
    "Ġregular": 941,
    "Ġpsal": 15620,
    "Ġclusters": 25233,
    "Ġactively": 18655,
    "Ġunce": 11715,
    "Ġminus": 18751,
    "Ġshould": 864,
    "Ġexercising": 19909,
    "ort": 522,
    "Ġautomation": 13260,
    "chor": 6148,
    "Ġrelations": 5854,
    "Ġbarbs": 10534,
    "ison": 3078,
    "Ġattribute": 16101,
    "Ġobstin": 14956,
    "Ġconcentration": 25065,
    "ome": 535,
    "wanted": 10745,
    "glue": 17558,
    "Ġcontrast": 2120,
    "bweb": 20793,
    "Ġ48": 24084,
    "built": 16827,
    "Ġdoze": 14179,
    "construction": 19781,
    "istle": 15874,
    "ivil": 6412,
    "Ġdampening": 2895,
    "extinguished": 16153,
    "Ġhearken": 21688,
    "insula": 23069,
    "Ġchancing": 22252,
    "Ġhealed": 21686,
    "axed": 8892,
    "Ġbrave": 6331,
    "Ġchanced": 8187,
    "mixed": 17607,
    "Ġunsettled": 14126,
    "fairly": 17222,
    "quis": 7870,
    "iscre": 17852,
    "id": 338,
    "hatchet": 24819,
    "Ġmanx": 7905,
    "Ġ24": 13197,
    "desp": 6094,
    "impression": 15715,
    "Ġhenceforth": 19645,
    "Ġkeener": 22917,
    "ished": 1425,
    "yesterday": 10355,
    "Ġneither": 3687,
    "Ġdollars": 11457,
    "Ġgrasped": 8034,
    "trick": 19416,
    "Ġdomestic": 6914,
    "Ġpeevish": 26559,
    "Ġoutweigh": 22326,
    "Ġsting": 10863,
    "Ġwhereas": 3859,
    "Ġtomb": 8812,
    "instinct": 19546,
    "worthy": 7733,
    "consciousness": 13370,
    "Ġintens": 7004,
    "utherland": 9581,
    "olic": 14045,
    "Ġunder": 1631,
    "Ġsigning": 22711,
    "Ġrecursive": 4783,
    "joice": 9605,
    "21": 10075,
    "Ġfinery": 23128,
    "misery": 13348,
    "Ġinev": 10184,
    "Ġisolated": 13563,
    "Ġpatient": 6892,
    "Ġupbraided": 26530,
    "Ġalternative": 19990,
    "devils": 20036,
    "Ġgrapple": 25812,
    "Ġhovering": 10181,
    "reader": 23850,
    "Ġlapl": 19780,
    "Ġcommencement": 12243,
    "dared": 13706,
    "speps": 14335,
    "Ġbeings": 2488,
    "tears": 11039,
    "older": 15760,
    "Ġgrapes": 15219,
    "Ġavailed": 23955,
    "Ġwearer": 21926,
    "zealand": 26048,
    "base": 20779,
    "Ġcolder": 22857,
    "entirely": 7782,
    "Ġvictoria": 14876,
    "Ġunrecord": 16623,
    "anc": 6380,
    "Ġmurdered": 6465,
    "û": 188,
    "Ġvigorously": 11301,
    "ceptibly": 22347,
    "Ġuneasily": 24233,
    "Ġpuff": 6527,
    "breckinridge": 24078,
    "ature": 520,
    "gging": 7697,
    "arent": 4249,
    "Ġmerits": 13200,
    "nep": 20988,
    "Ġfootmarks": 19339,
    "Ġundoing": 22037,
    "Ġlengths": 19208,
    "Ġprodig": 6029,
    "Ġinnumerable": 13356,
    "ip": 555,
    "earnest": 12403,
    "scythes": 26404,
    "Ġpiping": 23215,
    "rebellum": 26166,
    "Ġsatur": 1930,
    "Ġmerryweather": 9525,
    "Ġremembering": 14612,
    "about": 3587,
    "attered": 4020,
    "heartedness": 24825,
    "Ġmetrics": 19092,
    "ashes": 6017,
    "Ġpertur": 12856,
    "į": 240,
    "Ġstump": 7603,
    "sailing": 14717,
    "Ġswelled": 11089,
    "Ġseparation": 11249,
    "Ġauger": 21206,
    "james": 15376,
    "Ġcher": 6131,
    "Ġharris": 13930,
    "by": 1157,
    "Ġdistingu": 2514,
    "Ġoverthrown": 18432,
    "Ġbumping": 25281,
    "Ġconceals": 23907,
    "Ġsusp": 2666,
    "sect": 8153,
    "perplex": 18344,
    "Ġmumbled": 17809,
    "homely": 25618,
    "iluvian": 18063,
    "Ġtattoo": 7359,
    "nett": 16225,
    "Ġlur": 5226,
    "Ġhers": 7889,
    "Ġeldest": 6573,
    "jeroboam": 25620,
    "ineer": 11706,
    "Ġmoves": 14234,
    "distinction": 19574,
    "Ġcurled": 8226,
    "Ġsprang": 5064,
    "vously": 23506,
    "Ġge": 1979,
    "đ": 210,
    "condesc": 18506,
    "Ġcarpets": 18904,
    "Ġgro": 4398,
    "icher": 9205,
    "ours": 3428,
    "Ġaccumulates": 2890,
    "Ġtragic": 15259,
    "Ġarches": 14163,
    "chants": 21695,
    "itatingly": 25278,
    "arrival": 15604,
    "pass": 4290,
    "Ġswash": 23058,
    "Ġext": 904,
    "Ġredden": 15698,
    "pie": 21013,
    "Ġscrut": 15949,
    "Ġstalked": 20432,
    "Ġthreats": 13381,
    "pemberley": 9623,
    "Ć": 199,
    "stove": 21655,
    "utional": 17986,
    "Ġlionel": 25287,
    "floating": 12232,
    "Ġvalu": 5039,
    "Ġsuccession": 12106,
    "mighty": 9469,
    "Ġrespects": 7269,
    "Ġinfat": 14502,
    "Ġbeak": 18082,
    "ampling": 12731,
    "Ġrnns": 2393,
    "Ġgot": 2279,
    "Ġreservo": 16833,
    "Ġdefe": 21839,
    "Ġpolynesian": 26027,
    "illation": 14144,
    "give": 4690,
    "Ġgregarious": 18964,
    "functions": 11245,
    "Ġinsolent": 13604,
    "introdu": 8940,
    "whip": 22241,
    "Ġfut": 15579,
    "batim": 25019,
    "Ġpant": 10819,
    "Ġunceasingly": 20362,
    "Ġtranquo": 14846,
    "vult": 21116,
    "Ġgeography": 23375,
    "Ġsust": 7008,
    "Ġbrawny": 13617,
    "Ġskipper": 22802,
    "Ġ59": 24323,
    "opposite": 19931,
    "Ġdrag": 6186,
    "adieu": 26202,
    "Ġtennessee": 26598,
    "Ġcrazed": 19177,
    "Ġflorida": 20661,
    "Ġubiquitous": 26197,
    "bing": 7792,
    "Ġcrime": 4618,
    "Ġsweetheart": 19398,
    "%": 9,
    "Ġcamp": 9167,
    "Ġelaborate": 18638,
    "Ġnetherfield": 3934,
    "mansion": 20985,
    "reception": 15517,
    "Ġwide": 4108,
    "Ġunman": 12779,
    "Ġsincerely": 7963,
    "Ġselecting": 16683,
    "Ġwil": 4582,
    "Ġcountenances": 11969,
    "individual": 18437,
    "Ġdoubting": 13104,
    "telesc": 22821,
    "inferior": 12398,
    "Ġevenness": 22836,
    "Ġparaphrasing": 26528,
    "Ġgall": 4352,
    "Ġcircling": 19094,
    "erity": 21270,
    "noo": 9797,
    "Ġreptile": 15281,
    "Ġadmitted": 8989,
    "anywhere": 14684,
    "male": 15392,
    "belonged": 25598,
    "Ġprynne": 25541,
    "into": 3681,
    "live": 7550,
    "Ġreeds": 15700,
    "Ġbrimming": 22869,
    "Ġflinging": 13589,
    "ocratic": 17247,
    "overcome": 19052,
    "ishmael": 18421,
    "finger": 10096,
    "inary": 3275,
    "Ġplatonian": 25121,
    "bpp": 20774,
    "Ġepidemic": 20698,
    "eous": 13715,
    "Ġintim": 6838,
    "Ġunlim": 18254,
    "Ġheated": 21685,
    "cring": 20813,
    "Ġalpine": 18108,
    "Ġclasped": 17209,
    "Ġexpressive": 8985,
    "Ġticking": 25036,
    "omb": 10208,
    "ithing": 11652,
    "Ġremorseless": 13455,
    "Ġsacr": 7194,
    "Ġjoining": 13168,
    "Ġstreaked": 19115,
    "ĠâĢĻ": 3046,
    "Ġrever": 6538,
    "mechan": 11861,
    "Ġhatchway": 13528,
    "droppers": 24758,
    "Ġnick": 21526,
    "Ġawa": 7714,
    "squ": 7809,
    "Ġreminds": 13435,
    "verbally": 25361,
    "races": 21633,
    "Ġkrem": 9729,
    "Ġmagnus": 18959,
    "Ġpluck": 15618,
    "Ġhumbly": 16201,
    "Ġblanche": 18822,
    "uff": 2731,
    "Ġrenew": 6147,
    "Ġpaunch": 23752,
    "atmospheric": 17778,
    "world": 5058,
    "Ġstr": 759,
    "Ġmournfully": 20120,
    "Ġdreamy": 14706,
    "mut": 17597,
    "Ġwhispering": 14948,
    "Ġtattered": 21174,
    "Ġvenge": 5420,
    "scheme": 15258,
    "Ġdames": 23475,
    "haust": 5777,
    "Ġconfidential": 9091,
    "Ġsplend": 9901,
    "Ġhing": 11607,
    "Ġfalsehood": 10526,
    "Ġlifted": 6986,
    "hark": 15369,
    "Ġopposition": 16523,
    "pleasanter": 24051,
    "bes": 6644,
    "replied": 11568,
    "Ġcabman": 14607,
    "Ġgives": 5018,
    "Ġdreary": 10410,
    "culiar": 2821,
    "mody": 16189,
    "Ġglaring": 11912,
    "Ġinstruction": 14345,
    "ineffectual": 26509,
    "intosh": 22943,
    "Ġruggedness": 26269,
    "Ġelsewhere": 7713,
    "anct": 21361,
    "Ġach": 2623,
    "est": 499,
    "niece": 20997,
    "ensibility": 22551,
    "Ġteaching": 10367,
    "Ġornament": 11724,
    "Ġadver": 5641,
    "Ġgambler": 26192,
    "whis": 7898,
    "Ġpia": 21466,
    "ativeness": 15524,
    "Ġlangsdorff": 15280,
    "Ġstuffed": 13413,
    "Ġhues": 21492,
    "Ġtexel": 25924,
    "roused": 16655,
    "Ġestimated": 16596,
    "Ġsubjects": 7074,
    "Ġstraits": 7994,
    "declined": 25175,
    "neying": 22467,
    "riminately": 16486,
    "Ġaccess": 9750,
    "Ġshuttle": 12131,
    "ato": 17771,
    "fate": 17541,
    "Ġallured": 14116,
    "Ġimpreg": 15991,
    "Ġappalled": 22223,
    "Ġfamed": 16331,
    "ctor": 13963,
    "pagans": 25526,
    "ulum": 21867,
    "Ġscott": 22285,
    "Ġvoluntarily": 12145,
    "Ġwriters": 13546,
    "Ġbefore": 809,
    "Ġbeckoned": 25794,
    "Ġsymptom": 13487,
    "Ġwid": 4634,
    "Ġorphans": 20207,
    "Ġmisgivings": 15294,
    "Ġencl": 16171,
    "cific": 10088,
    "Ġu": 324,
    "feit": 16048,
    "pause": 12505,
    "lamp": 9611,
    "Ġanyone": 4462,
    "Ġmark": 2330,
    "Ġspile": 22131,
    "Ġexcuses": 19044,
    "Ġdimensions": 16574,
    "stooped": 23825,
    "immortal": 21713,
    "ilent": 21723,
    "prehens": 9292,
    "onah": 3336,
    "yards": 9626,
    "circumspect": 26087,
    "Ġaut": 1809,
    "Ġscrupled": 25052,
    "Ġtophet": 23574,
    "Ġswashing": 23059,
    "Ġdangers": 12358,
    "orter": 4255,
    "reward": 15512,
    "commun": 15036,
    "Ġtusks": 17256,
    "Ġscorched": 17102,
    "Ġhay": 11608,
    "greenland": 10024,
    "mas": 5212,
    "osy": 11762,
    "Ġfarther": 5956,
    "Ġcaptive": 14430,
    "Ġgravel": 14105,
    "Ġrebell": 21672,
    "Ġrect": 18028,
    "Ġcoloss": 11048,
    "Ġproverb": 12721,
    "dependence": 17170,
    "min": 4573,
    "Ġsallies": 21232,
    "Ġseveral": 2675,
    "exact": 7910,
    "ram": 13975,
    "Ġsurface": 5119,
    "Ġcovari": 2337,
    "verize": 21732,
    "Ġfaithfully": 14890,
    "Ġhelen": 16658,
    "attracted": 13056,
    "Ġdamn": 11160,
    "goodness": 19291,
    "Ġconceive": 8463,
    "Ġrover": 18456,
    "fights": 20867,
    "Ġconcocted": 26300,
    "shoulders": 16587,
    "Ġlocations": 12417,
    "Ġschedules": 3387,
    "Ġstocks": 23180,
    "circled": 24189,
    "Ġelopement": 10332,
    "Ġseated": 4543,
    "Ġabundantly": 17159,
    "Ġrobustness": 18884,
    "ope": 4125,
    "Ġfascinating": 17331,
    "Ġdoublo": 6079,
    "Ġhitherto": 5881,
    "Ġwow": 15532,
    "Ġstole": 7953,
    "dislike": 23496,
    "cloth": 11941,
    "wrath": 23759,
    "Ġreplenished": 13640,
    "Ġvehem": 22895,
    "Ġgips": 10843,
    "Ġaccompaniments": 24482,
    "Ġoffices": 14336,
    "iality": 8848,
    "ts": 960,
    "ª": 108,
    "87": 20759,
    "Ġcompliment": 5673,
    "attoo": 6808,
    "Ġribs": 7103,
    "Ġrepresent": 1212,
    "rive": 9710,
    "ootiful": 17376,
    "Ġtravelling": 11309,
    "Ġold": 1054,
    "Ġjustice": 5111,
    "Ġsuffers": 2975,
    "Ġdestined": 7975,
    "Ġpartake": 18674,
    "Ġexpression": 4518,
    "Ġinquire": 7720,
    "Ġaccordance": 19501,
    "requ": 7149,
    "Ġlashed": 9201,
    "kee": 18274,
    "shaken": 16025,
    "dischar": 19155,
    "Ġinc": 703,
    "Ġaccomplice": 24376,
    "Ġgush": 10205,
    "Ġwanted": 4968,
    "Ġlost": 2638,
    "Ġjudiciously": 23881,
    "tackles": 25625,
    "Ġcarter": 18902,
    "Ġcommitted": 7431,
    "why": 2829,
    "Ġval": 969,
    "Ġwoe": 4794,
    "Ġtandem": 26413,
    "Ġwalls": 6763,
    "rential": 22921,
    "helped": 18927,
    "Ġlizzy": 3547,
    "inev": 21983,
    "judges": 19576,
    "present": 1137,
    "Ġsect": 17753,
    "Ġtwice": 4663,
    "Ġyielding": 12191,
    "Ġcritic": 19123,
    "ces": 578,
    "Ġpropri": 6740,
    "Ġcat": 2123,
    "Ġeffusion": 22521,
    "Ġnewcastle": 16227,
    "Ġebb": 21627,
    "rants": 13781,
    "enjoyments": 25434,
    "imet": 21709,
    "Ġwhiting": 10861,
    "andy": 8158,
    "occur": 19578,
    "Ġmisgiv": 14346,
    "Ġparamet": 608,
    "spite": 16141,
    "Ġenvirons": 13188,
    "Ġthee": 2625,
    "Ġcolt": 11046,
    "daw": 17524,
    "Ġtrusted": 10520,
    "Ġbecoming": 4399,
    "solemn": 19820,
    "Ġale": 9157,
    "Ġpredestinated": 18516,
    "Ġcock": 11001,
    "Ġtaurus": 21181,
    "Ġemb": 1233,
    "year": 11097,
    "etts": 12665,
    "Ġirretrie": 23377,
    "ipl": 20920,
    "Ġbore": 5079,
    "Ġann": 4492,
    "Ġdraught": 9850,
    "mid": 5617,
    "Ġmitigates": 3054,
    "Ġunwarrantable": 26346,
    "addition": 13388,
    "Ġthinner": 24184,
    "Ġexile": 12722,
    "friendship": 24052,
    "Ġdisclose": 16158,
    "numerous": 17434,
    "Ġgratitude": 5599,
    "Ġdeductions": 19736,
    "Ġscramble": 24579,
    "ws": 7355,
    "Ġmorose": 18851,
    "aping": 8194,
    "Ġentities": 11867,
    "Ġpastures": 23422,
    "standard": 22435,
    "Ġrosings": 4609,
    "convers": 6569,
    "Ġattraction": 18620,
    "Ġappar": 7411,
    "Ġoverspread": 14209,
    "endeavoured": 12285,
    "brother": 7093,
    "Ġunworthy": 11719,
    "ecess": 17534,
    "Ġdisquis": 22531,
    "iag": 20918,
    "Ġvoluntary": 14801,
    "bow": 5424,
    "Ġ(": 595,
    "grounds": 11153,
    "Ġadjac": 18293,
    "Ġinquiring": 9002,
    "necessary": 5883,
    "Ġlawless": 19438,
    "Ġpricking": 23226,
    "meaning": 2907,
    "Ġmonoman": 7939,
    "Ġlowerings": 23650,
    "rupt": 3212,
    "Ġthrust": 5084,
    "Ġswain": 18881,
    "ntax": 933,
    "Ġran": 3343,
    "frank": 7758,
    "Ġunreasonably": 17454,
    "Ġofficers": 4428,
    "lodged": 25908,
    "Ó": 148,
    "jub": 20931,
    "Ġplanned": 14755,
    "Ġintrude": 25991,
    "oking": 4608,
    "Ġcontr": 1915,
    "Ġstagnant": 24655,
    "Ġcarted": 21353,
    "Ġgrowth": 14631,
    "twelve": 14624,
    "Ġseventy": 7878,
    "Ġassist": 3565,
    "ex": 623,
    "norm": 20987,
    "obser": 11101,
    "Ġagrees": 22519,
    "Ġnailed": 10192,
    "luent": 16000,
    "Ġcoarse": 14277,
    "Ġinducements": 24968,
    "crop": 20800,
    "Ġinfernal": 11966,
    "princ": 8624,
    "driver": 14924,
    "astes": 11743,
    "whether": 5320,
    "Ġassociation": 24710,
    "Ġassisted": 11112,
    "distant": 13339,
    "Ġlaboratory": 13616,
    "Ġgrin": 5482,
    "Ġcollect": 7237,
    "Ġpierced": 12286,
    "Ġschools": 9480,
    "Ġcounterpane": 11345,
    "Ġanother": 1740,
    "Ġstarbuck": 2194,
    "Ġelapsed": 7653,
    "Ġintu": 12768,
    "ered": 1684,
    "ney": 2491,
    "Ġlongitudes": 22637,
    "ificial": 598,
    "Ġscorn": 7901,
    "shaven": 18488,
    "Ġcontemplate": 19894,
    "Ġstreatham": 17452,
    "attery": 18501,
    "Ġcrept": 11023,
    "Ġinsulted": 14995,
    "Ġarrow": 10933,
    "Ġempires": 19075,
    "Ġargument": 7100,
    "Ġsynthe": 26008,
    "Ġgreas": 17994,
    "became": 10517,
    "ide": 721,
    "Ġjoyful": 13226,
    "ov": 15403,
    "alliance": 22204,
    "cro": 13700,
    "eches": 8078,
    "Ġoverwrites": 5033,
    "Ġconveniences": 19815,
    "Ġfellow": 2779,
    "Ġreiter": 21669,
    "Ġunderstood": 5655,
    "Ġjudges": 14687,
    "anx": 8788,
    "Ġpelt": 15614,
    "Ġbos": 4876,
    "Ġapparently": 6779,
    "Ġsteering": 10390,
    "Ġinfants": 16370,
    "obli": 23098,
    "yt": 17713,
    "Ġdetain": 14176,
    "loaded": 22515,
    "Ġforce": 5092,
    "Ġhampshire": 15246,
    "causing": 25519,
    "mency": 18928,
    "Ġsleet": 8978,
    "?_": 8070,
    "Ġspurred": 22142,
    "Ġstreams": 12197,
    "Ġcharcoal": 19009,
    "Ġdiscoloured": 15256,
    "wheels": 14384,
    "Ġgloves": 8578,
    "Ġfound": 1246,
    "brilliancy": 26078,
    "Ġpainter": 19170,
    "waiting": 12225,
    "Ġunacquainted": 12781,
    "dr": 6223,
    "Ġimaginative": 19249,
    "uning": 1313,
    "settled": 10509,
    "ships": 5486,
    "Ġmushroom": 13240,
    "australian": 20564,
    "Ġbats": 13903,
    "Ġpie": 13918,
    "aire": 10683,
    "Ġnotes": 7189,
    "pret": 7212,
    "?--": 15307,
    "Ġsequences": 1753,
    "Ġawkwardness": 13491,
    "Ġpilgrimage": 17311,
    "Ġtuileries": 24824,
    "Ġinstructions": 11197,
    "Ġ77": 24266,
    "Ġgranting": 18737,
    "birds": 15148,
    "Ġstudious": 23217,
    "Ġirresolution": 24916,
    "Ġforlorn": 14018,
    "egypt": 15353,
    "Ġbeauty": 3774,
    "crucible": 24843,
    "Ġhistorically": 19381,
    "Ġabated": 18391,
    "Ġtanning": 17731,
    "Ġsuspending": 19246,
    "Ġdeclined": 9924,
    "iliating": 12700,
    "calling": 12454,
    "readers": 23851,
    "itably": 10784,
    "Ġregression": 4412,
    "Ġsleeve": 20143,
    "tormented": 13649,
    "fool": 9050,
    "subs": 14304,
    "Ġdebar": 24274,
    "inative": 15487,
    "waste": 21137,
    "ous": 478,
    "icip": 6390,
    "Ý": 158,
    "Ġexpose": 10330,
    "Ġconfinement": 19041,
    "odox": 21820,
    "urpation": 16304,
    "Ġicelandic": 25887,
    "Ġtamely": 24980,
    "Ġglimp": 6067,
    "Ġarranged": 9880,
    "Ġapology": 8328,
    "water": 4869,
    "Ġgod": 1937,
    "Ġspectators": 19410,
    "xter": 9149,
    "Ġrudeness": 17127,
    "phant": 6289,
    "gainst": 25144,
    "decease": 25558,
    "Ġobscure": 9557,
    "Ġtermination": 16463,
    "Ġsheaves": 22162,
    "adopt": 25545,
    "uneasiness": 23688,
    "Ġpiny": 21472,
    "Ġreced": 15696,
    "Ġsleepers": 13153,
    "Ġscraping": 13420,
    "Ġreliance": 14388,
    "past": 8090,
    "how": 1639,
    "Ġtackles": 8051,
    "Ġmant": 9650,
    "Ġnarwhale": 12297,
    "Ġbenefits": 4286,
    "Ġnot": 413,
    "misfortunes": 16758,
    "chamber": 13629,
    "Ġaud": 6664,
    "Ġgorge": 13570,
    "Ġemphasis": 20539,
    "resses": 16156,
    "Ġlic": 8437,
    "Ġfettered": 24569,
    "dragged": 16610,
    "Ġpark": 5465,
    "Ġunthink": 18248,
    "enthus": 17980,
    "unted": 6999,
    "Ġmanip": 8875,
    "reated": 10306,
    "Ġproviding": 1360,
    "Ġsubstance": 5510,
    "Ġtrout": 22348,
    "othing": 6996,
    "Ġsubstances": 24167,
    "Ġgovernor": 16493,
    "tting": 17682,
    "Ġcod": 8413,
    "happiest": 19334,
    "Ġjourneys": 19478,
    "Ġvexatious": 19784,
    "duct": 3507,
    "Ġdeceit": 13485,
    "Ġbolted": 12249,
    "Ġlow": 1642,
    "dropping": 14985,
    "agger": 7872,
    "Ġcomprehensiveness": 25075,
    "Ġcompression": 18148,
    "Ċ": 203,
    "Ġoper": 2122,
    "Ġtired": 9152,
    "mediterranean": 16408,
    "Ġtint": 13820,
    "influ": 9544,
    "involved": 25627,
    "bewil": 22502,
    "forgot": 11035,
    "ĠâĢľâĢĺ": 8506,
    "partly": 14604,
    "laz": 15389,
    "copper": 19191,
    "Ġserenity": 10031,
    "charge": 9452,
    "conjecturing": 20137,
    "Ġclosed": 4607,
    "Ġhish": 21917,
    "corrob": 24485,
    "semic": 21824,
    "Ġundoubted": 19517,
    "Ġimpediments": 26242,
    "Ġensures": 3058,
    "Ġshunned": 17296,
    "Ġconsumm": 15158,
    "Ġvincent": 15287,
    "Ġprehensile": 26536,
    "murderers": 25728,
    "impress": 18054,
    "althily": 19362,
    "etency": 21585,
    "Ġ\"": 6121,
    "Ġmizen": 17261,
    "Ġtremulous": 14989,
    "rosings": 15648,
    "Ġwife": 2587,
    "adam": 15734,
    "fam": 5990,
    "woe": 21138,
    "forty": 9377,
    "Ġenter": 4032,
    "Ġspat": 2667,
    "Ġexceptions": 13234,
    "cheeked": 19342,
    "Ġsignature": 16496,
    "Ġpurposes": 11170,
    "forward": 2187,
    "Ġjapan": 7640,
    "fatigue": 20660,
    "Ġsolutions": 1947,
    "cock": 12030,
    "Ġuntil": 2670,
    "Ġoffspring": 16148,
    "Ġquivered": 18468,
    "Ġdivinest": 25722,
    "Ġcharitable": 23272,
    "Ġstupendous": 20504,
    "circumst": 5349,
    "Ġprotection": 9465,
    "deployment": 26529,
    "ructed": 7031,
    "Ġexposing": 11838,
    "Ġ50": 24315,
    "oning": 7572,
    "Ġfathoms": 9086,
    "Ġeloquence": 11846,
    "Ġfade": 21410,
    "Ġtars": 21167,
    "Ġshouting": 10525,
    "dread": 8732,
    "Ġspas": 10924,
    "Ġintertw": 18587,
    "plunging": 25988,
    "Ġvegetables": 15225,
    "icts": 22399,
    "Ġintervene": 25481,
    "_:": 17481,
    "circum": 16739,
    "Ġrestrict": 16380,
    "datasets": 11954,
    "Ġcoral": 11926,
    "Ġtide": 6661,
    "Ġyield": 5093,
    "Ġosc": 2835,
    "Ġevid": 3502,
    "Ġsharper": 17182,
    "Ġunsub": 22025,
    "Ġshad": 3854,
    "Ġcouch": 12576,
    "raint": 18317,
    "Ġnecessitates": 23933,
    "og": 858,
    "surprising": 16921,
    "should": 3263,
    "ulgent": 18152,
    "named": 9889,
    "shriek": 20523,
    "Ġmiraculous": 13551,
    "vy": 21110,
    "Ġthinnest": 24185,
    "Ġtortured": 14927,
    "Ġunwarranted": 24831,
    "inkle": 22617,
    "Ġreser": 5170,
    "Ġformed": 3887,
    "Ġtranslations": 12056,
    "Ġnoisier": 4626,
    "Ġlim": 2378,
    "Ġsatirical": 26281,
    "volutional": 1936,
    "Ġoffending": 22739,
    "Ġcoverage": 4287,
    "Ġdepending": 14300,
    "Ġrep": 1938,
    "Ġpane": 21465,
    "Ġnieces": 8434,
    "Ġlandlady": 10424,
    "Ġlat": 5087,
    "Ġspectacles": 12102,
    "Ġfobbing": 26443,
    "gree": 10703,
    "sombre": 23857,
    "Ġreception": 9842,
    "osh": 18389,
    "Ġgrosvenor": 17421,
    "Ġthirteen": 15278,
    "Ġluckily": 16800,
    "Ġsquat": 14370,
    "Ġhim": 476,
    "ctic": 8443,
    "Ġmercy": 9001,
    "Ġward": 10158,
    "Ġmiscellaneous": 17465,
    "ĠĠĠĠĠĠĠĠĠĠĠĠĠĠĠĠĠĠĠĠĠĠ": 16230,
    "Ġsinister": 8572,
    "parable": 16394,
    "Ġvariance": 1167,
    "Ġdevoured": 16139,
    "sullenly": 26150,
    "ins": 1375,
    "Ġdiet": 13913,
    "rough": 590,
    "Ġmerit": 9430,
    "Ġdivide": 12115,
    "Ġsneer": 13451,
    "Ġpedro": 15066,
    "Ġtall": 4040,
    "skull": 24488,
    "medium": 23641,
    "asted": 4651,
    "everlasting": 18773,
    "row": 1064,
    "verty": 8454,
    "Ġcurls": 22975,
    "Ġimpartial": 15223,
    "Ġjan": 11766,
    "Ġmeeting": 5193,
    "utility": 21590,
    "oof": 15408,
    "Ġtons": 11552,
    "Ġchambermaid": 24306,
    "Ġfanc": 6745,
    "Ġstud": 1588,
    "Ġter": 2051,
    "ulties": 12906,
    "veh": 12686,
    "contain": 18503,
    "fingers": 17373,
    "Ġconv": 2971,
    "Ġdifferen": 934,
    "arbuck": 2026,
    "Ġpromoting": 3163,
    "quered": 11060,
    "Ġfavours": 23284,
    "Ġreus": 8826,
    "Ġimprovement": 7966,
    "Ġdood": 22246,
    "twist": 23702,
    "Ġspoutings": 14678,
    "sympathy": 20545,
    "Ġrevenue": 26196,
    "Ġpoisonous": 24888,
    "Ġnothing": 1357,
    "Ġaspired": 25985,
    "¾": 127,
    "Ġnaut": 13944,
    "originally": 24940,
    "Ġsource": 6806,
    "Ġvict": 3766,
    "Ġextinguish": 14341,
    "Ġstalk": 12702,
    "Ġfringed": 17275,
    "Ġsets": 8778,
    "Ġthreshold": 2810,
    "keeper": 5597,
    "Ġinjunction": 19620,
    "Ġstyle": 6946,
    "fain": 13718,
    "charmed": 21699,
    "Ġgreater": 3040,
    "Ġ(âĢľ": 15999,
    "Ġpaste": 23421,
    "Ġrespective": 16348,
    "rise": 6228,
    "Ġdrowning": 19906,
    "ample": 1363,
    "Ġmixed": 6975,
    "discovering": 24254,
    "Ġcreations": 18682,
    "athy": 14326,
    "Ġrheum": 18215,
    "allowance": 16826,
    "mad": 5281,
    "Ġchemistry": 11462,
    "decoder": 3644,
    "Ġtraits": 23078,
    "Ġcal": 1326,
    "tps": 11537,
    "Ġprinces": 23227,
    "angled": 6844,
    "Ġdismally": 20217,
    "Ġteneriffe": 26416,
    "establish": 17396,
    "study": 15121,
    "Ġimaginary": 11188,
    "Ġupdating": 2692,
    "Ġpent": 17903,
    "Ġlinks": 13958,
    "Ġaccelerate": 23231,
    "Ġelevate": 24502,
    "Ġhit": 7164,
    "Ġquiver": 16006,
    "occurrences": 26333,
    "bent": 15315,
    "Ġtrap": 7672,
    "Ġlifetime": 13606,
    "Ġnephews": 24713,
    "must": 3578,
    "cost": 19189,
    "Ġregiment": 6433,
    "Ġaspire": 21904,
    "Ġhalf": 1664,
    "resting": 23239,
    "Ġdripping": 13151,
    "Ġanalytical": 22893,
    "prehensible": 12364,
    "Ġmeantime": 6208,
    "terms": 15755,
    "Ġhousehold": 8571,
    "analy": 17840,
    "Ġembell": 14415,
    "Ġmarry": 4420,
    "Ġreusable": 13561,
    "Ġweb": 9243,
    "Ġcreditor": 24292,
    "Ġtid": 8107,
    "dropped": 12267,
    "lose": 12887,
    "Ġoccas": 2704,
    "happily": 14659,
    "Ġsermons": 20197,
    "Ġwake": 4750,
    "Ġmomentarily": 22816,
    ":âĢĶâĢĺ": 24196,
    "Ġcracking": 14575,
    "longing": 23729,
    "cried": 8728,
    "writing": 7721,
    "Ġsliding": 9366,
    "Ġearn": 3548,
    "Ġnin": 10190,
    "Ġdestruction": 6602,
    "Ġfemale": 8345,
    "Ġjewell": 19523,
    "onze": 21258,
    "advise": 24220,
    "Ġdiscol": 12958,
    "ondon": 2707,
    "Ġhandling": 8916,
    "Ġcask": 5527,
    "Ġresiding": 16065,
    "Ġagreeable": 4554,
    "pans": 13773,
    "lifted": 15390,
    "Ġfrancisco": 26065,
    "dar": 20826,
    "Ġglut": 18855,
    "Ġmeasurement": 19426,
    "congreg": 25399,
    "Ġcontention": 22430,
    "lances": 15387,
    "Ġbusks": 23340,
    "Ġwrist": 8243,
    "Ġsuspects": 16892,
    "Ġblandly": 20326,
    "deliberated": 26119,
    "Ġwine": 6811,
    "cl": 1494,
    "invincible": 25092,
    "Ġleather": 7607,
    "shad": 10982,
    "Ġenthr": 22743,
    "Ġadjusts": 8983,
    "departure": 15238,
    "Ġprevention": 16095,
    "Ġturnkeys": 23033,
    "comb": 11037,
    "Ġstubbs": 23299,
    "Ġrelates": 12985,
    "ield": 2408,
    "nurse": 15212,
    "Ġfaintest": 24570,
    "gins": 12473,
    "Ġpays": 13301,
    "danger": 10092,
    "jo": 3755,
    "Ġejac": 10206,
    "Ġmoose": 22437,
    "Ġx": 2072,
    "ame": 644,
    "pigs": 17143,
    "Ġintegrated": 13534,
    "Ġmy": 412,
    "uced": 13803,
    "Ġdeacon": 18143,
    "Ġplunged": 8696,
    "Ġsubsc": 22792,
    "Ġembedding": 2103,
    "Ġsprained": 15887,
    "contrast": 25595,
    "umer": 9261,
    "sies": 21057,
    "Ġbeck": 14012,
    "ĠĠĠĠĠĠĠĠĠĠĠĠĠĠĠĠĠĠĠĠĠĠĠĠĠĠĠĠĠĠĠĠĠĠĠĠĠĠĠĠĠĠĠĠĠĠĠĠĠ": 20041,
    "Ġderivative": 3002,
    "Ġgash": 15675,
    "Ġeul": 21623,
    "ats": 4253,
    "Ġlieutenant": 15265,
    "Ġguiltless": 16942,
    "Ġreasonably": 11096,
    "Ġpangs": 15619,
    "ints": 3418,
    "Ġverify": 12092,
    "Ġability": 2765,
    "lim": 9609,
    "Ġrecurred": 18978,
    "Ġinsufficient": 9675,
    "Ġhighway": 14349,
    "onent": 21251,
    "striving": 24670,
    "Ġpreference": 9736,
    "vels": 5432,
    "Ġspo": 6846,
    "indulged": 22379,
    "athies": 22705,
    "pounds": 21027,
    "Ġfields": 2144,
    "industrious": 26241,
    "Ġamazing": 9980,
    "Ġreck": 6539,
    "Ġsobs": 14137,
    "four": 6115,
    "teeth": 10357,
    "Ġterminating": 23512,
    "kicked": 20945,
    "Ġsheeted": 19834,
    "kshire": 13749,
    "Ġwaist": 6893,
    "Ġdishonoured": 20394,
    "Ġcursory": 18850,
    "user": 5105,
    "Ñ": 146,
    "Ġwaving": 8579,
    "Ġrefuse": 5739,
    "Ġdemeanour": 17340,
    "Ġmenaced": 16296,
    "Ġrepetition": 8975,
    "Ġaft": 5737,
    "Ġaforethought": 25429,
    "everywhere": 23699,
    "hair": 9125,
    "Ġvillanous": 24058,
    "Ġinclud": 1512,
    "Ġchanged": 5243,
    "Ġapproach": 865,
    "isk": 9170,
    "Ġstain": 18067,
    "Ġlandscape": 12421,
    "Ġcomple": 2840,
    "ourney": 3554,
    "Ġarranging": 11176,
    "window": 7743,
    "your": 1986,
    "dden": 1805,
    "Ġqualities": 7533,
    "ories": 4754,
    "Ġpieces": 7369,
    "excepting": 19709,
    "happening": 16567,
    "agement": 4187,
    "drew": 7334,
    "Ġgo": 614,
    "Ġending": 18924,
    "Ġcoquet": 22585,
    "Ġcosmopol": 16455,
    "pate": 21012,
    "oss": 10118,
    "time": 3148,
    "Ġrheumatic": 20707,
    "Ġloses": 15877,
    "ification": 1023,
    "Ġoperate": 19117,
    "aisance": 15078,
    "claim": 9838,
    "Ġsub": 950,
    "Ġnumberless": 16419,
    "sure": 5522,
    "Ġuneasiness": 9487,
    "Ġpreced": 6041,
    "tawn": 21083,
    "insisted": 23070,
    "Ġrefresh": 10349,
    "antic": 1603,
    "Ġrede": 13987,
    "Ġruddy": 17128,
    "Ġappropri": 2228,
    "dl": 20825,
    "pudding": 17649,
    "gs": 7338,
    "Ġidentity": 2525,
    "thyself": 19300,
    "remains": 10401,
    "Ġincensed": 18573,
    "Ġsemi": 11973,
    "mers": 9613,
    "Ġruss": 18717,
    "Ġdecanter": 22462,
    "Ġask": 1493,
    "Ġthoroughly": 8348,
    "Ġprotecting": 24687,
    "Ġinterposed": 20622,
    "Ġbakers": 17868,
    "Ġsit": 4214,
    "ctu": 5088,
    "variety": 23189,
    "stem": 570,
    "Ġcoldness": 23762,
    "sometimes": 5973,
    "Ġnoiseless": 10359,
    "Ġhebrew": 13991,
    "handedness": 24921,
    "gun": 10099,
    "Ġdemon": 7869,
    "Ġprogrammed": 11059,
    "thickness": 25368,
    "bles": 7019,
    "ksome": 10107,
    "Ġle": 333,
    "Ġsurveying": 25326,
    "Ġarchitecture": 1140,
    "aster": 1864,
    "Ġmerid": 13199,
    "Ġanalogical": 25641,
    "Ġknotted": 17021,
    "ca": 20795,
    "isc": 6241,
    "smiled": 16616,
    "Ġrank": 6260,
    "Ġvect": 1224,
    "Ġarchbishop": 18722,
    "anim": 6523,
    "soled": 14332,
    "Ġfishe": 15590,
    "Ġdisgracing": 26257,
    "Ġintervals": 5598,
    "Ġexactly": 2770,
    "riving": 21930,
    "lad": 5993,
    "Ġferry": 24498,
    "iday": 8834,
    "Ġwithdra": 6399,
    "fishing": 20861,
    "Ġliv": 6681,
    "Ġwonderland": 23427,
    "Ġsurrounding": 12167,
    "ċ": 204,
    "pumps": 21029,
    "Ġhair": 3313,
    "justine": 7683,
    "embarrassed": 20667,
    "Ġmean": 743,
    "oa": 9615,
    "Ġmediocr": 24141,
    "inion": 2875,
    "Ġregimentals": 19860,
    "repe": 8780,
    "Ġamused": 11803,
    "Ġbrass": 11050,
    "q": 85,
    "Ġseparated": 9467,
    "abled": 12799,
    "Ġastonishment": 4795,
    "Ġfarmhouse": 24987,
    "Ġvillas": 24057,
    "ding": 3029,
    "Ġmetallic": 19091,
    "wins": 21132,
    ",âĢĶ": 3173,
    "Ġhumanity": 6733,
    "Ġreplete": 15702,
    "Ġvit": 10248,
    "wound": 21129,
    "Ġdeaden": 23462,
    "Ġfors": 21775,
    "usages": 22294,
    "Ġtresses": 21178,
    "owing": 7602,
    "Ġfortresses": 23623,
    "Ġmouthful": 16577,
    "Ġdoors": 6419,
    "ank": 1364,
    "Ġmimic": 3145,
    "Ġconversation": 3329,
    "structure": 2319,
    "Ġarched": 10934,
    "regular": 3045,
    "Ġmoderately": 22226,
    "guarded": 13299,
    "ak": 538,
    "hel": 4815,
    "Ġforbidding": 17080,
    "Ġnominally": 17234,
    "Ġfr": 1697,
    "Ġoccasional": 7289,
    "stating": 21650,
    "Ġuneasy": 8665,
    "det": 5207,
    "Ġobsc": 7041,
    "Ġmiriam": 25274,
    "Ġhint": 5016,
    "Ġbreakfast": 3979,
    "Ġcarefully": 6306,
    "effectually": 25131,
    "Ġpondering": 17007,
    "Ġindeed": 1681,
    "Ġshavings": 14113,
    "Ġenjoyed": 8008,
    "Ġpredomin": 16040,
    "moran": 24154,
    "pend": 6368,
    "Ġimitation": 22175,
    "Ġhearties": 18968,
    "Ġanswers": 7072,
    "Ġtwelfth": 22681,
    "Ġnovelist": 24776,
    "advance": 12161,
    "Ġshreds": 12775,
    "Ġhundredth": 16521,
    "Ġunite": 9257,
    "Ġalt": 18101,
    "Ġgreatest": 4093,
    "fight": 17540,
    "decided": 13219,
    "sole": 6170,
    "Ġprank": 23223,
    "Ġacc": 573,
    "latitudes": 17199,
    "Ġmethodology": 2403,
    "Ġaccountability": 10440,
    "Ġbluish": 23653,
    "Ġnecessary": 4476,
    "Ġwhitened": 24868,
    "Ġblasphemy": 26116,
    "Ġcommunic": 5751,
    "circumstance": 7764,
    "Ġconfirmation": 17213,
    "eting": 7170,
    "Ġextended": 7923,
    "ĭ": 238,
    "Ġfrightens": 24033,
    "Ġbubb": 12589,
    "tes": 11531,
    "Ġinsular": 19270,
    "Ġimmediately": 3365,
    "Ġdesper": 6178,
    "Ġrods": 9757,
    "pride": 11212,
    "oused": 6558,
    "Ġrelics": 16199,
    "unworthy": 18164,
    "Ġpreacher": 18370,
    "Ġincapable": 7423,
    "Ġbite": 10799,
    "Ġinspect": 5965,
    "special": 14708,
    "Ġlanes": 19768,
    "Ġtea": 5041,
    "encoun": 12302,
    "cle": 3959,
    "supervised": 1932,
    "Ġvacancy": 9047,
    "Ġchina": 8040,
    "Ġlengthen": 15658,
    "Ġtrifle": 10604,
    "Ġdashes": 21437,
    "anous": 21362,
    "beer": 22492,
    "Ġtrade": 2547,
    "Ġ22": 8279,
    "attain": 21264,
    "maged": 15397,
    "mo": 863,
    "dut": 10090,
    "Ġfluke": 14676,
    "whalebone": 19120,
    "Ġreturn": 1712,
    "Ġexternal": 8365,
    "Ġworn": 6446,
    "powers": 25411,
    "recognised": 15266,
    "Ġmonosy": 18853,
    "dred": 2528,
    "state": 13982,
    "step": 2455,
    "Ġwooing": 19437,
    "Ġinquisitive": 26318,
    "Ġroute": 11383,
    "Ġhapp": 1087,
    "Ġcordon": 24394,
    "Ġcouns": 10523,
    "Ġseasoned": 24405,
    "Ġjo": 2611,
    "Ġmoonlight": 9961,
    "Ġprominence": 18956,
    "Ġforty": 5719,
    "ky": 4522,
    "Ġtroublesome": 24005,
    "Ġdifferently": 10391,
    "Ġsupervised": 3403,
    "ival": 4225,
    "Ġpatients": 24810,
    "Ġhumaneval": 25583,
    "Ġeyeing": 6461,
    "vel": 2383,
    "espe": 3500,
    "Ġwhiteness": 5920,
    "Ġlie": 4408,
    "carbuncle": 26384,
    "ille": 9222,
    "thorough": 21989,
    "Ġbalmy": 22907,
    "sex": 12718,
    "Ġalgorithm": 771,
    "Ġmonotonically": 3838,
    "glow": 20876,
    "Ġunlike": 7006,
    "Ġnineveh": 13393,
    "print": 23815,
    "Ġphrases": 2799,
    "Ġsluggishly": 25892,
    "Ġregarding": 13214,
    "uttermost": 24943,
    "Ġfluctuating": 24417,
    "Ġsuccessive": 10503,
    "aint": 2542,
    "summon": 23418,
    "Ġshoe": 14568,
    "collins": 6916,
    "retched": 3071,
    "wed": 5796,
    "strip": 19833,
    "lay": 5892,
    "ividual": 5463,
    "iless": 10284,
    "Ġoctober": 17229,
    "Ġ31": 12135,
    "Åĵ": 10746,
    "Ġtaking": 3251,
    "Ġthoughts": 3139,
    "Ġassuming": 16694,
    "Ġgeneration": 2202,
    "Ġinitials": 11016,
    "Ġdeparted": 5564,
    "Ġample": 11802,
    "Ġlexicon": 25975,
    "Ġaston": 3704,
    "Ġtallow": 14782,
    "Ġslime": 23165,
    "alike": 17945,
    "impatient": 13644,
    "neglect": 25669,
    "Ġnorthwards": 19549,
    "Ġpetticoat": 15299,
    "Ġpredicting": 2415,
    "Ġtranquil": 7310,
    "arter": 17895,
    "ved": 869,
    "Ġhanover": 20589,
    "Ġsugg": 4502,
    "Ġfind": 1457,
    "Ġdrunk": 9427,
    "Ġspe": 820,
    "Ġoutriders": 26545,
    "Ġtransferred": 16457,
    "Ġlatter": 3992,
    "Ġbuildings": 24719,
    "lished": 8383,
    "Ġbeware": 8832,
    "Ġthyself": 6604,
    "Ġfleet": 9435,
    "Ġchamounix": 14867,
    "Ġstalls": 25648,
    "eler": 1570,
    "Ġholy": 6593,
    "Ġwaves": 3922,
    "Ġsundering": 23277,
    "ă": 196,
    "Ġquohog": 10974,
    "yset": 21148,
    "voyages": 24856,
    "longer": 8616,
    "none": 6962,
    "appro": 7046,
    ";âĢĿâĢĶ": 20762,
    "Ġmadman": 13155,
    "Ġodorous": 19569,
    "Ġyarman": 12710,
    "cheeks": 23810,
    "Ġcrust": 21354,
    "pierced": 26142,
    "Ġstrait": 23753,
    "distraction": 24203,
    "ldog": 21921,
    "pilot": 25909,
    "Ġclay": 7021,
    "Ġhenry": 5197,
    ":": 30,
    "Ġcolumb": 22859,
    "Ġreminding": 19800,
    "Ġconveyed": 8335,
    "Ġvelv": 10622,
    "Ġvector": 1973,
    "cked": 2764,
    "Ġrespectively": 23250,
    "Ġlasted": 11055,
    "humor": 19455,
    "Ġentertain": 6055,
    "Ġmadame": 13154,
    "Ġholiday": 13003,
    "Ġecho": 12673,
    "Ġhardware": 4905,
    "Ġsort": 1508,
    "Ġmove": 5107,
    "Ġprecipitate": 19945,
    "Ġmarvelled": 18875,
    "Ġbequeathed": 20704,
    "Ġinevitable": 15171,
    "Ġprendergast": 26539,
    "publ": 17640,
    "Ġforeb": 12008,
    "Ġomniscient": 20089,
    "Ġindividuality": 14912,
    "Ġguid": 2641,
    "su": 800,
    "igns": 8449,
    "eddling": 11904,
    "upper": 11541,
    "Ġphysical": 7522,
    "library": 13004,
    "Ġhopes": 4233,
    "Ġoarsmen": 7738,
    "Ġmagnificent": 9845,
    "Ġbeer": 10222,
    "Ġillustrations": 17109,
    "reflections": 24734,
    "ric": 1374,
    "aries": 6246,
    "splice": 17173,
    "respect": 6375,
    "Ġnonsensical": 21532,
    "linen": 25258,
    "Ġ95": 19776,
    "arranted": 19322,
    "ore": 418,
    "gaze": 17559,
    "ouraged": 22862,
    "earthly": 24723,
    "Ġnew": 1197,
    "possesses": 24617,
    "--": 1041,
    "Ġjacket": 6490,
    "Ġphantom": 8710,
    "Ġbolivia": 24668,
    "Ġap": 5008,
    "Ġtormenting": 15108,
    "Ġminimum": 23043,
    "pton": 15798,
    "lesc": 11040,
    "Ġvalidate": 3141,
    "Ġcompanionship": 14923,
    "near": 5843,
    "Ġannual": 14835,
    "Ġembarks": 22964,
    "Ġfondness": 16782,
    "aulets": 18622,
    "Ġcivilised": 24247,
    "Ġperplexed": 23662,
    "Ġunhappiness": 14121,
    "Ġirregularly": 25324,
    "anations": 12581,
    "set": 3869,
    "travel": 24337,
    "Ġstoke": 10398,
    "Ġworse": 4720,
    "Ġwelcome": 5604,
    "Ġstun": 11653,
    "Ġhissing": 15794,
    "Ġwrath": 16319,
    "wants": 21133,
    "Ġdey": 11678,
    "preserver": 20216,
    "owl": 12688,
    "bowsprit": 16855,
    "Ġstruct": 2786,
    "Ġwander": 9034,
    "Ġharpoone": 2910,
    "professional": 20278,
    "acetti": 13400,
    "Ġargemone": 24277,
    "disappointed": 25192,
    "imp": 3036,
    "terr": 8154,
    "enough": 6810,
    "overcoat": 19053,
    "gee": 15981,
    "tree": 11536,
    "Ġclustered": 25234,
    "Ġlicense": 20094,
    "Ġassigned": 16314,
    "Ġindependence": 12109,
    "blast": 9590,
    "belais": 24042,
    "Ġglac": 9349,
    "cated": 20805,
    "Ġvoyager": 16515,
    "Ġdiscourse": 9801,
    "Ġprocured": 8680,
    "Ġanimate": 23425,
    "Ġpredicts": 2594,
    "nial": 20986,
    "Ġsli": 4749,
    "Ġweaken": 21925,
    "enormous": 26167,
    "telescope": 26564,
    "Ġrapid": 1450,
    "arp": 2028,
    "wester": 21141,
    "Ġhence": 4989,
    "week": 12936,
    "esteem": 26009,
    "Ġrevel": 9217,
    "Ġpom": 21454,
    "erde": 21271,
    "Ġut": 2278,
    "Ġdivine": 6921,
    "Ġxl": 11994,
    "Ġcachalot": 17836,
    "Ġimpious": 15990,
    "dish": 12457,
    "onsensical": 18577,
    "Ġclung": 10962,
    "Ġso": 434,
    "Ġunicorn": 22059,
    "Ġchristmas": 6924,
    "Ġpeculiarity": 12938,
    "tick": 17680,
    "georgiana": 26021,
    "ha": 3984,
    "Ġtowering": 16741,
    "Ġsoundings": 13137,
    "Ġdeposit": 17271,
    "dee": 11737,
    "Ġgrim": 7439,
    "ater": 3369,
    "Ġimmortality": 26327,
    "Ġevils": 9023,
    "oct": 7554,
    "stick": 15689,
    "Ġgills": 17995,
    "concerns": 24072,
    "relations": 14736,
    "Ġbr": 1071,
    "Ġgiant": 13971,
    "Ġcommission": 6714,
    "Ġdestroy": 5772,
    "Ġpanting": 11605,
    "ifer": 11687,
    "half": 4932,
    "Ġliking": 23593,
    "Ġzer": 1091,
    "Ġmermaids": 26171,
    "iard": 9604,
    "u": 89,
    "Ġmurmuring": 23580,
    "ously": 2489,
    "insensibility": 23072,
    "Ġdiscre": 2417,
    "acrity": 14282,
    "nowadays": 22342,
    "Ġbroker": 23105,
    "Ġhap": 18196,
    "Ġfry": 17881,
    "appears": 12064,
    "Ġunerringly": 18266,
    "Ġstruck": 3390,
    "accompanied": 12426,
    "Ġearly": 2077,
    "Ġstim": 18066,
    "Ġnecessarily": 13253,
    "express": 4896,
    "ojo": 7349,
    "Ġsword": 6734,
    "Ġtransport": 11280,
    "oury": 22308,
    "behold": 12882,
    "Ġcostume": 16498,
    "intern": 23739,
    "Ġthroat": 7771,
    "Ġrecurring": 23235,
    "planks": 21964,
    "Ġaffection": 2642,
    "ĠvertebrÃ¦": 11437,
    "elephant": 12355,
    "Ġresuming": 12898,
    "Ġberkshire": 16886,
    "Ġoverboard": 6046,
    "Ġcreate": 2089,
    "Ġvultures": 25654,
    "Ġpeeped": 10015,
    "Ġglen": 18854,
    "Ġbaronial": 23796,
    "Ġassistant": 7298,
    "Ġbier": 22769,
    "Ġmortals": 9919,
    "flies": 19427,
    "living": 7135,
    "Ġmulti": 1043,
    "went": 6513,
    "Ġendued": 14080,
    "Ġenticements": 26035,
    "Ġmelting": 24290,
    "Ġdeployment": 11206,
    "Ġ89": 19715,
    "vings": 9754,
    "Ġwhel": 15870,
    "Ġgrec": 18961,
    "Ġbears": 6829,
    "overspreading": 26140,
    "Ġboasting": 19939,
    "superiority": 20188,
    "benevolent": 15237,
    "Ġobservation": 6599,
    "Ġmin": 1025,
    "Ġrelig": 8553,
    "Ġfrom": 433,
    "antique": 18288,
    "Ġprogno": 14043,
    "Ġcompl": 3763,
    "aved": 5475,
    "licted": 20958,
    "Ġraised": 4662,
    "Ġmoot": 22436,
    "dam": 7798,
    "um": 454,
    "Ġcanv": 7011,
    "cable": 20799,
    "bore": 13690,
    "Ġmortally": 23920,
    "Ġyaw": 18097,
    "Ò": 147,
    "Ġhoky": 17929,
    "ellation": 12755,
    "Ġoverjoy": 15976,
    "Ġreign": 13988,
    ":--": 5784,
    "Ġenv": 2842,
    "##": 2315,
    "order": 1960,
    "Ġscare": 18397,
    "Ġfolding": 19730,
    "acter": 2506,
    "fered": 5560,
    "Ġmodular": 12823,
    "_,": 2801,
    "Ġamounted": 18513,
    "aried": 10989,
    "bred": 11471,
    "Ġjenny": 20165,
    "enged": 23150,
    "Ġstreng": 18073,
    "downstairs": 23923,
    "length": 7136,
    "Ġbottles": 16573,
    "breaths": 25337,
    "respond": 12549,
    "plicable": 10259,
    "Ġcontext": 1689,
    "stories": 18026,
    "Ġredoubled": 23756,
    "anth": 13890,
    "irst": 878,
    "Ġclassifies": 11842,
    "Ġsailing": 5324,
    "Ġgrecian": 26297,
    "Ġsculpture": 26017,
    "ickering": 22673,
    "Ġrural": 21971,
    "Ġsinusoidal": 4802,
    "serpent": 16295,
    "Ġaddressing": 11166,
    "Ġjoyfully": 19349,
    "Ġfairer": 20465,
    "atural": 949,
    "ilated": 18060,
    "Ġoftener": 13569,
    "Ġhysterical": 26093,
    "Ġperfections": 23610,
    "Ġvolume": 6770,
    "ulled": 14059,
    "ubbub": 23246,
    "Ġfuriously": 9805,
    "Ġcoroner": 7510,
    "Ġbloodshot": 23802,
    "Ġsmothered": 20722,
    "Ġmasterless": 23998,
    "Ġhabitation": 14805,
    "Ġsorrow": 4630,
    "Ġim": 475,
    "rings": 10724,
    "Ġpharaoh": 26587,
    "Ġdebts": 8036,
    "Ġsurgeons": 23466,
    "Ġdogs": 7742,
    "Ġrearing": 12682,
    "robber": 21540,
    "photograph": 16162,
    "Ġsignificant": 8637,
    "scene": 14423,
    "Ġgum": 21598,
    "Ġlucases": 9013,
    "toss": 22570,
    "Ġnotice": 4545,
    "Ġxliv": 23411,
    "Ġohio": 19130,
    "Ġranged": 10260,
    "chron": 21697,
    "Ġabominable": 12326,
    "Ġwedged": 24936,
    "Ġconcern": 2659,
    "Ġlandlessness": 23383,
    "Ġ[_": 15464,
    "itative": 13873,
    "ignomin": 23269,
    "âĢĻ": 378,
    "Ġemptied": 24347,
    "Ġruff": 14350,
    "Ġsettled": 3745,
    "Ġpursue": 6316,
    "Ġdrive": 5055,
    "Ġfant": 9176,
    "Ġdrows": 21438,
    "Ġdost": 7637,
    "obtained": 23099,
    "Ġthoughtful": 16195,
    "Ġsmothe": 18575,
    "carefully": 13373,
    "pread": 7418,
    "Ġportentous": 15233,
    "Ġprivilege": 11421,
    "Ġmappings": 2148,
    "Ġwhile": 606,
    "Ġstillness": 12999,
    "porary": 14552,
    "aggoo": 5130,
    "ology": 1565,
    "Ġoysters": 20582,
    "felix": 10656,
    "âĢĶâĢľ": 2972,
    "ult": 722,
    "tossing": 18581,
    "accursed": 20543,
    "Ġaccomplishment": 19668,
    "wherefore": 19110,
    "Ġconventional": 25548,
    "icil": 17974,
    "Ġmanners": 3795,
    "entitled": 21571,
    "Ġquant": 6425,
    "mblings": 19783,
    "Ġsun": 1720,
    "Ġfright": 3801,
    "Ġsqualid": 14371,
    "Ġlabors": 23330,
    "Ġgraze": 18227,
    "Ġit": 339,
    "Ġezekiel": 26194,
    "vest": 6232,
    "etite": 21582,
    "ascribed": 24707,
    "Ġchatting": 24746,
    "nson": 16092,
    "Ġsunrise": 9376,
    "Ġprecipitous": 24836,
    "dw": 3332,
    "Ġtube": 15005,
    "Ġservox": 23873,
    "tack": 12517,
    "objection": 19917,
    "ashions": 16421,
    "Ġmemorand": 23461,
    "terrible": 8468,
    "Ġfeeding": 7972,
    "Ġwages": 13857,
    "poises": 11893,
    "Ġinformation": 1047,
    "Ġforming": 7044,
    "Ġpeter": 10538,
    "Ġunfolding": 17087,
    "authority": 13595,
    "Ġfainted": 8796,
    "Ġwalking": 4325,
    "Ġcaw": 13886,
    "Ġrabb": 4163,
    "Ġcanall": 10930,
    "Ġnodded": 11974,
    "ension": 6571,
    "Ġflee": 7081,
    "Ġleaning": 5228,
    "Ġfinish": 7949,
    "acetty": 24464,
    "under": 3133,
    "Ġsorrowful": 10539,
    "Ġklux": 22199,
    "raising": 21635,
    "Ġsworn": 14438,
    "tottenham": 25419,
    "acters": 9312,
    "Ġmule": 13865,
    "Ġeditions": 19154,
    "pher": 11514,
    "icted": 5938,
    "Ġwitnesses": 9489,
    "Ġexaggerate": 25650,
    "grie": 12475,
    "Ġcit": 10785,
    "Ġinferred": 14503,
    "Ġstoutly": 16926,
    "threat": 10902,
    "scy": 21058,
    "Ġvapory": 17008,
    "coll": 23782,
    "explained": 23148,
    "buck": 17493,
    "Ġthere": 564,
    "Ġmichaelmas": 26376,
    "achment": 5464,
    "Ġineff": 12639,
    "extreme": 11030,
    "volutions": 16325,
    "Ġreminded": 10002,
    "Ġdeepest": 8214,
    "Ġgrounded": 23712,
    "Ġwaits": 23282,
    "Ġbegan": 2023,
    "Ġinexpress": 12640,
    "Ġhoofs": 14529,
    "Ġdisinterested": 16061,
    "pick": 17636,
    "Ġreason": 1402,
    "Ġgriev": 16637,
    "Ġdwell": 5813,
    "retreat": 23142,
    "uteness": 17988,
    "velope": 17703,
    "clay": 18933,
    "Ġcountry": 2533,
    "Ġreplay": 5047,
    "urous": 10215,
    "Ġgods": 6455,
    "nals": 16402,
    "Ġasc": 4766,
    "Ġwalks": 8969,
    "Ġtargets": 4203,
    "avering": 24792,
    "Ġepoch": 26474,
    "ometer": 19328,
    "Ġmaids": 19694,
    "Ġincredible": 9518,
    "cannib": 11907,
    "Ġfrosty": 14938,
    "Ġmultiplicity": 19277,
    "Ġperturbed": 20443,
    "not": 908,
    "Ġbab": 5291,
    "Ġdeploy": 3068,
    "Ġidentical": 10436,
    "our": 534,
    "Ġpattering": 18652,
    "Ġoutlandish": 12843,
    "Ġcarpenter": 4686,
    "Ġbewit": 15732,
    "Ġstretched": 5921,
    "roses": 17959,
    "bered": 4507,
    "terday": 4706,
    "Ġworried": 22929,
    "Ġmot": 2987,
    "ren": 549,
    "Ġwilled": 21294,
    "oat": 13767,
    "iting": 2158,
    "Ġindelible": 25695,
    "ceiling": 21630,
    "Ġpled": 17907,
    "occupied": 12308,
    "Ġawaited": 17075,
    "Ġversion": 10632,
    "Ġnarrative": 6217,
    "ounts": 4653,
    "uncontrollable": 20599,
    "Ġcapst": 8599,
    "Ġthinkings": 22813,
    "thrust": 10264,
    "Ġjove": 9271,
    "Ġvaliantly": 22806,
    "bows": 10084,
    "olstad": 7612,
    "Ġguns": 16778,
    "andam": 10890,
    "tub": 9146,
    "Ġsteeply": 23727,
    "Ġadoption": 24951,
    "Ġloomings": 24952,
    "Ġsom": 1276,
    "hypothe": 25906,
    "Ġexact": 2543,
    "Ġadvise": 7935,
    "04": 10682,
    "showed": 16027,
    "Ġexpressly": 16454,
    "gh": 3805,
    "Ġpeaceable": 14726,
    "ell": 397,
    "lantern": 17431,
    "Ġ1950": 11361,
    "Ġhorseman": 19610,
    "Ġmutable": 23958,
    "Ġplata": 25120,
    "Ġfrightened": 5342,
    "ian": 1239,
    "Ġpioneer": 17919,
    "Ġpalpable": 15209,
    "feeder": 12365,
    "Ġsoph": 1672,
    "Ġ18": 3408,
    "hess": 4748,
    "Ġcharacteristics": 8613,
    "brance": 7284,
    "nurtured": 25525,
    "Ġadmeasure": 18294,
    "prim": 23814,
    "Ġdug": 21433,
    "Ġbones": 4585,
    "Ġmaintaining": 1509,
    "Ġbill": 4042,
    "Ġdreams": 7496,
    "Ġswandam": 11090,
    "Ġsweep": 8266,
    "clad": 14462,
    "entropy": 1436,
    "Ġsystems": 823,
    "Ġrain": 5005,
    "Ġloft": 5642,
    "inous": 8776,
    "affa": 23779,
    "Ġdramat": 23222,
    "Ġemir": 23353,
    "Ġcracked": 8597,
    "hap": 17561,
    "Ġblindly": 12114,
    "unwittingly": 25802,
    "Ġcum": 21345,
    "Ġconcernment": 23648,
    "Ġhunting": 7259,
    "ted": 788,
    "ivates": 18277,
    "town": 7144,
    "Ġaccumulating": 2723,
    "elsewhere": 19870,
    "Ġgreenland": 5761,
    "Ġtenderest": 23550,
    "Ġclaims": 13377,
    "Ġoil": 3372,
    "Ġcourt": 4168,
    "Ġarea": 14189,
    "Ġstepfather": 7221,
    "Ġardently": 9501,
    "Ġje": 4123,
    "anged": 3588,
    "?âĢĶ": 3467,
    "concealed": 25118,
    "erable": 1917,
    "Ġrenewing": 19813,
    "Ġtrough": 15968,
    "aware": 16298,
    "Ġperfume": 25666,
    "Ġdoubted": 7965,
    "rage": 10845,
    "ctive": 11626,
    "sister": 5139,
    "higher": 20410,
    "Ġfatigued": 13469,
    "Ġsinful": 18951,
    "blood": 7780,
    "ven": 780,
    "Ġordin": 16653,
    "Ġlabyrin": 13108,
    "Ġquadruped": 20618,
    "teringly": 21827,
    "Ġaccordingly": 6622,
    "Ġrivals": 20274,
    "·": 120,
    "ann": 5803,
    "willingly": 11987,
    "tot": 10730,
    "Ġaudits": 24769,
    "Ġgrey": 4515,
    "Ġbaggy": 24538,
    "Ġprofoundest": 16862,
    "Ġsupplies": 20329,
    "Ġfear": 2276,
    "Ġbison": 21391,
    "Ġprofession": 6209,
    "agre": 18167,
    "Ġallude": 12776,
    "Ġamidst": 9497,
    "Ġesteemed": 10591,
    "Ġevermore": 18813,
    "itz": 6007,
    "mil": 13755,
    "Ġartistic": 18605,
    "Ġhellish": 10553,
    "Ġeggs": 12346,
    "Ġequinoctial": 20536,
    "Ġembatt": 18841,
    "Ġfigures": 8633,
    "Ġcustom": 5078,
    "Ġplains": 14625,
    "dragging": 16611,
    "handsome": 13180,
    "eringly": 23006,
    "marest": 20982,
    "gather": 20877,
    "Ġvault": 8845,
    "Ġsnatched": 10473,
    "ivities": 22082,
    "Ġattachment": 6051,
    "opposition": 24820,
    "honour": 13471,
    "Ġloath": 7891,
    "voices": 21120,
    "bub": 15320,
    "Ġspecial": 2102,
    "Ġcondem": 6340,
    "tri": 11532,
    "Ġane": 9184,
    "Ġshattered": 7884,
    "Ġindelicacy": 25696,
    "walking": 9985,
    "Ġdrawled": 23992,
    "Ġplumber": 16088,
    "Ġunf": 4090,
    "Ġasserted": 16951,
    "likely": 9026,
    "circumamb": 26088,
    "Ġcomforter": 20510,
    "Ġtarpaul": 17732,
    "bott": 9109,
    "lynes": 15708,
    "Ġdry": 5624,
    "Ġmounting": 19980,
    "Ġmerchantmen": 19862,
    "itement": 7835,
    "Ġexplicit": 3589,
    "Ġventing": 19496,
    "Ġwithdrawn": 10609,
    "Ġmarvell": 7248,
    "oug": 430,
    "Ġshipmate": 8932,
    "Ġhydraulic": 10067,
    "x": 92,
    "ese": 4447,
    "Ġregain": 22589,
    "Ġpulse": 13119,
    "Ġoily": 13867,
    "Ġbelrive": 18833,
    "Ġfluid": 11214,
    "Ġcover": 3558,
    "Ġannoyance": 20664,
    "Ġaim": 10148,
    "Ġpeeling": 22695,
    "sequently": 14585,
    "Ġprovision": 14827,
    "deav": 2676,
    "Ġbath": 9661,
    "Ġtenderly": 11316,
    "Ġcravat": 26308,
    "conception": 22478,
    "Ġhog": 13927,
    "sm": 3436,
    "arness": 11675,
    "Ġactiv": 833,
    "Ġbackground": 18650,
    "Ġassociates": 24711,
    "inordinate": 21197,
    "Ġkneeling": 12147,
    "Ġsurgeon": 8984,
    "independent": 26022,
    "cular": 15331,
    "Ľ": 254,
    "stock": 13227,
    "approbation": 11460,
    "Ġverge": 23890,
    "Ġsubterranean": 13615,
    "Ġsingle": 1694,
    "Ġpoetic": 17104,
    "Ġroylott": 7305,
    "Ġespecial": 26412,
    "Ġhoneymoon": 25646,
    "Ġrides": 21975,
    "Ġ73": 24263,
    "card": 11477,
    "Ġfinest": 10395,
    "Ġstared": 8456,
    "Ġsnail": 19302,
    "ders": 8075,
    "Ġsecured": 6747,
    "Ġconveying": 19717,
    "Ġt": 261,
    "hend": 13257,
    "willingness": 24754,
    "Ġbirds": 5875,
    "puted": 8850,
    "Ġappre": 5165,
    "ister": 1295,
    "constantinople": 25508,
    "handled": 19263,
    "hibited": 17430,
    "Ġcharted": 22254,
    "brim": 23576,
    "anyone": 16595,
    "hammock": 16357,
    "Ġmob": 16021,
    "commend": 19996,
    "Ġunaccountable": 7887,
    "coo": 11172,
    "thee": 9693,
    "destroyed": 15264,
    "Ġcongratulations": 10583,
    "Ġloop": 14149,
    "Ġrests": 13098,
    "bene": 6114,
    "syntax": 5868,
    "Ġbeaufort": 13572,
    "Ġdews": 21842,
    "Ġfowl": 11332,
    "Ġinsurg": 23682,
    "vering": 15720,
    "Ġcold": 3035,
    "Ġapparent": 5466,
    "Ġintruder": 25992,
    "Ġinsignific": 13184,
    "Ġfil": 3472,
    "Ġpip": 1581,
    "Ġundeserving": 18269,
    "mult": 8751,
    "Ġreprehensible": 15703,
    "Ġdominic": 25381,
    "corrupt": 14898,
    "Ġprelimin": 8864,
    "Ġcompetition": 14269,
    "aught": 2682,
    "Ġsenses": 8252,
    "waist": 13422,
    "Ġrider": 24187,
    "Ġlectures": 17181,
    "matlock": 23471,
    "complaisance": 24808,
    "damp": 15347,
    "Ġbusier": 23339,
    "Ġcomplained": 17000,
    "Ġunrival": 22049,
    "stonecraft": 24356,
    "aton": 21261,
    "Ġfavourably": 16368,
    "igated": 15711,
    "Ġmurmur": 14591,
    "Ġthrew": 3977,
    "centre": 17088,
    "suffer": 24329,
    "ray": 2437,
    "Ġlabours": 8586,
    "Ġunlocking": 20708,
    "Ġ85": 24460,
    "Ġfluttered": 16253,
    "hello": 13368,
    "chel": 11209,
    "hangs": 15372,
    "Ġretort": 23073,
    "sheltered": 25586,
    "Ġweighty": 16035,
    "neither": 9761,
    "Ġacquit": 18899,
    "delights": 19704,
    "onist": 21253,
    "Ġordained": 19448,
    "Ġprincely": 24150,
    "ux": 7813,
    "Ġhorsham": 10408,
    "Ġrelieved": 7666,
    "arken": 18668,
    "gledy": 25404,
    "Ġleatherhead": 20017,
    "Ġpoisoned": 24887,
    "namely": 23627,
    "Ġheap": 12683,
    "visit": 7755,
    "affect": 13216,
    "affection": 7487,
    "Ġplus": 3886,
    "Ġimagenet": 19248,
    "Ġproduces": 2091,
    "horr": 14601,
    "Ġwretch": 6379,
    "Ġporch": 19683,
    "isco": 12586,
    "Â£": 4813,
    "Ġhist": 2444,
    "Ġjobs": 24833,
    "fears": 18532,
    "Ġphantoms": 13490,
    "pil": 15411,
    "supplementary": 20552,
    "Ġimminent": 11247,
    "ble": 542,
    "Ġdispose": 23882,
    "Ġezek": 18012,
    "pits": 15415,
    "ither": 1546,
    "Ġcaul": 10789,
    "Ġdenote": 19335,
    "Ġdetermine": 3247,
    "killed": 15380,
    "toes": 22568,
    "pal": 9619,
    "Ġdisengaged": 12894,
    "oundered": 14167,
    "Ġanxious": 4520,
    "Ġheav": 1849,
    "plans": 21962,
    "Ġdeformed": 14050,
    "Ġ275": 20114,
    "Ġslighted": 16570,
    "Ġagreeably": 24955,
    "etwork": 442,
    "Ġimpact": 10299,
    "Ġprodigiously": 14935,
    "Ġbaff": 10801,
    "Ġlikelihood": 16503,
    "surface": 10533,
    "Ġcalmly": 7734,
    "amped": 12037,
    "Ġheinous": 18041,
    "Ġchapters": 10475,
    "ox": 9136,
    "ross": 807,
    "Ġpeculiarities": 12075,
    "revolver": 25628,
    "Ġsymbolize": 24963,
    "Ġwhisky": 23937,
    "ease": 12462,
    "disappearing": 23504,
    "orrah": 17877,
    "Ġvirtues": 9939,
    "Ġutensils": 23516,
    "Ġsees": 8847,
    "Ġsadness": 13291,
    "Ġweave": 21924,
    "Ġreckoning": 14982,
    "Ġtrample": 20330,
    "archical": 1926,
    "Ġshop": 9255,
    "tort": 17677,
    "kers": 7134,
    "Ġportra": 9012,
    "Ġcheating": 16373,
    "Ġgravely": 7883,
    "Ġlightness": 23263,
    "Ġsparsity": 4206,
    "Ġidly": 16406,
    "shaw": 6864,
    "formity": 10281,
    "ardy": 22160,
    "paws": 21031,
    "instrument": 15242,
    "aust": 15313,
    "Ġsneering": 24696,
    "letter": 6203,
    "Ġweighed": 8714,
    "reposed": 24492,
    "chariot": 26481,
    "Ġsanct": 15065,
    "Ġxii": 11995,
    "Ġret": 1378,
    "-------": 20392,
    "Ġperformed": 8549,
    "Ġreaders": 18916,
    "Ġstained": 11655,
    "Ġbatch": 888,
    "loun": 17590,
    "Ġobstacle": 16957,
    "Ġdocile": 19962,
    "Ġdaintiest": 25954,
    "Ġsplendidly": 25328,
    "Ġmedit": 8025,
    "Ġhereditarily": 25225,
    "mouse": 15396,
    "Ġcorroborated": 26055,
    "Ġimprecations": 25821,
    "brad": 20782,
    "Ġxiv": 23410,
    "Ġsufficiently": 8976,
    "spirited": 19756,
    "Ġmoustache": 20487,
    "elder": 21575,
    "Ġbusily": 9387,
    "Ġconcent": 8250,
    "foremost": 14255,
    "Ġduplicates": 17219,
    "Ġdiffered": 22714,
    "Ġlately": 6388,
    "ffy": 18318,
    "este": 15923,
    "Ġentity": 10344,
    "Ġelud": 22647,
    "inced": 3335,
    "Ġviol": 2070,
    "Ġhospitals": 24924,
    "Ġpresto": 22234,
    "ooped": 17625,
    "Ġimmens": 9942,
    "Ġmabel": 17327,
    "ĠĠĠĠĠĠĠĠĠĠĠĠĠĠĠĠĠĠĠĠĠĠĠĠĠĠĠĠĠĠĠĠĠĠĠĠĠĠĠĠ": 4519,
    "Ġprying": 15613,
    "regarding": 15075,
    "arches": 10818,
    "otions": 7181,
    "Ġequilib": 4136,
    "ishments": 9276,
    "Ġcrash": 12006,
    "poles": 16213,
    "Ġhypocr": 19475,
    "Ġhun": 1497,
    "Ġattaining": 15807,
    "Ġthereof": 22372,
    "iffe": 21906,
    "Ġpostmark": 16727,
    "Ġhardship": 18915,
    "Ġhurricane": 16434,
    "wid": 10137,
    "Ġwits": 15535,
    "Ġnumber": 1982,
    "Ġtransform": 746,
    "widely": 25344,
    "Ġpublisher": 24070,
    "howling": 18990,
    "Ġrestrictions": 20638,
    "Ġweeds": 21927,
    "Ġavoided": 13264,
    "Ġharp": 17926,
    "coarse": 16490,
    "bald": 16446,
    "Ġnodes": 1969,
    "urred": 8451,
    "Ġunansw": 22060,
    "Ġpalmed": 24094,
    "hounds": 20909,
    "Ġproducing": 11903,
    "Ġfing": 3761,
    "Ġmended": 21316,
    "Ġsecrets": 9057,
    "Ġcraft": 4377,
    "Ġdesign": 4132,
    "itute": 9654,
    "thes": 7391,
    "Ġkid": 9728,
    "Ġunst": 18239,
    "ideas": 18582,
    "requiem": 24857,
    "Ġimbalance": 22178,
    "Ġfle": 3094,
    "Ġthan": 736,
    "elze": 21576,
    "commander": 16989,
    "ulia": 18151,
    "Ġdare": 3546,
    "Ġpublished": 11243,
    "Ú": 155,
    "Ġseasonable": 24406,
    "Ġgrotesque": 26331,
    "latin": 25259,
    "Ġferocious": 17422,
    "Ġbravest": 23844,
    "Ġdearest": 5457,
    "Ġdead": 2172,
    "prof": 7699,
    "Ġstudy": 1750,
    "mira": 20981,
    "Ġtypes": 8939,
    "Ġmcc": 21309,
    "features": 14829,
    "Ġcav": 13883,
    "pretty": 10624,
    "interested": 9509,
    "impl": 21710,
    "Ġascribed": 14858,
    "Ġbeams": 14633,
    "coun": 10690,
    "Ġdesigns": 13021,
    "Ġled": 3522,
    "stud": 8824,
    "mistak": 16880,
    "Ġsense": 3252,
    "Ġgenerously": 22405,
    "Ġbiological": 1933,
    "Ġdeposed": 16091,
    "âĢĶâĢĺ_": 24832,
    "mense": 4781,
    "arboard": 7266,
    "Ġ123": 24468,
    "improve": 15716,
    "Ġsympathised": 14865,
    "Ġespecially": 3939,
    "Ġluxury": 20135,
    "iro": 20916,
    "Ġcondescending": 24869,
    "ouri": 21450,
    "Ġreliability": 22883,
    "Ġfeatures": 1430,
    "changing": 10856,
    "Ġaddressed": 5263,
    "Ġinterval": 4055,
    "Ġegot": 18010,
    "Ġbully": 23859,
    "Ġhogshe": 20495,
    "Ġcompan": 2174,
    "Ġwont": 9854,
    "Ġactivation": 918,
    "jephro": 26394,
    "isting": 5551,
    "otic": 15749,
    "Ġimmured": 24075,
    "Ġdank": 21431,
    "Ġabominably": 20069,
    "Ġpantry": 20298,
    "Ġforebodings": 17307,
    "Ġcelebrated": 13598,
    "gang": 17555,
    "Ġharbors": 24902,
    "Ġgnarled": 25169,
    "snow": 10726,
    "emorial": 10246,
    "Ġsoaked": 15866,
    "super": 5945,
    "Ġassuring": 13069,
    "Ġcomplexity": 1696,
    "Ġlot": 6680,
    "gans": 11492,
    "up": 1284,
    "Ġsoothe": 7405,
    "partner": 19223,
    "Ġcalms": 23044,
    "Ġdistinguished": 8273,
    "oh": 1575,
    "alions": 21504,
    "Ġlover": 7193,
    "themselves": 6542,
    "engagements": 25855,
    "code": 15332,
    "Ġben": 1108,
    "ose": 718,
    "Ġexisted": 15757,
    "ustration": 2259,
    "Ġdotted": 16794,
    "iable": 3333,
    "Ġpred": 662,
    "Ġsorrows": 13359,
    "Ġinsist": 9894,
    "Ġthen": 668,
    "Ġlingering": 11381,
    "Ġanew": 11432,
    "Ġbliss": 13006,
    "ament": 2439,
    "creator": 26383,
    "lighted": 23757,
    "asse": 15649,
    "Ġschool": 5512,
    "Ġdante": 21441,
    "Ġimproper": 22755,
    "Ġwhaleboats": 18479,
    "Ġgest": 8134,
    "Ġfoundations": 11075,
    "Ġbaker": 4697,
    "Ġvillain": 8639,
    "Ġsupport": 6730,
    "Ġchips": 14184,
    "forest": 22522,
    "dangerous": 20243,
    "Ġsnatch": 14641,
    "Ġfreely": 7058,
    "appre": 14373,
    "loo": 10322,
    "Ġwayward": 22876,
    "ality": 2512,
    "Ġcedar": 15192,
    "Ġtheore": 1830,
    "otes": 15748,
    "humanity": 24840,
    "Ġflatter": 9351,
    "Ġoutlines": 15961,
    "Ġconnivance": 25226,
    "Ġricher": 12764,
    "Ġenlivened": 26209,
    "obstructed": 15230,
    "Ġrustling": 24714,
    "Ġpreceding": 7528,
    "Ġcott": 3711,
    "Ġbatt": 13902,
    "brew": 11475,
    "Ġfly": 3873,
    "vanity": 24977,
    "Ġprocedural": 12035,
    "cowardly": 25750,
    "Ġamber": 7028,
    "Ġnewspapers": 17189,
    "Ġschooner": 16749,
    "Ġflap": 14425,
    "volut": 1559,
    "bergen": 14338,
    "Ġcompre": 4452,
    "ocr": 10469,
    "fel": 8737,
    "Ġnamely": 20692,
    "ole": 9616,
    "Ġpyth": 21463,
    "Ġkettle": 26234,
    "Ġsunshine": 14496,
    "Ġsoapstone": 20514,
    "oyed": 14368,
    "Ġforb": 11666,
    "Ġcats": 8982,
    "wore": 21127,
    "Ġalcoves": 26488,
    "Ġgenerating": 12857,
    "usage": 12838,
    "Ġnote": 4263,
    "Ġbestowed": 6595,
    "hunt": 20905,
    "Ġopposing": 12045,
    "ð": 177,
    "speechless": 25396,
    "Ġinsists": 23679,
    "ricted": 15423,
    "thouse": 21986,
    "wall": 10139,
    "Ġmerest": 14033,
    "Ġanalyze": 1515,
    "Ġentrance": 7233,
    "Ġsuspend": 14610,
    "lie": 12487,
    "argue": 21447,
    "Ġshouts": 19540,
    "Ġimmensities": 25331,
    "Ġfuneral": 10285,
    "Ġvon": 14084,
    "Ġdreading": 23801,
    "Ġneighbouring": 12123,
    "fic": 20854,
    "Ġdidn": 4363,
    "Ġgrope": 17997,
    "Ġpope": 11604,
    "Ġbetrayed": 9564,
    "Ġwalled": 15538,
    "Ġarom": 15495,
    "Ġapprehensions": 13408,
    "Ġcommod": 10336,
    "Ġrefusing": 11031,
    "Ġconclude": 8584,
    "pregn": 18499,
    "Ġemaciated": 20641,
    "Ġque": 4158,
    "Ġrecourse": 22737,
    "visitor": 15060,
    "Ġalfred": 21790,
    "'m": 9585,
    "tubes": 25212,
    "expl": 9286,
    "Ġnarwhales": 24903,
    "buoy": 7761,
    "Ġbinding": 20422,
    "Ġserene": 8167,
    "outside": 12809,
    "Ġfling": 9663,
    "fred": 20857,
    "iriously": 18174,
    "Ġsatan": 14393,
    "Ġdisregarded": 22534,
    "Ġadversary": 12178,
    "reckoning": 25271,
    "ribs": 23368,
    "neighbours": 24882,
    "Ġexist": 9234,
    "Ġinsurance": 23683,
    "proportions": 22850,
    "Ġminor": 12973,
    "huzza": 20915,
    "Ġassum": 4066,
    "Ġfrance": 7682,
    "reg": 2184,
    "acup": 14281,
    "Ġ1820": 25718,
    "Ġprosecuted": 25294,
    "É": 138,
    "Ġdoings": 18377,
    "Ġtolerably": 8068,
    "igations": 18045,
    "Ġfiery": 6871,
    "ĠĠĠĠĠĠĠĠĠĠĠĠĠĠĠĠĠĠĠĠĠĠĠĠĠĠĠĠĠĠ": 24443,
    "otam": 21802,
    "Ġvesu": 21953,
    "Ġsavory": 23879,
    "somebody": 14566,
    "hunted": 16834,
    "Ġviii": 16416,
    "Ġtak": 15472,
    "Ġlandlord": 5581,
    "Ġcurvature": 3574,
    "ton": 1727,
    "erate": 7150,
    "Ġcreditable": 19625,
    "Ġdeafened": 25652,
    "prises": 23817,
    "resolution": 17768,
    "alous": 7372,
    "attentive": 17192,
    "reached": 13844,
    "secured": 16940,
    "Ġpew": 9318,
    "honey": 20907,
    "Ġother": 757,
    "whar": 15931,
    "Ġtigers": 25759,
    "without": 4848,
    "relation": 19450,
    "Ġmaw": 15544,
    "fth": 20858,
    "Ġyouth": 4261,
    "Ġcitations": 25438,
    "Ġrecording": 24434,
    "told": 7811,
    "ibilities": 13013,
    "Ġdisappeared": 5645,
    "Ġghosts": 12237,
    "anced": 1274,
    "Ġprovidence": 18747,
    "Ġproprietors": 20189,
    "Ġrealising": 18983,
    "complacency": 19916,
    "Ġcognitive": 13638,
    "Ġtraced": 10386,
    "encounter": 20395,
    "height": 21208,
    "swe": 5997,
    "idirection": 2411,
    "net": 1196,
    "Ġglens": 18856,
    "Ġche": 1765,
    "Ġapproximate": 2341,
    "Ġstores": 18071,
    "Ġviolence": 5964,
    "Ġcomplimented": 14907,
    "uries": 6149,
    "Ġunfolded": 10641,
    "Ġattached": 5392,
    "being": 3917,
    "Ġcrouched": 23441,
    "actorily": 25577,
    "spending": 18688,
    ")âĢĶâĢľ": 20745,
    "uttural": 21592,
    "Ġoath": 7833,
    "Ġprofuse": 23567,
    "Ġlife": 1351,
    "wail": 21128,
    "imagine": 19934,
    "Ġrounded": 14441,
    "sur": 4525,
    "Ġwriter": 11949,
    "fifth": 20149,
    "Ġspices": 22134,
    "vember": 10857,
    "Ġpilot": 5986,
    "Ġbargain": 23795,
    "itor": 12571,
    "descried": 11933,
    "swallowed": 14856,
    "boscombe": 26122,
    "Ġlodge": 5779,
    "Ġdeportment": 22615,
    "Ġrepugnant": 26592,
    "Ġincome": 7917,
    "Ġplanning": 14754,
    "ud": 912,
    "withdrawn": 23031,
    "ought": 829,
    "apparatus": 26565,
    "inspector": 13650,
    "impetuous": 23766,
    "Ġindicated": 10471,
    "uttle": 6249,
    "Ġacquies": 11099,
    "Ġwhole": 1657,
    "oping": 5559,
    "Ġpractised": 23350,
    "Ġaffliction": 25846,
    "Ġmiracle": 15097,
    "Ġberth": 8683,
    "Ġjura": 14195,
    "apparent": 11043,
    "Ġwharves": 13509,
    "Ġmasoned": 20254,
    "other": 1315,
    "slight": 10729,
    "peculiar": 6886,
    "Ġsupers": 18280,
    "luckily": 19755,
    "Ġtreat": 3179,
    "refuge": 24733,
    "Ġhieroglyph": 11975,
    "tically": 3393,
    "Ġdestroyed": 5272,
    "Ġwretchedness": 9029,
    "Ġarts": 11006,
    "Ġgirdled": 19161,
    "Ġfastidious": 14494,
    "Ġaccosted": 13676,
    "Ġactivity": 7920,
    "bro": 4036,
    "Ġseats": 14091,
    "Ġmachines": 1778,
    "Ġcentre": 5123,
    "Ġtravels": 11931,
    "Ġledge": 19404,
    "Ġcommanders": 23871,
    "pistol": 17644,
    "Ġfer": 5529,
    "Ġices": 21157,
    "torture": 26152,
    "Ġworking": 5575,
    "Ġinfallibly": 10044,
    "Ġchurches": 12833,
    "Ġcontrivance": 17186,
    "iling": 3096,
    "Ġindist": 14412,
    "Ġbale": 7838,
    "Ġtinkling": 25213,
    "Ġwrapt": 24596,
    "Ġexhilar": 19686,
    "Ĭ": 237,
    "meantime": 9095,
    "Ġdespondency": 16580,
    "Ġessentially": 24925,
    "Ġrepenting": 25323,
    "carpet": 25203,
    "county": 25397,
    "sciss": 18859,
    "ushing": 5731,
    "Ġprevents": 2557,
    "devouring": 24953,
    "Ġhieroglyphic": 25588,
    "spoke": 11025,
    "Ġexpand": 9310,
    "Ġascended": 8669,
    "Ġsnap": 11202,
    "Ġgain": 4829,
    "Ġheroine": 24543,
    "Ġatmosphere": 10899,
    "Ġdoleful": 18378,
    "rians": 21929,
    "stalls": 26475,
    "Ġexercised": 24800,
    "Ġcab": 2636,
    "Ġbraces": 14672,
    "negro": 18496,
    "Ġcrimin": 6901,
    "marrying": 19550,
    "Ġjewels": 12373,
    "Ġunrestrained": 25555,
    "Ġshadow": 5596,
    "Ġinhuman": 13932,
    "forbidding": 25838,
    "Ġactual": 3741,
    "Ġabject": 18392,
    "approach": 24834,
    "Ġ1000": 3119,
    "Ġdecide": 9290,
    "Ġfordham": 21780,
    "Ġnewton": 3533,
    "Ġbroods": 23106,
    "Ġtax": 13819,
    "Ġmortification": 12099,
    "Ġassaults": 15160,
    "Ġpicked": 6343,
    "cross": 3576,
    "Ġsphy": 18312,
    "Ġoutward": 7904,
    "crimin": 17511,
    "Ġbracing": 16583,
    "process": 11150,
    "Ġenrolled": 21941,
    "i": 77,
    "produced": 25415,
    "Ġinvade": 19144,
    "Ġst": 332,
    "foot": 9049,
    "Ġcapsized": 20093,
    "Ġhigher": 1821,
    "leaped": 17845,
    "Ġpenalty": 1840,
    "Ġpedestrian": 25884,
    "oquent": 12504,
    "acted": 11012,
    "Ġvehemently": 26040,
    "jewell": 25524,
    "Ġaccelerating": 1616,
    "Ġmississ": 18840,
    "clothes": 9060,
    "ledge": 1329,
    "rim": 7139,
    "Ġplumage": 17301,
    "Ġcreating": 3000,
    "Ġtugged": 17291,
    "Ġflea": 23776,
    "Ġhosts": 19942,
    "hours": 9127,
    "Ġcompliance": 12119,
    "fed": 11490,
    "stones": 11639,
    "ansion": 10927,
    "Ġshare": 1653,
    "ems": 5236,
    "Ġevent": 2951,
    "ean": 20842,
    "Ġmag": 1427,
    "Ġmermaid": 17815,
    "given": 8377,
    "chronicle": 26482,
    "Ġinform": 995,
    "Ġdetaining": 25819,
    "Ġvoids": 25808,
    "sell": 13784,
    "Ġsustenance": 19937,
    "Ġscandal": 9084,
    "Ġflowing": 14416,
    "iforn": 14067,
    "ceased": 21629,
    "Ġexam": 3713,
    "abash": 18110,
    "garity": 17556,
    "oftentimes": 19424,
    "Ġactor": 16053,
    "Ġpasseng": 12976,
    "Ġdisadvantage": 12895,
    "infant": 19830,
    "Ġpurpose": 2709,
    "Ġconditions": 8307,
    "orrow": 2914,
    "tide": 11535,
    "Ġgovernesses": 25130,
    "Ġclock": 9536,
    "guessed": 25873,
    "pike": 11517,
    "rength": 4101,
    "Ġwoodlands": 23522,
    "ource": 5244,
    "Ġlichen": 20095,
    "Ġgrief": 4622,
    "Ġlightly": 13088,
    "Ġuseless": 7039,
    "Ġimaginations": 16519,
    "amb": 5723,
    "Ġfid": 10805,
    "Ġboast": 7036,
    "cruet": 17028,
    "treatment": 20415,
    "Ġcommitting": 22676,
    "nerable": 16280,
    "Ġungover": 18256,
    "Ġjerk": 16952,
    "lish": 1951,
    "ies": 583,
    "icles": 17975,
    "Ġresistance": 13533,
    "Ġname": 2081,
    "Ġpossession": 5589,
    "oon": 6366,
    "swelled": 19613,
    "Ġtrustees": 24109,
    "ignorant": 13567,
    "Ġconvict": 23748,
    "Ġresounds": 22546,
    "Ġthunders": 15642,
    "Ġbachelors": 24861,
    "Ġprofessions": 11233,
    "Ġse": 401,
    "Ġinevitably": 17233,
    "welt": 12525,
    "Ġworthless": 19568,
    "hooked": 23716,
    "Ġswart": 14437,
    "Ġpebbles": 16133,
    "dismay": 19156,
    "Ġnorthumbria": 24173,
    "Ġevolved": 9895,
    "rown": 2192,
    "Ġverily": 16605,
    "forster": 16165,
    "Ġnasty": 17446,
    "abound": 15744,
    "Ġaudience": 24768,
    "Ġadm": 2401,
    "Ġunderstand": 834,
    "Ġarctic": 12815,
    "church": 8140,
    "Ġstudying": 9849,
    "Ġencomp": 12968,
    "fier": 9596,
    "Ġassid": 18947,
    "hr": 20890,
    "ulpt": 10887,
    "Ġdesperate": 7777,
    "discover": 10542,
    "Ġconcealed": 7495,
    "Ġbraved": 23841,
    "Ġactions": 6280,
    "Ġclaim": 5106,
    "itives": 17821,
    "Ġswaths": 23061,
    "Ġschedule": 2369,
    "Ġsprawling": 22143,
    "Ġcurv": 3512,
    "Ġsumatra": 15290,
    "¤": 102,
    "Ġmort": 3459,
    "pooh": 18801,
    "pop": 17633,
    "Ġ127": 24472,
    "Ġhundreds": 4329,
    "Ġrio": 23894,
    "Ġbulb": 23858,
    "Ġhonestly": 19975,
    "fabulous": 20477,
    "Ġinjury": 10543,
    "Ġconverse": 11848,
    "Ġpang": 15609,
    "Ġvanity": 7047,
    "innocence": 15187,
    "Ġpartly": 6715,
    "Ġresolves": 23651,
    "Ġneglig": 18879,
    "Ġtearless": 24785,
    "hospit": 25904,
    "ugging": 23293,
    "squall": 13525,
    "uplifted": 17697,
    "Ġkings": 7197,
    "Ġloops": 8856,
    "Ġ33": 16678,
    "Ġimportance": 4901,
    "D": 40,
    "people": 7677,
    "Ġirene": 8445,
    "eps": 12796,
    "Ġrecommence": 16814,
    "Ġuncivilized": 25499,
    "Ġindustry": 18839,
    "gravel": 22623,
    "Ġharrow": 17928,
    "Ġmatted": 22915,
    "Ġkindred": 16381,
    "Ġarcher": 22183,
    "Ġscent": 10287,
    "Ġhourly": 23305,
    "brit": 19200,
    "Ġwheeled": 14141,
    "rods": 21541,
    "forming": 15921,
    "Ġgover": 2461,
    "Ġprotesting": 14744,
    "Ġtatters": 21180,
    "Ġentrances": 25836,
    "Ġinfatuated": 20537,
    "Ġunjustifiable": 25112,
    "Ġpap": 8802,
    "Ġharpooneer": 3776,
    "rice": 13780,
    "geon": 6272,
    "Ġglimmered": 20174,
    "Ġraging": 14310,
    "Ġperchance": 15995,
    "Ġsyrian": 18355,
    "unks": 15779,
    "Ġformal": 2942,
    "seals": 21821,
    "Ġloafer": 18300,
    "Ġtossings": 25357,
    "Ġcheerless": 16695,
    "happened": 9436,
    "conviction": 19968,
    "lightning": 16555,
    "instance": 24170,
    "okes": 9280,
    "Ġcalhoun": 23046,
    "Ġhunks": 18938,
    "japan": 15378,
    "Ġdealer": 23980,
    "Ġsteam": 9356,
    "Ġstudies": 7956,
    "Ġhats": 14621,
    "mastod": 23977,
    "Ġrepresents": 4903,
    "Ġarabic": 24981,
    "que": 1147,
    "ruit": 22185,
    "Ġoutcast": 18415,
    "Ġseaward": 22950,
    "Ġmeant": 3551,
    "Ġbeards": 21755,
    "Ġfugitive": 17330,
    "Ġmaelstrom": 19359,
    "Ġglitter": 25126,
    "Ġweltering": 19588,
    "Ġkentuck": 19893,
    "Ġdep": 749,
    "Ġdepicted": 14287,
    "Ġhalloa": 13321,
    "Ġoaks": 16935,
    "Ġbarred": 9005,
    "Ġlinn": 13956,
    "Ġelephant": 8256,
    "Ġepaulets": 24906,
    "details": 19678,
    "cially": 3490,
    "irations": 18173,
    "Ġpiteous": 17918,
    "Ġalarm": 4049,
    "Ġhunger": 8570,
    "points": 14396,
    "Ġmomentary": 11038,
    "Ġunappe": 22020,
    "lamps": 25261,
    "look": 2261,
    "pest": 6965,
    "approve": 19940,
    "Ġembarrassment": 10629,
    "Ġfeelings": 2452,
    "Ġcrossed": 6070,
    "daggoo": 13710,
    "Ġgrain": 15835,
    "ik": 17573,
    "Ġcranes": 20386,
    "Ġencoder": 3635,
    "solute": 16600,
    "Ġcliffs": 15975,
    "ye": 1405,
    "Ġarsacidean": 20368,
    "frame": 17117,
    "Ġperempt": 13677,
    "Ġlect": 9225,
    "Ġshakespeare": 20310,
    "Ġcobbling": 20526,
    "immediately": 10052,
    "Ġ78": 19616,
    "sleet": 20152,
    "ink": 755,
    "Ġoccurring": 2794,
    "Ġgrieved": 8298,
    "activation": 3233,
    "flying": 13724,
    "programming": 10066,
    "yourself": 6744,
    "Ġcreat": 1435,
    "common": 4128,
    "Ġpurring": 23477,
    "Ġmourning": 13482,
    "Ġbraided": 16584,
    "residual": 19264,
    "Ġbudge": 15168,
    "Ġprovincial": 20652,
    "Ġwaved": 9647,
    "Ġderived": 8239,
    "Ġbrimstone": 25687,
    "Ġautonomous": 10678,
    "Ġbroadway": 23987,
    "Ġdarcy": 1342,
    "Ġleaned": 7608,
    "Ġdint": 15595,
    "Ġsal": 3941,
    "Ġcheese": 9380,
    "purpose": 10047,
    "sul": 15424,
    "Ġp": 288,
    "Ġtrees": 4201,
    "Ġabsorbing": 17131,
    "Ġdirected": 5579,
    "Ġobstructed": 24678,
    "noise": 14344,
    "Ġowing": 6006,
    "Ġfiner": 13058,
    "neighboring": 20620,
    "organic": 25947,
    "Ġdevout": 14329,
    "Ġcommand": 3321,
    "Ġnovelty": 13467,
    "unaccountable": 15783,
    "Ġbloodless": 19341,
    "Ġspr": 4027,
    "cheer": 9440,
    "sold": 15429,
    "benefit": 24643,
    "etus": 21581,
    "Ġiroquois": 26472,
    "Ġkindliness": 23298,
    "Ġfruitless": 25606,
    "Ġdeprec": 15762,
    "Ġgeorge": 3752,
    "Ġscared": 14192,
    "Ġterrible": 5328,
    "Ġyon": 9696,
    "ool": 17620,
    "Ġable": 3084,
    "Ġgermans": 25785,
    "Ġrecollections": 10515,
    "Ġextracting": 11115,
    "instr": 12536,
    "Ġvaulted": 25171,
    "Ġshilling": 18229,
    "Ġlances": 6985,
    "slipping": 25529,
    "Ġintently": 8169,
    "Ġunreasoning": 15849,
    "hyme": 19612,
    "Ġtalker": 23374,
    "phology": 3011,
    "hated": 17563,
    "impatiently": 20474,
    "Ġages": 7029,
    "Ġbreaking": 6312,
    "Ġunconscious": 9550,
    "desirable": 23813,
    "repeated": 12343,
    "clo": 5613,
    "fat": 8079,
    "Ġtouches": 20573,
    "Ġjet": 5309,
    "barbar": 20241,
    "Ġbuild": 6475,
    "Ġdial": 10812,
    "appearance": 5334,
    "Ġtorpor": 25034,
    "Ġmyself": 1453,
    "smart": 23910,
    "Ġsyn": 15917,
    "Ġdecaying": 2248,
    "Ġrumbling": 18212,
    "Ġsayest": 22777,
    "Ġevident": 6614,
    "Ġtar": 2563,
    "ibule": 13012,
    "Ġasylum": 13670,
    "oner": 6126,
    "Ġequality": 16365,
    "Ġsimpl": 1578,
    "oses": 3949,
    "summoned": 26593,
    "Ġbespe": 19244,
    "legs": 13186,
    "ulated": 6031,
    "remed": 18955,
    "ple": 455,
    "Ġ96": 24593,
    "Ġfew": 1194,
    "Ġstationary": 19697,
    "Ġtomahawk": 7539,
    "Ġquaff": 22418,
    "Ġposted": 16726,
    "portuguese": 25414,
    "Ġrifts": 21979,
    "Ġexceedingly": 4616,
    "ô": 181,
    "Ē": 211,
    "Ġfountain": 7365,
    "Ġsupports": 3053,
    "Ġcocain": 18593,
    "frequented": 25901,
    "Ġredress": 23755,
    "Ġsuns": 23276,
    "Ġunfor": 15843,
    "Ġpenetrating": 17013,
    "Ġof": 298,
    "Ġcommerce": 11017,
    "Ġsuspect": 5758,
    "Ġanoint": 25538,
    "ultaneously": 4192,
    "Ġcherub": 23290,
    "bill": 10079,
    "Ġhandled": 12943,
    "Ġequ": 1736,
    "screwed": 17190,
    "umbs": 14692,
    "Ġregards": 16081,
    "Ġfeatureless": 22612,
    "Ġlung": 7168,
    "Ġassistants": 9455,
    "she": 1395,
    "fashioned": 9573,
    "winding": 16722,
    "Ġxli": 14543,
    "d": 72,
    "comp": 3820,
    "Ġdatasets": 2387,
    "hens": 3940,
    "Ġentire": 2559,
    "surely": 10572,
    "Ġpop": 5151,
    "Ġseventeen": 26212,
    "Ġpredefined": 20719,
    "Ġnom": 21522,
    "Ġmusk": 7494,
    "ni": 1680,
    "carp": 9113,
    "Ġcheek": 8581,
    "Ġgenealogies": 25962,
    "Ġpremeditated": 22238,
    "Ġhandspike": 22701,
    "enth": 6682,
    "Ġnur": 5710,
    "parlour": 16395,
    "Ġholiest": 18814,
    "Ġsuddenly": 2649,
    "revealed": 20419,
    "Ġel": 802,
    "Ġbambooz": 26120,
    "Ġstat": 1491,
    "Ġitalian": 12414,
    "Ġtruth": 3319,
    "Ġhappier": 10361,
    "alloyed": 22205,
    "suited": 22643,
    "Ġunshored": 25814,
    "Ġresolve": 13174,
    "Ġjoosy": 23634,
    "isbury": 21380,
    "Ġmoss": 9287,
    "Ġtoilette": 20496,
    "Ġleap": 5825,
    "opius": 18509,
    "classes": 12140,
    "plumed": 21965,
    "Ġplanks": 5563,
    "marching": 25753,
    "Ġsoothingly": 25050,
    "Ġpau": 17908,
    "Ġtalent": 12301,
    ";âĢĻ": 15306,
    "Ġpleated": 16300,
    "Ġhval": 21491,
    "ipping": 2207,
    "Ġtr": 553,
    "imper": 14000,
    "uous": 4144,
    "motives": 26138,
    "omist": 21641,
    "Ġshades": 9466,
    "wh": 509,
    "sensations": 20054,
    "Ġfiend": 4414,
    "desolate": 25717,
    "Ġinvisible": 7327,
    "assault": 22310,
    "ython": 1030,
    "Ġquiescent": 26244,
    "Ġsuggest": 5417,
    "Ġjacob": 1898,
    "Ġarve": 15897,
    "pray": 5429,
    "Ġsomebody": 7912,
    "Ġboston": 22641,
    "Ġsadder": 24055,
    "response": 25763,
    "Ġsecurity": 8980,
    "Ġneedles": 11186,
    "Ġdiminish": 14748,
    "Ġhatchways": 24990,
    "Ġfairly": 6327,
    "misrepresented": 24214,
    "Ġstepdaughter": 22616,
    "izes": 885,
    "ego": 4037,
    "Ġproceeds": 12082,
    "itia": 11582,
    "dense": 18714,
    "Ġconsecutive": 20705,
    "Ġchowder": 10283,
    "feren": 765,
    "Ġdisappointment": 6629,
    "Ġishmael": 7395,
    "Ġcame": 1302,
    "Ġgallop": 19558,
    "Ġapprobation": 10987,
    "Ġbeaks": 21759,
    "Ġthrowing": 6337,
    "isions": 6132,
    "Ġuttermost": 19491,
    "brain": 13691,
    "promote": 24726,
    "pract": 10122,
    "Ġweaver": 11691,
    "Ġretain": 7863,
    "carried": 16713,
    "presum": 12873,
    "verity": 14004,
    "gentlemanlike": 20005,
    "Ġkith": 22196,
    "civility": 17515,
    "Ġinf": 1758,
    "Ġskill": 6872,
    "Ġsisterly": 16307,
    "Ġpondicherry": 20494,
    "chastic": 2333,
    "Ġstigma": 25792,
    "Ġunspeakable": 10059,
    "Ġdominant": 12400,
    "cri": 17508,
    "atory": 6127,
    "mar": 4336,
    "Ġdependent": 14301,
    "Ġumbrell": 13654,
    "Ġthreaten": 24374,
    "indifferent": 14211,
    "Ġaggregated": 25679,
    "erval": 4021,
    "Ġfarm": 7840,
    "perils": 22191,
    "Ġvices": 14086,
    "Ġeludes": 26556,
    "Ġphilips": 5410,
    "Ġrelinquish": 17350,
    "Ġsum": 2701,
    "gazing": 12476,
    "Ġrelentless": 26279,
    "successfully": 14994,
    "Ġemploying": 23981,
    "Ġbarrow": 12074,
    "Ġquies": 18465,
    "Ġintercept": 14272,
    "Ġgardens": 16453,
    "Ġmeasured": 9807,
    "batt": 20780,
    "gracechurch": 24582,
    "Ġapr": 12537,
    "Ġinstincts": 16988,
    "Ġprob": 971,
    "Ġcomm": 839,
    "deep": 1036,
    "Ġeternity": 12283,
    "gale": 13726,
    "Ġscowl": 22289,
    "Ġlock": 5929,
    "Ġungod": 22026,
    "unned": 21882,
    "Ġheart": 1593,
    "Ġsepulchre": 20562,
    "Ġsed": 10763,
    "bbles": 13695,
    "Ġcruel": 5121,
    "ize": 773,
    "Ġimmeasurable": 26231,
    "Ġlurch": 21558,
    "Ġnoiselessly": 22866,
    "ourably": 14380,
    "Ġalbert": 12711,
    "Ġclattered": 22360,
    "disgrace": 16461,
    "Ġsandwiched": 26612,
    "har": 20892,
    "Ġmonsie": 11449,
    "Ġey": 8135,
    "99": 1895,
    "rederick": 14082,
    "Ġfacil": 16964,
    "Ġtempest": 8213,
    "ism": 4875,
    "Ġoverbearing": 12849,
    "Ġbackwater": 18651,
    "Ġmodel": 514,
    "Ġaspects": 4173,
    "Ġstrongly": 5657,
    "thin": 14100,
    "announcement": 24563,
    "grained": 20885,
    "Ġinnocent": 4922,
    "Ġfanatic": 23395,
    "divers": 15346,
    "apology": 22337,
    "etent": 10202,
    "acquainted": 7313,
    "Ġlawn": 7379,
    "attempted": 20177,
    "Ġhellaswag": 24343,
    "Ġcorrupt": 11927,
    "Ġdeceive": 12727,
    "Ġsmack": 9303,
    "Ġcelerity": 17439,
    "Ġda": 5150,
    "rifice": 12508,
    "henomena": 20275,
    "Ġsticking": 13431,
    "Ġdelic": 4134,
    "Ġsteersman": 13047,
    "disreputable": 23505,
    "Ġroof": 6566,
    "Ġboldly": 9504,
    "oder": 2458,
    "usual": 5842,
    "preser": 9763,
    "admirably": 24947,
    "Ġsummits": 14685,
    "Ġsplintered": 11420,
    "Ġwhether": 2001,
    "Ġstil": 15722,
    "Ġislands": 6767,
    "Ġspoil": 17009,
    "Ġperch": 10301,
    "her": 489,
    "hideous": 25408,
    "Ġimparts": 18446,
    "Ġprecip": 7076,
    "Ġplays": 12042,
    "unbidden": 21898,
    "Ġendeavors": 16549,
    "gradually": 12920,
    "Ġplainpalais": 20739,
    "cru": 7128,
    "Ġhorribly": 16346,
    "viating": 14580,
    "instruct": 19545,
    "gences": 20879,
    "Ġinclination": 6626,
    "Ġdeficiencies": 26572,
    "flames": 14715,
    "const": 5940,
    "Ġbandaged": 16844,
    "Ġgrizz": 10354,
    "Ġrobust": 1358,
    "measure": 10034,
    "disinterested": 23503,
    "farintosh": 24553,
    "Ġheadlong": 11892,
    "pect": 1255,
    "Ď": 207,
    "Ġramad": 8530,
    "Ġtwit": 12934,
    "ills": 1624,
    "tracks": 19649,
    "Ġsord": 21222,
    "Ġtriumphantly": 11289,
    "settle": 16664,
    "Ġinch": 7850,
    "Ġparted": 5930,
    "remembered": 17354,
    "R": 54,
    "utral": 12668,
    "Ġcondesc": 7182,
    "Ġdependencies": 2313,
    "Ġseen": 1367,
    "Ġgpus": 3735,
    "Ġforests": 13596,
    "Ġlurking": 11291,
    "Ġquantity": 6948,
    "Ġrobots": 11082,
    "rous": 3756,
    "Ġcoward": 7156,
    "erman": 5108,
    "Ġlab": 1871,
    "Ġscales": 4851,
    "isters": 11923,
    "ermaid": 14299,
    "Ġ75": 19615,
    "ĠĠĠĠĠĠĠĠĠĠĠĠĠĠĠĠĠĠĠĠĠĠĠĠĠĠĠĠĠĠĠĠĠĠĠĠĠĠĠĠĠĠĠĠĠ": 9955,
    "atived": 21265,
    "Ġhighness": 22775,
    "Ġembedd": 1400,
    "Ġinstructing": 3124,
    "Ġphiladel": 23888,
    "Ġuniversity": 13126,
    "ause": 1314,
    "audible": 17135,
    "cream": 15334,
    "addressing": 24401,
    "Ġchains": 8251,
    "á": 162,
    "Ġradiance": 13375,
    "mass": 12494,
    "Ġrad": 4962,
    "greek": 25405,
    "mbly": 9790,
    "rador": 19129,
    "Ġunsuccessful": 18258,
    "Ġcook": 3714,
    "Ġshrimp": 24159,
    "Ġbattalions": 25777,
    "Ġegotistical": 26193,
    "Ġlet": 1111,
    "Ġabusive": 22277,
    "¸": 121,
    "Ġeastern": 11632,
    "Ġdip": 13910,
    "Ġlanguid": 14224,
    "Ġimpatient": 5603,
    "Ġparents": 6754,
    "Ġcake": 12575,
    "Ġopal": 23628,
    "Ġwallowed": 24046,
    "º": 123,
    "Ġdistributed": 18662,
    "Ġinvite": 14564,
    "Ġone": 568,
    "rumours": 23924,
    "Ġneighbourhood": 5126,
    "Ġmurder": 4280,
    "Ġwritten": 4167,
    "Ġresentment": 7530,
    "Ġgoin": 18470,
    "Ġreceive": 4705,
    "Ġcomputers": 2648,
    "cons": 4310,
    "anean": 7443,
    "thereby": 14450,
    "Ġentranced": 25835,
    "Ġash": 4834,
    "Ġedge": 5189,
    "Ġrotation": 25475,
    "ryder": 18640,
    "mortar": 25409,
    "Ġproceedings": 9910,
    "ends": 6040,
    "Ġneeded": 7718,
    "atches": 13849,
    "Ġnoblest": 13246,
    "Ġdefend": 9343,
    "Ġsplit": 7993,
    "Ġconvey": 9984,
    "generally": 9438,
    "Ġcorrid": 9827,
    "Ġwilds": 16512,
    "Ġfergus": 16869,
    "Ġstatue": 23152,
    "links": 20960,
    "Ġado": 7627,
    "Ġbag": 5699,
    "sme": 17660,
    "unning": 4496,
    "declaration": 25176,
    "ounder": 11748,
    "Ġundaunted": 24121,
    "sea": 4764,
    "eded": 9676,
    "Ġsoft": 1458,
    "Ġmagazine": 23103,
    "pequod": 7054,
    "singing": 24363,
    "Ġreigned": 13990,
    "igms": 3049,
    "twill": 21077,
    "Ġtunes": 24620,
    "Ġsympath": 4862,
    "rocious": 21542,
    "Ġshoulders": 5566,
    "loose": 11808,
    "Ġfortunes": 12183,
    "onsible": 22565,
    "Ġunostentatious": 22071,
    "Ġauthorities": 11266,
    "Ġuncivil": 11157,
    "Ġtower": 8319,
    "Ġcent": 3255,
    "hedge": 22503,
    "shiver": 16026,
    "Ġmartial": 20294,
    "Ġpup": 12624,
    "amplified": 26496,
    "Ġfrankenstein": 7097,
    "Ġvestige": 20066,
    "Ġshamefully": 24715,
    "Ġindebted": 8711,
    "ception": 6564,
    "slide": 24556,
    "Ġafresh": 18627,
    "icha": 11742,
    "anted": 5027,
    "particular": 5757,
    "bread": 10688,
    "alogue": 25163,
    "Ġo": 275,
    "sper": 4438,
    "Ġbu": 3683,
    "halfway": 24313,
    "Ġisn": 7866,
    "Ġislanders": 19505,
    "trucks": 25420,
    "form": 495,
    "ingly": 2137,
    "Ġslipper": 24268,
    "Ġrecklessness": 24744,
    "Ġenraged": 10247,
    "Ġconsequently": 8060,
    "umbria": 23898,
    "Ġsuspicion": 6213,
    "uously": 7353,
    "blubber": 15240,
    "Ġfainting": 16899,
    "witness": 10038,
    "pun": 9620,
    "ization": 488,
    "Ġhorizon": 6635,
    "Ġdeer": 12725,
    "Ġchis": 11754,
    "Ġvehic": 8936,
    "entreaties": 26187,
    "Ġinquirer": 24964,
    "Ġprometheus": 15296,
    "Ġcontaining": 2232,
    "Ġ}": 21156,
    "detained": 24382,
    "Ġstrong": 1789,
    "Ġcripple": 11442,
    "nor": 2742,
    "Ġblasp": 14405,
    "Ġsuperstition": 15057,
    "Ġsympathies": 14864,
    "Ġcreator": 7257,
    "mushroom": 26397,
    "Ġexceeded": 14436,
    "knowing": 10439,
    "Ġdiabolism": 25515,
    "artificial": 964,
    "duty": 20242,
    "culine": 19063,
    "Ġoar": 6238,
    "Ġprojecting": 9988,
    "Ġshin": 18228,
    "ura": 1070,
    "aid": 1922,
    "Ġhoped": 5488,
    "Ġafore": 10760,
    "Ġworm": 9165,
    "Ġkrusen": 20716,
    "bone": 5612,
    "success": 6712,
    "Ġquit": 5247,
    "mons": 17602,
    "Ġork": 18285,
    "antucket": 2647,
    "kne": 20937,
    "persecut": 22193,
    "Ġfilled": 4396,
    "glasses": 11217,
    "Ġminute": 4278,
    "Ġjurors": 17347,
    "Ġsuffusing": 23034,
    "Ġminut": 2204,
    "Ġcupboard": 16885,
    "quarter": 11390,
    "Ġdew": 14046,
    "cab": 7333,
    "Ġhead": 1125,
    "Ġexempt": 21832,
    "mer": 2833,
    "Ġnaturalists": 10365,
    "regards": 23468,
    "Ġtag": 15471,
    "mentioning": 24886,
    "Ġdependence": 18628,
    "Ġburnwell": 13273,
    "Ġgallows": 12150,
    "Ġclanking": 20614,
    "Ġevidently": 6760,
    "nnight": 20995,
    "Ġremo": 3790,
    "Ġlest": 6396,
    "asked": 8915,
    "Ġtalked": 4423,
    "ma": 1150,
    "cd": 15326,
    "urns": 10216,
    "Ġattent": 4361,
    "Ġrespectability": 14487,
    "smug": 23911,
    "ositories": 22268,
    "meet": 11860,
    "asingly": 17963,
    "dorff": 15241,
    "ieve": 1654,
    "ative": 747,
    "cond": 1658,
    "iform": 2200,
    "Ġconfirms": 23312,
    "ounce": 6559,
    "ser": 1424,
    "Ġcurrent": 13016,
    "Ġhastily": 5763,
    "Ġspades": 12801,
    "irting": 11689,
    "Ġ72": 19614,
    "Ġploughed": 22610,
    "Ġunthinkingly": 26222,
    "previously": 17210,
    "Ġstated": 9692,
    "Ġfloating": 6606,
    "meditated": 19070,
    "things": 6034,
    "moment": 3579,
    "Ġmorality": 22981,
    "Ġrehearsed": 25972,
    "tured": 13798,
    "Ġdeft": 21840,
    "ppo": 18178,
    "sion": 8094,
    "Ġdepos": 11010,
    "biscuit": 17503,
    "Ġadvis": 9810,
    "coast": 10451,
    "emb": 11693,
    "xible": 13811,
    "Ġbidding": 9540,
    "rev": 17758,
    "Ġcontain": 1551,
    "Ġcomprehensive": 15091,
    "horse": 8609,
    "interchange": 23742,
    "Ġinte": 2065,
    "Ġmanual": 14200,
    "Ġchaos": 17011,
    "atic": 4019,
    "had": 1950,
    "Ġadopted": 15182,
    "local": 22513,
    "Ġunexplored": 26520,
    "Ġmass": 3785,
    "torn": 17684,
    "reed": 6374,
    "Ġleaky": 2345,
    "Ġeven": 1026,
    "ignified": 14492,
    "Ġglu": 15672,
    "½": 126,
    "Ġlowers": 23244,
    "Ġelse": 2479,
    "america": 17098,
    "hic": 3250,
    "matters": 14877,
    "anoke": 21364,
    "gunpowder": 25340,
    "Ġtahitian": 25428,
    "atiate": 12553,
    "Ġbenediction": 18788,
    "Ġhilariously": 25451,
    "Ġworlds": 11951,
    "Ġjam": 10953,
    "Ġproduced": 2451,
    "Ġforbearance": 12332,
    "aphs": 22339,
    "Ġcoco": 11002,
    "pots": 11516,
    "Ġappertain": 22221,
    "Ġaxe": 15064,
    "humiliation": 24024,
    "Ġluc": 3310,
    "destroy": 19513,
    "Ġmounts": 17808,
    "Ġpollard": 20389,
    "Ġavenue": 13625,
    "Ġglobu": 23274,
    "Ġthree": 1369,
    "lived": 12491,
    "reply": 19725,
    "Ġmechanis": 1227,
    "whew": 22871,
    "luck": 5733,
    "composure": 24037,
    "Ġdischarged": 15224,
    "Ġjaws": 5593,
    "Ġtempt": 5565,
    "assist": 11772,
    "Ġcruise": 12053,
    "Ġcreeping": 18683,
    "Ġre": 317,
    "Ġcandour": 14675,
    "ii": 4016,
    "Ġflo": 2588,
    "Ġcomputer": 1225,
    "Ġbouquet": 20686,
    "Ġhosmer": 6775,
    "Ġdecisive": 18492,
    "Ġmonarch": 14419,
    "Ġdistributing": 22682,
    "seem": 10230,
    "Ġcriminal": 7537,
    "bowl": 14894,
    "olog": 1080,
    "Ġastr": 15497,
    "Ġpersons": 6182,
    "mists": 17606,
    "Ġunass": 14117,
    "warrant": 21140,
    "Ġexcluded": 16388,
    "Ġitaly": 10869,
    "Ġcasket": 19727,
    "astern": 8585,
    "ulty": 22571,
    "ġ": 226,
    "Ġstrained": 10221,
    "Ġcheerful": 6624,
    "Ġillustrative": 25069,
    "Ġfrankly": 16747,
    "Ġdecember": 15009,
    "Ġfeasible": 22213,
    "Ġdearly": 10404,
    "orte": 14187,
    "Ġsecondary": 23334,
    "Ġbehoo": 19037,
    "mblies": 24609,
    "Ġwonders": 7500,
    "Ġunfitted": 24110,
    "prosperity": 20737,
    "iod": 3844,
    "Ġannot": 15606,
    "msprop": 2627,
    "ishly": 14202,
    "ed": 293,
    "deed": 1520,
    "Ġadler": 8174,
    "philosop": 9570,
    "Ġthw": 21518,
    "mental": 16052,
    "Ġmidway": 14606,
    "Ġdrought": 19280,
    "Ġfills": 12599,
    "Ġfreemason": 23214,
    "Ġengaging": 9339,
    "Ġfurnishing": 16648,
    "crack": 19843,
    "Ġacknowled": 6352,
    "pent": 3494,
    "Ġju": 10289,
    "Ġplease": 4724,
    "pad": 13771,
    "Ġconnex": 10668,
    "Ġrucastles": 18719,
    "Ġpredecessor": 26254,
    "Ġquartered": 20376,
    "Ġsurtout": 23467,
    "equal": 14996,
    "Ġrefined": 18709,
    "Ġflirt": 14426,
    "caterpillar": 26385,
    "Ġcarried": 3695,
    "izing": 1065,
    "Ġunho": 18246,
    "confess": 12180,
    "shattered": 22453,
    "absolutely": 10648,
    "Ġdeceived": 6546,
    "Ġstool": 14465,
    "Ġclifford": 22364,
    "plex": 700,
    "Ġcaus": 1724,
    "ph": 946,
    "Ġsam": 7569,
    "Ġsatire": 22903,
    "Ġnay": 5711,
    "Ġgrass": 5177,
    "Ġpresent": 1637,
    "Ġcauldron": 25442,
    "Ġdecoding": 3085,
    "ellect": 7381,
    "Ġconsc": 4274,
    "Ġinfall": 7960,
    "Ġperson": 2366,
    "Ġinhabited": 12190,
    "Ġlug": 15656,
    "ridge": 9500,
    "Ġmagg": 18907,
    "ivened": 22970,
    "Ġhurrying": 11999,
    "Ġembra": 6580,
    "Ġfault": 5702,
    "baron": 24926,
    "outs": 7010,
    "Ġtelling": 5747,
    "Ġbold": 5293,
    "Ġitem": 12706,
    "Ġevanesc": 24296,
    "Ġdart": 4587,
    "clothed": 19741,
    "Ġknows": 4159,
    "caves": 20818,
    "cape": 13701,
    "Ġleech": 24157,
    "fates": 20860,
    "Ġnourishment": 15196,
    "Ġresisted": 22545,
    "embraced": 25807,
    "Ġincomp": 12902,
    "contrivance": 26317,
    "Ġtwist": 11855,
    "Ġfrig": 13085,
    "Ġfleecy": 17025,
    "embarr": 17295,
    "devilish": 17083,
    "Ġunanswerable": 26523,
    "according": 12032,
    "Ġtol": 6677,
    "Ġathe": 17743,
    "Ġnon": 1621,
    "Ġfriendship": 7246,
    "Ġopposite": 5120,
    "meat": 18679,
    "Ġcaring": 23095,
    "Ġfleshy": 24615,
    "Ġdependen": 1829,
    "Ġaffecting": 2323,
    "spouting": 25003,
    "beauty": 20107,
    "Ġrainbows": 19651,
    "ship": 1390,
    "Ġfools": 14484,
    "Ġgra": 415,
    "olence": 10233,
    "Ġforeshadowing": 26594,
    "Ġglimmer": 15145,
    "as": 302,
    "Ġfragrant": 13097,
    "Ġdescrying": 18619,
    "plish": 18209,
    "Ġraw": 3320,
    "Ġaware": 5756,
    "whal": 10942,
    "Ġnormalizing": 1822,
    "Ġindividual": 5744,
    "Ġdistrusted": 13545,
    "Ġnavigators": 19766,
    "umblings": 23897,
    "Ġconsult": 6058,
    "Ġvisibly": 22887,
    "Ġtok": 1245,
    "Ġstands": 5259,
    "umbered": 22121,
    "Ġgestures": 13539,
    "Ġlistener": 16477,
    "Ġottoman": 17381,
    "Ġsuggestion": 19710,
    "gives": 15361,
    "Ġseparate": 5778,
    "Ġbordering": 17231,
    "Ġhazarded": 25655,
    "Ġmuttered": 7088,
    "Ġacted": 7422,
    "explanations": 25235,
    "Ġchival": 14185,
    "Ġbowed": 6244,
    "Ġwrig": 13073,
    "tallow": 21088,
    "Ġneural": 622,
    "Ġexplanation": 6694,
    "bout": 20775,
    "Ġfurrow": 22818,
    "zek": 16249,
    "Ġconvalescence": 23749,
    "Ġceti": 24772,
    "sche": 13024,
    "wrinkled": 16557,
    "rin": 10124,
    "Ġlucky": 7759,
    "Ġexpeditions": 24957,
    "Ġanx": 3184,
    "Ġborrowed": 17232,
    "Ġburke": 19253,
    "ooping": 21009,
    "ty": 1000,
    "Ġforgetfulness": 14608,
    "thar": 18218,
    "roded": 17958,
    "Ġresemble": 15697,
    "Ġmarvel": 23038,
    "inquiries": 13581,
    "Ġcultivated": 17367,
    "trem": 17683,
    "Ġready": 3398,
    "cules": 12395,
    "Ġhollowly": 24526,
    "Ġhearts": 4972,
    "Ġstaff": 14009,
    "Ġdozen": 8186,
    "Ġduration": 20356,
    "Ġsevere": 6033,
    "Ķ": 247,
    "Ġrel": 1093,
    "Ġindependent": 9019,
    "Ġsupply": 6068,
    "Ġsearch": 2590,
    "Ġheadsman": 13279,
    "hatches": 19930,
    "Ġdepressions": 25799,
    "devoted": 20020,
    "vicinity": 20483,
    "Ġrelated": 3717,
    "Ġcomplexion": 8209,
    "ellations": 21948,
    "Ġlin": 10835,
    "Ġvelvets": 25394,
    "disciple": 16780,
    "Ġplanisp": 24061,
    "Ġq": 1083,
    "smile": 23909,
    "Ġalleviated": 26205,
    "Ġcrying": 10788,
    "Ġasp": 15785,
    "voy": 7145,
    "Ĺ": 250,
    "Ġmultimodal": 18749,
    "Ġvertically": 19383,
    "Ġcontributes": 15254,
    "rimsh": 17029,
    "Ġglobe": 6077,
    "ague": 3910,
    "enthusiastic": 20695,
    "romang": 22009,
    "Ġinboard": 17935,
    "ucket": 2482,
    "Ġlurked": 11293,
    "degrad": 22147,
    "Ġpips": 9847,
    "indirectly": 18438,
    "Ġboasted": 16110,
    "intments": 18823,
    "Ġmemb": 14032,
    "Ġnice": 6678,
    "appearing": 14639,
    "wait": 11322,
    "Ġforeheads": 23449,
    "Ġjudge": 5502,
    "ere": 6790,
    "arms": 10176,
    "congenial": 25400,
    "recurring": 24197,
    "Ġaccompanied": 6781,
    "Ġreadability": 2725,
    "Ġobey": 9522,
    "Ġforbear": 17124,
    "Ġwrong": 4725,
    "Ġbroke": 5323,
    "Ġdismember": 20218,
    "buttons": 22406,
    "Ġdoor": 1742,
    "Ġfascinated": 25636,
    "ic": 304,
    "ogue": 9785,
    "Ġjunk": 15957,
    "winter": 10742,
    "americ": 8156,
    "rd": 17651,
    "Ġsmiles": 6708,
    "ellent": 3765,
    "Ġentirely": 3434,
    "istic": 1015,
    "Ġparameter": 881,
    "Ġlifelessly": 23053,
    "achus": 18284,
    "Ġtail": 3092,
    "Ġcivilized": 8668,
    "convenient": 12242,
    "Ġrisk": 8039,
    "garnished": 26390,
    "ospit": 22267,
    "hill": 15366,
    "Ġrecovered": 5481,
    "ress": 930,
    "Ġcomrade": 11682,
    "Ġbriskly": 25312,
    "cooks": 25070,
    "Ġwrapped": 8342,
    "Ġtrunks": 15969,
    "apprec": 22845,
    "Ġsentiments": 7961,
    "conside": 9293,
    "eman": 5636,
    "Ġadmiration": 5329,
    "Ġpatch": 4180,
    "Ġfeeble": 12288,
    "Ġcus": 21346,
    "fa": 7336,
    "pling": 8477,
    "Ġprophet": 7681,
    "Ġwaggish": 25435,
    "paddington": 20481,
    "Ġclattering": 22362,
    "weekly": 25685,
    "Ġdecided": 5471,
    "Ġhulls": 13929,
    "aur": 15312,
    "Ġrattled": 15070,
    "Ġcruis": 14626,
    "will": 1970,
    "Ġtreasures": 17048,
    "dist": 4483,
    "open": 7027,
    "Ġeurope": 8062,
    "Ġlogic": 13082,
    "Ġjoist": 19234,
    "Ġguardians": 14946,
    "ires": 6039,
    "arks": 2845,
    "Ġunw": 7005,
    "william": 4564,
    "Ġ1825": 25719,
    "Ġquestioning": 10465,
    "Ġemer": 5960,
    "az": 2182,
    "Ġforge": 8458,
    "Ġlight": 1701,
    "Ġstubborn": 10416,
    "Ġvoyagings": 19238,
    "Ġoutsk": 15960,
    "mies": 20970,
    "Ġclin": 14204,
    "Ġlivelong": 25512,
    "Ġread": 1445,
    "Ġdisinclination": 22540,
    "eon": 8733,
    "Ġshag": 9254,
    "Ġlifeless": 8951,
    "tremble": 17144,
    "Ġtong": 4871,
    "utch": 21589,
    "always": 5708,
    "Ġivory": 4479,
    "boats": 6206,
    "Ġjail": 22298,
    "ipp": 10105,
    "Ġadvantageously": 19548,
    "uarded": 21108,
    "Ġago": 3137,
    "Ġman": 544,
    "ible": 1114,
    "Ġcategorization": 12141,
    "âĢĿ": 353,
    "Ġhol": 1180,
    "Ġstress": 18069,
    "Ġvindictiveness": 25739,
    "Ġthews": 21280,
    "Ġtropical": 17066,
    "Ġfalsely": 20585,
    "Ġdrove": 4984,
    "Ġfogs": 25283,
    "Ġpotent": 12068,
    "swept": 19789,
    "Ġalthough": 4150,
    "ituted": 13876,
    "Ġgent": 7383,
    "Ġhuzza": 12638,
    "Ġs": 265,
    "Ġfacet": 15589,
    "cellar": 20280,
    "Ġfi": 925,
    "care": 4929,
    "vex": 21705,
    "Ġfig": 3624,
    "Ġphilipses": 24452,
    "Ġsave": 4053,
    "Ġdominion": 16543,
    "Ġfinny": 23129,
    "dramatic": 19388,
    "Ġnortheast": 23205,
    "Ġopt": 790,
    "office": 16399,
    "Ġoblivious": 26033,
    "aby": 18109,
    "Ġmarking": 16471,
    "sne": 10127,
    "Ġ106": 24414,
    "hig": 12479,
    "Ġsher": 3767,
    "Ġendowed": 18925,
    "Ġbengal": 18787,
    "Ġconsented": 11297,
    "omited": 21644,
    "Ġhermit": 15861,
    "Ġexec": 19495,
    "Ġtraveller": 8049,
    "Ġwounded": 8661,
    "doubted": 17528,
    "Ġassent": 12738,
    "Ã¦st": 24177,
    "Ġcrowds": 14742,
    ",)": 9104,
    "brous": 19201,
    "wrinkles": 16558,
    "together": 3557,
    "Ġpriests": 15043,
    "linked": 17595,
    "Ġchas": 18380,
    "Ġgossip": 18471,
    "Ġmonkey": 8227,
    "Ġ41": 24083,
    "Ġchall": 10946,
    "Ġcrescentic": 20624,
    "Ġcarries": 7674,
    "designated": 26320,
    "teak": 22820,
    "Ġtashtego": 4489,
    "olets": 21010,
    "br": 2477,
    "Ġlaughter": 9030,
    "Ġbetray": 7442,
    "Ġnaught": 8128,
    "Ġviolently": 6457,
    "Ġhomage": 12359,
    "reliable": 21243,
    "Ġadjust": 2156,
    "inexplicable": 25810,
    "urean": 18125,
    "forks": 26389,
    "Ġflannel": 26579,
    "Ġenables": 724,
    "mayhew": 23995,
    "apers": 3481,
    "Ġfearlessness": 19163,
    "houses": 9602,
    "tese": 21086,
    "Ġsurround": 4619,
    "heaven": 8053,
    "elements": 25204,
    "Ġrevolutions": 23845,
    "Ġcollateral": 20075,
    "bon": 13688,
    "Ġsmiled": 5942,
    "Ġquivering": 12863,
    "heavily": 24534,
    "Ġillustrious": 17110,
    "Ġinglorious": 24424,
    "Ġconvul": 13207,
    "Ġpulley": 2977,
    "agrad": 2747,
    "Ġspent": 3968,
    "Ġsick": 4694,
    "matter": 5136,
    "Ġirrevoc": 15041,
    "Ġabstract": 17184,
    "Ġlack": 17966,
    "Ġpore": 21460,
    "Ġconcluded": 5658,
    "endeavouring": 15018,
    "Ġwarnings": 16883,
    "Ġdistress": 5845,
    "Ġpunish": 12164,
    "mblance": 7323,
    "foundation": 16716,
    "Ġwears": 10243,
    "Ġneedless": 19232,
    "trying": 15441,
    "eyes": 5684,
    "anguish": 15987,
    "89": 20761,
    "safe": 10057,
    "promontory": 24727,
    "ual": 943,
    "it": 276,
    "Ġspan": 11732,
    "Ġprolong": 6832,
    "ix": 1801,
    "Ġofficial": 7083,
    "bour": 2071,
    "Ġdeliriously": 23233,
    "Ġstreet": 2959,
    "uneasy": 23687,
    "Ġsheltered": 19913,
    "Ġbid": 6133,
    "Ġunc": 2126,
    "Ġunaware": 22061,
    "Ġclinging": 10294,
    "Ġbelieved": 4368,
    "Ġdines": 21426,
    "orily": 15577,
    "Ġpanelled": 19657,
    "Ġtestimony": 14475,
    "Ġenchanted": 9083,
    "dreadful": 11423,
    "Ġpenalizing": 13095,
    "Ġworshipped": 25692,
    "sli": 11525,
    "Ġobsole": 22703,
    "visual": 24225,
    "oice": 1380,
    "atlantic": 15527,
    "Ġhappened": 3715,
    ")âĢĶ": 20744,
    "fits": 13721,
    "Ġimplements": 2484,
    "Ġgarments": 15197,
    "Ġvisit": 2584,
    "awing": 18917,
    "Ġpliny": 11829,
    "Ġnotion": 7882,
    "Ġglory": 6066,
    "Ġexertion": 8054,
    "Ġlaunched": 14929,
    "imental": 16535,
    "Ġbreak": 2868,
    "idually": 21773,
    "Ġopportunities": 19251,
    "Ġroll": 5381,
    "Ġglanced": 5953,
    "Ġlavater": 20499,
    "remem": 13072,
    "Ġlessons": 7692,
    "woods": 13423,
    "Ġscrolled": 22288,
    "Ġunmanner": 22031,
    "Ġreported": 11984,
    "heavenly": 20048,
    "itch": 10163,
    "ana": 15563,
    "Ġaccommodate": 20520,
    "Ġcauses": 2561,
    "latter": 15386,
    "Ġop": 2603,
    "anning": 10167,
    "outon": 12808,
    "Ġmanxman": 9568,
    "Ġseize": 8166,
    "Ġlifting": 10199,
    "ned": 3493,
    "Ġgans": 5822,
    "Ġswallows": 18883,
    "os": 526,
    "Ġcommonplaces": 16292,
    "Ġrotterdam": 25476,
    "agreeable": 5830,
    "Ġfitting": 21411,
    "lig": 3176,
    "fins": 13722,
    "Ġconjure": 17126,
    "Ġeigen": 4882,
    "Ġcoronation": 13338,
    "Ġfac": 6382,
    "capital": 15092,
    "Ġrounding": 16279,
    "allowed": 5728,
    "Ġbordeaux": 24565,
    "prove": 11149,
    "Ġtimorous": 24228,
    "Ġspouted": 14677,
    "Ġact": 691,
    "Ġwoody": 23520,
    "Ġscud": 14193,
    "fitzwilliam": 11354,
    "Ġimpression": 5732,
    "Ġcircumnavigating": 25615,
    "Ġincalculable": 17463,
    "Ġpens": 21462,
    "inconsiderable": 21194,
    "cases": 12452,
    "Ġkrusenstern": 26379,
    "ware": 3938,
    "Ġerected": 12238,
    "Ġceasing": 23760,
    "Ġworked": 6585,
    "Ġloudly": 7312,
    "iece": 3231,
    "Ġrepl": 1592,
    "rowed": 22865,
    "Ġclubs": 25180,
    "Ġodd": 6627,
    "ancy": 4395,
    "Ġshoving": 23491,
    "accessory": 25500,
    "Ġsupremacy": 20263,
    "contriv": 19295,
    "gam": 10098,
    "walk": 5523,
    "Ġadmired": 7982,
    "spoken": 11864,
    "Ġray": 18643,
    "!--": 10680,
    "Ġprincipal": 6497,
    ")(": 2983,
    "Ġerad": 25031,
    "orange": 21403,
    "magnet": 14973,
    "rubbed": 22188,
    "Ġcaution": 11348,
    "Ġarmed": 9263,
    "Ġperhaps": 1910,
    "Ġdining": 6978,
    "Ġpalsied": 25780,
    "bermaid": 20792,
    "strike": 14952,
    "Ġskull": 6290,
    "Ġsparing": 22133,
    "irc": 1731,
    "Ġobviously": 16812,
    "Ġrendering": 16660,
    "Ġovers": 14208,
    "neighbour": 7211,
    "Ġfootpath": 19340,
    "Ġhung": 4562,
    "nder": 20989,
    "Ġabrid": 22276,
    "stretch": 13984,
    "Ġaccent": 10296,
    "Ġemails": 13111,
    "gn": 8082,
    "Ġexquisitely": 20205,
    "entric": 11622,
    "Ġalche": 21787,
    "Ġimpro": 911,
    "âĢĿâĢĶ": 5721,
    "windward": 24162,
    "Ġmrs": 1468,
    "impul": 16559,
    "Ġfixedly": 19250,
    "Ġconversing": 14635,
    "based": 2962,
    "Ġpassions": 7930,
    "Ġincivility": 18574,
    "Ġweight": 657,
    "opening": 10315,
    "yn": 7819,
    "Ġcister": 13885,
    "rooms": 10434,
    "companies": 24895,
    "awn": 3839,
    "Ġsummers": 23876,
    "relieved": 13281,
    "Ġsize": 1217,
    "Ġknives": 14840,
    "Ġamazed": 14892,
    "ics": 3258,
    "Ġhollow": 5648,
    "hurst": 19881,
    "Ġdocumentation": 20557,
    "blow": 9107,
    "ictions": 14225,
    "Ġtraditions": 11445,
    "Ġ1894": 5196,
    "Ġviciss": 11294,
    "Ġchocks": 13350,
    "Ġcetacea": 20556,
    "kish": 20936,
    "Ġweek": 2827,
    "Ġmagn": 1554,
    "stumps": 21662,
    "Ġartificial": 775,
    "Ġstoper": 14466,
    "Ġcommentators": 25230,
    "raltar": 24236,
    "arrested": 15605,
    "seek": 8841,
    "attendants": 25496,
    "Ġhardihood": 23115,
    "Ġapril": 13666,
    "Ġsaxon": 25469,
    "Ġres": 696,
    "Ġcane": 10929,
    "Ġheeded": 13407,
    "Ġpall": 7583,
    "pacific": 17643,
    "soles": 18685,
    "lemagne": 26438,
    "Ġaffections": 10387,
    "atch": 674,
    "meanwhile": 10612,
    "Ġrim": 21969,
    "abri": 6684,
    "heedful": 20576,
    "Ġmerchant": 6468,
    "excited": 13384,
    "opp": 6963,
    "Ġsagittarius": 24731,
    "Ġrepeated": 3836,
    "ĠĠĠĠĠĠĠĠĠĠĠĠĠĠĠĠĠĠĠĠĠĠĠĠĠĠĠĠĠĠĠĠĠĠĠĠĠĠĠĠĠĠ": 24212,
    "Ġprospect": 4707,
    "Ġuniversal": 2234,
    "Ġlofty": 6219,
    "Ġheavier": 13106,
    "Ġenlarge": 21939,
    "Ġquadrant": 11406,
    "tedious": 22636,
    "eskye": 21487,
    "Ġgesture": 11401,
    "Ġcoasts": 12168,
    "Ġprinciples": 10014,
    "Ġwept": 7184,
    "Ġshabby": 14114,
    "Ġadduced": 26526,
    "Ġwidest": 24237,
    "Ġphilistines": 26083,
    "Ġ63": 24366,
    "Ġtables": 9881,
    "shazz": 14243,
    "Ġconceits": 19393,
    "Ġerect": 6145,
    "Ġlively": 5449,
    "Ġindolent": 13010,
    "Ġpartial": 2130,
    "rior": 12746,
    "Ġdarkly": 19116,
    "Ġmount": 7362,
    "Ġguest": 7249,
    "lorious": 17594,
    "Ġnavies": 16902,
    "they": 1880,
    "ieves": 4007,
    "ortunities": 15944,
    "talk": 6659,
    "uzz": 4526,
    "Ġprudence": 13923,
    "Ġdashed": 6011,
    "Ġpopulation": 16829,
    "Ġtu": 6969,
    "Ġsalut": 10512,
    "Ġoverjoyed": 17461,
    "cheon": 23806,
    "Ġweld": 8112,
    "Ġcontribute": 12866,
    "Ġdiabolically": 25514,
    "Ġhanging": 5447,
    "machine": 996,
    "Ġbust": 10170,
    "Ġcondition": 6765,
    "Ġjustified": 11909,
    "infliction": 25925,
    "Ġundecided": 22050,
    "Ġori": 8410,
    "held": 3845,
    "Ġperu": 14226,
    "umpled": 15880,
    "Ġsomewhere": 5384,
    "bask": 20778,
    "Ġfourth": 7707,
    "Ġbi": 919,
    "Ġcapital": 7980,
    "article": 22395,
    "ĠlinnÃ¦us": 15279,
    "Ġdashing": 8800,
    "Ġ182": 13241,
    "Ġsaving": 15891,
    "Ġunintermitted": 26221,
    "ver": 331,
    "Ġbottom": 3674,
    "Ġnap": 8813,
    "Ġinflict": 15003,
    "indifference": 15986,
    "Ġbeheld": 4495,
    "lour": 15384,
    "purse": 20028,
    "ivot": 11722,
    "Ġtranque": 14203,
    "Ġextra": 4057,
    "Ġword": 1050,
    "direful": 25897,
    "joining": 19449,
    "projecting": 26074,
    "Ġaudacity": 19884,
    "Ġprender": 22239,
    "interrupt": 8619,
    "Ġadventurous": 16735,
    "lass": 5994,
    "Ġlascar": 9202,
    "coach": 23561,
    "sail": 3603,
    "Ġboa": 22638,
    "ingale": 21302,
    "Ġmeadows": 11424,
    "Ġ*": 1273,
    "Ġbattered": 17864,
    "Ġirreproachable": 24918,
    "Ġelusive": 22650,
    "easily": 17536,
    "Ġharpoon": 3616,
    "continuing": 24479,
    "Ġunknown": 4456,
    "Ġvest": 8163,
    "neighb": 16031,
    "Ġdisdain": 8360,
    "Ġposs": 1614,
    "lac": 17591,
    "furthest": 19844,
    "Ġabaft": 22278,
    "Ġfortune": 4239,
    "wing": 2519,
    "apt": 728,
    "aments": 12730,
    "lod": 15382,
    "Ġreputed": 18038,
    "Ġsuburban": 17349,
    "accidents": 19214,
    "Ġprolonged": 8358,
    "Ġclean": 5652,
    "Ġbuttoned": 25369,
    "Ġstings": 21738,
    "elevating": 20409,
    "Ġchamber": 6215,
    "Ġhieroglyphics": 17306,
    "instead": 14815,
    "Ġalterations": 19873,
    "Ġpeople": 2544,
    "Ġphenomenon": 17917,
    "thomas": 18220,
    "accents": 19213,
    "stolen": 13985,
    "Ġsubstituting": 26328,
    "Ġnast": 15643,
    "Ġcheer": 4068,
    "Ġsteady": 4849,
    "Ġhose": 12632,
    "Ġvoyage": 3057,
    "Ġappearances": 10453,
    "Ġrealise": 16341,
    "testing": 12521,
    "Ġbirth": 6525,
    "Ġhouse": 1504,
    "Ġwrote": 5011,
    "_âĢĶâĢĿ": 20765,
    "yed": 3273,
    "Ġpurch": 6601,
    "utions": 1890,
    "Ġgrow": 2860,
    "grieved": 17320,
    "Ġinheritance": 25356,
    "Ġbutton": 10270,
    "Ġprow": 6686,
    "Ġsings": 15508,
    "danced": 20830,
    "helping": 23146,
    "Ġceiling": 7997,
    "Ġwhitney": 11375,
    "ĠĠĠĠĠĠĠĠĠĠĠĠĠĠĠĠĠĠĠĠĠĠĠĠĠĠĠĠĠĠĠĠĠĠĠĠĠĠĠĠĠĠĠĠĠĠĠĠĠĠĠĠĠĠĠĠĠĠĠĠ": 19262,
    "Ġclum": 8876,
    "ifford": 15788,
    "Ġfoiled": 23247,
    "Ġgardiner": 3240,
    "Ġdisdained": 15012,
    "Ġapplications": 4784,
    "Ġsixty": 7723,
    "Ġterra": 13121,
    "Ġropes": 10750,
    "Ġspong": 15885,
    "Ġfocused": 16345,
    "market": 16841,
    "Ġderanged": 23178,
    "Ġsultry": 20291,
    "Ġpound": 12621,
    "iage": 17575,
    "Ġdupl": 9957,
    "cen": 17505,
    "odecimo": 11446,
    "Ġadapted": 11042,
    "piece": 6658,
    "ı": 242,
    "threaten": 25462,
    "fes": 20853,
    "eel": 11486,
    "Ġperches": 18449,
    "Ġentertainment": 12227,
    "Ġaccused": 8510,
    "sleepy": 24728,
    "annica": 24562,
    "Ġsod": 11564,
    "Ġlove": 2054,
    "es": 289,
    "Ġsegmentation": 17343,
    "Ġfinancial": 23131,
    "despond": 19803,
    "Ġslipping": 13365,
    "cement": 2775,
    "Ġdoctors": 12156,
    "Ġungenerous": 18267,
    "unction": 10237,
    "Ġhowled": 12860,
    "bra": 6221,
    "Ġskin": 5038,
    "Ġpreviously": 3923,
    "Ġappears": 5402,
    "Ġsympathising": 24299,
    "Ġfurthermore": 1169,
    "ivity": 1702,
    "Ġcorpor": 23042,
    "Ġmountain": 3371,
    "Ġconfined": 7465,
    "als": 2042,
    ">": 34,
    "Ġobtruded": 20724,
    "Ġtricks": 13488,
    "bly": 6112,
    "servants": 15040,
    "Ġprincipally": 11311,
    "example": 16017,
    "prit": 19345,
    "dog": 10696,
    "Ġicy": 10749,
    "orse": 5807,
    "Ġclanging": 18425,
    "afforded": 25866,
    "derick": 22166,
    "Ġbathe": 25444,
    "Ġgoes": 3857,
    "Ġmutters": 23959,
    "Ġrevolved": 9987,
    "Ġframe": 1906,
    "nam": 2601,
    "Ġalpha": 13592,
    "Ġtimber": 13354,
    "might": 4079,
    "Ġdrank": 16537,
    "Ġab": 529,
    "Ġhal": 1361,
    "ilburn": 18062,
    "Ġdesiring": 14418,
    "_.,": 14563,
    "Ġapproxim": 1219,
    "keys": 15862,
    "Ġheaved": 9386,
    "Ġblue": 3454,
    "Ġamend": 16039,
    "Ġmanaged": 7906,
    "Ġpunchbowl": 20234,
    "insufferable": 21195,
    "clinging": 20824,
    "aspect": 10196,
    "interesting": 12206,
    "Ġarmitage": 23582,
    "Ġaffected": 5577,
    "Ġloaf": 15876,
    "considerably": 13449,
    "Ġeyebrows": 23517,
    "renew": 24450,
    "Ġcoast": 4657,
    "Ġsmoothe": 23659,
    "miserable": 8660,
    "Ġris": 4887,
    "Ġbrah": 19360,
    "Ġpretext": 22233,
    "arian": 10319,
    "Ġposterity": 17405,
    "Ġtrespass": 23602,
    "shell": 16290,
    "Ġriddles": 16734,
    "ouement": 21451,
    "Ġraptures": 13500,
    "ians": 2357,
    "Ġcleaning": 23184,
    "breat": 10081,
    "Ġare": 527,
    "Ġaverse": 11083,
    "story": 9215,
    "Ġmiss": 1232,
    "Ġthirty": 4944,
    "Ġdispersed": 16599,
    "forced": 11033,
    "Ġpacket": 14896,
    "oters": 21803,
    "Ġbree": 5012,
    "Ġwitty": 21295,
    "Ġunfav": 14790,
    "umnal": 18301,
    "Ġquestionable": 19268,
    "Ġhes": 6252,
    "tor": 15435,
    "impotence": 23764,
    "Ġcomplacency": 19451,
    "pre": 648,
    "thoroughly": 26510,
    "Ġridge": 14821,
    "rose": 6015,
    "Ġpatagonian": 20535,
    "mutually": 26137,
    "alter": 10828,
    "Ġlik": 2524,
    "bless": 22316,
    "Ġpairs": 4181,
    "Ġmat": 1148,
    "Ġparadigms": 3059,
    "Ġresignation": 18567,
    "Ġliber": 5168,
    "Ġundec": 22021,
    "Ġhumble": 8554,
    "rod": 10833,
    "Ġfinishing": 23127,
    "hinting": 17571,
    "Ġdeficient": 18827,
    "Ġeels": 21625,
    "ppings": 18179,
    "Ġqueer": 4481,
    "ket": 17584,
    "Ġaggregate": 25678,
    "Ġgourmand": 26468,
    "Ġwrung": 14473,
    "sust": 15425,
    "finding": 17015,
    "utterly": 20015,
    "heartily": 24218,
    "Ġcontinually": 5042,
    "hurriedly": 25511,
    "damn": 20027,
    "Ġimprovements": 14516,
    "Ġhandy": 12942,
    "Ġquestioned": 14622,
    "Ġsmo": 2702,
    "Ġattempted": 8001,
    "Ġimprinted": 22393,
    "Ġstudents": 23218,
    "Ġcoal": 18590,
    "Ġconsum": 9802,
    "Ġcage": 17827,
    "oided": 11511,
    "ream": 2710,
    "Ġfloor": 4379,
    "Ġroar": 9756,
    "Ġpleasantly": 14522,
    "Ġmeddle": 20580,
    "Ġbox": 5109,
    "Ġkeeled": 18807,
    "ortion": 11761,
    "Ġdelighted": 5499,
    "touched": 15442,
    "Ġuncomfortable": 8488,
    "Ġgroom": 13969,
    "Ġchemist": 11136,
    "protection": 19922,
    "Ġloathing": 15071,
    "fishery": 10035,
    "Ġmischie": 22768,
    "Ġconscious": 7744,
    "Ġfeather": 8863,
    "Ġpoised": 22593,
    "Ġcetace": 14991,
    "Ġcoppers": 22586,
    "accomplishment": 20226,
    "exceed": 7911,
    "strangely": 17279,
    "Ġturban": 23615,
    "Ġis": 347,
    "hyp": 15370,
    "Ġacute": 16127,
    "gg": 1997,
    "Ġbeheading": 21758,
    "Ġupbraiding": 26228,
    "Ġworsted": 19998,
    "Ġsimplicity": 2923,
    "heads": 4095,
    "Ġdoth": 13911,
    "who": 2445,
    "Ġdisco": 3429,
    "Ġmon": 1251,
    "whilst": 18373,
    "Ġreigns": 21674,
    "Ġtwinkled": 14315,
    "p": 84,
    "Ġgrowing": 6752,
    "Ġbilliard": 16690,
    "Ġanxiety": 5408,
    "ifiable": 18166,
    "Ġapproving": 18518,
    "Ġfastening": 16360,
    "Ġimpaling": 22387,
    "Ġprovinces": 24192,
    "stricken": 9887,
    "fire": 6359,
    "Ġflexible": 23778,
    "Ġprogeny": 17391,
    "Ġgradual": 20604,
    "Ġfork": 15736,
    "),": 1346,
    "deceptive": 22153,
    "Ġdem": 11677,
    "Ġnam": 17951,
    "Ġfairest": 20466,
    "Ġtickets": 17095,
    "preservation": 25306,
    "Ġyours": 4124,
    "Ġpemberley": 4590,
    "Ġflattering": 13034,
    "^": 66,
    "Ġcork": 12574,
    "Ġgaieties": 24198,
    "onym": 14651,
    "Ġgladly": 14683,
    "eray": 21269,
    "Ġrelate": 6875,
    "Ġke": 1155,
    "Ġlomb": 21562,
    "proof": 16427,
    "Ġlearn": 365,
    "Ġshud": 5461,
    "unhesitatingly": 26498,
    "Ġkeenly": 9488,
    "departed": 24793,
    "Ġnonce": 23237,
    "shabb": 18489,
    "cord": 8727,
    "Ġpraises": 16732,
    "returned": 7766,
    "Ġboats": 2640,
    "verb": 10219,
    "Ġrobinson": 17466,
    "representativeness": 25273,
    "Ġcompute": 2905,
    "surpr": 5998,
    "anse": 12580,
    "requirements": 24858,
    "Ġbland": 11066,
    "Ġmorbid": 16240,
    "!âĢĻ": 3331,
    "Ġcompasses": 11269,
    "Ġvestibule": 13540,
    "Ġcontrari": 23352,
    "Ġgaped": 13970,
    "Ġloitering": 22120,
    "tut": 15437,
    "pig": 8756,
    "Ġpermit": 9752,
    "Ġkey": 2101,
    "Ġfloundering": 16255,
    "spin": 22729,
    "countryman": 24640,
    "Ġunsupplied": 22045,
    "Ġmyth": 18221,
    "Ġsubt": 11872,
    "pitching": 24079,
    "Ġsteelkilt": 5675,
    "backs": 9394,
    "itely": 5365,
    "Ġhauling": 14090,
    "30": 20756,
    "ashing": 4826,
    "dep": 6787,
    "Ġrandomly": 1921,
    "Ġdissolved": 18555,
    "Ġfunctions": 1340,
    "Ġannouncement": 14836,
    "Ġdestroyer": 13417,
    "interest": 5421,
    "perai": 10279,
    "nineteenth": 26139,
    "Ġsurprised": 3834,
    "Ġtam": 7821,
    "Ġproble": 1109,
    "ishnoo": 10957,
    "Ġrekindled": 21680,
    "Ġsignals": 10588,
    "Ġentering": 6287,
    "Ġass": 1505,
    "Ġmalady": 24392,
    "Ġnomine": 26458,
    "Ġadored": 18292,
    "esty": 4306,
    "Ġcountries": 13101,
    "Ġquitted": 5312,
    "Ġmending": 17806,
    "sails": 7497,
    "Ġwoof": 14724,
    ".âĢĶ": 4248,
    "Ġfire": 2332,
    "apothe": 22338,
    "Ġtested": 23207,
    "ided": 2787,
    "Ġelevates": 24503,
    "Ġreadiness": 13055,
    "exc": 5169,
    "Ġeye": 2280,
    "haut": 20904,
    "Ġuniform": 2227,
    "Ġcotton": 17382,
    "Ġhut": 15623,
    "fearing": 18533,
    "dat": 1609,
    "Ġintended": 5548,
    "professor": 17252,
    "Ġbundle": 13430,
    "Ġinclu": 1097,
    "Ġhood": 10825,
    "Ġ35": 24080,
    "Ġconc": 1841,
    "Ġdisguises": 25058,
    "prise": 7727,
    "Ġclipping": 2440,
    "ashed": 3789,
    "arrow": 4179,
    "Ġencouragement": 13048,
    "light": 3019,
    "Ġalco": 21786,
    "christmas": 20258,
    "fering": 17544,
    "Ġtext": 2268,
    "Ġgovernments": 20270,
    "Ġsire": 15504,
    "etah": 12666,
    "Ġskil": 14355,
    "Ġbonnet": 10658,
    "Ġdeaths": 14539,
    "Ġtapering": 8775,
    "achine": 610,
    "Ġhabit": 6772,
    "onstr": 12551,
    "Ġjutting": 22305,
    "fitted": 17546,
    "mere": 11859,
    "Ġdiab": 10614,
    "contin": 16545,
    "atus": 21263,
    "Ġinstantaneous": 14613,
    "Ġequator": 7462,
    "Ġindependently": 4246,
    "Ġlurks": 11292,
    "Ġisolation": 17153,
    "Ġconject": 6028,
    "compliments": 24807,
    "Ġpleasing": 6192,
    "tic": 8391,
    "supposing": 24136,
    "Ġcomfortably": 16617,
    "Ġobtru": 18676,
    "entered": 8819,
    "Ġbridges": 24683,
    "cing": 1011,
    "Ġscrewing": 20211,
    "Ġperpendicular": 7209,
    "Ġhalting": 16278,
    "Ġdoll": 10815,
    "Ġyellow": 5302,
    "Ġhind": 9191,
    "Ġproposition": 23252,
    "trampled": 26335,
    "previous": 9764,
    "desired": 9008,
    "Ġbeh": 1802,
    "Ġinvoluntary": 18765,
    "Ġfoam": 6891,
    "studied": 17152,
    "Ġmagnetic": 17243,
    "Ġsant": 21217,
    "Ġconstit": 8587,
    "'d": 12431,
    "Ġsplinter": 23750,
    "accomp": 10457,
    "angs": 5835,
    "Ġfrog": 23925,
    "laden": 14932,
    "Ġtyros": 26102,
    "Ġthames": 13941,
    "Ġfate": 4755,
    "Ġformless": 22830,
    "Ġcreatures": 4137,
    "Ġissue": 2310,
    "dimensional": 2347,
    "mistake": 24529,
    "otion": 4946,
    "former": 11752,
    "unsupervised": 10891,
    "Ġchurning": 15941,
    "Ġurged": 6782,
    "pents": 11515,
    "Ġdisappears": 18561,
    "touching": 15095,
    "soldiers": 25912,
    "yourselves": 24959,
    "Ġoccup": 3743,
    "protected": 19923,
    "Ġbestirred": 20454,
    "useness": 22296,
    "ozy": 17624,
    "peare": 18913,
    "Ġowning": 18746,
    "rec": 6005,
    "Ġcred": 8785,
    "tram": 19646,
    "Ġrelationship": 2314,
    "agings": 18168,
    "Ġsigned": 11179,
    "Ġpul": 2041,
    "nearest": 16030,
    "Ġstove": 6735,
    "trowsers": 17693,
    "Ġdissipate": 13637,
    "oriental": 23721,
    "Ġpoor": 1710,
    "tar": 8098,
    "Ġcautiousness": 19868,
    "Ġautonom": 10417,
    "ladyship": 14832,
    "Ġdifficulty": 5770,
    "Ġwilderness": 14843,
    "mild": 15395,
    "Ġsnows": 14729,
    "bears": 22494,
    "Ġconcuss": 19048,
    "impart": 21712,
    "Ġdiffused": 12073,
    "Ġramsgate": 18649,
    "Ġsecretly": 13276,
    "Ġburnt": 9931,
    "Ġ28": 19297,
    "Ġunnaturally": 24871,
    "Ġinteraction": 7424,
    "Ġgait": 13335,
    "Ġgrie": 3584,
    "Ġrelu": 1046,
    "fo": 5279,
    "throw": 14101,
    "Ġspiced": 22137,
    "torm": 11533,
    "se": 357,
    "Ġbeaver": 18088,
    "Ġankers": 21448,
    "Ġteeth": 4166,
    "informed": 17738,
    "Ġoverl": 18429,
    "Ġdetest": 8503,
    "Ġpacific": 5153,
    "Ġrepose": 6743,
    "Ġinstruct": 2864,
    "Ġrepublican": 17415,
    "utored": 15667,
    "Ġsimpler": 2048,
    "Ġreader": 11938,
    "ssible": 2994,
    "bitts": 26123,
    "Ġtorch": 25033,
    "esc": 617,
    "Ġlazily": 11382,
    "echo": 15352,
    "Ġsearching": 13166,
    "Ġdiscussed": 19562,
    "Ġlungs": 8362,
    "treat": 12518,
    "Ġsir": 1568,
    "Ġber": 5698,
    "perseus": 26006,
    "Ġmach": 13860,
    "Ġimp": 574,
    "\"": 6,
    "rity": 13779,
    "Ġamends": 14248,
    "nut": 12499,
    "nose": 17612,
    "slowly": 9092,
    "haired": 14769,
    "Ġconveys": 16857,
    "useless": 14596,
    "Ġtoo": 1165,
    "Ġabstained": 25232,
    "ronted": 14880,
    "Ġshoved": 23492,
    "tures": 21072,
    "ounding": 22397,
    "Ġcultiv": 13560,
    "bo": 1692,
    "Ġchrist": 4074,
    "Ġillustration": 19137,
    "Ġcrowding": 13284,
    "Ġinoffensive": 21501,
    "ction": 500,
    "whatsoever": 18494,
    "ill": 447,
    "ifies": 6688,
    "Ġshifted": 14110,
    "suggested": 17302,
    "Ġspoke": 2748,
    "murderer": 13397,
    "Ġactionable": 24560,
    "Ġthreads": 13122,
    "whel": 7665,
    "desperate": 17360,
    "Ġyear": 3286,
    "urring": 21708,
    "Ġplanet": 14753,
    "Ġpreternatural": 12828,
    "uend": 21104,
    "Ġpittance": 15621,
    "Ġhail": 7400,
    "Ġnerves": 2629,
    "Ġdimens": 3151,
    "Ġj": 533,
    "rib": 1946,
    "Ġattractions": 12922,
    "Ġallowance": 14392,
    "thrasher": 25659,
    "Ġpresents": 8245,
    "rob": 5534,
    "Ġfell": 1978,
    "anchor": 13892,
    "isons": 17851,
    "dogs": 25403,
    "gage": 13727,
    "Ġducking": 17149,
    "succeeded": 15179,
    "however": 4374,
    "blasted": 20192,
    "used": 3261,
    "Ġrevolve": 19733,
    "Ġsensation": 6896,
    "Ġinnovative": 1678,
    "Ġeffects": 7236,
    "anqu": 4110,
    "stache": 15694,
    "Ġexpenses": 11839,
    "Ġcomposed": 8895,
    "Ġdazz": 11597,
    "Ġsu": 432,
    "Ġpunct": 8664,
    "crimson": 24090,
    "relu": 17761,
    "Ġyarn": 10870,
    "Ġslack": 8958,
    "chanced": 18812,
    "Ġcaroline": 7254,
    "Ġsolution": 9808,
    "Ġobservations": 13557,
    "left": 6976,
    "Ġcouples": 16854,
    "Ġtransactions": 18483,
    "Ġshook": 4471,
    "ness": 852,
    "Ġvillagers": 19477,
    "Ġelated": 18635,
    "Ġfathers": 16299,
    "Ġbase": 5013,
    "gazed": 15365,
    "Ġrepine": 16413,
    "anque": 13891,
    "Ġpants": 21467,
    "hearth": 15502,
    "Ġaffords": 16736,
    "Ġsince": 1797,
    "determined": 9082,
    "Ġmic": 17799,
    "Ġridiculous": 10631,
    "fanc": 20866,
    "Ġblo": 2734,
    "willing": 6594,
    "Ġheartily": 6890,
    "Ġemergencies": 17365,
    "carries": 19530,
    "Ġcate": 4109,
    "Ġenergies": 25460,
    "Ġwreat": 15534,
    "Ã¦": 4338,
    "unch": 14061,
    "Ġaccompany": 9490,
    "Ġslippers": 19618,
    "hip": 8744,
    "etw": 407,
    "Ġrenounce": 19471,
    "Ġbursting": 8659,
    "finally": 9502,
    "ports": 13777,
    "Ġchat": 6562,
    "Ġhos": 4942,
    "Ġreve": 2933,
    "worked": 19014,
    "Ġdiscoursing": 26267,
    "Ġmysteries": 11324,
    "Ġcompelled": 14268,
    "Ġstanzas": 21748,
    "Ġfrozen": 9016,
    "Ġconnections": 972,
    "Ġdeceased": 15008,
    "Ġgroans": 14826,
    "Ġexecution": 6927,
    "permission": 15907,
    "Ġdevouring": 11862,
    "Ġrecord": 5317,
    "Ġlearning": 388,
    "Ġtoilet": 13940,
    "Ġavail": 11228,
    "Ġrationally": 18214,
    "Ġworld": 1595,
    "behind": 6780,
    "Ġaroused": 15898,
    "Ġdent": 13909,
    "bu": 5132,
    "Ġgames": 11629,
    "training": 2517,
    "Ġveget": 11890,
    "Ġarmchair": 8271,
    "Ġsolemn": 4100,
    "Ġlaughed": 5059,
    "Ġharsh": 9524,
    "rowsers": 8698,
    "Ġconven": 6153,
    "rival": 12747,
    "Ġposit": 1307,
    "affrail": 11207,
    "Ġcl": 556,
    "Ġloathsome": 13531,
    "skill": 24487,
    "mews": 22716,
    "Ġawhile": 13833,
    "bench": 16805,
    "Ġwhitish": 24867,
    "aloons": 20014,
    "<UNK>": 3,
    "urned": 9309,
    "Ġimprobable": 9798,
    "Ġhaggerston": 26454,
    "Ġlong": 793,
    "weep": 22687,
    "Ġcetus": 19887,
    "Ġaccuse": 14214,
    "histicated": 20903,
    "aguy": 21914,
    "Ġcrushed": 9426,
    "Ġverdict": 13479,
    "Ġdef": 1201,
    "Ġsoldier": 16922,
    "Ġwhat": 601,
    "bod": 12441,
    "grateful": 10430,
    "paint": 21020,
    "Ġbodily": 6108,
    "Ġhorizontal": 7783,
    "Ġ37": 24081,
    "Ġactivations": 2720,
    "Ġskeletons": 16793,
    "Ġgrievances": 20650,
    "Ġdegenerating": 25800,
    "Ġspool": 24803,
    "scuttle": 11914,
    "difference": 13711,
    "Ġfolds": 12211,
    "gd": 3126,
    "Ġrouted": 24908,
    "iled": 1767,
    "attacks": 23125,
    "conda": 18993,
    "Ġbeholding": 8672,
    "Ġcuba": 25098,
    "Å": 134,
    "elf": 565,
    "hogs": 20085,
    "owers": 12689,
    "Ġindefinite": 17179,
    "hundred": 8331,
    "enemy": 15530,
    "Ġmerged": 19299,
    "razor": 21640,
    "except": 5383,
    "Ġsta": 18065,
    "Ġserving": 14488,
    "Ġmutilated": 23962,
    "manif": 14376,
    "Ġfacetious": 20587,
    "Ġjing": 15953,
    "jump": 10106,
    "Ġrepul": 16412,
    "Ġobe": 5801,
    "Ġalacrity": 15741,
    "endless": 22230,
    "gue": 12472,
    "enary": 12556,
    "Ġinfatuation": 25858,
    "Ġrealities": 18982,
    "Ġours": 4614,
    "Ġlig": 21551,
    "Ġapply": 1779,
    "Ġrequires": 1024,
    "side": 2301,
    "sher": 5217,
    "Ġwheeling": 18289,
    "resc": 21241,
    "exagger": 22432,
    "Ġturk": 6605,
    "Ġpoltroon": 26600,
    "Ġsty": 6253,
    "regarded": 12012,
    "Ġconcealing": 23906,
    "Ġred": 3008,
    "Ġjudging": 16597,
    "Ġbrilliant": 11416,
    "Ġscan": 22283,
    "Ġhapless": 15816,
    "Ġbriony": 9332,
    "Ġgigantic": 5916,
    "ments": 1398,
    "Ġforced": 4353,
    "Ġenters": 11026,
    "Ġscrewed": 15124,
    "inkled": 5477,
    "Ġexplanations": 15914,
    "icorn": 15661,
    "Ġresembled": 18036,
    "Ġpeg": 22692,
    "flakes": 23971,
    "aurus": 20563,
    "fters": 20863,
    "Ġaugmentation": 20119,
    "Ġprivileged": 20116,
    "abular": 4763,
    "reve": 12544,
    "Ġfloat": 12036,
    "beef": 18524,
    "osing": 3690,
    "rades": 8592,
    "Ġanalysis": 1935,
    "covenant": 23563,
    "web": 18665,
    "chased": 18044,
    "Ġconvert": 11847,
    "Ġdungeon": 16998,
    "Ġaust": 4872,
    "Ġ92": 24591,
    "Ġdardanelles": 26445,
    "rels": 6667,
    "Ġmillion": 14990,
    "Ġhamp": 12635,
    "Ġsounding": 8265,
    "Ġgam": 11627,
    "anthrop": 17385,
    "Ġeaves": 15680,
    "Ġinconsistency": 26184,
    "Ġcell": 6239,
    "Ġgets": 10841,
    "Ġauthentic": 20538,
    "Ġindulge": 10585,
    "Ġindecision": 25782,
    "death": 6263,
    "day": 1856,
    "idled": 21772,
    "talked": 14988,
    "Ġdism": 9770,
    "Ġpersonality": 16479,
    "bird": 9588,
    "Ġvesuvius": 26503,
    "shadow": 20315,
    "Ġbrad": 8791,
    "revival": 26163,
    "Ġpaint": 7708,
    "urch": 3995,
    "Ġchiselled": 25560,
    "Ġarticulate": 24432,
    "adding": 21765,
    "objects": 13474,
    "Ġdeceitful": 25733,
    "Ġineffable": 17335,
    "abez": 10225,
    "definition": 23121,
    "irium": 8162,
    "skinned": 25388,
    "elect": 20848,
    "Ġinnocently": 24031,
    "obscure": 23101,
    "Ġrhine": 12360,
    "Ġchurch": 4712,
    "Ġvint": 18195,
    "avoiding": 25237,
    "Ġprotect": 6339,
    "Ġ4": 3989,
    "Ġglimpse": 6944,
    "Ġasia": 11686,
    "avern": 24791,
    "bos": 17486,
    "Ġperils": 6274,
    "Ġregretted": 13404,
    "Ġremaining": 6190,
    "Ġscenari": 22291,
    "Ġparading": 23711,
    "âĢĶâĢĿ": 3299,
    "Ġmoon": 4610,
    "lic": 17589,
    "Ġwrite": 3825,
    "Ġwade": 17786,
    "Ġthy": 2513,
    "Ġfath": 7364,
    "Ġnicely": 8712,
    "Ġresembling": 4098,
    "Ġtuesday": 9629,
    "Ġsolitudes": 22889,
    "Ġav": 3582,
    "Ġfantastic": 10062,
    "1775": 26380,
    "Ġtrous": 10959,
    "ivorous": 22084,
    "eleg": 20851,
    "Ġcarpet": 9359,
    "Ġisle": 8837,
    "good": 2899,
    "Ġblan": 18819,
    "Ġcombinations": 22856,
    "aging": 2238,
    "Ġpr": 1597,
    "Ġdiffident": 23786,
    "appe": 2944,
    "Ġaccomplishments": 13383,
    "Ġemployed": 5200,
    "plainly": 11091,
    "racts": 14367,
    "ĠâĢľâĢĶ": 9737,
    "Ġecon": 9680,
    "inces": 13831,
    "4": 24,
    "Ġmagic": 8233,
    "Ġboarded": 13238,
    "Ġlory": 12657,
    "Ġclearly": 6897,
    "Ġchoke": 22253,
    "swallow": 24260,
    "naturalist": 23552,
    "Ġaltered": 7393,
    "Ġscratching": 20372,
    "lungs": 26136,
    "Ġcasts": 19429,
    "Ġowest": 25094,
    "Ġcrater": 16438,
    "Ġpaced": 7584,
    "mature": 20969,
    "Ġvoid": 14089,
    "Ġessays": 19747,
    "measured": 19993,
    "Ġthus": 2037,
    "Ġobserving": 6081,
    "Ġprotruding": 16661,
    "alizing": 17942,
    "Ġvisited": 5949,
    "Ġpri": 5814,
    "Ġde": 363,
    "Ġpewter": 17188,
    "Ġlightnings": 16356,
    "antage": 3882,
    "Ġfeeling": 3087,
    "Ġcredit": 4820,
    "private": 13586,
    "Ġdrags": 16943,
    "urmountable": 15283,
    "gard": 7339,
    "Ġgamming": 25543,
    "aled": 3947,
    "race": 11634,
    "Ġdust": 5910,
    "Ġevangelist": 20341,
    "grasp": 16433,
    "wheeler": 16192,
    "ials": 11708,
    "security": 26208,
    "tumbled": 21093,
    "Ġfrenz": 25447,
    "Ġhurled": 10431,
    "Ġmemoirs": 26207,
    "inglass": 21305,
    "Ġoaths": 13527,
    "Ġaloft": 4303,
    "Ġarose": 7360,
    "Ġexists": 14044,
    "ustry": 18359,
    "shott": 11798,
    "Ġprobable": 5570,
    "Ġtin": 15466,
    "six": 7143,
    "Ġwidow": 8666,
    "Ġind": 1221,
    "ties": 2760,
    "Ġordering": 18999,
    "Ġlany": 21557,
    "Ġsoliloquized": 17305,
    "Ġepid": 18007,
    "Ġalex": 15137,
    "quid": 18149,
    "Ġmenacing": 23111,
    "Ġ120": 16860,
    "etrics": 21588,
    "Ġinconceivable": 17940,
    "Ġpumps": 8428,
    "Ġtougher": 21179,
    "Ġbarnacled": 25537,
    "guess": 14764,
    "Ġmightiest": 12966,
    "Ġillinois": 19138,
    "Ġcounsell": 25385,
    "abiding": 21797,
    "Ġshells": 20367,
    "Ġvale": 14085,
    "Ġberry": 19749,
    "vanished": 15063,
    "cottage": 9572,
    "hills": 13739,
    "Ġhandful": 9786,
    "Ġlanterns": 24578,
    "Ġalas": 5923,
    "irms": 18171,
    "Ġcontradictory": 20400,
    "Ġlovely": 4711,
    "ff": 462,
    "Ġpatronage": 17054,
    "hereditary": 26421,
    "Ġapart": 4747,
    "Ġcandles": 9911,
    "stripped": 16947,
    "discovered": 8325,
    "Ġflail": 23010,
    "hon": 6794,
    "ĠĠĠĠĠĠĠĠĠĠĠĠĠĠĠĠĠĠĠĠĠĠĠĠĠĠĠĠĠĠĠĠĠĠĠĠĠĠĠĠĠ": 19585,
    "Ġhabits": 6926,
    "Ġinterconnected": 1337,
    "Ġintermediate": 18589,
    "nobody": 16151,
    "Ġworshipper": 25693,
    "Ġmum": 13861,
    "rously": 17656,
    "Ġextremities": 19198,
    "chess": 16576,
    "Ġtrem": 6662,
    "Ġreluct": 14375,
    "Ġspeeding": 23565,
    "Ġcapture": 3384,
    "Ġclassification": 1105,
    "Ġcoherent": 3264,
    "Ġaccusation": 22385,
    "Ġers": 15463,
    "Ġjoking": 12842,
    "Ġ65": 24368,
    "Ġhosea": 17334,
    "Ġshaded": 14108,
    "Ġdiving": 12606,
    "Ġgestic": 21611,
    "Ġarchitects": 18745,
    "continued": 8679,
    "Ġclubbed": 26549,
    "Ġcheery": 16374,
    "Ġskills": 1838,
    "eteenth": 20160,
    "nib": 5214,
    "narwhale": 17321,
    "thine": 15828,
    "importance": 9992,
    "Ġslee": 8977,
    "Ġpitched": 9447,
    "Ġfifth": 11259,
    "list": 7551,
    "Ġxxxvi": 24972,
    "Ġstout": 6026,
    "say": 3987,
    "imes": 1303,
    "lantic": 6365,
    "der": 468,
    "Ġplug": 17150,
    "enances": 10156,
    "mical": 9131,
    "icest": 21567,
    "unicorn": 21893,
    "atmosphere": 21267,
    "Ġ99": 10747,
    "rollable": 13948,
    "Ġrobbery": 11921,
    "Ġoutlast": 22317,
    "Ġremorselessly": 16969,
    "Ġsin": 1514,
    "Ġdistension": 22506,
    "usually": 10288,
    "Ġshed": 8181,
    "Ġignominy": 15089,
    "mile": 17599,
    "unexpected": 15782,
    "Ġcorrected": 10450,
    "Ġneatness": 19935,
    "atiously": 15525,
    "arling": 10816,
    "Ġretained": 7174,
    "Ġloungers": 24863,
    "Ġaccompl": 5167,
    "cav": 17510,
    "Ġreadily": 5254,
    "cas": 20796,
    "evinced": 19928,
    "Ġpecks": 18670,
    "simp": 17667,
    "way": 763,
    "Ġwiping": 25766,
    "orative": 21401,
    "estim": 14172,
    "Ġbachel": 7159,
    "Ġshowed": 4499,
    "pleasant": 5876,
    "Ġimpenit": 22392,
    "Ġscolding": 15204,
    "non": 9614,
    "icken": 6713,
    "gloves": 25146,
    "Ġrubbed": 12960,
    "Ġvacancies": 24345,
    "Ġproportion": 7281,
    "uer": 21103,
    "linearity": 1647,
    "Ġalways": 1698,
    "Ġcho": 4549,
    "Ġlustre": 15138,
    "Ġselling": 21227,
    "Ġmaterially": 12196,
    "Ġmutter": 23957,
    "deserted": 19344,
    "duchess": 18464,
    "Ġcheerfully": 12139,
    "Ġsingular": 4426,
    "Ġbelongs": 8015,
    "Ġderivatives": 2368,
    "icirc": 15660,
    "amongst": 24673,
    "Ġ1778": 25730,
    "Ġhush": 13215,
    "Ġberm": 21386,
    "Ġaccomplished": 7106,
    "Ġcorrob": 16269,
    "Ġunheeded": 18262,
    "Ġbene": 2033,
    "Ġtablet": 19207,
    "Ġneared": 14076,
    "somers": 19371,
    "Ġmajest": 24065,
    "Ġtumb": 21172,
    "icism": 13959,
    "Ġresent": 6050,
    "Ġchaplain": 19914,
    "Ġhorrify": 23822,
    "sy": 2759,
    "Ġox": 7154,
    "Ġhanded": 8217,
    "Ġscreening": 25301,
    "Ġfront": 3451,
    "Ġescorted": 23508,
    "Ġwearisome": 19798,
    "Ġleagues": 9226,
    "Ġavalanche": 17436,
    "Ġtuning": 3076,
    "....": 11318,
    "www": 17254,
    "riv": 3111,
    "Ġspake": 18309,
    "Ġstroke": 6936,
    "Ġtremor": 24767,
    "Ġbott": 3150,
    "Ġfrayed": 23295,
    "Ġarise": 7896,
    "Ġapothe": 12379,
    "Ġscra": 5841,
    "Ġapproximation": 2340,
    "upp": 10133,
    "movement": 25578,
    "Ġrainy": 24341,
    "pag": 11513,
    "oregressive": 3425,
    "Ġcompat": 2938,
    "hack": 20898,
    "!_": 7329,
    "Ġcombat": 16188,
    "Ġforecastle": 5495,
    "'s": 2469,
    "Ġflourished": 15129,
    "fluttering": 23976,
    "Ġsar": 21216,
    "brothers": 17026,
    "Ġoverseeing": 22368,
    "Ġpassionately": 16766,
    "Ġverd": 6919,
    "Ġfavourite": 5271,
    "mand": 3898,
    "Ġassumed": 9468,
    "served": 5043,
    "Ġharb": 7370,
    "Ġdeny": 7488,
    "Ġmoreover": 6165,
    "obliged": 20634,
    "passing": 14814,
    "Ġbeam": 2880,
    "Ġpillow": 10041,
    "Ġpreside": 18366,
    "rect": 1596,
    "arming": 8954,
    "Ġcupidity": 24535,
    "west": 10741,
    "ounded": 9751,
    "Ġawakened": 10455,
    "anation": 5804,
    "onical": 21256,
    "Ġrestricted": 19032,
    "Ġbelly": 10372,
    "watson": 12248,
    "unteered": 26497,
    "Ġcorpus": 13037,
    "Ġelasticity": 19561,
    "ulged": 12735,
    "greeting": 24554,
    "Ġcul": 17824,
    "acute": 22600,
    "Ġdiffusion": 23785,
    "fooled": 24419,
    "five": 6358,
    "uttered": 8442,
    "Ġschoolboys": 24481,
    "Ġpolice": 4676,
    "prophet": 16185,
    "Ġguardianship": 17423,
    "farewell": 12310,
    "Ġmamm": 25093,
    "Ġfully": 6344,
    "explain": 1483,
    "Ġconcealment": 16916,
    "Ġfare": 5810,
    "oves": 15406,
    "included": 19210,
    "encies": 4081,
    "Ġswore": 10381,
    "Ġhousemaid": 14468,
    "wife": 8101,
    "unpardonable": 21894,
    "injury": 25214,
    "cal": 1121,
    "Ġpint": 17909,
    "âĢĿ]": 21816,
    "Ġpartaking": 22702,
    "Ġblades": 11899,
    "geese": 22371,
    "pinn": 21028,
    "Ġlatest": 16824,
    "streamed": 25967,
    "oubtedly": 6943,
    "Ġattendance": 12186,
    "Ġknocked": 9503,
    "governed": 25406,
    "Ġcrisp": 12007,
    "opportunity": 12279,
    "urre": 10858,
    "nesday": 8706,
    "Ġcolleg": 22858,
    "Ġdisabled": 18562,
    "addressed": 13389,
    "dering": 5307,
    "Ġtrivial": 10145,
    "Ġstrictest": 17043,
    "Ġeclipsed": 26378,
    "Ġeligible": 10673,
    "fourth": 11330,
    "Ġbrush": 17866,
    "B": 38,
    "urously": 18053,
    "pleas": 3856,
    "£": 101,
    "elizabeth": 1988,
    "Ġfighting": 12202,
    "Ġpitied": 14694,
    "Ġendure": 5957,
    "Ġhappiest": 11886,
    "ifled": 14066,
    "bul": 6951,
    "Ġyard": 5922,
    "hearted": 6971,
    "Ġpolynes": 16083,
    "Ġasking": 5651,
    "Ġoutside": 5554,
    "istical": 8492,
    "choose": 23674,
    "Ġalternately": 15034,
    "examined": 17269,
    "swed": 24256,
    "Ġembalmed": 13660,
    "Ġglistened": 20175,
    "Ġsqueeze": 10042,
    "Ġspecks": 14311,
    "bet": 6111,
    "americans": 25045,
    "Ġstorm": 4301,
    "Ġears": 4493,
    "Ġthickness": 13282,
    "oted": 4599,
    "Ġcase": 1941,
    "Ġremainder": 9861,
    "Ġtone": 4041,
    "sneezes": 11448,
    "Ġostentatious": 25737,
    "Ġimbued": 17458,
    "draught": 12095,
    "tumultuous": 20402,
    "Ġideas": 5494,
    "Ġabandoned": 8352,
    "Ġimmense": 4952,
    "Ġimitated": 18330,
    "Ġnest": 10191,
    "Ġmoderation": 12825,
    "attering": 7419,
    "gown": 9599,
    "Ġtiar": 21170,
    "exp": 2737,
    "Ġdescent": 987,
    "Ġabove": 2936,
    "Ġtestament": 23208,
    "boards": 23257,
    "Ġsou": 1888,
    "Ġgilder": 21616,
    "ribed": 7693,
    "Ġfowler": 16939,
    "Ġruefully": 17304,
    "disagreeable": 11165,
    "Ġreliably": 22882,
    "Ġsmite": 22561,
    "inferences": 17741,
    "tra": 5002,
    "Ġmechanisms": 1574,
    "Ġoffer": 4845,
    "Ġ0": 1902,
    "Ġsurprising": 14599,
    "Ġdesmarest": 22984,
    "whe": 1072,
    "convolutional": 4958,
    "distinct": 13340,
    "Ġavoid": 5199,
    "Ġbarbarously": 24816,
    "intending": 22938,
    "Ġupon": 719,
    "Ġbumps": 21395,
    "minutely": 19596,
    "Ġchest": 5185,
    "russian": 22187,
    "Ġconfessor": 24022,
    "Ġgenial": 12199,
    "anders": 18155,
    "Ġplat": 8523,
    "itations": 17819,
    "Ġadhes": 22106,
    "Ġcomprehens": 8320,
    "simon": 16975,
    "Ġdod": 6675,
    "ioning": 21512,
    "crippled": 26386,
    "Ġbunch": 11328,
    "Ġsnapping": 19303,
    "lake": 13752,
    "Ġgurglings": 26467,
    "Ġcru": 2824,
    "Ġdolphins": 20399,
    "Ġfinding": 3266,
    "cod": 12448,
    "buncle": 13696,
    "Ġexord": 21831,
    "Ġtit": 8400,
    "Ġlob": 7628,
    "Ġclaw": 22358,
    "Ġyanke": 18100,
    "Ġsins": 13840,
    "ething": 1599,
    "Ġflowers": 8943,
    "Ġadditional": 7936,
    "Ġcart": 11586,
    "Ġbrandy": 11051,
    "later": 20955,
    "Ġgouldings": 26189,
    "Ġvibration": 17100,
    "agon": 7871,
    "istrate": 7406,
    "ga": 17552,
    "Ġoblique": 20172,
    "weight": 2940,
    "abs": 11670,
    "Ġderbyshire": 6588,
    "Ġhud": 10824,
    "Ġbehav": 3540,
    "precision": 4332,
    "even": 3842,
    "ug": 1769,
    "tail": 8765,
    "tenham": 16324,
    "Ġgirth": 13140,
    "Ġgenerations": 10967,
    "Ġcards": 7581,
    "--------": 14785,
    "yramid": 8368,
    "Ġconsist": 1934,
    "Ġstay": 3097,
    "Ġmaster": 3682,
    "agery": 21911,
    "°": 113,
    "oda": 15754,
    "ira": 3962,
    "cupboards": 25402,
    "Ġhabitations": 24788,
    "Č": 205,
    "Ġungovernable": 20711,
    "Ġheld": 3586,
    "Ġstruggles": 16581,
    "Ġbarmaid": 19337,
    "Ġanytime": 12890,
    "Ġprofessed": 14727,
    "Ġprognostics": 20561,
    "ieties": 19026,
    "divided": 25021,
    "acet": 5476,
    "rodden": 21538,
    "company": 9464,
    "Ġhussey": 7725,
    "Ġgard": 2189,
    "shaped": 10311,
    "Ġerskine": 17435,
    "Ġcomplied": 14737,
    "Ġimputable": 22177,
    "Ġmorris": 18852,
    "Ġcoer": 22582,
    "Ġdozing": 22247,
    "eldest": 22799,
    "Ġgle": 7859,
    "Ġbitten": 21393,
    "Ġeast": 5370,
    "Ġslaves": 23173,
    "ples": 6845,
    "Ġless": 1939,
    "Ġjackets": 19605,
    "Ġextract": 1560,
    "ortions": 10950,
    "Ġvoc": 4454,
    "Ġslammed": 20451,
    "Ġpil": 5014,
    "ascertain": 21546,
    "Ġwilliam": 3483,
    "pred": 2804,
    "never": 3153,
    "Ġtransplanted": 22445,
    "Ġecstasy": 11633,
    "Ġdoub": 1836,
    "ught": 2751,
    "fab": 13719,
    "Ġdevoutly": 25834,
    "precious": 12077,
    "elag": 12663,
    "rannical": 26403,
    "ht": 376,
    "Ġhur": 2099,
    "Ġanomalous": 25638,
    "Ġleast": 2064,
    "Ġstolen": 14010,
    "apering": 8041,
    "lightened": 12069,
    "Ġdoubtful": 19143,
    "Ġwhaleman": 4656,
    "cused": 15335,
    "Ġfest": 10806,
    "eness": 2290,
    "Ġvillainous": 25134,
    "Ġmelbourne": 24291,
    "Ġperform": 1035,
    "illes": 12699,
    "Ġplainer": 23705,
    "Ġwaning": 15537,
    "Ġthis": 382,
    "Ġig": 3501,
    "Ġrecogn": 2622,
    "Ġbillow": 14783,
    "Ġrepresenting": 4062,
    "cturn": 17989,
    "Ġbrink": 18772,
    "Ġaverages": 2398,
    "Ġbulky": 13233,
    "turns": 14909,
    "Ġrelatives": 12986,
    "Ġheedful": 19743,
    "Ġrenewed": 9541,
    "Ġgemin": 21613,
    "Ġnecessity": 7296,
    "Ġsuccor": 25663,
    "herent": 2530,
    "Ġboots": 5944,
    "Ġsteered": 11094,
    "Ġroads": 13293,
    "Ġconsiderations": 9413,
    "Ġgl": 1256,
    "```": 25894,
    "Ġrapidity": 11102,
    "Ġbow": 3063,
    "Ġpertin": 18450,
    "ahawk": 23319,
    "shown": 22448,
    "wil": 8769,
    "Ġcarved": 7947,
    "Ġpassenger": 14372,
    "Ġremem": 4314,
    "Ġbreadth": 10566,
    "Ġwarning": 9061,
    "Ġwert": 12561,
    "Ġwillingly": 8888,
    "Ġerud": 20058,
    "wondered": 17118,
    "brandy": 19203,
    "Ġshout": 4264,
    "Ġrequiring": 2921,
    "determination": 19948,
    "apsed": 6297,
    "smith": 5669,
    "them": 3021,
    "Ġdistended": 16046,
    "Ġstrangely": 5677,
    "moving": 11019,
    "mospheric": 17092,
    "aws": 8237,
    "Ġblack": 2034,
    "wooden": 24588,
    "Ġlights": 8963,
    "Ġcommunication": 1868,
    "Ġflavor": 16256,
    "Ġawed": 23586,
    "zers": 21149,
    "Ġsubs": 2131,
    "Ġsplitting": 4384,
    "Ġhyper": 19742,
    "elstrom": 17984,
    "igger": 21703,
    "Ġshepherd": 14155,
    "Ġdimin": 3875,
    "Ġsultanism": 25889,
    "Ġlowest": 11124,
    "izers": 18145,
    "slee": 17171,
    "mant": 20967,
    "Ġpeninsula": 23199,
    "Ġcomplying": 18585,
    "rest": 1628,
    "Ġfort": 2578,
    "Ġinferiority": 17116,
    "Ġauto": 23304,
    "Ġlingo": 24904,
    "Ġlanc": 19767,
    "dz": 4740,
    "Ġdownstream": 3779,
    "Ġfortifications": 23622,
    "Ġconjectures": 16927,
    "Ġadaptation": 3157,
    "mock": 5174,
    "Ġnumerous": 6920,
    "Ġthief": 11613,
    "Ġspecialized": 3924,
    "Ġpass": 1039,
    "Ġports": 10820,
    "itive": 6671,
    "Ġjeopardy": 13600,
    "oman": 2019,
    "Ġswinging": 7449,
    "Ġsharpened": 17368,
    "Ġdream": 3538,
    "Ġanimating": 23426,
    "Ġbreezes": 14872,
    "Ġobjecting": 18897,
    "Ġheavily": 6742,
    "Ġdeclaring": 19423,
    "noticed": 14343,
    "Ġwires": 21298,
    "Ġdiscreet": 16485,
    "Ġstandard": 14499,
    "Ġunfortunately": 10911,
    "books": 8667,
    "pet": 4868,
    "Ġdocks": 14180,
    "Ġcapric": 14577,
    "Ġjokes": 18409,
    "Ġdu": 4586,
    "Ġmarty": 20293,
    "Ġdisconsolate": 20721,
    "sus": 6230,
    "pillar": 5619,
    "alously": 15633,
    "Ġadvertised": 17250,
    "mitted": 5213,
    "levelled": 23647,
    "Ġbuffaloes": 25218,
    "presbyterian": 26370,
    "value": 18806,
    "greatly": 16626,
    "erring": 11058,
    "rapid": 12675,
    "Ġborders": 15576,
    "Ġgases": 21605,
    "Ġastronomy": 25927,
    "Ġcruellest": 19661,
    "Ġ2026": 12339,
    "Ġsetbacks": 11065,
    "âĢĻâĢĶ": 12741,
    "Ġrollicking": 24451,
    "aloft": 8811,
    "Ġlegisl": 23535,
    "Ġsettee": 22924,
    "ropes": 7903,
    "miserably": 24213,
    "nurs": 21001,
    "whaler": 20312,
    "Ġsank": 5076,
    "Ġdesired": 4666,
    "Ġjavelin": 26105,
    "Ġterminated": 23511,
    "Ġaverred": 18866,
    "Ġmute": 19419,
    "Ġmaximizing": 3172,
    "Ġfoolscap": 24160,
    "âĢĻ,": 14073,
    "Ġredeem": 20503,
    "âĢĶ(": 15942,
    "Ġdetected": 18815,
    "danish": 20835,
    "lev": 1237,
    "ational": 5716,
    "happiness": 6470,
    "Ġargu": 10936,
    "Ġstra": 2993,
    "Ġframework": 1983,
    "Ġparad": 2843,
    "Ġ51": 24316,
    "enhall": 13853,
    "swaying": 25911,
    "cho": 2762,
    "Ġlocked": 6036,
    "Ġcovent": 16076,
    "Ġrebellion": 26477,
    "||": 4870,
    "ellest": 21577,
    "itled": 7578,
    "Ġsaxe": 13632,
    "Ġgabriel": 7596,
    "Ġsaluted": 14761,
    "Ġresol": 2668,
    "Ġrind": 21973,
    "Ġramble": 9316,
    "ently": 1461,
    "Ġgibe": 25960,
    "neural": 3069,
    "exposure": 19259,
    "Ġwhalemen": 3916,
    "Ġoccasion": 3248,
    "Ġthinker": 22812,
    "Ġevenings": 18755,
    "Ġsepulchral": 25893,
    "Ġmassacre": 20550,
    "much": 3708,
    "Ġnearly": 3362,
    "sound": 6800,
    "Ġenchantment": 24870,
    "at": 268,
    "Ġdismantled": 20219,
    "read": 3276,
    "cords": 25139,
    "Ġsleeps": 10448,
    "ò": 179,
    "Ġclaws": 15974,
    "Ġwilson": 6632,
    "Ġhel": 3791,
    "Ġshifting": 12773,
    "Ġtraffic": 23086,
    "Ġgeneralize": 3103,
    "Ġfranc": 16355,
    "Ġintru": 15831,
    "Ġinvention": 19956,
    "Ġ23": 13196,
    "Ġgloss": 11963,
    "Ġglowed": 24865,
    "Ġchairs": 12831,
    "Ġrelev": 1716,
    "vari": 1518,
    "wam": 10138,
    "Ġunfrequ": 19511,
    "Ġsnarl": 25714,
    "terbury": 21828,
    "Ġdisgraceful": 15022,
    "usoid": 4768,
    "Ġduodecimo": 16769,
    "Ġlesson": 7276,
    "Ġreasons": 6021,
    "Ġtraining": 531,
    "Ġaw": 2510,
    "Ġdexterous": 15152,
    "ichron": 22172,
    "Ġproclaim": 18133,
    "obey": 11512,
    "Ġrewarded": 14943,
    "Ġquadr": 8200,
    "elijah": 19476,
    "Ġprosper": 10231,
    "Ġrud": 8480,
    "Ġunpitying": 25661,
    "Ġrepugnance": 19086,
    "Ġamusing": 11804,
    "eled": 2356,
    "tables": 19760,
    "Ġadie": 8491,
    "Ġbedside": 19125,
    "Ġtrait": 23077,
    "transom": 19738,
    "Ġyoungest": 7954,
    "Ġhumiliation": 16202,
    "Ġbanker": 8670,
    "arial": 5532,
    "Ġmilky": 9950,
    "understanding": 1144,
    "Ġtightly": 13537,
    "Ġhaze": 18197,
    "Ġmorals": 22980,
    "Ġsundry": 20077,
    "tips": 13799,
    "waited": 24586,
    "relative": 24016,
    "oubted": 5861,
    "ingley": 1544,
    "cracy": 24691,
    "Ġkiller": 19571,
    "thou": 4710,
    "Ġsine": 10765,
    "Ġtickled": 20060,
    "Ġtorm": 5434,
    "virt": 15454,
    "Ġundivided": 24122,
    "orn": 2243,
    "Ġgun": 4703,
    "Ġbowels": 9433,
    "Ġrounds": 18887,
    "Ġgoodge": 22826,
    "Ġfollowing": 4064,
    "Ġhen": 3503,
    "Ġexquisite": 12386,
    "recol": 10153,
    "Ġdeem": 18136,
    "quet": 6835,
    "opy": 4461,
    "Ġlulled": 17971,
    "Ġhave": 444,
    "Ġfagged": 17884,
    "paused": 17377,
    "Ġdestination": 19151,
    "itchen": 7788,
    "Ġequals": 4728,
    "Ġassented": 17341,
    "Ġexcess": 3342,
    "Ġadmire": 5264,
    "Ġinconsist": 17938,
    "Ġstall": 12701,
    "Ġchivalrous": 20518,
    "wretched": 10743,
    "Ġmak": 10780,
    "condite": 23249,
    "Ġbonds": 17871,
    "yet": 3757,
    "entieth": 17981,
    "Ġgrunt": 18736,
    "Ġaccumulation": 2694,
    "civilized": 17076,
    "Ġmagnified": 23209,
    "transp": 24512,
    "Ġresort": 18564,
    "Ġthoughtless": 16196,
    "Ġvis": 1096,
    "Ġatone": 15806,
    "Ġvulture": 17342,
    "Ġdodo": 9075,
    "Ġindirect": 18837,
    "Ġloss": 822,
    "Ġreeling": 18035,
    "ro": 301,
    "Ġblubber": 5666,
    "ggy": 13118,
    "Ġdoes": 939,
    "Ġhighly": 4846,
    "asht": 4085,
    "Ġlightened": 23264,
    "Ġinquiries": 5678,
    "latitude": 25260,
    "Ġscalding": 16330,
    "Ġdest": 2237,
    "bolt": 25138,
    "Ġsupple": 23002,
    "Ġchallenges": 13634,
    "Ġfoundering": 21422,
    "pleasure": 5979,
    "Ġconjoined": 21810,
    "ĠâĢĶ": 13814,
    "Ġfro": 3471,
    "Ġsteel": 3892,
    "mountain": 10715,
    "Ġinducement": 16845,
    "Ġeloped": 22649,
    "Ġcoincid": 20320,
    "Ġsubtile": 20383,
    "Ġarmy": 11745,
    "Ġnought": 21525,
    "Ġadmon": 15872,
    "Ġsensitivity": 3073,
    "Ġlightning": 5750,
    "ising": 2255,
    "unw": 14060,
    "enderby": 25216,
    "Ġfaculties": 14961,
    "ertion": 12044,
    "lounged": 26134,
    "Ġlayers": 815,
    "Ġgaily": 16750,
    "Ġcarriage": 3953,
    "Ġcontented": 9759,
    "irr": 12742,
    "inating": 9156,
    "Ġinadequate": 17939,
    "ľ": 255,
    "Ġmalignant": 14881,
    "iousness": 4900,
    "spersed": 22733,
    "Ġpalp": 11252,
    "Ġvaguely": 17369,
    "dark": 5614,
    "Ġherself": 1566,
    "thro": 12766,
    "Ġconsulted": 13434,
    "lust": 15383,
    "iguous": 18046,
    "mbling": 3345,
    "Ą": 197,
    "orand": 21400,
    "bold": 17490,
    "sign": 8388,
    "Ġworshippers": 25694,
    "Ġbalm": 22906,
    "manner": 6172,
    "Ġwhite": 1538,
    "sticking": 21663,
    "Ġnovelties": 24777,
    "esy": 9188,
    "Ġunnatural": 7190,
    "alterable": 13628,
    "fortune": 4975,
    "arrant": 10476,
    "ps": 4576,
    "prom": 6510,
    "Ġcorps": 13038,
    "Ġmaria": 7126,
    "Ġembod": 14414,
    "Ġdistur": 5313,
    "Ġcetacean": 25879,
    "Ġjohn": 5032,
    "Ġdistribution": 2020,
    "arpaul": 14538,
    "Ġcollapsed": 15085,
    "ones": 2743,
    "sembled": 7263,
    "ored": 3899,
    "Ġjudged": 12088,
    "Ġflowery": 16237,
    "entering": 17979,
    "Ġlaudanum": 20693,
    "call": 8726,
    "hurt": 19880,
    "neys": 23583,
    "footsteps": 25200,
    "Ġfri": 17880,
    "Ġtolerable": 6949,
    "visits": 24226,
    "Ġfixed": 2687,
    "calcul": 12994,
    "Ġallev": 18103,
    "Ġexhib": 6351,
    "handkerchief": 14619,
    "Ġtidings": 11399,
    "greg": 6650,
    "tea": 18742,
    "Ġsinners": 18952,
    "Ġcrossing": 7252,
    "fitting": 1510,
    "Ġswallow": 8953,
    "Ġ183": 13242,
    "Ġdormouse": 4926,
    "ots": 3294,
    "absolut": 8460,
    "Ġwee": 21922,
    "arily": 4126,
    "adagrad": 9694,
    "Ġuninhabited": 22053,
    "Ġformations": 18750,
    "shavings": 22457,
    "Ġundisturbed": 19522,
    "Ġpot": 2992,
    "kl": 4866,
    "Ġunfrequent": 24111,
    "Ġseeth": 21957,
    "Ġhabitu": 19531,
    "regret": 16451,
    "Ġcologne": 12980,
    "amused": 21850,
    "haustible": 16893,
    "Ġinsp": 2100,
    "commotion": 24914,
    "Ġgiving": 4086,
    "Ġmood": 6278,
    "a": 69,
    "Ġunresting": 25554,
    "Ġfloated": 7288,
    "Ġfiled": 15584,
    "Ġdestroying": 14732,
    "veil": 18048,
    "Ġsomething": 1796,
    "Ġitems": 9695,
    "Ġbecher": 18880,
    "Ġsuperst": 7704,
    "Ġtimidly": 11340,
    "Ġcrest": 12946,
    "middle": 11312,
    "Ġambition": 11434,
    "Ġ87": 19713,
    "Ġseizure": 21961,
    "linging": 16082,
    "Ġviolet": 19090,
    "Ġhands": 1659,
    "thr": 12765,
    "Ġoverpow": 14210,
    "hot": 8084,
    "Ġcharged": 9857,
    "Ġtw": 841,
    "à": 161,
    "lled": 10110,
    "Ġinfluenced": 19635,
    "illing": 8175,
    "itan": 10162,
    "Ġwherefore": 8527,
    "Ġreligious": 25124,
    "gress": 2213,
    "yond": 2329,
    "Ġpropos": 7064,
    "co": 2434,
    "Ġfor": 340,
    "Ġmaled": 21317,
    "Ġimplicate": 24877,
    "write": 14649,
    "Ġnailing": 21530,
    "Ġupdate": 2463,
    "Ġinser": 6820,
    "Ġbabel": 24426,
    "Ġrefreshing": 20267,
    "Ġshaking": 6553,
    "ighter": 7968,
    "Ġsorts": 6887,
    "Ġtrustworthy": 24108,
    "arising": 17897,
    "Ġnorm": 761,
    "abetical": 15747,
    "Ġexhibit": 14959,
    "Ġliberties": 19670,
    "Ġhandfuls": 17212,
    "Ġdelineations": 26059,
    "Ġaddu": 22105,
    "Ġprophes": 16352,
    "Ġreduced": 11928,
    "fair": 10095,
    "Ġgay": 5535,
    "Ġcountenance": 3974,
    "ã": 164,
    "teness": 23210,
    "tale": 10130,
    "Ġpockets": 8899,
    "and": 372,
    "come": 2375,
    "Ġgrounds": 6751,
    "Ġimpregn": 26023,
    "turtle": 12216,
    "brary": 5755,
    "Ġperennial": 22697,
    "Ġwronged": 24250,
    "Ġdejection": 15200,
    "Ġconsoled": 18115,
    "Ġbenefited": 19401,
    "Ġbeats": 21756,
    "Ġhonoured": 9884,
    "concerted": 16674,
    "imprudence": 16560,
    "unavoidable": 17393,
    "ripp": 6405,
    "Ġconvers": 2906,
    "etics": 21584,
    "Ġconceal": 5975,
    "Ġthumb": 6982,
    "Ġfir": 17879,
    "Ġair": 1835,
    "Ġinherit": 25353,
    "Ġhighlands": 22776,
    "Ġfingers": 5672,
    "Ġseparately": 13307,
    "Ġmart": 10781,
    "awakened": 14456,
    "quod": 2166,
    "Ġmarbank": 23040,
    "luyt": 18455,
    "Ġsky": 3973,
    "Ġpaying": 9941,
    "Ġunpleasant": 7191,
    "Ġambitious": 18514,
    "baden": 25616,
    "united": 14063,
    "Ġtake": 1576,
    "urday": 13998,
    "irited": 15791,
    "Ġminutely": 14562,
    "Ġmaxim": 3088,
    "Ġdetect": 1182,
    "arers": 12134,
    "sharp": 10309,
    "Ġleg": 2334,
    "bloom": 24690,
    "Ġincom": 9772,
    "july": 20478,
    "Ġcomply": 8894,
    "Ġenormity": 19698,
    "umbrance": 22122,
    "Ġinterview": 9773,
    "Ġhonors": 23603,
    "Ġequally": 5258,
    "Ġcalm": 3447,
    "Ġrocks": 6863,
    "Ġlima": 10444,
    "Ġpudding": 17916,
    "[": 63,
    "iah": 14420,
    "Ġreappeared": 21668,
    "Ġwedding": 4817,
    "brushing": 20790,
    "disaster": 23495,
    "Ġbash": 12591,
    "Ġscreamed": 9527,
    "Ġrecalled": 8540,
    "Ġrug": 16159,
    "Ġdome": 15593,
    "houn": 20895,
    "ctions": 951,
    "ultaneous": 18583,
    "ķ": 248,
    "sufficient": 6638,
    "Ġsuppose": 2866,
    "sets": 17662,
    "Ġsignification": 19205,
    "Ġexcurs": 23317,
    "billows": 20239,
    "withstanding": 8948,
    "Ġklan": 23663,
    "Ġlazy": 17051,
    "Ġtakings": 20575,
    "Ġforcibly": 10064,
    "Ġhandles": 22700,
    "safie": 20351,
    "etition": 7382,
    "Ġwarrant": 17796,
    "itable": 5437,
    "Ġcringing": 25942,
    "precip": 14667,
    "burnt": 20083,
    "Ġhackluyt": 25656,
    "ĠĠĠĠĠĠĠĠĠĠĠĠĠĠĠĠĠĠĠĠĠĠĠĠĠĠĠĠĠĠĠĠĠ": 12047,
    "Ġdrily": 23540,
    "Ġmediocrity": 26610,
    "armed": 7251,
    "Ġvision": 1633,
    "âĢľ": 344,
    "Ġfasten": 11134,
    "vable": 10135,
    "Ġdescending": 8906,
    "ains": 5094,
    "vocabulary": 25088,
    "Ġdemoniac": 15068,
    "Ġrevelry": 15140,
    "velled": 9879,
    "Ġback": 825,
    "ensities": 22550,
    "Ġunde": 11716,
    "inities": 21188,
    "irm": 3110,
    "contrary": 23732,
    "Ġscorching": 20071,
    "germ": 15360,
    "Ġregal": 16080,
    "inf": 6234,
    "rush": 7012,
    "ernity": 18616,
    "Ġfaulty": 14910,
    "skeleton": 17379,
    "Ġsn": 2950,
    "ena": 11571,
    "Ġ235": 25712,
    "Ġpostpone": 17310,
    "Ġbremen": 23346,
    "kindness": 10508,
    "fainting": 20476,
    "Ġdesert": 6729,
    "antages": 7192,
    "wled": 15457,
    "fac": 17543,
    "Ġfoster": 18991,
    "did": 3198,
    "Ġmysticetus": 24923,
    "evident": 25521,
    "Ġunobstructed": 18265,
    "h": 76,
    "Ġproximity": 3220,
    "ackinaw": 22426,
    "whaleman": 23438,
    "Ġpreliminary": 10060,
    "Ġpainted": 7979,
    "Ġfancy": 3749,
    "application": 12367,
    "attributed": 23123,
    "Ġpersuas": 23950,
    "_.)": 7278,
    "Ġelement": 6898,
    "eed": 20843,
    "Ġreplacing": 3449,
    "Ġbesee": 19245,
    "Ġinst": 913,
    "Ġpills": 21468,
    "Ġunassuming": 20512,
    "Ġproxim": 3202,
    "fer": 1916,
    "architect": 22891,
    "Ġcomical": 11681,
    "Ġvarieties": 14313,
    "iles": 2861,
    "Ġfurther": 1053,
    "¹": 122,
    "Ġshine": 12771,
    "running": 6798,
    "Ġremind": 6059,
    "Ġjost": 23633,
    "Ġlagged": 21561,
    "legra": 10791,
    "indef": 17737,
    "Ġcandelabra": 26604,
    "stained": 21658,
    "Ġusual": 3946,
    "abama": 12714,
    "osen": 6855,
    "Ġlullaby": 20591,
    "Ġswiftly": 5670,
    "Ġchron": 19441,
    "Ġfury": 7662,
    "bre": 3982,
    "Ġpermitting": 22404,
    "Ġemboldened": 22965,
    "orrowed": 19292,
    "imag": 6991,
    "jaw": 13746,
    "possession": 12226,
    "Ġdeprived": 8211,
    "Ġfaltering": 17886,
    "Ġwondered": 11127,
    "ape": 1904,
    "towns": 24855,
    "ounix": 14166,
    "Ġaccustomed": 6861,
    "ilations": 21725,
    "stars": 18022,
    "Ġscratch": 25565,
    "Ġenviron": 3835,
    "Ġliberated": 19669,
    "limping": 26395,
    "Ġefficient": 1067,
    "Ġbled": 17859,
    "acid": 11008,
    "welcome": 10004,
    "Ġsofas": 26226,
    "onden": 13847,
    "Ġunjust": 8486,
    "ignor": 8964,
    "elastic": 17983,
    "Ġeyes": 1334,
    "Ġforesee": 19126,
    "Ġunful": 22013,
    "ling": 735,
    "uttering": 12667,
    "Ġthoroughfare": 16946,
    "Ġausten": 5882,
    "ien": 10104,
    "Ġgord": 21603,
    "odiac": 14035,
    "Ġindulgence": 11321,
    "silver": 19693,
    "Ġgoat": 16010,
    "Ġsample": 3181,
    "Ġparacels": 13671,
    "Ġunsupp": 22023,
    "unken": 10239,
    "lleg": 20953,
    "Ġincommunicable": 26613,
    "Ġunperceived": 22039,
    "Ġfoe": 7680,
    "injustice": 17739,
    "Ġspare": 5102,
    "Ġpres": 9735,
    "chari": 21692,
    "Ġbuttons": 12786,
    "belongs": 25597,
    "Ġcheck": 7271,
    "Ġsquared": 1379,
    "Ġjingling": 26018,
    "Ġdelineate": 26058,
    "descend": 23088,
    "arson": 22750,
    "Ġgravesend": 15220,
    "inav": 15486,
    "ily": 1032,
    "Ġemergency": 25731,
    "Ġtimor": 24227,
    "Ġmedd": 15543,
    "Ġreceipt": 20358,
    "Ç": 136,
    "Ġshot": 4546,
    "Ġintegrity": 12317,
    "extracts": 22762,
    "ceptive": 15966,
    "adem": 21761,
    "Ġcasks": 7521,
    "dances": 17523,
    "æ": 167,
    "Ġoffering": 3010,
    "Ġmish": 15541,
    ".--": 20748,
    "Ġsurmisings": 26595,
    "class": 4096,
    "Ġsharks": 4500,
    "extra": 8219,
    "Ġshank": 22001,
    "Ġid": 1908,
    "grad": 2567,
    "knew": 9129,
    "Ġemotion": 7690,
    "Ġfuller": 11158,
    "thought": 3853,
    "Ġwithout": 1122,
    "Ġru": 945,
    "Ġmonogra": 22985,
    "Ġneighbor": 25804,
    "wling": 11547,
    "ils": 3185,
    "missionary": 24616,
    "months": 9074,
    "Ġwell": 900,
    "Ġimpenitent": 26550,
    "Ġrust": 6409,
    "Ġdetection": 3246,
    "Ġcurric": 22976,
    "Ġnum": 1347,
    "expectations": 24279,
    "inst": 4295,
    "Ġshakes": 10906,
    "Ġdigest": 24648,
    "believe": 8304,
    "Ġv": 399,
    "Ġimmortal": 8018,
    "vous": 2252,
    "Ġblood": 3171,
    "Ġga": 4449,
    "Ġhope": 1791,
    "Ġculprit": 26173,
    "Ġoccasioned": 13232,
    "reduc": 5459,
    "Ġinconvenience": 9566,
    "Ġconvulsively": 25716,
    "Ġsea": 1209,
    "commod": 16173,
    "tart": 21070,
    "Ġdisappearance": 9300,
    "Ġvacuous": 24344,
    "pile": 17631,
    "Ġlearnable": 3997,
    "begging": 22501,
    "kings": 17585,
    "tranquillity": 20549,
    "boom": 19000,
    "Ġsheath": 14154,
    "Ġcastle": 14720,
    "destined": 24116,
    "Ġmelted": 19624,
    "Ġgreatly": 5851,
    "Ġvol": 4188,
    "Ġwhim": 14002,
    "Ġbloodthirsty": 26603,
    "Ġresulting": 24201,
    "irous": 8843,
    "Ġbucket": 8792,
    "Ġspir": 2428,
    "Ġcracks": 12024,
    "Ġen": 393,
    "Ġdaughters": 4424,
    "Ġham": 3422,
    "quently": 9705,
    "Ġchimney": 6498,
    "Ġunlocked": 14123,
    "Ġplaned": 24059,
    "arts": 6565,
    "invite": 25091,
    "mare": 17601,
    "Ġindividually": 22960,
    "shop": 14239,
    "lift": 15388,
    "ė": 216,
    "Ġtiny": 11555,
    "Ġvariously": 18654,
    "Ġcased": 21349,
    "fem": 17539,
    "Ġebony": 18011,
    "Ġcou": 5288,
    "Ġcommenced": 8534,
    "apologizing": 26546,
    "Ġspurned": 12802,
    "Ġrepeatedly": 9024,
    "enchant": 21286,
    "provid": 11151,
    "sheet": 16289,
    "Ġgout": 21599,
    "ography": 13367,
    "Ġhusband": 3620,
    "Ġwisest": 11234,
    "Ġlimp": 19182,
    "Ġtimes": 2302,
    "Ġalley": 15740,
    "Ġreckoned": 24743,
    "Ġupward": 9724,
    "Ġup": 463,
    "Ġendeared": 26500,
    "Ġmask": 1863,
    "beg": 22491,
    "Ġlimping": 23546,
    "eter": 11624,
    "Ġfervour": 19729,
    "Ġtempered": 12928,
    "Ġbreaths": 14860,
    "trans": 5594,
    "itzerland": 9998,
    "stript": 21660,
    "Ġunquestion": 18249,
    "Ġsickened": 16777,
    "Ġsanction": 20029,
    "Ġtrophy": 20010,
    "les": 1013,
    "Ġ166": 25007,
    "Ġabandonment": 25604,
    "ructive": 18545,
    "Ġallures": 22010,
    "Ġhereford": 22881,
    "Ġnameless": 7700,
    "Ġput": 1799,
    "Ġunrolled": 22040,
    "aced": 2407,
    "Ġnautical": 17389,
    "image": 9689,
    "Ġpaul": 12066,
    "squeezing": 25914,
    "anum": 17837,
    "Ġglo": 1715,
    "creatures": 7517,
    "Ġparting": 9787,
    "Ġtiles": 17728,
    "province": 26073,
    "Ġslang": 23163,
    "Ġleft": 1763,
    "Ġcrouching": 23443,
    "ake": 750,
    "Ġpremature": 3728,
    "Ġpantheistic": 26337,
    "und": 4118,
    "Ġidiot": 11976,
    "awned": 19463,
    "Ġsweetly": 23922,
    "26": 10076,
    "Ġmysteriously": 24602,
    "ict": 588,
    "Ġmedium": 16708,
    "Ŀ": 256,
    "kye": 20940,
    "Ġpreceded": 13432,
    "Ġduring": 873,
    "Ġdocuments": 10026,
    "Ġdefined": 11902,
    "Ġchace": 14181,
    "Ġpurchasing": 19877,
    "Ġweary": 5635,
    "Ġfisheries": 17441,
    "iar": 2376,
    "Ġearthly": 7990,
    "ancholy": 5070,
    "described": 18896,
    "Ġplaces": 5390,
    "igner": 21704,
    "appointment": 24064,
    "Ġpropose": 9856,
    "ulation": 5458,
    "Ġdescrib": 2719,
    "avo": 8520,
    "Ġbroiled": 18910,
    "Ġlux": 8818,
    "Ġatrocious": 21947,
    "fourths": 25510,
    "Ġmoles": 22438,
    "savor": 25027,
    "âĢľ_": 5720,
    "educ": 10830,
    "borrowed": 20794,
    "Ġpuffed": 14980,
    "seas": 14036,
    "greater": 13256,
    "Ġgathers": 24742,
    "Ġstature": 10865,
    "unimportant": 18162,
    "Ġat": 395,
    "explanation": 12362,
    "Ġdisplaying": 16968,
    "Ġimprec": 14219,
    "Ġchart": 10947,
    "Ġvancouver": 26567,
    "ulations": 6030,
    "Ġinfiltrated": 23286,
    "Ġmessage": 13526,
    "housekeeper": 24103,
    "cious": 6646,
    "Ġwednesday": 9087,
    "Ġage": 3900,
    "Ġmischief": 8543,
    "Ġdiabol": 11455,
    "unlike": 18159,
    "apothecary": 26547,
    "gover": 10704,
    "Ġplanting": 16089,
    "mercenary": 26316,
    "hed": 672,
    "reach": 17759,
    "Ġstrenuously": 17451,
    "Ġlinked": 15081,
    "Ġwhich": 502,
    "Ġhateful": 19716,
    "Ġkeep": 2354,
    "Ġban": 7157,
    "Ġflourish": 17163,
    "children": 9058,
    "score": 18858,
    "veral": 2352,
    "ms": 540,
    "Ġdisposing": 19378,
    "autumn": 23343,
    "Ġcorrectly": 9407,
    "caused": 25520,
    "bennet": 5353,
    "Ġweeps": 24950,
    "whose": 6852,
    "Ġgrating": 14358,
    "Ġcomparable": 24281,
    "reds": 12753,
    "Ġeng": 1161,
    "art": 577,
    "Ġsuperstitions": 17073,
    "ben": 4927,
    "Ġgladstone": 23872,
    "Ġpatentee": 25587,
    "Ġfet": 5808,
    "looking": 4035,
    "Ġnoticed": 5549,
    "highly": 24763,
    "pall": 17630,
    "mortal": 10115,
    "carriage": 9949,
    "opened": 7913,
    "capitals": 25083,
    "Ġinvaluable": 10185,
    "Ġinstinctively": 13463,
    "Ġteacher": 22919,
    "Ġstrife": 18614,
    "Ġcontribut": 12864,
    "chop": 21691,
    "Ġberths": 20118,
    "Ġphrase": 11189,
    "Ġindignation": 8347,
    "Ġcontempt": 6277,
    "Ġfain": 5809,
    "Ġtram": 11093,
    "Ġserved": 8246,
    "Ġconfidence": 6592,
    "unaffected": 21887,
    "Ġsacrifice": 9558,
    "ulating": 10889,
    "Ġinco": 14263,
    "Ġpurposed": 23554,
    "Ġunattended": 15847,
    "anch": 15564,
    "Ġmantel": 11441,
    "Ġrigging": 5601,
    "Ġsymb": 2591,
    "oric": 21399,
    "script": 11079,
    "Ġdistinction": 8889,
    "urning": 12921,
    "Ġfreezing": 23886,
    "brown": 15321,
    "Ġindulging": 16906,
    "late": 11501,
    "Ġcompassionate": 24722,
    "mission": 5971,
    "Ġsafie": 6620,
    "Ġrates": 1404,
    "Ġrec": 893,
    "Ġdesertion": 24786,
    "Ġstanding": 3001,
    "Ġhatred": 8612,
    "Ġworth": 4419,
    "activity": 22634,
    "Ġmasonry": 13603,
    "Ġscold": 10952,
    "Ġobeying": 13418,
    "Ġpeaks": 16132,
    "Ġeuroc": 14962,
    "figures": 20125,
    "uned": 21875,
    "Ġpretend": 7722,
    "iant": 5427,
    "Ġblinds": 8007,
    "Ġfilial": 16622,
    "Ġrock": 5311,
    "Ġverses": 17064,
    "Ġvex": 5950,
    "Ġbarbaric": 10017,
    "Ġfugitives": 25635,
    "eminent": 25107,
    "Ġforc": 9230,
    "Ġdeliberate": 15025,
    "throt": 25660,
    "Ġjem": 18403,
    "Ġscreams": 24604,
    "Ġsubterr": 10351,
    "Ġwouldst": 18502,
    "Ġmister": 22763,
    "Ġcapacious": 19178,
    "Ġdistressing": 12223,
    "03": 20750,
    "Ġtoken": 2039,
    "Ġmaintained": 12939,
    "Ġabstracted": 17185,
    "cul": 1899,
    "Ġboundary": 11224,
    "Ġnail": 9198,
    "Ġnodding": 23337,
    "ain": 343,
    "Ġ1671": 25008,
    "ib": 1236,
    "kovoko": 20672,
    "Ġbur": 2699,
    "mund": 13761,
    "Ġfuture": 1120,
    "Ġkentuckian": 26344,
    "ilted": 21726,
    "Ġslates": 11108,
    "max": 1685,
    "declare": 25174,
    "Ġarrest": 7409,
    "kind": 3867,
    "india": 22375,
    "Ġexpans": 18623,
    "Ġquick": 2581,
    "emy": 14078,
    "muring": 17603,
    "affold": 16565,
    "Ġguilt": 6181,
    "Ġwouldn": 6047,
    "Ġenveloping": 19737,
    "Ġdisposal": 19379,
    "consuming": 25675,
    "Ġamerica": 6764,
    "Ġargosy": 24276,
    "Ġcreative": 9834,
    "if": 375,
    "Ġhesitating": 16949,
    "ier": 1136,
    "Ġcommodore": 12399,
    "Ġshrieks": 12204,
    "Ġexhaled": 19685,
    "Ġprairies": 20024,
    "asy": 5296,
    "Ġadaptive": 1353,
    "Ġturtle": 4202,
    "field": 3075,
    "Ġjonah": 3480,
    "Ġbottomless": 12111,
    "er": 269,
    "Ġlookest": 22718,
    "Ġprem": 3427,
    "through": 4026,
    "sharks": 14241,
    "Ġpersuasion": 10501,
    "Ġcertainty": 6736,
    "ene": 2170,
    "credit": 12453,
    "Ġdrowsy": 26446,
    "ildad": 3532,
    "ascar": 8436,
    "haul": 14768,
    "Ġuninjured": 22058,
    "Ġsquare": 2395,
    "Ġdynam": 2960,
    "Ġbloodthirst": 23804,
    "ulence": 15770,
    "Ġuse": 835,
    "Ġbackbones": 22663,
    "iful": 2882,
    "Ġquieted": 23846,
    "stead": 10848,
    "Ġcottages": 14730,
    "Ġsurging": 19135,
    "alot": 15630,
    "ost": 5361,
    "Ġyarns": 15199,
    "Ġpolished": 11184,
    "Ġwindow": 2999,
    "recollected": 25348,
    "Ġslung": 23172,
    "pedest": 24823,
    "luxur": 25823,
    "Ġsettle": 6295,
    "Ġchronic": 9932,
    "Ġgritted": 22808,
    "ping": 9618,
    "Ġbrotherhood": 23671,
    "Ġcaravan": 26292,
    "Ġbildad": 3786,
    "Ġdesigned": 7741,
    "~": 98,
    "Ġfrantically": 23261,
    "gratulation": 24349,
    "rab": 7597,
    "âĢľâĢĺ": 1486,
    "Ġ114": 24438,
    "ologist": 22874,
    "Ġvessel": 3803,
    "dripping": 16907,
    "berg": 11868,
    "Ġanalogy": 25640,
    "Ġapprove": 12878,
    "Ġcheat": 19022,
    "Ġfastened": 7067,
    "ived": 1534,
    "Ġpromotion": 23197,
    "mat": 2199,
    "riage": 2125,
    "Ġere": 3686,
    "Ġneck": 4886,
    "my": 1316,
    "Ġlip": 6534,
    "Ġmightier": 18731,
    "Ġmicha": 17813,
    "uccas": 21109,
    "Ġarrogance": 26233,
    "discoloured": 23500,
    "Ġrag": 18642,
    "Ġcommissioned": 19897,
    "Ġfake": 5811,
    "advice": 12162,
    "every": 2812,
    "Ġseap": 15818,
    "Ġhertfordshire": 5377,
    "ois": 9137,
    "Ġpapered": 20134,
    "Ġinquir": 4242,
    "speptic": 23949,
    "Ġwitt": 17785,
    "Ġproductions": 22949,
    "Ġsqueezed": 20039,
    "streets": 13399,
    "Ġunprofitable": 18268,
    "quite": 4648,
    "Ġmeat": 8152,
    "Ġens": 2790,
    "cks": 3083,
    "Ġjealous": 9471,
    "Ġdidst": 11853,
    "ient": 394,
    "Ġfurious": 10356,
    "vell": 3963,
    "heard": 5009,
    "Ġethiopian": 26615,
    "Ġcentaurs": 23836,
    "em": 391,
    "loving": 18538,
    "forecastle": 10992,
    "historian": 25735,
    "â": 163,
    "Ġsamuel": 10036,
    "Ġoccupations": 9461,
    "Ġbl": 1191,
    "Ġswelling": 11929,
    "Ġadmirers": 19689,
    "ay": 354,
    "Ġacts": 2294,
    "vul": 15451,
    "pit": 3986,
    "Ġin": 291,
    "Ġheighten": 19532,
    "Ġlens": 8439,
    "its": 1149,
    "entiful": 10838,
    "Ġenvironment": 3897,
    "oce": 10716,
    "Ġlift": 8815,
    "Ġclaret": 22361,
    "igin": 3655,
    "Ġconfident": 11140,
    "Ġwedge": 24935,
    "weary": 22689,
    "scratch": 26045,
    "Ġinterrupt": 4360,
    "Ġparr": 22123,
    "Ġsche": 1706,
    "Ġforgot": 4685,
    "trained": 4238,
    "Ġriotous": 20547,
    "Ġrecounted": 22736,
    "Ġhudson": 15195,
    "izens": 18146,
    "Ġkeepers": 23539,
    "sink": 11524,
    "Ġpeering": 8537,
    "Ġdecidedly": 9512,
    "Ġconstitutional": 25128,
    "Ġbrid": 6292,
    "Ġflying": 5413,
    "Ġtendinous": 16933,
    "Ġalready": 2713,
    "Ġconsoling": 19460,
    "Ġscor": 8190,
    "aching": 5832,
    "gle": 20871,
    "stone": 5089,
    "smitten": 23912,
    "Ġbefall": 8833,
    "tolerably": 21098,
    "piled": 21017,
    "erred": 6377,
    "Ġbery": 13901,
    "Ġjub": 22299,
    "Ġwides": 17790,
    "looks": 12022,
    "Ġmarsh": 9824,
    "suspicious": 25391,
    "shoals": 24716,
    "ffic": 22155,
    "Ġexistence": 4708,
    "Ġfishermen": 5972,
    "Ġhil": 10823,
    "oir": 21004,
    "Ġredness": 19314,
    "Ġimplore": 24873,
    "Ġdodging": 19889,
    "Ġdistinctions": 18531,
    "found": 4212,
    "rived": 5373,
    "Ġcrescent": 16140,
    "inridge": 11563,
    "Ġ60": 14878,
    "Ġgasps": 24866,
    "Ġoppose": 16522,
    "are": 638,
    "Ġflooded": 24962,
    "Ġbeeches": 9229,
    "Ġbasket": 9575,
    "wont": 21135,
    "allowing": 24358,
    "usal": 7639,
    "Ġounce": 15276,
    "Ġreputation": 11643,
    "ilder": 15717,
    "paradise": 20640,
    "propriety": 14374,
    "Ġadvert": 10574,
    "Ġbrick": 8929,
    "sir": 5001,
    "Ġsocial": 7009,
    "turn": 4292,
    "Ġstretch": 6994,
    "guard": 12133,
    "critters": 14778,
    "vial": 17699,
    "Ġtreacher": 8608,
    "Ġ130": 24780,
    "Ġeffeminacy": 20720,
    "Ġswears": 16466,
    "Ġunden": 22015,
    "borough": 20787,
    "Ġmasts": 6466,
    "Ġpenalties": 10414,
    "Ġwalked": 3142,
    "Ġarrows": 18337,
    "Ġellenborough": 26155,
    "qualities": 25046,
    "Ġfalls": 14646,
    "Ġbubbling": 17329,
    "Ġafterwards": 3531,
    "drawers": 19389,
    "Ġsevent": 18201,
    "ö": 183,
    "Ġstone": 4647,
    "ately": 1686,
    "Ġcombine": 4418,
    "Ġcascade": 20584,
    "Ġschoolmaster": 16864,
    "Ġinsensibly": 20079,
    "Ġquoin": 22422,
    "calculating": 25690,
    "Ġverdure": 10615,
    "Ġsickle": 24248,
    "anish": 2618,
    "Ġpurse": 12015,
    "accompan": 11454,
    "compose": 24035,
    "(-": 2982,
    "Ġglories": 16244,
    "Ġgazes": 24098,
    "Ġbeach": 6543,
    "Ġscruples": 15082,
    "Ġintimate": 6551,
    "pen": 1205,
    "raged": 9214,
    "Ġing": 5284,
    "Ġwind": 1431,
    "Ġloves": 10917,
    "Ġvanish": 8931,
    "melancholy": 12357,
    "Ġleisure": 6541,
    "âĢĻ!âĢĿ": 18170,
    "brace": 16944,
    "Ġnamed": 6141,
    "Ġresolved": 3802,
    "Ġnecess": 3476,
    "``": 15310,
    "U": 57,
    "Ġonce": 1492,
    "Ġreveries": 11349,
    "Ġdarting": 7757,
    "Ġmathematics": 12078,
    "somehow": 12016,
    "Ġlubber": 17447,
    "quakes": 21860,
    "difficulty": 12394,
    "Ġstatistics": 1683,
    "Ġyawning": 12304,
    "Ġhaul": 11696,
    "sized": 15431,
    "Ġdisputing": 25825,
    "Ġembodied": 25848,
    "Ġweakness": 9970,
    "Ġhusbands": 16645,
    "Ġjot": 11767,
    "6": 26,
    "Ġridic": 7508,
[...]
