{
  "metadata": {
    "vocab_size": 26613,
    "algorithm": "BPE",
    "created_at": "2026-09-11 06:58:39",
    "special_tokens": [
      "<PAD>",
      "<SOS>",
      "<EOS>",
      "<UNK>",
      "<MASK>"
    ]
  },
  "vocab": {
    "Ġcreator": 7254,
    "Ġget": 1620,
    "dashed": 12452,
    "igators": 18044,
    "Ġcolonies": 14373,
    "tomb": 21092,
    "Ġdrew": 3538,
    "Ġspecks": 14305,
    "Ġhovered": 12627,
    "Ġdictate": 20150,
    "tempered": 13444,
    "Ġpyth": 21459,
    "formality": 22215,
    "Ġgibberish": 25786,
    "Ġpainful": 6462,
    "Ġcanal": 8182,
    "seaman": 25457,
    "endar": 18364,
    "ppery": 10891,
    "Ġexamples": 2606,
    "rior": 12738,
    "Ġcold": 3034,
    "Ġloved": 4596,
    "Ġgermany": 25785,
    "ops": 5247,
    "Ġabstract": 17180,
    "vit": 13799,
    "Ġcase": 1938,
    "uously": 7353,
    "Ġbare": 6132,
    "Ġbade": 9170,
    "Ġauthorized": 16734,
    "ileries": 18058,
    "Ġreusability": 13556,
    "ĠĠĠĠĠĠĠĠĠĠ": 18577,
    "Ġuncivil": 11154,
    "bowing": 24453,
    "Ġtur": 2565,
    "Ġsynthe": 26007,
    "Ġdeliverer": 11947,
    "icked": 10331,
    "Ġwine": 6810,
    "echo": 15346,
    "Ġavenues": 25429,
    "unc": 15765,
    "Ġrigger": 19529,
    "Ġmultiplication": 2873,
    "Ġrecovery": 11440,
    "Ġunabated": 15850,
    "Ġresort": 18563,
    "moid": 2451,
    "Ġcasually": 25093,
    "Ġlounged": 19952,
    "Ġpowerful": 1551,
    "vine": 10733,
    "agues": 8161,
    "Ġsave": 4055,
    "Ġinvested": 7279,
    "esley": 17919,
    "boots": 11125,
    "Ġjustly": 11900,
    "Ġprocedural": 12027,
    "anum": 17835,
    "azing": 7705,
    "Ġethics": 15460,
    "Ġluxurious": 17309,
    "invincible": 25089,
    "Ġdinah": 9452,
    "okingly": 22376,
    "Ġsuffers": 2978,
    "Ġmanipulation": 10657,
    "embow": 21927,
    "Ġdied": 4113,
    "Ġbite": 10796,
    "ler": 3493,
    "Ġpsychology": 11447,
    "prow": 15409,
    "Ù": 154,
    "Ġdreadfully": 7726,
    "pedest": 24695,
    "gates": 20871,
    "Ġwhalers": 8048,
    "Ġvesuvius": 26500,
    "Ġearn": 3548,
    "ribes": 23365,
    "Ġslaughtered": 26583,
    "Ġintroduction": 8969,
    "Ġvexed": 9992,
    "Ġheadway": 18792,
    "Ġlieuten": 13324,
    "Ġlacey": 10196,
    "ault": 2307,
    "Ġrounded": 14437,
    "Ġcoldly": 14649,
    "women": 15454,
    "Ġcalls": 6744,
    "Ġtilted": 20411,
    "ulsive": 10232,
    "Ġshrinking": 14803,
    "Ġcloud": 3914,
    "Ġfigures": 8629,
    "lessness": 5317,
    "Ġbeaten": 10527,
    "Ġimpl": 7195,
    "Ġsigmoid": 2465,
    "solution": 14685,
    "Ġthoughtfully": 12975,
    "tender": 14472,
    "Ġbreaches": 14519,
    "zar": 11546,
    "Ġpains": 5965,
    "rusion": 11322,
    "Ġquohog": 10971,
    "Ġwoven": 9924,
    "awned": 19458,
    "Ġicy": 10746,
    "Ġcomprehension": 15084,
    "warnings": 20350,
    "Ġanonymous": 26178,
    "Ġirretrie": 23372,
    "flu": 9116,
    "erest": 10696,
    "Ġdeferred": 18825,
    "cring": 20810,
    "Ġdomain": 3469,
    "Ġpublished": 11241,
    "Ġfists": 15579,
    "Ġvector": 1969,
    "Ġadhering": 14138,
    "Ġcomes": 3423,
    "hro": 20890,
    "Ġclaret": 22361,
    "removed": 15514,
    "÷": 184,
    "yourselves": 24958,
    "Ġdecks": 6900,
    "Ġmarvelled": 18872,
    "Ġfert": 15578,
    "Ġrascally": 26505,
    "Ġswiss": 18882,
    "Ġchuck": 8501,
    "Ġbrilliant": 11413,
    "Ġforgetting": 3435,
    "Ġgathers": 24743,
    "Ġshrine": 19530,
    "Ġpiling": 17908,
    "Ġages": 7027,
    "Ġconsoled": 18112,
    "letter": 6201,
    "expressing": 16800,
    "Ġindisc": 16225,
    "Ġnarrowed": 24354,
    "Ġruskin": 25808,
    "Ġsolemn": 4102,
    "bib": 17490,
    "Ġreplen": 11114,
    "Ġdisplayed": 10607,
    "Ġ51": 24319,
    "whis": 7899,
    "earn": 10695,
    "Ġsexes": 25168,
    "peddling": 24696,
    "atlantic": 15521,
    "Ġtomb": 8806,
    "Ġbuilding": 8063,
    "ste": 3585,
    "Ġmabel": 17322,
    "Ġwag": 10774,
    "advantages": 11270,
    "photograph": 16153,
    "Ġunprejudiced": 18272,
    "Ġapothe": 12372,
    "Ġscept": 15501,
    "Ġign": 8295,
    "Ġgrasp": 4662,
    "Ġprevents": 2557,
    "Ġouthouse": 22312,
    "hawks": 24694,
    "perseus": 26005,
    "Ġund": 4121,
    "Ġhooded": 12403,
    "Ġsilence": 3268,
    "osure": 5306,
    "Ġcontingency": 26244,
    "Ġcit": 10782,
    "z": 94,
    "wrinkled": 16552,
    "Ġnorthumbria": 24170,
    "Ġjun": 8505,
    "eps": 12787,
    "lording": 24049,
    "Ġlouder": 13466,
    "Ġmastery": 23990,
    "Ġparting": 9781,
    "Ġlivid": 14987,
    "som": 3292,
    "Ġrav": 14302,
    "Ġforb": 11661,
    "Ġlitter": 19828,
    "Ġredoubled": 23751,
    "Ġchronicle": 20227,
    "Ġpred": 671,
    "standers": 18479,
    "mediterranean": 16401,
    "Ġundo": 15838,
    "gans": 11488,
    "Ġbehind": 2810,
    "Ġdance": 4439,
    "pudding": 17646,
    "antee": 22095,
    "als": 2040,
    "Ġtrip": 16787,
    "Ġsodden": 25535,
    "Ġovertake": 15963,
    "oors": 17619,
    "ruined": 18337,
    "seeking": 17151,
    "Ġmeasureless": 14708,
    "Ġequinox": 25855,
    "Ġunwonted": 14124,
    "uracy": 1118,
    "Ġwildest": 16509,
    "Ġsell": 7826,
    "Ġinquirers": 24964,
    "ption": 7398,
    "Ġnonsensical": 21527,
    "Ġsilken": 16379,
    "beside": 19876,
    "Ġmatrim": 11059,
    "believing": 19460,
    "Ġdiscernment": 15053,
    "Ġminute": 4277,
    "ose": 718,
    "dug": 18462,
    "Ġchas": 18379,
    "kins": 7345,
    "Ġrejected": 12291,
    "irection": 2389,
    "Ġreception": 9838,
    "vers": 1325,
    "ines": 678,
    "Ġpilgrim": 25599,
    "Ġaccuracy": 1135,
    "Ġdoleful": 18376,
    "Ġnuptials": 20492,
    "young": 7321,
    "dutch": 17217,
    "Ġpoul": 15609,
    "especially": 3573,
    "Ġdisinterested": 16054,
    "vengeance": 13354,
    "Ġmoby": 3664,
    "asets": 2310,
    "Ġrepel": 23358,
    "ĠĠĠĠĠĠĠĠĠĠĠĠĠĠĠĠĠĠĠĠĠĠĠĠĠĠĠĠĠĠĠĠĠĠ": 14612,
    "transformer": 25015,
    "Ġwonderful": 4560,
    "Ġid": 1909,
    "¤": 102,
    "Ġrags": 18645,
    "Ġstur": 15713,
    "settle": 16660,
    "comrade": 20623,
    "Ġsimon": 5172,
    "aug": 1213,
    "rimshander": 20656,
    "77": 15298,
    "ĠĠĠĠĠĠĠĠĠĠĠĠĠĠĠĠĠĠĠĠĠĠĠĠĠĠĠĠĠĠĠĠĠĠĠĠĠĠĠĠĠĠĠĠĠĠĠĠĠ": 20036,
    "Ġaffairs": 6877,
    "suff": 4962,
    "Ġcastors": 23973,
    "Ġdaft": 19662,
    "charitable": 23930,
    "gging": 7697,
    "Ġin": 291,
    "Ġimpressed": 8199,
    "ges": 2876,
    "Ġengagement": 5397,
    "ippi": 20243,
    "Ġagric": 22513,
    "Ġwooing": 19432,
    "hundred": 8331,
    "Ġbeats": 21750,
    "pling": 8474,
    "fl": 3600,
    "Ġcalmer": 23040,
    "erer": 8731,
    "Ġpolynesian": 26026,
    "ufact": 10732,
    "Ġarguing": 25470,
    "Ġresume": 18565,
    "tied": 21069,
    "Ġimpul": 7208,
    "Ġfacts": 2287,
    "Ġvillage": 5774,
    "Ġrecesses": 17259,
    "Ġprying": 15605,
    "Ġplug": 17146,
    "fool": 9046,
    "Ġencourag": 1393,
    "rises": 17654,
    ").âĢĿ": 20740,
    "Ġfrosted": 19802,
    "Ġimpulses": 19960,
    "ece": 17530,
    "oundered": 14161,
    "Ġfrantically": 23257,
    "Ġflattening": 26049,
    "Ġharpooning": 23976,
    "Ġdeprived": 8210,
    "darker": 24512,
    "afternoon": 13185,
    "Ġlat": 5087,
    "arious": 10315,
    "nial": 20983,
    "pton": 15790,
    "lads": 20954,
    "Ġ107": 24414,
    "Ġtrappings": 23081,
    "Ġhowling": 8509,
    "Ġcrawl": 11374,
    "inted": 2649,
    "fierce": 25255,
    "Ġimprobable": 9793,
    "thither": 21981,
    "Ġrestrained": 16370,
    "Ġflank": 8229,
    "Ġthoughtful": 16189,
    "Ġcramped": 23529,
    ".âĢĻâĢĿ": 6739,
    "alously": 15625,
    "Ġautoregressive": 3432,
    "Ġdefection": 22940,
    "steaks": 23958,
    "arrival": 15596,
    "Ġcaulking": 20292,
    "rever": 21234,
    "Ġreap": 18026,
    "Ġuttermost": 19486,
    "interference": 23736,
    "Ġcur": 1261,
    "Ġaccumulated": 11928,
    "Ġadditional": 7936,
    "aught": 2681,
    "oblig": 16288,
    "Ġsple": 21214,
    "Ġgeorgiana": 8625,
    "Ġfaulty": 14905,
    "Ġdauntless": 26336,
    "Ġaberde": 22275,
    "Ġsubmerged": 11869,
    "hangs": 15366,
    "Ġmargin": 11917,
    "Ġsolar": 22884,
    "Ġemblazonings": 26042,
    "Ġassemblage": 26351,
    "Ġdesperado": 19818,
    "Ġpow": 4636,
    "Ġforty": 5719,
    "Ġchoosing": 19589,
    "Ġdifferently": 10387,
    "Ġpang": 15601,
    "Ġdisconsol": 18557,
    "Ġtougher": 21175,
    "Ġindulgence": 11318,
    "ju": 13739,
    "orm": 425,
    "Ġcommence": 6167,
    "Ġrespectability": 14483,
    "richard": 17285,
    "Ġinvent": 7164,
    "swift": 14850,
    "Ġgoest": 22421,
    "caps": 20806,
    "Ġfeeding": 7972,
    "Ġsingers": 23769,
    "score": 18850,
    "Ġbackwater": 18640,
    "Ġsight": 2112,
    "dw": 3334,
    "ratches": 20123,
    "Ġconstables": 19072,
    "Ġdictating": 20151,
    "Ġblessing": 11262,
    "Ġtw": 842,
    "Ġcalled": 1970,
    "room": 2178,
    "Ġparty": 3512,
    "okened": 15981,
    "Ġdrenched": 12599,
    "Ġostentatiously": 20467,
    "Ġcare": 1634,
    "rival": 12739,
    "Ġwilling": 7421,
    "ological": 1883,
    "Ġstripped": 10464,
    "Ġ31": 12127,
    "°": 113,
    "judged": 14829,
    "twinkle": 23702,
    "cket": 3687,
    "Ġ1950": 11358,
    "Ġstings": 21732,
    "Ġwhitting": 18055,
    "snap": 24848,
    "Ġpersisted": 13032,
    "Ġproper": 1381,
    "diff": 9112,
    "Ġsunbeam": 23274,
    "Ġloop": 14145,
    "ity": 417,
    "Ġprovides": 1927,
    "Ġunful": 22009,
    "learning": 2563,
    "Ġexpecting": 10435,
    "Ġphysiology": 25332,
    "Ġtraverse": 18891,
    "Ġdelineate": 26057,
    "glorious": 19365,
    "rug": 18336,
    "Ġcheery": 16365,
    "Ġmanoir": 22329,
    "isson": 23460,
    ")âĢĶ": 20741,
    "Ġjourneys": 19473,
    "Ġthereupon": 18434,
    "Ġwriggling": 15255,
    "Ġhimmale": 18334,
    "Ġnaval": 16898,
    "Ġpanic": 11285,
    "Ġtempest": 8213,
    "Ġthankful": 14736,
    "Ġcutting": 4983,
    "Ġchart": 10944,
    "misery": 13341,
    "source": 11524,
    "winds": 10520,
    "Ġexord": 21825,
    "Ġwilled": 21290,
    "arpening": 21442,
    "Ġhammered": 13237,
    "Ġnomin": 10189,
    "lady": 4430,
    "virtue": 20568,
    "bears": 22487,
    "Ġsheltered": 19910,
    "Ġshakespeare": 20306,
    "Ġrecogn": 2651,
    "mic": 12485,
    "Ġfaithful": 9501,
    "Ġstrange": 2271,
    "restored": 18979,
    "Ġsings": 15503,
    "Ġparson": 6687,
    "Ø": 153,
    "Ġfrigid": 17351,
    "Ġenlightened": 12742,
    "Ġexposes": 22620,
    "Ġtattooings": 24900,
    "intu": 22931,
    "Ġgodson": 23357,
    "Ġ95": 19772,
    "illes": 12690,
    "avish": 22592,
    "lished": 8383,
    "Ġjudiciously": 23876,
    "Ġsalisbury": 24063,
    "Ġarchangel": 8542,
    "Ġsurpl": 19132,
    "Ġstores": 18068,
    "Ġtropics": 17065,
    "Ġpounds": 5368,
    "deav": 2675,
    "smiles": 14691,
    "Ġstand": 1736,
    "ollion": 19714,
    "ondescript": 22915,
    "Ġnaut": 13939,
    "Ġaunts": 21199,
    "rapidly": 15241,
    "Ġgeometric": 3219,
    "Ġlanterns": 24576,
    "Ġobscured": 15009,
    "including": 23589,
    "extent": 22757,
    "Ġslide": 10392,
    "Ġuncertain": 4071,
    "enjoy": 10773,
    "oft": 3591,
    "ream": 2710,
    "Ġsyntax": 959,
    "Ġunwarrant": 20132,
    "Ġappeared": 2777,
    "Ġbeneath": 3237,
    "Ġweight": 658,
    "spond": 5566,
    "Ġstowing": 18071,
    "ene": 2169,
    "Ġfeeble": 12281,
    "impe": 21706,
    "Ġcourting": 23289,
    "Ġtroubles": 19437,
    "su": 824,
    "Ġglobules": 26587,
    "Ġmonsieur": 12418,
    "Ġ9": 5901,
    "cim": 8719,
    "people": 7677,
    "notwithstanding": 22750,
    "Ġmariners": 6068,
    "hatches": 19927,
    "Ġserenely": 13505,
    "Ġallusions": 10905,
    "Ġfearfulness": 23510,
    "Ġtransports": 24276,
    "happily": 14656,
    "Ġfilled": 4392,
    "Ġmr": 660,
    "icity": 2540,
    "Ġjagged": 18407,
    "Ġripp": 11218,
    "occupations": 24966,
    "Ġembodied": 25847,
    "athered": 6972,
    "ifully": 13184,
    "prudently": 21033,
    "ales": 3317,
    "Ġconfession": 11234,
    "Ġmiser": 18703,
    "Ġchain": 1842,
    "Ġdependent": 14292,
    "Ġspade": 9257,
    "Ġgaieties": 24194,
    "Ġour": 1009,
    "Ġearnestness": 12122,
    "Ġproperties": 3119,
    "nant": 17608,
    "lasting": 8011,
    "claimed": 9834,
    "Ġancles": 21445,
    "Ġdefendants": 15138,
    "madness": 14880,
    "Ġbenjam": 22889,
    "wearing": 22685,
    "Ġcontinuation": 22916,
    "constellation": 24608,
    "everlasting": 18772,
    "inced": 3337,
    "Ġbitten": 21388,
    "proportions": 22832,
    "Ġchoked": 9262,
    "Ġtidy": 17092,
    "Ġachieved": 13164,
    "crooked": 25746,
    "Ġalle": 11664,
    "Ġdeficiencies": 26569,
    "Ġpersons": 6180,
    "Ġgorgeous": 20465,
    "Ġdriver": 16473,
    "ications": 4442,
    "Ġbreezes": 14867,
    "cleanliness": 25871,
    "Ġenjoy": 3762,
    "lacing": 17589,
    "Ġremnants": 22792,
    "speak": 5504,
    "Ġfather": 1451,
    "isen": 10791,
    "preced": 10308,
    "iza": 6255,
    "Ġmccarthy": 5145,
    "Ġwhipping": 21714,
    "Ġstile": 21730,
    "Ġcat": 2122,
    "Ġsticks": 14929,
    "pane": 10119,
    "Ġopposite": 5120,
    "Ġsettlement": 19835,
    "Ġmann": 18416,
    "Ġpole": 6433,
    "Ġwink": 11567,
    "dron": 17524,
    "Ġanchors": 12609,
    "Ġdesigned": 7741,
    "icip": 6389,
    "Ġrefresh": 10344,
    "Ġchristianity": 19860,
    "Ġsuavely": 26522,
    "Ġheadstrong": 14386,
    "Ġfro": 3473,
    "stein": 5505,
    "Ġstreat": 15717,
    "widows": 25344,
    "battering": 20785,
    "Ġcum": 21340,
    "country": 6103,
    "tland": 21072,
    "Ġdairy": 20685,
    "Ġnursed": 16884,
    "Ġgem": 21592,
    "Ġgrass": 5177,
    "Ġencouragement": 13039,
    "sis": 1805,
    "expl": 9281,
    "Ġmountainous": 16598,
    "Ġexposing": 11829,
    "Ġcocoan": 20315,
    "lesome": 12961,
    "Ġdisturbance": 15011,
    "Ġinclosed": 19537,
    "Ġsequentially": 4914,
    "represented": 20194,
    "Ġconfid": 7687,
    "Ġaven": 10758,
    "Ġoutbreak": 22315,
    "Ġ1894": 5196,
    "Ġeaglet": 19304,
    "imitably": 21709,
    "Ġcoffins": 13248,
    "rear": 21231,
    "Ġdecoding": 3082,
    "Ġholland": 10364,
    "Ġsick": 4691,
    "Ġinvaders": 23479,
    "Ġtypically": 1537,
    "Ġgazes": 24093,
    "understand": 1120,
    "Ġrecalled": 8537,
    "Ġver": 3393,
    "Ġpalp": 11250,
    "vic": 13800,
    "Ġgaff": 17993,
    "scans": 22982,
    "Ġmanagement": 8193,
    "sig": 2878,
    "Ġdates": 6693,
    "Ġferule": 24515,
    "burned": 25079,
    "manner": 6170,
    "Ġrabbit": 4287,
    "ils": 3183,
    "Ġball": 3623,
    "Ġbrine": 18769,
    "Ġannoyed": 17198,
    "Ġyielding": 12183,
    "Ġmild": 4148,
    "Ġparts": 4166,
    "Ġwindows": 4971,
    "Ġthunders": 15634,
    "Ġbottled": 23793,
    "Ġdestroyer": 13411,
    "arity": 1302,
    "infer": 10143,
    "Ġsmokes": 22557,
    "Ġstunsail": 25543,
    "urements": 18123,
    "Ġattained": 14076,
    "Ġrem": 955,
    "rudential": 16709,
    "injured": 15130,
    "Ġowning": 18743,
    "presence": 18496,
    "threatened": 25462,
    "factories": 19842,
    "bur": 4685,
    "practical": 17220,
    "Ġlethargy": 26482,
    "Ġtusk": 25425,
    "Ġsuspect": 5758,
    "revol": 12536,
    "ī": 236,
    "Ġtinge": 25087,
    "steak": 14706,
    "Ġnose": 4400,
    "Ġhelpless": 8302,
    "furn": 10090,
    "Ġharshly": 25249,
    "enorm": 17780,
    "Ġhorses": 6385,
    "rary": 4572,
    "Ġadjust": 2155,
    "Ġdiversity": 25284,
    "Ġunlim": 18256,
    "Ġsobs": 14133,
    "broad": 8642,
    "Ġcomplete": 4379,
    "Ġinfer": 7684,
    "idean": 14261,
    "commend": 19991,
    "ents": 1896,
    "Ġlegendary": 20536,
    "mews": 22715,
    "Ġpersian": 11085,
    "irements": 22210,
    "rut": 8092,
    "linging": 16075,
    "Ġcogent": 14271,
    "Ġheeds": 24519,
    "Ġtruck": 19510,
    "Ġcod": 8412,
    "Ġkentuck": 19890,
    "eks": 4727,
    "Ġconcepts": 4548,
    "Ġtingling": 15090,
    "Ġexagger": 12715,
    "Ġtremendous": 8353,
    "twenty": 6607,
    "Ġbar": 3147,
    "rents": 5308,
    "rages": 15677,
    "ivility": 12783,
    "Ġsorts": 6887,
    "Ġrequisition": 22638,
    "Ġquote": 18466,
    "reference": 13838,
    "Ġeddystone": 25709,
    "Ġvolley": 24144,
    "abounding": 25979,
    "Ġdart": 4582,
    "huzza": 20912,
    "Ġgurg": 15669,
    "Ġsteadfastly": 10650,
    "fortnight": 13084,
    "Ġsworn": 14433,
    "nurs": 20998,
    "Ġdesisted": 22971,
    "hunt": 20902,
    "Ġsummers": 23871,
    "police": 10582,
    "Ġsmothe": 18573,
    "greeting": 24553,
    "liber": 18813,
    "Ġilliter": 23467,
    "impropriety": 21711,
    "Ġpantheistic": 26335,
    "leagued": 26434,
    "ructed": 7029,
    "links": 20957,
    "Ġmoments": 4845,
    "met": 6652,
    "Ġfing": 3759,
    "nels": 12492,
    "Ġdearly": 10400,
    "Ġinns": 17929,
    "entrance": 12653,
    "Ġsecretary": 19440,
    "Ġbillow": 14777,
    "Ġminim": 1322,
    "Ġpatience": 2809,
    "Ġxviii": 23408,
    "Ġrevolt": 24500,
    "Ġtrans": 638,
    "did": 3196,
    "blind": 16704,
    "Ġforc": 9226,
    "Ġvice": 6548,
    "Ġrelevant": 1864,
    "Ġcle": 1511,
    "Ġ42": 16677,
    "strom": 15679,
    "uvier": 9067,
    "boiling": 19000,
    "Ġcontro": 1687,
    "Ġarrant": 23296,
    "gration": 9120,
    "acknowledging": 25476,
    "Ġ179": 19753,
    "Ġneighbour": 3811,
    "abomin": 15738,
    "Ġdeep": 806,
    "Ġcorners": 18874,
    "Ġpondered": 15164,
    "inea": 7623,
    "Ġtufted": 17013,
    "Ġhish": 21911,
    "dwell": 15339,
    "Ġseize": 8166,
    "Ġdissu": 18550,
    "Ġdesired": 4663,
    "Ġsurpassed": 25267,
    "Ġpossessing": 16573,
    "Ġgraphs": 25463,
    "ĠĠĠĠĠĠĠĠĠĠĠĠĠĠĠĠĠĠĠĠĠĠĠĠĠĠĠĠĠĠĠĠĠĠĠĠĠĠĠĠ": 4514,
    "Ġpunctual": 17136,
    "Ġrooted": 13167,
    "Ġrespite": 13152,
    "Ġworker": 23045,
    "tr": 3580,
    "Ġten": 2387,
    "lings": 8745,
    "delivered": 24100,
    "thesize": 24906,
    "Ġtransactions": 18482,
    "pret": 7212,
    "Ġmonomaniac": 9567,
    "Ġindoors": 18835,
    "Ġmenacing": 23106,
    "Ġsayest": 22775,
    "Ġpadd": 9668,
    "Ġprefer": 6416,
    "intention": 10366,
    "paused": 17372,
    "Ġreserved": 7515,
    "inement": 11556,
    "Ġeyeing": 6460,
    "shott": 11791,
    "Ġimpression": 5732,
    "Ġforget": 2635,
    "azine": 19130,
    "doing": 8584,
    "Ġformerly": 7493,
    "Ġabundantly": 17155,
    "Ġthorough": 6245,
    "thanked": 24330,
    "penet": 11069,
    "upon": 2723,
    "Ġneighbours": 8303,
    "Ġsanguinary": 25929,
    "taining": 7206,
    "Ġlingo": 24903,
    "acceptance": 25185,
    "Ġshriek": 6637,
    "ernity": 18612,
    "wins": 21128,
    "Ġsermons": 20193,
    "Ġcoward": 7155,
    "Ġrenewed": 9536,
    "Ġplate": 8897,
    "windibank": 24160,
    "Ġsage": 17751,
    "directly": 13707,
    "Ġstrenuously": 17446,
    "colour": 9901,
    "good": 2902,
    "Ġheartily": 6890,
    "Ġcolonnades": 26275,
    "mighty": 9465,
    "Ġgaining": 9490,
    "Ġincessant": 15095,
    "Ġdizzy": 21431,
    "Ġanvil": 11595,
    "ething": 1601,
    "Ġ123": 24467,
    "zen": 5140,
    "icted": 5937,
    "Ġpresentation": 14479,
    "Ġezekiel": 26192,
    "Ġjago": 22297,
    "Ġply": 21451,
    "Ġregimentals": 19857,
    "Ġesteem": 7531,
    "Ġravings": 18646,
    "Ġhorizontally": 17011,
    "Ġclaps": 22357,
    "ribs": 23364,
    "Ġted": 13810,
    "Ġhorns": 11122,
    "Ġshown": 5159,
    "Ġstrung": 22614,
    "snatched": 24850,
    "Ġincludes": 2009,
    "Ġsubordinate": 18723,
    "physiogn": 26266,
    "Ġreputed": 18035,
    "Ġbrittle": 22862,
    "okes": 9275,
    "rifled": 21046,
    "fug": 17542,
    "Ġwreath": 25936,
    "iv": 432,
    "Ġnear": 1719,
    "Ġtouched": 6001,
    "Ġtumultuous": 10614,
    "wed": 5003,
    "ithmetic": 18061,
    "chastic": 2335,
    "Ġadvancement": 24474,
    "Ġethiop": 26155,
    "Ġdissol": 18551,
    "hands": 5967,
    "health": 13831,
    "Ġflint": 23009,
    "ooped": 17622,
    "Ġcandle": 8292,
    "Ġseparation": 11247,
    "Ġmaimed": 21315,
    "haps": 1672,
    "Ġhuggins": 24828,
    "passage": 11260,
    "Ġwolves": 25934,
    "forgotten": 12413,
    "Ġroads": 13286,
    "too": 4505,
    "90": 12429,
    "carried": 16711,
    "Ġproximity": 3220,
    "skylight": 25623,
    "bro": 4038,
    "Ġfrankness": 16745,
    "parm": 21013,
    "shown": 22452,
    "Ġsounded": 8590,
    "onness": 21253,
    "Ġparis": 8179,
    "dress": 17519,
    "Ġ8": 5433,
    "Ġderiv": 1737,
    "Ġspans": 18304,
    "blocks": 25517,
    "variance": 2656,
    "Ġhan": 15614,
    "chery": 24550,
    "ĠĠĠĠ": 459,
    "decided": 13213,
    "Ġsport": 6688,
    "Ġtoday": 12639,
    "Ġunworth": 22034,
    "tery": 14035,
    "hitherto": 17282,
    "Ġ132": 19895,
    "Ġscreen": 17204,
    "Ġrejoice": 10207,
    "Ġmurmured": 7480,
    "Ġjavan": 24999,
    "Ġstilly": 25973,
    "(_": 7540,
    "Ġmagn": 1557,
    "Ġspire": 18306,
    "Ġrevolution": 3305,
    "Ġyarman": 12701,
    "reached": 13839,
    "Ġanimated": 7702,
    "Ġbottom": 3674,
    "Ġolder": 9325,
    "Ġdearest": 5457,
    "Ġfour": 2214,
    "Ġwhitt": 18054,
    "Ġgrieve": 14705,
    "Ġevenly": 4131,
    "Ġunstructured": 3008,
    "ilst": 8144,
    "Ġcorpusants": 13675,
    "knife": 6942,
    "Ġprofited": 19190,
    "Ġaffliction": 25844,
    "Ġcouples": 16851,
    "zeal": 16246,
    "Ġstorm": 4299,
    "onom": 9157,
    "Ġimpact": 10295,
    "omorrah": 18024,
    "Ġleg": 2336,
    "Ġproperly": 7945,
    "Ġjurymen": 16846,
    "rim": 7137,
    "agne": 21903,
    "chers": 11316,
    "Ġenterprise": 8641,
    "Ġidolator": 19996,
    "tle": 2410,
    "iastic": 12476,
    "Ġretribution": 16279,
    "nest": 10112,
    "Ġprosperity": 20256,
    "Ġscrolled": 22282,
    "Ġsanely": 24982,
    "Ġcompletely": 4860,
    "Ġemaciated": 20637,
    "Ġthundering": 24290,
    "Ġ127": 24471,
    "Ġcharming": 6628,
    "Ġtag": 15466,
    "Ġfaire": 13362,
    "Ġintensified": 17017,
    "Ġgl": 1255,
    "tallied": 21088,
    "Ġattics": 22623,
    "Ġacknowledges": 24688,
    "Ġceasing": 23755,
    "an": 278,
    "Ġtry": 3134,
    "Ġvirtue": 4922,
    "embarr": 15794,
    "Ġenhancement": 23827,
    "Ġadmits": 23553,
    "Ġabused": 22267,
    "Ġremarkably": 7703,
    "Ġapparently": 6778,
    "declared": 15116,
    "scru": 16238,
    "Ġdoubtfully": 23476,
    "bowed": 10682,
    "interrupt": 8615,
    "crowd": 25254,
    "15": 12427,
    "Ġrevolve": 19728,
    "Ġpostmark": 16724,
    "Ġhotel": 8650,
    "wondered": 17028,
    "rowed": 22860,
    "Ġdin": 3625,
    "Ġunansw": 22056,
    "Ġstepfather": 7221,
    "Ġbecome": 3160,
    "Ġcondu": 18109,
    "cul": 1899,
    "Ġveins": 8931,
    "Ġunfathomable": 20547,
    "Ġcolossal": 11458,
    "Ġbloom": 9886,
    "Ġenergetic": 15195,
    "Ġmaterial": 5178,
    "Ġrefinement": 18702,
    "Ġengine": 1918,
    "obtain": 23092,
    "scand": 18849,
    "Ġchief": 3381,
    "Ġcommit": 18655,
    "idity": 8829,
    "_)": 9100,
    "uten": 11620,
    "Ġate": 8838,
    "Ġslipped": 6492,
    "Ġdegenerating": 25799,
    "alescence": 15921,
    "Ġconfound": 23301,
    "Ġvision": 1646,
    "Ġdisgrace": 7215,
    "Ġunsc": 22012,
    "off": 1885,
    "Ġdepressions": 25798,
    "Ġrugged": 18720,
    "Ġfooting": 14481,
    "Ġconfusing": 23304,
    "Ġshade": 6550,
    "Ġren": 3848,
    "avating": 18605,
    "Ġarranged": 9875,
    "urning": 12912,
    "plan": 15811,
    "arts": 6563,
    "batch": 1980,
    "Ġcommanders": 23866,
    "Ġcommodore": 12392,
    "Ġcardboard": 19977,
    "Ġprovide": 7750,
    "enet": 10151,
    "idol": 21764,
    "windlass": 16720,
    "io": 3805,
    "Ġsimpleton": 16333,
    "obey": 11508,
    "whose": 6852,
    "Ġhearsed": 25039,
    "hearth": 15497,
    "raham": 18013,
    "ardy": 22154,
    "enced": 4294,
    "Ġswash": 23053,
    "ots": 3295,
    "cred": 9106,
    "Ġcoasts": 12160,
    "Ġjokes": 18408,
    "Ġrural": 21965,
    "Ġprovoke": 14824,
    "Ġunde": 11709,
    "Ġlucy": 17969,
    "bitts": 26122,
    "Ġresol": 2665,
    "opposition": 24823,
    "Ġplates": 11005,
    "ish": 550,
    "Ġprincipally": 11308,
    "bedded": 13225,
    "cription": 20817,
    "Ġdeeps": 16109,
    "ints": 3417,
    "Ġwindow": 3001,
    "Ġconvenient": 8346,
    "Ġrequiring": 2924,
    "Ġwearied": 15789,
    "Ġfiner": 13049,
    "Ġinstinct": 6574,
    "Ġlicensing": 20091,
    "Ġdoctrine": 24196,
    "Ġasp": 15777,
    "Ġpartners": 11850,
    "Ġtire": 17719,
    "woods": 13417,
    "Ġdelicately": 24125,
    "sixty": 24852,
    "Ġpout": 17904,
    "Ġbun": 6007,
    "Ġprejudice": 9074,
    "Ġmemorand": 23403,
    "Ġcomputers": 2645,
    "estic": 4956,
    "Ġvoid": 14084,
    "hung": 8381,
    "Ġclubb": 22359,
    "Ġwrung": 14469,
    "looks": 12014,
    "Ġeating": 8136,
    "Ġdeepest": 8214,
    "Ġcarrying": 6072,
    "Ġshipping": 14102,
    "Ġmarched": 18870,
    "Ġrepeated": 3834,
    "improve": 15708,
    "Ġartful": 22610,
    "Ġdecent": 10977,
    "Ġconsid": 1812,
    "Ġk": 484,
    "humoredly": 26324,
    "Ġwhisky": 23931,
    "Ġhoisted": 5960,
    "Ġjav": 7903,
    "ant": 438,
    "Ġproviding": 1362,
    "Ġlaugh": 4115,
    "Ġanecd": 20153,
    "Ġbishop": 13900,
    "Ġtargets": 4205,
    "Ġgaz": 4047,
    "imprisonment": 23760,
    ".)": 6783,
    "Ġdam": 2215,
    "Ġoffending": 22742,
    "Ġthanked": 9457,
    "Ġdece": 6996,
    "Ġwig": 9160,
    "Ġrenowned": 26193,
    "Ġwhy": 1760,
    "Ġjulia": 22300,
    "Ġunsafe": 22039,
    "iscreet": 20681,
    "Ġtempestuous": 20069,
    "pequod": 7052,
    "Ġve": 1107,
    "swallow": 24256,
    "Ġscoresby": 10460,
    "Ġarduous": 26528,
    "curious": 10481,
    "Ġarthur": 7196,
    "ediction": 17944,
    "Ġfix": 2509,
    "Ġmart": 10778,
    "Ġowes": 20083,
    "oology": 21005,
    "Ġmate": 3707,
    "extensive": 18707,
    "ered": 1684,
    "iture": 5696,
    "hurt": 19877,
    "Ġreturn": 1713,
    "Ġpromotion": 23194,
    "osh": 18388,
    "Ġmaw": 15536,
    "Ġinspecting": 24614,
    "Ġstagnant": 24654,
    "Ġunaccountable": 7888,
    "Ġforeboding": 20382,
    "Ġhumanity": 6731,
    "Ġcreate": 2090,
    "wedged": 24337,
    "deceptive": 22147,
    "anks": 3920,
    "fre": 5425,
    "ishments": 9271,
    "Ġseems": 2484,
    "chiefly": 14844,
    "Ġdignified": 15594,
    "Ġoptimizers": 18628,
    "Ġprincip": 5599,
    "Ġbon": 8784,
    "Ġcattle": 12568,
    "Ġanswering": 7477,
    "Ŀ": 256,
    "Ġringed": 16749,
    "Ġdom": 2736,
    "Ġinvestigations": 17245,
    "fishers": 24928,
    "Ġperseverance": 13595,
    "Ġshiny": 14104,
    "Ġst": 332,
    "Ġdines": 21422,
    "Ġsaved": 6690,
    "Ġcopies": 24935,
    "etieth": 21582,
    "Ġanxiety": 5408,
    "Ġsqualls": 17019,
    "Ġshop": 9250,
    "Ġevol": 2817,
    "Ġgreedy": 3055,
    "Ġlabels": 3288,
    "Ġremem": 4311,
    "line": 1440,
    "Ġcheerless": 16693,
    "Ġchagrin": 20606,
    "humorously": 24018,
    "sc": 1259,
    "Ġdecreas": 1645,
    "Ġunspeak": 8849,
    "Ġafternoon": 6053,
    "Ġmeanest": 12906,
    "Ġdaint": 15589,
    "Ġshower": 11707,
    "aby": 18106,
    "chains": 9683,
    "Ġequality": 16356,
    "Ġrephrased": 26476,
    "Ġemble": 13969,
    "ï": 176,
    "ibles": 18786,
    "Ġack": 5621,
    "reds": 12746,
    "Ġtext": 2265,
    "jabez": 20932,
    "Ġsolve": 4197,
    "Ġvalley": 5850,
    "Ġimpenetrable": 17396,
    "balance": 12003,
    "fanning": 20865,
    "Ġunfulfilled": 26508,
    "sized": 15426,
    "output": 4399,
    "Ġtars": 21163,
    "atre": 17769,
    "rough": 589,
    "iature": 8741,
    "Ġlinn": 13951,
    "Ġprotruding": 16657,
    "shaken": 16022,
    "Ġreverie": 13455,
    "1": 21,
    "Ġencourage": 10379,
    "Ġbirch": 26174,
    "Ġhist": 2446,
    "ledyard": 22380,
    "ority": 8418,
    "liberal": 26281,
    "sensible": 20050,
    "Ġkate": 15902,
    "Ġgenerate": 1527,
    "Ġtresses": 21174,
    "Ġmarchant": 14784,
    "mary": 8748,
    "probability": 17021,
    "Ġrack": 9310,
    "Ġthief": 11608,
    "Ġpert": 22393,
    "imming": 9685,
    "ripp": 6405,
    "ĠĠĠĠĠĠĠĠĠĠĠĠĠĠĠĠĠĠĠĠĠĠ": 16224,
    "til": 17670,
    "Ġtil": 12520,
    "Ġtinted": 13820,
    "Ġaug": 6234,
    "aloons": 20009,
    "harrow": 20907,
    "Ġviolin": 16426,
    "Ġcharitable": 23268,
    "Ġhelp": 1638,
    "Ġrefuse": 5739,
    "Ġrushing": 7403,
    "rinted": 21042,
    "unwillingly": 21882,
    "Ġansw": 2205,
    "Ġ1": 1015,
    "Ġglowing": 12279,
    "given": 8377,
    "Ġcaged": 21350,
    "Ġbarber": 23787,
    "hit": 20888,
    "Ġmorrow": 9340,
    "Ġridge": 14817,
    "won": 7144,
    "Ġluggage": 25957,
    "Ġpiqu": 21475,
    "Ġinclination": 6623,
    "Ġoutrages": 18415,
    "Ġ117": 19696,
    "Ġvult": 12748,
    "Ġtranscend": 25667,
    "former": 11745,
    "cell": 10684,
    "Ġmuch": 924,
    "Ġinno": 1373,
    "Ġappear": 2487,
    "tormented": 13643,
    "Ġunprinciple": 18257,
    "Ġeleven": 9388,
    "conqu": 14243,
    "Ġduncan": 13459,
    "=": 33,
    "Ġprotect": 6337,
    "Ġhal": 1364,
    "precipitance": 25867,
    "Ġrum": 5924,
    "Ġmoss": 9282,
    "ounder": 11741,
    "introduced": 15122,
    "Ġriotous": 20543,
    "Ġgenuine": 14883,
    "Ġtendinous": 16930,
    "verize": 21726,
    "girls": 12316,
    "Ġopportunity": 4786,
    "Ġreappearance": 21665,
    "Ġgrapple": 25811,
    "ĠĠĠĠĠĠĠĠĠĠĠĠĠ": 22560,
    "oe": 7552,
    "forks": 26386,
    "Ġrecent": 7436,
    "Ġuneasiness": 9482,
    "fig": 8734,
    "Ġmorose": 18842,
    "Ġslugg": 15266,
    "disinterested": 23499,
    "Ġcostly": 23583,
    "necessities": 24305,
    "Ġanswer": 2600,
    "Ġdense": 8123,
    "Ġgossip": 18470,
    "tips": 13794,
    "Ġdisplay": 6428,
    "vapor": 25755,
    "pos": 15408,
    "bitt": 17484,
    "ologies": 18771,
    "Ġmrs": 1469,
    "button": 10965,
    "punctual": 26355,
    "Ġcarr": 23089,
    "real": 10148,
    "Ġboom": 9308,
    "princ": 8620,
    "acific": 4960,
    "Ġpeev": 22691,
    "Ġhermit": 15854,
    "Ġclust": 9272,
    "Ġpret": 3037,
    "Ġsamuel": 10031,
    "inno": 10755,
    "Ġplaymate": 23638,
    "nevertheless": 8286,
    "elze": 21571,
    "Ġhit": 7163,
    "sheets": 14440,
    "furnished": 20240,
    "_âĢĶâĢĻâĢĿ": 25741,
    "Ġdemocracy": 25458,
    "Ġconject": 6027,
    "bent": 15309,
    "Ġworst": 7444,
    "inarticulate": 21194,
    "Ġcaresses": 26059,
    "Ġbo": 795,
    "Ġgallows": 12142,
    "manifested": 20524,
    "ascertain": 21541,
    "Ġglo": 1716,
    "Ġnarrated": 14869,
    "Ġdoom": 6417,
    "cop": 20800,
    "Ġcandidate": 16700,
    "Ġconfined": 7465,
    "Ġnewly": 9336,
    "endent": 15919,
    "Ġbecalmed": 18086,
    "rets": 12537,
    "Ġpitied": 14690,
    "Ġquoted": 22413,
    "Ġconfirm": 9854,
    "Ġrustic": 14963,
    "Ġincorpor": 13163,
    "Ġretreating": 19798,
    "ographical": 16785,
    "Ġ104": 24411,
    "Ġfrance": 7682,
    "Ġcontains": 2794,
    "tiest": 21080,
    "Ġsitu": 3497,
    "dil": 11477,
    "Ġcounty": 9029,
    "provid": 11148,
    "databases": 3027,
    "whilst": 18371,
    "yond": 2331,
    "Ġdav": 15586,
    "Ġconsists": 11974,
    "Ġstung": 21736,
    "Ġbee": 21747,
    "Ġblush": 14400,
    "old": 798,
    "imprudent": 14650,
    "uch": 877,
    "zag": 17712,
    "Ġbaffled": 12400,
    "Ġepoch": 26470,
    "Ġhedge": 8364,
    "ject": 874,
    "Ġcommenced": 8531,
    "Ġexploit": 19161,
    "evening": 7089,
    "opatra": 22467,
    "Ġtalents": 15043,
    "Ġpupella": 20420,
    "Ġalongside": 6311,
    "Ġcork": 12565,
    "res": 2761,
    "intolerable": 22936,
    "Ġcasualties": 25512,
    "Ġliterature": 17147,
    "spades": 14334,
    "Ġreject": 7386,
    "accuracy": 9877,
    "Ġscener": 10948,
    "itement": 7836,
    "Ġever": 1181,
    "Ġcalifornian": 25851,
    "open": 7025,
    "Ġbor": 5804,
    "rador": 19158,
    "corn": 13697,
    "cost": 19185,
    "prodigious": 17465,
    "Ġgave": 2217,
    "Ġentering": 6286,
    "Ġthrows": 14735,
    "goes": 10425,
    "Ġcondescended": 19954,
    "sideways": 14571,
    "Ġspar": 10920,
    "milk": 20475,
    "such": 3083,
    "Ġadmeasurements": 26225,
    "Ġshield": 21997,
    "Ġreappeared": 21663,
    "voices": 21116,
    "Ġcranial": 25592,
    "Ġmultimodal": 18747,
    "recked": 17761,
    "Ġdenial": 13212,
    "reinforcement": 7827,
    "apologizing": 26543,
    "Ġwhitewashed": 14468,
    "Ġunstructure": 2998,
    "Ġcourses": 10410,
    "ho": 2860,
    "altern": 17941,
    "detective": 24382,
    "Ġmichaelmas": 26374,
    "Ġoccurred": 4460,
    "deepest": 22848,
    "itates": 13867,
    "Ġhyperborean": 26339,
    "Ġnecks": 18179,
    "Ġdeliberation": 19967,
    "folly": 20861,
    "loved": 14249,
    "Ġwhom": 1829,
    "romed": 10904,
    "owing": 7601,
    "Ġwherein": 14293,
    "Ġmosses": 20162,
    "Ġreceives": 20353,
    "Ġpaling": 21460,
    "Ġmove": 5107,
    "Ġdiscovered": 4410,
    "Ġshiver": 12763,
    "Ġastonishing": 10500,
    "Ġ12": 5483,
    "bod": 12434,
    "limp": 20951,
    "Ġthames": 13936,
    "Ġvisible": 4777,
    "enth": 6680,
    "spring": 7231,
    "âĢĺ": 939,
    "Ġkill": 4451,
    "Ġven": 4646,
    "clearer": 24067,
    "onic": 7828,
    "Ġuseless": 7035,
    "palms": 25262,
    "Ġhours": 2821,
    "Ġyouth": 4260,
    "anyth": 5438,
    "Ġwet": 6518,
    "Ġsober": 10910,
    "Ġdesertion": 24787,
    "stretching": 20497,
    "Ġalms": 21778,
    "Ġdreaming": 11222,
    "Ġobserving": 6081,
    "gloves": 25143,
    "Ġsynd": 22204,
    "Ġslender": 11937,
    "malicious": 19901,
    "Ġnasty": 17441,
    "ital": 4817,
    "Ġassistants": 9450,
    "tt": 13788,
    "Ġbeggars": 20628,
    "Ġix": 12664,
    "etent": 10198,
    "sufficient": 6635,
    "Ġmisery": 3817,
    "Ġphotography": 24683,
    "Č": 205,
    "Ġdilated": 24704,
    "espe": 3501,
    "performed": 18345,
    "Ġclusters": 25232,
    "Ġrats": 21971,
    "Ġassures": 14465,
    "utes": 5914,
    "Ġboldly": 9499,
    "Ġfor": 340,
    "Ġdarted": 4758,
    "Ġeber": 18003,
    "infant": 19826,
    "Ġ(": 595,
    "attendants": 25495,
    "Ġsoaring": 22084,
    "Ġfrequencies": 4789,
    "Ġweave": 21918,
    "softened": 20408,
    "Ġendued": 14075,
    "Ġelbows": 18634,
    "Ġmutual": 8297,
    "eldest": 22798,
    "Ġquaff": 22412,
    "lung": 17590,
    "power": 7136,
    "Ġtossing": 8126,
    "ascribed": 24708,
    "plumed": 21953,
    "Ġviolent": 5117,
    "Ġattach": 14289,
    "condemned": 26060,
    "accept": 8896,
    "Ġillinois": 19136,
    "Ġnights": 7258,
    "Ġunicorn": 22055,
    "ellations": 21942,
    "Ġsentry": 19022,
    "Ġconveys": 16854,
    "cou": 13693,
    "admon": 21759,
    "Ġjaw": 3319,
    "Ġsupper": 4664,
    "Ġmerest": 14028,
    "invariably": 26415,
    "Ġflashing": 13024,
    "mond": 20972,
    "Ġcover": 3558,
    "Ġstim": 18063,
    "worshipping": 16609,
    "keel": 14127,
    "Ġdiscol": 12949,
    "Ġhealed": 21681,
    "Ġpeddler": 24800,
    "Ġjerked": 19831,
    "unity": 4153,
    "Ġfreed": 7267,
    "A": 37,
    "Ġcompasses": 11266,
    "Ġthro": 5817,
    "Ġpretending": 19314,
    "volume": 18600,
    "iable": 3335,
    "Ġgibe": 25959,
    "erve": 12545,
    "Ġconve": 5455,
    "Ġcurrent": 13015,
    "Ġwinter": 5220,
    "Ġwrecked": 9964,
    "ĠĠĠĠĠĠĠĠĠĠĠĠĠĠĠĠĠĠĠĠĠĠĠĠĠĠĠĠ": 9973,
    "agonies": 21907,
    "Ġnice": 6676,
    "Ġunintellig": 22024,
    "Ġhelped": 7459,
    "Ġcas": 8411,
    "Ġcastaway": 16639,
    "quitted": 21849,
    "oo": 7553,
    "Ġpent": 17901,
    "Ġirresistible": 13110,
    "Ġentire": 2559,
    "Ġsubdivisions": 26037,
    "Ġinattention": 17931,
    "ighter": 7968,
    "Ġweigh": 10892,
    "Ġsemicircle": 26067,
    "Ġmechanisms": 1577,
    "bottom": 11425,
    "ivial": 15857,
    "Ġmanual": 14196,
    "Ġpouring": 12620,
    "Ġgales": 12661,
    "thankful": 16805,
    "indirect": 22370,
    "Ġrefreshment": 17238,
    "Ġsuns": 23272,
    "gentlemen": 9502,
    "Ġmicrosc": 20675,
    "Ġfrolic": 23921,
    "Ġscan": 22277,
    "initely": 7568,
    "Ġbut": 423,
    "Ġtenants": 23546,
    "hill": 15360,
    "Ġbale": 7839,
    "'m": 9581,
    "Ġballs": 9013,
    "Ġprodigy": 19791,
    "bott": 9104,
    "Ġsubsided": 14549,
    "Ġmisanthrop": 22755,
    "falling": 24360,
    "Ġbrighton": 6470,
    "laugh": 10107,
    "desolate": 25703,
    "txt": 12512,
    "gin": 4930,
    "Ġpetticoat": 15293,
    "Ġlizzy": 3547,
    "Ġimpending": 22386,
    "Ġdispatched": 23879,
    "Ġglance": 4232,
    "ners": 3271,
    "ohog": 9842,
    "death": 6261,
    "Ġdiverse": 19208,
    "Ġwicked": 5961,
    "yes": 984,
    "Ġ550": 19640,
    "Ġconjectured": 9995,
    "unicorn": 21887,
    "Ġaunt": 3178,
    "Ġdrooping": 9418,
    "am": 367,
    "Ġcos": 2208,
    "distraction": 24199,
    "ently": 1613,
    "reliable": 21239,
    "Ġupwards": 7633,
    "wish": 8100,
    "Ġspecimen": 13019,
    "Ġinsatiable": 19271,
    "Ġjoined": 4561,
    "Ã¦us": 14815,
    "Ġardently": 9496,
    "Ġdeser": 3890,
    "Ġminded": 23230,
    "Ġobscure": 9552,
    "ceiling": 21625,
    "Ġprudence": 13918,
    "Ġgranite": 22806,
    "houn": 20892,
    "Ġwindigate": 18910,
    "bethink": 25744,
    "Ġbrahma": 26319,
    "Ġblacksmith": 6595,
    "ishe": 13889,
    "Ġantics": 24177,
    "oh": 1578,
    "Ġbus": 1903,
    "shipped": 18493,
    "prisoner": 20542,
    "Ġdistraction": 22504,
    "Ġvind": 10248,
    "orum": 12586,
    "miles": 10711,
    "Ġdesk": 11903,
    "dum": 17517,
    "Ġcrawford": 24893,
    "Ġeel": 18001,
    "Ġsharkish": 24502,
    "abby": 14019,
    "Ġdirectly": 2104,
    "Ġfrighted": 24027,
    "Ġrepl": 1593,
    "Ġnone": 3224,
    "Ġcountless": 16380,
    "Ġlard": 13945,
    "Ġbanking": 19629,
    "Ġride": 12754,
    "Ġlung": 7167,
    "apothe": 22332,
    "loud": 11499,
    "Ġstrongest": 11134,
    "Ġpeleg": 3737,
    "Ġpublic": 4330,
    "Ġalco": 21780,
    "Ġclerical": 25568,
    "chance": 6827,
    "Ġcrescentic": 20619,
    "Ġco": 729,
    "rougham": 15990,
    "Ġceremonies": 24836,
    "Ġschoolboys": 24480,
    "Ġshops": 21999,
    "Ġresembles": 25969,
    "Ġaffront": 18788,
    "Ġcritic": 19124,
    "musket": 25341,
    "gratitude": 16815,
    "buckets": 26123,
    "istically": 14142,
    "Ġmethod": 1466,
    "mblance": 7323,
    "Ġbehave": 23297,
    "mency": 18925,
    "direful": 25896,
    "59": 17472,
    "Ġhistory": 4013,
    "Ġgravity": 9246,
    "Ġfetch": 7770,
    "feed": 9291,
    "Ġnantucket": 2840,
    "Ġpenetrating": 17010,
    "Ġexterm": 21827,
    "Ġtearing": 14392,
    "gently": 13727,
    "azed": 9397,
    "valu": 1758,
    "started": 10844,
    "Ġagitated": 7647,
    "ink": 755,
    "Ġruth": 14091,
    "trunk": 23945,
    "Ġsubtile": 20378,
    "Ġdischar": 11805,
    "albatross": 15626,
    "Ġalso": 1344,
    "Ġindignity": 18832,
    "Ġchestnuts": 24380,
    "?--": 15301,
    "Ġsuspicious": 9478,
    "barrel": 17059,
    "Ġscrupulous": 20067,
    "punishment": 15143,
    "Ġ17": 5740,
    "clings": 23151,
    "big": 13683,
    "Ġsloping": 11936,
    "inhabited": 13618,
    "salesman": 20670,
    "Ġconce": 3422,
    "pest": 6964,
    "biqu": 17496,
    "Ġtrunk": 7205,
    "Ġindirectly": 8938,
    "Ġencirc": 18732,
    "Ġcries": 7154,
    "uzza": 11269,
    "Ġsteered": 11092,
    "Ġfry": 17879,
    "Ġcoff": 3509,
    "Ġxv": 23405,
    "Ġgrey": 4510,
    "slouched": 24556,
    "Ġlarboard": 11008,
    "monograph": 23525,
    "Ġhymn": 24517,
    "altering": 12636,
    "Ġkingdom": 12015,
    "Ġmisunderstand": 18704,
    "oses": 3951,
    "Ġrendered": 5773,
    "Ġtrinity": 22343,
    "ickering": 22668,
    "Ġimperfectly": 25727,
    "Ġproceeded": 5335,
    "Ġ150": 22824,
    "stands": 22428,
    "Ġaff": 1116,
    "Ġimprisonment": 22389,
    "Ġtyro": 16993,
    "hever": 13829,
    "Ġengraving": 17079,
    "craft": 12243,
    "derment": 22159,
    "Ġoriginal": 6102,
    ".âĢĶ": 4247,
    "Ġinscrutable": 10671,
    "Ġstarlight": 24627,
    "Ġsighed": 10336,
    "Ġdevouring": 11852,
    "Ġclattered": 22360,
    "osing": 3689,
    "Ġsmell": 7216,
    "Ġbutt": 14112,
    "Ġbroadway": 23981,
    "overspreading": 26139,
    "labours": 16616,
    "Ġenemy": 5604,
    "Ġswells": 9825,
    "lad": 5992,
    "âĢĶâĢĺ": 7013,
    "Ġgolden": 5336,
    "Ġpity": 4941,
    "Ġulster": 14996,
    "tube": 20409,
    "Ġdistressing": 12215,
    "Ġfeat": 10936,
    "onde": 21250,
    "uteronomy": 15660,
    "Ġpharaoh": 26584,
    "Ġoften": 1953,
    "eld": 963,
    "Ġcruc": 16533,
    "Ġcircles": 7967,
    "Ġ[_": 15459,
    "clever": 20812,
    "Ġwindpipe": 23104,
    "agre": 18164,
    "Ġgrim": 7439,
    "Ġerection": 23998,
    "Ġconv": 2974,
    "Ġinterpreter": 23216,
    "Ġworrying": 22925,
    "Ġ5": 4935,
    "Ġanswers": 7070,
    "b": 70,
    "Ġdiffered": 22709,
    "Ġ1825": 25719,
    "caused": 25519,
    "wandered": 20284,
    "Ġwish": 2097,
    "Ġdock": 15927,
    "trans": 5593,
    "inu": 1115,
    "Ġnorth": 4317,
    "Ġblanche": 18819,
    "abases": 3010,
    "Ġpovels": 22590,
    "atus": 21259,
    "Ġblack": 2031,
    "studied": 17148,
    "Ġflann": 23012,
    "istence": 2295,
    "Ġcoars": 14269,
    "Ġdescribe": 2767,
    "however": 4370,
    "Ġserve": 9367,
    "Ġawakened": 10452,
    "Ġsecure": 4912,
    "Ġvicinity": 7315,
    "Ġdisgra": 18549,
    "Ġadmiral": 17303,
    "Ġgenealogies": 25961,
    "rifle": 21045,
    "heav": 5694,
    "Ġarches": 14159,
    "Ġbills": 17860,
    "Ġcorporeally": 25729,
    "Ġunderground": 18985,
    "Ġerred": 21155,
    "Ġselection": 18204,
    "elves": 2158,
    "creature": 5346,
    "Ġimpetuous": 25570,
    "despatched": 19800,
    "cellar": 20276,
    "Ġbrooded": 23102,
    "Ġunavailing": 26215,
    "Ġmainten": 16110,
    "Ġpaths": 2570,
    "Ġable": 3081,
    "Ġdivin": 13270,
    "vex": 21700,
    "Ġstruggles": 16576,
    "Ġaggreg": 12880,
    "freighted": 14890,
    "Ġpleasanter": 19065,
    "Ġcalf": 16264,
    "jerked": 25618,
    "Ġilluminating": 25245,
    "Ġsimple": 1618,
    "Ġhandspikes": 12934,
    "Ġtipped": 17727,
    "shadow": 20313,
    "shut": 10980,
    "Ġpraised": 19552,
    "Ġhawsers": 26501,
    "Ġdusky": 13547,
    "Ġporpoise": 7106,
    "save": 13783,
    "Ġgranted": 22805,
    "Ġdiscl": 9795,
    "Ġgra": 416,
    "degra": 22139,
    "Ġtore": 6530,
    "Ġfamed": 16325,
    "Ġmak": 10777,
    "Ġformation": 2945,
    "Ġtruce": 24115,
    "Ġnovelty": 13461,
    "joined": 13273,
    "va": 4743,
    "Ġstruggled": 9903,
    "phant": 6287,
    "Ġrewarding": 13435,
    "zealand": 26047,
    "vict": 11539,
    "Ġcrimes": 8588,
    "Ġaccidentally": 9503,
    "vy": 21106,
    "sacrifice": 13490,
    "Ġsqueaking": 26274,
    "Ġsuit": 5725,
    "umn": 5835,
    "Ġburke": 19250,
    "Ġbonds": 17869,
    "Ġbarrels": 9434,
    "Ġtechniques": 2869,
    "glass": 9907,
    "ommod": 13979,
    "Ġsickbed": 24245,
    "Ġshuddered": 11299,
    "wide": 10136,
    "Ġbudge": 15162,
    "Ġmincer": 14364,
    "Ġrichness": 19310,
    "Ġoutlaws": 22321,
    "Ġadoration": 18290,
    "Ġquarrel": 7292,
    "Ġwel": 4524,
    "Ġacc": 574,
    "Ġreceipt": 20354,
    "Ġlobster": 11388,
    "Ġroof": 6564,
    "Ġchests": 19670,
    "meanwhile": 10608,
    "mentioned": 10622,
    "Ġscott": 22279,
    "Ġstartling": 14669,
    "_,âĢĿ": 6218,
    "Ġminus": 18749,
    "Ġstirred": 12214,
    "mes": 1197,
    "Ġresponses": 23648,
    "Ġcapsized": 20088,
    "Ġpoltro": 23618,
    "Ġstupid": 7603,
    "Ġordinary": 6097,
    "Ġrejoinder": 24598,
    "Ġbranches": 6776,
    "Ġri": 3394,
    "Ġcompiled": 22568,
    "Ġletting": 10360,
    "breeding": 16674,
    "Ġwasted": 9702,
    "inting": 9812,
    "reproof": 25432,
    "Ġintervals": 5597,
    "Ġghastly": 10058,
    "Ġsands": 14946,
    "Ġfurnished": 6475,
    "Ġinterpret": 5490,
    "Ġamidst": 9492,
    "Ġplowdon": 26446,
    "Ġmuttering": 10498,
    "sleepers": 24730,
    "haven": 20911,
    "Ġmanifold": 13558,
    "Ġdefe": 21833,
    "aintance": 3570,
    "stre": 5451,
    "Ġprophets": 20449,
    "Ġmund": 21317,
    "Ġmay": 925,
    "things": 6033,
    "Ġcannot": 1667,
    "Ġkno": 5242,
    "ophisticated": 22468,
    "poling": 12216,
    "Ġchaldee": 26234,
    "little": 3352,
    "Ġprovinc": 16741,
    "Ġgratify": 19501,
    "icting": 12849,
    "alled": 5911,
    "throwing": 11700,
    "rified": 15417,
    "precise": 19349,
    "allied": 7410,
    "Ġboast": 7034,
    "permitted": 18346,
    "Ġdesponding": 25868,
    "permission": 15900,
    "Ġimpute": 18331,
    "Ġwildness": 14602,
    "Ġreporting": 24657,
    "Ġweaken": 21919,
    "Ġdoct": 4452,
    "Ġeffectively": 2722,
    "Ó": 148,
    "Ġmerely": 3773,
    "althily": 19357,
    "Ġlips": 3997,
    "torm": 11529,
    "Ġhyster": 16872,
    "Ġchina": 8040,
    "hap": 17558,
    "renew": 24449,
    "shells": 26056,
    "able": 452,
    "Ġspecimens": 18858,
    "Ġbrains": 2631,
    "Ġwiping": 25765,
    "Ġburgled": 23653,
    "situation": 11436,
    "Ġsupposed": 4555,
    "Ġglimpses": 13430,
    "nered": 18488,
    "Ġpeep": 6870,
    "Ġinstruments": 12220,
    "stick": 15680,
    "Ġdisreputable": 22532,
    "profitable": 17070,
    "Ġglorious": 11074,
    "Ġcurtains": 22994,
    "Ġseriously": 7061,
    "Ġsubjected": 23571,
    "erted": 7361,
    "Ġdistrust": 8205,
    "Ġpra": 4344,
    "Ġrights": 10395,
    "Ġmanaged": 7907,
    "_.": 2212,
    "pine": 13767,
    "oward": 6021,
    "Ġcooped": 22581,
    "Ġrasc": 21972,
    "Ġobstinacy": 17419,
    "Ġroyal": 5601,
    "É": 138,
    "toed": 18578,
    "rences": 9270,
    "oquent": 12496,
    "protection": 19919,
    "Ġbeen": 626,
    "Ġspeedily": 7712,
    "Ġtropical": 17064,
    "Ġrivers": 9440,
    "Ġmbpp": 21320,
    "beauty": 20102,
    "Ġlanguid": 14212,
    "acted": 11009,
    "rendering": 22338,
    "Ġgam": 11622,
    "ipt": 12475,
    "belt": 24034,
    "Ġmass": 3782,
    "super": 5944,
    "Ġvoyages": 6908,
    "elements": 25203,
    "Ġpleases": 16295,
    "pictures": 15088,
    "ius": 5789,
    "Ġbund": 17863,
    "Ġwarming": 23557,
    "Ġpublicly": 13320,
    "chess": 16571,
    "inking": 6709,
    "Ġabsolute": 6765,
    "jonah": 11495,
    "Ġconsult": 6057,
    "Ġentry": 11025,
    "ouble": 2661,
    "Ġcommunicating": 16888,
    "Ġtawn": 13821,
    "honey": 20904,
    "Ġices": 21153,
    "Ġwillingly": 8883,
    "Ġbridge": 8349,
    "Ġsoar": 18282,
    "flesh": 13488,
    "kick": 20935,
    "iply": 22351,
    "dart": 20825,
    "Ġattaining": 15800,
    "Ġpri": 5813,
    "oftentimes": 19419,
    "Ġcuff": 17829,
    "Ġmacro": 25939,
    "Ġinconstant": 21494,
    "ower": 1047,
    "underneath": 23786,
    "Ġreassure": 21670,
    "hen": 3519,
    "Ġtranquo": 14841,
    "ilt": 2973,
    "Ġdiffusion": 23780,
    "Ġalleg": 14015,
    "`": 68,
    "evidence": 25521,
    "Ġelevate": 24498,
    "Ġrare": 7037,
    "Ġcalhoun": 23041,
    "ensils": 22546,
    "interview": 19298,
    "Ġchosen": 7201,
    "Ġpretend": 7722,
    "byshire": 6172,
    "Ġgovernor": 16489,
    "announce": 24559,
    "Ġabominate": 20063,
    "Ġgrateful": 7660,
    "antly": 1986,
    "Ġcharger": 19004,
    "Ġpencil": 11940,
    "Ġexpatiate": 18623,
    "Ġrose": 3444,
    "Ġcalculating": 9923,
    "izz": 7613,
    "Ġbestir": 13107,
    "Ġ114": 24437,
    "Ġstreet": 2963,
    "Ġstates": 1852,
    "Ġ89": 19711,
    "grounds": 11150,
    "fly": 13712,
    "Ġhalloa": 13314,
    "Ġsystematic": 5245,
    "Ġsabbee": 17254,
    "Ġsnodhead": 19301,
    "eridge": 15523,
    "mpus": 13755,
    "news": 23133,
    "lips": 13748,
    "Ġwo": 3650,
    "Ġexperiences": 13027,
    "Ġdeceive": 12718,
    "Ġtaste": 5524,
    "impul": 16554,
    "design": 18958,
    "Ġvile": 8472,
    "Ġalert": 18101,
    "kn": 5791,
    "Ġbackground": 18639,
    "Ġdespaired": 14667,
    "Ġdigging": 14936,
    "bag": 7542,
    "mers": 9609,
    "Ġcheer": 4070,
    "Ġdisputing": 25824,
    "Ġwantest": 18790,
    "Ġalleghan": 25795,
    "Ġplead": 14454,
    "fainting": 20471,
    "Ġtu": 6968,
    "Ġunsavory": 20706,
    "Ġberyl": 20488,
    "Ġtraces": 7946,
    "Ġnibbling": 17383,
    "peculiarities": 13469,
    "Ġpreposterous": 13667,
    "Ġwatches": 11081,
    "Ġfoes": 11948,
    "Ġrepresentations": 1875,
    "Ġcigar": 9543,
    "Ġconnection": 5479,
    "Ġbuck": 7157,
    "Ġderived": 8239,
    "Ġrecommending": 24336,
    "Ġmediterranean": 12312,
    "angered": 16175,
    "oll": 5456,
    "play": 5099,
    "Ġcoach": 6867,
    "Ġskylight": 24072,
    "step": 2458,
    "Ġjogged": 26236,
    "Ġnarrower": 24353,
    "Ġusual": 3948,
    "itious": 8778,
    "icious": 7380,
    "Ġpulverize": 23391,
    "Ġbrix": 12579,
    "Ġprognostics": 20557,
    "Ġinvoked": 19144,
    "Ġmalays": 19676,
    "linearity": 1649,
    "Ġfaintest": 24568,
    "fere": 10987,
    "Ġsubterr": 10347,
    "Ġcompos": 22567,
    "sford": 5998,
    "Ġtranquillity": 7536,
    "Ġimportant": 1105,
    "lone": 11498,
    "captain": 3958,
    "Ġdisappearance": 9295,
    "Ġdaring": 8121,
    "Ġinclined": 6622,
    "Ġhard": 1443,
    "compliments": 24810,
    "uttermost": 24940,
    "400": 20754,
    "Ġpalsy": 25778,
    "Ġescorted": 23504,
    "igated": 15703,
    "Ġwallowing": 24042,
    "Ġnatural": 1136,
    "Ġbadly": 12128,
    "Ġobtru": 18675,
    "osque": 22260,
    "Ġneural": 618,
    "Ġunseason": 22050,
    "Ġpudding": 17913,
    "continual": 20643,
    "Ġstat": 1491,
    "mont": 19168,
    "Ġjew": 9466,
    "Ġadmired": 7981,
    "Ġferguson": 17468,
    "Ġall": 421,
    "Ġordering": 18997,
    "Ġvicissitudes": 12416,
    "Ġtimes": 2303,
    "Ġoverall": 4356,
    "da": 17513,
    "heart": 4523,
    "elsewhere": 19867,
    "Ġcommentaries": 20159,
    "Ġphrenologically": 20392,
    "Ġpromises": 10399,
    "Ġknighthood": 25297,
    "Ġtransaction": 22437,
    "stout": 21637,
    "dun": 17515,
    "bolts": 11419,
    "Ġquant": 6424,
    "party": 8991,
    "orange": 21398,
    "Ġsplashing": 16548,
    "Ġasks": 5115,
    "billows": 20235,
    "Ġtrusting": 24105,
    "digger": 24309,
    "Ġworthless": 19564,
    "Ġlithe": 24668,
    "Ġthick": 3784,
    "Ġstuck": 9219,
    "Ġwhitish": 24866,
    "Ġslightest": 6093,
    "lost": 8886,
    "dued": 7910,
    "results": 20385,
    "ouraged": 22855,
    "Ġx": 2073,
    "Ġdiscriminator": 3391,
    "Ġinstincts": 16985,
    "Ġtens": 17722,
    "Ġmeets": 7396,
    "Ġalarming": 14778,
    "Ġrevolutions": 23839,
    "Ġbreath": 4791,
    "Ġdictionary": 15110,
    "Ġconst": 1910,
    "elephant": 12348,
    "whar": 15924,
    "Ġassembled": 9234,
    "lust": 15377,
    "aft": 9582,
    "fem": 17536,
    "proves": 23392,
    "Ġpaddle": 20057,
    "aphys": 15199,
    "quis": 7871,
    "Ġguard": 6178,
    "ruction": 4355,
    "Ġeffusions": 18531,
    "Ġconstrained": 19239,
    "amy": 8467,
    "eting": 7169,
    "orough": 5700,
    "eries": 6808,
    "ichron": 22161,
    "mot": 17595,
    "Ġattorney": 18625,
    "swinging": 25912,
    "Ġdriving": 3617,
    "th": 408,
    "Ġsuffusing": 23028,
    "recurrent": 4994,
    "6": 26,
    "Ġmeridians": 17354,
    "Ġchristendom": 16694,
    "Ġtiny": 11551,
    "foremost": 14251,
    "naturally": 14570,
    "sunlight": 24851,
    "Ġson": 2987,
    "flinging": 20867,
    "barbaric": 26358,
    "oqu": 7555,
    "Ġsil": 1796,
    "cond": 1668,
    "Ġgreenhorn": 23766,
    "Ġlistless": 16475,
    "wing": 2521,
    "Ġcrippled": 25278,
    "cer": 6642,
    "Ġrumbling": 18213,
    "Ġaforethought": 25428,
    "Ġwholesome": 16002,
    "Ġfrom": 433,
    "glimmer": 26321,
    "blister": 24127,
    "fatality": 25019,
    "Ġmeanings": 18607,
    "Ġesq": 15106,
    "hamed": 6305,
    "Ġpraying": 19553,
    "Ġdenny": 9000,
    "ushed": 2976,
    "Ġorder": 1686,
    "ishly": 14198,
    "Ġliter": 8810,
    "discoloured": 23496,
    "kye": 20937,
    "Ġgaze": 6932,
    "Ġtwilight": 16118,
    "Ġstooped": 14462,
    "Ġtouching": 4679,
    "adv": 4534,
    "Ġbreckinridge": 14521,
    "Ġcontinuing": 14396,
    "nurtured": 25524,
    "Ġalphabetical": 17200,
    "serious": 14446,
    "ings": 635,
    "Ġpercept": 14222,
    "Ġproxim": 3200,
    "Ġpresent": 1639,
    "Ġwatchman": 23668,
    "Ġsmothered": 20719,
    "Ġfeed": 2128,
    "brows": 17495,
    "algorithms": 8293,
    "umnal": 18300,
    "verse": 9686,
    "soundest": 24797,
    "Ġcomprise": 18583,
    "Ġunforeseen": 22051,
    "Ġexhale": 24401,
    "Ġtass": 15468,
    "Ġoverwhelming": 17101,
    "Ġcopse": 17066,
    "Ġimag": 2676,
    "Ġarist": 14158,
    "omeness": 18022,
    "Ġdemon": 7870,
    "Ġracket": 22655,
    "Ġcontinues": 18809,
    "queequeg": 4332,
    "signs": 16537,
    "Ġbrack": 23833,
    "ĠarchÃ¦": 22766,
    "Ġwail": 21285,
    "Ġproves": 14036,
    "Ġinterest": 2245,
    "Ġmultitud": 18746,
    "Ġcannibal": 7774,
    "Ġcoals": 16072,
    "fine": 10089,
    "Ġwoody": 23518,
    "gr": 2085,
    "ios": 2288,
    "Ġwelcomed": 9480,
    "absurd": 21793,
    "Ġcaul": 10786,
    "Ġrepositories": 23363,
    "Ġconfess": 3769,
    "epilogue": 22101,
    "alot": 15622,
    "Ġprovided": 6576,
    "70": 17474,
    "Ġdevout": 14324,
    "surpr": 5997,
    "attest": 23118,
    "ering": 1267,
    "Ġpolitely": 8992,
    "Ġexpans": 18620,
    "Ġus": 495,
    "Ġpract": 1908,
    "arse": 7160,
    "Ġdining": 6977,
    "ined": 1260,
    "iding": 3849,
    "heaven": 8053,
    "Ġshrieked": 9546,
    "Ġembed": 1434,
    "Ġrussian": 14348,
    "bular": 15311,
    "paid": 15412,
    "Ġargument": 7098,
    "Ġcongen": 10872,
    "Ġclams": 19987,
    "Ġsuitable": 18278,
    "Ġclout": 22354,
    "swiss": 24254,
    "Ġbowls": 23768,
    "Ġcords": 14877,
    "Ġinflex": 20633,
    "Ġorganize": 8990,
    "flag": 14709,
    "captains": 12124,
    "Ġpluck": 15610,
    "Ġaccusation": 22379,
    "Ġjustinian": 22965,
    "anxious": 15107,
    "strils": 10457,
    "deploy": 22141,
    "Ġevangelists": 20338,
    "dischar": 19151,
    "Ġcetacean": 25878,
    "Ġchat": 6560,
    "Ġye": 902,
    "escaped": 14229,
    "Ġfusion": 21413,
    "moran": 24151,
    "Ġguards": 16266,
    "Ġshunned": 17291,
    "ob": 1420,
    "Ġdocumentation": 20553,
    "sebastian": 21818,
    "Ġbeak": 18079,
    "Ġpasture": 14542,
    "crime": 14781,
    "Ġtorments": 13392,
    "Ġpricking": 23223,
    "pressed": 6587,
    "Ġagitation": 6865,
    "assisted": 22305,
    "comm": 7440,
    "Ġfurs": 18738,
    "Ġfact": 1729,
    "Ġpreferred": 14964,
    "esy": 9184,
    "Ġinsurgents": 26599,
    "balanced": 14554,
    "ader": 14010,
    "ĠâĢľâĢĺ": 8503,
    "Ġfearlessness": 19160,
    "handkerchief": 14616,
    "tur": 5688,
    "Ġsmiling": 5474,
    "Ġforbidden": 17077,
    "Ġdecoyed": 18486,
    "Ġturks": 14597,
    "nesday": 8702,
    "Ġrelaxed": 12979,
    "bright": 8988,
    "Ġmeetings": 16531,
    "Ġdiscover": 4716,
    "totally": 25417,
    "mselves": 2864,
    "Ġfleet": 9430,
    "Ġafghan": 22627,
    "Ġindispensable": 11897,
    "Ġstrainings": 24628,
    "Ġtestament": 23215,
    "Ġdecreed": 18484,
    "iveness": 2470,
    "continuance": 19717,
    "Ġperturbed": 20438,
    "Ġgently": 7171,
    "Ġdrugged": 12598,
    "critters": 14782,
    "Ġtouches": 20569,
    "Ġnoah": 10941,
    "Ġinsure": 13176,
    "Ġprepar": 7898,
    "Ġe": 311,
    "Ġtemples": 18636,
    "Ġfeminine": 15261,
    "Ġillness": 8589,
    "pair": 21011,
    "Ġrows": 10560,
    "boast": 23251,
    "saw": 5894,
    "Ġorb": 22089,
    "allowing": 24357,
    "Ġmeantime": 6206,
    "Ġtradeoff": 2658,
    "suspended": 15175,
    "cod": 12440,
    "Ġmanner": 2195,
    "Ġfishing": 9661,
    "utored": 15659,
    "Ġfresh": 3669,
    "glue": 17555,
    "count": 4213,
    "hearts": 13342,
    "Ġimpressive": 14998,
    "Ġcomply": 8889,
    "Ġexisting": 12714,
    "Ġdogs": 7742,
    "Ġpigs": 19746,
    "his": 1413,
    "hibited": 17425,
    "Ġinvite": 14561,
    "paradise": 20635,
    "Ġcalm": 3448,
    "Ġxxxiv": 24969,
    "beg": 22484,
    "year": 11094,
    "Ġresist": 7917,
    "jack": 7344,
    "Ġmoles": 22432,
    "Ġrays": 10328,
    "Ġling": 7377,
    "Ġtrampled": 20327,
    "dozen": 23376,
    "were": 2558,
    "oregressive": 3425,
    "blows": 17164,
    "Ġpoisonous": 24887,
    "Ġconceived": 8150,
    "Ġbarrow": 12066,
    "Ġeffect": 972,
    "rist": 10121,
    "Ġbedroom": 7277,
    "Ġkettle": 26232,
    "Ġexcepting": 14679,
    "announcement": 24561,
    "burn": 8371,
    "Ġpractically": 13103,
    "Ġlaud": 17967,
    "Ġincluding": 2849,
    "iard": 9600,
    "Ġdwell": 5812,
    "ryder": 18637,
    "tooth": 18579,
    "ired": 1445,
    "arrant": 10473,
    "Ġunerringly": 18268,
    "Ġhil": 10820,
    "acency": 12904,
    "Ġmes": 17796,
    "Ġbathed": 17865,
    "Ġcoffin": 4426,
    "deceiving": 22142,
    "fuller": 22496,
    "Ġappears": 5402,
    "Ġseverity": 15817,
    "uzzle": 19582,
    "unched": 10234,
    "Ġfloundering": 16251,
    "Ġopenness": 18956,
    "total": 17249,
    "hanging": 10099,
    "Ġfear": 2274,
    "stones": 11633,
    "rog": 15636,
    "offic": 7466,
    "Ġfond": 4755,
    "Ġonly": 787,
    "Ġairy": 23314,
    "Ġworld": 1597,
    "Ġbows": 4086,
    "Ġconflict": 17272,
    "Ġsadness": 13284,
    "och": 21000,
    "disaster": 23491,
    "Ġlongbourn": 3510,
    "Ġdwelling": 7322,
    "Ġbeauty": 3772,
    "Ġpowder": 11274,
    "it": 276,
    "Ġlessen": 14531,
    "Ġmanage": 7640,
    "Ġselves": 21221,
    "Ġperturbation": 20439,
    "Ġfobbing": 26440,
    "Ġinsol": 10179,
    "Ġhaunted": 10252,
    "metal": 24765,
    "Ġquery": 2482,
    "relics": 24013,
    "Ġconjured": 25099,
    "Ġscientific": 6857,
    "Ġagonized": 25372,
    "Ġrepeating": 11212,
    "thread": 15823,
    "Ġladder": 8597,
    "residence": 19262,
    "onstrate": 17767,
    "Ġfake": 5810,
    "nd": 11502,
    "Ġrails": 22654,
    "Ġrealising": 18983,
    "Ġoscill": 2859,
    "Ġluxuries": 25163,
    "Ġsecret": 3719,
    "Ġkith": 22190,
    "Ġpapered": 20129,
    "Ġask": 1493,
    "drove": 16992,
    "Ġdarkly": 19114,
    "Ġscream": 5935,
    "ruck": 6848,
    "Ġnarrowly": 16819,
    "Ġnomine": 26455,
    "Ġimprudent": 12844,
    "Ġpersonally": 8598,
    "Ġwidespread": 20674,
    "Ġcommended": 18656,
    "Ġaccent": 10292,
    "Ġherds": 9714,
    "Ġperadventure": 22396,
    "highly": 24764,
    "Ġnecessitates": 23926,
    "Ġempt": 5051,
    "Ġquit": 5246,
    "reproach": 15184,
    "Ġscholar": 26111,
    "Ġspecies": 5112,
    "Ġsa": 473,
    "Ġabout": 632,
    "Ġfrocks": 23919,
    "dec": 3113,
    "Ġbox": 5109,
    "Ġreduced": 11921,
    "Ġconvulsive": 19306,
    "Ġdemonstrate": 24996,
    "Ġquarrels": 16564,
    "Ġmonster": 3795,
    "disappearing": 23500,
    "intend": 16221,
    "verdict": 21727,
    "Ġsympath": 4861,
    "Ġadvers": 4887,
    "Ġextended": 7924,
    "Ġdreadful": 4920,
    "Ġmerchantmen": 19859,
    "drew": 7334,
    "Ġassist": 3565,
    "cigar": 26124,
    "Ġbearded": 15723,
    "Ġfootman": 8288,
    "igms": 3047,
    "Ġunbroken": 18253,
    "spoutings": 25003,
    ".}": 20744,
    "Ġwilliam": 3484,
    "Ġexamine": 7735,
    "Ġevils": 9018,
    "Ġuseful": 3559,
    "Ġspared": 7894,
    "behaved": 24462,
    "Ġsi": 21211,
    "Ġthirt": 13937,
    "Ġspoke": 2750,
    "omically": 13978,
    "Ġharpoons": 5659,
    "Ġdisagreeable": 9296,
    "Ġbeard": 11653,
    "Ġoverwhelmed": 11402,
    "Ġblackest": 19098,
    "Ġstacked": 21741,
    "oura": 1058,
    "olog": 1073,
    "Ġfourteen": 12006,
    "Ġpanted": 21470,
    "Ġoverlapping": 26238,
    "Ġerud": 20053,
    "har": 20889,
    "account": 5329,
    "Ġunnaturally": 24870,
    "transp": 24508,
    "ctions": 952,
    "Ġpowers": 5419,
    "Ġar": 480,
    "Ġestate": 6316,
    "Ġbillows": 7502,
    "Ġflame": 7448,
    "Ġattraction": 18624,
    "Ġfilm": 23922,
    "Ġjour": 11761,
    "ĠĠĠĠĠĠĠĠĠĠĠĠĠĠĠĠĠĠĠĠĠĠĠĠĠĠĠĠĠĠĠĠĠĠĠĠĠĠĠĠĠĠĠĠĠĠĠĠĠĠĠĠĠ": 20038,
    "Ġvivid": 8058,
    "chester": 23804,
    "Ġinnoc": 3796,
    "watching": 16929,
    "Ġsymb": 2593,
    "riages": 10242,
    "Ġwisely": 13269,
    "Ġpurplish": 19140,
    "quarrel": 20013,
    "Ġsubsc": 22788,
    "Ġclaw": 22358,
    "Ġspoils": 24808,
    "Ġporpoises": 13380,
    "ns": 757,
    "Ġflap": 14420,
    "assuming": 22308,
    "Ġsundering": 23273,
    "jub": 20928,
    "Ġglassy": 19559,
    "bpp": 20771,
    "Ġenveloped": 12205,
    "Ġingenious": 12345,
    "Ġgrate": 12960,
    "Ġinjure": 16780,
    "ror": 7351,
    "Ġgoethe": 22422,
    "immed": 9216,
    "Ġdistant": 5387,
    "Ġinquir": 4241,
    "Ġreptile": 15275,
    "Ġlub": 15645,
    "complexion": 14362,
    "Ġfrowning": 13621,
    "Ġrind": 21967,
    "Ġcalculated": 4473,
    "inger": 6812,
    "okers": 18441,
    "shr": 10979,
    "ucket": 2486,
    "^{": 15302,
    "aspect": 10192,
    "extending": 22759,
    "Ġjur": 12830,
    "Ġsubstances": 24164,
    "posted": 24636,
    "single": 10125,
    "Ġyoke": 18095,
    "Ġabsent": 7014,
    "Ġvaguely": 17364,
    "Ġremarking": 13122,
    "avoid": 9303,
    "since": 5895,
    "Ġclimate": 9273,
    "neurons": 3135,
    "balls": 12302,
    "retrie": 18922,
    "Ġresulting": 24197,
    "helm": 12168,
    "Ġcrusad": 23705,
    "Ġnational": 13940,
    "izings": 14049,
    "?âĢĻâĢĿ": 23643,
    "Ġlet": 1111,
    "towing": 17688,
    "Ġvary": 15804,
    "Ġimagined": 8606,
    "inde": 17730,
    "cous": 8721,
    "Ġautumnal": 19049,
    "Ġnormalizes": 1863,
    "Ġrede": 13982,
    "eagerly": 17314,
    "ignorantly": 25189,
    "Ġformula": 2867,
    "onial": 11565,
    "Ġfactor": 19012,
    "etwork": 440,
    "neighbourhood": 10023,
    "Ġdesolated": 24812,
    "Ġrepresents": 4902,
    "Ġspain": 15877,
    "Ġthirty": 4944,
    "Ġcuriosity": 2510,
    "Ġendwise": 23143,
    "Ġacquiesce": 20328,
    "knowledge": 7478,
    "sighted": 19784,
    "Ġwide": 4110,
    "Ġmen": 1433,
    "Ġdescending": 8901,
    "Ġaccidental": 16847,
    "pitch": 13296,
    "Ġ102": 24409,
    "headers": 23107,
    "disputed": 23498,
    "Ġisolation": 17149,
    "Ġnegative": 1465,
    "tails": 21085,
    "Ġoverflow": 10290,
    "Ġtinkling": 25212,
    "Ġcommentators": 25229,
    "Ġsuburban": 17344,
    "Ġpatentee": 25586,
    "ulity": 10885,
    "ship": 1392,
    "Ġrescue": 13340,
    "Ġsooty": 25815,
    "Ġhose": 12623,
    "falgar": 26130,
    "ective": 18174,
    "Ġeffaced": 18530,
    "at": 268,
    "Ġthimble": 15633,
    "Ġgir": 2252,
    "level": 2654,
    "Ġproblem": 1271,
    "Ġchaps": 14178,
    "ditch": 17527,
    "Ġpeering": 8534,
    "Ġunrecord": 16620,
    "Ġdispersed": 16596,
    "raint": 18316,
    "Ġincreased": 2211,
    "benefact": 24641,
    "starbuck": 6019,
    "icts": 22400,
    "Ġhumour": 7932,
    "accents": 19210,
    "Ġbitt": 10795,
    "flukes": 25205,
    "Ġindividuality": 14907,
    "Ġbleached": 24395,
    "Ġknee": 7093,
    "Ġcall": 2074,
    "raise": 18011,
    "Ġindependently": 4245,
    "midnight": 14898,
    "Ġcontrol": 13077,
    "encoura": 15047,
    "_?âĢĿ": 15303,
    "Ġsmart": 11812,
    "Ġplaus": 22597,
    "Ġori": 8409,
    "Ġtrades": 8232,
    "Ġmistakes": 16539,
    "Ġwidely": 8033,
    "Ġcarted": 21347,
    "Ġcarve": 23091,
    "Ġdrops": 9031,
    "Ġimage": 3402,
    "Ġrecurred": 18976,
    "Ġrenounce": 19466,
    "into": 3680,
    "hand": 2759,
    "ushing": 5731,
    "Ġremainder": 9856,
    "Ġdistension": 22503,
    "Ġtar": 2564,
    "mountain": 10712,
    "mai": 22913,
    "Ġcrowded": 8012,
    "rab": 7596,
    "Ġscratches": 22284,
    "Ġstudied": 11107,
    "Ġmagnified": 23203,
    "Ġcliffs": 15973,
    "apprehens": 17404,
    "Ġtimbers": 14837,
    "causes": 20342,
    "hunter": 10554,
    "Ġharpoone": 2914,
    "resh": 8404,
    "Ġachieve": 3672,
    "stern": 7862,
    "aur": 15306,
    "Ġassistance": 6333,
    "Ġdelineations": 26058,
    "trembling": 17141,
    "Ġpeaking": 22688,
    "Ġexempl": 21828,
    "Ġfeedback": 23431,
    "Ġswallowed": 7944,
    "Ġpersuade": 5872,
    "Ġbilliard": 16688,
    "sprit": 11381,
    "Ġanxious": 4515,
    "Ġproceedings": 9905,
    "Ġhumor": 11050,
    "interrupted": 11416,
    "fates": 20857,
    "reel": 21232,
    "Ġspl": 2988,
    "neys": 23581,
    "Ġcircumspect": 15082,
    "Ġissuing": 16947,
    "Ġsubstant": 14807,
    "Ġcursory": 18857,
    "Ġrelieved": 7666,
    "mare": 17598,
    "Ġinsect": 12632,
    "loom": 18538,
    "Ġjerking": 12242,
    "Ġsuddenness": 23380,
    "Ġshelf": 12264,
    "Ġponderous": 8355,
    "Ġtahit": 10753,
    "dr": 6221,
    "Ġcurios": 18856,
    "Ġmainmast": 9777,
    "Ġcould": 703,
    "ive": 426,
    "seldom": 13785,
    "notches": 22749,
    "Ġestimated": 16593,
    "Ġunharmed": 15137,
    "Ġsounds": 5190,
    "Ġapologizing": 25197,
    "et": 307,
    "Ġgardeners": 12117,
    "Ġhire": 21483,
    "Ġcountry": 2533,
    "Ġcanoe": 9721,
    "Ġvacuous": 24343,
    "lovel": 22509,
    "binnacle": 20786,
    "hinting": 17568,
    "rians": 21928,
    "Ġexpl": 487,
    "Ġpod": 15600,
    "guinea": 16671,
    "Ġrevers": 21662,
    "Ġelbow": 12916,
    "tasted": 17686,
    "Ġrom": 4522,
    "axing": 18547,
    "compl": 6873,
    "Ġkin": 15901,
    "Ġspectre": 16629,
    "passing": 14810,
    "Ġelderly": 13493,
    "Ġmermaid": 17813,
    "Ġtertiary": 15292,
    "mering": 12487,
    "Ġbehaviors": 13252,
    "Ġlawn": 7379,
    "Ġconcernment": 23621,
    "Ġretrieval": 10673,
    "Ġrickety": 26504,
    "Ġcet": 6669,
    "erpillar": 5797,
    "Ġintend": 12760,
    "delightful": 12193,
    "deployment": 26526,
    "Ġsammy": 24932,
    "Ġloses": 15870,
    "Ġpreventing": 884,
    "Ġrecre": 22738,
    "Ġside": 1388,
    "Ġvap": 6837,
    "aging": 2236,
    "asol": 21538,
    "Ġsubsisted": 19117,
    "Ġturn": 1298,
    "bered": 4502,
    "Ġint": 409,
    "Ġoughts": 23898,
    "Ġloving": 8176,
    "Ġflowery": 16230,
    "screwed": 17186,
    "transform": 8050,
    "Ġsadly": 7302,
    "Ġinmates": 15619,
    "eminently": 25105,
    "speech": 10665,
    "Ġvillainous": 25131,
    "Ġabsurdities": 24878,
    "floated": 24643,
    "Ġsummer": 4790,
    "itary": 4751,
    "ard": 465,
    "Ġcro": 4873,
    "Ġoaken": 13863,
    "Ġoy": 15542,
    "Ġguitar": 16267,
    "iration": 4537,
    "quake": 11677,
    "threaten": 25461,
    "Ġsighs": 22707,
    "Ġwoods": 5406,
    "belonged": 25597,
    "Ġcleaving": 23182,
    "Ġhysterical": 26092,
    "Ġfew": 1212,
    "Ġlombardy": 26462,
    "Ġwrote": 5011,
    "Ġallude": 12767,
    "bo": 1691,
    "Ġpassionately": 16763,
    "Ġarrangements": 16514,
    "drugg": 20837,
    "Ġamericans": 14741,
    "Ġbehav": 3541,
    "heedful": 20572,
    "Ġalways": 1699,
    "looked": 6084,
    "Ġjealousy": 13574,
    "Ġlectures": 17177,
    "attend": 11100,
    "existence": 16011,
    "ret": 1476,
    "hoping": 17565,
    "Ġter": 2050,
    "Ġvesu": 21947,
    "dem": 10690,
    "Ġdyspepsia": 20642,
    "pshire": 21023,
    "Ġimmemorially": 25383,
    "Ġhospital": 15038,
    "Ġwont": 9850,
    "rene": 5379,
    "last": 3806,
    "casks": 20401,
    "Ġjob": 7015,
    "Ġglac": 9343,
    "Ġ&": 6513,
    "Ġmarvels": 11083,
    "Ġindirect": 18834,
    "Ġdemeanour": 17335,
    "Ġprick": 14477,
    "Ġdanish": 21430,
    "Ġchest": 5185,
    "Ġdemoniacal": 20555,
    "Ġphil": 3385,
    "warp": 17705,
    "Ġintimate": 6549,
    "Ġneedn": 19228,
    "came": 4567,
    "Ĵ": 245,
    "ct": 309,
    "Ġbiography": 22763,
    "Ġportentous": 15227,
    "Ġquakers": 22414,
    "Ġchanced": 8187,
    "secur": 18126,
    "Ġgrego": 18962,
    "icing": 9199,
    "Ġdefinite": 11068,
    "Ã": 132,
    "endering": 21283,
    "Ġmagnanimous": 17409,
    "uteness": 17985,
    "Ġbingley": 1676,
    "aside": 10190,
    "independ": 15978,
    "Ġcovent": 16071,
    "inks": 6869,
    "Ġplanisphere": 26606,
    "impregnable": 26480,
    "Ġinverted": 12633,
    "pil": 15406,
    "Ġthink": 985,
    "Ġdig": 6135,
    "Ġlose": 5028,
    "Ġsaleve": 17389,
    "Ġsatisfied": 4173,
    "entiful": 10835,
    "congratulations": 20278,
    "Ġgrizz": 10350,
    "Ġcool": 5734,
    "Ġcredited": 25153,
    "Ġdrug": 11409,
    "tawny": 26403,
    "les": 1016,
    "Ġwintry": 17432,
    "-------": 20387,
    "Ġdams": 16454,
    "Ġstark": 7390,
    "Ġbritannica": 24680,
    "Ġdented": 17891,
    "sequ": 2402,
    "screaming": 20324,
    "Ġforecastle": 5495,
    "ittered": 18439,
    "morland": 24152,
    "deep": 1045,
    "incing": 15483,
    "melancholy": 12350,
    "question": 5418,
    "gazed": 15359,
    "sharp": 10305,
    "kes": 3678,
    "Ġnearer": 5301,
    "Ġoverl": 18422,
    "Ġdeliber": 7268,
    "Ġanat": 8124,
    "Ġtried": 3647,
    "Ġlazarus": 15027,
    "Ġnapoleons": 25885,
    "Ġseaman": 8638,
    "Ġtrag": 13036,
    "Ġtusks": 17252,
    "Ġbl": 1191,
    "Ġfluctu": 5267,
    "Ġsur": 2182,
    "ĠĠĠĠĠĠĠ": 7631,
    "Ġblaze": 16217,
    "Ġeighteen": 11237,
    "Ġsqu": 1036,
    "Ġanoint": 25537,
    "bond": 17488,
    "tical": 10127,
    "descried": 11926,
    "Ġtiara": 26414,
    "uttural": 21587,
    "ate": 422,
    "Ġhugh": 15003,
    "olidity": 18132,
    "Ġopen": 1552,
    "Ġbeginning": 4242,
    "hob": 20899,
    "Ġinhale": 20299,
    "Ġmannish": 26237,
    "load": 12877,
    "Ġdistinguish": 2728,
    "Ġslightly": 7293,
    "secondly": 16983,
    "rod": 10830,
    "inkles": 7426,
    "Ġdigress": 24648,
    "Ġsecluded": 11989,
    "resemblance": 25933,
    "Ġshipmate": 8926,
    "man": 1053,
    "Ġriots": 23890,
    "Ġstrikes": 13179,
    "commodore": 20624,
    "!_âĢĶ": 19971,
    "probable": 17020,
    "hab": 1075,
    "Ġavocation": 23950,
    "tales": 17685,
    "unching": 18158,
    "sharks": 14238,
    "Ġwired": 17786,
    "nib": 5214,
    "Ġmocking": 24000,
    "Ġvane": 22873,
    "Ġdaw": 21428,
    "Ġforbe": 8457,
    "itaries": 21334,
    "Ġ32": 19487,
    "Ġcompanies": 14556,
    "Ġitaly": 10866,
    "Ġsinners": 18950,
    "artic": 14214,
    "deemed": 18315,
    "Ġantilles": 24178,
    "Ġcart": 11581,
    "belled": 24035,
    "continued": 8675,
    "Ġrates": 1405,
    "Ġexisted": 15749,
    "Ġmeant": 3551,
    "Ġbased": 3340,
    "Ġstake": 14001,
    "ti": 8390,
    "enari": 21280,
    "ograph": 4797,
    "Ġcompliance": 12111,
    "Ġninetieth": 25357,
    "Ġengaged": 3430,
    "Ġnews": 3822,
    "Ġcomforts": 14692,
    "willingness": 24755,
    "Ġpromethe": 14467,
    "despair": 8344,
    "Ġhieroglyphic": 25587,
    "Ġcorrob": 16263,
    "Ġstiff": 6992,
    "thickness": 25367,
    "olera": 21831,
    "Ġbuying": 23993,
    "instant": 8651,
    "Ġexpressions": 7706,
    "writing": 7721,
    "Ġramadans": 25119,
    "Ġdescends": 14285,
    "Ġinherit": 25352,
    "Ġdestroy": 5772,
    "Ġmistaking": 23717,
    "Ġdit": 21419,
    "grateful": 10427,
    "Ġflooring": 23624,
    "Ġcopied": 20006,
    "Ġprobed": 18733,
    "ladder": 19783,
    "Ġalman": 21779,
    "Ġcorridor": 10670,
    "Ġrejoicing": 13419,
    "marry": 13321,
    "published": 26142,
    "Ġback": 813,
    "affold": 16560,
    "acon": 10680,
    "Ġcoincid": 20316,
    "Ġobstetrics": 24678,
    "increas": 10453,
    "Ġsteer": 10385,
    "Ġlurch": 21553,
    "Ġbumpkins": 25281,
    "Ġabandonment": 25603,
    "phr": 18717,
    "swaying": 25910,
    "Ġprov": 4398,
    "Ġapartment": 6633,
    "cheeks": 23805,
    "Ġapprovingly": 26252,
    "savage": 15073,
    "Ġca": 21337,
    "ending": 1987,
    "Ġwood": 2292,
    "mped": 16646,
    "ushion": 14718,
    "Ġrevolved": 9982,
    "completed": 19992,
    "Ġforthwith": 16617,
    "Ġpunish": 12156,
    "pher": 11510,
    "ugal": 19018,
    "Ġunqualified": 22059,
    "Ġwitnesses": 9484,
    "Ġplat": 8520,
    "inev": 21977,
    "Ġduration": 20352,
    "Ġsche": 1708,
    "Ġcatches": 23425,
    "Ġinterference": 8892,
    "Ġwards": 17789,
    "Ġoutcast": 18414,
    "Ġphrenologists": 25608,
    "Ġacre": 22679,
    "Ġinstructive": 19285,
    "Ġfeels": 6882,
    "bearing": 9763,
    "presbyter": 20616,
    "Ġpatchwork": 24140,
    "Ġturtles": 19219,
    "Ġslope": 14459,
    "Ġ275": 20109,
    "Ġissues": 9540,
    "Ġtemporary": 7980,
    "Ġapples": 22216,
    "Ġhollows": 19740,
    "Ġrollicking": 24450,
    "Ġlakes": 8131,
    "burg": 16772,
    "#": 7,
    "Ġsmo": 2702,
    "thrust": 10260,
    "Ġmotive": 6092,
    "Ġgangs": 21607,
    "Ġacquaintances": 17348,
    "Ġpane": 21461,
    "Ġdiddled": 22665,
    "Ġemb": 1252,
    "Ġfrivolous": 26176,
    "Ġprecipices": 12274,
    "Ġsplice": 19308,
    "Ġmatrix": 1605,
    "Ġtwos": 18657,
    "gay": 11487,
    "Ġguessed": 11281,
    "iloquent": 21723,
    "merc": 19280,
    "Ġformed": 3887,
    "coburg": 13596,
    "aset": 10831,
    "agger": 7873,
    "yonder": 21143,
    "_.âĢĻâĢĿ": 17478,
    "conject": 8878,
    "aver": 6785,
    "expense": 22427,
    "Ġplausible": 26552,
    "Ġrick": 21968,
    "ia": 1258,
    "intervals": 10636,
    "olen": 9698,
    "ble": 542,
    "Ġdocile": 19957,
    "Ġchristian": 6479,
    "icher": 9201,
    "stone": 5089,
    "Ġspoilt": 24807,
    "Ġviv": 6156,
    "Ġder": 1498,
    "Ġinjuries": 11276,
    "considerable": 10547,
    "Ġlimbs": 5966,
    "Ġincalculable": 17459,
    "Ġstudent": 14463,
    "Ġuniverse": 14123,
    "Ġsnow": 3706,
    "trust": 21077,
    "coff": 9107,
    "range": 3496,
    "weight": 2942,
    "Ġdistribution": 2017,
    "Ġforesaw": 19127,
    "Ġorgan": 2504,
    "Ġreflection": 6440,
    "tree": 11532,
    "Ġsect": 17750,
    "ĠcÃ¦sar": 20578,
    "Ġenlarged": 25985,
    "ression": 3404,
    "customary": 25895,
    "rucastle": 22176,
    "Ġprivacy": 19523,
    "Ġshirt": 8847,
    "...": 24548,
    "Ġzig": 18742,
    "Ġwidows": 24235,
    "acle": 4714,
    "post": 6062,
    "quished": 21846,
    "Ġworkmen": 23046,
    "Ġimposs": 16615,
    "Ġsheaves": 22156,
    "Ġexchanging": 18131,
    "bable": 8718,
    "Ġgenus": 24428,
    "Ġhelps": 9365,
    "bald": 16445,
    "Ġmediocr": 24083,
    "Ġgodfre": 14528,
    "Ġele": 1961,
    "conve": 14242,
    "deser": 10401,
    "Ġarchbishop": 18708,
    "Ġtep": 21160,
    "Ġsp": 457,
    "iple": 4806,
    "Ġshark": 5549,
    "Ġpir": 6818,
    "Ġbi": 919,
    "activity": 22629,
    "Ġcolony": 18763,
    "Ġlust": 9196,
    "'d": 12424,
    "scotch": 25850,
    "Ġcurses": 13017,
    "Ú": 155,
    "kilt": 4866,
    "Ġbeaver": 18085,
    "Ġresolution": 5500,
    "Ġsoft": 1459,
    "Ġguidance": 9415,
    "uniform": 18157,
    "erately": 21272,
    "Ġgild": 15665,
    "'(": 2983,
    "Ġcachalot": 17834,
    "strangers": 20335,
    "Ġapex": 24341,
    "Ġangels": 11177,
    "Ġtransformed": 22608,
    "Ġhelmeted": 19687,
    "Ġdestitute": 14564,
    "Ġlifted": 6985,
    "Ġ90": 24589,
    "leave": 7838,
    "Ġpreceding": 7528,
    "Ġhorror": 3775,
    "previously": 17206,
    "Ġhalls": 19524,
    "experienced": 15119,
    "Ġconvert": 11839,
    "heavy": 10573,
    "Ġindian": 4133,
    "Ġacutely": 14312,
    "cheerful": 13573,
    "stand": 628,
    "jeroboam": 25619,
    "ront": 15416,
    "Ġmanners": 3792,
    "Ġdelic": 4136,
    "words": 7983,
    "Ġresumed": 11809,
    "cele": 21623,
    "transition": 24509,
    "ipl": 20917,
    "Ġstrained": 10217,
    "Ġinstruct": 2866,
    "Ġmovable": 22433,
    "Ġbored": 16102,
    "Ġreve": 2935,
    "idel": 5299,
    "Ġtelegra": 11888,
    "Ġbarnacled": 25536,
    "bingleys": 19633,
    "Ġcalves": 13031,
    "ension": 6569,
    "Ġstead": 5650,
    "ab": 345,
    "Ġsummoned": 9909,
    "ooping": 21006,
    "Ġaudience": 24769,
    "Ġgateway": 24802,
    "consuming": 25675,
    "treatment": 20410,
    "L": 48,
    "Ġchin": 4891,
    "fulfilment": 26025,
    "Ġ119": 24440,
    "Ġbespe": 19241,
    "Ġnat": 12641,
    "Ġideal": 13118,
    "Ġdone": 1816,
    "Ġbattalions": 25776,
    "Ġhighland": 18712,
    "Ġmalignant": 14876,
    "Ġcivilized": 8664,
    "Ġgovern": 10449,
    "T": 56,
    "bennet": 5352,
    "Ġwillingness": 24910,
    "Ġemblaz": 16235,
    "Ġtoes": 10828,
    "Ġsatisfying": 23696,
    "Ġconcert": 11964,
    "ground": 4670,
    "ield": 2409,
    "Ġdesper": 6176,
    "ocity": 8278,
    "Ġconn": 9228,
    "Ġhidden": 1378,
    "Ġrestoration": 19023,
    "Ġwished": 3728,
    "Ġspasmod": 12411,
    "Ġpain": 2304,
    "Ġprocessions": 18433,
    "ieves": 4011,
    "ccess": 3184,
    "Ġshoreless": 24294,
    "Ġconge": 15742,
    "uncommon": 11679,
    "Ġtended": 21165,
    "iqu": 7803,
    "Ġbos": 4875,
    "Ġdrown": 6815,
    "Ġcomparison": 7099,
    "Ġinvolve": 11045,
    "fixedly": 24929,
    "meas": 7434,
    "covery": 11170,
    "Ġrefrained": 14342,
    "iment": 2818,
    "Ġdumb": 7844,
    "Ġfabulous": 25948,
    "Ġere": 3685,
    "Ġprogno": 14038,
    "acceler": 23597,
    "Û": 156,
    "robotics": 11305,
    "Ġpartial": 2129,
    "enstern": 17781,
    "truth": 9917,
    "Ġlast": 1123,
    "Î": 143,
    "fav": 6646,
    "olerably": 11671,
    "Ġslip": 8953,
    "Ġhug": 6979,
    "Ġinterrupt": 4357,
    "anted": 5027,
    "someone": 14562,
    "Ġimproper": 22767,
    "scot": 14415,
    "Ġult": 9073,
    "Ġpondicherry": 20489,
    "Ġsign": 2497,
    "ostentatious": 20651,
    "Ġopenly": 8572,
    "Ġconsum": 9797,
    "Ġsinks": 19548,
    "Ġsteep": 2892,
    "Ġeastward": 13388,
    "Ġcustoms": 19651,
    "Ġfri": 17878,
    "Ġconvent": 11666,
    "Ġguardsmen": 20629,
    "Ġwashington": 17201,
    "egypt": 15347,
    "Ġfielding": 16228,
    "Ġwanted": 4968,
    "Ġlandsman": 11349,
    "romised": 14110,
    "Ġexpanded": 14287,
    "Ġrol": 3556,
    "fatal": 17087,
    "ote": 4593,
    "Ġcontained": 7679,
    "Ġpuffing": 12251,
    "Ġnoisier": 4622,
    "Ġcollected": 2612,
    "loo": 10318,
    "Ġstern": 4188,
    "Ġwarmest": 16483,
    "Ġbennets": 9804,
    "ighted": 8476,
    "Ġvanished": 6874,
    "Ġnow": 693,
    "Ġunkindness": 22040,
    "Ġranging": 8478,
    "Ġgregarious": 18964,
    "Ġencodings": 4775,
    "allers": 22195,
    "Ġvineyarder": 25606,
    "Ġwithdrew": 9694,
    "Ġpublisher": 24065,
    "Ġforwarded": 19039,
    "yp": 1043,
    "Ġmounttop": 19976,
    "Ġhugest": 17014,
    "ating": 663,
    "const": 5939,
    "ivable": 10909,
    "Ġhasten": 10477,
    "combe": 7663,
    "Ġfires": 16470,
    "ma": 1153,
    "Ġtanning": 17728,
    "Ġbasic": 24701,
    "aloft": 8805,
    "Ġassuring": 13060,
    "Ġutil": 4671,
    "Ġspending": 10922,
    "Ġindef": 9188,
    "unctuous": 21880,
    "Ġsurmisings": 26592,
    "Ġcrush": 9420,
    "ledge": 1327,
    "lour": 15378,
    "Ġslaught": 23166,
    "walk": 5523,
    "progra": 9393,
    "fairly": 17218,
    "Ġforesee": 19125,
    "Ġarcher": 22182,
    "Ġunique": 12775,
    "Ġsplitting": 4380,
    "Ġjac": 1897,
    "pips": 21019,
    "Ġinputs": 844,
    "Ġsne": 6372,
    "restoration": 23236,
    "Ġalice": 1483,
    "fed": 11486,
    "Ġjones": 7204,
    "Ġvows": 15805,
    "Ġdamn": 11157,
    "Ġcalculate": 13261,
    "Ġsmiting": 12894,
    "Ġob": 862,
    "Ġremotest": 10050,
    "Ġweb": 9238,
    "Ġmetallic": 19061,
    "Ġprecipice": 19939,
    "bet": 6109,
    "attery": 18508,
    "immediately": 10047,
    "Ġcommencement": 12235,
    "Ġass": 1505,
    "Ġwoke": 21288,
    "Ġplane": 11820,
    "murdered": 12199,
    "Ġtorrid": 25032,
    "admirably": 24944,
    "plete": 10918,
    "Ġborrowed": 17228,
    "Ġchambermaid": 24303,
    "Ġwherever": 8523,
    "Ġriv": 10745,
    "Ġline": 1850,
    "Ġplaning": 22599,
    "atively": 2697,
    "fluke": 25204,
    "Ġcontinents": 16848,
    "Ġbringing": 5869,
    "Ġdefend": 9338,
    "forty": 9372,
    "ount": 1112,
    "Ġjumping": 13339,
    "Ġwreat": 15528,
    "blog": 19838,
    "Ġrallied": 14093,
    "Ġcou": 5286,
    "oried": 10801,
    "Ġactor": 16046,
    "Ġinch": 7850,
    "odiac": 14026,
    "Ġsteak": 9827,
    "birth": 15320,
    "merchant": 10466,
    "sulphur": 25909,
    "Ġstrove": 9955,
    "Ġbat": 10794,
    "W": 59,
    "Ġswimmer": 19457,
    "Ġsingular": 4421,
    "fins": 13717,
    "Ġchild": 2257,
    "indignation": 18438,
    "Ġrefer": 18699,
    "blubber": 15234,
    "ustomed": 6099,
    "icit": 3378,
    "Ġlees": 18075,
    "cent": 8073,
    "char": 3505,
    "Ġpon": 10174,
    "Ġincessantly": 11410,
    "Ġencode": 4362,
    "subjects": 19875,
    "ician": 21563,
    "uling": 2254,
    "Ġassoc": 6402,
    "Ġmagistrate": 8234,
    "got": 6955,
    "uts": 8814,
    "Ġequivalent": 4802,
    "Ġjanuary": 13651,
    "Ġdough": 8421,
    "behind": 6779,
    "Ġdistingu": 2516,
    "Ġpots": 9426,
    "Ġward": 10154,
    "Ġxxxii": 24972,
    "stately": 18018,
    "Ġgraph": 10901,
    "ú": 187,
    "Ġfresher": 23209,
    "Ġharp": 17923,
    "vi": 2375,
    "arrange": 23764,
    "Ġfidget": 15187,
    "Ġumbrella": 15263,
    "Ġkilburn": 18351,
    "Ġclang": 15968,
    "Ġgestic": 21606,
    "otence": 14021,
    "Ġair": 1833,
    "_.)": 7278,
    "Ġwon": 1666,
    "rolling": 9059,
    "examine": 25477,
    "commod": 16173,
    "Ġdelicate": 6480,
    "Ġancestry": 25641,
    "fitzwilliam": 11351,
    "Ġdilatory": 24705,
    "promote": 24727,
    "Ġmeditative": 25014,
    "Ġdazzling": 15209,
    "Ġdecapitated": 20614,
    "icular": 2021,
    "Ġmid": 2617,
    "itt": 571,
    "Ġfret": 10805,
    "sleeping": 13452,
    "perquisites": 26530,
    "Ġwester": 25152,
    "Ġingratitude": 17467,
    "Ġcaress": 16337,
    "Ġbaleen": 10035,
    "Ġfragrant": 13098,
    "Ġaverted": 16254,
    "Ġbelieves": 14405,
    "Ġinclinations": 19538,
    "Ġoutputs": 2889,
    "Ġlonging": 14297,
    "Ġbenevolence": 9525,
    "Ġbeaches": 18084,
    "Ġglobe": 6077,
    "Ġexper": 1311,
    "Ġsneezing": 12244,
    "Ġintrig": 21988,
    "anesc": 21358,
    "asse": 15641,
    "Ġsorrows": 13352,
    "Ġbeech": 18082,
    "Ġensuring": 11191,
    "arctic": 12606,
    "Ġbomb": 17867,
    "making": 2573,
    "Ġhereabouts": 12973,
    "Ġacknowledgment": 16956,
    "Ġsoftly": 7948,
    "Ġsignification": 19202,
    "bers": 2571,
    "ateful": 5927,
    "oda": 15745,
    "hall": 8085,
    "conviction": 19963,
    "ters": 1574,
    "Ġavoided": 13256,
    "Ġinventing": 24861,
    "ometer": 19325,
    "Ġuncommon": 5026,
    "Ġcurt": 18852,
    "Ġmournfully": 20115,
    "visited": 13345,
    "Ġradiance": 13368,
    "Ġintercept": 14267,
    "ription": 5676,
    "Ġoath": 7834,
    "Ġincluded": 8929,
    "ivorous": 22080,
    "Ġcoachman": 14999,
    "chair": 5917,
    "Ġstiggs": 25792,
    "fes": 20850,
    "Ġaggregated": 25678,
    "asional": 17959,
    "aren": 10072,
    "Ġfugitives": 25634,
    "Ġknock": 9971,
    "Ġinvisibly": 24817,
    "daughters": 13464,
    "Ġmoulded": 16974,
    "<EOS>": 2,
    "icant": 21560,
    "Ġletters": 3794,
    "Ġolfactories": 26171,
    "Ġanimate": 23421,
    "isles": 15560,
    "Ġrefrain": 12943,
    "talk": 6656,
    "Ġrespectful": 16343,
    "progression": 20380,
    "Ġunreasonably": 17449,
    "sell": 13779,
    "Ġdisengaged": 12885,
    "Ġgunwales": 12237,
    "Ġdestroyed": 5271,
    "Ġgloried": 22980,
    "Ġtowards": 1730,
    "Ġdrifted": 14623,
    "Ġrepeat": 8000,
    "hetic": 12200,
    "Ġcensure": 15093,
    "Ġtribe": 10750,
    "Ġpavement": 9576,
    "Ġallow": 1129,
    "Ġmankind": 6698,
    "Ġgrunt": 18736,
    "Ġshoved": 23488,
    "Ġbulky": 13226,
    "Ġbuy": 8300,
    "borough": 20784,
    "Ġsubur": 12953,
    "Ġkey": 2101,
    "odhead": 18117,
    "Ġprobably": 4312,
    "Ġtit": 8399,
    "school": 10053,
    "alization": 730,
    "sleep": 6511,
    "Ġforgive": 8010,
    "dirty": 20833,
    "Ġclubs": 25179,
    "Ġunreserved": 19395,
    "Ġrome": 12152,
    "Ġrode": 15995,
    "Ġ122": 24466,
    "compared": 24032,
    "alleging": 23022,
    "Å": 134,
    "mad": 5280,
    "Ġoutskirts": 17455,
    "Ġgigantic": 5915,
    "parts": 14600,
    "Ġber": 5698,
    "Ġemerge": 14926,
    "Ġam": 659,
    "Ġbestowed": 6593,
    "olent": 8155,
    "gs": 7338,
    "Ġgrapes": 15213,
    "bourn": 3302,
    "kinder": 24845,
    "Ġmingling": 20196,
    "Ġdisquiet": 18552,
    "Ġfiled": 15576,
    "blacksmith": 17000,
    "disp": 7976,
    "Ġobliterated": 17403,
    "honour": 13465,
    "chors": 11642,
    "Ġtested": 23214,
    "Ġhousings": 21491,
    "ictions": 14224,
    "Ġdead": 2171,
    "Ġhussey": 7725,
    "faces": 13718,
    "neville": 22449,
    "Ġstring": 11824,
    "Ġmend": 8406,
    "Ġhopkins": 23128,
    "Ġlength": 2502,
    "Ġentitled": 8538,
    "Ġrings": 11697,
    "Ġskull": 6288,
    "Ġge": 1975,
    "Ġequ": 1735,
    "Ġrebell": 21667,
    "88": 20757,
    "wanted": 10742,
    "Ġdelighted": 5499,
    "Ġmowers": 17812,
    "Ġunfortunate": 5376,
    "Ġvapor": 8699,
    "thodox": 21986,
    "umbrance": 22116,
    "Ġrambles": 17183,
    "Ġthunder": 4823,
    "Ġindul": 5856,
    "Ġespe": 21154,
    "Ġecc": 11626,
    "Ġjust": 1240,
    "Ġtemptation": 8677,
    "Ġbeer": 10218,
    "hind": 20893,
    "drink": 10594,
    "gg": 1993,
    "Ġcut": 2642,
    "effectually": 25128,
    "commission": 22822,
    "twelvemonth": 25862,
    "Ġcoolness": 16885,
    "Ġproprietor": 12370,
    "Ġwinged": 16994,
    "Ġcomplained": 16997,
    "Ġspit": 22122,
    "Ġloitering": 22114,
    "precious": 12069,
    "gris": 8260,
    "Ġwould": 650,
    "Ġsolicit": 22886,
    "Ġrejoined": 14925,
    "Ġplentiful": 12907,
    "variety": 23186,
    "Ġlearn": 365,
    "ľ": 255,
    "Ġirreparable": 19997,
    "aving": 2407,
    "Ġpupp": 10819,
    "Ġapologize": 15126,
    "Ġhealthy": 10850,
    "Ġeagle": 13200,
    "Ġbefall": 8827,
    "Ġfiendish": 13325,
    "Ġfell": 1974,
    "Ġpoem": 22587,
    "Ġguid": 2639,
    "Ġdecorum": 16018,
    "prise": 7727,
    "Ġconstraints": 2742,
    "infl": 15485,
    "Ġcherry": 16934,
    "Ġstolen": 14005,
    "Ġforgiveness": 16655,
    "own": 744,
    "Ġunwell": 22015,
    "Ġmarshal": 20218,
    "Ġcast": 3606,
    "Ġchowder": 10279,
    "Ġbackwards": 12920,
    "Ġdeadliest": 14555,
    "shroud": 20311,
    "Ġhasty": 10476,
    "nonsense": 17614,
    "Ġabruptly": 15148,
    "Ġcreases": 22726,
    "dz": 4739,
    "Ġarchitecture": 1096,
    "Ġtables": 9876,
    "queens": 22896,
    "bourgh": 19103,
    "Ġscho": 4433,
    "Ġtints": 17726,
    "repressed": 21242,
    "Ġterrier": 23397,
    "Ġcleaned": 23183,
    "geor": 15975,
    "Ġnobly": 22239,
    "Ġbenef": 3491,
    "Ġsweat": 13137,
    "Ġurging": 24501,
    "Ġimparted": 15986,
    "Ġchamp": 18381,
    "fright": 9594,
    "gish": 20872,
    "ornamented": 26594,
    "Ġcauldron": 25441,
    "Ġran": 3344,
    "Ġimpertinent": 9076,
    "Ġbenefactor": 14696,
    "lonely": 20956,
    "whispering": 26103,
    "collect": 16561,
    "Ġrid": 4352,
    "imble": 10857,
    "Ġdeactivates": 20702,
    "wor": 3416,
    "Ġweedy": 15788,
    "Ġcasc": 15552,
    "Ġsuspicions": 9477,
    "flying": 13719,
    "Ġyourselves": 9027,
    "Ġhear": 1963,
    "penny": 22943,
    "Ġhill": 5626,
    "Ġsuper": 2154,
    "mixed": 15392,
    "Ġcomparable": 24277,
    "silence": 8045,
    "Ġjavelins": 26105,
    "incredible": 16497,
    "Ġpal": 4045,
    "Ġl": 303,
    "Ġointment": 21324,
    "Ġdrunkard": 20176,
    "Ġdismay": 11806,
    "search": 8464,
    "Ġwol": 15527,
    "ried": 926,
    "neighbours": 24881,
    "be": 667,
    "Ġunguarded": 15848,
    "Ġelij": 8907,
    "gain": 8736,
    "concent": 19478,
    "Ġgriefs": 16770,
    "Ġindefinitely": 25221,
    "Ġsubt": 11865,
    "upwards": 18863,
    "mass": 12486,
    "Ġexcite": 11963,
    "Ġearth": 2853,
    "bey": 10312,
    "Ġdamning": 19139,
    "Ġfurthest": 22812,
    "Ġnonsense": 6982,
    "Ġacqu": 1417,
    "Ġblameless": 19858,
    "lan": 15375,
    "i": 77,
    "Ġrequested": 14299,
    "forbid": 14349,
    "Ġmem": 2069,
    "gainst": 25141,
    "Ġinsinuating": 19270,
    "Ġtragedies": 25241,
    "uttered": 8441,
    "kward": 6958,
    "Ġacknowledge": 13400,
    "rust": 2581,
    "Ġnursing": 12211,
    "Ġglaring": 11905,
    "Ġcaptive": 14425,
    "measureless": 20234,
    "Ġderivatives": 2371,
    "Ġbushes": 16398,
    "Ġdeny": 7488,
    "Ġrecognised": 8994,
    "harbor": 13562,
    "Ġv": 399,
    "Ġmoods": 14949,
    "inst": 4293,
    "enthus": 17977,
    "oded": 11667,
    "Ġgoose": 5938,
    "Ġseventh": 18206,
    "Ġeloquent": 16107,
    "hens": 3942,
    "Ġdry": 5624,
    "erity": 21266,
    "Ġtrout": 22341,
    "Ġastern": 6091,
    "Ġrevenue": 26194,
    "Ġ111": 24435,
    "Ġillustrations": 17107,
    "Ġpretension": 23762,
    "Ġindignantly": 16938,
    "Ġdistances": 22502,
    "Ġconversing": 14632,
    "Ġfocused": 16339,
    "Ġspeaker": 19148,
    "Ġbucket": 8786,
    "Ġboyhood": 23753,
    "Ġpolluted": 25593,
    "Ġdisappoint": 24204,
    "Ġundertone": 23239,
    "Ġpetrified": 19595,
    "Ġwhispered": 5337,
    "Ġrecklessly": 16982,
    "Ġinterment": 22574,
    "Ġbraw": 23832,
    "Ġmy": 412,
    "Ġreadiness": 13046,
    "Ġevap": 19622,
    "descending": 16282,
    "Ġdipping": 15588,
    "Ġrucastles": 18721,
    "Ġross": 2766,
    "ductive": 23933,
    "Ġdictator": 20152,
    "Ġunduly": 25994,
    "bishop": 13692,
    "exceeded": 25001,
    "Ġdumplings": 15188,
    "Ġturkey": 19218,
    "Ġcopper": 7425,
    "ordinary": 4405,
    "handed": 7482,
    "istics": 1627,
    "bene": 6112,
    "Ġreposing": 23360,
    "Ġconsolidation": 5060,
    "Ġredundant": 16549,
    "Ġinvitation": 5189,
    "avern": 24792,
    "Ġshe": 466,
    "sil": 5282,
    "Ġobservant": 20108,
    "Ġpaunch": 23747,
    "Ġboiling": 8525,
    "granting": 23412,
    "Ġbre": 1913,
    "Ġancestors": 25642,
    "Ġboxed": 24359,
    "Ġsnatches": 16542,
    "Ġunexplored": 26517,
    "Ġclients": 19730,
    "rious": 11686,
    "Ġtwitch": 22674,
    "Ġmachinery": 20483,
    "unbe": 21870,
    "Ġdimension": 3240,
    "Ġshakes": 10903,
    "Ġheighten": 19528,
    "lacings": 26134,
    "Ġyer": 15730,
    "Ġmortals": 9914,
    "rown": 2191,
    "Ġhawaiian": 25366,
    "ction": 501,
    "Ġninety": 13599,
    "Ġlichen": 20090,
    "Ġrearing": 12673,
    "Ġsharply": 9401,
    "Ġbulge": 23855,
    "Ð": 145,
    "ominy": 13980,
    "Ġincomplete": 17207,
    "ions": 448,
    "accomp": 10454,
    "persecut": 22187,
    "Ġassociates": 24712,
    "prep": 9757,
    "Ġtoiling": 15631,
    "summit": 23415,
    "Ġabundant": 17153,
    "Ġreturning": 5325,
    "Ġplot": 14278,
    "sailors": 9920,
    "floor": 14934,
    "Ġhardship": 18913,
    "height": 21204,
    "Ġwear": 6031,
    "Ġoverwhelm": 25050,
    "Ġeuroclydon": 15294,
    "Ġassaults": 15154,
    "Ġselfishness": 12286,
    "Ġremoter": 20104,
    "Ġmultitude": 9323,
    "Ġrefill": 18700,
    "Ġwhosoever": 21717,
    "Ġlabour": 7274,
    "Ġexam": 3710,
    "degree": 12797,
    "Ġhorizon": 6632,
    "fiery": 13579,
    "Ġiceberg": 14714,
    "Ġblankets": 24612,
    "Ġbern": 17858,
    "fi": 12458,
    "Ġnegatived": 23044,
    "bee": 16033,
    "Ġacting": 10990,
    "Ġsteersman": 13038,
    "Ġpurses": 23475,
    "Ġtwisting": 18658,
    "Ġplush": 18609,
    "Ġwayward": 22871,
    "Ġastr": 15492,
    "plenty": 14086,
    "Ġubiqu": 18046,
    "Ġmeal": 9695,
    "Ġryder": 10258,
    "resent": 10768,
    "Ġahead": 6662,
    "uce": 11534,
    "pencil": 18827,
    "riage": 2124,
    "Ġarray": 12806,
    "assistant": 25567,
    "iceland": 21564,
    "Ġsatisf": 2808,
    "½": 126,
    "ezes": 9989,
    "door": 6193,
    "Ġused": 2059,
    "footsteps": 25199,
    "rec": 6004,
    "folding": 24927,
    "Ġconduct": 3732,
    "forster": 16156,
    "Ġfellows": 8257,
    "wretched": 10740,
    "Ġcanada": 22164,
    "Ġinitial": 823,
    "Ġblotted": 20216,
    "Ġmeekly": 26489,
    "Ġprofund": 13151,
    "Ġalien": 14016,
    "Ġremembering": 14609,
    "©": 107,
    "_)âĢĶ": 20143,
    "trad": 21075,
    "missionary": 24616,
    "Ġsolely": 9908,
    "Ġbashful": 20418,
    "heidelburgh": 21210,
    "Ġindependent": 9014,
    "acing": 2718,
    "Ġcetus": 19884,
    "Ġfolks": 14424,
    "itoring": 21330,
    "irregular": 21909,
    "Ġsuperl": 16444,
    "afforded": 25865,
    "Ġdefer": 18822,
    "Ġcrucial": 9890,
    "vering": 15712,
    "Ġstable": 2700,
    "Ġhurst": 5581,
    "miss": 3175,
    "Ġinsolent": 13598,
    "Ġsigns": 2444,
    "Ġvisitor": 5330,
    "Ġvibrating": 13536,
    "Ġbrigandish": 25487,
    "fur": 6355,
    "Ġkra": 18348,
    "Ġnotions": 14097,
    "Ġtwentieth": 18659,
    "ety": 3522,
    "Ġcorp": 5573,
    "acquaintance": 6938,
    "Ġrationally": 18215,
    "Ġunwritten": 22032,
    "Ġbernard": 20683,
    "nel": 11503,
    "Ġaccurately": 3931,
    "orified": 21400,
    "Ġexcel": 3568,
    "desper": 13066,
    "0": 20,
    "Ġglide": 22979,
    "Ġnug": 21523,
    "Ġfle": 3091,
    "Ġeddy": 13121,
    "pass": 4289,
    "inal": 15478,
    "Ġgnashed": 20131,
    "Ġoverhear": 15966,
    "Ġcrushing": 20175,
    "Ġvessels": 6755,
    "Ġfidgeted": 25889,
    "Ġloosened": 26002,
    "Ġlifeless": 8947,
    "Ġgarments": 15191,
    "Ġheave": 7599,
    "Ġagents": 9764,
    "Ġsteeply": 23722,
    "Ġclose": 3038,
    "Ġruddy": 17124,
    "Ġdismember": 20214,
    "rine": 21036,
    "Ġshoulders": 5565,
    "Ġallegor": 25545,
    "Ġmississippi": 20724,
    "indef": 17734,
    "Ġsupers": 18277,
    "Ġmealy": 18119,
    "Ġeddies": 23436,
    "oping": 5558,
    "arat": 9179,
    "Ġpalms": 8643,
    "conv": 7213,
    "Ġgaunt": 11267,
    "Ġmeaning": 1416,
    "shaped": 10307,
    "Ġeighty": 19474,
    "mm": 674,
    "Ġpassions": 7930,
    "Ġinconceivable": 17937,
    "icates": 11615,
    "omnipotent": 25966,
    "daughter": 8354,
    "ree": 873,
    "floating": 12224,
    "bale": 20773,
    "Ġoccupies": 24005,
    "oro": 21393,
    "izon": 18141,
    "cible": 20805,
    "she": 1398,
    "collinses": 19922,
    "Ġtennes": 23548,
    "icions": 21561,
    "Ġwollstonecraft": 26424,
    "Ġaddison": 14231,
    "Ġlearnt": 7614,
    "Ġdischarged": 15218,
    "inch": 10754,
    "Ġincumbent": 16059,
    "tee": 16167,
    "Ġdecidedly": 9507,
    "Ġhiding": 9821,
    "Ġboys": 5194,
    "Ġaperture": 26160,
    "ials": 11703,
    "Ġupbraided": 26527,
    "cannibals": 25584,
    "Ġafrica": 12342,
    "Ġshol": 21993,
    "Ġinser": 6820,
    "Ġdisconnected": 22523,
    "nights": 16447,
    "Ġembal": 11904,
    "Ġcont": 621,
    "Ġbowing": 10474,
    "Ġjava": 12309,
    "Ġcrown": 5287,
    "Ġstayed": 7998,
    "Ġquee": 1977,
    "Ġskip": 1844,
    "innacle": 7519,
    "Ġmig": 13854,
    "Ġacts": 2296,
    "myster": 16261,
    "ogy": 22697,
    "Ġcrumpled": 16440,
    "Ġslate": 11935,
    "Ġnugent": 26456,
    "Ġsecretly": 13268,
    "smitten": 23906,
    "Ġemploys": 19429,
    "lott": 6650,
    "amount": 10883,
    "Ġproject": 5545,
    "ellow": 3878,
    "heed": 15496,
    "inexplicable": 25809,
    "Ġbil": 15561,
    "Ġrake": 18643,
    "ese": 4441,
    "Ġaccompany": 9485,
    "Ġrepute": 18034,
    "Ġapologies": 25196,
    "Ġresolved": 3799,
    "mere": 11853,
    "Ġredress": 23750,
    "Ġvales": 21944,
    "ater": 3370,
    "etics": 21579,
    "Ġdarkness": 4276,
    "Ġpainter": 19167,
    "Ġoutput": 929,
    "Ġcommonplaces": 16286,
    "inable": 11554,
    "Ġfe": 491,
    "calmly": 20138,
    "Ġcope": 17830,
    "wick": 5362,
    "Ġreport": 6191,
    "Ġadjusted": 23457,
    "surrounded": 26088,
    "Ġquenched": 22415,
    "Ġmost": 1020,
    "skinned": 25387,
    "Ġindebted": 8707,
    "Ġmorals": 22968,
    "violets": 23542,
    "medical": 23338,
    "Ġsteal": 16281,
    "legged": 10465,
    "Ġ40": 14767,
    "Ġindians": 14407,
    "Ġmany": 1104,
    "Ġsiber": 17754,
    "Ġceiling": 7997,
    "Ġbust": 10166,
    "Ġhumiliating": 22882,
    "Ġimputable": 22171,
    "Ġlabelled": 23327,
    "Ġtelegram": 15221,
    "lights": 13203,
    "Ġthroughout": 8875,
    "Ġvillanous": 24053,
    "copper": 19187,
    "Ġearly": 2078,
    "Ġconting": 18472,
    "Ġquarters": 8619,
    "abular": 4762,
    "Ġblueprints": 13169,
    "Ġminers": 22829,
    "Ġbars": 13895,
    "Ġringing": 13329,
    "Ġwhilst": 9217,
    "instance": 24167,
    "Ġborder": 10168,
    ":âĢĶ": 4429,
    "),": 1347,
    "Ġalteration": 9544,
    "Ġbureau": 11588,
    "Ġmam": 8405,
    "Ġcomprised": 14266,
    "Ġontario": 26205,
    "rather": 5430,
    "Ġsoup": 7067,
    "Ġsoothed": 10027,
    "Ġbest": 1972,
    "Ġobtruded": 20721,
    "Ġcrazed": 19174,
    "Ġramadan": 9574,
    "intercourse": 14637,
    "Ġglad": 3326,
    "Ġscared": 14188,
    "Ġmean": 742,
    "Ġenig": 15796,
    "indifferent": 14207,
    "Ġconfed": 13094,
    "Ġjunk": 15950,
    "band": 3060,
    "Ġnewcom": 16219,
    "Ġgrampus": 21991,
    "Ġdegenerated": 20504,
    "Ġincant": 18568,
    "Ġgenteel": 19979,
    "levi": 7047,
    "Ġwapping": 21293,
    "Ġvacancy": 9043,
    "Ġspell": 8854,
    "trained": 4238,
    "Ġiii": 7861,
    "Ġapo": 9629,
    "Ġdespond": 14666,
    "plings": 11692,
    "satisfaction": 9990,
    "Ġoriental": 9095,
    "Ġseating": 18201,
    "Ġrepe": 3280,
    "draul": 9441,
    "itations": 17817,
    "Ġmaelstrom": 19354,
    "Ġtowns": 11172,
    "Ġpull": 5152,
    "Ġbustle": 17226,
    "Ġsparkling": 11355,
    "Ġdissembling": 26254,
    "Ġskulls": 12956,
    "Ġabstained": 25231,
    "Ġattendant": 11284,
    "yramid": 8368,
    "Ġstreatham": 17447,
    "sw": 4741,
    "Ġtheorem": 2327,
    "Ġthread": 14538,
    "Ġlines": 4531,
    "Ġembod": 14412,
    "ain": 343,
    "Ġdeft": 21834,
    "Ġguarded": 9824,
    "Ġsample": 3179,
    "Ġcoun": 4178,
    "Ġenl": 18188,
    "nelson": 25620,
    "Ġm": 274,
    "jur": 17577,
    "Ġrecommence": 16811,
    "Ġpruning": 18970,
    "ography": 13360,
    "Ġtormenting": 15102,
    "writer": 14647,
    "late": 11497,
    "%": 9,
    "oop": 10714,
    "Ġheroism": 24543,
    "itchen": 7788,
    "ask": 857,
    "Ġhurrying": 11991,
    "ounding": 22382,
    "gling": 10096,
    "Ġamelia": 26250,
    "Ġcottagers": 6761,
    "Ġunmingled": 18266,
    "god": 4863,
    "Ġsubterraneous": 20264,
    "mn": 3577,
    "Ġnovel": 6695,
    "Ġnar": 7375,
    "insupportable": 21192,
    "Ġhot": 4256,
    "Ġdisorder": 16048,
    "tall": 17672,
    "Ġproblems": 2850,
    "Ġcolt": 11042,
    "proper": 7471,
    "Ġfoul": 7159,
    "arken": 18667,
    "moderate": 22835,
    "Ġmust": 845,
    "Ġcorpulence": 24505,
    "^": 66,
    "Ġdismal": 11807,
    "Ġmeditate": 16681,
    "Ġtumble": 16878,
    "roy": 7854,
    "Ġcivilly": 19602,
    "Ġecho": 12662,
    "Ġpreferment": 19852,
    "acious": 5561,
    "Ġresounded": 22542,
    "moon": 10334,
    "Ġsiamese": 20481,
    "flies": 19422,
    "philosophers": 25252,
    "Ġexhilarating": 26337,
    "Ġconver": 805,
    "utarch": 15658,
    "Ġstruggle": 3675,
    "Ġholy": 6591,
    "atched": 6375,
    "Ġlye": 21549,
    "Ġprophetic": 20018,
    "bearance": 22491,
    "Ġsacrificed": 17420,
    "Ġexcl": 3476,
    "Ġirish": 14533,
    "uned": 21869,
    "Ġdusk": 12324,
    "Ġagreeable": 4549,
    "Ġeasiest": 23536,
    "coarse": 16486,
    "Ġpunctures": 25133,
    "Ġcrossed": 6069,
    "Ġwid": 4631,
    "Ġfairness": 9891,
    "orses": 6052,
    "landish": 11939,
    "iforn": 14062,
    "Ġscrutiny": 26015,
    "Ġcharms": 11129,
    "exc": 5169,
    "Ġsnaky": 23740,
    "comprehensive": 20625,
    "recovered": 19786,
    "Ġescort": 23503,
    "Ġguido": 2981,
    "Ġfurniture": 6476,
    "peter": 24297,
    "Ġashamed": 6403,
    "quarter": 11387,
    "Ġwound": 4525,
    "Ġalbertus": 25648,
    "Ġunst": 18241,
    "ollen": 11297,
    "Ġcorruption": 15223,
    "Ġartist": 12908,
    "Ġprofits": 16488,
    "Ġreward": 6144,
    "Ġobey": 9517,
    "mid": 5616,
    "Ġfreckled": 18960,
    "family": 7324,
    "Ġjackson": 24239,
    "pred": 2803,
    "Ġungracious": 18261,
    "thrill": 25656,
    "Ġtrump": 8195,
    "Ġenters": 11024,
    "Ġbaker": 4694,
    "Ġendow": 23142,
    "Ġtouch": 3395,
    "official": 24914,
    "Ġhummed": 18778,
    "Ġwithhold": 18115,
    "rice": 13775,
    "ked": 5615,
    "direct": 12453,
    "Ġpall": 7582,
    "ques": 2842,
    "attracted": 13047,
    "Ġbedfellow": 16435,
    "Ġnaturally": 2469,
    "ounds": 4158,
    "obliged": 20630,
    "Ġindign": 6173,
    "fortunately": 9449,
    "Ġtrample": 20326,
    "Ġindependence": 12101,
    "aches": 6570,
    "Ġattentively": 9948,
    "Ġequalled": 13310,
    "urns": 10212,
    "birds": 15142,
    "Ġtransport": 11277,
    "Ġrector": 21674,
    "Ġcapacity": 10439,
    "mar": 4333,
    "sight": 5995,
    "Ġpart": 860,
    "Ġenlar": 15797,
    "ek": 1906,
    "Ġmillion": 14985,
    "Ġfun": 524,
    "Ġrug": 16154,
    "y": 93,
    "men": 1487,
    "Ġplunder": 22600,
    "conditional": 9077,
    "Ġestimation": 11217,
    "Ġdetestable": 15096,
    "Ġself": 1778,
    "Ġetext": 23947,
    "Ġmischief": 8541,
    "Ġbeadle": 26483,
    "recurring": 24193,
    "Ġepidemic": 20694,
    "Ġsauntering": 18327,
    "Ġdecisive": 18485,
    "Ġfactory": 23275,
    "Ġcoop": 14268,
    "swam": 24253,
    "wait": 11319,
    "him": 1937,
    "Ġtrained": 8502,
    "Ġatone": 15799,
    "finger": 10092,
    "resting": 23235,
    "kee": 18273,
    "Ġcarpent": 4463,
    "countless": 24149,
    "fe": 673,
    "Ġbennett": 16321,
    "Ġfad": 17876,
    "Ġcounterbalance": 24722,
    "Ġignorance": 6618,
    "Ġincrust": 22548,
    "pitchpoling": 25725,
    "correct": 24482,
    "Ġdrunken": 12047,
    "schoolmaster": 15159,
    "Ġload": 14144,
    "Ġsmacking": 20164,
    "Ġlay": 584,
    "icirc": 15652,
    "Ġbasin": 19847,
    "herfield": 3630,
    "reflections": 24735,
    "Ġmutable": 23952,
    "Ġprogeny": 17386,
    "Ġchimneys": 16971,
    "Ġdelay": 5748,
    "Ġmincing": 18750,
    "Ġeul": 21616,
    "Ġgradients": 612,
    "relieved": 13274,
    "Ġvigorously": 11298,
    "Ġpestilent": 25777,
    "Ġrelentless": 26277,
    "athom": 12936,
    "Ġbohemian": 17132,
    "Ġvagabond": 20202,
    "preserver": 20212,
    "Ġsensationalism": 26066,
    "orable": 8120,
    "cho": 2762,
    "supportable": 12367,
    "about": 3587,
    "Ġtown": 2457,
    "heric": 15908,
    "Ġweary": 5635,
    "Ġembellish": 25848,
    "adler": 21760,
    "mens": 20968,
    "Ġcannibals": 10586,
    "Ġprisoner": 8672,
    "coming": 3563,
    "Ġafar": 14290,
    "Ġmonosyllable": 20725,
    "and": 372,
    "bearer": 18518,
    "inkers": 22616,
    "Ġconvul": 13201,
    "3": 23,
    "Ġweather": 4002,
    "Ġunwillingly": 15846,
    "Ġspe": 822,
    "watery": 19825,
    "Ġphase": 14470,
    "Ġincreasing": 8247,
    "Ġmoisture": 12356,
    "ilities": 6991,
    "Ġsunday": 7270,
    "doubt": 6782,
    "iger": 8446,
    "Ġcarpenter": 4683,
    "Ġseething": 18203,
    "Ġpour": 13912,
    "springing": 24889,
    "cheer": 9435,
    "Ġabomination": 22276,
    "Ġscales": 4849,
    "Ġtortures": 14921,
    "amet": 581,
    "Ġanticipating": 17057,
    "Ġneighbors": 25804,
    "Ġseedy": 21960,
    "Ġrecover": 9789,
    "Ġpanelled": 19653,
    "overs": 17620,
    "narrowly": 20346,
    "Ġvess": 3296,
    "Ġdetermines": 2368,
    "fork": 20856,
    "Ġhearing": 4761,
    "mong": 15387,
    "Ġcontempl": 6701,
    "Ġsail": 1674,
    "_).âĢĶ": 8681,
    "ception": 6562,
    "phil": 7926,
    "Ġdent": 13904,
    "abilizing": 2927,
    "Ġyelling": 18096,
    "Ġtradesman": 20071,
    "shutters": 20312,
    "ognit": 19192,
    "Ġanimal": 2500,
    "conven": 6162,
    "Ġresid": 22536,
    "alid": 13933,
    "vessels": 10624,
    "Ġleaders": 16626,
    "thest": 11652,
    "Ġisolated": 13557,
    "angs": 5834,
    "cowardly": 25749,
    "edy": 2861,
    "create": 24158,
    "ulated": 6030,
    "Ġapplied": 6186,
    "Ġpepper": 9779,
    "Ġglades": 19370,
    "Ġmakes": 3651,
    "Ġidler": 16403,
    "gaining": 20122,
    "Ġinvoluntary": 18767,
    "Ġsoo": 15858,
    "ocations": 23706,
    "Ġterr": 3273,
    "valuable": 8249,
    "Ġstru": 2170,
    "Ġnecess": 3477,
    "Ġevil": 3809,
    "Ġtimor": 24223,
    "Ġinexpressible": 17331,
    "Ġdouble": 4940,
    "both": 5785,
    "Ġlump": 21550,
    "rel": 3756,
    "Ġcatastrop": 3348,
    "arle": 21439,
    "Ġunhinged": 26216,
    "Ġsuperglue": 23456,
    "Ġkidn": 20204,
    "umbered": 22115,
    "isions": 6130,
    "Ġsending": 8774,
    "anch": 15556,
    "Ġsubstituting": 26326,
    "Ġhardships": 14449,
    "Ġbalancing": 2431,
    "ta": 13787,
    "Ġensigns": 23688,
    "oker": 10962,
    "column": 19328,
    "Ġfeelingly": 22995,
    "Ġsanity": 24981,
    "acet": 5476,
    "pure": 17625,
    "jee": 17578,
    "Ġclad": 12839,
    "Ġchimney": 6497,
    "continue": 16860,
    "jump": 10102,
    "Ġintending": 11701,
    "Ġmilk": 6485,
    "latitudes": 17195,
    "placidity": 25988,
    "gument": 20884,
    "Ġguar": 23042,
    "Ġharpooned": 13259,
    "Ġflower": 16229,
    "superiority": 20184,
    "glance": 16585,
    "Ġdynam": 2951,
    "Ġprovocation": 24190,
    "Ġresnet": 5473,
    "/(": 2986,
    "delirium": 14783,
    "Ġwinds": 5746,
    "luded": 4227,
    "Ġstriking": 6089,
    "brance": 7284,
    "Ġexclaimed": 4681,
    "Ġprone": 18968,
    "Ġofficious": 19346,
    "nder": 20986,
    "Ġthinks": 6169,
    "Ġrestrictions": 20634,
    "structure": 2267,
    "Ġscrewing": 20207,
    "Ġetern": 7085,
    "Ġgardens": 16451,
    "Ġmiracle": 15091,
    "Ġuntimely": 16465,
    "Ġdisappointment": 6626,
    "Ġproportional": 2526,
    "Ġmonstr": 7667,
    "ellent": 3763,
    "westward": 25424,
    "Ġstripping": 23695,
    "Ġdull": 6384,
    "t": 88,
    "Ġeligible": 10669,
    "Ġenlarge": 21933,
    "Ġaval": 15491,
    "bone": 5611,
    "Ġaccost": 12842,
    "err": 1144,
    "Ġbourgh": 5069,
    "bedroom": 14675,
    "Ġgpt": 4348,
    "noble": 7923,
    "perishing": 22184,
    "respective": 19845,
    "ure": 356,
    "Ġstoop": 16308,
    "ħ": 232,
    "Ġeavesdroppers": 25963,
    "Ġlur": 5226,
    "Ġdressing": 7090,
    "surf": 24211,
    "dar": 20823,
    "Ġbent": 5149,
    "Ġjewelled": 20182,
    "Ġ66": 24368,
    "ernally": 22607,
    "Ġunquestion": 18251,
    "Ġquadrant": 11403,
    "Ġscaled": 2105,
    "Ġhurling": 19110,
    "Ġelixir": 26554,
    "Ġperfect": 2556,
    "Ġvernal": 23886,
    "Ġbrighter": 16185,
    "fain": 13713,
    "Ġbill": 4044,
    "Ġfirst": 937,
    "mockery": 24377,
    "undoubtedly": 13309,
    "wake": 11544,
    "iform": 2201,
    "berwell": 22720,
    "Ġsticking": 13425,
    "Ġlisten": 4672,
    "Ġstructure": 836,
    "ipelag": 12838,
    "sect": 8153,
    "18": 20750,
    "Ġsome": 656,
    "Ġspam": 7630,
    "Ġtenth": 13823,
    "investigations": 25533,
    "âĢĻ,": 14070,
    "tout": 21064,
    "Ġconsec": 21803,
    "gi": 17550,
    "Ġits": 706,
    "Ġtech": 1647,
    "Ġashore": 5351,
    "Ġagile": 22511,
    "taller": 26150,
    "Ġquart": 11784,
    "answers": 22138,
    "Ġpieces": 7369,
    "Ġgrew": 5182,
    "anywhere": 14681,
    "unusually": 15776,
    "Ġhaul": 11689,
    "Ġaccused": 8507,
    "Ġunt": 2294,
    "Ġhateful": 19712,
    "hears": 12529,
    "tedious": 22630,
    "rmsprop": 4519,
    "Ġreliably": 22878,
    "stalls": 26472,
    "Ġneglect": 7942,
    "Ġrest": 1781,
    "Ġinhospit": 25452,
    "Ġcring": 15548,
    "rumours": 23897,
    "most": 1256,
    "tol": 17671,
    "downstairs": 23917,
    "Ġleatherhead": 20012,
    "Ġsurpr": 2550,
    "damn": 20022,
    "precedented": 15172,
    "Ġupset": 22151,
    "happ": 3104,
    "ksome": 10103,
    "thes": 7391,
    "Ġdeposited": 25484,
    "succeeded": 15173,
    "whiteness": 18370,
    "Ġsquatted": 25841,
    "Ġnupt": 13941,
    "gal": 15353,
    "Ġdetective": 14409,
    "hills": 13734,
    "accessory": 25499,
    "Ġstubb": 1785,
    "unlike": 18156,
    "Ġseeks": 14300,
    "umblings": 23927,
    "kshire": 13744,
    "Ġempty": 5353,
    "Ġpubl": 3945,
    "Ġwise": 6811,
    "education": 20300,
    "Ġperennial": 22692,
    "Ġblotches": 25314,
    "ross": 808,
    "flakes": 23965,
    "grand": 7970,
    "Ġbeheld": 4490,
    "Ġhipp": 21490,
    "creat": 20799,
    "Ġgunwale": 7325,
    "Ġrange": 9710,
    "Ġdinner": 4243,
    "Ġoily": 13862,
    "precision": 4329,
    "Ġinducement": 16842,
    "abhorred": 17334,
    "ban": 9583,
    "Ġcult": 8780,
    "Ġat": 395,
    "advice": 12154,
    "edily": 17943,
    "latter": 15380,
    "Ġdiffused": 12065,
    "Ġsembl": 19057,
    "arling": 10813,
    "Ġplu": 8797,
    "Ġlightness": 23259,
    "Ġcosy": 13128,
    "Ġglistening": 12362,
    "Ġancient": 5443,
    "othed": 16510,
    "Ġincarnation": 25573,
    "died": 10692,
    "Ġ182": 13234,
    "Ġsource": 6805,
    "hello": 13361,
    "Ġmaternal": 11058,
    "observed": 7675,
    "Ġcrane": 23438,
    "Ġpope": 11599,
    "cases": 12444,
    "ô": 181,
    "Ġsing": 3074,
    "cturn": 17986,
    "Ġhedgehogs": 25394,
    "Ġmuffled": 10639,
    "Ġhappier": 10357,
    "Ġvoc": 4448,
    "whip": 22235,
    "separated": 20158,
    "Ġxlvi": 25590,
    "Ġperdition": 15989,
    "Ġanalytical": 22877,
    "ten": 1558,
    "erxes": 21274,
    "Ġremains": 4910,
    "road": 6677,
    "Ġtickled": 20055,
    "welcomed": 24644,
    "â": 163,
    "hee": 10759,
    "they": 1879,
    "Ġflog": 23623,
    "Ġunivers": 2126,
    "Ġaerial": 21197,
    "Ġinterested": 6458,
    "Ġjub": 22293,
    "Ġexceedingly": 4611,
    "Ġecstasy": 11628,
    "ynolds": 10034,
    "Ġscope": 15940,
    "ifying": 5235,
    "Ġtroubling": 26545,
    "agos": 21902,
    "Ġarmed": 9258,
    "Ġsoot": 14130,
    "Ġsold": 6003,
    "ă": 196,
    "Ġtip": 15469,
    "Ġunwarrantable": 26353,
    "Ġbermud": 26438,
    "Ġairth": 23315,
    "ari": 670,
    "Ġunwinding": 22058,
    "Ġhundred": 2695,
    "hollow": 24039,
    "Ġdeposed": 16084,
    "kings": 17582,
    "Ġpiazza": 26449,
    "itig": 1329,
    "Ġstones": 9220,
    "visit": 7755,
    "Ġmort": 3460,
    "Ġartic": 5314,
    "Ġrigid": 16715,
    "Ġthan": 737,
    "vac": 15448,
    "Ġaboard": 6697,
    "woman": 5899,
    "ifers": 15778,
    "Ġpitiless": 19386,
    "gang": 17552,
    "iced": 3903,
    "this": 1439,
    "Ġshoving": 23487,
    "Ġgreatly": 5849,
    "Ġbroiled": 18908,
    "Ġheadland": 22893,
    "quaker": 15759,
    "Ġreproof": 24890,
    "Ġcaptiv": 16256,
    "Ġpartake": 18670,
    "many": 5250,
    "Ġlordly": 23742,
    "paus": 13771,
    "Ġsatan": 14388,
    "north": 14614,
    "Ġglided": 7447,
    "Ġsandwic": 24664,
    "anc": 6379,
    "gyric": 19109,
    "accur": 14592,
    "Ġ134": 24784,
    "leaning": 10789,
    "Ġintrospective": 20599,
    "Ġeuroc": 14957,
    "toes": 22562,
    "Ġmazes": 25940,
    "unquiet": 21879,
    "Ġevian": 24291,
    "Ġproceed": 3242,
    "Ġmccarthys": 19661,
    "Ġfettered": 24567,
    "Ġsill": 10764,
    "Ġflukes": 5266,
    "Ġsurmount": 19999,
    "Ġunw": 8848,
    "Ġcaps": 8415,
    "Ġmeddling": 24082,
    "rushing": 10016,
    "Ġcolumn": 9326,
    "strip": 19829,
    "ology": 1556,
    "Ġprofundities": 20452,
    "Ġmutiny": 13257,
    "ilations": 21720,
    "Ġmurky": 19201,
    "example": 16010,
    "nue": 15395,
    "stream": 15682,
    "crown": 13696,
    "Ġconvergence": 973,
    "remind": 23188,
    "Ġthing": 1636,
    "Ġheads": 3739,
    "Ġgrief": 4618,
    "Ġtongues": 14861,
    "accompl": 9878,
    "enter": 7858,
    "disappointment": 11424,
    "Ġantagonist": 26328,
    "Ġgroves": 16739,
    "allest": 5485,
    "linked": 17592,
    "Ġforbear": 17120,
    "Ġprice": 10402,
    "leton": 5148,
    "amouch": 21843,
    "gard": 7339,
    "Ġperfection": 19217,
    "Ġincognit": 22552,
    "safety": 20348,
    "Ġdup": 21426,
    "Ġmodest": 15914,
    "Ġundoubtedly": 8313,
    "air": 1000,
    "Ġwell": 903,
    "body": 2308,
    "Ġimm": 3970,
    "ioneer": 15628,
    "Ġclamorous": 24909,
    "attain": 21260,
    "ument": 5240,
    "data": 2326,
    "Ġprey": 6415,
    "scr": 16237,
    "ig": 322,
    "Ġreflect": 6575,
    "Ġtowed": 11264,
    "Ġbruised": 25772,
    "Ġlocks": 11721,
    "Ġbolted": 12241,
    "Ġperishing": 22395,
    "Ġguardian": 14940,
    "ni": 1622,
    "Ġbrist": 14376,
    "blue": 13691,
    "Ġcomput": 603,
    "Ġceases": 19312,
    "eping": 5833,
    "Ġforked": 11662,
    "Ġspanish": 2829,
    "Ġjournal": 15216,
    "Ġnoses": 18372,
    "Ġencountered": 8322,
    "21": 10070,
    "Ġrecollected": 8311,
    "devouring": 24950,
    "Ġsomnam": 23003,
    "Ġhypotheses": 4384,
    "aced": 2408,
    "few": 8203,
    "Ġlies": 5295,
    "Ġincorporate": 20453,
    "Ġcaution": 11345,
    "Ġcontradictory": 20395,
    "orne": 17872,
    "abode": 21789,
    "Ġensure": 23687,
    "recollected": 25347,
    "umerable": 11722,
    "oled": 17618,
    "Ġadjac": 18292,
    "Ġmotion": 4563,
    "furniture": 20241,
    "pow": 10716,
    "seals": 21816,
    "Ġtrooped": 24899,
    "Ġcircle": 4977,
    "Ġtypewriter": 19097,
    "southern": 20407,
    "leeward": 15208,
    "Ġmightiest": 12957,
    "uous": 4146,
    "equal": 14991,
    "Ġdotted": 16791,
    "Ġperiodically": 19493,
    "Ġpreliminaries": 25176,
    "Ġwithout": 1122,
    "gen": 6503,
    "Ġcondition": 6764,
    "aux": 14286,
    "etch": 9203,
    "Ġhuge": 4698,
    "Ġformality": 22826,
    "Ġweeds": 21921,
    "pockets": 16208,
    "Ġmomentous": 16166,
    "Ġperiodical": 14771,
    "Ġconstantly": 11969,
    "Ġfisheries": 17436,
    "bbs": 23691,
    "Ġfainter": 14912,
    "resentment": 15183,
    "Ġembarks": 22977,
    "wig": 17703,
    "Ġprograms": 7239,
    "Ġincreasingly": 9369,
    "Ġfought": 12589,
    "robber": 21535,
    "Ġcredulous": 17143,
    "Ġyellowish": 24429,
    "itic": 11576,
    "Ġevent": 2955,
    "ter": 359,
    "==": 944,
    "jected": 22710,
    "prim": 23807,
    "Ġforms": 6397,
    "Ġpaddington": 17094,
    "full": 7420,
    "Ġplayfully": 19238,
    "Ġbelieving": 8225,
    "Ġglimmered": 20170,
    "unwilling": 14059,
    "Ġscorn": 7902,
    "Ġwestmorland": 24389,
    "Ġdraw": 3670,
    "Ġapp": 498,
    "Ġshowers": 16604,
    "Ġvenge": 5420,
    "Ġcomical": 11678,
    "intended": 11065,
    "Ġfishermen": 5971,
    "forget": 11030,
    "cold": 9588,
    "ect": 381,
    "Ġhuzza": 12629,
    "Ġ199": 3013,
    "furthest": 19840,
    "Ġcorroborated": 26054,
    "Ġstays": 16559,
    "bitterly": 20336,
    "Ġawkward": 7073,
    "Ġen": 392,
    "Ġencounters": 19579,
    "bec": 4056,
    "Ġvibration": 17098,
    "Ġmister": 22751,
    "descend": 23084,
    "Ġfre": 1572,
    "astonishment": 10028,
    "Ġoperated": 14546,
    "Ġobstacles": 19834,
    "Ġrio": 23889,
    "shad": 10981,
    "pointing": 12221,
    "chie": 21688,
    "Ġdeception": 18139,
    "Ġalfred": 21784,
    "hint": 12472,
    "Ġscrewed": 15118,
    "direction": 17523,
    "Ġonto": 14030,
    "Ġsincerity": 13676,
    "zwilliam": 5074,
    "Ġy": 341,
    "looking": 4037,
    "ue": 1180,
    "unders": 13308,
    "enty": 2919,
    "Ġcrisis": 13124,
    "Ġlanc": 19763,
    "urned": 9304,
    "Ġaccommodate": 20515,
    "Ġlover": 7193,
    "Ġdowncast": 18652,
    "simon": 16972,
    "Ġintentions": 10606,
    "Ġbount": 15564,
    "dient": 441,
    "Ġboarded": 13231,
    "Ġstr": 752,
    "Ġmor": 1249,
    "Ġbrew": 23343,
    "Ġcarter": 18900,
    "Ġstra": 2995,
    "enterprise": 24994,
    "Ġdisadvantages": 18558,
    "Ġdawn": 6816,
    "Ġregular": 932,
    "Ġannals": 17898,
    "Ġnieces": 8433,
    "Ġgreater": 3039,
    "inging": 5907,
    "Ġbelieved": 4365,
    "Ġkitchen": 8495,
    "Ġballarat": 14717,
    "but": 592,
    "ver": 331,
    "significant": 25082,
    "Ġreference": 2567,
    "Ġcontract": 18475,
    "ĠĊ": 12519,
    "Ġfreedom": 9081,
    "Ġdeduced": 12204,
    "canoes": 16227,
    "Ġrender": 8305,
    "antic": 1604,
    "Ġmaddened": 17243,
    "Ġqualified": 14948,
    "er": 269,
    "soldiers": 25911,
    "Ġindustry": 18836,
    "Ġcomplet": 4420,
    "sitting": 8387,
    "Ġfollow": 1397,
    "Ġcommotion": 9778,
    "aud": 8521,
    "igh": 2027,
    "Ġhitting": 21485,
    "Ġindulge": 10581,
    "urer": 18121,
    "mechanically": 17298,
    "ivation": 3111,
    "aimed": 3957,
    "events": 12314,
    "Ġrank": 6258,
    "Ġleak": 2160,
    "response": 25762,
    "Ġtoilings": 24742,
    "pleased": 8852,
    "Ġlongitude": 11010,
    "Ġasked": 2276,
    "hair": 9121,
    "Ġlowers": 23241,
    "Ġabroad": 8864,
    "Ġmau": 21309,
    "Ġdescription": 7429,
    "Ġeyed": 12663,
    "aus": 1501,
    "ven": 780,
    "Ġwarehouse": 20415,
    "Ġtombed": 25160,
    "ely": 624,
    "Ġrudimental": 25108,
    "Ġmoody": 8201,
    "shrugged": 22458,
    "Ġperry": 22394,
    "Ġprocuring": 16867,
    "Ġelucidated": 26029,
    "Ġhousekeeping": 18944,
    "Ġlagged": 21556,
    "Ġrepay": 19081,
    "Ġnoisy": 13316,
    "Ġoctober": 17225,
    "Ġgourmand": 26465,
    "Ġadmiring": 16479,
    "Ġwishes": 4795,
    "Ġboundary": 11221,
    "Ġsepulchre": 20558,
    "Ġaddition": 1149,
    "clopÃ¦": 13052,
    "poises": 11886,
    "Ġcertain": 1559,
    "Ġgoblet": 25823,
    "Ġmorsel": 20676,
    "iny": 4292,
    "approaching": 15010,
    "Ġcountenance": 3975,
    "solved": 7685,
    "Ġimaginative": 19246,
    "persu": 8028,
    "Ġirresolution": 24915,
    "Đ": 209,
    "soo": 18687,
    "Ġtahiti": 13617,
    "chat": 21684,
    "hes": 1399,
    "Ġdiet": 13908,
    "frankly": 20020,
    "Ġdepths": 4324,
    "ailing": 7021,
    "oarsman": 25261,
    "Ġpoky": 21477,
    "Ġrent": 11637,
    "Ġcaroline": 7255,
    "Ġshaft": 18229,
    "Ġmorning": 1747,
    "Ġcrowned": 16840,
    "Ġout": 543,
    "Ġfanatic": 23390,
    "Ġbuilt": 8301,
    "Ġverbal": 19377,
    "Ġagencies": 18541,
    "Ġboasting": 19934,
    "rift": 11518,
    "Ġath": 15798,
    "Ġsciences": 15941,
    "Ġatlantic": 7000,
    "Ġplant": 8898,
    "po": 1140,
    "pse": 21008,
    "Ġrheum": 18216,
    "Ġtrap": 7672,
    "Ġvigil": 9505,
    "Ġimmovable": 15889,
    "Ġsociety": 3982,
    "Ġimmeasurable": 26229,
    "renched": 7908,
    "Ġunprepared": 22048,
    "Ġpict": 3500,
    "<SOS>": 1,
    "Ġwhipcord": 20093,
    "saddest": 25527,
    "Ġsouthampton": 24306,
    "**": 4684,
    "umer": 9256,
    "uded": 6285,
    "tese": 21082,
    "uendoes": 26406,
    "Ġcorroded": 18875,
    "weep": 22682,
    "Ġnamed": 6139,
    "Ġindistinctly": 26117,
    "acknowledge": 18468,
    "Ġque": 4160,
    "glim": 19363,
    "Ġdependency": 3490,
    "Ġtasks": 1787,
    "hmael": 7342,
    "Ġcyp": 21343,
    "âĢĿâĢĶ": 5721,
    "Ġsenseless": 12075,
    "Ġinvoluntarily": 8548,
    "Ġconclude": 8580,
    "Ġneglected": 10376,
    "although": 8804,
    "Ġsplin": 8618,
    "bul": 6951,
    "Ġhop": 1461,
    "Ġvel": 7186,
    "Ġdomains": 6611,
    "buried": 14847,
    "Ġpertin": 18449,
    "Ġsailing": 5323,
    "ample": 1367,
    "Ġ77": 24262,
    "Ġdescrying": 18618,
    "Ġkicks": 19767,
    "Ġunjustifiable": 25109,
    "Ġcons": 954,
    "Ġcontemplation": 11356,
    "Ġassurances": 9998,
    "phon": 4129,
    "Ġexploring": 4303,
    "Ġte": 1145,
    "Ġdrunk": 9422,
    "doms": 20834,
    "Ġmoonshine": 19596,
    "Ġmice": 13857,
    "Ġniece": 5712,
    "increase": 20267,
    "Ġneg": 1330,
    "Ġentrances": 25834,
    "Ġensuing": 12306,
    "Ġknocking": 10558,
    "Ġaud": 6661,
    "Ġmiles": 3807,
    "created": 12447,
    "Ġaffidavit": 20723,
    "Ġcongratulations": 10579,
    "liness": 8746,
    "Ġreluct": 14370,
    "estate": 12817,
    "Ġquench": 22417,
    "Ġlivers": 18461,
    "plain": 1360,
    "¥": 103,
    "venerable": 26407,
    "Ġperiod": 4009,
    "Ġbegins": 7244,
    "Ġsay": 934,
    "ming": 3601,
    "Ġxxxi": 24968,
    "Ġrubber": 22785,
    "Ġdeceased": 15005,
    "Ġcargo": 16287,
    "Ġfuture": 1092,
    "Ġenderby": 13649,
    "numerous": 17429,
    "sych": 9893,
    "Ġcasement": 25092,
    "Ġdevelopments": 23211,
    "Ġhearts": 4972,
    "Ġsailor": 3537,
    "Ġgoug": 17990,
    "Ġembellished": 25849,
    "Ġformations": 18748,
    "Ġlance": 4879,
    "Ġhump": 5853,
    "result": 12041,
    "aken": 1869,
    "Ġbethinking": 25279,
    "consumed": 25676,
    "Ġpallor": 13514,
    "Ġlocations": 12410,
    "iverse": 13113,
    "Ġevening": 2653,
    "dispute": 23497,
    "Ġcham": 4892,
    "cup": 10689,
    "rub": 15890,
    "Ġug": 8141,
    "che": 3173,
    "Ġsupposition": 9815,
    "Ġmurderers": 16810,
    "Ġfighting": 12194,
    "Ġhereby": 10356,
    "âĢĶ(": 15935,
    "althy": 8432,
    "allowed": 5728,
    "Ġty": 6657,
    "Ġsplashed": 23746,
    "mus": 10109,
    "Ġensemble": 1607,
    "Ġexamined": 6334,
    "profound": 16423,
    "beer": 22485,
    "elter": 21569,
    "Ġmentioning": 9897,
    "Ġreplaced": 13069,
    "lined": 12480,
    "erness": 6434,
    "Ġsucceeded": 6105,
    "Ġleft": 1761,
    "Ġscenery": 11455,
    "Ġpinioned": 21480,
    "Ġinstrum": 6055,
    "¯": 112,
    "Ġranks": 21970,
    "contrivance": 26316,
    "scruple": 26044,
    "Ġinsignific": 13178,
    "Ġconjugal": 25101,
    "Ġ[": 6967,
    "Ġcommands": 16588,
    "Ġdev": 878,
    "assumed": 22306,
    "castle": 3350,
    "Ġlabel": 14515,
    "clean": 14759,
    "Ġrecords": 12192,
    "Ġtun": 5999,
    "Ġfumes": 21417,
    "]]": 5205,
    "Ġdrawback": 23987,
    "mber": 7804,
    "imagine": 19930,
    "Ġomen": 11574,
    "Ġbubb": 12580,
    "Ġpresume": 8038,
    "Ġsensibility": 14513,
    "irresistible": 18171,
    "Ġimmaculate": 19484,
    "Ġfall": 2991,
    "Ġtruthful": 23865,
    "Ġwhims": 12688,
    "Ġwandered": 6930,
    "rices": 4556,
    "Ġop": 2604,
    "aisance": 15072,
    "ased": 1268,
    "beheld": 11798,
    "unwittingly": 25801,
    "Ġken": 22189,
    "'t": 3144,
    "10": 17471,
    "Ġneighbouring": 12115,
    "Ġrapidly": 3286,
    "Ġmartyr": 26360,
    "Ġhun": 1496,
    "Ġimpulsively": 24880,
    "Ġintelligent": 1359,
    "Ġmomentarily": 22809,
    "pede": 19843,
    "Ġtwine": 14309,
    "Ġaccord": 4030,
    "Ę": 217,
    "preservation": 25305,
    "strugg": 21654,
    "ribe": 1222,
    "Ġadmirer": 16837,
    "inative": 15481,
    "freely": 16853,
    "agation": 1229,
    "Ġtangles": 25761,
    "Ġperf": 12845,
    "Ġliveliest": 24775,
    "Ġbackwoods": 22649,
    "ohnson": 16322,
    "Ġflowers": 8939,
    "Ġcontributed": 16006,
    "word": 2490,
    "rity": 13774,
    "Ġcasual": 11408,
    "Ġphysi": 9986,
    "Ġclock": 9531,
    "giv": 13720,
    "title": 17286,
    "commencement": 26347,
    "buff": 15316,
    "examination": 25478,
    "Ġevangel": 11279,
    "Ġai": 3128,
    "omed": 13977,
    "measure": 10029,
    "iracle": 11243,
    "Ġmouths": 7491,
    "beheaded": 22490,
    "Ġimmensely": 13593,
    "ortment": 22255,
    "Ġlesson": 7276,
    "isf": 2435,
    "Ġpolic": 13159,
    "Ġforswe": 21772,
    "Ġunbending": 25464,
    "Ġdoings": 18375,
    "Ġvehemently": 26039,
    "Ġconsider": 2569,
    "exam": 10975,
    "Ġno": 509,
    "ladies": 9527,
    "Ġowns": 22820,
    "ignantly": 23264,
    "dark": 5613,
    "Ġregal": 16066,
    "complete": 15033,
    "Ġabsurdly": 19958,
    "Ġvaliantly": 22801,
    "flung": 16637,
    "Ġmysterious": 7527,
    "Ġspiracle": 14148,
    "avering": 24793,
    "guard": 12125,
    "Ġbrides": 22863,
    "Ġsins": 13835,
    "Ġconnivance": 25225,
    "lock": 1472,
    "Ġyield": 5093,
    "emin": 8470,
    "Ġgoney": 14544,
    "Ġbagging": 24538,
    "Ġsqualid": 14367,
    "Ġcrags": 23527,
    "warm": 8102,
    "Ġvarieties": 14308,
    "Ġlashing": 11614,
    "Ġsingled": 23770,
    "Ġingolstadt": 8333,
    "cle": 3960,
    "Ġlively": 5449,
    "Ġschooner": 16746,
    "Ġherb": 15853,
    "Ġsecurely": 16801,
    "horror": 13157,
    "Ġitems": 9690,
    "pag": 11509,
    "Ġfamilies": 8027,
    "Ġnoiseless": 10355,
    "Ġacceded": 22377,
    "least": 8783,
    "Ġscorched": 17100,
    "ceed": 1072,
    "Ġshreds": 12766,
    "Ġprouder": 18972,
    "Ġheading": 8934,
    "Ġscor": 8190,
    "Ġextremest": 19194,
    "Ġideas": 5494,
    "Ġthreatened": 8330,
    "Ġunsounded": 15847,
    "Ġdownwards": 8529,
    "Ġtraps": 23079,
    "Ġsuav": 22073,
    "shell": 16284,
    "Ġresults": 7308,
    "ang": 446,
    "Ġfaced": 10807,
    "Ġgurglings": 26464,
    "Ġvitality": 15170,
    "leaving": 10790,
    "Ġdisappointed": 7097,
    "derick": 22160,
    "ipher": 18427,
    "Ġclasp": 9743,
    "Ġdespondence": 25869,
    "Ġalluding": 18236,
    "out": 467,
    "itted": 2443,
    "Ġvari": 832,
    "Ġdepose": 22604,
    "Ġfinest": 10391,
    "ep": 445,
    "empl": 5724,
    "Ġgiant": 13966,
    "sprinkling": 24912,
    "lev": 1236,
    "Ġincalcul": 16060,
    "Ġso": 434,
    "Ġpl": 743,
    "overlooked": 23320,
    "Ġgreenwich": 19320,
    "wound": 21125,
    "dis": 2247,
    "Ġfreshness": 23985,
    "Ġexpectantly": 23524,
    "eman": 5636,
    "iluvian": 18060,
    "Ġsunny": 13083,
    "rrh": 26144,
    "na": 13758,
    "Ġbeast": 7179,
    "Ġjewel": 9940,
    "Ġrazor": 22656,
    "Ġpleasure": 2696,
    "mechan": 11855,
    "Ġnash": 5819,
    "Ġdiamond": 15595,
    "ong": 537,
    "Ġprow": 6684,
    "und": 4120,
    "Ġwrath": 16314,
    "finished": 10553,
    "Ġtune": 17724,
    "eel": 11482,
    "Ġsame": 1342,
    "Ġhogshead": 26367,
    "Ġbravest": 23838,
    "Ġorganization": 7984,
    "Ġdict": 9174,
    "extraordinary": 9093,
    "Ġsplinters": 15100,
    "Ġfeigned": 22208,
    "appalling": 22844,
    "commer": 22821,
    "mblings": 19779,
    "Ë": 140,
    "Ġextreme": 2517,
    "Ġveget": 11883,
    "fair": 10091,
    "Ġwash": 9701,
    "Ġpopulous": 16825,
    "Ġcalifornia": 20528,
    "Ġscuff": 15939,
    "Ġnut": 12642,
    "Ġjuggler": 26366,
    "Ġlivelong": 25511,
    "Ġunfeeling": 14118,
    "cons": 4307,
    "Ġsilent": 3410,
    "Ġreceptive": 1564,
    "Ġscimet": 22286,
    "Ġmoderation": 12815,
    "Ġexamination": 8005,
    "foam": 24417,
    "moby": 8536,
    "Ġinterconnected": 1338,
    "¹": 122,
    "Ġimagine": 3927,
    "Ġcouldn": 7648,
    "until": 6596,
    "Ġcritical": 7475,
    "Ġdoubtless": 6195,
    "Ġeternal": 5976,
    "advance": 12153,
    "Ġdated": 10937,
    "Ġigniting": 25070,
    "Ġinfant": 11957,
    "Ġhedges": 19983,
    "Ġrhyme": 21976,
    "coach": 23559,
    "Ġtrifled": 24674,
    "Ġunscrew": 22038,
    "Ġoverjoy": 15962,
    "Ġblasts": 19994,
    "Ġextravag": 11253,
    "doesn": 19819,
    "Ġhenceforth": 19646,
    "Ġisol": 8832,
    "Ġhabitual": 24790,
    "Ġcontrary": 5260,
    "whiskers": 12308,
    "Ġprofessional": 7299,
    "dancing": 12451,
    "Ġunimportant": 22028,
    "alty": 17938,
    "Ġ": 225,
    "Ġadduced": 26523,
    "Ġlaurel": 20653,
    "Ġnewcomer": 26040,
    "Ġefforts": 11800,
    "multiple": 15105,
    "Ġpresum": 4837,
    "Ġprotection": 9460,
    "threw": 21982,
    "Ġdriven": 6198,
    "Ġgasps": 24865,
    "Ġoverhung": 15965,
    "Ġtransparent": 9487,
    "lac": 17588,
    "gryphon": 15356,
    "devoted": 20015,
    "Ġtrouble": 3690,
    "Ġcompared": 2227,
    "uture": 1081,
    "Ġcripple": 11439,
    "Ġincomp": 12893,
    "eliest": 14744,
    "Ġbalmoral": 16205,
    "resolved": 9638,
    "Ġspine": 7407,
    "Ġsinew": 25431,
    "intern": 23734,
    "Ġres": 696,
    "Ġreplay": 5047,
    "cules": 12388,
    "eyed": 11485,
    "Ġclimbing": 20068,
    "undertaking": 23785,
    "Ġslid": 7952,
    "Ġintroduce": 3205,
    "wished": 13803,
    "Ġflattering": 13025,
    "Åĵ": 10743,
    "Ġpile": 8424,
    "qual": 8157,
    "Ġunite": 9252,
    "Ġhull": 5446,
    "Ġextra": 4059,
    "13": 20749,
    "Ġwhip": 8451,
    "Ġstrive": 23692,
    "Ġmaybe": 12945,
    "Ġinsolence": 20252,
    "Ġanoints": 25538,
    "Ġcomment": 9231,
    "Ġacquire": 2725,
    "Ġannum": 24202,
    "dog": 10691,
    "Ġsun": 1721,
    "Ġdepended": 9775,
    "Ġdecreases": 3408,
    "Ġdollars": 11454,
    "miserable": 8656,
    "Ġdirections": 1968,
    "icient": 776,
    "empty": 23635,
    "quakes": 21848,
    "speaking": 12095,
    "Ġirrespective": 23373,
    "comfort": 5647,
    "Ġtheirs": 7024,
    "Ġcondense": 21806,
    "unimportant": 18159,
    "Ġrobberies": 23005,
    "Ġru": 948,
    "Ġsuckling": 25997,
    "Ġendeavour": 4676,
    "Ġopened": 3514,
    "Ġgret": 21599,
    "med": 1907,
    "iver": 2048,
    "accompanied": 12419,
    "eray": 21265,
    "Ġjingling": 26017,
    "billiard": 25334,
    "Ġseamen": 5063,
    "walls": 25345,
    "Ġgreat": 897,
    "readily": 19360,
    "effect": 8603,
    "entric": 11617,
    "abouts": 9451,
    "occurrences": 26331,
    "Ġpaintings": 15056,
    "prior": 21031,
    "Ġdeclines": 23960,
    "acup": 14276,
    "exertion": 16013,
    "lier": 20948,
    "Ġgouldings": 26187,
    "Ġsongs": 13418,
    "usation": 18401,
    "airing": 16171,
    "deli": 15342,
    "unsuitable": 21891,
    "iocr": 20922,
    "Ġlabyrinth": 13677,
    "Ġadmeasure": 18293,
    "Ġstar": 6023,
    "Ġdownstream": 3777,
    "Ġdevil": 3613,
    "Ġdemand": 4947,
    "view": 5896,
    "Ġcollect": 7237,
    "Ġchoking": 15931,
    "Ġcharacteristically": 23690,
    "hel": 4814,
    "terrific": 25040,
    "Ġseethe": 21961,
    "Ġreligions": 20106,
    "Ġcleaning": 23181,
    "Ġimportance": 4900,
    "Ġparallelization": 3431,
    "Ġpreser": 6041,
    "scho": 8759,
    "ol": 362,
    "Ġpassers": 18757,
    "magistrate": 19862,
    "Ġcucumber": 21354,
    "Ġimparts": 18446,
    "Ġfailed": 6671,
    "w": 91,
    "Ġgobern": 22423,
    "Ġbites": 23741,
    "Ġintermission": 18591,
    "Ġalexander": 17422,
    "Ġfilthy": 13246,
    "Ġsigh": 10335,
    "Ġcompose": 12898,
    "ime": 625,
    "quality": 10231,
    "Ġ43": 14768,
    "Ġreprehensible": 15695,
    "Ġhosts": 19937,
    "Ġheartless": 13070,
    "teak": 22813,
    "Ġvanish": 8925,
    "Ġnewcomers": 26041,
    "mil": 13750,
    "instinct": 19542,
    "Ġtrailing": 23078,
    "mosphere": 10041,
    "aways": 15308,
    "Ġpredictions": 1455,
    "dering": 5305,
    "sk": 5521,
    "Ġaccountability": 10437,
    "Ĝ": 221,
    "r": 86,
    "Ġnapole": 15113,
    "requirements": 24857,
    "urches": 12681,
    "Ġbeds": 14550,
    "Ġencountering": 11268,
    "falsehood": 25901,
    "Ġinev": 10180,
    "those": 4493,
    "trop": 15434,
    "somers": 19366,
    "Ġidea": 2489,
    "Ġungovernable": 20708,
    "Ġfancy": 3745,
    "Ġnapkins": 25161,
    "sets": 17659,
    "Ġwarn": 5695,
    "quick": 6400,
    "Ġascribe": 16781,
    "Ġfrig": 13078,
    "Ġunreasonable": 12774,
    "Ġcoleridge": 18764,
    "whosoever": 22238,
    "contr": 12054,
    "Ġmagnitudes": 3825,
    "Ġcasks": 7521,
    "pumps": 21026,
    "clinging": 20821,
    "Ġunsolved": 22031,
    "Ġhas": 826,
    "prit": 19340,
    "Ġscruple": 25048,
    "Ġabominably": 20064,
    "Ġfrown": 10806,
    "Ġsympt": 7012,
    "Ġfortnight": 6200,
    "Ġcautiously": 16976,
    "mouse": 15390,
    "Ġsubtlety": 24780,
    "aling": 1034,
    "Ġqual": 6274,
    "Ġvisitors": 7985,
    "tick": 17677,
    "Ġhonest": 7287,
    "stranded": 19225,
    "Ġgn": 8816,
    "disappointed": 25191,
    "âĢľ_": 5720,
    "Ġevermore": 18810,
    "Ġzer": 1095,
    "Ġwounded": 8657,
    "Ġmadden": 10446,
    "Ġpatagon": 14504,
    "Ġimport": 1049,
    "manned": 18761,
    "wonted": 13491,
    "ilent": 21718,
    "naturalist": 23516,
    "state": 13972,
    "elfare": 11774,
    "Ġsain": 17749,
    "Ġgeomet": 3192,
    "================================": 5671,
    "Ġexhausted": 8693,
    "Ġsweep": 8266,
    "avail": 18604,
    "ated": 731,
    "Ġrespected": 11949,
    "achment": 5464,
    "Ġplanning": 14750,
    "Ġdish": 6136,
    "Ġfavours": 23279,
    "Ġorganisation": 23582,
    "Ġlonely": 6823,
    "Ġchamounix": 14862,
    "Ġinstructed": 19284,
    "akness": 14193,
    "Ġrefusal": 10343,
    "Ġgruff": 21612,
    "Ġspectrum": 4472,
    "Ġsummary": 19401,
    "Ġtrue": 1340,
    "Ġbelong": 3889,
    "impl": 21705,
    "Ġtant": 12521,
    "kindred": 24048,
    "Ġo": 275,
    "Ġauthoritative": 19560,
    "onday": 6064,
    "Ġguardians": 14941,
    "Ġlip": 6532,
    "Ġutterly": 6100,
    "Ġthump": 11609,
    "Ġconfirmed": 11138,
    "Ġtok": 1245,
    "Ġhoneymoon": 25645,
    "uneven": 23684,
    "Ġcosine": 2373,
    "Ġinexpress": 12631,
    "Ġswallows": 18883,
    "ittingly": 18807,
    "child": 5537,
    "Ġpurest": 14937,
    "Ġthen": 664,
    "Ġending": 18189,
    "Ġstifle": 18073,
    "Ġbrightness": 16574,
    "Ġreasonably": 11090,
    "Ġark": 10274,
    "semicirc": 26490,
    "steep": 19417,
    "Ġricher": 12755,
    "Ġsaf": 4007,
    "Ġdepression": 21838,
    "scythes": 26401,
    "Ġwhiteness": 5919,
    "Ġbowlines": 19321,
    "Ġinconsist": 17935,
    "Ġshouting": 10521,
    "Ġhorrible": 4905,
    "atiable": 17773,
    "Ġ[\"": 19929,
    "fleece": 19946,
    "Ġdescended": 7428,
    "Ġsharpen": 13567,
    "Ġinvited": 6903,
    "Ġsaucer": 20604,
    "revenge": 13840,
    "Ġmilliner": 19883,
    "ifference": 5632,
    "Ġcontent": 5034,
    "Ġreser": 5170,
    "Ġbandages": 24426,
    "ison": 3075,
    "bol": 8717,
    "saving": 21058,
    "Ġill": 2192,
    "Ġarticulate": 24431,
    "Ġrashly": 20304,
    "Ġdecide": 9284,
    "Ġactionable": 24558,
    "Ġcircular": 13108,
    "Ġshook": 4466,
    "sounding": 24796,
    "money": 8749,
    "Ġhurtling": 24959,
    "ame": 643,
    "Ġgamming": 25542,
    "ulations": 6029,
    "umst": 2505,
    "Ġwhether": 1998,
    "Ġliterary": 25162,
    "after": 2899,
    "Ġflood": 7716,
    "riers": 18186,
    "readiness": 19361,
    "Ġstubborn": 10413,
    "Ġinward": 11605,
    "Ġjapan": 7639,
    "Ġrep": 1935,
    "Ġcreates": 2007,
    "bohem": 19001,
    "steel": 8299,
    "adm": 7608,
    "Ġhired": 10176,
    "Ġunreasoning": 15843,
    "Ġsteering": 10386,
    "Ġschemes": 11130,
    "Ġinstances": 5567,
    "Ġbelief": 5855,
    "Ġexhibited": 9542,
    "lim": 9605,
    "interesting": 12198,
    "impossible": 8822,
    "Ġthrills": 24541,
    "Ġessentials": 20001,
    "Ġcus": 21341,
    "Ġoccurs": 1857,
    "Ġscrupled": 25049,
    "bies": 15310,
    "Ġruled": 22784,
    "Ġframework": 2093,
    "Ġdevotedly": 24750,
    "possible": 5743,
    "shook": 19855,
    "Ġfreshets": 25705,
    "Ġboots": 5943,
    "Ġlike": 666,
    "sounded": 12263,
    "Ġcovers": 18594,
    "aphs": 22333,
    "Ġlinked": 15075,
    "isco": 12577,
    "Ġunaccountably": 26514,
    "Ġ-": 1943,
    "Ġgazette": 19499,
    "Ġfowls": 8690,
    "Ġhonors": 23600,
    "str": 2578,
    "Ġjuicy": 25370,
    "kne": 20934,
    "Ġdexterity": 25294,
    "crawling": 16957,
    "ipping": 2207,
    "Ġdey": 11673,
    "elius": 13285,
    "Ġdeaths": 14536,
    "rey": 12534,
    "Ġsixpence": 19316,
    "ps": 4571,
    "Ġharbour": 19978,
    "Ġindifferent": 6174,
    "Ġtroops": 24898,
    "Ġstars": 6149,
    "Ġhandle": 3137,
    "igan": 21696,
    "walked": 10569,
    "Ġ41": 24079,
    "tipt": 25083,
    "Ġsisters": 3640,
    "Ġharbor": 10025,
    "idate": 21765,
    "ishing": 1147,
    "Ġjoys": 13217,
    "itions": 4149,
    "Ġnewfoundland": 26568,
    "Ġpemberley": 4585,
    "nosed": 20991,
    "affrail": 11204,
    "oves": 15401,
    "le": 279,
    "Ġappal": 18359,
    "Ġbroom": 18906,
    "ivia": 22077,
    "gown": 9595,
    "Ġangle": 8602,
    "ont": 2623,
    "otently": 21798,
    "Ġdismantled": 20215,
    "Ġdyspeps": 16472,
    "imens": 1746,
    "Ġ108": 19683,
    "firm": 10697,
    "Ġrepresentation": 14403,
    "inisc": 15486,
    "included": 19207,
    "Ġassert": 7120,
    "Ġminimizing": 3466,
    "Ġpertaining": 18450,
    "antically": 22094,
    "Ġthoughtfulness": 18774,
    "volutions": 16319,
    "Ġpromised": 5181,
    "Ġpolitic": 23617,
    "Ġprophecy": 25706,
    "repid": 11563,
    "Ġsubtle": 6716,
    "Ġcasts": 19424,
    "|": 96,
    "Ġchurch": 4709,
    "Ġ1828": 25720,
    "Ġshepherd": 14151,
    "Ġconstitution": 20107,
    "Ġanticipation": 17056,
    "Ġpaper": 4281,
    "inspector": 13644,
    "Ġwholly": 4444,
    "Ġplainpalais": 20736,
    "Ġende": 21930,
    "Ġunostentatious": 22068,
    "Ġbegone": 11914,
    "arrow": 4180,
    "watch": 6118,
    "gallantry": 15059,
    "Ġimpregnable": 26023,
    "Ġattitude": 8902,
    "Ġcy": 13872,
    "Ġyojo": 7610,
    "Ġmournful": 12333,
    "Ġfol": 1289,
    "Ġit": 339,
    "Ġnightfall": 23131,
    "www": 17250,
    "Ġinforming": 18741,
    "Ġfaculties": 14956,
    "Ġripe": 13232,
    "odings": 4397,
    "ortions": 10947,
    "Ġapproved": 16032,
    "angular": 11720,
    "ilty": 6394,
    "Ġcharacteristics": 8609,
    "exp": 2739,
    "03": 20747,
    "Ġtriumph": 5143,
    "Ġsailors": 4275,
    "Ġbohemia": 10648,
    "Ġsneeze": 24699,
    "Ġfire": 2334,
    "Ġvisits": 8224,
    "Ġpuzzled": 7317,
    "Ġpassed": 2008,
    "af": 2378,
    "fol": 4862,
    "Ġtolerably": 8068,
    "Ġcursed": 6727,
    "front": 12167,
    "Ġflow": 1239,
    "Ġmeasuring": 22880,
    "Ġaccustomed": 6861,
    "Ġsavag": 19372,
    "Ġshag": 9249,
    "Ġethere": 23948,
    "portuguese": 25413,
    "Ġstrip": 9419,
    "Ġstability": 1366,
    "dies": 15336,
    "Ġoffice": 4965,
    "Ġdecay": 1012,
    "ization": 486,
    "Ġbetrayed": 9560,
    "Ġemploy": 3615,
    "Ġlydia": 2374,
    "Ġperse": 6271,
    "Ġcircumnavigating": 25614,
    "Ġrolling": 5975,
    "Ġrefined": 18701,
    "Ġslumber": 13056,
    "hunters": 16832,
    "Ġcourage": 4632,
    "abling": 1076,
    "Ġdecided": 5471,
    "quickness": 19850,
    "Ġancho": 15599,
    "dl": 20822,
    "rip": 9239,
    "Ġjuggling": 20437,
    "moored": 22704,
    "careful": 14864,
    "Ġsto": 1499,
    "protest": 24815,
    "Ġdod": 6672,
    "Ġapplication": 2106,
    "Ġjoll": 11762,
    "Ġemploying": 23975,
    "quered": 11054,
    "Ġguide": 3216,
    "Ġexplore": 15905,
    "Ġsundial": 15080,
    "Ġpictured": 16621,
    "Ġczar": 12570,
    "occasional": 19575,
    "cad": 17503,
    "omn": 15686,
    "Ġheed": 5630,
    "Ġberth": 8679,
    "ipotent": 10958,
    "Ġaggregate": 25677,
    "Ġmamm": 25090,
    "Ġamid": 4959,
    "Ġmagnanim": 14471,
    "oriented": 2952,
    "Ġdiving": 12597,
    "ural": 504,
    "misfortunes": 16755,
    "who": 2447,
    "bling": 10077,
    "Ġsummarization": 3646,
    "Ġgeneral": 1861,
    "ĠvertebrÃ¦": 11434,
    "denial": 18715,
    "lyph": 10851,
    "Ġantarctic": 19551,
    "Ġintegr": 7969,
    "Ġoppressive": 20454,
    "Ġadversarial": 5606,
    "Ġfatigued": 13463,
    "fearing": 18529,
    "Ġcanopy": 18322,
    "Ġcomponents": 8891,
    "Ġdisappears": 18560,
    "imely": 13996,
    "âĢĶ_": 3201,
    "mand": 3897,
    "Ġstretching": 10013,
    "Ġmargaret": 10375,
    "tastes": 21095,
    "Ġconstructed": 9385,
    "Ġesteemed": 10587,
    "plicable": 10254,
    "roots": 15639,
    "Ġgipsies": 12405,
    "Ġconsulted": 13428,
    "Ġlocal": 1199,
    "Ġdrags": 16940,
    "Ġaccumulation": 2694,
    "Ġkeenest": 12158,
    "Ġshow": 3401,
    "saying": 8640,
    "fer": 1942,
    "Ġunthink": 18250,
    "Ġrival": 10484,
    "Ġjune": 10287,
    "Ġroyalty": 19734,
    "Ġreigning": 15697,
    "Ġvarious": 3511,
    "Ġcumul": 4179,
    "sal": 8757,
    "Ġangelic": 19626,
    "Ġslang": 23158,
    "Ġadvis": 9805,
    "Ġpacifics": 24372,
    "Ġhig": 754,
    "¿": 128,
    "we": 848,
    "Ġprovoked": 13323,
    "ages": 828,
    "Ġunfit": 14785,
    "likeness": 19476,
    "itying": 21992,
    "iterranean": 15546,
    "straight": 9938,
    "Ġannealing": 1555,
    "Ġthem": 639,
    "Ġsuffoc": 18869,
    "Ġhonestly": 19970,
    "Ġstrangled": 24133,
    "Ġautumn": 14510,
    "bill": 10074,
    "Ġmissionary": 25696,
    "Ġhelping": 3267,
    "tstone": 21083,
    "pres": 16025,
    "oton": 3607,
    "gh": 3804,
    "roofed": 26183,
    "Ġann": 4487,
    "peleg": 16291,
    "garnished": 26387,
    "Ġmitig": 1336,
    "Ġschol": 17375,
    "Ġsoundings": 13130,
    "Ġhypothe": 4077,
    "unaccountable": 15775,
    "promised": 12248,
    "Ġimpo": 3443,
    "ela": 21567,
    "Ġmelancholy": 5605,
    "alizing": 17939,
    "trucks": 25419,
    "Ġumb": 11644,
    "Ġhatches": 12042,
    "Ġdesirable": 8940,
    "carry": 19525,
    "pacific": 17640,
    "Ġroughly": 17039,
    "iliating": 12691,
    "thrasher": 25658,
    "jewel": 20345,
    "Ġmusical": 23891,
    "Ġhunch": 18934,
    "Ġprospects": 9957,
    "Ġdistinguished": 8273,
    "Ġfer": 5623,
    "Ġtrod": 15025,
    "Ġpassage": 3888,
    "Ġtraditions": 11442,
    "Ġjane": 1756,
    "ofs": 11827,
    "Ġunh": 9251,
    "Ġgliding": 8560,
    "Ġbald": 16204,
    "Ġlin": 10832,
    "mon": 2309,
    "Ġparch": 11723,
    "deeply": 16181,
    "Ġmand": 21303,
    "Ġentries": 22744,
    "Ġtiller": 8964,
    "Ġsystematically": 3915,
    "Ġwert": 12552,
    "Ġagrippa": 11804,
    "getic": 12962,
    "Ġgenerator": 3382,
    "ool": 17617,
    "protested": 13472,
    "Ġgladness": 16590,
    "Ġcigarette": 20655,
    "tolerably": 21094,
    "dragged": 16607,
    "Ġunhappy": 5640,
    "ext": 917,
    "Ġ22": 8279,
    "Ġrobbed": 23004,
    "Ġscreaming": 13421,
    "Ġbrowne": 13299,
    "clearly": 25195,
    "Ġslight": 3120,
    "Ġsteward": 6584,
    "Ġproposed": 7460,
    "rs": 7808,
    "Ġtriumphal": 24370,
    "extra": 8219,
    "smooth": 20247,
    "Ġmott": 17803,
    "chambers": 25454,
    "Ġcollapsed": 15079,
    "Ġuntouched": 16464,
    "Ġcobbler": 25829,
    "Ġtelesc": 12989,
    "castles": 14635,
    "Ġspiced": 22131,
    "Ġsaintly": 25931,
    "fier": 9592,
    "uation": 17693,
    "wall": 10135,
    "Ġunlo": 22010,
    "Ġhousemaid": 14464,
    "joke": 20929,
    "Ġprincipal": 6496,
    "Ġdisco": 3429,
    "Ġoverwrites": 5033,
    "Ġpreach": 14171,
    "Ġinfatuated": 20532,
    "Ġdoors": 6418,
    "Ġclutch": 15052,
    "Ġduplicate": 17214,
    "circumamb": 26087,
    "Ġtreading": 16503,
    "ever": 1074,
    "Ġstowed": 21734,
    "aulding": 11338,
    "live": 7550,
    "atch": 672,
    "iers": 5991,
    "crucible": 24842,
    "describe": 1514,
    "Ġnathan": 21524,
    "Ġsol": 1103,
    "Ġhilariously": 25450,
    "Ġproc": 5544,
    "Ġmalignity": 10555,
    "whereby": 23416,
    "Ġentailed": 11026,
    "unts": 12727,
    "ĠĠĠĠĠĠĠĠĠĠĠĠ": 12896,
    "Ġenduring": 16300,
    "Ġrecumbent": 22741,
    "Ġlater": 6017,
    "Ġbrave": 6329,
    "Ġbarbara": 24818,
    "puff": 21021,
    "africa": 26308,
    "pute": 8843,
    "length": 7134,
    "ira": 3962,
    "ribute": 7227,
    "stolen": 13975,
    "Ġstumbling": 21740,
    "shavings": 22461,
    "Ġpay": 3968,
    "Ġpunctil": 20112,
    "Ġkrusenstern": 20713,
    "Ġdest": 2235,
    "ission": 6457,
    "anim": 6522,
    "Ġflannel": 26576,
    "puzzling": 26143,
    "Ġacquiescence": 20329,
    "Ġratio": 5066,
    "Ġeffemin": 18532,
    "foreseen": 14252,
    "Ġmemory": 2273,
    "Ġtransformer": 2637,
    "Ġsec": 2075,
    "mou": 10707,
    "Ġdisclosed": 15151,
    "Ġimplement": 2666,
    "oat": 13762,
    "Ġundone": 24117,
    "numer": 15397,
    "Ġdears": 18136,
    "cripp": 20818,
    "unteered": 26494,
    "ć": 200,
    "ellig": 521,
    "Ġpan": 5082,
    "itch": 10159,
    "Ġcloset": 19590,
    "dial": 20824,
    "amaz": 21842,
    "motives": 26137,
    "distinction": 19570,
    "Ġfootfalls": 25866,
    "Ġtarpaul": 17729,
    "Ġprofounder": 23568,
    "successful": 11357,
    "opius": 18501,
    "ascended": 24706,
    "Ġcomposure": 7217,
    "age": 505,
    "Ġcrumb": 16438,
    "Ġbouquet": 20682,
    "Ġundoubted": 19513,
    "Ġtunnel": 14928,
    "orand": 21395,
    "Ġdamp": 8264,
    "Ġunobserved": 18252,
    "Ġcreated": 2708,
    "Ġaloysius": 15734,
    "Ġdeputation": 21837,
    "Ġinquirer": 24963,
    "Ġreclining": 26033,
    "Ġperilous": 7769,
    "perform": 15898,
    "Ġrad": 4961,
    "Ġlash": 8439,
    "Ġknowing": 4454,
    "Ġaccomplice": 24375,
    "Ġunclad": 22052,
    "activation": 3231,
    "Ġalgorithms": 855,
    "Ġbaleful": 24984,
    "apter": 1194,
    "Ġirregular": 9863,
    "taken": 7560,
    "Ġmyster": 5926,
    "despicable": 24637,
    "Ġfates": 15574,
    "Ġlights": 8959,
    "Ġmonths": 3456,
    "ru": 479,
    "Ġexperienced": 6582,
    "sust": 15420,
    "Ġsashes": 21224,
    "evid": 11483,
    "Ġheightened": 8648,
    "sec": 6152,
    "Ġcomplaisance": 19447,
    "narrative": 17317,
    "augh": 1782,
    "Ġbaronial": 23791,
    "Ġcost": 2507,
    "Ġworse": 4718,
    "Ġhomage": 12352,
    "ues": 2079,
    "barrow": 15319,
    "or": 282,
    "lipped": 16214,
    "Ġandromeda": 21506,
    "Ġiron": 3235,
    "acks": 11785,
    "Ġponies": 21474,
    "Ġnostrils": 10942,
    "Ġglimmer": 15139,
    "period": 15899,
    "Ġpenalty": 1838,
    "Ġbleeds": 24396,
    "letters": 13172,
    "owder": 8448,
    "Ġclearer": 16310,
    "Ġsensation": 6896,
    "allions": 22196,
    "grate": 23410,
    "Ġdisgusting": 19893,
    "mopol": 15394,
    "Ġapproxim": 1218,
    "Ġtuples": 13475,
    "pardonable": 17216,
    "Ġunrivalled": 26518,
    "Ġskul": 22794,
    ",âĢĶâĢľ": 10068,
    "procure": 23395,
    "aan": 20763,
    "Ġcoarse": 14272,
    "throw": 14096,
    "Ġcondescending": 24868,
    "Ġmonarchs": 25846,
    "detached": 19673,
    "look": 2258,
    "Ġallusion": 7625,
    "headsman": 16699,
    "Ġmortal": 4680,
    "timidity": 25753,
    "oned": 4629,
    "Ġgardener": 19134,
    "hig": 12471,
    "Ġly": 2266,
    "Ġswiftly": 5670,
    "Ġduke": 7756,
    "rep": 5525,
    "Ġtransc": 12860,
    "honest": 17002,
    "inating": 9152,
    "Ġgrapp": 14099,
    "shop": 14236,
    "Ġsucceeding": 16760,
    "urry": 13992,
    "Ġreligious": 25121,
    "comprehens": 16174,
    "Ġ110": 24434,
    "interchange": 23737,
    "fri": 20853,
    "sex": 12709,
    "ising": 2251,
    "prints": 23809,
    "Ġent": 905,
    "Ġrus": 14090,
    "Ġgracechurch": 12195,
    "Ġloungers": 24862,
    "seek": 8835,
    "Ġcreature": 2385,
    "wrapped": 15207,
    "Ġreview": 18030,
    "h": 76,
    "Ġgravesend": 15214,
    "arius": 14247,
    "crop": 20797,
    "circuit": 24187,
    "Ġhumble": 8551,
    "learnt": 23543,
    "waving": 21130,
    "joice": 9601,
    "abash": 18107,
    "summoned": 26590,
    "Ġallen": 5160,
    "ric": 1379,
    "treas": 17678,
    "Ġprodu": 1205,
    "Ġinexperienced": 26100,
    "Ġtheoretically": 3567,
    "ulties": 12897,
    "Ġstirs": 14915,
    "Ġevaporate": 26332,
    "Ġdisliked": 12887,
    "erting": 17776,
    "Ġattentive": 9032,
    "Ġplumage": 17296,
    "Ā": 193,
    "Ġsleeve": 20139,
    "Ġenjoined": 18191,
    "Ġcrocod": 19627,
    "Ġample": 11795,
    "Ġhouse": 1504,
    "Ġunappe": 22016,
    "ustry": 18356,
    "Ġobliquely": 12359,
    "comb": 11036,
    "Ġrevealing": 3928,
    "Ġchival": 14181,
    "itty": 3555,
    "Ġsnuffing": 25012,
    "tide": 11531,
    "Ġhelm": 5275,
    "Ġimputed": 12804,
    "âĢĿ]": 21813,
    "Ġbewildered": 15211,
    "Ġmock": 3691,
    "curiosity": 8623,
    "Ġpenny": 16311,
    "Ġturk": 6603,
    "Ġworn": 6445,
    "Ġarchitects": 18728,
    ".": 18,
    "dri": 5888,
    "herds": 22201,
    "Ġpropag": 16345,
    "Ġdistorted": 14248,
    "Ġexclam": 6757,
    "Ġunlock": 18246,
    "Ġstockings": 19995,
    "Ġchoice": 2165,
    "Ġbesee": 19242,
    "Ġrepaid": 19082,
    "Ġsimultaneously": 4309,
    "Ġelastic": 4359,
    "Ġgen": 5296,
    "Ġtrunks": 15961,
    "ape": 1904,
    "Ġseas": 3078,
    "Ġstrewed": 23420,
    "Ġcalmness": 12089,
    "spiracle": 22737,
    "Ġcorrid": 9822,
    "Ġtone": 4043,
    "Ġegotistical": 26191,
    "etimes": 1985,
    "Ġsaint": 15505,
    "Ġflock": 21410,
    "sculptured": 26045,
    "Ġearned": 19403,
    "employed": 17260,
    "Ġreveal": 11199,
    "Ġentit": 22743,
    "Ġancest": 12610,
    "contriv": 19292,
    "Ġpunishment": 9954,
    "dried": 20826,
    "Ġnought": 21520,
    "felicity": 25140,
    "Ç": 136,
    "iag": 20915,
    "alions": 21499,
    "eth": 619,
    "Ġcautious": 12250,
    "Ġupward": 9719,
    "Ġunwearied": 20601,
    "Ġpresided": 20206,
    "Ġelated": 18632,
    "Ġfrighten": 13276,
    "oy": 1004,
    "viv": 17697,
    "Ġbears": 6829,
    "Ġhempen": 13548,
    "Ġfa": 4819,
    "anche": 10787,
    "rage": 10842,
    "Ġsuited": 12780,
    "Ġroll": 5381,
    "Ġsitt": 21216,
    "Ġded": 2566,
    "ahab": 4288,
    "Ġexpressed": 4465,
    "Ġquadrille": 13539,
    "ractions": 11631,
    "Ġprobabilities": 4966,
    "called": 6292,
    "Ġ55": 24322,
    "Ġhooked": 19079,
    "Ġrisks": 9962,
    "ker": 5792,
    "races": 21628,
    "Ġretarded": 23071,
    "ashion": 3861,
    "Ġforster": 5230,
    "cess": 536,
    "alvan": 21502,
    "Ġsimilitude": 19209,
    "Ġtools": 11607,
    "Ġfav": 1753,
    "company": 9459,
    "¬": 110,
    "Ġhorribly": 16340,
    "Ġquar": 3114,
    "Ġsought": 5010,
    "tacit": 21097,
    "instr": 12527,
    "wit": 7818,
    "Ġwan": 15525,
    "Ġfood": 5080,
    "Ġ112": 24436,
    "Ġinve": 17928,
    "Ġhumbly": 16195,
    "Ġreddening": 25970,
    "Ġspitz": 14147,
    "Ġghosts": 12229,
    "Ġyork": 11663,
    "presently": 9807,
    "ism": 4874,
    "ens": 701,
    "Ġruinous": 24634,
    "tried": 13792,
    "partly": 14601,
    "Ġdeserted": 8636,
    "Ġstared": 8454,
    "ended": 1832,
    "Ġclearly": 6897,
    "prob": 7069,
    "Ġtrad": 9826,
    "Ġcrucifix": 26079,
    "Ġphiladelphia": 26603,
    "accusations": 23598,
    "inv": 8401,
    "infor": 2836,
    "Ġsleepless": 14581,
    "entering": 17976,
    "Ġimprovements": 14526,
    "Ġimages": 1600,
    "Ġnarrative": 6215,
    "uend": 21100,
    "Ġdecline": 9285,
    "Ġkindling": 19026,
    "Ġswarming": 16271,
    "Ġleagues": 9222,
    "Ġstrangely": 5677,
    "Ġrubbing": 9319,
    "frequently": 9977,
    "vity": 7816,
    "Ġpitiful": 13236,
    "Ġtriumphantly": 11286,
    "Ġdiscussed": 19558,
    "Ġdemanded": 8327,
    "Ġdaugh": 2293,
    "Ġsits": 10767,
    "Ġtailed": 21167,
    "Ġjem": 18402,
    "Ġprinted": 11946,
    "servants": 15036,
    "irts": 9236,
    "Ġsatiated": 22899,
    "Ġdealing": 14043,
    "Ġsolemnly": 8024,
    "marked": 9047,
    "prince": 23811,
    "emed": 3380,
    "âĢľ": 344,
    "Ġdiligent": 25075,
    "Ġcreative": 9828,
    "Ġcunning": 6238,
    "ods": 8833,
    "Ġgate": 6825,
    "Ġtattooing": 15026,
    "Ġfashions": 17885,
    "consolation": 15150,
    "assin": 22303,
    "Ġpearl": 20375,
    "Ġcomprehending": 24444,
    "Ġoct": 10157,
    "ontory": 10458,
    "Ġintimacy": 8700,
    "Ġmonotonous": 13260,
    "flames": 14710,
    "Ġcensured": 25094,
    "weed": 14313,
    "aurs": 20768,
    "sp": 895,
    "ruin": 22174,
    "mud": 20970,
    "Ġdepth": 2440,
    "Ġinsufficient": 9671,
    "Ġmention": 2990,
    "Ġchildren": 3770,
    "Ġsog": 22082,
    "Ġrepresenting": 4064,
    "Ġ$": 21149,
    "Ġentertainment": 12219,
    "cano": 18838,
    "omen": 4089,
    "Ġenforced": 21936,
    "entirely": 7782,
    "Ġkrempe": 10668,
    "swim": 16778,
    "Ġlodgings": 8312,
    "Ġbake": 21380,
    "Ġdr": 2826,
    "Ġsustaining": 25333,
    "Ġpoured": 8799,
    "rian": 10241,
    "kindled": 16659,
    "for": 949,
    "Ġeducated": 16784,
    "osc": 18387,
    "Ġexclusiveness": 23924,
    "boat": 3362,
    "Ġfrightens": 24028,
    "Ġswore": 10377,
    "giana": 7801,
    "kicked": 20942,
    "¸": 121,
    "osures": 22259,
    "Ġdisgu": 8206,
    "Ġalan": 10868,
    "Ġvalued": 12179,
    "brated": 12023,
    "Ġ88": 19710,
    "ý": 190,
    "Ġsurrey": 14557,
    "restraint": 18980,
    "Ġislets": 21799,
    "Ġaccompan": 5513,
    "Ġoverhead": 11767,
    "Ġretains": 20028,
    "sicilian": 21062,
    "Ġtimorous": 24224,
    "nal": 1901,
    "Ġneutral": 12737,
    "Ġdiffident": 23781,
    "Ġadoption": 24948,
    "Ġoverpowering": 15247,
    "Ġclub": 8872,
    "progress": 11984,
    "Ġfurthermore": 1170,
    "Ġvivacious": 19814,
    "Ġdeserve": 8309,
    "Ġtravellers": 11307,
    "hidden": 17369,
    "ashions": 16415,
    "enes": 5218,
    "utional": 17983,
    "Ġkeep": 2356,
    "Ġlaw": 3654,
    "Ġdelicious": 14791,
    "Ġaffect": 1387,
    "Ġfretfulness": 25448,
    "Ġsurface": 5119,
    "Ġexcluded": 16382,
    "v": 90,
    "Ġsavagely": 26323,
    "oct": 7554,
    "Ġbulk": 5590,
    "Ġworry": 18815,
    "Ġbath": 9657,
    "Ġincantation": 26257,
    "Ġurged": 6781,
    "umul": 1290,
    "Ġhiss": 15784,
    "Ġshades": 9461,
    "pall": 17627,
    "Ġunnatural": 7190,
    "Ġdagger": 21436,
    "Ġeloquence": 11838,
    "circumstantial": 24443,
    "Ġnur": 5710,
    "ounce": 6557,
    "oak": 21002,
    "Ġmidst": 7986,
    "Ġidentical": 10433,
    "Ġoblige": 10487,
    "supposed": 13313,
    "otions": 7180,
    "Ġastonished": 7087,
    "tenham": 16318,
    "assured": 10952,
    "if": 376,
    "rush": 7010,
    "Ġsaves": 18324,
    "Ġgale": 5822,
    "overcoat": 19047,
    "oriously": 17874,
    "specimen": 26604,
    "embedding": 20703,
    "hroom": 12473,
    "heaved": 21209,
    "inf": 6232,
    "Ġsleek": 23382,
    "Ġwarnings": 16880,
    "sleepy": 24729,
    "Ġful": 4295,
    "Ġevinced": 7100,
    "Ġlowering": 7987,
    "mem": 10708,
    "Ġunembarrassed": 22067,
    "ical": 753,
    "Ġmemb": 14027,
    "Ġvul": 10246,
    "Ġduplicates": 17215,
    "scence": 14416,
    "Ġbrain": 2087,
    "ilogue": 21722,
    "Ġuncounted": 19116,
    "elope": 14450,
    "Ġrevolver": 14896,
    "Ġoperations": 2300,
    "fugitive": 26131,
    "Ġweights": 899,
    "Ġcheering": 11132,
    "Ġproportions": 16466,
    "``": 15304,
    "Ġarms": 3971,
    "Ġreusable": 13555,
    "Ġplutarch": 22601,
    "Ġindividually": 22955,
    "unbidden": 21892,
    "Ġtight": 8108,
    "Ġcarelessness": 13073,
    "Ġgentleman": 3042,
    "Ġlate": 3377,
    "Ġpurse": 12007,
    "Ġintersect": 22575,
    "E": 41,
    "itheat": 21336,
    "reat": 617,
    "Ġcabinets": 23860,
    "Ġklan": 23662,
    "Ġcol": 1057,
    "Ġpractice": 2950,
    "Ġhandsom": 11123,
    "Ġconfidence": 6590,
    "Ġseclusion": 18208,
    "nuts": 15396,
    "Ġunlocking": 20705,
    "Ġconc": 1840,
    "Ġ1836": 25721,
    "preserve": 25303,
    "Ġcran": 11997,
    "jewell": 25523,
    "udg": 22731,
    "Ġadaptively": 4717,
    "learned": 8599,
    "Ġwears": 10239,
    "onents": 8776,
    "iot": 9599,
    "ed": 293,
    "Ġ35": 24076,
    "Ġkindred": 16372,
    "Ġthickening": 24022,
    "Ġmou": 13853,
    "Ġimplore": 24872,
    "Ġbright": 3214,
    "Ġcamberwell": 25350,
    "burst": 10536,
    "globe": 25142,
    "Ġcreativity": 2948,
    "tribute": 21087,
    "isk": 9166,
    "Ġexcurs": 23311,
    "erman": 5108,
    "Ġoffering": 3011,
    "Ġdromed": 15593,
    "conc": 3952,
    "een": 725,
    "hon": 6793,
    "Ġbough": 13892,
    "changed": 7175,
    "present": 1139,
    "piling": 15413,
    "Ġdundee": 16996,
    "Ġincidents": 9297,
    "Ġanticipated": 13509,
    "business": 5609,
    "Ġliberally": 16829,
    "Ġboard": 3383,
    "urg": 8142,
    "Ġdodo": 9071,
    "Ġchron": 19436,
    "leo": 21362,
    "Ġdie": 3967,
    "Ġimpro": 923,
    "engagements": 25853,
    "hercules": 22202,
    "ad": 337,
    "Ġhelmet": 19686,
    "soever": 11857,
    "99": 1894,
    "Ġeyel": 17095,
    "Ġspilled": 10923,
    "Ġsum": 2701,
    "abashed": 21790,
    "mill": 13752,
    "ented": 4346,
    "opÃ¦": 12866,
    "Ġberm": 21381,
    "Ġhabit": 6771,
    "Ġoutside": 5553,
    "Ġauthentic": 20534,
    "pleas": 3854,
    "Ġmaintenance": 17460,
    "Ġpersonified": 19177,
    "î": 175,
    "Ġapplies": 11956,
    "glad": 9006,
    "firmly": 20279,
    "N": 50,
    "Ġwatery": 6296,
    "Ġodd": 6624,
    "Ġsupremacy": 20259,
    "Ġcaptains": 7457,
    "theories": 18078,
    "ac": 741,
    "Ġfitting": 21407,
    "Ġeats": 15673,
    "warrant": 21136,
    "Ġespecially": 3941,
    "Ġfierc": 18711,
    "injury": 25213,
    "Ġbusily": 9383,
    "Ġmonstrous": 7790,
    "Ġgrunted": 16165,
    "R": 54,
    "Ġbrill": 8549,
    "Ġinches": 5845,
    "Ġloathsome": 13526,
    "Ġfootsteps": 16570,
    "Ġfamous": 5255,
    "Ġmonica": 22976,
    "Ġupright": 8493,
    "Ġfullest": 14812,
    "Ġbride": 6291,
    "Ġcomprehensive": 15085,
    "rese": 15506,
    "Ġjacobian": 2895,
    "Ġlivel": 11354,
    "\"],": 26120,
    "inav": 15482,
    "size": 15422,
    "Ġenorm": 5302,
    "Ġeveryday": 22769,
    "certainly": 5339,
    "Ġjobs": 24832,
    "Ġdispose": 23877,
    "alse": 4185,
    "cru": 7126,
    "Ġburns": 16521,
    "Ġdrag": 6184,
    "ocean": 12398,
    "Ġhighest": 3530,
    "Ġlee": 4222,
    "omon": 10206,
    "owed": 2268,
    "Ġraised": 4658,
    "oul": 4697,
    "Ġpride": 3826,
    "far": 5787,
    "ffy": 18317,
    "Ġundesired": 12776,
    "Ġfull": 2177,
    "untering": 15772,
    "Ġpurport": 14580,
    "Ġcircumn": 11980,
    "mmet": 10988,
    "Ġsnorting": 23739,
    "Ġstock": 7455,
    "dwelt": 23869,
    "mouth": 9129,
    "ĠĠĠĠĠĠĠĠĠĠĠĠĠĠĠĠĠĠĠĠĠĠĠĠĠ": 24441,
    "Ġc": 277,
    "Ġshuddering": 9050,
    "Ġdun": 6673,
    "iverer": 11713,
    "shish": 11790,
    "Ġcoincidences": 26363,
    "irwin": 8468,
    "Ġpencils": 23195,
    "Ġruns": 8594,
    "Ġevenness": 22831,
    "ellation": 12745,
    "Ġphilosoph": 19650,
    "que": 1126,
    "asing": 5912,
    "apidated": 22334,
    "®": 111,
    "Ġruggedness": 26268,
    "ifferent": 4261,
    "Ġchased": 8860,
    "Ġtransp": 4770,
    "heartily": 24214,
    "Ġtransparen": 10540,
    "Ġcirculation": 16414,
    "Ġmore": 676,
    "Ġappe": 1541,
    "Ġunmethodically": 22069,
    "Ġunravel": 26214,
    "Ġxli": 14541,
    "Ġskil": 14350,
    "Ġmasonry": 13597,
    "Ġregarding": 13208,
    "ib": 1235,
    "Ġraising": 8908,
    "Ġicicles": 25264,
    "Ġaskance": 23149,
    "Ġentirely": 3434,
    "bots": 10081,
    "Ġmajest": 24060,
    "Ġupstairs": 5836,
    "war": 6802,
    "oars": 9613,
    "Ġannounce": 13336,
    "Ġadmire": 5263,
    "Ġorgans": 15862,
    "wedded": 24338,
    "igations": 18042,
    "Ġsporting": 16998,
    "suit": 18649,
    "Ġbree": 5012,
    "tart": 21066,
    "Ġripple": 25504,
    "Ġgrenadier": 21614,
    "anel": 21355,
    "Ġcash": 9651,
    "Ġcommunity": 19008,
    "Ġjest": 18403,
    "fiercely": 25256,
    "Ġmouse": 4692,
    "Ġprinces": 23224,
    "alive": 10826,
    "Ġcommon": 1414,
    "Ġdeclaration": 16635,
    "forgot": 11031,
    "Ġlaboratory": 13610,
    "Ġdimin": 3874,
    "Ġamput": 16030,
    "Ġhelter": 24023,
    "Ġperv": 15987,
    "ĠĠĠĠĠĠ": 6414,
    "Ġproced": 2580,
    "enjoyment": 17256,
    "mystery": 15153,
    "Ġsubdued": 11032,
    "Ġprinc": 4200,
    "mbly": 9792,
    "augmented": 26286,
    "Ġho": 1929,
    "Ġreaches": 18031,
    "Ġwarmth": 6905,
    "reeable": 3612,
    "Ġdip": 13905,
    "carries": 19526,
    "Ġvinegar": 20098,
    "Ġtamely": 24979,
    "Ġneuron": 1808,
    "might": 4081,
    "Ġphantom": 8706,
    "Ġdeliverance": 15155,
    "Ġexpiring": 16092,
    "terdam": 18129,
    "ifies": 6686,
    "yet": 3755,
    "velling": 14761,
    "Ġpracticable": 19069,
    "Ġchapters": 10472,
    "wheels": 14379,
    "harpooneer": 8688,
    "youngest": 19742,
    "guarded": 13292,
    "Ġinferiority": 17114,
    "disposed": 25010,
    "Ġsentiment": 6588,
    "circumspect": 26086,
    "Ġchooses": 13344,
    "Ġoverladen": 22349,
    "lee": 11583,
    "Ġnervousness": 23555,
    "hastily": 19701,
    "silver": 19689,
    "wherever": 13116,
    "ĺ": 251,
    "piteous": 21032,
    "Ġgodfrey": 15291,
    "gaff": 20881,
    "Ġdegener": 14046,
    "originally": 24937,
    "Ġbefitting": 15722,
    "Ġrewarded": 14938,
    "Ġdeparted": 5563,
    "Ġbenevolent": 7773,
    "anx": 8782,
    "Ġflatt": 16247,
    "hedge": 22497,
    "Ġencoun": 4509,
    "Ġwat": 1288,
    "Ġnind": 17949,
    "tfordshire": 4811,
    "Ġvertu": 23888,
    "Ġadventurous": 16732,
    "Ġriggers": 24155,
    "tured": 13793,
    "Ġupd": 947,
    "harmony": 25750,
    "Ġguests": 12284,
    "lanter": 15385,
    "orient": 2882,
    "rapid": 12666,
    "Ġindistinct": 17406,
    "winter": 10739,
    "pits": 15410,
    "Ġcouns": 10519,
    "Ġjo": 2610,
    "cnns": 3621,
    "Ġjealous": 9467,
    "Ġleast": 2063,
    "Ġerie": 20052,
    "Ġtopsails": 19193,
    "Ġamours": 22479,
    "penetrating": 25490,
    "Ġenlist": 21934,
    "Ġmanufact": 22326,
    "Ġlashed": 9197,
    "alley": 23021,
    "getting": 12963,
    "ĠĠĠĠĠĠĠĠĠĠĠĠĠĠĠĠĠĠĠĠĠĠĠĠĠĠĠĠĠĠĠĠĠĠĠĠĠĠĠĠĠĠĠĠĠĠĠĠĠĠĠĠĠĠĠĠĠĠĠĠ": 19259,
    "ugnance": 12364,
    "publ": 17637,
    "sit": 13778,
    "Ġshores": 8846,
    "Ġimminent": 11244,
    "Ġmildly": 9028,
    "fatigue": 20657,
    "Ġbecause": 2210,
    "Ġtrough": 15960,
    "request": 21240,
    "Ġcrib": 21346,
    "Ġhang": 9186,
    "Ġknown": 1640,
    "Ġomitted": 12560,
    "Ġabsorbed": 12328,
    "Ġmaintaining": 1509,
    "Ġrevel": 9213,
    "snowy": 20282,
    "Ġsulkily": 25882,
    "Ġbask": 8117,
    "locks": 14455,
    "Ġpower": 1264,
    "sank": 17661,
    "aston": 7408,
    "contemplated": 20457,
    "Ġ221": 25068,
    "sad": 11519,
    "Ġfeebly": 24877,
    "leisure": 21369,
    "Ġspan": 11725,
    "Ġtangle": 25760,
    "Ġ1820": 25718,
    "Ġhos": 4942,
    "prec": 3202,
    "Ġyarns": 15193,
    "application": 12360,
    "Ġassault": 9836,
    "Ġphotograph": 6302,
    "Ġtumbling": 13824,
    "Ġdine": 7366,
    "being": 3917,
    "nature": 5359,
    "Ġasylum": 13664,
    "atural": 941,
    "Ġtarred": 23608,
    "umbers": 10917,
    "asons": 6015,
    "anation": 5803,
    "yra": 8103,
    "Ġblindly": 12106,
    "gun": 10095,
    "enthusiastic": 20691,
    "Ġknew": 2054,
    "isite": 15559,
    "Ġshrivelled": 19702,
    "Ġoptimal": 1856,
    "positive": 20566,
    "intimate": 22935,
    "Ġadvise": 7935,
    "Ġremoval": 12114,
    "Ġfavourite": 5270,
    "Ġquest": 1999,
    "Ġbulldog": 23857,
    "ĠĠĠĠĠĠĠĠĠĠĠĠĠĠĠĠĠĠĠĠĠĠĠĠĠĠĠĠĠĠĠĠĠĠĠĠĠĠ": 16525,
    "Ġstrictly": 12282,
    "reason": 4412,
    "utting": 17984,
    "corrid": 24483,
    "lotte": 3332,
    "nowled": 5470,
    "Ġmerits": 13194,
    "vap": 13801,
    "rons": 21038,
    "Ġlion": 9674,
    "meat": 18679,
    "Ġtechni": 1698,
    "Ġundergo": 23237,
    "Ġcrawling": 17044,
    "boilers": 26297,
    "Ġgreeted": 23212,
    "satisfactory": 16892,
    "Ġwearing": 12735,
    "Ġtruth": 3320,
    "substance": 15229,
    "Ġsuspend": 14607,
    "Ġtwelfth": 22676,
    "hement": 13830,
    "happening": 16562,
    "Ġpips": 9847,
    "Ġtransformations": 3486,
    "deserts": 25379,
    "arent": 4248,
    "Ġbreaching": 23346,
    "Ġelegant": 7532,
    "Ġbarrens": 25501,
    "Ġeventually": 8616,
    "beries": 22719,
    "Ġbutler": 18237,
    "halloa": 17089,
    "Ġlanes": 19764,
    "tremble": 17140,
    "Ġhav": 12750,
    "weary": 22684,
    "expectations": 24275,
    "Ġfill": 5701,
    "september": 14034,
    "Ġmathematics": 12070,
    "Ġwreck": 7314,
    "syntax": 5867,
    "slack": 16893,
    "Ġbless": 4340,
    "Ġblocked": 19222,
    "medi": 2629,
    "Ġunconcerned": 20508,
    "innocent": 20285,
    "neglect": 25668,
    "Ġbluff": 16516,
    "Ġmud": 11571,
    "Ġintellig": 525,
    "measured": 19988,
    "Ġgovernments": 20266,
    "fect": 2301,
    "tain": 558,
    "Ġpersuading": 19408,
    "modern": 1127,
    "kinson": 10024,
    "mounting": 25207,
    "acetty": 24463,
    "Ġweighty": 16029,
    "Ġseams": 12121,
    "Ġli": 601,
    "Ġaddressing": 11163,
    "Ġprecip": 7074,
    "pleasantness": 19769,
    "Ġspeaks": 11158,
    "Ġtorrents": 20054,
    "shaw": 6864,
    "sixteen": 24853,
    "Ġdrawing": 3921,
    "brad": 20780,
    "Ġheredit": 9215,
    "uated": 10130,
    "Ġsanctioned": 26349,
    "Ġreluctant": 20523,
    "Ġclassification": 1089,
    "Ġket": 18347,
    "Ġunass": 14113,
    "gathered": 13730,
    "Ġhumming": 12981,
    "Ġmasters": 11573,
    "Ġmurderous": 8316,
    "ginger": 13161,
    "prejudice": 25571,
    "Ġchilian": 25563,
    "Ġlucifers": 16586,
    "Ġcatastrophic": 3543,
    "ev": 6952,
    "Ġprudential": 17917,
    "Ġwhist": 6022,
    "Ġdoubling": 23316,
    "Ġlazily": 11379,
    "Ġwaited": 4908,
    "bonnet": 25742,
    "Ġschool": 5512,
    "Ġearning": 23938,
    "Ġoverlooked": 15964,
    "Ġreeled": 13984,
    "ckles": 22087,
    "remed": 18953,
    "Ġmab": 12556,
    "walton": 20248,
    "Ġtemptations": 24504,
    "Ġfrozen": 9011,
    "Ġpropontis": 17464,
    "Ġwhir": 6393,
    "Ġwretchedly": 19505,
    "rib": 1944,
    "rd": 17648,
    "reward": 15507,
    "Ġjiff": 22294,
    "broker": 13302,
    "enger": 10772,
    "playing": 19656,
    "wrong": 13204,
    "Ġshri": 5375,
    "Ġcommunion": 19007,
    "ifle": 10890,
    "Ġhandful": 9780,
    "Ä": 133,
    "Ġwigwam": 11427,
    "vate": 21108,
    "Ġjonah": 3482,
    "Ġdeterminate": 23002,
    "Ġsparkled": 13460,
    "inclined": 10638,
    "Ġdebt": 12164,
    "haz": 17563,
    "Ġepistle": 24904,
    "Ġtul": 21158,
    "memory": 13615,
    "Ġvelvet": 12395,
    "Ġliberties": 19666,
    "Ġfreighted": 16320,
    "advent": 10219,
    "Ġunctuousness": 17234,
    "Ġpreced": 6040,
    "Ġperempt": 13671,
    "reduced": 15802,
    "Ġtheme": 16016,
    "Ġstaple": 26198,
    "Ġmark": 2332,
    "Ġfrogs": 23920,
    "Ġring": 4449,
    "26": 10071,
    "Ġlinear": 3433,
    "Ġsemi": 11965,
    "Ġsurve": 9872,
    "Ġlounging": 10020,
    "Ġmystery": 5509,
    "ribly": 8255,
    "Ġislands": 6766,
    "Ġstatement": 5254,
    "accountable": 7109,
    "Ġcurds": 22993,
    "Ġdeserved": 7737,
    "Ġinexorable": 12252,
    "Ġbalmy": 22901,
    "Ġgrievous": 13258,
    "Ġbutcher": 18238,
    "Ġbase": 5013,
    "Ġdenying": 14657,
    "Ġfierceness": 26264,
    "vig": 15444,
    "red": 398,
    "12": 20748,
    "aning": 2250,
    "Ġmanif": 8869,
    "luckily": 19751,
    "Ġbreeding": 14520,
    "Ġharem": 9707,
    "arson": 22747,
    "Ġprinciples": 10009,
    "Ġavalanche": 17431,
    "Ġrocks": 6863,
    "Ġ61": 24363,
    "generative": 4328,
    "Ġreligion": 11414,
    "Ġscuttle": 7414,
    "rudently": 16710,
    "Ġboughs": 20487,
    "Ġmerryweather": 9520,
    "Ġpurely": 12228,
    "Ġhumaneval": 25582,
    "ordered": 8788,
    "immediate": 20092,
    "orous": 5292,
    "Ġdrows": 21434,
    "Ġbash": 12582,
    "cloudless": 20331,
    "Ġadmirable": 8269,
    "Ġwalrus": 14971,
    "wond": 8767,
    "poise": 6171,
    "Ġnook": 15925,
    "Ġlearnedly": 23384,
    "Ġbecher": 18880,
    "Ġdeer": 12716,
    "Ġundulates": 24118,
    "Ġretrogression": 26580,
    "Ġtitle": 11407,
    "based": 2965,
    "Ġlaughed": 5059,
    "sies": 21053,
    "Ġcleans": 18948,
    "Ġslips": 23165,
    "handsome": 13174,
    "Ġglancing": 5399,
    "Ġgodly": 19080,
    "Ġmouldings": 24737,
    "Ġvengeance": 5885,
    "Ġfifty": 4621,
    "Ġforces": 12698,
    "Ġscandinavian": 26344,
    "Ġvisited": 5948,
    "Ġinsince": 23678,
    "Ġreadily": 5253,
    "Ġbind": 12578,
    "Ĩ": 233,
    "Ġhudson": 15189,
    "Ġtaught": 6803,
    "Ġrudeness": 17123,
    "ces": 578,
    "Ġchry": 22244,
    "pread": 7418,
    "Ġspinal": 12299,
    "Ġpreposter": 12818,
    "Ġloves": 10914,
    "known": 3569,
    "tic": 8391,
    "Ġburton": 23652,
    "Ġpeg": 22687,
    "Ġunob": 22013,
    "Ġork": 18284,
    "Ġstillness": 12991,
    "fights": 20864,
    "club": 26379,
    "dor": 12448,
    "steering": 16634,
    "Ġwerter": 15237,
    "Ġalex": 15131,
    "Ġsingle": 1693,
    "colnett": 19329,
    "Ġstabbing": 20302,
    "aration": 12603,
    "Ġknight": 9725,
    "Ġshaded": 14103,
    "Ġunjust": 8483,
    "Ġsanction": 20024,
    "Ġproverb": 12712,
    "Ġvouch": 15806,
    "greater": 13249,
    "Ġjudges": 14684,
    "Ġkrem": 9724,
    "iew": 2448,
    "Ġdrab": 13068,
    "wharf": 20605,
    "Ġfads": 21415,
    "reeling": 21243,
    "Ġ80": 24455,
    "ude": 7562,
    "uerus": 26405,
    "conditionally": 24834,
    "Ġspectacles": 12094,
    "Ġanim": 2114,
    "arising": 17895,
    "icated": 7590,
    "Ġshutters": 9935,
    "ah": 1831,
    "Ġemails": 13104,
    "Ġcruellest": 19657,
    "dually": 3283,
    "Ġdre": 1744,
    "Ġlatter": 3995,
    "Ġcourtesy": 9943,
    "Ġhurt": 7701,
    "Ġrecip": 16139,
    "petulance": 24298,
    "Ġextras": 22723,
    "urpr": 2286,
    "Ġstammered": 26199,
    "Ġchecked": 9374,
    "ableness": 8149,
    "Ġnative": 4639,
    "Ġfortun": 4982,
    "Ġalt": 18098,
    "Ġcombining": 22858,
    "Ġdepos": 11006,
    "mangled": 20980,
    "object": 6884,
    "´": 117,
    "Ġremorseless": 13449,
    "concl": 12867,
    "aret": 7417,
    "Ġadmirals": 20383,
    "hued": 20910,
    "remem": 13063,
    "Ġproducts": 5198,
    "due": 22408,
    "Ġlengthen": 15650,
    "setting": 13283,
    "Ġboy": 3025,
    "Ġemperors": 15157,
    "Ġswain": 18881,
    "Ġcup": 5697,
    "ceived": 1962,
    "Ġshoal": 12012,
    "island": 10793,
    "Ġsauc": 15884,
    "hing": 980,
    "Ġtiresome": 26156,
    "mistakable": 20652,
    "precisely": 6917,
    "eight": 9590,
    "Ġcooking": 16645,
    "Ġvillagers": 19472,
    "ravelled": 18014,
    "hauled": 20667,
    "@": 36,
    "hours": 9123,
    "pursue": 24975,
    "bucket": 17492,
    "Ġapprehens": 5682,
    "beth": 13686,
    "Ġwealthy": 18178,
    "agings": 18165,
    "Ġwickedness": 9524,
    "forehead": 8515,
    "Ġearthly": 7990,
    "bres": 11470,
    "Ġtow": 4393,
    "Ġtuileries": 24826,
    "Ġmutinous": 23955,
    "Ġsandwiched": 26609,
    "Ġramsgate": 18648,
    "Ġviol": 2071,
    "swear": 16917,
    "Ġraft": 16114,
    "Ġuncle": 3193,
    "Ġvigilant": 20183,
    "Ġrippling": 17276,
    "plans": 21950,
    "Ġ75": 19611,
    "Ġbundles": 26175,
    "Ġappellation": 22220,
    "Ġvit": 10244,
    "pet": 4867,
    "hearty": 14832,
    "efficient": 2872,
    "Ġselfish": 7272,
    "Ġlake": 5227,
    "Ġdesert": 6726,
    "happened": 9431,
    "Ġmotioned": 19591,
    "pagan": 17284,
    "collins": 6916,
    "Ġheavens": 5050,
    "sometimes": 5972,
    "arian": 10314,
    "attentive": 17188,
    "Ġungodly": 26512,
    "Ġexecution": 6927,
    "exped": 16524,
    "Ġcommunicated": 9060,
    "Ġunobstructed": 18267,
    "Ġattain": 12743,
    "Ġretreat": 6070,
    "harpooned": 24285,
    "_),": 7125,
    "endous": 6850,
    "lorn": 12484,
    "Ġpip": 1635,
    "Ġaudio": 24772,
    "ras": 21035,
    "Ġtarget": 2823,
    "frequented": 25900,
    "Ġinequal": 21495,
    "Ġrash": 10897,
    "Ġcomputational": 1624,
    "lances": 15381,
    "Ġshrimp": 24156,
    "rivial": 9432,
    "Ġdoubts": 8579,
    "Ġleaking": 21743,
    "um": 454,
    "Ġhailed": 6407,
    "Ġfringe": 17270,
    "partiality": 13158,
    "Ġ97": 19773,
    "Ġscornful": 24998,
    "Ġthings": 1960,
    "painting": 17045,
    "Ġenabling": 1077,
    "Ġescaped": 6459,
    "ĠâĢľ": 517,
    "Ġdiadem": 24741,
    "stonecraft": 24355,
    "Ġloops": 8851,
    "mits": 13754,
    ".âĢĻ": 1720,
    "Ġspat": 2664,
    "Ġslewed": 23383,
    "Ġmantle": 25274,
    "Ġseeth": 21958,
    "Ġdivined": 19441,
    "Ġlend": 17962,
    "Ġstepmother": 16085,
    "Ġsummar": 3526,
    "Ġbraz": 19356,
    "Ġarmchair": 8271,
    "Ġaccents": 14209,
    "Ġselect": 4004,
    "Ġapprehensiveness": 16876,
    "Ġheart": 1594,
    "Ġruins": 16155,
    "Ġsignificant": 8633,
    "ag": 377,
    "Ġbulwarks": 5591,
    "Ġrelevance": 5184,
    "È": 137,
    "Ġcanallers": 13625,
    "ividual": 5463,
    "Ġenjoyment": 7300,
    "reve": 12535,
    "Ġcanvassed": 19933,
    "orts": 2555,
    "Ġpaints": 23523,
    "Ġquiescent": 26242,
    "Ġbenefits": 4285,
    "ullen": 8235,
    "disappeared": 14568,
    "Ġinclement": 22551,
    "Ġsolitudes": 22885,
    "Ġsort": 1508,
    "Ġvegetables": 15219,
    "Ġlulled": 17968,
    "Ġundeviating": 15215,
    "forest": 22516,
    "Ġpills": 21464,
    "Ġlately": 6387,
    "Ġproportionably": 19969,
    "Ġtwink": 8216,
    "Ġfolded": 7768,
    "isome": 17848,
    "owe": 15704,
    "august": 11070,
    "Ġshocked": 9399,
    "contempl": 13189,
    "Ġtwins": 16117,
    "Ġdisinclination": 22534,
    "eric": 3472,
    "Ġobliter": 14320,
    "Ġgroaned": 11265,
    "hauteur": 26390,
    "aph": 10953,
    "Ġdep": 745,
    "00": 1609,
    "savagery": 25025,
    "Í": 142,
    "Ġmuff": 8114,
    "Ġsimulation": 2754,
    "tumultuous": 20397,
    "Ġengineering": 3028,
    "something": 4283,
    "draughts": 20386,
    "Ġmus": 3396,
    "Ġswiftness": 9925,
    "Ġcables": 15554,
    "anything": 5518,
    "Ġirre": 7468,
    "consequence": 9761,
    "Ġtid": 8107,
    "Ġcyl": 15553,
    "methodically": 20663,
    "bert": 4661,
    "Ġmoon": 4605,
    "faced": 8080,
    "Ġinland": 11606,
    "Ġsaturn": 22898,
    "Ġape": 21195,
    "noise": 14325,
    "either": 6791,
    "itable": 5437,
    "Ġslumbers": 18941,
    "dat": 1696,
    "Ġcontrived": 10302,
    "Ġtoler": 7588,
    "Ġaged": 10320,
    "Ġpoorly": 9853,
    "Ġoccasioned": 13224,
    "Ġbelonged": 6922,
    "Ġmeans": 698,
    "Ġvigilance": 12368,
    "Ġabundance": 17154,
    "Ġbeasts": 10616,
    "Ġlengths": 19205,
    "Ġirene": 8444,
    "Ġregulations": 18588,
    "irectly": 6940,
    "officers": 10626,
    "wis": 12515,
    "Ġharsh": 9519,
    "Ġtour": 9146,
    "adow": 18087,
    "acter": 2508,
    "Ă": 195,
    "Ġreal": 1631,
    "aut": 1912,
    "oment": 920,
    "Ġquivers": 22411,
    "Ġpreserve": 7529,
    "aces": 2068,
    "philosop": 9566,
    "Ġbarbs": 10530,
    "fort": 1748,
    "Ġrepublic": 14530,
    "terms": 15747,
    "Ġtalent": 12294,
    "Ġpipe": 4319,
    "dishon": 20402,
    "Ġlikeness": 11178,
    "Ġplaces": 5390,
    "quadr": 15760,
    "Ġadvantageously": 19544,
    "Ġfragments": 19052,
    "having": 5211,
    "Ġdragg": 23218,
    "Ġparasol": 22119,
    "ampling": 12722,
    "erring": 11056,
    "coloured": 7291,
    "bread": 10683,
    "duck": 22410,
    "sim": 6510,
    "!âĢĶ": 2456,
    "kindness": 10504,
    "Ġcolour": 4459,
    "Ġindia": 10369,
    "Ġlevelled": 11283,
    "Ġcolle": 8921,
    "Ġconventional": 25547,
    "Ġromantic": 8031,
    "inese": 12876,
    "Ġpresenting": 18988,
    "Ġhumped": 19768,
    "perquis": 22188,
    "Ġnewcastle": 16220,
    "Ġmixed": 6974,
    "harb": 9122,
    "Ġeuropean": 20044,
    "violently": 23541,
    "arned": 21815,
    ",)": 9099,
    "Ġtrack": 7450,
    "Ġtreasure": 9557,
    "Ġviews": 7290,
    "loath": 22507,
    "accepting": 20134,
    "delirious": 19504,
    "ental": 7168,
    "Ġcasting": 12097,
    "airs": 2220,
    "concerted": 16670,
    "Ġmidships": 23634,
    "Ġdir": 21420,
    "peace": 13045,
    "oug": 431,
    "Ġexistence": 4705,
    "Ġ72": 19610,
    "Ġmagnifying": 16317,
    "\"]": 17469,
    "Ġsymmetrical": 20365,
    "ulgent": 18149,
    "Ġsombre": 18859,
    "Ġcomrade": 12280,
    "ĭ": 238,
    "Ġresented": 22541,
    "uries": 6147,
    "extrem": 18706,
    "Ġoverhanging": 22348,
    "ech": 4387,
    "Ġleap": 5824,
    "Ġcounted": 12136,
    "spee": 9315,
    "seemingly": 25362,
    "Ġwarmer": 19184,
    "ario": 14246,
    "Ġrational": 8479,
    "amples": 1821,
    "Ġacquaint": 13041,
    "Ġerr": 1320,
    "Ġmanhandle": 22327,
    "Ġstandards": 19015,
    "cking": 4264,
    "Ġade": 22098,
    "grant": 10426,
    "Ġchemical": 10409,
    "Ġtail": 3089,
    "-": 17,
    "ldog": 21915,
    "Ġaffability": 14385,
    "Ġ235": 25713,
    "Ġglimp": 6066,
    "ishness": 22340,
    "Ġmumbled": 17807,
    "Ġbranch": 8332,
    "Ġelephant": 8256,
    "introduction": 15121,
    "Ġbuff": 9171,
    "Ġsenses": 8252,
    "Ġbaby": 6636,
    "Ġbreathing": 9443,
    "Ġsolic": 7933,
    "Ġgreatest": 4095,
    "Ġgene": 15668,
    "Ġparameters": 993,
    "mort": 10709,
    "Ġforbearing": 25098,
    "Ġpoetic": 17102,
    "Ġlam": 21547,
    "Ġroving": 22401,
    "Ġeulogy": 26469,
    "connections": 14426,
    "Ġexc": 1830,
    "achel": 7032,
    "Ġexcursion": 26588,
    "ribbed": 16410,
    "Ġchiselled": 25559,
    "Ġhatch": 7848,
    "Ġapology": 8328,
    "itzerland": 9993,
    "itional": 22470,
    "ocris": 23707,
    "_,âĢĻ": 12430,
    "contrast": 25594,
    "Ġexceeding": 1582,
    "Ġfugitive": 17325,
    "Ġped": 6817,
    "ality": 2514,
    "Ġcured": 21345,
    "Ġstreng": 18070,
    "Ġnoiselessly": 22861,
    "see": 3048,
    "owders": 18047,
    "Ġunsupplied": 22041,
    "dry": 13701,
    "landlord": 9839,
    "Ġspake": 18308,
    "Ġtout": 17718,
    "Ġreflections": 5947,
    "Ġultimately": 17163,
    "mention": 7214,
    "their": 2541,
    "twill": 21073,
    "Ġseven": 4539,
    "Ġmah": 15537,
    "Ġsmoked": 10321,
    "Ġpott": 21466,
    "Ġblacks": 23386,
    "Ġamazement": 7765,
    "Ġsignify": 16493,
    "Ġenumer": 12741,
    "Ġsentence": 6187,
    "conf": 4957,
    "Ġdefinition": 14402,
    "Ġre": 317,
    "depth": 12796,
    "Ġaloud": 6252,
    "anded": 5923,
    "ports": 13772,
    "Ġaway": 1244,
    "Ġlegible": 23532,
    "Ġanx": 3182,
    "Ġclos": 4546,
    "Ġagree": 7646,
    "Ġmornings": 16232,
    "Ġaccept": 4408,
    "Ġversion": 10628,
    "Ġflashes": 11913,
    "oper": 7347,
    "Ġ*/": 10372,
    "Ġ2026": 12332,
    "Ġlikened": 16498,
    "yellow": 9623,
    "Ġcapacious": 19175,
    "Ġrealistic": 5860,
    "Ġbloodthirsty": 26600,
    "Ġcoming": 2619,
    "Ġequator": 7461,
    "Ġprince": 18971,
    "Ġgasfitters": 25038,
    "Ġtree": 5284,
    "ivates": 18280,
    "indisc": 22371,
    "aboard": 21792,
    "Ġlogs": 16344,
    "ush": 3632,
    "Ġtuesday": 9625,
    "os": 526,
    "Ġantichron": 24180,
    "Ġemergencies": 17360,
    "Ġsmoothe": 23655,
    "cushion": 20820,
    "Ġcultured": 25154,
    "l": 80,
    "murder": 10563,
    "Ġhusband": 3620,
    "icil": 17971,
    "knowing": 10436,
    "lynes": 15700,
    "Ġsequences": 1750,
    "Ġprevailing": 24673,
    "Ġaugust": 10596,
    "sher": 5217,
    "Ġmoth": 17802,
    "counter": 20277,
    "Ġnonce": 23234,
    "Ġmeagre": 21811,
    "grown": 10098,
    "Ġpeterson": 9481,
    "market": 16838,
    "Ġconstrued": 26301,
    "Ġsequence": 1973,
    "twice": 14619,
    "hope": 5990,
    "Ġoff": 904,
    "Ġpropriet": 9548,
    "commanders": 16988,
    "wer": 8395,
    "Ġvultures": 25653,
    "Ġcad": 12564,
    "Ġadv": 1117,
    "Ġscreams": 24604,
    "Ġdur": 11590,
    "ounders": 22383,
    "difference": 13706,
    "Ġstarve": 24626,
    "Ġdoor": 1740,
    "Ġstuff": 5717,
    "adequ": 11019,
    "uming": 8491,
    "Ġireland": 17333,
    "umber": 5241,
    "Ġfervently": 25877,
    "Ġproved": 4884,
    "Ġweakened": 16822,
    "Ġemphasis": 20535,
    "Ġregard": 3068,
    "Ġtumb": 21168,
    "rie": 2788,
    "expound": 23663,
    "Ġnorthern": 7265,
    "anity": 9653,
    "Ġaf": 781,
    "clergyman": 20728,
    "Ġassailants": 20447,
    "Ġactiv": 833,
    "Ġval": 974,
    "fin": 5209,
    "Ġsullen": 9156,
    "violence": 16477,
    "errand": 22907,
    "Ġavowed": 16632,
    "gment": 4388,
    "Ġhog": 13922,
    "Ġappalling": 8499,
    "quimaux": 21851,
    "Ġdog": 4193,
    "Ġfidelity": 15239,
    "Ġbrimming": 22864,
    "Ġruffled": 25835,
    "Ġrevisit": 21668,
    "Ġcordial": 16834,
    "Ġunmanner": 22027,
    "Ġavowal": 19413,
    "animal": 16977,
    "sciss": 18851,
    "Ġsour": 21215,
    "Ġcomo": 21852,
    "Ġprecipitate": 19940,
    "Ġflesh": 5969,
    "Ġexpanding": 25238,
    "Ġfloated": 7288,
    "Ġsprings": 16686,
    "Ġplan": 3885,
    "gunwale": 20662,
    "Ġattached": 5392,
    "aming": 5828,
    "bab": 11467,
    "Ġinstructions": 11195,
    "myst": 9820,
    "Ġoverflowed": 20261,
    "Ġcontr": 1914,
    "Ġtearless": 24786,
    "Ġfade": 21406,
    "ortion": 11754,
    "heredit": 21208,
    "Ġtook": 1855,
    "Ġtrespass": 23599,
    "Ġunderstand": 840,
    "Ġcane": 10926,
    "Ġfronts": 20530,
    "ilies": 18056,
    "Ġwhistle": 9065,
    "binder": 17498,
    "Ġsatisfaction": 5667,
    "vill": 10734,
    "Ġrepining": 23359,
    "Ġelasticity": 19557,
    "Ġabuse": 18392,
    "rely": 6123,
    "comfortable": 7320,
    "Ġindignation": 8347,
    "Ġinterview": 9768,
    "Ġharvard": 24572,
    "Ġcompunction": 18585,
    "ern": 746,
    "Ġliv": 6679,
    "Ġuntamed": 19163,
    "Ġgiving": 4088,
    "Ġexecuted": 9470,
    "gl": 3291,
    "Ġprognost": 15279,
    "Ġaries": 21196,
    "Ġunbelief": 22047,
    "Ġdeclaring": 19418,
    "pped": 1995,
    "Ġbrag": 23831,
    "Ġapparel": 20434,
    "Ġpuffed": 14975,
    "Ġpatients": 24813,
    "ige": 12675,
    "ential": 827,
    "gpt": 5355,
    "Ġdirected": 5578,
    "ibid": 18839,
    "nants": 17612,
    "Ġchristians": 13306,
    "Ġgpus": 3731,
    "Ġunfold": 8023,
    "consciously": 19624,
    "pier": 17634,
    "consolatory": 25306,
    "kill": 13742,
    "Ġmodesty": 12814,
    "Ġtemporal": 2614,
    "Ġestablished": 9068,
    "Ġcharacter": 2795,
    "Ġstumble": 26481,
    "Ġbam": 15562,
    "ootiful": 17371,
    "Ġsacrificial": 24871,
    "Ġweighted": 2089,
    "tuning": 1583,
    "Ġindestructible": 26571,
    "fold": 7546,
    "awe": 20764,
    "Ġalarm": 4051,
    "Ġweaving": 12736,
    "Ġglare": 13009,
    "Ġfru": 8420,
    "wont": 21131,
    "Ġcompromising": 22571,
    "commanded": 16987,
    "carpenter": 11426,
    "Ġreplete": 15694,
    "Ġheavier": 13099,
    "Ġdiscrimination": 23604,
    "Ġtable": 2501,
    "Ġvale": 14080,
    "Ġpleaded": 16296,
    "Ġcommunicative": 24547,
    "volous": 18599,
    "Ġundu": 15835,
    "Ġassid": 18945,
    "yards": 9622,
    "Ġeternally": 11368,
    "supernatural": 19778,
    "Ġattent": 4358,
    "observation": 17268,
    "Ġentertain": 6054,
    "Ġendeavouring": 8035,
    "Ġembattled": 26288,
    "twelve": 14620,
    "ks": 3145,
    "Ġabatement": 22274,
    "Ġsideboard": 10384,
    "Ġrecede": 25968,
    "ouring": 6420,
    "Ġkl": 2738,
    "Ġfac": 6381,
    "Ġappalled": 22219,
    "Ġstamping": 20029,
    "urons": 3131,
    "ows": 1916,
    "Ġswim": 3823,
    "quired": 21847,
    "Ġscratch": 25564,
    "Ġprejudiced": 24809,
    "Ġpoints": 5248,
    "Ġgeography": 23370,
    "telesc": 22814,
    "Ġthis": 382,
    "mechanical": 25578,
    "Ġsolitary": 5854,
    "fearfully": 25116,
    "Ġbriskly": 25311,
    "Ġpaws": 13919,
    "ourage": 2452,
    "affectionate": 24921,
    "Ġconcussion": 26300,
    "Ġbluish": 23649,
    "se": 358,
    "raid": 3279,
    "Ġpoor": 1712,
    "accomplishment": 20222,
    "Ġriveted": 13616,
    "Ġlog": 1677,
    "night": 2168,
    "Ġgracefully": 13389,
    "heaving": 21206,
    "iscre": 17850,
    "Ġobstacle": 16954,
    "Ġconfines": 23302,
    "bil": 20770,
    "Ġmarred": 23029,
    "ressing": 8917,
    "Ġsummit": 7731,
    "consequential": 26249,
    "Ġlodge": 5779,
    "Ġ200": 19295,
    "Ġcommonly": 3264,
    "iantly": 13737,
    "Ġcaus": 1725,
    "ulance": 15763,
    "..": 5783,
    "pooh": 18798,
    "delay": 16697,
    "domestic": 19824,
    "Ġgabriel": 7595,
    "sticking": 21652,
    "ale": 506,
    "Ġteased": 18801,
    "alliance": 22198,
    "Ġgripping": 26186,
    "relations": 14731,
    "ww": 10736,
    "hast": 5357,
    "clothed": 19736,
    "Ġklux": 22193,
    "gloomy": 25144,
    "barr": 15318,
    "ifford": 15780,
    "Ġprices": 15608,
    "Ġgross": 11623,
    "Ġfollowing": 4066,
    "flagged": 23969,
    "Ġperceptible": 18451,
    "Ġjudge": 5502,
    "Ġundiscovered": 18255,
    "hardly": 6491,
    "Ġunresting": 25553,
    "Ġconfusion": 7273,
    "finish": 24383,
    "Ġconcentrated": 15081,
    "Ġladyship": 5046,
    "Ġlizard": 12650,
    "Ġbusks": 23336,
    "Ġfirmest": 16663,
    "Ġstrangest": 14794,
    "Ġunexpected": 6842,
    "forever": 22517,
    "bern": 20774,
    "Ġdiv": 3730,
    "science": 11906,
    "Ġactions": 6278,
    "judging": 24200,
    "tubs": 15128,
    "inations": 7567,
    "xible": 13806,
    "Ġgentlemen": 3642,
    "!--": 10676,
    "Ġtot": 4186,
    "Ġburnt": 9926,
    "Ġ180": 16605,
    "them": 3022,
    "ses": 3029,
    "Ġkicked": 10580,
    "bench": 16802,
    "Ġglory": 6065,
    "Ġentreaty": 10528,
    "derstand": 648,
    "Ġdark": 2113,
    "deserving": 17240,
    "travel": 24315,
    "Ġflinging": 13583,
    "dear": 6555,
    "unalterable": 21884,
    "Ġresearch": 3746,
    "Ġdreamt": 23936,
    "800": 17475,
    "excuse": 13379,
    "Ġencamp": 22799,
    "Ġhour": 1811,
    "rifice": 12500,
    "Ġsymbolize": 24962,
    "programming": 10061,
    "olence": 10229,
    "ser": 1425,
    "Ġunsupervised": 2749,
    "Ġspleen": 26420,
    "Ġprivile": 8645,
    "Ġconsistent": 14527,
    "Ġphant": 7055,
    "instrument": 15236,
    "ativeness": 15518,
    "Ġhackney": 20431,
    "Ġanne": 1529,
    "Ġ38": 24078,
    "shock": 19854,
    "Ġsustained": 13480,
    "Ġenergies": 25459,
    "iline": 21719,
    "ars": 906,
    "ouri": 21446,
    "Ġramad": 8528,
    "stump": 21645,
    "idence": 4300,
    "Ġshameful": 19851,
    "Ġecon": 9676,
    "Ġdreamed": 16628,
    "Ġsorrowful": 10535,
    "Ġgritted": 22803,
    "rem": 1520,
    "Ġchiefly": 5766,
    "Ġdisappointing": 19578,
    "Ġdissolved": 18554,
    "Ġbended": 21383,
    "Ġsenate": 25214,
    "rossing": 18638,
    "Ġobstructed": 24677,
    "sl": 5794,
    "Ġtime": 690,
    "Ġconsecrated": 26487,
    "Ġandrew": 21505,
    "Ġprairie": 8712,
    "Ġshabby": 14109,
    "Ġcousin": 3704,
    "compose": 24031,
    "Ġboot": 11835,
    "afford": 14653,
    "Ġquies": 18464,
    "Ġfrost": 6096,
    "Ġla": 5913,
    "Ġroarings": 25302,
    "Ġbankrupt": 16795,
    "Ġcrowder": 19454,
    "Ġcommons": 22670,
    "Ġzones": 22815,
    "Ġscar": 3212,
    "ent": 305,
    "amongst": 24672,
    "Ġscorching": 20066,
    "Ġwhittingham": 26197,
    "Ġflowed": 10370,
    "Ġillustrative": 25066,
    "lord": 3867,
    "Ġattitudes": 16095,
    "Ġspoil": 17006,
    "Ġrain": 5005,
    "Ġfumbled": 17881,
    "Ġtranced": 18421,
    "cape": 13695,
    "Ġconscience": 6929,
    "Ġfurnishing": 16644,
    "Ġburg": 23651,
    "regulated": 23466,
    "page": 13769,
    "Ġregion": 2270,
    "Ġenraptured": 26499,
    "Ġclosely": 6488,
    "Ġvariously": 18653,
    "ason": 1257,
    "Ġreigns": 21669,
    "swed": 24252,
    "blooded": 20021,
    "Ġcalmly": 7734,
    "master": 5687,
    "cab": 7333,
    "Ġjets": 10286,
    "Ġloudly": 7312,
    "Ġungover": 18258,
    "Ġfollies": 16255,
    "Ġpromise": 4199,
    "Ġstepping": 9352,
    "Ġcolon": 18762,
    "etime": 12655,
    "Ġprofit": 14584,
    "Ġsafie": 6617,
    "Ġdaylight": 10349,
    "Ġspikes": 22134,
    "Ġmutually": 23954,
    "Ġdecaying": 2244,
    "Ġseat": 4949,
    "Ġbooks": 4674,
    "riumph": 4919,
    "Ġinvariably": 8064,
    "Ġdarkened": 16430,
    "Ġremark": 2146,
    "unhesitatingly": 26495,
    "Ġrepressed": 21666,
    "uss": 8763,
    "closing": 23155,
    "rosc": 17954,
    "countenances": 24150,
    "Ġexception": 11215,
    "yielded": 25756,
    "Ġpet": 4583,
    "books": 8663,
    "ignation": 11127,
    "Ġast": 2966,
    "Ġtranquilly": 12287,
    "Ġlatest": 16821,
    "usations": 15944,
    "Ġpulley": 2980,
    "://": 11464,
    "Ġbarbaric": 10012,
    "umes": 10916,
    "Ġtenderness": 12212,
    "inioned": 19286,
    "Ġlegisl": 23533,
    "brushing": 20787,
    "ignomin": 23265,
    "isted": 3299,
    "Ġcollectively": 19966,
    "rods": 21536,
    "Ġenchanted": 9079,
    "Ġparticular": 2450,
    "herself": 4890,
    "Ġirreduc": 5491,
    "Ġdonkey": 23228,
    "Ġpotential": 3619,
    "engagement": 14457,
    "orter": 4254,
    "bow": 5424,
    "Ġobjection": 6585,
    "aky": 18411,
    "Ġskylarking": 19485,
    "Ġmalacca": 24392,
    "Ē": 211,
    "Ġperches": 18448,
    "Ġbarbary": 24215,
    "Ġchances": 9261,
    "article": 22381,
    "Ġ101": 24408,
    "your": 1982,
    "Ġjetted": 24430,
    "Ġnapoleon": 20556,
    "Ġhosmer": 6774,
    "Ġlowest": 11121,
    "ignominious": 26586,
    "Ġfals": 15577,
    "endeavouring": 15014,
    "Ġunchanged": 22029,
    "Ġthistle": 21914,
    "Ġheedful": 19739,
    "bounded": 13437,
    "Ġhardihood": 23110,
    "omet": 3076,
    "Ġtickets": 17093,
    "Ġsurmises": 17054,
    "ax": 694,
    "endured": 22225,
    "Ġasiatics": 20429,
    "rugg": 15893,
    "dinner": 11405,
    "legra": 10788,
    "oting": 2746,
    "Ġmusic": 5268,
    "Ġunwillingness": 20030,
    "Ġclerks": 17293,
    "Ġlevi": 3036,
    "Ġdignity": 5704,
    "Ġinvis": 6902,
    "Ġcommerce": 11014,
    "ĠĠĠĠĠĠĠĠĠĠĠĠĠĠĠĠĠĠĠĠĠĠĠĠĠĠĠĠĠĠĠĠĠĠĠĠĠĠĠĠĠĠĠĠĠĠĠĠĠĠĠ": 20037,
    "received": 9637,
    "Ġfuss": 13903,
    "ladyship": 14827,
    "Ġsoutherly": 23331,
    "_:": 17477,
    "flutter": 23968,
    "Ġsalary": 13291,
    "ors": 853,
    "emptied": 23636,
    "Ġrespons": 2685,
    "iousness": 4899,
    "Ġcreation": 6439,
    "Ġuprising": 12798,
    "Ġsutherland": 10147,
    "Ġservox": 23868,
    "Ġmounting": 19975,
    "Ġmess": 7832,
    "Ġincommunicable": 26610,
    "Ġdraws": 19434,
    "Ġminds": 6303,
    "ickory": 22667,
    "Ġungrateful": 14120,
    "circle": 16735,
    "Ġro": 599,
    "Ġlords": 14640,
    "Ġprovinces": 24189,
    "Ġlids": 12272,
    "ina": 21178,
    "Ġkeeping": 7283,
    "elzebub": 26463,
    "Ġuniversal": 2232,
    "Ġdifferen": 936,
    "Ġbart": 17857,
    "mystical": 25317,
    "Ġthirst": 7589,
    "ws": 7355,
    "ahit": 9380,
    "Ġslackened": 15124,
    "rol": 5713,
    "Ġrelations": 5852,
    "Ġbeg": 1284,
    "Ġrains": 24339,
    "Ġvalidate": 3245,
    "Ġmember": 8585,
    "Ġthrobbing": 16897,
    "ke": 429,
    "elt": 4117,
    "Ġfrightful": 7736,
    "ittleness": 22374,
    "Ġpoker": 13920,
    "iary": 15368,
    "Ġfearless": 9873,
    "Ġblessings": 24175,
    "aze": 10073,
    "Ġun": 424,
    "Ġislanders": 19500,
    "Ġmassive": 9930,
    "ighbour": 3388,
    "arr": 3046,
    "Ġunheeded": 18264,
    "oubted": 5859,
    "Ġsentinel": 26065,
    "Ġmanhood": 22324,
    "Ġintrusion": 12761,
    "Ġattachment": 6050,
    "Ġattended": 5391,
    "Ġslammed": 20446,
    "haul": 14764,
    "Ġvolume": 6769,
    "Ġshrugged": 12765,
    "smith": 5669,
    "Ġtooth": 9191,
    "elizabeth": 1984,
    "Ġuser": 15912,
    "Ġeth": 17715,
    "Ġskies": 8919,
    "Ġbathe": 25443,
    "Ġhavoc": 15810,
    "rels": 6664,
    "Ġtossed": 5815,
    "Ġremedy": 18725,
    "ople": 2320,
    "Ġferrule": 24516,
    "Ġfamiliarly": 11302,
    "pt": 388,
    "shaven": 18494,
    "resc": 21237,
    "irous": 8837,
    "Ġexordium": 26491,
    "Ġgerm": 13962,
    "Ġeh": 6987,
    "Ġeconomically": 25288,
    "Ġgag": 21591,
    "Ġeurope": 8062,
    "Ġdevils": 7230,
    "Ġimpossibility": 20646,
    "namely": 23622,
    "mies": 20967,
    "Ġinterlude": 16069,
    "reme": 2425,
    "Ġoverlook": 10956,
    "Ġbackbone": 22647,
    "Ġgreas": 17991,
    "sters": 6391,
    "vedale": 22708,
    "Ġnap": 8807,
    "Ġflows": 13006,
    "running": 6797,
    "ainted": 3658,
    "us": 532,
    "Ġdeed": 7869,
    "Ġspirits": 3697,
    "Ġexcessive": 3895,
    "Ġgratification": 24095,
    "Ġsavage": 4016,
    "Ġkn": 4543,
    "Ġburying": 19251,
    "attle": 4464,
    "Ġunderstanding": 1843,
    "Ġma": 3253,
    "Ġenvironment": 3802,
    "Ġsched": 2338,
    "Ġmorass": 22967,
    "Ġaddresses": 3771,
    "Ġstaid": 21733,
    "lled": 10106,
    "Ġsinned": 18951,
    "converse": 22477,
    "Ġstuffed": 13407,
    "Ġsense": 3251,
    "Ġsuddenly": 2646,
    "ogene": 18673,
    "Ġlig": 21546,
    "Ġgame": 3628,
    "Ġelse": 2483,
    "Ġamuse": 5940,
    "Ġavenue": 13619,
    "Ġcareless": 11118,
    "erative": 21271,
    "fishing": 20858,
    "Ġcelebrate": 26357,
    "pid": 1394,
    "Ġexasperate": 20096,
    "Ġcomfort": 3440,
    "shriek": 20518,
    "acters": 9307,
    "endless": 22224,
    "Ġcraggy": 23528,
    "Ġdisown": 22522,
    "circumstances": 8047,
    "Ġcedar": 15186,
    "acc": 2534,
    "Ġmortification": 12090,
    "Ġperformed": 8546,
    "Ġledger": 19400,
    "Ġannoyance": 20661,
    "Ġprove": 5231,
    "particip": 23615,
    "Ġsuspic": 4468,
    "Ġgrow": 2862,
    "Ġrascal": 11698,
    "Ġfulf": 6772,
    "shabb": 18495,
    "Ġbid": 6131,
    "Ġwakeful": 24265,
    "seas": 14031,
    "Ġyoungster": 23180,
    "endure": 22223,
    "Ġrobert": 10969,
    "Ġundoing": 22033,
    "Ġoutlandish": 12834,
    "Ġclump": 15971,
    "Ġimproving": 1210,
    "Ġinhabited": 12182,
    "Ġcholera": 22251,
    "Ġtri": 4813,
    "Ġarisen": 11740,
    "Ġclicked": 22363,
    "Ġke": 1157,
    "first": 3939,
    "rative": 17651,
    "urities": 18049,
    "Ġforetold": 23450,
    "encing": 21281,
    "Ġbench": 7238,
    "pp": 384,
    "cils": 20813,
    "poled": 22904,
    "Ġoblig": 3446,
    "Ġcircum": 8258,
    "Ġmother": 2066,
    "ckinridge": 11716,
    "Ġplied": 22595,
    "Ġprofessions": 11230,
    "clam": 13051,
    "iamond": 14589,
    "Ġpostpone": 17305,
    "Ġhatchways": 24989,
    "Ġundertaken": 18987,
    "tained": 4403,
    "Ġrece": 11636,
    "Ġrosy": 18458,
    "sar": 12501,
    "complet": 11382,
    "Ġlayer": 1011,
    "py": 17623,
    "Ġpolicy": 10456,
    "Ġpetulance": 24226,
    "fastened": 19324,
    "Ġbreakfast": 3980,
    "pronounce": 25192,
    "frame": 17115,
    "Ġinjection": 3468,
    "Ġpapa": 10655,
    "Ġdefault": 3040,
    "powder": 17644,
    "Ġmainly": 22645,
    "illing": 8175,
    "Ġsinusoidal": 4801,
    "Ġcontemptible": 16952,
    "Ġlondon": 2841,
    "Ġwhirlp": 16962,
    "Ġoccurring": 2793,
    "influence": 13576,
    "vicinity": 20478,
    "Ġoutrage": 15955,
    "true": 2588,
    "tea": 18740,
    "abiding": 21791,
    "Ġscheme": 7064,
    "Ġaccur": 3464,
    "Ġlo": 453,
    "Ġapproving": 18514,
    "Ġindignant": 12236,
    "Ġproudly": 19741,
    "Ġsympathising": 24296,
    "Ġparamet": 607,
    "Ġ91": 24590,
    "I": 45,
    "tit": 11526,
    "house": 4080,
    "fitting": 1510,
    "ippers": 17575,
    "Ġbrilliancy": 20105,
    "Ġ113": 19695,
    "Ġquito": 24407,
    "perpetually": 20511,
    "Ġbrace": 11210,
    "Ġloath": 7892,
    "iltrated": 19305,
    "Ġinsensibility": 17109,
    "Ġwhirlwinds": 20463,
    "Ġmoose": 22431,
    "tled": 3458,
    "Ġconfide": 13095,
    "gorith": 551,
    "Ġchose": 7413,
    "Ġsymmet": 11744,
    "Ġvolcanoes": 24145,
    "Ġresistance": 13528,
    "Ġhapless": 15809,
    "Ġsoles": 22083,
    "Ġuncont": 14115,
    "Ġprincely": 24147,
    "Ġobser": 2070,
    "Ġessential": 7523,
    "Ġcolleg": 22851,
    "Ġ46": 19489,
    "moor": 22702,
    "oftener": 23962,
    "Ġcarpenters": 16751,
    "Ġdiscourse": 9796,
    "Ġactively": 18654,
    "Ġhumorously": 18779,
    "Ġgrammar": 1060,
    "jumped": 20245,
    "Ġopenshaw": 7956,
    "Ġegress": 21619,
    "isive": 10792,
    "Ġtroub": 22342,
    "possession": 12218,
    "Ġlamented": 24993,
    "Ġsubord": 22787,
    "washed": 13042,
    "Ġwing": 6665,
    "Ġindiscriminately": 20626,
    "Ġmourn": 8703,
    "á": 162,
    "Ġplaited": 14281,
    "Ġinferior": 8366,
    "Ġexpressive": 8981,
    "Ġsweetest": 13245,
    "Ġprosecut": 9696,
    "ď": 208,
    "Ġcharacteristic": 12045,
    "Ġyouthful": 16722,
    "Ġrocky": 13385,
    "Ġtreasures": 17046,
    "Ġcaterpillar": 5864,
    "ufactured": 15179,
    "Ġgallons": 14816,
    "Ġshells": 20362,
    "representing": 25271,
    "Ġmassa": 19452,
    "Ġreconciled": 13585,
    "Ġbrewed": 23345,
    "Ġtrappers": 23080,
    "Ġreinforcement": 3108,
    "Ġknot": 7011,
    "Ġsolemnity": 9939,
    "justified": 19002,
    "intim": 22932,
    "Ġoverpower": 12836,
    "Ġextant": 18683,
    "summer": 11990,
    "Ġbene": 2030,
    "Ġpia": 21462,
    "Ġseasoned": 24404,
    "swept": 19785,
    "countryman": 24639,
    "iciously": 17973,
    "Ġrashness": 25460,
    "Ġmelting": 24287,
    "oky": 8198,
    "Ġbrother": 2751,
    "Ġadvisable": 11441,
    "Ġorganizations": 12311,
    "ian": 1238,
    "Ġbefriend": 18081,
    "hent": 12530,
    "Ġtorm": 5434,
    "Ġresign": 18564,
    "Ġrecept": 1522,
    "Ġjost": 23631,
    "habit": 16187,
    "honorable": 19900,
    "iancy": 13005,
    "Ġland": 1994,
    "metallic": 19879,
    "Ġtoil": 6531,
    "Ġsentimental": 24754,
    "Ġlegit": 16471,
    "ĠĠĠĠĠĠĠĠĠĠĠĠĠĠĠĠĠĠĠĠĠĠĠĠĠĠĠĠĠĠĠĠĠĠĠĠ": 23666,
    "enborough": 21284,
    "Ġshovel": 23489,
    "Ġeastern": 11627,
    "Ġfearfully": 23509,
    "oughed": 22075,
    "Ġconf": 1818,
    "icherry": 15133,
    "Ġhaggerston": 26451,
    "Ġbold": 5291,
    "Ġnorm": 763,
    "aven": 8209,
    "Ġregretted": 13398,
    "Ġsteady": 4847,
    "ù": 186,
    "Ġredeem": 20498,
    "Ġencouraged": 9353,
    "Ġpassionate": 11272,
    "achusetts": 20709,
    "osition": 1377,
    "Ġsigned": 11176,
    "Ġfow": 6133,
    "Ġimpatience": 7509,
    "Ġluckily": 16797,
    "runs": 25415,
    "Ġsatire": 22897,
    "Ġarrested": 9559,
    "ostent": 16845,
    "Ġsturgeon": 20590,
    "easy": 9591,
    "Ġra": 814,
    "shows": 22454,
    "ð": 177,
    "Ġterra": 13114,
    "cool": 19186,
    "Ġlive": 2737,
    "Ġgilded": 17443,
    "Ġgeor": 3387,
    "antique": 18287,
    "Ġ177": 13410,
    "alog": 8803,
    "Ġdazz": 11592,
    "Ġdolphins": 20394,
    "Ġgaol": 19566,
    ";--": 8069,
    "Ġunnear": 22026,
    "Ġventilator": 8713,
    "Ġdejection": 15194,
    "concerning": 9063,
    "Ġrecomm": 4996,
    "Ġspouted": 14673,
    "Ġgrand": 3593,
    "Ġincul": 22547,
    "Ġcheetah": 14501,
    "Ġwithstand": 10224,
    "Ġsettee": 22919,
    "Ġfloats": 9411,
    "antingly": 22096,
    "Ġshout": 4263,
    "stud": 8818,
    "Ġcomfits": 21857,
    "Ġdangers": 12351,
    "Ġjacobians": 2896,
    "drawing": 10485,
    "Ġsuggest": 5417,
    "Ġtremble": 6906,
    "Ġmot": 2989,
    "Ġsway": 7571,
    "day": 1858,
    "Ġounce": 15270,
    "Ġreply": 4512,
    "Ġaccompaniments": 24481,
    "scure": 22981,
    "Ġtum": 5692,
    "gangway": 20666,
    "Ġrapture": 13494,
    "Ġcheapside": 23286,
    "Ġfris": 23255,
    "Ġpierced": 12278,
    "Ġfind": 1458,
    "addition": 13382,
    "date": 17516,
    "Ġobservations": 13551,
    "Ġcuriosities": 26289,
    "Ġtheory": 5798,
    "gences": 20876,
    "promise": 12247,
    "Ġbinding": 20417,
    "visits": 24222,
    "Ġgid": 13960,
    "Ġawfulness": 23586,
    "Ġeff": 675,
    "Ġrolled": 4427,
    "attention": 2111,
    "Ġfamily": 1964,
    "Ġsmooth": 2780,
    "Ġcreditable": 19621,
    "Ġflag": 7242,
    "Ġ98": 24594,
    "----": 4061,
    "Ġafresh": 18626,
    "Ġhead": 1124,
    "Ġdro": 2772,
    "Ġstupendous": 20499,
    "Ġrestricted": 19024,
    "ficial": 17547,
    "Ġpopular": 6216,
    "distinguish": 19571,
    "Ġbeauties": 10444,
    "ference": 1881,
    "mut": 17594,
    "ency": 3871,
    "Ġlunging": 24991,
    "patched": 17642,
    "Ġfi": 931,
    "usually": 10284,
    "Ġones": 3023,
    "Ġreigned": 13985,
    "report": 13397,
    "Ġgrie": 3584,
    "Ġdem": 11672,
    "merry": 16535,
    "Ġbetter": 1175,
    "somehow": 12008,
    "Ġdesign": 4134,
    "Ġiceland": 15144,
    "nose": 17609,
    "Ġintensely": 17016,
    "render": 10289,
    "Ġneur": 815,
    "Ġhideousness": 16914,
    "prepar": 22464,
    "under": 3132,
    "idirectional": 2421,
    "Ġciv": 3308,
    "thole": 21984,
    "cks": 3080,
    "Ġaudible": 19880,
    "Ġcabman": 14604,
    "Ġcaw": 13881,
    "--âĢľ": 12968,
    "pursued": 17280,
    "Ġwooden": 4729,
    ",âĢĶâĢĺ": 23800,
    "Ġsympathy": 6346,
    "problem": 25244,
    "aulets": 18619,
    "lemency": 21372,
    "Ġprecision": 13187,
    "earth": 6502,
    "Ġspokes": 18313,
    "Ġhypocr": 19470,
    "Ġraptures": 13495,
    "eat": 11481,
    "dead": 8180,
    "Ġugly": 8715,
    "Ġtranqu": 4601,
    "Ġdressed": 5081,
    "Ġcontext": 1700,
    "removing": 17763,
    "Ġanonym": 17897,
    "Ġdenominated": 15226,
    "hunted": 16831,
    "âĢĿ--": 21814,
    "chant": 4257,
    "Ġmatrimony": 13633,
    "Ġnorthward": 13319,
    "ispens": 8336,
    "sea": 4763,
    "Ġforced": 4350,
    "objects": 13468,
    "rusted": 16505,
    "erde": 21267,
    "Ġoutlast": 22311,
    "Ġflaw": 23010,
    "Ġpointing": 5661,
    "Ġsensational": 16389,
    "rig": 7556,
    "Ġupdate": 2466,
    "incident": 14590,
    "Ġadmin": 23552,
    "Ġturning": 3327,
    "volutional": 1933,
    "Ġsunda": 13542,
    "Ġemail": 19074,
    "doubted": 17525,
    "az": 2181,
    "ire": 492,
    "used": 3260,
    "hammad": 23262,
    "great": 3518,
    "leful": 17842,
    "Ġregiment": 6432,
    "Ġyours": 4126,
    "Ġcroquet": 9960,
    "Ġconcerned": 5331,
    "Ġanomalous": 25637,
    "vanity": 24976,
    "Ġamused": 11796,
    "Ġsurviv": 13433,
    "Ġeagerness": 6608,
    "Ġarom": 15490,
    "Ġimpenitent": 26547,
    "Ġstrasburgh": 18615,
    "Ġrepenting": 25322,
    "Ġapproaching": 6283,
    "Ġuniformity": 23482,
    "Ġaccount": 2321,
    "begged": 18517,
    "Ġarmitage": 23580,
    "Ġtemporarily": 11166,
    "Ġmamma": 10046,
    "Ġglove": 14490,
    "emper": 18181,
    "author": 9858,
    "nor": 2743,
    "Ġclatter": 22355,
    "Ġnarrow": 5086,
    "flask": 12096,
    "Ġpianoforte": 15271,
    "Ġinquis": 19303,
    "Ġbarbarous": 13474,
    "Ġunhappiness": 14117,
    "Ġbou": 17852,
    "Ġfling": 9659,
    "Ġbreach": 11970,
    "Ġsprawling": 22137,
    "Ġweal": 21917,
    "Ġcontemplated": 13462,
    "Ġwore": 6377,
    "Ġserenity": 10026,
    "attempted": 20173,
    "Ġdoes": 942,
    "Ġchapter": 2960,
    "Ġpupils": 20419,
    "Ġrespective": 16342,
    "Ġdiameter": 19866,
    "Ġdl": 3376,
    "weigh": 18665,
    "Ġsighing": 18676,
    "Ġthickness": 13275,
    "Ġscenari": 22285,
    "points": 14391,
    "osity": 14184,
    "Ġblaming": 22928,
    "Ġinstructing": 3123,
    "Ġcough": 11579,
    "would": 2352,
    "alarms": 21503,
    "Ġbeaufort": 13566,
    "heading": 5487,
    "ckets": 6843,
    "pale": 13770,
    "lying": 7174,
    "stir": 12668,
    "Ġpropensity": 18996,
    "spending": 18691,
    "Ġrushes": 20506,
    "evenings": 19461,
    "twig": 23698,
    "icide": 11616,
    "inridge": 11559,
    "ress": 930,
    "Ġvacancies": 24344,
    "Ġostrich": 26429,
    "ernsey": 8900,
    "Ġelijah": 9098,
    "Ġlima": 10441,
    "Ġmental": 21318,
    "surprising": 16918,
    "favouring": 24762,
    "Ġmeta": 3330,
    "perceive": 12808,
    "Ġremote": 8918,
    "Ġcomplimented": 14902,
    "Ġbiggest": 24565,
    "Ġovertaken": 18424,
    "Ġomnipotent": 13546,
    "Ġscand": 7203,
    "Ġprotectors": 9069,
    "sery": 17660,
    "Ġlionel": 25286,
    "Ġirregularly": 25323,
    "Ġwhaleboats": 18478,
    "Ġinferences": 17934,
    "Ġtiles": 17725,
    "Ġrecognise": 12037,
    "thousand": 5546,
    "Ġguardianship": 17418,
    "ested": 3481,
    "Ġdoomed": 11341,
    "Ġhall": 4184,
    "Ġanon": 9665,
    "Ġeleg": 6192,
    "Ġcrosswise": 18886,
    "Ġ19": 6719,
    "Ġperforming": 7928,
    "Ġsaturation": 2061,
    "Ġapprove": 12869,
    "ubbub": 23243,
    "Ġcontemplative": 19892,
    "Ġunc": 2125,
    "desolation": 20448,
    "Ġvan": 1084,
    "machine": 971,
    "Ġaloft": 4301,
    "astonished": 15031,
    "Ġexecut": 4246,
    "Ġsustain": 10015,
    "Ġtelescopes": 25690,
    "!âĢĻ": 3333,
    "keys": 15855,
    "Ġsummoning": 23872,
    "immortal": 21708,
    "azore": 23461,
    "Ġtenderly": 11313,
    "thur": 7188,
    "fetch": 12461,
    "Ġrepine": 16407,
    "strikes": 24670,
    "Ġcleared": 6075,
    "Ġcarpet": 9354,
    "Ġcandles": 9906,
    "imperturbable": 25790,
    "Ġfatig": 6756,
    "Ġmarvell": 7248,
    "repugnance": 16863,
    "oubtedly": 6943,
    "Ġtill": 1823,
    "Ġremonstrate": 22793,
    "Ġris": 4886,
    "uses": 11758,
    "ercely": 12546,
    "ÿ": 192,
    "aring": 1477,
    "obstructed": 15224,
    "stepfather": 19189,
    "Ġtradesmen": 17104,
    "igen": 4829,
    "experience": 17157,
    "Ġtapering": 8770,
    "Ġlookest": 22716,
    "Ġmillar": 13859,
    "Ġcommun": 1709,
    "Ġforesight": 13125,
    "Ġdust": 5909,
    "Ġservice": 6471,
    "Ġconverts": 2807,
    "Ġrepulses": 26070,
    "Ġjib": 14192,
    ".;": 20743,
    "Ġantagon": 19549,
    "Ġpunct": 8660,
    "Ġshaster": 21996,
    "neither": 9755,
    "uberance": 25916,
    "legs": 13182,
    "Ġsty": 6251,
    "Ġunappalled": 22063,
    "pot": 10116,
    "_.âĢĿ": 5886,
    "Ġsilvery": 13091,
    "Ġproficiency": 19191,
    "ket": 17581,
    "Ġcongeal": 25980,
    "one": 615,
    "Ġcant": 17824,
    "cries": 17509,
    "Ġventure": 7740,
    "Ġ33": 16675,
    "Ġaberdeen": 26540,
    "Ġpittance": 15613,
    "Ġcontemporary": 16009,
    "Ġhaste": 9002,
    "Ġstrangers": 8314,
    "Ġmungo": 25631,
    "entropy": 1438,
    "fashioned": 9569,
    "rank": 21040,
    "Ġsharp": 2415,
    "Ġcoco": 10999,
    "Ġsuperst": 7704,
    "Ġgurgling": 17444,
    "tahit": 17691,
    "unhappy": 10236,
    ",âĢĿ": 579,
    "Ġpioneer": 17916,
    "usions": 6159,
    "inities": 21184,
    "Ġgrasping": 12162,
    "Ġart": 751,
    "Ġemac": 16404,
    "Ġembracing": 14978,
    "jaw": 13741,
    "Ġofficio": 23812,
    "Ġwill": 679,
    "Ġauthor": 4372,
    "Ġinsisted": 12043,
    "Ġdelivery": 18974,
    "arled": 21441,
    "Ġcircumstance": 4987,
    "ntax": 935,
    "Ġspring": 4123,
    "Ġcumberland": 21353,
    "egyptians": 25898,
    "hideous": 25407,
    "Ġprecise": 7075,
    "ga": 17549,
    "Ġinhabitants": 7524,
    "achines": 1724,
    "Ġshining": 8172,
    "Ġinfinite": 8576,
    "Ġfaithfully": 14885,
    "Ġ6": 5141,
    "settled": 10505,
    "may": 3679,
    "Ġflashed": 11911,
    "indispensable": 14208,
    "Ġmaty": 22911,
    "oise": 15402,
    "soles": 18688,
    "Ġwake": 4749,
[...]
