{
  "metadata": {
    "vocab_size": 26613,
    "algorithm": "BPE",
    "created_at": "2026-07-28 05:13:21",
    "special_tokens": [
      "<PAD>",
      "<SOS>",
      "<EOS>",
      "<UNK>",
      "<MASK>"
    ]
  },
  "vocab": {
    "Ġnegatived": 23046,
    "Ġcorroboration": 26053,
    "beaut": 8512,
    "Ġplaint": 10324,
    "Ġdispositions": 13230,
    "Ġanalogy": 25639,
    "Ġcommunity": 19009,
    "coil": 23558,
    "overhearing": 19056,
    "Ġsay": 932,
    "Ġassid": 18944,
    "Ġadorn": 12788,
    "mean": 6438,
    "ieving": 7031,
    "Ġconfusing": 23306,
    "anth": 13885,
    "Ġstrained": 10217,
    "Ġdistrict": 10317,
    "Ġgospel": 18000,
    "Ġpool": 5173,
    "Ġengaging": 9334,
    "Ġoverpowering": 15247,
    "lections": 4752,
    "Ġstature": 10862,
    "away": 4626,
    "phant": 6287,
    "Ġrevolut": 3255,
    "Ġlap": 8437,
    "Ġbrooded": 23102,
    "Ġtart": 12524,
    "level": 2655,
    "full": 7420,
    "Ġju": 10285,
    "Ġinquiry": 6484,
    "plac": 15813,
    "stones": 11633,
    "Ġobservation": 6597,
    "Ġstarting": 7729,
    "Ġtapped": 11552,
    "boom": 18999,
    "Ġobserved": 3539,
    "everybody": 8610,
    "ado": 11656,
    "brevi": 24072,
    "Ġinvestment": 24335,
    "--âĢľ": 12968,
    "Ġhorror": 3771,
    "Ġantarctic": 19551,
    "Ġimpossible": 3541,
    "Ġoptimal": 1858,
    "Ġsnatch": 14638,
    "Ġghostly": 24650,
    "Ġintrusted": 21990,
    "string": 15681,
    "Ġshine": 12762,
    "sensibility": 25023,
    "Ġbehaviors": 13253,
    "Ġroman": 8323,
    "Ġcategories": 4477,
    "Ġvehicles": 10658,
    "Ġrumors": 11320,
    "carbuncle": 26381,
    "ishmael": 18420,
    "Ġguests": 12284,
    "Ġthereupon": 18434,
    "mansion": 20982,
    "Ġrash": 10897,
    "anges": 1673,
    "cely": 3572,
    "Ġmice": 13857,
    "Ġgirls": 4281,
    "tremendous": 20672,
    "Ġcatching": 9476,
    "Ġreadily": 5253,
    "skill": 24486,
    "Ġnominal": 15166,
    "Ġ122": 24466,
    "Ġclicked": 22363,
    "Ġafloat": 9306,
    "grey": 14910,
    "play": 5099,
    "Ġconcluding": 9855,
    "jury": 15371,
    "Ġtricks": 13482,
    "andy": 8158,
    "omach": 11635,
    "clim": 18929,
    "very": 499,
    "Ġisrael": 21801,
    "Ġwithdrawing": 11339,
    "Ġmoritz": 11902,
    "izard": 10878,
    "Ġprojecting": 9983,
    "Ġloads": 22112,
    "ti": 8390,
    "Ġcausing": 16354,
    "Ġsomewhat": 4897,
    "cross": 3573,
    "Ġtrophy": 20005,
    "Ġearlier": 9085,
    "lydon": 13987,
    "Ġquarters": 8619,
    "Ġopening": 5045,
    "Ġdep": 750,
    "Ġreeds": 15692,
    "cig": 17502,
    "Ġessentially": 24924,
    "Ġswinging": 7449,
    "purpose": 10042,
    "Ġachieved": 13164,
    "animation": 16978,
    "unvarying": 21885,
    "tub": 9142,
    "Ġmottled": 20677,
    "Ġmarvel": 23035,
    "Ġmassachusetts": 24019,
    "classes": 12132,
    "perplex": 18340,
    "Ġblowing": 10483,
    "Ġcommis": 22669,
    "disgrace": 16457,
    "warrant": 21136,
    "outside": 12800,
    "iless": 10280,
    "b": 70,
    "Ġseated": 4542,
    "Ġegress": 21621,
    "Ġsinned": 18950,
    "neville": 22449,
    "cring": 20810,
    "Ġlulled": 17968,
    "sander": 11525,
    "Ġtol": 6675,
    "Ġcomfort": 3437,
    "growing": 13731,
    "Ġpositives": 4319,
    "Ġ113": 19695,
    "Ġnook": 15925,
    "vol": 727,
    "Ġselected": 9709,
    "wn": 720,
    "Ġqueens": 16705,
    "arat": 9179,
    "Ġmari": 6813,
    "Ġcursed": 6727,
    "Ġago": 3135,
    "Ġscrut": 15943,
    "Ġencapsulate": 13672,
    "Ġblack": 2034,
    "iousness": 4899,
    "schoolmaster": 15159,
    "lovely": 16043,
    "Ġhull": 5446,
    "Ġrules": 1918,
    "ss": 397,
    "asons": 6015,
    "Ġrich": 2993,
    "Ġmysteriously": 24602,
    "ascribed": 24708,
    "Ġtri": 4813,
    "judge": 13334,
    "Ġfragments": 19014,
    "Ġpoky": 21477,
    "Ġsacrific": 15016,
    "Ġforms": 6397,
    "usion": 3298,
    "Ġbelonging": 8308,
    "ercely": 12546,
    "Ġcoloured": 11044,
    "stuff": 15683,
    "Ġsweatings": 25710,
    "Ġnobly": 22239,
    "Ġattained": 14076,
    "Ġraiment": 22650,
    "Ġuniformity": 23482,
    "Ġdiscussion": 17193,
    "Ġimage": 3401,
    "counters": 25397,
    "mechanically": 17298,
    "Ġsickbed": 24245,
    "abular": 4762,
    "Ġpractises": 23311,
    "searching": 25103,
    "Ġgases": 21600,
    "Ġtutored": 20126,
    "reeling": 21243,
    "bolts": 11419,
    "Ġdelirium": 10404,
    "Ġindependent": 9014,
    "Ġcuring": 21342,
    "Ġsunken": 14492,
    "Ġal": 342,
    "Ġmiserable": 3633,
    "Ġsailing": 5323,
    "Ġabst": 9264,
    "barrow": 15319,
    "Ġpumping": 25643,
    "Ġincalculable": 17459,
    "Ġimpatiently": 8338,
    "Ġhardly": 2436,
    "Ġforbearance": 12325,
    "Ġstrongly": 5657,
    "william": 4563,
    "Ġishmael": 7395,
    "Ġbrill": 8548,
    "Ġrio": 23889,
    "Ġwestward": 24388,
    "Ġplu": 8797,
    "Ġpeaking": 22688,
    "Ġplay": 2628,
    "Ġcannibals": 10586,
    "captains": 12124,
    "Ġreefed": 20301,
    "Ġcauses": 2563,
    "Ġpick": 4256,
    "Ġploughing": 26259,
    "Ġswitching": 23055,
    "Ġpoultry": 17439,
    "Ġbohem": 8526,
    "poled": 22905,
    "believed": 9931,
    "Ġruined": 12950,
    "bler": 11471,
    "ugues": 19022,
    "allows": 15905,
    "Ġrivers": 9441,
    "Ġxxi": 24475,
    "Ġvertically": 19378,
    "ract": 970,
    "nurse": 15206,
    "Ġcamp": 9163,
    "judges": 19572,
    "out": 467,
    "leaves": 12574,
    "uncommonly": 25549,
    "queer": 10362,
    "Ġreturn": 1711,
    "Ġspared": 7894,
    "whether": 5319,
    "Ġarisen": 11740,
    "Ġafresh": 18627,
    "fall": 5135,
    "Ġpious": 11596,
    "Ġwish": 2098,
    "chel": 11206,
    "unhappy": 10236,
    "rid": 5137,
    "Ġmaty": 22909,
    "Ġma": 3250,
    "house": 4078,
    "Ġloft": 5642,
    "Ġfinished": 5044,
    "Ġintervals": 5597,
    "andering": 21865,
    "iability": 20919,
    "Ġloungers": 24862,
    "Ġcrater": 16437,
    "Ġcho": 4548,
    "cabin": 8363,
    "judgment": 16752,
    "Ġneedles": 11183,
    "Ġsharkish": 24502,
    "Ġpossibility": 7458,
    "Ġsilly": 7686,
    "Ġinconceivable": 17937,
    "Ġhang": 9186,
    "Ġherd": 7889,
    "Ġweek": 2827,
    "Ġcuff": 17829,
    "ó": 180,
    "Ġsect": 17750,
    "vic": 13800,
    "Ġcollinses": 19129,
    "gee": 15974,
    "Ġspurred": 22136,
    "Ġvit": 10244,
    "Ġflooring": 23623,
    "Ġmagnified": 23200,
    "kitchen": 17584,
    "Ġgriev": 16633,
    "walks": 19720,
    "Ġfetch": 7770,
    "iously": 2678,
    "ism": 4874,
    "recollect": 17222,
    "spout": 7925,
    "Ġber": 5698,
    "Ġuneasy": 8661,
    "Ġmuteness": 19415,
    "Ġfer": 5623,
    "Ġfishery": 4176,
    "teous": 16169,
    "Ġdiscriminator": 3390,
    "Ġgracechurch": 12195,
    "Ġnlp": 3060,
    "Ġpiping": 23233,
    "eryton": 4095,
    "attle": 4466,
    "izes": 884,
    "âĢĻ!âĢĿ": 18167,
    "Ġtor": 8106,
    "Ġisland": 4049,
    "ferences": 10325,
    "phew": 6368,
    "confirm": 16806,
    "Ġspilled": 10923,
    "Ġflatter": 9346,
    "taught": 17683,
    "Ġsensitivity": 3068,
    "~": 98,
    "measure": 10029,
    "Ġsurplus": 26303,
    "Ġbottom": 3672,
    "Ġpil": 5014,
    "goose": 19101,
    "Ġagreeing": 20017,
    "Ġgamy": 17998,
    "Ġcele": 9898,
    "elag": 12654,
    "Ġrotation": 25474,
    "pens": 17631,
    "into": 3679,
    "Ġgemin": 21608,
    "Ġbutler": 18270,
    "Ġabrupt": 9734,
    "Ġhardy": 8565,
    "europe": 20664,
    "Ġportable": 19368,
    "Ġlucy": 17969,
    "Ġuncivil": 11154,
    "Ġdissuade": 26256,
    "Ġtribes": 20479,
    "Ġfluid": 11211,
    "Ġunconsciously": 10003,
    "Ġawe": 7147,
    "Ġprefer": 6416,
    "apes": 9739,
    "Ġnarrow": 5086,
    "ľ": 255,
    "bit": 3932,
    "Ġdelayed": 9516,
    "Ġdoct": 4455,
    "Ġsooner": 5572,
    "Ġfeet": 2258,
    "ulated": 6030,
    "ratulations": 20124,
    "Ġfaintness": 24569,
    "lengthwise": 19948,
    "attest": 23117,
    "aggoo": 5130,
    "Ġgay": 5534,
    "Ġtranquil": 7310,
    "medium": 23638,
    "Ġbatch": 889,
    "Ġlabour": 7274,
    "Ġaltogether": 4831,
    "Ġtook": 1857,
    "objects": 13468,
    "Ġvirgin": 7328,
    "dancing": 12451,
    "Ġdisse": 18548,
    "Ġinscrutable": 10671,
    "amped": 12031,
    "bolt": 25135,
    "commence": 19990,
    "Ġensuing": 12306,
    "Ġrespected": 11950,
    "Ġmultiple": 1187,
    "Ġconsequent": 18110,
    "verty": 8452,
    "Ġvaguely": 17364,
    "companions": 15022,
    "Ġdepos": 11007,
    "Ġliking": 23590,
    "latitude": 25259,
    "Ġpolitic": 23617,
    "Ġgnarled": 25165,
    "surely": 10568,
    "Ġexpensive": 12913,
    "Ġspaces": 3111,
    "Ġiterate": 13199,
    "Ġimaginative": 19245,
    "och": 21000,
    "Ġfretfulness": 25448,
    "Ġweather": 3996,
    "Ġdespond": 14666,
    "Ġgoing": 2067,
    "Ġmult": 1022,
    "und": 4119,
    "Ġdisd": 7030,
    "Ġspiced": 22131,
    "neck": 14233,
    "Ġcove": 22580,
    "overspreading": 26139,
    "Ġlinn": 13951,
    "Ġuniversal": 2235,
    "Ġsuppl": 11078,
    "Ġoccur": 1082,
    "Ġlengthen": 15650,
    "sively": 13784,
    "Ġlashing": 11614,
    "Ġstream": 5186,
    "Ġjanuary": 13651,
    "Ġbremen": 23344,
    "ernation": 8211,
    "Ġowners": 7663,
    "town": 7142,
    "Ġtide": 6658,
    "Ġundergone": 18985,
    "Ġwoll": 21292,
    "artificial": 985,
    "Ġfolded": 7768,
    "Ġ1950": 11358,
    "fleece": 19946,
    "Ġfro": 3470,
    ";": 31,
    "fo": 5278,
    "Ġexplain": 545,
    "obscure": 23096,
    "sutherland": 21061,
    "Ġattributed": 11832,
    "wing": 2521,
    "ott": 1873,
    "atha": 6572,
    "ingley": 1542,
    "bourgh": 19103,
    ",âĢĿâĢĶ": 14219,
    "Ġenvy": 13181,
    "bergen": 14324,
    "lo": 680,
    "ighb": 10422,
    "terrible": 8465,
    "Ġaddressed": 5262,
    "Ġbanking": 19629,
    "Ġquart": 11784,
    "Ġcynicism": 25771,
    "Ġspec": 1264,
    "Ġannihilated": 20251,
    "Ġsweetheart": 19393,
    "Ġwrinkles": 8570,
    "cons": 4310,
    "her": 489,
    "chose": 18040,
    "Ġreliability": 22879,
    "erc": 5905,
    "Ġliveliness": 13641,
    "Ġsigns": 2445,
    "Ġaverse": 11080,
    "Ġsales": 12803,
    "Ġbelshazzar": 16222,
    "Ġcommend": 10333,
    "Ġwondrous": 4735,
    "Ġwilds": 16507,
    "Ġcalendar": 18876,
    "ation": 320,
    "Ġefficiently": 3855,
    "leisure": 21369,
    "uth": 3016,
    "ivation": 3110,
    "Ġdey": 11673,
    "itioned": 22467,
    "Ġunthinkingly": 26220,
    "Ġbedside": 19121,
    "Ġsulk": 15044,
    "archangel": 18786,
    "Ġrepresented": 8937,
    "Ġdeductions": 19731,
    "Ġforthwith": 16617,
    "Ġgraces": 18225,
    "Ġrind": 21967,
    "Ġimprove": 1795,
    "text": 1972,
    "Ġmystical": 12129,
    "Ġinfinity": 23281,
    "Ġprehensile": 26533,
    "ience": 816,
    "Ġknowingly": 18482,
    "orious": 6008,
    "Ġcomfortable": 6095,
    "Ġintensified": 17017,
    "Ġuntidy": 23521,
    "Ġinspire": 11992,
    "Ġvices": 14081,
    "Ġtoe": 13934,
    "etite": 21577,
    "onic": 7828,
    "Ġcorresponds": 19820,
    "Ġaged": 10320,
    "Ġconfirmation": 17209,
    "ons": 709,
    "Ġunrelieved": 20544,
    "Ġbreaks": 13183,
    "Ġsatur": 1929,
    "Ġdoubts": 8579,
    "gration": 9120,
    "Ġyard": 5921,
    "form": 495,
    "source": 11524,
    "figured": 20121,
    "isticated": 1584,
    "sebastian": 21817,
    "Ġnotions": 14097,
    "Ġcordiality": 24394,
    "Ġexceptional": 19369,
    "Ġstain": 18064,
    "Ġafrica": 12342,
    "Ġwithdrew": 9694,
    "Ġappointed": 20101,
    "smitten": 23906,
    "Ġleeward": 6210,
    "ate": 422,
    "Ġtrance": 12835,
    "Ġthe": 270,
    "enjoyments": 25433,
    "Ġscre": 9735,
    "vine": 10733,
    "Ġbended": 21383,
    "otam": 21796,
    "Ġspikes": 22134,
    "Ġintroducing": 11972,
    "Ġgri": 17987,
    "Ġextrem": 2477,
    "Ġbutter": 6842,
    "james": 15370,
    "Ġarrange": 3120,
    "Ġresemblance": 7974,
    "sweetly": 25134,
    "title": 17286,
    "utral": 12659,
    "subst": 12161,
    "Ġbehaviour": 4385,
    "antee": 22095,
    "appe": 2944,
    "Ġxxxiv": 24969,
    "Ġdecisive": 18487,
    "baby": 25515,
    "ouncement": 11743,
    "Ġfugitives": 25634,
    "atch": 673,
    "argue": 21443,
    "Ġunreserved": 19395,
    "Ġshortness": 23480,
    "jected": 22712,
    "Ġwriggling": 15255,
    "attachment": 13048,
    "Ġslipper": 24264,
    "pression": 10406,
    "Ġcorrespond": 6209,
    "Ġcollection": 8222,
    "Ġbanker": 8666,
    "Ġoutlaws": 22321,
    "heads": 4096,
    "rowed": 22856,
    "cnns": 3620,
    "Ġunhappily": 18262,
    "zag": 17712,
    "reast": 17757,
    "Ġdisturbing": 19944,
    "Åĵ": 10743,
    "accordingly": 19212,
    "straight": 9938,
    "distinctive": 25726,
    "Ġingenuity": 17162,
    "noble": 7923,
    "Ġneglecting": 25007,
    "aloons": 20009,
    "Ġsebastian": 11695,
    "Ġlaunched": 14924,
    "Ġvivid": 8058,
    "Ġuser": 15914,
    "ougher": 18279,
    "Ġtravell": 5575,
    "at": 268,
    "Ġcoun": 4178,
    "approach": 24833,
    "feren": 767,
    "Ġunstructure": 2994,
    "Ġceleb": 20224,
    "iform": 2202,
    "Ġvexatious": 19780,
    "Ġbagging": 24538,
    "ulus": 21862,
    "Ġclaps": 22357,
    "Ġclimate": 9273,
    "Ġswamp": 14434,
    "Ġluxur": 12338,
    "Ġsingled": 23771,
    "hement": 13830,
    "shiver": 16023,
    "Ġemboldened": 22980,
    "Ġpanegyric": 26448,
    "horr": 14598,
    "Ġowe": 8115,
    "Ġblo": 2734,
    "Ġsus": 18275,
    "iage": 17572,
    "Ġsite": 17752,
    "Ġcosine": 2375,
    "Ġcalamity": 17347,
    "unfort": 21874,
    "skelter": 24489,
    "wretchedness": 17251,
    "Ġteacher": 22915,
    "iqu": 7803,
    "Ġpursuing": 9436,
    "plainly": 11089,
    "Ġillness": 8589,
    "tails": 21085,
    "Ġbade": 9170,
    "Ġdirected": 5578,
    "Ġcalcul": 3636,
    "Ġaccomplished": 7104,
    "Ġcrawl": 11374,
    "hide": 10702,
    "Ġconveniently": 20077,
    "sound": 6799,
    "Ġmixture": 9561,
    "Ġpassage": 3885,
    "joining": 19444,
    "rising": 7557,
    "Ġbone": 4695,
    "Ġthread": 14538,
    "Ġscrew": 8866,
    "type": 16174,
    "Ġgoverness": 8601,
    "Ġahead": 6662,
    "Ġoakshott": 12226,
    "Ġrad": 4962,
    "Ġcharacters": 9369,
    "andes": 18151,
    "Ġcigarette": 20655,
    "ected": 7874,
    "Ġasi": 12728,
    "Ġeucl": 24709,
    "Ġhackney": 20431,
    "Ġswan": 23049,
    "Ġutter": 3974,
    "Ġri": 3393,
    "Ġindex": 17048,
    "Ġhorsham": 10405,
    "Ġfiery": 6871,
    "Ġaquiline": 26159,
    "sticking": 21652,
    "Ġmccarthys": 19661,
    "Ġeth": 17715,
    "Ġwrench": 12553,
    "Ġperplexity": 2754,
    "umphed": 23515,
    "Ġdrives": 14577,
    "bingley": 4927,
    "Ġcoldly": 14649,
    "illity": 18296,
    "would": 2352,
    "Ġgo": 614,
    "rugg": 15893,
    "Ġaisle": 21200,
    "Ġveteran": 17448,
    "Ġirrad": 19093,
    "ocean": 12398,
    "Ġreaches": 18031,
    "ersampling": 18216,
    "ancies": 11582,
    "o": 83,
    "arer": 3968,
    "inct": 3290,
    "Ġrecommending": 24336,
    "Ġsatisfactory": 11192,
    "ander": 6401,
    "heric": 15909,
    "Ġcanal": 8182,
    "Ġguided": 10459,
    "Ġtorrid": 25032,
    "Ġblows": 5973,
    "batim": 25016,
    "Ġtongue": 6347,
    "Ġabased": 22266,
    "Ġplayed": 9414,
    "Ġfolds": 12203,
    "Ġtow": 4396,
    "Ġuncompromised": 20602,
    "marks": 7346,
    "Ġced": 10783,
    "Ġconvulsively": 25717,
    "hem": 6663,
    "Ġtreading": 16502,
    "Ġimprudent": 12843,
    "bon": 13682,
    "Ġkettle": 26232,
    "Ġhumor": 11050,
    "Ġalive": 4399,
    "Ġmap": 2393,
    "tur": 5688,
    "Ġcowardice": 17031,
    "Ġgid": 13960,
    "bourine": 9394,
    "trunk": 23945,
    "accursed": 20539,
    "tired": 21071,
    "Ġmasses": 10502,
    "Ġmiriam": 25273,
    "Ġspinal": 12299,
    "Ġbulk": 5590,
    "umst": 2506,
    "Ġcustom": 5078,
    "steady": 14707,
    "Ġcrowd": 6336,
    "Ġshops": 21999,
    "Ġcubs": 20085,
    "Ġdetection": 3156,
    "correct": 24482,
    "cloudless": 20331,
    "Ġadieu": 10049,
    "Ġeliminating": 20618,
    "Ġconnexion": 11453,
    "successively": 24779,
    "Ġtough": 13813,
    "Ġmbpp": 21320,
    "Ġacceptance": 14825,
    "warmly": 25026,
    "Ġunforeseen": 22051,
    "Ġrely": 8819,
    "Ġpoles": 11002,
    "Ġthieves": 15632,
    "Ġfired": 16151,
    "Ġguarded": 9824,
    "wondered": 17028,
    "Ġresp": 2496,
    "Ġnumer": 3637,
    "+": 15,
    "Ġext": 890,
    "Ġkindled": 19031,
    "Ġchil": 11748,
    "Ġrange": 9710,
    "Ġguns": 16775,
    "Ġsubord": 22786,
    "Ġglove": 14490,
    "Ġjo": 2610,
    "Ġalb": 14014,
    "Ġstained": 11650,
    "Ġtemperature": 1004,
    "harpooneer": 8688,
    "erringly": 16208,
    "Ġard": 5164,
    "Ġchase": 3945,
    "Ġadjac": 18292,
    "Ġextract": 1499,
    "Ġcrony": 23439,
    "Ġbraided": 16580,
    "Ġfavoured": 16358,
    "Ġpunishment": 9954,
    "Ġamput": 16030,
    "osis": 18389,
    "Ġfrosty": 14933,
    "Ġhumph": 22881,
    "Ġbrad": 8785,
    "Ġoysters": 20577,
    "Ġno": 510,
    "Ġdocument": 15017,
    "Ġconverts": 2805,
    "aver": 6785,
    "Ġretrieval": 10673,
    "trucks": 25419,
    "Ġenveloping": 19732,
    "asily": 13944,
    "Ġthinking": 4032,
    "Ġdoesn": 7438,
    "necessary": 5882,
    "Ġsullen": 9156,
    "Ġdesk": 11903,
    "ulate": 5233,
    "Ġcatastrophic": 3540,
    "Ġtub": 7146,
    "Ġrefusal": 10343,
    "pond": 21012,
    "Ġquote": 18466,
    "Ġbowing": 10474,
    "Ġlets": 18076,
    "Ġprecisely": 6466,
    "fashioned": 9569,
    "minutes": 7512,
    "occurred": 13335,
    "Ġinflamed": 13471,
    "marry": 13321,
    "Ġswerve": 14435,
    "Ġsakes": 18326,
    "aphs": 22333,
    "Ġpri": 5813,
    "Ġshaggy": 13568,
    "Ġjust": 1238,
    "Ġattic": 16095,
    "Ġstrings": 11826,
    "Ġwildly": 9412,
    "Ġprofoundest": 16859,
    "Ġbrag": 23831,
    "Ġfrankly": 16744,
    "orus": 10800,
    "awful": 23113,
    "Ġcontr": 1915,
    "Ġhandspike": 22696,
    "Ġclergyman": 8711,
    "Ġsamples": 2962,
    "Ġimmaculate": 19484,
    "guarded": 13292,
    "outer": 9667,
    "cruet": 17025,
    "âĢĶâĢĺ": 7013,
    "flies": 19422,
    "Ġriggers": 24154,
    "Ġdismast": 12884,
    "Ġgraves": 11705,
    "Ġsent": 1776,
    "Ġrobins": 16246,
    "earliest": 20118,
    "Ġwarehouse": 20415,
    "news": 23130,
    "Ġfarm": 7841,
    "Ġbale": 7839,
    "Ġshan": 9247,
    "Ġunluck": 8484,
    "Ġgrounds": 6749,
    "Ġn": 300,
    "Ġforest": 9869,
    "Ġspoon": 22132,
    "amous": 15757,
    "deliberated": 26118,
    "adequate": 15201,
    "Ġextravag": 11253,
    "unted": 6998,
    "john": 11496,
    "Ġcomforts": 14692,
    "buttoned": 13630,
    "shud": 18492,
    "Ġcrawled": 17043,
    "Ġemac": 16405,
    "bearance": 22492,
    "Ġlift": 8809,
    "corrid": 24483,
    "Ġshocked": 9399,
    "Ġrepublic": 14530,
    "Ġtemples": 18635,
    "Ġkelson": 18351,
    "Ġhawaiian": 25366,
    "Ġaccountability": 10437,
    "Ġstands": 5258,
    "gentlemen": 9502,
    "icable": 6388,
    "Ġdownward": 10330,
    "Ġpossible": 2585,
    "Ġpenalties": 10411,
    "Ġfade": 21406,
    "ven": 779,
    "Ġfollowing": 4063,
    "gossip": 23402,
    "ors": 853,
    "Ġrim": 21963,
    "Ġrigid": 16715,
    "Ġshrieked": 9546,
    "Ġpop": 5151,
    "Ġlaid": 3941,
    "Ġcontention": 22424,
    "Ġright": 1504,
    "½": 126,
    "suited": 22643,
    "Ġrepine": 16408,
    "Ġjogged": 26236,
    "safety": 20348,
    "nosed": 20991,
    "these": 3239,
    "antled": 18286,
    "Ġspind": 18307,
    "Ġvolition": 14795,
    "Ġhead": 1122,
    "Ġshakespeare": 20306,
    "Ġprofessions": 11230,
    "Ġlessen": 14531,
    "envelope": 17782,
    "Ġamaze": 22477,
    "allah": 5838,
    "Ġinher": 10178,
    "blister": 24126,
    "sies": 21053,
    "circled": 24186,
    "Ġquitting": 7645,
    "Ġaccounting": 14572,
    "dred": 2528,
    "istic": 977,
    "Ġtortured": 14922,
    "office": 16393,
    "contriv": 19292,
    "Ġgreeting": 18963,
    "Ġneighbors": 25806,
    "Ġpresenting": 18987,
    "arts": 6563,
    "Ġbos": 4875,
    "Ġclimb": 15077,
    "Ġheaviest": 23325,
    "Ġlightnings": 16349,
    "Ġemm": 18002,
    "Ġneighb": 14074,
    "arily": 4127,
    "Ġtruce": 24114,
    "Ġsafely": 9024,
    "Ġdesires": 9455,
    "darkness": 9510,
    "Ġbourgh": 5069,
    "buoy": 7761,
    "Ġprognost": 15279,
    "ides": 2160,
    "Ġpursued": 6328,
    "tales": 17685,
    "Ġlegisl": 23534,
    "unders": 13308,
    "Ġcravat": 26307,
    "hus": 5072,
    "avish": 22592,
    "Ġbeale": 12695,
    "Ġexcited": 5579,
    "Ġspear": 9312,
    "aby": 18106,
    "Ġsaid": 579,
    "Ġvoracity": 25986,
    "rupt": 3209,
    "Ġscientific": 6857,
    "Ġglued": 20587,
    "Ġack": 5621,
    "Ġ270": 25130,
    "throw": 14096,
    "Ġrefres": 14340,
    "Ġcocked": 12900,
    "Ġsickness": 10537,
    "Ġmodel": 509,
    "Ġappetite": 12381,
    "destroy": 19509,
    "Ġgateway": 24802,
    "Ġleviathanic": 12077,
    "morrow": 4573,
    "inkers": 22614,
    "Ġnervously": 19184,
    "Ġscandal": 9080,
    "ess": 411,
    "quadrille": 20593,
    "emic": 18179,
    "Ġvivacity": 14939,
    "Ġindignation": 8347,
    "society": 9970,
    "on": 267,
    "Ġcoldness": 23757,
    "ided": 2785,
    "oysius": 14362,
    "german": 11490,
    "connections": 14426,
    "rable": 11630,
    "Ġsoaked": 15859,
    "1": 21,
    "occ": 4484,
    "pher": 11510,
    "intellect": 18821,
    "Ġsp": 457,
    "Ġconceal": 5974,
    "Ġsubdivisions": 26037,
    "frau": 15087,
    "tart": 21066,
    "Ġprophet": 7681,
    "Ġinside": 5448,
    "ĠlinnÃ¦us": 15273,
    "ineering": 21979,
    "Ġdismally": 20213,
    "smiles": 14691,
    "Ġsan": 7825,
    "Ġinspecting": 24614,
    "Ġranges": 2885,
    "iii": 14772,
    "Ġmazes": 25940,
    "movable": 14322,
    "Ġpropri": 6738,
    "dimens": 2319,
    "Ġvowed": 14082,
    "Ġwag": 10774,
    "Ġvindictiveness": 25738,
    "Ġinvestigated": 25386,
    "Ġexclusion": 19394,
    "also": 7851,
    "Ġvers": 7563,
    "Ġgaunt": 11267,
    "Ġlexic": 15720,
    "Ġcanvas": 7784,
    "bert": 4663,
    "opatra": 22481,
    "accountable": 7109,
    "Ġclouded": 13288,
    "Ġroasted": 18458,
    "Ġdecaying": 2247,
    "ns": 759,
    "Ġcoloss": 11045,
    "Ġcosmopol": 16454,
    "desper": 13066,
    "Ġ1778": 25730,
    "exception": 9974,
    "Ġmechanisms": 1572,
    "feel": 3810,
    "Ġenchant": 7185,
    "Ġdrawled": 23986,
    "promontory": 24728,
    "Ġpuzz": 5532,
    "Ġpromoting": 3161,
    "stairs": 5155,
    "Ġvary": 15804,
    "Ġdistrusting": 25053,
    "gered": 9274,
    "deepest": 22806,
    "5": 25,
    "fi": 12458,
    "Ġlately": 6387,
    "pierced": 26141,
    "Ġinclined": 6622,
    "Ġpierce": 17035,
    "Ġchance": 3316,
    "Ġfare": 5809,
    "unbounded": 21883,
    "iant": 5427,
    "Ġxxxix": 24970,
    "Ġexplored": 23516,
    "Ġoutermost": 22317,
    "Ġflush": 14422,
    "Ġarmitage": 23580,
    "Ġboys": 5194,
    "resting": 23234,
    "whole": 6086,
    "Ġleech": 24153,
    "Ġrobots": 11077,
    "eds": 6674,
    "trimmed": 23946,
    "reng": 4002,
    "rier": 9240,
    "Ġincommod": 25307,
    "Ġentertained": 9996,
    "slipped": 25529,
    "Ġdepicting": 22609,
    "Ġcle": 1510,
    "hammad": 23261,
    "restored": 18978,
    "Ġhoarsely": 26302,
    "Ġbulls": 23856,
    "wit": 7818,
    "Ġrobbed": 22997,
    "ulpt": 10884,
    "Ġlectures": 17177,
    "stumps": 21651,
    "zors": 21146,
    "Ġintrospective": 20599,
    "maker": 12489,
    "ny": 4015,
    "Ġphysical": 7522,
    "Ġunexpectedly": 19908,
    "Ġcharmed": 16761,
    "Ġcurls": 22982,
    "vell": 3958,
    "Ġquant": 6424,
    "Ġwindows": 4971,
    "Ġconfident": 11137,
    "read": 3273,
    "Ġnewspaper": 12361,
    "doubt": 6782,
    "Ġbacks": 8528,
    "Ġentic": 16142,
    "Ġdesirous": 8941,
    "copper": 19188,
    "affa": 23775,
    "Ġbelly": 10368,
    "holes": 12051,
    "Ġproving": 15748,
    "jud": 4481,
    "Ġplanned": 14750,
    "nevertheless": 8286,
    "Ġdistributes": 4196,
    "continue": 16860,
    "Ġpainter": 19167,
    "ilege": 22254,
    "Ġcogn": 11001,
    "expression": 10546,
    "offended": 16394,
    "Ġdeficiency": 14401,
    "Ġghostliness": 24651,
    "rop": 539,
    "Ġvess": 3293,
    "Ġvote": 21945,
    "Ġfil": 3471,
    "Ġresume": 18565,
    "Ġmitigates": 3049,
    "Ġgold": 3276,
    "Ġsundering": 23272,
    "Ġwisely": 13270,
    "unusual": 21877,
    "quely": 10230,
    "Ġbenef": 3487,
    "Ġabsence": 4894,
    "Ġbill": 4041,
    "Ġpropagating": 20632,
    "Ġobey": 9517,
    "acid": 11004,
    "Ġinterrupting": 19556,
    "Ġspleen": 26420,
    "Ġengland": 3856,
    "Ġmemorand": 23403,
    "Ġtriumphal": 24370,
    "Ġtransports": 24276,
    "abhorred": 17334,
    "pequod": 7052,
    "mut": 17594,
    "Ġincorrect": 2729,
    "lac": 17588,
    "Ġspanish": 2828,
    "eries": 6808,
    "Ġquaker": 10970,
    "Ġwhistles": 24625,
    "Ġmotioned": 19591,
    "Ġsubtle": 6716,
    "Ġsomehow": 4841,
    "Ġfrenchman": 11282,
    "Ġruss": 18718,
    "doc": 23374,
    "Ġformer": 3321,
    "Ġpals": 13916,
    "Ġdivide": 12107,
    "Ġdishonoured": 20389,
    "cor": 5520,
    "Ġpave": 8798,
    "Ġswaying": 15045,
    "world": 5058,
    "Ġfactory": 23275,
    "Ġcave": 10784,
    "thrill": 25656,
    "itancy": 21331,
    "makes": 10710,
    "oftentimes": 19419,
    "impart": 21707,
    "Ġverbal": 19377,
    "Ġdistillation": 16042,
    "Ġdiver": 2531,
    "Ġsnuffing": 25012,
    "ical": 754,
    "Ġfacility": 19849,
    "ites": 3898,
    "Ġschoolmasters": 19719,
    "Ġsubjects": 7072,
    "hess": 4747,
    "Ġshark": 5549,
    "assistant": 25567,
    "Ġflann": 23012,
    "ancing": 1759,
    "speak": 5504,
    "gale": 13722,
    "Ġimpelling": 22383,
    "Ġagreeably": 24952,
    "crawling": 16957,
    "excellent": 8044,
    "Ġarea": 14185,
    "cturn": 17986,
    "Ġresolves": 23646,
    "able": 452,
    "warmest": 25027,
    "Ġknotted": 17018,
    "legra": 10788,
    "law": 6115,
    "icism": 13954,
    "ilingly": 21721,
    "Ġcrocodile": 20739,
    "Ġpitied": 14690,
    "Ġshower": 11707,
    "Ġrealising": 18982,
    "Ġspar": 10920,
    "Ġerror": 1766,
    "Ġinnocent": 4921,
    "Ġfairly": 6325,
    "creat": 20799,
    "Ġscreaming": 13421,
    "solitary": 14505,
    "contact": 23726,
    "i": 77,
    "Ġwedge": 24068,
    "Ġstrokes": 16768,
    "Ġunshored": 25813,
    "Ġseasonable": 24405,
    "Ġsymp": 4502,
    "Ġresembles": 25969,
    "Ġweltering": 19584,
    "oss": 10114,
    "various": 10396,
    "cary": 10688,
    "Ġrights": 10395,
    "Ġpur": 2218,
    "shown": 22452,
    "comparison": 25840,
    "supp": 4163,
    "Ġlimped": 19181,
    "ulating": 10886,
    "Ġstraps": 19309,
    "Ġold": 1058,
    "asis": 12646,
    "Ġcin": 13873,
    "erably": 7573,
    "Ġcran": 11997,
    "Ġlevers": 18077,
    "Ġdoings": 18376,
    "Ġwaxed": 21296,
    "unusually": 15776,
    "compass": 9458,
    "Ġamours": 22475,
    "Ġgoodge": 22822,
    "Ġsim": 734,
    "Ġclattering": 22362,
    "Ġthree": 1372,
    "Ġfanny": 23389,
    "onsible": 22559,
    "Ġel": 801,
    "tie": 21067,
    "Ġshaft": 18229,
    "Ġmorose": 18842,
    "hospit": 25903,
    "Ġlaughter": 9026,
    "Ġupdate": 2466,
    "Ġlig": 21546,
    "Ġabruptness": 25299,
    "Ġcurves": 18851,
    "den": 938,
    "uncommon": 11679,
    "Ġ23": 13190,
    "wed": 5003,
    "Ġspecific": 2003,
    "Ġtreasures": 17046,
    "Ġwalker": 23309,
    "r": 86,
    "Ġlaud": 17967,
    "Ġbrown": 6298,
    "Ġcontour": 18474,
    "Ġknowing": 4457,
    "Ġexcellence": 11450,
    "Ġhangs": 11604,
    "Ġpunch": 9953,
    "elephant": 12348,
    "Ġvapor": 8699,
    "Ġlard": 13945,
    "Ġrail": 7225,
    "vit": 13799,
    ".": 18,
    "huzza": 20912,
    "Ġch": 513,
    "Ġspears": 12922,
    "presence": 18498,
    "Ġfob": 21408,
    "Ġobstacle": 16954,
    "Ġjoyously": 19345,
    "Ġnocturn": 18374,
    "Ġperemptorily": 17365,
    "Ġagreeable": 4553,
    "reasoning": 9474,
    "Ġdru": 8422,
    "easy": 9591,
    "meat": 18676,
    "Ġpikes": 21476,
    "Ġloathsome": 13526,
    "bat": 8072,
    "gird": 20878,
    "isted": 3296,
    "Ġbaffled": 12400,
    "Ġvillanous": 24052,
    "geons": 15976,
    "Ġoffend": 16140,
    "concerns": 24582,
    "iciency": 9573,
    "Ġscarce": 8621,
    "Ġdaniel": 15109,
    "Ġgiants": 25960,
    "Ġdir": 21420,
    "Ġriv": 10745,
    "ryder": 18636,
    "Ġprecaution": 11196,
    "actions": 8905,
    "andromeda": 21866,
    "Ġliberties": 19666,
    "ientific": 6547,
    "Ġdl": 3374,
    "Ġjen": 9265,
    "Ġabsolute": 6765,
    "around": 12604,
    "Ġlively": 5449,
    "Ġoctavo": 15161,
    "prehens": 9287,
    "Ġhearts": 4972,
    "Ġfireboard": 23532,
    "acqu": 4842,
    "harpoons": 24284,
    "Ġ107": 24414,
    "Ġchick": 22245,
    "impressed": 12687,
    "Ġthom": 21514,
    "hy": 4740,
    "Ġmaiden": 13384,
    "oda": 15745,
    "Ġhours": 2818,
    "ascertain": 21541,
    "Ġmachinations": 25767,
    "Ġ81": 24456,
    "cele": 21623,
    "Ġpitchpoling": 14909,
    "Ġpos": 1011,
    "Ġparading": 23706,
    "Ġmoisture": 12356,
    "Ġferocity": 16870,
    "Ġchatbots": 11348,
    "halfway": 24310,
    "ours": 3426,
    "lemency": 21372,
    "ula": 2826,
    "mr": 1901,
    "Ġbox": 5109,
    "Ġvacantly": 16814,
    "Ġchanging": 11750,
    "Ġrain": 5005,
    "Ġparson": 6687,
    "ú": 187,
    "thoughtfully": 24041,
    "Ġmalignity": 10555,
    "Ġshipwrecked": 25687,
    "Ġobser": 2071,
    "Ġabusing": 18393,
    "Ġpetty": 19594,
    "Ġwhatever": 3472,
    "aneously": 4060,
    "Ġanchor": 7368,
    "Ġdecreases": 3407,
    "Ġwearer": 21921,
    "ship": 1392,
    "Ġprosperous": 15168,
    "Ġanon": 9665,
    "Ġfreshness": 23985,
    "Ġprior": 11317,
    "Ġscrutin": 26014,
    "iles": 2863,
    "quis": 7871,
    "Ġar": 482,
    "Ġthump": 11609,
    "Ġconstitutes": 13550,
    "Ġparadise": 11194,
    "Ġstraits": 7994,
    "Ġdisappointed": 7097,
    "intentions": 22937,
    "urable": 8921,
    "Ġdesponding": 25868,
    "Ġappre": 5165,
    "wat": 6231,
    "Ġimm": 3965,
    "enterprise": 24994,
    "overed": 2854,
    "Ġmissing": 6175,
    "Ġoutward": 7905,
    "Ġundeceive": 25552,
    "Ġfought": 12589,
    "Ġflounders": 23013,
    "lost": 8886,
    "Ġletters": 3790,
    "upp": 10129,
    "Ġdood": 22240,
    "unc": 15765,
    "Ġobed": 8535,
    "Ġwarb": 17787,
    "pillar": 5618,
    "inserted": 18887,
    "Ġdevelopment": 7065,
    "pointed": 9806,
    "Ġstrang": 4161,
    "maritime": 24172,
    "Ġdormouse": 4925,
    "Ġdisconsol": 18557,
    "Ġcompatibility": 2959,
    "Ġroughly": 17039,
    "Ġhosea": 17329,
    "Ġbennets": 9804,
    "Ġserved": 8246,
    "Ġunwinding": 22058,
    "Ġbarbary": 24215,
    "Ġremembr": 24169,
    "Ġwrongfully": 24247,
    "ackled": 22419,
    "inioned": 19286,
    "Ġcranial": 25592,
    "itigated": 23045,
    "Ġruth": 14091,
    "Ġmethinks": 10389,
    "Ġexulting": 20257,
    "un": 373,
    "Ġscenes": 5731,
    "Ġanteced": 26177,
    "collinses": 19922,
    "unaccountable": 15775,
    "mured": 6960,
    "kward": 6958,
    "akes": 2220,
    "9": 29,
    "Ġpillar": 21471,
    "Ġrevolution": 3304,
    "Ġhearing": 4761,
    "Ġaveraging": 2421,
    "ifled": 14061,
    "start": 7598,
    "collar": 19327,
    "pton": 15788,
    "convers": 6567,
    "Ġrehears": 15696,
    "Ġamiss": 18509,
    "Ġtheir": 644,
    "bestow": 16928,
    "Ġpolic": 13159,
    "Ġdiff": 3115,
    "Ġrespect": 1668,
    "beings": 12872,
    "Ġerrors": 2597,
    "Ġconfined": 7465,
    "Ġgree": 7594,
    "Ġfiss": 21411,
    "Ġfeatureless": 22611,
    "youn": 5690,
    "Ġimmovable": 15889,
    "Ġwhalemen": 3912,
    "Ġven": 4648,
    "Ġswarming": 16271,
    "Ġceasing": 23755,
    "Ġdraws": 19434,
    "Ġeffemin": 18540,
    "Ġeighteenth": 14752,
    "Ġyoungster": 23177,
    "89": 20758,
    "Ġprofession": 6207,
    "Ġlone": 11611,
    "Ġtoler": 7588,
    "Ġaccord": 4027,
    "Ġmasked": 3693,
    "marriage": 7745,
    "Ġunattended": 15840,
    "Ġplainpal": 19276,
    "Ġscience": 1610,
    "Ġwrest": 11569,
    "msgate": 18412,
    "Ġoccurrence": 14380,
    "Ġaddressing": 11163,
    "Ġyourselves": 9027,
    "Ġrestored": 7066,
    "Ġdow": 17886,
    "omas": 12672,
    "drawers": 19384,
    "Ġ45": 14768,
    "Ġcomponents": 8891,
    "prejud": 11793,
    "Ġderbyshire": 6586,
    "Ġunsettled": 14121,
    "Ġproblem": 1273,
    "Ġdestroyer": 13411,
    "Ġchairs": 12822,
    "tears": 11035,
    "Ġcivilised": 24243,
    "Ġlowest": 11121,
    "Ġjem": 18402,
    "Ġtints": 17726,
    "Ġconveniences": 19811,
    "Ġclifford": 22364,
    "Ġbeaut": 2396,
    "aract": 17894,
    "Ġdramatic": 4850,
    "Ġoccupy": 14729,
    "Ġdiminished": 16664,
    "travelling": 24316,
    "onder": 3777,
    "ility": 624,
    "Ġspecks": 14306,
    "Ġbumps": 21390,
    "alarm": 15623,
    "trust": 21077,
    "Ġapologizing": 25197,
    "umberland": 16836,
    "Ġgnawed": 25164,
    "Ġsquared": 1384,
    "Ġeas": 2353,
    "Ġleaks": 16446,
    "Ġfam": 1581,
    "constellation": 24608,
    "Ġsubstitute": 16725,
    "Ġmaze": 23828,
    "Ġinfatuated": 20532,
    "Ġelephants": 9862,
    "ocations": 23703,
    "aug": 1212,
    "Ġaccordance": 19496,
    "Ġcopies": 24935,
    "green": 7115,
    "Ġseethe": 21961,
    "fresh": 13390,
    "Ġdevoured": 16143,
    "Ġimplore": 24872,
    "estate": 12817,
    "Ġunfortunately": 10908,
    "lp": 899,
    "supervised": 1993,
    "Ġexclude": 19043,
    "Ġcoward": 7155,
    "Ġgathering": 14976,
    "Ġbestirred": 20450,
    "Ġbrilliantly": 25120,
    "soundest": 24797,
    "Ġcruisers": 25863,
    "dart": 20825,
    "abb": 15735,
    "unnecessary": 21878,
    "Ġcontinues": 18810,
    "prior": 21031,
    "Ġent": 903,
    "keepers": 16658,
    "Ġdim": 4757,
    "Ġoily": 13862,
    "circuit": 24187,
    "Ġwonder": 2118,
    "Ġcanoe": 9721,
    "Ġsmoothed": 23655,
    "Ġemperors": 15157,
    "Ġwhitewashed": 14466,
    "Ġsoon": 1226,
    "Ġunder": 1636,
    "Ġbites": 23741,
    "ruin": 22174,
    "Ã¦st": 24174,
    "Ġdeduce": 8337,
    "chari": 21687,
    "Ġchronic": 9927,
    "necess": 4896,
    "Ġforeign": 9870,
    "spades": 14333,
    "Ġspecialized": 3920,
    "for": 986,
    "share": 14235,
    "Ġtropics": 17065,
    "osa": 22258,
    "Ġcloudless": 16667,
    "Ġottoman": 17376,
    "prow": 15409,
    "Ġopposition": 16518,
    "riving": 21929,
    "Ġrage": 5110,
    "weed": 14313,
    "²": 115,
    "Ġwooden": 4730,
    "aguy": 21908,
    "Ġglad": 3324,
    "Ġaltitude": 26202,
    "Ġbur": 2699,
    "Ġvenge": 5420,
    "Ġbeth": 9656,
    "Ġput": 1800,
    "Ġdreamed": 16628,
    "Ġpiratical": 24801,
    "Ġmoccas": 22432,
    "Ġincreases": 3793,
    "Ġskul": 22793,
    "course": 6104,
    "Ġnod": 1889,
    "application": 12360,
    "Ġmagistrate": 8234,
    "rushed": 10583,
    "Ġpaddled": 20200,
    "couldn": 23716,
    "beer": 22486,
    "dwelt": 23869,
    "aken": 1870,
    "¬": 110,
    "Ġhunch": 18934,
    "Ġelapsed": 7652,
    "Ġtenants": 23546,
    "Ġrecollecting": 17112,
    "Ġlombardy": 26462,
    "onely": 6516,
    "semic": 21818,
    "rapidly": 15241,
    "Ġspangled": 22133,
    "carb": 20809,
    "Ġterms": 2564,
    "Ġconceivable": 16612,
    "Ġaccordingly": 6619,
    "Ġsunset": 8961,
    "Ġfreed": 7267,
    "Ġray": 18642,
    "Ġbirds": 5873,
    "Ġbaleful": 24984,
    "varying": 13802,
    "imens": 1746,
    "luckily": 19751,
    "Ġinjury": 10539,
    "Ġcounterbalance": 24722,
    "mentioning": 24885,
    "Ġtriumphant": 12186,
    "omp": 2474,
    "Ġsouthampton": 24306,
    "Ġromantic": 8031,
    "Ġdivided": 8631,
    "directed": 20403,
    "certain": 3675,
    "Ġgladstone": 23867,
    "Ġwhy": 1760,
    "Ġpleasant": 4171,
    "reigned": 21241,
    "Ġstanding": 2998,
    "Ġstation": 5297,
    "Ġones": 3018,
    "Ġsuspect": 5758,
    "Ġfoliage": 18867,
    "Ġmemo": 18118,
    "Ġwednesday": 9023,
    "gradient": 2274,
    "infliction": 25924,
    "Ġtransaction": 22437,
    "gown": 9595,
    "ascending": 24707,
    "pence": 15407,
    "appeared": 4283,
    "Ġflirt": 14421,
    "Ġsituation": 4072,
    "Ġceases": 19312,
    "Ġoscillations": 2900,
    "satisfaction": 9990,
    "Ġtelesc": 12993,
    "enances": 10152,
    "ian": 1236,
    "Ġsal": 3938,
    "Ġturned": 2133,
    "Ġglancing": 5399,
    "Ġkiller": 19567,
    "deceiving": 22142,
    "Ġdutch": 6327,
    "ulent": 21860,
    "Ġdigress": 24648,
    "Ġdeceiving": 21836,
    "iracle": 11242,
    "Ġmouth": 3179,
    "Ġsideways": 6182,
    "Ġspouts": 7730,
    "fainting": 20471,
    "estation": 15917,
    "Ġnowadays": 18546,
    "Ġreported": 11976,
    "Ġassistant": 7298,
    "Ġmalicious": 10556,
    "asiness": 8129,
    "Ġab": 528,
    "etch": 9203,
    "iriously": 18171,
    "mushroom": 26394,
    "Ġconception": 10314,
    "ravelled": 18014,
    "Ġplentiful": 12907,
    "Ġprogressive": 5024,
    "security": 26206,
    "nant": 17608,
    "Ġunostentatious": 22068,
    "fixedly": 24929,
    "Ġwelcome": 5603,
    "pumps": 21026,
    "Ġvillages": 14746,
    "ject": 876,
    "etical": 13956,
    "Ġdeserts": 10506,
    "icated": 7590,
    "Ġconst": 1911,
    "Ġdescription": 7429,
    "Ġreputed": 18035,
    "achine": 610,
    "pt": 386,
    "Ġdiscern": 7658,
    "ders": 8075,
    "him": 1939,
    "iogn": 20920,
    "step": 2459,
    "pacific": 17640,
    "league": 17844,
    "Ġoriginate": 24120,
    "Ġinfluence": 5515,
    "Ġtranced": 18421,
    "Ġkidnapping": 26356,
    "favourite": 15141,
    "questions": 16759,
    "crated": 16695,
    "Ġperfectly": 3699,
    "Ġthirty": 4944,
    "Ġmeddle": 19490,
    "Ġloose": 4649,
    "furn": 10090,
    "Ġcalamities": 25699,
    "Ġsandwic": 24664,
    "may": 3678,
    "Ġpitches": 23899,
    "Ġblasted": 7938,
    "urg": 8142,
    "Ġho": 1931,
    "Ġcontrols": 1732,
    "Ġcapstan": 9097,
    "Ġcommander": 8624,
    "chief": 4645,
    "inted": 2651,
    "Ġpicturesqueness": 24479,
    "social": 11022,
    "Ġunfathomably": 25873,
    "Ġinsane": 19268,
    "covery": 11170,
    "planks": 21952,
    "Ġscimet": 22291,
    "ineas": 15819,
    "Ġvehem": 22887,
    "Ġgradu": 15829,
    "Ġpol": 2577,
    "we": 847,
    "?": 35,
    "Ġsequential": 2132,
    "Ġwithal": 18113,
    "Ġloving": 8176,
    "Ġunsocial": 18256,
    "innocence": 15181,
    "Ġwhipcord": 20093,
    "Ġaccusation": 22370,
    "ifer": 11682,
    "Ġpermitting": 22398,
    "Ġdemo": 10879,
    "Ġinflu": 4909,
    "Ġsympath": 4861,
    "Ġrepugn": 23362,
    "Ġchrist": 4073,
    "Ġimbecile": 17390,
    "Ġlids": 12272,
    "======": 9831,
    "elements": 25203,
    "isis": 12575,
    "bots": 10081,
    "Ġsolution": 9803,
    "Ġwildest": 16508,
    "Ġbanks": 6814,
    "Ġjustify": 11071,
    "Ġsleet": 8974,
    "Ġgull": 15666,
    "Ġtheirs": 7024,
    "voy": 7143,
    "Ġ(": 595,
    "Ġsecond": 1892,
    "com": 997,
    "bree": 15312,
    "Ġmundane": 26428,
    "achel": 7032,
    "ression": 3403,
    "Ġcharges": 23266,
    "Ġchambermaid": 24303,
    "deck": 4500,
    "Ġlethargy": 26482,
    "Ġspacious": 18312,
    "Ġsagacity": 16973,
    "iled": 1765,
    "Ġbackgammon": 22660,
    "Ġdashing": 8794,
    "Ġdawned": 14992,
    "ogrand": 26261,
    "Ġedged": 23435,
    "that": 849,
    "Ġsnap": 11200,
    "Ġcampaign": 20660,
    "Ġcur": 1258,
    "edy": 2860,
    "Ġdesisted": 22971,
    "our": 534,
    "izzy": 3095,
    "Ġtiny": 11551,
    "Ġawful": 6199,
    "Ġjupiter": 17454,
    "susp": 10595,
    "hetically": 21207,
    "ouri": 21446,
    "Ġfleet": 9430,
    "rents": 5308,
    "Ġze": 8545,
    "Ġgoat": 16003,
    "fitting": 1509,
    "Ġhobbling": 25644,
    "Ġhearsed": 25039,
    "sequence": 2856,
    "Ġdoub": 1838,
    "Ġmajestic": 8639,
    "when": 1589,
    "lever": 2932,
    "ool": 17617,
    "dock": 16416,
    "Ġrally": 21966,
    "aration": 12603,
    "Ġlashed": 9197,
    "Ġentrances": 25833,
    "Ġmaids": 19690,
    "Ġgales": 12661,
    "Ġeach": 892,
    "union": 15766,
    "Ġhark": 8428,
    "Ġeconomically": 25288,
    "Ġcop": 7579,
    "barrels": 15040,
    "maybe": 23988,
    "Ġagitation": 6865,
    "Ġrevel": 9213,
    "uten": 11620,
    "kye": 20937,
    "Ġlarge": 1065,
    "corrob": 24484,
    "extent": 22753,
    "Ġanaly": 1109,
    "thes": 7391,
    "Ġbrook": 13044,
    "Ġgleam": 12305,
    "Ġseethings": 26502,
    "Ġpraised": 19552,
    "Ġaccomplishment": 19664,
    "oft": 3589,
    "whatsoever": 18489,
    "13": 20749,
    "Ġdecreed": 18486,
    "Ġcoach": 6867,
    "cet": 15323,
    "polar": 24584,
    "ift": 1608,
    "helpless": 16789,
    "Ġreduced": 11921,
    "obvious": 9355,
    "Ġlamented": 24993,
    "Ġdeparted": 5563,
    "Ġravine": 18647,
    "Ġsentimental": 24754,
    "Ġkilburn": 18352,
    "amount": 10883,
    "Ġagreement": 18542,
    "Û": 156,
    "queequeg": 4336,
    "uts": 8814,
    "abriel": 6950,
    "Ġswiftly": 5670,
    "battle": 12439,
    "bastian": 10672,
    "Ġhills": 6527,
    "Ġxli": 14541,
    "Ġexamined": 6334,
    "Ġprovidence": 18745,
    "Ġmoran": 9339,
    "Ġcrozetts": 19628,
    "Ġenveloped": 12205,
    "alcul": 15624,
    "Ġrepetition": 8971,
    "Ġtren": 17720,
    "Ġadmirals": 20383,
    "Ġoverspread": 14201,
    "Ġlou": 6822,
    "Ġwool": 19431,
    "Ġpepper": 9779,
    "asting": 12802,
    "bare": 12438,
    "Ġimple": 1697,
    "key": 5462,
    "Ġinfluenced": 19631,
    "Ġinvis": 6902,
    "Ġlat": 5087,
    "Ġexasper": 8466,
    "u": 89,
    "experience": 17157,
    "Ġworshipping": 22926,
    "Ġintrepid": 11702,
    "Ġkeener": 22912,
    "Ġmanager": 11766,
    "Ġlegitimate": 20641,
    "Ġleyden": 21745,
    "onym": 14648,
    "Ġguid": 2640,
    "many": 5250,
    "Ġeat": 4644,
    "estruct": 22221,
    "onial": 11565,
    "rodden": 21533,
    "Ġgettest": 23231,
    "turn": 4293,
    "bird": 9584,
    "Ġcrunched": 19123,
    "igate": 8821,
    "Ġnoisier": 4625,
    "respectively": 24700,
    "Ġterrier": 23397,
    "heavens": 19744,
    "breathing": 25335,
    "Ġdirector": 18920,
    "scissors": 20726,
    "Ġbales": 21387,
    "Ġoppose": 16517,
    "Ġsweetly": 23916,
    "Ġxlix": 25860,
    "Ġfug": 12591,
    "Ġacting": 10990,
    "Ġhurled": 10428,
    "Ġestimable": 23870,
    "Ġrevered": 23732,
    "Ġabomination": 22276,
    "Ġsigmoid": 2465,
    "ofs": 11827,
    "awned": 19458,
    "boy": 4738,
    "slide": 24555,
    "Ġswims": 12116,
    "Ġcontrived": 10302,
    "orse": 5806,
    "Ġvalues": 2653,
    "actually": 14293,
    "ittance": 12842,
    "Ġultimate": 12346,
    "Ġconcentric": 20073,
    "ellations": 21942,
    "taking": 5689,
    "endous": 6850,
    "Ġstriking": 6089,
    "ra": 314,
    "Ġdamp": 8264,
    "Ġalterations": 19870,
    "seamen": 13624,
    "Ġquiescent": 26242,
    "Ġimaginations": 16514,
    "highest": 20406,
    "unless": 9233,
    "Ġbleeds": 24396,
    "Ġlam": 21547,
    "Ġpaths": 2570,
    "veral": 2354,
    "Ġmedical": 9462,
    "Ġpilgrimage": 17306,
    "begin": 8882,
    "Ġrelinquish": 17345,
    "Ġ16": 7927,
    "Ġcyp": 21343,
    "Ġshaking": 6551,
    "ody": 1478,
    "Ġeigenvalues": 4998,
    "Ġmeddling": 24081,
    "Ġreturning": 5325,
    "Ġinsertion": 26343,
    "sleeves": 26109,
    "Ġpitiable": 9912,
    "rised": 10122,
    "Ġenthus": 7231,
    "elastic": 17980,
    "Ġkeep": 2356,
    "Ġdigging": 14936,
    "leather": 13888,
    "stains": 11634,
    "Ġsuffers": 2973,
    "Ġslay": 16303,
    "Ġdard": 21421,
    "elab": 21568,
    "Ġstag": 6148,
    "Ġhorizontal": 7783,
    "Ġwid": 4633,
    "Ġauthent": 14508,
    "Ġskip": 1848,
    "resses": 16150,
    "Ġsanguinary": 25929,
    "Ġloitering": 22114,
    "ugn": 9376,
    "ctors": 21588,
    "Ġkins": 22194,
    "Ġpond": 13914,
    "Ġmr": 659,
    "Ġpunctil": 20112,
    "Ġimpressed": 8199,
    "Ġfolks": 14424,
    "Ġpatagon": 14503,
    "Ġkne": 4266,
    "bal": 2155,
    "parad": 16388,
    "acters": 9307,
    "Ġsustenance": 19932,
    "arus": 13910,
    "ckery": 22088,
    "Ġnantucket": 2839,
    "Ġabusive": 22271,
    "ould": 428,
    "Ġtoller": 9089,
    "Ġglaciers": 20172,
    "Ġthundering": 24290,
    "Ġcrust": 21349,
    "Ġpressing": 9259,
    "hav": 20896,
    "Ġdescent": 987,
    "Ġdegrees": 7294,
    "Ġcontraction": 16005,
    "Ġresult": 4460,
    "Ġcol": 1060,
    "Ġallev": 18100,
    "Ġvillain": 8635,
    "Ġrenow": 18027,
    "Ġcontrasting": 11153,
    "Ġsafety": 6339,
    "iring": 1708,
    "feared": 11799,
    "Ġfeeble": 12281,
    "usages": 22278,
    "Ġankers": 21444,
    "Ġcaprice": 14576,
    "revol": 12536,
    "Ġlater": 6017,
    "specul": 23940,
    "spirited": 19752,
    "Ġdiffers": 23780,
    "Ġpreserve": 7529,
    "iest": 4037,
    "Ġroarings": 25301,
    "Ġslyness": 25266,
    "Ġscript": 18399,
    "Ġtolerably": 8068,
    "Ġfurther": 1057,
    "best": 6111,
    "Ġoccurs": 1859,
    "Ġstowing": 18071,
    "greatly": 16622,
    "Ġsurp": 9633,
    "Ġclim": 8197,
    "Ġinsc": 7585,
    "(-": 2979,
    "elius": 13285,
    "Ġdreaminess": 23937,
    "Ġdusting": 24597,
    "consternation": 16911,
    "Ġdaughter": 2872,
    "more": 1033,
    "bestowed": 12222,
    "irra": 15781,
    "Ġmoments": 4845,
    "pred": 2802,
    "Ġhomely": 25219,
    "Ġbeasts": 10616,
    "erce": 6126,
    "Ġloadstone": 25816,
    "ineffectual": 26506,
    "before": 3114,
    "Ġsatir": 18794,
    "pres": 16025,
    "Ġsystematically": 4093,
    "Ġhundredth": 16516,
    "Ġexample": 5096,
    "noo": 9788,
    "bore": 13684,
    "exp": 2737,
    "Ġmute": 19414,
    "Ġdiscontented": 16056,
    "Ġcharley": 19006,
    "Ġunfrequently": 20738,
    "istol": 6259,
    "aches": 6570,
    "Ġtex": 15470,
    "expense": 22427,
    "rich": 11516,
    "Ġepoch": 26471,
    "Ġbias": 1191,
    "makers": 20981,
    "Ġwire": 13850,
    "Ġrebellion": 26474,
    "alogue": 25159,
    "Ġmemory": 2276,
    "ilight": 12689,
    "from": 1989,
    "Ġalex": 15131,
    "eluded": 21573,
    "Ġwil": 4581,
    "Ġbrit": 6289,
    "ually": 2769,
    "sleeping": 13452,
    "Ġkeepers": 23538,
    "Ġsplice": 19308,
    "Ġwaterloo": 11977,
    "Ġcomplying": 18584,
    "Ġguiding": 19239,
    "opp": 6963,
    "Ġmisfortunes": 7041,
    "Ġfair": 2838,
    "Ġmeeting": 5193,
    "Ġflushed": 13023,
    "retion": 9360,
    "Ġadmirably": 16479,
    "mot": 17595,
    "bl": 4142,
    "Ġwalks": 8965,
    "Ġacceler": 1612,
    "onist": 21249,
    "Ġpurses": 23475,
    "romised": 14110,
    "Ġbravely": 23836,
    ":âĢĶ": 4432,
    "seam": 10873,
    "Ġskeletons": 16790,
    "Ġbowls": 23768,
    "Ġsub": 950,
    "Ġresisted": 22539,
    "Ġ1671": 25005,
    "Ġchill": 11749,
    "Ġsexes": 25168,
    "nable": 13760,
    "leaped": 17843,
    "copy": 5133,
    "Ġrepent": 9861,
    "Ġfiddle": 25444,
    "eled": 2360,
    "oun": 484,
    "Ġmultipl": 2791,
    "Ġ": 225,
    "Ġkno": 5242,
    "Ġguido": 2976,
    "arded": 5029,
    "Ġconfid": 7687,
    "Ġmutiny": 13258,
    "Ġpushing": 10818,
    "bohemia": 20730,
    "Ġstart": 3256,
    "Ġimperilled": 19577,
    "ü": 189,
    "Ġheat": 5453,
    "comfortableness": 24524,
    "Ġblanket": 8343,
    "adventure": 17232,
    "Ġunfor": 15836,
    "belt": 24032,
    "Ġworth": 4417,
    "enth": 6680,
    "instinct": 19542,
    "rested": 13072,
    "Ġorbs": 22090,
    "telescope": 26561,
    "Ġwhose": 2009,
    "receive": 12538,
    "Ġtout": 17718,
    "Ġstains": 21739,
    "Ġsar": 21212,
    "Ġcivility": 4788,
    "concent": 19478,
    "excepting": 19705,
    "Ġhor": 1660,
    "ek": 1907,
    "Ġprofundity": 20451,
    "Ġpaintings": 15056,
    "Ġeasy": 3450,
    "Ġdiscussing": 5202,
    "Ġpemberley": 4589,
    "necessity": 13365,
    "Ġroot": 2652,
    "Ġbecoming": 4398,
    "extrem": 18703,
    "Ġ1846": 26084,
    "ho": 2858,
    "Ġvernal": 23886,
    "iel": 11492,
    "Ġjabbering": 22301,
    "Ġ550": 19640,
    "Ġsummit": 7731,
    "effectually": 25128,
    "Ġascending": 14852,
    "ensions": 14257,
    "Ġloses": 15870,
    "reproof": 25432,
    "berg": 11855,
    "Ġreckless": 13456,
    "endurable": 22226,
    "rant": 11515,
    "collect": 16562,
    "Ġscud": 14189,
    "Ġchocks": 13343,
    "Ġinno": 1408,
    "elopement": 23209,
    "Ġjewels": 12366,
    "Ġprivilege": 11418,
    "Ġguide": 3215,
    "Ġcommentaries": 20159,
    "Ġnug": 21523,
    "Ġjets": 10286,
    "Ġreaching": 7303,
    "Ġgayer": 24497,
    "smiled": 16613,
    "Ġrelish": 14382,
    "Ġsmelt": 16062,
    "Ġexecution": 6927,
    "Ġdisastrous": 16057,
    "Ġsensation": 6896,
    ",--âĢľ": 19196,
    "Ġharry": 24570,
    "Ġpott": 21466,
    "Ġcompression": 18145,
    "Ġinferred": 14500,
    "erie": 21270,
    "Ġtig": 13811,
    "Ġagonising": 25373,
    "ire": 492,
    "aston": 7408,
    "Ġtartar": 17320,
    "indulged": 22376,
    "Ġhideous": 5983,
    "eness": 2292,
    "Ġutilize": 4798,
    "Ġreduces": 2344,
    "ruction": 4359,
    "Ġbri": 21376,
    "ook": 21003,
    "choose": 23668,
    "Ġdestruction": 6600,
    "Ġstop": 2504,
    "nam": 2823,
    "Ġdancing": 5703,
    "ford": 2822,
    "Ġoxen": 19949,
    "Ġpermission": 9277,
    "Ġviol": 2072,
    "backs": 9389,
    "Ġverte": 9440,
    "harpooned": 24285,
    "fisher": 7547,
    "Ġconduct": 3732,
    "Ġexord": 21825,
    "Ġhill": 5626,
    "special": 14703,
    "deliber": 17424,
    "ctor": 13958,
    "Ġaccompany": 9485,
    "Ġapology": 8328,
    "exceed": 7912,
    "coast": 10448,
    "cook": 8270,
    "culine": 19065,
    "Ġoftentimes": 20154,
    "Ġm": 274,
    "Ġstooping": 13058,
    "narr": 12493,
    "Ġbaby": 6636,
    "Ġdescribe": 2765,
    "enses": 10993,
    "Ġsurmis": 23462,
    "_).": 5887,
    "Ġconcer": 23321,
    "Ġbenches": 18781,
    "Ġwhole": 1661,
    "redit": 3877,
    "wered": 2690,
    "Ġitem": 12697,
    "Ġcoast": 4656,
    "without": 4846,
    "draughts": 20386,
    "Ġcompose": 12898,
    "Ġenvelope": 7319,
    "âĢľâĢĻ": 10220,
    "Ġdoubloons": 13432,
    "Ġpretext": 22227,
    "judging": 24200,
    "prosper": 19100,
    "Ġattain": 12743,
    "Ġgabriel": 7595,
    "Ġseriously": 7060,
    "uc": 1878,
    "Ġsher": 3762,
    "Ġscar": 3211,
    "Ġboscombe": 8326,
    "Ġexcessive": 3892,
    "Ġaccident": 5380,
    "ette": 15655,
    "guilt": 24067,
    "Ġacquies": 11096,
    "Ġvoid": 14084,
    "Ġtwelvemonth": 12174,
    "Ġoverhung": 15966,
    "aling": 1036,
    "obviously": 25242,
    "Ġvis": 1087,
    "fen": 20849,
    "Ġvancouver": 26564,
    "telling": 14438,
    "Ġanecd": 20153,
    "relieved": 13274,
    "Ġcircus": 19091,
    "Ġjan": 11759,
    "ceive": 3062,
    "leave": 7838,
    "Ġwoe": 4793,
    "Ġyarns": 15193,
    "Ġtrous": 10955,
    "consider": 6348,
    "Ġarches": 14161,
    "Ġjacob": 1899,
    "itories": 15545,
    "promote": 24727,
    "Ġdifferent": 1427,
    "data": 2224,
    "Ġintric": 9244,
    "orte": 14183,
    ")": 13,
    "aged": 2607,
    "Ġpulse": 13112,
    "Ġkeen": 4614,
    "unnatural": 15769,
    "Ġcorrupt": 11920,
    "spl": 9138,
    "miles": 10711,
    "Ġdropped": 4471,
    "Ġaffidavit": 20723,
    "Ġpurchase": 12256,
    "Ġcod": 8412,
    "Ġtim": 4579,
    "Ġelsewhere": 7713,
    "Ġthack": 21515,
    "ainted": 3657,
    "Ġsatin": 12984,
    "zed": 8104,
    "Ġaud": 6661,
    "Ġbiological": 1932,
    "inced": 3334,
    "Ġlearned": 2024,
    "touch": 8392,
    "Ġtint": 13815,
    "Ġconjecture": 9530,
    "Ġoccupied": 5272,
    "Ġgleamed": 17076,
    "Ġtomb": 8806,
    "Ġinherited": 25353,
    "Ġundertaking": 8573,
    "Ġclusters": 25232,
    "reat": 618,
    "Ġcharms": 11129,
    "Ġdong": 17887,
    "Ġquadruped": 17457,
    "ĠĠĠĠĠĠĠĠĠĠĠĠĠĠĠĠĠĠĠĠĠĠĠĠĠĠĠĠĠĠĠĠĠĠĠĠĠĠĠ": 19257,
    "Ġdan": 8791,
    "Ġhappier": 10358,
    "Ġtempor": 2368,
    "hedge": 22497,
    "âĢĿâĢĶ": 5721,
    "orers": 14101,
    "Ġunwritten": 22032,
    "Ġdescends": 14285,
    "comprehend": 14358,
    "Ġburg": 23650,
    "Ġtimber": 13347,
    "Ġconjure": 17122,
    "question": 5418,
    "Ġdeject": 10880,
    "Ġbraced": 16578,
    "Ġmilitary": 11257,
    "Ġperil": 5556,
    "flour": 23963,
    "ab": 345,
    "Ġextracting": 11106,
    "express": 4895,
    "Ġdelicious": 14790,
    "Ġbreathlessly": 24279,
    "ke": 429,
    "Ġpin": 7161,
    "Ġbanquet": 15238,
    "Ġspite": 4156,
    "nowhere": 18418,
    "Ġey": 8135,
    "Ġvile": 8472,
    "wes": 17702,
    "addition": 13382,
    "Đ": 209,
    "Ġslaughter": 20729,
    "nez": 22445,
    "dies": 15336,
    "Ġdeuteronomy": 15756,
    "Ġmajor": 13289,
    "Ġfashioned": 13318,
    "Ġexperience": 1374,
    "Ġcling": 11770,
    "laz": 15383,
    "Ġbusied": 19066,
    "unt": 2044,
    "Ġgermany": 25785,
    "revolver": 25627,
    "Ġvanish": 8926,
    "Ġfits": 8789,
    "Ġmajesty": 5201,
    "matlock": 23468,
    "smo": 10124,
    "Ġunspeakably": 25172,
    "Ġfigures": 8629,
    "suff": 4961,
    "Ġexeget": 24084,
    "Ġvales": 21944,
    "Ġdisgracing": 26255,
    "host": 5867,
    "Ġquadru": 16001,
    "Ġexped": 7650,
    "gledy": 25403,
    "Ġbeheaded": 11654,
    "Ġunreliable": 3928,
    "jet": 13740,
    "Ġgoney": 14544,
    "Ġdardanelles": 26442,
    "Ġknight": 9726,
    "Ġsenor": 20149,
    "flask": 12096,
    "Ġlun": 7856,
    "Ġoffic": 3186,
    "Ġencourages": 2062,
    "Ġpredictions": 1455,
    "Ġhum": 1100,
    "Ġtrades": 8232,
    "brown": 15315,
    "Ġneg": 1334,
    "intervals": 10636,
    "chorus": 19810,
    "Ġgiving": 4086,
    "steep": 19417,
    "consciousness": 13363,
    "Ġglimpses": 13430,
    "Ġsable": 15498,
    "arial": 5531,
    "Ġwarnings": 16880,
    "Ġbackground": 18649,
    "Ġdoll": 10812,
    "Ġcrowder": 19454,
    "Ġremoter": 20104,
    "irc": 1730,
    "Ġontario": 26205,
    "Ġdesper": 6176,
    "Ġnewfound": 22930,
    "ows": 1917,
    "fun": 4012,
    "Ġgrammar": 1063,
    "Ġfoe": 7680,
    "hap": 17558,
    "Ġclient": 5555,
    "Ġsophisticated": 1596,
    "hend": 13251,
    "Ġtong": 4870,
    "Ġalongside": 6311,
    "Ġmeat": 8152,
    "Ġthreat": 5154,
    "Ġugliness": 20425,
    "Ġpea": 14315,
    "Ġcarved": 7947,
    "humoured": 11235,
    "Ġ10": 5249,
    "eted": 7591,
    "connect": 1293,
    "Ġwalled": 15532,
    "Ġbanqu": 12584,
    "Ġpriests": 15039,
    "Ġgun": 4702,
    "washed": 13042,
    "Ġangular": 19206,
    "Ġsmart": 11812,
    "ious": 770,
    "abashed": 21790,
    "R": 54,
    "Ġoverhanging": 22352,
    "protest": 24815,
    "arrested": 15597,
    "Ġweary": 5635,
    "Ġincomplete": 17207,
    "Ġrocked": 12850,
    "Ġexerting": 21830,
    "phenomenon": 17647,
    "suspected": 12369,
    "keeping": 8634,
    "distinguished": 10525,
    "Ġblooming": 17211,
    "Ġclutches": 20016,
    "Ġascendency": 20231,
    "Ġheadlong": 11885,
    "brary": 5755,
    "mason": 17602,
    "orne": 17872,
    "Ġproced": 2580,
    "Ġcoral": 11919,
    "south": 8758,
    "Ġmoustache": 20482,
    "Ġtwos": 18657,
    "utility": 21585,
    "Ġrifts": 21973,
    "ultaneously": 4194,
    "Ġtweezers": 26555,
    "Ġaccess": 9745,
    "Ġbl": 1190,
    "tinted": 17682,
    "dler": 13704,
    "Ġreluct": 14370,
    "twill": 21073,
    "Ġdemean": 12719,
    "Ġheeded": 13401,
    "prospect": 23394,
    "Ġaccumulates": 2892,
    "Ġforgetting": 3433,
    "ma": 1150,
    "Ġdistantly": 18531,
    "Ġrates": 1404,
    "Ġoffended": 7040,
    "Ġand": 295,
    "Ġarriving": 19216,
    "iceland": 21564,
    "adventurous": 25361,
    "Ġaccuracy": 1062,
    "itheat": 21336,
    "hens": 3937,
    "Ġdecidedly": 9507,
    "Ġmarked": 4620,
    "yellow": 9623,
    "Ġconclusions": 10552,
    "Ġmould": 6519,
    "Ġsoftware": 18918,
    "ª": 108,
    "Ġschemes": 11130,
    "Ġsax": 10928,
    "Ġprayers": 12120,
    "Ġme": 351,
    "whal": 10939,
    "prot": 6899,
    "bted": 7794,
    "declaration": 25175,
    "Ġunaffected": 14120,
    "Ġmovements": 24358,
    "Ġrestlessness": 23291,
    "rivial": 9432,
    "handled": 19259,
    "Ġdrink": 4787,
    "Ġhuff": 21488,
    "ighted": 8476,
    "Ġrevers": 21662,
    "Ġcard": 7363,
    "Ġanxiety": 5408,
    "Ġwomen": 4750,
    "windward": 24158,
    "Ġrider": 24184,
    "enstein": 5799,
    "Ġton": 15462,
    "Ġwindsor": 16886,
    "Ġselecting": 16683,
    "Ġsign": 2497,
    "tures": 21068,
    "Ġmaybe": 12945,
    "Ġlearn": 364,
    "Ġsolved": 8930,
    "Ġweaving": 12736,
    "resc": 21237,
    "Ġjuncture": 17128,
    "libra": 22923,
    "Ġhans": 12622,
    "Ġcasual": 11408,
    "Ġcoin": 9769,
    "Ġmagic": 8233,
    "some": 2236,
    "scure": 22986,
    "Ġdomineering": 23715,
    "Ġcruc": 16532,
    "Ġscuff": 15940,
    "ĠâĢľâĢĺ_": 25111,
    "Ġlxi": 21559,
    "Ġcritic": 19124,
    "ishing": 1144,
    "Ġtranquilly": 12287,
    "Ġslily": 23162,
    "Ġlearnedly": 23384,
    "Ġeliza": 6437,
    "Ġlunging": 24991,
    "Ġazores": 20192,
    "Ġbigger": 19760,
    "Ġugl": 12678,
    "Ġstrange": 2273,
    "finds": 19926,
    "Ġknocked": 9498,
    "Ġtext": 2267,
    "Ġhemis": 21682,
    "magnificent": 20273,
    "arrival": 15596,
    "achment": 5464,
    "Ġtormenting": 15102,
    "self": 616,
    "Ġfortifications": 23619,
    "Ġdepress": 14046,
    "Ġfiles": 21412,
    "Ġbang": 17854,
    "Ġstow": 21728,
    "Ġtaste": 5524,
    "Ġharpoon": 3614,
    "direction": 17523,
    "lude": 6161,
    "stepfather": 19190,
    "Ġflowing": 14409,
    "Ġbreeze": 5681,
    "Ġexploitation": 2348,
    "move": 11851,
    "effort": 19213,
    "Ġrecording": 24433,
    "Ġshrink": 14801,
    "Ġsubdued": 11029,
    "feeling": 6616,
    "Ġinspection": 14543,
    "others": 7670,
    "Ġpap": 8796,
    "Ġdomineer": 23714,
    "ran": 11514,
    "Ġheadlands": 22896,
    "concern": 5875,
    "tan": 4742,
    "Ġfisherman": 12072,
    "Ġbreeds": 23347,
    "Ġforb": 11661,
    "Ġstories": 10864,
    "Ġcontinuous": 1557,
    "Ġratio": 5066,
    "vicinity": 20478,
    "Ġstable": 2700,
    "Ġspaulding": 11728,
    "pacing": 21020,
    "Ġconject": 6027,
    "Ġwitnesses": 9484,
    "shell": 16284,
    "forming": 15913,
    "Ġdrawling": 19435,
    "Ġ1836": 25721,
    "Ġsenseless": 12075,
    "Ġgrunted": 16164,
    "total": 17249,
    "Ġassistants": 9450,
    "ittered": 18440,
    "Ġjulia": 22300,
    "Ġcopied": 20006,
    "Ġorganically": 3010,
    "eyes": 5684,
    "fow": 20852,
    "oh": 1573,
    "government": 25406,
    "Ġmeditative": 25014,
    "through": 4025,
    "resent": 10768,
    "?âĢĻâĢĿ": 23642,
    "aming": 5828,
    "Ġmund": 21317,
    "hypothe": 25905,
    "Ġvaried": 11845,
    "Ġsheep": 10925,
    "Ġstreet": 2958,
    "verted": 10216,
    "quitted": 21855,
    "Ġtransform": 745,
    "Ġcountess": 11961,
    "moored": 22704,
    "Ġunquestion": 18248,
    "surface": 10529,
    "varieties": 23184,
    "ì": 173,
    "Ġtempest": 8213,
    "Ġfields": 2142,
    "Ġjutting": 22299,
    "fire": 6357,
    "Ġchas": 18379,
    "Ġinfidel": 13086,
    "Ġsources": 10146,
    "Ġprocedural": 12028,
    "Ġviewing": 19263,
    "Ġpreluding": 18368,
    "mont": 19168,
    "¢": 100,
    "eskye": 21482,
    "Ġzoned": 22819,
    "Ġcommodores": 25374,
    "Ġcoff": 3506,
    "value": 18806,
    "Ġunho": 18245,
    "Ġelements": 2668,
    "Ġdaugh": 2294,
    "Ġwhisker": 23932,
    "antages": 7192,
    "Ġfaintest": 24568,
    "ominy": 13980,
    "terr": 8154,
    "approb": 11041,
    "semble": 1525,
    "Ġrelating": 2706,
    "nals": 16397,
    "absence": 12704,
    "Ġlounged": 19952,
    "Ġwestmorland": 24389,
    "Ġaccelerating": 1620,
    "Ġgalvan": 21615,
    "peculiar": 6886,
    "Ġzealand": 12347,
    "Ġpore": 21456,
    "Ġstun": 11648,
    "Ġinvoking": 19145,
    "Ġlet": 1110,
    "inf": 6232,
    "Ġforbe": 8457,
    "fs": 17534,
    "enemy": 15524,
    "larking": 17593,
    "rical": 11517,
    "Ġwould": 652,
    "Ġholland": 10364,
    "Ġcomparable": 24277,
    "Ġhosmer": 6774,
    "dat": 1652,
    "ishly": 14198,
    "domestic": 19824,
    "Ġyaw": 18094,
    "possibility": 13359,
    "Ġadult": 18289,
    "Ġhardware": 4904,
    "Ġpatted": 16372,
    "Ġvague": 6406,
    "Ġtheore": 1831,
    "reposed": 24491,
    "Ġkrem": 9725,
    "Ġconceals": 23901,
    "Ġdouble": 4940,
    "withdrawn": 23026,
    "sky": 12507,
    "sense": 11522,
    "Ġ123": 24467,
    "zar": 11546,
    "Ġretirement": 25378,
    "grasp": 16428,
    "entitled": 21566,
    "Ġtumbling": 13824,
    "Ġpint": 17907,
    "ardy": 22154,
    "Ġadventure": 5981,
    "Ġsecondary": 23335,
    "Ġjeopard": 9941,
    "Ġhur": 2100,
    "Ġbranded": 14377,
    "Ġtypewriting": 16418,
    "uff": 2731,
    ").âĢĿ": 20740,
    "wam": 10134,
    "vels": 5432,
    "Ġsavag": 19372,
    "Ġ82": 24457,
    "Ġche": 1763,
    "Ġsermon": 12373,
    "Ġpersever": 10001,
    "ruct": 686,
    "gentle": 5356,
    "father": 3774,
    "Ġinterior": 8893,
    "Ġcircling": 19092,
    "Ġsquatted": 25841,
    "Ġsparkling": 11355,
    "Ġequival": 4783,
    "get": 1021,
    "Ġmowers": 17812,
    "Ġremove": 7499,
    "Ġhatches": 12042,
    "Ġremark": 2146,
    "Ġextravagant": 17277,
    "Ġmadman": 13149,
    "Ġaccomplishments": 13377,
    "rad": 2256,
    "rying": 3185,
    "Ġmish": 15534,
    "Ġexpression": 4515,
    "erted": 7361,
    "Ġchinks": 22249,
    "bour": 2073,
    "Ġbush": 23336,
    "whiteness": 18370,
    "Ġschoolboys": 24480,
    "Ġengage": 9333,
    "Ġvariously": 18653,
    "Ġmillions": 11353,
    "Ġpacifics": 24372,
    "shazz": 14240,
    "weep": 22682,
    "Ġchances": 9261,
    "forward": 2185,
    "ologies": 18772,
    "Ġadmir": 12018,
    "vacancies": 25919,
    "d": 72,
    "Ġforce": 5092,
    "sticks": 25964,
    "ched": 1543,
    "Ġobeyed": 12213,
    "Ġcentrally": 23829,
    "icorn": 15653,
    "Ġapolog": 9042,
    "(": 12,
    "Ġunexpected": 6841,
    "Ġscaling": 3631,
    "Ġanalyzing": 18785,
    "Ġclutching": 24951,
    "ancholy": 5070,
    "88": 20757,
    "Ġmess": 7832,
    "waters": 11332,
    "Ġgord": 21598,
    "Ġacquiesced": 25493,
    "Ġcanvassed": 19933,
    "capital": 15086,
    "Ġlooking": 2476,
    "Ġdr": 2825,
    "bering": 18680,
    "Ġcousins": 9913,
    "Ġabundant": 17153,
    "iciously": 17973,
    "Ġmilky": 9945,
    "Ġaunt": 3176,
    "Ġbenediction": 18784,
    "Ġbasis": 16960,
    "Ġbefitting": 15722,
    "etymology": 14699,
    "Ġdelineate": 26057,
    "Ġeste": 6085,
    "Ġretire": 10380,
    "persuaded": 15071,
    "Ġnonsensical": 21527,
    "triumph": 15438,
    "Ġca": 21337,
    "Ġshaster": 21996,
    "Ġsail": 1672,
    "Ġthemselves": 3249,
    "sax": 21055,
    "Ġdived": 9176,
    "ohog": 9841,
    "Ġtigers": 25758,
    "Ġhiding": 9821,
    "Ġalleviated": 26203,
    "Ġdarkness": 4279,
    "Ġscolding": 15198,
    "Ġdodging": 19886,
    "Ġelevation": 14895,
    "Ġesquimaux": 25150,
    "Ġdisgu": 8206,
    "Ġbase": 5013,
    "Ġinjunction": 19616,
    "Ġmagnitude": 1943,
    "Ġwantonly": 22893,
    "Ġessays": 19743,
    "Ġsunrise": 9371,
    "Ġcountry": 2533,
    "Ġgryphon": 4301,
    "trouble": 8296,
    "Ġemployments": 12099,
    "affected": 10475,
    "mph": 20971,
    "đ": 210,
    "ethe": 9675,
    "Ġstake": 14001,
    "Ġgrat": 4057,
    "Ġfeared": 5931,
    "Ġdimmed": 24266,
    "Ġumbrella": 15263,
    "Ġtwentieth": 18659,
    "Ġjoking": 12833,
    "tiness": 21070,
    "Ġeng": 1163,
    "Ġorphans": 20203,
    "anybody": 12079,
    "Ġpresented": 5183,
    "deav": 2675,
    "pushed": 21022,
    "vap": 13801,
    "Ġlogic": 13075,
    "Ġapologize": 15126,
    "Ġimagined": 8606,
    "Ġsensations": 5259,
    "Ġpurchases": 24756,
    "Ġproximity": 3218,
    "books": 8663,
    "Ġinterview": 9768,
    "Ġvicious": 24402,
    "Ġdispleased": 18555,
    "beaten": 20314,
    "reinforcement": 7827,
    "Ġoath": 7834,
    "Ġ17": 5740,
    "acy": 3954,
    "convinced": 10621,
    "both": 5785,
    "bitious": 16668,
    "hopper": 23710,
    "library": 12995,
    "render": 10289,
    "Ġtumb": 21168,
    "Ġhint": 5016,
    "number": 10113,
    "seek": 8835,
    "Ġbuzz": 23994,
    "ublic": 11226,
    "influence": 13576,
    "threadbare": 25989,
    "aker": 3661,
    "shout": 22450,
    "Ġensigns": 23684,
    "Ġmeditate": 16681,
    "Ġvicinity": 7315,
    "brain": 13685,
    "-": 17,
    "Ġbarn": 11585,
    "Ġsanguine": 25928,
    "Ġtargets": 4205,
    "laying": 19771,
    "Ġcarbuncle": 14443,
    "aper": 4999,
    "Ġspectators": 19405,
    "itable": 5437,
    "Ġcabaco": 13165,
    "Ġfell": 1975,
    "Ġpert": 22394,
    "Ġinitialization": 1253,
    "Ġpeas": 8533,
    "Ġetc": 7084,
    "Ġtru": 4107,
    "disappointed": 25191,
    "determination": 19943,
    "Ġscarcity": 23824,
    "attending": 18916,
    "Ġouter": 6859,
    "Ġberry": 19745,
    "Ġfervent": 14899,
    "Ġspell": 8854,
    "departure": 15232,
    "Ġclaw": 22358,
    "Ġsymmetrical": 20365,
    "Ġfict": 21403,
    "Ġnamed": 6139,
    "Ġdispelling": 23878,
    "Ġknitted": 19588,
    "Ġprogramming": 1184,
    "Ġadd": 629,
    "Ġbegun": 7243,
    "Ġlust": 9196,
    "grow": 10097,
    "leagues": 21371,
    "Ġbrace": 11210,
    "Ġduplicity": 25331,
    "Ġprematurely": 24003,
    "Ġcriminal": 7537,
    "Ġloveliness": 13606,
    "Ġbene": 2033,
    "Ġbouton": 17868,
    "strangers": 20335,
    "Ġmantelpiece": 15205,
    "Ġbolivia": 24667,
    "Ġdescried": 7920,
    "fins": 13717,
    "Ġcaul": 10786,
    "Ġinstituted": 18701,
    "modesty": 22826,
    "Ġlabrador": 23330,
    "Ġsmelling": 16063,
    "Ġassault": 9835,
    "Ġtoil": 6531,
    "discernible": 20549,
    "irations": 18170,
    "Ġunconcern": 14115,
    "Ġprogno": 14038,
    "Ġxxxii": 24972,
    "Ġfills": 12590,
    "card": 11474,
    "Ġmagical": 23097,
    "awing": 18915,
    "urmountable": 15277,
    "camp": 15328,
    "dispositions": 25011,
    "the": 334,
    "Ġcracked": 8594,
    "Ġjaw": 3317,
    "bits": 17487,
    "Ġpa": 2988,
    "Ġformations": 18748,
    "Ġrestrain": 8963,
    "ivorous": 22080,
    "Ġpledge": 11598,
    "Ġfronted": 25854,
    "tenham": 16318,
    "Ġdivin": 13271,
    "Ġpra": 4348,
    "sim": 6510,
    "Ġunseen": 3522,
    "Ġsauntering": 18327,
    "Ġheadway": 18793,
    "Ġwoeful": 19618,
    "Ġknee": 7093,
    "anders": 18152,
    "adier": 18089,
    "ste": 3583,
    "onze": 21254,
    "parlour": 16390,
    "uously": 7353,
    "Ġdozing": 22241,
    "orders": 12870,
    "Ġprayed": 16666,
    "Ġimplicated": 24875,
    "acquired": 24295,
    "Ġbert": 4583,
    "Ġadding": 2405,
    "bb": 2800,
    "Ġfundament": 2927,
    "Ġadjusted": 23457,
    "notches": 22750,
    "ortunity": 4404,
    "Ġserenity": 10026,
    "Ġbitten": 21388,
    "belated": 24034,
    "tiger": 13795,
    "Ġmarchant": 14783,
    "Ġfrowning": 13621,
    "Ġmalady": 24391,
    "tumultuously": 25613,
    "Ġsundial": 15080,
    "Ġautumn": 14507,
    "fashion": 8081,
    "dw": 3331,
    "narrowly": 20346,
    "Ġhudson": 15189,
    "mosphere": 10041,
    "lengths": 24846,
    "Ġreceptive": 1558,
    "boiling": 19001,
    "dig": 4929,
    "Ġjur": 12830,
    "Ġdews": 21837,
    "Ġscores": 2715,
    "ė": 216,
    "Ġneskye": 21529,
    "Ġwhale": 627,
    "women": 15454,
    "Ġattempting": 14695,
    "osh": 18388,
    "Ġbackbones": 22657,
    "Ġway": 1085,
    "Ġpatch": 4181,
    "Ġcrew": 2498,
    "Ġpul": 2041,
    "Ġgeneral": 1863,
    "Ġbattering": 13899,
    "absolutely": 10644,
    "Ġmer": 2930,
    "Ġalan": 10868,
    "ropes": 7904,
    "Ġhazarded": 25654,
    "cu": 10082,
    "ription": 5676,
    "Ġremotest": 10050,
    "Ġmud": 11571,
    "ivial": 15857,
    "extinguished": 16146,
    "Ġstaves": 21738,
    "Ġsmaller": 1884,
    "Ġinf": 1757,
    "rimsh": 17026,
    "Ġunsavory": 20706,
    "Ġpretensions": 16557,
    "Â£": 4812,
    "chat": 21684,
    "Ġtiar": 21166,
    "rolling": 9059,
    "Ġpossessing": 16574,
    "ben": 4926,
    "shot": 2190,
    "compliment": 11363,
    "Ġcanall": 10927,
    "simultaneously": 19863,
    "Ġgourmand": 26465,
    "Ġitself": 2523,
    "moil": 22703,
    "avenue": 25057,
    "Ġfut": 15571,
    "Ġcommit": 18655,
    "Ġstirs": 14915,
    "Ġaims": 15494,
    "Ġmortally": 23914,
    "Ġbr": 1070,
    "âĢĶ(": 15935,
    "venison": 22624,
    "Ġinde": 7371,
    "Ġgrind": 18733,
    "Ġmerrily": 23730,
    "Ġturk": 6603,
    "Ġten": 2388,
    "Ġcarpent": 4465,
    "Ġcoffin": 4429,
    "encoun": 12295,
    "Ġtrying": 4838,
    "Ġimportance": 4900,
    ":--âĢľ": 24549,
    "Ġtufted": 17013,
    "Ġminers": 22832,
    "Ġthickening": 24021,
    "Ġgrievances": 20647,
    "Ġbidding": 9535,
    "Ġturks": 14597,
    "until": 6596,
    "street": 6495,
    "94": 4803,
    "ronted": 14875,
    "Ġprivileged": 20111,
    "Ġbravest": 23838,
    "Ġmagnitudes": 3820,
    "Ġoutcast": 18414,
    "luxur": 25822,
    "Ġexpedition": 10632,
    "Ġinquiring": 8998,
    "Ġundressed": 19512,
    "000": 2562,
    "Ġmeadows": 11421,
    "Ġmethodology": 2422,
    "Ġrays": 10329,
    "Ġoutfits": 22319,
    "staking": 21640,
    "Ġmir": 9645,
    "Ġexhale": 24401,
    "Ġidle": 8253,
    "Ġdav": 15586,
    "alo": 7587,
    "Ġdiffused": 12065,
    "met": 6652,
    "model": 4275,
    "glo": 8737,
    "Ġrem": 954,
    "dled": 9109,
    "warm": 8102,
    "Ġseptember": 18207,
    "slackened": 26094,
    "islands": 21374,
    "Ġkitchen": 8495,
    "Ġplunge": 13441,
    "departed": 24794,
    "ropout": 1322,
    "ineff": 21978,
    "Ġleaky": 2347,
    "Ġlub": 15645,
    "crews": 15041,
    "tural": 21065,
    "Ġpromised": 5181,
    "bol": 8717,
    "Ġeaglet": 19304,
    "Ġcau": 13879,
    "Ġcomb": 1075,
    "intend": 16221,
    "Ġdisadvantages": 18558,
    "Ġrepugnant": 26589,
    "Ġpy": 21449,
    "widely": 25343,
    "uine": 13797,
    "memory": 13615,
    "Ġisles": 8459,
    "urre": 10855,
    "Ġobserving": 6081,
    "Ġinsist": 9887,
    "jo": 3750,
    "ien": 10100,
    "Ġnarwhale": 12290,
    "Ġentrapped": 26262,
    "wil": 8396,
    "fatal": 17087,
    "Ġlower": 2663,
    "supplied": 10518,
    "Ġchewing": 23284,
    "Ġsunbeam": 23273,
    "Ġbomb": 17867,
    "Ġerected": 12230,
    "cannibals": 25584,
    "heav": 5694,
    "Ġdissatisfied": 14255,
    "Ġnovels": 15926,
    "ŀ": 257,
    "Ġcivilities": 14846,
    "Ġexplo": 2287,
    "Ġsplinters": 15100,
    "Ġgang": 9206,
    "Ġpeered": 18668,
    "hurt": 19877,
    "Ġfi": 933,
    "Ġdank": 21427,
    "Ġbloodthirst": 23800,
    "Ġdons": 17888,
    "Ġlowered": 6735,
    "Ġcompute": 2907,
    "soul": 9139,
    "Ġexponentially": 1445,
    "Ġthereof": 22366,
    "ishop": 9740,
    "Ġswore": 10377,
    "Ġphase": 14468,
    "Ġhaunts": 18198,
    "discoveries": 25385,
    "onsensical": 18576,
    "red": 398,
    "stayed": 25290,
    "Ġcheapside": 23287,
    "gods": 13364,
    "Ġtarshish": 12026,
    "Ġmarks": 6746,
    "Ġcongregational": 25102,
    "Ġaccomp": 4713,
    "myster": 16262,
    "Ġimputable": 22171,
    "agreeable": 5829,
    "Ġlingering": 11378,
    "Ġpower": 1243,
    "Ġdisposition": 5409,
    "find": 6954,
    "Ġhydraulic": 10062,
    "Ġthose": 1172,
    "mush": 20976,
    "Ġnations": 8808,
    "Ġcranes": 20381,
    "Ġother": 762,
    "swe": 5996,
    "aught": 2681,
    "Ġplants": 22596,
    "Ġpomp": 12618,
    "Ġlifting": 10195,
    "Ġcertain": 1553,
    "Ġdrawers": 12102,
    "Ġcurt": 18849,
    "Ġabilities": 8865,
    "danced": 20827,
    "Ġ14": 9321,
    "ĠĠ": 353,
    "bout": 20772,
    "Ġwholesome": 16002,
    "Ġwhirlpool": 20654,
    "Ġcells": 13883,
    "sitting": 8387,
    "Ġungrateful": 14119,
    "Ġroots": 11184,
    "Ġbundle": 13424,
    "Ġexhibition": 14955,
    "Ġsentin": 16369,
    "Ġmothers": 14539,
    "dra": 3412,
    "kshire": 13744,
    "hip": 8740,
    "liked": 10507,
    "Ġpresc": 15922,
    "humanity": 24839,
    "Ġern": 8397,
    "Ġleaping": 8341,
    "Ġay": 15489,
    "oug": 431,
    "Ġhonourable": 10455,
    "Ġproceedings": 9905,
    "Ġwilfully": 16765,
    "Ġnar": 7375,
    "Ġsaviour": 20712,
    "Ġfrocks": 23919,
    "ulity": 10885,
    "Ġensued": 11393,
    "problem": 25244,
    "quered": 11057,
    "erial": 4632,
    "Ġcaps": 8415,
    "Ġrevolved": 9982,
    "else": 6533,
    "Ġresol": 2666,
    "Ġaccommod": 14209,
    "clam": 13051,
    "Ġfunctional": 3046,
    "Ġearthy": 23708,
    "Ġperturbed": 20438,
    "hullo": 17569,
    "clearly": 25195,
    "Ġsob": 12784,
    "Ġconsumm": 15152,
    "nets": 9131,
    "gangway": 20666,
    "eze": 20846,
    "Ġhairy": 23863,
    "Ġbab": 5289,
    "clay": 18930,
    "Ġtouched": 6001,
    "rons": 21038,
    "Ġheaving": 7600,
    "nowadays": 22335,
    "nothing": 3153,
    "ented": 4350,
    "arman": 11593,
    "Ġfleshy": 24615,
    "Ġjourneying": 25565,
    "Ę": 217,
    "Ġendangered": 16301,
    "Ġhud": 10821,
    "Ġamendment": 26024,
    "spirit": 11312,
    "Ġhousings": 21491,
    "aset": 10831,
    "merry": 16534,
    "Ġinfle": 16360,
    "cords": 25136,
    "Ġpinched": 17034,
    "enchant": 21282,
    "Ġclassifies": 11837,
    "Ġreplen": 11114,
    "Ġrucastle": 5176,
    "date": 17516,
    "Ġconsum": 9797,
    "Ġpretending": 19314,
    "Ġafternoon": 6053,
    "rodu": 1819,
    "Ġvoluntary": 14796,
    "Ġbart": 17857,
    "Ó": 148,
    "provided": 13635,
    "uarded": 21104,
    "Ġblu": 2687,
    "bunger": 20400,
    "âĢĶ": 517,
    "Ġpoet": 8208,
    "Ġsequence": 1974,
    "Ġadvisable": 11441,
    "wart": 17704,
    "topic": 10526,
    "haut": 20901,
    "sery": 17660,
    "magnetic": 20551,
    "rmsprop": 4523,
    "Ġabraham": 18395,
    "odecimo": 11443,
    "Ġhereby": 10357,
    "Ġfork": 15728,
    "Ġmusket": 12293,
    "neighbouring": 19962,
    "safe": 10052,
    "Ġarmada": 23579,
    "Ġdil": 6383,
    "Ġdejection": 15194,
    "Ġschools": 9475,
    "win": 6801,
    "Ġgore": 17988,
    "Ġstreets": 5863,
    "Ġsuperflu": 14553,
    "consciously": 19624,
    "Ġmrs": 1466,
    "Ġpushed": 5910,
    "bast": 10075,
    "Ġexpansion": 22622,
    "Ġtet": 21156,
    "Ġthereby": 7643,
    "Ġbegin": 3098,
    "imly": 12683,
    "ior": 2040,
    "visual": 24221,
    "Ġavoided": 13257,
    "Ġsupp": 1268,
    "degra": 22139,
    "asing": 5912,
    "Ġamazing": 9975,
    "went": 6512,
    "Ġunjustly": 17125,
    "Ġimbued": 17453,
    "cloud": 11104,
    "Ġnewfoundland": 26568,
    "Ġlbs": 11613,
    "Ġnavy": 14914,
    "Ġshall": 1143,
    "ory": 1080,
    "Ġmorocc": 22970,
    "spoutings": 25003,
    "Ġbirth": 6524,
    "Ġ111": 24435,
    "t": 88,
    "flung": 16637,
    "Ġmarlingspike": 26578,
    "Ġfac": 6381,
    "Ġflourished": 15123,
    "tawny": 26403,
    "Ġlestrade": 5825,
    "glasses": 11214,
    "ais": 8071,
    "Ġaversion": 18866,
    "dan": 17514,
    "Ġcroquet": 9960,
    "Ġlain": 17961,
    "Ġflock": 21410,
    "Ġoperated": 14546,
    "sk": 5521,
    "Ġflat": 8228,
    "gazed": 15359,
    "Ġro": 596,
    "Ġcased": 21344,
    "inks": 6869,
    "irons": 10237,
    "Ġexhaustion": 14959,
    "ot": 346,
    "Ġwaldman": 11344,
    "tree": 11532,
    "Ġamuse": 5940,
    "Ġguineas": 16269,
    "writhed": 26080,
    "forbid": 14355,
    "Ġfeels": 6882,
    "Ġfancying": 12109,
    "Ġtorments": 13392,
    "Ġinfat": 14499,
    "Ġweighty": 16029,
    "Ġblue": 3452,
    "Ġassist": 3562,
    "dropping": 14980,
    "pid": 1395,
    "upset": 23017,
    "Ġpremeditated": 22232,
    "aco": 12902,
    "Ġmorality": 22969,
    "ladyship": 14827,
    "movement": 25577,
    "Ġcleat": 18946,
    "ake": 749,
    "greatest": 10492,
    "100": 11463,
    "rospect": 11610,
    "Ġnour": 10829,
    "mel": 9126,
    "Ġgrasshopper": 24379,
    "neath": 12862,
    "unbe": 21870,
    "Ġgranting": 18735,
    "pass": 4292,
    "Ġparsonage": 7123,
    "Ġhealthcare": 8016,
    "Ġsash": 17753,
    "Ġburden": 8607,
    "Ġcorners": 18874,
    "gal": 15353,
    "Ġdecayed": 22824,
    "Ġbelieve": 2147,
    "cstasy": 11444,
    "Ġinquirer": 24963,
    "hatred": 24821,
    "butt": 15991,
    "talked": 14983,
    "Ġdecoyed": 18488,
    "Ġfainting": 16896,
    "Ġhand": 860,
    "Ġpassionately": 16763,
    "os": 526,
    "testing": 12513,
    "allen": 22196,
    "Ġimmense": 4952,
    "slept": 17168,
    "Ġgi": 15662,
    "Ġpictured": 16621,
    "towards": 5002,
    "Ġescaped": 6459,
    "Ġspit": 22122,
    "truth": 9917,
    "ick": 836,
    "Ġbed": 2144,
    "Ġfastidious": 14491,
    "Ġknife": 7309,
    "Ġregarded": 5762,
    "uns": 21868,
    "Ġadieus": 25110,
    "shark": 14237,
    "Ġrise": 5637,
    "Ġunduly": 25994,
    "Ġmustering": 18662,
    "mouthful": 25208,
    "Ġearned": 19403,
    "Ġunconcerned": 20508,
    "Ġqualified": 14948,
    "Ġearly": 2079,
    "arius": 14247,
    "welcomed": 24644,
    "Ġcompass": 4409,
    "idelburgh": 10559,
    "Ġinsurg": 23676,
    "Ġsuspend": 14607,
    "Ġeconomy": 17199,
    "Ġindiscriminately": 20626,
    "Ġfood": 5080,
    "design": 18957,
    "Ġcapering": 21352,
    "Ġsurrender": 16448,
    "Ġcabin": 3302,
    "ateness": 15517,
    "Ġ55": 24322,
    "veil": 18042,
    "Ġexactness": 23603,
    "Ġgame": 3627,
    "Ġhalf": 1669,
    "uteronomy": 15660,
    "Ġwearisome": 19794,
    "Ġrelate": 6875,
    "Ġwitnessing": 19597,
    "dutch": 17217,
    "modern": 1113,
    "Ġspread": 5161,
    "Ġtougher": 21175,
    "Ġhired": 10176,
    "Ġconsists": 11974,
    "onet": 12541,
    "Ġharbor": 10025,
    "itate": 6667,
    "ootiful": 17371,
    "Ġcurving": 16240,
    "==": 944,
    "Ġrecurring": 23230,
    "Ġcontriv": 9280,
    "Ġjackson": 24239,
    "riety": 12739,
    "appropri": 22843,
    "Ġcoffee": 6760,
    "spot": 9789,
    "Ġclimates": 25051,
    "ium": 4864,
    "Ġdrove": 4984,
    "Ġinnocently": 24025,
    "man": 1056,
    "tained": 4406,
    "Ġfritters": 23255,
    "Ġgibberish": 25786,
    "Ġdoubled": 19641,
    "Ġtens": 17722,
    "jac": 8382,
    "prisoner": 20542,
    "Ġpend": 15602,
    "sleep": 6511,
    "hastily": 19701,
    "tempered": 13444,
    "children": 9054,
    "whales": 5187,
    "Ġdears": 18139,
    "·": 120,
    "aning": 2253,
    "Ġfreely": 7056,
    "mark": 5281,
    "wished": 13803,
    "Ġconcert": 11964,
    "announce": 24559,
    "fellow": 6792,
    "Ġpier": 7162,
    "where": 2093,
    "ruined": 18337,
    "anter": 9165,
    "Ġwhist": 6022,
    "Ġcolder": 22850,
    "monsters": 19170,
    "Ġtransformer": 2638,
    "irts": 9236,
    "shortened": 24748,
    "resist": 8276,
    "Ġshaded": 14103,
    "Ġcurtains": 22985,
    "Ġexercising": 19906,
    "Ġpitched": 9443,
    "Ġcontradicted": 20210,
    "attendants": 25495,
    "or": 282,
    "Ġautomatically": 3674,
    "Ġvial": 10247,
    "copyright": 5277,
    "staff": 21648,
    "Ġdespondency": 16576,
    "Ġtenderness": 12212,
    "Ġsand": 6235,
    "damp": 15341,
    "Ġswells": 9825,
    "Ġsin": 1514,
    "Ġsmitten": 12895,
    "Ġloom": 7628,
    "repressed": 21242,
    "ris": 9136,
    "compose": 24029,
    "gs": 7338,
    "Ġmental": 21318,
    "Ġphrenologist": 25607,
    "Ġtremendous": 8353,
    "Ġpersonal": 7479,
    "figures": 20120,
    "phere": 21018,
    "Ġshorter": 4498,
    "Ġsur": 2181,
    "._": 3219,
    "oky": 8198,
    "pede": 19843,
    "Ġcorpus": 13028,
    "Ġconvalescence": 23744,
    "Ġneat": 6999,
    "vanity": 24976,
    "Ġiii": 7861,
    "ullo": 12725,
    "Ġegypt": 9677,
    "Ĭ": 237,
    "time": 3146,
    "Ġexempl": 21828,
    "Ġperched": 10298,
    "plunging": 25987,
    "egypt": 15347,
    "Ġirreparable": 19997,
    "Ġflask": 3038,
    "igated": 15703,
    "ization": 487,
    "awe": 20764,
    "leaving": 10790,
    "Ġadjust": 2154,
    "Ġhidden": 1378,
    "ą": 198,
    "Ġcholera": 22251,
    "Ġunassuming": 20507,
    "Ġutil": 4673,
    "Ġevangelical": 25506,
    "me": 869,
    "Ġhe": 318,
    "joined": 13273,
    "Ġnapoleons": 25885,
    "Ġspies": 22126,
    "scence": 14417,
    "Ġepit": 18006,
    "Ġceiling": 7997,
    "Ġkeel": 6444,
    "Ġstandards": 19018,
    "Ġcombines": 1182,
    "Ġhatchet": 16526,
    "Ġexpanding": 25238,
    "newsp": 23131,
    "Ġmott": 17803,
    "amet": 575,
    "inity": 5693,
    "animate": 12573,
    "Ġdocks": 14176,
    "Ġelegant": 7532,
    "Ġdeeper": 2085,
    "Ġpossession": 5588,
    "privilege": 25263,
    "Ġrashness": 25460,
    "Ġscrape": 14916,
    "Ġcomplain": 6685,
    "Ġbrightness": 16575,
    "Ġtrump": 8195,
    "Ġmodular": 12812,
    "Ġtempt": 5564,
    "Ġsense": 3248,
    "deduction": 23556,
    "intment": 4720,
    "ault": 2309,
    "attentive": 17188,
    "iquet": 17574,
    "merchant": 10465,
    "Ġtenderest": 23549,
    "stun": 18015,
    "imprudence": 16556,
    "Ġinnocence": 6477,
    "rendered": 22336,
    "Ġunbelief": 22047,
    "Ġdinn": 23978,
    "such": 3082,
    "rank": 21040,
    "ourage": 2453,
    "civilized": 17074,
    "sullen": 17668,
    "burgh": 6773,
    "og": 855,
    "hunting": 24384,
    "fifty": 12349,
    "Ġweight": 657,
    "Ġbenefited": 19396,
    "Ġanxiously": 8290,
    "Ġpovels": 22590,
    "Ġassuredly": 14820,
    "Ġliveliest": 24775,
    "masts": 19423,
    "hurry": 24763,
    "luck": 5733,
    "oline": 6834,
    "befriend": 22490,
    "analy": 17838,
    "Ġpiny": 21468,
    "Ġattested": 22626,
    "Ġstiffness": 24830,
    "Ġperf": 12846,
    "thousand": 5546,
    "Ġmidday": 23632,
    "Ġhummed": 18778,
    "poky": 17643,
    "Ġshepherd": 14151,
    "rowing": 7931,
    "Ġmaledictions": 26427,
    "Ġfifteen": 6947,
    "about": 3585,
    "Ġscared": 14188,
    "Ġvacant": 9493,
    "Ġprecip": 7074,
    "displeasure": 23493,
    "Ġeastern": 11627,
    "assured": 10952,
    "racts": 14352,
    "Ġridic": 7508,
    "pped": 1998,
    "Ġb": 281,
    "Ġredden": 15690,
    "Ġoffers": 12942,
    "Ġapproximation": 2342,
    "Ġretrogression": 26580,
    "Ġbes": 2661,
    "Ġlodged": 11251,
    "Ġmour": 6973,
    "inder": 9151,
    "Ġdubious": 17381,
    "enc": 7574,
    "pleas": 3850,
    "rain": 461,
    "prejudice": 25571,
    "Ġconfound": 23303,
    "deficient": 23115,
    "Ġshouted": 5347,
    "Ġwrong": 4724,
    "att": 1456,
    "Ġsouls": 6308,
    "Ġsphere": 15879,
    "Ġtarts": 10752,
    "Ġlooked": 1805,
    "spikes": 10339,
    "Ġwalrus": 14971,
    "Ġfergus": 16871,
    "Ġextinct": 14328,
    "Ġrequire": 910,
    "gravel": 22618,
    "Ġbarely": 16935,
    "redible": 15801,
    "ream": 2710,
    "Ġreappearance": 21665,
    "Ġresided": 11808,
    "Ġchivalry": 25819,
    "happiest": 19331,
    "Ġexpectations": 13141,
    "Ġdelusion": 18974,
    "Ġfeeling": 3084,
    "Ġ109": 24415,
    "creature": 5346,
    "advent": 10219,
    "Ġsneezes": 24698,
    "n": 82,
    "Ġneville": 7399,
    "Ġwhirlwinds": 20463,
    "Ġplatform": 17130,
    "Ġmartha": 16261,
    "hoping": 17565,
    "Ġvomit": 21946,
    "Ġsqualidness": 25842,
    "Ġcoarsely": 25828,
    "usal": 7638,
    "Ġtiger": 11553,
    "explaining": 23139,
    "Ġscarcely": 4008,
    "snap": 24848,
    "Ġimitate": 14156,
    "Ġflank": 8229,
    "Ġjohnson": 18409,
    "Ġsolitude": 6876,
    "ratches": 20123,
    "phys": 18711,
    "air": 1002,
    "Ġconceit": 7295,
    "anse": 12571,
    "Ġchina": 8040,
    "Ġadro": 15864,
    "Ġbabes": 24424,
    "Ġparasol": 22119,
    "Ġconsol": 3813,
    "Ġspectacle": 10495,
    "Ġsaved": 6690,
    "Ġhurrah": 9867,
    "Ġwarning": 9057,
    "mistakable": 20652,
    "wedged": 24337,
    "running": 6797,
    "Ġquill": 12853,
    "viating": 14578,
    "approached": 13483,
    "Ġrecent": 7435,
    "pun": 9616,
    "Ġgritted": 22801,
    "strugg": 21654,
    "Ġscatter": 18398,
    "perth": 22179,
    "benevol": 12223,
    "Ġpervading": 20612,
    "Ġcouch": 12567,
    "Ġpleases": 16295,
    "iana": 7048,
    "eded": 9672,
    "Ġwithheld": 18114,
    "Ġrush": 5925,
    "Ġdispatched": 23879,
    "made": 4808,
    "Ġmumbling": 11572,
    "unavoidable": 17388,
    "Ġlashings": 25097,
    "Ġchatting": 24747,
    "inform": 10142,
    "rap": 21626,
    "ellent": 3760,
    "shunned": 22463,
    "equal": 14991,
    "Ġadmission": 23554,
    "Ġpreyed": 18366,
    "bran": 23573,
    "Ġanx": 3180,
    "Ġdestructive": 23485,
    "skirted": 24488,
    "mention": 7214,
    "Ġ35": 24075,
    "Ġlifetime": 13600,
    "Ġli": 602,
    "Ġinterested": 6458,
    "Ġra": 815,
    "parm": 21013,
    "Ġopulence": 23627,
    "Ġwisest": 11231,
    "hurst": 19878,
    "Ġreminding": 19796,
    "ustomed": 6099,
    "Ġwholly": 4447,
    "ifix": 21901,
    "fanning": 20865,
    "ö": 183,
    "Ġdiscerning": 24955,
    "Ġpeasants": 12329,
    "Ġvestige": 20061,
    "ob": 1420,
    "ivering": 7698,
    "ĠĠĠĠĠĠĠĠĠĠĠĠĠĠĠĠĠĠĠĠĠĠĠĠĠĠĠĠĠĠĠĠĠĠĠĠĠĠĠĠĠ": 19581,
    "Ġsprawling": 22137,
    "Ġassumpt": 5415,
    "Ġimpenitent": 26547,
    "Ġbrighton": 6470,
    "Ġdiagon": 24740,
    "Ġlengthened": 25958,
    "Ġbuilded": 24719,
    "approaching": 15010,
    "Ġmanor": 14195,
    "Ġbulge": 23855,
    "descending": 16282,
    "Ġhimmale": 18334,
    "Ġoccasions": 7988,
    "arbuck": 2026,
    "Ġensu": 7876,
    "vocation": 25084,
    "Ġobedient": 20103,
    "acey": 7649,
    "ear": 8730,
    "Ġimpropriety": 17393,
    "Ġsimpleton": 16332,
    "preced": 10308,
    "Ġcapture": 3383,
    "Ġdisasters": 16051,
    "conceivable": 17129,
    "Ġdy": 2552,
    "ě": 220,
    "Ġmeasurement": 19421,
    "Ġclassical": 22637,
    "ited": 1750,
    "subject": 6631,
    "Ġunmethodically": 22069,
    "Ġsuppression": 23000,
    "critters": 14781,
    "Ġmorning": 1747,
    "Ġbree": 5012,
    "Ġjeer": 24122,
    "Ġbear": 3656,
    "Ġrepl": 1592,
    "ried": 926,
    "Ġhapp": 1090,
    "Ġthroughout": 8875,
    "Ġknew": 2056,
    "treated": 21093,
    "Ġprobed": 18732,
    "embow": 21927,
    "Ġburied": 7719,
    "Ġwindlass": 7256,
    "Ġbamboo": 17435,
    "<MASK>": 4,
    "wonderful": 16959,
    "Ġphren": 8571,
    "Ġjenkinson": 11430,
    "Ġpear": 11849,
    "pieces": 8754,
    "butter": 11782,
    "pregn": 18500,
    "Ġbequest": 21751,
    "hark": 15363,
    "ide": 721,
    "Ġfortunes": 12175,
    "urp": 1471,
    "Ġdearly": 10400,
    "wel": 6117,
    "distant": 13332,
    "Ġmultitudinous": 26273,
    "brother": 7091,
    "ascertaining": 26459,
    "Ġesteem": 7531,
    "savor": 25024,
    "road": 6677,
    "Ġbuy": 8300,
    "Ġspiral": 14583,
    "outs": 7008,
    "patter": 4016,
    "Ġmermaid": 17813,
    "Ġlitter": 19828,
    "cracy": 24690,
    "ar": 285,
    "Ġfee": 7199,
    "Ġwanderings": 20142,
    "obed": 14444,
    ",âĢĶ": 3170,
    "Ġcharacteristics": 8609,
    "horn": 8086,
    "Ġreverie": 13455,
    "Ġtempered": 12918,
    "L": 48,
    "Ġdeliver": 9845,
    "Ġ119": 24440,
    "Ġpetrified": 19595,
    "illustration": 2285,
    "Ġclerical": 25568,
    "Ġallies": 18234,
    "Ġflickering": 23014,
    "mare": 17598,
    "nowledge": 10288,
    "Ġsed": 10760,
    "Ġpavement": 9576,
    "omination": 21660,
    "Ġemails": 13104,
    "uracy": 1054,
    "Ġdesol": 6881,
    "meant": 7922,
    "Ġpresuming": 16792,
    "acter": 2509,
    "Ġwrig": 13064,
    "Ġmajest": 24058,
    "Ġmagnus": 18956,
    "bery": 9785,
    "mortals": 25409,
    "Ġsimplicity": 2924,
    "much": 3705,
    "mal": 6794,
    "rom": 420,
    "Ġphyset": 23197,
    "Ġarrangements": 16513,
    "wig": 17703,
    "ating": 663,
    "Ġconsisted": 10418,
    "Ġdivinest": 25722,
    "Ġplans": 7919,
    "acet": 5476,
    "Ġrapidly": 3299,
    "Ġdisc": 942,
    "Ġcritically": 23444,
    "Ġsuccessive": 10499,
    "Ġhoarse": 14525,
    "**": 4686,
    "additional": 20462,
    "Ġinte": 2066,
    "Ġprying": 15605,
    "swallow": 24256,
    "Ġpresume": 8038,
    "Ġconvincing": 19307,
    "sixteen": 24853,
    "Ġfaltering": 17884,
    "Ġbacked": 12920,
    "eminently": 25105,
    "Ġfirmest": 16663,
    "Ġsing": 3073,
    "Ġpettic": 14839,
    "hoist": 23709,
    "Ġegotistical": 26191,
    "Ġrepining": 23359,
    "rrh": 26144,
    "idence": 4303,
    "Ġprows": 19888,
    "decor": 23779,
    "Ġfumbling": 21416,
    "Ġsporting": 16998,
    "Ġgem": 21592,
    "Ġchildish": 13135,
    "Ġsketches": 26270,
    "bene": 6112,
    "Ġsweetest": 13246,
    "continu": 5501,
    "Ġextremities": 19195,
    "Ġtrusting": 24104,
    "Ġrickety": 26504,
    "io": 3800,
    "Ġlimit": 10442,
    "Ġoblong": 14319,
    "¡": 99,
    "Ġimmeas": 18330,
    "oundering": 11744,
    "Ġmystic": 7503,
    "Ġassurances": 9998,
    "Ġwhar": 7388,
    "Ġinward": 11605,
    "constable": 24606,
    "masterly": 24529,
    "Ġwash": 9701,
    "saddest": 25527,
    "Ġlory": 12648,
    "broker": 13302,
    "Ġoppressively": 25712,
    "Ġsincerity": 13676,
    "cork": 20795,
    "Ġexamining": 8006,
    "izarre": 17387,
    "Ġblinding": 14726,
    "Ġactions": 6278,
    "Ġpromises": 10399,
    "Ġmild": 4147,
    "mira": 20978,
    "Ġwarsaw": 26167,
    "Ġcrippled": 25278,
    "Ġtok": 1244,
    "Ġintercept": 14267,
    "hateful": 20908,
    "zy": 2671,
    "Ġabsurdities": 24878,
    "Ġforesee": 19125,
    "axen": 22519,
    "colnett": 19329,
    "Ġextinguish": 14330,
    "Ġaston": 3701,
    "bright": 8988,
    "inexplicable": 25809,
    "Ġgreeks": 20011,
    "faces": 13718,
    "ater": 3368,
    "ning": 949,
    "Ġdescrying": 18618,
    "kered": 18274,
    "ification": 1003,
    "Ġbil": 15561,
    "Ġaffronted": 22892,
    "Ġcoleman": 22585,
    "Ġcongrat": 5827,
    "Ġsocks": 14132,
    "overs": 17620,
    "Ġvindict": 13603,
    "Ġpast": 2099,
    "Ġrigged": 16716,
    "Ġbricks": 13560,
    "Ġhumans": 8928,
    "Ġoverpowered": 15286,
    "Ġfestival": 25445,
    "nurs": 20998,
    "Ġduck": 8792,
    "Ġrespectful": 16342,
    "Ġthan": 736,
    "Ġswell": 8948,
    "Ġramad": 8527,
    "Ġriots": 23890,
    "erson": 7002,
    "ledge": 1330,
    "foundation": 16714,
    "judged": 14829,
    "Ġenemy": 5604,
    "ved": 871,
    "Ġpyramids": 15112,
    "Ġdedication": 3411,
    "Ġanything": 2184,
    "Ġfishy": 16521,
    "send": 15421,
    "Ġknowest": 12860,
    "Ġwhit": 7177,
    "drown": 13702,
    "Ġpaltry": 16691,
    "banked": 25337,
    "drawn": 9911,
    "Ġparacelsus": 15264,
    "upon": 2722,
    "sou": 12502,
    "Ġpossesses": 19350,
    "Ġdisciple": 22780,
    "Ġsudden": 2000,
    "Ġvolumes": 14797,
    "Ġalco": 21780,
    "Ġdesperation": 19817,
    "Ġaccidents": 10294,
    "dinner": 11405,
    "Ġunsupp": 22019,
    "us": 531,
    "Ġespe": 21154,
    "Ġwhilst": 9217,
    "Ġvictims": 19803,
    "Ġstur": 15713,
    "holmes": 4431,
    "fury": 17546,
    "Ġmonogram": 26573,
    "rior": 12737,
    "vain": 15445,
    "cob": 10085,
    "rect": 1598,
    "Ġupdates": 1299,
    "Ġ67": 19659,
    "rals": 21041,
    "Ġcolumn": 9326,
    "ologically": 22870,
    "Ġbeheading": 21752,
    "ĠâĢĶ": 13809,
    "turned": 7306,
    "gings": 7549,
    "Ġsegmentation": 17338,
    "Ġsweep": 8266,
    "aggra": 21904,
    "Ġfossils": 20221,
    "Ġdevils": 7233,
    "Ġsque": 18756,
    "Ġsincere": 11135,
    "Ġbewit": 15724,
    "Ġmissed": 8555,
    "Ġextras": 22729,
    "Ġrecur": 1623,
    "ython": 1029,
    "Ġmounted": 7833,
    "powers": 25410,
    "Ġshifted": 14105,
    "pencil": 18827,
    "brilliancy": 26077,
    "Ġcell": 6237,
    "Ġfoot": 3162,
    "admire": 24943,
    "Ġrecognise": 12025,
    "quite": 4647,
    "Ġcopy": 10162,
    "ceased": 21624,
    "Ġexpenses": 11830,
    "sides": 12504,
    "Ġafterwards": 3529,
    "ooping": 21006,
    "Ġdiction": 8793,
    "perceived": 8857,
    "Ġconstantly": 11969,
    "Ġabhorred": 9506,
    "rs": 7808,
    "Ġawoke": 7286,
    "rosc": 17954,
    "Ġwired": 17786,
    "Ġdistinguish": 2727,
    "carte": 25400,
    "Ġbroiled": 18908,
    "eye": 6224,
    "Ġspasmod": 12411,
    "wheels": 14379,
    "etieth": 21582,
    "attracted": 13047,
    "Ġsenior": 17170,
    "Ġrocks": 6863,
    "Ġjoint": 12032,
    "Ġbash": 12582,
    "Ġphilistines": 26082,
    "clump": 23153,
    "Ġlabourers": 23331,
    "Ġbaleen": 10035,
    "Ġseventh": 18206,
    "Ġlament": 7857,
    "complaisance": 24811,
    "iments": 4945,
    "collins": 6916,
    "Ġeclipsed": 26376,
    "bull": 13688,
    "luyt": 18459,
    "cient": 4570,
    "inisc": 15486,
    "walton": 20248,
    "15": 12427,
    "Ġthere": 564,
    "Ġthither": 6821,
    "Ġgrated": 22800,
    "Ġyoung": 1506,
    "Ġgeor": 3386,
    "mad": 5280,
    "sle": 9137,
    "Ġdesigns": 13008,
    "ission": 6457,
    "satisfy": 16891,
    "Ġendeavors": 16544,
    "Ġsquire": 16180,
    "itating": 9649,
    "Ġirregularly": 25323,
    "itect": 995,
    "yrin": 12518,
    "ompl": 4537,
    "take": 4577,
    "curious": 10481,
    "Ġspring": 4122,
    "Ġwheelbarrow": 17203,
    "mutually": 26136,
    "Ġadmiration": 5328,
    "Ġassigned": 16309,
    "Ġguidance": 9415,
    "Ġexecute": 7505,
    "Ġpictures": 5503,
    "dissemble": 23490,
    "Ġrugged": 18719,
    "Ġsupposing": 6729,
    "Ġtroubling": 26545,
    "baggage": 24926,
    "marvell": 24171,
    "Ġliberty": 7762,
    "lant": 20946,
    "Ġjudgment": 5765,
    "times": 8099,
    "Ġalliance": 18235,
    "Ġstair": 8455,
    "Ġboldness": 24427,
    "cou": 13693,
    "Ġmors": 17801,
    "impatience": 25500,
    "Ġliving": 3061,
    "kinson": 10024,
    "Ġancles": 21445,
    "erity": 21266,
    "Ġindoors": 18835,
    "pigs": 17139,
    "ild": 1153,
    "Ġflames": 7940,
    "Ġgpus": 3731,
    "Ġret": 1383,
    "Ġpersu": 3561,
    "Ġunreasonably": 17449,
    "Ġrate": 1064,
    "Ġspaniards": 25555,
    "ommod": 13979,
    "fiery": 13579,
    "Ġnoteworthy": 24160,
    "Ġloath": 7892,
    "Ġclapped": 9744,
    "obtain": 23092,
    "Ġrecip": 16133,
    "ences": 1266,
    "Ġlatin": 16820,
    "Ġdefines": 1742,
    "Ġalpha": 13586,
    "Ġpoising": 22589,
    "Ġlieu": 19563,
    "Ġargue": 16782,
    "Ġlanguages": 1564,
    "contr": 12054,
    "Ġwarped": 25035,
    "``": 15304,
    "ille": 9218,
    "Ġchanges": 2288,
    "Ġarrog": 18345,
    "Ġarticulated": 24432,
    "good": 2901,
    "hammered": 19004,
    "Ġaffirmative": 15220,
    "roses": 17956,
    "Ġfettered": 24567,
    "ĭ": 238,
    "Ġunremitting": 26217,
    "Ġlieutenant": 15259,
    "Ġchimer": 24603,
    "Ġrepresents": 4902,
    "Ġgoblet": 25823,
    "Ġnind": 17949,
    "Ġinterconnected": 1339,
    "Ġcuvier": 9164,
    "Ġarrant": 23297,
    "Ġhos": 4942,
    "Ġdragging": 14474,
    "sat": 4810,
    "Ġsentry": 19025,
    "Ġeluded": 12917,
    "Ġstraw": 9427,
    "aws": 8237,
    "Ġdivert": 23592,
    "Ġraptures": 13495,
    "Ġrisk": 8039,
    "eline": 2395,
    "Ġadvised": 16209,
    "Ġadvert": 10570,
    "Ġfurnish": 9017,
    "Ġ_": 840,
    "whispered": 20032,
    "elson": 16368,
    "Ġcritics": 23443,
    "Ġgarments": 15191,
    "Ġpenny": 16311,
    "nur": 11504,
    "Ġpent": 17901,
    "Ġwhitney": 11372,
    "Ġdeserted": 8636,
    "Ġappare": 12816,
    "Ġtransformations": 3483,
    "Ġwhisper": 6205,
    "velled": 9874,
    "Ġwarmed": 12020,
    "impropriety": 21711,
    "Ġpresent": 1641,
    "ĠĠĠĠĠĠĠĠĠĠĠĠĠĠĠĠĠĠĠĠĠĠ": 16224,
    "Ġhoky": 17926,
    "Ġnodes": 1965,
    "retched": 3066,
    "Ġadmirer": 16837,
    "Ġcloudy": 19475,
    "Ġindependently": 4246,
    "Ġbroad": 3638,
    "Ġgrazed": 15830,
    "Ġsigh": 10335,
    "Ġstatement": 5254,
    "omics": 21661,
    "sin": 21047,
    "Ġsheets": 9720,
    "Ġscaled": 2106,
    "Ġhoped": 5488,
    "itled": 7577,
    "Ġgrimesby": 11456,
    "Ġtunnels": 24621,
    "Ġstrewed": 23420,
    "ards": 2507,
    "Ġ90": 24589,
    "Ġatmosphere": 10896,
    "month": 6463,
    "Ġtasted": 12525,
    "Ġconsiderably": 7715,
    "using": 5468,
    "Ġbusy": 6189,
    "Ġhardened": 14448,
    "Ġpad": 8125,
    "spirits": 8055,
    "Ġspeaker": 19148,
    "commanded": 16987,
    "ket": 17581,
    "unched": 10234,
    "simp": 17664,
    "Ġworshipped": 25691,
    "limping": 26392,
    "luent": 15995,
    "Ġrestore": 9378,
    "Ġashore": 5351,
    "gathered": 13730,
    "Ġaudacity": 19881,
    "Ġbi": 920,
    "nihil": 9850,
    "hundreds": 25073,
    "Ġ1807": 26083,
    "astrous": 15883,
    "Ġradiating": 24334,
    "Ġvariants": 1793,
    "Ġbulkington": 14676,
    "ease": 12454,
    "Ġvon": 14079,
    "Ġunbounded": 18259,
    "Ġslips": 23164,
    "imaux": 21710,
    "heavily": 24533,
    "Ġsublimity": 26345,
    "Ġdeaths": 14536,
    "Ġloss": 825,
    "reve": 12535,
    "mechanical": 25578,
    "Ġfeigned": 22208,
    "ining": 3220,
    "Ġresting": 7962,
    "Ġmortals": 9914,
    "Ġbubb": 12580,
    "vers": 1328,
    "Ġethere": 23948,
    "Ġindiam": 22951,
    "imming": 9685,
    "mouthed": 12397,
    "Ġgreas": 17991,
    "Ġmode": 8497,
    "fri": 20853,
    "Ġelijah": 9098,
    "Ġamel": 18507,
    "Ġrounding": 16273,
    "Ġamateur": 22479,
    "spread": 8389,
    "col": 3102,
    "Ġcelebrated": 13592,
    "Ġgas": 8133,
    "Ġaccumulation": 2693,
    "Ġstrict": 7222,
    "Ġcapsized": 20088,
    "Ġsummers": 23871,
    "$": 8,
    "Ġdel": 1615,
    "Ġprotecting": 24686,
    "ie": 729,
    "Ġpreliminaries": 25176,
    "mild": 15389,
    "prep": 9757,
    "vative": 1590,
    "istle": 15867,
    "Ġnursery": 19749,
    "apidated": 22334,
    "Ġearning": 23938,
    "Ġnamely": 20688,
    "hate": 20891,
    "Ġth": 299,
    "apothecary": 26544,
    "Ġinfant": 11956,
    "iature": 8741,
    "swept": 19785,
    "Ġreveries": 11346,
    "Ġbuckle": 17032,
    "Ġgentlemanlike": 12063,
    "etian": 13957,
    "faith": 15023,
    "case": 5206,
    "177": 20751,
    "Ġrecall": 3854,
    "ounce": 6557,
    "Ġcalling": 5662,
    "Ġmiles": 3802,
    "Ġrighted": 23176,
    "Ġconcentrated": 15081,
    "Ġtraits": 23074,
    "Ġmalay": 24390,
    "stopping": 19348,
    "Ġdependent": 14298,
    "answered": 10272,
    "Ġpurposely": 10443,
    "difficulty": 12387,
    "Ġeffusion": 22510,
    "Ġloading": 15871,
    "Ġliterally": 15114,
    "Ġwanting": 6721,
    "caps": 20806,
    "employed": 17260,
    "orable": 8120,
    "Ġsucking": 12781,
    "Ġcolleague": 17158,
    "closed": 23152,
    "Ġ200": 19295,
    "Ġproportions": 16466,
    "J": 46,
    "accomplished": 17210,
    "Ġmanner": 2195,
    "shore": 10304,
    "constit": 24605,
    "ters": 1569,
    "Ġsixth": 16558,
    "Ġcircumstance": 4987,
    "aments": 12721,
    "Ġexperienced": 6582,
    "Ġdrunken": 12047,
    "Ġwhether": 2001,
    "Ġanalog": 12608,
    "twist": 23696,
    "Ġconstit": 8583,
    "Ġskiff": 16160,
    "Ġwol": 15527,
    "scap": 22988,
    "Ġhoops": 9387,
    "Ġpurporting": 19182,
    "tese": 21082,
    "Ġloaf": 15869,
    "Ġtrinity": 22343,
    "Ġmovable": 22431,
    "irth": 5634,
    "ouse": 1192,
    "churning": 21695,
    "stript": 21649,
    "Ħ": 231,
    "Ġfragrant": 13084,
    "Ġvisual": 5741,
    "Ġunwillingness": 20030,
    "each": 7335,
    "Ġdistrustful": 25054,
    "Ġprodigies": 19792,
    "ope": 4126,
    "Ġwants": 5742,
    "Ġsecondly": 14518,
    "superstitious": 17279,
    "side": 2303,
    "Ġwatched": 6297,
    "Ġorder": 1686,
    "oe": 7552,
    "Ġsult": 10766,
    "Ġsain": 17749,
    "Ġpredicts": 2595,
    "lested": 14881,
    "Ġwhistling": 19789,
    "constant": 11323,
    "lane": 10705,
    "Ġmasking": 2423,
    "singing": 24362,
    "ably": 1850,
    "licted": 20955,
    "digger": 24309,
    "Ġrespons": 2685,
    "Ġluxury": 20130,
    "Ġsorts": 6887,
    "rd": 17648,
    "intosh": 22938,
    "shows": 22454,
    "Ġsuspected": 9061,
    "Ġscrib": 22286,
    "Ġbrooding": 18907,
    "examination": 25478,
    "Ġvalley": 5850,
    "giana": 7801,
    "Ġbarred": 9001,
    "Ġtrad": 9826,
    "biqu": 17496,
    "Ġargosy": 24272,
    "mounting": 25207,
    "ientious": 11688,
    "Ġheels": 10849,
    "zz": 4294,
    "Ġsly": 9631,
    "Ġperceiving": 8874,
    "evid": 11483,
    "leful": 17842,
    "dining": 13703,
    "Ġbam": 15562,
    "wet": 15450,
    "Ġunite": 9252,
    "Ġcemeteries": 26375,
    "Ġsympathetic": 17357,
    "Ġprecipices": 12274,
    "nay": 7135,
    "Ġcultured": 25154,
    "sacrifice": 13490,
    "Ġbedfellows": 23437,
    "Ġinsanity": 12044,
    "Ġa": 263,
    "Ġessence": 13403,
    "Ġglens": 18847,
    "Ġbarrel": 23790,
    "hope": 5990,
    "Ġsmell": 7216,
    "Ġtempted": 9055,
    "notwithstanding": 22751,
    "erring": 11055,
    "Ġpugnacious": 26450,
    "bud": 10681,
    "fortunes": 6332,
    "unk": 4540,
    "Ġunlim": 18253,
    "Ġdiscipl": 22781,
    "Ġveins": 8931,
    "Ġvalidation": 2359,
    "handsome": 13174,
    "Ġmonday": 6127,
    "rods": 21536,
    "escript": 18471,
    "Ġrecommendation": 17024,
    "Ġspiracle": 14148,
    "bouton": 17500,
    "Ġconsisting": 8970,
    "Ġclin": 14203,
    "Ġav": 3580,
    "Ġprotectors": 9069,
    "Ġproc": 5544,
    "Ġcoasts": 12160,
    "Ġpost": 4272,
    "pire": 9134,
    "sufferable": 12173,
    "everywhere": 23693,
    "Ġjumbled": 22295,
    "ostentatious": 20651,
    "Ġdisease": 14256,
    "Ġcandelabra": 26601,
    "Ġparad": 2843,
    "observation": 17268,
    "laid": 10108,
    "ureau": 10225,
    "entered": 8813,
    "Ġostentatiously": 20467,
    "Ġsperma": 19052,
    "Ġasp": 15777,
    "Ġrepro": 7275,
    "Ġpercept": 14222,
    "Ġunrecord": 16620,
    "Ġhorribly": 16339,
    "Ġprosecuted": 25293,
    "yourself": 6742,
    "Ġdepression": 21839,
    "Ġchristians": 13306,
    "Ġpalsy": 25778,
    "allingly": 22199,
    "Ġfatally": 19392,
    "Ġlawless": 19433,
    "accompl": 9878,
    "Ġtests": 8956,
    "Ġprosecution": 12378,
    "contrary": 23727,
    "Ġmantel": 11438,
    "Ġheavenly": 12081,
    "sequently": 14582,
    "Ġpointing": 5661,
    "Ġraved": 22649,
    "itudes": 3013,
    "Ġchamber": 6213,
    "Ġvillagers": 19472,
    "Ġsocieties": 20181,
    "illum": 15866,
    "Ġhardest": 18912,
    "Ġfloats": 9411,
    "occasion": 7754,
    "Ġunintelligible": 26513,
    "Ġshows": 8482,
    "Ġseap": 15814,
    "Ġalert": 18101,
    "Ġtoast": 21510,
    "Ġamounts": 6704,
    "beholding": 16038,
    "devoted": 20015,
    "Ġcolle": 8923,
    "Ġflaming": 8563,
    "eastward": 15127,
    "Ġquestioning": 10462,
    "Ġjabez": 11763,
    "Ġfame": 21404,
    "Ġdexter": 9699,
    "Ġdisconnected": 22523,
    "mat": 2201,
    "id": 338,
    "Ġboiling": 8525,
    "Ġpsychology": 11447,
    "Ġadmitting": 19183,
    "Ġprecision": 13187,
    "Ġprivately": 19522,
    "Ġframe": 1842,
    "Ġraising": 8908,
    "friend": 3863,
    "Ġinvol": 1048,
    "hands": 5967,
    "Ġgems": 9207,
    "Ġwaiting": 4325,
    "preference": 22465,
    "aded": 3547,
    "concerned": 24583,
    "Ġkramm": 26233,
    "peculiarity": 23108,
    "Ġ\"": 6119,
    "tomorrow": 25914,
    "dl": 20822,
    "rically": 15415,
    "Ġrowing": 10299,
    "Ġthyself": 6602,
    "Ġmedium": 16680,
    "Ġnib": 13938,
    "Ġgrain": 15828,
    "amongst": 24672,
    "Ġheaved": 9382,
    "inforcement": 3619,
    "wester": 21137,
    "Ġforbade": 15212,
    "ashing": 4824,
    "oices": 7348,
    "ars": 905,
    "Ġpush": 9182,
    "Ġaltering": 18102,
    "arising": 17895,
    "lop": 20947,
    "counter": 20277,
    "Ġprofessors": 14723,
    "aint": 2542,
    "idav": 18092,
    "Ġlur": 5226,
    "sion": 8094,
    "Ġmuttered": 7086,
    "Ġopulent": 23628,
    "Ġcomplaisance": 19447,
    "roof": 17953,
    "Ġtrade": 2548,
    "Ġfortitude": 9883,
    "Ġidiotic": 25588,
    "Ġtechn": 9370,
    "Ġclad": 12839,
    "Ġpipeline": 2406,
    "Ġatlantic": 7000,
    "Ġtown": 2458,
    "block": 11469,
    "Ġfavourable": 7959,
    "iffe": 21900,
    "Ġhalting": 16272,
    "Ġwondered": 11124,
    "Ġangrily": 9405,
    "Ġfriday": 14487,
    "Ġsoothed": 10027,
    "firm": 10697,
    "Ġforeshadowing": 26591,
    "kington": 11202,
    "fore": 687,
    "jam": 15369,
    "Ġdepart": 4657,
    "Ġbaked": 21384,
    "Ġobjective": 3764,
    "five": 6356,
    "Ġscrawled": 24579,
    "Ġalleg": 14015,
    "Ġchorus": 10945,
    "Ġare": 527,
    "Ġfluctu": 5267,
    "ċ": 204,
    "Ġboxes": 13372,
    "Ġverdict": 13473,
    "Ġour": 1010,
    "arrang": 14651,
    "trifling": 19412,
    "Ġcared": 8781,
    "Ġneither": 3685,
    "Ġunrel": 14694,
    "Ġreveal": 11199,
    "Ġaut": 1803,
    "Ġpipe": 4323,
    "anthrop": 17380,
    "Ġinterchange": 16068,
    "voyages": 24855,
    "meet": 11853,
    "az": 2180,
    "Ġwife": 2588,
    "ig": 323,
    "Ġobserver": 11985,
    "Ġdrawn": 4277,
    "Ġchicha": 15933,
    "Ġcont": 619,
    "Ġattending": 3282,
    "unwholesome": 26496,
    "Ġhailing": 11690,
    "levi": 7047,
    "Ġdod": 6672,
    "Ġjovial": 19232,
    "Ġdischar": 11805,
    "Ġconfidence": 6590,
    "idate": 21765,
    "ety": 3519,
    "exper": 8877,
    "Ġtrapped": 23076,
    "Ġroutine": 13506,
    "penetrating": 25490,
    "Ġenh": 3019,
    "Ġuses": 1209,
    "Ġhy": 5625,
    "Ġequivalent": 4802,
    "Ġschedule": 2374,
    "resolution": 17765,
    "Ġcapst": 8596,
    "daring": 20828,
    "Ġcongealed": 25981,
    "amouch": 21843,
    "labours": 16616,
    "Ġgrieved": 8298,
    "Ġrasc": 21972,
    "did": 3195,
    "laborers": 23913,
    "strils": 10457,
    "Ġvener": 8164,
    "Ġunprofitable": 18267,
    "Ġcetology": 10007,
    "ses": 3026,
    "make": 5793,
    "Ġcentre": 5122,
    "Ġjung": 12832,
    "Ġcul": 17822,
    "inching": 21188,
    "ingale": 21298,
    "ifully": 13184,
    "Ġdiana": 21435,
    "Ġbrutality": 26276,
    "deserving": 17240,
    "housekeeping": 24101,
    "mankind": 14372,
    "Ġdusk": 12324,
    "ifted": 4494,
    "Ġsalisbury": 24062,
    "Ġmales": 17805,
    "Ġconf": 1820,
    "Ġlogs": 16343,
    "Ġstare": 10863,
    "Ġinsular": 19267,
    "Ġreproachfully": 25251,
    "blocks": 25517,
    "ck": 436,
    "Ġsavann": 14683,
    "inde": 17730,
    "Ġparadigms": 3054,
    "Ġdot": 4820,
    "entreat": 17975,
    "Ġhugest": 17014,
    "Ġfishers": 19352,
    "https": 11681,
    "alth": 3253,
    "Ġrubbed": 12951,
    "Ġii": 7384,
    "ground": 4672,
    "Ġremorseless": 13449,
    "cost": 19186,
    "delirious": 19504,
    "Ġcomplaints": 12261,
    "chancing": 22913,
    "ipotence": 22346,
    "Ġdidn": 4364,
    "Ġsensitiveness": 23733,
    "beginning": 13559,
    "Ġtrivial": 10141,
    "university": 25983,
    "carried": 16711,
    "Ġeating": 8136,
    "ounix": 14162,
    "Ġstride": 22615,
    "hundred": 8331,
    "ryphon": 4162,
    "\"": 6,
    "Ġgardener": 19134,
    "Ġvehemently": 26039,
    "Ġcool": 5734,
    "borean": 25743,
    "Ġphrenologically": 20392,
    "Ġparis": 8179,
    "Ġpaddle": 20057,
    "encing": 21281,
    "Ġcar": 1419,
    "Ġinco": 14258,
    "Ġworst": 7444,
    "bath": 13687,
    "umed": 6554,
    "frame": 17115,
    "Ġmonth": 2850,
    "Ġquadrille": 13539,
    "inked": 12909,
    "¥": 103,
    "sub": 4660,
    "Ġboast": 7034,
    "ernsey": 8900,
    "Ġupset": 22151,
    "secure": 12232,
    "Ġhumbug": 18780,
    "Ġexpands": 25237,
    "opy": 4458,
    "Ġ49": 24080,
    "Ġrealities": 18981,
    "Ġzoology": 22820,
    "Ġbuoyed": 20039,
    "if": 376,
    "'(": 2978,
    "reated": 10301,
    "seen": 2883,
    "roofed": 26183,
    "Ġnasty": 17441,
    "Ġnay": 5711,
    "ears": 20844,
    "foundered": 20866,
    "Ġhusbands": 16641,
    "skin": 10567,
    "Ġcrossed": 6069,
    "utting": 17984,
    "Ġforgo": 21771,
    "wife": 8101,
    "----âĢĻ": 24095,
    "Ġmidnight": 5265,
    "enjoyment": 17256,
    "Ġsaying": 3241,
    "retrie": 18922,
    "Ġcordage": 19677,
    "largely": 19573,
    "Ġlance": 4879,
    "Ġsalary": 13291,
    "hest": 3367,
    "Ġnieces": 8433,
    "Ġsnatched": 10470,
    "Ġhanged": 17924,
    "Ġenjoined": 18191,
    "Ġinclude": 1875,
    "au": 777,
    "madness": 14880,
    "Ġobsequious": 17402,
    "þ": 191,
    "Ġpedro": 14993,
    "tick": 17677,
    "Ġenraptured": 26499,
    "Ġhackluyt": 25655,
    "jolly": 20930,
    "Ġpolynesian": 26026,
    "_,âĢĻ": 12430,
    "drive": 8682,
    "Ġkicked": 10580,
    "Ġsally": 15500,
    "hurriedly": 25510,
    "net": 1194,
    "unforeseen": 21886,
    "Ġproud": 5654,
    "Ġleakage": 23458,
    "oring": 1862,
    "amples": 1823,
    "wanted": 10742,
    "Ġprehens": 22229,
    "clouds": 25496,
    "Ġhatred": 8608,
    "befall": 22493,
    "Ġreser": 5170,
    "ech": 4390,
    "Ġexp": 778,
    "ging": 2601,
    "marrying": 19546,
    "Ġprocured": 8676,
    "plex": 706,
    "Ġeaten": 14843,
    "Ġpruning": 18971,
    "irements": 22210,
    "Ġserm": 9632,
    "isance": 17847,
    "Ġcliffs": 15973,
    "umer": 9256,
    "Ġquestionable": 19265,
    "ilty": 6394,
    "Ġinterpretation": 19715,
    "ispiece": 19724,
    "kily": 20936,
    "Ġsunny": 13083,
    "Ġfortresses": 23620,
    "Ġenergy": 2554,
    "conclusive": 25673,
    "Ġsprout": 24086,
    "Ġpir": 6818,
    "Ġsentence": 6186,
    "Ġmasterless": 23992,
    "Ġpaddling": 25285,
    "Ġferoc": 14900,
    "icking": 8909,
    "oc": 2834,
    "discrimin": 19607,
    "those": 4495,
    "adoes": 11658,
    "Ġsacri": 18328,
    "Ġency": 21931,
    "posterity": 25488,
    "decan": 22140,
    "Ġcomprehensive": 15085,
    "fluttering": 23970,
    "Ġmaddening": 17242,
    "Ġvehicle": 20137,
    "Ġcapricious": 20537,
    "wand": 10737,
    "Ġthings": 1960,
    "Ġspool": 24806,
    "Ġfirst": 937,
    "div": 8076,
    "Ġall": 421,
    "Ġduration": 20352,
    "Ġpoverty": 9302,
    "anque": 13886,
    "ohnson": 16322,
    "publ": 17637,
    "Ġsource": 6805,
    "Ġconstrain": 2631,
    "cific": 10084,
    "betrayed": 24640,
    "Ġhumiliating": 22882,
    "Ġwallow": 19464,
    "Ġcrows": 24028,
    "Ġ2026": 12332,
    "between": 5071,
    "cursed": 23841,
    "Ġsoothe": 7405,
    "Ġpleated": 16294,
    "Ġbeautiful": 3670,
    "results": 20385,
    "Ġeconomical": 25287,
    "Ġshreds": 12766,
    "Ġwoof": 14719,
    "Ġenc": 964,
    "Ġinsip": 19266,
    "Ġnear": 1718,
    "Ġbeggars": 20628,
    "Ġsails": 5256,
    "Ġpapers": 4022,
    "Ġconventional": 25547,
    "Ġsof": 18281,
    "Ġcruises": 23701,
    "Ġexpired": 18622,
    "Ġflight": 6580,
    "Ġgreek": 10629,
    "uary": 11536,
    "lights": 13203,
    "Ġpiercing": 13492,
    "Ġprograms": 7239,
    "Ġplata": 25117,
    "them": 3017,
    "Ġcreditors": 20128,
    "Ġmischie": 22763,
    "doub": 6223,
    "oregressive": 3423,
    "Ġwaist": 6892,
    "Ġprefers": 20512,
    "provoke": 26071,
    "Ġdinnertime": 16718,
    "Ġangels": 11177,
    "reported": 24492,
    "gether": 1594,
    "gpt": 5355,
    "igan": 21697,
    "Ġbrazen": 23837,
    "Ġgreeted": 23208,
    "carefully": 13366,
    "convenient": 12234,
    "Ġpencil": 11940,
    "Ġshameful": 19851,
    "vital": 17699,
    "Ġgangs": 21607,
    "Ġoccupies": 24005,
    "Ġawait": 17072,
    "enstern": 17781,
    "Ġregularity": 22776,
    "Ġske": 4815,
    "Ġthews": 21276,
    "â": 163,
    "iff": 3905,
    "Ġsteer": 10385,
    "Ġcapric": 14575,
    "Ġperform": 1037,
    "Ġrevelations": 25223,
    "Ġfooted": 23795,
    "unteered": 26494,
    "te": 993,
    "Ġbruised": 25772,
    "inion": 2878,
    "sigma": 3002,
    "Ġbuttoning": 17234,
    "owal": 13991,
    "tery": 14035,
    "Ġmisunderstood": 18707,
    "Ġapproxim": 1218,
    "ming": 3599,
    "Ġcaravan": 26290,
    "Ġsom": 1277,
    "Ġsumm": 3354,
    "Ġfrown": 10806,
    "Ġselfishness": 12286,
    "Ġpie": 13913,
    "ef": 5134,
    "_âĢĶâĢĻ": 13680,
    "Ġgradient": 450,
    "prophecy": 22836,
    "Ġascertaining": 17202,
    "numerous": 17429,
    "Ġcomplete": 4383,
    "inary": 3272,
    "Ġbal": 1132,
    "pan": 10715,
    "Ġjollies": 20368,
    "visited": 13345,
    "Ġhinges": 15210,
    "ara": 12602,
    "Ġcor": 1324,
    "Ġvide": 10249,
    "Ġprobably": 4316,
    "lung": 17590,
    "Ġmathematics": 12070,
    "Ġwreak": 16816,
    "Ġimbib": 22173,
    "Ġsubstantial": 14807,
    "Ġexposing": 11829,
    "Ġtombed": 25160,
    "Ġage": 3896,
    "Ġexaggerate": 25649,
    "Ġact": 690,
    "ents": 1897,
    "0": 20,
    "Ġmagazine": 23098,
    "Ġdisplays": 19856,
    "Ġeavesdroppers": 25963,
    "Ġexceed": 1345,
    "Ġunce": 11708,
    "Ġdefinition": 14402,
    "Ġunmanner": 22027,
    "drifting": 19823,
    "su": 807,
    "Ġcastaways": 19426,
    "Ġinsince": 23674,
    "Ġsecre": 5493,
    "ĠĠĠĠĠĠĠĠĠĠĠĠĠĠĠĠĠĠĠĠĠĠĠĠĠ": 24441,
    "confirmation": 26089,
    "Ġgable": 15663,
    "Ġfath": 7364,
    "Ġconsidering": 4616,
    "oid": 3126,
    "Ġcrept": 11020,
    "Ġpreferment": 19852,
    "Ġstaying": 8284,
    "Ġclaimed": 14204,
    "score": 18856,
    "wandering": 20283,
    "bordered": 17497,
    "Ġsoftmax": 1690,
    "Ġindign": 6173,
    "Ġnorthern": 7265,
    "Ġlives": 4826,
    "sey": 5542,
    "tal": 17669,
    "Ġunscrew": 22038,
    "Ġirrespective": 23373,
    "accident": 11180,
    "Ġfacial": 10604,
    "Ġhonoured": 9879,
    "Ġtales": 10140,
    "plete": 10918,
    "Ġperemptory": 25740,
    "Ġpartiality": 9396,
    "Ġwilful": 10533,
    "Ġunexpl": 22037,
    "cement": 3340,
    "Ġfilling": 13406,
    "Ġarchitecture": 1139,
    "uendoes": 26406,
    "Ġharriet": 24571,
    "amplified": 26493,
    "O": 51,
    "Ġgoes": 3851,
    "Ġserenely": 13505,
    "Ġpurse": 12007,
    "ree": 875,
    "Ġmurdered": 6464,
    "Ġjustification": 22964,
    "Ġorganizations": 12311,
    "Ġrationally": 18213,
    "oin": 17616,
    "ince": 4341,
    "Ġaway": 1242,
    "Ġinherent": 4592,
    "Ġstochastic": 3263,
    "despair": 8344,
    "rative": 17651,
    "Ġdiscriminative": 4329,
    "croquet": 25747,
    "Ġtranslations": 12049,
    "Ġmostly": 7664,
    "Ġ102": 24409,
    "Ġproposition": 23248,
    "wrath": 23754,
    "Ġentranced": 25832,
    "Ġdismay": 11806,
    "Ġimag": 2676,
    "Ġtheorem": 2327,
    "Ġsides": 4580,
    "Ġexceeding": 1577,
    "Ġpovelson": 26551,
    "vishnoo": 21118,
    "Ġmagnific": 16316,
    "Ġlevelled": 11283,
    "Ġrests": 13091,
    "hecy": 21205,
    "Ġfastening": 16353,
    "Ġclergy": 7642,
    "etwork": 442,
    "Ġpratt": 23220,
    "tri": 11528,
    "Ġmiracle": 15091,
    "retirement": 23137,
    "Ġburnwell": 13266,
    "ciousness": 20816,
    "Ġdistribution": 2019,
    "isome": 17848,
    "ff": 462,
    "Ġwrit": 8242,
    "abominable": 20592,
    "Ġindefatigable": 17176,
    "Ġpreserved": 9260,
    "Ġoverseeing": 22351,
    "Ġtraced": 10382,
    "Ġfootman": 8288,
    "Ġcensure": 15093,
    "Ġresignation": 18566,
    "Ġ34": 16676,
    "Ġhurricane": 16429,
    "Ġarticulate": 24431,
    "Ġglanced": 5952,
    "Ġtoward": 17946,
    "victim": 25530,
    "begone": 12874,
    "smeer": 26147,
    "Ġgroup": 2038,
    "Ġdes": 1251,
    "spell": 22733,
    "Ġdangling": 17173,
    "Ġmonstrous": 7790,
    "rig": 7556,
    "fre": 5425,
    "Ġbespeaking": 26310,
    "Ġappeals": 16313,
    "Ġunderneath": 16335,
    "Ġeverything": 3154,
    "permission": 15898,
    "Ġfullest": 14811,
    "buried": 14847,
    "embarr": 15793,
    "Ġbradstreet": 9575,
    "Ġbrooks": 25700,
    "Ġsockets": 22086,
    "Ġexpert": 18864,
    "Ġwill": 677,
    "Ġapo": 9629,
    "Ġrejoiced": 8683,
    "Ġappeased": 23194,
    "Ġslammed": 20446,
    "Ġlull": 15647,
    "Ġbarnacled": 25536,
    "Ġabove": 2936,
    "Ġslo": 15504,
    "Ġregion": 2272,
    "Ġevent": 2951,
    "ashes": 6016,
    "Ġcring": 15548,
    "ust": 494,
    "Ġlessened": 19087,
    "Ġalph": 9693,
    "Ġwashington": 17201,
    "alled": 5911,
    "justice": 7958,
    "Ġhes": 6250,
    "Ġdistant": 5387,
    "Ġprejudice": 9074,
    "Ġsummoned": 9909,
    "Ġapplied": 6187,
    "Ġstopping": 2749,
    "Ġfund": 2844,
    "uries": 6147,
    "\"]": 17469,
    "urity": 8143,
    "embra": 14072,
    "Ġwretch": 6378,
    "abomin": 15738,
    "Ġbehavior": 8002,
    "Ġimpose": 22380,
    "Ġranged": 10256,
    "Ġmythologies": 26213,
    "Ġsobbed": 14135,
    "Ġhavoc": 15810,
    "Ġhated": 7584,
    "Ġexceedingly": 4615,
    "Ġbol": 6241,
    "Ġinflict": 15000,
    "Ġgross": 11623,
    "Ġrested": 9377,
    "Ġtreacherously": 25129,
    "Ġclutched": 13517,
    "shavings": 22461,
    "Ġsaratoga": 26422,
    "instrument": 15236,
    "Ġcuts": 14606,
    "Ġobsequ": 14318,
    "Ġaided": 17744,
    "Ġconn": 9228,
    "uated": 10130,
    "Ġmidway": 14603,
    "Ġornam": 15861,
    "Ġhandle": 3136,
    "Ġdepartment": 24240,
    "Ġminimum": 23040,
    ">": 34,
    "tol": 17671,
    "Ġgladly": 14680,
    "Ġpun": 4588,
    "Ġcenturies": 8622,
    "Ġrelieved": 7666,
    "Æ": 135,
    "adam": 15726,
    "hever": 13829,
    "Ġexpans": 18621,
    "Ġbiting": 17861,
    "Ġorchard": 22092,
    "Ġlowermost": 23240,
    "Ġrenegades": 26475,
    "Ġschedu": 1824,
    "Ġvag": 9706,
    "Ġdefe": 21834,
    "Ġbast": 21377,
    "Ġcustoms": 19651,
    "Ġhatch": 7848,
    "Ġprobable": 5569,
    "Ġplainpalais": 20736,
    "Ġelopement": 10327,
    "Ġdelicacy": 6340,
    "Ġdeny": 7488,
    "Ġdetained": 18375,
    "shake": 22453,
    "Ġspain": 15877,
    "Ġpossess": 3203,
    "Ġassume": 10514,
    "Ġredoubled": 23751,
    "unwillingly": 21882,
    "Ġlisten": 4674,
    "Ġinspector": 6498,
    "Ġcontribute": 12857,
    "Ġmocking": 24000,
    "Ġhistor": 3389,
    "autumn": 23342,
    "Ġoverjoyed": 17456,
    "Ġsuavely": 26522,
    "Ġdyspepsia": 20642,
    "lamp": 9607,
    "Ġgros": 14821,
    "Ġpiqu": 21475,
    "Ġresponsible": 9884,
    "flaming": 23967,
    "esu": 17918,
    "Ġcab": 2635,
    "Ġcleaning": 23178,
    "Ġdeclares": 16991,
    "ulous": 4450,
    "Ġtowering": 16738,
    "ĠĠĠĠĠĠĠĠĠĠĠĠĠĠĠĠĠĠĠĠĠĠĠĠĠĠĠĠĠĠĠĠĠĠĠĠĠĠĠĠĠĠ": 24208,
    "Ġsubterranean": 13609,
    "Ġacre": 22679,
    "Ë": 140,
    "Ġhaste": 9002,
    "Ġrifle": 18212,
    "Ġinscriptions": 20007,
    "Ġlegit": 16471,
    "Ġjoppa": 12034,
    "Ġpuzzling": 14894,
    "Ġexhausting": 24710,
    "consideration": 14953,
    "Ġconjoined": 21804,
    "condition": 7058,
    "Ġbrix": 12579,
    "disgu": 19153,
    "Ġconnectivity": 3665,
    "Ġ95": 19772,
    "Ġrefused": 6715,
    "Ġlodge": 5779,
    "Ġsuggestions": 24452,
    "happily": 14656,
    "Ġcontained": 7679,
    "Ġpotent": 12061,
    "ernally": 22605,
    "ugl": 23288,
    "following": 10571,
    "Ġartistic": 18612,
    "Ġfinger": 5273,
    "Ġoperate": 19115,
    "Ġgiant": 13966,
    "lucifer": 25302,
    "Ġsmacking": 20164,
    "Ġwards": 17789,
    "Ġanoint": 25537,
    "Ġperils": 6273,
    "Ġlightness": 23258,
    "Ġcome": 1240,
    "Ġeasiness": 23536,
    "erate": 7149,
    "Ġdungeon": 16995,
    "benevolently": 25600,
    "Ġpurposed": 23551,
    "isition": 11584,
    "Ġacquitted": 18898,
    "far": 5787,
    "Ġexamples": 2605,
    "Ġinvisibly": 24817,
    "Ġeffectively": 2667,
    "Ġasked": 2279,
    "divided": 25018,
    "flowing": 14557,
    "Ġdreaming": 11222,
    "Ġreg": 730,
    "Ġsouth": 4911,
    "Ġproved": 4884,
    "det": 5207,
    "oting": 2744,
    "Ġassert": 7120,
    "garious": 17557,
    "Ġindignant": 12236,
    "boat": 3360,
    "Ġmoderate": 10937,
    "Ġcro": 4873,
    "Ġpitiless": 19386,
    "venor": 16094,
    "Ġanytime": 12881,
    "Ġgrunt": 18734,
    "Ġpacing": 8426,
    "Ġscheming": 23268,
    "macy": 18802,
    "Ġgenuine": 14883,
    "gain": 8736,
    "Ġlic": 8436,
    "Ġowest": 25091,
    "Ġholes": 16406,
    "Ġelix": 22640,
    "Ġoppressed": 11188,
    "indifferent": 14210,
    "Ġhire": 21483,
    "Ġsold": 6003,
    "worthy": 7733,
    "ark": 848,
    "arranted": 19319,
    "Ġbreaths": 14855,
    "Ġhappiest": 11879,
    "ered": 1683,
    "Ġgardeners": 12117,
    "committed": 18741,
    "Ġmeet": 2804,
    "lance": 12478,
    "Ġunfortunate": 5376,
    "Ġloomings": 24949,
    "Ġpres": 9730,
    "reel": 21232,
    "Ġwages": 13852,
    "gor": 550,
    "Ġunfathomable": 20547,
    "Ġuncle": 3191,
    "Ġlanding": 11981,
    "Ġcovent": 16071,
    "ā": 194,
    "Ġanatomy": 12317,
    "Ġbrahma": 26319,
    "Ġquick": 2582,
    "Ġpods": 17912,
    "matters": 14872,
    "Ġconfirm": 9854,
    "Ġexcell": 10416,
    "Ġdesist": 16235,
    "cousins": 20116,
    "Ġunsophisticated": 25992,
    "Ġdejected": 20303,
    "avoid": 9303,
    "oration": 2210,
    "Ġrec": 886,
    "ination": 2914,
    "Ġsummer": 4790,
    "Ġvenom": 24237,
    "vable": 10131,
    "Ġstrateg": 1354,
    "Ġforlorn": 14013,
    "Ġreferences": 21672,
    "Ġphilosophy": 7103,
    "Ġex": 361,
    "pips": 21019,
    "\":": 9580,
    "Ġnightmare": 18919,
    "Ġsignature": 16491,
    "Ġsinister": 8568,
    "Ġkra": 18349,
    "Ġshoots": 14567,
    "Ġthirst": 7589,
    "Ġwast": 21858,
    "Ġshores": 8846,
    "Ġdocile": 19957,
    "anite": 17837,
    "acious": 5561,
    "Ġreports": 19084,
    "Ġcordon": 24393,
    "âĢĻ": 378,
    "Ġhooped": 23354,
    "Ġeul": 21618,
    "Ġmoth": 17802,
    "Ġburned": 8630,
    "ah": 1834,
    "uous": 4145,
    "Ġexterm": 21827,
    "frock": 20119,
    "eks": 4728,
    "Ġadvise": 7935,
    "serve": 13043,
    "abri": 6682,
    "Ġindiscreet": 22954,
    "Ġtries": 9149,
    "ull": 1430,
    "Ġsurtout": 23464,
    "Ġderive": 10393,
    "Ġverily": 16602,
    "Ġunrest": 11711,
    "oman": 2018,
    "Ġtwit": 12925,
    "stri": 6248,
    "Ġrenewed": 9536,
    "haps": 1670,
    "Ġforgiveness": 16655,
    "Ġcountryside": 23595,
    "Ġfeelings": 2455,
    "Ġconsent": 5372,
    "Ġ126": 24470,
    "resolved": 9638,
    "Ġbarbarous": 13474,
    "Ġfanning": 23388,
    "Ġalmighty": 18104,
    "Ġcomplexity": 1695,
    "Ġwoods": 5406,
    "melancholy": 12350,
    "Ġprivile": 8645,
    "Ġcant": 17824,
    "Ġeffeminacy": 20717,
    "Ġpervers": 11780,
    "ested": 3478,
    "Ġerudite": 26350,
    "ccess": 3182,
    "aking": 971,
    "fier": 9592,
    "Ġgodlike": 23356,
    "Ġcapable": 5054,
    "didn": 9005,
    "Ġdefect": 8554,
    "misfortunes": 16755,
    "currents": 23842,
    "Ġdece": 6996,
    "Ġdifferences": 18714,
    "gely": 10699,
    "Ġfries": 21414,
    "Ġgentleman": 3039,
    "univers": 15768,
    "liber": 18813,
    "Ġcitizens": 25439,
    "Ġdeplored": 20503,
    "Ġconfession": 11234,
    "attacked": 23119,
    "Ġpleasing": 6190,
    "Ġarguing": 25470,
    "Ġtis": 15463,
    "Ġassures": 14463,
    "exe": 11786,
    "icit": 3376,
    "bow": 5424,
    "Ġvi": 1951,
    "Ġtowers": 16737,
    "Ġinanimate": 13931,
    "Ġmiz": 10776,
    "pute": 8843,
    "Ġgentlemen": 3641,
    "assault": 22304,
    "Ġbound": 3517,
    "heaved": 21209,
    "ursday": 12273,
    "Ġface": 1722,
    "Ġexact": 2543,
    "Ġxxxi": 24968,
    "ves": 695,
    "Ġran": 3342,
    "Ì": 141,
    "Ġmartial": 20290,
    "Ġcounter": 6481,
    "Ġwed": 3960,
    "Ġsemicircle": 26068,
    "Ġabsurdly": 19958,
    "Ġappointment": 10645,
    "Ġsplendidly": 25327,
    "Ġirish": 14533,
    "icity": 2540,
    "rowsers": 8694,
    "Ġrope": 4340,
    "Ġpersian": 11085,
    "waiter": 24587,
    "rec": 6004,
    "Ġcompetent": 11813,
    "Ġoverjoy": 15963,
    "frequented": 25900,
    "bye": 5950,
    "racing": 21629,
    "disappo": 8983,
    "T": 56,
    "Ġcreator": 7254,
    "Ġiteratively": 3055,
    "Ġaries": 21196,
    "Ġfastened": 7064,
    "complacency": 19913,
    "Ġmaking": 1780,
    "Ġbarrels": 9434,
    "Ġhospitable": 17058,
    "Ġbizarre": 17871,
    "Ġstigma": 25791,
    "Ġdress": 4021,
    "Ġholy": 6591,
    "Ġprogeny": 17386,
    "Ġstudent": 14473,
    "Ġsaves": 18324,
    "Ġforked": 11662,
    "Ġgriefs": 16770,
    "Ġlacey": 10196,
    "Ġicebergs": 23972,
    "Ġstrangers": 8314,
    "Ġsigma": 1539,
    "velope": 17700,
    "Ġtimbers": 14837,
    "Ġbarrens": 25501,
    "suit": 18638,
    "sa": 8756,
    "Ġcreating": 2996,
    "Ġpleasantness": 24137,
    "Ġpoignant": 22591,
    "Ġundulations": 19514,
    "asc": 6386,
    "immediate": 20092,
    "Ġtil": 12520,
    "Ġheartfelt": 18968,
    "oblig": 16288,
    "commander": 16986,
    "indirect": 22373,
    "Ġpassenger": 14368,
    "Ġtransport": 11277,
    "marked": 9047,
    "houn": 20892,
    "Ġpod": 15600,
    "equally": 19898,
    "itime": 15544,
    "sex": 12709,
    "Ġintroduces": 3266,
    "Ġchaps": 14178,
    "omit": 13976,
    "shuff": 18493,
    "nesday": 8702,
    "Ġdenote": 19332,
    "pit": 3982,
    "Ġundertone": 23238,
    "loveliness": 26548,
    "letons": 14611,
    "lorn": 12484,
    "progress": 11984,
    "melted": 25206,
    "gris": 8260,
    "Ġgasp": 7172,
    "Ġransacked": 26503,
    "Ġmouthfuls": 20645,
    "henomen": 10493,
    "Ġpaste": 23417,
    "sect": 8153,
    "Ġbillows": 7502,
    "Ġkate": 15903,
    "Ġadmit": 7711,
    "whalers": 17262,
    "ioning": 21507,
    "possess": 5984,
    "ude": 7562,
    "compared": 24030,
    "Ġarts": 11006,
    "Ġenlivened": 26207,
    "Ġadversarial": 5606,
    "pard": 9617,
    "handle": 11189,
    "Ġhanging": 5447,
    "hun": 5210,
    "Ġbritannica": 24680,
    "Ġev": 4828,
    "Ġtravelled": 7772,
    "Ġforty": 5719,
    "cul": 1900,
    "Ġfertile": 20581,
    "flutterings": 26605,
    "Ġcircumvent": 25064,
    "Ġlovely": 4710,
    "Ġsabbath": 17253,
    "Ġdispirited": 23880,
    "lose": 12877,
    "anum": 17835,
    "forbearance": 22809,
    "Ġmelt": 21316,
    "Ġglimpse": 6944,
    "Ġchoosing": 19589,
    "Ġcord": 5222,
    "Ġdiscoursing": 26266,
    "george": 26019,
    "Ġcontemptuously": 19832,
    "Ġtreas": 7358,
    "Ġlandlady": 10421,
    "Ġprime": 10403,
    "cupboards": 25401,
    "Ġextremely": 2670,
    "Ġconnected": 5393,
    "Ġmistakes": 16539,
    "Ġdefinitions": 22942,
    "umber": 5241,
    "Ġequals": 4727,
    "taken": 7560,
    "ertain": 1207,
    "Ġheads": 3739,
    "_âĢĿ": 20760,
    "per": 480,
    "Ġgaping": 13967,
    "dar": 20823,
    "Ġthinker": 22807,
    "Ġshroud": 6483,
    "wh": 508,
    "cer": 6642,
    "next": 5892,
    "Ġjudges": 14684,
    "Ġarmies": 16490,
    "dog": 10691,
    "Ġ19": 6719,
    "Ġcostly": 23583,
    "wedded": 24338,
    "Ġsalutations": 25382,
    "itching": 21333,
    "Ġliver": 14226,
    "soc": 5175,
    "Ġcreeping": 18684,
    "Ġhabitu": 19527,
    "stand": 630,
    "Ġbidirectional": 3754,
    ",âĢĻ": 2329,
    "Ġbodies": 8032,
    "isol": 17846,
    "Ġcity": 4531,
    "Ġturbul": 23611,
    "toss": 22564,
    "Ġmilitia": 13315,
    "braces": 24658,
    "Ġvalid": 1770,
    "Ġflint": 23009,
    "cries": 17509,
    "Ġcomposure": 7217,
    "Ġslaughtered": 26583,
    "tuning": 1578,
    "Ġjuggler": 26366,
    "Ġmists": 14629,
    "inu": 1115,
    "Ġalleghan": 25795,
    "Ġken": 22191,
    "Ġprairies": 20019,
    "Ġamelia": 26250,
    "Ġrust": 6408,
    "...": 24548,
    "umpled": 15873,
    "Ġexploded": 15907,
    "Ġdrama": 16325,
    "Ġfreshets": 25705,
    "ressing": 8917,
    "Ġoctober": 17225,
    "Ġmultiplicity": 19274,
    "Ġupbra": 22152,
    "Ġhot": 4257,
    "Ġmoul": 15540,
    "then": 2054,
    "Ġcombinations": 22868,
    "lun": 20945,
    "Ġreappeared": 21663,
    "Ġresist": 7917,
    "onian": 17766,
    "Ġ$": 21149,
    "Ġsket": 18727,
    "Ġfitly": 23996,
    "Ġdeliberation": 19967,
    "Ġaimed": 20249,
    "Ġforging": 18093,
    "isting": 5550,
    "ssip": 14077,
    "Ġaccurate": 13231,
    "Ġobliging": 13241,
    "Ġemblematical": 25788,
    "Ġjoining": 13162,
    "Ġprotection": 9460,
    "Ġboasted": 16103,
    "Ġreap": 18026,
    "abling": 1078,
    "N": 50,
    "trade": 19635,
    "superiority": 20184,
    "angible": 22103,
    "Ġcontinuation": 22916,
    "crimin": 17507,
    "congenial": 25399,
    "evidence": 25521,
    "Ġembed": 1437,
    "Ġimpute": 18331,
    "sockets": 22731,
    "itions": 4148,
    "civilities": 24973,
    "Ġanimal": 2501,
    "Ġsmiting": 12894,
    "Ġnegative": 1463,
    "Ġundesired": 12775,
    "respond": 12540,
    "Ġchains": 8251,
    "chors": 11642,
    "Ġconc": 1845,
    "opposition": 24823,
    "Ġrag": 18641,
    "Ġacutely": 14312,
    "therly": 18343,
    "contracting": 19293,
    "tawn": 21079,
    "Ġpeeling": 22690,
    "Ġunabated": 15849,
    "distressed": 24198,
    "Ġforeboding": 20382,
    "Ġboisterously": 25682,
    "mand": 3894,
    "rust": 2581,
    "Ġwhatsoever": 18460,
    "sh": 647,
    "Ġflatt": 16247,
    "Ġbeaufort": 13566,
    "Ġdeceived": 6544,
    "mem": 10708,
    "8": 28,
    "commencement": 26347,
    "Ġneedle": 8275,
    "Ġabominate": 20063,
    "appalling": 22845,
    "brave": 19822,
    "itu": 1225,
    "itting": 1151,
    "op": 661,
    "Ġstay": 3094,
    "acup": 14276,
    "train": 2035,
    "Ġcode": 1721,
    "lying": 7174,
    "Ġgoble": 14228,
    "Ġpositions": 2058,
    "lydia": 6826,
    "shel": 11927,
    "sheets": 14440,
    "moor": 22702,
    "Ġheroic": 14906,
    "Ġconvenient": 8346,
    "Ġappalled": 22219,
    "Ġembarrassment": 10625,
    "Ġattract": 11831,
    "raved": 18012,
    "sleepy": 24729,
    "Ġunde": 11709,
    "Ġhelmeted": 19687,
    "Ġicy": 10746,
    "Ġglaring": 11904,
    "Ġtemper": 955,
    "Ġming": 9644,
    "ii": 4014,
    "ifying": 5235,
    "Ġsend": 4108,
    "ong": 536,
    "proble": 9392,
    "Ġskin": 5038,
    "fer": 1908,
    "Ġundiscernible": 22066,
    "ength": 2315,
    "quished": 21852,
    "Ġling": 7377,
    "fa": 7336,
    "Ġwooded": 23518,
    "thankful": 16805,
    "Ġanalogical": 25640,
    "Ġelizabeth": 1129,
    "fort": 1749,
    "impress": 18051,
    "Ġcaliforn": 14429,
    "Ġunchanging": 22043,
    "Ġsecretary": 19440,
    "dri": 5888,
    "dling": 9110,
    "porary": 14551,
    "Ġagency": 11803,
    "Ġreus": 8820,
    "coun": 10685,
    "Ġconnection": 5479,
    "Ġtranspired": 16783,
    "bedded": 13225,
    "Ġroy": 4227,
    "õ": 182,
    "ichron": 22166,
    "Ġspurned": 12793,
    "cing": 1014,
    "Ġbashee": 19848,
    "Ġstead": 5650,
    "Ġpersonages": 23540,
    "Ġadvances": 12987,
    "Å": 134,
    "Ġsaucer": 20604,
    "Ġidiot": 11968,
    "embedding": 20703,
    "Ġpolar": 9409,
    "Ġlocal": 1198,
    "tattoo": 21086,
    "Ġgaped": 13965,
    "Ġaffidav": 18790,
    "Ġ77": 24262,
    "Ġlost": 2637,
    "Ġarticle": 9500,
    "itory": 12563,
    "Ġfeed": 2128,
    "Ġnevertheless": 5040,
    "reply": 19721,
    "rage": 10842,
    "Ġqueequeg": 2013,
    "Ġawakened": 10452,
    "Ġasiatics": 20429,
    "ht": 375,
    "Ġsolitary": 5854,
    "broke": 14774,
    "Ġsuffice": 18869,
    "Ġshame": 6410,
    "Ġtwelve": 4963,
    "pressed": 6588,
    "Ġbilliard": 16688,
    "Ġkill": 4454,
    "swiss": 24254,
    "Ġslew": 23381,
    "point": 6063,
    "©": 107,
    "Ġrevealing": 3924,
    "Ġclubs": 25179,
    "Ġabused": 22267,
    "Ġaside": 5234,
    "humored": 19451,
    "nin": 17607,
    "Ġfrenz": 25446,
    "cats": 17511,
    "Ġtranquillity": 7536,
    "taller": 26150,
    "ities": 1827,
    "whispering": 26103,
    "accidents": 19211,
    "Ġnobleman": 19390,
    "Ġrecovery": 11440,
    "Ġfoolish": 5980,
    "erranean": 9332,
    "clo": 5612,
    "Ġamph": 18508,
    "threshold": 21985,
    "Ġadvanced": 1512,
    "Ġsurv": 6082,
    "irwin": 8468,
    "part": 2574,
    "Ġharpooned": 13260,
    "Ġpatent": 11959,
    "Ġrecover": 9787,
    "Ġpolitics": 19223,
    "near": 5842,
    "despicable": 24637,
    "Ġportrait": 10660,
    "Ġfumes": 21417,
    "done": 6500,
    "Ġdesiring": 14410,
    "Ġathe": 17740,
    "Ġai": 3127,
    "Ġhailed": 6407,
    "Ġspermacetti": 19053,
    "Ġdiverse": 19208,
    "distrust": 19569,
    "article": 22391,
    "Ġdevious": 22745,
    "Ġsimulation": 2751,
    "lins": 2027,
    "Ġhis": 380,
    "Ġduc": 4697,
    "Ġbenjamin": 26566,
    "Ġdomes": 23713,
    "ival": 4226,
    "wives": 15453,
    "Ġproceeded": 5335,
    "Ġunlo": 22010,
    "Ġtradeoff": 2659,
    "situ": 9620,
    "Ġmuzzle": 21319,
    "acked": 10973,
    "lour": 15378,
    "Ġungracious": 18258,
    "inlaid": 21189,
    "Ġphrase": 11186,
    "parts": 14600,
    "Ġg": 310,
    "Ġilluminate": 17191,
    "Ġenjoying": 11233,
    "Ġmum": 13856,
    "Ġflee": 7079,
    "ensils": 22546,
    "Ġfestoon": 20293,
    "hind": 20893,
    "supper": 12919,
    "dropped": 12259,
    "Ġwidely": 8033,
    "poss": 4778,
    "murder": 10563,
    "Ġbushes": 16398,
    "Ġvariance": 1168,
    "Ġstaff": 14004,
    "Ġtranquillize": 24757,
    "Ġhercules": 14126,
    "oars": 9613,
    "proves": 23392,
    "Ġdire": 867,
    "metic": 14982,
    "Ġterminating": 23508,
    "ancial": 21360,
    "Ġimagination": 5759,
    "Ġcopestone": 24936,
    "Ġcusack": 26432,
    "Ġcontinually": 5042,
    "Ġabiding": 22268,
    "lingly": 9771,
    "Ġorigin": 4121,
    "Ġshield": 21997,
    "Ġruminated": 24600,
    "Ġperfidious": 25666,
    "Ġemploy": 3613,
    "speaks": 19718,
    "Ġtidings": 11396,
    "gabriel": 15358,
    "cable": 20796,
    "ocity": 8278,
    "Ġdrifted": 14623,
    "Ġgaz": 4044,
    "thou": 4709,
    "Ġadm": 2404,
    "ģ": 228,
    "astic": 1869,
    "Ġmaker": 15539,
    "Ġruinous": 24634,
    "reluct": 26163,
    "Ġstar": 6023,
    "Ġnostrils": 10942,
    "Ġdiffered": 22711,
    "Ġsolace": 16197,
    "Ġmoment": 989,
    "enthusiastic": 20691,
    "Ġview": 2761,
    "Ġempire": 11144,
    "fastened": 19324,
    "Ġjeroboam": 10599,
    "Ġgovernor": 16488,
    "Ġguilt": 6179,
    "Ġaudacious": 13458,
    "conf": 4957,
    "ren": 548,
    "Ġpitch": 5767,
    "quohog": 21856,
    "Ġinteractions": 12899,
    "Ġbountiful": 25944,
    "icating": 15651,
    "Ġ38": 24077,
    "Ġticking": 25033,
    "fts": 18696,
    "Ġbudge": 15162,
    "/": 19,
    "Ġchurches": 12824,
    "Ġhelpless": 8302,
    "Ġmasoned": 20250,
    "Ġhover": 15616,
    "Ġgreyish": 24207,
    "hereafter": 19215,
    "orrow": 2916,
    "Ġbabel": 24425,
    "Ġcorrection": 5062,
    "Ġnat": 12641,
    "Ġunflinching": 26511,
    "column": 19328,
    "Ġmar": 1312,
    "Ġcomp": 723,
    "Ġsummar": 3523,
    "calm": 8933,
    "Ġmomentous": 16167,
    "Ġsagacious": 14969,
    "aux": 14286,
    "Ġpine": 8795,
    "Ġsworn": 14433,
    "Ġhenry": 5197,
    "Ġprovincial": 20649,
    "app": 1043,
    "Ġsquee": 7929,
    "Ġuncommon": 5026,
    "bourn": 3301,
    "Ġattends": 19649,
    "Ġpet": 4587,
    "Ġsufficiently": 8972,
    "Ġomitted": 12560,
    "Ġcurrent": 13011,
    "lived": 12483,
    "violently": 23542,
    "crum": 17510,
    "Ġimmensely": 13593,
    "Ġrenewing": 19809,
    "Ġcontextual": 3741,
    "<UNK>": 3,
    "furthermore": 20002,
    "rubbed": 22178,
    "/`": 12426,
    "Ġgravity": 9246,
    "Ġtennes": 23548,
    "arent": 4249,
    "Ġplum": 11819,
    "penny": 22943,
    "Ġpopularly": 12238,
    "lust": 15377,
    "unquiet": 21879,
    "Ġsplend": 9896,
    "alt": 12634,
    "Ġaug": 6234,
    "Ġequilibrium": 4141,
    "mes": 1196,
    "Ġsucked": 14129,
    "Ġbushy": 16399,
    "spe": 3558,
    "colour": 9901,
    "Ġwrist": 8243,
    "furnish": 25338,
    "Ġboards": 14296,
    "description": 11093,
    "Ġstables": 23653,
    "aths": 22699,
    "Ġgunwales": 12237,
    "Ġlevi": 3033,
    "Ġprofessional": 7299,
    "iality": 8842,
    "ici": 8440,
    "Ġlouder": 13466,
    "Ġcamel": 25349,
    "archbishop": 22891,
    "Ġsignal": 5945,
    "Ġspiritual": 9928,
    "Ġwoman": 2389,
    "Ġtreasure": 9557,
    "Ġfacetious": 20582,
    "Ġdays": 2078,
    "quent": 2095,
    "ik": 17570,
    "oam": 8751,
    "agers": 5633,
    "completely": 12417,
    "Ġconditions": 8307,
    "Ġcanted": 17831,
    "sw": 4741,
    "blending": 24127,
    "Ġflame": 7448,
    "pounds": 21024,
    "bury": 9105,
    "Ď": 207,
    "Ġtacit": 21173,
    "alle": 1294,
    "Ġdelights": 14595,
    "Ġlaboratory": 13610,
    "Ġdiv": 3730,
    "pent": 3491,
    "it": 276,
    "Ġobsole": 22698,
    "Ġassuring": 13060,
    "Ġlodges": 19498,
    "Ġreconcile": 25291,
    "passed": 8026,
    "Ġexactly": 2767,
    "Ġtax": 13814,
    "Ġautoregressive": 3430,
    "Ġpawn": 12060,
    "invested": 17116,
    "stories": 18020,
    "Ġtalents": 15043,
    "hated": 17560,
    "Ġhere": 1089,
    "Ġgard": 2187,
    "grateful": 10427,
    "Ġcrest": 12937,
    "usual": 5840,
    "Ġnarrowed": 24354,
    "Ġattend": 5036,
    "sofa": 26146,
    "Ġbuck": 7157,
    "rush": 7010,
    "mselves": 2864,
    "Ġautonomous": 10674,
    "nder": 20986,
    "edmund": 17945,
    "Ġleaking": 21743,
    "itz": 6006,
    "aried": 10986,
    "Ġblotted": 20216,
    "Ġcount": 1816,
    "Ġblank": 5951,
    "Ġcherub": 23286,
    "Ġlinked": 15075,
    "Ġnoiseless": 10355,
    "Ġengraved": 17080,
    "Ġclams": 19987,
    "ction": 500,
    "Ġpostp": 12140,
    "Ġcommercial": 22672,
    "Ġvisibly": 22876,
    "formality": 22214,
    "Ġcomprehend": 6494,
    "yra": 8103,
    "Ġjavan": 24999,
    "ores": 2416,
    "avenza": 17103,
    "Ġabutted": 22273,
    "Ġhorseback": 14848,
    "Ġfe": 491,
    "aisance": 15072,
    "Ġbrides": 22859,
    "encouragement": 17421,
    "Ġgasfitters": 25038,
    "Ġhip": 17920,
    "Ġbegged": 8231,
    "Ġpauper": 26179,
    "Ġadjusting": 3410,
    "Ġbrack": 23833,
    "Ġlay": 584,
    "dwelling": 20563,
    "Ġcomply": 8889,
    "gazing": 12468,
    "Ġlob": 7627,
    "Ġinclu": 1101,
    "Ġvolley": 24143,
    "irable": 5776,
    "ridden": 24361,
    "Ġscore": 9736,
    "path": 10117,
    "shri": 14234,
    "headed": 4320,
    "mmed": 7915,
    "hero": 21203,
    "Ġclum": 8871,
    "ieces": 4772,
    "reshold": 21238,
    "ied": 940,
    "Ġlikewise": 5386,
    "ror": 7351,
    "banish": 20781,
    "Ġwreat": 15528,
    "Ġride": 12754,
    "weary": 22684,
    "Ġexhaled": 19681,
    "covered": 11476,
    "Ġfable": 15573,
    "Ġliterature": 17147,
    "ships": 5486,
    "Ġdiversity": 25284,
    "umbered": 22115,
    "Ġweakened": 16822,
    "mult": 8747,
    "kin": 7131,
    "Ġwinter": 5220,
    "µ": 118,
    "Ġcommunion": 19008,
    "steps": 9403,
    "Ġstatistical": 11103,
    "ins": 1380,
    "shabb": 18497,
    "Ġstrategies": 1841,
    "unwittingly": 25801,
    "erve": 12545,
    "Ġnoah": 10941,
    "Ġsilence": 3265,
    "Ġladen": 19176,
    "Ġmodest": 15912,
    "º": 123,
    "Ġhelmsman": 10503,
    "Ġslime": 23159,
    "ective": 18174,
    "Ġharshly": 25249,
    "Ġham": 3420,
    "Ġwhir": 6393,
    "circumstantial": 24443,
    "Ġturkish": 12258,
    "interrupted": 11416,
    "Ġrespectfully": 18993,
    "Ġfain": 5808,
    "Ġswung": 6449,
    "Ġrefrained": 14341,
    "Ġsteady": 4847,
    "Ġdifficult": 3569,
    "Ġattempt": 3485,
    "Ġconfided": 19037,
    "Ġfruits": 17117,
    "ired": 1446,
    "imental": 16530,
    "sway": 15423,
    "Ġportentous": 15227,
    "converse": 22473,
    "Ġmended": 21312,
    "presbyter": 20616,
    "Ġimprisonment": 22385,
    "artic": 14220,
    "imate": 4221,
    "Ġgum": 21593,
    "Ġhealed": 21681,
    "harm": 13733,
    "ability": 716,
    "grat": 5052,
    "Ġslain": 8952,
    "Ġdiminish": 14743,
    "Ġnum": 1349,
    "U": 57,
    "Ġsuspecting": 14908,
    "Ġmoderately": 22212,
    "ignorantly": 25189,
    "harpoon": 9489,
    "Ġpull": 5152,
    "race": 11629,
    "Ġhails": 21948,
    "loops": 12878,
    "Ġinformation": 1050,
    "airing": 16175,
    "Ġitalian": 12407,
    "Ġgratification": 24094,
    "Ġelevates": 24499,
    "Ġprecipitous": 24835,
    "assertion": 22309,
    "Ġlandlord": 5580,
    "Ġcolleg": 22851,
    "Ġrelief": 6060,
    "tumultuous": 20397,
    "Ġearliest": 9829,
    "Ġslabs": 13057,
    "tled": 3455,
    "compar": 14357,
    "fit": 6645,
    "Ġundec": 22017,
    "older": 15752,
    "ensed": 10994,
    "Ġsangu": 15502,
    "Ġilliter": 23467,
    "Ġsubsequent": 7659,
    "aculate": 16079,
    "despatched": 19800,
    "Ġreptile": 15275,
    "erpillar": 5797,
    "starbuck": 6019,
    "Ġrighteous": 18945,
    "Ġsometimes": 2165,
    "Ġbigot": 24564,
    "Ġadvertising": 25389,
    "Ġrecompense": 14836,
    "Ġflows": 13006,
    "altering": 12636,
    "Ġcame": 1300,
    "Ġwhalers": 8048,
    "rederick": 14078,
    "Ġpotency": 14645,
    "inav": 15482,
    "desponding": 26341,
    "iger": 8446,
    "rift": 11518,
    "typewritten": 26038,
    "Ġaspire": 21898,
    "Ġsupers": 18277,
    "Ġhoot": 19076,
    "americans": 25042,
    "response": 25762,
    "inarticulate": 21194,
    "allied": 7410,
    "Ġthackeray": 26454,
    "Ġbelike": 18829,
    "Ġaugmented": 15103,
    "Ġarmchair": 8271,
    "fail": 17539,
    "Ġinflicted": 11364,
    "Ġtradesman": 20071,
    "arrange": 23764,
    "Ġnurse": 9515,
    "Ġfevers": 22207,
    "onious": 15516,
    "Ġfling": 9659,
    "Ġnecks": 18187,
    "Ġcircle": 4977,
    "bles": 7017,
    "Ġbrush": 17864,
    "Ġchasing": 11751,
    "Ġveter": 15808,
    "gentleness": 24844,
    "Ġcasting": 12097,
    "Ġenlightened": 12742,
    "Ġsheath": 14150,
    "Ġworse": 4719,
    "icha": 11735,
    "Ġdrawings": 14720,
    "Ġincludes": 2012,
    "Ġsacrifice": 9554,
    "Ġtalked": 4421,
    "shadow": 20313,
    "Ġnomine": 26455,
    "gaining": 20122,
    "Ġpaunch": 23747,
    "sorrow": 12505,
    "Ġstatistics": 1682,
    "Ġear": 1422,
    "solved": 7685,
    "ral": 4628,
    "desk": 23203,
    "Ġsloping": 11936,
    "Ġparm": 15874,
    "Ġmotion": 4567,
    "Ġdoubtless": 6195,
    "ile": 520,
    "joke": 20929,
    "Ġcovered": 5171,
    "Ġcoroner": 7510,
    "ð": 177,
    "Ġes": 8768,
    "Ġasleep": 6836,
    "performances": 26006,
    "Ġcostume": 16493,
    "Ġpertin": 18450,
    "Ġtheatre": 21277,
    "Ġseparating": 16684,
    "!_": 7329,
    "friends": 8306,
    "Ġidly": 16403,
    "Ġchannels": 26013,
    "Ġpotential": 3617,
    "Ġwan": 15525,
    "Ġiroqu": 21617,
    "Ġst": 332,
    "possibly": 10542,
    "Ġunerring": 15844,
    "reached": 13839,
    "exact": 7911,
    "Ġdesire": 3716,
    "Ġtoilings": 24742,
    "Ġbowed": 6242,
    "Ġconfinement": 19039,
    "Ġdreams": 7496,
    "Ġerrone": 14428,
    "Ġoldest": 12969,
    "Ġplough": 18608,
    "oker": 10962,
    "istically": 14142,
    "Ġansw": 2206,
    "txt": 12512,
    "Ġpoison": 7219,
    "ldog": 21915,
    "apart": 15958,
    "Ġporus": 24397,
    "Ġslappin": 18942,
    "Ġunwarrantable": 26353,
    "anyth": 5438,
    "resp": 13837,
    "aire": 10679,
    "Ġprescribed": 26010,
    "minded": 9036,
    "Ġfine": 1318,
    "Ġadmon": 15865,
    "Ġarise": 7897,
    "Ġshilling": 18228,
    "inery": 17732,
    "Ġbegan": 2022,
    "Ġpronouncing": 16968,
    "Ġamber": 7025,
    "Ġinvested": 7279,
    "Ġfeasible": 22209,
    "who": 2448,
    "oth": 1185,
    ")(": 2980,
    "ox": 9132,
    "Ġweeps": 24947,
    "Ġcontact": 9279,
    "surd": 6934,
    "Ġafford": 4367,
    "Ġhorses": 6385,
    "Ġcurve": 22981,
    "Ġgain": 4827,
    "Ġluc": 3309,
    "Ġwoollen": 12100,
    "ifice": 7198,
    "Ġlists": 11165,
    "large": 6625,
    "Ġproceeds": 12074,
    "oved": 5215,
    "roman": 22002,
    "tea": 18739,
    "Ġwives": 12551,
    "Ġdistrust": 8204,
    "cheerfulness": 20179,
    "insufferable": 21191,
    "engines": 18927,
    "gun": 10095,
    "Ġsending": 8774,
    "Ġprev": 6264,
    "riors": 18186,
    "Ġbuffalo": 11428,
    "Ġhon": 2538,
    "Ġbecame": 2692,
    "stern": 7862,
    "Ġwickedness": 9524,
    "Ġsight": 2111,
    "learnt": 23509,
    "Ġstructured": 2972,
    "Ġgeneva": 5450,
    "Ġsimilar": 4917,
    "rest": 1633,
    "Ġpromontory": 11938,
    "Ġassail": 13059,
    "Ġbehoo": 19036,
    "Ġbakers": 17866,
    "Ġconsequence": 5541,
    "Ġwalls": 6762,
    "Ġsaturn": 22899,
    "rat": 8755,
    "Ġdearest": 5457,
    "warn": 11541,
    "up": 1284,
    "q": 85,
    "Ġlaborious": 13101,
    "Ġgoodly": 22821,
    "Ġsongs": 13418,
    "Ġdagger": 21436,
    "Ġinjustice": 9189,
    "favourable": 12260,
    "Ġbloss": 19254,
    "bale": 20773,
    "Ġbiography": 22765,
    "byter": 16210,
    "lotts": 23823,
    "Ġinconvenient": 20008,
    "Ġhaul": 11689,
    "Ġtest": 1597,
    "arious": 10316,
    "Ġmes": 17796,
    "------": 12130,
    "ğ": 224,
    "Ġsurrounding": 12159,
    "Ġphaet": 16315,
    "Ġherself": 1563,
    "icular": 2023,
    "hawk": 7121,
    "Ġautom": 3464,
    "Ġcolumns": 14374,
    "Ġairy": 23318,
    "Ġrecept": 1524,
    "Ġencircling": 26271,
    "Ġthousandth": 23679,
    "Ġplaus": 22597,
    "Ġrevive": 13477,
    "Ġaltered": 7393,
    "utter": 7593,
    "practised": 20246,
    "Ġeastward": 13388,
    "Ġsubstituting": 26326,
    "Ġvect": 1223,
    "enorm": 17780,
    "atious": 10150,
    "Ġtrain": 515,
    "Ġcauldron": 25441,
    "Ġspars": 3808,
    "Ġpittance": 15613,
    "Ġattent": 4362,
    "Ġineffectual": 17382,
    "complied": 19912,
    "Ġtam": 7822,
    "circumamb": 26087,
    "Ġarve": 15899,
    "Ġparade": 18301,
    "Ġunfailing": 24110,
    "represent": 9636,
    "dishon": 20402,
    "Ġdeserve": 8309,
    "Ġdenny": 9000,
    "haw": 6361,
    "Ġcold": 3031,
    "Ġhalyards": 21492,
    "rule": 15891,
    "Ġanswer": 2599,
    "Ġlawyers": 25248,
    "Ġblotches": 25314,
    "two": 3859,
    "Ġenjoyments": 24015,
    "Ġdella": 21438,
    "ari": 672,
    "indebted": 26158,
    "ezing": 10572,
    "Ġcommissioned": 19894,
    "Ġconver": 804,
    "Ġoffering": 3006,
    "Ġcasket": 19723,
    "unearthly": 19272,
    "liness": 8746,
    "pall": 17627,
    "Ġflapped": 23011,
    "Ġpages": 15604,
    "Ġoy": 15542,
    "transformers": 8714,
    "Ġcompat": 2938,
    "vously": 23502,
    "Ġincites": 22549,
    "Ġpunctual": 17136,
    "final": 19675,
    "Ġexcitement": 9379,
    "Ġfight": 5366,
    "Ġgen": 5296,
    "Ġindividual": 5744,
    "fifth": 20145,
    "Ġfake": 5810,
    "Ġmastiff": 23723,
    "Ġtopmost": 14586,
    "Ġirr": 10420,
    "Ġwhiskers": 10491,
    "Ġpsych": 10175,
    "Ġdashes": 21433,
    "oking": 4607,
    "other": 1315,
    "leag": 21364,
    "Ġfren": 10804,
    "Ġbreaking": 6310,
    "Ġembalmed": 13654,
    "Ġacquiesce": 20328,
    "ats": 4253,
    "Ġcoefficient": 2886,
    "Ġconstraints": 2740,
    "yesterday": 10352,
    "Ġeffect": 966,
    "Ġ183": 13236,
    "Ġtravelling": 11306,
    "Ġdisliked": 12887,
    "Ġsmite": 22555,
    "Ġretreats": 16927,
    "Ġfurthest": 22813,
    "Ġlip": 6532,
    "sed": 4177,
    "Ġrelaps": 18776,
    "Ġsignify": 16492,
    "Ġincredulity": 11310,
    "Ġmany": 1104,
    "itement": 7836,
    "Ġembatt": 18848,
    "comparatively": 25839,
    "Ġsir": 1566,
    "Ġscraggy": 24578,
    "Ġeducated": 16784,
    "sufficient": 6635,
    "Ġstand": 1735,
    "Ġcheeks": 5958,
    "Ġinexpress": 12631,
    "Ġestimation": 11217,
    "Ġbetokened": 18796,
    "Ġcaptioning": 23021,
    "ables": 7891,
    "Ġsang": 12531,
    "Ġfearing": 12811,
    "Ġegot": 18007,
    "Ġourselves": 5127,
    "Ġperdition": 15989,
    "Ġfoes": 11948,
    "stochastic": 3772,
    "Ġcontempl": 6701,
    "Ġmutters": 23953,
    "iers": 5991,
    "Ġinconstant": 21494,
    "aft": 9582,
    "pay": 10717,
    "ounder": 11742,
    "Ġprolong": 6832,
    "Ġmuff": 8114,
    "pagans": 25525,
    "Ġoccurrences": 11049,
    "keenest": 25661,
    "clothes": 9056,
    "fug": 17542,
    "atural": 943,
    "Ġwrists": 11112,
    "goodbye": 12053,
    "questioning": 16849,
    "Ġcrush": 9420,
    "roded": 17955,
    "Ġhearken": 21683,
    "Ġsurest": 19058,
    "congreg": 25398,
    "Ġtwelfth": 22676,
    "Ġstowed": 21734,
    "Ġprudential": 17917,
    ")âĢĶ": 20741,
    "Ġtired": 9148,
    "Ġshared": 10262,
    "Ġcables": 15554,
    "Ġdownst": 3557,
    "Ġwars": 17785,
    "Ġeye": 2283,
    "cy": 638,
    "friendly": 13282,
    "Ġbrid": 6290,
    "Ġgin": 13959,
    "Ġfarmhouse": 24986,
    "beds": 16585,
    "Ġphrases": 2797,
    "Ġcoins": 11816,
    "obey": 11508,
    "Ġgate": 6825,
    "Ġslee": 8973,
    "idation": 5022,
    "Ġyoungest": 7954,
    "Ġhypothe": 4074,
    "isc": 6239,
    "Ġthunder": 4823,
    "Ġp": 288,
    "roots": 15639,
    "light": 3015,
    "Ġpianoforte": 15271,
    "Ġprovinces": 24189,
    "Ġcathed": 14547,
    "Ġreasonable": 7252,
    "inburgh": 15488,
    "cred": 9106,
    "corners": 17366,
    "Ġfix": 2510,
    "arched": 10814,
    "Ġimperfect": 13337,
    "Ġswain": 18881,
    "Ġstepmother": 16085,
    "Ġpulpit": 7470,
    "Ġberth": 8679,
    "ires": 6038,
    "burned": 25079,
    "ulations": 6029,
    "Ġremot": 8543,
    "Ġgar": 10837,
    "avering": 24793,
    "idean": 14261,
    "Ġaverred": 18865,
    "Ġbrilliancy": 20105,
    "Ġlaurel": 20653,
    "suffered": 24333,
    "Ġred": 3004,
    "ier": 1135,
    "Ġknitting": 24217,
    "Ġaudibly": 24771,
    "otics": 10222,
    "Ġdropping": 7483,
    "assment": 9738,
    "Ġsystematic": 5245,
    "conjecturing": 20133,
    "B": 38,
    "Ġbased": 3337,
    "Ġhier": 1895,
    "Ġrefreshing": 20263,
    "bel": 3834,
    "Ġinduced": 8670,
    "offer": 19062,
    "iance": 5279,
    "?âĢĶ": 3467,
    "Ġknelt": 12155,
    "narrow": 11506,
    "Ġpuzzled": 7317,
    "00": 1613,
    "pon": 17624,
    "uity": 12514,
    "Ġfortnight": 6200,
    "Ġexpatiate": 18624,
    "task": 13791,
    "Ġguitar": 16268,
    "Ġinhaled": 25451,
    "Ġwishes": 4795,
    "Ġshock": 6083,
    "Ġsmote": 18574,
    "Ġcheer": 4067,
    "sav": 8097,
    "paying": 25411,
    "ident": 3377,
    "Ġstubborn": 10413,
    "Ġup": 463,
    "Ġexploring": 4306,
    "Ġagain": 814,
    "vere": 4883,
    "Ġtidy": 17092,
    "Ġdelicate": 6480,
    "Ġgoin": 18469,
    "gaff": 20881,
    "Ġbegone": 11914,
    "output": 4402,
    "Ġmounting": 19975,
    "Ġbelfry": 26437,
    "Ġsnugly": 17110,
    "ential": 828,
    "Ġtechnique": 2488,
    "Ġdeadly": 5405,
    "Ġroused": 7622,
    "Ġextending": 11021,
    "Ġadmirers": 19685,
    "Ġissuing": 16947,
    "Ġunjust": 8483,
    "Ġphotography": 24683,
    "stream": 15682,
    "uncle": 8159,
    "Ġsurmises": 17054,
    "forest": 22516,
    "Ġaux": 21198,
    "Ġviciss": 11291,
    "son": 2330,
    "orters": 21399,
    "black": 6768,
    "Ġtempestuous": 20069,
    "Ġcured": 21345,
    "Ġdidst": 11846,
    "Ġcomes": 3422,
    "volut": 1556,
    "Ġdenying": 14657,
    "conspicuous": 26247,
    "Ġsorrow": 4629,
    "Ġofficially": 24838,
    "Ġencourage": 10379,
    "Ġintend": 12760,
    "beth": 13686,
    "Ġrelent": 18775,
    "Ġgoest": 22421,
    "Ġmelbourne": 24288,
    "Ġsuperlatively": 26075,
    "eringly": 23003,
    "benefact": 24641,
    "merged": 11193,
    "Ġfl": 1281,
    "Ġpromethe": 14465,
    "Ġmotions": 8281,
    "Ġpanic": 11285,
    "Ġworms": 25216,
    "Ġbelongs": 8015,
    "Ġoccupant": 16650,
    "Ġabridged": 26539,
    "term": 3757,
    "atra": 17770,
    "xim": 1095,
    "Ġpigeon": 9514,
    "glory": 23850,
    "Ġimprovement": 7963,
    "pots": 11512,
    "Ġsolemnisation": 24112,
    "Ġministers": 22833,
    "itar": 15543,
    "dressed": 10694,
    "avings": 12019,
    "ashed": 3782,
    "Ġbulwarks": 5591,
    "Ġmusical": 23891,
    "Ġapprobation": 10983,
    "thirst": 15822,
    "ulled": 14054,
    "Ġstrictest": 17041,
    "Ġsensible": 4976,
    "Ġfilthy": 13247,
    "ampling": 12722,
    "!âĢĶ": 2457,
    "Ġyouthful": 16722,
    "culous": 11140,
    "Ġrespite": 13152,
    "Ġ96": 24593,
    "Ġed": 2143,
    "Ġwounds": 17790,
    "Ġhonors": 23600,
    "Ġdeem": 18136,
    "moid": 2452,
    "Ġbuilt": 8301,
    "Ġimplements": 2487,
    "Ġtantamount": 25625,
    "emy": 14071,
    "stir": 12668,
    "Ġdupl": 9952,
    "bearded": 18522,
    "extremely": 26263,
    "Ġreview": 18030,
    "Ġhastened": 9003,
    "pardon": 10063,
    "Ġchallenges": 13628,
    "Ġprouder": 18973,
    "slack": 16893,
    "ĠĠĠĠĠĠĠĠĠĠĠĠĠĠĠĠĠĠĠĠĠĠĠĠĠĠĠĠĠĠĠĠĠĠĠĠĠĠĠĠĠĠĠ": 12151,
    "Ġmatrimony": 13633,
    "Ġglut": 18846,
    "wling": 11543,
    "knife": 6942,
    "Ġobvious": 4964,
    "elsewhere": 19867,
    "Ġinsult": 6747,
    "Ġwolves": 25934,
    "Ġzeal": 9096,
    "Ġethiopian": 26612,
    "Ġapparatus": 24908,
    "Ġrustling": 24715,
    "Ġsmoked": 10321,
    "Ġintense": 6157,
    "kles": 17583,
    "Ġtendency": 11328,
    "windibank": 24159,
    "formal": 14166,
    "azine": 19130,
    "Ġobservations": 13551,
    "perpendicular": 14158,
    "luded": 4228,
    "icted": 5937,
    "Ġwhispering": 14943,
    "Ġhumorousness": 25377,
    "Ġphilosopher": 12180,
    "Ġviii": 16411,
    "ker": 5792,
    "flutter": 23968,
    "Ġdriving": 3615,
    "enched": 10153,
    "Ġavocation": 23950,
    "Ġcoll": 8221,
    "Ġsway": 7571,
    "proachable": 23396,
    "Ġevening": 2654,
    "'d": 12424,
    "derment": 22164,
    "hereabouts": 23605,
    "Ġquietly": 4568,
    "Ġcounty": 9029,
    "Ġamphitheat": 26251,
    "Ġlikes": 9406,
    "Ġconfine": 14510,
    "county": 25396,
    "Ġexploit": 19161,
    "Ġwatchful": 16524,
    "Ġbaronial": 23792,
    "Ġdirt": 15590,
    "Ġorange": 8486,
    "none": 6962,
    "Ġexpedite": 24953,
    "Ġdevoutly": 25834,
    "fiend": 13659,
    "fitzwilliam": 11351,
    "mole": 22701,
    "Ġphrenologists": 25608,
    "Ġroof": 6564,
    "Ġnick": 21521,
    "Ġgrosvenor": 17416,
    "Ġgifted": 17996,
    "stra": 4046,
    "Ġbusks": 23338,
    "Ġrecoil": 18682,
    "Ġcamberwell": 25350,
    "xes": 21139,
    "Ġapprehens": 5682,
    "venth": 9293,
    "Ġdue": 3843,
    "Ġbones": 4584,
    "Ġstony": 21737,
    "Ġcorrect": 2435,
    "Ġgrud": 17995,
    "Ġscrewed": 15118,
    "Ġreconsidered": 21671,
    "Ġdoors": 6418,
    "Ġcarry": 4779,
    "prophet": 16178,
    "Ġinclosed": 19537,
    "Ġsticking": 13425,
    "aimed": 3952,
    "Ġimpro": 898,
    "Ġrele": 2918,
    "fourth": 11327,
    "invol": 12526,
    "Ġconstrued": 26301,
    "lighter": 20958,
    "Ġfav": 1755,
    "ai": 2527,
    "Ġdab": 15584,
    "Ġmah": 15537,
    "Ġstretching": 10013,
    "Ġfocus": 4235,
    "Ġbathing": 20198,
    "ama": 11675,
    "Ġcape": 5146,
    "viii": 12017,
    "venge": 4659,
    "Ġrev": 6988,
    "Ġcircular": 13108,
    "poured": 17636,
    "Ġhaws": 21949,
    "Ġhermit": 15854,
    "Ġwhim": 13997,
    "Ġmason": 10156,
    "Ġdisconsolate": 20718,
    "Ġblind": 3715,
    "Ġunexampled": 20358,
    "Ġweld": 8112,
    "Ġmountain": 3370,
    "Ġfrank": 4420,
    "isms": 12576,
    "Ġassiduous": 26292,
    "discover": 10538,
    "fitters": 24761,
    "Ġvillage": 5774,
    "excitement": 19668,
    "rub": 15890,
    "boast": 23251,
    "Ġprevent": 758,
    "Ġsurveying": 25325,
    "Ġpockets": 8894,
    "Ġfavourite": 5270,
    "ise": 708,
    "Ġunsupplied": 22041,
    "Ġpunish": 12156,
    "Ġshalt": 18230,
    "greater": 13250,
    "Ġwicked": 5961,
    "Ġhonour": 3922,
    "Ã¦": 4339,
    "crown": 13696,
    "mond": 20972,
    "Ġpaused": 5416,
    "Ġclass": 800,
    "Ġinstinct": 6575,
    "Ġnoted": 15827,
    "Ġeccentric": 13647,
    "burn": 8371,
    "Ġwalking": 4326,
    "spersed": 22736,
    "extending": 22755,
    "figure": 13553,
    "Ġhats": 14617,
    "Ġnineveh": 13387,
    "Ġers": 15458,
    "](": 11465,
    "Ġwalked": 3139,
    "iony": 9190,
    "Ġfavourably": 16359,
    "Ġbuoy": 8004,
    "unctuous": 21880,
    "Ġbel": 1215,
    "isco": 12577,
    "Ġthoughtfully": 12976,
    "Ġofficer": 6753,
    "Ġtestified": 16327,
    "pers": 4338,
    "Ġdecision": 2677,
    "Ġzero": 1201,
    "chase": 11643,
    "plendent": 21956,
    "tish": 17676,
    "ean": 20839,
    "Ġparl": 8178,
    "Ġcounsel": 13613,
    "easily": 17533,
    "satisf": 5781,
    "Ġdre": 1744,
    "Ġfamiliarly": 11302,
    "aintance": 3567,
    "Ġfulfil": 9549,
    "ge": 559,
    "Ġaffirm": 11884,
    "Ġfinally": 4667,
    "embraces": 25803,
    "Ġdirty": 9177,
    "Ġcaulking": 20292,
    "§": 105,
    "travellers": 24317,
    "unerative": 21894,
    "Ġcircumnavigating": 25614,
    "Ġshattered": 7885,
    "Ġtwisting": 18658,
    "Ġshirt": 8847,
    "ollen": 11297,
    "Ġdrawer": 13264,
    "often": 6165,
    "Ġcap": 2364,
    "Ġsex": 8840,
    "Ġquery": 2481,
    "Ġbraces": 14668,
    "Ġ182": 13235,
    "Ġsplendid": 17212,
    "Ġgrimly": 17051,
    "Ġplanisphere": 26606,
    "Ġobli": 9314,
    "folio": 10545,
    "Ġrepresentations": 1876,
    "Ġphil": 3384,
    "Ġworsh": 12996,
    "Ġrevolutionized": 3365,
    "Ġwhereas": 3853,
    "Ġporthole": 24398,
    "ahead": 12431,
    "gardiner": 12288,
    "Ġbridal": 14952,
    "Ġnative": 4641,
    "Ġdrinks": 24278,
    "uments": 5551,
    "motives": 26137,
    "Ġadopted": 15176,
    "Ġvirt": 3907,
    "inqu": 6121,
    "iet": 1775,
    "Ġindispens": 22952,
    "kindness": 10504,
    "Ġglared": 13010,
    "Ġspoken": 4836,
    "coff": 9107,
    "cleanliness": 25871,
    "Ġledge": 19399,
    "Ġacknowledged": 7534,
    "intments": 18820,
    "Ġsteeple": 19287,
    "Ġdarts": 16767,
    "Ġbeak": 18079,
    "Ġremarks": 7474,
    "enet": 10151,
    "Ġencouragement": 13039,
    "rudent": 6482,
    "sailor": 14713,
    "Ġstrongest": 11134,
    "Ġdine": 7366,
    "Ġetext": 23947,
    "Ġknob": 24406,
    "cadence": 26125,
    "Ġdeliber": 7268,
    "Ġbroker": 23100,
    "Ġlords": 14640,
    "Ġlabours": 8582,
    "Ġtid": 8107,
    "restoration": 23235,
    "Ġfearlessness": 19160,
    "Ġobst": 6284,
    "Ġplaning": 22599,
    "Ġimplies": 24873,
    "wid": 10133,
    "origin": 7581,
    "complexion": 14359,
    "Ġalmost": 1656,
    "Ġmacro": 25939,
    "Ġperennial": 22692,
    "Ġwrapt": 24596,
    "Ġglimmering": 25240,
    "isa": 17845,
    "Ġfa": 4819,
    "Ġovertaken": 18425,
    "ails": 6160,
    "Ġelev": 5535,
    "Ġscattered": 6856,
    "example": 16010,
    "Ġgodson": 23357,
    "Ġvaulted": 25167,
    "Ġprometheus": 15290,
    "fanc": 20863,
    "contempl": 13189,
    "Ġtight": 8108,
    "Ġseparated": 9463,
    "Ġhide": 4590,
    "opposing": 24825,
    "Ġconfluent": 19040,
    "Ġscreening": 25300,
    "Ġamends": 14244,
    "Ġoverhear": 15967,
    "Ġsheltered": 19910,
    "Ġmississippi": 20724,
    "Ġlash": 8439,
    "icious": 7380,
    "pe": 1436,
    "Ġpound": 12612,
    "Ġmonarch": 14411,
    "ther": 481,
    "Ġbeque": 18080,
    "Ġsickle": 24244,
    "Ġperson": 2371,
    "rent": 1170,
    "ute": 4643,
    "unity": 4152,
    "ĠĠĠĠĠĠĠĠĠĠĠĠĠĠĠĠĠĠĠĠĠĠĠĠĠĠĠĠĠĠĠĠĠ": 12040,
    "Ġlink": 8130,
    "Ġforeseeing": 23449,
    "affect": 13210,
    "Ġaust": 4871,
    "Ġpapered": 20129,
    "pinn": 21025,
    "ency": 3869,
    "linked": 17592,
    "whom": 8185,
    "Ġfavour": 3640,
    "Ġservices": 11216,
    "Ġcondensed": 24050,
    "Ġfrosts": 19801,
    "Ġplaited": 14281,
    "roused": 16651,
    "Ġcooped": 22581,
    "deceit": 25556,
    "âĢľ": 344,
    "Ġparagraph": 17452,
    ",_": 11461,
    "passenger": 24164,
    "keel": 14127,
    "smoking": 23908,
    "Ġobeisance": 19757,
    "cripp": 20818,
    "Ġattaining": 15800,
    "Ġdecay": 1013,
    "Ġdiversion": 17196,
    "Ġdevotedly": 24750,
    "Ġaccusations": 22369,
    "acency": 12904,
    "Ġbiscuit": 12585,
    "Ġdat": 497,
    "ect": 381,
    "eches": 8078,
    "Ġbleached": 24395,
    "Ġfounded": 8556,
    "quietude": 24655,
    "ordered": 8788,
    "Ġviolin": 16426,
    "embraced": 25804,
    "Ġhammers": 13239,
    "Ġcollar": 11876,
    "ĠĠĠĠĠĠĠĠĠĠĠĠĠĠĠĠĠĠĠĠĠĠĠĠĠĠĠĠĠĠĠĠĠĠĠĠ": 23662,
    "ersman": 11698,
    "Ġproduce": 4368,
    "Ġskilful": 25836,
    "Ġflights": 24753,
    "Ġcam": 10160,
    "ties": 2757,
    "Ġvesuvius": 26500,
    "Ġdick": 3495,
    "Ġhogarth": 25780,
    "Ġsquires": 16181,
    "Ġfreedom": 9081,
    "Ġdro": 2770,
    "Ġtrace": 6181,
    "Ġtaught": 6803,
    "odes": 18116,
    "ceived": 1962,
    "Ġopens": 23626,
    "Ġcorroded": 18875,
    "Ġcrown": 5287,
    "brim": 23574,
    "Ġearls": 18903,
    "Ġ24": 13191,
    "Ġdeformed": 14047,
    "Ġwheeled": 14137,
    "Ġirrevoc": 15037,
    "Ġprepare": 8646,
    "Ġzodiac": 16173,
    "misery": 13341,
    "countless": 24148,
    "dle": 3245,
    "ĠĠĠĠĠĠĠĠĠĠĠĠĠĠĠĠĠĠĠĠĠĠĠĠĠĠĠ": 14884,
    "naught": 20993,
    "Ġxiii": 25591,
    "lording": 24048,
    "Ġdesperate": 7777,
    "Ġrhone": 25230,
    "Ġadie": 8488,
    "ske": 13780,
    "idge": 14012,
    "scho": 8759,
    "Ġbohemian": 17132,
    "Ġ94": 17716,
    "Ġremo": 3783,
    "Ġpresentiment": 18988,
    "Ġassure": 4419,
    "geneva": 13728,
    "Ġsecret": 3719,
    "Ġfar": 1450,
    "congratulations": 20278,
    "Ġful": 4298,
    "Ġshrubbery": 18232,
    "Ġarr": 1801,
    "Ġscrews": 25177,
    "deserts": 25379,
    "ds": 4688,
    "alarmed": 21501,
    "anish": 2618,
    "specific": 10496,
    "wheeling": 22864,
    "Ġunfair": 19506,
    "Ġdeference": 10881,
    "circumstances": 8047,
    "thanking": 24329,
    "Ġfanatic": 23390,
    "Ġtheoretically": 3564,
    "Ġindestructible": 26571,
    "nep": 20985,
    "Ġwhispers": 14698,
    "Ġpenal": 1774,
    "Ġjoints": 12033,
    "Ġboy": 3022,
    "Ġsecure": 4912,
    "Ġpeleg": 3737,
    "Ġcurds": 22984,
    "Ġilluminated": 20174,
    "Ġsituated": 9446,
    "Ġthreading": 23400,
    "Ġtags": 20570,
    "written": 7995,
    "Ġcritical": 7475,
    "Ġcharts": 12823,
    "ĠĠĠĠĠĠĠĠĠĠĠĠĠĠĠĠĠĠĠĠĠĠĠĠĠĠĠĠĠĠĠĠĠĠĠĠĠĠĠĠĠĠĠĠĠĠĠĠĠĠĠĠĠĠĠĠĠĠĠĠ": 19258,
    "Ġchiefly": 5766,
    "mospheric": 17090,
    "ch": 321,
    "Ġskirt": 18728,
    "secut": 7868,
    "Ġchimney": 6497,
    "Ġzig": 18743,
    "Ġcanals": 22160,
    "Ġfeeding": 7972,
    "ques": 2842,
    "plumed": 21953,
    "Ġriver": 5411,
    "Ġthomson": 26453,
    "Ġmasterly": 23991,
    "hound": 20894,
    "Ġtorpor": 25031,
    "Ġplucked": 15111,
    "Ġrepaired": 13105,
    "Ġsings": 15503,
    "Ġshaken": 10263,
    "Ġpassing": 4317,
    "Ġvehic": 8932,
    "Ġimbec": 14155,
    "Ġobtaining": 16129,
    "Ġ88": 19710,
    "eridge": 15523,
    "woof": 21138,
    "Ġimpreg": 15984,
    "elevating": 20404,
    "Ġsteward": 6584,
    "Ġunfolding": 17085,
    "<EOS>": 2,
    "Ġdisgra": 18549,
    "ntax": 934,
    "Ġbeef": 6830,
    "Ġimpenit": 22386,
    "Ġpolynes": 16076,
    "france": 24281,
    "professor": 17248,
    "Ġanimating": 23422,
    "Ġexasperated": 11411,
    "Ġkindest": 23293,
    "Ġmishap": 20575,
    "Ġinit": 819,
    "flo": 6114,
    "Ġcontemplation": 11356,
    "Ġdrags": 16940,
    "Ġliberal": 12187,
    "Ġunaccountable": 7888,
    "Ġintelligences": 12826,
    "articulate": 17396,
    "court": 7511,
    "owed": 2270,
    "Ġcham": 4892,
    "comprehens": 16172,
    "nect": 662,
    "bbings": 19275,
    "Ġextend": 18686,
    "Ġdrowning": 19903,
    "ientiously": 21939,
    "Ġtwilight": 16118,
    "disgust": 23494,
    "nar": 12490,
    "brows": 17495,
    "overlooked": 23324,
    "Ġcivilly": 19602,
    "Ġshears": 18319,
    "Ġinstantaneous": 14610,
    "Ġancestors": 25642,
    "writes": 4988,
    "Ġactor": 16045,
    "Ġdistracted": 11800,
    "asional": 17959,
    "Ġadaptation": 3155,
    "whenever": 11878,
    "Ġimprudence": 10296,
    "Ġtrampled": 20327,
    "Ġoutrages": 18415,
    "Ġblushed": 12998,
    "Ġwithdrawn": 10605,
    "Ġdevelop": 1736,
    "Ġmarking": 16467,
    "Ġreflections": 5946,
    "Ġcakes": 13882,
    "Ġsplin": 8618,
    "powder": 17644,
    "national": 20997,
    "ifers": 15778,
    "Ġcontempt": 6275,
    "nature": 5359,
    "ecess": 17531,
    "trick": 19411,
    "Ġsoo": 15858,
    "Ġlicence": 25096,
    "Ġjobs": 24832,
    "Ġcourt": 4170,
    "Ġrav": 14303,
    "Ġrepelled": 19085,
    "Ġforbear": 17120,
    "engineer": 23146,
    "philips": 20033,
    "Ġsleeping": 6319,
    "Ġsung": 23270,
    "Ġauger": 21202,
    "Ġdiscredit": 22779,
    "Ġconnivance": 25225,
    "Ġconstruct": 23341,
    "Ġreminiscences": 26269,
    "ctic": 8442,
    "Ġlight": 1701,
    "Ġsembl": 19061,
    "alions": 21499,
    "dramatic": 19383,
    "Ġthorough": 6245,
    "recollected": 25347,
    "arying": 9799,
    "symp": 14625,
    "Ġcountenance": 3970,
    "Ġunhallowed": 17179,
    "mathematics": 26304,
    "Ġuseless": 7035,
    "Ġimparted": 15985,
    "Ġexpense": 7651,
    "paint": 21017,
    "Ġconcealment": 16913,
    "soon": 4030,
    "Ġalternate": 19984,
    "kovoko": 20668,
    "Ġaudible": 19880,
    "Ġrewarding": 13435,
    "Ġmerc": 9424,
    "Ġtimidity": 24687,
    "poling": 12216,
    "wr": 3027,
    "interest": 5421,
    "Ġlittle": 868,
    "Ġparr": 22117,
    "Ġacceded": 22368,
    "Ġmatted": 22910,
    "bearing": 9763,
    "tha": 15820,
    "Ġwaved": 9643,
    "Ġsleepers": 13147,
    "Ġloitered": 26524,
    "Ġ132": 19895,
    "Ġsinks": 19548,
    "Ġmildly": 9028,
    "Ġpenetrate": 12266,
    "Ġdisquis": 22525,
    "nyder": 16685,
    "Ġmorsel": 20676,
    "importance": 9987,
    "summon": 23414,
    "lace": 13746,
    "Ġfitted": 6243,
    "Ġrepositories": 23363,
    "infernal": 24662,
    "Ġsurprising": 14596,
    "Ġshrine": 19530,
    "meadow": 18677,
    "image": 9684,
    "Ġmumbled": 17807,
    "Ġsche": 1705,
    "Ġsubmerged": 11869,
    "Ġdisk": 22520,
    "stud": 8818,
    "Ġpoisonous": 24887,
    "anity": 9653,
    "Ġshetland": 22157,
    "Ġjour": 11761,
    "hunter": 10554,
    "Ġjealously": 24123,
    "Ġwalk": 1826,
    "Ġtravellers": 11307,
    "re": 266,
    "Ġpartly": 6713,
    "Ġleviathans": 8282,
    "dial": 20824,
    "atered": 22007,
    "Ġsteelkilt": 5675,
    "depth": 12796,
    "added": 11657,
    "old": 798,
    "Ġjesty": 18405,
    "hed": 671,
    "Ġobjections": 8564,
    "dreams": 12334,
    "Ġbills": 17860,
    "Ġcreat": 1406,
    "nes": 6961,
    "Ġcott": 3708,
    "Ġforgive": 8010,
    "mber": 7804,
    "Ġsick": 4693,
    "Ġgossip": 18470,
    "ograph": 4797,
    "Ġale": 9153,
    "Ġsuppose": 2868,
    "Ġmechanical": 7937,
    "Ġdict": 9174,
    "Ġadds": 1808,
    "shazzar": 15287,
    "Ġshabby": 14109,
    "hammock": 16350,
    "Ġfactor": 19015,
    "Ġperseus": 10602,
    "subs": 14300,
    "leagued": 26434,
    "Ġspeeches": 22661,
    "onical": 21252,
    "lect": 1221,
    "Ġsecuring": 11988,
    "Ġsepar": 3999,
    "Ġcelebrate": 26357,
    "Ġscrewing": 20207,
    "timidity": 25753,
    "Ġarithmetic": 18346,
    "Ġoct": 10157,
    "Ġjewell": 19519,
    "renadier": 18419,
    "penn": 18826,
    "Ġblended": 16216,
    "Ġbread": 5404,
    "jointed": 24007,
    "Ġcomparing": 14263,
    "Ġstilly": 25973,
    "houses": 9598,
    "oment": 921,
    "Ġbranches": 6776,
    "Ġinfamy": 14501,
    "Ġwindow": 2997,
    "obser": 11098,
    "urities": 18049,
    "coffin": 10661,
    "destro": 13307,
    "Ġindividually": 22955,
    "oper": 7347,
    "calling": 12446,
    "Ġabstracted": 17181,
    "Ġmincing": 18750,
    "Ġlavenza": 17970,
    "Ġwelcomed": 9480,
    "dire": 15334,
    "g": 75,
    "Ġdistress": 5844,
    "Ġmeant": 3548,
    "iag": 20915,
    "dering": 5305,
    "Ġfluke": 14672,
    "Ġappellation": 22220,
    "Ġrides": 21969,
    "ived": 1532,
    "Ġintuitions": 17339,
    "Ġmac": 15535,
    "off": 1887,
    "winds": 10520,
    "Ġexhibited": 9542,
    "chair": 5917,
    "Ġglue": 15670,
    "ush": 3630,
    "Ġris": 4886,
    "Ġconse": 21802,
    "Ġworn": 6445,
    "Ġsquares": 11168,
    "Ġeel": 18001,
    "Ġcum": 21340,
    "Ġsmiles": 6706,
    "accents": 19210,
    "Ġdespondence": 25869,
    "Ġdeclining": 23961,
    "Ġpiazza": 26449,
    "Ġpreacher": 18369,
    "Ġcarelessness": 13073,
    "Ġfonder": 17880,
    "doctor": 19095,
    "Ġnorthward": 13319,
    "Ġtuning": 3072,
    "Ġdiscoveries": 13356,
    "Ġdisappears": 18560,
    "Ġsubstit": 19539,
    "py": 17623,
    "Ġheartless": 13070,
    "Ġusual": 3943,
    "Ġawaited": 17073,
    "Ġprovoked": 13323,
    "Ġbug": 11587,
    "hopes": 15367,
    "Ġpraises": 16729,
    "Ġfiver": 22775,
    "ĠĠĠĠĠĠĠĠĠĠĠĠĠĠĠĠĠĠĠĠĠĠĠĠĠĠĠĠĠĠĠĠĠĠĠĠĠĠĠĠĠĠĠĠĠ": 9950,
    "Ġbarrowful": 25595,
    "Ġchewed": 16367,
    "Ġwhence": 5839,
    "Ġmiraculous": 13545,
    "quietly": 10591,
    "Ġandromeda": 21506,
    "Ġparametric": 2398,
    "helm": 12168,
    "Ġevolve": 3001,
    "Ġthrew": 3973,
    "ries": 3352,
    "torn": 17681,
    "moonlight": 25375,
    "nervous": 16275,
    "Ġimpart": 11777,
    "Ġrecourse": 22720,
    "ipagos": 22347,
    "continuance": 19717,
    "trem": 17680,
    "Ġdiminishing": 4209,
    "Ġstem": 15715,
    "Ġargument": 7098,
    "Ġshadowed": 24042,
    "ozy": 17621,
    "Ġremembered": 5276,
    "reading": 12076,
    "Ġdiffusion": 23781,
    "ieties": 19024,
    "Ġstarted": 4150,
    "Ġtattooed": 11377,
    "grace": 5846,
    "Ġadvancing": 6879,
    "Ġcouldn": 7648,
    "Ġeduc": 4785,
    "Ġkick": 5837,
    "concealed": 25115,
    "Ġsanctified": 25883,
    "labour": 23912,
    "killed": 15374,
    "Ġreads": 23111,
    "Ġvariation": 22663,
    "breaths": 25336,
    "sp": 894,
    "estinated": 15918,
    "Ġtreatise": 19343,
    "ersburgh": 18215,
    "Ġdemi": 25548,
    "jumped": 20245,
    "Ġwhites": 21715,
    "Ġparalle": 1411,
    "Ġjonas": 20608,
    "Ġodds": 13327,
    "Ġambiguous": 20163,
    "Ġcon": 348,
    "Ġdried": 7367,
    "Ġinteraction": 7424,
    "declined": 25174,
    "ting": 1335,
    "Ġhog": 13922,
    "humiliation": 24018,
    "tles": 10729,
    "Ġconsequ": 6254,
    "sequ": 2403,
    "Ġdismissed": 12888,
    "Ġgrand": 3591,
    "sole": 6168,
    "surrounded": 26088,
    "unmistakable": 21893,
    "police": 10582,
    "caused": 25519,
    "?_âĢĿ": 12313,
    "injured": 15130,
    "!âĢĿ": 846,
    "orative": 21396,
    "Ġharbour": 19978,
    "val": 1159,
    "buncle": 13690,
    "Ġrambles": 17183,
    "Ġevinced": 7100,
    "Ġbachelor": 7787,
    "Ġassur": 6074,
    "stooped": 23819,
    "Ġflowers": 8939,
    "¨": 106,
    "Ġmilliner": 19883,
    "hearty": 14832,
    "Ý": 158,
    "Ġdisput": 14254,
    "Ġ36": 14765,
    "preserve": 25303,
    "Ġreservoir": 20650,
    "Ġtangles": 25761,
    "Ġsubmit": 11867,
    "exam": 10975,
    "Ġclaret": 22361,
    "Ġreducing": 1955,
    "Ġgorgeous": 20465,
    "ositions": 10282,
    "tanh": 5204,
    "ous": 477,
    "Ġremote": 8918,
    "Ġmaterials": 11287,
    "Ġcomputational": 1626,
    "Ġtepid": 26411,
    "Ġintention": 5638,
    "Ġcovering": 13254,
    "attempts": 17189,
    "Ġcompetition": 14265,
    "Ġrefine": 3083,
    "Ġwithered": 19463,
    "lantic": 6363,
    "Ġmistaken": 4986,
    "Ġreach": 4047,
    "ognit": 19177,
    "Ġtelling": 5747,
    "Ġcaulk": 25440,
    "Ġunprinciple": 18254,
    "Ġfrantic": 7957,
    "Ġupbraided": 26527,
    "Ġdetermining": 14419,
    "sal": 8757,
    "represented": 20194,
    "Ġirresistible": 13110,
    "Ġspectacles": 12094,
    "Ġcarefully": 6304,
    "Ġarmed": 9258,
    "Ġrear": 6535,
    "Ġworshipper": 25692,
    "Ġstorm": 4302,
    "Ġunhe": 22008,
    "Ġnetherfield": 3930,
    "Ġwest": 5219,
    "Ġapprehending": 26090,
    "Ġdestined": 7975,
    "neighboring": 20615,
    "Ġnoblest": 13240,
    "robustness": 26338,
    "Ġprestige": 22234,
    "Ġbuoyant": 13530,
    "Ġslavish": 23171,
    "Ġrib": 4936,
    "Ġdeeply": 4717,
    "Ġtattooing": 15026,
    "Ġmerid": 13193,
    "prevented": 20372,
    "speed": 19407,
    "Ġlong": 794,
    "Ġnoises": 18373,
    "knows": 19171,
    "Ġmatrim": 11059,
    "Ġinnovative": 1604,
    "Ġlees": 18075,
    "Ġspoiled": 11362,
    "treat": 12510,
    "Ġglory": 6065,
    "lingering": 18601,
    "Ġshiny": 14104,
    "Ġforebodings": 17302,
    "Ġconcrete": 20635,
    "Ġgr": 973,
    "Ġknees": 6928,
    "aze": 10073,
    "Ġcounteracted": 19861,
    "Ġmanners": 3788,
    "wake": 11544,
    "Ġhospital": 15038,
    "Ġmonomaniac": 9567,
    "Ġprogen": 14037,
    "Ġhurry": 4913,
    "mell": 20963,
    "Ġstreams": 12189,
    "Ġdebts": 8036,
    "Ġgeneration": 2117,
    "rival": 12738,
    "cceed": 4143,
    "forgetting": 25485,
    "Ġreliable": 18777,
    "trees": 10730,
    "sig": 2877,
    "Ġtrifles": 16950,
    "Ġoblivious": 26032,
    "perseus": 26005,
    "albatross": 15626,
    "Ġpython": 1068,
    "forecastle": 10989,
    "Ġwoke": 21288,
    "Ġpromote": 23190,
    "eous": 13710,
    "tes": 11527,
    "sighted": 19784,
    "Ġglac": 9343,
    "Ġevenness": 22834,
    "thanked": 24330,
    "iac": 6225,
    "Ġcommended": 18656,
    "inting": 9812,
    "Ġsmells": 8888,
    "Ġforbidding": 17078,
    "Ġcomputes": 4768,
    "Ġsea": 1208,
    "Ġriddles": 16731,
    "Ġrang": 9243,
    "Ġirreduc": 5491,
    "Ġaddition": 1146,
    "Ġfriesland": 26441,
    "Ġcareer": 11117,
    "Ġdynamic": 5123,
    "Ġvisitors": 7985,
    "Ġmethod": 1472,
    "look": 2261,
    "brill": 16489,
    "ĠâĢĺ_": 11116,
    "urned": 9304,
    "Ġwaits": 23278,
    "Ġquite": 1741,
    "vour": 17698,
    "purposes": 25021,
    "iom": 20914,
    "cent": 8073,
    "Ġscheduling": 2350,
    "Ġburning": 5977,
    "ur": 326,
    "Ġsnugness": 20075,
    "erne": 21268,
    "got": 6955,
    "Ġnovember": 11746,
    "rug": 18336,
    "Ġinqu": 2965,
    "Ġdifferently": 10387,
    "Ġatrocious": 21941,
    "bearings": 25371,
    "aurus": 20559,
    "Ġ32": 19487,
    "luding": 6700,
    "Ġalike": 8147,
    "Ġdriven": 6198,
    "ogn": 2369,
    "Ġinterpreter": 23212,
    "Ġdeep": 812,
    "Ġter": 2052,
    "Ġlashes": 17966,
    "Ġlocations": 12410,
    "Ġgouge": 26188,
    "Ġexam": 3710,
    "Ġpassions": 7930,
    "ances": 1338,
    "Ġpatagonian": 20533,
    "inite": 6002,
    "stee": 21643,
    "Ġautonom": 10414,
    "irksome": 18172,
    "buff": 15316,
    "Ġunful": 22009,
    "Ġfloating": 6604,
    "Ġunacquainted": 12772,
    "leviathan": 7785,
    "asters": 8434,
    "Ġjunks": 25113,
    "Ġmagnet": 10388,
    "open": 7026,
    "Ġreplay": 5047,
    "inspect": 11557,
    "yingly": 23058,
    "Ġsimil": 2532,
    "Ġfailing": 12134,
    "Ġconcil": 23322,
    "Ġpermanent": 13629,
    "Ġluxurious": 17309,
    "Ġoaks": 16932,
    "anel": 21355,
    "tete": 10731,
    "Ġmetrics": 19047,
    "han": 12469,
    "Ġdealer": 23974,
    "Ġgallon": 24183,
    "les": 1017,
    "Ġpurchasing": 19874,
    "Ġflattening": 26049,
    "gard": 7339,
    "Ġsy": 483,
    "Ġhastily": 5763,
    "Ġsupervised": 3109,
    "Ġattacked": 10566,
    "happened": 9431,
    "Ġprivileges": 25132,
    "ishments": 9271,
    "Ġbordeaux": 24563,
    "Ġtuileries": 24826,
    "ķ": 248,
    "Ġmerely": 3769,
    "Ġrealistic": 5860,
    "Ġfondly": 19615,
    "Ġclerval": 4654,
    "Ġdevotion": 22747,
    "remes": 21236,
    "Ġsleep": 2402,
    "Ġplayful": 19235,
    "Ġfaithful": 9501,
    "Ġdropout": 1554,
    "Ġvalidate": 3300,
    "V": 58,
    "politeness": 16905,
    "Ġembraced": 10004,
    "regarding": 15069,
    "masculine": 24386,
    "bet": 6109,
    "coal": 12021,
    "Ġbuild": 6474,
    "Ġpouring": 12620,
    "aton": 21257,
    "gen": 6503,
    "Ġtriumphantly": 11286,
    "ñ": 178,
    "Ġperempt": 13671,
    "Ã": 132,
    "Ġsuspic": 4470,
    "drovand": 24760,
    "restrained": 16333,
    "erxes": 21274,
    "conside": 9288,
    "inative": 15481,
    "Ġbitt": 10795,
    "Ġtraps": 23079,
    "restraint": 18979,
    "Ġsubsisting": 23433,
    "Ġmarriage": 3187,
    "ment": 691,
    "Ġdiscuss": 9472,
    "anct": 21356,
    "Ġstil": 15714,
    "Ġrobes": 16245,
    "Ġvictory": 16652,
    "Ġfuss": 13903,
    "Ġlake": 5227,
    "Ġstraggling": 23749,
    "ospit": 22261,
    "painful": 13500,
    "whose": 6852,
    "Ġspirit": 3723,
    "sc": 1261,
    "Ġmannish": 26237,
    "Ġfoolishly": 19781,
    "deliver": 19503,
    "volutional": 1934,
    "extinguish": 22756,
    "Ġdimly": 9486,
    "Ġminded": 23229,
    "romeda": 17261,
    "during": 6787,
    "Ġjacobians": 2895,
    "ckets": 6843,
    "Ġsne": 6372,
    "Ġrock": 5310,
    "Ġcomputing": 2221,
    "Ġcleanse": 24526,
    "conquerable": 17397,
    "Ġocean": 3303,
    "Ġresolutely": 14608,
    "seventy": 10875,
    "www": 17250,
    "andish": 18153,
    "Ġ177": 13410,
    "Ġexile": 12713,
    "caus": 11475,
    "Ġalman": 21779,
    "Ġploughed": 22603,
    "Ġdeliberately": 10623,
    "attention": 2110,
    "Ġmass": 3778,
    "Ġu": 324,
    "Ġnarratives": 24352,
    "subjects": 19875,
    "Ġinattention": 17931,
    "!_âĢĿ": 11375,
    "Ġventilator": 8713,
    "falsehood": 25901,
    "Ġardu": 22187,
    "Ġsuggestive": 11296,
    "Ġreckoned": 24744,
    "oa": 9611,
    "Ġfemale": 8345,
    "gree": 10700,
    "?--": 15301,
    "Ġfaster": 3197,
    "lower": 8878,
    "kins": 7345,
    "Ġforwards": 12699,
    "clad": 14457,
    "99": 1896,
    "Ġwarden": 17223,
    "Ġpropontis": 17464,
    "uss": 8763,
    "Ġsole": 3295,
    "Ġge": 1976,
    "Ġlawn": 7379,
    "Ġdie": 3962,
    "thee": 9688,
    "Ġtestimony": 14476,
    "lighted": 23752,
    "Ġannoyed": 17198,
    "î": 175,
    "alive": 10826,
    "Ġcombined": 8549,
    "Ġspeeding": 23563,
    "elled": 3992,
    "diminished": 20838,
    "Ġdevil": 3611,
    "Ġgrandeur": 8627,
    "Ġper": 590,
    "Ġtattooings": 24900,
    "akers": 9737,
    "Ġmantle": 25274,
    "Ġvirtual": 11238,
    "returned": 7766,
    "aid": 1921,
    "sloop": 26145,
    "Ġconstrained": 19238,
    "Ġperusal": 14223,
    "Ġweb": 9238,
    "lat": 9603,
    "pier": 17634,
    "Ġferocious": 17417,
    "Ġbutterfly": 19909,
    "Ġearn": 3545,
    "Ġexpiring": 16092,
    "Ġdictator": 20152,
    "revival": 26162,
    "Ġpantaloons": 20295,
    "Ġoh": 2174,
    "Ġsitting": 3603,
    "reason": 4415,
    "Ġeasterly": 25962,
    "ston": 15678,
    "Ġgradual": 20600,
    "Ġant": 4347,
    "olic": 14040,
    "istrate": 7406,
    "Ġcapt": 1292,
    "Á": 130,
    "Ġglobular": 19010,
    "Ġswept": 7978,
    "Ġcontrad": 9753,
    "Ġmortified": 14693,
    "achalot": 15860,
    "Ġindifferent": 6174,
    "Ġgurgling": 17444,
    "Ġart": 748,
    "Ġdoubted": 7966,
    "Ġclinging": 10291,
    "bearers": 18524,
    "Ġmagician": 25058,
    "Ġrecomm": 4996,
    "Ġpearl": 20375,
    "afforded": 25865,
    "Ġblood": 3168,
    "Ġep": 7385,
    "Ġchancery": 20715,
    "Ġfathers": 16293,
    "Ġtranque": 14199,
    "Ġoaths": 13522,
    "Ġwolfish": 25935,
    "Ġinaudible": 21497,
    "condemned": 26060,
    "Ġwarehouses": 20416,
    "Ġtoilette": 20491,
    "Ġreproach": 9555,
    "likely": 9021,
    "Ġtapping": 10751,
    "breast": 11244,
    "condescended": 26248,
    "Ġarrival": 4731,
    "Ġcomm": 838,
    "Ġsultanism": 25888,
    "Ġcaut": 6521,
    "Ġcad": 12564,
    "Ġincome": 7918,
    "Ġthreaten": 24373,
    "stige": 21653,
    "Ġinclemency": 22553,
    "Ġbiases": 2400,
    "athed": 7829,
    "Ġmus": 3395,
    "Ġincommunicable": 26610,
    "Ġscales": 4849,
    "Ġunfold": 8023,
    "Ġwondering": 7971,
    "Ġsmoking": 6429,
    "imodal": 17445,
    "Ġlabors": 23328,
    "Ġtroubles": 19437,
    "Ġinsights": 13177,
    "Ġinhabitant": 19754,
    "bre": 3978,
    "romising": 18233,
    "ella": 12744,
    "Ġprosecut": 9696,
    "Ġclubbed": 26546,
    "gone": 6504,
    "Ġslipping": 13358,
    "disc": 4729,
    "Ġblown": 12082,
    "Ġramadans": 25119,
    "Ġostlers": 25276,
    "Ġsetting": 7046,
    "nearest": 16019,
    "arken": 18667,
    "consumed": 25675,
    "harpooneers": 8689,
    "la": 10704,
    "atig": 13843,
    "orted": 4604,
    "Ġhoneymoon": 25645,
    "Ġtopsails": 19193,
    "seldom": 13785,
    "77": 15298,
    "olently": 15753,
    "agre": 18164,
    "Ġventured": 7501,
    "Ġtroub": 22342,
    "rary": 4576,
    "umnal": 18300,
    "aus": 1500,
    "angry": 18294,
    "Ġsubsiding": 23432,
    "Ġparticip": 16128,
    "ely": 622,
    "Ġcompensated": 17399,
    "Ġcarrying": 6072,
    "Ġac": 845,
    "Ġtransl": 2830,
    "ieged": 22576,
    "considerable": 10547,
    "Ġbridge": 8349,
    "Ġdetested": 14174,
    "Ġresembling": 4099,
    "dogs": 25402,
    "Ġmarling": 23034,
    "idly": 12696,
    "vocabulary": 25085,
    "swell": 17662,
    "Ġnapole": 15113,
    "Ġbarber": 23788,
    "nson": 16090,
    "widows": 25344,
    "private": 13580,
    "Ġsprain": 18305,
    "gave": 7800,
    "Ġserves": 4669,
    "Ġheroines": 19750,
    "Ġcretan": 22726,
    "possession": 12218,
    "Ġmysteries": 11321,
    "irr": 12733,
    "Ġassemblage": 26351,
    "Ġrescales": 5068,
    "Ġenumer": 12741,
    "Ġstudies": 7956,
    "Ġwhom": 1832,
    "Ġswam": 6448,
    "rece": 21233,
    "instinctively": 26327,
    "icant": 21560,
    "gence": 877,
    "Ġanimate": 23421,
    "Ġtransition": 14232,
    "Ġoverhead": 11767,
    "settle": 16660,
    "better": 7119,
    "Ġeloquent": 16107,
    "ans": 458,
    "Ġanomaly": 25636,
    "awed": 10390,
    "crier": 20819,
    "imet": 21704,
    "ĠĠĠĠĠ": 3525,
    "Ġdifficulties": 11224,
    "Ġresolving": 9417,
    "bly": 6110,
    "neural": 3064,
    "iah": 14415,
    "Ġdesignated": 19520,
    "Ġfan": 2036,
    "silence": 8045,
    "Ġtash": 13818,
    "ternatural": 12711,
    "Ġcal": 1327,
    "visible": 10532,
    "Ġladies": 3193,
    "rie": 2787,
    "Ġfreckled": 18959,
    "Ġempires": 19075,
    "probability": 17021,
    "Ġsluggish": 25890,
    "detective": 24382,
    "Ġpup": 12615,
    "pse": 21008,
    "Ġlodgings": 8312,
    "Ġaccounted": 10293,
    "Ġl": 303,
    "Ġstab": 10861,
    "Ġord": 3734,
    "Ġmuscles": 12085,
    "stripped": 16944,
    "Ġceremonies": 24836,
    "less": 928,
    "Ġvill": 3878,
    "Ġanswered": 2852,
    "ales": 3315,
    "Ġconsidered": 4612,
    "Ġcrouched": 23440,
    "Ġsolid": 6443,
    "Ġreneg": 21673,
    "mong": 15387,
    "ench": 21278,
    "Ġtresses": 21174,
    "Ġheaven": 3363,
    "trap": 24312,
    "Ġprejudices": 13467,
    "ucy": 15442,
    "gr": 2087,
    "Ġwantest": 18791,
    "arranged": 19318,
    "Ġprosperity": 20256,
    "gloomy": 25144,
    "Ġpractices": 19041,
    "Ġsafie": 6617,
    "Ġ52": 24320,
    "england": 18928,
    "arab": 21440,
    "abond": 15737,
    "bil": 20770,
    "Ġaffect": 1387,
    "Ġrenowned": 26193,
    "onies": 6806,
    "Ġdepl": 14044,
    "gates": 20871,
    "Ġmutter": 23951,
    "Ġkept": 3345,
    "held": 3839,
    "combination": 25486,
    "Ġripp": 11218,
    "awk": 23112,
    "turkish": 24532,
    "Ġrole": 15993,
    "ugging": 23289,
    "Ġcelerity": 17434,
    "Ġeyed": 12665,
    "ortations": 22256,
    "ia": 1260,
    "pre": 649,
    "03": 20747,
    "itude": 1418,
    "´": 117,
    "Ġger": 21589,
    "Ġoar": 6236,
    "delights": 19700,
    "entions": 17974,
    "Ġpreser": 6041,
    "Ġinferences": 17934,
    "Ġnorthwards": 19545,
    "ô": 181,
    "mitted": 5213,
    "Ġintegral": 25008,
    "Ġcistern": 17379,
    "Ġpuppy": 12402,
    "Ġenslaved": 26314,
    "Ġupdating": 2691,
    "Ġperpendicular": 7209,
    "affair": 14654,
    "Ġeaster": 15671,
    "benefit": 24642,
    "Ġspending": 10922,
    "Ġadditionally": 1175,
    "Ú": 155,
    "Ġzeros": 3323,
    "employ": 10894,
    "Ġsports": 18310,
    "Ġfasten": 11131,
    "Ġrolled": 4430,
    "Ġdistributing": 22677,
    "Ġor": 437,
    "Ġ101": 24408,
    "solemn": 19816,
    "metallic": 19879,
    "ures": 837,
    "Ġcourtesy": 9943,
    "Ġclaim": 5106,
    "Ġfleece": 10613,
    "Ġremain": 1874,
    "Ġdistressing": 12215,
    "Ġlatitude": 8329,
    "Ġdramat": 23215,
    "Ġappropriate": 2249,
    "Ġintending": 11701,
    "Ġundertake": 14478,
    "retired": 11933,
    "Ġmurderous": 8316,
    "Ġalmanac": 26484,
    "Ġstyle": 6946,
    "ection": 4948,
    "impulse": 20644,
    "Ġfurlongs": 20722,
    "Ġsevent": 18202,
    "fortunate": 4792,
    "Ġchoked": 9262,
    "Ġringleader": 26212,
    "Ġchivalrous": 20513,
    "Ġinstances": 5567,
    "uncontrollable": 20594,
    "Ġunbecoming": 22062,
    "Ġforced": 4354,
    "anyone": 16592,
    "Ġappl": 1783,
    "Ġexe": 3994,
    "housekeeper": 24100,
    "speeches": 25239,
    "Ġcomputation": 963,
    "fortunately": 9449,
    "promise": 12247,
    "Ġconversations": 9423,
    "idual": 1555,
    "Ġdisquiet": 18552,
    "pendicular": 6499,
    "Ġangry": 5498,
    "ĠÂ£": 5006,
    "lotte": 3329,
    "uccas": 21105,
    "Ġpeels": 22689,
    "begging": 22495,
    "reduc": 5459,
    "Ġutterance": 14761,
    "Ġcrammed": 16469,
    "Ġbluff": 16515,
    "looks": 12014,
    "Ġglu": 15664,
    "Ġcommunicate": 10576,
    "irm": 3107,
    "doubtful": 24791,
    "Ġcollected": 2612,
    "Ġsleepless": 14581,
    "Ġtapering": 8770,
    "itious": 8778,
    "Ġoverwhelming": 17101,
    "Ġoverboard": 6044,
    "Ġfluctuating": 24416,
    "é": 170,
    "Ġcontinu": 1167,
    "pp": 384,
    "Ġcheating": 16364,
    "Ġwhelmed": 25999,
    "Ġconfirmed": 11138,
    "Ġfates": 15574,
    "Ġapothe": 12372,
    "Ġmutineer": 19416,
    "vinegar": 25420,
    "garden": 15024,
    "Ġbarrier": 16568,
    "Ġrepresentation": 14403,
    "Ġinglorious": 24423,
    "Ġcorps": 13029,
    "consequ": 18506,
    "Ġafforded": 8029,
    "bott": 9104,
    "Ġcurled": 8227,
    "Ġdoubtful": 19141,
    "Ġplutarch": 22601,
    "idents": 6150,
    "Ġrecursive": 4782,
    "Ġexception": 11215,
    "Ġ118": 19697,
    "perquis": 22184,
    "coll": 23778,
    "ingle": 1041,
    "Ġnobler": 14172,
    "Ġrollicking": 24450,
    "Ġunprincipled": 20707,
    "Ġ11": 5318,
    "linearity": 1649,
    "Ġclothes": 4997,
    "Ġital": 10865,
    "Ġesteemed": 10587,
    "Ġshipw": 12975,
    "Ġpallet": 21479,
    "Ġends": 8238,
    "Ġuntamed": 19163,
    "Ġlogical": 14485,
    "Ġexpand": 9305,
    "Ġstalked": 20427,
    "mered": 8218,
    "quaker": 15759,
    "Ġmart": 10778,
    "entiating": 3436,
    "eliest": 14744,
    "Ġod": 4439,
    "gay": 11487,
    "Ġpasseng": 12967,
    "escaped": 14229,
    "Ġpiteous": 17915,
    "emph": 21924,
    "Ġtarquin": 23609,
    "Ġredress": 23750,
    "Ġvirtuous": 14753,
    "scans": 22987,
    "Ġprudent": 9183,
    "æ": 167,
    "doom": 23375,
    "Ġunc": 2125,
    "inquiry": 15140,
    "Ġfreemason": 23207,
    "Ġtokens": 1773,
    "ario": 14246,
    "enhall": 13848,
    "woes": 21132,
    "author": 9858,
    "Ġdeafened": 25651,
    "Ġquiet": 3258,
    "sailors": 9920,
    "Ġvia": 2385,
    "Ġfashion": 4299,
    "Ġlaughed": 5059,
    "Ġbind": 12578,
    "Ġfowl": 11329,
    "Ġfinancier": 26582,
    "Ġsepulch": 15282,
    "atiate": 12544,
    "repeat": 25151,
    "Ġcy": 13872,
    "usually": 10283,
    "thereby": 14445,
    "breeding": 16674,
    "Ġvast": 3294,
    "cheer": 9435,
    "elfth": 22367,
    "Ġcatastrop": 3346,
    "Ġdignified": 15594,
    "I": 45,
    "cle": 3955,
    "Ġemail": 19074,
    "Ġnorms": 3664,
    "osc": 18387,
    "oll": 5456,
    "Ġeveryday": 22770,
    "Ġdelight": 2549,
    "onomy": 12543,
    "ach": 435,
    "Ġjud": 3356,
    "Ġbead": 21748,
    "kes": 3677,
    "preser": 9758,
    "Ġconj": 8460,
    "Ġconcealed": 7495,
    "Ġperse": 6272,
    "Ġconvert": 11839,
    "Ġbashaw": 25633,
    "dignity": 15343,
    "Ġdart": 4586,
    "Ġtell": 1467,
    "shr": 10979,
    "tranqu": 14704,
    "crack": 19839,
    ":âĢĶâĢĺ": 24192,
    "Ġrivals": 20270,
    "gypt": 8261,
    "prevent": 11792,
    "Ġcandles": 9906,
    "Ġtrusty": 24103,
    "bearer": 18521,
    "Ġresounds": 22540,
    "his": 1413,
    "Ġantip": 24176,
    "Ġtraffic": 23082,
    "Ġduplicates": 17215,
    "Ġfuller": 11155,
    "Ġmainten": 16109,
    "Ġadvertise": 25388,
    "king": 3058,
    "Ġplaguy": 22602,
    "Ġstarbuck": 2193,
    "Ġdashed": 6010,
    "sake": 13781,
    "ittleness": 22377,
    "Ġfurn": 3709,
    "gracious": 11828,
    "published": 26142,
    "Ġflag": 7242,
    "Ġmatrices": 4969,
    "iza": 6255,
    "ishnoo": 10954,
    "Ġtruest": 16702,
    "Ġsane": 21220,
    "diff": 9112,
    "ve": 322,
    "Ġparted": 5929,
    "Ġeddies": 23436,
    "Ġheroine": 24542,
    "mopol": 15394,
    "twice": 14619,
    "Ġpall": 7582,
    "Ġelbowed": 16106,
    "readiness": 19361,
    "el": 306,
    "Ġghast": 9208,
    "rist": 10121,
    "bies": 15310,
    "Ġlouisa": 13544,
    "kempt": 20940,
    "Ġsplitting": 4384,
    "Ġregent": 18591,
    ",--": 2479,
    "Ġtools": 11607,
    "spin": 22732,
    "confid": 14865,
    "Ġtons": 11548,
    "Ġpattered": 19029,
    "Ġdiscoverer": 26035,
    "Ġward": 10154,
    "Ġcellars": 24665,
    "rocious": 21537,
    "Ġspas": 10921,
    "Ġmock": 3690,
    "Ġquestioned": 14618,
    "postp": 24635,
    "unreasonable": 18162,
    "inking": 6709,
    "Ġcircumnav": 12423,
    "Ġcoleridge": 18766,
    "Ġmeetings": 16529,
    "Ġproducing": 11896,
    "))": 1516,
    "Ġbecomes": 6396,
    "Ġdamps": 23473,
    "Ġblew": 9044,
    "Ġchrysalis": 26537,
    "Ġgunw": 6212,
    "otions": 7180,
    "Ġwedding": 4858,
    "Ġejaculation": 20253,
    "robber": 21535,
    "Ġcharged": 9852,
    "Ġcolonies": 14373,
    "Ġcrowded": 8012,
    "ids": 21761,
    "Ġfasting": 16352,
    "Ġlights": 8959,
    "Ġrelations": 5852,
    "wick": 5362,
    "tomb": 21092,
    "Ġvolume": 6769,
    "Ġunexplored": 26517,
    "Ġbalancing": 2434,
    "Ġbeside": 5192,
    "fol": 4862,
    "aloes": 21500,
    "Ġcent": 3251,
    "adequately": 20318,
    "Ġgolden": 5336,
    "ted": 789,
    "Ġleather": 7606,
    "bitter": 11239,
    "waste": 21133,
    "ceptive": 15962,
    "theless": 4260,
    "Ġspont": 22129,
    "Ġwhalebone": 10976,
    "Ġsupple": 22999,
    "Ġreceipt": 20354,
    "Ġbrains": 2632,
    "hills": 13734,
    "acting": 22628,
    "Ġequal": 4136,
    "Ġswitzerland": 10378,
    "ocation": 14624,
    "Ġalways": 1698,
    "Ġmeek": 21810,
    "Ġcreep": 22724,
    "Ġhereafter": 9328,
    "bres": 11470,
    "Ġsatisfying": 23692,
    "á": 162,
    "Ġswap": 23050,
    "robust": 19726,
    "year": 11094,
    "plan": 15811,
    "Ġtimes": 2304,
    "Ġreigns": 21669,
    "Ġsignifies": 19203,
    "Ġarched": 10931,
    "threw": 21982,
    "Ġchili": 25561,
    "irous": 8837,
    "kings": 17582,
    "Ġskilfully": 20522,
    "sunlight": 24851,
    "reflect": 19864,
    "bs": 3749,
    "understood": 13214,
    "ville": 6088,
    "erick": 13846,
    "Ġmaintains": 2145,
    "Ġunansw": 22056,
    "Ġdock": 15927,
    "Ġimpotently": 22388,
    "Ġwandering": 8653,
    "wanderer": 25423,
    "Ġul": 6828,
    "Ġunique": 12774,
    "Ġbarbs": 10530,
    "Ġwield": 21289,
    "Ġinhale": 20299,
    "ces": 580,
    "Ġrecurrent": 1806,
    "Ġerr": 1323,
    "Ġhabitation": 14800,
    "Ġkinds": 14504,
    "Ġdin": 3624,
    "tuesday": 17689,
    "expl": 9281,
    "Ġdam": 2217,
    "awake": 14450,
    "Ġgrop": 12660,
    "Ġattendant": 11284,
    "arabian": 26445,
    "lott": 6650,
    "Ġsurmise": 12292,
    "Ġmccarthy": 5145,
    "silenced": 24422,
    "Ġhug": 6979,
    "tr": 3577,
    "grate": 23410,
    "Ġjunk": 15950,
    "Ġamounted": 18510,
    "removed": 15514,
    "cruising": 12276,
    "entirely": 7782,
    "wheel": 22863,
    "distance": 12149,
    "Ġampl": 22474,
    "Ġrefer": 18697,
    "six": 7141,
    "Ġexotic": 21829,
    "Ġlimbs": 5966,
    "Ġeverywhere": 9794,
    "weight": 2940,
    "measured": 19988,
    "Ġwallowing": 24040,
    "seven": 8463,
    "Ġheard": 1400,
    "grammar": 6435,
    "Ġled": 3520,
    "Ġconveyed": 8335,
    "Ġwoody": 23517,
    "Ġactive": 7916,
    "Ġaccorded": 24087,
    "Ġcompanionship": 14918,
    "Ġnewcomer": 26040,
    "Ġagainst": 1699,
    "aster": 1868,
    "Ġstrengthen": 20699,
    "Ġcasualties": 25512,
    "Ġintermediate": 18590,
    "osity": 14184,
    "ill": 447,
    "Ġstri": 2803,
    "ready": 2362,
    "born": 7543,
    "Ġnotable": 18222,
    "bar": 7541,
    "Ġknow": 632,
    "Ġincommun": 25308,
    "inkle": 22613,
    "Ġfearfulness": 23511,
    "minute": 11273,
    "gments": 12466,
    "display": 19154,
    "lleg": 20950,
    "Ġstaving": 21735,
    "Ġkeenest": 12158,
    "Ġantiqu": 12141,
    "Ġmistifying": 23718,
    "Ġ116": 24439,
    "ele": 9113,
    "sorting": 17003,
    "Ġasiatic": 20428,
    "Ġtower": 8319,
    "ught": 2750,
    "Ġwhel": 15863,
    "ources": 2789,
    "Ġderivative": 2999,
    "Ġtear": 6723,
    "Ġwatches": 11081,
    "Ġconceited": 12087,
    "Ġgre": 1579,
    "icherry": 15133,
    "Ġproble": 1108,
    "Ġhandled": 12934,
    "Ġdiligent": 25075,
    "tern": 4223,
    "Ġpau": 17906,
    "bent": 15309,
    "olerably": 11671,
    "nantucketer": 24974,
    "solving": 3099,
    "Ġgait": 13328,
    "Ġcand": 3274,
    "Ġsocietal": 11435,
    "Ġsupercil": 23453,
    "Ġimpenetrable": 17395,
    "smoke": 17221,
    "incidentally": 20538,
    "whilst": 18371,
    "Ġshaved": 22000,
    "Ġcannon": 14152,
    "ration": 2005,
    "Ġcrawling": 17044,
    "Ġrejoinder": 24598,
    "Ġtrousers": 12412,
    "Ġantics": 24177,
    "Ġcommanders": 23866,
    "stave": 21641,
    "Ġcrouching": 23442,
    "solid": 16378,
    "Ġrosy": 18457,
    "Ġloops": 8851,
    "Ġpublished": 11240,
    "cottagers": 20046,
    "Ġqueerest": 16412,
    "Ġwaned": 17791,
    "ouder": 17900,
    "Ġapparelled": 20435,
    "Ġsixty": 7723,
    "lim": 9605,
    "apparently": 15202,
    "sink": 11520,
    "ustry": 18356,
    "Ġparamount": 15875,
    "Ġchanged": 5243,
    "Ġforemast": 12002,
    "Ġgrace": 5374,
    "Ġw": 272,
    "Ġignor": 4011,
    "unch": 14056,
    "absurd": 21793,
    "answer": 11729,
    "Ġdisaster": 12883,
    "Ġasse": 8160,
    "Ġdefend": 9338,
    "Ġconducting": 16648,
    "ands": 21864,
    "Ġchestnut": 19671,
    "Ġinev": 10180,
    "istry": 22107,
    "Ġcapacious": 19175,
    "Ġconsoling": 19455,
    "ets": 1161,
    "Ġtops": 14585,
    "this": 1439,
    "please": 8177,
    "Ġfamiliar": 5511,
    "Ġenchanting": 17038,
    "pagan": 17284,
    "Ġinjurious": 24269,
    "Ġnatives": 17950,
    "goodness": 19288,
    "inordinate": 21193,
    "ihood": 20921,
    "regularly": 13206,
    "Ġ76": 24261,
    "Ġkeels": 11060,
    "Ġbillow": 14776,
    "ance": 478,
    "Ġteaches": 18809,
    "Ġmale": 9647,
    "pain": 7350,
    "Ġundergo": 23236,
    "Ġboarding": 12083,
    "Ġroving": 22401,
    "carries": 19526,
    "Ġchest": 5185,
    "onness": 21253,
    "Ġtuesday": 9625,
    "Ġcomical": 11676,
    "farm": 15349,
    "Ġhulls": 13924,
    "Ġaffrighted": 13570,
    "Ġcomprehens": 8320,
    "Ġpersecut": 16951,
    "Ġcraven": 16468,
    "em": 388,
    "weakness": 16121,
    "Ġingenious": 12345,
    "Ġhaughty": 11448,
    "rote": 4593,
    "Ġinscrut": 10032,
    "Ġstring": 11824,
    "Ġvitality": 15170,
    "gia": 20875,
    "sugg": 11841,
    "Ġintegrity": 12310,
    "Ġperv": 15987,
    "Ġaboriginal": 14187,
    "Ġsink": 4342,
    ",âĢĶâĢĺ": 23801,
    "itiousness": 21332,
    "Ġaffability": 14385,
    "Ġsteered": 11092,
    "mercenary": 26315,
    "fierce": 25255,
    "disposition": 10040,
    "landsmen": 25059,
    "Ġmounts": 17806,
    "boo": 16347,
    "dington": 11898,
    "ster": 1958,
    "activity": 22629,
    "Ġblossom": 26312,
    "direful": 25896,
    "oriental": 23719,
    "Ġaromatic": 25925,
    "Ġmid": 2617,
    "building": 17307,
    "Ġhoe": 23350,
    "Ġrosings": 4608,
    "club": 26379,
    "lier": 20948,
    "creator": 26380,
    "atical": 10770,
    "Ġinduce": 7763,
    "interested": 9504,
    "Ġbackwards": 12921,
    "Ġbottomless": 12103,
    "sis": 1971,
    "Ġdisadvantage": 12886,
    "Ġprevents": 2559,
    "rity": 13774,
    "lish": 1950,
    "Ġserpents": 13074,
    "usive": 8190,
    "Ġbank": 4877,
    "week": 12927,
    "Ġextreme": 2517,
    "Ġrippling": 17276,
    "woods": 13417,
    "Ġrelates": 12977,
    "bub": 15314,
    "itor": 12562,
    "Ġsailor": 3534,
    "Ġremembrance": 8318,
    "Ġmut": 3581,
    "Ġleaving": 3904,
    "exceedingly": 9565,
    "Ġdomains": 6615,
    "Ġbestowing": 16970,
    "request": 21240,
    "sford": 5998,
    "enger": 10772,
    "afer": 17480,
    "Ġhence": 4989,
    "Ġsurging": 19133,
    "Ġhumbly": 16195,
    "altern": 17941,
    "Ġren": 3844,
    "Ġhermits": 22072,
    "waist": 13416,
    "Ġmaketh": 15185,
    "orting": 9733,
    "ignant": 11128,
    "cc": 469,
    "Ġempt": 5051,
    "Ġpoint": 2057,
    "Ġdepths": 4328,
    "significant": 25082,
    "Ġbusiness": 2234,
    "crimes": 16696,
    "odings": 4400,
    "Ġpred": 667,
    "Ġvertu": 23888,
    "Ġriotous": 20543,
    "irection": 2390,
    "Ġinnumerable": 13349,
    "Ġdynamically": 4243,
    "grim": 19106,
    "daggoo": 13705,
    "Ġfunere": 22257,
    "Ġtashtego": 4486,
    "Ġnot": 413,
    "Ġplayfulness": 23636,
    "Ġborn": 5224,
    "Ġswimmer": 19457,
    "whip": 22235,
    "Ġseemingly": 9316,
    "Z": 62,
    "tw": 2811,
    "Ġbrewed": 23345,
    "Ġnews": 3817,
    "Ġcounties": 23302,
    "business": 5609,
    "ivility": 12783,
    "Ġsk": 959,
    "Ġsidel": 9634,
    "Ġjoll": 11762,
    "umb": 3477,
    "ann": 5802,
    "Ġplank": 7033,
    "ssing": 3807,
    "Ġpurple": 10432,
    "Ġtistig": 26412,
    "Ġbouquet": 20682,
    "zetts": 17713,
    "Ġlunatic": 24992,
    "Ġstops": 3166,
    "reserved": 13841,
    "heartedness": 24827,
    "arter": 17893,
    "Ġ99": 10744,
    "Ġchair": 3660,
    "theories": 18078,
    "derstand": 653,
    "Ġtrustworthy": 24105,
    "Ġstrife": 18614,
    "endeavoured": 12277,
    "Ġalgorithms": 859,
    "Ġdependen": 1830,
    "pshire": 21023,
    "Ġthine": 7374,
    "Ġbelong": 3886,
    "Ġpaddock": 25037,
    "Ġfluctuations": 5516,
    "ertion": 12037,
    "Ġdents": 13909,
    "acles": 8519,
    "ipotent": 10957,
    "southern": 20407,
    "Ġwhe": 439,
    "herself": 4890,
    "varied": 23182,
    "Ġprolonged": 8358,
    "Ġbarbaric": 10012,
    "Ġhasn": 12923,
    "Ġur": 5539,
    "ature": 521,
    "distinguish": 19571,
    "Ġmates": 4872,
    "ieves": 4005,
    "stubb": 6018,
    "lemag": 21370,
    "Ġadequate": 20307,
    "Ġshort": 2227,
    "Ġdestroy": 5772,
    "perch": 18338,
    "Ġrepute": 18034,
    "Ġrustic": 14963,
    "Ġninety": 13599,
    "Ġentity": 10340,
    "lashed": 20953,
    "Ġbarrow": 12066,
    "estim": 14168,
    "Ġ26": 10469,
    "sinking": 17667,
    "Ġpron": 6451,
    "Ġunseasonable": 26519,
    "succeeded": 15173,
    "Ġballasted": 23977,
    "Ġtransient": 18480,
    "Ġimpertin": 6933,
    "wrapped": 15207,
    "combe": 7662,
    "Ġavenues": 25429,
    "Ġchild": 2260,
    "Ġvari": 832,
    "bone": 5611,
    "ogr": 18670,
    "Ġbloodshed": 23799,
    "lic": 17586,
    "Ġdeepest": 8214,
    "cim": 8719,
    "Ġrephrased": 26476,
    "tent": 21063,
    "Ġdeaf": 12717,
    "Ġdripping": 13145,
    "Ġbeckoning": 20500,
    "raged": 9210,
    "downward": 16618,
    "Ġdeliverance": 15155,
    "Ġrome": 12152,
    "Ġalders": 21782,
    "wantonly": 25149,
    "bag": 7542,
    "expressing": 16800,
    "Ġchronicled": 25328,
    "Ġincorporate": 20453,
    "Ġimpatient": 5602,
    "Ġreco": 9786,
    "Ġescort": 23503,
    "ping": 9614,
    "ilar": 10214,
    "Ġindefinitely": 25221,
    "igms": 3044,
    "yarn": 15455,
    "Ġstudied": 11113,
    "Ġcondescend": 19953,
    "Ġglowed": 24864,
    "Ġdaint": 15589,
    "Ġdrowned": 9550,
    "reeable": 3610,
    "Ġundeserving": 18268,
    "Ġcongratulated": 19765,
    "Ġastonishing": 10500,
    "Ġassociations": 14961,
    "front": 12167,
    "Ġpestilent": 25777,
    "prim": 23808,
    "Ġsorry": 4210,
    "Ġsequentially": 4914,
    "pening": 2832,
    "Ġidea": 2489,
    "shaw": 6864,
    "scent": 13017,
    "Ġunprecedented": 15851,
    "Ġtusk": 25425,
    "Ġtaking": 3247,
    "Ġaccepted": 7751,
    "Ġcopying": 17067,
    "ersed": 10258,
    "Ġresulting": 24197,
    "Ġportents": 14678,
    "Ġhandy": 12933,
    "Ġnomin": 10189,
    "istical": 8489,
    "Ġineffable": 17330,
    "Ġanecdote": 26354,
    "different": 6501,
    "Ġgeometric": 3217,
    "Ġaberde": 22275,
    "pleasures": 24043,
    "'t": 3144,
    "willingly": 11979,
    "Ġkneel": 14804,
    "Ġairth": 23319,
    "pop": 17630,
    "Ġbrick": 8924,
    "ď": 208,
    "oul": 4699,
    "vy": 21106,
    "Ġretort": 23069,
    "jaws": 20931,
    "maged": 15391,
    "Ġchecking": 23285,
    "osp": 6854,
    "desc": 1394,
    "eat": 11481,
    "igger": 21699,
    "Ġtut": 8769,
    "enged": 23145,
    "Ġaunts": 21199,
    "Ġunmolested": 15243,
    "Ġpage": 6978,
    "pedest": 24695,
    "Ġtinge": 25087,
    "Ġregain": 22577,
    "enormous": 26166,
    "remember": 7262,
    "Ġrecovering": 11857,
    "Ġinternal": 2246,
    "ĠĠĠĠĠĠĠĠĠĠĠĠĠĠĠĠĠĠĠĠĠĠĠĠĠĠĠĠĠĠĠĠĠĠĠĠĠĠĠĠĠĠĠĠĠĠĠĠĠĠĠĠĠ": 20038,
    "mountains": 15178,
    "Ġreplied": 2264,
    "ws": 7355,
    "Ġque": 4159,
    "Ġfeature": 752,
    "ix": 1802,
    "powerful": 24847,
    "Ġferry": 24514,
    "Ġmeanings": 18607,
    "Ġhandkerchief": 8912,
    "Ġdecline": 9285,
    "Ġarticles": 7108,
    "Ġquench": 22417,
    "Ġfellows": 8257,
    "Ġhack": 12752,
    "Ġmills": 21310,
    "Ġsubsisted": 19117,
    "Ġam": 658,
    "Ġstoried": 18072,
    "Ġs": 265,
    "Ġpoorly": 9853,
    "Ġbru": 13893,
    "Ġalice": 1482,
    "Ġhowling": 8509,
    "Ġbern": 17858,
    "Ġsullenly": 17171,
    "Ġhedge": 8364,
    "Ġcommerce": 11014,
    "Ġfails": 13311,
    "rollable": 13943,
    "belong": 12119,
    "liv": 9606,
    "izens": 18135,
    "Ġoverfitting": 1540,
    "brow": 15313,
    "Ġmanaging": 22323,
    "obli": 23093,
    "Ġorph": 9715,
    "Ġreverend": 15257,
    "Ġshone": 7404,
    "Ġlivelong": 25511,
    "Ġvaults": 17152,
    "Ġschooner": 16746,
    "Ġreason": 1373,
    "Ġdeposit": 17267,
    "Ġanalytical": 22889,
    "Ġpel": 17902,
    "Ġweakness": 9965,
    "Ġsettling": 11061,
    "affording": 23776,
    "Ġcounting": 13093,
    "Ġterm": 2266,
    "Ġshowing": 7732,
    "Ġcrav": 19172,
    "Ġgazette": 19499,
    "bask": 20775,
    "Ġmug": 21311,
    "iop": 20918,
    "Ġpains": 5965,
    "Ġsubsets": 2346,
    "ieved": 3228,
    "Ġstaring": 8823,
    "Ġcommunic": 5751,
    "noted": 22749,
    "Ġglances": 10371,
    "Ġpumps": 8427,
    "income": 15484,
    "Ġanticipation": 17056,
    "return": 5489,
    "Ġpollard": 20384,
    "Ġinoffensive": 21496,
    "featured": 24168,
    "ordinary": 4408,
    "Ġimpressive": 14998,
    "Ġsmoke": 4715,
    "âĢĶ_": 3200,
    "Ġcrusad": 23702,
    "paid": 15412,
    "dman": 10087,
    "fingers": 17368,
    "Ġhookah": 16969,
    "osed": 1959,
    "Ġdiscernment": 15053,
    "Ġswears": 16462,
    "Ġmeditating": 20041,
    "ptember": 10892,
    "Ġthank": 3789,
    "hatherley": 17567,
    "lifeless": 24311,
    "count": 4213,
    "Ġcraggy": 23529,
    "admon": 21759,
    "Ġestablished": 9068,
    "Ġrobe": 18456,
    "Ġoffer": 4843,
    "Ġsignificant": 8633,
    "tooth": 18579,
    "Ġhedgehog": 10643,
    "Ġunintellig": 22024,
    "Ġbarren": 11205,
    "Ġjove": 9266,
    "Ġdistributed": 18661,
    "Ġser": 1671,
    "Ġrude": 7234,
    "akness": 14193,
    "Ġodious": 12147,
    "Ġentreaty": 10528,
    "Ġbumping": 25280,
    "prehend": 14241,
    "Ġbeat": 4491,
    "ayed": 12708,
    "Ġluck": 4880,
    "Ġpsal": 15612,
    "Ġsympathy": 6346,
    "Ġtinged": 20081,
    "Ġjournal": 15216,
    "duck": 22410,
    "Ġsurpl": 19132,
    "approbation": 11457,
    "Ġirritation": 20265,
    "Ġringing": 13329,
    "together": 3554,
    "Ġwant": 1117,
    "Ġcalam": 13030,
    "Ġpopulation": 16826,
    "fell": 6953,
    "Ġanat": 8124,
    "mysteries": 26051,
    "initely": 7568,
    "Ġczar": 12570,
    "Ġinclinations": 19538,
    "Ġimpet": 11776,
    "Ġcourses": 10410,
    "Ġbleeding": 14878,
    "Ġbat": 10794,
    "queness": 18147,
    "Ġrepulses": 26070,
    "grees": 20885,
    "Ġmemb": 14027,
    "olly": 3224,
    "Ġquarrels": 16565,
    "uneven": 23680,
    "countryman": 24639,
    "ton": 1726,
    "Ġfaces": 6009,
    "Ġbenevolence": 9525,
    "lie": 12479,
    "ornamented": 26594,
    "Ġmasts": 6465,
    "earth": 6502,
    "Ġend": 1484,
    "Ġsleeper": 8600,
    "footed": 19688,
    "Ġthrob": 21516,
    "gre": 5788,
    "erative": 21271,
    "stands": 22433,
    "Ġpo": 737,
    "Ġintercepted": 25826,
    "cried": 8724,
    "ca": 20792,
    "erm": 787,
    "'s": 2472,
    "beyond": 8881,
    "garn": 20869,
    "Ġimpo": 3440,
    "Ġmoles": 22430,
    "Ġwits": 15529,
    "Ġexcept": 3311,
    "Ġvulture": 17337,
    "blue": 13691,
    "Ġune": 4599,
    "Ġninetieth": 25357,
    "Ġlazily": 11379,
    "ole": 9612,
    "Ġimplicit": 19956,
    "visitors": 13346,
    "ò": 179,
    "Ġovercame": 9741,
    "Ġemerged": 8684,
    "Ġcit": 10782,
    "Ġwasting": 12724,
    "Ġarchangel": 8542,
    "happen": 19330,
    "onden": 13842,
    "Ġparlour": 12318,
    "Ġrecklessness": 24745,
    "Ġconversation": 3328,
    "years": 6883,
    "Ø": 153,
    "Ġwatch": 2743,
    "Ġfamine": 16324,
    "above": 8148,
    "Ġsadly": 7302,
    "ep": 441,
    "Ġsprung": 11248,
    "Ġharvest": 13413,
    "Ġmisled": 22759,
    "Ġinconsiderable": 21493,
    "Ġolder": 9325,
    "Ġsweet": 3465,
    "russian": 22177,
    "Ġcards": 7580,
    "Ġgodly": 19080,
    "Ġmaritime": 23038,
    "Ġtwin": 12924,
    "Ġneedn": 19227,
    "cream": 15329,
    "Ġcautious": 12250,
    "uberance": 25916,
    "Ġimpact": 10295,
    "come": 2380,
    "Ġbelonged": 6922,
    "Ġaccents": 14207,
    "ld": 385,
    "Ġindebted": 8707,
    "Ġunless": 4091,
    "Ġcomstock": 21849,
    "bears": 22488,
    "Ġinequalities": 26452,
    "Ġdeaden": 23459,
    "Ġdarling": 12600,
    "Ġeternities": 19941,
    "Ġcaught": 3729,
    "Ġinsufferable": 13929,
    "Ġpaddington": 17094,
    "Ġswart": 14432,
    "Ġlandsmen": 11350,
    "Ġneutral": 12740,
    "usiveness": 22281,
    "Ġclair": 6269,
    "Ġhurt": 7701,
    "highly": 24764,
    "Ġproportionably": 19969,
    "burg": 16772,
    "Ġfacts": 2290,
    "Ġinterests": 14568,
    "saving": 21058,
    "Ġgro": 4397,
    "tossing": 18580,
    "Ġsandwiched": 26609,
    "Ġum": 10210,
    "Ġdestination": 19149,
    "Ġunsur": 22020,
    "Ġevident": 6611,
    "Ġrefuse": 5739,
    "Ġniece": 5712,
    "Ġcontortions": 18476,
    "Ġungenerous": 18266,
    "Ġscal": 1611,
    "Ġdigesting": 19808,
    "throne": 25657,
    "Ġseat": 4949,
    "Ġrepay": 19081,
    "lot": 3206,
    "Ġeleg": 6192,
    "Ġhaz": 12751,
    "endeavouring": 15014,
    "Ġnom": 21517,
    "Ġloite": 22109,
    "latitudes": 17195,
    "Ġassociated": 12246,
    "Ġdomin": 10467,
    "Ġdictionaries": 12337,
[...]
