{
  "metadata": {
    "vocab_size": 26614,
    "algorithm": "BPE",
    "created_at": "2026-09-16 07:10:15",
    "special_tokens": [
      "<PAD>",
      "<SOS>",
      "<EOS>",
      "<UNK>",
      "<MASK>"
    ]
  },
  "vocab": {
    "race": 11630,
    "need": 10979,
    "output": 4399,
    "Ġbumping": 25280,
    "Ġyork": 11664,
    "Ġcanvassed": 19933,
    "Ġfifty": 4623,
    "Ġabund": 8864,
    "Ġhackney": 20431,
    "Ġnash": 5819,
    "Ġshorter": 4496,
    "Ġprestige": 22233,
    "mency": 18925,
    "inj": 9151,
    "Ġindecision": 25781,
    "Ġprojected": 16871,
    "Ġexperience": 1382,
    "Ġanomaly": 25636,
    "band": 3058,
    "Ġlegisl": 23533,
    "Ġmap": 2395,
    "Ġtornado": 24621,
    "hurry": 24763,
    "Ġways": 5396,
    "bast": 10076,
    "cry": 12443,
    "Ġcustody": 13646,
    "Ġchicha": 15934,
    "iluvian": 18060,
    "gone": 6504,
    "Ġpeered": 18668,
    "overlooked": 23320,
    "rows": 6442,
    "Ġmutters": 23953,
    "Ġdifferent": 1430,
    "secret": 12234,
    "Ġanticipating": 17058,
    "Ġbowled": 23768,
    "Ġrejecting": 17051,
    "farmer": 25899,
    "Ġpainfully": 13141,
    "rant": 11516,
    "isticated": 1589,
    "Ġgracefully": 13390,
    "Ġannouncement": 14832,
    "Ġpail": 15604,
    "Ġwrenched": 12555,
    "everything": 6324,
    "presented": 12987,
    "Ġboth": 1658,
    "ribbed": 16410,
    "Ġtempest": 8213,
    "ct": 309,
    "ides": 2163,
    "therly": 18344,
    "gazed": 15360,
    "shutters": 20312,
    "noticed": 14342,
    "Ġwindsor": 16887,
    "reated": 10302,
    "Ġdistressed": 8514,
    "Ġswung": 6449,
    "Ġstrain": 6023,
    "Ġinflex": 20633,
    "Ġagainst": 1697,
    "ilib": 4119,
    "Ġegyptian": 13585,
    "behaviour": 11301,
    "Ġgar": 10838,
    "Ġelab": 22639,
    "rious": 11687,
    "Ġunlocked": 14118,
    "Ġfed": 5530,
    "Ġhomeward": 9391,
    "ission": 6457,
    "Ġpitied": 14691,
    "Ġstared": 8454,
    "Ġcared": 8782,
    "Ġproblem": 1269,
    "Ġswing": 13033,
    "Ġdreamed": 16629,
    "beam": 16036,
    "Ġvancouver": 26565,
    "Ġholds": 7975,
    "Ġslavery": 16305,
    "Ġmagnifying": 16319,
    "maritime": 24173,
    "anct": 21356,
    "footed": 19688,
    "Ġnone": 3221,
    "gunpowder": 25339,
    "Ġhip": 17920,
    "Ġbottle": 7490,
    "torm": 11530,
    "Ġscene": 3095,
    "perseus": 26005,
    "ics": 3258,
    "Ġconversed": 13185,
    "Ġremain": 1873,
    "Ġfetching": 16896,
    "Ġunheard": 22020,
    "Ġsenior": 17171,
    "Ġdiscretion": 10347,
    "Ġpartially": 13121,
    "nical": 20990,
    "Ġshops": 21998,
    "iss": 2179,
    "Ġinsertion": 26343,
    "resh": 8403,
    "Ġforesee": 19125,
    "Ġdivert": 23592,
    "Ġmental": 21318,
    "Ġvalued": 12180,
    "Ġimpetuously": 20370,
    "gardiner": 12289,
    "Ġobed": 8535,
    "Ġimply": 18443,
    "Ġsubmission": 22787,
    "Ġobstacles": 19834,
    "Ġissu": 6253,
    "Ġsaleve": 17390,
    "Ġyields": 19655,
    "Ġshort": 2228,
    "Ġparad": 2841,
    "interference": 23736,
    "Ġbaleful": 24982,
    "thanked": 24331,
    "Ġatonement": 21941,
    "Ġnotable": 18222,
    "eler": 1572,
    "ased": 1266,
    "Ġglimpse": 6944,
    "Ġcircumstances": 3923,
    "Ġ**": 4721,
    "/`)": 13659,
    "Ġmistakes": 16540,
    "ohog": 9844,
    "ominy": 13977,
    "Ġdescend": 7427,
    "weave": 22682,
    "Ġeither": 2603,
    "ard": 465,
    "Ġoce": 3031,
    "Ġobserve": 4670,
    "Ġturn": 1297,
    "Ġbodings": 21389,
    "ise": 707,
    "Ġunconcerned": 20508,
    "lid": 20944,
    "dev": 7632,
    "Ġdilig": 8349,
    "Ġinspired": 2520,
    "send": 15421,
    "Ġdisabled": 18561,
    "Ġwires": 21294,
    "bureau": 20788,
    "two": 3857,
    "puted": 8845,
    "Ġconsists": 11976,
    "sar": 12502,
    "Ġexerting": 21836,
    "immediate": 20092,
    "azed": 9398,
    "including": 23589,
    "nett": 16219,
    "Ġcannibals": 10587,
    "india": 22368,
    "Ġaunts": 21199,
    "may": 3678,
    "tender": 14472,
    "philosophers": 25252,
    "compass": 9458,
    "Ġliberally": 16830,
    "son": 2331,
    "Ġcrash": 12000,
    "Ġprovincial": 20649,
    "Ġslu": 13835,
    "unearthly": 19272,
    "Ġbranch": 8331,
    "thinks": 16641,
    "59": 17473,
    "Ġfill": 5701,
    "Ġshaded": 14104,
    "pal": 9616,
    "nosed": 20991,
    "Ġbeloved": 5572,
    "Ġtechnique": 2289,
    "Ġcasting": 12098,
    "atic": 4020,
    "Ġexisting": 12719,
    "Ġagent": 6277,
    "along": 6012,
    "definition": 23115,
    "Ġstag": 6148,
    "Ġinexpress": 12632,
    "Ġforc": 9227,
    "borean": 25743,
    "Ġtrunk": 7205,
    "Ġunsatisfied": 22039,
    "Ġbefall": 8828,
    "Ġhawaiian": 25366,
    "Ġoverthrown": 18431,
    "Ġmilliner": 19883,
    "Ġparish": 8854,
    "rings": 10722,
    "mentioning": 24885,
    "Ġbristol": 14379,
    "Ġsket": 18727,
    "eminence": 20097,
    "Ġensue": 18190,
    "Ġtoy": 15631,
    "Ġscope": 15941,
    "af": 2381,
    "Ġcalves": 13032,
    "Ġdecidedly": 9508,
    "azz": 8261,
    "march": 13754,
    "Ġmountainous": 16599,
    "quarters": 24946,
    "governed": 25405,
    "Ġane": 9181,
    "Ġaveraging": 2421,
    "als": 2042,
    "Ġlif": 10195,
    "merry": 16536,
    "Ġdecrease": 4201,
    "shunned": 22462,
    "Ġcorrected": 10448,
    "Ġvalues": 2651,
    "Ġignorantly": 19494,
    "impossible": 8823,
    "Ġsolemnisation": 24113,
    "bey": 10314,
    "among": 6256,
    "ims": 7176,
    "Ġshrugged": 12766,
    "cri": 17505,
    "consternation": 16912,
    "Ġfearfully": 23511,
    "france": 24282,
    "Ġneighbourhood": 5126,
    "Ġyet": 1028,
    "tasted": 17687,
    "burnt": 20078,
    "Ġjulia": 22299,
    "ĺ": 251,
    "Ġacquit": 18897,
    "Ġmoves": 14231,
    "isance": 17847,
    "Ġaver": 1284,
    "ents": 1898,
    "strate": 12671,
    "Ġwedded": 16674,
    "Ġpagoda": 19787,
    "Ġappear": 2485,
    "ending": 1989,
    "Ġurging": 24505,
    "Ġchose": 7413,
    "tor": 15431,
    "Ġmelted": 19620,
    "Ġpre": 507,
    "Ġcontinuation": 22914,
    "spirit": 11313,
    "Ġannoyance": 20661,
    "Ġtwitched": 20442,
    "Ġhistories": 14687,
    "Ġfree": 3375,
    "Ġburg": 23650,
    "ton": 1725,
    "Ġmizzen": 20288,
    "Ġspeedy": 11172,
    "staking": 21645,
    "isol": 17846,
    "âĢĻ,": 14069,
    "Ġimputation": 22169,
    "loss": 22505,
    "gus": 13724,
    "Ġravine": 18645,
    "Ġcomplexity": 1694,
    "Ġassented": 17337,
    "Ġblot": 9811,
    "allic": 12810,
    "Ġeuroc": 14958,
    "umed": 6554,
    "Ġmamm": 25090,
    "grate": 23410,
    "persons": 24174,
    "Ġdoorway": 14497,
    "ela": 21566,
    "Ġducks": 25157,
    "Ġnet": 3626,
    "Ġsupplication": 25491,
    "Ġbrigandish": 25487,
    "Ġhousekeeping": 18943,
    "Ġglimmer": 15140,
    "iff": 3902,
    "Ġassurances": 9999,
    "Ġadmits": 23553,
    "Ġrotation": 25474,
    "Ġflowing": 14411,
    "wondrous": 12336,
    "Ġleap": 5824,
    "sil": 5282,
    "Ġpressed": 6041,
    "Ġgodson": 23356,
    "Ġsund": 8247,
    "Ġrecommending": 24337,
    "Ġcommunication": 1869,
    "ples": 6845,
    "culiarity": 11142,
    "Ġconv": 2971,
    "Ġchanging": 11751,
    "Ġleviathan": 3289,
    "Ġklan": 23658,
    "Ġnamely": 20688,
    "Ġnick": 21520,
    "Ġcommenced": 8531,
    "iating": 3203,
    "riv": 3107,
    "Ġadapted": 11039,
    "Ġfaded": 10809,
    "pents": 11512,
    "Ġgrove": 12144,
    "Ġenvy": 13186,
    "Ġotherwise": 4657,
    "Ġdespatched": 23827,
    "engaged": 7452,
    "Ġintercept": 14268,
    "rem": 1520,
    "mpt": 6653,
    "Ġburtons": 19252,
    "ifully": 13183,
    "unexpected": 15775,
    "Ġexpose": 10327,
    "Ġpleasantly": 14520,
    "treasures": 26152,
    "charm": 13989,
    "crippled": 26384,
    "Ġinstruction": 14343,
    "fellow": 6792,
    "Ġfavourably": 16360,
    "ĠĠĠĠĠĠĠĠĠĠĠĠĠĠĠĠĠĠĠĠĠĠĠĠĠĠĠĠĠĠĠĠĠĠĠĠĠĠĠĠĠĠĠĠ": 12151,
    "Ġintegration": 9867,
    "Ġteasing": 11888,
    "Ġdazz": 11593,
    "Ġbrick": 8925,
    "Ġcrooked": 11281,
    "Ġgrass": 5177,
    "Ġranks": 21972,
    "Ġwow": 15527,
    "Ġpur": 2219,
    "Ġprimitive": 25061,
    "ć": 200,
    "ffic": 22148,
    "Ġvir": 7001,
    "disgrace": 16457,
    "Ġendeared": 26498,
    "Ġleaders": 16627,
    "Ġsurpl": 19132,
    "Ġembarr": 7446,
    "Ġbrad": 8786,
    "bing": 7791,
    "woe": 21134,
    "Ġsuccession": 12099,
    "Ġtrophy": 20005,
    "Ġarguing": 25470,
    "ver": 331,
    "Ġcoach": 6867,
    "Ġoccupy": 14730,
    "Ġdialogue": 12402,
    "oars": 9614,
    "Ġfolding": 19726,
    "Ġprior": 11318,
    "Ġnautical": 17385,
    "Ġcharacteristic": 12045,
    "Ġapo": 9630,
    "Ġnorris": 23199,
    "slackened": 26094,
    "Ġanimating": 23422,
    "Ġglared": 13015,
    "ositions": 10283,
    "Ġtingling": 15091,
    "Ġze": 8544,
    "Ġsprung": 11248,
    "bearers": 18524,
    "Ġclams": 19987,
    "Ġskeletons": 16791,
    "dest": 4105,
    "Ġmatlock": 18803,
    "Ġdisdained": 15009,
    "pul": 8753,
    "Ġascending": 14853,
    "Ġconquest": 15745,
    "Ġchosen": 7201,
    "Ġuses": 1208,
    "Ġaf": 781,
    "shel": 11928,
    "Ġmending": 17804,
    "ten": 1558,
    "Ġresolved": 3796,
    "Ġestimated": 16594,
    "iliary": 21723,
    "Ġimprinted": 22387,
    "Ġpermitting": 22398,
    "Ġtunnels": 24620,
    "Ġsanction": 20024,
    "better": 7119,
    "Ġmagician": 25058,
    "Ġconfl": 11137,
    "Ġinve": 17928,
    "Ġinscribed": 24938,
    "multiple": 15106,
    "Ġdat": 499,
    "held": 3838,
    "spass": 18687,
    "Ġharm": 5017,
    "waist": 13417,
    "Ġsuperflu": 14554,
    "Ġingen": 9049,
    "Ġmar": 1309,
    "ists": 4000,
    "Ġroast": 18457,
    "âĢĶâĢľ": 2972,
    "Ġclinched": 17393,
    "saved": 15430,
    "inable": 11555,
    "irene": 15912,
    "theories": 18078,
    "Ġbankers": 24302,
    "Ġtrials": 16789,
    "Ġapparatus": 24908,
    "ā": 194,
    "Ġdream": 3537,
    "Ġfrayed": 23297,
    "careful": 14865,
    "Ġmillar": 13860,
    "Ġsimilitude": 19208,
    "Ġincorpor": 13164,
    "acc": 2534,
    "Ġcrosses": 23059,
    "icle": 10834,
    "anish": 2617,
    "Ġhanover": 20584,
    "bowing": 24454,
    "Ġminima": 3463,
    "shri": 14235,
    "Ġest": 2268,
    "alvan": 21501,
    "brushing": 20787,
    "Ġstra": 2992,
    "Ġblotches": 25314,
    "kn": 5791,
    "Ġclo": 6042,
    "Ġflag": 7242,
    "Ġdiggings": 24649,
    "Ġneatly": 17016,
    "Ġmonstrous": 7789,
    "vacancies": 25919,
    "asmuch": 10194,
    "aet": 15306,
    "Ġenhancement": 23741,
    "mens": 20968,
    "skin": 10568,
    "heavenly": 20043,
    "Ġgrunt": 18735,
    "favour": 9548,
    "mass": 12487,
    "degree": 12798,
    "wandering": 20283,
    "Ġpips": 9840,
    "dl": 20822,
    "Ġsnow": 3705,
    "Ġwonderland": 23423,
    "iled": 1765,
    "cong": 10687,
    "girdling": 26389,
    "Ġcon": 348,
    "J": 46,
    "unbounded": 21882,
    "Ġsupply": 6066,
    "tern": 4224,
    "Ġcases": 3961,
    "Ġabatement": 22273,
    "Ġburke": 19250,
    "Ġconvention": 25546,
    "ep": 441,
    "Ġunlabeled": 3798,
    "ats": 4253,
    "Ġplainly": 4379,
    "expected": 5780,
    "Ġsickness": 10538,
    "Ġferocious": 17418,
    "Ġintimacy": 8700,
    "Ġeyelashes": 26106,
    "ufactured": 15180,
    "Ġflanks": 11912,
    "Ġcreditor": 24290,
    "Ġencamped": 22799,
    "arabian": 26446,
    "Ġcontrols": 1730,
    "Ġdeposit": 17268,
    "Ġmutual": 8296,
    "ex": 623,
    "idation": 5022,
    "Ġsmile": 4271,
    "Ġchestnuts": 24381,
    "Ġbad": 3987,
    "before": 3112,
    "amy": 8467,
    "provided": 13636,
    "Ġwithdra": 6398,
    "fishing": 20858,
    "Ġbelong": 3883,
    "Ġdistributions": 1051,
    "Ġhur": 2098,
    "Ġlovely": 4709,
    "poison": 14391,
    "old": 800,
    "Ġscruples": 15077,
    "Ġattending": 3285,
    "Ġknelt": 12156,
    "Ġimpudence": 26241,
    "Ġtri": 4813,
    "Ġcosine": 2378,
    "Ġfearlessness": 19160,
    "Ġtree": 5284,
    "hess": 4747,
    "vo": 11539,
    "Ġconnected": 5393,
    "Ġrings": 11698,
    "Ġgracechurch": 12196,
    "title": 17287,
    "allest": 5485,
    "Ġtu": 6968,
    "Ġcasts": 19424,
    "Ġprophesy": 26061,
    "number": 10114,
    "than": 4090,
    "Ġpugnacious": 26451,
    "autions": 20766,
    "ulsive": 10233,
    "Ġbeam": 2878,
    "Ġassuredly": 14821,
    "roll": 9196,
    "Ġminimizes": 2047,
    "Ġmasterly": 23991,
    "abulary": 4800,
    "Ġexpert": 18868,
    "obser": 11099,
    "dled": 9110,
    "elly": 17979,
    "Ġunderstand": 833,
    "rence": 5555,
    "Ġdedu": 5584,
    "tuesday": 17690,
    "heav": 5694,
    "Ġconfusing": 23303,
    "Ĉ": 201,
    "Ġrepelled": 19085,
    "sec": 6152,
    "Ġsem": 1877,
    "Ġ130": 24781,
    "impressions": 20697,
    "Ġutensils": 23514,
    "Ġtension": 13823,
    "Ġcritical": 7475,
    "Ġsuns": 23271,
    "Ġmal": 5221,
    "able": 451,
    "tin": 6116,
    "Ġevol": 2812,
    "Ġguardianship": 17419,
    "Ġarticles": 7108,
    "Ġdeeper": 2083,
    "Ġblessings": 24176,
    "Ġlvi": 21550,
    "arts": 6563,
    "Ġfeat": 10937,
    "dying": 10694,
    "ers": 406,
    "holmes": 4428,
    "Ġcivil": 4678,
    "Ġalow": 18099,
    "roylott": 20025,
    "ig": 322,
    "Ġrestoration": 19024,
    "Ġmiracle": 15092,
    "Ġspecks": 14307,
    "Ġspecific": 2001,
    "Ġallev": 18100,
    "Ġcousin": 3703,
    "Ġreport": 6191,
    "Ġserpents": 13075,
    "rier": 9241,
    "Ġphaeton": 17464,
    "Ġnom": 21516,
    "Ġeu": 6390,
    "abhorred": 17335,
    "resolutions": 26164,
    "brown": 15316,
    "Ġhorrify": 23816,
    "Ġsensation": 6896,
    "innacle": 7519,
    "Ġvalleys": 14918,
    "anx": 8783,
    "**": 4685,
    "Ġnow": 692,
    "rippling": 24713,
    "Ġbery": 13897,
    "Ġregardless": 19323,
    "Ġdistended": 16042,
    "Ġlexic": 15721,
    "sweetly": 25134,
    "Ġsparing": 22126,
    "trampled": 26333,
    "Ġimpelling": 22383,
    "Ġglassy": 19559,
    "Ġburnished": 23995,
    "cules": 12389,
    "Ġpines": 12614,
    "Ġinfluence": 5515,
    "Ġarising": 10933,
    "constant": 11324,
    "Ġannounce": 13337,
    "simultaneously": 19863,
    "Ġparting": 9782,
    "Ġleisure": 6539,
    "Ġcau": 13880,
    "Ġflurry": 18860,
    "Ġsavagely": 26323,
    "Ġcanoe": 9722,
    "Ġsimpleton": 16333,
    "Ġmatch": 4527,
    "phur": 16149,
    "Ġsecluded": 11991,
    "engineer": 23145,
    "Ġtouches": 20569,
    "Ġdecoyed": 18486,
    "Ġagencies": 18541,
    "Ġpince": 21469,
    "cooks": 25067,
    "Ġtidy": 17093,
    "Ġtrades": 8231,
    "Ġasph": 21895,
    "Ġwords": 1322,
    "Ġgrope": 17994,
    "Ġstave": 11650,
    "Ġwisely": 13269,
    "Ġutility": 23513,
    "Ġreiterating": 26474,
    "Ġhypotheses": 4384,
    "Ġclosed": 4602,
    "Ġwaterloo": 11979,
    "matter": 5136,
    "Ġtwopence": 18660,
    "ineas": 15819,
    "aging": 2241,
    "Ġovertaken": 18430,
    "melted": 25206,
    "justified": 19002,
    "Ġcheese": 9376,
    "Ġmessage": 13522,
    "Ġtackle": 9512,
    "Ġboone": 11839,
    "houses": 9599,
    "Ġharpoon": 3616,
    "Ġdancing": 5703,
    "Ġdit": 21418,
    "Ġweedy": 15789,
    "Ġlizard": 12651,
    "loud": 11500,
    "Ġreverber": 19868,
    "Ġadmiring": 16479,
    "Ġsidel": 9635,
    "Ġabsurdly": 19958,
    "glit": 23848,
    "Ġcolumb": 22849,
    "Ġriotous": 20543,
    "Ġthrilling": 19747,
    "understand": 1141,
    "Ġfinite": 2327,
    "Ġparagra": 15877,
    "Ġmaze": 23828,
    "narrow": 11507,
    "notwithstanding": 22744,
    "Ġpleasures": 11143,
    "aphs": 22332,
    "Ġmodest": 15913,
    "Ġexposure": 16094,
    "Ġ182": 13235,
    "Ġworship": 10366,
    "Ġassociation": 24711,
    "Ġimpo": 3442,
    "Ġmockery": 12105,
    "surv": 24213,
    "Ġbenediction": 18783,
    "Ġshall": 1142,
    "Ġlifelessly": 23047,
    "cnns": 3621,
    "Ġscot": 5643,
    "vember": 10855,
    "Ġbarbed": 14834,
    "mble": 1408,
    "Ġst": 332,
    "Ġclattered": 22350,
    "Ġreward": 6144,
    "wait": 11320,
    "Ġpea": 14316,
    "Ġceler": 15548,
    "Ġtakings": 20571,
    "Ġlayer": 1011,
    "instinctively": 26327,
    "Ġliv": 6679,
    "bold": 17487,
    "Ġreligion": 11415,
    "Ġcounted": 12137,
    "Ġimpenitent": 26548,
    "Ġdespised": 14666,
    "Ġdusting": 24596,
    "Ġapiece": 16813,
    "Ġbore": 5079,
    "pure": 17626,
    "Ġfiss": 21410,
    "Ġsketches": 26270,
    "Ġgerman": 6141,
    "Ġstrung": 22615,
    "Ġignoble": 19397,
    "Ġ*": 1271,
    "Ġobliged": 4285,
    "Ġweariness": 19793,
    "Ġfresher": 23207,
    "dishon": 20402,
    "Ġcertain": 1559,
    "Ġchatting": 24747,
    "Ġhamp": 12627,
    "Ġentailed": 11028,
    "acle": 4715,
    "Ġsprinkled": 19495,
    "Ġmustering": 18662,
    "Ġmonotonous": 13260,
    "Ġwhittingham": 26197,
    "Ġexcite": 11963,
    "Ġsuddenness": 23380,
    "Ġeveryone": 8917,
    "Ġsir": 1570,
    "ó": 180,
    "Ġhar": 5814,
    "Ġbingley": 1676,
    "Ġpolice": 4674,
    "Ġadded": 2715,
    "discernible": 20549,
    "albatross": 15627,
    "Ġconver": 804,
    "Ġkeep": 2357,
    "aguy": 21907,
    "Ġinvolves": 1094,
    "Ġaccounting": 14573,
    "darkened": 24517,
    "Ġgover": 2462,
    "Ġdiscoveries": 13357,
    "Ġuncertain": 4069,
    "wal": 10133,
    "mouthful": 25208,
    "groom": 8739,
    "Ġicicles": 25264,
    "Ġeasy": 3452,
    "Ã¦us": 14816,
    "Ġberry": 19745,
    "Ġdeploy": 2663,
    "sphere": 22730,
    "Ġminut": 2205,
    "Ġriddle": 14819,
    "rendered": 22336,
    "introduced": 15123,
    "Ġhumorousness": 25377,
    "stately": 18021,
    "unusually": 15777,
    "Ġlawless": 19433,
    "Ġqueequeg": 2011,
    "Ġguided": 10460,
    "melancholy": 12351,
    "Ġpoultry": 17440,
    "Ġostent": 13583,
    "moral": 14801,
    "Ġrud": 8477,
    "Ġhag": 12622,
    "Ġwood": 2294,
    "$": 8,
    "Ġruff": 14348,
    "Ġbills": 17860,
    "superstitious": 17280,
    "agreeable": 5829,
    "Ġsomebody": 7911,
    "Ġcrabs": 19173,
    "latitudes": 17196,
    "th": 407,
    "Ġtroubling": 26547,
    "itary": 4751,
    "sensible": 20050,
    "Ġpulse": 13113,
    "ailed": 3248,
    "Ô": 149,
    "arse": 7160,
    "Ġtire": 17720,
    "Ġdiameter": 19866,
    "frisco": 16787,
    "Ġraised": 4660,
    "Ġnewly": 9337,
    "investments": 25532,
    "Ġcreat": 1404,
    "Ġinexperience": 26099,
    "Ġfilling": 13407,
    "ulum": 21860,
    "Ġthank": 3790,
    "itively": 21329,
    "Ġpathways": 11153,
    "Ġplacid": 11824,
    "Ġascended": 8665,
    "Ġwreath": 25936,
    "Ġrebell": 21666,
    "latitude": 25259,
    "ire": 492,
    "Ġsymmet": 11745,
    "Ġcurtains": 22966,
    "Ġretained": 7173,
    "herself": 4890,
    "Ġtruthful": 23865,
    "Ġprocuring": 16870,
    "seated": 11671,
    "Ġcrumpled": 16441,
    "Ġadored": 18293,
    "scho": 8759,
    "Ġinspector": 6498,
    "Ġcomplex": 749,
    "doubted": 17526,
    "Ġhump": 5853,
    "canoes": 16228,
    "Ġprize": 11946,
    "victim": 25530,
    "Ġborn": 5224,
    "transformer": 25015,
    "Ġpatience": 3002,
    "values": 4975,
    "outside": 12801,
    "rr": 17650,
    "Ġtranqu": 4603,
    "Ġincident": 6280,
    "Ġly": 2271,
    "Ġsympath": 4861,
    "pate": 21009,
    "twenty": 6607,
    "Ġlooked": 1801,
    "Ġfatigued": 13464,
    "Ġpersist": 16283,
    "Ġwidower": 24235,
    "Ġless": 1938,
    "communication": 25881,
    "Ġapology": 8327,
    "greatly": 16623,
    "linearity": 1652,
    "Ġcoherent": 3264,
    "early": 20117,
    "Ġresembled": 18033,
    "Ġner": 1648,
    "Ġrejoinder": 24597,
    "money": 8749,
    "Ġaltern": 7394,
    "Ġjud": 3358,
    "Ġboa": 22634,
    "oth": 1183,
    "Ġbeamed": 23720,
    "obvious": 9356,
    "Ġcomplement": 23708,
    "Ġwished": 3728,
    "Ġflo": 2588,
    "!_": 7329,
    "Ġauger": 21202,
    "Ġlothario": 26184,
    "wag": 21122,
    "rative": 17652,
    "Ġamendment": 26024,
    "Ġharmless": 9964,
    "ulity": 10886,
    "Ġfevers": 22204,
    "Ġstoke": 10395,
    "Ġhousehold": 8567,
    "ffy": 18317,
    "ific": 486,
    "Ġillustrious": 17109,
    "Ġnantucketer": 6914,
    "Ġguests": 12285,
    "ising": 2257,
    "chants": 21689,
    "Ġwhispers": 14699,
    "Ġside": 1386,
    "Ġ41": 24078,
    "Ġrose": 3443,
    "ĠdÃ¦mon": 7844,
    "ore": 418,
    "Ġsocially": 22084,
    "Ġreliable": 18775,
    "Ġmari": 6813,
    "scorched": 25697,
    "lim": 9606,
    "Ġhanded": 8216,
    "Ġliveliest": 24775,
    "Ġrefreshing": 20263,
    "Ġtroop": 24897,
    "darted": 20831,
    "infall": 21187,
    "Ġyielded": 14871,
    "Ġvolcanoes": 24146,
    "Ġpods": 17914,
    "impatience": 25500,
    "Ġscenes": 5730,
    "dependence": 17167,
    "Ġab": 528,
    "Ġmeddle": 19490,
    "Ġcoop": 14269,
    "athed": 7828,
    "Ġvocabulary": 4995,
    "Ġwallowing": 24040,
    "Ġreco": 9790,
    "Ġye": 899,
    "Ġloun": 7166,
    "Ġtrim": 15967,
    "Ġmilitia": 13316,
    "wl": 17702,
    "avating": 18606,
    "quod": 2166,
    "comprehend": 14361,
    "except": 5383,
    "Ġirreducible": 5519,
    "ose": 717,
    "hecy": 21205,
    "Ġcompose": 12899,
    "amples": 1821,
    "key": 5462,
    "Ġlip": 6532,
    "aying": 15746,
    "concealed": 25115,
    "Ġacquire": 2722,
    "asy": 5294,
    "Ġthanks": 6707,
    "Ġhom": 9186,
    "regulated": 23466,
    "Ġimpart": 11778,
    "Ġpresented": 5183,
    "cho": 2759,
    "Ġbearing": 5298,
    "Ġ78": 19612,
    "Ġloveliness": 13607,
    "Ġavowal": 19413,
    "Ġliberal": 12188,
    "Ġrender": 8304,
    "Ġwinc": 9642,
    "Ġscratch": 25564,
    "Ġconfound": 23300,
    "comrade": 20623,
    "Ġtwelvemonth": 12175,
    "Ġunwarrantable": 26353,
    "sufficient": 6635,
    "inent": 9628,
    "ary": 986,
    "Ġbrain": 2087,
    "estim": 14169,
    "Ġanxiety": 5408,
    "Ġhitting": 21484,
    "Ġsinusoid": 4781,
    "Ġassured": 4370,
    "Ġinconstant": 21493,
    "Ġmillion": 14986,
    "Ġand": 295,
    "happiness": 6469,
    "ck": 436,
    "Ġluff": 15650,
    "concerning": 9067,
    "Ġheeded": 13402,
    "Ġkept": 3347,
    "cruising": 12277,
    "ouched": 4636,
    "Ġstepfather": 7221,
    "Ġvacancy": 9044,
    "Ġow": 8407,
    "Ġspeak": 2232,
    "sign": 8387,
    "Ġbreak": 2867,
    "Ġdesisted": 22977,
    "hereafter": 19214,
    "Ġobstructed": 24677,
    "accents": 19209,
    "activation": 3229,
    "Ġmult": 1022,
    "verd": 21724,
    "colonel": 8284,
    "offic": 7466,
    "Ġknows": 4161,
    "Ġoath": 7833,
    "Ġheightened": 8648,
    "Ġfre": 1571,
    "pike": 11514,
    "@": 36,
    "Ġcleansed": 26293,
    "Ġinscrutable": 10672,
    "Ġignorant": 5343,
    "Ġhunter": 5401,
    "Ġplanisp": 24054,
    "Ġvagueness": 25737,
    "heum": 17747,
    "Ġquestions": 3972,
    "Ġemble": 13970,
    "Ġrickety": 26506,
    "Ġbuying": 23993,
    "adventure": 17233,
    "Ġcuring": 21342,
    "ities": 1825,
    "Ġblo": 2733,
    "Ġcuriously": 13007,
    "Ġcredit": 4818,
    "Ġexclamation": 8698,
    "lived": 12484,
    "Ġshower": 11708,
    "Ġporpoise": 7106,
    "Ġanswers": 7070,
    "middle": 11310,
    "bes": 6641,
    "heaven": 8052,
    "Ġuttered": 7280,
    "Ġpawnbroker": 13657,
    "Ġinvests": 14867,
    "Ġabsorb": 25112,
    "Ġcomforted": 19389,
    "Ġprofession": 6207,
    "Ġcreativity": 2923,
    "Ġcheever": 23281,
    "Ġunrem": 18241,
    "Ġorb": 22088,
    "story": 9212,
    "ah": 1831,
    "remaining": 20219,
    "irt": 3075,
    "Ġfeed": 2125,
    "Ġaugmented": 15104,
    "wheeling": 22865,
    "Ġprick": 14477,
    "Ġtumb": 21168,
    "vint": 21113,
    "Ġalternate": 19984,
    "Ē": 211,
    "meantime": 9091,
    "supplement": 14796,
    "Ġluxuriant": 20393,
    "akened": 7415,
    "pieces": 8754,
    "gratulation": 24349,
    "Ġdru": 8421,
    "airs": 2224,
    "Ġsculpture": 26016,
    "Ġmathemat": 3199,
    "Ġstreaked": 19113,
    "Ġturks": 14598,
    "prodig": 16425,
    "Ġdiscompose": 25579,
    "Ġdif": 870,
    "Ġarrog": 18342,
    "Ġpout": 17906,
    "Ľ": 254,
    "Ġreligions": 20106,
    "degra": 22138,
    "trick": 19411,
    "Ġcubic": 20086,
    "Ġoverspread": 14206,
    "Ġburnwell": 13265,
    "Ġfestival": 25445,
    "Ġdropt": 23675,
    "australian": 20560,
    "Ġfervent": 14895,
    "mysteries": 26050,
    "ulate": 5233,
    "Ġbacked": 12923,
    "inc": 2522,
    "Ġmcc": 21305,
    "und": 4120,
    "Ġdecanter": 22441,
    "Ġassum": 4066,
    "appropri": 22838,
    "soles": 18686,
    "hued": 20910,
    "get": 1021,
    "remarks": 23186,
    "Ġcrushing": 20175,
    "Ġbarbar": 6935,
    "combe": 7661,
    "requ": 7148,
    "Ġrobes": 16260,
    "Ġexactness": 23603,
    "Ġremonstrance": 20621,
    "Ġbusier": 23334,
    "Ġoscillations": 2896,
    "Ġdeception": 18137,
    "Ġambergris": 8705,
    "bloom": 24689,
    "Ġelijah": 9099,
    "una": 21866,
    "Ġloomings": 24949,
    "fly": 13713,
    "Ġfooting": 14482,
    "Ġsuggestive": 11297,
    "spade": 10339,
    "Ġsometimes": 2168,
    "Ġdownst": 3557,
    "ounted": 5030,
    "imp": 3034,
    "dia": 2132,
    "remes": 21236,
    "Ġhimmale": 18334,
    "belled": 24033,
    "peasant": 23108,
    "Ġcompetent": 11814,
    "apsed": 6295,
    "factories": 19842,
    "unhes": 21872,
    "Ġtoast": 21509,
    "Ġsaville": 15886,
    "³": 116,
    "Ġroom": 1462,
    "Ġeagerly": 4990,
    "olent": 8154,
    "Ġranged": 10257,
    "ips": 2592,
    "destro": 13308,
    "Ġgrand": 3592,
    "Ġequator": 7461,
    "Ġoccupies": 24005,
    "Ġroof": 6564,
    "Ġintensified": 17018,
    "hook": 12050,
    "Ġthickness": 13275,
    "Ġrestrain": 8964,
    "Ġduring": 872,
    "stirring": 20424,
    "Ġten": 2390,
    "matic": 4616,
    "Ġoccupant": 16651,
    "Ġwaste": 9233,
    "aswag": 21543,
    "Ġcaptioning": 23017,
    "Ġbulk": 5591,
    "Ġconfide": 13097,
    "Ġacres": 14312,
    "Ġpropag": 16346,
    "Ġconstant": 6309,
    "ica": 10198,
    "Ġcapering": 21352,
    "Ġspectators": 19405,
    "relate": 24008,
    "cocks": 23560,
    "bonnet": 25742,
    "Ġhorizon": 6632,
    "Ġexterm": 21833,
    "meaning": 2907,
    "constantinople": 25507,
    "Ġpush": 9184,
    "Ġsigned": 11177,
    "elope": 14460,
    "nep": 20985,
    "iates": 13736,
    "\"": 6,
    "Ġexploded": 15907,
    "Ġfusion": 21412,
    "adays": 14012,
    "thouse": 21979,
    "reach": 17757,
    "Ġlesson": 7276,
    "Ġtrick": 7020,
    "chard": 21684,
    "orts": 2556,
    "windward": 24160,
    "Ġestates": 16458,
    "70": 17475,
    "Ġaloof": 21782,
    "Ġunluckily": 20100,
    "stool": 23817,
    "to": 713,
    "Ġtexel": 25923,
    "urged": 18047,
    "Ġattendance": 12179,
    "Ġairy": 23314,
    "Ġtread": 9408,
    "animation": 16979,
    "Ġaccuracy": 1114,
    "Ġdefines": 1739,
    "Ġcalls": 6744,
    "killed": 15375,
    "Ġtag": 15467,
    "Ġinitials": 11014,
    "Ġlarger": 1401,
    "features": 14794,
    "atical": 10771,
    "Ġmerciless": 25246,
    "Ġjesty": 18405,
    "rane": 17653,
    "Ġjudged": 12081,
    "braid": 17494,
    "Ã": 132,
    "Ġtouched": 6000,
    "Ġinflict": 15001,
    "reeable": 3611,
    "arches": 10816,
    "Ġcommended": 18656,
    "Ġdemoniac": 15063,
    "Ġroving": 22400,
    "pervading": 18953,
    "Ġequilibrium": 4142,
    "Ġglossy": 15226,
    "Ġhistorically": 19376,
    "Ġaberdeen": 26541,
    "Ġdiscerned": 25003,
    "Ġunwaning": 25170,
    "Ġsway": 7571,
    "Ġwherefore": 8524,
    "Ġendeavors": 16545,
    "É": 138,
    "Ġalcoves": 26486,
    "Ġgrammatical": 13538,
    "Ġmotions": 8280,
    "Ġclapped": 9744,
    "Ġchanges": 2287,
    "Ġresults": 7308,
    "mast": 3601,
    "_.âĢĶ": 23471,
    "Ġearnest": 3927,
    "Ġharrow": 17925,
    "network": 1885,
    "Ġsavor": 23873,
    "Ġhovering": 10178,
    "goodbye": 12054,
    "Ġsnoring": 23738,
    "vely": 3864,
    "Ġdarker": 13118,
    "Ġsoaring": 22083,
    "Ġmak": 10778,
    "considerable": 10548,
    "Ġjudges": 14685,
    "ensive": 6279,
    "Ġugliness": 20425,
    "Ġsquare": 2400,
    "iem": 20916,
    "Ġalike": 8146,
    "Ġhurled": 10429,
    "midnight": 14901,
    "Ġsumat": 14129,
    "gle": 20868,
    "Ġwhel": 15864,
    "Ġdecaying": 2250,
    "Ġoverheard": 11772,
    "Ġstatue": 23146,
    "Ġunfair": 19506,
    "Ġpant": 10817,
    "Ġkin": 15902,
    "voice": 7816,
    "ict": 587,
    "Ġbedroom": 7277,
    "bedroom": 14676,
    "rap": 21625,
    "acca": 23596,
    "Ġgleamed": 17077,
    "hus": 5072,
    "Ġ3": 3984,
    "clifford": 23154,
    "mmet": 10988,
    "turning": 8316,
    "Ġbaltic": 18794,
    "Ġthee": 2623,
    "terror": 18128,
    "hung": 8380,
    "roused": 16652,
    "Ġevangelists": 20338,
    "Ġspeeding": 23563,
    "reported": 24493,
    "Ġrecognise": 12052,
    "endeav": 7150,
    "Ġco": 731,
    "Ġthrice": 10575,
    "Ġchoose": 5981,
    "Ġramadan": 9575,
    "Ġramble": 9312,
    "Ġinflicted": 11365,
    "ustomed": 6098,
    "Ġpurplish": 19140,
    "Ġha": 400,
    "Ġpatentee": 25586,
    "Ġoriginated": 24122,
    "Ġpunishment": 9955,
    "Ġforwards": 12700,
    "Ġrounded": 14437,
    "ife": 1024,
    "Ġlay": 585,
    "told": 7811,
    "Ġmus": 3397,
    "Ġreaders": 18914,
    "ument": 5240,
    "ume": 4835,
    "Ġprotect": 6337,
    "official": 24914,
    "wouldn": 23534,
    "Ġmagical": 23096,
    "looked": 6083,
    "Ġcheerfulness": 10516,
    "Ġcrucial": 9892,
    "Ġremark": 2145,
    "Ġfamous": 5255,
    "nuee": 17429,
    "Ġabst": 9265,
    "claps": 23150,
    "pair": 21011,
    "Ġtorrent": 17092,
    "till": 6965,
    "grew": 17555,
    "Ġcuff": 17829,
    "Ġreduces": 2345,
    "Ġgle": 7858,
    "Ġfloats": 9412,
    "Ġhandsom": 11124,
    "Ġdiscove": 16153,
    "Ġfalse": 4342,
    "Ġmidway": 14604,
    "ufact": 10733,
    "Ġcom": 368,
    "Ġcontest": 18473,
    "Ġcontention": 22423,
    "ceived": 1965,
    "Ġextracts": 9364,
    "rably": 21630,
    "tut": 15433,
    "Ġkelson": 18350,
    "Ġenlivened": 26207,
    "Ġimputed": 12805,
    "transferred": 24514,
    "mole": 22698,
    "muring": 17601,
    "¨": 106,
    "Ġinn": 4588,
    "leaped": 17843,
    "fits": 13717,
    "Ġtwee": 22672,
    "Ġtorn": 5999,
    "Ġwhisper": 6205,
    "Ġthoroughly": 8347,
    "uming": 8491,
    "Ġcramped": 23529,
    "Ġmisunderstand": 18704,
    "Ġdegradation": 2632,
    "Ġjup": 15950,
    "Ġevid": 3499,
    "fted": 9118,
    "Ġhousemaid": 14464,
    "Ġnobly": 22238,
    "Ġwarmly": 8987,
    "ript": 4154,
    "Ġrecess": 10847,
    "Ġhealthful": 24055,
    "Ġadds": 1804,
    "Ġlub": 15646,
    "Ġtechniques": 2866,
    "Ġvehicle": 20137,
    "putting": 14099,
    "Ġrouted": 24907,
    "Ġaffected": 5577,
    "Ġmachinations": 25767,
    "Ġhowl": 12851,
    "Ġfrigate": 13080,
    "Ġindestruct": 22955,
    "Ġfills": 12591,
    "Ġindelicacy": 25695,
    "Ġsounded": 8590,
    "Ġvomit": 21945,
    "bingley": 4927,
    "humoredly": 26324,
    "Ġoverlooking": 22358,
    "Ġstrengthen": 20699,
    "Ġsoup": 7067,
    "humoured": 11236,
    "Ġtests": 8957,
    "Ġunrelieved": 20544,
    "Ġblood": 3165,
    "Ġreckless": 13457,
    "Ġoffer": 4843,
    "iquet": 17575,
    "inex": 14091,
    "apparently": 15203,
    "Ġtongs": 9960,
    "Ġsill": 10765,
    "yset": 21144,
    "Ġbeaver": 18085,
    "ese": 4441,
    "Ġpeasants": 12330,
    "deficient": 23114,
    "Ġconfided": 19034,
    "female": 20665,
    "thence": 23398,
    "icest": 21561,
    "reeling": 21243,
    "gy": 2095,
    "utral": 12660,
    "Ġresting": 7961,
    "conceivable": 17130,
    "sake": 13782,
    "Ġhoped": 5488,
    "pressed": 6587,
    "Ġtell": 1467,
    "Ġrat": 4352,
    "Ġbordering": 17228,
    "Ġplank": 7033,
    "own": 745,
    "prejudiced": 17296,
    "Ġgreeted": 23209,
    "Ġsperm": 1843,
    "Ġturtle": 4204,
    "Ġscaled": 2104,
    "Ġchapel": 9522,
    "hunter": 10555,
    "Ġgoug": 17990,
    "Ġscotland": 6639,
    "Ġlady": 1585,
    ",âĢĶâĢľ": 10069,
    "belated": 24034,
    "Ġovercome": 6043,
    "Ġworks": 5858,
    "Ġtransferred": 16467,
    "ount": 1113,
    "daring": 20828,
    "Ġagents": 9765,
    "Ġsequential": 2129,
    "Ġplanting": 16084,
    "Ġhav": 12751,
    "Ġensigns": 23688,
    "ill": 447,
    "aded": 3548,
    "these": 3241,
    "Ġcentrally": 23829,
    "Ġpromising": 10399,
    "renew": 24450,
    "Ġerudite": 26350,
    "Ġfloating": 6604,
    "Ġhereby": 10357,
    "abounding": 25979,
    "Ġmeanwhile": 5736,
    "Ġpallidness": 25604,
    "unning": 4491,
    "Ġanticipatingly": 26102,
    "Ġripp": 11219,
    "absent": 21786,
    "Ġgifted": 17996,
    "Ġspont": 22128,
    "pire": 9135,
    "!âĢĻ": 3333,
    "Ġinvoluntary": 18762,
    "Ġstables": 23653,
    "Ġfinish": 7948,
    "Ġprovince": 24189,
    "yed": 3273,
    "trust": 21077,
    "tis": 4107,
    "her": 489,
    "ighter": 7967,
    "Ġtobacco": 8366,
    "king": 3059,
    "bered": 4502,
    "Ġnotes": 7189,
    "rug": 18345,
    "Ġsatisf": 2804,
    "Ġphyseter": 26586,
    "irium": 8161,
    "moid": 2451,
    "Ġdownright": 16116,
    "Ġstalked": 20427,
    "Ġantarctic": 19551,
    "Ġinfrequent": 3822,
    "Ġleghorn": 13145,
    "inquiries": 13576,
    "Ġquiet": 3262,
    "Ġpropri": 6738,
    "Ġowing": 6004,
    "Ġstro": 4593,
    "waves": 10742,
    "remark": 7261,
    "udg": 22760,
    "ivided": 22075,
    "horizon": 23614,
    "Ġflee": 7079,
    "add": 5229,
    "confl": 22466,
    "principle": 10650,
    "Ġveget": 11884,
    "earn": 10696,
    "Ġwit": 3839,
    "Ġpsal": 15613,
    "Ġfast": 1716,
    "Ġpolluted": 25593,
    "unsuitable": 21890,
    "Ġabomination": 22275,
    "acency": 12905,
    "turner": 19540,
    "Ġpurple": 10433,
    "iving": 1724,
    "possess": 5983,
    "Ġsoothe": 7405,
    "Ġgradu": 15830,
    "ubb": 1651,
    "Ġpuzz": 5533,
    "vent": 683,
    "fil": 12460,
    "Ġbehind": 2805,
    "han": 12470,
    "Ġnine": 5369,
    "adopt": 25544,
    "Ġrescued": 24206,
    "kings": 17583,
    "Ġsatin": 12985,
    "Ġwrench": 12554,
    "Ġbethink": 12377,
    "immedi": 8450,
    "altern": 17941,
    "Ġmathematical": 3351,
    "Ġdetain": 14173,
    "Ġsneer": 13446,
    "Ġaccompan": 5513,
    "Ġwonderful": 4561,
    "Ġcoding": 8115,
    "rugg": 15900,
    "gammon": 20242,
    "oko": 18440,
    "surpr": 5996,
    "eur": 7545,
    "Ġbred": 9169,
    "Ġglens": 18854,
    "Ġsolicited": 20035,
    "fare": 7798,
    "Ġshrubbery": 18232,
    "Ġimmut": 13296,
    "Ġlordly": 23743,
    "Ġcredulous": 17144,
    "Ġaversion": 18865,
    "immed": 9217,
    "decoder": 3644,
    "Ġglued": 20587,
    "ernity": 18617,
    "Ġsocietal": 11436,
    "Ġinterrupted": 6343,
    "Ġriverside": 25247,
    "arnel": 18124,
    "portent": 25412,
    "Ġembodied": 25846,
    "Ġfolly": 7940,
    "Ġmolasses": 25628,
    "Ġoutright": 18413,
    "Ġbrill": 8549,
    "Ġlances": 6984,
    "Ġgas": 8132,
    "Ġapp": 493,
    "shell": 16285,
    "Ġbash": 12583,
    "ribe": 1223,
    "Ġhearts": 4972,
    "Ġslipper": 24265,
    "Ġpublicly": 13321,
    "Ġxxv": 19716,
    "Ġfully": 6342,
    "gale": 13723,
    "hab": 1078,
    "ideas": 18581,
    "Ġstabbing": 20302,
    "Ġnewton": 3532,
    "devil": 7894,
    "apable": 6422,
    "Ġobserv": 8586,
    "Ġfabulous": 25948,
    "Ġchaos": 17009,
    "Ġemer": 5958,
    "Ġfath": 7364,
    "mill": 13753,
    "oregressive": 3425,
    "religion": 20574,
    "Ġon": 350,
    "ą": 198,
    "bears": 22486,
    "lovel": 22508,
    "Ġplucked": 15112,
    "uneasiness": 23686,
    "Ġcachalot": 17834,
    "Ġoft": 9194,
    "Ġremarked": 3694,
    "Ġlosing": 10916,
    "Ġpredecess": 18512,
    "Ġrandom": 1587,
    "Ġfortitude": 9884,
    "cus": 3979,
    "Ġeyebrows": 23515,
    "hest": 3369,
    "Ġelixir": 26555,
    "Ġlion": 9675,
    "Ġdisgrace": 7215,
    "Ġstumble": 26482,
    "Ġoutermost": 22316,
    "idirectional": 2423,
    "Ġquest": 2000,
    "deserted": 18959,
    "lion": 20943,
    "cely": 3573,
    "Ġtranquillize": 24757,
    "Ġremoving": 12114,
    "Ġgemini": 26469,
    "ishing": 1143,
    "Ġshaft": 18229,
    "serious": 14447,
    "Ġgoing": 2066,
    "gins": 12466,
    "refuge": 24734,
    "rear": 21231,
    "Ġtennes": 23548,
    "Ġjerked": 19831,
    "lantic": 6363,
    "Ġeloquence": 11840,
    "berish": 22714,
    "Ġcent": 3255,
    "âĢĶâĢĻâĢĿ": 20062,
    "Ġdeed": 7867,
    "Ġlav": 13949,
    "bone": 5612,
    "Ġcommitted": 7431,
    "Ġunallied": 22027,
    "Ġfriends": 2654,
    "angible": 22099,
    "...": 24549,
    "Ġgamy": 17998,
    "hosmer": 25902,
    "Ġstrateg": 1354,
    "imagination": 13479,
    "Ġtie": 10750,
    "interruption": 20110,
    "Ġushered": 18359,
    "Ġfaculties": 14957,
    "sect": 8152,
    "Ġweakness": 9966,
    "asher": 15643,
    "Ġsubtle": 6716,
    "events": 12315,
    "Ġreddening": 25970,
    "Ġmiser": 18703,
    "Ġallured": 14124,
    "avoiding": 25236,
    "Ġwoll": 21292,
    "Ġbosom": 6939,
    "Ġacceptance": 14826,
    "Ġfuture": 1053,
    "Ġcharts": 12824,
    "Ġcomparing": 14264,
    "acknowledge": 18468,
    "opotam": 22476,
    "Ġanytime": 12882,
    "bourgh": 19103,
    "Ġstole": 7952,
    "Ġunsolved": 22028,
    "Ġsought": 5010,
    "cil": 8720,
    "Ġglaring": 11906,
    "Ġmainten": 16114,
    "Ġforgetfulness": 14606,
    "Ġapprehension": 7113,
    "Ĺ": 250,
    "Ġwondering": 7970,
    "Ġwhispering": 14944,
    "Ġmadame": 13149,
    "Ġtut": 8769,
    "Ġcreditable": 19621,
    "ancial": 21360,
    "Ġpervading": 20612,
    "Ġloves": 10915,
    "canst": 22958,
    "Ġmeantime": 6206,
    "luyt": 18454,
    "mat": 2201,
    "Ġtransactions": 18482,
    "Ġpl": 744,
    "Ġcrunched": 19123,
    "Ġgag": 21590,
    "Ġsensible": 4976,
    "rab": 7596,
    "Ġhopelessly": 16374,
    "Ġfight": 5366,
    "Ġemb": 1245,
    "Ġmutiny": 13257,
    "Ġaisle": 21200,
    "powder": 17645,
    "Ġcopies": 24935,
    "Ġrepresents": 4902,
    "Ġexpression": 4514,
    "Ġbaleen": 10036,
    "Ġmors": 17801,
    "Ġfigured": 16643,
    "herald": 22203,
    "Ġneedlessly": 23628,
    "ge": 560,
    "clearer": 24066,
    "Ġamends": 14245,
    "Ġwalled": 15533,
    "plan": 15812,
    "pshaw": 21027,
    "Ġimpressions": 9552,
    "aux": 14289,
    "Ġkith": 22189,
    "Ġmeet": 2802,
    "hurriedly": 25510,
    "Ġjun": 8505,
    "Ġessence": 13404,
    "glo": 8737,
    "Ġattractive": 25575,
    "Ġdet": 508,
    "joint": 24006,
    "article": 22379,
    "illustration": 2284,
    "Ġolder": 9326,
    "gust": 6360,
    "Ġpostponed": 20388,
    "atoes": 17775,
    "Ġoutdone": 22315,
    "Ġextravagance": 17279,
    "Ġproved": 4884,
    "kitty": 10105,
    "Ġconception": 10313,
    "obstructed": 15225,
    "comput": 2023,
    "change": 6392,
    "leaving": 10791,
    "ginger": 13162,
    "xi": 17710,
    "vex": 21699,
    "view": 5895,
    "ctic": 8441,
    "boots": 11126,
    "overfitting": 13099,
    "Ġgloss": 11955,
    "Ġwith": 349,
    "grat": 5052,
    "Ġmasking": 2422,
    "Ġai": 3126,
    "blow": 9103,
    "circled": 24187,
    "Ġapproximate": 2344,
    "expressed": 9041,
    "Ġcarried": 3692,
    "fle": 7128,
    "ak": 537,
    "Ġpleadings": 25852,
    "aps": 1228,
    "eldom": 4411,
    "Ġchas": 18379,
    "Ġbambooz": 26119,
    "Ġnods": 19060,
    "Ġenormousness": 24515,
    "phant": 6287,
    "pton": 15791,
    "âĢĶ.": 11753,
    "preserving": 25304,
    "sneezes": 11446,
    "Ġcarve": 23089,
    "Ġconjunction": 25100,
    "Ġfoe": 7679,
    "Ġstanzas": 21741,
    "thern": 4953,
    "bolt": 25135,
    "Ġlengthened": 25958,
    "Ġprospects": 9958,
    "volous": 18589,
    "Ġirrad": 19093,
    "Ġguilty": 7250,
    "Ġappeased": 23195,
    "co": 2436,
    "Ġfatal": 5871,
    "ends": 6038,
    "Ġruin": 6055,
    "Ġcolon": 18764,
    "Ġsecretly": 13268,
    "Ġdiscl": 9796,
    "Ġreckon": 19869,
    "alcul": 15625,
    "advancing": 14835,
    "54": 15298,
    "animal": 16978,
    "ductive": 23933,
    "Ġexcellent": 4237,
    "escaped": 14230,
    "Ġgnarled": 25165,
    "Ġintellig": 525,
    "Ġfeatureless": 22609,
    "Ġexagger": 12720,
    "Ġsneering": 24697,
    "Ġridicule": 13511,
    "itably": 10782,
    "levelled": 23642,
    "arle": 21438,
    "ojo": 7349,
    "withstanding": 8945,
    "Ġoh": 2178,
    "perpendicular": 14159,
    "Ġav": 3580,
    "Ġslugg": 15267,
    "Ġcorrespond": 6209,
    "Ġtransported": 11279,
    "gings": 7549,
    "fifth": 20145,
    "clerval": 7950,
    "irms": 18168,
    "interesting": 12199,
    "sentiment": 12911,
    "Ġrigged": 16717,
    "ception": 6562,
    "Ġmassac": 14735,
    "Ġclubbed": 26546,
    "mured": 6960,
    "Ġfastened": 7065,
    "Ġsea": 1207,
    "Ġspeakest": 23484,
    "Ġpondering": 17005,
    "Ġinjection": 3466,
    "passing": 14811,
    "Ġstrategy": 2373,
    "Ġbandages": 24427,
    "Ġcandidates": 4332,
    "Ġlamentations": 17076,
    "Ġslender": 11938,
    "cats": 17512,
    "Ġliberality": 24377,
    "Ġnavies": 16900,
    "iam": 2509,
    "numer": 15398,
    "reas": 987,
    "Ġlifeless": 8948,
    "Ġcongregation": 12327,
    "westward": 25424,
    "match": 15389,
    "jolly": 20930,
    "Ġhast": 3148,
    "Ġcouples": 16852,
    "Ġbosoms": 16795,
    "Ġfanatic": 23390,
    "Ġbes": 2660,
    "offensive": 16395,
    "furthermore": 20002,
    "Ġmaxim": 3083,
    "Ġpained": 19166,
    "acup": 14278,
    "sudden": 5315,
    "Ġaright": 11738,
    "Ġretrogression": 26581,
    "Ġconcocted": 26299,
    "Ġcreative": 9829,
    "Ġjones": 7204,
    "Ġanaly": 1146,
    "Ġfanny": 23389,
    "Ġcuriosities": 26288,
    "spirited": 19752,
    "correct": 24483,
    "Ġlet": 1112,
    "some": 2238,
    "fiercely": 25256,
    "Ġwindward": 6885,
    "itiously": 13870,
    "Ġcig": 6520,
    "Ġenvironment": 4014,
    "safe": 10053,
    "Ġexpressed": 4464,
    "excited": 13379,
    "Ġdeceitful": 25733,
    "Ġinquisitive": 26317,
    "ains": 5094,
    "entering": 17976,
    "Ġcontinents": 16849,
    "Ġshirr": 18231,
    "Ġsqueezing": 25006,
    "*": 14,
    "Ġescapes": 23507,
    "Ġvineyards": 25106,
    "honest": 17003,
    "ryder": 18638,
    "Ġfamily": 1967,
    "Ġblandly": 20322,
    "Ġsupre": 10269,
    "consideration": 14954,
    "irty": 4051,
    "bethinking": 25745,
    "Ġgild": 15666,
    "Ġindec": 13927,
    "intolerable": 22935,
    "barrel": 17060,
    "suggest": 20374,
    "rd": 17649,
    "mel": 9127,
    "Ġabated": 18390,
    "Ġmeanings": 18608,
    "imet": 21703,
    "aloes": 21499,
    "Æ": 135,
    "sust": 15422,
    "Ġreneg": 21672,
    "arken": 18667,
    "Ġrad": 4962,
    "Ġtropics": 17066,
    "Ġprofoundly": 16859,
    "Ġiteratively": 3057,
    "Ġaccosted": 13671,
    "wer": 8394,
    "Ġamused": 11797,
    "sicilian": 21062,
    "ashions": 16416,
    "Ġcollecting": 12284,
    "Ġgir": 2258,
    "zy": 2670,
    "đ": 210,
    "antial": 8487,
    "atived": 21261,
    "Ġdisposing": 19373,
    "ran": 11515,
    "Ġanyways": 22517,
    "imitably": 21708,
    "Ġmemo": 18117,
    "Ġschoolmasters": 19719,
    "rudential": 16709,
    "Ġrushing": 7403,
    "complet": 11383,
    "Ġtrifles": 16951,
    "Ġheron": 22070,
    "Ġabode": 7899,
    "ĠĠĠĠĠĠĠĠĠĠĠĠĠĠĠĠĠĠĠĠĠĠĠĠĠĠĠĠĠĠĠĠĠĠĠ": 19257,
    "mind": 4626,
    "Ġramad": 8527,
    "Ġtrout": 22355,
    "Ġslee": 8974,
    "birth": 15321,
    "finally": 9498,
    "Ġapproving": 18507,
    "rously": 17654,
    "Ġunreserved": 19395,
    "Ġsecondary": 23332,
    "Ġland": 1996,
    "rily": 7621,
    "torn": 17682,
    "Ġslackened": 15125,
    "Ġupdate": 2464,
    "rayed": 23562,
    "Ġcaught": 3729,
    "Ġresumed": 11810,
    "Ġswain": 18879,
    "Ġpoliceman": 15257,
    "Ġlow": 1649,
    "downstairs": 23917,
    "lasting": 8010,
    "bl": 4143,
    "aming": 5828,
    "tstone": 21083,
    "Ġchambers": 16799,
    "dings": 2150,
    "rolled": 9059,
    "bones": 8371,
    "revival": 26162,
    "Ġfoster": 18991,
    "warm": 8101,
    "Ġfift": 6382,
    "Ġvast": 3297,
    "Ġreserves": 19669,
    "circumstance": 7763,
    "Ġslammed": 20446,
    "Ġboomer": 20166,
    "Ġevap": 19622,
    "Ġreference": 2566,
    "ĠĠĠĠĠĠĠĠĠĠĠĠĠĠĠĠĠĠĠĠĠĠĠĠĠĠĠĠĠĠĠĠĠĠĠĠĠĠĠĠĠĠĠĠĠĠĠĠĠĠĠĠĠ": 20038,
    "atever": 3077,
    "varieties": 23184,
    "Ġuneasily": 24230,
    "cific": 10085,
    "Ġmelting": 24288,
    "Ġcabinets": 23860,
    "Ġmet": 1895,
    "Ġmil": 4254,
    "Ġsleepless": 14582,
    "Ġpeev": 22690,
    "Ġshowers": 16605,
    "Ġaway": 1243,
    "him": 1939,
    "Ġunlucky": 10049,
    "allowed": 5728,
    "repe": 8775,
    "penetrate": 20323,
    "stayed": 25290,
    "Ġship": 1090,
    "Ġjeer": 24123,
    "isturbed": 18297,
    "emy": 14074,
    "Ġrascally": 26507,
    "pping": 1426,
    "begin": 8883,
    "Ġvaguely": 17365,
    "Ġindomitableness": 26571,
    "Ġmanx": 7904,
    "Ġcruisings": 25864,
    "curiosity": 8623,
    "Ġfasten": 11132,
    "dress": 17520,
    "bohem": 19001,
    "Ġnations": 8809,
    "idate": 21764,
    "Ġmathematics": 12071,
    "Ġdistinctly": 7311,
    "Ġchowders": 18386,
    "ont": 2622,
    "Ġsickle": 24245,
    "wholly": 10941,
    "Ġfooted": 23795,
    "Ġgentlemen": 3642,
    "Ġlamented": 24991,
    "ĠâĢľâĢĺ_": 25111,
    "jaw": 13742,
    "ulls": 8837,
    "Ġharbors": 24901,
    "Ġfumes": 21416,
    "Ġtiller": 8965,
    "Ġgidd": 25783,
    "castles": 14636,
    "Ġquart": 11785,
    "Ġcongratulatory": 19766,
    "Ġmajest": 24057,
    "Ġsilk": 11960,
    "Ġernest": 8716,
    "Ġlaws": 8002,
    "Ġpiqu": 21475,
    "Ġpurp": 2396,
    "Ġmask": 1865,
    "Ġtide": 6658,
    "Ġbeatrix": 24204,
    "Ġilluminate": 17192,
    "Ġretort": 23067,
    "lux": 14226,
    "throne": 25657,
    "Ġsucceeded": 6105,
    "Ġunmanner": 22024,
    "Ġtransformations": 3483,
    "eers": 20842,
    "ping": 9615,
    "jur": 17578,
    "Ġcapstan": 9098,
    "Ġsurvey": 13592,
    "Ġheaven": 3365,
    "perpetually": 20510,
    "Ġbreaking": 6310,
    "Ġturner": 7049,
    "keenest": 25661,
    "Ġwoeful": 19618,
    "Ġburns": 16521,
    "Ġinattention": 17931,
    "Ġsimulates": 2738,
    "Ġretrieval": 10674,
    "irregular": 21908,
    "Ġdragged": 6889,
    "fins": 13718,
    "Ġhair": 3315,
    "Ġfunere": 22256,
    "Ġunansw": 22053,
    "Ġgordon": 26467,
    "Ġdisagreeable": 9297,
    "ours": 3428,
    "Ġagency": 11804,
    "rosings": 15641,
    "Ġtransports": 24277,
    "admon": 21758,
    "enorm": 17781,
    "handled": 19260,
    "contrad": 19291,
    "itional": 22471,
    "fanning": 20865,
    "Ġbecher": 18878,
    "infor": 3205,
    "Ġloathed": 15873,
    "Ġano": 11595,
    "Ġsnarled": 25716,
    "uits": 21103,
    "Ġusefulness": 19406,
    "ressed": 3025,
    "Ġcritically": 23444,
    "Ġnarrating": 24351,
    "Ġstood": 2552,
    "Ġcolder": 22847,
    "Ġtougher": 21175,
    "Ġspat": 2665,
    "Ġmock": 3690,
    "Ġrewarding": 13436,
    "Ġke": 1154,
    "Ġsensitivity": 3068,
    "Ġinvestigated": 25386,
    "bbed": 6911,
    "Ġsqueaking": 26274,
    "thick": 10260,
    "Ġfaintly": 14914,
    "horrible": 14600,
    "sailors": 9921,
    "globe": 25142,
    "taking": 5689,
    "bounded": 13438,
    "lee": 11584,
    "inative": 15482,
    "Ġtawny": 20480,
    "Ġruined": 12951,
    "Ġslighted": 16566,
    "13": 20749,
    "medium": 23637,
    "Ġprouder": 18972,
    "Ġpromoting": 3158,
    "Ġhunger": 8566,
    "Ġgiven": 1629,
    "Ġsciences": 15942,
    "approbation": 11458,
    "Ġfetch": 7769,
    "reputable": 15516,
    "Ġsee": 802,
    "====": 1480,
    "Ġcompatibility": 2961,
    "Ġcondition": 6764,
    "loa": 18536,
    "Ġsmut": 22553,
    "Ġmun": 12559,
    "Ġdelivery": 18975,
    "Ġmin": 1026,
    "jewell": 25523,
    "Ġstriding": 16091,
    "Ġaven": 10759,
    "Ġuncontrollable": 25814,
    "baden": 25615,
    "tery": 14036,
    "Ġbohemian": 17133,
    "Ġjames": 6419,
    "Ġthrough": 603,
    "leap": 21365,
    "luc": 9751,
    "Ġencomp": 12959,
    "ersampling": 18216,
    "good": 2897,
    "Ġnonsense": 6982,
    "Ġdictionary": 15111,
    "Ġsubproblems": 12954,
    "Ġexec": 19491,
    "relieved": 13273,
    "contrivance": 26316,
    "capting": 24036,
    "Ġgout": 21593,
    "pulous": 15415,
    "Ġsuper": 2154,
    "Ġoverbearing": 12841,
    "Ġcharlotte": 3887,
    "Ġelimin": 16106,
    "Ġunimportant": 22025,
    "Ġwee": 21915,
    "mend": 20965,
    "crazy": 24691,
    "Ġmature": 17799,
    "tack": 12510,
    "Ġspout": 3283,
    "Ġincompetent": 25679,
    "Ġpoltro": 23618,
    "Ġcommendation": 13609,
    "Ġfob": 21407,
    "Ġoutput": 930,
    "Ġcome": 1241,
    "bulwarks": 12270,
    "Ġloafer": 18299,
    "hester": 9631,
    "Ġconnivance": 25225,
    "Ġdimin": 3869,
    "dried": 20826,
    "circumspect": 26086,
    "twilight": 23701,
    "Ġsucceed": 4543,
    "Ġaut": 1849,
    "Ġcounterpane": 11343,
    "Ġchamounix": 14863,
    "falsehood": 25901,
    "Ġscrib": 22280,
    "Ġsaturn": 22899,
    "Ġbirch": 26174,
    "ologically": 22873,
    "Ġdamned": 13131,
    "Ġ1991": 3017,
    "Ġabstracted": 17182,
    "Ġbir": 17853,
    "pan": 10716,
    "abroad": 18108,
    "Ġpostp": 12141,
    "Ġdetaining": 25818,
    "Ġquieted": 23840,
    "Ġjourneying": 25565,
    "Ġwedding": 4858,
    "ensities": 22543,
    "Ġshrunk": 16718,
    "Ġvoluntarily": 12138,
    "Ġsquaring": 22835,
    "Ġtoday": 12640,
    "Ġaimed": 20249,
    "elfare": 11775,
    "Ġpenal": 1773,
    "Ġyoungster": 23177,
    "Ġberth": 8679,
    "Ġprotracted": 19467,
    "Ġcopper": 7425,
    "Ġcobweb": 22581,
    "Ġreap": 18026,
    "Ġflourished": 15124,
    "Ġblossom": 26312,
    "efficient": 2869,
    "lose": 12879,
    "Ġcurses": 13008,
    "Ġstrongly": 5657,
    "Ġ96": 24592,
    "Ġnature": 2539,
    "Ġindulgence": 11319,
    "advantage": 8658,
    "conducted": 25572,
    "Ġgold": 3279,
    "Ġsails": 5256,
    "Ġvisibly": 22885,
    "Ġornaments": 17451,
    "shrouded": 26361,
    "Ġplainer": 23703,
    "damn": 20022,
    "Ġface": 1721,
    "testing": 12514,
    "U": 57,
    "iag": 20915,
    "vinegar": 25420,
    "Ġpat": 1832,
    "Ġcolds": 23757,
    "Ġoverall": 4357,
    "Ġbeer": 10219,
    "Ġornament": 11718,
    "responsible": 25763,
    "Ġissuing": 16948,
    "agon": 7870,
    "ension": 6569,
    "Ġpictured": 16622,
    "Ġunexpl": 22034,
    "w": 91,
    "clopÃ¦": 13053,
    "mblance": 7323,
    "sl": 5794,
    "Ġwin": 9641,
    "Ġcompare": 9301,
    "Ġbreat": 3460,
    "Ġice": 3603,
    "Ġrelative": 11881,
    "Ġteneriffe": 26414,
    "fts": 18700,
    "Ġreappearance": 21664,
    "Ġaccept": 4408,
    "Ġfiner": 13050,
    "peaceful": 20445,
    "pilot": 25908,
    "Ġobst": 6284,
    "Ġframed": 19032,
    "Ġ133": 24783,
    "Ġdistributes": 4196,
    "Ġcringing": 25941,
    "examine": 25477,
    "inions": 8401,
    "Ġrules": 1920,
    "Ġcausal": 3410,
    "Ġbenevolence": 9526,
    "Ġflashing": 13025,
    "Ġrashness": 25460,
    "Ġshoved": 23490,
    "Ġwaistcoat": 12268,
    "Ġunaware": 22054,
    "Ġrepugnance": 19086,
    "Ġdeserved": 7736,
    "Ġunguarded": 15848,
    "Ġentered": 2844,
    "Ġextravag": 11253,
    "Ġsuccessful": 9922,
    "Ġannoyed": 17199,
    "Ġmortifying": 13243,
    "Ġfaithful": 9502,
    "Ġdiscovering": 13356,
    "nelson": 25620,
    "Ġshaggy": 13569,
    "Ġgreenness": 23766,
    "Ġ\"": 6119,
    "Ġrider": 24185,
    "Ġstart": 3260,
    "Ġ57": 24325,
    "Ġw": 272,
    "Ġorganize": 8991,
    "================": 3721,
    "Ġjinglers": 26018,
    "Ġknowing": 4454,
    "fitters": 24761,
    "ulty": 22564,
    "Ġlookest": 22712,
    "Ġgracious": 8846,
    "tiest": 21080,
    "Ġalgorithms": 864,
    "Ġclimes": 12838,
    "Ġwrists": 11113,
    "Ġseventeen": 26210,
    "Ġgardiner": 3236,
    "solely": 19815,
    "Ġdep": 736,
    "Ġscuffle": 20607,
    "ene": 2171,
    "Ġholiday": 12995,
    "shop": 14237,
    "Ġsou": 1887,
    "gar": 5615,
    "expect": 4769,
    "cannot": 5745,
    "stolen": 13981,
    "expressing": 16801,
    "Ġwhal": 5454,
    "honey": 20904,
    "Ġadversary": 12171,
    "cares": 24309,
    "enge": 21279,
    "Ġwar": 5526,
    "Ġdeserts": 10507,
    "ors": 854,
    "Ġinquiry": 6484,
    "Ġplanks": 5564,
    "arded": 5029,
    "Ġembod": 14412,
    "Ġcedars": 20291,
    "ĠĠĠĠĠĠĠ": 7631,
    "Ġbrit": 6289,
    "Ġdissu": 18550,
    "Ġflattered": 10374,
    "Ġarom": 15491,
    "Ġparted": 5928,
    "speaks": 19718,
    "Ġins": 2779,
    "Ġfrightened": 5341,
    "paint": 21017,
    "Ġseverest": 14090,
    "offices": 19059,
    "ě": 220,
    "Ġreceiving": 4882,
    "Ġvacant": 9494,
    "Ġbind": 12579,
    "Ġunprepared": 22045,
    "Ġscraggy": 24579,
    "Ġpursuing": 9437,
    "embraced": 25806,
    "Ġchamois": 16800,
    "Ġcultivated": 17363,
    "Ġflock": 21409,
    "Ġreservo": 16831,
    "Ġshouts": 19536,
    "Ġmost": 1020,
    "wic": 21119,
    "photograph": 16150,
    "Ġwinchester": 10065,
    "Ġvane": 22868,
    "Ġschooner": 16747,
    "Ġorganizations": 12312,
    "eng": 1488,
    "Ġox": 7153,
    "ants": 1389,
    "Ġdiscipline": 26561,
    "uns": 21867,
    "rest": 1633,
    "Ġringing": 13330,
    "Ġtale": 5142,
    "Ġowl": 20082,
    "Ġcurtain": 14410,
    "Ġprecisely": 6466,
    "Ġsmoothe": 23654,
    "Ġpersuade": 5872,
    "Ġdent": 13905,
    "Ġwilt": 9643,
    "ross": 807,
    "Ġunfavourable": 17416,
    "Ġexam": 3709,
    "topic": 10527,
    "Ġparcel": 15198,
    "Ġcattle": 12569,
    "covering": 15333,
    "disputed": 23500,
    "Ġought": 3420,
    "odes": 18119,
    "Ġhans": 12623,
    "Ġnegro": 6447,
    "Ġfirm": 3868,
    "Ġproduce": 4365,
    "Ġtints": 17727,
    "Ġdisgracing": 26255,
    "Ġagreement": 18542,
    "etting": 21577,
    "Ġexample": 5096,
    "arms": 10173,
    "utherland": 9578,
    "Ġimpet": 11777,
    "hug": 17563,
    "espe": 3496,
    "Ġzone": 14358,
    "Ġbullion": 24983,
    "Ġtemper": 956,
    "Ġuniversally": 11998,
    "Ġscholars": 26112,
    "ward": 705,
    "Ġtok": 1244,
    "Ġpiny": 21468,
    "Ġsunk": 5752,
    "Ġequivalent": 4802,
    "Ġoverwhelm": 25052,
    "stars": 18019,
    "countenance": 6925,
    "movable": 14323,
    "operations": 19973,
    "malicious": 19901,
    "aborate": 14021,
    "fairly": 17219,
    "frightened": 17195,
    "Ġsubst": 4273,
    "Ġretention": 23068,
    "Ġimplore": 24872,
    "Ġwhisker": 23932,
    "daw": 17522,
    "accessory": 25499,
    "Ġvulture": 17338,
    "olic": 14048,
    "Ġathe": 17741,
    "Ġsinusoidal": 4801,
    "gate": 12464,
    "ixed": 4851,
    "Ġdiminished": 16665,
    "Ġinnocent": 4921,
    "Ġinsepar": 17933,
    "Ġcontempt": 6275,
    "creator": 26381,
    "ication": 992,
    "Ġparagraph": 17453,
    "Ġproble": 1110,
    "Ġentropy": 2030,
    "Ġimpul": 7208,
    "urring": 21702,
    "ayed": 12709,
    "Ġpratt": 23218,
    "Ġprojects": 9510,
    "prisoner": 20542,
    "Ġbraced": 16578,
    "Ġpedest": 14995,
    "ascertain": 21540,
    "_âĢĿ": 20760,
    "vest": 6230,
    "Ġmisconduct": 22754,
    "Ġelbow": 12918,
    "/*": 10070,
    "glue": 17556,
    "philips": 20033,
    "ief": 2046,
    "ables": 7889,
    "Ġfattened": 25949,
    "Ġunfathomably": 25873,
    "darkness": 9511,
    "Ġbreathed": 11220,
    "powerful": 24847,
    "brace": 16942,
    "Ġfossils": 20221,
    "Ġshipped": 9714,
    "Ġhave": 446,
    "adv": 4535,
    "Ġcondem": 6338,
    "aiian": 23591,
    "Ġdifference": 1489,
    "ulence": 15763,
    "Ġdy": 2511,
    "rift": 11519,
    "level": 2653,
    "Ġdood": 22239,
    "Ġprophecy": 25706,
    "Ġsab": 10762,
    "r": 86,
    "escript": 18471,
    "ivot": 11716,
    "Ġsires": 21225,
    "stra": 4047,
    "Ġref": 897,
    "Ġtriumph": 5143,
    "Ġdesert": 6727,
    "Ġdeliverance": 15156,
    "Ġanswered": 2850,
    "Ġcobb": 14271,
    "Ġterribly": 10425,
    "Ġlumps": 21553,
    "Ġordained": 19443,
    "Ġharpooneers": 4732,
    "Ġclue": 7019,
    "Ġnoiseless": 10356,
    "Ġshadow": 5596,
    "Ġsport": 6688,
    "extric": 22762,
    "Ġhey": 11640,
    "Ġperplexity": 2753,
    "Ġconfining": 23302,
    "Ġcompliance": 12112,
    "allen": 22193,
    "collinses": 19922,
    "Ġcream": 22721,
    "disappointed": 25191,
    "Ġemployed": 5200,
    "Ġextremity": 8988,
    "Ġware": 12551,
    "Ġsalvation": 14756,
    "the": 334,
    "Ġrecoil": 18699,
    "flutter": 23968,
    "satisfied": 10578,
    "annica": 24561,
    "reed": 6373,
    "cket": 3686,
    "instantly": 7506,
    "Ġvapors": 19907,
    "jah": 17581,
    "batim": 25016,
    "Ġbeg": 1279,
    "Ġexplanation": 6692,
    "Ġbloom": 9886,
    "Ġemblem": 20496,
    "officers": 10627,
    "sac": 7140,
    "fastened": 19324,
    "Ġprints": 16330,
    "Ġseeing": 2883,
    "Ġhappiest": 11880,
    "stumps": 21656,
    "intend": 16222,
    "Ġplaced": 3444,
    "Ġafore": 10758,
    "pronounce": 25192,
    "Ġhas": 822,
    "ribes": 23364,
    "Ġcigaret": 16976,
    "Ġshrimp": 24157,
    "northern": 23663,
    "Ġdiscrimin": 2546,
    "lacing": 17590,
    "bride": 19198,
    "Ġembra": 6578,
    "jected": 22709,
    "Ġfad": 17876,
    "Ġphrenolog": 12332,
    "Ġcircumst": 2976,
    "Ġstrainings": 24627,
    "Ġeng": 1160,
    "Ġcruellest": 19657,
    "ferences": 10326,
    "Ġirreproachable": 24917,
    "Ġontario": 26204,
    "Ġwhere": 783,
    "Ġlowering": 7986,
    "Ġwandering": 8653,
    "Ġhol": 1181,
    "Ġqueens": 16706,
    "assist": 11766,
    "Ġack": 5622,
    "Ġrheumatic": 20704,
    "recollected": 25347,
    "Ġabominate": 20063,
    "Ġsettee": 22918,
    "Ġmemory": 2277,
    "Ġcelebrated": 13593,
    "throughout": 24086,
    "Ġpurposed": 23551,
    "urmountable": 15278,
    "Ġsprawling": 22136,
    "incible": 16497,
    "complained": 25838,
    "search": 8464,
    "Ġsnuffed": 15071,
    "ateur": 22003,
    "Ġquito": 24408,
    "Ġbour": 4876,
    "Ġroyal": 5602,
    "Ġthro": 5817,
    "tent": 21063,
    "Ġkilling": 13331,
    "Ġremoter": 20104,
    "houn": 20892,
    "Ġadding": 2406,
    "Ġgoest": 22420,
    "ian": 1238,
    "cous": 8721,
    "unt": 2044,
    "Ġcongregated": 20095,
    "equal": 14992,
    "Ġfling": 9660,
    "ucumber": 19056,
    "Ġtravels": 11925,
    "numbers": 17616,
    "firmly": 20279,
    "Ġwhenever": 5166,
    "Ġmasters": 11574,
    "Ġtwist": 11849,
    "Ġtyph": 10007,
    "Ġcoffin": 4426,
    "former": 11746,
    "Ġgrievances": 20647,
    "adjust": 21757,
    "Ġnantucketers": 9894,
    "descried": 11927,
    "deeply": 16177,
    "Ġcourt": 4171,
    "Ġbellies": 13354,
    "Ġusage": 9730,
    "Ġarmada": 23579,
    "Ġexamine": 7734,
    "Ġanalog": 12609,
    "Ġislets": 21798,
    "sory": 17659,
    "stern": 8444,
    "icates": 11616,
    "Ġprice": 10403,
    "telesc": 22813,
    "Ġexpectation": 6904,
    "Ġeucl": 24709,
    "Ġflows": 13011,
    "ourselves": 9010,
    "does": 6194,
    "Ġdiscerning": 25002,
    "ĠĠĠĠĠĠĠĠĠĠĠĠĠĠĠĠĠĠĠĠĠĠĠĠĠĠĠĠĠĠĠĠ": 2737,
    "ographical": 16786,
    "Ġbreathe": 9011,
    "Ġtyphoons": 20233,
    "Ġpolitely": 8993,
    "ence": 393,
    "untering": 15773,
    "Ġrash": 10898,
    "string": 15683,
    "aled": 3941,
    "Ġeconomical": 25287,
    "Ġwriting": 4667,
    "altogether": 12636,
    "Ġhonoured": 9880,
    "Ġprosperous": 15169,
    "lik": 3913,
    "drink": 10595,
    "confused": 19643,
    "Ġemperor": 15157,
    "lungs": 26135,
    "oug": 431,
    "Ġeight": 3898,
    "Ġblame": 6446,
    "Ġwatson": 3596,
    "Ġant": 4344,
    "mary": 8748,
    "confess": 12173,
    "burned": 25079,
    "Ġcriminals": 19921,
    "leag": 21364,
    "Ġsailing": 5323,
    "Ġpowerful": 1610,
    "Ġmort": 3459,
    "bench": 16803,
    "conven": 6162,
    "Ġstructured": 2974,
    "adieu": 26200,
    "Ġmarbles": 18872,
    "ibly": 2996,
    "Ġade": 22101,
    "Ġsaving": 15884,
    "uries": 6147,
    "Ġcuts": 14607,
    "Ġtogether": 1878,
    "buncle": 13691,
    "Ġpon": 10175,
    "Ġbland": 11064,
    "Ġseer": 21956,
    "Ġhardship": 18913,
    "Ġstreng": 18070,
    "Ġcaptains": 7457,
    "Ġmelancholy": 5606,
    "Ġisolation": 17150,
    "Ġturned": 2130,
    "Ġmagic": 8232,
    "Ġlining": 13950,
    "ized": 1527,
    "oam": 8751,
    "Ġbenjamin": 26567,
    "Ġprelimin": 8860,
    "Ġwomen": 4750,
    "Ġprompted": 23814,
    "Ġdraughts": 20220,
    "Ġuniverse": 14122,
    "men": 1486,
    "Ġdisaster": 12884,
    "Ġirish": 14534,
    "Ġreverie": 13456,
    "Ġnext": 2137,
    "Ġsuffers": 2975,
    "Ġeffort": 8204,
    "Ġhall": 4185,
    "Ġmantle": 25274,
    "Ġvel": 7186,
    "avor": 14276,
    "laug": 10707,
    "Ġlump": 21549,
    "himself": 3971,
    "Ġmeddling": 24081,
    "Ġendeavour": 4677,
    "Ġpiteous": 17917,
    "Ġseethe": 21960,
    "opatra": 22474,
    "ĠlinnÃ¦us": 15274,
    "ĠĠĠĠĠĠĠĠĠĠĠĠĠ": 22559,
    "weary": 22683,
    "antage": 3876,
    "Ġcommence": 6167,
    "Ġregression": 4407,
    "eteenth": 20156,
    "sex": 12710,
    "Ġminimizing": 3464,
    "Ġurgent": 16869,
    "scenes": 16242,
    "methodically": 20663,
    "Ġpledged": 20686,
    "istical": 8489,
    "grow": 10098,
    "Ġimposed": 14215,
    "ington": 21300,
    "Ġresort": 18563,
    "Ġinstantaneous": 14611,
    "Ġcommunity": 19008,
    "web": 18664,
    "viii": 12019,
    "whisper": 17083,
    "inte": 5144,
    "masts": 19423,
    "display": 19154,
    "Ġimpenetrable": 17397,
    "Ġtruce": 24115,
    "Ġwarriors": 19722,
    "Ġcoarsely": 25828,
    "Ġnormalizes": 1862,
    "mathemat": 19137,
    "forgetting": 25485,
    "Ġdescried": 7918,
    "dry": 13702,
    "Ġforgiven": 24024,
    "Ġhud": 10822,
    "Ġgrimes": 11034,
    "Ġdecapitated": 20614,
    "sal": 8757,
    "Ġpossible": 2585,
    "Ġrussian": 14349,
    "Ġpursu": 3238,
    "Ġtrading": 23073,
    "âĢ": 294,
    "Ġdistributed": 18661,
    "irements": 22209,
    "Ġburned": 8630,
    "Ġdiscu": 4362,
    "Ġhere": 1087,
    "Ġcomforts": 14693,
    "Ġcontain": 1555,
    "Ġcomprehensive": 15086,
    "Ġrafters": 22649,
    "billiard": 25334,
    "ĠcÃ¦sar": 20578,
    "Ġmulti": 1042,
    "Ġancient": 5443,
    "Ġstrangeness": 16707,
    "Ġclenched": 14203,
    "Ġcorps": 13030,
    "Ġstripped": 10465,
    "Ġnail": 9195,
    "just": 1698,
    "Ġpar": 456,
    "school": 10054,
    "Ġdoc": 7200,
    "Ġvill": 3875,
    "whiteness": 18371,
    "Ġspeeches": 22655,
    "Ġtranced": 18427,
    "Ġmemorand": 23403,
    "youngest": 19742,
    "Ġjollity": 25566,
    "Ġhum": 1098,
    "lit": 9605,
    "mates": 5073,
    "iscuits": 24666,
    "Ġunctuous": 10266,
    "Ġblending": 14400,
    "Ġhorrid": 7998,
    "Ġdearly": 10401,
    "Ġskin": 5038,
    "uend": 21100,
    "Ġtells": 9360,
    "Ġstrife": 18613,
    "Ġbusied": 19064,
    "Ġnam": 17948,
    "l": 80,
    "Ġhop": 1460,
    "Ġgorgeous": 20465,
    "Ġlobes": 22112,
    "Ġalong": 1979,
    "]": 65,
    "Ġunintellig": 22021,
    "Ġartic": 5314,
    "ating": 665,
    "Ġrans": 21966,
    "Ġample": 11796,
    "Ġsend": 4109,
    "ulatory": 15765,
    "cuniary": 26379,
    "Ġcalamities": 25699,
    "followed": 8338,
    "Ġdiscriminator": 3392,
    "Ġpauper": 26179,
    "Ġcallest": 17832,
    "Ġaloud": 6252,
    "anded": 5922,
    "Ġreproofs": 24892,
    "ĠâĢľâĢĻ": 22251,
    "Ġvaulted": 25167,
    "discharging": 26305,
    "Ġamount": 8511,
    "mistress": 14904,
    "Ġspilled": 10924,
    "Ġark": 10276,
    "helmsman": 24287,
    "erity": 21266,
    "Ġplied": 22597,
    "Ġfeeds": 16432,
    "eminently": 25105,
    "augh": 1782,
    "Ġdark": 2110,
    "Ġarduous": 26531,
    "Ġready": 3398,
    "pret": 7212,
    "Ġtheir": 643,
    "ana": 15556,
    "Ġobligation": 13242,
    "Ġmemb": 14028,
    "Ġdreams": 7496,
    "<PAD>": 0,
    "writing": 7720,
    "Ġadapts": 3815,
    "yond": 2332,
    "Ġmuff": 8113,
    "Ġentranced": 25833,
    "Ġwarb": 17787,
    "Ġproceedings": 9906,
    "Ġindul": 5856,
    "Ġshortly": 6196,
    "Ġlongitude": 11011,
    "Ġhopeless": 7462,
    "iles": 2859,
    "Ġremarkably": 7702,
    "ichever": 13956,
    "Ġhilariously": 25450,
    "Ġvariation": 22662,
    "phr": 18710,
    "**:": 4737,
    "Ġear": 1424,
    "Ġpupp": 10820,
    "gerine": 22886,
    "Ġtoo": 1163,
    "shaven": 18494,
    "Ġhonour": 3920,
    "au": 777,
    "aton": 21257,
    "brary": 5755,
    "etween": 774,
    "Ġradiance": 13369,
    "Ġafloat": 9307,
    "Ġbuffalo": 11429,
    "professional": 20274,
    "Ġlofty": 6217,
    "onial": 11566,
    "Ġphilosophy": 7103,
    "Ġadvise": 7935,
    "oquence": 11386,
    "Ġpipe": 4318,
    "D": 40,
    "Ġbale": 7838,
    "Ġfurlong": 18739,
    "instrument": 15237,
    "uning": 1310,
    "Ġintens": 7003,
    "Ġreliability": 22875,
    "bearance": 22490,
    "Ġsplin": 8618,
    "whel": 7664,
    "ellow": 3873,
    "Ġcoopman": 25827,
    "Ġattractions": 12915,
    "Ġairs": 14509,
    "Ġspecksnyder": 17402,
    "cano": 18839,
    "sul": 15420,
    "entieth": 17978,
    "Ġprocedure": 2807,
    "riages": 10242,
    "Ġruss": 18719,
    "Ġbanker": 8666,
    "Ġcharcoal": 19006,
    "ariously": 18527,
    "Ġfif": 4217,
    "gall": 6359,
    "Ġweakened": 16823,
    "Ġpraised": 19552,
    "affair": 14655,
    "Ġechoed": 20422,
    "Ġnuptial": 25782,
    "waters": 11333,
    "Ġsandwic": 24664,
    "Ġlestrade": 5825,
    "Ġconf": 1817,
    "Ġminus": 18749,
    "Ġbar": 3145,
    "Ġlest": 6395,
    "true": 2586,
    "removing": 17764,
    "Ġwoof": 14720,
    "keel": 14128,
    "Ġmoccas": 22431,
    "Ġlifts": 25358,
    "Ġpell": 21454,
    "Ġlabelled": 23326,
    "Ġentering": 6285,
    "Ġglory": 6064,
    "can": 1231,
    "lighted": 23753,
    "Ġar": 480,
    "town": 7142,
    "isms": 12577,
    "Ġjacobian": 2890,
    "Ġoverhead": 11771,
    "uttle": 6247,
    "empl": 5724,
    "vineyard": 25421,
    "Ġhotels": 19535,
    "Ġunqualified": 22056,
    "Ġindistinct": 17407,
    "Ġgallows": 12143,
    "Ġrug": 16155,
    "Ġfollowed": 1792,
    "Ġbidden": 24646,
    "Ġpreserve": 7529,
    "Ġregularity": 22784,
    "Ġtenement": 23547,
    "sol": 1789,
    "Ġlodging": 24092,
    "astonishment": 10029,
    "Ġwidow": 8662,
    "Ġunnearable": 26516,
    "Ġho": 1932,
    "Ġplane": 11821,
    "Ġgasped": 11372,
    "Ġagitation": 6865,
    "gno": 13726,
    "Ġsuggests": 12198,
    "Ġspilling": 22134,
    "Ġender": 11688,
    "Ġtokens": 1772,
    "Ġpertin": 18450,
    "Ġfinished": 5044,
    "Ġdecorum": 16019,
    "repeating": 20127,
    "Ġeclips": 20695,
    "stall": 21643,
    "steady": 14708,
    "respond": 12541,
    "Ġplantation": 11423,
    "Ġlose": 5028,
    "utting": 17984,
    "Ġrasc": 21974,
    "Ġsplashed": 23747,
    "Ġpistols": 17328,
    "Ġruns": 8594,
    "nx": 17607,
    "Ġans": 1647,
    "Ġprotruding": 16658,
    "itect": 974,
    "ially": 9246,
    "prospect": 23394,
    "Ġjewels": 12367,
    "Ġajar": 21201,
    "from": 1990,
    "Ġamounts": 6704,
    "ured": 1656,
    "llable": 6878,
    "Ġit": 339,
    "Ġmill": 6666,
    "fi": 12459,
    "Ġweight": 657,
    "Ġinterp": 16067,
    "Ġshreds": 12767,
    "shells": 26056,
    "Ġmalignity": 10556,
    "pull": 6796,
    "Ġseparately": 13301,
    "coff": 9108,
    "Ġseen": 1368,
    "scuttle": 11908,
    "Ġandes": 12638,
    "Ġwithin": 2165,
    "aco": 12903,
    "Ġsolemnity": 9940,
    "Ġgrunted": 16166,
    "Ġtyrant": 24767,
    "Ġdramat": 23213,
    "retched": 3067,
    "Ġfierce": 7437,
    "Ġsweetheart": 19393,
    "Ġsoftware": 18918,
    "Ġcleaning": 23178,
    "Ġchanced": 8186,
    "Ġsad": 3865,
    "Ġbrown": 6298,
    "moil": 22700,
    "Ġpredicts": 2594,
    "Ġgenerate": 1472,
    "t": 88,
    "Ġshelf": 12265,
    "ounts": 4651,
    "pocket": 9808,
    "Ġthrill": 24541,
    "Ġhates": 21483,
    "otherwise": 7670,
    "Ġdisquiet": 18552,
    "brated": 12025,
    "str": 2578,
    "Ġsketch": 16162,
    "absurd": 21792,
    "Ġpossibility": 7458,
    "ohnson": 16324,
    "py": 17624,
    "Ġgenerous": 6271,
    "Ġignorance": 6618,
    "Ġalluding": 18269,
    "Ġdetail": 635,
    "Ġinjustice": 9190,
    "imming": 9686,
    "Ġensued": 11394,
    "interchange": 23737,
    "Ġpenn": 11111,
    "quer": 11678,
    "ĠarchÃ¦": 22776,
    "ardy": 22153,
    "Ġcomrade": 12281,
    "Ġcounteracted": 19861,
    "pequod": 7052,
    "Ġroarings": 25302,
    "Ġsteal": 16281,
    "Ġmiz": 10777,
    "Ġglist": 9344,
    "Ġgnawed": 25164,
    "Ġunintermitted": 26219,
    "Ġcorrectly": 9403,
    "ings": 633,
    "Ġpiping": 23194,
    "Ġmitt": 21306,
    "Ġcrowned": 16841,
    "pondicherry": 26400,
    "intimate": 22934,
    "tained": 4403,
    "Ġmes": 17796,
    "Ġfrancis": 26063,
    "Ġintolerably": 15827,
    "Ġstrang": 4163,
    "inaw": 21182,
    "Ġclock": 9532,
    "Ġhardware": 4904,
    "Ġpads": 21472,
    "Ġimplements": 2486,
    "Ġgave": 2220,
    "lude": 6161,
    "Ġtravell": 5576,
    "Ġdiffered": 22706,
    "Ġhearty": 9846,
    "Ġunsub": 22018,
    "Ġchips": 14181,
    "Ġgenerally": 4159,
    "knowledge": 7478,
    "Ġmood": 6276,
    "Ġfoundation": 4232,
    "Ġmultiplication": 2870,
    "Ġlysander": 13138,
    "Ġlonely": 6823,
    "Ġincredible": 9514,
    "loved": 14250,
    "mean": 6438,
    "Ġwrapped": 8341,
    "Ġbarbaric": 10013,
    "unw": 14056,
    "Ġmixed": 6974,
    "explanations": 25234,
    "Ġthey": 576,
    "Ġpolitics": 19223,
    "rushing": 10017,
    "stretched": 10207,
    "Ġheave": 7599,
    "Ġsincere": 11136,
    "Ġvintage": 26209,
    "Ġhermit": 15855,
    "Ġpious": 11598,
    "shazzar": 15288,
    "Ġseventh": 18206,
    "Ġtiles": 17726,
    "icions": 21560,
    "Ġpassionately": 16764,
    "Ġsynthe": 26007,
    "pad": 13767,
    "uracy": 1100,
    "lamp": 9608,
    "Ġimpl": 7195,
    "Ġemper": 9860,
    "Ġboscombe": 8325,
    "heart": 4524,
    "Ġdrooping": 9419,
    "bble": 17484,
    "Ġreceive": 4703,
    "dam": 7797,
    "Ġpilgrim": 25599,
    "Ġagatha": 6866,
    "ingu": 2117,
    "Ġpredictions": 1455,
    "likeness": 19476,
    "introdu": 8937,
    "Ġhunch": 18934,
    "ivities": 22074,
    "Ġrespecting": 14483,
    "Ġaint": 17744,
    "broker": 13303,
    "Ġlast": 1125,
    "Ġadler": 8173,
    "mrs": 3743,
    "Ġcler": 11768,
    "Ġportents": 14679,
    "Ġexclusiveness": 23924,
    "unts": 12728,
    "Ġencirc": 18730,
    "ĵ": 246,
    "Ġvocation": 10525,
    "Ġarmed": 9259,
    "Ġobtruded": 20721,
    "Ġrecurring": 23229,
    "Ġnour": 10830,
    "Ġtransaction": 22436,
    "pires": 13774,
    "i": 77,
    "Ġdiscontented": 16057,
    "Ġapproxim": 1217,
    "inted": 2649,
    "Ġplates": 11007,
    "ought": 828,
    "Ġbelie": 14406,
    "ommod": 13976,
    "Ġinsects": 25646,
    "Ġstump": 7602,
    "erranean": 9333,
    "´": 117,
    "Ġknob": 24407,
    "Ġformations": 18748,
    "Ġform": 1023,
    "Ġdiscuss": 9473,
    ".âĢĶ": 4248,
    "Ġembark": 8556,
    "Ġdiver": 2531,
    "Ġexperienced": 6582,
    "Ġscolding": 15199,
    "Ġcovers": 18592,
    "Ġseren": 7401,
    "Ġsilent": 3411,
    "Ġunderwent": 23238,
    "Ġmonarch": 14415,
    "Ġphantoms": 13485,
    "Ġswap": 23049,
    "speechless": 25395,
    "cstasy": 11445,
    "Ġemaciated": 20637,
    "cupboards": 25401,
    "velling": 14761,
    "Ġsolving": 2483,
    "Ġsenor": 20149,
    "Ġhundreds": 4327,
    "Ġlam": 21546,
    "Ġnoiselessly": 22858,
    "Ġconn": 9229,
    "dec": 3110,
    "Ġending": 18189,
    "Ġcitizens": 25439,
    "this": 1440,
    "Ġfinanc": 23124,
    "Ġinboard": 17932,
    "Ġboundary": 11222,
    "more": 1031,
    "request": 21240,
    "ivers": 1983,
    "omics": 21640,
    "Ġestimation": 11218,
    "Ġwatchful": 16525,
    "atre": 17770,
    "Ġreigns": 21668,
    "Ġdistress": 5844,
    "ubines": 22956,
    "useless": 14594,
    "brevi": 24072,
    "Ġfaint": 5811,
    "design": 18958,
    "Ġdorm": 4821,
    "Ġlounged": 19952,
    "Ġebb": 21621,
    "Ġmenacing": 23105,
    "Ġlengthen": 15651,
    "Ġcate": 4111,
    "Ġmean": 743,
    "Ġerrors": 2596,
    "Ġsagacity": 16974,
    "Ġdrowning": 19903,
    "throw": 14097,
    "dog": 10692,
    "aves": 3598,
    "sequence": 2854,
    "Ġswears": 16462,
    "Ġalleg": 14016,
    "Ġfeast": 10277,
    "bury": 9106,
    "imens": 1746,
    "Ġdrops": 9032,
    "ppings": 18176,
    "Ġrains": 24340,
    "Ġdeuteronomy": 15752,
    "Ġsafely": 9025,
    "Ġasp": 15778,
    "Ġeyford": 10641,
    "Ġimprudently": 22384,
    "Ġappetites": 20205,
    "Ġregularizer": 2341,
    "Ġaw": 2510,
    "Ġgeneration": 2222,
    "Ġdestructive": 23485,
    "renched": 7906,
    "Ġbarb": 4529,
    "Ġages": 7027,
    "Ġsay": 934,
    "Ġslew": 23381,
    "Ġloadstone": 25816,
    "irs": 14070,
    "lott": 6650,
    "baby": 25515,
    "Ġdodge": 19885,
    "Ġjoes": 19229,
    "Ó": 148,
    "osp": 6854,
    "omet": 3074,
    "Ġforcing": 3222,
    "K": 47,
    "Ġsatisfy": 6912,
    "Ġfitness": 23997,
    "Ġma": 3254,
    "Ġbigot": 24565,
    "uctive": 17696,
    "Ġcomb": 1063,
    "âĢĿ--": 21810,
    "Ġcode": 1720,
    "high": 6649,
    "Ġthing": 1640,
    "ners": 3272,
    "Ġantiqu": 12142,
    "relics": 24012,
    "Ġforcibly": 10060,
    "onomy": 12544,
    "Ġheh": 21677,
    "Ġyoung": 1506,
    "Ġczar": 12571,
    "Ġsplinter": 23746,
    "ky": 4518,
    "Ġ97": 19773,
    "Ġaddition": 1145,
    "Ġdiminishing": 4209,
    "misfortunes": 16756,
    "ways": 1442,
    "empty": 23633,
    "Ġtack": 5621,
    "Ġforeb": 12002,
    "knives": 14912,
    "venor": 16095,
    "Ġrecords": 12193,
    "Ġauthors": 10417,
    "Ġnightfall": 23127,
    "represented": 20194,
    "Ġglad": 3327,
    "Ġeffeminacy": 20717,
    "+": 15,
    "âĢĻ": 378,
    "oded": 11669,
    "Ġgain": 4827,
    "Ġpreced": 6039,
    "Ġestablish": 9542,
    "Ġreplenished": 13635,
    "Ġhatchway": 13524,
    "Ġadieu": 10050,
    "Ġgenuine": 14884,
    "Ġdiscussion": 17194,
    "Ġex": 362,
    "merc": 19279,
    "Ġloudly": 7312,
    "Ġbehaviors": 13252,
    "Ġgrimly": 17052,
    "da": 17514,
    "Ġineffect": 13929,
    "somehow": 12010,
    "fra": 8374,
    "Ġgreece": 17069,
    "Ġtruly": 4796,
    "Ġvincent": 15282,
    "Ġprobability": 1127,
    "glad": 9007,
    "Ġcut": 2642,
    "Ġunperceived": 22032,
    "Ġweaver": 11686,
    "Ġsail": 1674,
    "Ġhing": 11603,
    "Ġobey": 9518,
    "protruding": 24816,
    "Ġsailor": 3535,
    "Ġwhalers": 8047,
    "Ġdes": 1249,
    "Ġfingers": 5672,
    "Ġtravel": 5952,
    "Ġunimpe": 22067,
    "hatchet": 24822,
    "Ġbusks": 23335,
    "Ġev": 4828,
    "Ġlecture": 13566,
    "Ġdeceived": 6544,
    "Ġsitting": 3604,
    "drowned": 17368,
    "oding": 1461,
    "Ġsubmerged": 11870,
    "Ġdow": 17886,
    "Ġexc": 1830,
    "Ġmoving": 1678,
    "Ġencouragement": 13039,
    "Ġoverhung": 15973,
    "Ġinfatuated": 20532,
    "distant": 13333,
    "Ġrejoiced": 8683,
    "Ġproudly": 19741,
    "Ġlaboratory": 13611,
    "fluttering": 23970,
    "Ġendless": 7053,
    "Ġcrawl": 11375,
    "Ġrepulsive": 14530,
    "ksome": 10104,
    "ix": 1799,
    "Ġdescended": 7428,
    "._": 3218,
    "Ġplunged": 8692,
    "Ġdungeon": 16996,
    "image": 9685,
    "ĠĠĠĠĠĠĠĠĠĠĠĠĠĠĠĠĠĠĠĠĠĠĠĠĠĠĠĠĠĠĠĠĠĠĠĠĠĠĠĠ": 4515,
    "ĉ": 202,
    "iferous": 17291,
    "anter": 9166,
    "presbyter": 20616,
    "mospheric": 17091,
    "Ġfine": 1314,
    "Ġtoler": 7588,
    "Ġrods": 9753,
    "imly": 12684,
    "imental": 16533,
    "Ġhedge": 8363,
    "Ġresolutely": 14609,
    "bee": 16035,
    "Ġloos": 15869,
    "Ġarcher": 22182,
    "utely": 8131,
    "fortunate": 4792,
    "things": 6032,
    "Ġind": 1221,
    "umps": 6317,
    "Ġposter": 14275,
    "andromeda": 21865,
    "choice": 21688,
    "Ġhail": 7400,
    "Ġinfinitely": 8963,
    "ales": 3318,
    "astonished": 15032,
    "glanced": 19364,
    "Ġfundament": 2927,
    "Ġcommodores": 25374,
    "bohemia": 20730,
    "rapt": 13972,
    "Ġtyro": 16994,
    "Ġdistricts": 20262,
    "Ġgreyish": 24208,
    "Ġpiratical": 24801,
    "begins": 18525,
    "Ġmadam": 5663,
    "Ġgirdled": 19157,
    "Ġpiazza": 26450,
    "Ġmouth": 3176,
    "iocr": 20922,
    "Ġundergone": 18986,
    "forecastle": 10990,
    "miserable": 8656,
    "like": 1884,
    "Ġattends": 19649,
    "Ġdestroyer": 13412,
    "ores": 2416,
    "iform": 2202,
    "tum": 11531,
    "Ġenrapt": 21936,
    "wandered": 20284,
    "plain": 1358,
    "phew": 6368,
    "contrast": 25594,
    "etuous": 21580,
    "em": 391,
    "Ġdom": 2758,
    "Ġstandpoint": 23275,
    "laying": 19771,
    "finding": 17013,
    "oro": 21393,
    "regards": 23465,
    "protested": 13473,
    "inching": 21188,
    "Ġplayfulness": 23635,
    "Ġpaws": 13920,
    "Ġintricacies": 15137,
    "Ġcompressed": 21847,
    "footsteps": 25199,
    "Ġsentiments": 7960,
    "Ġapprehens": 5682,
    "points": 14392,
    "Ġhorsey": 24249,
    "Ġconvolutions": 21804,
    "hastened": 16845,
    "Ġmorbidness": 20627,
    "Ġgreenwich": 19320,
    "Ġsnatched": 10471,
    "Ġsouth": 4911,
    "sw": 4741,
    "smooth": 20247,
    "Ġmarred": 23027,
    "Ġforenoon": 19126,
    "encountered": 20391,
    "maid": 8553,
    "Ġconst": 1911,
    "Ġrounding": 16273,
    "sens": 8095,
    "Ġscandalous": 24879,
    "Ġhapless": 15810,
    "sm": 3436,
    "Ġattempt": 3485,
    "times": 8098,
    "Ġabominably": 20064,
    "Ġphaet": 16317,
    "aret": 7417,
    "otence": 14022,
    "Ġinterest": 2251,
    "Ġdiffusion": 23781,
    "readers": 23845,
    "inously": 21185,
    "Ġpursue": 6314,
    "Ġhighway": 14345,
    "nevertheless": 8285,
    "tanh": 5204,
    "Ġgriev": 16634,
    "ospel": 17010,
    "Ġabusing": 18393,
    "Ġfaltering": 17884,
    "Ġceiling": 7996,
    "Ġcocked": 12901,
    "Ġcosy": 13129,
    "rised": 10123,
    "attachment": 13049,
    "deceiving": 22141,
    "yard": 5899,
    "tub": 9143,
    "Ġswart": 14433,
    "Ġ123": 24468,
    "wearing": 22684,
    "xible": 13807,
    "fth": 20855,
    "Ġgarn": 13962,
    "Ġchaplain": 19911,
    "diff": 9113,
    "elephant": 12349,
    "leagued": 26435,
    "B": 38,
    "Ġinh": 10824,
    "Ġhaggerston": 26452,
    "Ġdoct": 4452,
    "vocabulary": 25085,
    "explanation": 12356,
    "Ġworker": 23044,
    "Ġxerxes": 23409,
    "Ġoct": 10158,
    "Ġanomalously": 25638,
    "Ġsingled": 23771,
    "cell": 10685,
    "Ġstow": 21727,
    "Ġgems": 9208,
    "Ġcontextual": 3741,
    "Ġlbs": 11614,
    "figure": 13554,
    "oll": 5457,
    "Ġbestow": 6455,
    "Ġexponential": 1059,
    "friends": 8305,
    "Ġsermons": 20193,
    "Ġale": 9154,
    "saturday": 14857,
    "Ġextreme": 2517,
    "Ġhorr": 3187,
    "cad": 17504,
    "Ġgood": 999,
    "beheld": 11799,
    "igating": 21696,
    "Ġacquaint": 13042,
    "Ġthrusts": 24350,
    "Ġfading": 15581,
    "Ġinheriting": 25354,
    "Ġdesire": 3715,
    "Ġrecovering": 11862,
    "Ġcurb": 16230,
    "Ġcour": 1768,
    "Ġfelicity": 7260,
    "Ġconcent": 8249,
    "Ġpreposterous": 13668,
    "âĢľ_": 5720,
    "smote": 23907,
    "ezing": 10573,
    "tahit": 17692,
    "Ġoutfits": 22318,
    "Ġpenalizing": 13089,
    "establish": 17392,
    "ckets": 6843,
    "triumph": 15439,
    "ere": 6789,
    "Ġchiefly": 5766,
    "Ġladder": 8598,
    "Ġplanted": 9773,
    "aks": 8506,
    "Ġbumpkin": 20199,
    "eries": 6808,
    "._]]": 5334,
    "Ġalready": 2711,
    "bennet": 5352,
    "cu": 10083,
    "Ġashen": 21896,
    "Ġenduring": 16301,
    "Ġeyelids": 26107,
    "Ġfrown": 10807,
    "Ġlearnt": 7613,
    "Ġsplendour": 20223,
    "whether": 5319,
    "accounted": 16501,
    "Ġsemicirc": 16391,
    "women": 15455,
    "Ġcanvas": 7783,
    "Ġliver": 14227,
    "Ġ[\"": 19929,
    "bless": 22309,
    "Ġnumerous": 6920,
    "mselves": 2860,
    "dro": 6644,
    "confidence": 16808,
    "arth": 4440,
    "Ġcultivation": 17145,
    "Ġunclasp": 26511,
    "Ġmounts": 17806,
    "Ġcarcase": 14442,
    "worked": 19017,
    "Ġsomething": 1793,
    "couldn": 23716,
    "Ġde": 361,
    "Ġmovable": 22430,
    "Ġbridge": 8348,
    "Ġutterance": 14762,
    "eland": 11619,
    "Ġbeneficial": 23929,
    "monster": 8591,
    "joined": 13272,
    "parameter": 2957,
    "Ġinspiring": 19112,
    "Ġlads": 8597,
    "dataset": 23231,
    "contriv": 19292,
    "Ġ21": 11199,
    "enched": 10154,
    "lung": 17591,
    "alog": 8804,
    "Ġugly": 8715,
    "Ġtwit": 12926,
    "Ġprovoke": 14825,
    "Ġmace": 21308,
    "Ġconsequent": 18110,
    "text": 1974,
    "Ġevince": 24293,
    "Ġshine": 12763,
    "clad": 14458,
    "Ġbattered": 17862,
    "dation": 2614,
    "Ġconsiderations": 9409,
    "onsensical": 18576,
    "Ġposture": 24164,
    "av": 740,
    "ß": 160,
    "dropping": 14981,
    "Ġcitadel": 25438,
    "Ġopenshaw": 7954,
    "Ġdestroying": 14728,
    "Ġdeck": 2136,
    "estate": 12818,
    "minutes": 7512,
    "Ġembarrassed": 11384,
    "Ġobscure": 9553,
    "produ": 10720,
    "Ġshifted": 14106,
    "Ġwandered": 6930,
    "answer": 11730,
    "Ġcommencement": 12236,
    "enged": 23144,
    "quickly": 14961,
    "vious": 1783,
    "Ġshudder": 9050,
    "Ġstir": 5823,
    "Ġadmirers": 19685,
    "imely": 13997,
    "Ġcruisers": 25863,
    "Ġmem": 2069,
    "Ġusages": 15916,
    "together": 3555,
    "Ġgerm": 13963,
    "expectant": 24275,
    "silent": 9973,
    "Ġimmensities": 25330,
    "Ġdazed": 15593,
    "account": 5329,
    "Ġgrecian": 26296,
    "force": 12960,
    "Ġcretan": 22724,
    "Ġfew": 1219,
    "proves": 23392,
    "entiful": 10836,
    "thickness": 25367,
    "Ġday": 957,
    "ario": 14247,
    "Ġmistress": 8611,
    "following": 10572,
    "Ġquench": 22416,
    "Ġ34": 16677,
    "Ġcrawling": 17045,
    "Ġgone": 2105,
    "sharpening": 22461,
    "Ġcommon": 1414,
    "Ġsteed": 13037,
    "Ġglass": 4367,
    "Ġyou": 366,
    "allowing": 24358,
    "Ġpharaoh": 26585,
    "Ġtil": 12521,
    "Ġprairie": 8712,
    "Ġinserted": 8355,
    "Ġnerve": 16339,
    "health": 13832,
    "Ġwallowed": 24039,
    "impetuous": 23762,
    "Ġspades": 12793,
    "Ġthanking": 18603,
    "uv": 6229,
    "Ġstrenuously": 17447,
    "Ġawful": 6199,
    "Ġvic": 5237,
    "Ġbec": 1346,
    "supportable": 12368,
    "ning": 949,
    "Ġdirect": 1470,
    "Ġforth": 3462,
    "az": 2184,
    "^": 66,
    "Ġrecol": 4032,
    "Ġthroes": 24574,
    "ackled": 22418,
    "Ġmag": 1431,
    "Ġhighest": 3528,
    "alarms": 21502,
    "reflections": 24735,
    "Ġgirls": 4279,
    "Ġpurporting": 19181,
    "wor": 3417,
    "occ": 4482,
    "Ġannual": 14831,
    "Ġdizzy": 21430,
    "Ġimbedded": 18332,
    "Ġplush": 18610,
    "Ġfighting": 12195,
    "Ġrepeatedly": 9020,
    "Ġaccomplishment": 19664,
    "collecting": 26081,
    "troubled": 17112,
    "ening": 3103,
    "Ġbeautifully": 13264,
    "Ġangle": 8602,
    "sy": 2821,
    "yards": 9623,
    "creature": 5346,
    "Ġhopeful": 19028,
    "symp": 14623,
    "Ġmidday": 23631,
    "regularization": 3513,
    "Ġhandful": 9781,
    "Ġ111": 24436,
    "Ġassent": 12730,
    "ld": 385,
    "Ġcontinent": 14887,
    "uneven": 23684,
    "Ġthick": 3781,
    "Ġgibberish": 25786,
    "yd": 21141,
    "Ġnearest": 8469,
    "gazing": 12469,
    "Ġhousings": 21490,
    "Ġgamb": 17997,
    "convul": 24883,
    "Ġamidst": 9493,
    "Ġjustly": 11901,
    "newsp": 23130,
    "Ġcensured": 25094,
    "Ġfoliage": 18866,
    "revolver": 25627,
    "Ġ180": 16606,
    "Ġbone": 4694,
    "carb": 20809,
    "precision": 4330,
    "Ġemerge": 14927,
    "stee": 21648,
    "Ġdegener": 14045,
    "Ġlobster": 11389,
    "Ġchained": 16389,
    "caut": 20811,
    "kerchief": 7525,
    "walk": 5523,
    "Ġfragmentary": 25857,
    "Ġelectric": 15193,
    "Ġtrampled": 20327,
    "Ġordering": 18997,
    "blind": 16705,
    "Ġhish": 21911,
    "lestrade": 9656,
    "conqu": 14244,
    "mechanical": 25578,
    "Ġfatig": 6756,
    "Ġpianoforte": 15272,
    "Ġdispatched": 23879,
    "Ġslipped": 6492,
    "Ġirritated": 17242,
    "Ġinequal": 21494,
    "agony": 14068,
    "Ġdiffidence": 14659,
    "Ġthin": 4346,
    "Ġfire": 2335,
    "Ġ7": 4745,
    "Ġsympat": 13339,
    "bed": 3290,
    "Ġdundee": 16997,
    "apering": 8040,
    "Ġinfluenced": 19631,
    "Ġenderby": 13650,
    "Ġluggage": 25957,
    "Ġsensationalism": 26066,
    "Ġbeque": 18080,
    "Ġnodes": 1968,
    "brandy": 19199,
    "=": 33,
    "Ġstreat": 15718,
    "eli": 3871,
    "Ġaddu": 22102,
    "Ġhumiliating": 22878,
    "Ġbroadway": 23981,
    "superstitiousness": 25508,
    "Ġglistened": 20171,
    "Ġdisinterested": 16055,
    "Ġaval": 15492,
    "mes": 1197,
    "Ġglimmering": 25240,
    "embarrassed": 20595,
    "Ġproceeded": 5335,
    "Ġclumsy": 9579,
    "Ġsoot": 14131,
    "Ġlonging": 14299,
    "nib": 5214,
    "Ġinjure": 16781,
    "elab": 21567,
    "Ġitems": 9691,
    "Ġdisplayed": 10608,
    "Ġindefinitely": 25221,
    "Ġbohem": 8526,
    "Ġfifteen": 6947,
    "Ġhercules": 14127,
    "Ġepaulets": 24905,
    "Ġadvis": 9809,
    "Ġsuperb": 16444,
    "Ġpreparations": 12308,
    "neg": 12862,
    "ean": 20839,
    "Ġpence": 17905,
    "Ġoccupations": 9456,
    "past": 8089,
    "Ġpreternatural": 12820,
    "Ġbeheading": 21751,
    "Ġsling": 21219,
    "Ġrubbing": 9320,
    "Ġdiscol": 12950,
    "proceeding": 20140,
    "Ġspire": 18306,
    "Ġeyes": 1332,
    "Ġtet": 21156,
    "Ġsomnam": 23002,
    "Ġtroub": 22356,
    "practised": 20246,
    "Ġcascade": 20579,
    "ort": 523,
    "Ġhours": 2817,
    "ã": 164,
    "wear": 22680,
    "Ġlizzie": 26462,
    "gpt": 5355,
    "Ġknighthood": 25297,
    "Ġsources": 10147,
    "Ġcreeping": 18684,
    "--âĢľ": 12969,
    "Ġwoodlands": 23520,
    "Ġseveral": 2673,
    "Ġprendergast": 26537,
    "Ġinclemency": 22552,
    "whaler": 20308,
    "Ġcomposing": 16065,
    "separation": 25226,
    "happen": 19330,
    "ung": 2744,
    "Ġkeys": 11995,
    "hatches": 19927,
    "Ġredden": 15691,
    "anting": 6412,
    "Ġpersu": 3562,
    "Ġblotting": 25313,
    "Ġphase": 14470,
    "ocris": 23707,
    "Ġdaggoo": 5441,
    "Ġprivile": 8645,
    "Ġremoval": 12115,
    "eronomy": 15523,
    "education": 20300,
    "discovery": 12015,
    "Ġlitter": 19828,
    "neville": 22448,
    "Ġroyals": 19531,
    "Ġlace": 13948,
    "Ġappal": 18356,
    "machine": 1008,
    "Ġtechnically": 12364,
    "idge": 14013,
    "rise": 6226,
    "Ġeyed": 12666,
    "Ġtarpaul": 17730,
    "Ġbusily": 9384,
    "Ġrobbed": 23034,
    "Ġeighteen": 11238,
    "mere": 11853,
    "Ġbaffled": 12401,
    "judge": 13335,
    "bitt": 17485,
    "pest": 6964,
    "Ġhealth": 3900,
    "Ġthickets": 24020,
    "Ġgroves": 16740,
    "Ġstretching": 10014,
    "Ġlatterly": 24083,
    "ocratic": 17245,
    "oted": 4595,
    "»": 124,
    "Ġwaits": 23276,
    "depths": 25663,
    "Ġhen": 3500,
    "Ġjury": 5378,
    "https": 11683,
    "promontory": 24728,
    "theast": 21745,
    "Ġpumps": 8426,
    "Ġishmael": 7395,
    "vast": 10736,
    "wake": 11545,
    "Ġbeast": 7179,
    "Ġpag": 6010,
    "heaved": 21209,
    "mer": 2832,
    "Ġpetulance": 24227,
    "capital": 15087,
    "few": 8202,
    "swaying": 25910,
    "Ġtim": 4576,
    "Ġparticip": 16129,
    "fect": 2302,
    "ifies": 6686,
    "offers": 16392,
    "Ġmaddened": 17244,
    "Ġtotally": 9470,
    "Ġache": 18663,
    "Ġpresent": 1643,
    "Ġkicked": 10581,
    "lesome": 12962,
    "Ą": 197,
    "Ġimpossibility": 20646,
    "á": 162,
    "Ġmonstr": 7667,
    "ichron": 22165,
    "addressed": 13384,
    "Ġcru": 2822,
    "Ġdisconcerted": 18562,
    "vishnoo": 21118,
    "Ġsched": 2339,
    "Ġgaining": 9491,
    "Ġdetect": 1169,
    "Ġcandidate": 16701,
    "leeward": 15209,
    "profess": 10634,
    "Ġungover": 18252,
    "izings": 14050,
    "erxes": 21274,
    "Ġmoisture": 12357,
    "iline": 21718,
    "Ġenglish": 3614,
    "p": 84,
    "age": 503,
    "04": 10679,
    "Ġchildhood": 13137,
    "jer": 12478,
    "Ġascend": 9959,
    "Ġknots": 15008,
    "Ġwaking": 11569,
    "Ġcordon": 24394,
    "planks": 21951,
    "Ġinsight": 16530,
    "Ġlakeman": 6986,
    "Ġhungry": 10532,
    "Ġperceived": 4713,
    "ondon": 2705,
    "Ġscandal": 9081,
    "Ġguards": 16265,
    "oftentimes": 19419,
    "Ġwalrus": 14972,
    "Ġbit": 2966,
    "Ġdominant": 12394,
    "Ġstunsail": 25543,
    "Ġbedford": 7473,
    "Ġje": 4125,
    "Ġlou": 6822,
    "Ġnarwhale": 12291,
    "reduc": 5459,
    "Ġavert": 14424,
    "exactly": 10636,
    "intosh": 22937,
    "v": 90,
    "Ġpair": 5706,
    "Ġseem": 914,
    "unmistakable": 21892,
    "Ġadvances": 12990,
    "Ġguardsmen": 20629,
    "Ġgrec": 18961,
    "Ġdisobey": 18559,
    "onstr": 12543,
    "Ġbless": 4341,
    "fatality": 25019,
    "Ġcontriv": 9281,
    "Ġbroker": 23099,
    "Ġcolt": 11044,
    "Ġfancy": 3744,
    "dron": 17525,
    "Ġrue": 11865,
    "Ġcoats": 16072,
    "Ġeliza": 6437,
    "Ġsemantic": 1958,
    "size": 15424,
    "Ġcogn": 11002,
    "bod": 12435,
    "Ġmurmur": 14589,
    "soundest": 24797,
    "should": 3263,
    "Ġpalmed": 24089,
    "Ġber": 5698,
    "business": 5610,
    "Ġdro": 2770,
    "took": 6164,
    "Ġmustard": 12927,
    "Ġnarration": 13503,
    "Ġair": 1834,
    "cher": 5786,
    "Ġfluctu": 5267,
    "Ġhal": 1361,
    "Ġraptures": 13496,
    "Ġbrace": 11211,
    "Ġfathoms": 9083,
    "Ġclubs": 25179,
    "Ġkra": 18348,
    "theless": 4260,
    "illes": 12691,
    "composure": 24031,
    "rate": 2425,
    "marvell": 24172,
    "Ġphil": 3386,
    "Ġdeemed": 7611,
    "terrible": 8465,
    "osa": 22257,
    "Ġtid": 8106,
    "caterpillar": 26383,
    "philosop": 9567,
    "<MASK>": 4,
    "res": 2757,
    "laborers": 23913,
    "ier": 1135,
    "Ġshortness": 23480,
    "ercial": 21273,
    "Ġnailing": 21524,
    "Ġbodies": 8031,
    "chel": 11207,
    "Ġvisited": 5947,
    "Ġwol": 15528,
    "Ġglare": 13014,
    "Ġbehooves": 20732,
    "Ġharp": 17923,
    "======================================================================": 10067,
    "Ġresponses": 23647,
    "reflection": 13454,
    "Ġrelinqu": 12979,
    "Ġbenef": 3487,
    "Ġaffability": 14386,
    "Ġbutterfly": 19909,
    "adequ": 11020,
    "Ġperpendicularly": 11374,
    "plexy": 18575,
    "utted": 15658,
    "Ġjoints": 12033,
    "Ġmichaelmas": 26374,
    "Ġbarbara": 24818,
    "ted": 790,
    "Ġcorpulence": 24509,
    "Ġdiagon": 24740,
    "ishly": 14199,
    "ram": 13971,
    "Ġlandsc": 11146,
    "Ġshuddered": 11300,
    "Ġobedient": 20103,
    "Ġhaul": 11690,
    "Ġbamboo": 17436,
    "Ġ*/": 10373,
    "share": 14236,
    "itud": 2931,
    "Ġbingleys": 18995,
    "bur": 4686,
    "Ġmentioned": 4328,
    "madness": 14881,
    "maintained": 25020,
    "Ġaffording": 14820,
    "satisfaction": 9991,
    "Ġ150": 22823,
    "Ġheavens": 5050,
    "orters": 21399,
    "ancies": 11583,
    "seamen": 13625,
    "ignorance": 17161,
    "Ġsmells": 8889,
    "Ġmannish": 26237,
    "âĢĶâĢĻ": 8187,
    "Ġdocument": 15018,
    "Ġunwelcome": 12776,
    "Ġstamped": 13526,
    "transp": 24512,
    "ceptibly": 22343,
    "Ġdevil": 3612,
    "Ġstrained": 10218,
    "spoken": 11859,
    "Ġge": 1978,
    "volutional": 1935,
    "oided": 11508,
    "Ġwithout": 1122,
    "Ġcross": 1372,
    "Ġpreposter": 12819,
    "Ġdescent": 991,
    "Ġjune": 10288,
    "thus": 5158,
    "flask": 12097,
    "Ġseverity": 15818,
    "poises": 11887,
    "Ġbe": 336,
    "cries": 17510,
    "Ġ_": 840,
    "seeing": 7078,
    "Ġtwenty": 3947,
    "want": 8765,
    "Ġshoulders": 5566,
    "Ġdisconsol": 18557,
    "reasoning": 9475,
    "Ġbon": 8785,
    "Ġped": 6817,
    "Ġsavag": 19372,
    "Ġhatchet": 16529,
    "Ġdinah": 9452,
    "Ġacceler": 1611,
    "sey": 5543,
    "Ġoutset": 15953,
    "Ġflourishing": 25187,
    "Ġver": 3394,
    "Ġtreacher": 8604,
    "Ġwhile": 607,
    "Ġstupid": 7603,
    "persu": 8027,
    "Ġlanes": 19764,
    "Ġbrought": 2518,
    "Ġshiver": 12764,
    "Ġdeceiving": 21826,
    "Ġbadge": 16683,
    "Ġwhiskers": 10492,
    "bs": 3749,
    "phia": 22768,
    "Ġcourse": 2128,
    "Ġvisiting": 10361,
    "Ġclassify": 1622,
    "Ġslip": 8954,
    "Ġfrenchman": 11283,
    "grieved": 17316,
    "Ġberyls": 25775,
    "Ġscre": 9736,
    "continue": 16861,
    "Ġholding": 4979,
    "freely": 16854,
    "Ġjoyfully": 19344,
    "Ġcorroborated": 26053,
    "Ġash": 4832,
    "thirst": 15823,
    "assured": 10952,
    "ases": 1521,
    "plenty": 14087,
    "Ġdeficiencies": 26570,
    "Ġintervene": 25480,
    "izer": 2029,
    "Ġ88": 19710,
    "Ġrecurrent": 1802,
    "Ġpacifics": 24373,
    "syntax": 5866,
    "bert": 4662,
    "Ġflash": 8229,
    "might": 4080,
    "itive": 6668,
    "Ġdreaded": 8288,
    "Ġstairs": 5541,
    "Ġoperation": 11997,
    "istics": 1631,
    "Ġrepl": 1593,
    "Ġvertically": 19378,
    "Ġceremony": 8360,
    "======": 9832,
    "inders": 15979,
    "Ġret": 1380,
    "Ġhysterics": 26093,
    "cigar": 26124,
    "stand": 630,
    "Ġfriendly": 9819,
    "rinted": 21042,
    "Ġsable": 15499,
    "Ġobsequ": 14319,
    "Ġvest": 8162,
    "istle": 15868,
    "soo": 18685,
    "practical": 17221,
    "glorious": 19365,
    "Ġcoil": 11816,
    "hunsford": 24386,
    "morland": 24153,
    "frau": 15088,
    "Ġsane": 21220,
    "Ġjustify": 11072,
    "Ġengravings": 15064,
    "Ġhuman": 1315,
    "Ġsimpler": 2048,
    "Ġbenches": 18780,
    "lanter": 15386,
    "enance": 3371,
    "Ġunmethodically": 22066,
    "gently": 13728,
    "distinguish": 19571,
    "Ġreclining": 26034,
    "Ġgrosvenor": 17417,
    "rell": 11563,
    "Ġcryst": 9916,
    "Ġhoisting": 9861,
    "Ġdress": 4023,
    "explain": 1479,
    "Ġtumbling": 13825,
    "Ġplaited": 14283,
    "fitted": 17544,
    "Ġcomparatively": 9489,
    "consequ": 18506,
    "pregn": 18498,
    "ryphon": 4165,
    "Ġspiteful": 19521,
    "ropout": 1318,
    "Ġvelvets": 25393,
    "Ġaccuse": 14212,
    "Ġgrace": 5374,
    "Ġdances": 10812,
    "Ġcha": 6853,
    "Ġexcessive": 3889,
    "Ġepicures": 25880,
    "Ġmoist": 9284,
    "rugged": 6849,
    "Ġdecisive": 18485,
    "Ġethics": 15461,
    "Ġhighness": 22772,
    "Ġxii": 11989,
    "obst": 11930,
    "Ġacquiescence": 20329,
    "urning": 12913,
    "aried": 10987,
    "love": 9293,
    "Ġbri": 21376,
    "Ġblowing": 10484,
    "Ġstudent": 14478,
    "Ġforegoing": 23448,
    "rible": 3225,
    "ner": 1371,
    "ack": 613,
    "Ġcab": 2634,
    "Ġfilthy": 13246,
    "Ġtoad": 21507,
    "esc": 618,
    "rages": 15678,
    "Ġshield": 21996,
    "alescing": 23864,
    "watches": 14946,
    "ared": 770,
    "ant": 438,
    "Ġunconsciously": 10004,
    "outon": 12800,
    "neighb": 16021,
    "Ġrestless": 10413,
    "lifeless": 24312,
    "antages": 7192,
    "favourable": 12261,
    "Ġremove": 7499,
    "Ġconclusion": 5985,
    "ougher": 18276,
    "Ġconqueror": 25796,
    "Ġlimped": 19180,
    "aning": 2256,
    "Ġlieu": 19563,
    "sensibility": 25023,
    "oquent": 12497,
    "dared": 13701,
    "umbered": 22114,
    "Ġuncle": 3189,
    "application": 12361,
    "Ġspices": 22127,
    "fel": 8733,
    "Ġmince": 22827,
    "therefore": 5953,
    "Ġspotted": 12136,
    "Ġswitching": 23054,
    "buck": 17490,
    "Ġstern": 4222,
    "Ġcomparative": 10542,
    "Ġadie": 8488,
    "Ġalche": 21780,
    "oglyph": 11018,
    "Ġlass": 15645,
    "Ġmisunderstood": 18705,
    "Ġmainland": 22653,
    "gentle": 5356,
    "Ġbrazen": 23837,
    "jewel": 20345,
    "otently": 21797,
    "traces": 24315,
    "Ġbarrel": 23790,
    "wheeler": 16186,
    "Ġterror": 5124,
    "Ġanywhere": 8516,
    "Ġposition": 1954,
    "Ġterti": 14538,
    "Ġpriority": 19761,
    "owe": 15706,
    "Ġostentatious": 25736,
    "Ġdevoutly": 25832,
    "Ġmishap": 20575,
    "Ġtarshish": 12027,
    "presum": 12865,
    "nnight": 20992,
    "orton": 11754,
    "standard": 22433,
    "far": 5787,
    "Ġgravely": 7882,
    "iences": 6957,
    "Ġcumul": 4180,
    "Ġfearful": 6197,
    "Ġkeeps": 8266,
    "Ġjog": 18404,
    "historian": 25735,
    "inates": 21179,
    "icide": 11617,
    "Ġbenchmarks": 15021,
    "vain": 15446,
    "mansion": 20982,
    "sixty": 24852,
    "seventh": 12711,
    "necessarily": 19630,
    "Ġpitiful": 13237,
    "pie": 21010,
    "ry": 805,
    "relatively": 24011,
    "typewritten": 26038,
    "Ġdolphins": 20394,
    "Ġdispelling": 23878,
    "decl": 8856,
    "Ġenergies": 25459,
    "slee": 17168,
    "Ġindignity": 18833,
    "danced": 20827,
    "Ġapparel": 20434,
    "Ġconsol": 3813,
    "Ġallegor": 25545,
    "apter": 1192,
    "joy": 3336,
    "Ġcompany": 3719,
    "bear": 10315,
    "equ": 6790,
    "imate": 4221,
    "Ġscared": 14189,
    "atiable": 17774,
    "Ġblanched": 26282,
    "Ġdemean": 12717,
    "Ġdecided": 5471,
    "Ġpurchase": 12257,
    "Ġdamn": 11158,
    "Ġfoundling": 22972,
    "omited": 21638,
    "Ġheadlands": 22896,
    "Ġvii": 13107,
    "Ġsooner": 5573,
    "class": 4097,
    "withdrawn": 23023,
    "orm": 425,
    "Ġscandinav": 19959,
    "Ġrapt": 7225,
    "Ġshy": 10903,
    "Ġleaped": 8825,
    "Ġunrecorded": 17467,
    "creatures": 7517,
    "oot": 13764,
    "last": 3801,
    "Ġaffl": 14385,
    "Ġbulkington": 14677,
    "ely": 622,
    "hos": 15362,
    "otes": 15741,
    "constable": 24605,
    "impul": 16555,
    "Ġlooking": 2474,
    "pled": 7891,
    "Ġdecomposition": 5342,
    "rep": 5525,
    "Ġenforced": 21935,
    "Ġexter": 7397,
    "Ġfrosted": 19802,
    "Ġunnear": 22023,
    "Ġrifle": 18212,
    "wreck": 21135,
    "Ġfurn": 3708,
    "actorily": 25576,
    "Ġconsent": 5372,
    "Ġopened": 3510,
    "derstand": 652,
    "Ġtash": 13819,
    "itch": 10160,
    "arson": 22741,
    "Ġsegment": 12754,
    "zealand": 26054,
    "Ġnathan": 21523,
    "intim": 22931,
    "Ġperfection": 19216,
    "riving": 21923,
    "Ġperpetually": 17070,
    "unned": 21875,
    "Ġsteered": 11091,
    "Ġgames": 11625,
    "Ġvillains": 14748,
    "unwittingly": 25801,
    "Ġsignifies": 19202,
    "Ġpage": 6978,
    "Ġpred": 660,
    "Ġlungs": 8361,
    "names": 16528,
    "Ġrobinson": 17463,
    "zening": 21147,
    "rine": 21036,
    "):": 11461,
    "imodal": 17446,
    "Ġparametric": 2399,
    "Ġpurposely": 10444,
    "Ġbanished": 10616,
    "Ġcorrection": 5062,
    "Ġequals": 4727,
    "Ġdiscriminative": 4326,
    "etition": 7382,
    "Ġfiles": 21411,
    "Ġscalable": 1528,
    "Ġowns": 22821,
    "Ġomit": 17815,
    "Ġbunch": 11326,
    "Ġendeavor": 16544,
    "Ġsupremacy": 20259,
    ").âĢĿ": 20740,
    "recover": 24622,
    "Ġintention": 5638,
    "opic": 22473,
    "abeth": 905,
    "Ġfront": 3451,
    "Ġmiraculous": 13546,
    "island": 10794,
    "Ġsubfield": 11867,
    "ĠĠĠĠĠĠĠĠĠĠĠĠĠĠĠĠĠĠĠĠĠĠĠ": 18832,
    "unnatural": 15770,
    "Ġclouded": 13288,
    "esy": 9182,
    "Ġfable": 15574,
    "Ġas": 374,
    "Ġdreamt": 23936,
    "Ġmercy": 8998,
    "Ġcons": 954,
    "Ġsailed": 4888,
    "charmed": 21693,
    "acific": 4960,
    "inks": 6869,
    "labour": 23912,
    "Ġtender": 5753,
    "station": 10844,
    "landsmen": 25059,
    "Ġpaternal": 16383,
    "Ġsinful": 18948,
    "Ġreferred": 8915,
    "Ġrussia": 26267,
    "Ġastr": 15493,
    "exercise": 17459,
    "Ġparameter": 887,
    "hotel": 20048,
    "Ġstudents": 23234,
    "Ġtents": 13817,
    "brimmed": 14588,
    "shake": 22452,
    "Ġbloss": 19255,
    "Ġrank": 6258,
    "Ġdri": 2366,
    "Ġsweatings": 25710,
    "Ġmonoman": 7938,
    "Ġprofessed": 14723,
    "aunted": 20769,
    "landed": 18955,
    "eh": 13709,
    "Ġspectacle": 10496,
    "Ġtitle": 11408,
    "Ġimmediately": 3366,
    "Ġsnorting": 23739,
    "iments": 4945,
    "ellect": 7381,
    "Ġinsinuating": 19270,
    "Ġhighly": 4844,
    "Ġexclusion": 19394,
    "Ġrange": 9711,
    "mathematics": 26304,
    "Ġexplored": 23517,
    "Ġ1883": 23894,
    "Ġrefusal": 10341,
    "Ġblind": 3714,
    "Ġinstinct": 6575,
    "Ġdifficult": 3570,
    "Ġbridle": 24681,
    "sh": 646,
    "Ġmisgivings": 15290,
    "sigma": 3005,
    "Ġquitting": 7645,
    "prof": 7698,
    "Ġdate": 7841,
    "Ġshakespeare": 20306,
    "Ġbowed": 6242,
    "a": 69,
    "critters": 14782,
    "Ġbaronial": 23792,
    "Ġwe": 387,
    "000": 2561,
    "Ġseeth": 21957,
    "Ġsecurely": 16802,
    "Ġturnpike": 23024,
    "Ġlangs": 13953,
    "Ġvigilance": 12369,
    "Ġtraged": 9351,
    "Ġimbib": 22172,
    "Ġvoids": 25807,
    "Ġrepulses": 26070,
    "Ġmanner": 2197,
    "Ġad": 444,
    "comprehensive": 20625,
    "Ġstamp": 7863,
    "Ġdelayed": 9517,
    "awing": 18915,
    "Ġsunday": 7270,
    "Ġpolicy": 10457,
    "ures": 837,
    "Ġoxford": 11371,
    "strength": 13979,
    "Ġcant": 17824,
    "billows": 20235,
    "side": 2303,
    "benevol": 12224,
    "Ġperiodical": 14771,
    "Ġlawyer": 10668,
    "Ġprocesses": 3633,
    "place": 4155,
    "Ġrenew": 6145,
    "Ġupbraided": 26528,
    "Ġpigs": 19746,
    "Ġreception": 9838,
    "butt": 15992,
    "grim": 19106,
    "Ġapproximation": 2343,
    "mic": 12486,
    "Ġjenkinson": 11431,
    "Ġpurses": 23475,
    "Ġtribute": 15474,
    "cottagers": 20046,
    "Ġbabies": 19691,
    "Ġyours": 4126,
    "Ġheedless": 14902,
    "Ġconcuss": 19045,
    "ainted": 3658,
    "ability": 716,
    "ceed": 1076,
    "vi": 2380,
    "Ġtrace": 6180,
    "Ġcongen": 10873,
    "Ġdestitute": 14565,
    "Ġcam": 10161,
    "Ġyield": 5093,
    "idirection": 2414,
    "Ġshade": 6550,
    "Ġbelongs": 8014,
    "Ġguiltless": 16940,
    "Ġcrystal": 17214,
    "ugging": 23287,
    "other": 1312,
    "windows": 19533,
    "Ġcath": 17826,
    "wester": 21137,
    "Ġbough": 13893,
    "reinforcement": 7826,
    "intentions": 22936,
    "rudent": 6482,
    "highest": 20406,
    "Ġtasted": 12526,
    "Ġrefinement": 18693,
    "boards": 23253,
    "venge": 4658,
    "ensation": 22542,
    "Ġjuicy": 25370,
    "Ġhierarchical": 1928,
    "anders": 18152,
    "Ł": 258,
    "Ġinert": 15619,
    "Ġbottomless": 12104,
    "Ġhaste": 9003,
    "ording": 9763,
    "Ġqualities": 7533,
    "ondescript": 22913,
    "merged": 11194,
    "asburgh": 15644,
    "terdam": 18129,
    "Ġbranded": 14378,
    "leo": 21362,
    "amongst": 24672,
    "Ġrid": 4353,
    "Ġhatred": 8608,
    "ĠĠĠĠĠĠĠĠĠĠĠĠĠĠĠĠĠĠĠĠĠĠĠĠĠĠĠĠĠĠĠĠĠ": 12040,
    "Ġvex": 5948,
    "Ġlastly": 16203,
    "Ġiceberg": 14715,
    "spent": 12939,
    "resides": 23667,
    "ook": 21003,
    "Ġfunction": 580,
    "Ġbraved": 23835,
    "lake": 13748,
    "olently": 15757,
    "solitary": 14504,
    "obtained": 23093,
    "mblings": 19779,
    "ghan": 19453,
    "Ġarranging": 11174,
    "Ġkentuckian": 26342,
    "Ġaccomp": 4712,
    "inities": 21184,
    "Ġ70": 11276,
    "Ġexisted": 15753,
    "Ġpallid": 12297,
    "Ġafraid": 3529,
    "Ġaudible": 19880,
    "ellative": 21940,
    "Ġanomalous": 25637,
    "Ġmillions": 11354,
    "Ġswarm": 23051,
    "Ġdance": 4439,
    "oir": 21001,
    "wedged": 24338,
    "mbly": 9792,
    "thirds": 25046,
    "captains": 12125,
    "Ġrelinquish": 17346,
    "uneasy": 23685,
    "Ġfist": 21402,
    "slanting": 24558,
    "Ġjam": 10951,
    "Ġgree": 7594,
    "Ġscuttle": 7414,
    "oda": 15747,
    "inspector": 13645,
    "deprived": 19897,
    "ifying": 5235,
    "Ġtheatre": 21277,
    "Ġstring": 11825,
    "Ġlighting": 13081,
    "incredible": 16498,
    "Ġwaifing": 25243,
    "relapse": 24013,
    "Ġresented": 22540,
    "Ġbask": 8116,
    "Ġthereby": 7643,
    "Ġgroping": 13664,
    "Ġponder": 6819,
    "letons": 14612,
    "Ġwelcome": 5604,
    "distrustful": 26330,
    "voyage": 7785,
    "Ġforgo": 21770,
    "Ġwarsaw": 26167,
    "Ġmushroom": 13234,
    "Ġchristmas": 6924,
    "Ġsqualid": 14367,
    "Ġsubsiding": 23432,
    "Ġhoisted": 5959,
    "Ġadvanced": 1536,
    "alf": 4638,
    "Ġsubstantial": 14809,
    "aned": 5147,
    "Ġschoolboys": 24481,
    "Ġequinox": 25855,
    "Ġ61": 24364,
    "mount": 9129,
    "Ġseaport": 20598,
    "Ġflattening": 26048,
    "explained": 23137,
    "Ġseparation": 11247,
    "xt": 2080,
    "Ġvehement": 16200,
    "Ġunconscious": 9546,
    "Ġredress": 23751,
    "Ġwondrously": 24061,
    "Ġboasting": 19934,
    "Ġsuperst": 7703,
    "Ġpunish": 12157,
    "beings": 12873,
    "Ġlaz": 7378,
    "Ġblacksmith": 6595,
    "Ġventil": 8019,
    "Ġbursting": 8655,
    "Ġhelmeted": 19687,
    "tfordshire": 4811,
    "Ġyon": 9692,
    "ampton": 18144,
    "Ġchick": 22244,
    "Ġmended": 21312,
    "Ġsunrise": 9372,
    "Ġsurrounding": 12160,
    "Ġhath": 12625,
    "Ġranging": 8478,
    "Ġnourishment": 15191,
    "wanted": 10743,
    "Ġboil": 16102,
    "Ġtunnel": 14929,
    "Ġwayward": 22866,
    "gin": 4930,
    "rushed": 10584,
    "Ġboots": 5943,
    "Ġinvested": 7279,
    "narrowly": 20346,
    "Ġpun": 4585,
    "Ġleads": 12094,
    "Ġexplanations": 15908,
    "Ġpie": 13914,
    "resentment": 15184,
    "Ġrh": 9243,
    "runs": 25415,
    "aciousness": 18607,
    "Ġstraps": 19309,
    "pacific": 17641,
    "Ġsilently": 6894,
    "ump": 2285,
    "main": 8087,
    "Ġdeterm": 1268,
    "20": 20752,
    "sight": 5994,
    "Ġshuddering": 9051,
    "Ġimplicate": 24876,
    "Ġcottages": 14726,
    "cen": 17502,
    "Ġweltering": 19584,
    "earthly": 24724,
    "indirect": 22369,
    "Ġetc": 7084,
    "Ġscientific": 6857,
    "am": 367,
    "Ġwight": 12550,
    "leton": 5148,
    "Ġ1890": 23893,
    "Ġinterested": 6458,
    "Ġrays": 10330,
    "Ġslope": 14459,
    "Ġorlop": 22090,
    "lutions": 20949,
    "Ġsmooth": 2777,
    "onder": 3778,
    "Ġmanufactured": 22327,
    "Ġincluded": 8930,
    "Ġpreserved": 9261,
    "Ġcoincidences": 26363,
    "Ġrests": 13091,
    "Ġinsignificance": 20456,
    "Ġnut": 12643,
    "injury": 25213,
    "uture": 1048,
    "ispiece": 19724,
    "Ġdarkly": 19114,
    "sway": 15423,
    "Ġcordiality": 24395,
    "Ġtattooed": 11378,
    "Ġinfl": 6893,
    "using": 5468,
    "g": 75,
    "Ġcamberwell": 25350,
    "lu": 597,
    "Ġteased": 18800,
    "Ġlength": 2501,
    "Ġencountering": 11269,
    "Ġafghan": 22624,
    "unwholesome": 26497,
    "Ġportent": 12079,
    "considered": 9580,
    "Ġrinal": 21977,
    "ď": 208,
    "Ġpossessor": 23821,
    "Ġcalf": 16263,
    "pockets": 16208,
    "concluded": 11242,
    "gainst": 25141,
    "iction": 4268,
    "Ġlive": 2734,
    "Ġsoul": 2724,
    "missed": 11209,
    "Ġcareful": 2612,
    "untarily": 6312,
    "capitals": 25080,
    "Ġfisheries": 17437,
    "steps": 9404,
    "Ġinvulnerable": 19146,
    "Ġsaratoga": 26423,
    "Ġextravagant": 17278,
    "Ġmagnificence": 20631,
    "Ġfleeting": 19326,
    "published": 26142,
    "Ġlodge": 5779,
    "Ġnorms": 3665,
    "uniform": 18157,
    "Ġindisc": 16226,
    "Ġhorizont": 6937,
    "Ġoblivion": 26031,
    "roots": 15640,
    "Ġstat": 1490,
    "Ġbushy": 16400,
    "Ġuninjured": 22051,
    "Ġevidently": 6759,
    "ch": 321,
    "rison": 13778,
    "Ġhistorical": 3645,
    "Ġlamb": 8812,
    "Ġencaps": 12958,
    "Ġreflections": 5945,
    "happy": 4422,
    "Ġsaves": 18324,
    "stocks": 23818,
    "Ġswitzerland": 10379,
    "Ġbruited": 25773,
    "affold": 16561,
    "Ġtener": 21162,
    "procure": 23395,
    "iards": 17574,
    "Ġsanctioned": 26349,
    "clam": 13052,
    "Ġcin": 13874,
    "reporting": 24494,
    "means": 9785,
    "Ġgilt": 21603,
    "ortion": 11755,
    "disappeared": 14570,
    "Ġawoke": 7286,
    "win": 6801,
    "Ġtreasures": 17047,
    "mo": 862,
    "trembling": 17142,
    "!_âĢĿ": 11376,
    "Ġpreprocess": 22230,
    "Ġgrampus": 21990,
    "erve": 12546,
    "travellers": 24318,
    "istered": 14144,
    "dial": 20824,
    "Ġdecent": 10978,
    "ceremony": 20588,
    "ė": 216,
    "Ġdisgust": 6705,
    "flying": 13720,
    "ached": 2324,
    "Ġtennessee": 26596,
    "Ġmichigan": 26426,
    "hercules": 22202,
    "barbs": 20236,
    "achines": 1722,
    "osal": 11757,
    "Ġcaptive": 14426,
    "Ġcur": 1235,
    "Ġpanted": 21470,
    "gr": 2085,
    "pond": 21012,
    "gradually": 12912,
    "j": 78,
    "Ġreefed": 20301,
    "sleepy": 24729,
    "Ġcrowder": 19454,
    "Ġnich": 21517,
    "Ġinterposed": 20617,
    "urs": 6989,
    "ashtego": 4104,
    "mangled": 20980,
    "twist": 23700,
    "Ġfarthest": 23113,
    "Ġprodig": 6027,
    "time": 3144,
    "Ġventilator": 8713,
    "bad": 12434,
    "gradient": 2276,
    "reward": 15508,
    "Ġdeployment": 11186,
    "Ġnaturally": 2467,
    "Ġshocks": 16456,
    "stonecraft": 24356,
    "analysis": 26173,
    "rix": 1574,
    "orative": 21396,
    "sweet": 8685,
    "Ġrespectfully": 18994,
    "Ġworshippers": 25693,
    "Ġmend": 8405,
    "Ġdante": 21436,
    "Ġexecution": 6927,
    "hastening": 24448,
    "Ġstars": 6149,
    "Ġgills": 17992,
    "Ġviolently": 6456,
    "Ġtheories": 13848,
    "Ġtendency": 11329,
    "Ġcommunications": 16353,
    "Ġcrime": 4614,
    "Ġsusp": 2664,
    "Ġsnowy": 9017,
    "Ġeconomically": 25288,
    "Ġtossing": 8125,
    "Ġunimaginable": 15245,
    "olstad": 7612,
    "Ġturing": 7566,
    "mises": 20977,
    "ribly": 8254,
    "Ġresearches": 13130,
    "neying": 22446,
    "Ġinterrupt": 4358,
    "poster": 11056,
    "Ġvanishing": 1343,
    "peace": 13046,
    "Ġanimate": 23421,
    "Ġfainted": 8791,
    "Ġfile": 13902,
    "altering": 12637,
    "Ġvalue": 2084,
    "Ġstung": 21735,
    "Ġinspirited": 23419,
    "Ġriggers": 24156,
    "Ġapprised": 18358,
    "Ġnameless": 7699,
    ">": 34,
    "Ġfootpaths": 26318,
    "Ġmerged": 19296,
    "Ġtrough": 15968,
    "Ġhastened": 9004,
    "whence": 23211,
    "rifle": 21045,
    "Ġgentleness": 8709,
    "commer": 22819,
    "Ġsulphur": 24933,
    "Ġsashes": 21224,
    "degrees": 22147,
    "Ġminimax": 5857,
    "Ġmeal": 9696,
    "where": 2091,
    "Åĵuvre": 25887,
    "Ġnois": 4267,
    "Ġwillow": 18530,
    "indust": 18435,
    "Ġsoundings": 13132,
    "cig": 17503,
    "ugl": 23286,
    "Ġpoised": 22590,
    "ruded": 15901,
    "Ġaims": 15495,
    "quadr": 15761,
    "Ġfluctuating": 24417,
    "ipagos": 22342,
    "Ġdifficulties": 11225,
    "Ġpequod": 2325,
    "ĠĠĠĠĠĠĠĠĠĠĠĠĠĠĠĠĠĠĠĠĠĠĠĠĠĠĠĠĠĠĠĠĠĠĠĠĠĠĠĠĠĠĠĠĠĠĠĠĠĠĠ": 20037,
    "Ġbronze": 22862,
    "Ġunjust": 8483,
    "no": 881,
    "virtue": 20568,
    "Ġtops": 14586,
    "romeda": 17262,
    "trees": 10731,
    "inate": 6233,
    "Ġglasses": 9474,
    "Ġsingular": 4421,
    "Ġmurderer": 4980,
    "Ġconsole": 8150,
    "despatched": 19800,
    "keeper": 5597,
    "undant": 14790,
    "Ġroylott": 7305,
    "imately": 12685,
    "Ġtragic": 15254,
    "Ġneck": 4885,
    "Ġsteer": 10386,
    "emptied": 23634,
    "Ġruefully": 17300,
    "housekeeping": 24102,
    "tiger": 13796,
    "_,âĢĿ": 6218,
    "cob": 10086,
    "Ġtakes": 5007,
    "Ġaffidavit": 20723,
    "Ġaper": 17743,
    "arch": 1119,
    "aping": 8193,
    "Ġfumbling": 21415,
    "passion": 11260,
    "Ġelephants": 9863,
    "Ġrocking": 10969,
    "cet": 15324,
    "Ġdistance": 3482,
    "Ġstrip": 9420,
    "Ġcracking": 14574,
    "Ġcellar": 8058,
    "chance": 6827,
    "jep": 20925,
    "Ġheav": 1851,
    "Ġsimul": 1805,
    "dee": 11731,
    "Ġradiating": 24335,
    "Ġfishermen": 5970,
    "Ġcrib": 21346,
    "Ń": 260,
    "irksome": 18172,
    "ibbald": 18841,
    "Ġsig": 867,
    "Ġconsist": 1934,
    "Ġmurdered": 6464,
    "Ġautumn": 14512,
    "Ġopp": 2696,
    "Ġrepresenting": 4062,
    "Ġlac": 17964,
    "Ġ1820": 25718,
    "Ġ5": 4935,
    "wife": 8100,
    "att": 1456,
    "Ġbildad": 3780,
    "Ġreceipt": 20354,
    "Ġfals": 15578,
    "Ġsuch": 793,
    "Ġfaithfulness": 24446,
    "upp": 10130,
    "temper": 10003,
    "Ġnovels": 15927,
    "Ġpaw": 12617,
    "Ġchoosing": 19589,
    "Ġworkflow": 2497,
    "Ġspace": 1513,
    "Ġvolumes": 14799,
    "Ġmissing": 6175,
    "Ġdetermines": 2372,
    "Ġwide": 4110,
    "Ġspinal": 12300,
    "Ġtapping": 10752,
    "iability": 20919,
    "Ġdetermination": 9818,
    "Ġsponge": 26003,
    "sworn": 24256,
    "Ġrevelations": 25223,
    "floor": 14935,
    "iday": 8829,
    "Ġcalmed": 16264,
    "Ġbang": 17854,
    "first": 3931,
    "scans": 22986,
    "witted": 17707,
    "Ġxlix": 25860,
    "ognit": 19238,
    "face": 3676,
    "stories": 18023,
    "Ġpretence": 13206,
    "outh": 2687,
    "Ġa": 263,
    "Ġarr": 1797,
    "must": 3576,
    "rum": 3416,
    "Ġbanners": 24858,
    "Ġwhitt": 18054,
    "Ġjet": 5307,
    "Ġresounds": 22539,
    "ind": 568,
    "all": 485,
    "Ġsiber": 17755,
    "Ġtermination": 16459,
    "Ġprem": 3427,
    "Ġmetaphysical": 26069,
    "skeleton": 17375,
    "Ġexasperated": 11412,
    "Ġdodging": 19886,
    "Ġprairies": 20019,
    "verted": 10217,
    "date": 17517,
    "Ġfam": 1584,
    "numerous": 17430,
    "oub": 1634,
    "Ġsens": 1853,
    "lifted": 15385,
    "Ġling": 7377,
    "Ġenables": 725,
    "fortunes": 6332,
    "Ġour": 1009,
    "glow": 20873,
    "Ġcasc": 15553,
    "Ġthrone": 12211,
    "alid": 13934,
    "rets": 12538,
    "networks": 2408,
    "sometimes": 5971,
    "Ġpoet": 8208,
    "Ġfirmly": 8013,
    "winding": 16720,
    "Ġwelcomed": 9481,
    "Ġintegral": 25008,
    "Ġshooting": 11162,
    "unte": 21870,
    "Ġbiggest": 24566,
    "ity": 416,
    "Ġrum": 5923,
    "Ġattacked": 10567,
    "rium": 3131,
    "Ġsunken": 14493,
    "Ġwait": 4907,
    "Ġoverjoyed": 17457,
    "vously": 23504,
    "Ġaccent": 10293,
    "unciation": 25982,
    "turbaned": 24532,
    "twelve": 14621,
    "dipped": 20836,
    "Ġprocopius": 19730,
    "certain": 3675,
    "Ġcreating": 2997,
    "colnett": 19329,
    "coiled": 16485,
    "allow": 5104,
    "ü": 189,
    "lev": 1236,
    "Ġep": 7385,
    "Ġterrified": 14671,
    "Ġenrolled": 21934,
    "slipped": 25529,
    "germans": 20564,
    "------": 12131,
    "condemned": 26060,
    "Ġperfections": 23607,
    "promise": 12248,
    "ifice": 7198,
    "amidst": 25652,
    "Ġcrimes": 8588,
    "isa": 17845,
    "Ġtalked": 4418,
    "uine": 13798,
    "Ġvia": 2387,
    "Ġrepeat": 7999,
    "Ġthereupon": 18434,
    ")âĢĶâĢľ": 20742,
    "Ġunh": 9252,
    "Ġwants": 5742,
    "Ġkidnapping": 26356,
    "avenue": 25057,
    "bitious": 16669,
    "Ġungod": 22019,
    "leads": 21368,
    "Ġshifting": 12765,
    "etical": 13957,
    "Ġfacetious": 20582,
    "raint": 18316,
    "Ġpersuading": 19408,
    "Ġjava": 12310,
    "Ġpasseng": 12968,
    "Ġpe": 850,
    "ech": 4387,
    "Ġdisappearing": 22530,
    "iron": 3586,
    "Ġhandkerchief": 8913,
    "happ": 3102,
    "attached": 11933,
    "Ġbonnet": 10655,
    "Ġrespectful": 16344,
    "ignified": 14490,
    "Ġbounding": 19398,
    "agement": 4189,
    "Ġpredecessor": 26251,
    "Ġte": 1138,
    "Ġmexic": 14030,
    "Ġexcell": 10415,
    "Ġcheers": 16364,
    "fright": 9595,
    "Ġnotions": 14098,
    "Ġmethod": 1485,
    "example": 16011,
    "Ġger": 21588,
    "geneva": 13729,
    "pretty": 10621,
    "Ġfir": 17877,
    "ernation": 8211,
    "flood": 19805,
    "Ġgang": 9207,
    "suitableness": 26260,
    "Ġpropensity": 18996,
    "Ġresuming": 12890,
    "Ġric": 18209,
    "ustration": 2262,
    "Ġsolace": 16197,
    "gul": 12463,
    "ishop": 9741,
    "Ġeighty": 19474,
    "dead": 8179,
    "Ġcoachman": 15000,
    "Ġarve": 15895,
    "Ġmarsh": 9820,
    "Ġbats": 13899,
    "Ġmemoirs": 26205,
    "Ġdawn": 6816,
    "Ġartfully": 22608,
    "particip": 23615,
    "advice": 12155,
    "Ġbaked": 21384,
    "osely": 9264,
    "obey": 11509,
    "comfortable": 7320,
    "naturalists": 23487,
    "Ġdismasted": 15250,
    "Ġknowingly": 18480,
    "Ġclung": 10959,
    "asons": 6014,
    "Ġchinks": 22248,
    "sympathy": 20541,
    "carpenter": 11427,
    "eternal": 17982,
    "Ġaccorded": 24088,
    "Ġalter": 6542,
    "Ġprosecut": 9697,
    "Ġsacrifice": 9555,
    "Ġirregular": 9864,
    "cro": 13695,
    "Ġnarrated": 14870,
    "Ġacquainted": 5179,
    "Ġ25": 13193,
    "Ġrope": 4337,
    "Ġslightest": 6092,
    "Ġraft": 16113,
    "alongside": 19788,
    "abetical": 15740,
    "Ġgoverned": 23570,
    "Ġplanning": 14750,
    "appro": 7044,
    "Ġirreduc": 5491,
    "Ġmilk": 6485,
    "Ġdesignated": 19520,
    "Ġprayed": 16667,
    "common": 4130,
    "Ġ9": 5900,
    "received": 9638,
    "Ġrally": 21968,
    "Ġinterment": 22571,
    "Ġsuperiority": 14616,
    "Ġfeeding": 7971,
    "Ġray": 18640,
    "Ġtraffic": 23080,
    "Ġbreakers": 12053,
    "ense": 2052,
    "glance": 16586,
    "Ġborrowed": 17229,
    "fedallah": 25522,
    "english": 2773,
    "nor": 2740,
    "Ġeverlasting": 9336,
    "Ġblunt": 11892,
    "Ġrenowned": 26193,
    "ilight": 12690,
    "Ġforswe": 21771,
    "Ġbelief": 5855,
    "Ġpatronage": 17053,
    "oriented": 2947,
    "Ġadvertise": 25388,
    "summit": 23415,
    "Ġascent": 19617,
    "involved": 25626,
    "Ġafterwards": 3530,
    "Ġenabled": 9295,
    "stained": 21652,
    "ival": 4227,
    "ripp": 6404,
    "Ġderived": 8238,
    "Ġmilky": 9946,
    "Ġbricks": 13561,
    "Ġclump": 15964,
    "Ġjollies": 20368,
    "Ġretired": 6070,
    "Ġcounter": 6481,
    "Ġjudgment": 5765,
    "Ġhellaswag": 24343,
    "Ġfinds": 6299,
    "ows": 1919,
    "mitting": 17602,
    "ection": 4948,
    "Ġbaw": 15566,
    "Ġcoffee": 6760,
    "Ġmumbled": 17807,
    "Ġfriendship": 7246,
    "thinking": 9013,
    "Ġwhirlpool": 20654,
    "Ġsurpasses": 25268,
    "Ġplough": 18609,
    "Ġredeem": 20498,
    "Ġdevoured": 16134,
    "arned": 21814,
    "Ġjac": 1899,
    "Ġget": 1624,
    "Ġfoes": 11950,
    "ital": 4817,
    "Ġburied": 7718,
    "drawing": 10486,
    "ailing": 7021,
    "pleasing": 14741,
    "Ġsolid": 6443,
    "ters": 1573,
    "Ġelusive": 22643,
    "Ġmant": 9647,
    "aving": 2409,
    "muttered": 13758,
    "Ġcolourless": 19568,
    "ell": 395,
    "Ġshipmate": 8928,
    "irc": 1728,
    "Ġcorpore": 13400,
    "Ġtriumphal": 24371,
    "suggested": 17298,
    "Ġmysticetus": 24922,
    "Ġpolitic": 23617,
    "nez": 22444,
    "Ġflights": 24753,
    "Ġalso": 1341,
    "eked": 16401,
    "Ġwitnessed": 14843,
    "exclaimed": 11788,
    "Ġexp": 779,
    "ortment": 22254,
    "_).": 5886,
    "verize": 21725,
    "Ġreturn": 1709,
    "Ġstur": 15714,
    "ban": 9584,
    "Ġsi": 21211,
    "apt": 727,
    "Ġtranquillity": 7536,
    "Ġlandau": 16418,
    "Ġpacked": 9979,
    "Ġrest": 1781,
    "Ġtons": 11549,
    "anous": 21357,
    "Ġappropriated": 23483,
    "confusion": 13368,
    "ple": 455,
    "Ġimproving": 1209,
    "imble": 10858,
    "imagine": 19930,
    "Ġpoor": 1708,
    "taining": 7206,
    "Ġgramm": 8170,
    "Ġneedless": 19228,
    "built": 16825,
    "Ġstead": 5650,
    "charming": 15703,
    "conclusive": 25673,
    "Ġunluck": 8484,
    "Ġhole": 6079,
    "lect": 1222,
    "Ġknocked": 9499,
    "Ġventure": 7739,
    "Ġredundant": 16550,
    "Ġrevolut": 3259,
    "izing": 1068,
    "ı": 242,
    "Ġthre": 2059,
    "discovering": 24251,
    "Ġspurred": 22135,
    "enhall": 13849,
    "miss": 3170,
    "Ġexcused": 23309,
    "Ġtradesman": 20071,
    "Ġblu": 2686,
    "pool": 16206,
    "Ġcravat": 26307,
    "Ġdamp": 8263,
    "thirty": 12759,
    "Ġweep": 7619,
    "Ġpo": 739,
    "Ġslighter": 18939,
    "y": 93,
    "Ġproflig": 23566,
    "sa": 8756,
    "Ġdumbly": 24985,
    "Ġthinner": 24182,
    "sink": 11521,
    "Ġbawling": 25945,
    "Ġparr": 22116,
    "Ġfeatures": 1434,
    "Ġban": 7156,
    "Ġsadness": 13284,
    "Ġpermanently": 25473,
    "Ġstraightway": 9016,
    "ta": 13788,
    "Ġwaxed": 21296,
    "Ġcomical": 11677,
    "Ġpillar": 21471,
    "Ġpartners": 11851,
    "abash": 18107,
    "Ġjealously": 24124,
    "Ġbelted": 22945,
    "scru": 16241,
    "Ġtreatise": 19343,
    "scores": 22989,
    "âĢľâĢĻ": 10221,
    "Ġlouisa": 13545,
    "sustained": 20567,
    "oes": 4431,
    "Ġjutting": 22298,
    "Ġmis": 916,
    "Ġmorbid": 16235,
    "Ġcusack": 26433,
    "whal": 10940,
    "Ġdeserted": 8636,
    "Ġprows": 19888,
    "scra": 13019,
    "Ġreverse": 16982,
    "Ġmerited": 23729,
    "Ġhabitual": 24790,
    "gue": 12465,
    "Ġmarried": 3408,
    "Ġoverlooked": 15972,
    "inking": 6709,
    "block": 11470,
    "mediterranean": 16402,
    "ever": 1077,
    "Ġreaction": 15692,
    "Ġauthoritative": 19560,
    "heavily": 24534,
    "ede": 21503,
    "Ġbowsprit": 16559,
    "craft": 12244,
    "Q": 53,
    "Ġpiled": 8424,
    "Ġdomain": 3512,
    "--âĢĺ": 22843,
    "²": 115,
    "mph": 20971,
    "Ġpupella": 20420,
    "Ġexpressly": 16453,
    "Ġunnatural": 7190,
    "Ġjar": 15948,
    "Ġbuckets": 17034,
    "endom": 15918,
    "Ġascertaining": 17203,
    "concern": 6099,
    "Ġshovel": 23491,
    "Ġrural": 21967,
    "Ġboiling": 8525,
    "Ġtigris": 25759,
    "Ġtaffrail": 15475,
    "Ġhangs": 11605,
    "ondency": 15268,
    "posterity": 25488,
    "prairies": 20565,
    "Ġeffusions": 18534,
    "Ġagricultural": 26550,
    "Ġroots": 11185,
    "Ġfolded": 7767,
    "Ġjenny": 20161,
    "Ġtrial": 6634,
    "Ġtram": 11090,
    "Ġhomeless": 23385,
    "ivates": 18275,
    "Ġnose": 4400,
    "Ġfeeble": 12282,
    "Ġlink": 8129,
    "Ġwhis": 3502,
    "Ġprinted": 11947,
    "Ġsuperstitious": 13519,
    "delay": 16698,
    "Ġconsolation": 6208,
    "Ġcontemplated": 13463,
    "Ġbrush": 17864,
    "Ġrecre": 22745,
    "Ġattend": 5035,
    "iony": 9191,
    "Ġunass": 14112,
    "Ġdegree": 3702,
    "Ġforbearing": 25098,
    "country": 6103,
    "Ġske": 4815,
    "Ġremorse": 6441,
    "drove": 16993,
    "python": 4691,
    "Ġauthent": 14513,
    "Ġintentionally": 24523,
    "Ġintolerable": 8481,
    "Ġanalyzing": 18802,
    "Ġchiswick": 25560,
    "Ġ30": 10511,
    "function": 4622,
    "Ġvener": 8163,
    "heaving": 21206,
    "ourable": 4967,
    "Ġcounties": 23299,
    "Ġsilly": 7685,
    "Ġtugged": 17288,
    "Ġepid": 18004,
    "Ġheroic": 14907,
    "Ġevangelical": 25506,
    "Ġordered": 5832,
    "apped": 5395,
    "gates": 20871,
    "copy": 5133,
    "Ġbree": 5012,
    "Ġowners": 7662,
    "league": 17844,
    "Ġhidden": 1374,
    "emper": 18185,
    "indifference": 15981,
    "Ġgeorge": 3747,
    "justine": 7682,
    "Ġprep": 4192,
    "Ġdim": 4757,
    "trimmed": 23946,
    "Ġcomprises": 22569,
    "Ġchrysalis": 26538,
    "Ġsequ": 981,
    "othic": 16214,
    "an": 278,
    "Ġinspect": 5963,
    "Ġdoes": 942,
    "Ġquebec": 24132,
    "Ġsentinel": 26065,
    "field": 3070,
    "Ġthrust": 5084,
    "Ġgasfitters": 25038,
    "known": 3567,
    "Ġhydraulic": 10063,
    "taught": 17684,
    "lost": 8887,
    "Ġsupposed": 4556,
    "sculpt": 16243,
    "Ġburial": 16520,
    "ys": 3959,
    "Ġdisposed": 7083,
    "Ġillness": 8589,
    "moored": 22701,
    "idually": 21766,
    "instance": 24168,
    "Ġevinced": 7100,
    "Ġunprincipled": 20707,
    "Ġhanding": 16128,
    "sho": 6425,
    "hearse": 17748,
    "Ġsettlement": 19835,
    "Ġpreparation": 13528,
    "gover": 10702,
    "Ġtom": 15630,
    "Ġdisembow": 22534,
    "Ġoblong": 14320,
    "Ġnobler": 14175,
    "anqu": 4112,
    "enger": 10773,
    "walls": 25345,
    "flame": 16637,
    "different": 6501,
    "acey": 7649,
    "Ġcost": 2506,
    "maker": 12490,
    "ally": 531,
    "Ġfortunes": 12176,
    "best": 6111,
    "Ġdash": 8121,
    "inisc": 15487,
    "chariot": 26479,
    "Ġfertile": 20581,
    "Ġbridegroom": 10604,
    "Ġbrilliantly": 25120,
    "Ġamid": 4959,
    "Ġreasons": 6019,
    "Ġbarbs": 10531,
    "Ġinnovative": 1537,
    ";âĢĿ": 7790,
    "eat": 11482,
    "Ġoutweigh": 22319,
    "inity": 5693,
    "declare": 25173,
    "Ġstanding": 3000,
    "Ġlin": 10833,
    "Ġhood": 10823,
    "terr": 8153,
    "Ġclues": 18422,
    "Ġkirwin": 8496,
    "Ġcheapside": 23285,
    "think": 3608,
    "Ġfle": 3089,
    "Ġregretted": 13399,
    "supplemental": 25874,
    "Ġinducements": 24965,
    "ption": 7398,
    "Ġconsume": 12955,
    "Ġrib": 4936,
    "Ġpark": 5465,
    "Ġindoors": 18836,
    "Ġvarieties": 14309,
    "Ġpals": 13917,
    "Ġnational": 13941,
    "Ġgre": 1582,
    "Ġmoulton": 17434,
    "Ġindulging": 16904,
    "ls": 1288,
    "Ġaustrian": 24300,
    "rived": 5373,
    "Ġextend": 18695,
    "Ġgorge": 13565,
    "Ġoctober": 17226,
    "Ġteacup": 16209,
    "9": 29,
    "Ġwoes": 23983,
    "Ġimagined": 8606,
    "Ġinhabitant": 19754,
    "lord": 3862,
    "Ġstoper": 14462,
    "Ġacquaintance": 4135,
    "aw": 1448,
    "Ġaffinity": 18785,
    "pless": 6260,
    "Ġconcepts": 4549,
    "Ġwhist": 6021,
    "Ġspaces": 3109,
    "ishments": 9272,
    "Ġdevelop": 1641,
    "Ġlandowner": 23379,
    "Ġinjunctions": 24269,
    "Ġbre": 1915,
    "aloft": 8806,
    "Ġcring": 15549,
    "pres": 16026,
    "Ġmallet": 17810,
    "hertfordshire": 10936,
    "Ġoverpower": 12840,
    "Ġwhoever": 10973,
    "Ġdoll": 10813,
    "Ġnatives": 17950,
    "Ġiroquois": 26470,
    "Ġabused": 22266,
    "Ġlabeled": 3716,
    "Ġabutted": 22272,
    "Ġkick": 5837,
    "Ġnominally": 17231,
    "Ġimperfect": 13338,
    "Ġpaddle": 20057,
    "Ġarrogance": 26231,
    "Ġdesperado": 19818,
    "Ġfacility": 19849,
    "Ġplaything": 19236,
    "Ġhung": 4558,
    "difficult": 10057,
    "Ġmore": 676,
    "Ġyouth": 4261,
    "scent": 13018,
    "Ġisolated": 13558,
    "expectation": 14855,
    "Ġme": 351,
    "ê": 171,
    "non": 9611,
    "handsome": 13175,
    "geese": 22364,
    "Ġgoodly": 22817,
    "pagans": 25525,
    "Ġfound": 1246,
    "Ġnast": 15636,
    "avern": 24792,
    "Ġidol": 7467,
    "Ġbill": 4042,
    "Ġwhistle": 9065,
    "Ġbasics": 13447,
    "encounter": 20390,
    "iting": 2159,
    "Ġdreamy": 14702,
    "Ġminds": 6303,
    "Ġmartyr": 26360,
    "Ġbeauties": 10445,
    "Ġremem": 4312,
    "Ġcooked": 13266,
    "Ġdepending": 14287,
    "Ġincorrect": 2727,
    "doctor": 19095,
    "kins": 7345,
    "Ġobscured": 15010,
    "Ġxxxi": 24966,
    "footman": 17162,
    "Ġgaieties": 24195,
    "Ġfugitives": 25634,
    "Ġencoding": 4774,
    "Ġwithdrew": 9695,
    "~": 98,
    "Ġmaketh": 15186,
    "Ġfry": 17879,
    "Ġclattering": 22352,
    "Ġinducement": 16843,
    "Ġfer": 5529,
    "Ġdies": 11592,
    "promised": 12249,
    "Ġarchangel": 8542,
    "Ġlucy": 17969,
    "linked": 17593,
    "Ġrestricted": 19025,
    "lin": 9603,
    "aculate": 16081,
    "duodecimo": 15999,
    "Ġfet": 5807,
    "needles": 20310,
    "Ġdynamically": 4100,
    "reproach": 15185,
    "arris": 13208,
    "18": 20750,
    "trap": 24313,
    "Ġsacr": 7194,
    "greeting": 24554,
    "Ġmatrix": 1607,
    "Ġstaff": 14005,
    "arer": 3968,
    "interred": 23735,
    "shish": 11791,
    "rudently": 16710,
    "measureless": 20234,
    "Ġgods": 6454,
    "Ġoarsman": 8637,
    "Ġincorrupt": 19233,
    "Ġdisturbed": 8671,
    "wheels": 14380,
    "ets": 1158,
    "Ġviolation": 23404,
    "saf": 11524,
    "Ġwhen": 515,
    "Ġempire": 11145,
    "Ġsource": 6805,
    "Ġnocturnal": 20714,
    "marching": 25752,
    "),": 1344,
    "Ġheedfully": 24521,
    "clergy": 18933,
    "believing": 19460,
    "](": 11466,
    "borrowed": 20791,
    "Ġheaving": 7600,
    "Ġuncounted": 19116,
    "Ġcoopers": 20520,
    "Ġtrooped": 24899,
    "Ġends": 8237,
    "Ġthroats": 24575,
    "Ġassailed": 23175,
    "ays": 6683,
    "truth": 9918,
    "porpoise": 16437,
    "zes": 11548,
    "pursu": 11392,
    "Ġconstitutes": 13551,
    "Ġexeget": 24084,
    "convinced": 10622,
    "inal": 15479,
    "inarticulate": 21194,
    "Ġcrevice": 22725,
    "listened": 15043,
    "Ġthence": 8881,
    "illation": 14141,
    "Ġvegetables": 15220,
    "Ġchiselled": 25559,
    "against": 5870,
    "too": 4505,
    "valu": 1757,
    "Ġglitter": 25123,
    "Ġhelplessness": 25071,
    "Ġjoint": 12032,
    "ushes": 22288,
    "icil": 17971,
    "Ġcrowds": 14738,
    "Ġheedfulness": 24522,
    "Ġdestruction": 6600,
    "gu": 3955,
    "Ġflapped": 23008,
    "ves": 695,
    "Ġvarying": 15808,
    "Ġtwinkling": 12322,
    "Ġonset": 12707,
    "iable": 3335,
    "Ġpetersburgh": 24228,
    "Ġinfirm": 19016,
    "icable": 6388,
    "Ġsympt": 7012,
    "Ġcetace": 14987,
    "Ġunfathomable": 20547,
    "Ġmab": 12557,
    "Ġfashions": 17885,
    "reserve": 17765,
    "scrape": 25698,
    "Ġwildest": 16509,
    "Ġaccommod": 14213,
    "Ġchased": 8861,
    "Ġbegun": 7243,
    "Ġmisty": 16539,
    "Ġmates": 4872,
    "avery": 13682,
    "enesis": 24388,
    "late": 11498,
    "Ġnaturalists": 10360,
    "Ġconflag": 20334,
    "acious": 5563,
    "result": 12041,
    "stige": 21658,
    "Ġvector": 1972,
    "rove": 21530,
    "favourite": 15142,
    "generations": 23784,
    "plings": 11693,
    "Ġmoreover": 6163,
    "coun": 10686,
    "Ġpersevering": 20232,
    "Ġslit": 13054,
    "iger": 8446,
    "gence": 876,
    "Ġautom": 3766,
    "humorously": 24017,
    "Ġstriving": 8995,
    "contain": 18502,
    "Ġreduce": 7942,
    "heeded": 13833,
    "Ġimmens": 9938,
    "eks": 4728,
    "Ġyarman": 12702,
    "rus": 5929,
    "Ġunprejudiced": 18266,
    "Ġbouquet": 20682,
    "Ġ52": 24321,
    "elect": 20845,
    "Ġvariety": 8530,
    "Ġ62": 24365,
    "Ġmartha": 16257,
    "covered": 11477,
    "roses": 17956,
    "asingly": 17960,
    "Ġbrutality": 26276,
    "Ġdusky": 13548,
    "Ġthine": 7374,
    "darcy": 5208,
    "reg": 2186,
    "Ġprodigiously": 14931,
    "Ġmug": 21311,
    "Ġegotistical": 26191,
    "Ġmerest": 14029,
    "Ġvul": 10247,
    "Ġbetray": 7442,
    "Ġconcerned": 5331,
    "estab": 14170,
    "unting": 21871,
    "Ġfowl": 11330,
    "Ġele": 1964,
    "ccas": 15888,
    "ior": 2040,
    "ber": 884,
    "Ġbell": 4635,
    "Ġaddressed": 5262,
    "ons": 709,
    "Ġunfold": 8022,
    "Ġdisapprobation": 16056,
    "Ġtelegra": 11889,
    "¦": 104,
    "Ġapproximates": 2420,
    "oke": 1859,
    "Ġtrample": 20326,
    "Ġii": 7384,
    "Ġvolat": 24144,
    "Ġplowdon": 26447,
    "Ġklux": 22192,
    "ingolstadt": 21302,
    "Ġardently": 9497,
    "Ġdesponding": 25868,
    "Ġmister": 22751,
    "worship": 19385,
    "Ġatom": 18192,
    "Ġheidelburgh": 11642,
    "cruise": 24841,
    "aces": 2068,
    "Ġbites": 23742,
    "Ġforehead": 5261,
    "pursue": 24973,
    "Ġ135": 24785,
    "Ġordin": 16650,
    "Ġcomforter": 20505,
    "Ġsage": 17752,
    "Ġstrove": 9956,
    "myself": 5113,
    "Ġcoleridge": 18766,
    "Ġresided": 11809,
    "Ġappears": 5402,
    "Ġflourish": 17160,
    "Ġtwin": 12925,
    "unquiet": 21878,
    "Ġcoals": 16071,
    "Ġvapor": 8699,
    "epilogue": 22097,
    "Ġneedn": 19227,
    "Ġpremature": 3724,
    "sided": 17664,
    "august": 11071,
    "silver": 19689,
    "bony": 15318,
    "Ġpriv": 4184,
    "heedful": 20572,
    "presume": 25670,
    "Ġenl": 18188,
    "uated": 10131,
    "Ġcoco": 11000,
    "Ġblemish": 19678,
    "Ġcrimson": 16440,
    "Ġdived": 9177,
    "avenza": 17104,
    "Ġlunging": 24989,
    "Ġcontour": 18474,
    "Ġporthole": 24399,
    "commanders": 16989,
    "batch": 1982,
    "Ġquartered": 20371,
    "ortunities": 15938,
    "upon": 2720,
    "Ġdigest": 24647,
    "aust": 15308,
    "Ġsacrilege": 26228,
    "_--": 20761,
    "appetite": 22842,
    "Ġbrighter": 16185,
    "Ġautomatically": 4013,
    "Ġspacious": 18312,
    "Ġglance": 4233,
    "Ġincarn": 11812,
    "Ġprisoner": 8672,
    "Ġsiberia": 26161,
    "Ġassisting": 13255,
    "hair": 9122,
    "Ġshoots": 14568,
    "playful": 24357,
    "fing": 13712,
    "Ġauxiliary": 26418,
    "ilder": 15710,
    "Ġslay": 16304,
    "forming": 15914,
    "Ġascertained": 25296,
    "mblies": 24608,
    "athom": 12936,
    "Ġcargo": 16288,
    "Ġcompliments": 8632,
    "usal": 7638,
    "Ġcringed": 25942,
    "Ġinsensibility": 17110,
    "planted": 11694,
    "Ġsenseless": 12076,
    "Ġdromedary": 17438,
    "ificial": 600,
    "lock": 1469,
    "Ġknowledge": 1446,
    "max": 1685,
    "passed": 8025,
    "istol": 6259,
    "Ġdistinction": 8885,
    "Ġspeedily": 7711,
    "Ġtickets": 17094,
    "Ġoppression": 23649,
    "ious": 769,
    "Ġfoss": 9850,
    "Ġmuster": 16120,
    "Ġunmannerly": 26517,
    "rous": 3751,
    "Ġpeering": 8534,
    "gled": 10699,
    "fishermen": 17061,
    "ates": 518,
    "Ġmercenary": 17193,
    "blast": 9587,
    "upper": 11538,
    "chor": 6146,
    "Ġdogs": 7741,
    "drunk": 24659,
    "Ġdam": 2218,
    "Ġhenry": 5197,
    "Ġblended": 16217,
    "alous": 7372,
    "Ġdwelling": 7322,
    "thrown": 8480,
    "offended": 16394,
    "Ġmund": 21317,
    "Ġhostile": 19938,
    "uvian": 12240,
    "ashion": 3856,
    "Ġcauldron": 25441,
    "engines": 18927,
    "Ġalms": 21777,
    "aky": 18411,
    "Ġgrowing": 6750,
    "Ġquite": 1738,
    "Ġcoward": 7155,
    "Ġattempts": 10490,
    "americ": 8155,
    "Ġsubsided": 14550,
    "Ġoat": 21321,
    "Ġphysiognomy": 25610,
    "Ġcontinued": 2922,
    "Ġleisurely": 24746,
    "Ġsustained": 13481,
    "Ġfull": 2180,
    "ous": 477,
    "Ġmasks": 23324,
    "Ġsecrets": 9054,
    "Ġlikeness": 11179,
    "ob": 1421,
    "Ġmorality": 22975,
    "mouthed": 12398,
    "significant": 25082,
    "Ġunpitying": 25660,
    "Ġrobbery": 11919,
    "indef": 17735,
    "Ġquality": 3527,
    "Ġche": 1763,
    "chemical": 23807,
    "super": 5942,
    "Ġrebellion": 26475,
    "Ġvoices": 7875,
    "Ġmarshal": 20218,
    "Ġtouch": 3396,
    "Ġhues": 21486,
    "Ġaboard": 6697,
    "Ġshame": 6410,
    "Ï": 144,
    "Ġstandards": 19014,
    "regard": 7972,
    "Ġshalt": 18230,
    "pin": 13766,
    "sych": 9891,
    "Ġket": 18347,
    "Ġreluct": 14371,
    "Ġdiet": 13909,
    "four": 6113,
    "Ġelbows": 18635,
    "Ġpreser": 6040,
    "Ġoptimize": 1712,
    "swinging": 25912,
    "irited": 15784,
    "Ġperchance": 15989,
    "Ġfruitless": 25605,
    "Ġearly": 2078,
    "ised": 1066,
    "hement": 13831,
    "amore": 21840,
    "Ġenlar": 15798,
    "urch": 3993,
    "onged": 18410,
    "Ġchecking": 23283,
    "Ġblinded": 13267,
    "Ġtend": 6120,
    "Ġground": 2845,
    "Ġvesu": 21946,
    "Ġantics": 24178,
    "process": 11148,
    "acquainted": 7313,
    "Ġstooping": 13059,
    "Ġdeserve": 8308,
    "hent": 12531,
    "Ġoutward": 7903,
    "wide": 10137,
    "º": 123,
    "Ġboister": 12917,
    "tranquil": 25870,
    "Ġsofas": 26224,
    "Ġmission": 13003,
    "rrh": 26144,
    "Ġmamma": 10047,
    "Ġrecording": 24434,
    "Ġarches": 14162,
    "cater": 20814,
    "Ġlaborers": 19055,
    "95": 17477,
    "Ġnervously": 19183,
    "ferred": 16412,
    "Ġago": 3134,
    "Ġinclu": 1099,
    "reme": 2427,
    "designated": 26295,
    "Ġvillage": 5774,
    "Ġshaster": 21995,
    "ascal": 10192,
    "bour": 2072,
    "necessity": 13366,
    "Ġryder": 10258,
    "Ġovercame": 9745,
    "Ġ1828": 25720,
    "Ġaverage": 3137,
    "Ġexquisite": 12380,
    "Ġparmacetti": 20603,
    "bled": 5469,
    "jam": 15370,
    "Ġhonorable": 16876,
    "dressing": 11481,
    "Ġoffices": 14339,
    "hors": 9598,
    "meal": 22710,
    "Ġtrappings": 23079,
    "Ġtuck": 10140,
    "sooner": 14774,
    "hoisted": 19281,
    "apidated": 22333,
    "consumed": 25675,
    "Ġproportional": 2526,
    "Ġcemet": 20679,
    "ably": 1847,
    "sort": 6798,
    "Ġassumed": 9465,
    "Ġrespects": 7269,
    "abode": 21788,
    "blood": 7779,
    "ously": 2491,
    "customary": 25895,
    "keep": 3848,
    "Ġunearthly": 9036,
    "prevented": 20372,
    "Ġo": 275,
    "hampshire": 23262,
    "elizabeth": 1986,
    "Ġgame": 3628,
    ".}": 20744,
    "Ġproducts": 5198,
    "Ġobserver": 11987,
    "oned": 4630,
    "Ġrejection": 19982,
    "ckles": 22086,
    "trifling": 19412,
    "Ġbubble": 13534,
    "Ġstiggs": 25792,
    "Ġministers": 22829,
    "otograph": 5826,
    "Ġcreates": 2008,
    "Ġirregularly": 25323,
    "Ġpromptly": 23815,
    "Ġpassions": 7929,
    "Ġbordered": 24563,
    "Ġrede": 13983,
    "break": 6101,
    "Ġpropagating": 20632,
    "Ġsnuff": 7991,
    "Ġso": 433,
    "biscuit": 17500,
    "hawk": 7121,
    "bestowed": 12223,
    "Ġdrunk": 9423,
    "Ġresulting": 24198,
    "inder": 9152,
    "Ġcalm": 3447,
    "Ġevalu": 3312,
    "Ġcheering": 11133,
    "Ġlevels": 12695,
    "Ġforgive": 8009,
    "Ġsubterraneous": 20264,
    "Ġstrings": 11827,
    "Ġripples": 25505,
    "chain": 18039,
    "Ġconstructed": 9386,
    "Ġspires": 11728,
    "Ġloss": 821,
    "Ġverify": 12085,
    "irwin": 8468,
    "Ġaff": 1117,
    "Ġhapp": 1088,
    "Ġtill": 1823,
    "inkling": 16088,
    "69": 17474,
    "building": 17308,
    "Ġungracious": 18255,
    "niest": 18973,
    "Ġdoubly": 16384,
    "Ġimprudent": 12845,
    "Ġstubbs": 23292,
    "Ġwards": 17789,
    "Ġpoints": 5248,
    "browed": 25894,
    "figures": 20120,
    "Ġrestrictions": 20634,
    "Ġperman": 10965,
    "Ġfellows": 8256,
    "isure": 6240,
    "Ġscant": 22277,
    "thoughts": 9934,
    "incidentally": 20538,
    "Ġassid": 18944,
    "Ġputs": 19029,
    "Ġbizarre": 17871,
    "Ġencounter": 6627,
    "aye": 3659,
    "Ġnorm": 762,
    "ĠvertebrÃ¦": 11435,
    "Ġfails": 13312,
    "Ġbiases": 2401,
    "Ġ128": 24473,
    "Ġgloomy": 7504,
    "Ġunhing": 18238,
    "Ġveneration": 25044,
    "Ġforesaw": 19127,
    "ipper": 13739,
    "Ġconjoined": 21803,
    "conveyed": 20519,
    "Ġsticks": 14930,
    "Ġadmon": 15866,
    "rifled": 21046,
    "gorith": 551,
    "pounds": 21024,
    "Ġwhipping": 21713,
    "wrong": 13205,
    "Ġcane": 10927,
    "ize": 776,
    "Ġfollies": 16252,
    "ria": 15792,
    "Ġshepherd": 14152,
    "Ġlodged": 11251,
    "Ġeye": 2282,
    "Ġdevout": 14327,
    "truck": 15440,
    "Ġbalmy": 22902,
    "Ġwarring": 16865,
    "Ġincognit": 22551,
    "Ġelix": 22641,
    "Ġconsulting": 13428,
    "uish": 5431,
    "Ġestab": 6315,
    "Ġcontrivance": 17183,
    "flex": 24843,
    "nineteenth": 26138,
    "Ġplumber": 16083,
    "Ġearthquake": 14628,
    "ersburgh": 18215,
    "stood": 4118,
    "Ġmothers": 14540,
    "Ġthat": 335,
    "hamlet": 23260,
    "Ġhansom": 13663,
    "Ġmass": 3779,
    "Ġtax": 13815,
    "Ġblew": 9045,
    "forget": 11032,
    "Ġordinary": 6096,
    "enial": 17780,
    "Ġblades": 11893,
    "lighter": 20958,
    "Ġanalysis": 1913,
    "Ġyanke": 18097,
    "signs": 16538,
    "Ġpersonified": 19177,
    "cont": 2920,
    "Ġmere": 2712,
    "Ġgigantic": 5914,
    "lives": 12483,
    "Ġmisfortune": 5569,
    "Ġpaddock": 25037,
    "Ġradney": 6775,
    "Ġentry": 11027,
    "reached": 13840,
    "Ġgovernment": 15175,
    "precedented": 15173,
    "Ġtags": 20570,
    "Ġcommissioned": 19894,
    "akers": 9738,
    "Ġgros": 14822,
    "really": 6971,
    "akin": 11765,
    "pemberley": 9620,
    "reclining": 20573,
    "barn": 17482,
    "Ġumbrella": 15264,
    "support": 9469,
    "ĠĠĠĠĠĠĠĠĠĠĠĠĠĠĠĠĠĠĠĠĠĠĠĠĠĠĠĠĠĠĠĠĠĠĠĠĠĠĠĠĠĠĠĠĠ": 9951,
    "Ġgrimesby": 11457,
    "Ġprofusion": 23567,
    "fier": 9593,
    "Ġclap": 10958,
    "Ġjeopardy": 13595,
    "ologies": 18771,
    "Ġunrel": 14695,
    "beaten": 20314,
    "Ġcollins": 2183,
    "Ġ18": 3406,
    "by": 1156,
    "caves": 20815,
    "suspended": 15176,
    "Ġargu": 10934,
    "arying": 9800,
    "Ġretribution": 16279,
    "Ġgruff": 21611,
    "Ġting": 8397,
    "Ġspaulding": 11729,
    "cular": 15327,
    "Ġlight": 1699,
    "completed": 19992,
    "gay": 11488,
    "admiration": 11387,
    "Ġ60": 14874,
    "Ġcollectively": 19966,
    "axing": 18547,
    "Ġangrily": 9406,
    "vic": 13801,
    "pipe": 8696,
    "Ġknock": 9972,
    "arr": 3045,
    "Ġirksome": 13110,
    "ike": 5000,
    "Ġstartled": 7082,
    "Ġtiresome": 26156,
    "ensical": 18567,
    "liter": 11501,
    "Ġrevealed": 6751,
    "Ġdangerously": 23934,
    "plumed": 21952,
    "leg": 2811,
    "arled": 21440,
    "transformers": 8714,
    "iogn": 20920,
    "pity": 17627,
    "Ġwelfare": 12556,
    "henomen": 10494,
    "Ġensemble": 1609,
    "wand": 10738,
    "tles": 10730,
    "Ġprov": 4398,
    "Ġblasphemy": 26115,
    "thanking": 24330,
    "Ġleaky": 2348,
    "period": 15893,
    "Ġsav": 3357,
    "Ġhumorously": 18777,
    "Ġimplies": 24873,
    "season": 14033,
    "erde": 21267,
    "Ġunacquainted": 12772,
    "cheap": 23803,
    "Ġspite": 4157,
    "Ġswims": 12117,
    "boo": 16349,
    "Ġdays": 2077,
    "Ġbreathlessly": 24280,
    "Ġindu": 5293,
    "Ã¦": 4336,
    "quished": 21851,
    "Ġcircumstantial": 14643,
    "strange": 6086,
    "loun": 17588,
    "Ġoppressively": 25712,
    "Ġundone": 24117,
    "Ġboy": 3024,
    "Ġfetched": 24567,
    "imson": 12686,
    "Ġsharpen": 13568,
    "Ġowning": 18744,
    "Ġconce": 3423,
    "anke": 15558,
    "Ġcontributes": 15249,
    "elevating": 20404,
    "Ġride": 12755,
    "Ġfolk": 10375,
    "Ġambition": 11432,
    "Ġmeek": 21806,
    "probability": 17022,
    "Ġcertainly": 2498,
    "Ġmon": 1250,
    "Ġpallet": 21479,
    "Ġleagues": 9223,
    "itical": 5801,
    "Ġmagnanim": 14471,
    "Ġecstasy": 11629,
    "Ġbuckskin": 19950,
    "bolts": 11420,
    "Ġarc": 14160,
    "Ġfancying": 12110,
    "Ġindiscriminately": 20626,
    "ref": 6515,
    "totally": 25417,
    "tu": 12509,
    "Ġdawned": 14993,
    "Ġchuck": 8501,
    "Ġslaughter": 20729,
    "van": 7814,
    "ame": 644,
    "Ġstayed": 7997,
    "ust": 500,
    "Ġupset": 22150,
    "tall": 17673,
    "conception": 22469,
    "Ġoughts": 23898,
    "bull": 13689,
    "departed": 24794,
    "Ġstruggled": 9904,
    "sank": 17662,
    "Ġindelible": 25694,
    "Ġrelaxed": 12980,
    "Ġsoda": 25534,
    "sip": 10725,
    "reat": 617,
    "Ġsand": 6235,
    "veral": 2355,
    "Ġcrescentic": 20619,
    "ape": 1906,
    "dreaded": 25138,
    "Ġlord": 2968,
    "insufferable": 21191,
    "Ġimperilled": 19577,
    "Ġdur": 11591,
    "prevent": 11793,
    "Ġskull": 6288,
    "Ġsealed": 15816,
    "Ġis": 347,
    "Ġquohog": 10972,
    "Ġlik": 2524,
    "supplementary": 20548,
    "Ġcharity": 8862,
    "guilt": 24067,
    "ipped": 5790,
    "inced": 3337,
    "Ġhatches": 12042,
    "works": 6588,
    "birds": 15143,
    "Ġaccompaniments": 24482,
    "Ġrapture": 13495,
    "Ġchestnut": 19671,
    "Ġerskine": 17431,
    "Ġfundamental": 3015,
    "Ġunlab": 3787,
    "heartily": 24215,
    "Ġintroduces": 3270,
    "Ġofficial": 7081,
    "within": 6730,
    "Ġserene": 8166,
    "restored": 18979,
    "assistant": 25567,
    "Ġprocured": 8676,
    "Ġseating": 18201,
    "Ġexpenses": 11831,
    "leness": 4690,
    "Ġbulwarks": 5592,
    "Ġstride": 22613,
    "Ġwarned": 16880,
    "iet": 1774,
    "Ġnorthwards": 19545,
    "Ġbuckler": 24859,
    "performances": 26006,
    "Ġprogeny": 17387,
    "abb": 15736,
    "Ġdeficient": 18825,
    "ace": 714,
    "future": 13716,
    "ghost": 20886,
    "Ġreconc": 9682,
    "Ġberyl": 20488,
    "Ġpowdered": 24237,
    "Ġrested": 9378,
    "ilty": 6394,
    "tese": 21082,
    "popular": 26140,
    "Ġprevent": 756,
    "Ġmain": 808,
    "Ġpoker": 13921,
    "Ġhabitations": 24789,
    "Ġengineering": 3027,
    "Ġsullen": 9157,
    "liv": 9607,
    "kers": 7132,
    "Ġomitted": 12561,
    "Ġhaunts": 18198,
    "Ġbeasts": 10617,
    "Ġchambermaid": 24304,
    "phenomenon": 17648,
    "dar": 20823,
    "Ġanteced": 26177,
    "Ġrecovered": 5481,
    "fordshire": 4676,
    "Ġlays": 15987,
    "puff": 21021,
    "Ġpresently": 5116,
    "Ġlit": 6246,
    "apparat": 22841,
    "Ġtenderest": 23549,
    "Ġskeleton": 5514,
    "dr": 6221,
    "Ġmorocco": 26573,
    "Ġbecause": 2213,
    "increased": 20269,
    "Ġsickly": 16774,
    "Ġguess": 4903,
    "Ġambiguous": 20163,
    "Ġdoubloons": 13433,
    "zag": 17713,
    "sit": 13779,
    "Ġpeaks": 16126,
    "Ġjourney": 3877,
    "Ġenvironments": 24065,
    "Ġplace": 1655,
    "Ġshutter": 16670,
    "Ġcommitting": 22670,
    "Ġachieve": 3672,
    "orable": 8119,
    "Ġlawn": 7379,
    "Ġpattering": 18652,
    "cop": 20800,
    "Ġintrepid": 11703,
    "Ġdescribed": 6606,
    "Ġscolded": 25472,
    "Ġmovement": 9967,
    "tled": 3457,
    "Ġbegin": 3097,
    "Ġunceasing": 20356,
    "Ġfought": 12590,
    "Ġrambles": 17184,
    "Ġlanded": 7469,
    "Ġredness": 19311,
    "Ġhold": 2247,
    "«": 109,
    "Ġsnows": 14725,
    "Ġcult": 8781,
    "Ġtemperature": 1002,
    "Ġpromote": 23190,
    "Ġdardanelles": 26443,
    "Ġslumber": 13057,
    "Ġstark": 7390,
    "commendation": 26348,
    "Ġrobins": 16261,
    "estinated": 15921,
    "Ġvowed": 14083,
    "Ġsaws": 23046,
    "anxiously": 15109,
    "Ġhats": 14618,
    "Ġdashes": 21432,
    "Ġashore": 5351,
    "hip": 8740,
    "dep": 6786,
    "specim": 23941,
    "alizing": 17939,
    "Ġhunters": 6300,
    "Ġmaintainable": 12932,
    "Ġgrasped": 8033,
    "soldiers": 25911,
    "distinguished": 10526,
    "Ġbrink": 18769,
    "Ġbrigs": 20321,
    "Ġinter": 728,
    "Ġobservable": 25126,
    "sacrifice": 13491,
    "Ġmaybe": 12946,
    "whalemen": 10431,
    "Ġbackward": 7654,
    "Ġinterests": 14569,
    "ib": 1234,
    "Ġgladstone": 23867,
    "Ġbennet": 1575,
    "Ġmethods": 3157,
    "Ġnorton": 12646,
    "Ġbay": 9168,
    "Ġenjoined": 18191,
    "Ġhouse": 1502,
    "Ġchanged": 5243,
    "Ġshocking": 10435,
    "sick": 13783,
    "oar": 12495,
    "transition": 24513,
    "Ġcarpenters": 16752,
    "Ġconcern": 2656,
    "Ġaccounts": 7207,
    "Ġsuperfluous": 17413,
    "moments": 19410,
    "Ġpoky": 21477,
    "Ġundue": 25993,
    "Ġconcentration": 25062,
    "poverty": 22905,
    "inordinate": 21193,
    "attention": 2108,
    "Ġther": 17778,
    "eryton": 4095,
    "Ġpiling": 17910,
    "oting": 2743,
    "Ġsummit": 7730,
    "Ġaccount": 2323,
    "proachable": 23396,
    "young": 7321,
    "!âĢĿâĢĶ": 8532,
    "Ġrampart": 20317,
    "doub": 6223,
    "Ġdotted": 16792,
    "Ġwes": 8778,
    "Ġturtles": 19218,
    "Ġmincer": 14365,
    "Ġhelen": 16655,
    "Ġpleases": 16296,
    "pray": 5429,
    "Ġrights": 10396,
    "original": 9084,
    "sus": 6228,
    "Ġcemeteries": 26375,
    "Ġcrystals": 20226,
    "Ġannot": 15599,
    "end": 498,
    "Ġassembl": 20059,
    "Ġproceeds": 12075,
    "Ġsheeted": 19830,
    "cleanliness": 25871,
    "Ġagonized": 25372,
    "Ġrever": 6536,
    "emotion": 21927,
    "Ġconvers": 2906,
    "Ġtresses": 21174,
    "Ġcocaine": 20720,
    "Ġingenious": 12346,
    "Ġiron": 3233,
    "Ġunspeakably": 25172,
    "Ġesteem": 7531,
    "Ġexistence": 4706,
    "Ġregulate": 22584,
    "Ġindistinctly": 26117,
    "Ġlashed": 9198,
    "brave": 19822,
    "Ġreadability": 2723,
    "Ġranges": 2881,
    "Ġindispensable": 11898,
    "Ġdictated": 25218,
    "shazz": 14241,
    "Ġproductions": 22943,
    "fail": 17540,
    "pushed": 21022,
    "resist": 8275,
    "tell": 1379,
    "Ġvain": 3629,
    "Ġrack": 9311,
    "pard": 9618,
    "ittance": 12842,
    "christmas": 20254,
    "Ġgretna": 26468,
    "hullo": 17570,
    "Ġprivileged": 20111,
    "Ġain": 6969,
    "Ġwitt": 17783,
    "Ġuncommon": 5026,
    "position": 15412,
    "rob": 5534,
    "Ġflowed": 10371,
    "Ġpopularly": 12239,
    "âĢĺ": 940,
    "Ġseason": 5238,
    "Ġgulp": 20027,
    ",âĢĿ": 581,
    "embers": 21926,
    "Ġshrivelled": 19702,
    "Ġcountenances": 11962,
    "Ġunostentatious": 22065,
    "hew": 5364,
    "clearly": 25195,
    "tawn": 21079,
    "Ġextracted": 16315,
    "barb": 10080,
    "Ġbuoyancy": 20040,
    "ket": 17582,
    "Ġmail": 17800,
    "ernsey": 8901,
    "duck": 22409,
    "dread": 8728,
    "Ġinterconnected": 1335,
    "amiable": 14052,
    "Ġinhuman": 13928,
    "Ġcandles": 9907,
    "Ġbelrive": 18831,
    "Ġaries": 21196,
    "Ġmultitud": 18746,
    "Ġblasts": 19994,
    "enough": 6809,
    "fixed": 7548,
    "Ġtaken": 2529,
    "Ġmorass": 22973,
    "Ġcomposition": 1688,
    "perfect": 7634,
    "nearly": 8680,
    "Ġtower": 8318,
    "mud": 20970,
    "dogs": 25402,
    "Ġlessons": 7691,
    "Ġfar": 1449,
    "Ġjib": 14193,
    "Ġthroughout": 8876,
    "Ġglades": 19370,
    "answers": 22137,
    "hangs": 15367,
    "Ġroar": 9752,
    "Ġscrutin": 26014,
    "Ġvindictive": 20468,
    "Ġass": 1503,
    "Ġsmoking": 6429,
    "complain": 14359,
    "Ġunappe": 22013,
    "nikin": 23225,
    "hurried": 11353,
    "Ġobligations": 12089,
    "Ġantilles": 24179,
    "Ġdine": 7366,
    "Ġwhites": 21714,
    "Ġclut": 7641,
    "Ġsomewhere": 5384,
    "Ġmiles": 3802,
    "Ġun": 422,
    "Ġrenow": 18027,
    "Ġoverlook": 10961,
    "despond": 19799,
    "Ġmeasure": 3593,
    "complete": 15034,
    "Ġuncomp": 15839,
    "Ġgiving": 4087,
    "Ġfund": 2842,
    "reader": 23844,
    "Ġmccarthys": 19661,
    "Ġreads": 23110,
    "Ġattaining": 15803,
    "Ġphrensy": 25124,
    "Ġhinge": 25541,
    "are": 637,
    "Ġcontemplation": 11357,
    "crooked": 25746,
    "Ġencoder": 3635,
    "kovoko": 20668,
    "idered": 4551,
    "Ġwrest": 11570,
    "ships": 5486,
    "Ġimpregnable": 26023,
    "Ġdeparture": 6490,
    "Ġ500": 24328,
    "Ġunder": 1636,
    "inquiry": 15141,
    "ilt": 2970,
    "isf": 2437,
    "Ġdemanding": 16805,
    "iana": 7048,
    "Ġequ": 1732,
    "Ġengrossed": 12994,
    "growing": 13732,
    "Ġsquad": 22832,
    "pitch": 13297,
    "difference": 13707,
    "Ġtoilings": 24742,
    "harb": 9123,
    "Ġemails": 13105,
    "Ġbount": 15565,
    "Ġmish": 15535,
    "Ġbackwater": 18650,
    "Ġfiend": 4409,
    "Ġgrenadier": 21613,
    "Ġrumpled": 24600,
    "urns": 10213,
    "merely": 16132,
    "Ġscrews": 25177,
    "noo": 9786,
    "Ġmason": 10157,
    "Ġlottery": 19887,
    "Ġnodding": 23331,
    "Ġsharks": 4495,
    "Ġhypocr": 19470,
    "sold": 15425,
    "trem": 17681,
    "iforn": 14063,
    "Ġkuiperai": 10935,
    "repugnance": 16864,
    "monograph": 23525,
    "marriage": 7744,
    "Ġdisposition": 5409,
    "Ġfortifications": 23619,
    "Ġwhether": 1999,
    "Ġsubstitute": 16726,
    "Ġinch": 7849,
    "feren": 766,
    "desired": 8956,
    "Ġtransformer": 2637,
    "superior": 9524,
    "Ġsuspense": 9417,
    "Ġbounded": 16626,
    "terms": 15748,
    "Ġmanly": 22321,
    "ĠĠĠĠĠĠĠĠĠĠĠĠĠĠĠĠĠĠĠĠĠĠĠĠĠĠĠĠĠĠĠĠĠĠĠĠĠĠĠĠĠĠĠĠĠĠĠ": 16755,
    "urry": 13992,
    "Ġmanners": 3789,
    "Ġinco": 14259,
    "Ġadaptation": 3153,
    "Ġyell": 21774,
    "Ġtremor": 24768,
    "its": 1148,
    "Ġblessed": 6931,
    "Ġalmost": 1659,
    "aboard": 21791,
    "staff": 21653,
    "dignity": 15344,
    "erect": 20847,
    "histicated": 20900,
    "Ġbelonged": 6922,
    "Ġhasty": 10477,
    "Ġusual": 3940,
    "Ġrepose": 6741,
    "Ġaltar": 9228,
    "latter": 15381,
    "Ġitself": 2523,
    "Ġexhaled": 19681,
    "Ġhavoc": 15811,
    "lish": 1951,
    "igns": 8447,
    "thinness": 25810,
    "Ġreside": 22536,
    "Ġclinging": 10291,
    "Ġzig": 18742,
    "Ġ[": 6967,
    "Ġconcentrated": 15082,
    "Ġmotive": 6091,
    "Ġval": 962,
    "Ġsilken": 16377,
    "Ġundergo": 23237,
    "corn": 13698,
    "Ġachieved": 13165,
    "Ġautomation": 13274,
    "ancing": 1758,
    "Ġkate": 15903,
    "Ġpricking": 23220,
    "omeness": 18015,
    "Ġobeyed": 12214,
    "Ġdinners": 23979,
    "Ġbig": 5805,
    "destroyed": 15259,
    "form": 495,
    "angles": 18290,
    "lingly": 9772,
    "Ġrepairing": 25589,
    "fee": 12877,
    "Ġrazor": 22648,
    "Ġcooper": 16073,
    "Ġcongealed": 25981,
    "Ġmasterless": 23992,
    "pleas": 3849,
    "Ġtasks": 1787,
    "Ġchronicler": 20228,
    "Ġqualifications": 24675,
    "Ġbulky": 13227,
    "Ġohio": 19128,
    "murderers": 25728,
    "Ġcalled": 1973,
    "ometer": 19325,
    "impl": 21704,
    "Ġseek": 4506,
    "Ġsensitive": 13198,
    "Ġvows": 15806,
    "stream": 15684,
    "Ġwines": 21286,
    "Ġwasted": 9703,
    "Ġlying": 4825,
    "ild": 1153,
    "Ġassu": 21894,
    "towards": 5002,
    "oul": 4698,
    "cre": 4250,
    "Ġevolved": 9890,
    "confirmed": 19644,
    "Ġtelesc": 12988,
    "Ġdedicated": 19221,
    "adventures": 20255,
    "###": 3825,
    "libr": 22920,
    "Ġeh": 6987,
    "ooped": 17623,
    "Ġsailors": 4276,
    "contains": 16028,
    "Ġanswering": 7477,
    "Ġbillow": 14777,
    "Ġvery": 636,
    "prolong": 23393,
    "beholding": 16038,
    "Ġblushed": 12999,
    "Ġadvantages": 9810,
    "Ġshells": 20362,
    "Ġeasily": 3888,
    "impropriety": 21710,
    "asht": 4086,
    "disc": 4729,
    "col": 3101,
    "Ġbet": 1134,
    "lesson": 22770,
    "!âĢĿ": 846,
    "Ġsocial": 7007,
    "Ġflitting": 13023,
    "evade": 24820,
    "thest": 11653,
    "nobody": 16133,
    "Ġalders": 21781,
    "Ġjacob": 1900,
    "Ġspoke": 2746,
    "Ġfield": 1233,
    "itates": 13868,
    "Ġreplete": 15695,
    "Ġdied": 4113,
    "wol": 21121,
    "objection": 19914,
    "Ġreserved": 7515,
    "Ġancest": 12611,
    ".;": 20743,
    "indisc": 22370,
    "ĠĠĠĠĠ": 3526,
    "separ": 9230,
    "Ġfriesland": 26442,
    "impulse": 20644,
    "rying": 3182,
    "Ġexpanse": 14291,
    "Ġtranquilly": 12288,
    "uel": 6966,
    "Ġcontortions": 18476,
    "harbor": 13563,
    "Ġendure": 5955,
    "assertion": 22308,
    "usoid": 4767,
    "Ġgenealogies": 25961,
    "angels": 22100,
    "header": 11931,
    "Ġdisappointment": 6626,
    "ilet": 12826,
    "accomplishments": 25326,
    "Ġliked": 5264,
    "ordinate": 12872,
    "Ġserpent": 6737,
    "Ġmax": 2005,
    "Ġpromethe": 14467,
    "snowy": 20282,
    "placed": 7877,
    "Ġthem": 640,
    "scheme": 15253,
    "Ġch": 513,
    "Ġarmies": 16491,
    "disposed": 25010,
    "Ġassail": 13060,
    "hearted": 6970,
    "Ġautoregressive": 3432,
    "Ġelias": 18634,
    "ve": 323,
    "Ġmethodology": 2476,
    "jub": 20928,
    "Ġflight": 6580,
    "Ġsublimity": 26345,
    "Ġnapkins": 25161,
    "Ġencodings": 4775,
    "Ġrevive": 13478,
    "Ġmonarchs": 25849,
    "Ġgestures": 13535,
    "Ġreeling": 18032,
    "Ġsuspected": 9062,
    "wr": 3029,
    "Ġnugent": 26457,
    "goldsmith": 20146,
    "Ġimbued": 17454,
    "residual": 19261,
    "Ġbuttons": 12778,
    "Ġlightly": 13082,
    "Ġperry": 22395,
    "Ġsymmetrical": 20365,
    "Ġalternately": 15031,
    "Ġrapidity": 11100,
    "Ġrepro": 7275,
    "Ġunalterable": 15849,
    "Ġgrated": 22801,
    "Ġmy": 412,
    "Ġtearing": 14393,
    "Ġunforeseen": 22048,
    "jacket": 12290,
    "ampling": 12723,
    "Ġwinged": 16995,
    "Ġpower": 1283,
    "kindly": 14743,
    "Ġdepths": 4325,
    "Ġfowls": 8690,
    "Ġmodified": 14167,
    "Ġobstin": 14952,
    "ed": 293,
    "Ġamaze": 22480,
    "profound": 16424,
    "Ġkilled": 4955,
    "exam": 10976,
    "Ġhammers": 13239,
    "Ġchace": 14178,
    "Ġdear": 1541,
    "Ġaverages": 2402,
    "Ġtwentieth": 18659,
    "swe": 5995,
    "Ġmir": 9646,
    "Ġ51": 24320,
    "Ġworld": 1597,
    "Ġinfirmity": 26298,
    "Ġvague": 6406,
    "Ġflowers": 8940,
    "fisher": 7547,
    "eluded": 21572,
    "Ġunrival": 22042,
    "adam": 15727,
    "gl": 3291,
    "Ġcomfortably": 16615,
    "Ġbernard": 20683,
    "itatingly": 25277,
    "Ġcolumns": 14375,
    "Ġshell": 11734,
    "Ġmysteriously": 24601,
    "Ġlens": 8437,
    "tallow": 21084,
    "Ġisa": 14024,
    "inea": 7622,
    "Ġchurches": 12825,
    "Ġanger": 5442,
    "Ġwhither": 10214,
    "actory": 8907,
    "Ġcholera": 22250,
    "icorn": 15654,
    "Ġfreely": 7056,
    "Ġrespectable": 6736,
    "Ġmould": 6519,
    "idents": 6150,
    "over": 1846,
    "stock": 13220,
    "Ġsubsisting": 23433,
    "wers": 12517,
    "Ġbrimstone": 25686,
    "Ġshelves": 14998,
    "Ġknife": 7309,
    "Ġlanc": 19763,
    "Ġdiversity": 25284,
    "Ġvigorous": 10566,
    "Ġpens": 21458,
    "ascending": 24707,
    "hunters": 16833,
    "Ġdividing": 12109,
    "Ġvacuous": 24344,
    "Ġrows": 10561,
    "[": 63,
    "Ġneighb": 14073,
    "white": 4600,
    "etian": 13958,
    "Ġlangu": 573,
    "airing": 16172,
    "Ġswept": 7977,
    "Ġgovernments": 20266,
    "Ġcoppers": 22580,
    "Ġdictator": 20152,
    "Ġburst": 4378,
    "consc": 4840,
    "ricted": 15419,
    "nin": 17608,
    "Ġsolitary": 5854,
    "Ġcleared": 6074,
    "note": 14341,
    "nearest": 16020,
    "Ġrough": 7187,
    "Ġcirculation": 16415,
    "queness": 18147,
    "Ġtrain": 514,
    "produce": 20281,
    "Ġsultan": 15183,
    "Ġcommand": 3323,
    "Ġtame": 17722,
    "Ġbanquet": 15239,
    "Ġimpute": 18331,
    "Ġost": 9649,
    "Ġmind": 1620,
    "arial": 5532,
    "Ġdiabolically": 25513,
    "pudding": 17647,
    "Ġgrandfather": 19420,
    "alogue": 25159,
    "exp": 2736,
    "Ġbaby": 6636,
    "Ġgeor": 3388,
    "Ġescort": 23505,
    "preserver": 20212,
    "amped": 12031,
    "Ġkiller": 19567,
    "Ġsuppl": 11078,
    "Ġreliably": 22874,
    "Ġinflu": 4909,
    "Ġconsolidation": 5060,
    "Ġepistle": 24904,
    "Ġsovereign": 10061,
    "Ġexplain": 545,
    "Ġshould": 863,
    "Ġrevenge": 5452,
    "moon": 10335,
    "ootiful": 17372,
    "Ġrush": 5924,
    "ruct": 691,
    "Ġbravery": 23834,
    "Ġdisputing": 25824,
    "Ġcrews": 8990,
    "Ġreferences": 21671,
    "spr": 7435,
    "Ġwaggish": 25434,
    "Ġglorious": 11075,
    "Ġcapst": 8595,
    "Ġnewcom": 16220,
    "Ġsculpt": 15944,
    "Ġprivacy": 19523,
    "reve": 12536,
    "Ġsuppression": 22997,
    "Ġsuite": 18278,
    "fulness": 4309,
    "Ġdub": 13908,
    "Ġactually": 5389,
    "Ġcandour": 14672,
    "deck": 4498,
    "Ġconscious": 7743,
    "Ġdetailed": 12821,
    "ildad": 3531,
    "Ġdriven": 6198,
    "Ġprayers": 12121,
    "Ġwestern": 10654,
    "execution": 20470,
    "Ġshar": 9249,
    "Ġroot": 2650,
    "Ġindependent": 9015,
    "irious": 15783,
    "Ġbetrayed": 9561,
    "street": 6495,
    "inked": 12910,
    "Ġprevailing": 24673,
    "pr": 3171,
    "Ġgib": 13964,
    "Ġilleg": 21615,
    "discovered": 8324,
    "Ġbinding": 20417,
    "Ġintegrated": 13530,
    "Ġimbec": 14156,
    "requirements": 24857,
    "Ġhigher": 1818,
    "Ġshows": 8482,
    "Ġdistribution": 2017,
    "ional": 1083,
    "hens": 3934,
    "Ġeconomy": 17200,
    "Ġju": 10286,
    "Ġdeact": 18133,
    "ricane": 16276,
    "showing": 22458,
    "eping": 5833,
    "voc": 8393,
    "Ġheedful": 19739,
    "startled": 24941,
    "Ġcentaurs": 23830,
    "Ġdreadful": 4920,
    "Ġinspecting": 24613,
    "Ġsleepers": 13148,
    "Ġsinners": 18949,
    "Ġfrom": 435,
    "Ġprophets": 20449,
    "decided": 13214,
    "otic": 15742,
    "Ġinsanity": 12044,
    "Ġspoils": 24808,
    "Ġstrangest": 14795,
    "Ġsuggest": 5417,
    "Ġglobe": 6076,
    "Ġobjections": 8564,
    "Ġfringe": 17271,
    "dances": 17521,
    "Ġstormy": 16728,
    "Ġpersonality": 16476,
    "Ġdismally": 20213,
    "Ġexpect": 2307,
    "Ġzones": 22814,
    "Ġparaph": 22117,
    "ders": 8074,
    "Ġcomplying": 18584,
    "Ġawakened": 10453,
    "draughts": 20386,
    "insensibility": 23066,
    "Ġeternity": 12276,
    "Ġlabours": 8582,
    "Ġphilosophical": 26334,
    "Ġlevel": 5020,
    "Ġevil": 3804,
    "Ġrhyme": 21978,
    "Ġquadr": 8199,
    "antled": 18286,
    "house": 4079,
    "Ġindulge": 10582,
    "pp": 384,
    "Ġruthless": 15284,
    "Ġheighten": 19528,
    "Ġjustinian": 22969,
    "Ġformality": 22825,
    "Ġdormouse": 4925,
    "Ġsteadfast": 8678,
    "Ġphysiogn": 12386,
    "Ġmonosy": 18851,
    "Ġfrosty": 14934,
    "Ġ1778": 25730,
    "food": 12461,
    "Ġfactory": 23274,
    "iracle": 11243,
    "ature": 521,
    "toed": 18578,
    "Ġsaintsbury": 26372,
    "Ġwra": 5905,
    "Ġentangled": 10345,
    "ama": 11676,
    "oubtedly": 6943,
    "Ġreducing": 1957,
    "Ġangular": 19205,
    "Ġmentioning": 9898,
    "Ġexpanding": 25238,
    "Ġendurance": 23140,
    "Ġvengeful": 14889,
    "Ġnatural": 1104,
    "Ġporpoises": 13381,
    "Ġoaths": 13523,
    "Ġlan": 5820,
    "Ġindiscreet": 22953,
    "Ġpassing": 4314,
    "Ġdescending": 8902,
    "revol": 12537,
    "Ġli": 602,
    "Ġfrighten": 13276,
    "Ġhereabouts": 12974,
    "iated": 5889,
    "Ġachieves": 4377,
    "Ġpovelson": 26552,
    "Ġstreatham": 17448,
    "Ġparchment": 13651,
    "Ġbreaks": 13182,
    "Ġcomprehend": 6494,
    "Ġpositional": 2597,
    "Ġcrotch": 9962,
    "impud": 23759,
    "ipp": 10102,
    "ond": 1159,
    "Ġcabal": 23640,
    "Ġbedfellows": 23437,
    "Ġeffected": 14352,
    "supernatural": 19778,
    "Ġbehaved": 13251,
    "cim": 8719,
    "R": 54,
    "Ġcastors": 23973,
    "Ġstup": 14004,
    "ically": 852,
    "Ġsurtout": 23464,
    "Ġincom": 9768,
    "Ġapples": 22210,
    "Ġbank": 4877,
    "gather": 20874,
    "elag": 12655,
    "Ġflood": 7715,
    "Ġthigh": 10186,
    "Ġconvul": 13202,
    "Ġjerking": 12243,
    "Ġshri": 5375,
    "Ġno": 510,
    "Ġluxuries": 25163,
    "Ġpleasant": 4172,
    "Ġmexico": 15279,
    "Ġcard": 7363,
    "Ġwere": 558,
    "Ġgloves": 8574,
    "Ġcotton": 17378,
    "fanc": 20863,
    "Ġspectre": 16630,
    "Ġscanning": 18399,
    "supper": 12916,
    "<SOS>": 1,
    "Ġgryphon": 4299,
    "Ġthreatened": 8329,
    "man": 1054,
    "icherry": 15134,
    "Ġfiftieth": 24703,
    "Ġtrees": 4203,
    "vation": 4744,
    "Ġenvelop": 5587,
    "Ġsoles": 22082,
    "Ġpoorly": 9854,
    "Ġuniform": 2229,
    "outer": 9668,
    "Ġphant": 7055,
    "Ġcuriosity": 2371,
    "Ġangelic": 19626,
    "Ġobscurely": 20187,
    "Ġresolve": 13169,
    "}": 97,
    "Ġcontemptuously": 19832,
    "Ġunfailing": 24111,
    "Ġretain": 7862,
    "hil": 8378,
    "Ġaccumulating": 2721,
    "Ġpurch": 6599,
    "Ġcries": 7154,
    "Ġbohemia": 10649,
    "Ġnumer": 3638,
    "/`": 12427,
    "Ġlectures": 17178,
    "Ġwretchedness": 9026,
    "Ġtal": 7564,
    "Ġrighted": 23176,
    "Ġcharger": 19004,
    "odecimoes": 25318,
    "Ġtransf": 22434,
    "Ġconc": 1842,
    "itudes": 3016,
    "Ġpaltry": 16692,
    "Ġpreservation": 24630,
    "legra": 10789,
    "Ġsatan": 14389,
    "Ġlar": 765,
    "Ġbur": 2697,
    "ĭ": 238,
    "Ġherb": 15854,
    "Ġnowadays": 18546,
    "ilated": 18057,
    "uff": 2729,
    "Ġenjoys": 19448,
    "Ġwears": 10240,
    "older": 15756,
    "Ġrejoicing": 13420,
    "oriental": 23719,
    "vand": 21107,
    "Ġbumpkins": 25281,
    "izard": 10883,
    "Ġnearer": 5301,
    "Ġsurve": 9873,
    "Ġgenerously": 22393,
    "idious": 11661,
    "Ġindependence": 12102,
    "Ġundesired": 12775,
    "ellation": 12745,
    "Ġactual": 3736,
    "Ġjoists": 19231,
    "Ġunhinged": 26216,
    "Ġfootsteps": 16571,
    "riety": 12740,
    "iters": 21327,
    "Ġbeaten": 10528,
    "Ġbased": 3340,
    "Ġ127": 24472,
    "Ġcopied": 20006,
    "Ġaware": 5756,
    "ittleness": 22373,
    "÷": 184,
    "Ġrepay": 19081,
    "Ġturkish": 12259,
    "ells": 5303,
    "Ġstrict": 7222,
    "Ġresolving": 9418,
    "Ġrace": 5847,
    "crier": 20819,
    "wickham": 5883,
    "Ġhunks": 18935,
    "bos": 17483,
    "Ġspinning": 15052,
    "Ġinterpreter": 23210,
    "dun": 17516,
    "Ġcarn": 17821,
    "Ġinhab": 5083,
    "wonderful": 16960,
    "Ġostlers": 25276,
    "Ġpave": 8799,
    "Ġobvious": 4964,
    "Ġpop": 5151,
    "worm": 15452,
    "Ġghostly": 24650,
    "Ġbegins": 7244,
    "Ġpalsy": 25778,
    "%": 9,
    "Ă": 195,
    "Ġpointing": 5661,
    "Ġdisputes": 25825,
    "amid": 12721,
    "Ġestate": 6316,
    "retired": 11934,
    "Ġletting": 10362,
    "Ġexhilarating": 26337,
    "strikes": 24670,
    "Ġleech": 24155,
    "Ġvigorously": 11299,
    "Ġshr": 4226,
    "yea": 23084,
    "Ġsignature": 16492,
    "Ġbarrow": 12067,
    "Ġstowing": 18071,
    "]]": 5205,
    "Ġdisappointing": 19578,
    "Ġimag": 2675,
    "Ġgurgling": 17445,
    "disciple": 16778,
    "Ġsust": 7006,
    "Ġoccasioned": 13225,
    "Ġsunshine": 14494,
    "Ġrepeating": 11213,
    "Í": 142,
    "comra": 16173,
    "Ġsandwiched": 26610,
    "Ġphrenologically": 20392,
    "Ġmoles": 22429,
    "Ġdiverged": 23593,
    "Ġshamefully": 24716,
    "zeal": 16270,
    "Ġwilliam": 3481,
    "Ġorbs": 22089,
    "Ġvales": 21943,
    "ifled": 14062,
    "wil": 8395,
    "Ġrolls": 8333,
    "Ġdeliverer": 11948,
    "Ġninety": 13600,
    "Ġsam": 7569,
    "ureau": 10226,
    "accepting": 20134,
    "springing": 24889,
    "owl": 12681,
    "Ġcrowded": 8011,
    "jumped": 20245,
    "Ġsubsequently": 16158,
    "relations": 14732,
    "flag": 14710,
    "Ġfitting": 21406,
    "elder": 21569,
    "Ġconfid": 7686,
    "Ġscrutiny": 26015,
    "affection": 7487,
    "Ġsoliloquized": 17301,
    "Ġsuperlative": 26074,
    "rougham": 15991,
    "Į": 239,
    "Ġcivilized": 8664,
    "Ġscroll": 14191,
    "Ġve": 1108,
    "Ġprofess": 3697,
    "Ġdomestic": 6910,
    "Ġraiment": 22645,
    "bre": 3978,
    "Ġhill": 5626,
    "watery": 19825,
    "Ġdepth": 2440,
    "Ġwound": 4526,
    "deserts": 25379,
    "Ġbestowing": 16971,
    "impregn": 21711,
    "Ġmake": 1282,
    "Ġmoderate": 10938,
    "spirits": 8054,
    "venty": 6427,
    ",": 16,
    "endering": 21283,
    "Ġhid": 1316,
    "Ġrambled": 20167,
    "Ġcoal": 18591,
    "blooded": 20021,
    "Ġquery": 2480,
    "liness": 8746,
    "Ġjewelled": 20182,
    "Ġindicate": 23721,
    "Ġcornelius": 13572,
    "Ġmultiplicity": 19274,
    "Ġassociated": 12247,
    "Ġreflected": 2908,
    "Ġtroops": 24898,
    "subsided": 25830,
    "Ġserving": 14485,
    "Ġmakest": 25435,
    "shad": 10982,
    "atters": 18499,
    "unimportant": 18159,
    "Ġamounted": 18516,
    "Ġflushed": 13024,
    "gi": 17551,
    "comprehens": 16175,
    "akeman": 6267,
    "Ġrejoice": 10208,
    "Ġarri": 2554,
    "childhood": 16868,
    "Ġboxed": 24360,
    "thoughtfully": 24041,
    "consequential": 26249,
    "inquire": 16932,
    "Ġdiscomposed": 25580,
    "Ġaye": 3353,
    "urrection": 12407,
    "Ġsubmitted": 11869,
    "moonlight": 25375,
    "ivened": 22967,
    "agree": 14066,
    "Ġswimmer": 19457,
    "Ġchival": 14182,
    "acit": 16079,
    "infant": 19826,
    "nailed": 20995,
    "umn": 5835,
    "Ġadopted": 15177,
    "ay": 354,
    "Ġstifle": 18073,
    "Ġprosecuted": 25293,
    "coarse": 16486,
    "Ġreinforcement": 3520,
    "bewil": 22494,
    "rain": 461,
    "Ġwindow": 2998,
    "Ġrelate": 6875,
    "luckily": 19751,
    "Ġfootmen": 23796,
    "sk": 5521,
    "featured": 24133,
    "Ġinterlude": 16068,
    "Ġshetland": 22156,
    "Ġcautiousness": 19865,
    "Ġtumultuous": 10615,
    "Ġentit": 22737,
    "Ġawait": 17073,
    "Ġoccasions": 7987,
    "og": 871,
    "Ġidentify": 12012,
    "Ġarrested": 9560,
    "Ġsolution": 9804,
    "Ġforeshadowing": 26592,
    "Ġspence": 22123,
    "Ġprocedures": 9411,
    "Ġplan": 3879,
    "Ġtumble": 16879,
    "Ġneeded": 7717,
    "Ġintact": 21986,
    "Ġxiv": 23406,
    "commence": 19990,
    "Ġspirit": 3722,
    "Ġvoluntary": 14798,
    "Ġtex": 15471,
    "Ġmeta": 3302,
    "surface": 10530,
    "Ġcomplicated": 14734,
    "Ġniag": 21527,
    "Ġjavel": 17084,
    "oured": 2672,
    "Ġapartment": 6633,
    "Ġperpet": 7644,
    "Ġwicked": 5960,
    "Ġdefined": 11896,
    "rect": 1600,
    "Ġspeed": 2449,
    "stooped": 23819,
    "Ġwaldman": 11345,
    "Ġeaves": 15673,
    "Ġnewfoundland": 26569,
    "Ġenhance": 2960,
    "Ġrugged": 18720,
    "betrayed": 24640,
    "Ġclad": 12837,
    "Ġcirc": 1985,
    "Ġbraz": 19356,
    "Ġdisconnected": 22522,
    "imaux": 21709,
    "Ġleatherhead": 20012,
    "inav": 15483,
    "Ġincrust": 22547,
    "Ġproofs": 19813,
    "art": 575,
    "iv": 430,
    "absence": 12705,
    "Ġmornings": 16236,
    "Ġdisastrous": 16058,
    "Ġdependent": 14288,
    "ckery": 22087,
    "Ġheard": 1399,
    "hor": 2571,
    "Ġassisted": 11110,
    "Ġwrapping": 19774,
    "Ġarchipelagoes": 14347,
    "aked": 2014,
    "Ġautonomous": 10675,
    "_.âĢĻâĢĿ": 17479,
    "Ġthoughtlessness": 16191,
    "advanced": 19587,
    "Ġsimilarly": 24308,
    "Ġclout": 22344,
    "enterprise": 24992,
    "Ġlabels": 3288,
    "Ġbankrupt": 16796,
    "Ġapprehended": 26091,
    "Ġaspired": 25984,
    "Ġrocky": 13386,
    "Ġbedside": 19121,
    "lod": 15377,
    "sis": 1841,
    "jack": 7344,
    "Ġopulent": 23627,
    "Ġencounters": 19579,
    "Ġtattooing": 15027,
    "Ġincant": 18568,
    "Ġfrequent": 3287,
    "Ġosc": 2834,
    "Ġinaudible": 21496,
    "Ġstroke": 6936,
    "Ġprofits": 16488,
    "Ġdrinks": 24279,
    "Ġkrus": 18349,
    "Ġsheltered": 19910,
    "Ġreasoner": 14444,
    "Ġbeggars": 20628,
    "Ġclinch": 18425,
    "Ġtravelling": 11307,
    "Ġentrapped": 26262,
    "Ġsaith": 14155,
    "spersed": 22732,
    "iterranean": 15547,
    "Ġsayest": 22774,
    "Ġincensed": 18571,
    "wa": 5896,
    "founded": 16713,
    "Ġrashly": 20304,
    "Ġrabbit": 4288,
    "Ġoutline": 15952,
    "Ġswells": 9826,
    "storm": 9681,
    "ospit": 22260,
    "Ġdisreputable": 22531,
    "Ġhooded": 12404,
    "atics": 15521,
    "Ġtantamount": 25625,
    "dition": 15339,
    "Ġaquiline": 26159,
    "Ġexceeding": 1580,
    "rece": 21233,
    "Ġfilm": 23922,
    "Ġlinks": 13954,
    "fishery": 10031,
    "71": 20755,
    "Ġupstairs": 5836,
    "Ġmistifying": 23718,
    "started": 10845,
    "Ġlegible": 23532,
    "ĠĠĠĠĠĠĠĠĠĠĠĠĠĠĠĠĠĠĠĠĠĠĠĠĠ": 24442,
    "Ġkrusenstern": 26377,
    "Ġclaret": 22351,
    "Ġcrav": 19172,
    "Ġcover": 3556,
    "Ġsmelt": 16063,
    "Ġavowed": 16633,
    "Ġstirred": 12215,
    "Ġreadiness": 13047,
    "Ġlooks": 4168,
    "Ġrepressed": 21665,
    "Ġremote": 8919,
    "Ġdivulged": 16648,
    "hel": 4814,
    "Ġsuppressed": 11909,
    "Ġferguson": 17469,
    "Ġaristocratic": 20511,
    "Ġspatial": 2728,
    "dis": 2253,
    "impat": 11202,
    "Ġrecalled": 8539,
    "Ġclosely": 6488,
    "cabinet": 25077,
    "skirted": 24489,
    "filled": 9594,
    "Ġqueer": 4476,
    "Ġgod": 1936,
    "Ġinequalities": 26453,
    "Ġfiltering": 23923,
    "invested": 17117,
    "christian": 17232,
    "red": 396,
    "conclusion": 25671,
    "Ġdaring": 8120,
    "Ġarrived": 3745,
    "races": 21627,
    "Ġgen": 5296,
    "ivil": 6411,
    "Ġskills": 1837,
    "Ġmaledictions": 26428,
    "Ġapothecary": 13658,
    ";--": 8068,
    "Ġmisgiv": 14344,
    "Ġdong": 17887,
    "rodu": 1816,
    "Ġlightnings": 16351,
    "contact": 23726,
    "Ġpeg": 22686,
    "Ġdart": 4583,
    "Ġmarvell": 7248,
    "legged": 10466,
    "Ġalgorithm": 760,
    "Ġtortures": 14922,
    "redible": 15799,
    "Ġumb": 11645,
    "Ġsol": 1102,
    "Ġperpendicular": 7209,
    "ware": 3932,
    "Ġpyramids": 15113,
    "Ġunsupplied": 22038,
    "Ġimmemorially": 25383,
    "cottage": 9569,
    "matical": 13127,
    "Ġdarkness": 4277,
    "contrary": 23727,
    "ham": 1701,
    "bud": 10682,
    "fre": 5425,
    "don": 3543,
    "Ŀ": 256,
    "monsters": 19170,
    "Ġemblematical": 25788,
    "87": 20756,
    "complacency": 19913,
    "Ġhed": 7387,
    "gentleness": 24844,
    "Ġpicturesqueness": 24480,
    "Ġeleven": 9389,
    "Ġexceed": 1342,
    "Ġfri": 17878,
    "oga": 22707,
    "Ġsgd": 3128,
    "Ġunsocial": 18253,
    "Ġsqu": 1035,
    "ange": 1017,
    "Ġexceptional": 19369,
    "Ġbiscuit": 12586,
    "ituted": 13872,
    "ĝ": 222,
    "Ġed": 2141,
    "shoals": 24717,
    "Ġminor": 12965,
    "Ġfiends": 14827,
    "unknown": 10890,
    "circle": 16736,
    "Ġupp": 13991,
    "Ġbacks": 8528,
    "Ġmartial": 20290,
    "Ġplaster": 16082,
    "Ġincred": 5646,
    "alleging": 23019,
    "Ġmeas": 1097,
    "Ġthreshold": 2806,
    "Ġrenewed": 9537,
    "Ġnonsensical": 21526,
    "pigs": 17140,
    "mil": 13751,
    "Ġinside": 5448,
    "Ġomin": 11576,
    "Ġadvantage": 4315,
    "Ġoffered": 5816,
    "Ġsixpence": 19316,
    "Ġwrite": 3819,
    "Ġaddison": 14232,
    "atory": 6125,
    "foundered": 20866,
    "until": 6596,
    "iffs": 9021,
    "Ġsomeone": 6703,
    "Ġtalker": 23369,
    "attendants": 25495,
    "sofa": 26146,
    "Ġdoze": 14176,
    "Ġankers": 21443,
    "swallow": 24257,
    "eneva": 5118,
    "Ġquant": 6424,
    "Ġintending": 11702,
    "Ġmechanisms": 1576,
    "Ġrevolved": 9983,
    "draught": 12087,
    "Ġloved": 4597,
    "Ġmaw": 15537,
    "Ġability": 2762,
    "Ġstacked": 21740,
    "moving": 11016,
    "independ": 15980,
    "Ġgreatest": 4094,
    "Ġfarewell": 9519,
    "Ġaudibly": 24771,
    "Ġfeasible": 22206,
    "Ġjurymen": 16847,
    "yden": 21142,
    "Ġconverse": 11842,
    "Ġdistracted": 11801,
    "Ġinterpretation": 19715,
    "ĠĠĠĠĠĠĠĠĠĠĠĠĠĠĠĠĠĠĠĠĠĠĠĠĠĠĠĠĠĠĠĠĠĠĠĠĠĠĠĠĠĠĠĠĠĠ": 9952,
    "Ġcompromising": 22570,
    "Ġintelligences": 12827,
    "arding": 22154,
    "presbyterian": 26368,
    "feeder": 12359,
    "Ġhorner": 8958,
    "Ġfrequented": 16584,
    "anthrop": 17381,
    "Ġvarious": 3507,
    "Ġhark": 8427,
    "lined": 12481,
    "utional": 17983,
    "Ġactor": 16046,
    "Ġxxxix": 24968,
    "Ġdated": 10939,
    "eridge": 15524,
    "com": 1003,
    "Ġthinker": 22806,
    "harpooned": 24286,
    "ron": 5216,
    "dient": 440,
    "mystical": 25317,
    "hedge": 22495,
    "Ġplatonian": 25118,
    "Ġtriumphant": 12187,
    "Ġspeaks": 11159,
    "Ġworldly": 16328,
    "Ġdispersed": 16597,
    "Ġrang": 9244,
    "baked": 20778,
    "elzebub": 26464,
    "Ġdeduce": 8336,
    "Ġfrankenstein": 7095,
    "Ġbecome": 3155,
    "ulpt": 10885,
    "Ġproportionably": 19969,
    "Ġsk": 960,
    "Ġwholesome": 16003,
    "Ġhastily": 5763,
    "Ġthrow": 3782,
    "Ġhab": 4218,
    "Ġresolute": 19244,
    "Ġbedrooms": 19968,
    "Ġfishes": 11590,
    "Ġshades": 9461,
    "Ġavenues": 25429,
    "Ġattentively": 9949,
    "earthquakes": 24725,
    "mortal": 10112,
    "frame": 17116,
    "hatred": 24821,
    "ivering": 7697,
    "Ġstronger": 8578,
    "Ġchief": 3382,
    "Ġcaused": 5048,
    "european": 26371,
    "inside": 23062,
    "sur": 4521,
    "Ġmortar": 19391,
    "Ġscheme": 7064,
    "less": 929,
    "Ġbrings": 11878,
    "Ġbressed": 21385,
    "Ġstretched": 5919,
    "Ġscor": 8189,
    "Ġwestward": 24389,
    "Ġconducting": 16649,
    "Ġvac": 5025,
    "Ġglo": 1713,
    "Ġcircumvent": 25064,
    "sheet": 16284,
    "ifting": 6545,
    "ipotent": 10956,
    "Ġsilvery": 13092,
    "Ġgliding": 8560,
    "rud": 4191,
    "Ġunaccount": 22022,
    "crated": 16696,
    "earliest": 20118,
    "recurrent": 4994,
    "¡": 99,
    "itig": 1328,
    "Ġpipes": 9841,
    "Ġtorture": 9064,
    "Ġvelocity": 10620,
    "Ġfondly": 19615,
    "Ġstatements": 7516,
    "che": 3168,
    "q": 85,
    "liable": 3816,
    "Ġfert": 15579,
    "Ġchances": 9262,
    "Ġpromontory": 11939,
    "Ġconquer": 14026,
    "Ġdisclosed": 15152,
    "husband": 8041,
    "Ġfruit": 12324,
    "Ġpunctilious": 26352,
    "catch": 17506,
    "Ġdr": 2823,
    "Ġdesign": 4134,
    "Ġsmaller": 1882,
    "atiate": 12545,
    "majesty": 26280,
    "everlasting": 18770,
    "Ö": 151,
    "Ġmutineer": 19416,
    "Ġsult": 10767,
    "asions": 12648,
    "ound": 586,
    "Ġsolemn": 4102,
    "characteristic": 24685,
    "Ġcorridor": 10671,
    "Ġmatrim": 11060,
    "culiar": 2818,
    "because": 4923,
    "achel": 7032,
    "Ġcou": 5286,
    "Ġemac": 16405,
    "Ġhatchways": 24987,
    "struck": 7861,
    "Ġdair": 17889,
    "Ġplumage": 17297,
    "Ġentr": 14340,
    "Ġexclam": 6757,
    "isk": 9167,
    "Ġsemicircle": 26067,
    "Ġconsternation": 9858,
    "custom": 15332,
    "qual": 8156,
    "Ġcompl": 3758,
    "Ġtarts": 10753,
    "Ġpopular": 6216,
    "Ġfresh": 3669,
    "Ġq": 1084,
    "Ġactivations": 2718,
    "Ġintelligent": 1403,
    "Ġlustre": 15133,
    "Ġmetal": 9383,
    "Ĳ": 243,
    "various": 10397,
    "Ġruled": 22782,
    "Ġspies": 22125,
    "ambition": 13410,
    "Ġprophetic": 20018,
    "preading": 18497,
    "successively": 24779,
    "Ġconstitutional": 25125,
    "precisely": 6917,
    "Ġthreads": 13116,
    "Ġselected": 9710,
    "Ġirr": 10421,
    ",)": 9100,
    "Ġtechnical": 17191,
    "Ġsequences": 1750,
    "Ġadvertising": 25389,
    "Ġswashing": 23053,
    "Ġdodo": 9072,
    "involuntarily": 20413,
    "Ġleave": 2458,
    "lady": 4430,
    "mell": 20963,
    "frankenstein": 11391,
    "tumultuously": 25613,
    "Ġpitching": 16611,
    "Ġrationally": 18213,
    "Ġcreated": 2706,
    "Ġmbpp": 21320,
    "dug": 18462,
    "magistrate": 19862,
    "Ġpent": 17903,
    "Ġprecious": 5760,
    "yesterday": 10352,
    "Ġcrammed": 16470,
    "Ġirresolute": 24916,
    "Ġresidence": 8206,
    "thither": 21980,
    "§": 105,
    "Ġcaulk": 25440,
    "Ġgrizzled": 11450,
    "Ġsunny": 13084,
    "Ġinfall": 7959,
    "ĠĠĠĠĠĠĠĠĠĠĠĠĠĠĠĠĠĠĠĠĠĠĠĠĠĠĠĠĠĠĠĠĠĠĠĠĠĠĠ": 19258,
    "Ġfejee": 18353,
    "subs": 14298,
    "Ġbuilded": 24719,
    "Ġsemantics": 2892,
    "dock": 16417,
    "danish": 20832,
    "Ġbright": 3211,
    "extremely": 26263,
    "jet": 13741,
    "Ġright": 1504,
    "Ġstrive": 23692,
    "ois": 9134,
    "Ġunchanging": 22040,
    "Ġpetticoat": 15294,
    "Ġfell": 1977,
    "Ġconnection": 5479,
    "Ġtot": 4187,
    "Ġloom": 7628,
    "sombre": 23852,
    "fal": 17536,
    "Ġpacific": 5153,
    "Ġpursuit": 4733,
    "Ġexplore": 15906,
    "type": 16171,
    "tubs": 15129,
    "83": 13679,
    "Ġpermitted": 9277,
    "libra": 22922,
    "Ġsalisbury": 24060,
    "Ġbrew": 23340,
    "german": 11491,
    "Ġbeside": 5192,
    "lected": 1637,
    "Ġeloquent": 16109,
    "irement": 18355,
    "isl": 21373,
    "iastic": 12477,
    "ioneer": 15629,
    "Ġhumanity": 6731,
    "Ġwonder": 2115,
    "feeling": 6616,
    "onom": 9158,
    "nurse": 15207,
    "Ġconnections": 971,
    "dw": 3334,
    "Ġexist": 9231,
    "estruct": 22224,
    "Ġended": 7949,
    "Ġvulgarity": 25363,
    "ugn": 9377,
    "Ġinches": 5845,
    "Ġmarriage": 3184,
    "Ġbaptized": 25774,
    "Ġremo": 3784,
    "Ġpatch": 4182,
    "venth": 9294,
    "entitled": 21565,
    "Ġproprietor": 12371,
    "Ġincisive": 18570,
    "Ġoriginal": 6102,
    "Ġgasp": 7172,
    "Ġbustle": 17227,
    "Ġleyden": 21744,
    "Ġslaughtered": 26584,
    "appo": 3912,
    "sheltered": 25585,
    "bunger": 20400,
    "Ġconj": 8460,
    "Ġassumptions": 5517,
    "re": 266,
    "Ġpositively": 13028,
    "Ġstubbornness": 25380,
    "Ġeddy": 13122,
    "del": 4077,
    "Ġdisagree": 22529,
    "Ġsubdued": 11030,
    "Ġwad": 13850,
    "ter": 359,
    "remain": 9837,
    "Ġghost": 6142,
    "tain": 559,
    "architect": 22891,
    "Ġlinen": 12405,
    "prevailed": 17344,
    "Ġdescrib": 2717,
    "Ġloosed": 22109,
    "Ġdriver": 16473,
    "Ġfeel": 1260,
    "doing": 8584,
    "Ġspars": 3808,
    "christ": 10210,
    "ļ": 253,
    "Ġdespaired": 14668,
    "Ġdig": 6135,
    "Ġultimately": 17164,
    "tattoo": 21086,
    "Ġrivals": 20270,
    "Ġcaus": 1723,
    "widely": 25343,
    "Ġfulfilled": 11362,
    "Ġbeckoned": 25793,
    "Ġfordham": 21773,
    "Ġcreditors": 20128,
    "Ġlarboard": 11009,
    "Ġtick": 8108,
    "Ġsubterranean": 13610,
    "especially": 3571,
    "Ġplata": 25117,
    "mit": 4933,
    "Ġpermission": 9278,
    "ular": 715,
    "Ġhang": 9187,
    "advance": 12154,
    "Ġshoulder": 5848,
    "thes": 7391,
    "Ġcombine": 4413,
    "exerc": 16013,
    "Ġpanic": 11286,
    "Ġmealy": 18118,
    "suitable": 18629,
    "Ġdrawing": 3915,
    "Ġagain": 812,
    "Ġadroit": 26000,
    "ved": 868,
    "authority": 13590,
    "Ġseized": 4833,
    "teringly": 21820,
    "Ġexcessively": 9439,
    "Ġimportant": 1069,
    "Ġmonogra": 22979,
    "mission": 5969,
    "Ġsimultaneous": 22585,
    "Ġlonged": 6436,
    "Ġpertur": 12849,
    "nature": 5359,
    "Ġinherit": 25352,
    "Ġcottagers": 6761,
    "ret": 1474,
    "daugh": 6788,
    "pets": 17636,
    "acetti": 13395,
    "Ġpublic": 4331,
    "benefit": 24642,
    "Ġlydia": 2379,
    "Ġdefilements": 26284,
    "ical": 753,
    "Ġdeliber": 7268,
    "Ġwho": 612,
    "Ġmuttering": 10499,
    "maltese": 24795,
    "ready": 2362,
    "Ġtrop": 7565,
    "Ġ166": 25004,
    "andy": 8157,
    "mayhew": 23989,
    "vens": 21111,
    "Ġbanqu": 12585,
    "Ġmoved": 4839,
    "Ġgeneric": 18448,
    "Ġgaily": 16748,
    "Ġhosts": 19937,
    "Ġsqualls": 17020,
    "Ġadmirable": 8268,
    "liament": 16216,
    "Ġstrewed": 23420,
    "Ġhelplessly": 20076,
    "ored": 3892,
    "Ġcharge": 5324,
    "cousin": 10652,
    "constantly": 24606,
    "ð": 177,
    "Ġmanufact": 22325,
    "Ġcamel": 25349,
    "ified": 3224,
    "rints": 12500,
    "Ġglut": 18853,
    "linen": 25257,
    "Ġplanets": 24053,
    "30": 20753,
    "quely": 10231,
    "hammered": 19003,
    "Ġcontrol": 13078,
    "excellent": 8043,
    "Ġunhe": 22005,
    "wart": 17705,
    "stopping": 19348,
    "Ġgentleman": 3041,
    "ription": 5676,
    "Ġundeserving": 18265,
    "Ġrelev": 1714,
    "noble": 7921,
    "Ġpropos": 7062,
    "Ġhat": 2771,
    "Ġalthough": 4152,
    "Ġschemes": 11131,
    "nered": 18488,
    "Ġconsecrated": 26488,
    "inu": 1116,
    "85": 13680,
    "lat": 9604,
    "Ġchamp": 18381,
    "Ġdidst": 11847,
    "necess": 4896,
    "Ġpal": 4043,
    "Ġliable": 14228,
    "stad": 7597,
    "cing": 1013,
    "Ġsituations": 10491,
    "ander": 6401,
    "Ġunbending": 25464,
    "dwelt": 23869,
    "sterdam": 19089,
    "battle": 12440,
    "Ġvial": 10248,
    "Ġswelling": 11923,
    "Ġmightiest": 12957,
    "Ġimmort": 19482,
    "servant": 15035,
    "spread": 8388,
    "Ġconsidering": 4613,
    "Ġdeplored": 20503,
    "umns": 14147,
    "Ġvexatious": 19780,
    "dressed": 10695,
    "min": 4569,
    "elihood": 4620,
    "Ġdislike": 6047,
    "innocent": 20285,
    "Ġbriskly": 25311,
    "uted": 7592,
    "hyme": 19608,
    "Ġage": 3893,
    "farintosh": 24553,
    "&": 10,
    "Ġrichness": 19310,
    "isting": 5551,
    "Ġblackness": 9392,
    "igin": 3655,
    "Ġtrust": 4081,
    "ated": 724,
    "Ġmagnific": 16318,
    "Ġdrew": 3536,
    "Ġkings": 7197,
    "fields": 14653,
    "esteemed": 26009,
    "islanders": 25442,
    "Ġsent": 1775,
    "ert": 2633,
    "Ġaccidental": 16848,
    "Ġrooted": 13168,
    "enes": 5218,
    "Ġparts": 4167,
    "Ġstove": 6733,
    "owders": 18050,
    "warmth": 20051,
    "Ġ20": 8613,
    "Ġconstraint": 16513,
    "repairing": 24495,
    "Ġezekiel": 26192,
    "Ġtheology": 21275,
    "Ġadmirably": 16480,
    "Ġcoldness": 23758,
    "Ġgesture": 11399,
    "thank": 4950,
    "impress": 18051,
    "Ġdictionaries": 12338,
    "Ġwanderings": 20142,
    "Ġbacking": 16115,
    "Ġhindoo": 17175,
    "Ġlurking": 11289,
    "sample": 12504,
    "fig": 8734,
    "Ġcents": 17828,
    "hilar": 25081,
    "Ġ{": 21151,
    "gration": 9121,
    "sprit": 11382,
    "Ġzeros": 3326,
    "Ġprematurely": 24003,
    "Ġjourneys": 19473,
    "olet": 13765,
    "osures": 22258,
    "Ġfeature": 748,
    "Ġoccasional": 7289,
    "Ġhumbled": 16194,
    "Ġgeorgia": 23884,
    "namely": 23673,
    "argue": 21442,
    "Ġlamp": 4116,
    "Ġimpetus": 25569,
    "Ġmeadow": 17151,
    "Ġob": 859,
    "Ġfrock": 10489,
    "Ġvideos": 13605,
    "please": 8176,
    "indispensable": 14209,
    "Ġmarshalled": 25315,
    "mon": 2310,
    "rogress": 21533,
    "Ġdepended": 9776,
    "lying": 7174,
    "Ġerrand": 11085,
    "Ġmacy": 19353,
    "Ġregulations": 18599,
    "rip": 9240,
    "path": 10118,
    "Ġpolic": 13160,
    "Ġsettling": 11062,
    "Ġgangway": 20157,
    "Ġexploding": 2107,
    "Ġexcursion": 26589,
    "sure": 5522,
    "_.)": 7278,
    "Ġunmolested": 15244,
    "anxiety": 25155,
    "Ġpremises": 10487,
    "Ġpencil": 11941,
    "enjoy": 10774,
    "ouraged": 22852,
    "yp": 1044,
    "large": 6625,
    "Ġbarbarous": 13475,
    "swift": 14851,
    "Ġkent": 6691,
    "uther": 8816,
    "Ġmerchant": 6467,
    "ited": 1749,
    "still": 4219,
    "only": 3308,
    "Ġacquies": 11096,
    "Ġru": 947,
    "Ġbeams": 14631,
    "Ġbenefits": 4286,
    "Ġlively": 5449,
    "urre": 10856,
    "ribute": 7226,
    "Ġbus": 1905,
    "Ġyer": 15731,
    "Ġmarvellous": 7538,
    "Ġmartin": 25436,
    "Ġexotic": 21835,
    "Ġworthy": 7241,
    "Ġgown": 10201,
    "ittle": 810,
    "Ġjetted": 24431,
    "ie": 730,
    "Ġhabit": 6771,
    "Ġf": 283,
    "Ġforming": 7042,
    "ibles": 18784,
    "Ġinterchange": 16069,
    "Ġdispositions": 13231,
    "Ġpalpitated": 26085,
    "Ġcalifornian": 25851,
    "Ġflora": 11416,
    "icious": 7380,
    "Ġwarmup": 3919,
    "Ġnarratives": 24353,
    "Ġcorp": 5574,
    "Ġmixing": 24934,
    "Ġperceiving": 8875,
    "oy": 996,
    "Ġchuckled": 10647,
    "ough": 471,
    "Ġapartments": 19613,
    "Ġcracked": 8593,
    "Ġvolition": 14797,
    "Ġsunset": 8962,
    "Ġcharing": 14180,
    "Ġobserving": 6080,
    "Ġverses": 17063,
    "Ġdiscipl": 22781,
    "Ġdyspepsia": 20642,
    "down": 3468,
    "Ġrequires": 1038,
    "Ġnecessarily": 13247,
    "Ġspecially": 11996,
    "Ġencourages": 2061,
    "f": 74,
    "spout": 7922,
    "Ġserenely": 13506,
    "Ġcheery": 16366,
    "Ġenormous": 5609,
    "Ī": 235,
    "Ġcashier": 20197,
    "crack": 19839,
    "Ġconjugal": 25101,
    "Ġweapon": 7775,
    "Ġstout": 6024,
    "Ġdece": 6996,
    "Ġtexture": 19159,
    "Ġaloysius": 15735,
    "Ġpatients": 24813,
    "ounced": 4954,
    "Ġbrief": 6976,
    "fred": 20854,
    "Ġshank": 21994,
    "Ġwhose": 2007,
    "Ġyard": 5920,
    "Ġincludes": 2010,
    "Ġlake": 5227,
    "Ġroused": 7623,
    "Ġpoles": 11004,
    "Ġeve": 13969,
    "feeders": 25235,
    "Ġeloped": 22642,
    "removed": 15515,
    "Ġallurements": 22069,
    "Ġaerial": 21197,
    "what": 642,
    "Ġdauntless": 26336,
    "renadier": 18419,
    "oop": 10715,
    "Ġpictures": 5503,
    "Ġincarnation": 25573,
    "ru": 482,
    "Ġbattering": 13900,
    "enthus": 17977,
    "count": 4213,
    "Ġtriangular": 14858,
    "lucky": 24545,
    "Ġdrugg": 17119,
    "Ġmatted": 22910,
    "Ġ1869": 19382,
    "rained": 5162,
    "Ġ184": 16607,
    "Ġcabman": 14605,
    "Ġnoting": 18221,
    "Ġdeduction": 14900,
    "Ġacquitted": 18898,
    "Ġhaughty": 11449,
    "Ġres": 696,
    "Ġlacepede": 20493,
    "Ġcalamity": 17348,
    "Ġmix": 7576,
    "Ġattachment": 6049,
    "unable": 14058,
    "security": 26206,
    "icit": 3379,
    "Ġtold": 2187,
    "Ġcharming": 6628,
    "Ġstarbuck": 2195,
    "Ġstabilizing": 3656,
    "Ġsul": 7570,
    "osed": 1961,
    "Ġhazard": 20430,
    "electricity": 26385,
    "Ġcens": 8412,
    "Ġgreas": 17991,
    "Ġbeheaded": 11655,
    ":âĢĶâĢĺ": 24193,
    "sideways": 14572,
    "repaid": 24491,
    "Ġhig": 754,
    "Ġspam": 7630,
    "Ġsalary": 13291,
    "Ġstarlight": 24626,
    "Ġstudy": 1798,
    "Ġbristles": 25843,
    "Ġillustration": 19135,
    "will": 1969,
    "Ġbedfellow": 16436,
    "species": 13254,
    "prec": 3198,
    "Ġgreeting": 18963,
    "rian": 10241,
    "Ġtheoretically": 3565,
    "Ġmorcar": 13012,
    "Ġcatherine": 2810,
    "Ġadmirer": 16838,
    "ortions": 10948,
    "Ġfundamentals": 14635,
    "reputation": 15514,
    "Ġcomprising": 16066,
    "Ġbengal": 18782,
    "Ġjabez": 11764,
    "Ġprepared": 5876,
    "Ġeddystone": 25709,
    "Ġfootman": 8287,
    "weight": 2940,
    "Ġwisdom": 11233,
    "forgot": 11033,
    "Ġthw": 21512,
    "ĠÂ£": 5006,
    "Ġsurm": 7476,
    "Ġjolly": 6858,
    "Ġcrad": 21348,
    "university": 25983,
    "southern": 20407,
    "Ġoak": 6128,
    "news": 23129,
    "tland": 21072,
    "dining": 13704,
    "Ġwonderfully": 10430,
    "ane": 1176,
    "elaborate": 21573,
    "thar": 18217,
    "Ġembatt": 18848,
    "Ġpreaching": 15924,
    "Ġstake": 14002,
    "Ġhugh": 15004,
    "pread": 7418,
    "pag": 11510,
    "garious": 17558,
    "iteous": 14261,
    "reel": 21232,
    "Ġexhaust": 6399,
    "ierce": 14390,
    "Ġfearing": 12812,
    "Ġirre": 7468,
    "orse": 5806,
    "Ġsobbed": 14136,
    "Ġperusal": 14225,
    "Ġrealised": 18981,
    "Ġeldest": 6571,
    "Ġoutstretched": 14195,
    "Ġcheat": 19018,
    "Ġtranslations": 12049,
    "Ġinference": 9671,
    "omitted": 18016,
    "begged": 18520,
    "izens": 18143,
    "swed": 24253,
    "ittingly": 18806,
    "utter": 7593,
    "Ġreconcile": 25291,
    "Ġsloop": 25930,
    ");": 7330,
    "Ġbored": 16103,
    "Ġscornful": 24996,
    "Ġkramm": 26233,
    "itic": 11577,
    "threw": 21981,
    "Ġissues": 9541,
    "mess": 13752,
    "commanded": 16988,
    "Ġcoupled": 16851,
    "Ġadam": 2124,
    "lift": 15383,
    "Ġwane": 21287,
    "Ġtooks": 23323,
    "eties": 10837,
    "awe": 20764,
    "Ġyoked": 15732,
    "Ġqueen": 3210,
    "seeking": 17152,
    "Ġcultiv": 13555,
    "Ġfem": 6134,
    "aired": 8368,
    "Ġminiatures": 20320,
    "Ġarchitects": 18737,
    "floating": 12225,
    "ivable": 10910,
    "nets": 9132,
    "Ġnice": 6676,
    "Ġvirtual": 11239,
    "Ġfurthermore": 1168,
    "fights": 20864,
    "Ġconsidered": 4609,
    "iding": 3844,
    "Ġdeference": 10879,
    "Ġgurg": 15670,
    "Ġflooring": 23622,
    "Ę": 217,
    "terbury": 21821,
    "scruple": 26045,
    "Ġexpressions": 7705,
    "Ġcautiously": 16977,
    "Ġsallies": 21228,
    "Ġmyth": 18220,
    "Ġhull": 5446,
    "Ġfe": 490,
    "kov": 17586,
    "Ġexped": 7650,
    "ri": 389,
    "Ġounce": 15271,
    "Ġgarb": 21600,
    "Ġloaf": 15870,
    "ifer": 11682,
    "relig": 15511,
    "lynes": 15701,
    "laz": 15384,
    "aract": 17894,
    "k": 79,
    "itable": 5437,
    "alluring": 18352,
    "Ġsheep": 10926,
    "Ġvicissitudes": 12417,
    "crane": 24098,
    "ny": 4018,
    "Ġwedge": 24068,
    "afer": 17481,
    "Ġunderground": 18985,
    "Ġavailed": 23949,
    "Ġcheer": 4068,
    "pens": 17632,
    "indifferent": 14208,
    "iature": 8741,
    "Ġbeth": 9657,
    "ù": 186,
    "Ġgodfre": 14529,
    "cart": 10688,
    "Ġconsoling": 19455,
    "woman": 5898,
    "Ġdisasters": 16052,
    "Ġ109": 24416,
    "shaped": 10308,
    "Ġperched": 10299,
    "Ġchron": 19436,
    "ight": 403,
    "Ġworry": 18816,
    "Ġcontact": 9280,
    "ultural": 22565,
    "Ġrevived": 11368,
    "ded": 2424,
    "Ġwrongfully": 24248,
    "Ġshun": 11707,
    "Ġbidding": 9536,
    "locked": 7677,
    "gaffman": 26390,
    "bore": 13685,
    "bask": 20775,
    "Ġunwritten": 22029,
    "Ġheated": 21679,
    "ingham": 21299,
    "employed": 17261,
    "Ġknowest": 12860,
    "forward": 2189,
    "Ġpedestrian": 25879,
    "Ġadjacent": 20710,
    "ames": 2953,
    "Ġsending": 8774,
    "Ġconstrained": 19239,
    "Ġdog": 4193,
    "wound": 21125,
    "shapes": 22459,
    "Ġtemporarily": 11167,
    "nder": 20986,
    "hard": 4689,
    "emberley": 4173,
    "pointed": 9807,
    "grandfather": 25009,
    "beef": 18523,
    "Ġscaffold": 18400,
    "specific": 10497,
    "kindness": 10505,
    "work": 1762,
    "Ġshout": 4264,
    "moor": 22699,
    "Ġlengthwise": 10452,
    "Ġorigin": 4122,
    "Ġsed": 10761,
    "Ġforgetting": 3435,
    "Ġbalances": 2342,
    "mown": 20969,
    "Ġrolling": 5974,
    "six": 7141,
    "Ġouter": 6859,
    "shipping": 10307,
    "ope": 4127,
    "Ġamend": 16034,
    "Ġlearns": 2643,
    "ividual": 5463,
    "Ġensu": 7874,
    "istically": 14143,
    "actions": 8906,
    "direful": 25896,
    "Ġjackson": 24240,
    "mou": 10708,
    "Ġwarmer": 19184,
    "Ġghostliness": 24651,
    "Ġsuccessfully": 19427,
    "Ġforthwith": 16618,
    "Ġplight": 14281,
    "Ġhappened": 3711,
    "Ġmeanly": 12906,
    "Ġknitted": 19588,
    ";": 31,
    "Ġmatter": 1731,
    "Ġtierce": 15477,
    "Ġsleeper": 8600,
    "engagements": 25853,
    "Ġremot": 8543,
    "Ġforbidden": 17078,
    "Ġjost": 23629,
    "wra": 11541,
    "borough": 20784,
    "Ġformidable": 8219,
    "Ġinvoluntarily": 8547,
    "Ġwail": 21285,
    "Ġhumans": 8929,
    "Ġberries": 13406,
    "questions": 16760,
    "Ġwhereby": 11834,
    "ision": 1854,
    "Ġsingers": 23770,
    "road": 6677,
    "Ġaback": 22263,
    "matlock": 23468,
    "eld": 961,
    "Ġwerter": 15238,
    "pattern": 4015,
    "Ġfrequencies": 4789,
    "Ġstraightened": 12106,
    "Ġsystematic": 5245,
    "Ġunwarranted": 25171,
    "Ġmile": 7151,
    "irr": 12734,
    "Ġanat": 8123,
    "Ġrestrict": 16372,
    "Ġcomplained": 16998,
    "aped": 3763,
    "Ġcarefully": 6304,
    "alleled": 14428,
    "etrics": 21582,
    "Ġromans": 16759,
    "Ġspiritual": 9929,
    "rospect": 11611,
    "Ġfaintness": 24570,
    "Ġwarped": 25035,
    "Ġgust": 21594,
    "Ġseclusion": 18208,
    "Ä": 133,
    "Ġhackluyt": 25655,
    "Ġfalsely": 20580,
    "Ġrobust": 1402,
    "Ġclink": 22346,
    "Ġreach": 4048,
    "urmount": 13994,
    "Ġpaul": 12060,
    "lower": 8880,
    "ylon": 24975,
    "paradise": 20635,
    "requent": 3649,
    "Ġeclipsed": 26376,
    "andes": 18151,
    "Ġhonest": 7287,
    "í": 174,
    "ameter": 2904,
    "beauty": 20102,
    "Ġtablet": 19203,
    "/(": 2983,
    "Ġcommod": 10333,
    "horse": 8605,
    "Ġmicha": 17811,
    "Ġeaster": 15672,
    "Ġbolivia": 24667,
    "Ġpillow": 10037,
    "rubber": 12809,
    "Ġpuffs": 14975,
    "Ġstocks": 23174,
    "Ġejac": 10203,
    "Ġmiscellaneous": 17462,
    "ivery": 17572,
    "Ġwoke": 21288,
    "Ġrewarded": 14939,
    "Ġlany": 21551,
    "Ġsprout": 24087,
    "Ġcart": 11582,
    "iar": 2383,
    "extinguish": 22764,
    "Ġjungfrau": 15247,
    "Ġproperty": 6450,
    "situation": 11437,
    "Ġsure": 1864,
    "Ġslain": 8953,
    "Ġtor": 8105,
    "destroy": 19509,
    "Ġdistension": 22501,
    "Ġshattered": 7883,
    "ician": 21562,
    "Ġhire": 21482,
    "Ġrabb": 4166,
    "Ġscoundrel": 13669,
    "Ġsolely": 9909,
    "Ġwarn": 5695,
    "Ġwheelbarrow": 17204,
    "remembrance": 25702,
    "Ġunravel": 26214,
    "Ġhug": 6979,
    "Ġmorals": 22974,
    "ood": 963,
    "oun": 483,
    "tri": 11529,
    "Ġsnug": 8279,
    "ened": 1387,
    "Ġ50": 24319,
    "Ġmuchness": 18706,
    "Ġmice": 13858,
    "iciously": 17973,
    "aker": 3662,
    "ez": 5683,
    "asper": 7854,
    "nals": 16398,
    "Ġworm": 9162,
    "Ġgradually": 3401,
    "ette": 15656,
    "many": 5250,
    "Ġinteractions": 12900,
    "remediable": 26294,
    "judging": 24201,
    "Ġbelf": 21379,
    "raction": 8137,
    "Ġbrand": 16184,
    "Ġgoblets": 20517,
    "Ġsuccour": 20433,
    "rusted": 16506,
    "Ġwits": 15530,
    "anum": 17835,
    "Ġnavy": 14915,
    "jac": 8381,
    "Ġabased": 22265,
    "Ġmiserable": 3634,
    "unch": 14057,
    "Ġbott": 3146,
    "Ġblow": 3374,
    "Ġcontradicted": 20210,
    "Ġrepenting": 25322,
    "complaisance": 24811,
    "boiling": 19000,
    "alarmed": 21500,
    "Ġsauce": 15887,
    "errand": 22907,
    "gra": 768,
    "weigh": 18665,
    "Ġyankees": 26201,
    "Ġlimited": 23544,
    "Ġeating": 8135,
    "itheat": 21336,
    "seized": 14034,
    "adow": 18087,
    "Ġintentions": 10607,
    "Ġdelineations": 26058,
    "Ġwise": 6811,
    "bots": 10082,
    "Ġneglect": 7941,
    "Ġhammer": 6093,
    "Ġpitiless": 19386,
    "Ġgeological": 14533,
    "Ġmoment": 988,
    "^{": 15303,
    "Ġwaved": 9644,
    "Ġbully": 23854,
    "84": 15300,
    "upt": 13797,
    "Ġfastening": 16355,
    "etence": 21574,
    "breadth": 20275,
    "Ġrevers": 21661,
    "Ġdivin": 13270,
    "ivation": 3108,
    "squeezing": 25913,
    "Ġ94": 17717,
    "here": 2550,
    "Ġprince": 18971,
    "Ġslight": 3117,
    "Ġjustice": 5111,
    "inkles": 7426,
    "Ġorders": 5340,
    "Ġend": 1484,
    "nantucketer": 24972,
    "laid": 10109,
    "Ġoper": 2118,
    "Ġeternally": 11369,
    "matters": 14873,
    "Ġinestim": 15621,
    "Ġscruple": 25048,
    "hee": 10760,
    "Ġwindings": 18909,
    "Ġplayed": 9415,
    "Ġconvalescence": 23745,
    "Ġimperson": 14219,
    "Ġcommercial": 22671,
    "Ġcaress": 16337,
    "erest": 10697,
    "Ġsheets": 9721,
    "Ġshot": 4542,
    "Ġser": 1673,
    "oard": 4809,
    "izzy": 3093,
    "makers": 20981,
    "Ġvesuvius": 26501,
    "Ġhauling": 14086,
    "Ġfidel": 12593,
    "Ġ53": 19639,
    "cup": 10690,
    "Ġchest": 5185,
    "Ġconsistent": 14528,
    "Ġpropontis": 17465,
    "Ġtilted": 20411,
    "Ġgripping": 26186,
    "ignorant": 13562,
    "Ġbeards": 21748,
    "xes": 21139,
    "Ġabandoned": 8351,
    "âĢĿ)": 21808,
    "chester": 23805,
    "Ġhospitals": 24923,
    "aries": 6244,
    "Ġevening": 2652,
    "precip": 14664,
    "Ġdeadliest": 14556,
    "Ġreminisc": 18725,
    "Ġflannel": 26577,
    "Ġvenerable": 9093,
    "Ġhumming": 12982,
    "buoy": 7760,
    "Ġdesp": 3212,
    "dost": 14535,
    "Ġmonsie": 11447,
    "Ġcabs": 23639,
    "foreseen": 14253,
    "Ġ81": 24457,
    "imprudent": 14651,
    "Ġboston": 22637,
    "Ġseemed": 1276,
    "Ġdiscourse": 9797,
    "Ġuser": 15915,
    "Ġejaculation": 20253,
    "Ġcampaign": 20660,
    "Ġwant": 1118,
    "drovand": 24760,
    "conversations": 24749,
    "Ġcharms": 11130,
    "Ġdoom": 6417,
    "tar": 8097,
    "arius": 14248,
    "Ġbison": 21386,
    "retch": 4369,
    "hollow": 24037,
    "Ġhoof": 23351,
    "hig": 12472,
    "Ġoutwardly": 24998,
    "Ġbitter": 4175,
    "hast": 5357,
    "Ġnostrils": 10943,
    "Ġplanned": 14751,
    "Ġeasier": 11165,
    "Ġtransparency": 10676,
    "ptic": 21921,
    "Ġdisadvantage": 12887,
    "Ġalas": 5921,
    "Ġfairest": 20461,
    "Ġsepulch": 15283,
    "yingly": 23057,
    "addressing": 24401,
    "dening": 22777,
    "Ġovers": 14205,
    "Ġsuperstition": 15054,
    "viating": 14579,
    "Ġdevice": 1929,
    "Ġsubmit": 11868,
    "Ġarab": 7823,
    "vius": 23541,
    "Ġclerical": 25568,
    "Ġrust": 6408,
    "Ġvernal": 23886,
    "Ġimproved": 7656,
    "Ġbrass": 11048,
    "Ġedinburgh": 16435,
    "Ġdisinclination": 22533,
    "Ġinsolence": 20252,
    "levi": 7047,
    "mopol": 15395,
    "Ù": 154,
    "Ġinvariably": 8063,
    "Ġrendering": 16657,
    "verbally": 25360,
    "fab": 13715,
    "Ġhusbands": 16642,
    "Ġcensure": 15094,
    "Ġclubb": 22349,
    "Ġlimit": 10443,
    "Ġbears": 6829,
    "Ġstreet": 2959,
    "cellar": 20276,
    "Ġpunch": 9954,
    "rador": 19158,
    "weep": 22681,
    "contrasted": 17305,
    "Ġflower": 16232,
    "Ġmonomania": 17085,
    "aunt": 8369,
    "Ġprices": 15609,
    "Ġelect": 10842,
    "agatha": 21905,
    "Ġmanaged": 7905,
    "ispensable": 9095,
    "Ġkins": 22191,
    "remembered": 17350,
    "Ġstranger": 3484,
    "Ġobtained": 7432,
    ",âĢĶâĢĺ": 23801,
    "Ġdistrusting": 25053,
    "wrath": 23755,
    "odious": 21812,
    "Ġnoises": 18374,
    "fashioned": 9570,
    "Ġremoved": 5274,
    "links": 20957,
    "Ġdireful": 11017,
    "Ġchaise": 9076,
    "awn": 3832,
    "occupied": 12302,
    "Ġindifference": 6725,
    "Ġexcuses": 19039,
    "Ġdemeanour": 17336,
    "Ġfurs": 18738,
    "Ġlichen": 20090,
    "lished": 8382,
    "bedded": 13226,
    "Ġfavourable": 7958,
    "Ġgroup": 2037,
    "Ġcaged": 21350,
    "Ġgermany": 25785,
    "princip": 17136,
    "andering": 21864,
    "Ġcold": 3033,
    "hom": 12471,
    "largely": 19573,
    "sche": 13016,
    "chers": 11317,
    "Ġreproof": 24890,
    "iffe": 21899,
    "Ġofficially": 24838,
    "Ġsoar": 18282,
    "Ġfruits": 17118,
    "stranger": 9882,
    "Ġcolonnades": 26275,
    "figured": 20121,
    "vill": 10735,
    "Ġgrammar": 1062,
    "Ġdecorated": 22442,
    "Ġundo": 15838,
    "prehensible": 12358,
    "ribed": 7692,
    "mbles": 23085,
    "smiled": 16614,
    "favouring": 24762,
    "Ġevidence": 5269,
    "unders": 13309,
    "contents": 12056,
    "mense": 4780,
    "Ġ275": 20109,
    "Ġlimp": 19179,
    "famous": 16916,
    "faced": 8079,
    "Ġpersonal": 7479,
    "ipelagoes": 13670,
    "snatched": 24850,
    "Ġpest": 13912,
    "Ġinspection": 14544,
    "Ġcollateral": 20070,
    "affections": 17356,
    "Ġenjoy": 3759,
    "also": 7850,
    "ultaneously": 4194,
    "Ġproduct": 3533,
    "Ġdoubling": 23316,
    "humored": 19451,
    "Ġtwitch": 22673,
    "erial": 4631,
    "Ġundressed": 19512,
    "Ġcrack": 7709,
    "Ġdetection": 3096,
    "Ġdus": 8422,
    "Ġxavier": 2853,
    "Ġsquared": 1381,
    "Ġcontrary": 5260,
    "themselves": 6540,
    "acted": 11010,
    "Ġdexter": 9698,
    "aths": 22696,
    "Ġunctuousness": 17234,
    "quadrille": 20593,
    "Ġneglected": 10377,
    "Ġthursday": 12641,
    "Ġbuilt": 8300,
    "pictures": 15089,
    "dispositions": 25011,
    "Ġprepar": 7896,
    "takes": 21074,
    "Ġelevates": 24503,
    "Ġcruelly": 13374,
    "writhed": 26080,
    "Ġprecipitate": 19940,
    "Ġinstructing": 3121,
    "Ġresid": 22535,
    "oil": 7805,
    "Ġdivine": 6921,
    "ancient": 9655,
    "plexion": 14260,
    "Ġboom": 9309,
    "infliction": 25924,
    "hark": 15364,
    "Ġfaults": 12210,
    "Ġtand": 21159,
    "reply": 19721,
    "Ġgush": 10202,
    "Ġbashaw": 25633,
    "Ġinoffensive": 21495,
    "Ġlima": 10442,
    "Ġunprotected": 22062,
    "Ġpossesses": 19350,
    "Ġpupils": 20419,
    "Ġnear": 1717,
    "mis": 4519,
    "Ġmosses": 20162,
    "feed": 9292,
    "invariably": 26416,
    "letter": 6201,
    "Ġmilitary": 11258,
    "Ġhipp": 21489,
    "Ġstair": 8455,
    "Ġimmensely": 13594,
    "âĢĻâĢĶ": 12733,
    "Ġdavy": 25951,
    "onze": 21254,
    "Ġbringing": 5869,
    "irth": 5634,
    "according": 12026,
    "miniature": 16765,
    "99": 1897,
    "Ġshoving": 23489,
    "Ġvile": 8472,
    "Ġmonitors": 3154,
    "Ġsin": 1512,
    "Ġdepicting": 22587,
    "Ġreser": 5170,
    ",âĢĻâĢĶ": 23526,
    "Ġknives": 14836,
    "Ġimpediments": 26240,
    "Ġneglig": 18877,
    "Ġmodels": 761,
    "Ġworkmen": 23045,
    "ective": 18174,
    "embedding": 20703,
    "Ġdents": 13910,
    "misery": 13342,
    "robber": 21534,
    "umphed": 23516,
    "boys": 13358,
    "Ġfuneral": 10282,
    "exe": 11787,
    "Ġretreat": 6069,
    "Ġdocks": 14177,
    "Ġevaluate": 3413,
    "uzzle": 19582,
    "Ġserviceable": 24718,
    "Ġalleviated": 26203,
    "Ġtun": 5998,
    "Ġrepining": 23358,
    "urbed": 15705,
    "Ġrent": 11638,
    "Ġune": 4596,
    "Ġadvancing": 6879,
    "Ġrefined": 18692,
    "Ġsigmoid": 2463,
    "Ġwaiting": 4322,
    "dare": 12451,
    "guarded": 13293,
    "Ġadequate": 20307,
    "ulance": 15764,
    "onel": 3088,
    "langu": 4807,
    "Ġtransient": 18481,
    "Ġargosy": 24273,
    "ira": 3956,
    "odox": 21813,
    "Ġresentment": 7530,
    "abound": 15737,
    "bbs": 23691,
    "Ġspl": 2985,
    "abilities": 3234,
    "Ġequinoctial": 20531,
    "mare": 17599,
    "croquet": 25747,
    "Ġwal": 6517,
    "effort": 19212,
    "paying": 25411,
    "hau": 17562,
    "Ġporter": 15608,
    "Ġmusky": 19380,
    "Ġvale": 14081,
    "Ġincredulity": 11311,
    "Ġgreatness": 12940,
    "Ġprogno": 14039,
    "Ġpositions": 2057,
    "Ġdelicately": 24125,
    "sighted": 19784,
    "Ġfid": 10803,
    "rential": 22916,
    "acon": 10681,
    "Ġaspects": 4176,
    "orum": 12587,
    "ĠĠĠĠĠĠĠĠĠĠĠĠĠĠĠĠĠĠĠĠĠĠĠĠĠĠĠĠĠĠĠĠĠĠĠĠĠĠĠĠĠĠĠĠĠĠĠĠ": 7988,
    "Ġsecrecy": 7316,
    "Ġpitched": 9443,
    "Ġdepresses": 25797,
    "counters": 25397,
    "lamps": 25260,
    "Ġeastward": 13389,
    "Ġforty": 5719,
    "nigh": 13762,
    "Ġpregnant": 26535,
    "asis": 12647,
    "Ġtrucks": 19511,
    "Ġnoon": 6559,
    "ishness": 22339,
    "Ġdun": 6673,
    "Ġannotations": 25954,
    "Ġcombined": 8548,
    "ou": 287,
    "respectable": 19846,
    "eze": 20846,
    "Ġwhole": 1664,
    "antarctic": 22096,
    "Ġcongregational": 25102,
    "obviously": 25242,
    "Ġactively": 18654,
    "Ġhaws": 21948,
    "Ġinterfere": 11815,
    "Ġwhispered": 5337,
    "reading": 12077,
    "egyptians": 25898,
    "agne": 21902,
    "Ġyelled": 9693,
    "Ġlaunched": 14925,
    "amount": 10884,
    "Ġpawn": 12061,
    "lust": 15378,
    "Ġskip": 1845,
    "reference": 13839,
    "Ġboard": 3384,
    "Ġpreferred": 14965,
    "Ġhost": 7068,
    "Ġspoiled": 11363,
    "brows": 17496,
    "Ġenjoyment": 7300,
    "ol": 363,
    "Ġunusual": 6553,
    "Ġque": 4160,
    "justice": 7957,
    "Ġartificial": 788,
    "uting": 15657,
    "patient": 25342,
    "mysterious": 26051,
    "not": 907,
    "Ġcirclings": 26431,
    "Ġblasp": 14401,
    "Ġslid": 7951,
    "Ġdisturbance": 15012,
    "Ġrecursive": 4782,
    "Ġmultitude": 9324,
    "Ġindeed": 1680,
    "Ġfeeling": 3082,
    "Ġhessian": 3547,
    "Ġcommentaries": 20159,
    "magnetic": 20551,
    "suspicious": 25390,
    "Ġcongratulations": 10580,
    "Ġcrust": 21349,
    "pidation": 18885,
    "Ġrig": 4225,
    "Ġbible": 9318,
    "ctions": 951,
    "Ġado": 7626,
    "Ġsplendid": 17213,
    "Ġtimidly": 11338,
    "Ġdiabolical": 20341,
    "Ġabject": 18391,
    "Ġpoland": 23616,
    "Ġstowed": 21733,
    "tically": 3393,
    "Ġmaelstrom": 19354,
    "Ġincomplete": 17208,
    "during": 6787,
    "Ġsheer": 14150,
    "oran": 8788,
    "Ġimpress": 6862,
    "Ġperson": 2374,
    "Ġgentle": 1890,
    "feelings": 5674,
    "Ġstature": 10863,
    "knows": 19171,
    "Ġlurked": 11291,
    "ouching": 13176,
    "glasses": 11215,
    "solemn": 19816,
    "boil": 18999,
    "decor": 23779,
    "uth": 3019,
    "sperm": 5203,
    "Ġcandelab": 23846,
    "Ġintroduced": 7690,
    "instead": 14812,
    "bly": 6110,
    "Ġresent": 6048,
    "Ġprincely": 24148,
    "Ġirresolution": 24915,
[...]
