{
  "metadata": {
    "vocab_size": 26616,
    "algorithm": "BPE",
    "created_at": "2026-08-17 02:56:58",
    "special_tokens": [
      "<PAD>",
      "<SOS>",
      "<EOS>",
      "<UNK>",
      "<MASK>"
    ]
  },
  "vocab": {
    "lights": 13209,
    "oss": 10118,
    "formality": 22223,
    "destined": 24117,
    "firmly": 20283,
    "summit": 23419,
    "Ġdreadfully": 7726,
    "vessels": 10628,
    "fred": 20857,
    "ersampling": 18211,
    "aned": 5147,
    "volutional": 1935,
    "Ġconsequently": 8060,
    "Ġhat": 2772,
    "Ġcondem": 6340,
    "Ġseveral": 2673,
    "Ġindisp": 18836,
    "occurred": 13342,
    "Ġol": 17816,
    "Ġpope": 11604,
    "Ġuniversal": 2234,
    "giving": 8742,
    "_.âĢĶ": 23474,
    "Ġiterate": 13203,
    "leness": 4691,
    "Ġprincipal": 6497,
    "nx": 17609,
    "Ġproposition": 23252,
    "Ġreplen": 11116,
    "Ġheeded": 13407,
    "Ġethics": 15465,
    "ologist": 22862,
    "parlour": 16409,
    "rief": 6204,
    "higher": 20410,
    "Ġargument": 7100,
    "ifferent": 4262,
    "cob": 10089,
    "Ġcommanding": 16592,
    "twain": 23704,
    "Ġpainful": 6463,
    "Ġwrought": 11948,
    "wins": 21132,
    "shabbily": 26248,
    "Ġelevated": 7318,
    "Ġground": 2848,
    "Ġsends": 14793,
    "Ġdisappeared": 5645,
    "Ġguide": 3217,
    "likewise": 13110,
    "ure": 356,
    "angles": 18296,
    "Ġsch": 13838,
    "unusually": 15784,
    "azing": 7705,
    "oub": 1632,
    "Ġcupidity": 24535,
    "passing": 14815,
    "Ġgladstone": 23872,
    "Ġdefined": 11902,
    "happy": 4423,
    "Ġjonas": 20612,
    "stopping": 19353,
    "Ġrow": 5246,
    "Ġscolded": 25473,
    "Ġdevious": 22726,
    "Ġslept": 8259,
    "mild": 15395,
    "Ġslung": 23171,
    "raising": 21635,
    "Ġconcil": 23326,
    "savagery": 25028,
    "larking": 17596,
    "walking": 9985,
    "Ġspurred": 22143,
    "shot": 2167,
    "wail": 21128,
    "Ġinvited": 6903,
    "walk": 5523,
    "Ġstaggered": 9542,
    "Ġfaltering": 17886,
    "Ġattacking": 24465,
    "Ġacquit": 18899,
    "Ġattitude": 8907,
    "Ġfallen": 5969,
    "jephro": 26394,
    "Ġbale": 7838,
    "imin": 1772,
    "cats": 17514,
    "usive": 8190,
    "balanced": 14556,
    "Ġsmoked": 10326,
    "Ġdeposit": 17271,
    "ensities": 22551,
    "inder": 9155,
    "Ġdecks": 6900,
    "family": 7324,
    "Ġabsolute": 6766,
    "erie": 21274,
    "Ġlurked": 11293,
    "daw": 17524,
    "Ġabounding": 12348,
    "doom": 23380,
    "Ġnin": 10190,
    "Ġphilips": 5410,
    "Ġsport": 6690,
    "Ġoverl": 18424,
    "Ġsex": 8846,
    "Ġreply": 4512,
    "Ġprom": 1524,
    "Ġastr": 15497,
    "buck": 17493,
    "Ġswelled": 11090,
    "dum": 17520,
    "beholding": 16045,
    "northern": 23670,
    "Ġoutrageous": 20613,
    "Ġcatholic": 20684,
    "Ġtwitch": 22679,
    "Ġarchy": 14350,
    "Ġdisk": 22526,
    "Ġslipper": 24268,
    "treat": 12518,
    "Ġindependently": 4246,
    "Ġopinions": 9418,
    "Ġfacts": 2288,
    "Ġcapabilities": 4376,
    "Ġregretted": 13404,
    "Ġdat": 497,
    "Ġpeterson": 9486,
    "Ġgore": 17991,
    ".]": 15302,
    "scorched": 25698,
    "Ġwint": 15536,
    "rah": 8137,
    "Ġgrapes": 15219,
    "Ġimplac": 24875,
    "extent": 22770,
    "converse": 22477,
    "Ġregular": 931,
    "Ġconsiderably": 7715,
    "Ġpredicting": 2415,
    "arrow": 4179,
    "Ġunconsciously": 10008,
    "thest": 11657,
    "Ġ99": 10747,
    "smooth": 20251,
    "Ġvesu": 21953,
    "Ġrests": 13098,
    "verize": 21732,
    "fuller": 22490,
    "Ġexile": 12722,
    "seaman": 25458,
    "unteered": 26497,
    "Ġstory": 2904,
    "Ġconfid": 7687,
    "Ġservox": 23873,
    "anum": 17837,
    "Ġrecourse": 22755,
    "Ġquench": 22423,
    "Ġglared": 13023,
    "Ġstrangely": 5677,
    "R": 54,
    "Ġluck": 4880,
    "Ġinstability": 3814,
    "Ġtid": 8107,
    "lose": 12887,
    "Ġast": 2964,
    "creation": 14809,
    "stiff": 12680,
    "Ġjet": 5309,
    "Ġrobins": 16250,
    "Ġindomitableness": 26573,
    "?--": 15307,
    "fool": 9050,
    "Ġtinted": 13825,
    "othing": 6996,
    "Ġtale": 5142,
    "Ġaccidents": 10298,
    "umnal": 18301,
    "anqu": 4109,
    "iac": 6227,
    "Ġdiffer": 18680,
    "scept": 21056,
    "Ġstool": 14464,
    "Ġcostly": 23586,
    "Ġdrows": 21438,
    "Ġcontracted": 12865,
    "hs": 8378,
    "provoke": 26072,
    "atha": 6574,
    "Ġgloried": 22990,
    "Ġpossessed": 5195,
    "Ġfavourites": 16647,
    "Ġpemberley": 4586,
    "Ġdidn": 4361,
    "Ġshy": 10905,
    "Ġoperated": 14548,
    "Ġsquint": 22839,
    "pursuit": 20343,
    "Ġentangled": 10345,
    "Ġrestless": 10415,
    "alloyed": 22205,
    "sleeve": 26109,
    "Ġpromptly": 23821,
    "il": 329,
    "urried": 21707,
    "Ġlieu": 19567,
    "Ġdispleased": 18556,
    "az": 2182,
    "aton": 21261,
    "Ġsoften": 23128,
    "ordinate": 12880,
    "built": 16827,
    "hooked": 23719,
    "Ġthick": 3784,
    "Ġ56": 24320,
    "expedition": 26079,
    "iliating": 12700,
    "Ġengagement": 5397,
    "Ġstep": 751,
    "cab": 7333,
    "ier": 1136,
    "Ġcracking": 14575,
    "Ġfluctuating": 24417,
    "heart": 4524,
    "moonlight": 25376,
    "Ġdespise": 14668,
    "Ġbottles": 16573,
    "Ġmere": 2714,
    "Ġturnkeys": 23033,
    "Ġble": 5223,
    "station": 10846,
    "icest": 21567,
    "Ġovercame": 9746,
    "boom": 19000,
    "Ġfathoms": 9086,
    "Ġeighty": 19479,
    "Ġimpute": 18333,
    "pacing": 21023,
    "Ġmanly": 22328,
    "Ġportable": 19373,
    "Ġsqueeze": 10042,
    "Ġelev": 5536,
    "des": 3172,
    "ided": 2785,
    "Ġtablets": 13159,
    "crooked": 25747,
    "icity": 2539,
    "her": 488,
    "Ġfoolscap": 24161,
    "fields": 14655,
    "Ġmiscell": 16153,
    "Ġsecrets": 9057,
    "Ġfritters": 23259,
    "Ġboone": 11843,
    "ties": 2759,
    "ishment": 3506,
    "mur": 5428,
    "Ġthrill": 24541,
    "Ġblueprints": 13175,
    "Ġdrawer": 13271,
    "herfield": 3632,
    "Ġguidance": 9420,
    "system": 4677,
    "appearance": 5334,
    "Ġstains": 21745,
    "Ġbandaged": 16844,
    "Ġconcluding": 9860,
    "Ġarsacidean": 20368,
    "Ġsole": 3299,
    "Ġsuffoc": 18872,
    "Ġcologne": 12980,
    "Ġsorting": 3236,
    "Ġoverlapping": 26240,
    "Ġcommodore": 12399,
    "Ġarid": 22191,
    "ictions": 14228,
    "whom": 8185,
    "Ġark": 10279,
    "Ġefficiently": 3564,
    "venty": 6428,
    "Ġtraverse": 18894,
    "Ġcompensated": 17404,
    "cro": 13700,
    "Ġslate": 11942,
    "preserve": 25304,
    "Ġtongs": 9964,
    "under": 3133,
    "Ġage": 3895,
    "laugh": 10111,
    "Ġslacked": 25189,
    "Ġpresentiment": 18989,
    "Ġaltered": 7393,
    "cuniary": 26381,
    "autions": 20769,
    "sor": 7352,
    "Ġimposing": 11785,
    "Ġterm": 2267,
    "Ġdesk": 11911,
    "Ġbachelor": 7787,
    "Ġgayer": 24501,
    "ama": 11680,
    "Ġ75": 19615,
    "flex": 24844,
    "inguished": 6600,
    "Ġideas": 5494,
    "Ġintrepid": 11709,
    "circum": 16739,
    "Ġcolonnades": 26277,
    "often": 6167,
    "Ġincompetent": 25680,
    "Ġthreaten": 24374,
    "fishing": 20861,
    "Ġchild": 2260,
    "ground": 4671,
    "Ġband": 5292,
    "Ġcalamities": 25700,
    "Ġpleasing": 6192,
    "Ġdestiny": 8986,
    "swe": 5997,
    "nerable": 16280,
    "Ġjonah": 3480,
    "Ġagonized": 25373,
    "host": 5868,
    "Ġgallied": 19559,
    "Ġappellation": 22221,
    "Ġcocks": 18599,
    "Ġponderous": 8355,
    "lamp": 9611,
    "disgrace": 16460,
    "Ġledge": 19404,
    "Ġmiser": 18704,
    "moor": 22705,
    "Ġcased": 21349,
    "Ġbeams": 14632,
    "buffalo": 20566,
    "Ġunfitted": 24110,
    "Ġbearing": 5300,
    "Ġlory": 12657,
    "Ġadmeasurements": 26227,
    "curiosity": 8627,
    "Ġfires": 16474,
    "Ġlistener": 16477,
    "delirious": 19508,
    "Ġlaw": 3656,
    "fortune": 4974,
    "orously": 8420,
    "Ġhay": 11608,
    "Ġagreement": 18543,
    "Ġwakes": 11575,
    "Ġafghan": 22632,
    "Ġarose": 7360,
    "continual": 20646,
    "Ġsubterraneous": 20268,
    "Ġidler": 16405,
    "Ġeternity": 12283,
    "Ġquitted": 5312,
    "Ġwide": 4107,
    "Ġhamp": 12635,
    "lines": 6959,
    "Ġspokes": 18314,
    "Ġinhabitant": 19758,
    "heartily": 24218,
    "Ġmagnified": 23206,
    "Ġocean": 3305,
    "Ġin": 291,
    "string": 15690,
    "Ġannihilation": 15169,
    "Ġgrappling": 25813,
    "Ġluxuries": 25167,
    "Ġinasmuch": 10827,
    "Ġmoves": 14234,
    "Ġimmured": 24074,
    "Ġcheating": 16373,
    "formity": 10281,
    "Ġhereford": 22880,
    "speechless": 25396,
    "typewritten": 26039,
    "text": 1974,
    "fits": 13721,
    "listener": 24931,
    "Ġrecoil": 18697,
    "Ġforever": 14554,
    "Ġsiam": 13841,
    "ppo": 18178,
    "Ġsockets": 22090,
    "Ġswitching": 23060,
    "Ġeduc": 4785,
    "ond": 1160,
    "abouts": 9455,
    "Ġcomplained": 17000,
    "reg": 2185,
    "Ġraises": 11845,
    "Ġsemantics": 2895,
    "Ġtuples": 13481,
    "Ġsinging": 7724,
    "hur": 6651,
    "Ġbusy": 6191,
    "deploy": 22146,
    "Ġcontrasting": 11156,
    "ability": 715,
    "backpropagation": 11990,
    "Ġperturbed": 20443,
    "Ġdisreputable": 22538,
    "Ġintim": 6838,
    "Ġdaunt": 19667,
    "useless": 14596,
    "wooden": 24588,
    "seamen": 13630,
    "Ġsuit": 5725,
    "rimsh": 17029,
    "ractions": 11636,
    "frequent": 15357,
    "Ġdestroying": 14732,
    "Ġrollicking": 24451,
    "par": 1914,
    "destruction": 11257,
    "Ġdragon": 14947,
    "mai": 22916,
    "elfare": 11781,
    "Ġsax": 10931,
    "Ġtypewriting": 16424,
    "Ġcarriages": 11101,
    "pul": 8757,
    "Ġhugh": 15006,
    "Ġmonday": 6129,
    "Ġcourtship": 24138,
    "Ġliable": 14231,
    "Ġsmelt": 16072,
    "Ġvirginia": 13503,
    "Ġstro": 4593,
    "Ġimmovable": 15896,
    "lined": 12488,
    "Ġburton": 23655,
    "Ġstarted": 4148,
    "Ġsluggishly": 25892,
    "Ġmedicine": 15210,
    "Ġparading": 23714,
    "Ġalbatross": 10873,
    "nay": 7137,
    "mers": 9613,
    "Ġnodded": 11974,
    "Ġtin": 15466,
    "Ġspeculations": 23003,
    "ickory": 22672,
    "Ġgliding": 8564,
    "Ġsulky": 13518,
    "H": 44,
    "Ġcomfits": 21863,
    "zas": 17714,
    "Ġanalytical": 22911,
    "Ġboasted": 16110,
    "heard": 5008,
    "entions": 17977,
    "Ġ103": 24411,
    "Ġwhilst": 9221,
    "ately": 1713,
    "befall": 22499,
    "Ġuntamed": 19166,
    "Ġtraitors": 23080,
    "Ġsatisf": 2807,
    "mell": 20966,
    "Ġagreeing": 20022,
    "ixed": 4852,
    "collecting": 26082,
    "investments": 25533,
    "Ġnarratives": 24353,
    "Ġlancaster": 26342,
    "numer": 15402,
    "Ġcovariate": 2350,
    "Ġshared": 10266,
    "Ġeuroclydon": 15300,
    "Ġreasoned": 23092,
    "bald": 16446,
    "nonsense": 17617,
    "arling": 10816,
    "Ġproport": 2298,
    "precip": 14667,
    "Ġspont": 22136,
    "bonnet": 25743,
    "Ġmis": 917,
    "inable": 11558,
    "biqu": 17500,
    "Ġslumbering": 25702,
    "Ġwhirl": 13453,
    "clever": 20815,
    "fel": 8737,
    "Ġcalves": 13040,
    "Ġobsolete": 26560,
    "Ġfathom": 17049,
    "Ġwestmorland": 24390,
    "countryman": 24640,
    "paint": 21020,
    "Ġmulti": 1043,
    "owards": 4592,
    "iffe": 21906,
    "ear": 8734,
    "impatience": 25501,
    "whalers": 17266,
    "Ġweary": 5635,
    "Ġsta": 18065,
    "cent": 8073,
    "Ġdoctors": 12156,
    "Ġcorresponds": 19824,
    "Ġcommunicating": 16891,
    "bout": 20775,
    "lat": 9607,
    "Ġbeats": 21756,
    "Ġimpenitent": 26550,
    "englishman": 23680,
    "classes": 12140,
    "introduction": 15127,
    "iii": 14780,
    "Ġjeroboam": 10603,
    "Ġdeny": 7488,
    "ented": 4347,
    "Ġhansom": 13668,
    "Ġrhine": 12360,
    "Ġsurrounded": 5880,
    "arer": 3966,
    "eringly": 23008,
    "Ġprocedure": 2810,
    "Ġinject": 2712,
    "Ġexpand": 9310,
    "compliments": 24807,
    "ton": 1727,
    "proof": 16427,
    "ho": 2859,
    "Ġspan": 11733,
    "uncommon": 11685,
    "vered": 4830,
    "Ġminimum": 23045,
    "Ġechoed": 20427,
    "eter": 11624,
    "ishly": 14202,
    "Ġexample": 5095,
    "chery": 24551,
    "ishing": 1144,
    "Ġdawned": 14997,
    "ised": 1111,
    "Ġremoter": 20109,
    "Ġundiscernible": 22072,
    "Ġcoiled": 11824,
    "influ": 9544,
    "urn": 776,
    "Ġtiles": 17728,
    "tried": 13797,
    "Ġpredecessor": 26255,
    "Ġcorruption": 15229,
    "Ġpublished": 11243,
    "Ġrapt": 7225,
    "Ġbags": 24537,
    "sound": 6800,
    "Ġlegend": 14576,
    "smo": 10128,
    "sullenly": 26150,
    "Ġhoof": 23356,
    "endous": 6850,
    "Ġprof": 2460,
    "terogene": 21829,
    "Ġproxim": 3200,
    "Ġalfred": 21790,
    "mselves": 2863,
    "whether": 5320,
    "Ġsour": 21219,
    "Ġ500": 24324,
    "fanning": 20868,
    "aths": 22702,
    "Ġfatal": 5873,
    "Ġsewing": 21965,
    "thank": 4949,
    "schoolmaster": 15165,
    "ldog": 21921,
    "Ġmountain": 3373,
    "Ġfurled": 22815,
    "Ġbreath": 4791,
    "Ġsuppose": 2867,
    "Ġsurmised": 24920,
    "Ġmeanwhile": 5736,
    "Ġantics": 24181,
    "whims": 22243,
    "Ġchopping": 24222,
    "Ġnut": 12651,
    "Ġholland": 10368,
    "n": 82,
    "Ġdeformed": 14050,
    "Ġhoarse": 14528,
    "Ġdir": 21424,
    "Ġcure": 21343,
    "Ġrendered": 5773,
    "Ġsublime": 8066,
    "Ġswan": 23054,
    "Ġneat": 7000,
    "sadly": 25527,
    "Ġgaff": 17996,
    "Ġunscrew": 22044,
    "Ġano": 11599,
    "Ġintentions": 10610,
    "Ġstoven": 23178,
    "Ġbaron": 19336,
    "instinctively": 26329,
    "ria": 15800,
    "Ġbarbaric": 10017,
    "Ġgurglings": 26467,
    "Ġdiffusion": 23785,
    "singing": 24363,
    "Ġoozy": 21330,
    "Ġlands": 6596,
    "Ġdumb": 7843,
    "incible": 16499,
    "possibility": 13366,
    "Ġgipsies": 12412,
    "Ġsail": 1673,
    "Ġperhaps": 1911,
    "Ġeng": 1161,
    "original": 9088,
    "chat": 21689,
    "me": 868,
    "Ġconjure": 17126,
    "Ġhatchet": 16531,
    "osp": 6854,
    "flame": 16640,
    "Ġwrapping": 19778,
    "Ġcetacean": 25879,
    "Ġpurporting": 19185,
    "Ġrole": 16000,
    "Ġscale": 1543,
    "Ġhing": 11607,
    "Ġhag": 12630,
    "Ġnorton": 12654,
    "tailed": 17687,
    "Ġprair": 7747,
    "Ġenvironment": 4100,
    "âĢľâĢĶ": 10874,
    "uble": 21105,
    "Ġdepended": 9780,
    "Ġdownstairs": 11226,
    "etymology": 14704,
    "Ġbodiless": 24229,
    "bringing": 17169,
    "Ġshilling": 18229,
    "whilst": 18373,
    "Ġbecame": 2691,
    "Ġeastward": 13394,
    "caus": 11478,
    "Ġbefallen": 12347,
    "Ġthoroughfare": 16946,
    "iven": 1238,
    "ilt": 2971,
    "Ġintellig": 526,
    "Ġgenerations": 10966,
    "gunpowder": 25340,
    "pered": 4197,
    "prophet": 16185,
    "Ġsweet": 3466,
    "Ġroughly": 17041,
    "Ġchances": 9266,
    "iration": 4538,
    "Ġtenderly": 11316,
    "Ġbright": 3215,
    "Ġcheered": 16375,
    "Ġsque": 18759,
    "Ġwander": 9034,
    "sters": 6392,
    "Ġrelapses": 26280,
    "Ġrefill": 18699,
    "Ġhover": 15624,
    "iamond": 14592,
    "onness": 21257,
    "Ġangles": 23590,
    "Ġvaliantly": 22804,
    "Ġpractical": 3164,
    "conclusion": 25672,
    "Ġbands": 14887,
    "Ġ275": 20114,
    "Ġknave": 11274,
    "(-": 2983,
    "Ġgunwales": 12245,
    "Ġnormalizing": 1822,
    "initely": 7568,
    "ark": 849,
    "Ġholidays": 22925,
    "Ġtedious": 15271,
    "slipping": 25529,
    "Ġmodern": 3230,
    "Ġmagnet": 10392,
    "Ġmines": 21311,
    "Ġhistorically": 19381,
    "Ġfanc": 6745,
    "bunger": 20405,
    "mock": 5174,
    "lement": 10169,
    "cheer": 9440,
    "ically": 854,
    "Ġsingers": 23774,
    "cus": 3977,
    "countless": 24153,
    "Ġmilk": 6486,
    "Ġ[\"": 19933,
    "Ġforwarded": 19047,
    "ines": 679,
    "Ġalexander": 17427,
    "Ġscarlet": 13228,
    "proved": 11991,
    "Ġannihil": 10177,
    "acknowled": 10977,
    "Ġbled": 17859,
    "Ġdavis": 25953,
    "onze": 21258,
    "book": 4669,
    "abhorred": 17339,
    "Ġloaf": 15876,
    "Ġfates": 15582,
    "skelter": 24490,
    "cept": 557,
    "Ġhorizontal": 7783,
    "Ġtattoo": 7359,
    "Ġchoosing": 19593,
    "Ġprolong": 6832,
    "Ġdiscoveries": 13363,
    "Ġhart": 17924,
    "Ġcompelled": 14271,
    "Ġegyptians": 25290,
    "Ġsheet": 6264,
    "Ġflights": 24752,
    "Ġdissolved": 18555,
    "thee": 9693,
    "Ġdeliverer": 11955,
    "condescended": 26250,
    "Ġ]": 15462,
    "Ġp": 288,
    "Ġslice": 23163,
    "Ġdined": 9179,
    "Ġoppressed": 11191,
    "Ġkind": 1787,
    "Ġlisten": 4673,
    "parable": 16408,
    "fts": 18696,
    "Ġcheerless": 16695,
    "orily": 15577,
    "Ġrelinqu": 12988,
    "ustomed": 6100,
    "Ġwives": 12560,
    "Ġcomparative": 10545,
    "Ġminutest": 14562,
    "Ġpermitting": 22404,
    "Ġmarrying": 6179,
    "Ġsix": 3047,
    "horizon": 23617,
    "Ġinclu": 1100,
    "Ġconjunction": 25103,
    "Ġpictures": 5503,
    "Ġattentions": 5879,
    "Ġcourses": 10413,
    "jumped": 20249,
    "ê": 171,
    "sequent": 6831,
    "oring": 1861,
    "co": 2435,
    "Ġinsepar": 17936,
    "conveyed": 20524,
    "bable": 8722,
    "indirect": 22376,
    "Ġlightened": 23264,
    "Ġsevent": 18203,
    "Ġtempestuous": 20074,
    "Ġindebted": 8711,
    "Ġchristians": 13313,
    "Ġpest": 13916,
    "54": 15303,
    "breeding": 16677,
    "Ġinjury": 10543,
    "worshipping": 16612,
    "Ġwarmest": 16486,
    "ctu": 5087,
    "Ġtries": 9153,
    "forced": 11033,
    "ppered": 15795,
    "Ġrunning": 3950,
    "jet": 13745,
    "Ġwoods": 5406,
    "Ġbambooz": 26120,
    "Ġexe": 3991,
    "Ġmem": 2164,
    "Ġstrive": 23696,
    "Ġcarry": 4779,
    "Ġcorrect": 2432,
    "Ġsocieties": 20185,
    "Ġcring": 15556,
    "Ġrome": 12160,
    "Ġexplore": 15912,
    "pos": 15413,
    "Ġeffected": 14357,
    "59": 17476,
    "Ġarrest": 7409,
    "igms": 3049,
    "Ġflat": 8228,
    "abern": 21794,
    "Ġapprehended": 26091,
    "luded": 4229,
    "iancy": 13014,
    "Ġtheme": 16023,
    "Ġelse": 2480,
    "infliction": 25925,
    "Ġopine": 19229,
    "Ġslanting": 23175,
    "ial": 411,
    "untarily": 6314,
    "Ġmummy": 25769,
    "Ġbind": 12587,
    "Ġastronomy": 25927,
    "ank": 1366,
    "Ġgrop": 12669,
    "Ġvehicle": 20141,
    "Ġdemand": 4946,
    "Ġimage": 3404,
    "elze": 21576,
    "Ġowing": 6006,
    "bulk": 19926,
    "Ġultimately": 17167,
    "grief": 13734,
    "ahawk": 23321,
    "Ġpiazza": 26452,
    "Ġbower": 15571,
    "Ġgloss": 11962,
    "Ġscent": 10288,
    "appear": 13200,
    "icket": 22671,
    "Ġern": 8397,
    "Ġconceived": 8150,
    "Ġcurios": 18849,
    "Ġdominic": 25381,
    "deceptive": 22153,
    "ructed": 7031,
    "Ġvideo": 25366,
    "Ġbroom": 18908,
    "Ġgl": 1255,
    "Ġamount": 8514,
    "Ġprestige": 22240,
    "perse": 15902,
    "went": 6513,
    "foam": 24418,
    "windows": 19537,
    "Ġcoldly": 14652,
    "Ġwhiff": 21721,
    "Ġporter": 15615,
    "roses": 17959,
    "ron": 5216,
    "ague": 3905,
    "links": 20960,
    "Ġinfirm": 19024,
    "Ġclosely": 6489,
    "Ġhatherley": 7849,
    "Ġwhereupon": 14300,
    "Ġtipped": 17730,
    "conviction": 19968,
    "Ġpol": 2576,
    "complained": 25840,
    "sailed": 17668,
    "rusion": 11325,
    "Ë": 140,
    "ë": 172,
    "Ġfun": 522,
    "Ġcode": 1722,
    "by": 1157,
    "accomplishments": 25327,
    "Ġyours": 4123,
    "itary": 4751,
    "Ġinsult": 6749,
    "Ġgardener": 19136,
    "Ġcooper": 16084,
    "spade": 10342,
    "ays": 6685,
    "croquet": 25748,
    "gan": 2198,
    "incidentally": 20542,
    "Ġsan": 7824,
    "declare": 25174,
    "found": 4214,
    "Ġjail": 22298,
    "Ġendangered": 16306,
    "Ġinfiltrated": 23287,
    "poured": 17639,
    "Ġsund": 8249,
    "Ġpreposterous": 13673,
    "Ġscrupled": 25052,
    "Ġunintellig": 22030,
    "Ġfeathers": 15123,
    "anced": 1349,
    "Ġbrigs": 20325,
    "Ġprotracted": 19472,
    "Ġmason": 10160,
    "Ġeach": 893,
    "Ġmitigates": 3054,
    "james": 15376,
    "tal": 17672,
    "Ġsuns": 23276,
    "Ġ13": 6720,
    "Ġscorn": 7901,
    "Ġexceptional": 19374,
    "Ġmeasureless": 14713,
    "aky": 18412,
    "slow": 7810,
    "provided": 13641,
    "Ġstrand": 11832,
    "Ġbeamed": 23725,
    "Ġwish": 2096,
    "idge": 14017,
    "Ġey": 8135,
    "clair": 18935,
    "zz": 4292,
    "Ġcool": 5735,
    "Ġab": 529,
    "Ġfruit": 12330,
    "Ġclassification": 1097,
    "Ġexpansion": 22629,
    "jour": 20929,
    "Ġbelt": 13008,
    "honey": 20907,
    "solitude": 23300,
    "detective": 24383,
    "lace": 13751,
    "ilingly": 21727,
    "quis": 7870,
    "Ġdrugged": 12607,
    "tolerable": 17690,
    "Ġacqu": 1419,
    "Ġdefinition": 14408,
    "Ġincessantly": 11413,
    "Ġgeorgia": 23889,
    "angular": 11727,
    "Ġsensational": 16392,
    "Ġgraph": 10904,
    "Ġthinnest": 24186,
    "Ġfire": 2331,
    "83": 13684,
    "Ġbooks": 4675,
    "Ġemper": 9864,
    "U": 57,
    "1775": 26380,
    "Ġunlikely": 10910,
    "Ġjoes": 19232,
    "tossing": 18582,
    "Ġenlist": 21940,
    "satisfaction": 9995,
    "Ġskipper": 22801,
    "Ġblessed": 6931,
    "divided": 25021,
    "Ġhappening": 14386,
    "Ġadditionally": 1176,
    "Ġnought": 21525,
    "Ġshave": 22000,
    "Ġruss": 18720,
    "useness": 22286,
    "Ġremo": 3787,
    "Ġabused": 22273,
    "uch": 877,
    "him": 1940,
    "unvarying": 21891,
    "Ġlandsc": 11148,
    "irations": 18173,
    "Ġwhispered": 5338,
    "Ġunwillingness": 20035,
    "Ġrocks": 6863,
    "Ġexcuses": 19046,
    "Ġmule": 13865,
    "Ġconstitution": 20112,
    "imson": 12694,
    "Ġcommanded": 6332,
    "contains": 16034,
    "irresist": 21916,
    "Ġordering": 18999,
    "awk": 23117,
    "Ġrefreshing": 20267,
    "Ġcruelly": 13379,
    "Ġpomp": 12627,
    "Ġappertain": 22218,
    "Ġmississ": 18840,
    "sings": 4251,
    "Ġadmirably": 16483,
    "Ġsi": 21215,
    "Ġrivals": 20274,
    "Ġsheath": 14154,
    "Ġprotested": 9937,
    "Ġadrift": 11726,
    "Ġmel": 4817,
    "Ġglorious": 11077,
    "Ġabsorb": 25115,
    "Ġuninter": 18247,
    "utions": 1890,
    "somewhat": 11162,
    "Ġcompass": 4407,
    "ateg": 1384,
    "Ġbutton": 10270,
    "Ġharpooneers": 4732,
    "ugl": 23293,
    "Ġinserting": 19908,
    "Ġlights": 8963,
    "ogene": 18678,
    "Ġfail": 4147,
    "Ġturing": 7566,
    "Ġpraised": 19556,
    "caroline": 24152,
    "clim": 18932,
    "Ġlabyrin": 13109,
    "Ġchag": 15935,
    "published": 26143,
    "18": 20753,
    "Ġfanciful": 24787,
    "Ġoverjoyed": 17461,
    "erting": 17779,
    "enorm": 17783,
    "little": 3353,
    "high": 6652,
    "amplified": 26496,
    "forty": 9377,
    "Ġcarpenters": 16754,
    "Ġutility": 23515,
    "Ġwealth": 7621,
    "infall": 21191,
    "ences": 1264,
    "Ġbetake": 22908,
    "vative": 1620,
    "Ġanguish": 5584,
    "chess": 16576,
    "create": 24162,
    "deserving": 17248,
    "reduced": 15809,
    "licted": 20958,
    "Ì": 141,
    "Ġhonest": 7287,
    "Ġenticing": 22741,
    "Ġvillage": 5774,
    "least": 8789,
    "Ġorlop": 22097,
    "Ġexploitation": 2347,
    "Ġincoherent": 17403,
    "Ġdire": 865,
    "Ġnurse": 9520,
    "Ġchosen": 7201,
    "Ġsangu": 15507,
    "Ġroyal": 5602,
    "Ġless": 1938,
    "nearest": 16026,
    "rigged": 17063,
    "Ġinterests": 14571,
    "Ġresnet": 5473,
    "wore": 21127,
    "drink": 10598,
    "Ġfluctu": 5268,
    "linging": 16085,
    "Ġbashee": 19851,
    "Ġfloats": 9416,
    "Ä": 133,
    "Ġjacobians": 2894,
    "Ġspatial": 2730,
    "Ġsim": 734,
    "Ġamazement": 7765,
    "Ġink": 8807,
    "beh": 5472,
    "Ġfaithful": 9506,
    "Ġprincely": 24151,
    "Ġfishe": 15590,
    "illation": 14144,
    "Ġquar": 3115,
    "Ġunlike": 7006,
    "conclude": 24069,
    "aph": 10956,
    "myself": 5113,
    "sorting": 17006,
    "Ġenjoyed": 8008,
    "Ġmeeting": 5193,
    "Ġhumorous": 10363,
    "Ġpence": 17905,
    "Ġnation": 12652,
    "Ġsobs": 14135,
    "Ġstopping": 2750,
    "stains": 11640,
    "Ġoffice": 4964,
    "tstone": 21087,
    "observation": 17272,
    "uzzle": 19586,
    "actually": 14301,
    "itan": 10162,
    "Ġmental": 21322,
    "bingley": 4927,
    "Ġobtru": 18673,
    "boast": 23255,
    "Ġbroken": 3448,
    "Ġradney": 6776,
    "accursed": 20543,
    "Ġantagonist": 26330,
    "Ġtwine": 14314,
    "ribes": 23369,
    "ulpt": 10887,
    "investigations": 25534,
    "Ġhundreds": 4327,
    "Ġshine": 12771,
    "chel": 11209,
    "Ġturbulence": 26599,
    "Ġsighing": 18674,
    "Ġobliged": 4285,
    "Ġhoofs": 14529,
    "Ġdisp": 3360,
    "Ġparson": 6689,
    "Ġbathing": 20202,
    "Ġdint": 15595,
    "before": 3116,
    "uded": 6288,
    "Ġguineas": 16275,
    "Ġhandy": 12941,
    "Ġwondrously": 24067,
    "Ġbarred": 9005,
    "Ġdragging": 14478,
    "Ġcomplicated": 14738,
    "Ġspringing": 10521,
    "Ġdesire": 3719,
    "billiard": 25335,
    "Ġfitzwilliam": 5771,
    "Ġcinque": 20489,
    "Ġtrace": 6183,
    "Ġadvantages": 9814,
    "omb": 10208,
    "Ġrocky": 13391,
    "ŀ": 257,
    "bath": 13693,
    "Ġdemon": 7869,
    "advantages": 11273,
    "Ġoy": 15550,
    "sufficiently": 14984,
    "iminished": 19028,
    "Ġspring": 4120,
    ".âĢĿ": 464,
    "vessel": 11379,
    "story": 9215,
    "Ġwearing": 12744,
    "Ġsays": 3562,
    "produce": 20285,
    "Ġlamentations": 17077,
    "embarrassed": 20667,
    "Ġmustering": 18663,
    "Ġmystic": 7503,
    "Ġeleventh": 23372,
    "Ġ$": 21153,
    "Ġcond": 3874,
    "sw": 4741,
    "Ġembarrassment": 10629,
    "Ġcups": 16884,
    "diss": 17525,
    "Ġswell": 8952,
    "Ġperdition": 15996,
    "indeed": 4485,
    "Ġintrude": 25991,
    "serious": 14451,
    "Ġcry": 3497,
    "these": 3244,
    "Ġdrought": 19280,
    "ping": 9618,
    "Ġslink": 23166,
    "Ġgospel": 18003,
    "Ġhabits": 6926,
    "Ġhandling": 8916,
    "Ġassign": 11111,
    "insist": 23067,
    "clothed": 19741,
    "explanation": 12362,
    "ople": 2318,
    "luxur": 25823,
    "Ġunderstanding": 1873,
    "Ġsoftmax": 1690,
    "Ġporus": 24398,
    "oga": 22713,
    "Ġbells": 19604,
    "Ġnic": 7376,
    "whale": 2140,
    "Ġtowed": 11267,
    "Ġstrugg": 3218,
    "Ġmisgiv": 14348,
    "Ġfeeding": 7972,
    "pleasanter": 24050,
    "Ġjoyous": 14666,
    "Ġoffence": 12949,
    "conven": 6164,
    "evade": 24817,
    "Ġcrossing": 7252,
    "Ġbeef": 6830,
    "horner": 23616,
    "held": 3841,
    "Ġcomplaints": 12269,
    "uge": 4013,
    "ceive": 3066,
    "Ġview": 2762,
    "Ġseating": 18202,
    "Ġranges": 2883,
    "you": 1005,
    "oubted": 5861,
    "Ġshadows": 8013,
    "bold": 17490,
    "Ġbene": 2033,
    "Ġmemories": 14557,
    "ç": 168,
    "Ġforwards": 12708,
    "Ġviewing": 19266,
    "Ġtheir": 643,
    "classification": 4386,
    "Ġblandly": 20326,
    "ver": 331,
    "philosophy": 13584,
    "Ġsexes": 25172,
    "Ġresounded": 22548,
    "Ġsyn": 15918,
    "vit": 13804,
    "father": 3778,
    "Ġlistened": 4467,
    "Ġboscombe": 8326,
    "Ġceasing": 23760,
    "pleasing": 14745,
    "Ġrestrictions": 20638,
    "Ġbanker": 8670,
    "nur": 11508,
    "Ġeloquent": 16117,
    "errand": 22913,
    "distinguish": 19575,
    "ruin": 22180,
    "fen": 20852,
    "Ġreckon": 19872,
    "Ġcaps": 8416,
    "Ġair": 1836,
    "Ġrampart": 20321,
    "Ġ25": 13196,
    "à": 161,
    "swim": 16781,
    "prit": 19345,
    "Ġgoodly": 22825,
    "Ġpurple": 10435,
    "Ġbilliard": 16690,
    "Ġfury": 7661,
    "wer": 8396,
    "Ġrepute": 18037,
    "Ġhazarded": 25655,
    "barn": 17485,
    "avail": 18606,
    "vulgar": 25919,
    "aust": 15313,
    "Ġrelatives": 12987,
    "Ġassoc": 6403,
    "Ġdetected": 18813,
    "Ġvul": 10250,
    "Ġflounders": 23019,
    "snatched": 24851,
    "Ġpatience": 2694,
    "Ġasc": 4765,
    "Ġpry": 11602,
    "kicked": 20945,
    "Ġfrighted": 24032,
    "Ġpitiless": 19391,
    "resides": 23675,
    "Ġterminated": 23511,
    "Ġpropagating": 20636,
    "Ġpist": 12620,
    "corners": 17371,
    "Ġtrappers": 23084,
    "har": 20892,
    "culous": 11142,
    "disreputable": 23505,
    "Ġwhitened": 24868,
    "Ġvictim": 6099,
    "Ġornam": 15868,
    "Ġslide": 10396,
    "Ġignoble": 19402,
    "Ġlatterly": 24085,
    "itar": 15551,
    "Ġhere": 1089,
    "Ġfring": 11129,
    "Ġbeaver": 18088,
    "introduced": 15128,
    "Ġcritical": 7474,
    "ezing": 10576,
    "Ġvoc": 4449,
    "Ġbumping": 25281,
    "Ġbulk": 5591,
    "Ġce": 3034,
    "Ġcentre": 5123,
    "Ġmeekly": 26492,
    "Ġlouisa": 13549,
    "point": 6064,
    "Ġopera": 23428,
    "_.âĢĻâĢĿ": 17482,
    "istry": 22113,
    "amused": 21850,
    "imate": 4221,
    "Ġencouraging": 2263,
    "ote": 4594,
    "##": 2315,
    "ornament": 23490,
    "av": 738,
    "Ġbond": 21387,
    "convul": 24884,
    "persuade": 13536,
    "Ġdutch": 6329,
    "Ġconceited": 12096,
    "Ġexcellent": 4238,
    "imodal": 17450,
    "Ġexhibited": 9547,
    "driven": 19774,
    "Ġpang": 15609,
    "Ġgrievances": 20650,
    "Ġleft": 1763,
    "Ġunkindness": 22046,
    "Ġshuddering": 9054,
    "Ġsolace": 16202,
    "avating": 18607,
    "Ġheld": 3587,
    "Ġvoluntary": 14802,
    "attery": 18507,
    "pract": 10122,
    "Ġceler": 15555,
    "Ġhoisting": 9865,
    "Ġspices": 22135,
    "Ġdesigned": 7741,
    "Ġexcess": 3343,
    "Ġpeaks": 16132,
    "Ġrecommending": 24333,
    "Ġworry": 18818,
    "erval": 4016,
    "beth": 13692,
    "Ġremarked": 3698,
    "block": 11472,
    "Ġcul": 17824,
    "icken": 6713,
    "Ġrobert": 10972,
    "Ġamidst": 9497,
    "calmly": 20142,
    "Ġderivative": 3002,
    "pulous": 15419,
    "Ġ73": 24263,
    "Ġterti": 14540,
    "Ġplanted": 9777,
    "Ġremarking": 13128,
    "Ġlong": 795,
    "Ġsmith": 16071,
    "abs": 11670,
    "invariably": 26418,
    "oa": 9615,
    "Ġbrid": 6292,
    "Ġshelter": 17010,
    "portuguese": 25414,
    "exc": 5169,
    "lied": 6508,
    "Ġolfactories": 26172,
    "Ġcogn": 11005,
    "Ġbizarre": 17873,
    "intercourse": 14640,
    "Ġamendment": 26025,
    "Ġsubterranean": 13615,
    "itation": 1783,
    "hil": 8379,
    "Ġretains": 20033,
    "ampton": 18147,
    "Ġsentin": 16378,
    "Ġcask": 5527,
    "england": 18931,
    "position": 15416,
    "Ġlayer": 1013,
    "Ġthre": 2060,
    "Ġseparate": 5778,
    "Ġrecommence": 16814,
    "ppa": 10242,
    "Ġunited": 6840,
    "Ġloathed": 15879,
    "Ġprofane": 13156,
    "dar": 20826,
    "Ġbravery": 23840,
    "contriv": 19294,
    "!âĢĶ": 2454,
    "Ġcollateral": 20075,
    "pendicular": 6500,
    "Ġcontained": 7679,
    "uns": 21874,
    "Ġscreams": 24604,
    "Ġalarmed": 6923,
    "unciation": 25983,
    "Ġunsav": 18252,
    "formal": 14170,
    "Ġfiery": 6871,
    "Ġflew": 5588,
    "Ġpelt": 15614,
    "complied": 19915,
    "agony": 14072,
    "Ġimpregnable": 26024,
    "fired": 20862,
    "Ġrebell": 21672,
    "Ġillustrations": 17109,
    "kick": 20938,
    "Ġunbounded": 18260,
    "intellig": 5321,
    "Ġobjecting": 18898,
    "Ġdisadvantages": 18559,
    "alle": 1293,
    "Ġsupposing": 6731,
    "Ġgra": 416,
    "bler": 11474,
    "Ġelegance": 11334,
    "Ġexplored": 23519,
    "gun": 10099,
    "advantage": 8662,
    "Ġcomprise": 18587,
    "hav": 20899,
    "Ġindulgence": 11321,
    "pervised": 1642,
    "Ġsanctioned": 26352,
    "Ġresource": 10995,
    "ren": 549,
    "Ġscrawled": 24581,
    "Ġ92": 24591,
    "claimed": 9839,
    "greenland": 10024,
    "Ġsavi": 18326,
    "ahab": 4289,
    "historian": 25735,
    "mult": 8751,
    "Ġdefinite": 11071,
    "Ġparliament": 18303,
    "Ġstunsail": 25544,
    "Ġfocus": 4236,
    "Ġhall": 4183,
    "Ġhaughty": 11451,
    "Ġsickly": 16776,
    "Ġfloat": 12036,
    "read": 3278,
    "Ġminim": 1322,
    "Ġstreaming": 19676,
    "sof": 17659,
    "Ġbeaut": 2394,
    "Ġguid": 2637,
    "Ġactions": 6280,
    "become": 14249,
    "tin": 6118,
    "Ġheartless": 13077,
    "Ġfastened": 7067,
    "Ġestimate": 19376,
    "pret": 7212,
    "square": 15062,
    "itous": 13871,
    "Ġwise": 6812,
    "rences": 9275,
    "Ġsmall": 894,
    "Ġvulture": 17342,
    "Ġexchanged": 10880,
    "Ġfelicity": 7260,
    "Ġshr": 4226,
    "Ġwel": 4525,
    "Ġkentuck": 19893,
    "Ġmastery": 23996,
    "saf": 11527,
    "Ġpoured": 8805,
    "emic": 18187,
    "Ġactuated": 18546,
    "Ġcocoanuts": 26364,
    "certain": 3679,
    "Ġtinge": 25090,
    "ints": 3418,
    "Ġpredecess": 18518,
    "Ġintricacies": 15142,
    "Ġnapkins": 25165,
    "isol": 17848,
    "Ġclust": 9277,
    "irene": 15917,
    "pped": 1999,
    "oman": 2019,
    "Ġware": 12559,
    "Ġvill": 3877,
    "Ġhinted": 6013,
    "Ġfall": 2990,
    "cham": 10855,
    "approve": 19940,
    "Ġdelivered": 11118,
    "alty": 17941,
    "tout": 21068,
    "Ġheighten": 19532,
    "Ġcondense": 21812,
    "Ġanaly": 1139,
    "Ġdelicate": 6481,
    "Ġcensured": 25097,
    "Ġaccuse": 14214,
    "Ġjub": 22299,
    "Ġmoral": 6581,
    "Ġdisgust": 6707,
    "breathing": 25336,
    "Ġcalhoun": 23048,
    "Ġdisciple": 22787,
    "ken": 2802,
    "Ġdisent": 22527,
    "Ġ101": 24409,
    "Ġbor": 5805,
    "Ġdodge": 19888,
    "Ġbeckoning": 20505,
    "hval": 20900,
    "Ġaffection": 2638,
    "Ġgesture": 11401,
    "Ġleap": 5825,
    "Ġcustom": 5077,
    "stayed": 25291,
    "writes": 4987,
    "befriend": 22496,
    "Ġmorcar": 13020,
    "grave": 16098,
    "explanations": 25235,
    "wered": 2689,
    "Ġrenders": 13288,
    "Ġmisty": 16543,
    "Ġunrel": 14698,
    "benefit": 24643,
    "Ġbottle": 7490,
    "arp": 2028,
    "mpus": 13760,
    "Ġyore": 21782,
    "Ġconn": 9232,
    "Ġbengal": 18784,
    "dissatisfied": 26614,
    "ild": 1153,
    "Ġinestim": 15628,
    "Ġthump": 11614,
    "Ġinvariably": 8064,
    "unless": 9238,
    "Ġplayful": 19238,
    "Ġcharmingly": 24224,
    "ap": 546,
    "Ġenhancement": 23644,
    "Ġpassengers": 13679,
    "Ġresolutely": 14611,
    "iverer": 11720,
    "interrupt": 8619,
    "Ġforbidden": 17079,
    "Ġleghorn": 13150,
    "Ġ65": 24368,
    "rig": 7556,
    "Ġlongest": 18631,
    "george": 26020,
    "Ġdiscipline": 26563,
    "Ġleech": 24158,
    "Ġpalaces": 24095,
    "acute": 22549,
    "Ġknock": 9976,
    "Ġarthur": 7196,
    "connection": 18870,
    "encoura": 15051,
    "Ġunconcern": 14120,
    "Ġabed": 22269,
    "Ġspec": 1263,
    "Ġsarat": 21230,
    "Ġcap": 2361,
    "rel": 3756,
    "Ġbam": 15570,
    "Ġbig": 5806,
    "Ġsea": 1208,
    "Ġachieved": 13170,
    "vers": 1326,
    "Ġric": 18212,
    "obli": 23098,
    "Ġtam": 7821,
    "Ġmunro": 25631,
    "usable": 22283,
    "Ġengineering": 3028,
    "Ġatom": 18193,
    "injured": 15136,
    "Ġmbpp": 21325,
    "lested": 14886,
    "Ġyoke": 18098,
    "smote": 23913,
    "Ġillustrative": 25069,
    "Ġchiswick": 25561,
    "acknowledge": 18471,
    "groom": 8743,
    "Ġshaking": 6553,
    "Ġlulled": 17971,
    "Ġintelligent": 1394,
    "knight": 20942,
    "Ġrecogn": 2886,
    "Ġowner": 8925,
    "Ġposs": 1614,
    "prospect": 23399,
    "drowned": 17372,
    "Ġmend": 8407,
    "adieu": 26202,
    "sought": 15430,
    "Ġcho": 4545,
    "whar": 15931,
    "Ġwade": 17786,
    "Ġoperations": 2299,
    "Ġmost": 1021,
    "carrying": 16714,
    "Ġroarings": 25302,
    "Ġgrooves": 16743,
    "Ġeluc": 16115,
    "Ġscru": 8192,
    "nor": 2741,
    "¹": 122,
    "Ġcoarse": 14280,
    "glasses": 11217,
    "Ġexpans": 18623,
    "Ġdecent": 10980,
    "Ġdownward": 10334,
    "laying": 19775,
    "Ġinterchange": 16080,
    "Ġinjuries": 11279,
    "Ġhaul": 11696,
    "Ġprecipitate": 19945,
    "oise": 15407,
    "Ġwiser": 14733,
    "Ġdl": 3377,
    "somers": 19371,
    "Ġbugs": 13652,
    "undoubtedly": 13316,
    "Ġreciproc": 20625,
    "Ġsunrise": 9376,
    "Ġstarting": 7729,
    "Ġedged": 23489,
    "Ġrepugn": 23366,
    "hement": 13835,
    "Ġattracted": 8908,
    "establish": 17396,
    "beware": 16044,
    "Ġbitt": 10798,
    "Ġcruisers": 25864,
    "Ġdisguises": 25058,
    "Ġ130": 24780,
    "ĵ": 246,
    "Ġretention": 23074,
    "Ġdecomp": 3812,
    "Ġambitious": 18515,
    "bal": 2156,
    "omist": 21641,
    "Ġheight": 4220,
    "Ġbushes": 16401,
    "passion": 11262,
    "Ġdictated": 25219,
    "Ġgathering": 14981,
    "deserts": 25382,
    "vi": 2374,
    "bethinking": 25746,
    "Ġanticipatingly": 26103,
    "blame": 14797,
    "osition": 1374,
    "Ġimportant": 1128,
    "Ġpill": 7846,
    "Ġhereafter": 9333,
    "Ġedd": 8398,
    "Ġriddles": 16734,
    "founded": 16715,
    "Ġindependent": 9019,
    "introdu": 8940,
    "Ġawake": 8272,
    "inhab": 10759,
    "enthusiastic": 20695,
    "Ġflow": 1240,
    "Ġfrigates": 25707,
    "Ġdeduce": 8337,
    "ky": 4517,
    "rolled": 9062,
    "Ġorthodox": 22099,
    "Ġfellow": 2776,
    "gaz": 20880,
    "Ġconst": 1910,
    "uniform": 18160,
    "hawk": 7123,
    "attoo": 6808,
    "Ġbead": 21754,
    "Ġoccupant": 16654,
    "Ġpicking": 11261,
    "Ġyarman": 12710,
    "fifth": 20149,
    "gue": 12472,
    "Ġmatrimony": 13639,
    "Ġemployment": 8632,
    "science": 11913,
    "Ġhood": 10825,
    "scor": 13025,
    "Ġvan": 1088,
    "Ġfing": 3759,
    "Ġdrew": 3537,
    "rable": 11635,
    "Ġdealing": 14048,
    "blue": 13697,
    "elab": 21573,
    "Ġinvolve": 11041,
    "Ġrearing": 12682,
    "using": 5468,
    "corner": 13401,
    "ivation": 3111,
    "fight": 17540,
    "pick": 17636,
    "Ġassumed": 9468,
    "inn": 5364,
    "lighter": 20961,
    "Ġfluctuations": 5516,
    "capitals": 25083,
    "Ġfist": 21407,
    "Ġrobots": 11080,
    "Ġstri": 2804,
    "Ġgarnery": 17390,
    "Ġactivation": 918,
    "Ġfreezing": 23886,
    "oner": 6126,
    "Ġemb": 1232,
    "does": 6196,
    "yth": 983,
    "thinks": 16644,
    "Ġbuying": 23999,
    "Ġliberally": 16832,
    "dutch": 17221,
    "Ġoftentimes": 20158,
    "Ġchestnuts": 24381,
    "hardly": 6492,
    "arned": 21821,
    "raised": 15683,
    "incing": 15488,
    "widely": 25344,
    "Ġequality": 16362,
    "Ġrever": 6538,
    "Ġhovering": 10181,
    "Ġwantest": 18792,
    "Ġworkflow": 2367,
    "langu": 4807,
    "okes": 9280,
    "riors": 18186,
    "Ġakin": 15498,
    "Ġslugg": 15272,
    "Ġrestrain": 8967,
    "Ġouthouse": 22318,
    "dham": 20832,
    "Ġsuggested": 8321,
    "iver": 2050,
    "Ġunsupplied": 22047,
    "tol": 17674,
    "Ġoat": 21326,
    "Ġgaunt": 11270,
    "Ġparmacetti": 20607,
    "Ġungracious": 18259,
    "Ġvex": 5950,
    "Ġbulls": 23861,
    "Ġunwe": 15842,
    "Ġcheer": 4063,
    "Ġbelie": 14410,
    "Ġriver": 5411,
    "emone": 21931,
    "Ġinvol": 1018,
    "Ġdrama": 16332,
    "stairs": 5155,
    "Ġlabrador": 23334,
    "absolute": 17125,
    "unearthly": 19275,
    "Ġespecially": 3934,
    "Ġtone": 4036,
    "flaming": 23973,
    "ph": 924,
    "Ġpliny": 11829,
    "Ġforeman": 23448,
    "carry": 19529,
    "later": 20955,
    "Ġirretrie": 23377,
    "Ġmallet": 17812,
    "one": 615,
    "hastening": 24448,
    "Ġweek": 2829,
    "Ġnarrower": 24354,
    "Ġrun": 2354,
    "Ġblurred": 22934,
    "Ġriveted": 13622,
    "Ġliberated": 19669,
    "Ġfervently": 25878,
    "Ġimpo": 3442,
    "Ġell": 17717,
    "iverse": 13120,
    "Ġcow": 13879,
    "Ġcoron": 4462,
    "secret": 12241,
    "elzebub": 26466,
    "Ġsum": 2700,
    "Ġdante": 21441,
    "Ġproprietor": 12377,
    "Ġarrived": 3748,
    "circumstance": 7764,
    "pression": 10409,
    "ele": 9117,
    "Ġworkman": 16265,
    "Ġlacey": 10200,
    "Ġapproach": 844,
    "cules": 12395,
    "Ġesteem": 7531,
    "Ġparchment": 13656,
    "uled": 11539,
    "Ġusages": 15922,
    "tedious": 22636,
    "Ġinclined": 6625,
    "Ġundersampling": 19521,
    "Ġprecisely": 6467,
    "umb": 3403,
    "Ġlinked": 15081,
    "wester": 21141,
    "apse": 14201,
    "tarpaulins": 26407,
    "Ġstout": 6026,
    "future": 13720,
    "Ġdrifted": 14626,
    "Ġthreatens": 24375,
    "apidated": 22340,
    "process": 11150,
    "Ġsharpen": 13573,
    "Ġvener": 8164,
    "incl": 8110,
    "Ġseamen": 5062,
    "ulum": 21867,
    "brimming": 23579,
    "Ġidol": 7467,
    "Ġloathsome": 13531,
    "ending": 1991,
    "Ġfronts": 19004,
    "Ġcandelabra": 26604,
    "?_âĢĿ": 12320,
    "Ġemptied": 24347,
    "similar": 13457,
    "covered": 11479,
    "nostril": 26561,
    "Ġconversations": 9428,
    "Ġparad": 2844,
    "Ġvarious": 3510,
    "whaler": 20312,
    "Ġopium": 8997,
    "wall": 10139,
    "blasted": 20192,
    "Ġdyspeps": 16507,
    "Ġrev": 6989,
    "Ġjewel": 9945,
    "uneasiness": 23690,
    "Ġextras": 22749,
    "Ġposter": 14281,
    "gs": 7338,
    "Ġtarts": 10755,
    "relations": 14736,
    "Ġjogged": 26238,
    "itz": 6007,
    "holding": 7739,
    "opening": 10315,
    "Ġcurtain": 14417,
    "Ġindulged": 13421,
    "cott": 8074,
    "answers": 22127,
    "Ġfiendish": 13332,
    "years": 6883,
    "Ġhotels": 19539,
    "Ġpeddling": 21484,
    "unhes": 21879,
    "eg": 17531,
    "Ġblackest": 19100,
    "voc": 8394,
    "oked": 4307,
    "Ġoutsk": 15960,
    "Ġfold": 5531,
    "exasper": 22433,
    "Ġweakened": 16825,
    "bles": 7019,
    "retion": 9365,
    "_)âĢĶ": 20147,
    "Ġsuccessful": 9926,
    "bid": 5611,
    "Ġcalculates": 13269,
    "arth": 4441,
    "Ġadmires": 19688,
    "Ġtiar": 21170,
    "wam": 10138,
    "Ġfolds": 12211,
    "Ġaustrian": 24302,
    "Ġpour": 13917,
    "stretch": 13984,
    "Ġperv": 15994,
    "succeeded": 15179,
    "adler": 21766,
    "ceiving": 3901,
    "Ġlees": 18078,
    "Ġvent": 3994,
    "aract": 17896,
    "Ġplague": 11828,
    "valuable": 8246,
    "Ġjustice": 5111,
    "âĢĿâĢĶ": 5721,
    "Ġdivers": 9668,
    "Ġvouch": 15813,
    "Ġplying": 17914,
    "acency": 12902,
    "ropes": 7903,
    "ougher": 18276,
    "pursu": 11394,
    "Ġ1836": 25721,
    "Ġairs": 14514,
    "mine": 5618,
    "Ġbland": 11066,
    "Ġconfessor": 24022,
    "Ġsaid": 577,
    "rum": 3470,
    ",)": 9104,
    "Ġloath": 7890,
    "Ġveritable": 19384,
    "Ġaloud": 6254,
    "inous": 8776,
    "Ġoppress": 13176,
    "Ġ94": 17719,
    "Ġwharf": 9562,
    "Ġpretended": 19316,
    "unhappy": 10240,
    "somehow": 12016,
    "Ġvalue": 2084,
    "ads": 5718,
    "Ġtry": 3135,
    "Ġunqualified": 22065,
    "Ġprocedures": 9415,
    "geor": 15982,
    "Ġrecover": 9798,
    "Ġinve": 17931,
    "Ġinhabit": 5782,
    "resolutions": 26165,
    "Ġcomplacency": 19451,
    "sank": 17664,
    "Ġgould": 17992,
    "hoping": 17568,
    "icilian": 20694,
    "Ġjealously": 24127,
    "Ġopp": 2697,
    "Ġprevented": 5943,
    "Ġunfathomably": 25874,
    "Ġsentiments": 7962,
    "Ġincreases": 3797,
    "Ġ41": 24082,
    "Ġbrooding": 18909,
    "Ġankers": 21448,
    "rist": 10125,
    "past": 8090,
    "Ġfoundering": 21422,
    "Ġcordiality": 24395,
    "Ġpanthe": 19656,
    "Ġbusiness": 2233,
    "Ġentry": 11027,
    "Ġcondition": 6765,
    "regulated": 23469,
    "isition": 11589,
    "Ġupdates": 1298,
    "Ġattained": 14081,
    "Ġpupp": 10822,
    "accomplishment": 20226,
    "Ġdescribing": 19256,
    "Ġwaits": 23282,
    "Ġtremor": 24767,
    "Ġunderstand": 846,
    "probability": 17024,
    "nder": 20989,
    "closing": 23159,
    "Ġgarments": 15197,
    "Ġ77": 24266,
    "Ġcunning": 6240,
    "Ġmastiff": 23728,
    "Ġforgiveness": 16659,
    "smoking": 23914,
    "Ġkate": 15909,
    "inferiors": 25347,
    "Ġformer": 3324,
    "Ġdilatory": 24704,
    "hurrying": 14986,
    "spoke": 11025,
    "Ġcrevice": 22725,
    "Ġunappalled": 22069,
    "Ġcred": 8785,
    "Ġescort": 23507,
    "Ġlocks": 11728,
    "Ġcare": 1636,
    "Ġah": 5074,
    "Ġfooted": 23799,
    "Ġrespectful": 16348,
    "mason": 17604,
    "Ġfancy": 3747,
    "unct": 18157,
    "wh": 509,
    "Ġpoliteness": 8274,
    "Ġmodesty": 12823,
    "Ġacquiescence": 20333,
    "lingering": 18603,
    "Ġobe": 5801,
    "Ġendeav": 2957,
    "Ġindel": 13009,
    "relapse": 24019,
    "pron": 9009,
    "Ġdetective": 14401,
    "Ġboundary": 11224,
    "Ġkeeping": 7283,
    "Ġbash": 12591,
    "Ġchurch": 4711,
    "Ġmoles": 22438,
    "Ġform": 1025,
    "endure": 22229,
    "Ġautomatically": 3751,
    "ieth": 10706,
    "length": 7136,
    "Ġmany": 1104,
    "ptember": 10896,
    "Ø": 153,
    "downward": 16621,
    "izes": 885,
    "tumbled": 21093,
    "otent": 8836,
    "Ġaccompany": 9490,
    "Ġgills": 17995,
    "ornamented": 26597,
    "Ġcronies": 23442,
    "Ġabaft": 22278,
    "Ġdull": 6385,
    "biscuit": 17503,
    "Ġcurtains": 22977,
    "presented": 12995,
    "expanded": 23668,
    "Ġfacilitate": 26099,
    "asters": 8435,
    "Ġtiller": 8968,
    "Ġprogeny": 17391,
    "Ġconfessed": 8009,
    "Ġbolted": 12249,
    "Ġmarvell": 7248,
    "Ġvindication": 25365,
    "Ġpreyed": 18367,
    "Ġyielded": 14875,
    "Ġclutch": 15056,
    "Ġdecided": 5471,
    "robber": 21540,
    "Ġinterpreter": 23217,
    "Ġabandoned": 8352,
    "Ġexhausting": 24709,
    "masts": 19428,
    "born": 7543,
    "Ġlub": 15653,
    "Ġrealised": 18981,
    "Ġmending": 17806,
    "afternoon": 13189,
    "Ġcommun": 1706,
    "Ġvindictive": 20473,
    "Ġprev": 6266,
    "Ġwalk": 1826,
    "Ġwilt": 9646,
    "Ġthinkings": 22813,
    "Ġeager": 3572,
    "Ġpau": 17908,
    "disappeared": 14572,
    "Ġdepths": 4325,
    "ope": 4124,
    "Ġdoze": 14179,
    "Ġprized": 23223,
    "ĠĠĠĠĠĠĠĠĠĠĠĠĠĠĠĠĠĠĠĠĠĠĠĠ": 5322,
    "redit": 3875,
    "queer": 10366,
    "Ġregularizer": 2338,
    "Ġuncovered": 23434,
    "Ġstrong": 1789,
    "Ġconfinement": 19043,
    "Ġvicinity": 7315,
    "bewil": 22502,
    "apothecary": 26547,
    "Ġauthor": 4374,
    "ix": 1801,
    "Ġfounded": 8561,
    "))": 1513,
    "Ġdemoniacal": 20559,
    "uce": 11538,
    "virtue": 20572,
    "###": 3828,
    "Ġdisorder": 16054,
    "ner": 1372,
    "enger": 10775,
    "saving": 21062,
    "Ġcontriv": 9285,
    "Ġaccommod": 14215,
    "dled": 9114,
    "Ġbackbone": 22663,
    "rope": 3185,
    "Ġbuff": 9175,
    "gaff": 20884,
    "failed": 20865,
    "8": 28,
    "Ġcongen": 10875,
    "Ġarmy": 11748,
    "his": 1414,
    "Ġtombed": 25164,
    "Ġtearless": 24785,
    "Ġpotential": 3621,
    "Ġessence": 13409,
    "gener": 3127,
    "Ġabomin": 8189,
    "Ġveracity": 23892,
    "Ġspirits": 3700,
    "iners": 4936,
    "Ġshipmates": 6722,
    "acup": 14262,
    "Ġeventually": 8620,
    "Ġcriminals": 19924,
    "Ġmemo": 18120,
    "Ġobscure": 9557,
    "Ġkrus": 18350,
    "daylight": 19057,
    "Ġsoapstone": 20514,
    "Ġdistributes": 4194,
    "Ġsummar": 3526,
    "Ġthe": 270,
    "0": 20,
    "âĢľ_": 5720,
    "Ġdow": 17888,
    "Ġgros": 14826,
    "Ġglittering": 10056,
    "owal": 13996,
    "Ġcharlotte": 3889,
    "Ġsoftware": 18920,
    "Ġtong": 4870,
    "Ġassurances": 10003,
    "Ġskeleton": 5514,
    "Ġmarling": 23037,
    "Ġpostpone": 17310,
    "r": 86,
    "species": 13261,
    "Ġwithal": 18116,
    "Ġbecalmed": 18089,
    "Ġobstacles": 19838,
    "explained": 23148,
    "Ġpost": 4272,
    "Ġshoreless": 24297,
    "Ġmidships": 23635,
    "Ġfortunes": 12183,
    "ercely": 12555,
    "Ġstrategies": 1840,
    "Ġswore": 10381,
    ",âĢĿâĢĶ": 14218,
    "Ġviv": 6158,
    "Ġnational": 13945,
    "Ġsuavely": 26525,
    "growing": 13736,
    "Ġtatters": 21180,
    "Ġcapital": 7980,
    "Ġdomes": 23661,
    "Ġtestified": 16325,
    "tumultuous": 20402,
    "mon": 2308,
    "Ġspr": 4021,
    "Ġwitness": 4619,
    "english": 2774,
    "stall": 21649,
    "Ġdesert": 6729,
    "Ġdiscoverer": 26036,
    "6": 26,
    "lyph": 10854,
    "Ġplace": 1652,
    "colour": 9906,
    "Ġexcellence": 11453,
    "Ġinmost": 17933,
    "Ġlooked": 1803,
    "Ġdistraction": 22509,
    "Ġbenefited": 19401,
    "joy": 3336,
    "Ġextremity": 8991,
    "Ġspilling": 22142,
    "Ġclasped": 17209,
    "ignity": 4373,
    "tend": 17676,
    "ows": 1919,
    "Ġclanging": 18430,
    "Ġrambles": 17187,
    "lingly": 9776,
    "Ġamaze": 22487,
    "Ġacceptable": 16746,
    "oof": 15408,
    "Ġaids": 12233,
    "jewel": 20349,
    "Ġcreated": 2707,
    "spout": 7922,
    "Ġgather": 6536,
    "Ġbrides": 22869,
    "united": 14063,
    "Ġirre": 7468,
    "Ġexamining": 8006,
    "ates": 519,
    "orter": 4255,
    "commotion": 24914,
    "Ġfavourite": 5271,
    "Ġconsid": 1814,
    "iel": 11496,
    "Ġgentlemen": 3644,
    "Ġbeale": 12704,
    "Ġdebts": 8036,
    "lik": 3914,
    "Ġenabling": 1080,
    "Ġzer": 1094,
    "Ġdead": 2172,
    "Ġduring": 873,
    "Ġspear": 9317,
    "Ġo": 275,
    "wonder": 6372,
    "Ġtheorem": 2324,
    "dict": 15341,
    "allah": 5839,
    "Ġmildness": 9947,
    "Ġrepugnant": 26592,
    "Ġharshly": 25250,
    "abases": 3009,
    "solut": 3365,
    "Ġbelly": 10372,
    "chairs": 21696,
    "Ġdrinking": 12173,
    "Ġmovement": 9971,
    "pad": 13771,
    "baboon": 25517,
    "volume": 18584,
    "Ġjaws": 5593,
    "Ġduplicates": 17219,
    "awn": 3835,
    "vocation": 25087,
    "Ġwert": 12561,
    "Ġcalmness": 12098,
    "pocket": 9812,
    "Ġarch": 938,
    "Ġfigure": 4207,
    "Ġswelling": 11929,
    "Ġanonymous": 26179,
    "Ġfree": 3376,
    "Ġimpersonal": 17400,
    "Ġderiv": 1737,
    "Ġconvict": 23748,
    "Ġcouch": 12576,
    "Ġdaughters": 4420,
    "Ġdisconsolate": 20721,
    "Ġcontinental": 19708,
    "Ġcleaned": 23185,
    "middle": 11312,
    "...": 24549,
    "Ġgoug": 17993,
    "Ġhermit": 15861,
    "Ġluxur": 12345,
    "Ġdetain": 14176,
    "Ġcharing": 14183,
    "Ġsubt": 11872,
    "Ġrepresentations": 1876,
    "Ġmoney": 3419,
    "Ġinter": 729,
    "Ġembraced": 10009,
    "Ġtreats": 19347,
    "supper": 12925,
    "uttle": 6249,
    "insufferable": 21195,
    "jacket": 12296,
    "impud": 23763,
    "Ġinte": 2066,
    "ais": 8071,
    "Ġomn": 8411,
    "Ġcl": 556,
    "Ġdollar": 25284,
    "tically": 3393,
    "rated": 6229,
    "ells": 5305,
    "Ġwhal": 5454,
    "Ġdownright": 16122,
    "athom": 12944,
    "gate": 12471,
    "Ġrotation": 25475,
    "lege": 17843,
    "Ġsyrian": 18356,
    "Ġword": 1051,
    "Ġweld": 8112,
    "Ġhappiest": 11886,
    "Ġscaffold": 18402,
    "Ġaisle": 21204,
    "Ġshuttle": 12131,
    "Ġbrothers": 13179,
    "icuous": 10837,
    "Ġrandomly": 1922,
    "Ġanne": 1526,
    "gust": 6362,
    "Ġconstantinople": 19840,
    "boys": 13364,
    "lays": 14925,
    "isson": 23463,
    "Ġpedro": 15066,
    "Ġamounts": 6706,
    "Ġepit": 18009,
    "Ġorgans": 15869,
    "Ġsettled": 3743,
    "Ġdeserved": 7737,
    "Ġcommodores": 25375,
    "iron": 3662,
    "ript": 4151,
    "Ġmagazine": 23103,
    "Ġpresuming": 16795,
    "Ġinseparable": 20691,
    "Ġblacksmiths": 19875,
    "morrow": 4570,
    "Ġconveniences": 19815,
    "kindly": 14747,
    "Ġevidence": 5270,
    "urable": 8928,
    "Ġbox": 5108,
    "Ġcomplete": 4381,
    "saddest": 25528,
    "Ġdifficulties": 11227,
    "Ġoverladen": 22358,
    "pretending": 17042,
    "Ġrepresentation": 14409,
    "ĠmanÅĵuv": 18418,
    "Ġprofundities": 20456,
    "Ġhopeful": 19035,
    "Ġoct": 10161,
    "Ġbriefly": 11369,
    "intervals": 10640,
    "persons": 24177,
    "mospheric": 17092,
    "quakes": 21854,
    "Ġmyster": 5927,
    "Ġsuppression": 23005,
    "Ġcakes": 13887,
    "Ġstared": 8456,
    "Ġremembering": 14612,
    "Ġdespised": 14669,
    "justice": 7958,
    "Ġplaced": 3444,
    "Ġcoleman": 22591,
    "places": 7877,
    "Ġfull": 2178,
    "Ġstrives": 23698,
    "Ġanswers": 7072,
    "Ġcou": 5288,
    "Ġped": 7845,
    "night": 2169,
    "destiny": 16701,
    "bling": 10685,
    "Ġindication": 22955,
    "Ġminus": 18753,
    "ambition": 13415,
    "ons": 709,
    "Ġxxv": 19720,
    "Ġnick": 21526,
    "Ġyear": 3288,
    "Ġcurls": 22974,
    "Ġcrowder": 19459,
    "Ġoverbearing": 12847,
    "Ġinn": 4588,
    "Ġmaid": 5287,
    "information": 12397,
    "Ġepisode": 26349,
    "Ġdeadly": 5405,
    "Ġengrossed": 13000,
    "Ġthink": 987,
    "horr": 14601,
    "seventy": 10878,
    "Ġchink": 15936,
    "Ġstudents": 23228,
    "Ġerskine": 17435,
    "Ġgravel": 14105,
    "Ġreverse": 16984,
    "Ġever": 1181,
    "conspicuous": 26249,
    "Ġmermaids": 26171,
    "quired": 21853,
    "Ġexpost": 18625,
    "angle": 22107,
    "Ġclubbed": 26549,
    "N": 50,
    "Ġmeagre": 21814,
    "Ġsteps": 2864,
    "Ġprove": 5231,
    "Ġportions": 19372,
    "mblies": 24609,
    "plumed": 21959,
    "Ġsideways": 6184,
    "tier": 12519,
    "ething": 1599,
    "Ġfit": 3687,
    "Ġdau": 21428,
    "manifested": 20529,
    "Ġgathers": 24742,
    "Ġpoetry": 15084,
    "Ġshame": 6411,
    "pening": 2834,
    "Ġahoy": 12189,
    "iffs": 9025,
    "Ġtongues": 14866,
    "itement": 7835,
    "Ġcrouching": 23443,
    "Ġaccompan": 5513,
    "question": 5418,
    "school": 10058,
    "Ġunfulfilled": 26511,
    "Ġconsummation": 17428,
    "dling": 15343,
    "Ġbasics": 13452,
    "ĝ": 222,
    "Ġworlds": 11951,
    "Ġphr": 2681,
    "Ġrobbed": 23001,
    ").âĢĿ": 20743,
    "ulgent": 18152,
    "Ġcomo": 21858,
    "carb": 20812,
    "Ġsolic": 7933,
    "finding": 17015,
    "Ġresidual": 1679,
    "Ġexpect": 2305,
    "Ġintervened": 25482,
    "Ġaim": 10148,
    "Ġwrap": 24595,
    "Ġbulkington": 14679,
    "hau": 17564,
    "Ġf": 283,
    "elements": 25204,
    "Ġhoney": 12637,
    "child": 5538,
    "avast": 8901,
    "Ġaccursed": 9458,
    "Ġnamed": 6141,
    "grate": 23414,
    "aid": 1923,
    "gloomy": 25147,
    "Ġbrine": 18772,
    "requiem": 24857,
    "Ġdiscrimin": 2545,
    "Ġzones": 22822,
    "ially": 9250,
    "irement": 18355,
    "Ġkeeled": 18807,
    "Ġapple": 14169,
    "atics": 15526,
    "Ġcreamy": 14330,
    "Ġneed": 2606,
    "Ġstrove": 9960,
    "ively": 1318,
    "Ġcost": 2504,
    "Ġassertions": 19950,
    "Ġdisadvantage": 12895,
    "Ġsignify": 16496,
    "Ġpicturesque": 14897,
    "Ġserved": 8247,
    "alleled": 14432,
    "Ġuser": 15921,
    "Ġfinanc": 23132,
    "Ġimpossibility": 20649,
    "punishment": 15149,
    "Ġpersistence": 2926,
    "ricity": 23066,
    "Ġglance": 4233,
    "Ġsnaky": 23745,
    "âĢĿ;": 11672,
    "Ġcoroner": 7510,
    "isbury": 21380,
    "Ġbinnacle": 8119,
    "shake": 22459,
    "imly": 12692,
    "Ġside": 1386,
    "bweb": 20793,
    "violent": 14581,
    "Ġpar": 456,
    "Ġtw": 839,
    "Ġlanguor": 12852,
    "undant": 14795,
    "ster": 1953,
    "Ġinspiring": 19114,
    "Ġreferences": 21677,
    "itals": 17822,
    "âĢĺ": 941,
    "everlasting": 18774,
    "Ġabide": 14190,
    "ering": 1267,
    "Ġquaff": 22418,
    "elopement": 23195,
    "Ġbehalf": 14510,
    "battering": 20788,
    "ains": 5093,
    "app": 1040,
    "Ġreasoner": 14445,
    "affold": 16565,
    "Ġcreases": 22723,
    "Ġcontract": 18476,
    "Ġserpent": 6739,
    "icking": 8914,
    "spoken": 11864,
    "prow": 15414,
    "Ġsplin": 8622,
    "ancient": 9658,
    "Ġpressed": 6043,
    "discovery": 12021,
    "Ġtremendous": 8353,
    "Ġfield": 1235,
    "lab": 3457,
    "Ġturkey": 19221,
    "Ġburying": 19254,
    "pers": 4335,
    "Ġwitnesses": 9489,
    "Ġrat": 4352,
    "Ġsaturation": 2063,
    "Ġtiger": 11557,
    "Ġscales": 4850,
    "riage": 2123,
    "Ġcommitting": 22676,
    "Ġstalls": 25648,
    "Ġlocal": 1200,
    "Ġeliza": 6438,
    "ivot": 11722,
    "glorious": 19370,
    "Ġsedentary": 25431,
    "ensibility": 22552,
    "won": 8395,
    "Ġaristotle": 25818,
    "Ġbid": 6133,
    "Ġinheriting": 25355,
    "nades": 20999,
    "onist": 21253,
    "pitch": 13303,
    "ï": 176,
    "Ġcompliment": 5673,
    "eer": 15351,
    "Ġleading": 7297,
    "Ġeast": 5370,
    "thirds": 25049,
    "affrail": 11207,
    "Ġdug": 21433,
    "Ġunless": 4087,
    "Ġjar": 15954,
    "far": 5787,
    "ĠcÃ¦": 15559,
    "programming": 10066,
    "loss": 22511,
    "Ġcriminal": 7537,
    "ician": 21568,
    "andromeda": 21872,
    "h": 76,
    "Ġscraps": 16904,
    "Ġprosecuted": 25294,
    "glo": 8741,
    "Ġunreasonable": 12782,
    "purp": 8091,
    "Ġcleanse": 24527,
    "Ġhonour": 3921,
    "Ġstoutly": 16926,
    "pronounced": 12350,
    "verb": 10219,
    "Ġverdant": 15004,
    "Ġwhitewashed": 14472,
    "glad": 9011,
    "Ġsmallest": 6431,
    "script": 11079,
    "Ġpencil": 11947,
    "around": 12613,
    "Ġheaded": 11056,
    "goodness": 19290,
    "Ġbohemian": 17136,
    "Ġimmort": 19487,
    "Ġremembr": 24173,
    "ev": 6952,
    "saved": 15434,
    "Ġhissing": 15794,
    "Ġcalmed": 16270,
    "mechanical": 25579,
    "Ġmishap": 20579,
    "Ġpolitely": 8996,
    "happen": 19333,
    "ford": 2825,
    "Ġimpud": 18445,
    "Ġgradu": 15836,
    "Ġetc": 7086,
    "Ġhypocr": 19475,
    "Ġsuddenness": 23385,
    "Ġoccasions": 7988,
    "Ġreiter": 21669,
    "grasp": 16433,
    "Ġdisinterested": 16060,
    "Ġrefine": 3041,
    "Ġsister": 1474,
    "Ġsneeze": 24698,
    "Ġexig": 21831,
    "rust": 2580,
    "Ġsubmit": 11874,
    "Ġsenses": 8252,
    "Ġfasten": 11134,
    "Ġopinion": 3143,
    "fur": 6357,
    "Ġhues": 21492,
    "Ġregarded": 5762,
    "Ġruffled": 25837,
    "Ġchildhood": 13142,
    "Ġstony": 21743,
    "Ġabraham": 18396,
    "Ġprofoundest": 16862,
    "Ġtore": 6532,
    "Ġprometheus": 15296,
    "mons": 17602,
    "Ġspecimen": 13028,
    "wonders": 17146,
    "illating": 22111,
    "Ġ179": 19757,
    "Ġintersect": 22582,
    "Ġheadland": 22900,
    "Ġwhirling": 12253,
    "Ġhey": 11644,
    "Ġdozen": 8186,
    "Ġsuppressing": 23006,
    "Ġalpine": 18108,
    "Ġbridge": 8349,
    "engineer": 23151,
    "conception": 22476,
    "arent": 4249,
    "Ġlevi": 3037,
    "tomorrow": 25915,
    "Ġwrithed": 17107,
    "Ġhard": 1444,
    "Ġsolution": 9808,
    "Ġlately": 6388,
    "compass": 9463,
    "Ġdemeanour": 17340,
    "Ġlanes": 19768,
    "Ġricher": 12764,
    "this": 1441,
    "idy": 21768,
    "Ġpersuas": 23950,
    "Ġcottagers": 6762,
    "Ġcrowding": 13284,
    "desol": 13222,
    "Ġsophisticated": 1595,
    "Ġcand": 3279,
    "dor": 12456,
    "mouse": 15396,
    "breadth": 20279,
    "nowled": 5470,
    "drunk": 24660,
    "Ġpalpable": 15209,
    "Ġwarn": 5695,
    "Ġ31": 12135,
    "Ġanteced": 26178,
    "Ġskirt": 18730,
    "whis": 7898,
    "enjoy": 10776,
    "Ġsamples": 2965,
    "atigable": 15274,
    "rising": 7557,
    "Ġindicate": 23726,
    "wes": 17705,
    "slipped": 25530,
    "dra": 3415,
    "walked": 10573,
    "Ġorb": 22095,
    "bod": 12441,
    "Ġpreferment": 19855,
    "brushing": 20790,
    "Ġcorrectly": 9407,
    "(_": 7540,
    "¤": 102,
    "Ġsurmise": 12299,
    "Ġcolonies": 14378,
    "Ġhalts": 3159,
    "Ġquiescent": 26244,
    "Ġlegisl": 23535,
    "appalled": 18763,
    "Ġmantelpiece": 15211,
    "Ġhaggard": 17333,
    "Ġbutts": 15859,
    "twinkle": 23707,
    "Ġseries": 7061,
    "confined": 24328,
    "Ġdate": 7841,
    "eronomy": 15528,
    "Ġsurely": 6309,
    "active": 16107,
    "Ġscenari": 22296,
    "picture": 11409,
    "§": 105,
    "Ġnewton": 3533,
    "code": 15332,
    "hibited": 17430,
    "Ġtune": 17727,
    "Ġrust": 6409,
    "Ġspeeding": 23566,
    "iliar": 15718,
    "mankind": 14377,
    "Ġfrequencies": 4789,
    "Ġformal": 2945,
    "Ġpicked": 6343,
    "//": 11465,
    "hess": 4747,
    "riumph": 4919,
    "Ġdangling": 17177,
    "Ġ59": 24323,
    "leaning": 10792,
    "Ġburial": 16523,
    "Ġmadly": 16487,
    "Ġwrath": 16319,
    "burgh": 6774,
    "Ġputting": 5327,
    "Ġhideousness": 16917,
    "Ġsolved": 8934,
    "Ġcorners": 18876,
    "plac": 15820,
    "closed": 23157,
    "Ġineffect": 13933,
    "ning": 949,
    "clergy": 18936,
    "Ġmarbles": 18874,
    "Ġquies": 18465,
    "Ġissue": 2310,
    "Ġelemental": 19921,
    "Ġvine": 8474,
    "relig": 15515,
    "tempt": 21082,
    "ingly": 2135,
    "isome": 17850,
    "fate": 17541,
    "Ġunit": 1848,
    "gryphon": 15362,
    "oking": 4604,
    "Ġhatter": 4111,
    "Ġmes": 17798,
    "Ġtemporary": 7981,
    "Ġgenerous": 6273,
    "Ġexerting": 21837,
    "Ġdecreasing": 2444,
    "newsp": 23138,
    "Ġorganizations": 12318,
    "Ġdegraded": 19228,
    "Ġliar": 22412,
    "Ġchisel": 20371,
    "sister": 5139,
    "Ġeaten": 14848,
    "Ġprofanely": 23572,
    "common": 4127,
    "Ġuttering": 16464,
    "Ġmeet": 2805,
    "Ġchace": 14181,
    "tim": 13794,
    "circumst": 5349,
    "Ġwhis": 3505,
    "Ġmortar": 19396,
    "Ġmagnitude": 1944,
    "Ġchip": 12830,
    "Ġfreighted": 16326,
    "consequ": 18505,
    "Ġinconsistency": 26184,
    "Ġthank": 3793,
    "Ġrigger": 19533,
    "Ġhousings": 21496,
    "ę": 218,
    "Ġrestored": 7068,
    "acks": 11792,
    "ins": 1377,
    "Ġplates": 11008,
    "Ġsimply": 7218,
    "Ġheroines": 19754,
    "Ġshoulders": 5566,
    "ention": 853,
    "ep": 446,
    "gallery": 24694,
    "Ġensemble": 1606,
    "red": 396,
    "braid": 17497,
    "Ġrapturously": 24889,
    "Ġcompute": 2908,
    "Ġwindow": 3000,
    "Ġdavy": 25952,
    "revival": 26163,
    "Ġcombine": 4414,
    "Ġisn": 7866,
    "Ġbordered": 24564,
    "transformer": 25018,
    "Ġpots": 9431,
    "Ġbeadle": 26486,
    "collect": 16566,
    "Ġdiabolically": 25514,
    "Ġreconciliation": 25293,
    "savor": 25027,
    "Ġvice": 6550,
    "Ġrevolver": 14903,
    "rained": 5162,
    "Ġostens": 25276,
    "Ġcaprice": 14578,
    "Ġengra": 7874,
    "Ġnumer": 3640,
    "Ġfootsteps": 16575,
    "Ġtwee": 22678,
    "know": 2317,
    "Ġway": 1086,
    "Ġdipped": 15599,
    "walls": 25346,
    "Ġdeaden": 23462,
    "promontory": 24727,
    "arms": 10176,
    "Ġcomment": 9235,
    "Ġunsc": 22018,
    "Ġattack": 5478,
    "springs": 24912,
    "start": 7599,
    "Ġul": 6828,
    "ished": 1428,
    "Ġpoet": 8208,
    "Ġungod": 22028,
    "stre": 5451,
    "bowing": 24454,
    "Ġheated": 21685,
    "Ġmiddle": 4137,
    "specimen": 26607,
    "Ġqueen": 3214,
    "Ġic": 9628,
    "'s": 2469,
    "Ġsty": 6253,
    "puzz": 17642,
    "Ġhospitality": 13516,
    "fiend": 13665,
    "wrong": 13210,
    "Ġopposed": 11190,
    "Ġconscientious": 16729,
    "att": 1457,
    "Ġweb": 9243,
    "mond": 20976,
    "gu": 3955,
    "Ġbecome": 3158,
    "Ġcharming": 6631,
    "Ġbowl": 11206,
    "Ġ129": 24474,
    "Ġtartar": 17325,
    "Ġgrain": 15835,
    "dec": 3113,
    "Ġstriving": 8998,
    "amped": 12037,
    "ĠĠĠĠĠĠĠĠĠĠĠĠĠĠĠĠĠĠĠĠĠĠĠĠĠĠĠĠĠĠĠĠĠĠĠĠĠĠĠĠĠĠĠĠĠĠĠĠĠĠĠĠĠĠĠĠĠĠĠĠ": 19262,
    "Ġchronicler": 20232,
    "Ġunalterable": 15855,
    "Ġkeen": 4611,
    "Ġgoodge": 22826,
    "Ġclaims": 13377,
    "Ġtort": 5903,
    "Ġrattler": 24998,
    "Ġbeat": 4489,
    "ant": 439,
    "Ġturks": 14600,
    "ude": 7562,
    "goose": 19103,
    "Ġglanced": 5953,
    "Ġseas": 3080,
    "Ġemboldened": 22965,
    "Ġcusack": 26435,
    "Ġroman": 8323,
    "Ġbounce": 21396,
    "Ġerected": 12238,
    "riving": 21930,
    "Ġsymptoms": 8708,
    "aciousness": 18568,
    "Ġbearded": 15731,
    "love": 9297,
    "Ġmorrow": 9346,
    "Ġlovel": 10274,
    "chose": 18043,
    "ientious": 11695,
    "Ġamsterdam": 22488,
    "Ġmuteness": 19420,
    "increas": 10456,
    "li": 1189,
    "figure": 13559,
    "Ġstem": 15723,
    "Ġmissionary": 25697,
    "eyed": 11489,
    "earth": 6503,
    "Ġmortals": 9919,
    "Ġbravest": 23844,
    "Ġcrad": 21352,
    "calculation": 25689,
    "withstanding": 8948,
    "Ġjo": 2608,
    "Ġvortex": 26210,
    "Ġbranches": 6777,
    "irous": 8843,
    "Ġopens": 23628,
    "blind": 16704,
    "Ġowest": 25094,
    "enges": 13059,
    "Ġnib": 13943,
    "ispensable": 9099,
    "promising": 24725,
    "Ġconsc": 4274,
    "Ġaveraging": 2420,
    "necessities": 24308,
    "Ġdimensions": 16574,
    "Ġjustinian": 22972,
    "Ġmatters": 4973,
    "Ġwounded": 8661,
    "ivable": 10912,
    "Ġreeling": 18035,
    "Ġrighteous": 18948,
    "Ġfug": 12600,
    "Ġoarsmen": 7738,
    "Ġtre": 2535,
    "Ġsurvive": 9069,
    "Ġbackwoods": 22665,
    "road": 6679,
    "Ġleviathan": 3291,
    "Ġsnail": 19301,
    "Ġexam": 3713,
    "hounds": 20909,
    "Ġthrown": 4639,
    "iece": 3231,
    "xible": 13811,
    "=": 33,
    "zek": 16271,
    "Ġepic": 15032,
    "Ġdif": 872,
    "Ġtransitory": 16022,
    "shr": 10982,
    "hammered": 19007,
    "anish": 2615,
    "Ġmouldy": 14977,
    "wise": 2574,
    "Ġhauling": 14090,
    "Ġplants": 22602,
    "Ġwouldst": 18500,
    "Ġtram": 11093,
    "Ġconfided": 19041,
    "Ġaddition": 1146,
    "mediterranean": 16406,
    "ament": 2440,
    "Ġbingley": 1676,
    "hered": 5623,
    "Ġcanall": 10930,
    "slight": 10729,
    "hamed": 6307,
    "Ġconception": 10322,
    "Ġcaval": 25770,
    "fainting": 20476,
    "Ġhurry": 4913,
    "plete": 10921,
    "Ġexactly": 2768,
    "python": 4692,
    "ried": 925,
    "Ġdav": 15594,
    "go": 2064,
    "burnt": 20083,
    "Ġrecept": 1520,
    "oting": 2744,
    "Ġflitting": 13032,
    "Ġhaunted": 10256,
    "Ġhappens": 2189,
    "Ġcompanion": 3645,
    "harrow": 20910,
    "Ġcongealed": 25982,
    "Ġpresume": 8038,
    "Ġcontrive": 16014,
    "ples": 6845,
    "ĠĠĠĠĠĠĠĠĠĠĠĠĠĠĠĠĠĠĠĠĠĠĠĠĠĠĠĠĠĠĠĠĠĠĠĠĠĠĠĠĠĠĠĠĠĠĠĠĠĠĠ": 20042,
    "addressed": 13389,
    "Ġdiscernment": 15072,
    "Ġcontemptuous": 24677,
    "Ġcoefficient": 2884,
    "iousness": 4899,
    "whal": 10942,
    "Ġaccumul": 1413,
    "started": 10847,
    "weaknesses": 26031,
    "Ġbaw": 15573,
    "wood": 5899,
    "oftentimes": 19424,
    "Ġpaths": 2568,
    "Ġprecise": 7077,
    "Ġlaughs": 24119,
    "plentiful": 21960,
    "Ġenderby": 13655,
    "Ġincreasingly": 9374,
    "Ġaffectionate": 5585,
    "ift": 1605,
    "Ġsweeter": 23921,
    "Ġcreditor": 24292,
    "mend": 20968,
    "Ġgibe": 25960,
    "Ġrueful": 25582,
    "Ġimpetuously": 20375,
    "Ġsmite": 22562,
    "Ġshol": 21999,
    "Ġexertions": 13414,
    "flakes": 23971,
    "Ġnourishment": 15196,
    "shooting": 16967,
    "dington": 12070,
    "Ġinterment": 22581,
    "crack": 19843,
    "adequate": 15207,
    "Ġnantucket": 2840,
    "itig": 1331,
    "Ġdoted": 21436,
    "Ġyawned": 15054,
    "athered": 6973,
    "Ġclearly": 6897,
    "sleepers": 24729,
    "Ġseethe": 21967,
    "hosmer": 25903,
    "Ġunc": 2124,
    "alone": 10186,
    "Ġfright": 3798,
    "shiver": 16030,
    "Ġdisconcerted": 18563,
    "dinah": 20084,
    "Ġtelegram": 15227,
    "Ġmu": 17797,
    "Ġcocaine": 20723,
    "Ġencounters": 19583,
    "sick": 13787,
    "grounds": 11153,
    "Ġmalady": 24392,
    "ram": 13975,
    "kinder": 24846,
    "ually": 2770,
    "nurs": 21001,
    "Ġtash": 13823,
    "Ġfainted": 8796,
    "watery": 19829,
    "Ġpopulous": 16828,
    "Ġalche": 21787,
    "crawling": 16960,
    "Ġpedestrian": 25884,
    "Ġsteep": 2890,
    "Ġcatching": 9481,
    "Ġboston": 22641,
    "abominable": 20597,
    "Ġmighty": 4230,
    "employed": 17264,
    "Ġblades": 11899,
    "nature": 5360,
    "intern": 23739,
    "engine": 18929,
    "Ġsympathy": 6348,
    "Ġbert": 4580,
    "Ġshoot": 11163,
    "Ġfiend": 4410,
    "Ġtum": 5692,
    "Ġloveliest": 20264,
    "Ġsearched": 15823,
    "Ġfeelingly": 23000,
    "Ġpeep": 6870,
    "Ġcomely": 21859,
    "ms": 542,
    "isure": 6242,
    "Ġfilling": 13412,
    "laborers": 23919,
    "oon": 6366,
    "ood": 964,
    "Ġcottage": 4734,
    "uel": 6967,
    "ding": 3029,
    "offing": 23337,
    "Ġconveyed": 8335,
    "Ġpuffs": 14979,
    "Ġlaug": 3629,
    "Ġupright": 8496,
    "eler": 1569,
    "Ġtimorous": 24228,
    "Ġfragrant": 13091,
    "Ġdundee": 16999,
    "Ġuttered": 7280,
    "Ġmajority": 13297,
    "Ġpreliminary": 10060,
    "eth": 619,
    ".,": 5989,
    "Ġwarming": 23560,
    "Ġmast": 2903,
    "Ġinanimate": 13936,
    "murmured": 24455,
    "Ġexploration": 2335,
    "bil": 20773,
    "Ġlawy": 9457,
    "Ġdesolate": 10016,
    "oms": 4591,
    "Ġvariety": 8533,
    "ibule": 13012,
    "Ġmeasurement": 19426,
    "Ġguilty": 7250,
    "Ġdictate": 20154,
    "Ġlabyrinth": 13683,
    "whisper": 17084,
    "Ġwet": 6519,
    "oam": 8755,
    "Ġchron": 19441,
    "Ġseason": 5238,
    "Ġwedged": 24936,
    "inence": 15484,
    "Ġdaggoo": 5441,
    "beat": 10988,
    "Ġac": 845,
    "Ġunsafe": 22045,
    "cking": 4265,
    "Ġpiece": 5367,
    "apped": 5395,
    "iety": 2820,
    "dependence": 17170,
    "oses": 3944,
    "Ġbelongs": 8015,
    "Ġhookah": 16972,
    "Ġmoderation": 12824,
    "Ġforbe": 8459,
    "Ġexhibition": 14960,
    "Ġgazes": 24098,
    "counterpart": 26361,
    "orough": 5700,
    "Ġrecognise": 12059,
    "Ġbrah": 19360,
    "Ġcharacteristically": 23694,
    "Ġintellect": 8170,
    "boiling": 19002,
    "Ġborders": 15576,
    "Ġenforced": 21942,
    "Ġmeasured": 9807,
    "shadow": 20317,
    "cong": 10691,
    "te": 996,
    "://": 11467,
    "Ġratt": 7881,
    "Ġarisen": 11750,
    "Ġenjoys": 19453,
    "Ġgallons": 14821,
    "Ġ_": 838,
    "onstrate": 17770,
    "Ġderbyshire": 6588,
    "Ġhoky": 17929,
    "Ġcables": 15562,
    "removing": 17766,
    "Ġcrow": 3806,
    "osing": 3692,
    "atus": 21263,
    "Ġpathways": 11155,
    "senses": 25025,
    "Ġbeheaded": 11659,
    "Ġupset": 22157,
    "bbing": 6325,
    "Ġbutchers": 18273,
    "prosperity": 20737,
    "Ġrind": 21973,
    "ned": 3493,
    "Ġdiagon": 24739,
    "adru": 15735,
    "Ġcurled": 8226,
    "irable": 5776,
    "Ġallev": 18103,
    "sheet": 16289,
    "Ġswamp": 14439,
    "hanging": 10103,
    "erranean": 9337,
    "warmest": 25030,
    "Ġwhaler": 7520,
    "avenza": 17105,
    "heaven": 8053,
    "arken": 18668,
    "umberland": 16839,
    "Ġembra": 6580,
    "Ġdirector": 18922,
    "Ġunmindful": 22070,
    "Ġacquire": 2724,
    "Ġshouting": 10525,
    "Ġreplete": 15702,
    "quality": 10235,
    "Ġinconvenience": 9566,
    "riot": 18184,
    "gam": 10098,
    "Ġreputation": 11643,
    "âĢĶâĢĺ": 7015,
    "attentive": 17192,
    "tanh": 5204,
    "Ġbelted": 22951,
    "Ġcavity": 20491,
    "brew": 11475,
    "woman": 5900,
    "Ġcoincidence": 25484,
    "lion": 20946,
    "Ġomit": 17817,
    "horror": 13163,
    "included": 19210,
    "icide": 11621,
    "dashing": 20838,
    "Ġhack": 12761,
    "Ġsh": 419,
    "desponding": 26343,
    "Ġsignification": 19205,
    "Ġ26": 10472,
    "Ġgeomet": 3192,
    "ilogue": 21728,
    "Ġlamented": 24994,
    "foreseen": 14256,
    "ske": 13785,
    "Ġost": 9652,
    "publ": 17640,
    "mathematics": 26305,
    "Ġspleen": 26423,
    "Ġmeditate": 16709,
    "Ġflirt": 14426,
    "Ġhearties": 18966,
    "trunk": 23951,
    "Ġprofessors": 14728,
    "Ġbreathe": 9015,
    "Ġflukes": 5267,
    "Ġacceler": 1607,
    "Ġticking": 25036,
    "remind": 23190,
    "alvan": 21507,
    "Ġauthority": 7749,
    "Ġreported": 11984,
    "Ġgreenwich": 19323,
    "Ġscare": 18398,
    "Ġsnarl": 25714,
    "bre": 3976,
    "pronouncing": 25194,
    "Ġjeopard": 9946,
    "Ġpistol": 7847,
    "gallant": 7781,
    "Ġingenuity": 17166,
    "Ġcircumference": 13548,
    "Ġinsulated": 23683,
    "aware": 16298,
    "constable": 24606,
    "Ġcomputer": 1183,
    "Ġguardsmen": 20633,
    "Ġbelike": 18832,
    "Ġring": 4450,
    "constellation": 24608,
    "Ġwhereon": 16105,
    "Ġprivile": 8649,
    "M": 49,
    "Ġpleasant": 4168,
    "Ġpistols": 17332,
    "Ġpaw": 12625,
    "Ġensure": 23691,
    "likeness": 19481,
    "Ġjackal": 24242,
    "Ġpossibility": 7458,
    "Ġsocial": 7008,
    "Ġdiffidence": 14661,
    "draught": 12095,
    "regret": 16451,
    ".âĢĻ": 1720,
    "fering": 17544,
    "Ġdispatched": 23884,
    "Ġparl": 8178,
    "Ġ>": 21154,
    "Ġtoward": 17949,
    "kovoko": 20672,
    "ensed": 10998,
    "Ġpeasant": 13555,
    "Ġactually": 5389,
    "Ġg": 310,
    "Ġenormous": 5609,
    "adie": 18091,
    "Ġwhalemen": 3911,
    "shoulder": 16586,
    "hood": 2660,
    "Ġmercy": 9001,
    "maid": 8555,
    "Ġpolynes": 16086,
    "orph": 21402,
    "Ġtint": 13820,
    "Ġxxxii": 24973,
    "Ġreassure": 21675,
    "Ġquadruped": 20618,
    "Ġpince": 21473,
    "Ġthroughout": 8880,
    "Ġdishes": 16053,
    "connections": 14431,
    "Ġpermit": 9752,
    "Ġwoodlands": 23522,
    "Ġunlock": 18244,
    "Ġtorment": 8677,
    "Ġvacancy": 9047,
    "sus": 6230,
    "Ġhaunts": 18199,
    "å": 166,
    "Ġcontinuously": 23208,
    "ccas": 15890,
    "Ġleather": 7607,
    "dan": 17517,
    "Ġmouthful": 16577,
    "upon": 2722,
    "asily": 13949,
    "Ġlambton": 10660,
    "Ġbackground": 18650,
    "Ġnetworks": 595,
    "Ġoversampling": 20519,
    "hark": 15369,
    "sicilian": 21066,
    "Ġexclamation": 8702,
    "Ġerred": 21159,
    "lant": 20949,
    "Ġneared": 14076,
    "Ġattends": 19653,
    "ego": 4032,
    "ontory": 10461,
    "Ġxxxix": 24971,
    "Ġsteed": 13046,
    "rmsprop": 4520,
    "Ġinvite": 14565,
    "Ġfleshy": 24615,
    "Ġwink": 11572,
    "excited": 13384,
    "bl": 4140,
    "Ġdevotees": 25377,
    "Ġval": 966,
    "Ġmaker": 15547,
    "tom": 15438,
    "warn": 11545,
    "raham": 18016,
    "room": 2179,
    "Ġflurry": 18863,
    "Ġcoinc": 11004,
    "cru": 7128,
    "Ġalley": 15740,
    "Ġkindly": 6078,
    "Ġredeem": 20503,
    "Ġstern": 4222,
    "Ġsounds": 5190,
    "Ġtests": 8960,
    "Ġvernal": 23891,
    "Ġcontingency": 26246,
    "sprinkling": 24913,
    "ighbour": 3389,
    "Ġuncouth": 14550,
    "fallen": 19662,
    "elling": 5831,
    "Ġvinegar": 20103,
    "Ġgazed": 6479,
    "urean": 18125,
    "Ġmanor": 14199,
    "itional": 22478,
    "Ġsurmount": 20004,
    "derer": 4598,
    "Ġamph": 18512,
    "Ġlabel": 14517,
    "Ġfade": 21410,
    "desolate": 25717,
    "Ġencoun": 4509,
    "astes": 11743,
    "term": 3760,
    "oes": 4432,
    "Ġglove": 14493,
    "none": 6962,
    "Ġminded": 23234,
    "Ġsickness": 10541,
    "Ġargemone": 24277,
    "Ġsavag": 19377,
    "iter": 4390,
    "Ġgroves": 16742,
    "noon": 5036,
    "Ġfootfall": 14663,
    "Ġburn": 3686,
    "Ġfel": 1515,
    "Ġcarrying": 6073,
    "Ġcommunicates": 24547,
    "Ġpoint": 2057,
    "Ġhears": 8139,
    "Ġlandlady": 10424,
    "denial": 18718,
    "Ġhieroglyphics": 17306,
    "waters": 11335,
    "Ġbelief": 5857,
    "Ġexert": 5722,
    "Ġdelight": 2547,
    "Ġpecks": 18670,
    "us": 531,
    "Ġplumage": 17301,
    "Ġmisfortune": 5569,
    "Ġresidence": 8207,
    "shall": 4548,
    "Ġmankind": 6700,
    "Ġforgo": 21777,
    "iors": 9128,
    "Ġbetokened": 18797,
    "rived": 5373,
    "dimens": 2316,
    "Ġtowards": 1729,
    "Ġfollowed": 1795,
    "Ġviii": 16417,
    "Ġlogger": 11958,
    "._": 3222,
    "ago": 14068,
    "recked": 17764,
    "Ġadroit": 26001,
    "Ġeducation": 5128,
    "Ġexpiration": 22628,
    "Ġcompetent": 11820,
    "Ġcomplain": 6687,
    "Ġbri": 21381,
    "Ġtransformers": 1120,
    "philosop": 9570,
    "itate": 6670,
    "immediately": 10052,
    "Ġinfat": 14504,
    "continuing": 24479,
    "Ġaloysius": 15742,
    "whose": 6852,
    "Ġrepresenting": 4057,
    "ots": 3296,
    "Ġreflecting": 24750,
    "instrument": 15242,
    "proportions": 22850,
    "Ġtweezers": 26558,
    "Ġinstantly": 3594,
    "Ġdissect": 16056,
    "Ġunconscious": 9550,
    "Ġsteeply": 23727,
    "yl": 7818,
    "Ġattacks": 12209,
    "scent": 13026,
    "Ġbes": 2661,
    "Ġlimit": 10445,
    "stranger": 9886,
    "Ġcramped": 23531,
    "nobody": 16143,
    "commission": 22819,
    "Ġperfidious": 25667,
    "Ġsoo": 15864,
    "Ġliber": 5168,
    "Ġaccompl": 5167,
    "Ġdolphin": 17315,
    "ishes": 6524,
    "chambers": 25455,
    "Ġimmeas": 18332,
    "machine": 1009,
    "Ġcommand": 3323,
    "kindness": 10508,
    "Ġconcealing": 23906,
    "Ġchaff": 18384,
    "Ġrails": 22647,
    "lying": 7175,
    "Ġapplies": 11959,
    "Ġrepresents": 4902,
    "Ġendeavored": 19304,
    "Ġtreated": 7082,
    "Ġexamination": 8005,
    "embow": 21935,
    "Ġcondescend": 19958,
    "resolved": 9642,
    "Ġirritated": 17244,
    "Ġpow": 4637,
    "lovely": 16050,
    "conditional": 9081,
    "inlaid": 21193,
    "Ġlingu": 11617,
    "Ġinaudible": 21502,
    "Ġuplifted": 11650,
    "Ġcorn": 9353,
    "Ġtimbers": 14842,
    "rimshander": 20659,
    "Ġcongenial": 12415,
    "Ġsemicircle": 26068,
    "Ġtestament": 23211,
    "Ġviewed": 10465,
    "bearded": 18523,
    "ascribed": 24707,
    "Ġfashioned": 13325,
    "Ġdivision": 19447,
    "é": 170,
    "isen": 10794,
    "itioned": 22479,
    "Ġswallows": 18885,
    "orious": 6009,
    "arrangement": 17418,
    "Ġscuttle": 7414,
    "char": 3504,
    "Ġsolicit": 22888,
    "Ġremembered": 5277,
    "Ġcathed": 14549,
    "pall": 17630,
    "tri": 11532,
    "Ġscholar": 26112,
    "eled": 2357,
    "Ġcontraction": 16012,
    "Ġportrait": 10664,
    "calling": 12454,
    "Ġpronouncing": 16971,
    "remem": 13072,
    "Ġvisage": 18769,
    "Ġcommonplace": 11099,
    "Ġswords": 19899,
    "Ġevangelical": 25507,
    "Ġreckoned": 24743,
    "Ġwhale": 628,
    "Ġdu": 4582,
    "Ġcomprehens": 8320,
    "Ġpersisted": 13041,
    "supernatural": 19782,
    "Ġrejoicing": 13425,
    "obstructed": 15230,
    "ather": 739,
    "Ġaught": 8777,
    "stay": 9684,
    "whosoever": 22244,
    "Ġhysterical": 26093,
    "delight": 5345,
    "mole": 22704,
    "rods": 21541,
    "Ġecc": 11631,
    "Ġembarkation": 25125,
    "Ġwept": 7184,
    "Ġdisappoint": 24208,
    "invincible": 25092,
    "Ġnarrative": 6217,
    "rep": 5525,
    "Ġpunish": 12164,
    "Ġaccord": 4022,
    "ended": 1835,
    "shapes": 22466,
    "Ġrelu": 1046,
    "Ġoffending": 22738,
    "loud": 11503,
    "abling": 1079,
    "Ġbour": 4876,
    "Ġtransplanted": 22445,
    "Ġexasper": 8469,
    "ument": 5240,
    "Ġpostponed": 20393,
    "Ġanno": 9670,
    "Ġunbending": 25465,
    "steelkilt": 10050,
    "tea": 18743,
    "Ġannoy": 17201,
    "ica": 10201,
    "Ġaccording": 5508,
    "Ġvicissitudes": 12423,
    "Ġcalled": 1973,
    "elaborate": 21579,
    "Ġobsole": 22701,
    "Ġdoorway": 14499,
    "living": 7135,
    "Ġdebar": 24274,
    "Ġundertone": 23242,
    "Ġunrem": 18245,
    "tears": 11039,
    "Ġfiftieth": 24702,
    "insensibility": 23072,
    "Ġpartiality": 9401,
    "Ġdifficult": 3573,
    "Ġpersian": 11088,
    "Ġiceland": 15150,
    "Ġslu": 13839,
    "Ġstability": 1364,
    "Ġgardiners": 11159,
    "Ġnobleman": 19395,
    "Ġevent": 2953,
    "shout": 22456,
    "Ġtypes": 8939,
    "Ġred": 3008,
    "Ġfounder": 17885,
    "Ġconstitutional": 25128,
    "soup": 21061,
    "shoulders": 16587,
    "Ġstrangeness": 16706,
    "face": 3680,
    "uary": 11540,
    "annica": 24562,
    "cstasy": 11447,
    "Ġdevelopments": 23251,
    "ails": 6162,
    "yielded": 25757,
    "fine": 10093,
    "Ġconstantly": 11977,
    "S": 55,
    "Ġoutweigh": 22326,
    "#": 7,
    "Ġhates": 21489,
    "amid": 12729,
    "Ġcalling": 5662,
    "berish": 22743,
    "settled": 10509,
    "oysius": 14367,
    "Ġpolar": 9414,
    "Ġjavel": 17085,
    "Ġlunacy": 20031,
    "Ġhorrible": 4905,
    "fulness": 4309,
    "Ġslightly": 7293,
    "perpet": 14161,
    "anse": 12580,
    "Ġparch": 11730,
    "Ġdistrusted": 13545,
    "Ġaccounts": 7207,
    "Ġstamping": 20034,
    "Ġprosecut": 9701,
    "Ġconsumm": 15158,
    "Ġgrounds": 6751,
    "antly": 1990,
    "Ġdistributed": 18662,
    "Ġcake": 12575,
    "ě": 220,
    "Ġcompression": 18150,
    "Ġdexterous": 15152,
    "Ġsymptom": 13487,
    "Ġshrieked": 9551,
    "Ġcolourless": 19572,
    "Ġinstinctively": 13463,
    "arched": 10817,
    "sharp": 10309,
    "Ġonto": 14031,
    "Ġfeel": 1261,
    "rove": 21536,
    "Ġmetaphys": 16400,
    "Ġmouldings": 24736,
    "fooled": 24419,
    "Ġspine": 7407,
    "Ġsubsiding": 23436,
    "Ġvestibule": 13540,
    "Ġsap": 18324,
    "Ġprinted": 11953,
    "Ġache": 18664,
    "anous": 21362,
    "Ġpaced": 7584,
    "Ġverte": 9444,
    "Ġprettier": 23768,
    "Ġtown": 2455,
    "type": 16179,
    "tain": 558,
    "Ġangelic": 19630,
    "Ġhapless": 15816,
    "Ġshake": 6035,
    "books": 8667,
    "Ġinex": 6529,
    "Ġbattery": 21397,
    "Ġindignation": 8347,
    "Ġwilson": 6632,
    "Ġharp": 17926,
    "Ġworshippers": 25694,
    "Ġquest": 2002,
    "Ġcontrols": 1733,
    "Ġapology": 8328,
    "Ġslammed": 20451,
    "herds": 22207,
    "urer": 18124,
    "Ġsymph": 22216,
    "Ġdaniel": 15115,
    "lotts": 23829,
    "taking": 5689,
    "Ġdisasters": 16057,
    "Ġambergris": 8709,
    "Ġsetting": 7048,
    "Ġhiding": 9826,
    "Ġvor": 15810,
    "Ġrevelations": 25224,
    "doing": 8588,
    "Ġsynthe": 26008,
    "Ġpirates": 9076,
    "Ġprogno": 14043,
    "Ġknees": 6928,
    "ľ": 255,
    "transferred": 24514,
    "Ġplump": 14285,
    "Ġstiggs": 25793,
    "breaking": 14768,
    "achines": 1724,
    "ann": 5803,
    "aways": 15314,
    "Ġsweetness": 9449,
    "pend": 6368,
    "Ġungover": 18256,
    "Ġpurp": 2393,
    "Ġisland": 4045,
    "ose": 716,
    "Ġmatrix": 1604,
    "Ġaperture": 26161,
    "Ġemail": 19076,
    "Ġrobustness": 18878,
    "Ġasleep": 6836,
    "Ġconjectured": 10000,
    "Ġincarnation": 25574,
    "veral": 2353,
    "Ġconflict": 17276,
    "Ġdeduction": 14904,
    "Ġpollard": 20389,
    "Ġsentiment": 6591,
    "fier": 9596,
    "Ġsandwic": 24665,
    "Ġsnow": 3709,
    "shunned": 22469,
    "grateful": 10430,
    "desc": 1393,
    "scho": 8763,
    "assin": 22309,
    "iline": 21724,
    "Ġzigzag": 26274,
    "Ġforecastle": 5495,
    "Ġdeclared": 5595,
    "Ġecl": 18008,
    "Ġresulting": 24201,
    "Ġstruggle": 3678,
    "iastic": 12484,
    "Ġemm": 18005,
    "brary": 5755,
    "tormented": 13649,
    "washed": 13051,
    "Ġblu": 2686,
    "Ġsneezing": 12252,
    "Ġplunging": 14955,
    "putation": 7625,
    "Ġunfor": 15843,
    "Ġbeak": 18082,
    "training": 2517,
    "Ġconsidered": 4609,
    "Ġpuffed": 14980,
    "mency": 18928,
    "scure": 22991,
    "Ġpersonified": 19180,
    "Ġeddy": 13550,
    "ext": 926,
    "Ġincumbent": 16069,
    "ē": 212,
    "Ġenable": 685,
    "Ġreasonably": 11097,
    "Ġdressing": 7092,
    "cnns": 3623,
    "Ġfoes": 11956,
    "Ġadvertised": 17250,
    "Ġpray": 3898,
    "admitted": 18094,
    "mbl": 5947,
    "commander": 16989,
    "december": 25559,
    "ports": 13777,
    "Ġprotecting": 24687,
    "Ġbumpkins": 25282,
    "quietly": 10595,
    "Ġcrib": 21351,
    "Ġaerial": 21201,
    "Ġrecurring": 23235,
    "Ġfringe": 17274,
    "Ġslow": 2379,
    "Ġcoats": 16083,
    "Ġgasfitters": 25041,
    "Ġfurs": 18739,
    "Ġdoubloon": 6945,
    "Ġbaffled": 12407,
    "stad": 7598,
    "buckets": 26124,
    "Ġwhen": 515,
    "buoy": 7761,
    "Ġcrisp": 12007,
    "Ġprey": 6416,
    "Ġdining": 6978,
    "Ġprotruded": 19473,
    "Ġmarvellous": 7538,
    "Ġdrily": 23540,
    "Ġtroubling": 26548,
    "hued": 20913,
    "Ġbrit": 6291,
    "Ġbrave": 6331,
    "Ġbadly": 12136,
    "la": 10707,
    "Ġ115": 24439,
    "says": 13304,
    "Ġclergy": 7643,
    "ivory": 10271,
    "tallied": 21092,
    "Ġexperiment": 11917,
    "icorn": 15661,
    "orrah": 17877,
    "Ġhearts": 4971,
    "pile": 17631,
    "breaths": 25337,
    "Ġcomplexity": 1695,
    "ofs": 11834,
    "Ġspilled": 10927,
    "trans": 5594,
    "Ġtarquin": 23612,
    "tub": 9146,
    "Ġinquired": 7485,
    "Ġplank": 7035,
    "geon": 6272,
    "Ġimbalance": 22178,
    "Ġtener": 21166,
    "Ġhomeward": 9395,
    "Ġtopic": 9409,
    "Ġdrinks": 24282,
    "Ġmaintain": 856,
    "ame": 644,
    "Ġbride": 6293,
    "Ġattentive": 9036,
    "$": 8,
    "Ġdecoding": 3084,
    "Ġbast": 21382,
    "declared": 15122,
    "sion": 8094,
    "Ġhearse": 10422,
    "Ġboughs": 20492,
    "mews": 22712,
    "smith": 5669,
    "Ġtemples": 18647,
    "Ġthickness": 13282,
    "Ġdealer": 23980,
    "renew": 24450,
    "nervous": 16281,
    "Ġshaded": 14108,
    "restrained": 16339,
    "Ġjib": 14196,
    "Ġbeaufort": 13572,
    "ia": 1258,
    "Ġscrupulous": 20072,
    "antial": 8490,
    "Ġhalloa": 13321,
    "Ġhighness": 22779,
    "aret": 7417,
    "Ġflann": 23018,
    "Ġshrubbery": 18233,
    "Ġhence": 4988,
    "entitled": 21571,
    "Ġbrewed": 23349,
    "Ġcounty": 9033,
    "Ġlandsmen": 11353,
    "lutions": 20952,
    "Ġhad": 442,
    "Ġcopying": 17069,
    "Ġmadam": 5663,
    "entered": 8819,
    "Ġbakers": 17868,
    "icha": 11742,
    "Ġtwinkled": 14315,
    "ational": 5716,
    "luck": 5733,
    "Ġshavings": 14113,
    "Ġinquiries": 5678,
    "Ġplow": 21461,
    "ozy": 17624,
    "Ġmix": 7577,
    "ims": 7177,
    "etween": 773,
    "Ġwhisker": 23938,
    "Ġrud": 8480,
    "ig": 323,
    "Ġardent": 9973,
    "stretched": 10210,
    "nett": 16224,
    "Ġlaure": 16911,
    "bies": 15316,
    "Ġgobern": 22427,
    "Ġwhim": 14002,
    "peddling": 21034,
    "pre": 649,
    "contented": 14636,
    "Ġstead": 5650,
    "Ġfi": 932,
    "oves": 15406,
    "Ġthanking": 18604,
    "wil": 8769,
    "based": 2962,
    "Ġsurrey": 14561,
    "chain": 18042,
    "wish": 8100,
    "Ġadam": 2126,
    "Ġchorus": 10948,
    "approaching": 15014,
    "Ġmarked": 4617,
    "ence": 393,
    "Ġportentous": 15233,
    "Ġminds": 6305,
    "claim": 9838,
    "Ġtitle": 11410,
    "Ġgo": 613,
    "Ġnind": 17952,
    "Ġinsatiable": 19274,
    "prove": 11149,
    "Ġdripping": 13151,
    "pitching": 24078,
    "Ġlaughed": 5058,
    "Ġgentle": 1891,
    "regular": 3045,
    "Ġsensitive": 13201,
    "Ġdecay": 1014,
    "Ġenduring": 16305,
    "Ġsubmerged": 11876,
    "phere": 21021,
    "overcome": 19054,
    "tremble": 17144,
    "Ġmor": 1249,
    "Ġundeceive": 25553,
    "Ġmended": 21316,
    "threat": 10902,
    "decl": 8860,
    "Ġdaw": 21432,
    "Ġunsub": 22027,
    "Ġprimary": 25063,
    "stump": 21656,
    "Ġfluffy": 19367,
    "voyage": 7786,
    "Ġascertained": 25297,
    "Ġtunnels": 24621,
    "Ġtechnically": 12370,
    "wherein": 19109,
    "Ġdonkey": 23232,
    "prof": 7699,
    "Ġhunt": 6185,
    "Ġpert": 22400,
    "Ġdiver": 2529,
    "Ġveil": 7934,
    "Ġpercept": 14226,
    "Ġfatigue": 8701,
    "Ġjustification": 22971,
    "Ġabiding": 22274,
    "Ġdeact": 18138,
    "+": 15,
    "Ġselection": 18205,
    "Ġtu": 6969,
    "mbling": 3346,
    "Ġsalary": 13298,
    "peculiar": 6886,
    "icked": 10335,
    "Ġimpatience": 7509,
    "cely": 3576,
    "Ġarchitectures": 2912,
    "ashtego": 4101,
    "Ġcoachman": 15002,
    "Ġreturn": 1711,
    "Ġsc": 532,
    "Ġunceasing": 20361,
    "lop": 20950,
    "Ġnotion": 7882,
    "ising": 2255,
    "month": 6464,
    "Ġstrictest": 17043,
    "Ġassuring": 13069,
    "Ġtrustworthy": 24108,
    "Ġlain": 17964,
    "Ġrepentance": 15164,
    "Ġaccents": 14213,
    "Ġconvert": 11850,
    "Ġpul": 2042,
    "Ġensigns": 23692,
    "mistakable": 20655,
    "Ġounce": 15276,
    "instantly": 7506,
    "ub": 1226,
    "Ġascribed": 14858,
    "Ġindiam": 22956,
    "embedding": 20360,
    "Ġphysiology": 25333,
    "Ġinquis": 19305,
    "ket": 17584,
    "Ġcords": 14882,
    "Ġmeditations": 25016,
    "ve": 322,
    "distinctive": 25726,
    "Ġdangerous": 6616,
    "Ġcum": 21345,
    "Ġimproved": 7656,
    "Ġcrane": 23439,
    "nui": 21002,
    "thern": 4952,
    "Ġexasperated": 11414,
    "Ġentitled": 8540,
    "Þ": 159,
    "Ġrickety": 26507,
    "Ġannum": 24206,
    "asht": 4081,
    "Ġbel": 1216,
    "Ġlifetime": 13606,
    "Ġgreatest": 4090,
    "Ġpremium": 23908,
    "Ġeul": 21621,
    "Ġwester": 25156,
    "]]": 5205,
    "ounts": 4650,
    "Ġdiversion": 17200,
    "Ġdescrying": 18619,
    "takes": 21079,
    "Ġyoungest": 7954,
    "ahit": 9385,
    "Ġappl": 1682,
    "~": 98,
    "Ġaside": 5234,
    "Ġcorpora": 26582,
    "treatment": 20415,
    "Ġprogrammed": 11060,
    "ke": 429,
    "Ġspare": 5101,
    "Ġandromeda": 21511,
    "Ġaccept": 4409,
    "Ġprecipitous": 24836,
    "Ġlonely": 6823,
    "Ġx": 2073,
    "imperturbable": 25791,
    "Ġcord": 5222,
    "ulates": 14058,
    "Ġjeopardized": 20233,
    "Ġworn": 6446,
    "Ġpuzz": 5533,
    "Ġ12": 5483,
    "Ġblankness": 24611,
    "Ġrode": 16001,
    "Ġhorr": 3190,
    "oquent": 12504,
    "ides": 2161,
    "are": 638,
    "Ġwalking": 4323,
    ".--": 20748,
    "Ġexhale": 24402,
    "Ġdevil": 3615,
    "reds": 12753,
    "fact": 6360,
    "Ġblackstone": 23392,
    "stock": 13227,
    "Ġindul": 5858,
    "Ġoldest": 12978,
    "Ġchronic": 9932,
    "Ġwouldn": 6047,
    "Ġunwonted": 15010,
    "Ġiteratively": 3060,
    "istered": 14147,
    "Ġrevealed": 6753,
    "Ġwails": 21299,
    "Ġpassions": 7930,
    "Ġeels": 21623,
    "Ġpre": 507,
    "truck": 15444,
    "appalling": 22846,
    "Ġdome": 15593,
    "Ġbashaw": 25634,
    "welcomed": 24645,
    "maker": 12497,
    "Ġbefriend": 18084,
    "Ġassum": 4061,
    "disappo": 8987,
    "Ġseam": 3907,
    "Ġconcealed": 7495,
    "Ġsuggestions": 24453,
    "Ġreplaced": 13076,
    "Ġoutfits": 22325,
    "Ġegot": 18010,
    "Ġinvested": 7279,
    "secur": 18129,
    "send": 15426,
    "ender": 9163,
    "Ġsurprising": 14599,
    "Ġincivility": 18574,
    "Ġlack": 17966,
    "rapidly": 15247,
    "mortal": 10115,
    "Ġcarelessness": 13080,
    "Ġske": 4815,
    "elastic": 17983,
    "Ġcondemn": 13448,
    "Ġgout": 21599,
    "conv": 7213,
    "atered": 22013,
    "Ġsecondary": 23336,
    "Ġcordial": 16837,
    "vard": 21113,
    "Ġsternly": 16717,
    "boscombe": 26122,
    "Ġnautical": 17389,
    "luyt": 18460,
    "feared": 11806,
    "Ġegypt": 9681,
    "Ġsembl": 19061,
    "needle": 20313,
    "standing": 5558,
    "Ġtormenting": 15108,
    "harpooneer": 8692,
    "Ġlearnable": 3992,
    "Ġupd": 947,
    "flask": 12104,
    "Ġsublimity": 26348,
    "desk": 23812,
    "þ": 191,
    "oper": 7347,
    "loath": 22512,
    "prise": 7727,
    "Ġguise": 14435,
    "Ġprophes": 16352,
    "Ġcivility": 4788,
    "sm": 3436,
    "wrapped": 15213,
    "orphans": 26442,
    "Ġskies": 8924,
    "Ġinternal": 2247,
    "compl": 6873,
    "Ġimpropri": 14220,
    "ardy": 22160,
    "Ġens": 2789,
    "Ġjuggler": 26368,
    "Ġextraordinary": 5414,
    "Ġhelm": 5276,
    "Ġfoaming": 18992,
    "Ġarts": 11010,
    "Ġnote": 4263,
    "irm": 3109,
    "Ġtrifled": 24675,
    "Ġsingled": 23775,
    "Ô": 149,
    "master": 5687,
    "Ġtoss": 10187,
    "Ġstubb": 1788,
    "Ġ}": 21156,
    "Ġinattention": 17934,
    "Ġgenus": 24429,
    "belled": 24039,
    "Ġpractises": 23305,
    "Ġbrace": 11213,
    "placed": 7878,
    "Ġbeards": 21755,
    "Ġriv": 10748,
    "Ġmake": 1284,
    "Ġduchess": 4799,
    "Ġlizzy": 3547,
    "Ġ1807": 26084,
    "acetty": 24464,
    "Ġmonstrous": 7790,
    "Ġwork": 1313,
    "digger": 24312,
    "ffic": 22155,
    "Ġoccasion": 3249,
    "things": 6034,
    "Ġfinancial": 23133,
    "Ġlandsman": 11352,
    "et": 307,
    "²": 115,
    "Ġperforming": 7928,
    "Ġcontin": 5382,
    "Ġdefinitions": 22947,
    "comprehend": 14362,
    "ter": 359,
    "obvious": 9360,
    "Ġdears": 18139,
    "Ġimpul": 7208,
    "guilty": 19486,
    "staff": 21659,
    "engagements": 25855,
    "dismal": 23499,
    "pumps": 21029,
    "tart": 21070,
    "Ġsinking": 7307,
    "Ġsupreme": 13611,
    "giv": 13725,
    "Ġaccompaniments": 24482,
    "venor": 16104,
    "Ġprejudice": 9078,
    "eous": 13715,
    "Ġranks": 21976,
    "Ġflog": 23624,
    "Ġsource": 6806,
    "Ġmoonlight": 9961,
    "Ġtuning": 3075,
    "Ġflourish": 17163,
    "Ġgrie": 3585,
    "gh": 3802,
    "Ġbiscuit": 12594,
    "Ġstores": 18071,
    "horse": 8609,
    "uated": 10134,
    "Ġinher": 10182,
    "user": 5104,
    "Ġtreacherous": 13558,
    "Ġdeterminate": 23009,
    "rocket": 13947,
    "Ġundoubtedly": 8313,
    "Ġundulating": 19520,
    "Ġ120": 16860,
    "domestic": 19828,
    "asible": 21545,
    "audible": 17135,
    "Ġxii": 11995,
    "security": 26208,
    "ness": 852,
    "Ġbu": 3685,
    "Ġconvolutional": 2162,
    "Ġted": 13815,
    "inch": 10757,
    "kilt": 4866,
    "Ġpresent": 1639,
    "Ġcherish": 10592,
    "sue": 2076,
    "idled": 21772,
    "Ġintrusion": 12770,
    "Ġhide": 4587,
    "ely": 625,
    "Ġetern": 7087,
    "Ġwharves": 13509,
    "bled": 5469,
    "els": 1766,
    "Ġrevisit": 21673,
    "Ġbinding": 20422,
    "Ġtwopence": 18661,
    "vanished": 15063,
    "Ġrepublican": 17415,
    "Ġdeployment": 11193,
    "eu": 17532,
    "jar": 17579,
    "Ġchilled": 18383,
    "Ġconcent": 8250,
    "Ġtal": 7564,
    "Ġfanning": 23393,
    "Ġquestion": 2777,
    "jointed": 24013,
    "Ġalcoves": 26488,
    "Ġcock": 11002,
    "Ġbreast": 8971,
    "Ġchemical": 10412,
    "Ġtruest": 16702,
    "Ġwatched": 6299,
    "Ġorgies": 18286,
    "Ġshetland": 22163,
    "Ġpopularly": 12246,
    "musical": 25341,
    "Ġlighting": 13087,
    "id": 338,
    "stead": 10848,
    "pig": 8756,
    "Ġarc": 14165,
    "increasing": 20272,
    "Ġinfinity": 23286,
    "pol": 5894,
    "Ġemig": 14526,
    "Ġhelpless": 8302,
    "aken": 1869,
    "ounix": 14163,
    "Ġincensed": 18573,
    "emotions": 15801,
    "Ġautonom": 10417,
    "quake": 11682,
    "Ġsilken": 16385,
    "ues": 2079,
    "Ġadviser": 25313,
    "consciously": 19628,
    "Ġequilib": 4135,
    "mystical": 25318,
    "rop": 539,
    "umerable": 11729,
    "Ġribbed": 16806,
    "Ġearnest": 3928,
    "Ġsteadfast": 8682,
    "Ġwires": 21298,
    "ceptibly": 22370,
    "Ġauthors": 10418,
    "Ġinfallibly": 10044,
    "Ġlazily": 11382,
    "tube": 20414,
    "Ġsolemnity": 9944,
    "Ġcoronation": 13338,
    "Ġovertake": 15970,
    "Ġgreeted": 23216,
    "inordinate": 21197,
    "Ġthose": 1174,
    "vellers": 16676,
    "Ġlearned": 2025,
    "Ġclo": 6046,
    "Ġess": 5691,
    "Ġlinks": 13958,
    "Ġuncle": 3193,
    "Ġcountryside": 23598,
    "Ġrequire": 882,
    "Ġ113": 19699,
    "Ġweariness": 19797,
    "Ġnecessity": 7296,
    "interrupted": 11419,
    "jonah": 11499,
    "Ġveget": 11890,
    "crucible": 24843,
    "Ġaccomplishments": 13383,
    "umbs": 14692,
    "Ġcolours": 12979,
    "visited": 13352,
    "Ġurged": 6782,
    "dignity": 15349,
    "Ġintervals": 5598,
    "ulent": 21866,
    "Ġbal": 1134,
    "gang": 17555,
    "Ġunguarded": 15854,
    "Ġfragmentary": 25857,
    "Ġmourn": 8707,
    "Ġgust": 21600,
    "onet": 12550,
    "lesc": 11040,
    "Ġtalked": 4419,
    "Ġvines": 12756,
    "Ġenjoying": 11236,
    "Ġtrophy": 20010,
    "Ġtravellers": 11310,
    "Ġstorm": 4300,
    "Ġcontinents": 16851,
    "Ġabusive": 22277,
    "Ġgroup": 2039,
    "Ġhonestly": 19975,
    "Ġmic": 17799,
    "Ġswashing": 23059,
    "Ġcampa": 17176,
    "erative": 21275,
    "Ġdeparture": 6491,
    "Ġgas": 8133,
    "desire": 14664,
    "Ġenlarge": 21939,
    "Ġwoes": 23989,
    "Ġale": 9157,
    "century": 20050,
    "Ġ2026": 12339,
    "Ġanon": 9669,
    "Ġpersuaded": 5769,
    "Ġmurder": 4280,
    "Ġdismal": 11814,
    "edd": 1220,
    "drive": 8686,
    "vapor": 25756,
    "adequately": 20322,
    "Ġtooth": 9195,
    "Ġbreat": 3461,
    "hope": 5991,
    "Ġexamples": 2603,
    "reasonable": 7752,
    "Ġcharnel": 22256,
    "separation": 25227,
    "Ġstarbuck": 2194,
    "iability": 20922,
    "Ġcombat": 16188,
    "Ġstupidity": 15052,
    "liter": 11504,
    "Ġwilliam": 3482,
    "Ġpeaceable": 14726,
    "aphys": 15205,
    "Ġsince": 1797,
    "art": 576,
    "Ġlively": 5449,
    "ue": 1179,
    "Ġjingling": 26018,
    "es": 289,
    "Ġsurp": 9637,
    "Ġdrives": 14579,
    "collinses": 19925,
    "Ġcases": 3959,
    "Ġvanishing": 1344,
    "Ġforeseen": 16442,
    "nurtured": 25525,
    "anely": 17838,
    "crier": 20822,
    "Ġghostliness": 24652,
    "aming": 5829,
    "uting": 15664,
    "Ġperformance": 1305,
    "oppressed": 24821,
    "aled": 3942,
    "broke": 14782,
    "Ġpursuing": 9441,
    "morning": 4859,
    "Ġflash": 8230,
    "Ġamateur": 22489,
    "._]]": 5335,
    "knife": 6942,
    "remains": 10401,
    "Ġhousehold": 8571,
    "gunw": 17223,
    "Ġthickening": 24027,
    "Ġmillar": 13864,
    "unalterable": 21890,
    "Ġman": 544,
    "Ġmiseries": 10349,
    "Ġmouth": 3180,
    "attempt": 9363,
    "anelles": 26436,
    "oir": 21004,
    "heaved": 21213,
    "porary": 14552,
    "bergen": 14339,
    "Ġconcerning": 4065,
    "Ġuntrodden": 23523,
    "inery": 17735,
    "beyond": 8886,
    "really": 6972,
    "Ġpresents": 8245,
    "icted": 5938,
    "infernal": 24663,
    "rights": 23678,
    "Ġessays": 19747,
    "Ġrecklessly": 16985,
    "following": 10575,
    "Ġmonosy": 18853,
    "Ġdoctor": 5066,
    "unching": 18161,
    "woof": 21142,
    "Ġon": 350,
    "libr": 22926,
    "Ġberkshire": 16886,
    "Ġorganisation": 23585,
    "Ġgates": 10203,
    "Ġarrange": 3122,
    "Ġconcl": 5094,
    "Ġbabies": 19695,
    "Ġsen": 9159,
    "gentlemanlike": 20005,
    "Ġstocks": 23179,
    "Ġregards": 16077,
    "Ġnuptials": 20497,
    "frantic": 24285,
    "lower": 8884,
    "consult": 24172,
    "Ġes": 8773,
    "Ġmoonshine": 19600,
    "Ġgriefs": 16773,
    "screw": 9350,
    "Ġinevitably": 17233,
    "Ġsuccess": 3612,
    "Ġgreenland": 5761,
    "follows": 24528,
    "odhead": 18123,
    "gown": 9599,
    "Ġspoken": 4837,
    "consol": 9765,
    "Ġparlour": 12325,
    "Ġisrael": 21807,
    "Ġstudies": 7956,
    "anxiously": 15114,
    "Ġridiculous": 10631,
    "Ġsevere": 6033,
    "Ġtroub": 22348,
    "Ġturning": 3328,
    "Ġcre": 888,
    "Ġcompanions": 5867,
    "fere": 10991,
    "wretchedness": 17255,
    "Ġbelonged": 6922,
    "Ġallowed": 4055,
    "cottagers": 20051,
    "Ġinterp": 16078,
    "Ġsquire": 16183,
    "hour": 7340,
    "Ġhorsham": 10408,
    "....": 11318,
    "favour": 9552,
    "Ġstair": 8457,
    "residual": 19264,
    "garious": 17560,
    "ther": 481,
    "Ġawa": 7714,
    "excepting": 19709,
    "Ġpilot": 5986,
    "circumamb": 26088,
    "Ġbenevolent": 7773,
    "Ġsigns": 2443,
    "gen": 6504,
    "Ġquantization": 19856,
    "Ġunholy": 26220,
    "jammed": 25907,
    "Ġdoleful": 18378,
    "======": 9836,
    "devilish": 17083,
    "dred": 2526,
    "enes": 5218,
    "Ġcovers": 18598,
    "20": 20755,
    "mantel": 26396,
    "Ġsuburban": 17349,
    "Ġlip": 6534,
    "Ġpods": 17915,
    "seven": 8466,
    "Ġwall": 3843,
    "Ġporpoise": 7108,
    "Ġdisput": 14258,
    "Ġalt": 18101,
    "adamite": 20596,
    "æ": 167,
    "conscience": 14863,
    "Ġsized": 11565,
    "Ġbouton": 17870,
    "_.âĢĿ": 5887,
    "Ġnaturalists": 10364,
    "etimes": 1989,
    "itt": 570,
    "Ġproverb": 12721,
    "Ġdreamy": 14706,
    "Ġgrey": 4510,
    "Ġlocket": 22117,
    "Ġunallied": 22036,
    "Ġmacey": 12568,
    "pled": 7892,
    "Ġbeyond": 2458,
    "ckets": 6843,
    "Ġhush": 13215,
    "Ġ54": 24318,
    "anque": 13891,
    "Ġeloped": 22655,
    "Ġwidow": 8666,
    "Ġbaked": 21389,
    "Ġadjusted": 23459,
    "Ġseething": 18204,
    "Ġseethings": 26505,
    "Ġrescued": 24209,
    "Ġarctic": 12817,
    "Ġdreams": 7496,
    "reluct": 26164,
    "Ġgetting": 4062,
    "Ġchristendom": 16696,
    "ĠĠĠĠĠĠĠĠĠĠĠĠĠĠĠĠĠĠĠĠĠĠĠĠĠĠĠĠĠĠĠĠĠĠĠĠĠĠĠĠ": 4514,
    "iguous": 18047,
    "rogress": 21539,
    "Ġbuckets": 17035,
    "Ġlarge": 1063,
    "arm": 1357,
    "splash": 25210,
    "Ġimpreg": 15991,
    "Ġmister": 22758,
    "Ġfocuses": 8653,
    "Ġmusky": 19385,
    "emorial": 10246,
    "Ġswiss": 18884,
    "deployment": 26529,
    "Ġglory": 6066,
    "Ġdazzling": 15215,
    "Ġpeculiar": 3153,
    "err": 1142,
    "urged": 18051,
    "Ġwounding": 19589,
    "Ġmant": 9650,
    "Ġwhitney": 11375,
    "rumours": 23924,
    "onian": 17769,
    "Ġdeeper": 2083,
    "hmael": 7342,
    "Ġwhichever": 14003,
    "Ġcommonplaces": 16292,
    "move": 11858,
    "Ġdelighted": 5499,
    "Ġconvulsive": 19308,
    "attain": 21264,
    "Ġfortunate": 6216,
    "ooped": 17625,
    "Ġhurrying": 11999,
    "ration": 2005,
    "Ġthough": 992,
    "Ġglist": 9348,
    "Ġhinge": 25542,
    "Ġmod": 496,
    "Ġintercepted": 25828,
    "Ġdoctrine": 24200,
    "Ġtexel": 25924,
    "Ġhon": 2537,
    "xology": 21144,
    "Ġolder": 9330,
    "organic": 25947,
    "Ġgraze": 18227,
    "Ġafloat": 9311,
    "Ġknights": 15153,
    "Ġmasses": 10506,
    "rade": 9682,
    "vul": 15451,
    "stating": 21650,
    "Ġprompt": 3189,
    "Ġeasiness": 23537,
    "Ġlocker": 16913,
    "Ġfriendly": 9823,
    "Ġdeputation": 21843,
    "functions": 11255,
    "Ġadmiring": 16482,
    "Ġlevelled": 11286,
    "Ġprotect": 6339,
    "Ġceti": 24772,
    "Ġquarrels": 16569,
    "Ġdwelling": 7322,
    "ascal": 10195,
    "Ġmiriam": 25274,
    "Ġseparately": 13307,
    "Ġappo": 8500,
    "drovand": 24759,
    "Ġgamesome": 17292,
    "Ġ126": 24471,
    "Ġextremities": 19198,
    "reement": 15514,
    "Ġmutable": 23958,
    "Ġaband": 6563,
    "Ġextort": 22748,
    "Ġrelaxed": 12989,
    "Ġplough": 18609,
    "Ġforeheads": 23449,
    "Ġlogic": 13082,
    "Ġhinges": 15216,
    "Ġcreeping": 18682,
    "liv": 9610,
    "infidel": 24664,
    "dr": 6223,
    "Ġmushroom": 13240,
    "Ġrh": 9247,
    "marest": 20982,
    "lances": 15387,
    "Ġcarav": 18903,
    "Ġforster": 5230,
    "Ġconsecutive": 20705,
    "Ġporing": 21469,
    "Ġgenerates": 3667,
    "Ġignorantly": 19498,
    "Ġhonors": 23603,
    "Ġloosened": 26003,
    "Ġhollow": 5648,
    "Ġunnearable": 26518,
    "onde": 21254,
    "Ġsprout": 24091,
    "Ġreligion": 11417,
    "Ġbusily": 9388,
    "gird": 20881,
    "Ġapproximation": 2341,
    "presbyterian": 26370,
    "also": 7851,
    "critical": 19499,
    "Ġstraightened": 12113,
    "Ġtennessee": 26598,
    "Ġelij": 8913,
    "Ġriotous": 20547,
    "Ġwheeling": 18287,
    "Ġscorching": 20071,
    "dragging": 16611,
    "Ġtortoise": 16910,
    "Ġdistance": 3483,
    "Ġdevoted": 6575,
    "oning": 7572,
    "Ġtrough": 15967,
    "volous": 18583,
    "Ġmanner": 2196,
    "suspicious": 25391,
    "Ġdraw": 3674,
    "Ġiroquois": 26474,
    "Ġelated": 18643,
    "Ġbathed": 17867,
    "Ġgenuine": 14888,
    "Ġthou": 1811,
    "snap": 24849,
    "Ġstoried": 18075,
    "Ġsmooth": 2778,
    "Ġexpecting": 10438,
    "devils": 20036,
    "departure": 15238,
    "Ġoutline": 15958,
    "Ġdeplored": 20508,
    "Ġmonsie": 11449,
    "Ġmind": 1617,
    "Ġupbra": 22158,
    "Ġhandkerchief": 8917,
    "bitt": 17488,
    "precaution": 23826,
    "Ġapplications": 4783,
    "Ġlearnedly": 23389,
    "Ġdisregarded": 22534,
    "wheels": 14384,
    "Ġmassive": 9935,
    "Ġcommunion": 19011,
    "Ġdiddled": 22670,
    "Ġplaything": 19239,
    "Ġdescribed": 6608,
    "Ġlullaby": 20591,
    "satisfied": 10581,
    "Ġunful": 22015,
    "Ġringing": 13336,
    "bare": 12445,
    "Ġrewarding": 13441,
    "Ġencoder": 3637,
    "Ġscra": 5842,
    "Ġliving": 3065,
    "bedstead": 23935,
    "races": 21633,
    "Ġbiography": 22765,
    "Ġsuspicions": 9482,
    "Ġleads": 12101,
    "Ġardu": 22193,
    "Ġagainst": 1698,
    "trap": 24334,
    "Ġmiguel": 25767,
    "Ġunostentatious": 22073,
    "islands": 21379,
    "bery": 9796,
    "Ġorbs": 22096,
    "france": 24284,
    "inated": 6805,
    "Ġmincing": 18754,
    "Ġmidday": 23634,
    "Ġdelivery": 18975,
    "trees": 10733,
    "Ġwaxed": 21300,
    "Ġeven": 1028,
    "Ġimproves": 22720,
    "Ġpacifics": 24373,
    "unwillingness": 25803,
    "ents": 1896,
    "Ġtube": 15005,
    "alyards": 18786,
    "Ġtwelfth": 22681,
    "mble": 1408,
    "vine": 10736,
    "Ġheaved": 9386,
    "Ġpurposely": 10446,
    "Ġbeings": 2489,
    "opÃ¦": 12878,
    "Ġtoilings": 24741,
    "Ġtill": 1825,
    "Ġdriving": 3619,
    "eag": 20844,
    "fing": 13716,
    "king": 3062,
    "Ġblank": 5952,
    "Ġanger": 5442,
    "Ġclutching": 24954,
    "Ġfinding": 3267,
    "Ġputs": 19036,
    "bib": 17494,
    "Ġmorsel": 20680,
    "Ġrending": 19470,
    "fiercely": 25257,
    "neighbours": 24882,
    "Ġcondesc": 7182,
    "allowing": 24358,
    "Ġcachalot": 17836,
    "bly": 6112,
    "Ġbeggars": 20632,
    "conducted": 25573,
    "Ġforbearance": 12332,
    "calmed": 16207,
    "eenth": 12465,
    "Ġexhaustion": 14964,
    "fr": 4804,
    "din": 8374,
    "contents": 12062,
    "charitable": 23936,
    "Ġpitied": 14694,
    "Ġpresto": 22234,
    "safety": 20352,
    "wheeler": 16191,
    "Ġdirecting": 16303,
    "aphs": 22339,
    "Ġanalogy": 25640,
    "Ġvisitor": 5331,
    "better": 7121,
    "Ġ1825": 25719,
    "Ġinscrutable": 10675,
    "Ġsebastian": 11702,
    "considered": 9583,
    "Ġderives": 16311,
    "ribut": 814,
    "unwilling": 14064,
    "bask": 20778,
    "Ġmonoman": 7939,
    "kye": 20940,
    "Ġwishing": 7830,
    "ong": 537,
    "Ġrejoiced": 8687,
    "Ġinput": 609,
    "rivial": 9437,
    "Ġxxxvi": 24972,
    "Ġyork": 11668,
    "Ġphantoms": 13490,
    "ensical": 18569,
    "Ġprehens": 22235,
    "Ġgrowing": 6752,
    "Ġfirmness": 11239,
    "Ġbent": 5149,
    "fit": 6648,
    "Ġexplanation": 6694,
    "Ġdefects": 12337,
    "Ġchrysalis": 26540,
    "Ġstru": 2171,
    "Ġperil": 5557,
    "andam": 10890,
    "fixedly": 24930,
    "pie": 21013,
    "tranqu": 14709,
    "Ġnoise": 1068,
    "Ġswept": 7978,
    "Ġeucl": 24708,
    "afraid": 10443,
    "Ġprosperity": 20260,
    "Ġjest": 18404,
    "Ġbruited": 25774,
    "Ġawoke": 7286,
    "queequeg": 4333,
    "envelope": 17784,
    "Ġmin": 1027,
    "onings": 21255,
    "mentioning": 24886,
    "Ġkrempe": 10672,
    "Ġshortly": 6198,
    "Ġhor": 1662,
    "Ġcumulative": 4211,
    "Ġmotives": 7486,
    "dis": 2251,
    "Ġadvent": 4355,
    "Ġstoop": 16313,
    "Ġfishes": 11594,
    "rael": 21632,
    "Ġagitates": 22521,
    "Ġelbows": 18645,
    "Ġminimize": 7052,
    "twelvemonth": 25863,
    "Ġduties": 6611,
    "Ġmincer": 14369,
    "Ġhanged": 17927,
    "Ġtheore": 1830,
    "wished": 13808,
    "Ġreads": 23116,
    "Ġdardanelles": 26445,
    "illity": 18297,
    "atively": 2696,
    "oriented": 2950,
    "Ġpitch": 5767,
    "Ġwoollen": 12108,
    "joint": 24012,
    "nlp": 8754,
    "Ġreminiscences": 26271,
    "Ġgloomy": 7504,
    "Ġslit": 13062,
    "Ġsang": 12540,
    "Ġdiscriminator": 3392,
    "Ġgreece": 17070,
    "omed": 13978,
    "proachable": 23401,
    "Ġobeying": 13418,
    "Ġgestic": 21611,
    "Ġethere": 23954,
    "Ġbrahma": 26321,
    "Ġflint": 23015,
    "Ġmoments": 4846,
    "Ġyon": 9696,
    "Ġcollapsed": 15085,
    "Ġpuppy": 12409,
    "tot": 10730,
    "Ġut": 2279,
    "swear": 16920,
    "Ġovertaken": 18426,
    "sively": 13789,
    "arches": 10818,
    "Ġincreasing": 8248,
    "altering": 12645,
    "eneva": 5118,
    "Ġpostscript": 14811,
    "endeav": 7151,
    "fly": 13717,
    "fearfully": 25119,
    "Ġimperial": 9484,
    "gro": 10097,
    "Ġgrammatical": 13542,
    "Ġmumbled": 17809,
    "uncont": 15778,
    "Ġaudio": 24771,
    "Ġbourgh": 5068,
    "gazing": 12476,
    "Ġjour": 11768,
    "Y": 61,
    "Ġi": 312,
    "sailor": 14718,
    "ough": 471,
    "Ġbackward": 7655,
    "mouth": 9133,
    "Ġsne": 6373,
    "induce": 22378,
    "Ġfinally": 4666,
    "theast": 21752,
    "Ġperfections": 23610,
    "Ġrestoration": 19031,
    "Ġescaping": 13139,
    "Ġshrew": 22004,
    "Ġexhibit": 14959,
    "Ġgirdled": 19161,
    "Ġundoubted": 19517,
    "agrad": 2746,
    "accomplished": 17214,
    "Ġslides": 18941,
    "Ġmetallic": 19066,
    "Ġcastors": 23979,
    "Ġponies": 21478,
    "Ġign": 8295,
    "Ġ60": 14878,
    "Ġpenetration": 19919,
    "Ġhob": 12634,
    "Ġnat": 12650,
    "Ġcomple": 2843,
    "breakfast": 8691,
    "F": 42,
    "Ġphilipses": 24452,
    "Ġnorth": 4318,
    "scans": 22992,
    "ryphon": 4162,
    "Ġheedless": 14906,
    "Ġabsurd": 7202,
    "osis": 18390,
    "Ġsystem": 589,
    "Ġdecipher": 22450,
    "Ġwat": 1287,
    "Ġfellows": 8257,
    "Ġhonorable": 16878,
    "Ġrevive": 13483,
    "Ġinform": 998,
    "exped": 16527,
    "Ġwire": 13855,
    "angel": 5726,
    "winding": 16722,
    "Ġwhitt": 18057,
    "poss": 4778,
    "Ġcontrast": 2118,
    "ience": 794,
    "Ġintelligences": 12836,
    "sory": 17661,
    "anter": 9169,
    "Ġgravely": 7883,
    "Ġtwitching": 25684,
    "Ġchoice": 2166,
    "Ġmud": 11576,
    "Ġtrain": 514,
    "Ġcompared": 2229,
    "kee": 18274,
    "Ġnapoleons": 25886,
    "strangely": 17279,
    "177": 20754,
    "corrob": 24485,
    "Ġtwist": 11855,
    "inea": 7624,
    "hundred": 8331,
    "vember": 10857,
    "keenest": 25662,
    "Ġsugg": 4497,
    "Ġrejecting": 17052,
    "regularly": 13212,
    "backs": 9394,
    "Ġinfinite": 8580,
    "consider": 6350,
    "Ġpreliminaries": 25177,
    "Ġwronged": 24250,
    "fancy": 7337,
    "_:": 17481,
    "matlock": 23471,
    "Ġransacked": 26506,
    "Ġgenteel": 19984,
    "Ġawait": 17074,
    "Ġheat": 5453,
    "Ġwithhold": 18118,
    "Ġmitigating": 1615,
    "Ġbeneficial": 23934,
    "Ġclimes": 12849,
    "Ġpenalties": 10414,
    "jumping": 20248,
    "proper": 7471,
    "Ġinsist": 9892,
    "ivorous": 22084,
    "aut": 1912,
    "Ġunfolding": 17087,
    "seldom": 13790,
    "icable": 6389,
    "unks": 15779,
    "Ġdost": 7637,
    "Ġcapsizing": 20092,
    "noted": 22750,
    "Ġgraces": 18226,
    "Ġdesirable": 8944,
    "will": 1969,
    "changed": 7176,
    "Ġforetold": 23452,
    "sher": 5217,
    "Ġslack": 8958,
    "unken": 10239,
    "Ġsaleve": 17394,
    "neurons": 3136,
    "Ġshaft": 18230,
    "inctions": 17734,
    "Ġloun": 7167,
    "D": 40,
    "crippled": 26386,
    "Ġ(_": 3738,
    "Ġtreble": 16505,
    "Ġcollecting": 12290,
    "fortun": 3539,
    "urday": 13998,
    "Ġpeasants": 12336,
    "ĠâĢĶ": 13814,
    "regularization": 3515,
    "Ġdemanding": 16807,
    "Ġmutters": 23959,
    "urous": 10215,
    "destroy": 19513,
    "alid": 13938,
    "Ġclassify": 1717,
    "Ġdromedary": 17442,
    "rann": 21047,
    "Ġstraighten": 24007,
    "Ġtrue": 1338,
    "Ġ/*": 10142,
    "probably": 10023,
    "Ġinterpretation": 19719,
    "Ġselling": 21227,
    "p": 84,
    "bons": 17489,
    "Ġmim": 3107,
    "confid": 14870,
    "punctual": 26357,
    "brad": 20782,
    "Ġsuch": 793,
    "comparatively": 25841,
    "Ġhunting": 7259,
    "Ġcellar": 8059,
    "Ġapt": 9158,
    "Ġconducted": 10505,
    "Ġdisordered": 16058,
    "Ġhalls": 19528,
    "itating": 9653,
    "Ġtransparency": 10679,
    "Ġamerica": 6764,
    "Ġnav": 5819,
    "Ġchalk": 15937,
    "Ġtandem": 26413,
    "steady": 14712,
    "Ġpitches": 23905,
    "Ġstretched": 5921,
    "Ġantiquities": 25599,
    "Ġaspects": 4172,
    "Ġfind": 1458,
    "Ġpluck": 15618,
    "thou": 4709,
    "Ġ34": 16679,
    "itative": 13873,
    "Ġbraced": 16582,
    "Ġboundless": 10498,
    "Ġbeard": 11658,
    "acid": 10996,
    "ladies": 9532,
    "leather": 13893,
    "legra": 10791,
    "/*": 10074,
    "Ġmil": 4254,
    "dipped": 20839,
    "Ġcoun": 4177,
    "doubted": 17528,
    "Ġtumultuous": 10618,
    "Ġsupple": 23004,
    "Ġcourse": 2130,
    "Ġignited": 25072,
    "Ġpainfully": 13146,
    "ulity": 10888,
    "esting": 7412,
    "Ġblock": 2575,
    "Ġlatter": 3986,
    "Ġshuddered": 11302,
    "Ġturk": 6605,
    "Ġlog": 1677,
    "Ġprogen": 14042,
    "Ġclap": 10961,
    "ric": 1376,
    "Ġassumptions": 5517,
    "Ľ": 254,
    "Ġcolleague": 17162,
    "Ġmississippi": 20727,
    "precedented": 15178,
    "deeply": 16182,
    "Ġfortifications": 23622,
    "Ġeffusions": 18540,
    "mus": 10113,
    "Ġ----": 7146,
    "Ġsauc": 15892,
    "izer": 2031,
    "Ġdiminishing": 4209,
    "Ġbarnacled": 25537,
    "Ġspoon": 22139,
    "etting": 21583,
    "Ġcedar": 15192,
    "Ġgrinned": 16859,
    "mblings": 19783,
    "Ġapprobation": 10986,
    "Ġmagnitudes": 3823,
    "hauteur": 26393,
    "Ġduncan": 13465,
    "Ġalternate": 19989,
    "Ġframe": 1858,
    "Ġbiological": 1933,
    "amet": 587,
    "Ġcaravan": 26292,
    "Ġmidst": 7986,
    "Ġmidnight": 5266,
    "oso": 12835,
    "Ġunexpected": 6841,
    "always": 5708,
    "ential": 824,
    "Ġabstracted": 17185,
    "torn": 17684,
    "iters": 21332,
    "occasional": 19579,
    "mag": 6509,
    "Ġcasts": 19429,
    "shoes": 14243,
    "nals": 16399,
    "rap": 21631,
    "Ġmarry": 4416,
    "lantic": 6365,
    "Ġbow": 3063,
    "Ġfinest": 10395,
    "omnipotent": 25965,
    "Ġsurpass": 13587,
    "Ġdemands": 19641,
    "missed": 11211,
    "afer": 17484,
    "ousings": 18336,
    "Ġfiled": 15584,
    "Ġtelesc": 12997,
    "ority": 8419,
    "Ġhesitating": 16949,
    "Ġjolly": 6858,
    "Ġbethinking": 25280,
    "once": 5905,
    "Ġcomplaint": 24775,
    "Ġlot": 6680,
    "Åĵuv": 15186,
    "min": 4569,
    "lungs": 26136,
    "Ġactionable": 24560,
    "Ġhun": 1494,
    "Ġstronger": 8582,
    "Ġhanover": 20589,
    "Ġafrica": 12349,
    "abetical": 15747,
    "clothes": 9060,
    "Ġhasten": 10480,
    "Ġdesolated": 24809,
    "Ġforeb": 12008,
    "Ġ124": 24469,
    "rifled": 21050,
    "witted": 17709,
    "Ġdubious": 17386,
    "ither": 1541,
    "Ġoccasional": 7289,
    "Ġdimmed": 24270,
    "Ġethiopian": 26615,
    "Ġcrows": 24034,
    "Ġperemptory": 25741,
    "health": 13836,
    "Ġaffability": 14390,
    "Ġs": 265,
    "Ġvineyard": 12334,
    "Ġconsiderations": 9413,
    "Ġsevered": 18206,
    "Ġmo": 629,
    "Ġcomputing": 2220,
    "Ġlounging": 10025,
    "Ġretrogress": 23076,
    "ifted": 4492,
    "Ġforg": 3789,
    "became": 10517,
    "ruct": 687,
    "Ġaqu": 17744,
    "Ġbradstreet": 9579,
    "blown": 25202,
    "Ġbake": 21385,
    "Ġgem": 21597,
    "Ġcasc": 15560,
    "Ġvibrating": 13541,
    "Ġsecurely": 16804,
    "Ġbreckinridge": 14525,
    "Ġcolleg": 22854,
    "Ġprivacy": 19527,
    "lascar": 20962,
    "jol": 20927,
    "Ġpurport": 14582,
    "Ġarrangement": 2658,
    "Ġpursuers": 13231,
    "disputed": 23502,
    "Ġcosmetic": 23473,
    "anations": 12581,
    "ination": 2916,
    "Ġredden": 15698,
    "clu": 20801,
    "floating": 12232,
    "uendoes": 26409,
    "Ġstaple": 26200,
    "Ġprick": 14480,
    "Ġsequences": 1753,
    "Ġalmanac": 26487,
    "ĠĠĠĠĠĠĠĠĠĠĠĠĠĠĠĠĠ": 22952,
    "Ġheedful": 19743,
    "pless": 6262,
    "Ġparaph": 22124,
    "Ġref": 912,
    "Ġefficient": 1048,
    "Ġfullest": 14817,
    "Ġconverts": 2806,
    "haps": 1671,
    "Ġciv": 3310,
    "vid": 916,
    "Ġsteel": 3888,
    "chosen": 21698,
    "during": 6788,
    "Ġdrug": 11412,
    "Ġinvented": 17038,
    "carp": 9113,
    "monsters": 19173,
    "hap": 17561,
    "Ġsuggestion": 19710,
    "Ġgest": 8134,
    "ersman": 11703,
    "Ġdeceitful": 25733,
    "Ġspong": 15886,
    "irements": 22214,
    "Ġdo": 512,
    "Ġtattered": 21174,
    "Ġunhappily": 18263,
    "four": 6115,
    "uding": 16152,
    "arrival": 15604,
    "Ġhap": 18196,
    "Ġeddying": 17119,
    "Ġchannel": 26013,
    "uy": 21102,
    "Ġmanhat": 22331,
    "Ġresigned": 9771,
    "Ġeloquence": 11848,
    "Ġskiff": 16168,
    "Ġpent": 17903,
    "singular": 12193,
    "Ġlike": 668,
    "ateness": 15523,
    "Ġphaet": 16320,
    "Ġsincer": 13071,
    "cils": 20816,
    "Ġforests": 13596,
    "Ġdiscreet": 16484,
    "particulars": 11317,
    "observed": 7675,
    "bureau": 20791,
    "leagued": 26437,
    "ĠâĢĶâĢĶ": 25758,
    "isite": 15567,
    "Ġcollege": 11426,
    "Ġabutted": 22279,
    "Ġfreedom": 9085,
    "ara": 12611,
    "Ġexpressive": 8985,
    "Ġvibrated": 25048,
    "Ġadmit": 7711,
    "immed": 9220,
    "Ġsphy": 18312,
    "Ġpenalizing": 13096,
    "Ġlivel": 11357,
    "scissors": 20729,
    "paddington": 20481,
    "ww": 10739,
    "fishermen": 17062,
    "Ġgomorrah": 21618,
    "represent": 9640,
    "Ġtis": 15468,
    "narrated": 25622,
    "Ġmonitors": 3157,
    "Ġpangs": 15619,
    "otle": 21801,
    "Ġpup": 12624,
    "Ġdownstream": 3776,
    "Ġsteepest": 3090,
    "Ġcheapside": 23292,
    "bordered": 17501,
    "Ġrout": 7402,
    "Ġtens": 17725,
    "Ġsocks": 14134,
    "bacc": 7795,
    "Ġtattooing": 15030,
    "Ġmounttop": 19981,
    "ert": 2630,
    "Ġvigorously": 11301,
    "Ġmillion": 14990,
    "Ġextend": 18695,
    "Ġskul": 22799,
    "Ġintervene": 25481,
    "Ġrefers": 1562,
    "carte": 25401,
    "ynolds": 10039,
    "Ġdisclosed": 15157,
    "plutarch": 21961,
    "Ġbubbling": 17329,
    "Ġaccess": 9750,
    "vent": 682,
    "Ġceremonies": 24837,
    "Ġtoken": 2040,
    "note": 14343,
    "manners": 16187,
    "Ġfashion": 4297,
    "Ġclapping": 14209,
    "stained": 21658,
    "a": 69,
    "Ġtobacco": 8367,
    "Ġwithin": 2163,
    "bodily": 17318,
    "endeavour": 17032,
    "Ġnetwork": 451,
    "Ġgorgeous": 20470,
    "nt": 921,
    "land": 1527,
    "utmost": 21591,
    "Ġder": 1496,
    "versed": 9828,
    "riet": 18183,
    "Ġought": 3420,
    "Ġtribes": 20484,
    "lac": 17591,
    "recover": 24623,
    "erness": 6436,
    "Ġsig": 867,
    "Ġharvard": 24574,
    "ira": 3956,
    "Ġai": 3129,
    "istence": 2334,
    "Ġauthorities": 11266,
    "Ġdecently": 22446,
    "kind": 3863,
    "Ġstack": 21737,
    "evid": 11487,
    "ouses": 5163,
    "Ġvow": 10249,
    "prick": 19346,
    "Ġhurling": 19112,
    "Ġtangle": 25761,
    "ice": 586,
    "inian": 21185,
    "smile": 23909,
    "Ġernest": 8720,
    "Ġrejoinder": 24598,
    "scorn": 22994,
    "Ġstar": 6024,
    "onely": 6517,
    "hast": 5358,
    "Ġstamp": 7864,
    "Ġallow": 1129,
    "Ġspending": 10926,
    "announced": 19762,
    "Ġmourning": 13482,
    "harpooneers": 8693,
    "Ġrnns": 2395,
    "icions": 21566,
    "Ġexaggerate": 25650,
    "Ġchancing": 22252,
    "Ġtossed": 5816,
    "walks": 19724,
    "each": 7335,
    "Ġsavor": 23878,
    "Ġ18": 3407,
    "retreat": 23142,
    "Ġraging": 14308,
    "Ġcyn": 13889,
    "Ġnomin": 10193,
    "eting": 7170,
    "Ġga": 4444,
    "Ġfresh": 3673,
    "Ġinsomuch": 23686,
    "Ġmach": 13860,
    "cano": 18842,
    "Ġappalled": 22220,
    "ruined": 18338,
    "Ġrandom": 1586,
    "harb": 9126,
    "sch": 21053,
    "supplemental": 25875,
    "Ġusing": 720,
    "Ġconc": 1842,
    "Ġpreference": 9736,
    "cause": 7796,
    "don": 3545,
    "Ġcanada": 22169,
    "Ġfrancis": 26064,
    "Ġmort": 3460,
    "Ġmail": 17802,
    "withdrawn": 23031,
    "Ġburnished": 24001,
    "Ġpittance": 15621,
    "Ġpermission": 9282,
    "pointed": 9811,
    "Ġdeeply": 4717,
    "eprints": 12797,
    "Ġfad": 17878,
    "Ġvict": 3764,
    "otics": 10226,
    "Ġ119": 24441,
    "Ġvesture": 20065,
    "Ġcivil": 4679,
    "Ġdemi": 25549,
    "serve": 13052,
    "Ġscoresby": 10464,
    "Ġadmir": 12026,
    "Ġdeceived": 6546,
    "Ġstood": 2550,
    "gracechurch": 24582,
    "Ġpleadings": 25854,
    "Ġpreach": 14175,
    "Ġoverthrow": 18428,
    "Ġhomeless": 23390,
    "Ġfake": 5811,
    "Ġunceasingly": 20362,
    "Ġliter": 8816,
    "comple": 7441,
    "assistant": 25568,
    "Ġfemales": 14940,
    "ilies": 18059,
    "iluvian": 18063,
    "Ġcoppers": 22589,
    "Ġpraises": 16732,
    "green": 7117,
    "Ġknives": 14840,
    "Ġeh": 6988,
    "Ġlawyers": 25249,
    "Ġrazor": 22649,
    "Ġmaterials": 11290,
    "Ĭ": 237,
    "hollow": 24043,
    "Į": 239,
    "reinforcement": 7826,
    "Ġqu": 605,
    "Ġpockets": 8900,
    "ituted": 13876,
    "Ġresolution": 5500,
    "people": 7677,
    "Ġinhale": 20303,
    "Ġbravely": 23842,
    "Ġprofit": 14587,
    "osque": 22266,
    "Ġstories": 10867,
    "Ġgulf": 10638,
    "ju": 13744,
    "Ġalarm": 4044,
    "Ġbulge": 23860,
    "aits": 20768,
    "Ġpebbles": 16133,
    "import": 5668,
    "Ġpleases": 16301,
    "Ġringle": 18213,
    "Ġdec": 641,
    "Ġstrasburgh": 18615,
    "endless": 22230,
    "Ġinh": 10826,
    "county": 25397,
    "Ġjiff": 22300,
    "Ġseek": 4506,
    "variety": 23188,
    "etime": 12664,
    "Ġproduce": 4365,
    "taller": 26151,
    "Ġcanterbury": 22171,
    "Ġoppression": 23653,
    "impotence": 23764,
    "iving": 1726,
    "Ġsouthern": 7689,
    "Ġtools": 11612,
    "utherland": 9581,
    "Ġdiscourse": 9801,
    "Ġodds": 13334,
    "proportion": 16186,
    "Ġcapacious": 19178,
    "piling": 15418,
    "headsman": 16699,
    "Ġenhance": 2639,
    "Ġaudits": 24769,
    "Ġdepartments": 24245,
    "Ġlikes": 9411,
    "Ġsought": 5009,
    "sense": 11526,
    "Ġsay": 934,
    "Ġbankers": 24304,
    "Ġinjunction": 19620,
    "Ġconsequences": 11337,
    "Ġunprofitable": 18268,
    "Ġvictory": 16656,
    "Ĵ": 245,
    "op": 659,
    "Ġit": 339,
    "Ġdeer": 12725,
    "onsense": 6432,
    "eers": 20845,
    "Ġinevitable": 15171,
    "Ġcomfortless": 23916,
    "Ġsnapped": 9900,
    "Ġexpectantly": 23526,
    "Ġchief": 3382,
    "Ġobjections": 8568,
    "Ġsinful": 18951,
    "Ĥ": 229,
    "Ġheadlong": 11892,
    "Ġsimon": 5172,
    "featured": 24071,
    "Ġarchipelagoes": 14351,
    "Ġhabit": 6772,
    "Ġobst": 6286,
    "Ġradiating": 24331,
    "o": 83,
    "Ġcognitive": 13638,
    "Ġpersuasion": 10501,
    "holder": 13287,
    "wicked": 24449,
    "Ġoil": 3374,
    "Ġdissimilar": 22535,
    "Ġlaid": 3939,
    "clay": 18933,
    "Ġexcitement": 9384,
    "Ġimmensity": 25330,
    "Ġse": 402,
    "Ġstandard": 14498,
    "Ġalso": 1342,
    "Ġargue": 16785,
    "Ġroyals": 19535,
    "Ġdun": 6676,
    "Ġsatirical": 26281,
    "Ġcate": 4108,
    "hence": 16627,
    "unctions": 18158,
    "Ġcrags": 23529,
    "ado": 11661,
    "Ġadaptation": 3156,
    "sec": 6154,
    "Ġcountrymen": 23597,
    "Ġfrog": 23925,
    "oftener": 23968,
    "starbuck": 6020,
    "narrowly": 20350,
    "tram": 19646,
    "Ġhuman": 1316,
    "irra": 15789,
    "lished": 8383,
    "Ġprovinces": 24193,
    "touching": 15095,
    "Ġamazed": 14892,
    "Ġcripple": 11442,
    "Ġwonders": 7500,
    "Ġchimer": 24603,
    "Ġclutched": 13522,
    "darker": 24516,
    "wife": 8101,
    "iot": 9603,
    "Ġstrange": 2274,
    "Ġperson": 2368,
    "Ġrides": 21975,
    "struck": 7862,
    "bowl": 14894,
    "Ġneur": 811,
    "together": 3557,
    "Ġlasted": 11055,
    "Ġsche": 1705,
    "Ġ78": 19616,
    "Ġante": 17898,
    "owers": 12689,
    "Ġwhistle": 9068,
    "Ġnoting": 18222,
    "Ġclusters": 25233,
    "Ġteacup": 16216,
    "onstr": 12551,
    "Ġgrown": 5628,
    "Ġkelson": 18351,
    "Ġet": 3582,
    "nns": 1893,
    "advent": 10223,
    "Ġagony": 5388,
    "render": 10293,
    "apable": 6423,
    "Ġsaves": 18325,
    "Ġinf": 1759,
    "freely": 16856,
    "worse": 14693,
    "Ġsavages": 9915,
    "cho": 2761,
    "evinced": 19928,
    "Ġsporting": 17001,
    "Ġvacant": 9498,
    "Ġnotable": 18223,
    "Ġfork": 15736,
    "Ġaverage": 3140,
    "Ġenter": 4025,
    "dron": 17527,
    "Ġtear": 6725,
    "Ġmag": 1430,
    "Ġadventurous": 16735,
    "verse": 9691,
    "Ġphara": 23202,
    "Ġfell": 1979,
    "seated": 11675,
    "Ġhaunt": 18198,
    "Ġhardships": 14454,
    "tting": 17682,
    "descend": 23088,
    "Ġstretching": 10018,
    "sworn": 24259,
    "del": 4072,
    "Ġprojects": 9514,
    "olic": 14044,
    "Ġvastly": 23863,
    "Ġcapable": 5053,
    "Ġfarm": 7840,
    "Ġprocession": 11779,
    "Ġfeeling": 3086,
    "Ġincess": 8432,
    "000": 2559,
    "ifling": 15787,
    "vess": 7354,
    "Ġwinchester": 10069,
    "Ġpaint": 7708,
    "Ġunstructure": 2997,
    "Ġproofs": 19817,
    "specul": 23946,
    "Ġperiodically": 19497,
    "Ġfiss": 21415,
    "Ġhails": 21954,
    "amuse": 14055,
    "Ġhostile": 19943,
    "they": 1880,
    "Ġbreakers": 12058,
    "Ġavalanche": 17436,
    "Ġtransc": 12869,
    "guilt": 24073,
    "Ġacres": 14316,
    "Ġstops": 3166,
    "richard": 17289,
    "Ġstir": 5824,
    "Ġseriously": 7062,
    "Ġoffic": 3187,
    "Ġvalidation": 2356,
    "opposing": 24822,
    "Ġlifelessly": 23053,
    "ergy": 2360,
    "sies": 21057,
    "Ġincantation": 26259,
    "violence": 16480,
    "Ġdetail": 636,
    "landish": 11946,
    "limping": 26395,
    "Ġsalisbury": 24066,
    "bless": 22316,
    "arle": 21443,
    "Ġdissipate": 13637,
    "ances": 1336,
    "Ġvitality": 15176,
    "Ġenabled": 9299,
    "^{": 15308,
    "Ġbul": 3295,
    "Ġinsane": 19271,
    "ulsive": 10236,
    "Ġrecip": 16150,
    "Ġhipp": 21495,
    "appl": 9329,
    "kington": 11205,
    "creat": 20802,
    "Ġinduce": 7763,
    "thick": 10263,
    "Ġord": 3737,
    "Ġdeposition": 18611,
    "}": 97,
    "muttered": 13762,
    "obedience": 17413,
    "ensive": 6281,
    "Ġforesaw": 19128,
    "rowsers": 8698,
    "ilight": 12698,
    "Ġsilent": 3413,
    "Ġimbedded": 18334,
    "Ġtil": 12529,
    "repressed": 21246,
    "Ġcrushing": 20179,
    "inspect": 11561,
    "Ġgordon": 26469,
    "resc": 21241,
    "Ġtexas": 25923,
    "Ġcommit": 18656,
    "Ġshows": 8485,
    "Ġpriests": 15043,
    "Ġrestraint": 15131,
    "Ġtars": 21167,
    "Ġloungers": 24863,
    "Ġassistance": 6335,
    "Ġspaniards": 25556,
    "Ġagonies": 14254,
    "Ġfoam": 6891,
    "Ġsinks": 19552,
    "pshire": 21026,
    "ă": 196,
    "Ġrationally": 18216,
    "Ġscores": 2715,
    "Ġforlorn": 14018,
    "iah": 14420,
    "writing": 7721,
    "naturalist": 23554,
    "Ġhitherto": 5881,
    "Ġfirmly": 8014,
    "Ġabstra": 22275,
    "lively": 12489,
    "Ġgaze": 6932,
    "Ġreplacing": 3449,
    "ount": 1114,
    "Ġremain": 1874,
    "A": 37,
    "values": 4972,
    "Ġunsh": 14118,
    "Ġbreaking": 6312,
    "ony": 3032,
    "stript": 21660,
    "Ġvisibly": 22859,
    "Ġhours": 2821,
    "Ġpand": 21457,
    "Ġsixpence": 19319,
    "Ġdescends": 14290,
    "Ġinvent": 7165,
    "Ġgrowth": 14630,
    "Ġminimizes": 2048,
    "eldom": 4412,
    "Ġlawless": 19438,
    "personal": 24966,
    "Ġdeceiving": 21841,
    "yarn": 15460,
    "Ġcamp": 9167,
    "Ġpipeline": 2264,
    ",âĢĶâĢľ": 10073,
    "Ġfully": 6344,
    "Ġboats": 2636,
    "ul": 371,
    "owners": 16091,
    "Ġunconditional": 15848,
    "Ġezekiel": 26194,
    "ethe": 9679,
    "Ġsequ": 984,
    "Ġnoiselessly": 22861,
    "Ġseeking": 7038,
    "Ġpuzzled": 7317,
    "Ġbuttoning": 17238,
    "yset": 21148,
    "urons": 3132,
    "mental": 16064,
    "Ġjelly": 22304,
    "fetch": 12469,
    "Ġeconomy": 17203,
    "Ġtechnique": 2434,
    "Ġharry": 24572,
    "scr": 16245,
    "Ġfl": 1280,
    "ĺ": 251,
    "Ġimmense": 4951,
    "Ġacquiring": 2767,
    "ifle": 10893,
    "theirs": 23604,
    "Ġoblong": 14324,
    "loaded": 22515,
    "Ġinconveniences": 24942,
    "Ġheaven": 3366,
    "50": 6785,
    "overfitting": 13106,
    "Ġabundantly": 17159,
    "Ġoutskirts": 17460,
    "Ġspermaceti": 8970,
    "Ġunaffected": 14125,
    "uesday": 8590,
    "Ġobserve": 4670,
    "hers": 7636,
    "Ġapprehensions": 13408,
    "Ġreceptacle": 23194,
    "Ġbowed": 6244,
    "ineering": 21985,
    "reflections": 24734,
    "Ġpushing": 10821,
    "na": 13763,
    "Ġtag": 15471,
    "uss": 8767,
    "rious": 11692,
    "Ġindestruct": 22961,
    "ipotent": 10959,
    "Ġheath": 15706,
    "Ġpracticable": 19039,
    "diver": 20833,
    "judging": 24204,
    "Ġoarsman": 8641,
    "Ġfinancier": 26585,
    "meditation": 19073,
    "occupations": 24967,
    "Ġabstained": 25232,
    "itters": 10783,
    "Ġarchitects": 18738,
    "Ġstraggling": 23754,
    "Ġobsequ": 14323,
    "Ġnotwithstanding": 9717,
    "Ġmutilated": 23962,
    "gardiner": 12295,
    "Ġties": 12533,
    "Ġplayed": 9419,
    "Ġkicked": 10584,
    "Ġgrave": 5099,
    "Ġthirteen": 15278,
    "anging": 3552,
    "pertaining": 22188,
    "attacked": 23126,
    "Ġhieroglyph": 11975,
    "Ġlye": 21554,
    "Ġwindigate": 18912,
    "decease": 25558,
    "unavoid": 14065,
    "Ġconsequent": 18113,
    "Ġgeorgiana": 8629,
    "Ġdiscoursing": 26268,
    "feeder": 12365,
    "inioned": 19288,
    "Ġramsgate": 18642,
    "uth": 3020,
    "Ġmonstr": 7668,
    "Ġbasement": 24701,
    "Ġpressure": 13426,
    "Ġporthole": 24399,
    "Ġchamber": 6215,
    "Ġassigned": 16314,
    "Ġmanhandle": 22333,
    "Ġgeneration": 2141,
    "Ġhenry": 5197,
    "Ġbesides": 3514,
    "hurst": 19881,
    "âĢĶâĢĻ": 8188,
    "Ġspeedy": 11174,
    "Ġthreads": 13122,
    "Ġnecessarily": 13253,
    "Ġdespair": 4006,
    "Ġunmolested": 15249,
    "Ġdecayed": 22828,
    "looking": 4029,
    "Ġtowns": 11175,
    "Ġreceipt": 20358,
    "Ġrascally": 26508,
    "ublic": 11229,
    "Ġuncertain": 4064,
    "upright": 23022,
    "anation": 5804,
    "Ġburning": 5978,
    "Ġbro": 1431,
    "Ġmisfortunes": 7043,
    "Ġgleam": 12312,
    "ming": 3603,
    "Ġgrowled": 19285,
    "Ġfixing": 13160,
    "Ġhump": 5855,
    "âĢĶâĢĶâĢĿ": 15943,
    "Ġdel": 1612,
    "olence": 10232,
    "Ġcalam": 13039,
    "Ġoutright": 18414,
    "torm": 11533,
    "nial": 20986,
    "obst": 11936,
    "Ġpricking": 23224,
    "ĠâĢĶ_": 3459,
    "ments": 1400,
    "\\": 64,
    "Ġk": 485,
    "Ġaustralia": 15236,
    "Ġringbolts": 24199,
    "Ġlig": 21551,
    "Ġergo": 25032,
    "Ġconfess": 3768,
    "Ġshivering": 10268,
    "racted": 4776,
    "Ġices": 21157,
    "ulance": 15771,
    "cap": 8373,
    "Ġmoment": 990,
    "Ġpromontory": 11945,
    "Ġtinker": 15135,
    "magnetic": 20555,
    "Ġtransmit": 10307,
    "difficulty": 12394,
    "Ġcult": 8786,
    "Ġdisplay": 6429,
    "simp": 17667,
    "Ġchord": 22249,
    "Ġmont": 8562,
    "mming": 1173,
    "bol": 8721,
    "Ġharriet": 24573,
    "Ġlakeman": 6987,
    "Ġbreaches": 14523,
    "Ġtarshish": 12033,
    "flutter": 23974,
    "Ġmoss": 9287,
    "Ġannual": 14835,
    "Ġbecher": 18881,
    "Ġtufted": 17016,
    "Ġpaling": 21464,
    "thankful": 16808,
    "Ġlashings": 25100,
    "Ġexposes": 22627,
    "eff": 2533,
    "Ġweeds": 21927,
    "Ġconcentric": 20078,
    "Ġremarks": 7473,
    "Ġlar": 764,
    "Ġirene": 8445,
    "increased": 20273,
    "und": 4117,
    "gest": 5426,
    "astrop": 3317,
    "Ġlid": 6984,
    "Ġprematurely": 24009,
    "Ġclamorous": 24910,
    "Ġpalace": 16691,
    "aspect": 10196,
    "Ġinsensibility": 17111,
    "wick": 5363,
    "Ġcomm": 837,
    "Ġhatty": 19267,
    "ale": 506,
    "reve": 12544,
    "Ġserm": 9636,
    "mysterious": 26052,
    "blog": 19842,
    "Ġsuav": 22091,
    "Ġintelligible": 15945,
    "Ġsuperb": 16444,
    "Ġcontradict": 12389,
    "Ġcaptain": 1601,
    "Ġexecuted": 9475,
    "Ġancest": 12619,
    "Ġprosper": 10231,
    "Ġcave": 10787,
    "spirits": 8055,
    "ceremony": 20593,
    "Ġlagged": 21561,
    "Ġresemble": 15697,
    "Ġplainly": 4380,
    "Ġembedd": 1403,
    "Ġautumn": 14511,
    "Ġfaculties": 14961,
    "Ġori": 8410,
    "tures": 21072,
    "Ġclimates": 25054,
    "aping": 8194,
    "onies": 6807,
    "occur": 19578,
    "Ġrisen": 9496,
    "restraint": 18980,
    "Ġtying": 15476,
    "Ġfits": 8795,
    "Ġnay": 5711,
    "ggling": 19098,
    "sou": 12510,
    "miraculous": 26398,
    "Ġnon": 1623,
    "Ġdisappointing": 19582,
    "Ġcharted": 22254,
    "Ġlinn": 13956,
    "umbered": 22121,
    "ĠĠĠĠĠĠĠĠĠĠĠĠĠĠĠĠĠĠĠĠĠĠ": 16230,
    "Ġunreliable": 3927,
    "Ġdozing": 22247,
    "displeasure": 23497,
    "Ġmodular": 12822,
    "irect": 5553,
    "cloud": 11107,
    "Ġfals": 15585,
    "abil": 2008,
    "ment": 695,
    "Ġmatch": 4527,
    "Ġslippery": 12171,
    "shirt": 22462,
    "Ġdanced": 7842,
    "Ġraising": 8912,
    "Ġeag": 2970,
    "Ġshakes": 10906,
    "Ġtransparent": 9492,
    "Ġdrop": 4343,
    "Ġgrows": 4984,
    "copyright": 5278,
    "Ġclim": 8197,
    "gloom": 17142,
    "spoutings": 25004,
    "Ġsank": 5075,
    "Ġhunsford": 6303,
    "Ġtemporarily": 11169,
    "Ġgrammars": 11404,
    "Ġpalsied": 25780,
    "odecimo": 11446,
    "plings": 11699,
    "Ġprodig": 6029,
    "Ġpovels": 22596,
    "Ġpromised": 5181,
    "inglass": 21305,
    "Ġdespondence": 25870,
    "rushing": 10021,
    "quit": 15766,
    "aks": 8509,
    "Ġfee": 7199,
    "Ġton": 15467,
    "Ġungrateful": 14124,
    "Ġassembl": 20064,
    "Ġ104": 24412,
    "Ġdetached": 10282,
    "Ġcor": 1321,
    "gover": 10704,
    "quent": 2093,
    "Ġcarelessly": 11122,
    "Ġoffices": 14337,
    "hideous": 25408,
    "Ġharpoon": 3618,
    "Ġconcocted": 26300,
    "semicirc": 26493,
    "Ġamused": 11803,
    "Ġmonica": 22988,
    "Ġinnumerable": 13356,
    "Ġselfish": 7272,
    "electricity": 26387,
    "waves": 10744,
    "lemagne": 26438,
    "Ġchivalry": 25820,
    "ribbed": 16416,
    "Ġpra": 4345,
    "Ġsovereign": 10065,
    "Ġuncork": 23432,
    "listen": 13517,
    "Ġdefence": 11069,
    "light": 3019,
    "Ġtranslation": 3089,
    "adequ": 11022,
    "shazz": 14244,
    "Ġrec": 911,
    "nment": 20992,
    "Ġperemptorily": 17370,
    "Ġjane": 1760,
    "allingly": 22203,
    "Ġtail": 3091,
    "Ġobviously": 16812,
    "Ġcouldn": 7649,
    "Ġgoverned": 23573,
    "Ġsustain": 10020,
    "Ġniagara": 26460,
    "accuracy": 9882,
    "antee": 22101,
    "anguish": 15987,
    "Ġfarthing": 14457,
    "mosphere": 10046,
    "desired": 9008,
    "Ġrelated": 3717,
    "intelligence": 5884,
    "behold": 12882,
    "Ġlaws": 8003,
    "urned": 9309,
    "Ġfrosts": 19805,
    "Ġwoll": 21296,
    "Ġmar": 1309,
    "Ġovercome": 6044,
    "Ġyawn": 7610,
    "Ġvariations": 22669,
    "ampl": 21846,
    "pequod": 7054,
    "ption": 7398,
    "Ġpredefined": 20719,
    "asy": 5296,
    "Ġconting": 18473,
    "Ġ125": 24470,
    "Ġelementary": 24811,
    "Ġuns": 15840,
    "Ġaf": 781,
    "strils": 10460,
    "Ġ111": 24436,
    "moral": 14805,
    "ested": 3479,
    "assured": 10955,
    "harbors": 20151,
    "ard": 465,
    "existence": 16018,
    "Ġnailed": 10192,
    "Ġseizure": 21968,
    "Ġunprecedented": 15858,
    "Ġ51": 24316,
    "utility": 21590,
    "Ġisolated": 13563,
    "magnitude": 17251,
    "Ġheal": 21684,
    "endeavoured": 12285,
    "Ġchanc": 18385,
    "revol": 12545,
    "young": 7321,
    "Ġtheory": 5799,
    "Ġterrible": 5328,
    "Ġconveniently": 20082,
    "Ġretrogression": 26583,
    "unconquerable": 21895,
    "Ġamply": 22486,
    "distant": 13339,
    "bbles": 13695,
    "unities": 15775,
    "eastern": 17535,
    "Ġastonishment": 4794,
    "orative": 21401,
    "Ġtranquill": 6633,
    "kered": 18275,
    "Ġfantastic": 10062,
    "Ġstrife": 18614,
    "Ġtorpor": 25034,
    "Ġsplice": 19311,
    "Ġdevoured": 16140,
    "Ġtomahawk": 7539,
    "Ġchili": 25562,
    "Ġerecting": 24653,
    "Ġwid": 4632,
    "Ġalleghan": 25796,
    "Ġkills": 15910,
    "Ġdwell": 5813,
    "lier": 20951,
    "Ġhurtling": 24960,
    "windlass": 16723,
    "rical": 11521,
    "Ġaddu": 22105,
    "Ġhish": 21918,
    "firm": 10700,
    "Ġrifts": 21979,
    "Ġinvolving": 18748,
    "Ġinstruction": 14347,
    "Ġexploit": 19164,
    "octial": 20008,
    "glass": 9912,
    "Ġcracked": 8597,
    "butter": 11789,
    "Ġhatred": 8612,
    "Ġbending": 12590,
    "Ġinnoc": 3796,
    "might": 4075,
    "Ġloathing": 15071,
    "minutely": 19596,
    "Ġfamily": 1967,
    "prehend": 14245,
    "bone": 5612,
    "friends": 8306,
    "Ġaggregated": 25679,
    "Ġcharles": 11961,
    "hills": 13739,
    "istrate": 7406,
    "Ġweakness": 9970,
    "ze": 1327,
    "Ġcarve": 23096,
    "Ġatonement": 21946,
    "Ġsir": 1567,
    "Ġcongregated": 20100,
    "antique": 18289,
    "Ġmature": 17801,
    "Ġarriving": 19219,
    "worm": 15456,
    "Ġbeads": 18086,
    "Ġsources": 10150,
    "ascar": 8436,
    "olently": 15758,
    "Ġmaternal": 11061,
    "Ġdespaired": 14671,
    "Ġhabitual": 24789,
    "ratches": 20128,
    "Ġblows": 5974,
    "letons": 14614,
    "alarmed": 21506,
    "Ġwheelbarrow": 17207,
    "reed": 6374,
    "amidst": 25653,
    "appro": 7046,
    "construction": 19781,
    "Ġmerest": 14033,
    "Ġfo": 1651,
    "Ġemblem": 20501,
    "Ġpyramid": 8806,
    "Ġguests": 12291,
    "Ġcheap": 13094,
    "atived": 21265,
    "ĠĠĠĠĠĠĠĠĠĠĠĠĠĠĠĠĠĠĠĠĠĠĠĠĠĠĠĠĠĠĠĠĠĠĠĠĠĠĠĠĠĠĠĠĠĠĠ": 16757,
    "Ġsimul": 1808,
    "Ġkill": 4452,
    "mouthed": 12404,
    "Ġlongitude": 11013,
    "hateful": 20911,
    "Ġquestions": 3970,
    "formed": 2553,
    "Ġsuffers": 2977,
    "faces": 13723,
    "Ġwhereas": 3855,
    "Ġcaterpillar": 5866,
    "kish": 20936,
    "Ġbend": 9173,
    "ondescript": 22919,
    "Ġwired": 17788,
    "Ġanswer": 2597,
    "Ġdampening": 2896,
    "Ġscreening": 25301,
    "lo": 680,
    "pointing": 12229,
    "extending": 22772,
    "Ġtamely": 24980,
    "Ġprescribed": 26011,
    "itive": 6671,
    "Ġpromises": 10403,
    "Ġwhose": 2010,
    "Ġperilous": 7769,
    "Ġshreds": 12775,
    "Ġblanched": 26284,
    "Ġdevotedly": 24749,
    "const": 5940,
    "thy": 2937,
    "Ġtriumphantly": 11289,
    "Ġthews": 21280,
    "creatures": 7517,
    "Ġad": 444,
    "unc": 15773,
    "Ġconversation": 3331,
    "fug": 17545,
    "blast": 9590,
    "Ġwaylaid": 22876,
    "Ġgi": 15670,
    "separated": 20162,
    "grasping": 20642,
    "Ġunex": 11717,
    "wont": 21135,
    "herself": 4890,
    "prep": 9762,
    "grace": 5847,
    "acked": 10976,
    "Ġdelic": 4133,
    "Ġapprised": 18359,
    "Ġdistribut": 840,
    "Ġforthwith": 16620,
    "Ġloadstone": 25817,
    "Ġpreluding": 18369,
    "generosity": 23789,
    "!": 5,
    "Ġ5": 4934,
    "Ġmen": 1435,
    "Ġattractions": 12921,
    "suspicions": 25392,
    "Ġmaimed": 21319,
    "Ġpants": 21467,
    "Ġinstruct": 2865,
    "Ġapproaching": 6285,
    "upid": 6584,
    "Ġwhiskers": 10495,
    "paralleled": 14522,
    "Ġtamer": 24979,
    "wear": 22686,
    "Ġaroused": 15907,
    "Ġcryst": 9920,
    "Ġswish": 23056,
    "produ": 10722,
    "Ġappet": 9733,
    "Ġconvince": 14644,
    "Ġearthy": 23716,
    "Ġpadd": 9672,
    "Ġinfall": 7961,
    "Ġshock": 6083,
    "representativeness": 25273,
    "Ġii": 7385,
    "Ġdy": 2536,
    "Ġgermans": 25785,
    "Ġconscious": 7744,
    "Ġcomposed": 8896,
    "udding": 11869,
    "Ġyarns": 15199,
    "generations": 23788,
    "plexy": 18577,
    "Ġclothing": 18431,
    "Ġsecurity": 8980,
    "Ġbowditch": 19325,
    "Ġilliterate": 26596,
    "Ġrecovery": 11443,
    "Ġrabb": 4161,
    "Ġadmeasure": 18294,
    "kinson": 10029,
    "Ġown": 1006,
    "oors": 17622,
    "Ġeste": 6085,
    "Ġrepose": 6743,
    "chancing": 22921,
    "Ġequival": 4784,
    "Ġrepulses": 26071,
    "fatal": 17089,
    "Ġscanning": 18401,
    "minded": 9040,
    "Ġchat": 6562,
    "Ġdoubtless": 6197,
    "Ġedge": 5189,
    "Ġentered": 2847,
    "Ġhedge": 8364,
    "Ġreally": 2159,
    "Ġenables": 726,
    "Ġemerged": 8688,
    "Ġadvise": 7936,
    "melted": 25207,
    "uarded": 21108,
    "actorily": 25577,
    "Ġarea": 14189,
    "Ġowe": 8115,
    "inations": 7567,
    "Ġsect": 17753,
    "Ġlieutenant": 15265,
    "presently": 9810,
    "Ġglu": 15672,
    "ma": 1150,
    "icil": 17974,
    "niest": 18993,
    "Ġvolition": 14801,
    "results": 20390,
    "Ġrisk": 8039,
    "shone": 22457,
    "Ġexclamations": 11363,
    "handsome": 13180,
    "Ġinclude": 1875,
    "Ġmanual": 14200,
    "sharpening": 22468,
    "Ġkilled": 4954,
    "Ġresembles": 25970,
    "ĠĠĠĠĠĠĠĠĠĠĠĠĠĠĠĠĠĠĠĠĠĠĠĠĠĠĠĠĠĠĠĠĠĠĠĠĠĠ": 16528,
    "knell": 24555,
    "Ġexulting": 20261,
    "Ġstudy": 1769,
    "Ġquenched": 22421,
    "Ġcompany": 3723,
    "icular": 2024,
    "Ġcrush": 9425,
    "Ġcaptioning": 23026,
    "onic": 7827,
    "Ġindians": 14413,
    "Ġcorp": 5575,
    "Ġmass": 3782,
    "Ġunite": 9257,
    "revealed": 20419,
    "Ġsystemat": 18449,
    "warning": 25532,
    "Ġscept": 15506,
    "erring": 11059,
    "yea": 23090,
    "Ġlogical": 14489,
    "greeting": 24554,
    "Ġconver": 805,
    "ĩ": 234,
    "vice": 15452,
    "Ġlick": 21553,
    "Ġnosegay": 24195,
    "Ġinserted": 8356,
    "Ġstruggled": 9908,
    "uteronomy": 15668,
    "Ġslumbers": 18944,
    "Ġhatchways": 24990,
    "Ġconvincing": 19309,
    "ı": 242,
    "Ġajar": 21205,
    "cure": 11476,
    "Ġfearfulness": 23514,
    "Ġmiracle": 15097,
    "Ġyoungster": 23182,
    "nearly": 8684,
    "lady": 4431,
    "Ġshift": 2282,
    "Ġwatson": 3599,
    "Ġsurmis": 23465,
    "rossing": 18649,
    "ittarius": 22381,
    "lie": 12487,
    "angs": 5834,
    "ool": 17620,
    "Ġrevolut": 3260,
    "Ġthinks": 6171,
    "Ġcabinet": 23864,
    "arious": 10319,
    "Ġorphans": 20207,
    "reng": 3999,
    "Ġjot": 11767,
    "Ġcaved": 21356,
    "rrh": 26145,
    "Ġpowder": 11277,
    "Ġsemblance": 20736,
    "Ġpel": 17904,
    "Ġpower": 1231,
    "Ġbehave": 23302,
    "Ġstirring": 10582,
    "Ġscattered": 6856,
    "Ġclaret": 22366,
    "Ġwild": 2600,
    "Ġtremulous": 14989,
    "Ġcalamity": 17352,
    "Ġsteadily": 8052,
    "Ġsettle": 6295,
    "Ġteaches": 18810,
    "Ġ550": 19639,
    "Ġpin": 7162,
    "feels": 22506,
    "Ġaccompanied": 6781,
    "Ġentra": 18691,
    "whatsoever": 18488,
    "Ġblotches": 25315,
    "isc": 6241,
    "Ġinev": 10184,
    "Ġsure": 1865,
    "gypt": 8261,
    "Ġcol": 1057,
    "Ġenergies": 25460,
    "Ġtricks": 13488,
    "wel": 6119,
    "Ġsenior": 17174,
    "Ġdigging": 14941,
    "pur": 7806,
    "anted": 5026,
    "atch": 673,
    "Ġpreferred": 14969,
    "Ġsoar": 18279,
    "chest": 11210,
    "fellow": 6793,
    "Ġsisters": 3642,
    "mushroom": 26397,
    "ben": 4926,
    "laden": 14932,
    "Ġimport": 1062,
    "Ġevermore": 18814,
    "Ġhurts": 19113,
    "sacred": 17030,
    "bation": 9106,
    "Ġpattern": 1354,
    "sal": 8761,
    "Ġofficially": 24839,
    "Ġpublic": 4331,
    "Ġlicense": 20094,
    "Ġmistaken": 4985,
    "hello": 13368,
    "isco": 12586,
    "ean": 20842,
    "Ġvivid": 8058,
    "fun": 4073,
    "mp": 3729,
    "company": 9464,
    "Ġexplanatory": 22206,
    "omical": 9683,
    "Ġdejected": 20307,
    "repent": 15516,
    "Ġfastening": 16360,
    "Ġclamped": 18433,
    "topic": 10530,
    "Ġwood": 2292,
    "âĢĶ.âĢĿ": 22259,
    "Ġt": 261,
    "describe": 1512,
    "Ġmodel": 510,
    "ashes": 6017,
    "darkened": 24517,
    "Ġcuriously": 13017,
    "Ġannot": 15606,
    "Ġsimultaneously": 4310,
    "Ġmosses": 20166,
    "Ġpolitic": 23620,
    "Ġawed": 23587,
    "Ġhesitation": 13445,
    "Ġmealy": 18121,
    "shell": 16290,
    "\"]": 17473,
    "Ġneedn": 19230,
    "Ġlowest": 11124,
    "cad": 17507,
    "asing": 5913,
    "Ġlesson": 7276,
    "Ġundulates": 24121,
    "Ġcerem": 7079,
    "ould": 428,
    "Ġdimension": 3242,
    "Ġscruple": 25051,
    "Ġvap": 6837,
    "Ġsomehow": 4842,
    "Ġthem": 640,
    "Ġinsens": 8277,
    "onsensical": 18578,
    "Ġprior": 11320,
    "Ġbade": 9174,
    "remembrance": 25703,
    "Ġsports": 18311,
    "hump": 12482,
    "alluring": 18353,
    "Ġsoc": 3525,
    "passenger": 24169,
    "chanced": 18812,
    "Ġdinnertime": 16721,
    "Ġadhes": 22106,
    "tables": 19760,
    "grammar": 6435,
    "Ġash": 4833,
    "ech": 4388,
    "Ġbrought": 2516,
    "returned": 7766,
    "Ġmariners": 6069,
    "ate": 422,
    "Ġhumane": 11888,
    "sa": 8760,
    "cherish": 24552,
    "Ġvices": 14086,
    "Ġexponentiating": 3446,
    "Ġepid": 18007,
    "Ġgirth": 13140,
    "Ġbordering": 17231,
    "nnight": 20995,
    "Ġlying": 4826,
    "Ġinflicted": 11367,
    "Ġceases": 19315,
    "Ġtired": 9152,
    "whereby": 23420,
    "post": 6063,
    "Ġentail": 9795,
    "Ġsouthwards": 19636,
    "largely": 19577,
    "mr": 1900,
    "bert": 4662,
    "Ġaccidental": 16850,
    "Ġasser": 6259,
    "to": 714,
    "Ġdenny": 9004,
    "leviathans": 19941,
    "Ġparched": 11731,
    "Ġpaddock": 25040,
    "older": 15757,
    "Ġyaw": 18097,
    "Ġlodged": 11252,
    "Ġdra": 1590,
    "Ġinnocence": 6478,
    "Ġ1883": 23901,
    "here": 2548,
    "Ġrover": 18455,
    "do": 1996,
    "Ġlengthwise": 10454,
    "unusual": 21883,
    "jo": 3753,
    "algorithms": 8291,
    "Ġescape": 2647,
    "Ġnoticing": 18225,
    "Ġpenny": 16316,
    "Ġjovial": 19235,
    "Ġdeemed": 7613,
    "Ġmarsh": 9824,
    "consideration": 14958,
    "Ġprying": 15613,
    "Ġlose": 5027,
    "Ġdisguise": 10049,
    "Ġbestow": 6456,
    "Ġerr": 1320,
    "hing": 981,
    "Ġfruits": 17121,
    "Ġscold": 10952,
    "================================": 5671,
    "deliberated": 26119,
    "Ġhom": 9189,
    "Ġsquee": 7929,
    "Ġbatch": 889,
    "fitting": 1506,
    "Ġsupported": 9821,
    "ortion": 11761,
    "Ġdomineer": 23662,
    "Ġnetherfield": 3929,
    "Ġrese": 2200,
    "Ġluc": 3312,
    "Ġscript": 18400,
    "cruise": 24842,
    "remark": 7261,
    "Ġhideous": 5984,
    "rucastle": 22182,
    "chemical": 23811,
    "_.,": 14564,
    "circumstantial": 24444,
    "afterwards": 7484,
    "Ġtwentieth": 18660,
    "Ġcraw": 7282,
    "mates": 5072,
    "christian": 17235,
    "aurs": 20771,
    "Ġsoot": 14132,
    "Ġepaulets": 24906,
    "Ġlaz": 7378,
    "Ġheroes": 10579,
    "Ġobscurely": 20191,
    "Ġaugment": 8695,
    "women": 15459,
    "Ġgur": 21595,
    "Ġshone": 7404,
    "Ġlunging": 24992,
    "Ġsheepfold": 25467,
    "Ġsteak": 9832,
    "whence": 23218,
    "admiration": 11389,
    "Ĺ": 250,
    "wound": 21129,
    "named": 9893,
    "Ġhousemaid": 14467,
    "Ġramble": 9316,
    "ĠĠĠĠĠĠĠĠĠĠĠĠĠĠĠĠĠĠĠĠĠĠĠĠĠĠĠĠĠĠ": 24443,
    "Ġquaint": 18466,
    "Ġepicures": 25880,
    "Ġunaccountably": 26517,
    "sing": 5138,
    "Ġseldom": 4629,
    "Ġstow": 21734,
    "andes": 18154,
    "Ġcurt": 18845,
    "Ġrepelled": 19087,
    "deficient": 23120,
    "mel": 9130,
    "Ġphilosopher": 12188,
    "borrowed": 20794,
    "Ġsilence": 3270,
    "Ġheavens": 5049,
    "Ġhammers": 13245,
    "Ġomin": 11580,
    "Ġcleansed": 26295,
    "Ġupdate": 2463,
    "fire": 6359,
    "Ġstrata": 26028,
    "Ġtheology": 21279,
    "Ġbolivia": 24668,
    "Ġimplore": 24873,
    "nical": 20993,
    "Ġmask": 1866,
    "hatchet": 24819,
    "Ġpallet": 21483,
    "Ġregulate": 22580,
    "deed": 1516,
    "Ġaudience": 24768,
    "Ġpinioned": 21485,
    "Ġsociable": 19406,
    "Ġequin": 14497,
    "Ġpolicy": 10459,
    "ateral": 19380,
    "Ġexposed": 8525,
    "ville": 6088,
    "near": 5843,
    "consumed": 25676,
    "carried": 16713,
    "Ġterrify": 19364,
    "Ġdiffers": 23784,
    "Ġshepherd": 14155,
    "Ġornamented": 20365,
    "agonies": 21913,
    "deepest": 22837,
    "Ġravine": 18641,
    "eryton": 4092,
    "Ġere": 3688,
    "quently": 9705,
    "sledge": 21060,
    "Ġradiance": 13375,
    "ires": 6039,
    "effort": 19216,
    "Ġupbraid": 18319,
    "Ġunhinged": 26218,
    "Ġdoesn": 7438,
    "Ġhomage": 12359,
    "Ġneskyeuna": 26461,
    "J": 46,
    "successively": 24778,
    "Ġ72": 19614,
    "tooth": 18581,
    "parted": 21018,
    "Ġmusk": 7494,
    "gor": 548,
    "indian": 11782,
    "Ġdischarge": 18557,
    "Ġunwinding": 22064,
    "Ġcity": 4528,
    "Ġpack": 5444,
    "theories": 18081,
    "Ġincomplete": 17211,
    "Ġmessage": 13526,
    "Ġwheels": 10914,
    "felt": 5890,
    "Ġchiefly": 5766,
    "Ġmanxman": 9568,
    "Ġesq": 15112,
    "chant": 4258,
    "repairing": 24495,
    "Ġlothario": 26186,
    "Ġcompare": 9305,
    "elt": 4114,
    "Ġtopsails": 19196,
    "Ġpalp": 11251,
    "Ġsongs": 13424,
    "clam": 13060,
    "laughed": 20284,
    "Ġchanging": 11757,
    "opposite": 19931,
    "Ġhim": 475,
    "event": 8077,
    "Ġingolstadt": 8333,
    "omit": 13977,
    "Ġsocietal": 11438,
    "Ġostr": 21328,
    "pits": 15415,
    "Ġdent": 13909,
    "imp": 3036,
    "very": 500,
    "aded": 3550,
    "Ġsord": 21222,
    "Ġalleged": 17293,
    "readily": 19365,
    "Ġsells": 21226,
    "Ġunprejudiced": 18270,
    "caterpillar": 26385,
    "rushed": 10587,
    "Ġottoman": 17381,
    "Ġchimney": 6498,
    "Ġfelt": 1748,
    "Ġclair": 6271,
    "Ġbandages": 24427,
    "Ġtragedies": 25242,
    "Ġter": 2052,
    "Ġsympathise": 16796,
    "Ġjoke": 8872,
    "lestrade": 9659,
    "Ġelevation": 14902,
    "iracle": 11245,
    "Ġfever": 6560,
    "Ġsow": 17751,
    "dashed": 12460,
    "uming": 8494,
    "dig": 4929,
    "geese": 22371,
    "Ġber": 5698,
    "Ġunmannerly": 26519,
    "Ġforge": 8458,
    "ğ": 224,
    "exposure": 19259,
    "sford": 5999,
    "Ġgradually": 3401,
    "Ġspread": 5161,
    "Ġwindlass": 7256,
    "oy": 1008,
    "Ġdamn": 11160,
    "Ġspasmodic": 20401,
    "vate": 21112,
    "Ġaltering": 18105,
    "Ġcapting": 23025,
    "dreams": 12341,
    "Ġominous": 12428,
    "Ġredness": 19314,
    "Ġstepdaughter": 22614,
    "ationally": 15709,
    "immense": 18055,
    "gathered": 13735,
    "Ġwildness": 14605,
    "Ġpermanently": 25474,
    "severe": 21823,
    "various": 10400,
    "zza": 24170,
    "Ġslopes": 18943,
    "joke": 20932,
    "su": 799,
    "Ġsquared": 1381,
    "Ġshowed": 4494,
    "Ġjerked": 19835,
    "Ġsneering": 24696,
    "Ġbass": 17857,
    "iates": 13740,
    "Ġhateful": 19716,
    "Ġcast": 3608,
    "sect": 8153,
    "Ġwave": 7576,
    "entire": 6824,
    "Ġaccusations": 22384,
    "Ġcausal": 3412,
    "plendent": 21962,
    "Ġque": 4157,
    "Ġbecomes": 6397,
    "ever": 1077,
    "Ġinterfere": 11821,
    "Ġlargest": 6284,
    "Ġcant": 17826,
    "Ġsubmission": 22793,
    "Ġthrow": 3785,
    "Ġproclaim": 18133,
    "ĠâĢľ": 516,
    "Ġbacks": 8531,
    "Ġadvis": 9813,
    "Ġexhib": 6351,
    "Ġautomation": 13259,
    "Ġberyls": 25776,
    "ights": 8478,
    "unbe": 21876,
    "Ġadequate": 20311,
    "alter": 10828,
    "Ġwhenever": 5166,
    "Ġrenegades": 26478,
    "Ġapologizing": 25198,
    "Ġdri": 2362,
    "furthermore": 20007,
    "oko": 18441,
    "Ġ35": 24079,
    "Ġdorm": 4822,
    "Ġlaying": 7908,
    "Ġplucked": 15117,
    "Ġcoin": 9774,
    "ifies": 6688,
    "Ġnicely": 8712,
    "Ġretain": 7863,
    "Ġparagraph": 17457,
    "Ġsold": 6004,
    "fain": 13718,
    "Ġimmaculate": 19489,
    "%": 9,
    "Ġcurses": 13018,
    "Ġconfirmation": 17213,
    "Ġtaurus": 21181,
    "Ġrelate": 6875,
    "Ġnods": 19064,
    "Ġfewer": 16228,
    "Ġgave": 2218,
    "Ġstore": 8455,
    "Ġefforts": 11809,
    "Ġcompressed": 21861,
    "Ġfound": 1247,
    "Ġcultiv": 13560,
    "Ġay": 15494,
    "Ġprotruding": 16661,
    "³": 116,
    "umer": 9261,
    "Ġbran": 5252,
    "canoes": 16234,
    "Ġirreparable": 20002,
    "Ġlanguid": 14216,
    "ructure": 759,
    "Ġdiet": 13913,
    "frank": 7758,
    "breast": 11247,
    "impenet": 18056,
    "Ġwarmly": 8990,
    "Ġenem": 4708,
    "Ġreveren": 13199,
    "Ġobliter": 14325,
    "appropri": 22844,
    "Ġglided": 7447,
    "Ġsqualls": 17022,
    "Ġdriver": 16476,
    "rant": 11519,
    "Ġminiatures": 20324,
    "Ġmagician": 25061,
    "Ġestablished": 9072,
    "Ġenlivened": 26209,
    "loa": 18534,
    "Ġdearly": 10404,
    "Ġapplication": 2035,
    "Ġwond": 3937,
    "Ġkeepers": 23539,
    "Ġwatchman": 23671,
    "aling": 1034,
    "proceeded": 25191,
    "Ġelect": 10844,
    "Ġboards": 14304,
    "Ġscrut": 15950,
    "Ġcurb": 16238,
    "plunging": 25988,
    "Ġarches": 14167,
    "Ġmust": 843,
    "Ġswandam": 11091,
    "attending": 18918,
    "omitted": 18019,
    "Ġsticking": 13431,
    "Ġmayhap": 18708,
    "thin": 14100,
    "adventurous": 25362,
    "Ġintroduced": 7691,
    "Ġhav": 12759,
    "pots": 11516,
    "isance": 17849,
    "pagan": 17288,
    "Ġresources": 2940,
    "Ġwin": 9644,
    "Ġhauled": 11698,
    "Ġeyes": 1334,
    "erect": 20850,
    "Ġaskance": 23153,
    "Ġkeep": 2355,
    "Ġwhile": 606,
    "Ġbalances": 2339,
    "iscuits": 24667,
    "icism": 13959,
    "Ġrecord": 5317,
    "Ġassures": 14468,
    "Ġobligation": 13248,
    "rect": 1596,
    "arest": 4001,
    "urities": 18052,
    "Ġmeditating": 20046,
    "Ġaffected": 5577,
    "Ġmouths": 7491,
    "Ġtables": 9881,
    "Ġringed": 16752,
    "Ġsums": 2905,
    "stache": 15694,
    "Ġuncounted": 19118,
    "Ġlumps": 21559,
    "ty": 1001,
    "Ġgeneric": 18448,
    "Ġsamuel": 10036,
    "Ġrealistic": 5862,
    "Ġforeseeing": 23451,
    "Ġopposing": 12044,
    "ince": 4338,
    "Ġpertur": 12856,
    "approbation": 11460,
    "Ġaint": 17746,
    "Ġlight": 1701,
    "Ġjago": 22303,
    "Ġsperma": 19052,
    "Ġvenom": 24241,
    "Ġfaintly": 14918,
    "Ġhaving": 1881,
    "Ġarabic": 24981,
    "Ġgodlike": 23360,
    "Ġpersonages": 23541,
    "Ġpines": 12622,
    "Ġlucases": 9013,
    "Ġvult": 12757,
    "Ġcastaways": 19431,
    "who": 2446,
    "turn": 4291,
    "van": 7814,
    "Ġsubsequent": 7659,
    "row": 1065,
    "particularly": 8340,
    "Ġlodge": 5779,
    "Ġaffright": 9335,
    "Ġlic": 8437,
    "Ġpreceded": 13432,
    "Ġshirt": 8853,
    "inously": 21189,
    "wishes": 13810,
    "Ġdiscriminative": 4326,
    "Ġslapped": 23174,
    "big": 13689,
    "Ġworm": 9165,
    "Ġimbued": 17458,
    "Ġexternal": 8365,
    "Ġprogra": 1145,
    "Ġnobody": 6160,
    "surpr": 5998,
    "pierced": 26142,
    "ippi": 20247,
    "Ġmeasuring": 22883,
    "Ġsomewhere": 5384,
    "Ġunthinkingly": 26222,
    "Ġglancing": 5399,
    "Ġtottenham": 24145,
    "palms": 25263,
    "Ġstars": 6151,
    "irmed": 9242,
    "Ġchambermaid": 24306,
    "Ġphenomena": 21486,
    "ities": 1827,
    "Ġbanking": 19633,
    "recurrent": 4993,
    "social": 11024,
    "ulence": 15770,
    "Ġgoes": 3853,
    "ipper": 13743,
    "Ġadding": 2404,
    "Ġpier": 7163,
    "application": 12367,
    "Ġguar": 23049,
    "Ġwitty": 21295,
    "noise": 14336,
    "number": 10117,
    "Ġpardon": 5727,
    "despairing": 25077,
    "Ġbestirred": 20454,
    "till": 6966,
    "Ġyale": 21783,
    "Ġxxii": 24478,
    "Ġswims": 12124,
    "Ġjewelled": 20186,
    "Ġmappings": 2147,
    "Ġascending": 14857,
    "artic": 14217,
    "abeth": 906,
    "Ġinto": 648,
    "Ġket": 18348,
    "Ġbounding": 19403,
    "limp": 20954,
    "Ġbull": 7839,
    "Ġrummaged": 16912,
    "noble": 7923,
    "viii": 12025,
    "Ġsubordinate": 18723,
    "Ġcoming": 2616,
    "conqu": 14247,
    "Ġadvertisement": 6941,
    "Ġtendency": 11331,
    "opposition": 24820,
    "Ġsecret": 3722,
    "Ġringleader": 26214,
    "Ġflashes": 11921,
    "Ġscared": 14192,
    "Ġunseasonable": 26522,
    "Ġcig": 6521,
    "imag": 6991,
    "Ġyea": 8919,
    "Ġindifferent": 6176,
    "hunt": 20905,
    "Ġministers": 22835,
    "acies": 14261,
    "Ġmorass": 22979,
    "beginning": 13565,
    "Ġcontracting": 16015,
    "Ġusage": 9734,
    "bul": 6951,
    "Ġremonstrance": 20626,
    "Ġvaguely": 17369,
    "Ġbeware": 8832,
    "fs": 17537,
    "Ġadded": 2717,
    "ple": 455,
    "Ġstarve": 24626,
    "Ġlustrous": 20159,
    "coff": 9112,
    "Ġvanish": 8931,
    "Ġvariants": 1793,
    "Ġtarpaul": 17732,
    "Ġpure": 6139,
    "degrad": 22147,
    "Ġri": 3395,
    "Ġaspect": 3098,
    "Ġborn": 5224,
    "Ġclean": 5652,
    "Ġwax": 10778,
    "enterprise": 24995,
    "bitts": 26123,
    "imely": 14001,
    "Ġslang": 23162,
    "Ġmachines": 1779,
    "Ġineffable": 17335,
    "ated": 725,
    "Ġachieves": 4378,
    "Ġsurviving": 24637,
    "Ġtepid": 26414,
    "ishments": 9276,
    "Ġdebility": 24275,
    "Ġsenseless": 12083,
    "Ġnewcastle": 16226,
    "Ġgranite": 22811,
    "Ġubiqu": 18049,
    "inching": 21192,
    "Ġsl": 1495,
    "forbearance": 22796,
    "Ġempt": 5050,
    "human": 7090,
    "Ġwinc": 9645,
    "Ġherb": 15860,
    "masters": 16836,
    "Ġserene": 8167,
    "sorrow": 12513,
    "bulkington": 19927,
    "Ġsooty": 25816,
    "quod": 2165,
    "Ġdocuments": 10026,
    "Ġjur": 12839,
    "Ġmanaged": 7906,
    "Ġreflect": 6576,
    "Ġrecords": 12200,
    "yonder": 21147,
    "Ġharpoone": 2914,
    "propagation": 1257,
    "Ġghostly": 24651,
    "z": 94,
    "Ġbrawn": 10484,
    "Ġfry": 17881,
    "Ġbreak": 2869,
    "sorts": 21063,
    "Ġlap": 8438,
    "algorithm": 3490,
    "Ġshadowed": 24048,
    "uttered": 8442,
    "nyder": 16687,
    "Ġforeboding": 20387,
    "Ġmax": 2007,
    "Ġgener": 588,
    "Ġexec": 19495,
    "Ġherds": 9719,
    "Ġdialogue": 12408,
    "fever": 22505,
    "expectation": 14859,
    "Ġflavor": 16256,
    "Ġpivot": 13926,
    "Ġpatch": 4180,
    "Ġappearing": 9844,
    "Ġpetty": 19598,
    "slanting": 24558,
    "Ġcorpus": 13037,
    "Ġsant": 21217,
    "card": 11477,
    "Ġenc": 968,
    "Ġjesty": 18406,
    "Ġmicha": 17813,
    "Ġmeanness": 22599,
    "Ġinc": 702,
    "Ġindulging": 16906,
    "disaster": 23495,
    "Ġinterm": 14274,
    "Ġsteal": 16287,
    "Ġadvers": 4887,
    "nesday": 8706,
    "Ġshudderings": 25201,
    "ore": 418,
    "Ġhandsom": 11126,
    "Ġanomalous": 25638,
    "Ġbenevolence": 9530,
    "Ġbargain": 23795,
    "Ġbeliever": 25847,
    "Ġresuming": 12898,
    "Ġbold": 5293,
    "Ġtahit": 10756,
    "approached": 13489,
    "Ġoutbreak": 22321,
    "Ġgait": 13335,
    "¢": 100,
    "Ġreluctant": 20528,
    "Ġgaily": 16750,
    "Ġsorrowful": 10539,
    "bear": 10317,
    "sebastian": 21824,
    "ash": 1993,
    "Ġslim": 18939,
    "whalemen": 10433,
    "etus": 21581,
    "Ġprisoner": 8676,
    "Ġmary": 3844,
    "Ġepis": 19985,
    "weather": 7229,
    "Ġvon": 14084,
    "Ġbreathlessly": 24283,
    "warp": 17708,
    "Ġwillow": 18531,
    "Ġoverwhelming": 17103,
    "sperm": 5203,
    "Ġlassitude": 20590,
    "Ġmoustache": 20487,
    "Ġoce": 3033,
    "Ġsagacity": 16976,
    "reach": 17759,
    "Ġnod": 1889,
    "Ġdevout": 14331,
    "Ġdz": 4756,
    "Ġsounded": 8594,
    "Ġevents": 4470,
    "iard": 9604,
    "causing": 25519,
    "Ġdishonor": 25602,
    "Ġhairs": 13235,
    "Ġintensely": 17019,
    "Ġexperiences": 13030,
    "Ġrefreshment": 17242,
    "tremendous": 20676,
    "confused": 19642,
    "Ġinfinitely": 8966,
    "Ġtapping": 10754,
    "Ġif": 697,
    "tic": 8391,
    "Ġfrantically": 23261,
    "Ġjung": 12841,
    "Ġejac": 10206,
    "Ġtreachery": 15105,
    "Ġlouder": 13472,
    "Ġspoil": 17009,
    "hunters": 16835,
    "extinguished": 16156,
    "weight": 2943,
    "Ġmaids": 19694,
    "Ġhellaswag": 24343,
    "begging": 22501,
    "Ġcommenced": 8534,
    "urements": 18126,
    "Ġlatin": 16823,
    "Ġchestnut": 19675,
    "b": 70,
    "Q": 53,
    "clearer": 24072,
    "Ġrainbows": 19651,
    "Ġtelescope": 17351,
    "Ġalbertus": 25649,
    "omited": 21644,
    "Ġvanished": 6874,
    "Ġvales": 21950,
    "Ġbiographical": 22766,
    "Ġjumping": 13346,
    "moid": 2450,
    "Ġmainten": 16119,
    "missing": 13224,
    "Ġpondered": 15170,
    "Ġstepmother": 16093,
    "Ġmixture": 9565,
    "chan": 1166,
    "Ġfordham": 21780,
    "une": 2787,
    "Ġ82": 24458,
    "boat": 3363,
    "Ġenjoy": 3762,
    "eches": 8078,
    "Ġscound": 12838,
    "Ġinsensibly": 20079,
    "Ġnoticed": 5549,
    "distrust": 19573,
    "Ġcas": 8412,
    "ulged": 12735,
    "poverty": 22910,
    "Ġavast": 9923,
    "Ġwomanly": 23552,
    "Ġgranted": 22810,
    "!âĢĿ": 847,
    "Ġprem": 3427,
    "baned": 17498,
    "Ġshabby": 14114,
    "Ġways": 5396,
    "Ġpir": 6818,
    "fill": 15354,
    "Ġcontortions": 18477,
    "appo": 3913,
    "inev": 21983,
    "Ġceleb": 20228,
    "Ė": 215,
    "Ġpallid": 12303,
    "Ġdetermined": 2222,
    "grees": 20888,
    "ultural": 22573,
    "Ġprovides": 1930,
    "Ġadmon": 15872,
    "accordingly": 19215,
    "Ġcompassionate": 24722,
    "atre": 17772,
    "remained": 8573,
    "Ġwhel": 15870,
    "otam": 21802,
    "vig": 15449,
    "Ġsucc": 12791,
    "Ġvote": 21951,
    "Ġconsistence": 23359,
    "Ġcounter": 6482,
    "tales": 17688,
    "eling": 6683,
    "decoder": 3646,
    "rival": 12748,
    "Ġapprehen": 16831,
    "Ġshore": 4835,
    "metals": 24765,
    "derment": 22165,
    "Ġparts": 4163,
    "Ġopportunity": 4786,
    "harpooned": 24288,
    "food": 12468,
    "Ġuntutored": 19168,
    "Ġpastures": 23422,
    "Ġdistrict": 10320,
    "Ġdarkened": 16435,
    "fatality": 25022,
    "ee": 1660,
    "Ġdepresses": 25798,
    "Ġrestricted": 19032,
    "Ġemblaz": 16233,
    "inarticulate": 21198,
    "Ġdowry": 20688,
    "Ġdevelop": 1674,
    "Ġinsignificant": 20459,
    "nursery": 26401,
    "olstad": 7612,
    "Ġdiscovers": 4426,
    "Ġseams": 12129,
    "ites": 3897,
    "captain": 3952,
    "untary": 9870,
    "ologically": 22863,
    "aus": 1498,
    "Ġgrosvenor": 17421,
    "oding": 1462,
    "preading": 18498,
    "âĢľâĢĻ": 10224,
    "Ġpatroness": 13513,
    "Ġgoblet": 25824,
    "ide": 722,
    "cavity": 26127,
    "sign": 8388,
    "hens": 3935,
    "Ġarom": 15495,
    "Ġweight": 657,
    "reflect": 19867,
    "Ġru": 948,
    "acted": 11012,
    "Ġpatagonian": 20536,
    "Ġsummons": 13236,
    "Ġaug": 6236,
    "concluding": 19484,
    "wrote": 11549,
    "Ġswells": 9830,
    "Ġnative": 4640,
    "Ġdenomin": 12072,
    "Ġpolice": 4674,
    "ow": 325,
    "vill": 10737,
    "Ġspies": 22133,
    "germ": 15360,
    "cream": 15334,
    "ber": 904,
    "ifice": 7198,
    "Ġfumes": 21421,
    "Ġparr": 22123,
    "urmount": 13999,
    "breath": 15166,
    "Ġgrope": 17997,
    "Ġmeas": 1096,
    "shri": 14238,
    "Ġxv": 23409,
    "Ġabsorbed": 12335,
    "track": 24335,
    "Ġidentify": 12018,
    "Ġminers": 22834,
    "Ġgrate": 12969,
    "prec": 3202,
    "Ġperished": 11788,
    "Ġplayfulness": 23638,
    "Ġharpooned": 13266,
    "Ġcrest": 12946,
    "Ġeligible": 10673,
    "Ġskylarking": 19490,
    "ourers": 21452,
    "Ġbigness": 19763,
    "Ġbodings": 21394,
    "ri": 390,
    "halfway": 24313,
    "rec": 6005,
    "agon": 7871,
    "Ġcrack": 7710,
    "Ġmidway": 14606,
    "fect": 2300,
    "bud": 10686,
    "valley": 16215,
    "elihood": 4620,
    "Ġheroic": 14911,
    "Ġbranded": 14382,
    "Ġspas": 10925,
    "mastod": 23977,
    "Ġdissatisfied": 14259,
    "Ġchilly": 25563,
    "Ġworld": 1594,
    "advancing": 14839,
    "Ġspat": 2665,
    "Ġhushed": 13928,
    "aws": 8237,
    "Ġill": 2193,
    "Ġrate": 1061,
    "Ġantiquity": 15234,
    "calcul": 12992,
    "Ġplanks": 5563,
    "swing": 15432,
    "heavy": 10577,
    "fluttering": 23976,
    "ils": 3182,
    "alt": 12643,
    "Ġhouse": 1500,
    "Ġunob": 22019,
    "Ġpsal": 15620,
    "Ġleatherhead": 20017,
    "Ġcomplement": 23713,
    "Ġdistrustful": 25057,
    "Ġannouncing": 16756,
    "hands": 5968,
    "Ġaverages": 2399,
    "Ġforging": 18096,
    "Ġpredictions": 1455,
    "Ġverily": 16605,
    "Ġextracts": 9368,
    "theless": 4260,
    "Ġth": 299,
    "Ġclanking": 20614,
    "spee": 9320,
    "behaved": 24463,
    "three": 5239,
    "Ġcloth": 9747,
    "rinted": 21046,
    "Ġcur": 1246,
    "Ġhers": 7889,
    "Ġvane": 22877,
    "ves": 688,
    "complet": 11385,
    "Ġpractised": 23304,
    "Ġunfelt": 24112,
    "Ġrece": 11641,
    "compliment": 11366,
    "Ġconcoct": 19049,
    "dam": 7798,
    "Ġbattered": 17864,
    "rets": 12546,
    "aulets": 18622,
    "Ġclinging": 10295,
    "Ġcontradicted": 20214,
    "securer": 25603,
    "Ġrinal": 21981,
    "Ġrevolved": 9987,
    "bble": 17487,
    "Ġoptimal": 1856,
    "Ġcontinuous": 1558,
    "Ġpriv": 4182,
    "Ġbestowed": 6595,
    "Ġknee": 7095,
    "Ġdece": 6997,
    "sixty": 24853,
    "pleasures": 24049,
    "Ġsult": 10769,
    "urously": 18053,
    "bearers": 18525,
    "ertips": 23641,
    "Ġlad": 2363,
    "Ġmyth": 18221,
    "Ġasserted": 16951,
    "Ġire": 12674,
    "Ġsailed": 4889,
    "Ġimprovements": 14500,
    "Ġneedless": 19231,
    "aper": 4998,
    "Ġthousandth": 23687,
    "ears": 20847,
    "Ġuniverse": 14127,
    "Ġthirt": 13942,
    "remed": 18955,
    "belief": 13286,
    "otion": 4945,
    "Ġmah": 15545,
    "brain": 13691,
    "Ġblemish": 19682,
    "organ": 15578,
    "Ġfedallah": 6110,
    "phon": 4126,
    "Ġpeev": 22696,
    "Ġgun": 4702,
    "mountains": 15184,
    "brave": 19826,
    "Ġadmitted": 8989,
    "Ġtoller": 9094,
    "Ġoars": 3896,
    "Ġmysticetus": 24923,
    "Ġobedient": 20108,
    "Ġtoler": 7589,
    "Ġramad": 8530,
    "mme": 22504,
    "frau": 15093,
    "Ġbenef": 3488,
    "Ġho": 1932,
    "Ġmournfully": 20120,
    "ceiling": 21630,
    "Ġunfrequently": 20741,
    "trampled": 26335,
    "Ġhemis": 21687,
    "Ġtea": 5040,
    "Ġwre": 5076,
    "ying": 1368,
    "uc": 1877,
    "reliable": 21243,
    "Ġexception": 11218,
    "Ġthoughtful": 16194,
    "objects": 13474,
    "acquaintance": 6938,
    "iff": 3904,
    "Ġhappier": 10362,
    "signed": 21064,
    "Ġunpitying": 25661,
    "Ġsauce": 15894,
    "uncommonly": 25550,
    "Ġchart": 10947,
    "Ġdevoutly": 25834,
    "Ġstumped": 24945,
    "Ġconsoling": 19460,
    "Ġphrases": 2798,
    "Ġengravings": 15069,
    "Ġrefuse": 5739,
    "Ġafore": 10760,
    "friendly": 13289,
    "meat": 18675,
    "subst": 12169,
    "Ġtor": 8106,
    "flight": 15356,
    "Ġcompleted": 8999,
    "Ġcoral": 11926,
    "ally": 530,
    "Ġreleased": 2981,
    "Ġabsurdly": 19963,
    "Ġadvances": 13001,
    "icating": 15659,
    "Ġsinusoid": 4781,
    "Ġenorm": 5304,
    "Ġmeridian": 25713,
    "Ġseparation": 11248,
    "amed": 4446,
    "!)": 10072,
    "mund": 13761,
    "Ġfatally": 19397,
    "anded": 5924,
    "Ġconfiding": 19042,
    "Ġwrithing": 11950,
    "dared": 13706,
    "Ġowen": 15098,
    "cav": 17510,
    "Ġpunctual": 17140,
    "Ġinflex": 20637,
    "Ġinwards": 15625,
    "arity": 1301,
    "Ġdiscontented": 16062,
    "captains": 12132,
    "Ġpitiable": 9917,
    "Ġblast": 7445,
    "protested": 13478,
    "jaws": 20934,
    "Ġsatiated": 22905,
    "fav": 6649,
    "atters": 18506,
    "Ġsnows": 14729,
    "Ġpiercing": 13497,
    "Ġfeigned": 22212,
    "Ġmorocco": 26575,
    "Ġardour": 8043,
    "Ġz": 999,
    "Ġopen": 1545,
    "Ġregardless": 19326,
    "lected": 1635,
    "teringly": 21827,
    "Ġprofessional": 7299,
    "Ġelasticity": 19561,
    "Ġdecember": 15009,
    "Ġbuoyancy": 20045,
    "Ġwhite": 1533,
    "intim": 22937,
    "Ġvehemence": 26568,
    "Ġleave": 2457,
    "Ġsympt": 7014,
    "Ġedward": 19153,
    "Ġpanegyric": 26451,
    "Ġunwarrant": 19936,
    "Ġflourishing": 25188,
    "Ġprotesting": 14744,
    "Ġidentical": 10436,
    "Ġapproached": 5844,
    "iscre": 17852,
    "imagination": 13484,
    "Ġentrances": 25835,
    "Ġserv": 3330,
    "rollable": 13948,
    "Ġaverted": 16258,
    "cy": 647,
    "Ġpair": 5706,
    "Ġrazors": 22651,
    "Ġwarsaw": 26168,
    "Ġhandwriting": 14322,
    "Ġfeels": 6882,
    "Ġdependen": 1829,
    "ashions": 16421,
    "Ġdus": 8424,
    "prisoner": 20546,
    "Ġtashtego": 4484,
    "covering": 15337,
    "Ġlearns": 2642,
    "Ġyanke": 18100,
    "Ġunwritten": 22038,
    "ressing": 8922,
    "Ġpump": 12626,
    "def": 1452,
    "Ġobserv": 8589,
    "Ġ95": 19776,
    "Ġtipt": 21176,
    "Ġpropag": 16351,
    "Ġchapel": 9526,
    "Ġfrankness": 16748,
    "iltrated": 19307,
    "Ġthigh": 10189,
    "reached": 13844,
    "enched": 10157,
    "Ġperem": 12937,
    "Ġpilgrimage": 17311,
    "Ġnecess": 3476,
    "analysis": 26174,
    "Ġpreside": 18366,
    "Ġcents": 17830,
    "Ġbrighter": 16190,
    "networks": 2406,
    "Ġhandle": 3138,
    "igated": 15711,
    "Ġplanning": 14754,
    "Ġspectrum": 4472,
    "admire": 24946,
    "noticed": 14344,
    "estruct": 22227,
    "nour": 20990,
    "gratulation": 24349,
    "Ġpaltry": 16693,
    "prolong": 23398,
    "Ġreg": 728,
    "ase": 1158,
    "Ġrasc": 21978,
    "Ġbackbones": 22664,
    "Ġproud": 5654,
    "embarr": 17295,
    "Ġderived": 8239,
    "independent": 26022,
    "Ġbeasts": 10620,
    "Ġkicks": 19771,
    "Ġfoot": 3162,
    "romised": 14115,
    "Ġapproxim": 1219,
    "elev": 12463,
    "Ġgord": 21603,
    "elve": 4641,
    "into": 3683,
    "Ġnorris": 23204,
    "Ġinclination": 6626,
    "cheeked": 19342,
    "Ġfeebly": 24878,
    "Ġconfirming": 25322,
    "Ġunwarrantable": 26346,
    "Ġprograms": 7239,
    "followed": 8339,
    "Ġprosecution": 12385,
    "ratulations": 20129,
    "Ġperforms": 11881,
    "mology": 12496,
    "hoisted": 19284,
    "lin": 9606,
    "Ġbasin": 19850,
    "hauled": 20671,
    ".)": 6784,
    "Ġhereby": 10361,
    "Ġpeddler": 26181,
    "backed": 9869,
    "Ġlashed": 9201,
    "Ġcause": 2410,
    "Ġwinter": 5220,
    "Ġindestructible": 26574,
    "Ġseren": 7401,
    "Ġgreen": 3055,
    "Ġremained": 3142,
    "Ġterror": 5124,
    "sphere": 22733,
    "Ġunchanged": 22035,
    "Ġmanhood": 22330,
    "Ġalluding": 18237,
    "Ġpur": 2217,
    "Ġwatery": 6298,
    "Ġlordly": 23747,
    "Ġflap": 14425,
    "Ġdusting": 24597,
    "Ġnoses": 18374,
    "Ġspoils": 24805,
    "burg": 16775,
    "racts": 14365,
    "herent": 2528,
    "Ġperception": 9753,
    "Ġcosy": 13135,
    "keepers": 16662,
    "Ġconjecture": 9535,
    "Ġquicker": 16510,
    "Ġcounters": 24143,
    ":": 30,
    "console": 22475,
    "glimmer": 26323,
    "frost": 15110,
    "stick": 15689,
    "Ġtendons": 19811,
    "Ġcus": 21346,
    "comfortably": 16877,
    "Ġrefused": 6717,
    "stubb": 6019,
    "Ġbapt": 13899,
    "Ġrustling": 24714,
    "Ġexord": 21832,
    "Ġcomputation": 967,
    "Ġlighten": 23262,
    "Ġtomorrow": 21516,
    "Ġrouse": 15825,
    "Ġpiling": 17911,
    "Ġassu": 21901,
    "Ġmed": 4176,
    "Â£": 4812,
    "pudding": 17649,
    "fashioned": 9573,
    "Ġrequisition": 22633,
    "Ġ57": 24321,
    "all": 486,
    "imen": 12691,
    "Ġboomer": 20170,
    "Ġunderground": 18985,
    "Ġmurderer": 4979,
    "Ġsteeple": 19289,
    "instead": 14816,
    "less": 928,
    "Ġbegrim": 23021,
    "Ġreck": 6539,
    "Ġhist": 2445,
    "Ġcabinets": 23865,
    "Ġmanage": 7641,
    "Ġschooner": 16749,
    "Ġsgd": 3131,
    "`": 68,
    "Ġblend": 14403,
    "Ġflamingo": 15104,
    "africa": 26309,
    "Ġkept": 3347,
    "extremely": 26266,
    "verty": 8454,
    "kitty": 10108,
    "home": 7341,
    "uture": 1075,
    "Ġchas": 18380,
    "history": 15017,
    "Ġtechn": 9372,
    "Ġfootfalls": 25867,
    "Ġprosperous": 15174,
    "ird": 2428,
    "ference": 1883,
    "generous": 16571,
    "devouring": 24953,
    "Ġjoking": 12842,
    "allions": 22202,
    "Ġconcisely": 19048,
    "Ġkeys": 12001,
    "Ġunfinished": 19512,
    "Ġvoices": 7876,
    "Ġgloom": 4201,
    "Ġwaterward": 23370,
    "special": 14708,
    "Ġappertaining": 26535,
    "Ġprocessing": 890,
    "Ġfru": 8421,
    "Ġtaught": 6804,
    "Ġpoem": 22593,
    "Ġyojo": 7611,
    "Ġtruth": 3321,
    "Ġointment": 21329,
    "Ġcarriage": 3949,
    "Ġpatron": 7462,
    "therefore": 5955,
    "Ġje": 4122,
    "mael": 6724,
    "Ġgrassy": 24379,
    "Ġacquired": 13049,
    "Ġassert": 7122,
    "suited": 22643,
    "garet": 9600,
    "Ġcosmopol": 16455,
    "Ġsaved": 6692,
    "althy": 8433,
    "Ġpuzzling": 14901,
    "Ġinland": 11611,
    "please": 8177,
    "mun": 20964,
    "continu": 5501,
    "pire": 9138,
    "Ġdid": 834,
    "Ġcards": 7581,
    "Ġspace": 1548,
    "Ġindefinite": 17179,
    "Ġexcurs": 23319,
    "Ġoverall": 4357,
    "Ġvol": 4188,
    "Ġextinction": 14341,
    "questions": 16762,
    "orting": 9738,
    "look": 2261,
    "Ġten": 2386,
    "Ġvalidate": 3027,
    "compassion": 12372,
    "abhor": 12712,
    "path": 10121,
    "Ġassure": 4417,
    "Ġlandless": 23382,
    "iasm": 8061,
    "Ġwake": 4749,
    "Ġunspeak": 8854,
    "Ġraptures": 13499,
    "Ġimprecate": 20521,
    "Ġclapham": 17268,
    "achine": 610,
    "features": 14763,
    "Ġinaccessible": 13937,
    "Ġprendergast": 26539,
    "Ġdismantled": 20219,
    "Ġmate": 3710,
    "Ġimply": 18444,
    "Ġbook": 2702,
    "Ġtribute": 15478,
    "Ġ17": 5740,
    "Ġundivided": 24123,
    "Ġterms": 2561,
    "Ġberth": 8683,
    "russian": 22183,
    "ĠĠĠĠĠĠĠĠĠĠĠĠĠĠĠĠĠĠĠĠĠĠĠĠĠĠĠĠĠĠĠ": 19703,
    "Ġentertain": 6055,
    "seat": 18128,
    "Ġpantheistic": 26337,
    "Ġspires": 11735,
    "igation": 5919,
    "buttons": 22406,
    "Ġpierce": 17037,
    "Ġflies": 13031,
    "Ġfundamentals": 14637,
    "Ġgrin": 5482,
    "Ġdeliver": 9852,
    "Ġdestroy": 5772,
    "Ġgenealogies": 25962,
    "astic": 1868,
    "Ġhyster": 16875,
    "boards": 23257,
    "hours": 9127,
    "prophecy": 22851,
    "if": 376,
    "Ġspiral": 14586,
    "Ġtreat": 3176,
    "Ġhanded": 8217,
    "enter": 7858,
    "dest": 4102,
    "sticks": 25966,
    "Ġentreaties": 9038,
    "Ġthousands": 6750,
    "stood": 4115,
    "ived": 1529,
    "Ġunwelcome": 12785,
    "Ġcrozetts": 19632,
    "towns": 24855,
    "Ġeducated": 16787,
    "aving": 2407,
    "iom": 20917,
    "Ġdet": 508,
    "business": 5610,
    "benefact": 24642,
    "Ġnervousness": 23559,
    "Ġencircling": 26273,
    "meth": 11505,
    "Ġexchange": 15760,
    "Ġbewitched": 25976,
    "philips": 20038,
    "Ġpeculiarity": 12938,
    "Ġbeating": 8145,
    "usiveness": 22287,
    "Ġrehearsed": 25972,
    "Ġhemisphere": 26480,
    "vinegar": 25421,
    "Ġimpass": 15989,
    "Ġcherub": 23291,
    "certainly": 5340,
    "Ġquivered": 18468,
    "Ġpleased": 4060,
    "prodigious": 17469,
    "ected": 7873,
    "Ġadro": 15871,
    "Ġreaching": 7303,
    "Ġinsect": 12641,
    "Ġdisplays": 19859,
    "Ġbathe": 25444,
    "adier": 18092,
    "frisco": 16789,
    "Ġselecting": 16683,
    "Ġmabel": 17327,
    "Ġcuriosity": 2419,
    "Ġshin": 18228,
    "Ġanalysis": 1917,
    "Ġlabourers": 23335,
    "involuntarily": 20418,
    "¦": 104,
    "Ġpapered": 20134,
    "oc": 2836,
    "Ġadieus": 25113,
    "dire": 15339,
    "Ġrumbling": 18214,
    "across": 10325,
    "Ġcircumst": 2978,
    "Ġcontented": 9759,
    "Ġrelics": 16198,
    "ivility": 12788,
    "Ġcommentators": 25230,
    "drop": 15340,
    "Ġenl": 18190,
    "Ġdefiance": 11070,
    "gast": 20873,
    "Ġdungeon": 16998,
    "Ġrevel": 9217,
    "Ġcalmer": 23047,
    "fabulous": 20477,
    "Ġadventures": 7748,
    "positive": 20570,
    "ader": 14015,
    "Ġdataset": 12825,
    "Ġunaware": 22063,
    "Ġsymphony": 26534,
    "Ġtranqu": 4602,
    "attention": 2109,
    "interference": 23741,
    "Ġpitching": 16613,
    "Ġeggs": 12346,
    "Ġfog": 9664,
    "ceived": 1965,
    "asper": 7855,
    "subtle": 24246,
    "Ġfrankenstein": 7097,
    "Ġbush": 23340,
    "Ġmanif": 8874,
    "Ġremove": 7499,
    "ifford": 15788,
    "summoned": 26593,
    "Ġsem": 1878,
    "antages": 7192,
    "Ġstiffly": 15007,
    "rennial": 22345,
    "Ġreside": 22543,
    "thereby": 14450,
    "Ġcontempt": 6277,
    "Ġapp": 493,
    "conversations": 24748,
    "abular": 4762,
    "ipher": 18423,
    "Ġappropri": 2227,
    "loveliness": 26551,
    "idents": 6152,
    "thar": 18218,
    "alot": 15630,
    "Ġpick": 4256,
    "Ġgarb": 21606,
    "Ġentertaining": 16928,
    "partner": 19223,
    "feeders": 25236,
    "hecy": 21209,
    "Ġfossiliferous": 25610,
    "Ġtutored": 20131,
    "Ġship": 1091,
    "Ġthird": 4186,
    "Ġtrouble": 3693,
    "gods": 13371,
    "Ġvalues": 2652,
    "operations": 19978,
    "rium": 3134,
    "Ġdives": 17892,
    "emotion": 21934,
    "Ġejaculated": 15173,
    "atched": 6376,
    "Ġungenerous": 18267,
    "thanking": 24326,
    "Ġdependencies": 2313,
    "Ġaslant": 21905,
    "quohog": 21856,
    "erable": 1918,
    "onted": 11570,
    "penny": 22948,
    "antage": 3878,
    "conc": 3945,
    "Ġscre": 9740,
    "uer": 21103,
    "able": 453,
    "Ġdisenc": 22530,
    "Ġsilver": 7464,
    "cific": 10088,
    "Ġdeserve": 8309,
    "anc": 6380,
    "Ġunrestingly": 20364,
    "orn": 2243,
    "Ġunspeakable": 10059,
    "Ġnocturnal": 20717,
    "Ġcurve": 22973,
    "familiar": 19786,
    "Ġwarehouses": 20421,
    "otions": 7181,
    "Ġwalrus": 14976,
    "Ġumb": 11649,
    "Ġ20": 8617,
    "lit": 9608,
    "Ġjenkinson": 11433,
    "Ġcoffins": 13254,
    "Ġperth": 7024,
    "pine": 13772,
    "Ġports": 10820,
    "Ġdestination": 19151,
    "Ġdesiring": 14418,
    "ners": 3274,
    "gives": 15361,
    "Ġbrew": 23347,
    "Ġcharacteristic": 12051,
    "Ġunjustly": 17129,
    "Ġgoose": 5939,
    "Ġsales": 12812,
    "Ġpractically": 13100,
    "sculptured": 26047,
    "Ġ32": 19492,
    "iny": 4293,
    "lessly": 4554,
    "Ġcontribut": 12864,
    "Ġglitter": 25126,
    "Ġhereditary": 10667,
    "Ġcetus": 19887,
    "Ġastonished": 7089,
    "Ġjabbering": 22307,
    "Ġbreach": 11978,
    "Ġwhittingham": 26199,
    "ython": 1031,
    "Ď": 207,
    "Ġthirdly": 24146,
    "Ġenchanted": 9083,
    "Ġleaking": 21749,
    "Ġjumbled": 22301,
    "Ġmillions": 11356,
    "Ġpumping": 25644,
    "dwell": 15345,
    "accessible": 13643,
    "Ġconvey": 9984,
    "Ġoscillations": 2900,
    "Ġfrock": 10492,
    "¬": 110,
    "Ġmakes": 3653,
    "infor": 2963,
    "Ġbidding": 9540,
    "directed": 20408,
    "jerked": 25619,
    "pooh": 18800,
    "Ġexpands": 25238,
    "Ġbody": 2437,
    "Ġcorrob": 16268,
    "Ġrambling": 18638,
    "Ġholds": 7976,
    "Ġmicrosc": 20679,
    "estations": 22228,
    "Ġdeepest": 8215,
    "Ġact": 691,
    "Ġdeterm": 1270,
    "Ġearnestly": 5980,
    "cur": 3273,
    "Ġcautiously": 16979,
    "Ġwarnings": 16883,
    "Ġpossibilities": 18976,
    "Ġshut": 3940,
    "inburgh": 15493,
    "Ġcostume": 16497,
    "aked": 2017,
    "crime": 14778,
    "mong": 15393,
    "Ġindividuals": 24546,
    "kindred": 24052,
    "Ġjollity": 25567,
    "Ġbeech": 18085,
    "Ġyards": 5371,
    "mured": 6960,
    "sacrifice": 13496,
    "unable": 14062,
    "step": 2456,
    "scot": 14421,
    "ench": 21282,
    "qualities": 25046,
    "Ġencoura": 1367,
    "Ġdishonoured": 20394,
    "Ġrealise": 16340,
    "Ġpeaked": 2296,
    "Ġhighly": 4845,
    "learnt": 23545,
    "Ġfortunately": 12184,
    "Ġspend": 5306,
    "Ġsee": 802,
    "menced": 23149,
    "Ġpursuits": 12081,
    "Ġpropriety": 10013,
    "Ġplans": 7918,
    "Ġthis": 382,
    "Ġpreserve": 7529,
    "str": 2577,
    "Ġdeference": 10883,
    "Ġbountiful": 25945,
    "stocks": 23824,
    "Ġpillows": 24989,
    "Ġblaming": 22933,
    "foundered": 20869,
    "bill": 10079,
    "Ġrichness": 19313,
    "Ġchance": 3319,
    "summon": 23418,
    "anywhere": 14684,
    "Ġordained": 19448,
    "shadows": 25480,
    "dough": 15338,
    "intention": 10370,
    "betrayed": 24641,
    "Ġdesp": 3216,
    "Ġoutrage": 15962,
    "myster": 16266,
    "Ġspecksnyder": 17406,
    "itiousness": 21337,
    "Ĉ": 201,
    "Ġbridal": 14957,
    "Ġperils": 6275,
    "Ġtravel": 5954,
    "Ġheel": 9687,
    "Ġmarched": 18873,
    "Â·": 21152,
    "upp": 10133,
    "kshire": 13749,
    "chors": 11647,
    "Ġwaving": 8579,
    "stranded": 19227,
    "Ġbehold": 5048,
    "ciousness": 20819,
    "Ġbulb": 23858,
    "amaz": 21848,
    "Ġpropose": 9856,
    "ificent": 8184,
    "heavenly": 20048,
    "repeating": 20132,
    "Ġhumiliation": 16201,
    "Ġhawaiian": 25367,
    "cing": 1015,
    "±": 114,
    "illar": 5100,
    "Ġignor": 4008,
    "Ġdesolation": 12273,
    "Ġaver": 1286,
    "Ġsub": 950,
    "Ġmon": 1251,
    "Ġbodily": 6108,
    "Ġrelaps": 18777,
    "Ġreconciled": 13591,
    "Ġtusk": 25426,
    "sig": 2875,
    "comes": 5394,
    "fortunate": 4792,
    "Ġbarbary": 24219,
    "Ġfacial": 10608,
    "Ġvertical": 16606,
    "asted": 4649,
    "bond": 17492,
    "ackled": 22428,
    "agitation": 14071,
    "Ġshares": 23247,
    "Ġsingular": 4422,
    "Ġchamois": 16802,
    "Ġboil": 16108,
    "Ġtrees": 4202,
    "fates": 20860,
    "Ġpri": 5814,
    "ask": 857,
    "obey": 11512,
    "Ġbraided": 16584,
    "alse": 4184,
    "igating": 21703,
    "Ġperch": 10301,
    "Ġhedgehog": 10647,
    "ariously": 18528,
    "Ġwillingly": 8888,
    "Ġsurgeon": 8984,
    "execut": 13659,
    "Ġtelling": 5747,
    "Ġcompromising": 22578,
    "merit": 19283,
    "Ġoutcast": 18415,
    "Ġencouraged": 9358,
    "ette": 15663,
    "othic": 16219,
    "occup": 7753,
    "Ġbehavior": 8002,
    "contr": 12061,
    "Ġnext": 2139,
    "Ġcetology": 10012,
    "Ġmelancholy": 5606,
    "Ġinj": 4760,
    "dz": 4739,
    "Ġunmo": 12778,
    "Ġdoors": 6419,
    "Ġtap": 12531,
    "sed": 4175,
    "Ġsain": 17752,
    "Ġsixty": 7723,
    "Ġtransparen": 10544,
    "isive": 10795,
    "Ġsuite": 18281,
    "Ġgrizz": 10354,
    "Ġlowly": 11123,
    "Ġres": 696,
    "Ġblacksmith": 6597,
    "bee": 16042,
    "Ġvolcano": 24150,
    "Ġdepress": 14049,
    "sooner": 14781,
    "leviathan": 7785,
    "oop": 10717,
    "Ġdirect": 1471,
    "Ġdecision": 2676,
    "rises": 17657,
    "Ġtogether": 1879,
    "Ġsurgeons": 23466,
    "Ġid": 1909,
    "imming": 9690,
    "Ġadorn": 12795,
    "Ġglue": 15678,
    "Ġmadame": 13154,
    "instance": 24171,
    "Ġexcuse": 5863,
    "Ġelement": 6898,
    "nuts": 15401,
    "Ġdecide": 9289,
    "Ġblinds": 8007,
    "Ġstuck": 9223,
    "_,âĢĿ": 6220,
    "Ġelix": 22654,
    "Ġbristol": 14383,
    "Ġblocks": 6323,
    "continuance": 19721,
    "Ġdetermining": 14424,
    "Ġfame": 21409,
    "car": 4212,
    "esy": 9188,
    "Ġattraction": 18620,
    "Ġcharge": 5325,
    "Ġyounge": 16291,
    "Ġgeneral": 1862,
    "conside": 9293,
    "fingers": 17373,
    "west": 10741,
    "Ġstupendous": 20504,
    "Ġflea": 23776,
    "Ġirksome": 13116,
    "Ġinsolent": 13604,
    "Ġsmothered": 20722,
    "seized": 14038,
    "Ġdexter": 9704,
    "already": 6981,
    "Ġ29": 23733,
    "ivering": 7698,
    "Ġincluded": 8959,
    "Ġexquis": 9703,
    "Ġmemorable": 16448,
    "Ġfacet": 15589,
    "Ġinsincere": 26601,
    "Ġmetaphysical": 26070,
    "ob": 1422,
    "Ġecho": 12671,
    "fireside": 24693,
    "arking": 16129,
    "rix": 1571,
    "aught": 2680,
    "connected": 1307,
    "inced": 3337,
    "ching": 5156,
    "Ġtumult": 7116,
    "Ġmiserably": 12953,
    "Ġoptimizers": 18630,
    "Ġhans": 12631,
    "Ġadie": 8491,
    "Ġworshipping": 22931,
    "ede": 21509,
    "third": 8168,
    "Ġgain": 4828,
    "fellows": 12278,
    "Ġformidable": 8220,
    "Ġty": 6660,
    "Ġeu": 6391,
    "shop": 14240,
    "brink": 23578,
    "Ġoccurred": 4460,
    "Ġspe": 819,
    "Ġsponge": 26005,
    "against": 5872,
    "Ġorder": 1686,
    "Ġjoky": 18407,
    "Ġattach": 14291,
    "Ġcabs": 23642,
    "Ġinclud": 1508,
    "Ġtempest": 8213,
    "hroom": 12481,
    "Ġaccusation": 22385,
    "exp": 2737,
    "compasses": 19461,
    "Ġhose": 12632,
    "Ġcomputers": 2644,
    "iquet": 17577,
    "Ġregal": 16076,
    "ot": 346,
    "Ġnuptial": 25783,
    "Ġmorals": 22980,
    "Ġcloset": 19594,
    "Ġwelcomed": 9485,
    "Ġnovel": 6697,
    "did": 3196,
    "days": 7688,
    "oles": 21007,
    "xter": 9149,
    "tashtego": 9625,
    "Ġscho": 4434,
    "Ġbriony": 9332,
    "larger": 24205,
    "Ġsoutherly": 23338,
    "ohog": 9846,
    "blows": 17168,
    "Ġcorpor": 23044,
    "shutters": 20316,
    "Ġbarber": 23792,
    "Ġconcuss": 19050,
    "Ġgroan": 13329,
    "Ġpartly": 6715,
    "Ġshipping": 14107,
    "height": 21208,
    "namely": 23702,
    "stat": 21647,
    "iply": 22350,
    "Ġlapse": 17123,
    "Ġlingo": 24904,
    "Ġtelescopes": 25691,
    "Ġconference": 15751,
    "vitiated": 25755,
    "Ġafric": 8909,
    "Ġ48": 24083,
    "whispering": 26104,
    "Ġrecital": 16151,
    "worth": 8630,
    "progression": 20385,
    "Ġeasy": 3452,
    "Ġarticle": 9505,
    "lake": 13752,
    "footman": 17165,
    "superiority": 20188,
    "Ġdexterously": 25296,
    "Ġspermacetti": 19053,
    "Ġmounted": 7832,
    "Ġtherefore": 2239,
    "Ġeffects": 7236,
    "Ġmild": 4145,
    "ħ": 232,
    "Ġreserve": 9974,
    "Ġgaol": 19570,
    "long": 2915,
    "Ġruinous": 24634,
    "Ġwidespread": 20678,
    "trying": 15441,
    "animated": 14978,
    "sideways": 14573,
    "lydon": 13992,
    "uger": 21106,
    "Ġobserver": 11993,
    "isticated": 1585,
    "Ġchanged": 5243,
    "Ġeconomical": 25288,
    "Ġwo": 3652,
    "tit": 11530,
    "Ġstatistics": 1683,
    "aring": 1476,
    "Ġscorched": 17102,
    "icher": 9205,
    "Ġarched": 10934,
    "Ġunsettled": 14126,
    "chased": 18044,
    "gaining": 20127,
    "dishonourable": 26367,
    "token": 21085,
    "Ġbol": 6243,
    "idav": 18095,
    "he": 264,
    "Ġbloodless": 19341,
    "commendation": 26351,
    "caught": 8730,
    "Ġabominate": 20068,
    "Ġcharitable": 23272,
    "Ġminute": 4278,
    "hilar": 25084,
    "irregular": 21915,
    "Ġportraits": 20145,
    "utterly": 20015,
    "Ġpit": 3421,
    "Ġwithered": 19468,
    "Ġfiddle": 25445,
    "saying": 8644,
    "nable": 13765,
    "Ġtun": 6000,
    "Ġ9": 5902,
    "Ġcomp": 724,
    "Ġhandsome": 4906,
    "Ġhastened": 9007,
    "toed": 18580,
    "Ġcough": 11584,
    "Ġbutt": 14128,
    "ace": 719,
    "Ġhydraul": 9517,
    "iscreet": 20685,
    "Ġgay": 5535,
    "conject": 8883,
    "Ġsibbald": 21233,
    "Ġxlvi": 25591,
    "swaying": 25911,
    "Ġhypothe": 4070,
    "Ġassume": 10518,
    "darted": 20834,
    "Ġerudite": 26353,
    "add": 5229,
    "Ġcust": 11585,
    "Ġpolic": 13165,
    "izers": 18145,
    "Ġcopied": 20011,
    "auley": 22626,
    "Ġcetacea": 20556,
    "Ġcompos": 22574,
    "Ġspake": 18309,
    "Ġamounted": 18514,
    "altogether": 12644,
    "Ġdropping": 7483,
    "ru": 479,
    "Ġmeryton": 4436,
    "Ġuninjured": 22060,
    "Ġemerg": 13428,
    "maged": 15397,
    "Ġliterary": 25166,
    "anges": 1675,
    "Ġcreating": 2999,
    "craft": 12251,
    "Ġgazing": 5877,
    "axed": 8892,
    "secre": 18130,
    "coiled": 16488,
    "lect": 1223,
    "\"],": 26121,
    "poster": 11057,
    "Ġdoubting": 13105,
    "Ġexplanations": 15914,
    "wake": 11548,
    "Ġgreat": 896,
    "circled": 24190,
    "Ġmaelstrom": 19359,
    "Ġreb": 15695,
    "Ġal": 342,
    "Ġstationary": 19697,
    "isted": 3300,
    "Ġoptim": 792,
    "Ġamuse": 5941,
    "Ġvengeance": 5886,
    "eat": 11485,
    "ving": 594,
    "Ġunsupp": 22025,
    "trial": 20353,
    "strongly": 24685,
    "volutions": 16324,
    "Ġwindward": 6885,
    "Ġjack": 4652,
    "imens": 1749,
    "til": 17673,
    "Ġaged": 10324,
    "searching": 25106,
    "nailed": 20998,
    "Ġcharts": 12832,
    "Ġcleared": 6076,
    "Ġwhether": 2001,
    "Ġthom": 21519,
    "sk": 5521,
    "Ġsidel": 9638,
    "Ġwintry": 17437,
    "Ġhumiliating": 22885,
    "Ġgrowl": 16541,
    "sheep": 23089,
    "ighter": 7968,
    "Ġreced": 15696,
    "Ġexclaimed": 4683,
    "precision": 4330,
    "Ġwavering": 23283,
    "Ġpiqu": 21479,
    "icious": 7380,
    "Ġidleness": 11146,
    "Ġacquisition": 18901,
    "presbyter": 20621,
    "ason": 1285,
    "iding": 3847,
    "respect": 6375,
    "Ġsnake": 12065,
    "Ġparish": 8858,
    "merely": 16138,
    "Ġattendance": 12186,
    "Ġfuneral": 10285,
    "amous": 15765,
    "cturn": 17989,
    "orated": 12596,
    "inf": 6234,
    "Ġmarshalled": 25316,
    "Ġwent": 1532,
    "Ġnumberless": 16419,
    "grad": 2566,
    "Ġpint": 17909,
    "Ġneck": 4885,
    "Ġsacrific": 15020,
    "zors": 21150,
    "Ġtrance": 12844,
    "remaining": 20223,
    "alo": 7588,
    "Ġgiant": 13971,
    "cruising": 12284,
    "forster": 16165,
    "misrepresented": 24214,
    "Ġhumorously": 18780,
    "ake": 749,
    "hinting": 17571,
    "ce": 313,
    "used": 3262,
    "Ġtransp": 4770,
    "İ": 241,
    "Ġweaving": 12745,
    "okers": 18442,
    "Ġeverybody": 4508,
    "Ġapprehens": 5682,
    "Ġroot": 2651,
    "Ġstrolled": 16772,
    "Ġgladly": 14683,
    "Ġspears": 12929,
    "Ġarrival": 4731,
    "Ġtraced": 10386,
    "Ġguilt": 6181,
    "cr": 4009,
    "Ġearned": 19408,
    "Ġende": 21936,
    "dman": 10091,
    "Ġblow": 3375,
    "itor": 12571,
    "quered": 11058,
    "Ġmonsters": 11076,
    "ility": 623,
    "kill": 13747,
    "ef": 5134,
    "Ġkra": 18349,
    "Ġforbear": 17124,
    "whips": 22242,
    "Ġdiscussed": 19562,
    "Ġdiffered": 22716,
    "enari": 21284,
    "Ġarguing": 25471,
    "Ġoriginal": 6104,
    "Ġsavesoul": 26229,
    "nowadays": 22341,
    "Ġclear": 1949,
    "Ġlion": 9678,
    "collar": 19330,
    "Ġwine": 6811,
    "Ġaforethought": 25429,
    "rible": 3229,
    "Ġpersist": 16276,
    "alliance": 22204,
    "Ġseaman": 8642,
    "Ġjollies": 20373,
    "Ġkuiperai": 10937,
    "protest": 24812,
    "Ġbud": 10171,
    "Ġshears": 18320,
    "Ġeigenvalues": 4997,
    "Ġarticulated": 24433,
    "Ġstake": 14006,
    "Ġuseless": 7039,
    "Ġadmire": 5264,
    "blot": 20785,
    "Ġpleaded": 16302,
    "greatly": 16626,
    "Ġimpending": 22390,
    "Ġluggage": 25958,
    "erve": 12554,
    "Ġsucceed": 4543,
    "Ġpersonally": 8602,
    "circ": 4387,
    "Ġlamb": 8817,
    "broad": 8646,
    "Ġcurly": 18846,
    "Ó": 148,
    "Ġ1991": 3018,
    "thought": 3849,
    "Ġsuffocated": 20730,
    "Ġjew": 9470,
    "Ġslighted": 16570,
    "resemblance": 25934,
    "Ġfabulous": 25949,
    "Ġarcher": 22194,
    "rential": 22922,
    "Ġthoroughly": 8348,
    "Ġproviding": 1362,
    "methodically": 20666,
    "Ġsparing": 22134,
    "Ġturned": 2132,
    "isions": 6132,
    "Ġprank": 23221,
    "Ġprone": 18968,
    "venth": 9298,
    "moved": 9787,
    "Ġsigh": 10339,
    "Ġtoiling": 15639,
    "germans": 20568,
    "Ġind": 1222,
    "Ġnuts": 17954,
    "Ġhadn": 9722,
    "Ġgaiety": 16751,
    "intolerable": 22941,
    "Ġconsult": 6058,
    "per": 480,
    "Ġaccused": 8510,
    "Ġwail": 21289,
    "Ġcousins": 9918,
    "kins": 7345,
    "Ġblinding": 14731,
    "Ġrept": 13986,
    "Ġcasual": 11411,
    "gracious": 11835,
    "handed": 7482,
    "Ġeighteen": 11240,
    "Ġnervous": 2405,
    "varied": 23187,
    "Ġour": 1010,
    "Ġsort": 1504,
    "Ġkent": 6693,
    "Ġbiting": 17863,
    "adow": 18090,
    "abroad": 18111,
    "voy": 7145,
    "frame": 17117,
    "Ġtex": 15475,
    "Ġbeth": 9660,
    "Ġyouthful": 16725,
    "Ġentertainment": 12227,
    "perfect": 7635,
    "bellies": 19977,
    "Ġinde": 7371,
    "houses": 9602,
    "Ġjupiter": 17459,
    "additional": 20467,
    "etent": 10202,
    "Ġgreedily": 18965,
    "Ġout": 543,
    "Ġunerringly": 18266,
    "Ġmining": 22832,
    "vol": 717,
    "Ġsubjected": 23574,
    "Ġoutrid": 22319,
    "Ġafforded": 8029,
    "Ġ87": 19713,
    "Ġwh": 328,
    "ó": 180,
    "Ġdollars": 11457,
    "ruding": 9727,
    "Ġequivalent": 4802,
    "Ġstolen": 14010,
    "Ġback": 825,
    "received": 9641,
    "Ġharrow": 17928,
    "result": 12047,
    "osure": 5308,
    "frequently": 9982,
    "inj": 9154,
    "Ġdissip": 10994,
    "outer": 9671,
    "Ġsuspicious": 9483,
    "Ġbound": 3519,
    "Ġcombines": 1180,
    "Ġfab": 15580,
    "Ġvisiting": 10359,
    "Ġli": 602,
    "Ġha": 400,
    "Ġprofusion": 23570,
    "Ġext": 907,
    "Ġoverlook": 10960,
    "ifix": 21907,
    "Ġreveal": 11202,
    "softened": 20413,
    "furnished": 20244,
    "Ġcanals": 22168,
    "Ġlend": 17965,
    "Ġyield": 5092,
    "Ġgeneva": 5450,
    "Ġclothes": 4996,
    "ignomin": 23269,
    "Ġarmed": 9263,
    "Ġtech": 1689,
    "Ġnarrowed": 24355,
    "Ġinexplicable": 12261,
    "Ġcrucifix": 26080,
    "Ġengineer": 11979,
    "commun": 15036,
    "Ġindef": 9192,
    "christmas": 20258,
    "weekly": 25685,
    "Ġdownst": 3559,
    "Ġcongrat": 5828,
    "iating": 3207,
    "Ġmurmur": 14591,
    "iced": 3899,
    "our": 534,
    "fiery": 13585,
    "anged": 3590,
    "Ġruggedness": 26270,
    "define": 1522,
    "tumult": 12427,
    "Ġwindibank": 7257,
    "explain": 1480,
    "Ġreproof": 24891,
    "Ġlessen": 14534,
    "maintained": 25023,
    "erred": 6377,
    "arians": 18527,
    "Ġcurved": 18848,
    "Ġgrasshopper": 24380,
    "Ġcrocod": 19631,
    "pour": 17632,
    "Ġbehaves": 23303,
    "Ġbuildings": 24719,
    "expressive": 24307,
    "rown": 2192,
    "Ġfacing": 10174,
    "Ġgallon": 24187,
    "Ġexpanding": 25239,
    "Ġsoothed": 10032,
    "Ġslates": 11108,
    "hide": 10705,
    "mightily": 24105,
    "Ġvictoria": 14876,
    "lust": 15383,
    "artificial": 963,
    "iro": 20916,
    "Ġmalicious": 10560,
    "perceive": 12815,
    "Ġsticks": 14934,
    "rus": 5931,
    "ipt": 12483,
    "Ġcleans": 18950,
    "joining": 19449,
    "Ġseeth": 21964,
    "Ġstands": 5259,
    "Ġmelt": 21320,
    "Ġpace": 9185,
    "icle": 10836,
    "Ġbank": 4877,
    "dark": 5614,
    "Ġevol": 2816,
    "Ġassuming": 16694,
    "Ġgrasping": 12170,
    "Ġconfused": 7965,
    "concerning": 9070,
    "million": 25752,
    "religion": 20578,
    "Ġfurlongs": 20725,
    "lott": 6653,
    "Ġ1839": 20463,
    "prodig": 16430,
    "Ġchival": 14185,
    "Ġprocured": 8680,
    "Ġequinoctial": 20535,
    "examine": 25478,
    "Ġdad": 12605,
    "arnel": 18127,
    "Ġacquaintance": 4132,
    "Ġaffairs": 6877,
    "retrie": 18926,
    "Ġattended": 5391,
    "Ġjust": 1241,
    "convalescence": 24885,
    "youth": 11879,
    "Ġbreaching": 23350,
    "asc": 6387,
    "Ġtennes": 23550,
    "th": 408,
    "tornadoes": 26154,
    "isl": 21378,
    "william": 4560,
    "Ġassumpt": 5415,
    "Ġbedford": 7475,
    "september": 14039,
    "persu": 8028,
    "Ġjem": 18403,
    "mat": 2199,
    "Ġbriskly": 25312,
    "Ġshapeless": 24524,
    "Ġdistress": 5845,
    "accompl": 9883,
    "Ġruled": 22789,
    "soc": 5175,
    "two": 3860,
    "ropy": 1102,
    "odious": 21819,
    "oak": 21005,
    "practised": 20250,
    "oused": 6558,
    "Ġbuttoned": 25369,
    "abound": 15744,
    "carriage": 9949,
    "Ġinflexibly": 26372,
    "Ġswart": 14437,
    "Ġremind": 6059,
    "Ġequals": 4727,
    "Ġeffaced": 18539,
    "bted": 7794,
    "tenderly": 20534,
    "eon": 8733,
    "Ġwholesome": 16009,
    "astonished": 15035,
    "Ġmusket": 12300,
    "harm": 13738,
    "Ġarmitage": 23583,
    "rather": 5430,
    "abilizing": 2928,
    "given": 8377,
    "ullen": 8235,
    "Ġlances": 6985,
    "ited": 1752,
    "bo": 1691,
    "Ġmistress": 8615,
    "Ġunaccountable": 7887,
    "Ġfoundation": 4232,
    "names": 16535,
    "Ġassociated": 12254,
    "Ġcrescent": 16139,
    "Ġgoverning": 2796,
    "Ġalow": 18102,
    "Ġcoiling": 12913,
    "Ġfrance": 7682,
    "osa": 22264,
    "Ġoak": 6130,
    "Ġsweatings": 25709,
    "Ġstra": 2994,
    "Ġest": 2266,
    "peril": 18340,
    "Ġassociation": 24710,
    "coll": 23782,
    "sometimes": 5973,
    "ute": 4642,
    "understanding": 1101,
    "Ġcontinue": 5398,
    "Ġambition": 11434,
    "Ġanimals": 8981,
    "Ġseals": 11701,
    "Ġhurricane": 16434,
    "flukes": 25206,
    "Ġfads": 21419,
    "Ġminor": 12973,
    "Ġjets": 10290,
    "Ġide": 2122,
    "Ġalman": 21785,
    "Ġnap": 8813,
    "handled": 19263,
    "labours": 16619,
    "baron": 24926,
    "ulatory": 15772,
    "sme": 17660,
    "helping": 23146,
    "Ġasylum": 13670,
    "base": 20779,
    "Ġwell": 901,
    "Ġmeantime": 6208,
    "Ġremark": 2145,
    "cruet": 17028,
    "duing": 22415,
    "Ġupp": 13995,
    "Ġbeautiful": 3675,
    "Ġeasterly": 25963,
    "great": 3517,
    "Ġphilipp": 23887,
    "eness": 2291,
    "Ġcemeteries": 26377,
    "Ġprofound": 5497,
    "Ġangrily": 9410,
    "Ġspeaking": 4023,
    "Ġrequested": 14298,
    "Ġvolcanoes": 24149,
    "feature": 3946,
    "Ġarrive": 6907,
    "Ġwaned": 17793,
    "attest": 23124,
    "Ġparent": 14647,
    "Ġconge": 15750,
    "quar": 7616,
    "Ġdisposing": 19378,
    "Ġtwitched": 20447,
    "inks": 6869,
    "Ġscot": 5643,
    "4": 24,
    "arily": 4125,
    "Ġunrecorded": 17470,
    "Ġresisted": 22545,
    "Ġensures": 3058,
    "Ġpalmy": 19502,
    "landlord": 9843,
    "dl": 20825,
    "Ġcrimson": 16439,
    "Ġjoll": 11769,
    "Ġrealism": 18984,
    "impl": 21710,
    "Ġsyllables": 25299,
    "tempest": 16961,
    "Ġswe": 2290,
    "Ġstump": 7603,
    "Ġwhites": 21720,
    "quarter": 11390,
    "mark": 5282,
    "Ġcommitted": 7431,
    "whiskers": 12315,
    "Ġhailing": 11697,
    "Ġwriter": 11949,
    "arance": 4698,
    "ackinaw": 22429,
    "Ġear": 1424,
    "Ġstanding": 3001,
    "Ġexpedite": 24956,
    "sciss": 18859,
    "Ġconsecrate": 26491,
    "Ġbubb": 12589,
    "Ġquivers": 22417,
    "Ġsprinkled": 19500,
    "Ġintrusted": 21996,
    "Ġunreserved": 19400,
    "ored": 3894,
    "Ġwhe": 438,
    "Ġgrievous": 13265,
    "Ġindeed": 1680,
    "serv": 7451,
    "Ġborder": 10172,
    "reserved": 13846,
    "Ġinterview": 9773,
    "Ġprompted": 23820,
    "Ġwarriors": 19726,
    "Ġfurnished": 6476,
    "Ġsaturday": 6453,
    "Ġsolid": 6444,
    "Ġ45": 14774,
    "professional": 20278,
    "rodu": 1819,
    "Ġconvalescence": 23749,
    "ibbald": 18844,
    "mitting": 20975,
    "Ġcoolly": 9775,
    "Ġconsp": 10227,
    "balance": 12011,
    "Ġrippling": 17280,
    "Ġcabin": 3304,
    "commence": 19995,
    "iod": 3840,
    "ceptible": 10963,
    "Ġpossess": 3204,
    "ust": 495,
    "tarpaul": 21100,
    "ĠĠĠĠĠĠĠĠĠĠĠĠĠĠĠĠĠĠĠ": 22953,
    "fare": 7799,
    "old": 798,
    "Ġbarque": 23793,
    "Ġrats": 21977,
    "furniture": 20245,
    "Ġlate": 3378,
    "Ġpolitical": 19225,
    "indulged": 22379,
    "Ġclasp": 9748,
    "spring": 7231,
    "regard": 7973,
    "âĢĻ!âĢĿ": 18170,
    "Ġimaginary": 11188,
    "alogue": 25163,
    "Ġscandalous": 24880,
    "pread": 7418,
    "Ġcraggy": 23530,
    "embraces": 25806,
    "hither": 11495,
    "Ġnorthumbria": 24174,
    "ah": 1834,
    "watson": 12248,
    "Ġprizes": 13078,
    "Ġpers": 1351,
    "neighboring": 20620,
    "Ġamber": 7028,
    "Ġmoccas": 22440,
    "related": 24015,
    "Ġpinch": 15019,
    "Ġindignantly": 16941,
    "Ġhelmsman": 10507,
    "Ġostlers": 25277,
    "O": 51,
    "Ġostrich": 26432,
    "cal": 1122,
    "circumspect": 26087,
    "felix": 10656,
    "amouch": 21849,
    "Ġcells": 13888,
    "Ġstrain": 6025,
    "Ġverify": 12092,
    "elves": 2158,
    "Ġpredestinated": 18517,
    "uced": 13803,
    "._)": 10483,
    "Ġunfailing": 24113,
    "male": 15392,
    "phia": 22769,
    "is": 280,
    "Ġconcerns": 11972,
    "Ġlistening": 6320,
    "Ġwisely": 13277,
    "Ġpiping": 23215,
    "ay": 354,
    "Ġremarkably": 7703,
    "ese": 4442,
    "Ġshrouds": 11346,
    "perpendicular": 14162,
    "Ġgets": 10841,
    "vable": 10135,
    "Ġdrink": 4787,
    "Ġ90": 24589,
    "Ġtended": 21169,
    "Ġparametric": 2396,
    "Ġimpenet": 14224,
    "need": 10981,
    "rob": 5534,
    "their": 2540,
    "Ġwaking": 11573,
    "Ġschemes": 11133,
    "iance": 5280,
    "Ġconsummate": 25311,
    "sequ": 2402,
    "outh": 2687,
    "awake": 14455,
    "inate": 6235,
    "Ġneuron": 1809,
    "Ġextracting": 11115,
    "Ġdecaying": 2248,
    "Ġtrunk": 7205,
    "moran": 24155,
    ",âĢĻâĢĶ": 23528,
    "Ġinjure": 16783,
    "Ġgothic": 18002,
    "Ġlofty": 6219,
    "lan": 15381,
    "Ġsleek": 23387,
    "Ġrector": 21679,
    "atiously": 15525,
    "endured": 22231,
    "mber": 5850,
    "Ġ": 225,
    "cried": 8728,
    "Ġpreternatural": 12828,
    "Ġfolios": 23024,
    "Ġprec": 2922,
    "Ġdespondency": 16580,
    "Ġinexorable": 12260,
    "governed": 25406,
    "Ġforesee": 19126,
    "Ġserviceable": 24717,
    "Ġundu": 15841,
    "Ġdisturbance": 15015,
    "Ġevanesc": 24296,
    "Ġthickest": 16657,
    "Ġsensationalism": 26067,
    "Ġtoy": 15638,
    "Ġreached": 4019,
    "arthur": 14833,
    "Ġsatisfactory": 11195,
    "ridden": 24362,
    "iest": 4033,
    "queness": 18149,
    "Ġtells": 9364,
    "athans": 7433,
    "Ġshell": 11740,
    "condem": 16346,
    "Ġconcrete": 20639,
    "Ġinfrequent": 3825,
    "Ġbroods": 23106,
    "utting": 17987,
    "Ġapex": 24342,
    "quet": 6835,
    "Ġcircle": 4976,
    "week": 12936,
    "Ġsucking": 12793,
    "tre": 8764,
    "Ġyellowish": 24430,
    "Ġbuckskin": 19955,
    "Ġopal": 23627,
    "insula": 23069,
    "Ġaudacity": 19884,
    "blow": 9107,
    "iries": 18172,
    "Ġcounteracted": 19864,
    "Ġduck": 8798,
    "Ġape": 21199,
    "Ġswimming": 5507,
    "Ġfangs": 12602,
    "iteous": 14267,
    "le": 279,
    "rayed": 23565,
    "Ġvisit": 2583,
    "Ġinfant": 11965,
    "Ġanx": 3181,
    "stout": 21648,
    "Ġgloves": 8578,
    "adam": 15734,
    "Ġperpendicularly": 11376,
    "Ġcarn": 17823,
    "masterly": 24530,
    "Ġblasted": 7938,
    "Ġparacelsus": 15270,
    "batch": 1984,
    "Ġespecial": 26412,
    "Ġel": 801,
    "Ġromans": 16761,
    "hig": 12479,
    "Ġincisive": 18572,
    "Ġsaith": 14158,
    "beings": 12881,
    "Ġnets": 21527,
    "Ġsuspects": 16892,
    "Ġphrase": 11189,
    "Ġvaried": 11852,
    "Ġbefore": 809,
    "Ġinfamy": 14506,
    "tattoo": 21090,
    "Ġivory": 4474,
    "Ġinfants": 16370,
    "recogn": 13429,
    "Ġcongratulated": 19769,
    "Ġfloor": 4377,
    "Ġtailed": 21171,
    "Ġvictor": 5125,
    "opatra": 22481,
    "gir": 8083,
    "Ġlibrary": 6424,
    "Ġimped": 18443,
    "Ġcounting": 13101,
    "Ġstreat": 15725,
    "Ġsnodhead": 19303,
    "Ġscrolled": 22293,
    "men": 1484,
    "homage": 25617,
    "Ġfam": 1583,
    "rud": 4189,
    "mitted": 5213,
    "Ġcanoes": 12810,
    "Ġgeor": 3388,
    "Ġthundering": 24293,
    "Ġmarlingspike": 26581,
    "Ġphrenologist": 25608,
    "Ġforemost": 12009,
    "Ġsometimes": 2168,
    "Ġdeadliest": 14558,
    "Ġradiant": 16811,
    "Ġresist": 7916,
    "Ġoutlast": 22317,
    "Ġinfle": 16369,
    "Ġchina": 8040,
    "oran": 8793,
    "Ġtorch": 25033,
    "Ġoutdone": 22322,
    "buried": 14852,
    "Ġvariation": 22668,
    "Ġyourselves": 9031,
    "Ġacquirement": 19257,
    "Ġrenewing": 19813,
    "Ġbread": 5404,
    "Ġdesist": 16242,
    "Ġdrag": 6186,
    "itives": 17821,
    "fashion": 8081,
    "Ġcraven": 16472,
    "Ġhovered": 12636,
    "Ġinoffensive": 21501,
    "Ġgodson": 23361,
    "swallowed": 14856,
    "Ġcrimin": 6901,
    "unnecessary": 21884,
    "Ġforbearing": 25101,
    "Ġindian": 4130,
    "Ġquestioning": 10466,
    "Ġflexible": 23778,
    "Ġplatform": 17134,
    "Ġfriendless": 23029,
    "Ġgouge": 26190,
    "Ġrepining": 23363,
    "Ġbackgammon": 22667,
    "lantern": 17431,
    "Ġpremises": 10490,
    "Ġdella": 21442,
    "Ġerrand": 11087,
    "man": 1052,
    "iless": 10284,
    "Ġreconc": 9686,
    "Ġexcessively": 9443,
    "etch": 9207,
    "Ġpaid": 5014,
    "Ġpaper": 4282,
    "ained": 3067,
    "sli": 11525,
    "thr": 12765,
    "Ġfrowning": 13627,
    "Ġafter": 871,
    "clinging": 20824,
    "reporting": 24494,
    "umber": 5241,
    "Ġcurving": 16239,
    "ent": 305,
    "Ġdiadem": 24740,
    "Ġindecision": 25782,
    "Ġscener": 10951,
    "igh": 2030,
    "Ġdiab": 10614,
    "Ġimpotently": 22396,
    "asol": 21543,
    "Ġreverence": 12063,
    "sufferable": 12181,
    "Ġtomb": 8812,
    "Ġsuperflu": 14555,
    "Ġshops": 22005,
    "withstand": 23030,
    "maritime": 24176,
    "melancholy": 12357,
    "Ġsentinel": 26066,
    "Ġpresum": 4838,
    "abounding": 25980,
    "Ġallegro": 25795,
    "ulus": 21868,
    "Ġfaults": 12217,
    "!_âĢĶ": 19976,
    "success": 6712,
    "Ġskirts": 14356,
    "Ġsupplying": 19801,
    "Ġriddle": 14823,
    "Ġruthless": 15289,
    "Ġq": 1085,
    "Ġdiscomp": 11870,
    "pat": 10119,
    "Ġwhirlpool": 20657,
    "Ġauthorized": 16737,
    "Ġdisgusted": 14993,
    "madly": 24420,
    "Ġwarrior": 24496,
    "Ġhardware": 4904,
    "Ġuncivil": 11157,
    "Ġeffort": 8205,
    "Ġconsisted": 10421,
    "pl": 401,
    "isis": 12584,
    "advise": 24220,
    "Ġrepulsive": 14532,
    "keeper": 5597,
    "Ġknitting": 24221,
    "lydia": 6826,
    "Ġadjusting": 3414,
    "ipped": 5790,
    "dee": 11737,
    "Ġinviting": 19145,
    "Ġdrawers": 12110,
    "Ġpoised": 22594,
    "batross": 9096,
    "Ġsolemn": 4098,
    "Ġbuffaloes": 25218,
    "Ġtropic": 17065,
    "----": 4054,
    "alous": 7372,
    "Ġscepticism": 25928,
    "Ġfebruary": 15916,
    "Ġwholly": 4445,
    "Ġcorps": 13038,
    "regards": 23468,
    "mixed": 17607,
    "ney": 2492,
    "Ġwor": 1190,
    "painful": 13505,
    "Ġang": 2510,
    "Ġrim": 21969,
    "Ġpearl": 20380,
    "Ġaffecting": 2322,
    "Ġsalutation": 12401,
    "Ġspectacle": 10499,
    "Ġvision": 1551,
    "Ġrifled": 21980,
    "Ġaccomplice": 24376,
    "hedge": 22503,
    "Ġcommissionaire": 17002,
    "Ġchall": 10946,
    "Ġdescried": 7919,
    "bel": 3836,
    "Ġtemperature": 1004,
    "omin": 4703,
    "shine": 9291,
    "Ġshri": 5375,
    "Ġtakings": 20575,
    "preser": 9763,
    "Ġmuffled": 10643,
    "Ġrepeat": 8000,
    "Ġelevating": 19732,
    "Ġacting": 10993,
    "Ġauthentic": 20538,
    "sorrows": 17323,
    "Ġrains": 24340,
    "Ġvulgar": 13608,
    "Ġrelief": 6061,
    "Ġmeta": 3348,
    "town": 7144,
    "Ġchristianity": 19863,
    "Ġmapp": 2081,
    "sensations": 20054,
    "Ġfather": 1451,
    "Ġflo": 2587,
    "Ġvalley": 5852,
    "remonstr": 23193,
    "brevi": 24076,
    "Ġvoy": 2618,
    "dient": 441,
    "scenes": 16247,
    "treasures": 26153,
    "Ġpoisoned": 24887,
    "Ġsweep": 8266,
[...]
