{
  "metadata": {
    "vocab_size": 26613,
    "algorithm": "BPE",
    "created_at": "2026-08-18 02:53:18",
    "special_tokens": [
      "<PAD>",
      "<SOS>",
      "<EOS>",
      "<UNK>",
      "<MASK>"
    ]
  },
  "vocab": {
    "Ġtell": 1466,
    "Ġstreams": 12189,
    "Ġbows": 4084,
    "Ġoakum": 16933,
    "detective": 24382,
    "ital": 4817,
    "Ġoccurs": 1859,
    "Ġpetersburgh": 24227,
    "Ġpour": 13912,
    "Ġlistened": 4471,
    "wherever": 13116,
    "Ġnarr": 5085,
    "Ġalley": 15732,
    "Ġsperm": 1843,
    "Ġopal": 23625,
    "Ġfault": 5702,
    "Ġsurviving": 24638,
    "Ġlimit": 10442,
    "Ġfreezing": 23881,
    "Ġrecording": 24433,
    "Ġhimmalehs": 26230,
    "iage": 17572,
    "beginning": 13559,
    "Ġvast": 3296,
    "wes": 17702,
    "Ġmaze": 23828,
    "three": 5239,
    "sail": 3602,
    "Ġsp": 458,
    "Ġexcepting": 14678,
    "Ġtough": 13813,
    "prop": 1033,
    "embarr": 15795,
    "Ġconfluent": 19038,
    "Ġscenari": 22285,
    "Ġdances": 10811,
    "Ġextraordinary": 5414,
    "limin": 8384,
    "Ġsect": 17750,
    "Ġspent": 3966,
    "Ġinattention": 17931,
    "Ġ(": 594,
    "ozy": 17621,
    "lilies": 20960,
    "Ġfinery": 23123,
    "Ġsher": 3764,
    "touched": 15437,
    "Ġindustry": 18837,
    "Ġaccording": 5508,
    "fore": 687,
    "Ġpropriet": 9548,
    "Ġexcurs": 23310,
    "anxiety": 25155,
    "afer": 17480,
    "ĠĠĠĠĠĠĠĠĠĠĠĠĠĠĠĠĠĠĠĠĠĠĠĠ": 5321,
    "Ġports": 10817,
    "caps": 20806,
    "tle": 2410,
    "nyder": 16685,
    "imental": 16532,
    "Ġcursed": 6726,
    "unciation": 25982,
    "Ġamours": 22479,
    "Ġreconc": 9681,
    "iciously": 17973,
    "Ġpushing": 10818,
    "Ġtried": 3646,
    "Ġestimate": 19371,
    "omited": 21639,
    "Ġrough": 7188,
    "Ġretired": 6071,
    "Ġwherefore": 8524,
    "ubines": 22957,
    "Ġyears": 1894,
    "addressing": 24400,
    "horner": 23613,
    "Ġspleen": 26420,
    "Ġimbu": 15888,
    "define": 1523,
    "Ġunce": 11708,
    "Ġdescrib": 2719,
    "Ġberry": 19745,
    "certain": 3676,
    "Ġhemisphere": 26477,
    "Ġslices": 23164,
    "Ġstrait": 23748,
    "destruction": 11255,
    "Ġbingley": 1675,
    "rages": 15677,
    "invested": 17116,
    "Ġimmemorial": 10509,
    "Ġcritically": 23444,
    "Ġfaithfulness": 24445,
    "Ġpompous": 20421,
    "beryls": 25309,
    "Ġpuzzling": 14893,
    "Ġgouldings": 26187,
    "Ġtattoo": 7360,
    "draul": 9441,
    "Ġsuffering": 8945,
    "Ġauthor": 4376,
    "imp": 3032,
    "biqu": 17496,
    "toes": 22562,
    "Ġthanks": 6707,
    "reg": 2183,
    "Ġobject": 1394,
    "attentive": 17188,
    "Ġmeasures": 1204,
    "Ġelias": 18634,
    "caroline": 24147,
    "chant": 4260,
    "Ġwardrobe": 17224,
    "Ġprogno": 14038,
    "Ġdon": 1609,
    "Ġresumed": 11809,
    "Ġeigenvalues": 4998,
    "careful": 14863,
    "Ġapprehensiveness": 16876,
    "direction": 17523,
    "elzebub": 26463,
    "ason": 1275,
    "Ġsolemn": 4100,
    "teenth": 11871,
    "Ġsketches": 26270,
    "Ġdeliverance": 15155,
    "stone": 5089,
    "prot": 6899,
    "Ġsooner": 5572,
    "doubtful": 24791,
    "Ġbank": 4877,
    "married": 9947,
    "Ġwade": 17784,
    "uneasiness": 23686,
    "Ġfab": 15572,
    "apprehens": 17404,
    "Ġnormalizes": 1864,
    "Ġwits": 15529,
    "Ġexamined": 6334,
    "Ġwrithed": 17105,
    "Ġnominal": 15166,
    "thine": 15821,
    "Ġexpanded": 14287,
    "Ġporch": 19679,
    "ores": 2414,
    "aneously": 4061,
    "Ġpinch": 15015,
    "desper": 13066,
    "uv": 6229,
    "Ġprivileges": 25132,
    "Ġle": 333,
    "john": 11496,
    "Ġdestroy": 5772,
    "Ġdesperate": 7777,
    "Ġponder": 6819,
    "hemat": 3130,
    "Ġyon": 9691,
    "Ġprometheus": 15290,
    "nameless": 19902,
    "Ġcourtiers": 24135,
    "Ġslack": 8954,
    "chronicle": 26479,
    "week": 12927,
    "Ġsubmitted": 11868,
    "Ġstacked": 21741,
    "Ġembatt": 18858,
    "Ġgovernments": 20266,
    "opposite": 19928,
    "Ġrefusing": 11027,
    "supplementary": 20548,
    "Ġfri": 17878,
    "Ġpenetration": 19916,
    "prophet": 16177,
    "Ġper": 587,
    "elled": 4023,
    "Ġenabling": 1077,
    "Ġclasping": 20208,
    "Ġfamiliarity": 16728,
    "Ġemperors": 15157,
    "suspicious": 25390,
    "Ġbri": 21376,
    "Ġtusk": 25425,
    "Ġcomplain": 6685,
    "les": 1016,
    "Ġfreshe": 13067,
    "Ġsenate": 25214,
    "Ġsyllable": 9727,
    "therly": 18341,
    "Ġlucy": 17969,
    "bid": 5610,
    "Ġsidel": 9634,
    "Ġunderstood": 5655,
    "spout": 7923,
    "Ġlanguid": 14212,
    "Ġlouder": 13466,
    "uerus": 26405,
    "Ġsuppress": 13020,
    "Ġloading": 15871,
    "heard": 5009,
    "pro": 2050,
    "ocation": 14624,
    "Ġinglorious": 24423,
    "Ġenclosure": 20622,
    "Ġenraptured": 26499,
    "real": 10148,
    "Ġcreditors": 20128,
    "exasper": 22425,
    "downstairs": 23917,
    "Ġhammer": 6094,
    "Ġwantonly": 22894,
    "Ġconstables": 19072,
    "Ġprocure": 9508,
    "ample": 1361,
    "Ġorganizations": 12311,
    "nut": 12491,
    "ilogue": 21722,
    "Ġinitial": 821,
    "protested": 13472,
    "Ġconciliating": 19046,
    "Ġwidower": 24234,
    "sort": 6798,
    "pop": 17630,
    "fun": 3896,
    "Ġinterference": 8892,
    "Ġsibbald": 21229,
    "Ġspokes": 18313,
    "Ġsleet": 8974,
    "Ġasking": 5651,
    "larking": 17593,
    "Ġdisturb": 7107,
    "Ġcompose": 12898,
    "Ġcolossal": 11458,
    "Ġeasiest": 23537,
    "Ġinmates": 15619,
    "tier": 12511,
    "ries": 3351,
    "Ġsphere": 15880,
    "Ġze": 8545,
    "planted": 11695,
    "Ġsubs": 2130,
    "°": 113,
    "definition": 23116,
    "Ġaffect": 1385,
    "--âĢĺ": 22848,
    "catherine": 7127,
    "reasonable": 7752,
    "Ġfrost": 6096,
    "confess": 12172,
    "Ġactive": 7916,
    "kish": 20933,
    "Ġcarving": 14441,
    "utted": 15657,
    "Ġpensive": 21474,
    "Ġconstrain": 2632,
    "Ġmerid": 13193,
    "Ġ26": 10469,
    "ise": 707,
    "Ġcease": 7076,
    "Ġwat": 1286,
    "hor": 2573,
    "Ġdesign": 4132,
    "Ġfooting": 14481,
    "Ġaud": 6661,
    "Ġsilly": 7686,
    "Ġsubdiv": 16156,
    "Ġsimpler": 2048,
    "regret": 16450,
    "Ġdiabolism": 25514,
    "Ġmeantime": 6206,
    "Ġvelocity": 10619,
    "imod": 15706,
    "Ġcasked": 24496,
    "Ġqueen": 3214,
    "Ġ118": 19697,
    "Ġpartially": 13120,
    "Ġfatality": 12091,
    "Ġgriefs": 16770,
    "glow": 20873,
    "quarters": 24946,
    "Ġconcert": 11962,
    "calculation": 25688,
    "backs": 9389,
    "Ġinterpreted": 1710,
    "Ġfootman": 8288,
    "moderate": 22836,
    "Ġconcealed": 7496,
    "salis": 25147,
    "Ġhave": 446,
    "Ġexpressly": 16453,
    "Ġtis": 15463,
    "Ġslow": 2381,
    "inserted": 18887,
    "outon": 12799,
    "Ġsmacking": 20164,
    "Ġnoiselessly": 22861,
    "Ġbol": 6241,
    "Ġhval": 21486,
    "months": 9070,
    "Ġsurveying": 25325,
    "summon": 23414,
    "Ġfishery": 4176,
    "Ġunsupp": 22017,
    "Ġdesper": 6176,
    "Ġfitted": 6243,
    "wanderer": 25423,
    "impress": 18051,
    "Ġdying": 2136,
    "loom": 18538,
    "Ġdrunkard": 20176,
    "letter": 6201,
    "Ġtri": 4813,
    "Ġwrapping": 19774,
    "Ġdrunken": 12047,
    "Ġstating": 15718,
    "Ġmusky": 19380,
    "Ġmidday": 23632,
    "Ġramadan": 9574,
    "Ġsobbed": 14135,
    "Ġtepid": 26411,
    "stirred": 20423,
    "screwed": 17186,
    "arrangement": 17413,
    "shoes": 14240,
    "replied": 11564,
    "Ġabandonment": 25603,
    "Ġsocks": 14132,
    "Ġtrop": 7566,
    "Ġprimal": 17106,
    "Ġpence": 17905,
    "nament": 11505,
    "severe": 21817,
    "Ġpaying": 9936,
    "Ġbury": 12039,
    "Ġloomings": 24949,
    "¨": 106,
    "Ġuncivilized": 25498,
    "fishermen": 17060,
    "Ġly": 2268,
    "Ġweakened": 16822,
    "Ġhasten": 10477,
    "Ġprogress": 5023,
    "Ġparcels": 25465,
    "Ġphysiognomical": 25611,
    "peculiar": 6886,
    "backpropagation": 11982,
    "Ġtrous": 10955,
    "Ġcoiling": 12901,
    "etuous": 21581,
    "arking": 16122,
    "Ġsort": 1506,
    "itions": 4148,
    "Ġalmanac": 26484,
    "Ġstru": 2168,
    "expectation": 14853,
    "uncommon": 11679,
    "Ġship": 1090,
    "Ġfalse": 4345,
    "successively": 24779,
    "cl": 1493,
    "larger": 24201,
    "Ġup": 463,
    "Ġpersuas": 23944,
    "Ġswim": 3820,
    "Ġcharacteristic": 12045,
    "Ġnotions": 14097,
    "Ġgur": 21590,
    "wid": 10133,
    "Ġvint": 18194,
    "Ġboth": 1655,
    "Ġmonitors": 3158,
    "Ġthreatened": 8330,
    "arr": 3043,
    "o": 83,
    "Ġour": 1010,
    "taining": 7207,
    "Ġstrength": 4261,
    "Ġdat": 499,
    "return": 5489,
    "arp": 2028,
    "Ġwell": 901,
    "Ġahab": 1213,
    "dient": 440,
    "Ġtiresome": 26156,
    "imble": 10857,
    "Ġdecidedly": 9507,
    "offer": 19062,
    "Ġheaped": 18037,
    "Ġcrowned": 16840,
    "featured": 24156,
    "Ġhumbug": 18780,
    "Ġfift": 6381,
    "Ġlanes": 19764,
    "Ġfurs": 18739,
    "Ġworm": 9161,
    "Ġmelting": 24287,
    "round": 3366,
    "Ġatone": 15799,
    "Ġnightfall": 23128,
    "turning": 8317,
    "vously": 23502,
    "Ġstra": 2992,
    "ara": 12602,
    "Ġmachinery": 20483,
    "ce": 313,
    "roots": 15639,
    "/`": 12426,
    "distinct": 13333,
    "Ġpie": 13913,
    "trip": 21090,
    "Ġfinds": 6299,
    "Ġsuspense": 9416,
    "Ġcaptiv": 16254,
    "aned": 5147,
    "neg": 12861,
    "_?âĢĿ": 15303,
    "Ġconnected": 5393,
    "shaw": 6864,
    "Ġim": 475,
    "flatter": 23964,
    "Ġfilters": 3930,
    "Ġagency": 11803,
    "arrived": 12605,
    "cousins": 20116,
    "Ġsatan": 14388,
    "Ġnapoleons": 25885,
    "Ġvincent": 15281,
    "Ġencamp": 22799,
    "desperate": 17350,
    "ĠĊ": 12519,
    "Ġhath": 12624,
    "based": 2960,
    "Ġsnarled": 25716,
    "Ġbenefited": 19396,
    "Ġcrab": 13142,
    "Ġantiquity": 15228,
    "spass": 18688,
    "Ġproducing": 11896,
    "Ġoffing": 16140,
    "Ġshaking": 6551,
    "Ġnames": 4534,
    "Ġshovel": 23489,
    "Ġargemone": 24273,
    "Ġoftener": 13563,
    "hold": 3984,
    "Ġfrankly": 16744,
    "Ġvow": 10245,
    "ispiece": 19724,
    "Ġdire": 866,
    "Ġsplendour": 20223,
    "Ġsisterly": 16299,
    "Ġmatches": 14394,
    "rusion": 11322,
    "whis": 7899,
    "hidden": 17369,
    "e": 73,
    "Ġgown": 10200,
    "singular": 12185,
    "feels": 22501,
    "Ġaccomplish": 14873,
    "Ġbodiless": 24225,
    "Ġboot": 11836,
    "worth": 8626,
    "Ġhindoo": 17174,
    "ty": 999,
    "breath": 15160,
    "Ġtranquillize": 24757,
    "Ġpot": 2991,
    "Ġalas": 5922,
    "Ġjohnson": 18409,
    "Ġczar": 12570,
    "swimming": 24257,
    "Ġproduced": 2452,
    "Ġwhalers": 8048,
    "calculating": 25689,
    "emper": 18185,
    "Ġwan": 15525,
    "not": 908,
    "Ġname": 2084,
    "narwhale": 17316,
    "ray": 2438,
    "Ġunde": 11709,
    "Ġmerest": 14028,
    "Ġsets": 8773,
    "filled": 9593,
    "Ġcommission": 6712,
    "got": 6955,
    "Ġenjoined": 18191,
    "Ġclub": 8872,
    "Ġshrew": 21998,
    "Ġsee": 803,
    "Ġradiance": 13368,
    "iless": 10280,
    "Ġfacilitate": 26098,
    "Ġsine": 10762,
    "Ġmalice": 7153,
    "Ġcrowder": 19454,
    "Ġboundless": 10494,
    "Ġducking": 17145,
    "Ġsurrender": 16449,
    "Ġpersonally": 8599,
    "Ġshaggy": 13568,
    "Ġtingling": 15090,
    "dri": 5888,
    "uth": 3017,
    "Ġaccost": 12842,
    "Ġpride": 3823,
    "Ġexecution": 6927,
    "Ġproject": 5545,
    "ichron": 22161,
    "ker": 5792,
    "Ġfitness": 23997,
    "Ġhorn": 6186,
    "Ġtube": 15002,
    "Ġ\"": 6119,
    "benefit": 24642,
    "Ġscandalous": 24879,
    "Ġwashington": 17201,
    "Ġalcoves": 26485,
    "Ġsuckling": 25997,
    "corners": 17366,
    "precipitance": 25867,
    "icions": 21561,
    "Ġbattering": 13899,
    "willingness": 24755,
    "storm": 9680,
    "ĠĠĠĠĠĠĠĠĠĠĠĠĠĠĠĠĠĠĠĠĠĠĠĠĠĠĠĠĠĠĠĠĠĠĠĠĠĠĠĠĠĠĠĠĠĠĠĠĠĠĠĠĠĠĠĠĠĠĠĠ": 19259,
    "Ġlabour": 7275,
    "ee": 1660,
    "truck": 15439,
    "Ġprying": 15605,
    "Ġpersever": 10001,
    "Ġterribly": 10424,
    "ocris": 23707,
    "Ġimpassable": 20611,
    "Ġwoes": 23983,
    "bohemia": 20730,
    "Ġhandy": 12933,
    "writhed": 26080,
    "ge": 559,
    "Ġcoffin": 4430,
    "troubled": 17111,
    "Ġvariety": 8530,
    "Ġneedless": 19229,
    "Ġbroiled": 18908,
    "Ġ4": 3988,
    "Ġunique": 12774,
    "tempt": 21078,
    "thickness": 25367,
    "seas": 14031,
    "Ġpropag": 16345,
    "plicable": 10255,
    "lifeless": 24311,
    "Ġdeclaration": 16635,
    "Ġoccupy": 14728,
    "Ġstreatham": 17447,
    "continual": 20643,
    "Ġscor": 8190,
    "Ġadvance": 5484,
    "Ġexquisitely": 20201,
    "soldiers": 25911,
    "flag": 14708,
    "Ġabsent": 7014,
    "Ġmaterially": 12188,
    "Ġtreats": 19342,
    "shott": 11793,
    "barn": 17481,
    "coarse": 16485,
    "Ġexultation": 15169,
    "Ġfil": 3471,
    "Ġsailors": 4278,
    "Ġbuoyant": 13530,
    "Ġsabbath": 17253,
    "illity": 18296,
    "chosen": 21693,
    "Ġprocured": 8676,
    "heedful": 20572,
    "Ġcorporeal": 17358,
    "Ġactivation": 918,
    "stool": 23817,
    "Ġshouts": 19536,
    "Ġaccuse": 14210,
    "bestow": 16928,
    "proper": 7472,
    "ascending": 24707,
    "Ġkeenest": 12158,
    "brace": 16941,
    "Ġaggreg": 12880,
    "Ġdecorated": 22443,
    "coff": 9107,
    "Ġblackstone": 23387,
    "Ġneurons": 977,
    "Ġelusive": 22644,
    "discovery": 12013,
    "Ġmusket": 12293,
    "hereabouts": 23605,
    "Ġmiscellaneous": 17461,
    "story": 9211,
    "sac": 7140,
    "Ġglen": 18851,
    "Ġstarlight": 24627,
    "empty": 23634,
    "ē": 212,
    "Ġrapture": 13494,
    "persecutor": 26529,
    "Ġvicious": 24402,
    "bent": 15309,
    "remark": 7262,
    "dden": 1805,
    "Ġjurors": 17342,
    "Ġconsuming": 22790,
    "Ġcomply": 8889,
    "Ġconference": 15743,
    "pervading": 18965,
    "altering": 12636,
    "naturally": 14569,
    "Ġbrad": 8785,
    "Ġdisplay": 6427,
    "Ġrelief": 6060,
    "partiality": 13158,
    "Ġcruisings": 25864,
    "Ġslapped": 23170,
    "flukes": 25205,
    "Ġblue": 3454,
    "Ġconsumm": 15152,
    "sens": 8096,
    "Ġbeliefs": 24581,
    "Ġoughts": 23898,
    "corpse": 24485,
    "Ġtophet": 23572,
    "Ġwithdra": 6397,
    "strong": 6322,
    "Ġmartin": 25436,
    "Ġah": 5075,
    "Ġhawsers": 26501,
    "Ġc": 277,
    "Ġexpedition": 10632,
    "Ġfertile": 20581,
    "Ġclinging": 10290,
    "Ġimpenet": 14218,
    "ĠĠĠĠĠĠĠĠĠĠĠĠĠĠĠĠĠĠĠĠĠĠĠĠĠĠĠĠĠĠĠĠĠĠĠĠĠĠĠĠĠ": 19581,
    "Ġejac": 10202,
    "Ġcheating": 16365,
    "Ġ43": 14766,
    "Ġworked": 6583,
    "Ġbrixton": 13661,
    "levi": 7047,
    "valley": 16212,
    "olly": 3226,
    "Ġyoun": 1406,
    "Ġtext": 2267,
    "beards": 22489,
    "befriend": 22490,
    "resent": 10768,
    "ropout": 1321,
    "Ġcommit": 18654,
    "Ġassigned": 16308,
    "waist": 13416,
    "Ġshortness": 23480,
    "Ġtarquin": 23609,
    "tormented": 13643,
    "Ġsystem": 579,
    "ouraged": 22859,
    "Ġdiscreet": 16480,
    "autions": 20766,
    "Ġfurn": 3710,
    "Ġcork": 12565,
    "Ġendeavored": 19302,
    "keep": 3851,
    "Ġdrow": 21425,
    "Ġdependence": 18628,
    "Ġlivid": 14987,
    "Ġfist": 21402,
    "bringing": 17165,
    "tom": 15433,
    "Ġcheeks": 5958,
    "Ġcharitable": 23268,
    "Ġstraight": 3703,
    "Ġdeeps": 16104,
    "Ġgrounds": 6749,
    "head": 1433,
    "seaman": 25457,
    "Ġfew": 1241,
    "asper": 7855,
    "Ġrags": 18647,
    "Ġmedical": 9462,
    "atha": 6572,
    "Ġenc": 967,
    "Ġcattle": 12568,
    "ian": 1239,
    "Ġsacrificial": 24871,
    "faith": 15023,
    "Ġmoods": 14948,
    "Ġinvoking": 19145,
    "Ġpassenger": 14368,
    "Ġrepeat": 8000,
    "original": 9083,
    "Ġslavery": 16304,
    "pid": 1413,
    "unavoid": 14060,
    "Ġspas": 10922,
    "irksome": 18172,
    "phren": 22778,
    "Ġut": 2278,
    "Ġenergetic": 15195,
    "Ġsufferings": 7514,
    "charm": 13988,
    "Ġarranging": 11173,
    "introduction": 15121,
    "fortnight": 13084,
    "acknowledge": 18468,
    "orted": 4604,
    "¿": 128,
    "Ġnice": 6676,
    "Ġdestiny": 8982,
    "Ġwilson": 6629,
    "Ġheroes": 10575,
    "Ġlandlessness": 23378,
    "Ġutilize": 4798,
    "stretched": 10206,
    "Ġroods": 22401,
    "]]": 5205,
    "blades": 24129,
    "bble": 17483,
    "Ġreserves": 19669,
    "Ġrumours": 24599,
    "lections": 4752,
    "ogy": 22694,
    "Ġjura": 14191,
    "Ġbowsprit": 16558,
    "Ġmortals": 9914,
    "over": 1846,
    "Ġerror": 1767,
    "ersburgh": 18215,
    "brilliancy": 26077,
    "season": 14032,
    "Ġladen": 19177,
    "acknowledging": 25476,
    "Ġmediocr": 24082,
    "ician": 21563,
    "Ġunprepared": 22046,
    "likelihood": 4992,
    "factories": 19842,
    "Ġdart": 4586,
    "Ġpenal": 1774,
    "Ġpat": 1747,
    "ivered": 7005,
    "oldened": 22637,
    "Ġparents": 6752,
    "Ġinevitably": 17229,
    "Ġseeth": 21951,
    "Ġsubtlety": 24780,
    "Ġbead": 21748,
    "repeated": 12336,
    "Ġpurposed": 23551,
    "atherley": 7221,
    "continued": 8675,
    "Ġleathern": 15049,
    "Ġseparation": 11247,
    "Ġfrocks": 23919,
    "beth": 13686,
    "Ġwont": 9848,
    "sell": 13779,
    "Ġauthoritative": 19560,
    "Ġcrusad": 23705,
    "ering": 1267,
    "Ġphaet": 16316,
    "barbaric": 26358,
    "eyed": 11485,
    "fork": 20856,
    "Ġgreeting": 18962,
    "Ġegyptian": 13584,
    "Ġmoving": 1678,
    "Ġcrunched": 19123,
    "Ġstudying": 9845,
    "cheap": 23803,
    "Ġgazette": 19499,
    "twilight": 23701,
    "considering": 12171,
    "Ġfootmen": 23796,
    "threshold": 21985,
    "listened": 15042,
    "Ġpoliteness": 8274,
    "monkey": 19169,
    "Ġhussey": 7725,
    "Ġslabs": 13057,
    "alterable": 13622,
    "Ġafter": 870,
    "Ġcircumstances": 3928,
    "Ġjaw": 3317,
    "Ġprematurely": 24003,
    "Ġdragon": 14941,
    "Ġsing": 3073,
    "Ġhappened": 3713,
    "accidents": 19212,
    "ff": 461,
    "rified": 15417,
    "antediluvian": 24345,
    "Ġe": 312,
    "composure": 24031,
    "settled": 10505,
    "Ġloitering": 22114,
    "whereby": 23416,
    "Ġexcellent": 4240,
    "inent": 9627,
    "rote": 4593,
    "Ġflurry": 18860,
    "Ġsuch": 793,
    "Ġsacred": 10929,
    "Ġmagnanimous": 17409,
    "oglyph": 11015,
    "Ġde": 365,
    "Ġdoors": 6417,
    "deliberated": 26118,
    "theories": 18078,
    "Ġnatur": 17332,
    "Ġwhirling": 12245,
    "Ġwal": 6516,
    "Ġspurn": 18309,
    "Ġskil": 14349,
    "iration": 4541,
    "leeward": 15208,
    "oarsman": 25261,
    "night": 2166,
    "fitzwilliam": 11351,
    "patched": 17642,
    "Ġromans": 16758,
    "Ġmeekly": 26489,
    "Ġinsomuch": 23682,
    "Ġimplicated": 24875,
    "aft": 9582,
    "100": 11463,
    "running": 6797,
    "Ġscolded": 25472,
    "Ġcandidate": 16700,
    "Ġdetect": 1216,
    "Ġcoil": 11815,
    "Ġlieuten": 13324,
    "uming": 8491,
    "often": 6165,
    "Ġindicates": 3195,
    "determine": 19942,
    "Ġindolence": 16225,
    "Ġdisembow": 22535,
    "Ġelapsed": 7653,
    "pump": 21016,
    "Ġsat": 1132,
    "card": 11474,
    "Ġbidirectional": 3756,
    "Ġpursuit": 4733,
    "observation": 17268,
    "Ġsplinter": 23745,
    "fact": 6358,
    "greek": 25404,
    "Ġvague": 6405,
    "obst": 11929,
    "ror": 7352,
    "Ġpatience": 2668,
    "ippers": 17575,
    "doubtless": 17001,
    "Ġcompunction": 18585,
    "Ġdecaying": 2246,
    "ieged": 22576,
    "Ġavail": 11225,
    "Ġran": 3341,
    "perpet": 14160,
    "phantoms": 24679,
    "Ġsubmission": 22788,
    "Ġinsens": 8277,
    "Ġstrasburgh": 18615,
    "Ġ47": 14768,
    "hack": 20895,
    "Ġhouses": 6138,
    "Ġwilt": 9642,
    "Ġfoolishly": 19781,
    "Ġ127": 24471,
    "Ġgrizzled": 11449,
    "Ġh": 290,
    "udding": 11862,
    "gained": 20880,
    "Ġeulogy": 26470,
    "Ġimpression": 5732,
    "Ġdraw": 3670,
    "ĠĠĠĠĠ": 3526,
    "castles": 14634,
    "Ġcrumb": 16439,
    "Ġunche": 23427,
    "Ġedward": 19119,
    "Ġleadenhall": 16627,
    "secut": 7868,
    "Ġelbows": 18635,
    "fain": 13713,
    "Ġlearning": 387,
    "Ġcountess": 11959,
    "Ġregretted": 13398,
    "aud": 8521,
    "Ġauthors": 10415,
    "Ġwreak": 16816,
    "gentle": 5356,
    "Ġgans": 5821,
    "goin": 23401,
    "fabulous": 20472,
    "Ġcircular": 13108,
    "Ġstormy": 16727,
    "Ġmim": 3106,
    "Ġmitig": 1337,
    "Ġrelatives": 12978,
    "ence": 394,
    "cherries": 19755,
    "Ġassuring": 13060,
    "Ġsubsisted": 19117,
    "reinforcement": 7827,
    "Ġbraw": 23832,
    "Ġmills": 21310,
    "Ġhard": 1439,
    "Ġpacked": 9978,
    "Ġsurmise": 12292,
    "icating": 15651,
    "riet": 18180,
    "Ġtone": 4041,
    "Ġdarted": 4758,
    "figures": 20120,
    "pract": 10118,
    "putable": 10900,
    "Ġhuggins": 24828,
    "Ġmess": 7832,
    "ribut": 815,
    "Ġledge": 19399,
    "features": 14802,
    "produ": 10719,
    "Ġlaws": 8003,
    "Ġwhereas": 3855,
    "member": 20974,
    "Ġpolynes": 16076,
    "lace": 13746,
    "Ġpaid": 5015,
    "Ġdiscover": 4718,
    "Ġstepping": 9352,
    "Ġdiddled": 22665,
    "recogn": 13423,
    "Ġhopkins": 23127,
    "Ġswiss": 18881,
    "Ġwear": 6031,
    "irting": 11683,
    "Ġphantom": 8706,
    "Ġwriter": 11942,
    "asse": 15641,
    "Ġdetained": 18372,
    "Ġphysiogn": 12385,
    "Ġsense": 3250,
    "Ġpassionately": 16763,
    "aling": 1037,
    "Ġincorpor": 13163,
    "Ġchests": 19670,
    "ace": 719,
    "ration": 2006,
    "arrow": 4180,
    "Ġfavoring": 2346,
    "Ġruss": 18719,
    "Ġalms": 21778,
    "Ġfraud": 19025,
    "umbered": 22115,
    "Ġbreat": 3460,
    "Ġeffusion": 22498,
    "patter": 4143,
    "Ġresolves": 23649,
    "dances": 17520,
    "warn": 11541,
    "Ġlances": 6984,
    "Ġsimultaneous": 22586,
    "Ġcetace": 14986,
    "Ġtigers": 25758,
    "Ġsteersman": 13038,
    "somehow": 12008,
    "Ġrequested": 14301,
    "Ġnarrower": 24353,
    "accents": 19211,
    "Ġbigger": 19760,
    "Ġmile": 7152,
    "unteered": 26494,
    "decor": 23779,
    "bird": 9584,
    "terrific": 25040,
    "Ġtire": 17719,
    "Ġglue": 15670,
    "Ġutmost": 5496,
    "lust": 15377,
    "green": 7115,
    "Ġpleadings": 25852,
    "soled": 14328,
    "Ġunfolding": 17085,
    "Ġfoolish": 5980,
    "Ġsof": 18281,
    "Ġremoval": 12114,
    "Ġdreaded": 8289,
    "ĠĠĠĠĠĠĠĠ": 710,
    "Ġturbul": 23611,
    "Ġcoherent": 3262,
    "key": 5462,
    "Ġsprang": 5064,
    "twain": 23699,
    "Ġtropical": 17064,
    "hoped": 20909,
    "barr": 15318,
    "Ġembraced": 10004,
    "gratulation": 24348,
    "elopement": 23141,
    "Ġforgiven": 24024,
    "behold": 12873,
    "loun": 17587,
    "frozen": 25139,
    "Ġforests": 13590,
    "Ġlandowner": 23379,
    "Ġfolios": 23018,
    "Ġ]": 15457,
    "fanning": 20865,
    "Ġprair": 7747,
    "Ġmoney": 3418,
    "Ġbackwards": 12921,
    "street": 6494,
    "jug": 17579,
    "aks": 8506,
    "Ġobeyed": 12213,
    "antee": 22095,
    "Ġretire": 10380,
    "ies": 582,
    "Ġexper": 1313,
    "Ġperilous": 7769,
    "contained": 22470,
    "Ġpervading": 20612,
    "mbles": 23087,
    "Ġrang": 9243,
    "Ġseems": 2484,
    "downward": 16618,
    "Ġwhittling": 20698,
    "Ġpregnant": 26534,
    "Ġwept": 7185,
    "Ġsupports": 3048,
    "Ġvalued": 12179,
    "Ġprophetic": 20018,
    "judgment": 16752,
    "Ġapex": 24341,
    "Ġrecklessly": 16982,
    "Ġstables": 23656,
    "ilt": 2968,
    "compliment": 11363,
    "Ġstrugg": 3218,
    "Ġlimping": 23545,
    "Ġcapacity": 10439,
    "177": 20751,
    "Ī": 235,
    "Ġart": 747,
    "Ġruminated": 24600,
    "phr": 18716,
    "Ġunden": 22009,
    "Ġpaints": 23523,
    "Ġcloth": 9741,
    "Ġderivative": 3000,
    "Ġnoises": 18374,
    "unaccountable": 15775,
    "substance": 15229,
    "speptic": 23943,
    "warp": 17705,
    "Ġteasing": 11887,
    "Ġcask": 5527,
    "Ġelasticity": 19557,
    "Ġremo": 3786,
    "Ġapartment": 6633,
    "Ġhealth": 3906,
    "emed": 3378,
    "Ġcandelab": 23846,
    "Ġdefinite": 11068,
    "Ġdreadfully": 7726,
    "familiar": 19782,
    "Ġshocking": 10434,
    "ork": 416,
    "tempted": 26402,
    "dispute": 23497,
    "mention": 7215,
    "Ġseverity": 15814,
    "speckled": 23942,
    "Ġplacid": 11823,
    "Ġtransformer": 2639,
    "reng": 4004,
    "theless": 4262,
    "library": 12995,
    "Ġparaphrasing": 26525,
    "Ġcelest": 9899,
    "Ġillust": 8263,
    "Ġfly": 3870,
    "Ġescaped": 6458,
    "Ġcharges": 23267,
    "Ġdoings": 18376,
    "Ġgreatly": 5849,
    "Ġlet": 1112,
    "Ġsparkling": 11355,
    "elze": 21571,
    "roof": 17953,
    "Ġdecisive": 18485,
    "Ġhauled": 11691,
    "Ġutensils": 23514,
    "Ġbalances": 2342,
    "departure": 15232,
    "Ġdrab": 13068,
    "princ": 8620,
    "requ": 7148,
    "warmest": 25027,
    "Ġmemorable": 16425,
    "Ġir": 1995,
    "Ġcus": 21341,
    "Ġinherent": 4592,
    "resol": 17759,
    "Ġtrough": 15960,
    "Ġarduous": 26528,
    "Ġgiant": 13966,
    "ptember": 10892,
    "ale": 506,
    "securing": 19812,
    "Ġimpressed": 8199,
    "Ġchased": 8860,
    "Ġencourag": 1392,
    "captain": 3955,
    "Ġfo": 1651,
    "protection": 19919,
    "ville": 6088,
    "Ġoptimizers": 18620,
    "Ġprophesy": 26061,
    "Ġadvertisement": 6941,
    "Ġremove": 7500,
    "Ġman": 544,
    "lantic": 6363,
    "Ġconsoled": 18112,
    "Ġseeing": 2886,
    "Ġscandinavian": 26344,
    "nurse": 15206,
    "Ġsurvive": 9066,
    "admire": 24943,
    "Ġmoored": 11789,
    "Ġappearances": 10450,
    "robber": 21535,
    "inger": 6812,
    "Ġquiver": 15999,
    "Ġdaggoo": 5441,
    "ra": 314,
    "aways": 15308,
    "Ġplying": 17913,
    "retirement": 23135,
    "spoke": 11022,
    "meditation": 19068,
    "Ġplane": 11820,
    "Ġinjurious": 24269,
    "Ġbehavioral": 11395,
    "Ġrallied": 14093,
    "omination": 21640,
    "Ġsculpt": 15943,
    "Ġinexperience": 26099,
    "games": 20879,
    "Ġquoted": 22413,
    "cold": 9588,
    "Ġtalent": 12294,
    "buckets": 26123,
    "Ġeffort": 8203,
    "Ġmainmast": 9777,
    "Ġintensity": 10014,
    "Ġmisanthropic": 26559,
    "socket": 22730,
    "enary": 12547,
    "overfitting": 13097,
    "Ġconsented": 11294,
    "Ġchamois": 16799,
    "Ġpra": 4348,
    "Ġfresh": 3669,
    "erer": 8731,
    "Ġnineveh": 13387,
    "Ġmerchantmen": 19859,
    "pret": 7213,
    "either": 6791,
    "Ġcouple": 5423,
    "Ġstalk": 12693,
    "Ġarise": 7897,
    "Ġrio": 23889,
    "marest": 20979,
    "Ġghost": 6142,
    "education": 20300,
    "Ġpeaked": 2295,
    "liness": 8746,
    "Ġsprung": 11248,
    "Ġpours": 17911,
    "Ġwent": 1533,
    "Ġcongregated": 20095,
    "Ġnorm": 765,
    "Ġabruptly": 15148,
    "Ġinconsist": 17935,
    "walked": 10569,
    "Ġmurderers": 16810,
    "Ġafar": 14290,
    "ese": 4445,
    "id": 338,
    "foreseen": 14252,
    "burgh": 6773,
    "allah": 5838,
    "Ġcouples": 16851,
    "Ġwh": 328,
    "ner": 1369,
    "Ġberyl": 20488,
    "Ġfoliage": 18866,
    "!âĢĿâĢĶ": 8532,
    "Ġrenewal": 12231,
    "Ġbonds": 17869,
    "yth": 982,
    "Ġclothe": 4712,
    "amongst": 24672,
    "Ġsudden": 2001,
    "Ġire": 12663,
    "reated": 10302,
    "Ġinvented": 17036,
    "Ġignominy": 15083,
    "volut": 1558,
    "Ġunlikely": 10907,
    "fierce": 25255,
    "tempestuous": 26097,
    "snowy": 20282,
    "Ġobvious": 4964,
    "Ġunwell": 22013,
    "Ġaccommod": 14211,
    "aguy": 21908,
    "rolling": 9059,
    "cles": 8725,
    "falsehood": 25901,
    "ersed": 10258,
    "Ġdisaster": 12883,
    "ective": 18174,
    "Ġsuperior": 2754,
    "Ġconstit": 8583,
    "Ġremarked": 3696,
    "Ġpassionate": 11272,
    "uzza": 11269,
    "Ġcourses": 10409,
    "Ġspeaks": 11158,
    "etence": 21575,
    "beautiful": 10647,
    "Ġappropriated": 23483,
    "Ġtransmit": 10303,
    "kinder": 24845,
    "simon": 16972,
    "Ġprogram": 12989,
    ".âĢĻâĢĿ": 6739,
    "ousness": 10273,
    "charming": 15702,
    "Ġawa": 7714,
    "Ġentic": 16143,
    "still": 4221,
    "'t": 3146,
    "author": 9858,
    "Ġreference": 2567,
    "Ġepicures": 25880,
    "Ġcalmer": 23042,
    "extent": 22752,
    "Ġopulent": 23628,
    "promontory": 24728,
    "Ġfals": 15577,
    "Ġdis": 695,
    "Ġbroker": 23100,
    "Ġleaving": 3907,
    "Ġpresided": 20206,
    "Ġanticipated": 13509,
    "laugh": 10107,
    "Ġtents": 13816,
    "iqu": 7803,
    "ortal": 6265,
    "ex": 621,
    "gypt": 8261,
    "Ġardently": 9496,
    "Ġavalanche": 17431,
    "Ġsteal": 16281,
    "Ġstriking": 6089,
    "arling": 10813,
    "Ġhug": 6979,
    "Ġassembled": 9234,
    "Ġeconomically": 25288,
    "Ġentire": 2561,
    "Ġordering": 18998,
    "Ġvit": 10244,
    "Ġgrow": 2861,
    "Ġof": 298,
    "althily": 19357,
    "lengths": 24846,
    "Ġmilk": 6484,
    "Ġconstruction": 9384,
    "Ġmummy": 25768,
    "Ġwoods": 5406,
    "athy": 14321,
    "Ġsensations": 5259,
    "Ġslippery": 12163,
    "Ġ>": 21150,
    "hic": 3248,
    "www": 17250,
    "Ġcake": 12566,
    "oud": 1943,
    "Ġinsult": 6747,
    "while": 2936,
    "Ġendeavoured": 4918,
    "ives": 1407,
    "Ġindestructible": 26571,
    "Ġoften": 1957,
    "Ġeluded": 12918,
    "Ġdelightful": 6320,
    "Ġmelt": 21316,
    "Ġmealy": 18119,
    "conducted": 25572,
    "Ġasserted": 16948,
    "Ġanonym": 17897,
    "Ġplus": 3883,
    "Ġascribe": 16781,
    "Ġstam": 18065,
    "Ġembarrassed": 11383,
    "ourers": 21448,
    "Ġfaintness": 24569,
    "Ġweighted": 2091,
    "icism": 13954,
    "elve": 4642,
    "Ġget": 1620,
    "Ġpole": 6432,
    "Ġlogger": 11951,
    "Ġdesolated": 24812,
    "other": 1312,
    "Ġappe": 1536,
    "Ė": 215,
    "aim": 2757,
    "Ġpractice": 2768,
    "Ġpractised": 23321,
    "tart": 21066,
    "Ġeffusions": 18526,
    "rose": 6014,
    "Ġ100": 14361,
    "Ġmade": 1051,
    "Ġrece": 11636,
    "Ġflorid": 17134,
    "Ġmaximizing": 3171,
    "Ġdrawers": 12102,
    "Ġperverseness": 13652,
    "ascar": 8435,
    "rive": 9705,
    "Ġstrands": 25574,
    "Ġamid": 4959,
    "Ġmassacre": 20546,
    "Ġexclusion": 19394,
    "Ġintended": 5547,
    "Ġensue": 18190,
    "Ġexertions": 13408,
    "irmed": 9237,
    "Ġdeclares": 16991,
    "ccas": 15882,
    "ringle": 21039,
    "Ġfob": 21408,
    "Ġtechn": 9366,
    "Ġmetallic": 19060,
    "Ġreckoning": 14977,
    "Ġlearn": 364,
    "otograph": 5826,
    "apse": 14197,
    "another": 5439,
    "Ġresistance": 13528,
    "Ġinstruments": 12220,
    "reposed": 24491,
    "claim": 9833,
    "fixed": 7549,
    "Ġsnoo": 21227,
    "parad": 16381,
    "Ġ31": 12127,
    "deception": 22143,
    "Ġbattered": 17862,
    "Ġobtain": 8913,
    "Ġgoney": 14543,
    "chop": 21686,
    "Ġweight": 658,
    "Ġdoubting": 13096,
    "penn": 18826,
    "idel": 5299,
    "Ġrel": 1097,
    "Ġbabies": 19691,
    "msgate": 18412,
    "Ġaye": 3350,
    "Ġclubs": 25179,
    "esty": 4307,
    "mistake": 24528,
    "Ġbeggars": 20628,
    "Ġgenius": 8046,
    "Ġplun": 6281,
    "Ġlingo": 24903,
    "repaid": 24490,
    "Ġtranslates": 12048,
    "waves": 10741,
    "Ġfairer": 20460,
    "Ġawhile": 13828,
    "permitted": 18346,
    "ikes": 8087,
    "isa": 17845,
    "Ġfootmarks": 19336,
    "hampshire": 23263,
    "network": 1912,
    "Ġadding": 2404,
    "moments": 19410,
    "Ġstalls": 25647,
    "kempt": 20940,
    "Ġatonement": 21940,
    "weather": 7230,
    "iscient": 17851,
    "Ġrevenue": 26194,
    "Ġconsider": 2570,
    "Ġair": 1836,
    "Ġparamore": 22120,
    "Ġlocations": 12410,
    "Ġdog": 4193,
    "Ġpeeling": 22690,
    "perquisites": 26530,
    "Ġrav": 14306,
    "arch": 1110,
    "Ġloveliest": 20260,
    "Ġgrap": 11704,
    "Ġfidgeted": 25889,
    "Ġheaven": 3362,
    "Ġlibr": 15997,
    "lengthwise": 19948,
    "appear": 13196,
    "Ġdrove": 4984,
    "Ġnewton": 3532,
    "Ġfebruary": 15910,
    "Ġlucifers": 16587,
    "Ġrecommending": 24336,
    "il": 329,
    "prec": 3202,
    "Ġcad": 12564,
    "Ġdinnertime": 16718,
    "Ġthomas": 17947,
    "Ġstrand": 11825,
    "ops": 5247,
    "lonely": 20956,
    "Ġcries": 7155,
    "Ġvolumes": 14796,
    "ibility": 2391,
    "mother": 5480,
    "Ġproflig": 23566,
    "Ġwitnessed": 14841,
    "Ġbutt": 14124,
    "Ġtheore": 1829,
    "Ġlikewise": 5386,
    "Ġdearly": 10400,
    "Ġbutterfly": 19909,
    "disgust": 23494,
    "Ġscotch": 12206,
    "Ġadvancement": 24474,
    "movement": 25577,
    "Ġjohn": 5032,
    "observing": 25494,
    "urns": 10212,
    "Ġperceptible": 18451,
    "Ġhorseman": 19606,
    "morn": 20975,
    "pips": 21019,
    "Ġabhorrence": 9051,
    "penetrating": 25490,
    "sar": 12501,
    "Ġprogrammed": 11057,
    "triumph": 15438,
    "Ġgordon": 26466,
    "human": 7088,
    "Ġpave": 8798,
    "Ġforbear": 17120,
    "Ġdelayed": 9516,
    "why": 2830,
    "cong": 10686,
    "unaffected": 21881,
    "bul": 6951,
    "Ġscener": 10948,
    "Ġcountryside": 23595,
    "petulance": 24298,
    "harm": 13733,
    "Ġderive": 10393,
    "verd": 21725,
    "Ġsharpen": 13567,
    "Ġyour": 634,
    "Ġshows": 8482,
    "any": 3336,
    "hes": 1397,
    "terr": 8154,
    "Ġindependent": 9014,
    "Ġaccept": 4411,
    "Ġxlvi": 25590,
    "windward": 24159,
    "Ġscre": 9735,
    "americans": 25042,
    "Ġcitadel": 25438,
    "Ġunpleasing": 22051,
    "Ġfrigates": 25707,
    "intellect": 18821,
    "Ġhourly": 23298,
    "re": 266,
    "Ġperiod": 4005,
    "Ġstandpoint": 23276,
    "icirc": 15652,
    "Ġlustrous": 20155,
    "d": 72,
    "Ġrefreshed": 15288,
    "infant": 19826,
    "Ġisn": 7867,
    "Ġfuss": 13903,
    "Ġrespectable": 6736,
    "strate": 12670,
    "Ġoverlapping": 26238,
    "trained": 4241,
    "antly": 1990,
    "Ġshrubbery": 18232,
    "Ġpillar": 21472,
    "ilight": 12689,
    "Ġquantity": 6948,
    "Ġanswered": 2853,
    "Ġassign": 11108,
    "de": 459,
    "Ġviewing": 19263,
    "singing": 24362,
    "gir": 8083,
    "Ġtheme": 16016,
    "Ġrevolutions": 23839,
    "Ġstiffest": 24829,
    "yd": 21141,
    "deaux": 22146,
    "Ġoccupies": 24005,
    "icherry": 15133,
    "Ġ65": 24367,
    "Ġconsum": 9797,
    "Ġhotels": 19535,
    "Ġrestraint": 15125,
    "vable": 10131,
    "creation": 14803,
    "Ġcrouched": 23440,
    "founded": 16713,
    "Ġlightly": 13081,
    "Ġow": 8408,
    "Ġbuck": 7158,
    "spouter": 22735,
    "Ġlogs": 16344,
    "Ġdiverged": 23593,
    "Ġpreservation": 24631,
    "Ġsad": 3868,
    "Ġprosper": 10227,
    "Ġid": 1913,
    "Ġunintellig": 22022,
    "Ġsoothingly": 25047,
    "skill": 24486,
    "Ġmatrimony": 13633,
    "Ġinfiltrated": 23324,
    "landsmen": 25059,
    "frankenstein": 11390,
    "Ġmister": 22757,
    "Ġscrupled": 25049,
    "Ġrigging": 5600,
    "Ġguinea": 8946,
    "Ġunlo": 22008,
    "Ġexact": 2545,
    "Ġsimilarly": 24307,
    "trunk": 23945,
    "Ġascertain": 9704,
    "paws": 21028,
    "Ġnewly": 9336,
    "Ġinvest": 4978,
    "alvan": 21502,
    "Ġchildhood": 13136,
    "Ġchink": 15929,
    "gammon": 20242,
    "Ġvarying": 15807,
    "Ġviews": 7291,
    "Ġson": 2984,
    "fiery": 13579,
    "active": 16100,
    "Ġmasters": 11573,
    "irium": 8162,
    "Ġsignification": 19203,
    "writes": 4988,
    "pha": 22777,
    "Ġneighbors": 25804,
    "Ġcabal": 23641,
    "Ġinhabitants": 7525,
    "ui": 9143,
    "Ġcarbuncle": 14443,
    "Ġdisadvantages": 18558,
    "inition": 11555,
    "apolog": 22331,
    "sembled": 7264,
    "G": 43,
    "Ġwhistling": 19789,
    "Ġgardens": 16452,
    "mean": 6437,
    "bec": 4054,
    "opportunity": 12271,
    "Ġdiscovery": 5412,
    "Ġtravellers": 11307,
    "prairies": 20565,
    "countless": 24148,
    "Ġexcellence": 11450,
    "Ġmanilla": 15956,
    "Ġdod": 6672,
    "Ġmoby": 3663,
    "Ġspatial": 2730,
    "doc": 23374,
    "Ġcauldron": 25441,
    "Ġlamb": 8811,
    "Ġmiserably": 12944,
    "madam": 24420,
    "Ġaccomplishments": 13377,
    "Ġnovels": 15926,
    "Ġbanks": 6814,
    "Ġentertainment": 12219,
    "Ġfainter": 14911,
    "Ġnew": 1195,
    "Ġseethings": 26502,
    "Ġ33": 16675,
    "Ġeyel": 17095,
    "ases": 1520,
    "Ġdistances": 22502,
    "Ġserpentine": 11359,
    "?--": 15301,
    "spect": 3232,
    "compliments": 24810,
    "envelope": 17782,
    "Ġcultivation": 17144,
    "Ġquarrelling": 13497,
    "Ġattends": 19649,
    "utored": 15659,
    "Ġ&": 6512,
    "Ġdry": 5624,
    "ces": 578,
    "ress": 930,
    "Ġparched": 11724,
    "Ġearthy": 23711,
    "bureau": 20788,
    "urs": 6989,
    "Ġsailed": 4889,
    "ah": 1832,
    "influence": 13576,
    "Ġfollies": 16253,
    "Ġmeanness": 22594,
    "bowl": 14888,
    "Ġcash": 9651,
    "include": 23588,
    "Ġpanther": 16818,
    "gra": 771,
    "Ġbuilt": 8301,
    "Ġclergy": 7643,
    "Ġreally": 2158,
    "Ġswayed": 15046,
    "Ġbreaching": 23346,
    "enhall": 13848,
    "ery": 1269,
    "variance": 2657,
    "Ġdorm": 4821,
    "wore": 21123,
    "tales": 17685,
    "Ġinstructed": 19284,
    "themselves": 6540,
    "Ġrelu": 1048,
    "gaining": 20122,
    "lay": 5891,
    "Ġwouldn": 6046,
    "Ġmon": 1253,
    "ribed": 7693,
    "Ġtissu": 25920,
    "Ġ92": 24591,
    "Ġreturn": 1709,
    "newsp": 23131,
    "Ġstumbling": 21740,
    "Ġobsole": 22698,
    "Ġcharging": 23266,
    "Ġprobabilities": 4966,
    "fits": 13716,
    "deed": 1517,
    "Ġfocuses": 8649,
    "Ġabomin": 8189,
    "Ġnavigators": 19762,
    "Ġthither": 6821,
    "Ġmissing": 6175,
    "bears": 22488,
    ",_": 11461,
    "Ġireland": 17333,
    "Ġbrill": 8549,
    "torn": 17681,
    "Ġdemo": 10879,
    "their": 2543,
    "Ġpollard": 20384,
    "Ġdistressing": 12215,
    "Ġdismal": 11807,
    "Ġsmo": 2702,
    "Ġtowards": 1730,
    "sect": 8153,
    "augment": 18828,
    "Ġsignificant": 8633,
    "Ġbro": 1428,
    "alluring": 18352,
    "Ġflour": 8943,
    "Ġworaciousness": 22927,
    "indeed": 4489,
    "Ġcontact": 9279,
    "Ġtwilight": 16118,
    "Ġtales": 10140,
    "Ġslop": 23161,
    "Ġperform": 1038,
    "aston": 7409,
    "est": 500,
    "rated": 6227,
    "Ġunattended": 15840,
    "Ġlights": 8959,
    "unerative": 21894,
    "Ġtransl": 2831,
    "Ġsubstantial": 14807,
    "Ġquill": 12853,
    "Ġspoutings": 14673,
    "Ġstanding": 2999,
    "crimes": 16696,
    "Ġstrong": 1788,
    "Ġcoiled": 11817,
    "Ġcool": 5734,
    "endom": 15920,
    "T": 56,
    "Ġwounded": 8657,
    "screaming": 20324,
    "Ġeddystone": 25709,
    "Ġworkman": 16263,
    "Ġlengthen": 15650,
    "Ġhydraulic": 10062,
    "revenge": 13840,
    "bone": 5611,
    "Ġreturning": 5325,
    "Ġlinked": 15075,
    "sch": 21049,
    "Ġtra": 1384,
    "Ġlogits": 3450,
    "Ġsphy": 18311,
    "pointing": 12221,
    "Ġceased": 6467,
    "Ġmainten": 16110,
    "Ġhusband": 3619,
    "bacc": 7795,
    "Ġrobust": 1322,
    "Ġ235": 25713,
    "quished": 21846,
    "cest": 12441,
    "Ġstatistics": 1682,
    "idean": 14261,
    "Ġexclaimed": 4683,
    "Ġrud": 8477,
    "pan": 10715,
    "attle": 4468,
    "Ġexpl": 487,
    "Ġoverpowered": 15286,
    "Ġspeech": 4611,
    "Ġample": 11795,
    "Ġunprecedented": 15851,
    "intolerable": 22936,
    "condite": 23245,
    "Ġhate": 5445,
    "Ġdiscu": 4365,
    "Ġpretext": 22227,
    "ċ": 204,
    "Ġnights": 7258,
    "Ġaware": 5756,
    "Ġcrooked": 11280,
    "insufficient": 15487,
    "Ġinexpressible": 17331,
    "Ġrains": 24339,
    "Ġproduct": 3533,
    "Ġdebated": 9039,
    "iffs": 9020,
    "Ġcologne": 12971,
    "Ġdegenerated": 20504,
    "glo": 8737,
    "relations": 14730,
    "L": 48,
    "uzzle": 19582,
    "Ġclustered": 25233,
    "cloudless": 20331,
    "Ġushered": 18360,
    "rossed": 11011,
    "Ġadieus": 25110,
    "oa": 9611,
    "enstern": 17781,
    "Ġperennial": 22692,
    "Ġlong": 795,
    "vulgar": 25918,
    "Ġcamel": 25349,
    "Ġclos": 4550,
    "lacing": 17589,
    "burning": 25078,
    "Ġdissimilar": 22529,
    "Ġruff": 14347,
    "ection": 4948,
    "Ġfrigid": 17351,
    "Ġrecumbent": 22724,
    "Ġwaifing": 25243,
    "volous": 18586,
    "idity": 8829,
    "Ġape": 21195,
    "Ġshuttle": 12123,
    "owers": 12680,
    "Ġadvert": 10570,
    "Ġwarring": 16864,
    "Ġdifferences": 18713,
    "Ġshot": 4545,
    "Ġinitialization": 1254,
    "Ġresponsible": 9884,
    "Ġdepress": 14046,
    "Ġrequesting": 24633,
    "ě": 220,
    "grim": 19106,
    "Ġmiraculous": 13545,
    "Ġdismally": 20213,
    "a": 69,
    "undoubtedly": 13309,
    "Ġaltering": 18102,
    "Ġbreak": 2870,
    "irements": 22210,
    "Ġislands": 6766,
    "unless": 9233,
    "jac": 8382,
    "Ġpret": 3034,
    "Ġdeliberate": 15021,
    "Ġabsolutely": 4857,
    "Ġphantoms": 13484,
    "ctuous": 9204,
    "tumultuously": 25613,
    "shabb": 18498,
    "Ġeasily": 3891,
    "!--": 10676,
    "elly": 17979,
    "sensible": 20050,
    "Ġsolicitude": 10038,
    "Ġcommentators": 25229,
    "Ġengraved": 17080,
    "Ġrelied": 16192,
    "exertion": 16013,
    "Ġrally": 21966,
    "Ġseldom": 4630,
    "¡": 99,
    "Ġext": 897,
    "corn": 13697,
    "proves": 23392,
    "hyena": 24251,
    "Ġstum": 21729,
    "Ġpatagon": 14497,
    "yset": 21144,
    "Ġfrog": 23918,
    "cigar": 26124,
    "Ġpiteous": 17917,
    "dling": 9110,
    "ansion": 10920,
    "Ġeyebrows": 23515,
    "investigations": 25533,
    "Ġastir": 14638,
    "Ġrises": 9711,
    "dancing": 12451,
    "Ġsple": 21214,
    "outh": 2689,
    "desired": 8955,
    "Ġwaters": 3595,
    "agings": 18165,
    "keeping": 8634,
    "Ġsurpassing": 20466,
    "Ġdisconsolate": 20718,
    "pardonable": 17216,
    "raltar": 24232,
    "Ġsufferer": 16256,
    "acific": 4960,
    "Ġdurst": 20351,
    "share": 14236,
    "ourable": 4967,
    "Ġcaptive": 14425,
    "heavens": 19744,
    "seals": 21816,
    "Ġfring": 11126,
    "yourself": 6742,
    "Ġpagoda": 19787,
    "Ġfed": 5529,
    "swe": 5996,
    "Ġsurely": 6307,
    "whispering": 26103,
    "Ġcrozetts": 19628,
    "Ġpoetic": 17102,
    "Ġscrew": 8866,
    "Ġomin": 11575,
    "Ġchaldee": 26234,
    "anc": 6378,
    "Ġitself": 2524,
    "Ġpatentee": 25586,
    "æ": 167,
    "Ġpines": 12613,
    "gent": 7129,
    "ivil": 6410,
    "Ġmusk": 7495,
    "Ġensures": 3053,
    "riors": 18183,
    "ashion": 3859,
    "Ġshrieking": 24758,
    "Ġruns": 8595,
    "Ġblind": 3716,
    "================": 3724,
    "icity": 2542,
    "icable": 6387,
    "thirds": 25046,
    "Ġaccounted": 10293,
    "verse": 9686,
    "pictures": 15088,
    "Ġevidence": 5269,
    "ayed": 12708,
    "equ": 6790,
    "lutions": 20949,
    "Ġstyled": 24671,
    "osity": 14184,
    "Ġpyth": 21460,
    "Ġmors": 17801,
    "gallant": 7781,
    "Ġtom": 15629,
    "Ġattacking": 24464,
    "omely": 21637,
    "etics": 21579,
    "precisely": 6917,
    "ispensable": 9094,
    "Ġdefray": 22939,
    "igation": 5918,
    "wonderful": 16959,
    "amples": 1821,
    "hever": 13829,
    "bern": 20774,
    "lashed": 20953,
    "Ġincredible": 9513,
    "shri": 14235,
    "umbling": 6758,
    "oga": 22693,
    "Ġprobable": 5569,
    "Ġbecher": 18879,
    "Ġaccident": 5380,
    "Ġabsolute": 6765,
    ".âĢĶâĢľ": 20746,
    "Ġsqueezed": 20034,
    "Ġomit": 17815,
    "humoredly": 26324,
    "Ġexhaustion": 14958,
    "Ġincreases": 3796,
    "purse": 20023,
    "Ġconvent": 11666,
    "Ġaltogether": 4831,
    "Ġherds": 9714,
    "Ġla": 5913,
    "Ġhers": 7890,
    "Ġcabinet": 23859,
    "Ġdau": 21424,
    "Ġunav": 18240,
    "Ġmonoton": 3635,
    "Ġpath": 2114,
    "Ġcomputation": 966,
    "Ġglided": 7447,
    "Ġelegance": 11331,
    "Ġsalvation": 14754,
    "Ġsoldiers": 8686,
    "Ġvigilance": 12368,
    "Ġsake": 4092,
    "Ġsurging": 19133,
    "Ġmomentary": 11035,
    "off": 1888,
    "quickness": 19850,
    "Ġgrieved": 8298,
    "Ġgreek": 10629,
    "gle": 20868,
    "Ġworse": 4719,
    "Ġextremely": 2671,
    "diss": 17522,
    "Ġengraving": 17079,
    "itime": 15544,
    "Ġmagnanim": 14470,
    "Ġdissip": 10991,
    "Ġmiracle": 15091,
    "Ġboneless": 19604,
    "Ġpreach": 14171,
    "Ġdirector": 18920,
    "Ã¦st": 24174,
    "Ġox": 7154,
    "Ġdisregard": 22526,
    "itself": 7835,
    "Ġvehemence": 26565,
    "Ġtong": 4870,
    "Ġminister": 18751,
    "Ġimpact": 10295,
    "mant": 20964,
    "Ġhatchway": 13523,
    "Ġsheer": 14149,
    "Ġecon": 9676,
    "removed": 15514,
    "Ġimmediate": 6090,
    "Ġportly": 14676,
    "Ġprimary": 25060,
    "Ġpapers": 4022,
    "throt": 25659,
    "opard": 9289,
    "go": 2063,
    "lucifer": 25302,
    "Ġdagger": 21436,
    "Ġwrap": 24595,
    "otherwise": 7672,
    "Ġwhe": 439,
    "Ġminimum": 23040,
    "Ġcompanion": 3642,
    "Ġemotions": 8968,
    "arily": 4126,
    "impregn": 21712,
    "spades": 14330,
    "dashing": 20835,
    "Ġspitzbergen": 15285,
    "Ġcoin": 9769,
    "pardon": 10063,
    "Ġintersect": 22573,
    "Ġshower": 11707,
    "Ġlabyrin": 13102,
    "cob": 10085,
    "Ġfoundations": 11072,
    "encies": 4081,
    "Ġbeamed": 23720,
    "aut": 1916,
    "quitted": 21849,
    "car": 4214,
    "readers": 23845,
    "Ġincred": 5646,
    "Ġlabelled": 23329,
    "ored": 3898,
    "grass": 23411,
    "regarding": 15069,
    "Ġdecipher": 22444,
    "Ġstone": 4646,
    "falling": 24360,
    "Ġdeveloped": 16333,
    "Ġunduly": 25994,
    "Ġsomeone": 6703,
    "Ġviewed": 10462,
    "specific": 10496,
    "aths": 22699,
    "Ġbrahma": 26319,
    "Ġbat": 10794,
    "Ġstructure": 831,
    "Ġswaying": 15045,
    "Ġsixth": 16557,
    "Ġruled": 22784,
    "thrill": 25656,
    "Ġoce": 3029,
    "ispens": 8336,
    "Ġunconcern": 14115,
    "Ġleaks": 16447,
    "isome": 17848,
    "Ġhospital": 15038,
    "Ġthese": 819,
    "Ġtwelvemonth": 12174,
    "chemical": 23807,
    "Ġintrepid": 11702,
    "Ġsooty": 25815,
    "persuade": 13531,
    "Ġrecalled": 8537,
    "Ġcoach": 6867,
    "find": 6954,
    ");": 7331,
    "sec": 6152,
    "Ġcommanded": 6330,
    "Ġshakes": 10903,
    "Ġfruitless": 25605,
    "then": 2053,
    "Ġbandaged": 16841,
    "Ġslime": 23160,
    "Ġthunders": 15634,
    "Ġrejecting": 17050,
    "urried": 21702,
    "Ġauthorities": 11263,
    "Ġxxiv": 24476,
    "Ġpermanently": 25473,
    "Ġontario": 26205,
    "etus": 21576,
    "Ġalluded": 7886,
    "Ġtawn": 13821,
    "Ġloomed": 12298,
    "Ġpail": 15603,
    "wishing": 21127,
    "plenty": 14089,
    "Ġspears": 12922,
    "Ġoccasioned": 13224,
    "Ġmultiplied": 23689,
    "Ġdefe": 21834,
    "Ġclimax": 25051,
    "Ġ20": 8613,
    "Ġcustoms": 19651,
    "Ġimpotent": 18446,
    "Ġmacy": 19353,
    "ortations": 22255,
    "Ġpassed": 2012,
    "mph": 20971,
    "Ġcorrected": 10447,
    "Ġcords": 14876,
    "superstitious": 17279,
    "Ġlawn": 7380,
    "Ġfishermen": 5971,
    "buried": 14846,
    "allows": 15904,
    "Ġpolished": 11181,
    "Ġbod": 4582,
    "likes": 18814,
    "Ġbrightened": 23826,
    "Ġjuggl": 20436,
    "Ġmonsters": 11073,
    "oura": 1061,
    "Ġgallant": 8654,
    "kinson": 10024,
    "Ġamsterdam": 22482,
    "Ġscript": 18398,
    "Ġbeside": 5192,
    "went": 6511,
    "Ġiceberg": 14713,
    "somers": 19366,
    "lish": 1954,
    "Ġglare": 13013,
    "Ġassented": 17336,
    "Ġframed": 19026,
    "heartedness": 24827,
    "hurt": 19877,
    "paralleled": 14506,
    "Ġ2026": 12332,
    "Ġlabors": 23328,
    "grant": 10426,
    "ssed": 3735,
    "Ġimperilled": 19577,
    "ckets": 6843,
    "Ġoverhanging": 22360,
    "crooked": 25746,
    "Ġcurls": 22964,
    "Ġcogn": 11001,
    "Ġproportional": 2527,
    "Ġtantalizing": 20412,
    "alley": 23021,
    "Ġexclamations": 11360,
    "Ġcount": 1815,
    "Ġcontented": 9754,
    "Ġchoose": 5982,
    "clearer": 24066,
    "Ġvalleys": 14916,
    "ĉ": 202,
    "Ġeffected": 14352,
    "portent": 25412,
    "anyth": 5438,
    "Ġinexhaustible": 16980,
    "Ġhe": 318,
    "Ġflows": 13010,
    "Ġrendered": 5773,
    "Ġxvi": 19104,
    "inion": 2877,
    "Ġaids": 12225,
    "hies": 17559,
    "Ġpronouncing": 16968,
    "taste": 10128,
    "Ġstirred": 12214,
    "Ġprivile": 8645,
    "Ġbatch": 890,
    "aphys": 15199,
    "Ġtink": 9147,
    "Ġloves": 10914,
    "pole": 9331,
    "Ġtoilette": 20491,
    "Ġdate": 7842,
    "Ġgulp": 20027,
    "Ġtending": 17723,
    "Ġspect": 3551,
    "Ġguided": 10459,
    "Ġinter": 728,
    "dles": 11479,
    "Ġlaid": 3943,
    "ifying": 5235,
    "Ġpropontis": 17464,
    "Ġexotic": 21830,
    "Ġinsincere": 26598,
    "outside": 12800,
    "returns": 23133,
    "Ġassizes": 11107,
    "Ġtrinity": 22343,
    "Ġtinged": 20081,
    "Ġwhar": 7389,
    "Ġgard": 2188,
    "cour": 4481,
    "Ġdad": 12596,
    "striving": 24669,
    "Ġfurled": 22812,
    "ates": 518,
    "nothing": 3155,
    "buttons": 22398,
    "Ġmanufact": 22326,
    "feed": 9291,
    "Ġacqu": 1416,
    "Ġamongst": 8958,
    "reflections": 24735,
    "affair": 14653,
    "oundered": 14163,
    "gressive": 2755,
    "ference": 1884,
    "Ġyielding": 12183,
    "Ġany": 689,
    "Ġgarnery": 17385,
    "angry": 18294,
    "Ġalphabetical": 17200,
    "Ġcore": 13876,
    "Ġinterment": 22572,
    "Ġcoast": 4656,
    "gledy": 25403,
    "Ġclink": 22347,
    "Ġvoyages": 6908,
    "bench": 16802,
    "ishments": 9271,
    "lik": 3918,
    "eng": 1488,
    "Ġroof": 6564,
    "amiable": 14051,
    "Ġacquitted": 18898,
    "bit": 3934,
    "buff": 15316,
    "Ġmemorand": 23403,
    "Ġinspired": 2521,
    "hast": 5357,
    "alive": 10826,
    "ishly": 14198,
    "Ġabatement": 22274,
    "Ġhud": 10821,
    "heavenly": 20043,
    "Ġurged": 6781,
    "unk": 4540,
    "Ġcelebrate": 26357,
    "Ġcalculating": 9923,
    "tawn": 21079,
    "Ġlestrade": 5825,
    "Ġthorough": 6245,
    "Ġmargaret": 10375,
    "all": 485,
    "Ġgrud": 17995,
    "Ġsmart": 11812,
    "cords": 25136,
    "Ġbrid": 6290,
    "Ġinsufferable": 13929,
    "Ġestimates": 3748,
    "solitude": 23294,
    "Ġrabbit": 4290,
    "devoted": 20015,
    "ferred": 16360,
    "Ġbrazier": 26320,
    "imately": 12684,
    "ine": 407,
    "Ġpeculiarity": 12929,
    "iverse": 13113,
    ",--": 2479,
    "intosh": 22938,
    "const": 5939,
    "ibly": 2996,
    "Ġthat": 335,
    "Ġpumps": 8427,
    "boilers": 26297,
    "Ġeducation": 5128,
    "Ġvertu": 23888,
    "Ġram": 11013,
    "Ġgener": 592,
    "Ġtune": 17724,
    "russian": 22177,
    "Ġprettier": 23763,
    "av": 738,
    "prov": 16420,
    "stiff": 12671,
    "alice": 3209,
    "Ġwithin": 2162,
    "Ġrefusal": 10343,
    "Ġcapture": 3384,
    "uvier": 9067,
    "Ġmuzzle": 21319,
    "Ġclever": 7054,
    "Ġenvironment": 3895,
    "Ġguid": 2641,
    "Ġperturbation": 20439,
    "quietly": 10591,
    "Ġreasoned": 23083,
    "Ġ1": 1015,
    "Ġofficio": 23813,
    "se": 358,
    "pieces": 8754,
    "Ġmadness": 6601,
    "Ġaccursed": 9453,
    "Ġrely": 8819,
    "iter": 4392,
    "Ġmulti": 1046,
    "Ġdrawer": 13262,
    "94": 4803,
    "Ġconsequ": 6254,
    "Ġdissolved": 18554,
    "Ġishmael": 7396,
    "Ġark": 10274,
    "Ġinform": 996,
    "Ġdear": 1535,
    "Ġate": 8838,
    "Ġexecute": 7506,
    "drugg": 20837,
    "Ġprom": 1524,
    "revolver": 25627,
    "Ġ14": 9321,
    "Ġfamily": 1968,
    "Ġuntimely": 16465,
    "Ġguitar": 16268,
    "eteenth": 20156,
    "!_âĢĶ": 19971,
    "Ġluckless": 16796,
    "erie": 21269,
    "Ġdecreed": 18484,
    "otle": 21795,
    "Ġsky": 3971,
    "Ġswap": 23050,
    "Ġinland": 11606,
    "Ġspiritual": 9928,
    "Ġsax": 10928,
    "occasionally": 13519,
    "Ġproc": 5544,
    "Ġcolt": 11043,
    "Ġmoderation": 12815,
    "Ġelopement": 10328,
    "asy": 5294,
    "Ġvillagers": 19472,
    "Ġwr": 1541,
    "indignation": 18438,
    "ury": 3310,
    "Ġappalling": 8498,
    "moby": 8536,
    "bound": 6220,
    "Ġrelationships": 2927,
    "magnificent": 20273,
    "Ġsubsisting": 23433,
    "Ġspec": 1263,
    "Ġunstructure": 2995,
    "Ġdemean": 12719,
    "Ġwakeful": 24265,
    "Ġimmortal": 8018,
    "Ġwed": 3962,
    "pul": 8753,
    "Ġprevious": 2090,
    "Ġramble": 9312,
    "Ġbales": 21387,
    "Ġoccasions": 7988,
    "arrange": 23764,
    "Ġcannot": 1666,
    "iters": 21327,
    "ix": 1801,
    "Ġrecollections": 10511,
    "Ġcanted": 17831,
    "sank": 17661,
    "Ġinverted": 12633,
    "Ġlung": 7168,
    "Ġchurning": 15934,
    "Ġtruest": 16702,
    "Ġstrokes": 16768,
    "Ġgovern": 10449,
    "precise": 19349,
    "bru": 12436,
    "Ġphant": 7055,
    "Ġisolated": 13557,
    "Ġdoubled": 19641,
    "Ġbutcher": 18271,
    "harpooneer": 8688,
    "Ġwindsor": 16886,
    "Ġisolation": 17149,
    "Ù": 154,
    "confused": 19643,
    "Ġannealing": 1551,
    "anel": 21355,
    "affect": 13210,
    "Ġburial": 16520,
    "Ġspoilt": 24807,
    "delights": 19700,
    "Ġpy": 21450,
    "mews": 22711,
    "Ġliberated": 19665,
    "Ġbeech": 18082,
    "Ġlest": 6394,
    "Ġsweetly": 23916,
    "depth": 12796,
    "Ġunsolved": 22029,
    "Ġgarments": 15191,
    "Ġbluff": 16516,
    "Ġalleg": 14015,
    "Ġ85": 24459,
    "ufact": 10732,
    "Ġinferences": 17934,
    "Ġfountains": 13501,
    "despairing": 25074,
    "Ġmass": 3781,
    "coronet": 16862,
    "Ġcro": 4873,
    "Ġscared": 14188,
    "Ġtip": 15469,
    "Ġbetween": 791,
    "inks": 6869,
    "iliar": 15710,
    "Ġascended": 8665,
    "Ġmasts": 6464,
    "jet": 13740,
    "stolidity": 21661,
    "Ġpatchwork": 24139,
    "nails": 17613,
    "Ġand": 295,
    "800": 17475,
    "Ġdischarged": 15218,
    "tr": 3578,
    "slanting": 24557,
    "ain": 343,
    "Ġuttering": 16460,
    "Ġwail": 21285,
    "Ġoverl": 18427,
    "Ġforgotten": 5679,
    "Ġmercy": 8997,
    "Ġfears": 5729,
    "Ġlambton": 10656,
    "wearing": 22685,
    "vel": 2386,
    "Ġrevelation": 25222,
    "killed": 15374,
    "Ġoaths": 13522,
    "jah": 17580,
    "Ġglasses": 9473,
    "Ġundertake": 14478,
    "continue": 16860,
    "Ġrounds": 18884,
    "pip": 6654,
    "Ġintervening": 17266,
    "Ġcities": 17827,
    "B": 38,
    "Ġ21": 11197,
    "Ġdrinking": 12165,
    "caves": 20815,
    "itics": 13870,
    "_.âĢĶ": 23471,
    "ven": 781,
    "Ġgord": 21598,
    "Ġharness": 17927,
    "ck": 436,
    "Ġcontentment": 14867,
    "entered": 8813,
    "Ġpasses": 2681,
    "boots": 11125,
    "Ġdarker": 13117,
    "Ġhereditarily": 25224,
    "main": 8088,
    "take": 4577,
    "Ġcrotch": 9961,
    "Ġdashing": 8794,
    "uses": 11758,
    "Ġdispose": 23877,
    "soon": 4030,
    "Ġfeel": 1261,
    "Ġhue": 8429,
    "fel": 8733,
    "Ġbos": 4875,
    "Ġab": 528,
    "Ġcalam": 13030,
    "Ġrock": 5310,
    "Ġaverted": 16252,
    "deceiving": 22142,
    "Ġarsacides": 17292,
    "Ġdoll": 10812,
    "Ġbridge": 8349,
    "Ġspectacles": 12094,
    "Ġimproper": 22750,
    "ede": 21504,
    "Ġgrimly": 17051,
    "presented": 12986,
    "Ġfourteen": 12006,
    "inconsiderable": 21190,
    "abroad": 18108,
    "news": 23130,
    "clearly": 25195,
    "Ġmitigates": 3049,
    "Ġnib": 13938,
    "gryphon": 15356,
    "mercenary": 26315,
    "Ġinterruption": 9471,
    "Ġinflamed": 13471,
    "Ġ**": 4721,
    "Ġhears": 8139,
    "Ġtops": 14584,
    "sin": 21047,
    "gen": 6502,
    "izing": 1067,
    "ception": 6562,
    "Ġflattered": 10373,
    "Ġmowers": 17812,
    "pping": 1423,
    "admiration": 11386,
    "Ġseals": 11692,
    "ĠâĢľâĢĺ": 8503,
    "bonnet": 25742,
    "Ġsoftmax": 1690,
    "claps": 23152,
    "Ġtill": 1823,
    "servant": 15034,
    "Ġstupidity": 15048,
    "behaviour": 11300,
    "Ġimpertinent": 9076,
    "grateful": 10427,
    "Ġreigns": 21669,
    "urer": 18121,
    "rapid": 12666,
    "Ġsoaring": 22084,
    "Ġintegr": 7969,
    "boil": 19000,
    "Ġwoke": 21288,
    "Ġfleeting": 19326,
    "impenetrable": 26196,
    "ceived": 1966,
    "ther": 481,
    "Ġundergo": 23236,
    "Ġembarr": 7448,
    "Ġexhaust": 6398,
    "Ġrobe": 18456,
    "Ġcontemptuously": 19832,
    "ellect": 7382,
    "Ġwhittingham": 26197,
    "kes": 3678,
    "Ġgeneralization": 984,
    "def": 1451,
    "nment": 20989,
    "),": 1347,
    "Ġhospitals": 24923,
    "rers": 14715,
    "Ġmasks": 23327,
    "Ġarrive": 6907,
    "Ġdishes": 16047,
    "č": 206,
    "plex": 713,
    "Ġgay": 5534,
    "Ġpromised": 5181,
    "plifted": 9709,
    "Ġbalmy": 22903,
    "Ġpainful": 6461,
    "calm": 8933,
    "Ġcrying": 10785,
    "Ġduties": 6609,
    "Ġconcise": 23319,
    "Ġumbrell": 13648,
    "doubt": 6782,
    "than": 4089,
    "Ġinvaluable": 10181,
    "drifting": 19823,
    "Ġpolluted": 25593,
    "frock": 20119,
    "Ġcatching": 9476,
    "Ġremain": 1875,
    "Ġgets": 10838,
    "Ġbrowne": 13299,
    "Ġwrit": 8242,
    "Ġmichaelmas": 26374,
    "Ġimpat": 4457,
    "Ġnailed": 10188,
    "Ġroarings": 25301,
    "Ġacre": 22679,
    "fed": 11486,
    "histor": 13489,
    "iers": 5991,
    "È": 137,
    "Ġwet": 6517,
    "Ġunsupplied": 22039,
    "Ġmaternal": 11058,
    "lived": 12483,
    "Ġdistillation": 16042,
    "specul": 23940,
    "browed": 25894,
    "librarian": 26567,
    "andromeda": 21866,
    "Ġsaucer": 20604,
    "Ġtremulous": 14984,
    "Ġsuccessive": 10499,
    "Ġtur": 2566,
    "Ġchose": 7414,
    "Ġdevote": 10337,
    "Ġwearer": 21921,
    "Ġannouncement": 14830,
    "Ġcuring": 21342,
    "Ġoutlines": 15954,
    "Ġaffronted": 22892,
    "Ġkidnapping": 26356,
    "Ġcusack": 26432,
    "omit": 13972,
    "Ġvelv": 10618,
    "Ġide": 2123,
    "Ġschool": 5512,
    "lue": 8508,
    "reflected": 24733,
    "Ġbl": 1190,
    "Ġtumbled": 13404,
    "Ġtablet": 19205,
    "iger": 8446,
    "iom": 20914,
    "Ġqueens": 16705,
    "Ġsymp": 4504,
    "Ġhospit": 7515,
    "Ġconsole": 8151,
    "sus": 6228,
    "een": 726,
    "iousness": 4899,
    "Ġarg": 4766,
    "ecess": 17531,
    "Ġparac": 12791,
    "jud": 4483,
    "Ġutter": 3976,
    "Ġimm": 3967,
    "Ġqueer": 4480,
    "Ġhelplessness": 25071,
    "2": 22,
    "Ġgloom": 4202,
    "Ġcomparative": 10541,
    "fears": 18532,
    "Ġdomineer": 23645,
    "Ġnews": 3819,
    "Ġtendency": 11328,
    "horr": 14597,
    "Ġcourting": 23288,
    "Ġaloof": 21783,
    "enterprise": 24994,
    "Ġcreator": 7259,
    "Ġinsanity": 12044,
    "Ġskylight": 24071,
    "heat": 15495,
    "Ġcoral": 11919,
    "cap": 8373,
    "Ġshown": 5159,
    "Ġwisest": 11231,
    "rel": 3755,
    "Ġvult": 12748,
    "Ġscrape": 14915,
    "illa": 12789,
    "Ġcatastrophic": 3541,
    "entieth": 17978,
    "retrospect": 23134,
    "30": 20753,
    "Ġ1839": 20458,
    "Ġroast": 18455,
    "Ġdisconsol": 18557,
    "mayhew": 23989,
    "Ġprisoner": 8672,
    "clu": 20798,
    "deduction": 23556,
    "Ġoverall": 4360,
    "Ġdealer": 23974,
    "ours": 3427,
    "circumstantial": 24443,
    "ece": 17530,
    "Ġpott": 21467,
    "ivial": 15857,
    "ots": 3294,
    "Ġsegmentation": 17338,
    "Ġ6": 5141,
    "Ġworshippers": 25693,
    "Ġsurround": 4618,
    "Ġbasic": 24701,
    "Ġmansion": 17809,
    "Ġfrogs": 23920,
    "Ġextended": 7924,
    "Ġintim": 6838,
    "Ġpre": 507,
    "pierced": 26141,
    "hibited": 17425,
    "neighboring": 20615,
    "Ġsallied": 12533,
    "Ġberg": 24535,
    "Ġblinding": 14725,
    "okingly": 22376,
    "Ġlowermost": 23241,
    "Ġcompens": 14262,
    "prehensible": 12357,
    "Ġoy": 15542,
    "Ġth": 299,
    "tornadoes": 26153,
    "Ġunaffected": 14120,
    "Ġtrooped": 24899,
    "Ġmusical": 23891,
    "Ġparch": 11723,
    "Ġfow": 6133,
    "Ġentreat": 4511,
    "Ġsank": 5076,
    "ceptive": 15962,
    "Ġmake": 1284,
    "Ġdiscovered": 4413,
    "Ġglance": 4235,
    "ĠâĢĺ": 1628,
    "Ġbreathe": 9010,
    "scuttle": 11906,
    "ott": 1874,
    "Ġpassers": 18759,
    "Ġfollow": 1395,
    "ourselves": 9009,
    "ohn": 4562,
    "robotics": 11305,
    "Ġintroducing": 11972,
    "Ġintellect": 8170,
    "prepared": 13588,
    "Ġvolcano": 24145,
    "tre": 8760,
    "Ġanalyzing": 18790,
    "Ġhorse": 4725,
    "uling": 2257,
    "Ġsneering": 24697,
    "ellest": 21572,
    "rimshander": 20656,
    "oquent": 12496,
    "Ġadroop": 26001,
    "Ġversion": 10628,
    "Ġ112": 24436,
    "Ġlarboard": 11008,
    "Ġrule": 1531,
    "elson": 16369,
    "Ġplied": 22595,
    "Ġpill": 7846,
    "thanking": 24329,
    "Ġnimble": 21526,
    "Ġfoiled": 23243,
    "westward": 25424,
    "Ġemboldened": 22998,
    "lifted": 15384,
    "Ġjav": 7903,
    "Ġmanner": 2194,
    "Ġunfl": 22016,
    "eldom": 4414,
    "Ġscattered": 6856,
    "odings": 4400,
    "Ê": 139,
    "Ġsire": 15499,
    "Ġhues": 21487,
    "Ġview": 2762,
    "Ġglide": 22982,
    "algorithms": 8297,
    "ahawk": 23312,
    "Ġexploit": 19161,
    "Ġalready": 2713,
    "Ġadapt": 1019,
    "Ġlink": 8130,
    "scept": 21052,
    "indispensable": 14208,
    "Ġcalendar": 18877,
    "Ġpledge": 11599,
    "Ġnewfound": 22930,
    "Ġunmanufactured": 20432,
    "Ġinestimable": 17440,
    "Ġliv": 6679,
    "Ġprompted": 23814,
    "illes": 12690,
    "mutually": 26136,
    "Ġdoth": 13906,
    "Ġskip": 1845,
    "consciousness": 13363,
    "Ġrejection": 19982,
    "Ġsmiting": 12894,
    "chery": 24550,
    "adm": 7609,
    "Ġwer": 12548,
    "Ġcorners": 18875,
    "Ġshops": 21999,
    "Ġrespecting": 14482,
    "hurried": 11352,
    "ilege": 22256,
    "Ġreached": 4024,
    "Ġdefine": 9813,
    "dinner": 11405,
    "Ġhedges": 19983,
    "practical": 17220,
    "Ġabundant": 17153,
    "flames": 14709,
    "Ġgeography": 23370,
    "Ġfourth": 7707,
    "Ġwings": 9162,
    "herent": 2532,
    "Ġland": 1999,
    "Ġuprising": 12798,
    "Ġproportions": 16466,
    "anch": 15556,
    "ldog": 21915,
    "Ġfaith": 5350,
    "Ġhappy": 2466,
    "Ġacknowledges": 24688,
    "Ġenterprise": 8641,
    "Ġrespect": 1669,
    "×": 152,
    "ocratic": 17244,
    "Ġunp": 12768,
    "Ġpathways": 11152,
    "Ġagonising": 25373,
    "jointed": 24007,
    "Ġvain": 3628,
    "Ġoccasion": 3245,
    "agger": 7873,
    "Ġmany": 1105,
    "done": 6499,
    "ird": 2428,
    "Ġdimensions": 16570,
    "Ġpalpit": 16690,
    "Ġcomplaisance": 19447,
    "Ġrepul": 16407,
    "Ġsunbeam": 23274,
    "Ġcustom": 5078,
    "Ġxxx": 7767,
    "¾": 127,
    "attent": 9357,
    "remarks": 23187,
    "Ġmoderately": 22220,
    "Ġswiftly": 5670,
    "Ġsolid": 6442,
    "Ġiceland": 15144,
    "Ġcontained": 7680,
    "Ġprot": 3848,
    "hereditary": 26418,
    "Ġbradstreet": 9575,
    "close": 9984,
    "Ġinstantaneously": 23659,
    "sink": 11520,
    "Ġlocker": 16910,
    "uture": 1111,
    "bearded": 18519,
    "itable": 5437,
    "Ġlandlord": 5580,
    "accepted": 20135,
    "treatment": 20410,
    "Ġpractical": 3165,
    "Ġjoining": 13162,
    "Ġforcing": 3225,
    "Ġthr": 5709,
    "Ġferoc": 14899,
    "Ġferrule": 24516,
    "Ġcheapside": 23285,
    "Ġsnaky": 23740,
    "Ġwide": 4108,
    "Ġuncomp": 15838,
    "cated": 20802,
    "Ġimprecate": 20516,
    "Ġmental": 21318,
    "whip": 22235,
    "Ġargosy": 24272,
    "sized": 15426,
    "Ġdazz": 11592,
    "Ġdisposed": 7083,
    "springing": 24889,
    "Ġuntil": 2670,
    "Ġinsisted": 12043,
    "Ġmasoned": 20250,
    "Ġliterature": 17147,
    "Ġinsulated": 23679,
    "Ġyields": 19655,
    "Ġii": 7385,
    "Ġcrate": 19122,
    "Ġsincere": 11135,
    "Ġpan": 5082,
    "Ġfrozen": 9011,
    "Ġcrags": 23527,
    "marching": 25752,
    "lively": 12481,
    "carte": 25400,
    "Ġnorthern": 7266,
    "judges": 19572,
    "Ġskeleton": 5514,
    "Ġcrescentic": 20620,
    "Ġleaf": 15719,
    "ell": 397,
    "results": 20385,
    "beds": 16585,
    "grat": 5052,
    "Ġguise": 14430,
    "ifix": 21901,
    "Ġuniverse": 14122,
    "distinguish": 19571,
    "vand": 21107,
    "Ġoppress": 13170,
    "Ġtransports": 24276,
    "Ġstraw": 9427,
    "Ġdecoding": 3081,
    "Ġindisc": 16224,
    "Ġforster": 5230,
    "Ġincensed": 18571,
    "scoured": 22989,
    "Ġmultiplication": 2873,
    "Ġfem": 6134,
    "ctor": 13958,
    "medi": 2631,
    "fail": 17539,
    "iasm": 8061,
    "Ġdiminish": 14742,
    "Ġsafie": 6617,
    "reflection": 13453,
    "Ġartificial": 790,
    "Ġ130": 24781,
    "Ġsolved": 8930,
    "icorn": 15653,
    "Ġarched": 10931,
    "aged": 2610,
    "quiet": 6154,
    "Ġminority": 18752,
    "Ġdoctrine": 24196,
    "Ġenters": 11024,
    "Ġcontext": 1677,
    "representing": 25271,
    "Ġsens": 1854,
    "Ġbuckskin": 19950,
    "accepting": 20134,
    "vent": 683,
    "rance": 5994,
    "Ġbrougham": 17870,
    "circumspect": 26086,
    "set": 3866,
    "Ġpump": 12617,
    "Ġheadlands": 22897,
    "Ġbamboo": 17435,
    "inn": 5363,
    "swiftly": 20550,
    "Ġfemin": 13434,
    "Ġaloft": 4304,
    "highly": 24764,
    "dearest": 11732,
    "Ġtranspointed": 22438,
    "Ġendless": 7053,
    "fisher": 7548,
    "Ġsurmisings": 26592,
    "Ġlandscape": 12414,
    "me": 872,
    "Ä": 133,
    "Ġyourselves": 9027,
    "jaws": 20931,
    "Ġgnashed": 20131,
    "Ġmorocc": 22975,
    "arat": 9179,
    "Ġdormouse": 4925,
    "oth": 1185,
    "medium": 23638,
    "geese": 22365,
    "leather": 13888,
    "Ġaromatic": 25925,
    "msprop": 2628,
    "Ġmilan": 19534,
    "malice": 17603,
    "actory": 8906,
    "Ġpaw": 12616,
    "Ġirene": 8444,
    "Ġextremities": 19195,
    "Ġincor": 2613,
    "Ġcommonplaces": 16286,
    "Ġtemporal": 2616,
    "Ġnurtured": 19748,
    "Ġloite": 22109,
    "mont": 19168,
    "sculpt": 16241,
    "hilar": 25081,
    "Ġnash": 5819,
    "Ġmurder": 4282,
    "rust": 2583,
    "floor": 14933,
    "Ġgest": 8134,
    "Ġgasfitters": 25038,
    "Ġnamed": 6139,
    "Ġfielding": 16232,
    "Ġpreface": 18367,
    "Ġpurch": 6599,
    "Ġdownstairs": 11223,
    "fo": 5278,
    "sis": 1809,
    "igan": 21696,
    "Ġindividuals": 24545,
    "philosophy": 13578,
    "ricane": 16276,
    "Ġconvulsively": 25717,
    "tree": 11532,
    "Ġneatness": 19931,
    "Ġhaught": 10251,
    "Ġacquies": 11096,
    "accompan": 11451,
    "Ġdiscomposed": 25580,
    "dawson": 26128,
    "Ġconsequences": 11334,
    "once": 5904,
    "Ġbaw": 15565,
    "Ġhastily": 5763,
    "verb": 10215,
    "Ġinsol": 10179,
    "promote": 24727,
    "Ġfergus": 16871,
    "Ġdesires": 9455,
    "Ġcausing": 16355,
    "Ġtamer": 24978,
    "Ġsolemnity": 9939,
    "ged": 1511,
    "Ġ128": 24472,
    "Ġself": 1780,
    "Ġbone": 4695,
    "deep": 1020,
    "Ġvill": 3878,
    "Ġpostp": 12140,
    "Ġnormal": 1201,
    "Ġundulated": 19515,
    "Ġglued": 20587,
    "Ġslips": 23165,
    "Ġspasmod": 12411,
    "Ġdeact": 18138,
    "Ġincorruption": 26309,
    "Ġuser": 15912,
    "tha": 15820,
    "Ġdescribing": 19253,
    "Ġbargain": 23791,
    "Ġcongenial": 12408,
    "Ġblasphemer": 26116,
    "Ġhealthcare": 8016,
    "Ġstabbed": 25456,
    "Ġlayer": 1012,
    "pervised": 1604,
    "Ġanxiety": 5408,
    "Ġshaft": 18229,
    "guilt": 24067,
    "Ġhowling": 8509,
    "dining": 13703,
    "Ġupright": 8493,
    "Ġobserved": 3540,
    "wrong": 13204,
    "Ġdrawling": 19435,
    "Ġrate": 1064,
    "miraculous": 26395,
    "gard": 7340,
    "Ġbou": 17852,
    "experience": 17157,
    "Ġgallied": 19555,
    "Ġangel": 4852,
    "Ġcupidity": 24534,
    "Ġimpud": 18444,
    "Ġlandau": 16417,
    "Ġinvoluntary": 18757,
    "Ġprizes": 13071,
    "Ġothers": 2585,
    "Ġdisput": 14254,
    "Ġgreyish": 24207,
    "Ġfrosted": 19802,
    "Ġoutcast": 18414,
    "persuasion": 20042,
    "onder": 3780,
    "fre": 5425,
    "Ġconjugal": 25101,
    "bour": 2074,
    "Ġlearned": 2025,
    "slee": 17167,
    "Ġveiled": 16198,
    "fully": 2201,
    "conven": 6162,
    "Ġsaluted": 14755,
    "Ġmor": 1251,
    "Ġdata": 521,
    "Ġaccomplished": 7104,
    "Ġvarieties": 14308,
    "Ġfarewell": 9518,
    "Ġeludes": 26553,
    "ges": 2875,
    "ide": 721,
    "Ġsilent": 3411,
    "Ġsponge": 26004,
    "Ġrebellion": 26474,
    "Ġgreenwich": 19320,
    "Ġrocked": 12849,
    "eck": 20843,
    "Ġminus": 18749,
    "london": 9608,
    "Ġawful": 6199,
    "Ġdismember": 20214,
    "Ġfritters": 23256,
    "ondency": 15267,
    "Ġpsal": 15612,
    "pits": 15410,
    "Ġtarred": 23608,
    "Ġarchbishop": 18712,
    "Ġlordly": 23742,
    "flutterings": 26605,
    "Ġsomebody": 7913,
    "ckles": 22087,
    "Ġtennes": 23548,
    "[_": 5131,
    "Ġmathematics": 12070,
    "rabb": 15676,
    "Ġlegal": 10438,
    "Ġdish": 6136,
    "Ł": 258,
    "tall": 17672,
    "Ġans": 1644,
    "gee": 15974,
    "mblings": 19779,
    "Ġwhispering": 14942,
    "Ġexploring": 4306,
    "Ġunlim": 18253,
    "application": 12360,
    "Ġserving": 14484,
    "search": 8464,
    "rise": 6226,
    "Ġsands": 14945,
    "Ġboil": 16101,
    "Ġinflex": 20636,
    "spade": 10338,
    "Ġmary": 3844,
    "7": 27,
    "Ġeditions": 19120,
    "69": 17473,
    "ojo": 7350,
    "Ġdied": 4111,
    "Ġavert": 14423,
    "frequented": 25900,
    "Ġdoubling": 23316,
    "gems": 20883,
    "Ġprocessions": 18433,
    "Ġcompan": 2171,
    "Ġunbecoming": 22060,
    "Ġscanning": 18399,
    "ľ": 255,
    "Ġbelieve": 2147,
    "Ġtech": 1662,
    "prow": 15409,
    "Ġdodging": 19886,
    "Ġfront": 3451,
    "Ġrecovery": 11440,
    "onement": 21255,
    "unhesitatingly": 26495,
    "Ġecc": 11626,
    "Ġrepay": 19081,
    "dy": 3862,
    "Ġmagnet": 10388,
    "guard": 12125,
    "Ġrumpled": 24601,
    "iest": 4038,
    "Ġresented": 22541,
    "Ġcon": 348,
    "Ġscores": 2715,
    "wherein": 19107,
    "Ġrepro": 7276,
    "Ġensued": 11393,
    "Ġevening": 2654,
    "initely": 7569,
    "Ġcrocod": 19627,
    "regiment": 16451,
    "Ġdenominated": 15226,
    "Ġirrespective": 23373,
    "Ġtwitch": 22674,
    "Ġnin": 10186,
    "Ġdy": 2492,
    "Ġusages": 15913,
    "Ġpredicting": 2416,
    "anybody": 12079,
    "Ġbarriers": 23793,
    "Ġtraffic": 23081,
    "Ġexperienced": 6582,
    "acy": 3956,
    "Ġever": 1180,
    "bedstead": 23847,
    "Ġdynamic": 5122,
    "ered": 1684,
    "imly": 12683,
    "Ġamuse": 5940,
    "Ġheathenish": 13614,
    "Ġupbra": 22152,
    "Ġgallons": 14815,
    "ithmetic": 18061,
    "Ġdent": 13904,
    "Ġwild": 2605,
    "interred": 23735,
    "Ġspades": 12792,
    "Ġcetacean": 25878,
    "angible": 22103,
    "crimson": 24098,
    "Ġscare": 18396,
    "Ġextremity": 8987,
    "Ġgibe": 25959,
    "Ġexterm": 21828,
    "Ġchristians": 13306,
    "Ġsu": 431,
    "hav": 20896,
    "Ġtraversed": 18892,
    "Ġ1671": 25005,
    "task": 13791,
    "Ġdeceased": 15005,
    "Ġloath": 7892,
    "magnet": 14967,
    "Ġemploys": 19429,
    "Ġsubstitute": 16725,
    "Ġcigars": 12249,
    "Ġdenied": 8999,
    "Ġburnished": 23995,
    "Ġbequest": 21751,
    "Ġhead": 1125,
    "Ġtricks": 13482,
    "Ġneighbours": 8303,
    "explaining": 23137,
    "unimportant": 18159,
    "Ġearthly": 7990,
    "Ġconfide": 13095,
    "Ġmonarch": 14412,
    "Ġindependence": 12101,
    "Ġsweetheart": 19393,
    "Ġexordium": 26491,
    "Ġeloped": 22643,
    "Ġtour": 9146,
    "Ġvag": 9706,
    "Ġsimpl": 1577,
    "Ġetc": 7084,
    "Ġshrine": 19530,
    "Ġbalancing": 2432,
    "Ġsong": 5903,
    "Ġremarkably": 7703,
    "rumours": 23897,
    "ĠâĢĶ_": 3458,
    "northern": 23666,
    "Ġannounced": 9033,
    "iality": 8842,
    "Ġtraining": 529,
    "Ġwhispered": 5337,
    "Ġessex": 20125,
    "Ġlascar": 9198,
    "Ġmuscles": 12085,
    "Ġtrapped": 23075,
    "weigh": 18665,
    "Ġsto": 1498,
    "mix": 20973,
    "daugh": 6788,
    "Ġtended": 21165,
    "warrior": 24798,
    "Ġdisc": 944,
    "Ġlottery": 19887,
    "Ġforming": 7042,
    "operation": 13499,
    "neighb": 16020,
    "Ġrucastle": 5176,
    "bular": 15311,
    "Ġsailor": 3535,
    "Ġcontinuous": 1559,
    "Ġoffensive": 18694,
    "spirits": 8055,
    "Ġadorn": 12788,
    "Ġomniscient": 20084,
    "wreck": 21135,
    "Ġwester": 25152,
    "Ġpracticable": 19053,
    "header": 11930,
    "Ġdimension": 3240,
    "Ġconstraint": 16512,
    "ä": 165,
    "val": 1169,
    "Ġreach": 4048,
    "Ġjinglers": 26018,
    "excellent": 8044,
    "humorously": 24017,
    "Ġrevelry": 15134,
    "Ġaccepted": 7751,
    "Ġgorge": 13564,
    "Ġalso": 1344,
    "Ġo": 275,
    "iew": 2447,
    "Ġred": 3005,
    "Ġtattooings": 24900,
    "pike": 11513,
    "Ġrelevant": 1865,
    "Ġsteel": 3889,
    "Ġassistance": 6333,
    "headers": 23107,
    "Ġbehoo": 19034,
    "Ġinducement": 16842,
    "Ġconsecut": 18111,
    "Ġcrevice": 22729,
    "Ġfriesland": 26441,
    "Ġpreceding": 7529,
    "decided": 13213,
    "Ġcounties": 23299,
    "companion": 9556,
    "Ġthrowing": 6335,
    "unpardonable": 21888,
    "ernation": 8211,
    "heaved": 21209,
    "permission": 15900,
    "Ġexpand": 9305,
    "Ġlamentations": 17075,
    "surprised": 9529,
    "Ġhansom": 13662,
    "Ġforging": 18093,
    "Ġluxuriant": 20393,
    "Ġmediocrity": 26607,
    "Ġboy": 3022,
    "Ġwreaths": 25937,
    "difficulty": 12387,
    "inery": 17732,
    "forty": 9372,
    "Ġstar": 6023,
    "Ġpolice": 4675,
    "Ġclay": 7019,
    "Ġannihil": 10173,
    "repairing": 24494,
    "Ġbelly": 10368,
    "shining": 18495,
    "Ġjud": 3355,
    "Ġneighb": 14072,
    "Ġspeedy": 11171,
    "used": 3259,
    "Ġdrawback": 23987,
    "Ġnobody": 6158,
    "utherland": 9577,
    "Ġcharing": 14179,
    "erness": 6433,
    "Ġinclusive": 24162,
    "Ġundiscernible": 22064,
    "varied": 23183,
    "stirring": 20424,
    "Ġyarman": 12701,
    "Ġbeen": 626,
    "waiting": 12217,
    "Ġhos": 4942,
    "Ġdaring": 8121,
    "Ġgre": 1580,
    "Ġbacked": 12920,
    "ġ": 226,
    "Ġcontinually": 5042,
    "Ġissued": 10598,
    "ank": 1362,
    "ignorance": 17160,
    "Ġholding": 4979,
    "Ġlumps": 21554,
    "formal": 14166,
    "Ġtranscend": 25667,
    "Ġdismasted": 15249,
    "Ġencirc": 18732,
    "Ġreplen": 11113,
    "Ġrising": 4357,
    "Ġpapered": 20129,
    "judge": 13334,
    "Ġrural": 21965,
    "Ġdecreasing": 2444,
    "Ġregard": 3064,
    "Ġpurp": 2393,
    "quee": 4130,
    "Ġprec": 2920,
    "Ġworried": 22924,
    "Ġexam": 3711,
    "shavings": 22465,
    "Ġthoughts": 3139,
    "Ġsuggests": 12197,
    "Ġvishnoo": 12749,
    "Ġresidence": 8207,
    "Ġimmovable": 15889,
    "Ġoverpow": 14206,
    "Ġapprehen": 16828,
    "swift": 14849,
    "Ġes": 8768,
    "Ġtorrent": 17091,
    "Ġtarn": 21157,
    "Ġexplicit": 3588,
    "meantime": 9090,
    "Ġmeets": 7397,
    "gall": 6359,
    "erce": 6126,
    "Ġblemish": 19678,
    "Ġrashness": 25460,
    "Ġbeast": 7180,
    "admitted": 18091,
    "cake": 20803,
    "achel": 7032,
    "Ġgirth": 13134,
    "combined": 20319,
    "Ġgenerous": 6273,
    "Ġporter": 15607,
    "Ġcircling": 19092,
    "haven": 20911,
    "Ġmutually": 23954,
    "Ġtreachery": 15099,
    "Ġfowl": 11329,
    "Ġfairly": 6325,
    "yp": 1047,
    "Ġhaws": 21949,
    "Ġ550": 19640,
    "mical": 9127,
    "hatch": 15362,
    "Ġforemast": 12002,
    "fetch": 12461,
    "enit": 17778,
    "Ġsqualidness": 25842,
    "Ġprobability": 1126,
    "shud": 18493,
    "Ġmoral": 6578,
    "Ġendeavours": 8617,
    "rah": 8137,
    "arse": 7161,
    "Ġfolk": 10374,
    "rees": 5436,
    "spikes": 10339,
    "stranded": 19225,
    "Ġwrought": 11941,
    "received": 9637,
    "Ġvarious": 3509,
    "%": 9,
    "Ġpossess": 3204,
    "ibilities": 13004,
    "Ġconverse": 11841,
    "Ġincidentally": 16953,
    "wat": 6231,
    "Ġsinful": 18948,
    "addressed": 13383,
    "Ġbohem": 8526,
    "mount": 9128,
    "Ġsauntering": 18327,
    "Ġunwarrantable": 26353,
    "Ġparticle": 18674,
    "Ġsensitive": 13197,
    "Ġsoliloqu": 11882,
    "ancient": 9654,
    "Ġdisgracing": 26255,
    "Ġnote": 4265,
    "beloved": 19459,
    "Ġviii": 16411,
    "Ġgeneral": 1863,
    "clopÃ¦": 13052,
    "Ġajar": 21201,
    "Ġdistress": 5844,
    "evening": 7089,
    "Ġgallop": 19554,
    "very": 498,
    "Ġsteep": 2890,
    "Ġkentuckian": 26342,
    "covery": 11170,
    "commodore": 20624,
    "Ġsystematically": 4157,
    "itten": 3441,
    "Ġchry": 22244,
    "Ġstream": 5186,
    "already": 6980,
    "lad": 5992,
    "Ġhither": 4759,
    "nesday": 8702,
    "Ġunsounded": 15846,
    "Ġconfined": 7466,
    "acled": 16078,
    "Ġmortally": 23914,
    "trap": 24312,
    "begone": 12874,
    "Ġwilful": 10533,
    "Ġjoyously": 19345,
    "Ġprows": 19888,
    "carrying": 16712,
    "Ġmig": 13854,
    "Ġbon": 8784,
    "ropol": 10952,
    "Ġaffirmative": 15220,
    "wor": 3416,
    "row": 1066,
    "ellation": 12745,
    "emotions": 15793,
    "upt": 13796,
    "Ġbattalions": 25776,
    "convers": 6567,
    "proachable": 23396,
    "Ġcrav": 19173,
    "dl": 20822,
    "Ġintens": 7003,
    "Ġcock": 10998,
    "Ġforetold": 23450,
    "oam": 8751,
    "Ġzodiac": 16172,
    "Ġpaused": 5416,
    "companions": 15022,
    "phere": 21018,
    "Ġmississippi": 20724,
    "antial": 8487,
    "commod": 16167,
    "arian": 10315,
    "rigging": 20004,
    "cil": 8720,
    "enorm": 17780,
    "thumb": 18218,
    "Ġhesitated": 10000,
    "medical": 23340,
    "trouble": 8295,
    "Ġgreenhorn": 23766,
    "Ġtyphoons": 20233,
    "Ġmortal": 4682,
    "uned": 21869,
    "Ġapproving": 18509,
    "Ġindefatigable": 17176,
    "Ġopenness": 18955,
    "paus": 13771,
    "Ġreceptacle": 23190,
    "Ġwallow": 19464,
    "Ġconceals": 23901,
    "Ġcorpor": 23039,
    "Ġultimately": 17163,
    "bottom": 11425,
    "lestrade": 9655,
    "Ġgreedily": 18964,
    "Ġobliv": 16130,
    "Ġmam": 8405,
    "Ġoccas": 2704,
    "unnatural": 15769,
    "father": 3777,
    "introduced": 15122,
    "Ġgarn": 13961,
    "Ġpleasing": 6190,
    "Ġneared": 14071,
    "Ġwomen": 4750,
    "Ġfog": 9660,
    "Ġdefici": 22941,
    "peasant": 23109,
    "Ġsweetness": 9444,
    "plan": 15815,
    "87": 20756,
    "Ġrosings": 4608,
    "ite": 711,
    "itig": 1333,
    "Ġembra": 6579,
    "Ġge": 1980,
    "Ġnobleman": 19390,
    "ountain": 2919,
    "minute": 11273,
    "circumstances": 8047,
    "Ġu": 324,
    "Ġrake": 18645,
    "Ġdespise": 14663,
    "Ġimitated": 18329,
    "Ġresemble": 15689,
    "Ġrepeatedly": 9019,
    "Ġconcluding": 9855,
    "iv": 432,
    "odecimo": 11443,
    "ipelag": 12840,
    "oice": 1383,
    "tenham": 16319,
    "Ġtarshish": 12026,
    "gr": 2087,
    "feeling": 6616,
    "display": 19154,
    "cstasy": 11444,
    "Ġpyramids": 15112,
    "Ġpartners": 11850,
    "Ġmale": 9647,
    "Ġimmaculate": 19484,
    "Ġbeck": 14007,
    "Ġmule": 13860,
    "childhood": 16865,
    "anqu": 4110,
    "tum": 11530,
    "Ġrepresenting": 4062,
    "idents": 6150,
    "Ġmatters": 4974,
    "ruction": 4359,
    "Ġtradeoff": 2659,
    "itors": 2914,
    "trick": 19411,
    "Ġenem": 4708,
    "his": 1410,
    "Ġadieu": 10049,
    "rods": 21536,
    "Ġscore": 9736,
    "Ġcorrid": 9822,
    "Ġbristol": 14378,
    "coffin": 10661,
    "itzerland": 9993,
    "Ġpalsy": 25778,
    "Ġcucumber": 21354,
    "Ġvisits": 8223,
    "forgive": 18729,
    "Ġxxxiv": 24969,
    "gigantic": 15357,
    "ision": 1855,
    "circumstance": 7764,
    "Ġsymbol": 7717,
    "rabbit": 20589,
    "elect": 20845,
    "culiar": 2822,
    "Ġfif": 4219,
    "Ġabstracted": 17181,
    "Ġfine": 1317,
    "Ġexquisite": 12379,
    "Ġaforethought": 25428,
    "Ġconcern": 2588,
    "Ġslumbers": 18941,
    "Ġdissect": 16050,
    "Ġsandwiched": 26609,
    "tolerable": 17687,
    "Ġrendering": 16656,
    "p": 84,
    "Ġcreates": 2011,
    "Ġbenefits": 4288,
    "85": 13679,
    "ishnoo": 10954,
    "Ġgrove": 12143,
    "¦": 104,
    "Ġworkmen": 23038,
    "Ġ52": 24320,
    "murderer": 13391,
    "osque": 22259,
    "Ġhatred": 8608,
    "Ġsincerely": 7962,
    "Ġperpetual": 12300,
    "bil": 20770,
    "overlooked": 23320,
    "australian": 20560,
    "Ġtainted": 21169,
    "roc": 9673,
    "europe": 20664,
    "Ġcured": 21345,
    "Ġarts": 11006,
    "Ġcombine": 4416,
    "Ġjerked": 19831,
    "Ġcharged": 9852,
    "Ġquieted": 23840,
    "Ġgleams": 17308,
    "respectable": 19846,
    "Ġpretty": 3861,
    "Ġtrotting": 19974,
    "Ġdiscriminator": 3391,
    "brows": 17495,
    "Ġeffect": 964,
    "encoura": 15047,
    "Ġpermitted": 9276,
    "Ġniece": 5712,
    "sprang": 19989,
    "Ġpursued": 6328,
    "Ġcastaway": 16639,
    "Ġbenevolent": 7773,
    "Ġconge": 15742,
    "Ġhab": 4220,
    "Ġentries": 22743,
    "Ġobligation": 13241,
    "wait": 11319,
    "Ġpier": 7163,
    "Ġemotion": 7690,
    "whenever": 11878,
    "now": 548,
    "Ġmarshalled": 25315,
    "Ġexceptionable": 25503,
    "ogn": 2323,
    "Ġflames": 7940,
    "brad": 20780,
    "behind": 6779,
    "Ġchewed": 16368,
    "ents": 1898,
    "Ġcorner": 4371,
    "Ġsle": 2015,
    "Ġberth": 8679,
    "overhearing": 19051,
    "pread": 7419,
    "fur": 6355,
    "Ġelaborate": 18636,
    "Ġwarsaw": 26167,
    "Ġfervent": 14898,
    "announce": 24559,
    "drew": 7335,
    "Ġhandkerchief": 8912,
    "Ġcheek": 8576,
    "Ġbest": 1976,
    "Ġexh": 5232,
    "Ġdivergence": 2728,
    "Ġbeach": 6541,
    "Ġtired": 9148,
    "--": 1044,
    "threat": 10899,
    "unt": 2044,
    "Ġmumbling": 11572,
    "Ġbroadway": 23981,
    "restrained": 16334,
    "five": 6356,
    "poster": 11055,
    "others": 7671,
    "Ġaccompany": 9485,
    "Ġdeal": 3607,
    "Ġnot": 413,
    "lested": 14880,
    "Ġinestim": 15620,
    "comprehens": 16168,
    "private": 13580,
    "Ġprediction": 2219,
    "Ġdanish": 21430,
    "embra": 14074,
    "inted": 2651,
    "iment": 2818,
    "Ġleads": 12093,
    "Ġpolitics": 19224,
    "Ġtufted": 17013,
    "ourably": 14375,
    "grin": 19105,
    "Ġfoot": 3163,
    "Ġjig": 15948,
    "pse": 21008,
    "embed": 18187,
    "seldom": 13785,
    "expense": 22427,
    "Ġdipping": 15588,
    "Ġinstrument": 7118,
    "Ġcaresses": 26059,
    "po": 1139,
    "fishing": 20858,
    "Ġexceptional": 19369,
    "Ġslate": 11935,
    "Ġclaw": 22349,
    "Ġdestruction": 6600,
    "mate": 5358,
    "ides": 2160,
    "Ġarsacidean": 20363,
    "Ġdirt": 15590,
    "Ġleaned": 7608,
    ",âĢĶ": 3172,
    "arded": 5029,
    "corrid": 24483,
    "Ġpassages": 12966,
    "inguished": 6598,
    "Ġworst": 7445,
    "Ġreeled": 13984,
    "n": 82,
    "horses": 17566,
    "quar": 7616,
    "Ġbetake": 22905,
    "Ġmason": 10156,
    "Ġband": 5290,
    "indifferent": 14207,
    "Ġrepute": 18034,
    "conv": 7214,
    "Ġschemes": 11130,
    "Ġdiverse": 19209,
    "cheon": 23802,
    "opened": 7914,
    "Ġdead": 2169,
    "super": 5944,
    "Ġbrim": 12972,
    "Ġhissed": 15785,
    "Ġvol": 4190,
    "Ġsacrific": 15016,
    "Ġfrequ": 3326,
    "lands": 8241,
    "Ġmomentarily": 22811,
    "type": 16173,
    "Ġvowed": 14082,
    "Ġward": 10154,
    "intments": 18820,
    "ignantly": 23264,
    "neying": 22447,
    "lotte": 3329,
    "Ġtropic": 17063,
    "Ġbecomes": 6395,
    "Ġnever": 1018,
    "meat": 18678,
    "ĠĠĠĠĠĠĠĠĠĠĠĠĠĠĠĠĠĠĠĠĠĠ": 16223,
    "Ġexeget": 24084,
    "Ġchord": 22243,
    "can": 1232,
    "Ġbond": 21382,
    "Ġdairy": 20685,
    "Ġtattooed": 11377,
    "Ġgaining": 9490,
    "Ġxiv": 23406,
    "Ġstable": 2700,
    "Ġcontin": 5382,
    "aped": 3765,
    "xic": 9144,
    "Ġdoorway": 14496,
    "Ġvacancy": 9043,
    "Ġunparalleled": 15850,
    "Ġfull": 2176,
    "Ġengaging": 9334,
    "Ġeag": 2967,
    "Ġappetite": 12381,
    "Ġthanking": 18602,
    "else": 6533,
    "Ġimposs": 16615,
    "achine": 607,
    "Ġthousands": 6748,
    "Ġcheerful": 6621,
    "paying": 25411,
    "Ġfishy": 16522,
    "occurred": 13335,
    "fem": 17536,
    "letters": 13172,
    "Ġcheetah": 14499,
    "touching": 15089,
    "Ġpieces": 7370,
    "continually": 11301,
    "Ġtim": 4579,
    "fatal": 17087,
    "Ġkitchen": 8495,
    "mot": 17595,
    "consist": 14813,
    "allet": 11082,
    "Ġimaginary": 11185,
    "Ġfastening": 16354,
    "eliest": 14743,
    "Ġbrix": 12579,
    "Ġoily": 13862,
    "Ġscenes": 5730,
    "Ġpresumed": 10543,
    "Ġgardener": 19134,
    "Ġascertaining": 17202,
    "decease": 25557,
    "ameter": 2864,
    "Ġkeeled": 18807,
    "Ġvillanous": 24052,
    "Ġduplicity": 25331,
    "):": 11460,
    "Ġexcel": 3566,
    "Ġsunset": 8961,
    "heart": 4527,
    "Ġevolved": 9890,
    "Ġpicturesque": 14891,
    "assuming": 22308,
    "Ġsaddest": 16661,
    "Ġbecause": 2209,
    "âĢĿ]": 21813,
    "Ġinclination": 6623,
    "gently": 13727,
    "ogne": 12932,
    "Ġstately": 9832,
    "Ġfiftieth": 24703,
    "Ġalpine": 18105,
    "Ġits": 706,
    "gover": 10701,
    "am": 367,
    "Ġendangered": 16301,
    "Ġhandful": 9781,
    "drunk": 24659,
    "Ġaberde": 22275,
    "iation": 7344,
    "haired": 14763,
    "Ġcorresponding": 13436,
    "Ġears": 4492,
    "ouching": 13175,
    "nose": 17609,
    "Ġcheerless": 16693,
    "Ġpositional": 2601,
    "marks": 7347,
    "Ġlondon": 2840,
    "Ġskin": 5038,
    "Ġlimped": 19181,
    "Ġlogic": 13075,
    "Ġprinciples": 10009,
    "ia": 1258,
    "Ġdated": 10938,
    "Ġcorpora": 26579,
    "brimmed": 14586,
    "sole": 6168,
    "Ġmottled": 20677,
    "Ġharpoon": 3615,
    "Ġgone": 2107,
    "Ġjane": 1759,
    ".,": 5988,
    "Ġcaval": 25769,
    "turtle": 12208,
    "locked": 7679,
    "Ġequilibrium": 4140,
    "Ġcasks": 7522,
    "Ġjealous": 9467,
    "Ġderick": 9362,
    "Ġtheatre": 21277,
    "arb": 1561,
    "Ġbery": 13896,
    "mai": 22912,
    "Ġbreezes": 14866,
    "Ġconsecutive": 20701,
    "Ġbeard": 11653,
    "tables": 19756,
    "Ġcrest": 12937,
    "ractions": 11631,
    "Ġgrows": 4985,
    "Ġw": 272,
    "harb": 9122,
    "00": 1608,
    "centred": 25017,
    "Ġnic": 7377,
    "exhibited": 18477,
    "i": 77,
    "Ġdusk": 12324,
    "Ġwitnessing": 19597,
    "Ġneskye": 21529,
    "mor": 4217,
    "Ġunhing": 18241,
    "tranquil": 25870,
    "Ġchilly": 25562,
    "iterranean": 15546,
    "Ġlethar": 21744,
    "fugitive": 26131,
    "Ġcellar": 8059,
    "Ġambitious": 18514,
    "Ġstarbuck": 2192,
    "welt": 12517,
    "time": 3148,
    "Ġspots": 11727,
    "Ġsunday": 7271,
    "Ġpoisonous": 24887,
    "spent": 12938,
    "ject": 875,
    "Ġinvests": 14865,
    "Ġstreet": 2958,
    "================================": 5671,
    "Ġirish": 14532,
    "Ġhonour": 3925,
    "eringly": 23003,
    "conject": 8878,
    "Ġpolicy": 10456,
    "Ġdefines": 1743,
    "Ġlexic": 15720,
    "Ġforthwith": 16617,
    "Ġcope": 17830,
    "Ġspitz": 14147,
    "Ġsavage": 4012,
    "Ġlithe": 24668,
    "Ġhush": 13209,
    "Ġshining": 8172,
    "Ġencapsulate": 13672,
    "Ġtitle": 11407,
    "event": 8077,
    "Ġprincess": 23222,
    "ominy": 13976,
    "Ġforeboding": 20382,
    "rity": 13774,
    "Ġrace": 5847,
    "announcement": 24561,
    "Ġmonarchs": 25846,
    "village": 25422,
    "speechless": 25395,
    "Ġadvantageously": 19544,
    "Ġ=": 1072,
    "Ġhookah": 16969,
    "Ġbooks": 4676,
    "Ġtunnel": 14927,
    "Ġartistic": 18611,
    "Ġengineering": 3025,
    "Ġmorsel": 20676,
    "Ġthw": 21513,
    "Ġsubstance": 5510,
    "Ġsails": 5256,
    "Ġcased": 21344,
    "imet": 21704,
    "Ġrattled": 15066,
    "Ġpercept": 14222,
    "Ġsoon": 1226,
    "Ġformation": 2944,
    "icip": 6388,
    "hatchway": 25904,
    "yder": 10137,
    "ails": 6160,
    "Ġmoss": 9282,
    "Ġdistributions": 1052,
    "Ġwillow": 18531,
    "log": 18537,
    "Ġfeebly": 24877,
    "slide": 24555,
    "Ġceremonies": 24836,
    "Ġsuggest": 5417,
    "Ġsoftly": 7948,
    "consuming": 25674,
    "Ġnewspapers": 17185,
    "excited": 13378,
    "Ġamput": 16031,
    "Ġ56": 24323,
    "Ġcommerce": 11014,
    "Ġdinn": 23978,
    "Ġdeified": 18140,
    "complaisance": 24811,
    "Ġparlor": 13538,
    "syntax": 5866,
    "Ġremem": 4314,
    "want": 8765,
    "Ġbear": 3656,
    "Ġseamen": 5063,
    "Ġvect": 1222,
    "Ġbeer": 10218,
    "ume": 4835,
    "Ġdescend": 7428,
    "Ġadoration": 18290,
    "Ġimprovement": 7966,
    "Ġyoung": 1505,
    "Ġbark": 10797,
    "Ġsucked": 14129,
    "Ġif": 698,
    "proceeding": 20140,
    "Ġvalid": 1719,
    "sul": 15419,
    "Ġparameter": 883,
    "Ġhailed": 6406,
    "Ġfood": 5080,
    "people": 7678,
    "Ġcringed": 25942,
    "repent": 15511,
    "Ġnegatived": 23046,
    "Ġliked": 5264,
    "Ġhempen": 13548,
    "ades": 5631,
    "gish": 20872,
    "Ġbusy": 6189,
    "Ġexpeditions": 24954,
    "Ġtil": 12520,
    "condition": 7059,
    "iquette": 26132,
    "Ġevil": 3806,
    "Ġanticipating": 17057,
    "aco": 12902,
    "Ġmagnificence": 20631,
    "Ġinteractions": 12899,
    "Ġreverence": 12056,
    "Ġcommenced": 8531,
    "resembling": 25932,
    "Ġuttermost": 19486,
    "Ġassuredly": 14819,
    "Ġinsignificant": 20455,
    "Ġ135": 24785,
    "Ġpalmy": 19497,
    "Ġcritical": 7476,
    "inating": 9152,
    "Ġash": 4832,
    "income": 15484,
    "ivation": 3111,
    "Ġcomical": 11678,
    "Ġsimpleton": 16332,
    "Ġsprings": 16686,
    "idol": 21764,
    "Ġapproxim": 1217,
    "Ġbeautifully": 13264,
    "posted": 24636,
    "Ġergo": 25029,
    "Ġbridges": 24682,
    "Ġhills": 6526,
    "ė": 216,
    "Ġflea": 23772,
    "stretching": 20497,
    "unavoidable": 17388,
    "dan": 17514,
    "kles": 17583,
    "billiard": 25334,
    "iliating": 12691,
    "Ġgateway": 24802,
    "Ġaccumulates": 2891,
    "Ġtapped": 11552,
    "chor": 6146,
    "azine": 19130,
    "Ġpersecutor": 26096,
    "Ġfondly": 19615,
    "Ġassociates": 24712,
    "Ġlies": 5295,
    "Ġsqualid": 14367,
    "Ġlover": 7194,
    "Ġaerial": 21197,
    "Ġtemptation": 8677,
    "Ġlip": 6532,
    "Ġwaldman": 11344,
    "copy": 5133,
    "rect": 1596,
    "Ġhousekeeper": 7457,
    "Ġreceiving": 4882,
    "vex": 21700,
    "Ġnetworks": 595,
    "ĠĠĠĠĠĠĠĠĠĠĠĠĠĠ": 22561,
    "Ġnotion": 7883,
    "smart": 23904,
    "keepers": 16658,
    "Ġfathom": 17047,
    "Ġirreduc": 5491,
    "uctive": 17695,
    "Ġworsh": 12996,
    "Ġmultitude": 9323,
    "Ġintrusion": 12761,
    "sir": 5001,
    "idation": 5022,
    "Ġfanned": 19099,
    "Ġassumed": 9464,
    "Ġexasperate": 20096,
    "ming": 3600,
    "Ġconstitution": 20107,
    "Ġnoisier": 4625,
    "Ġsituated": 9445,
    "allowed": 5728,
    "ed": 293,
    "Ġvisible": 4777,
    "Ġwhereupon": 14292,
    "Ġrecourse": 22723,
    "Ġroman": 8323,
    "ounix": 14162,
    "direful": 25896,
    "Ġcosine": 2375,
    "remains": 10397,
    "cific": 10084,
    "Ġheap": 12674,
    "Ġbracing": 16579,
    "airing": 16174,
    "Ġeh": 6987,
    "pretend": 24882,
    "irious": 15782,
    "asserted": 22307,
    "Ġpebbles": 16126,
    "Ġhatches": 12042,
    "Ġavoid": 5199,
    "Ġdraughts": 20220,
    "Ġlabourers": 23331,
    "anged": 3587,
    "Ġindian": 4131,
    "baggage": 24926,
    "Ġclamped": 18426,
    "pend": 6367,
    "Ġuneasiness": 9482,
    "shall": 4551,
    "Ġcategor": 4139,
    "Ġjesty": 18405,
    "presumption": 20440,
    "Ġbi": 920,
    "Ġmadam": 5663,
    "Ġnocturnal": 20714,
    "soundest": 24797,
    "serpent": 16289,
    "Ġyear": 3285,
    "Ġaverages": 2399,
    "jaw": 13741,
    "right": 2770,
    "antages": 7193,
    "Ġdisent": 22521,
    "Ġsyn": 15909,
    "Ġnine": 5369,
    "Ġbusier": 23337,
    "._)": 10479,
    "rix": 1571,
    "Ġital": 10865,
    "alk": 1154,
    "Ġpauses": 14812,
    "Ġstained": 11650,
    "Ġnumerical": 4247,
    "Ġmist": 2878,
    "Ġcraw": 7283,
    "Ġjoy": 3185,
    "Ġrifts": 21973,
    "resum": 17760,
    "Ġregularity": 22775,
    "Ġcow": 13874,
    "Ġnecessarily": 13246,
    "Ġparcel": 15197,
    "Ġprey": 6414,
    "Ġdismay": 11806,
    "plunging": 25987,
    "scor": 13016,
    "dissatisf": 26129,
    "Ġbarbs": 10530,
    "rudential": 16709,
    "Ġderanged": 23173,
    "Ġbustle": 17226,
    "Ġhindrance": 25220,
    "Ġliable": 14227,
    "Ġmutable": 23952,
    "Ġriveted": 13616,
    "Ġclosed": 4606,
    "Ġperformance": 1305,
    "shipped": 18496,
    "Ġtradesman": 20071,
    "Ġchatbots": 11348,
    "etieth": 21582,
    "Ġdaily": 5987,
    "Ġmend": 8406,
    "execution": 20470,
    "Ġbalmoral": 16204,
    "Ġeng": 1162,
    "umn": 5835,
    "painful": 13500,
    "Ġmodular": 12813,
    "Ġform": 1024,
    "ulty": 22565,
    "ĠâĢľâĢĺ_": 25111,
    "Ġprolong": 6832,
    "Ġthousandth": 23683,
    "Ġparallelization": 3430,
    "Ġprecipice": 19939,
    "Ġ67": 19659,
    "Ġbrightly": 13221,
    "Ġpest": 13911,
    "Ġseeking": 7035,
    "watching": 16929,
    "Ġcosmetic": 23470,
    "Ġtelegram": 15221,
    "Ġprovinc": 16741,
    "officer": 17053,
    "Ġdevoted": 6573,
    "whims": 22237,
    "Ġdangling": 17173,
    "nett": 16218,
    "Ġscud": 14189,
    "z": 94,
    "ena": 11566,
    "Ġjustinian": 22970,
    "Ġworry": 18815,
    "Ġmountainous": 16598,
    "Ġimperfect": 13337,
    "Ġstudents": 23229,
    "Ġhovers": 19078,
    "itations": 17817,
    "uced": 13798,
    "Ġincident": 6280,
    "test": 13790,
    "Ġfulfilment": 20186,
    "Ġticking": 25033,
    "centre": 17086,
    "Ġsnug": 8280,
    "Ġisle": 8831,
    "Ġbestir": 13107,
    "Ġdilatory": 24705,
    "Ġmonstr": 7669,
    "shooting": 16964,
    "ron": 5216,
    "Ġbarmaid": 19334,
    "receiving": 12539,
    "disposition": 10040,
    "Ġprop": 1681,
    "Ġlaborers": 19057,
    "exclaimed": 11787,
    "ĠÂ£": 5006,
    "Ġmont": 8557,
    "Ġbesides": 3513,
    "Ġprotection": 9460,
    "Ġarchy": 14345,
    "perpetually": 20511,
    "Ġbarely": 16935,
    "ber": 885,
    "egypt": 15347,
    "Ġunexampled": 20358,
    "ographical": 16785,
    "Ġpilgrimage": 17306,
    "Ġidiot": 11968,
    "Ġaustral": 12169,
    "Ġuncounted": 19116,
    "Ġpent": 17903,
    "rary": 4576,
    "irene": 15911,
    "misery": 13341,
    "Ġ1828": 25720,
    "Ġentreaty": 10528,
    "Ġlisten": 4674,
    "iled": 1766,
    "skirted": 24488,
    "Ġceiling": 7997,
    "gradient": 2273,
    "Ġsaid": 577,
    "Ġinfancy": 10416,
    "Ġdiscrimin": 2548,
    "Ġconve": 5455,
    "searching": 25103,
    "cheeks": 23806,
    "Ġuseful": 3557,
    "Ġdreading": 23797,
    "anyone": 16592,
    "Ġcentre": 5123,
    "Ġrepairing": 25589,
    "Ġowner": 8920,
    "exped": 16523,
    "conception": 22472,
    "proble": 9392,
    "itute": 9650,
    "Ġinsinuating": 19270,
    "ired": 1442,
    "Ġmove": 5107,
    "metals": 24766,
    "Ġnantucketers": 9893,
    "bowed": 10682,
    "Ġcatholic": 20680,
    "absolutely": 10644,
    "Ġresist": 7917,
    "Ġhinting": 19648,
    "Ġperhaps": 1915,
    "nor": 2741,
    "ingham": 21299,
    "impatience": 25500,
    "published": 26142,
    "Ġfru": 8420,
    "Ġincantation": 26257,
    "Ġadrift": 11719,
    "Ġdiffidence": 14657,
    "sales": 17666,
    "Ġdwelling": 7323,
    "Ġtry": 3135,
    "Ġinflict": 15000,
    "Ġthousand": 2783,
    "Ġventilator": 8713,
    "Ġriddle": 14817,
    "Ġattempts": 10489,
    "Ġdanced": 7843,
    "endure": 22223,
    "standard": 22434,
    "Ġcetology": 10007,
    "Ġmes": 17796,
    "Ġevaporate": 26332,
    "Ġcrony": 23439,
    "Ġweary": 5635,
    "Ġbeloved": 5571,
    "err": 1141,
    "Ġrue": 11864,
    "Å": 134,
    "Ġfeverish": 11347,
    "inations": 7568,
    "Ġscrolled": 22282,
    "Ġlan": 5820,
    "Ġcaulk": 25440,
    "Ġoverbearing": 12839,
    "Ġboom": 9308,
    "Ġfoul": 7160,
    "Ġlandsc": 11145,
    "Ġacquaintances": 17348,
    "Ġbrilliantly": 25120,
    "Ġrejected": 12291,
    "Ġterra": 13114,
    "information": 12390,
    "ethics": 8876,
    "opatra": 22475,
    "Ġdeeply": 4717,
    "ologist": 22875,
    "Ġshortened": 23481,
    "Ġfrankness": 16745,
    "alleging": 23022,
    "Ġempires": 19075,
    "Ġunembarrassed": 22065,
    "ļ": 253,
    "Ġhalyards": 21492,
    "keenest": 25661,
    "whar": 15924,
    "etw": 405,
    "fright": 9594,
    "Ġ12": 5483,
    "iful": 2883,
    "Ġmutiny": 13256,
    "Ġhisself": 21912,
    "Ġwould": 651,
    "comed": 8544,
    "Ġtroubled": 6615,
    "uend": 21100,
    "collecting": 26081,
    "Ġdictator": 20152,
    "Ġensigns": 23688,
    "Ġcoinc": 11000,
    "Ġder": 1497,
    "Ġinjustice": 9189,
    "building": 17307,
    "Ġmanage": 7641,
    "Ġ10": 5249,
    "duchess": 18463,
    "wrote": 11545,
    "Ġcaged": 21350,
    "Ġ79": 24263,
    "Ġshears": 18319,
    "Ġunusual": 6553,
    "stranger": 9881,
    "yours": 7695,
    "agree": 14065,
    "mell": 20963,
    "eur": 7546,
    "Ġcreamy": 14327,
    "Ġtransparency": 10675,
    "Ġaff": 1116,
    "ĠarchÃ¦": 22774,
    "Ġmodern": 3212,
    "Ġservices": 11216,
    "Ġstreets": 5863,
    "owed": 2269,
    "Ġcalves": 13031,
    "Ġelect": 10841,
    "million": 25751,
    "Ġislanders": 19500,
    "undertaking": 23786,
    "Ġomens": 21326,
    "fol": 4862,
    "Ġpanthe": 19652,
    "discrimin": 19607,
    "lit": 9604,
    "ouement": 21447,
    "Ġpromote": 23191,
    "bedroom": 14674,
    "Ġvivacity": 14938,
    "Ġworker": 23037,
    "eyeing": 14943,
    "Ġevap": 19622,
    "Ġoccupation": 9929,
    "Ġensuing": 12306,
    "Ġadv": 1142,
    "Ġcas": 8411,
    "Ġottoman": 17376,
    "Ġhoofs": 14525,
    "inc": 2523,
    "Ġhandfuls": 17208,
    "Ġepis": 19980,
    "Ġexistence": 4707,
    "Õ": 150,
    "Ġdishon": 12227,
    "Ġgrip": 11625,
    "shape": 10982,
    "invari": 21183,
    "Ġconven": 6151,
    "constit": 24605,
    "Ġgurg": 15669,
    "Ġjuicy": 25370,
    "significant": 25082,
    "cutting": 23783,
    "Ġdanger": 3519,
    "pursue": 24975,
    "Ġmanxman": 9564,
    "Ġmarvelled": 18872,
    "Ġinconstant": 21494,
    "Ġboa": 22633,
    "Ġgrampus": 21991,
    "Ġframe": 1901,
    "hastily": 19701,
    "dro": 6644,
    "Ġjoke": 8867,
    "happily": 14655,
    "Ġunperceived": 22033,
    "swelled": 19609,
    "Ġfulf": 6772,
    "Ġswinging": 7450,
    "Ġantique": 19550,
    "Ġstudded": 18976,
    "Ġjo": 2612,
    "Ġbriefly": 11366,
    "Ġaunt": 3178,
    "Ġquaff": 22412,
    "Ġstack": 21731,
    "Ġcompanionship": 14917,
    "Ġfut": 15571,
    "Ġunconsc": 6552,
    "Ġsemantic": 1960,
    "latitude": 25259,
    "Ġwax": 10775,
    "ĥ": 230,
    "distressed": 24198,
    "Ġfloating": 6604,
    "smoking": 23908,
    "Ġloafer": 18299,
    "Ġaccompan": 5513,
    "conqu": 14243,
    "Ġwanting": 6721,
    "vo": 11538,
    "Ġwhitney": 11372,
    "Ġranged": 10256,
    "Ġresembled": 18033,
    "object": 6884,
    "increased": 20269,
    "ving": 593,
    "imes": 1299,
    "Ġposture": 24163,
    "Ġskirts": 14350,
    "gerine": 22887,
    "schoolmaster": 15159,
    "broke": 14773,
    "Ġotherwise": 4658,
    "Ġkno": 5242,
    "Ġdesired": 4665,
    "liable": 3818,
    "arris": 13207,
    "Ġbars": 13895,
    "Ġhusbands": 16641,
    "Ġglittering": 10051,
    "Ġbadly": 12128,
    "Ġfriendly": 9818,
    "Ġresp": 2497,
    "Ġsaf": 4003,
    "ickering": 22668,
    "Ġfrequented": 16584,
    "Ġannoy": 17197,
    "Ġdeception": 18142,
    "sinking": 17667,
    "Ġleader": 14699,
    "illuminated": 17451,
    "Ï": 144,
    "insula": 23064,
    "Ġrealism": 18983,
    "Ġwedge": 24068,
    "Ġflashed": 11911,
    "ugal": 19020,
    "nour": 20987,
    "Ġexult": 10229,
    "Ġdoubly": 16384,
    "Ġlanguor": 12843,
    "fly": 13712,
    "Ġexcite": 11961,
    "Ġauger": 21202,
    "blame": 14790,
    "Ġwarrior": 24495,
    "akness": 14193,
    "idays": 21768,
    "Ġcontinents": 16848,
    "engagements": 25853,
    "rely": 6123,
    "Ġclinch": 18425,
    "Ġshrouds": 11343,
    "Ġeach": 892,
    "avers": 17479,
    "Ġpurchase": 12256,
    "extric": 22753,
    "char": 3503,
    "Ġimmense": 4952,
    "Ġlands": 6594,
    "Ġwaiting": 4324,
    "Ġconsist": 1936,
    "Ġaffright": 9330,
    "Ġmilitary": 11257,
    "Ġincisive": 18570,
    "Ġsquat": 14366,
    "Ġbelf": 21379,
    "Ġcat": 2122,
    "first": 3936,
    "Ġjune": 10287,
    "Ġ133": 24783,
    "irresistible": 18173,
    "start": 7599,
    "Ġentreated": 9949,
    "Ġrevolution": 3304,
    "arers": 12126,
    "evade": 24820,
    "danced": 20827,
    "riv": 3110,
    "Ġungrateful": 14119,
    "tap": 17675,
    "perhaps": 4122,
    "Ġcomforter": 20505,
    "coo": 11169,
    "Ġdreamt": 23936,
    "Ġtars": 21163,
    "resp": 13837,
    "Ġtongues": 14860,
    "Ġbonnet": 10654,
    "Ġhorr": 3191,
    "proud": 9902,
    "favour": 9547,
    "rol": 5713,
    "cheered": 23804,
    "Ġconvincing": 19307,
    "Ġfall": 2988,
    "Ġmoodily": 19833,
    "Ġwidows": 24235,
    "cooper": 19189,
    "pay": 10717,
    "laughing": 15177,
    "yielded": 25756,
    "Ġproblems": 2850,
    "Ġseeks": 14300,
    "rice": 13775,
    "stubb": 6018,
    "banked": 25337,
    "Ġanimation": 11151,
    "fat": 8079,
    "Ġstig": 14000,
    "Ġswelled": 11086,
    "races": 21628,
    "Ġ25": 13192,
    "oce": 10713,
    "Ġstolen": 14005,
    "Ġbough": 13892,
    "bolt": 25135,
    "many": 5250,
    "Ġspectre": 16629,
    "verest": 13989,
    "rest": 1629,
    "organ": 15570,
    "Ġgout": 21594,
    "spark": 18689,
    "isition": 11584,
    "grave": 16091,
    "Ġcoffins": 13247,
    "Ġchained": 16386,
    "inu": 1115,
    "Ġscaling": 3630,
    "½": 126,
    "Ġweigh": 10893,
    "ious": 772,
    "Ġsurface": 5119,
    "mathemat": 19137,
    "Ġarrest": 7410,
    "found": 4216,
    "Ġswe": 2288,
    "hotel": 20048,
    "Ġfav": 1757,
    "totally": 25417,
    "Ġreduce": 7943,
    "Ġcareful": 2615,
    "Ġloads": 22112,
    "Ġmons": 10155,
    "Ġpist": 12611,
    "requiem": 24856,
    "insanity": 23066,
    "?âĢĿâĢĶ": 12891,
    "Ġportents": 14677,
    "Ġoverboard": 6045,
    "tinted": 17682,
    "Ġcordial": 16834,
    "Ġfiddle": 25444,
    "Ġsuppl": 11078,
    "Ġemaciated": 20637,
    "susceptible": 24661,
    "died": 10692,
    "Ġshowed": 4498,
    "Ġ114": 24437,
    "Ġstrained": 10217,
    "Ġflash": 8230,
    "Ġlocked": 6035,
    "Ġstern": 4188,
    "Ġstrainings": 24628,
    "Ġbenefactor": 14695,
    "must": 3576,
    "Ġincognit": 22552,
    "Ġdetected": 18831,
    "retched": 3066,
    "ĠdÃ¦mon": 7845,
    "allions": 22196,
    "Ġignited": 25069,
    "happiness": 6468,
    "Ġincommod": 25307,
    "Ġwaves": 3921,
    "Ġaid": 6122,
    "Ġhumaneval": 25582,
    "visited": 13345,
    "Ġundersampling": 19517,
    "Ġconfided": 19035,
    "witness": 10033,
    "Ġsuffice": 18868,
    "riot": 18181,
    "Ġoversampling": 20514,
    "Ġscept": 15501,
    "emic": 18184,
    "Ġcyp": 21343,
    "uttural": 21587,
    "flung": 16637,
    "asted": 4650,
    "Ġshortly": 6196,
    "inridge": 11559,
    "Ġsangu": 15502,
    "holloa": 19462,
    "Ġanecdote": 26354,
    "Ġshame": 6409,
    "Ġunlike": 7004,
    "ura": 1063,
    "dron": 17524,
    "Ġmultimodal": 18747,
    "Ġoutputs": 2887,
    "itely": 5365,
    "Ġarm": 2495,
    "Ġconverted": 16109,
    "Ġqueequeg": 2014,
    "Ġbegat": 18862,
    "frame": 17115,
    "dropped": 12259,
    "Ġenergies": 25459,
    "ipl": 20917,
    "abern": 21787,
    "Ġarchitect": 976,
    "Ġproof": 6153,
    "ioning": 21507,
    "moment": 3577,
    "Ġbabel": 24425,
    "Ġxxxvi": 24971,
    "impressed": 12687,
    "iteness": 4393,
    "Ġpipes": 9851,
    "Ġsage": 17751,
    "serious": 14446,
    "Ġoccupied": 5272,
    "itively": 21329,
    "known": 3567,
    "admit": 18090,
    "Ġlooks": 4167,
    "Ġfanny": 23389,
    "Ġthinker": 22809,
    "olera": 21824,
    "oar": 12494,
    "Ġstil": 15714,
    "Ġapothe": 12372,
    "Ġplanted": 9772,
    "Ġpolitic": 23617,
    "Ġpoorly": 9853,
    "Ġderivatives": 2373,
    "Ġclin": 14200,
    "firmly": 20279,
    "Ġpag": 6011,
    "alously": 15625,
    "Ġplan": 3882,
    "Ġshag": 9249,
    "oil": 7806,
    "onian": 17766,
    "Ġsou": 1889,
    "romeda": 17261,
    "Ġoutright": 18413,
    "prick": 19341,
    "coach": 23559,
    "kee": 18273,
    "Ġdeliberately": 10623,
    "Ġwhiff": 21716,
    "Ġpond": 13914,
    "Ġdistrustful": 25054,
    "Ġfaltering": 17884,
    "Ġbarred": 9001,
    "Ġwest": 5219,
    "obscure": 23096,
    "asions": 12647,
    "oned": 4631,
    "Ġcosy": 13129,
    "Ġsubstantiated": 25875,
    "agre": 18164,
    "Ġhighland": 18710,
    "Ġdevelop": 1618,
    "Ġsaxe": 13626,
    "str": 2580,
    "Ġmassive": 9930,
    "Ġabounding": 12341,
    "tim": 13789,
    "Ġwandered": 6930,
    "Ġenjoyment": 7301,
    "pain": 7351,
    "Ġselects": 4386,
    "Ġproverb": 12712,
    "erranean": 9332,
    "ilingly": 21721,
    "disciple": 16777,
    "Ġshroud": 6482,
    "Ġrubber": 22785,
    "ize": 762,
    "Ġscho": 4437,
    "Ġproble": 1109,
    "kill": 13742,
    "Ĭ": 237,
    "Ġsurpass": 13581,
    "Ġmorality": 22974,
    "orously": 8419,
    "ighb": 10422,
    "Ġgallows": 12142,
    "Ġinquiring": 8998,
    "Ġimpro": 913,
    "Ġinterior": 8893,
    "Ġkiss": 8183,
    "Ġwharves": 13504,
    "Ġfrown": 10806,
    "Ġeldest": 6571,
    "bewil": 22496,
    "Ġblows": 5973,
    "Ġequin": 14494,
    "Ġdash": 8122,
    "thousand": 5546,
    "atered": 22070,
    "Ġpistol": 7847,
    "Ġpipe": 4323,
    "Ġbusks": 23338,
    "noo": 9789,
    "Ġbelow": 4063,
    "pleasing": 14739,
    "various": 10396,
    "Ġhigher": 1819,
    "Ġcalhoun": 23043,
    "dismal": 23495,
    "rep": 5525,
    "Ġexceedingly": 4615,
    "Ġnearing": 15791,
    "Ġdrugged": 12598,
    "Ġabsurd": 7203,
    "Ġincome": 7918,
    "Ġphr": 2683,
    "arming": 8950,
    "irous": 8837,
    "ief": 2046,
    "grammar": 6434,
    "Ġadaptively": 4462,
    "Ġnow": 692,
    "Ġtrag": 13036,
    "ables": 7891,
    "idirection": 2412,
    "aggra": 21904,
    "brew": 11472,
    "Ġthrone": 12210,
    "Ġsucc": 12779,
    "Ġpresentation": 14479,
    "Ġfade": 21406,
    "cheeked": 19339,
    "ources": 2790,
    "Ġassailed": 23176,
    "Ġaccumulating": 2723,
    "Ġpromises": 10399,
    "Ġmelancholy": 5605,
    "heavily": 24533,
    "nostril": 26558,
    "Ġdeity": 18137,
    "Ġrun": 2356,
    "ĠâĢĶâĢľ_": 17717,
    "contr": 12054,
    "Ġwalk": 1824,
    "Ġravings": 18648,
    "Ġcottagers": 6761,
    "Ġlinguistic": 12422,
    "Ġentering": 6285,
    "Ġcens": 8413,
    "Ġfled": 6670,
    "Ġwestern": 10653,
    "Ġruined": 12950,
    "Ġang": 2513,
    "Ġexperience": 1403,
    "suffered": 24333,
    "nets": 9131,
    "Ġparade": 18301,
    "Ġcomment": 9231,
    "ohnson": 16323,
    "Ġconvert": 11840,
    "Ġwrung": 14468,
    "houn": 20892,
    "Ġappeared": 2776,
    "Ġtower": 8319,
    "Ġinscriptions": 20007,
    "Ġcompl": 3760,
    "Ġreveries": 11346,
    "Ġdies": 11591,
    "llable": 6878,
    "grounds": 11150,
    "Ġrows": 10560,
    "Ġrenew": 6145,
    "Ġtotal": 4993,
    "Ġevol": 2817,
    "Ġvagueness": 25737,
    "Ġemblematical": 25788,
    "Ġrecord": 5316,
    "Ġwalrus": 14970,
    "acle": 4716,
    "Ġbil": 15561,
    "Ġbulk": 5590,
    "fra": 8375,
    "fate": 17538,
    "Ġdisquis": 22525,
    "Ġspending": 10923,
    "regarded": 12004,
    "reported": 24492,
    "Ġhenry": 5197,
    "Ġprotectors": 9069,
    ".)": 6783,
    "Ġmonomaniac": 9567,
    "Ġaperture": 26160,
    "Ġdrives": 14576,
    "removing": 17763,
    "Ġmeagre": 21811,
    "nearly": 8680,
    "Ġfest": 10803,
    "á": 162,
    "Ġdeceived": 6544,
    "bres": 11470,
    "Ġshowing": 7732,
    "é": 170,
    "Ġhanging": 5447,
    "itic": 11576,
    "Ġreward": 6144,
    "Ġproud": 5654,
    "heed": 15496,
    "fin": 5209,
    "Ġimpose": 22380,
    "Ġwield": 21289,
    "Ġselected": 9708,
    "Ġviciously": 24403,
    "respective": 19845,
    "Ġclearing": 8240,
    "chors": 11642,
    "Ġclut": 7642,
    "hyp": 15364,
    "Ġtake": 1576,
    "Ġrejoiced": 8683,
    "grampus": 18618,
    "Ġvial": 10247,
    "Ġchange": 1996,
    "Ġsympathetic": 17357,
    "Ġpedest": 14994,
    "beries": 22718,
    "onent": 21247,
    "whe": 1071,
    "Ġtwink": 8216,
    "Ġann": 4491,
    "Ġaverred": 18864,
    "Ġstrike": 4855,
    "Ġhonest": 7288,
    "Ġgirl": 3086,
    "Ġunimpeachable": 26521,
    "Ġregular": 936,
    "Ġapril": 13660,
    "Ġshe": 466,
    "assisted": 22305,
    "Ġgrowl": 16536,
    "bear": 10314,
    "passage": 11260,
    "Ç": 136,
    "inguish": 9395,
    "Ġread": 1445,
    "Ġshoving": 23487,
    "Ġsixteen": 8283,
    "deliber": 17424,
    "bestowed": 12222,
    "eg": 17528,
    "Ġsoothe": 7406,
    "Ġcommon": 1411,
    "Ġsurvey": 13591,
    "itious": 8778,
    "window": 7743,
    "Ġcliffs": 15968,
    "gloomy": 25144,
    "Ġtiller": 8963,
    "penet": 11069,
    "Ġdiamond": 15595,
    "ref": 6514,
    "Ġalien": 14016,
    "io": 3802,
    "questioning": 16849,
    "Ġsuicide": 12782,
    "Ġincrease": 9368,
    "Ġcry": 3496,
    "Ġdependen": 1828,
    "Ġtilted": 20411,
    "bus": 5354,
    "tiest": 21080,
    "Ġrescue": 13340,
    "Ġjeroboam": 10599,
    "Ġcharted": 22248,
    "Ġsunk": 5752,
    "adding": 21757,
    "uing": 17692,
    "Ġthunder": 4823,
    "K": 47,
    "holmes": 4432,
    "increasing": 20268,
    "Ġprevention": 16087,
    "Ġdespondence": 25869,
    "englishman": 23676,
    "score": 18855,
    "Ġanonymous": 26178,
    "adventurous": 25361,
    "Ġbirch": 26174,
    "Ġdeliber": 7269,
    "moran": 24150,
    "freighted": 14889,
    "pious": 17632,
    "Ġworlds": 11944,
    "Ġpicturesqueness": 24479,
    "Ġrenewing": 19809,
    "almost": 4943,
    "ru": 479,
    "serve": 13043,
    "Ġidentity": 2526,
    "Ġprudential": 17919,
    "Ġconsiderable": 4008,
    "angered": 16175,
    "Ġwinchester": 10064,
    "injury": 25213,
    "Ġpaint": 7708,
    "Ġtree": 5284,
    "Ġfiner": 13049,
    "dissatisfied": 26611,
    "vint": 21113,
    "Ġint": 409,
    "anatory": 21361,
    "Ġlory": 12648,
    "Ġacross": 1332,
    "poles": 16206,
    "Ġexhausted": 8693,
    "bon": 13682,
    "Ġtrail": 16280,
    "olen": 9697,
    "Ġegypt": 9677,
    "Ġsupposition": 9815,
    "Ġexpatiate": 18624,
    "dwelt": 23869,
    "apothe": 22333,
    "performances": 26006,
    "Ġcharlotte": 3890,
    "Ġindist": 14407,
    "Ġbrooding": 18907,
    "Ġdang": 9173,
    "Ġlassitude": 20585,
    "Ġturban": 23612,
    "Ġcomposing": 16064,
    "Ġfriendless": 23023,
    "vers": 1328,
    "Ġobserver": 11985,
    "Ġridiculous": 10627,
    "Ġhatherley": 7849,
    "Ġenables": 725,
    "Ġrepent": 9861,
    "Ġdesponding": 25868,
    "Ġsoothed": 10027,
    "Ġdeer": 12716,
    "incing": 15483,
    "unts": 12727,
    "Ġincline": 18569,
    "?âĢĿ": 700,
    "leaves": 12574,
    "Ġunsettled": 14121,
    "Ġall": 421,
    "Ġelij": 8907,
    "heredit": 21208,
    "Ġillustrate": 25065,
    "comprehend": 14357,
    "prof": 7699,
    "Ġdiscerning": 24955,
    "!âĢĿ": 846,
    "constantinople": 25507,
    "ople": 2319,
    "Ġpictures": 5503,
    "Ġporus": 24397,
    "Ġgasping": 17037,
    "luent": 15995,
    "Ġsymmet": 11744,
    "Ġasiatics": 20429,
    "satisfied": 10577,
    "Ġintroduction": 8969,
    "destiny": 16701,
    "Ġappearing": 9839,
    "Ġlofty": 6217,
    "eager": 12456,
    "Ġpeasants": 12329,
    "Ġlife": 1352,
    "Ġcircumst": 2975,
    "Ġscan": 22277,
    "Ġsoldier": 16919,
    "Ġransacked": 26503,
    "Ġsadly": 7303,
    "honest": 17002,
    "Ġguns": 16775,
    "Ġsettle": 6293,
    "deeply": 16176,
    "Ġstops": 3168,
    "Ġeliza": 6436,
    "comparison": 25840,
    "cou": 13693,
    "whiskers": 12308,
    "Ġapp": 493,
    "greg": 6647,
    "Ġfact": 1729,
    "ina": 21178,
    "Ġobtaining": 16129,
    "ppery": 10891,
    "Ġstaves": 21738,
    "ifted": 4496,
    "Ġarid": 22179,
    "Ġoriginal": 6102,
    "Ġleeward": 6210,
    "Ġmeryton": 4439,
    "Ġshunned": 17291,
    "Ġsnapping": 19300,
    "Ġtrial": 6634,
    "gentlemanlike": 20000,
    "sheet": 16283,
    "Ġmem": 2070,
    "Ġnecessitated": 23925,
    "Ġcoarsely": 25828,
    "Ġabundance": 17154,
    "Ġcharles": 11955,
    "aust": 15307,
    "Ġsurpr": 2552,
    "Ġjustify": 11071,
    "supplemental": 25874,
    "Ġunreasonably": 17449,
    "Ġensure": 23687,
    "Ġchann": 15932,
    "Ġentered": 2847,
    "ê": 171,
    "Ġusher": 22216,
    "Ġhole": 6080,
    "Ġmalays": 19676,
    "explain": 1479,
    "Ġeve": 13968,
    "Ġringleader": 26212,
    "vious": 1785,
    "sies": 21053,
    "Ġfarther": 5955,
    "Ġdirectors": 18921,
    "aw": 1446,
    "Ġhovel": 8254,
    "Ġardour": 8043,
    "Ġjutting": 22299,
    "rospect": 11610,
    "Ġexpectation": 6904,
    "Ġirritated": 17241,
    "Ġdiana": 21435,
    "momentum": 4991,
    "sander": 11525,
    "sorts": 21059,
    "tomb": 21092,
    "Ġcurvature": 3572,
    "tips": 13794,
    "untary": 9865,
    "Ġdiligence": 17113,
    "otent": 8830,
    "Ġgomorrah": 21613,
    "motives": 26137,
    "Ġconsp": 10223,
    "Ġalarming": 14776,
    "problems": 11433,
    "ditch": 17527,
    "Ġbrute": 8925,
    "ravelled": 18014,
    "sively": 13784,
    "**:": 4737,
    "gates": 20871,
    "officers": 10626,
    "Ġflood": 7716,
    "oors": 17619,
    "Ġmaintainable": 12931,
    "representation": 20195,
    "Ġply": 21452,
    "divided": 25018,
    "comfortable": 7321,
    "elevating": 20404,
    "Ġspine": 7408,
    "nigh": 13761,
    "Ġhit": 7164,
    "ignant": 11128,
    "persons": 24173,
    "Ġcorpulence": 24505,
    "Ġvolcanoes": 24144,
    "Ġscreams": 24604,
    "Ġwherein": 14291,
    "acies": 14275,
    "Ġattorney": 18626,
    "Ġpupils": 20419,
    "Ġrefused": 6715,
    "consent": 18501,
    "Ġthickly": 12112,
    "Ġblackest": 19098,
    "iour": 4039,
    "Ġhailing": 11690,
    "perils": 22185,
    "Ġgamy": 17998,
    "Ġtenth": 13823,
    "Ġequality": 16356,
    "ħ": 232,
    "Ġchoicest": 24219,
    "desolate": 25703,
    "Ġmanhood": 22324,
    "Ġburly": 19249,
    "Ġcroquet": 9960,
    "Ġgib": 13963,
    "ily": 1035,
    "Ġgaff": 17993,
    "Ġtex": 15470,
    "Ġbashee": 19848,
    "Ð": 145,
    "Ġhelpless": 8302,
    "Ġfron": 14486,
    "bits": 17487,
    "bloom": 24689,
    "cures": 20804,
    "Ġcringing": 25941,
    "amy": 8467,
    "figured": 20121,
    "bbs": 23691,
    "Ġrubbing": 9319,
    "Ġriverside": 25247,
    "minded": 9036,
    "Ġhandled": 12934,
    "owing": 7602,
    "Ġhilariously": 25450,
    "bildad": 9585,
    "inquir": 9534,
    "itary": 4751,
    "Ġdistracted": 11801,
    "Ġaver": 1285,
    "Ġexhibition": 14954,
    "Ġsummits": 14681,
    "â": 163,
    "Ġrefuse": 5739,
    "Ġspace": 1565,
    "Ġsentinel": 26065,
    "Ġalleviated": 26203,
    "Ġswims": 12116,
    "required": 17029,
    "false": 15352,
    "began": 6425,
    "spl": 9138,
    "Ġaccidentally": 9503,
    "Ġgreatness": 12939,
    "Ġeternal": 5976,
    "Ġunspeakable": 10054,
    "Ġsway": 7572,
    "Ġpenet": 6888,
    "mastod": 23971,
    "cer": 6642,
    "Ġhood": 10822,
    "Ġbenchmarks": 15020,
    "Ġdull": 6383,
    "oop": 10714,
    "Ġpawn": 12060,
    "transformers": 8714,
    "Ġgained": 4536,
    "Ġcordially": 16835,
    "Ġowners": 7664,
    "Ġisles": 8459,
    "Ġcomplexion": 8212,
    "ilar": 10214,
    "rapt": 13971,
    "Ġare": 527,
    "Ġdropping": 7484,
    "Ġcases": 3963,
    "Ġphys": 5653,
    "Ġisrael": 21801,
    "Ġflapped": 23011,
    "Ġeasier": 11164,
    "Ġreef": 10848,
    "spot": 9788,
    "ceed": 1073,
    "iza": 6255,
    "Ġcocoan": 20315,
    "Ġretrie": 10381,
    "Ġwondrous": 4735,
    "Ġwhirlp": 16962,
    "magnetic": 20551,
    "rows": 6441,
    "iced": 3903,
    "Ġirrevocably": 15295,
    "Ġoil": 3371,
    "ermost": 7431,
    "Ġhon": 2540,
    "Ġmud": 11571,
    "oug": 430,
    "Ġvariants": 1792,
    "Ġunsupervised": 2461,
    "Ġhappier": 10357,
    "Ġmetaphys": 16392,
    "Ġtailed": 21167,
    "agitation": 14066,
    "Ġstyle": 6946,
    "fiercely": 25256,
    "Ġlaure": 16908,
    "_.": 2211,
    "Ġpedro": 14993,
    "Ġdeline": 16330,
    "Ġplayfully": 19238,
    "pur": 7807,
    "Ġlongest": 18629,
    "Ġinvestig": 10548,
    "Ġsimil": 2534,
    "Ġviolence": 5963,
    "flex": 24843,
    "Ġdried": 7368,
    "Ġrespective": 16342,
    "Ġsebastian": 11693,
    "Ġblended": 16216,
    "ograph": 4797,
    "Ġcompromised": 22569,
    "luck": 5733,
    "Ġceremony": 8362,
    "Ġruffled": 25835,
    "Ġadmeasurements": 26225,
    "Ġrouted": 24907,
    "Ġremonstrance": 20621,
    "Ġlounged": 19952,
    "ially": 9245,
    "humoured": 11235,
    "Ġcruisers": 25863,
    "inarticulate": 21194,
    "ations": 709,
    "Ġjest": 18403,
    "Ġgoose": 5938,
    "seemingly": 25362,
    "Ġunhappiness": 14116,
    "circumamb": 26087,
    "Ġcollar": 11876,
    "Ġretirement": 25378,
    "prodig": 16424,
    "makes": 10710,
    "Ġbending": 12581,
    "Ġcrews": 8989,
    "Ġcommis": 22669,
    "fs": 17534,
    "Ġod": 4440,
    "Ġdisinclined": 22527,
    "Ġdiscern": 7659,
    "Ġbust": 10166,
    "Ġgriff": 22804,
    "resist": 8276,
    "those": 4497,
    "Ġstaggering": 20272,
    "Ġholds": 7976,
    "aze": 10073,
    "Ġanvil": 11595,
    "Ġcoincid": 20316,
    "Ġstag": 6148,
    "Ġdeg": 3281,
    "Ġphrase": 11186,
    "Ġrestricted": 19029,
    "gorge": 22330,
    "Ġfixing": 13154,
    "Ġjam": 10950,
    "oke": 1861,
    "ineas": 15819,
    "Ġshout": 4266,
    "Ġcranes": 20381,
    "reckoning": 25270,
    "Ġcommunity": 19009,
    "Ġthump": 11609,
    "Ġcha": 6853,
    "Ġsuffoc": 18869,
    "Ġerie": 20052,
    "Ġsober": 10910,
    "Ġwas": 370,
    "Ġmemb": 14027,
    "Ġrampart": 20317,
    "queequeg": 4336,
    "Ġglu": 15664,
    "star": 12668,
    "ound": 584,
    "Ġdistressed": 8514,
    "Ġboun": 21378,
    "Ġblessings": 24175,
    "Ġdoubloons": 13432,
    "vour": 17698,
    "Ġprepared": 5877,
    "Ġsignific": 3828,
    "mar": 4337,
    "Ġopportunity": 4786,
    "Ġcaucus": 17378,
    "Ġwerter": 15237,
    "Ġhypotheses": 4387,
    "alleled": 14427,
    "Ġcountries": 13093,
    "Ġtashtego": 4488,
    "?âĢĻ": 2643,
    "block": 11469,
    "Ġar": 480,
    "Ġbosom": 6939,
    "iastic": 12476,
    "dismay": 19152,
    "abling": 1076,
    "Ġrecip": 16134,
    "Ġsupre": 10267,
    "Ġwhis": 3504,
    "tained": 4406,
    "ladyship": 14826,
    "Ġemig": 14522,
    "ause": 1311,
    "Ġmaty": 22910,
    "Ġcom": 369,
    "Ġdesolation": 12265,
    "hind": 20893,
    "Ġtrivial": 10141,
    "crawling": 16957,
    "Ġreminisc": 18725,
    "Ġgenerative": 5644,
    "Ġcem": 17823,
    "inkling": 16086,
    "anxiously": 15108,
    "dare": 12450,
    "Ġimplement": 2808,
    "Ġcollect": 7238,
    "Ġvesu": 21947,
    "Ġvariation": 22663,
    "overspreading": 26139,
    "oh": 1574,
    "reen": 21230,
    "Ġabsorbed": 12328,
    "gladness": 25194,
    "Ġteaches": 18802,
    "science": 11905,
    "Ġcomplex": 751,
    "steps": 9403,
    "thick": 10259,
    "owders": 18047,
    "Ġappears": 5402,
    "Ġfails": 13311,
    "Ġindulging": 16903,
    "starbuck": 6019,
    "Ġsil": 1798,
    "Ġgoodly": 22820,
    "Ġshad": 3850,
    "suitable": 18632,
    "Ġ1950": 11358,
    "absence": 12704,
    "Ġshells": 20362,
    "content": 11196,
    "Ġmonth": 2851,
    "Ġappear": 2487,
    "seated": 11670,
    "hurrying": 14981,
    "Ġwater": 1950,
    "Ġcrocodile": 20739,
    "Ġlengthened": 25958,
    "pow": 10716,
    "Ġvintage": 26209,
    "isive": 10792,
    "Ġfoundering": 21418,
    "ident": 3377,
    "Ġreaped": 18029,
    "Ġexpert": 18873,
    "Ġcommunications": 16352,
    "rowsers": 8694,
    "Ġrepresentation": 14403,
    "monsters": 19170,
    "send": 15421,
    "Ġomitted": 12560,
    "Ġpetticoat": 15293,
    "Ġlashes": 17966,
    "Ġdecent": 10977,
    "Ġvoyagings": 19235,
    "hurst": 19878,
    "Ġsociable": 19402,
    "Ġopine": 19227,
    "Ġshrunk": 16717,
    "aring": 1475,
    "Ġimbued": 17453,
    "Ġmaj": 3929,
    "Ġstuffed": 13407,
    "lement": 10165,
    "Ġtendinous": 16930,
    "Ġfearful": 6197,
    "Ġaffidavit": 20723,
    "Ġsenses": 8252,
    "deacon": 22145,
    "Ġrighteous": 18945,
    "ology": 1586,
    "Ġghastly": 10058,
    "Ġdesolate": 10011,
    "stuff": 15684,
    "Ġtwinkled": 14310,
    "worshipping": 16609,
    "Ġmortar": 19391,
    "Ġhypothesis": 14778,
    "r": 86,
    "cordiality": 25137,
    "arious": 10316,
    "scar": 9814,
    "Ġmod": 497,
    "Ġmisunderstand": 18706,
    "adieu": 26200,
    "mped": 16646,
    "Ġseasoned": 24404,
    "anx": 8782,
    "Ġlived": 3993,
    "Ġsequences": 1754,
    "Ġfashionable": 19543,
    "Ŀ": 256,
    "plendent": 21962,
    "anywhere": 14680,
    "Ġvaluable": 5607,
    "Ġimped": 18442,
    "Ġlittle": 867,
    "Ġdisorder": 16048,
    "Ġbanished": 10615,
    "Ġjanuary": 13651,
    "Ġreflecting": 24751,
    "highest": 20406,
    "Ġsermons": 20193,
    "Ġwebster": 20160,
    "Ġtrump": 8195,
    "Ġprotesting": 14738,
    "erxes": 21274,
    "shadow": 20313,
    "Ġconcocted": 26298,
    "mish": 17597,
    "acetti": 13394,
    "gallantry": 15059,
    "Ġwrongfully": 24247,
    "Ġlanc": 19763,
    "Ġdecide": 9284,
    "Ġraging": 14307,
    "ression": 3405,
    "cain": 15324,
    "tubes": 25211,
    "Ġlavenza": 17970,
    "ial": 411,
    "Ġvindictiveness": 25738,
    "Ġinconsistency": 26182,
    "wondrous": 12335,
    "Ġpresumption": 10544,
    "Ġblame": 6445,
    "Ġbale": 7839,
    "Ġspong": 15879,
    "Ġlux": 8812,
    "Ġrecollecting": 17112,
    "Ġpower": 1237,
    "etency": 21580,
    "disapprobation": 19155,
    "Ġbegrim": 23015,
    "rubbed": 22178,
    "speps": 14331,
    "Ġtwitched": 20442,
    "Ġhovered": 12627,
    "ier": 1137,
    "bers": 2572,
    "Ġseverely": 14930,
    "Ġtreated": 7080,
    "Ġlaughed": 5059,
    "phew": 6368,
    "seat": 18125,
    "Ġmccauley": 26426,
    "innocent": 20285,
    "shorn": 22459,
    "Ġadequately": 15196,
    "trust": 21077,
    "nobody": 16139,
    "Ġoperations": 2298,
    "silence": 8045,
    "irm": 3109,
    "preserve": 25303,
    "term": 3759,
    "Ġjem": 18402,
    "Ġalb": 14014,
    "Ġluff": 15649,
    "Ġconducting": 16648,
    "gia": 20875,
    "Ġinclement": 22551,
    "bruary": 15233,
    "Ġheedless": 14900,
    "Ġpromoting": 3162,
    "Ġfloundered": 18861,
    "Ġinhuman": 13927,
    "Ġmeals": 12706,
    "Ġstoutest": 24629,
    "Ġoaks": 16932,
    "Ġinstigated": 18702,
    "paint": 21017,
    "county": 25396,
    "Ġdesmarest": 22977,
    "Ġaccent": 10292,
    "atigable": 15268,
    "uber": 15443,
    "Ġstowing": 18071,
    "sentimental": 25681,
    "Ġpallid": 12296,
    "Ġsunda": 13542,
    "Ġcrosses": 23060,
    "Ġhalls": 19524,
    "ental": 7169,
    "mpt": 6653,
    "ighbour": 3388,
    "Ġreligion": 11414,
    "adam": 15726,
    "Ġfills": 12590,
    "col": 3103,
    "Ġarrowy": 25469,
    "adamite": 20591,
    "cence": 9587,
    "lorn": 12484,
    "inburgh": 15488,
    "Ġspend": 5304,
    "Ġassid": 18944,
    "cottage": 9568,
    "command": 6576,
    "Ġpunctil": 20112,
    "Ġextravagance": 17278,
    "Ġcheering": 11132,
    "Ġwhilst": 9217,
    "Ġtypewriting": 16418,
    "Ġwards": 17789,
    "Ġfacet": 15581,
    "several": 5543,
    "Ġfrance": 7683,
    "Ġrecurrent": 1804,
    "Ġverse": 16601,
    "Ġhastened": 9003,
    "shire": 3021,
    "Ġscarlet": 13220,
    "Ġtal": 7565,
    "Ġboxes": 13372,
    "individual": 18436,
    "Ġspectacle": 10495,
    "Ġoverhung": 15972,
    "frau": 15087,
    "Ġswelling": 11922,
    "agne": 21903,
    "Ġunprotected": 22063,
    "Ġunwillingly": 15845,
    "finished": 10553,
    "Ġma": 3252,
    "Ġdoubtfully": 23476,
    "Ġchewing": 23282,
    "lig": 3174,
    "Ġreside": 22537,
    "Ġconstrained": 19239,
    "worship": 19385,
    "recursion": 13326,
    "inkles": 7427,
    "Ġfishes": 11589,
    "supposed": 13313,
    "Ġimbalanced": 18333,
    "Ġunctuous": 10265,
    "igns": 8447,
    "Ġb": 281,
    "kicked": 20942,
    "alarms": 21503,
    "Ġbewitching": 25976,
    "Ġuncl": 22012,
    "Ġprofess": 3699,
    "Ġfever": 6558,
    "Ġbored": 16102,
    "Ġdejected": 20303,
    "written": 7995,
    "hil": 8379,
    "Ġtools": 11607,
    "Ġstains": 21739,
    "obliged": 20630,
    "Ġshol": 21993,
    "Ġpitchpoling": 14908,
    "ippi": 20243,
    "Ġfearlessness": 19160,
    "Ġclearer": 16309,
    "iro": 20913,
    "amped": 12031,
    "Ġstudy": 1795,
    "ĠĠĠĠĠĠĠĠĠĠĠĠĠĠĠĠ": 1218,
    "dut": 10086,
    "Ġdark": 2112,
    "pp": 384,
    "Ġtremendous": 8354,
    "Ġplanets": 24054,
    "Ġitalian": 12407,
    "user": 5105,
    "Ġsanctified": 25883,
    "desc": 1393,
    "Ġappet": 9728,
    "press": 1732,
    "meanwhile": 10608,
    "Ġpeculiar": 3154,
    "Ġchemical": 10408,
    "estion": 18362,
    "Ġfreshet": 25704,
    "Ġadjacent": 20710,
    "Ġejaculation": 20253,
    "ouched": 4637,
    "Ġclimbing": 20068,
    "Ġreiterating": 26473,
    "Ġvicinity": 7316,
    "Ġeyes": 1336,
    "Ġdu": 4585,
    "Ġembarked": 17133,
    "Ġattractive": 25575,
    "immense": 18052,
    "Ġpoising": 22589,
    "Ġsleek": 23382,
    "perform": 15898,
    "becomes": 22494,
    "anous": 21357,
    "Ġplaned": 24053,
    "seventh": 12710,
    "ats": 4255,
    "Ġtrained": 8502,
    "vell": 3960,
    "report": 13397,
    "Ġjunk": 15950,
    "Ġalche": 21781,
    "Ġdismantled": 20215,
    "accordingly": 19213,
    "Ġslaught": 23166,
    "Ġeternity": 12275,
    "Ġfluctuations": 5516,
    "Ġconcussion": 26299,
    "Ġwatch": 2745,
    "ifle": 10890,
    "Ġsold": 6003,
    "mental": 16045,
    "Ġcalls": 6744,
    "Ġconvolutional": 2161,
    "Ġunsur": 22018,
    "Ġquadr": 8200,
    "Ġsyrian": 18353,
    "Ò": 147,
    "gl": 3290,
    "³": 116,
    "Ġmic": 17797,
    "Ġfinger": 5273,
    "Ġpainter": 19167,
    "Ġconfirms": 23306,
    "Ġedge": 5188,
    "impl": 21705,
    "digger": 24309,
    "Ġgunw": 6212,
    "Ġmischief": 8541,
    "Ġengage": 9333,
    "Ġex": 362,
    "Ġrecall": 3856,
    "Ġostlers": 25276,
    "Ġagents": 9764,
    "Ġdread": 3164,
    "Ġspite": 4156,
    "Ġ34": 16676,
    "Ġmy": 412,
    "sister": 5139,
    "Ġyoked": 15731,
    "umst": 2506,
    "Ġphenomena": 21482,
    "Ġadmin": 23552,
    "byter": 16211,
    "threw": 21982,
    "oner": 6124,
    "Ġ3": 3987,
    "Ġtipt": 21172,
    "Ġcomposure": 7218,
    "queness": 18146,
    "Ġbrains": 2633,
    "ledge": 1331,
    "Ġrecesses": 17259,
    "Ġdepl": 14044,
    "Ġinto": 648,
    "sperm": 5203,
    "Ġmajest": 24059,
    "stocks": 23818,
    "Ġsweeping": 8984,
    "Ġconfid": 7687,
    "Ġtallow": 14774,
    "Ġconscious": 7744,
    "Ġtransaction": 22437,
    "glim": 19363,
    "atiable": 17773,
    "Ġpurchas": 19873,
    "Ġpink": 12614,
    "Ġenrapt": 21937,
    "Ġsighs": 22707,
    "ashions": 16415,
    "Ġobligations": 12088,
    "Ġhuddled": 20298,
    "?_": 8070,
    "initions": 21186,
    "antled": 18286,
    "Ġmisfortunes": 7041,
    "Ġreceipt": 20354,
    "Ġfuneral": 10282,
    "fered": 5559,
    "Ġharpooneers": 4732,
    "Ġhearses": 20058,
    "Ġavowal": 19413,
    "Ġdispel": 16595,
    "Ġfamed": 16325,
    "Ġfancied": 7327,
    "Ġcascade": 20579,
    "adopt": 25544,
    "Ġelizabeth": 1130,
    "relative": 24010,
    "diver": 20830,
    "chase": 11643,
    "hamed": 6305,
    "Ġbearded": 15723,
    "Ġsavann": 14682,
    "Ġcondescended": 19954,
    "Ġsullenly": 17171,
    "Ġredeem": 20498,
    "Ġcasts": 19424,
    "Ġcrackling": 24960,
    "Ġcruise": 12046,
    "Ġunrival": 22043,
    "conf": 4957,
    "Ġimpetuously": 20370,
    "Ġpermitting": 22397,
    "ance": 478,
    "Ġwrenched": 12554,
    "Ġgaiters": 20459,
    "miniature": 16764,
    "profess": 10633,
    "Ġrisks": 9962,
    "Ġgrimes": 11033,
    "Ġbattery": 21392,
    "landish": 11939,
    "Ġcovered": 5171,
    "Ġprovidence": 18745,
    "inaw": 21182,
    "Ġequival": 4784,
    "Ġuncertain": 4069,
    "stumps": 21657,
    "Ġgrasping": 12162,
    "oubtedly": 6943,
    "berwell": 22719,
    "Ġthereupon": 18434,
    "Ġdress": 4021,
    "Ġthreads": 13115,
    "assertion": 22309,
    "Ġoppressively": 25712,
    "fted": 9117,
    "Ġprocedures": 9410,
    "hatred": 24821,
    "Ġharpo": 1944,
    "agos": 21902,
    "probably": 10018,
    "qual": 8157,
    "Ġconspicuous": 13601,
    "Ġcalcul": 3636,
    "lights": 13203,
    "mouse": 15390,
    "devilish": 17081,
    "Ġmaimed": 21315,
    "africa": 26308,
    "formality": 22218,
    "rum": 3415,
    "Ġdiffered": 22709,
    "itative": 13868,
    "twelve": 14620,
    "Ġthrust": 5084,
    "poor": 6061,
    "Ġtwos": 18656,
    "Ġalan": 10868,
    "uccas": 21105,
    "Ġexamine": 7735,
    "Ġax": 7823,
    "Ġunforgiving": 25995,
    "sets": 17659,
    "yramid": 8368,
    "unforeseen": 21886,
    "Ġfortunately": 12176,
    "account": 5329,
    "Ġgossiping": 26243,
    "Ġtrad": 9826,
    "Ġamelia": 26251,
    "Ġprotracted": 19467,
    "Ġsolving": 2485,
    "orated": 12587,
    "Ġentertaining": 16925,
    "result": 12041,
    "Ġdocuments": 10021,
    "`": 68,
    "Ġlicense": 20089,
    "Ġimmured": 24070,
    "greater": 13248,
    "Ġwindows": 4971,
    "Ġvirgin": 7329,
    "Ġfooted": 23795,
    "Ġflow": 1240,
    "Ġarrayed": 25664,
    "Ġforbade": 15212,
    "Ġconcuss": 19045,
    "Ġfitting": 21407,
    "Ġrays": 10329,
    "good": 2900,
    "Ġhosmer": 6774,
    "side": 2300,
    "Ġprovid": 1008,
    "charlotte": 6472,
    "Ġsmoked": 10321,
    "Ġvii": 13106,
    "Ġcring": 15548,
    "Ġslender": 11937,
    "furniture": 20241,
    "Ġilluminate": 17191,
    "Ĉ": 201,
    "vous": 2251,
    "grand": 7970,
    "Ġrejoined": 14924,
    "impetuous": 23761,
    "wish": 8100,
    "prisoner": 20542,
    "Ġinhospit": 25452,
    "gradually": 12911,
    "computer": 1952,
    "Ġmiddle": 4138,
    "perse": 15897,
    "anchor": 13887,
    "Ġdisown": 22522,
    "leading": 15558,
    "resemblance": 25933,
    "Ġcracks": 12016,
    "Ġdented": 17891,
    "breathing": 25335,
    "ual": 946,
    "Ġeliminating": 20618,
    "aloud": 17940,
    "Ġtriumphal": 24370,
    "Ġhours": 2821,
    "dimly": 15344,
    "Ġpersu": 3562,
    "accomp": 10454,
    "rants": 13776,
    "evid": 11483,
    "Ġinterrupting": 19556,
    "function": 4333,
    "hroom": 12473,
    "Ġrehears": 15696,
    "Ġirregular": 9863,
    "Ġaffair": 4465,
    "Ġconveyed": 8335,
    "Ġjonas": 20608,
    "diminished": 20838,
    "Ġdistension": 22503,
    "Ġoffered": 5816,
    "Ġchimer": 24603,
    "ppers": 7618,
    "Ġemir": 23349,
    "fortune": 4975,
    "84": 15299,
    "strongly": 24684,
    "Ġincredulity": 11310,
    "silenced": 24422,
    "ony": 3028,
    "Ġhere": 1087,
    "ich": 469,
    "Ġshr": 4227,
    "chairs": 21691,
    "unc": 15765,
    "Ġfath": 7365,
    "recol": 10149,
    "Ġearlier": 9085,
    "named": 9887,
    "Ġwonder": 2118,
    "ñ": 178,
    "killing": 20941,
    "ships": 5486,
    "Ġcharacteristically": 23690,
    "ium": 4864,
    "Ġfamilies": 8027,
    "after": 2897,
    "Ġtranqu": 4605,
    "Ġconn": 9228,
    "oftentimes": 19419,
    "Ġcompress": 21854,
    "ade": 880,
    "Ġclumsy": 9578,
    "Ġyonder": 7393,
    "direct": 12453,
    "Ġequal": 4135,
    "Ġfacetious": 20582,
    "Ġsally": 15500,
    "didn": 9005,
    "Ġpreluding": 18368,
    "Ġvictims": 19803,
    "Ġdespond": 14665,
    "_)": 9100,
    "weaving": 18666,
    "Ġindividuality": 14906,
    "attached": 11932,
    "Ġspeaking": 4028,
    "riety": 12740,
    "urity": 8143,
    "Ġsewing": 21952,
    "Ġadvantage": 4317,
    "Ġsecurity": 8976,
    "Ġmouldy": 14971,
    "Ġmastiff": 23723,
    "Ġuncontrollable": 25814,
    "Ġstuck": 9219,
    "illings": 14141,
    "winding": 16719,
    "Ġbelonged": 6922,
    "Ġcleans": 18947,
    "Ġmand": 21303,
    "ica": 10197,
    "giving": 8738,
    "Ġxiii": 25591,
    "acked": 10972,
    "rmsprop": 4523,
    "Ġcounsell": 25384,
    "Ġgrease": 26189,
    "jam": 15369,
    "Ġcomfortless": 23910,
    "your": 1986,
    "Ġheal": 21679,
    "Ġincidents": 9297,
    "Ġprinciple": 6770,
    "Ġsap": 18323,
    "Ġhypothe": 4075,
    "Ġships": 3714,
    "Ġ1836": 25721,
    "umberland": 16836,
    "Ġmaintaining": 1507,
    "Ġharbor": 10025,
    "Ġwight": 12549,
    "Ġtuples": 13475,
    "Ġindulge": 10581,
    "Ġerected": 12230,
    "Ġlent": 21545,
    "Ġflee": 7079,
    "generosity": 23785,
    "anguish": 15977,
    "Ġelab": 22640,
    "Ġpriv": 4183,
    "darkened": 24513,
    "turned": 7307,
    "ston": 15679,
    "âĢĶâĢĿ": 3299,
    "Ġgraces": 18225,
    "Ġkrus": 18349,
    "leton": 5148,
    "Ġglaring": 11904,
    "Ġmonogram": 26573,
    "Ġthirdly": 24141,
    "oriented": 2948,
    "Ġarrow": 10930,
    "Ġconvulsive": 19306,
    "avery": 13681,
    "Ġquicker": 16506,
    "Ġprovoke": 14823,
    "Ġpressing": 9259,
    "pper": 3210,
    "Ġfeed": 2128,
    "Ġdine": 7367,
    "Ġcorresponds": 19820,
    "Ġpulverize": 23391,
    "anything": 5518,
    "creat": 20799,
    "apan": 6860,
    "Ġnamely": 20688,
    "Ġvariously": 18652,
    "Ġtoler": 7589,
    "Ġheroine": 24542,
    "Ġmapp": 2083,
    "Ġdisclosed": 15151,
    "ape": 1908,
    "Ġendeav": 2955,
    "Ġsuppose": 2868,
    "kine": 15373,
    "Ġsimilar": 4917,
    "blow": 9102,
    "cleanliness": 25871,
    "uting": 15656,
    "ulatory": 15764,
    "consum": 12866,
    "distraction": 24199,
    "Ġintuitions": 17339,
    "Ġruin": 6056,
    "Ġbern": 17858,
    "apering": 8041,
    "Ġdictate": 20150,
    "Ġteased": 18801,
    "Ġbaked": 21384,
    "pleasure": 5978,
    "Ġmourn": 8703,
    "âĢ": 294,
    "rit": 21034,
    "Ġenter": 4031,
    "Ġraiment": 22656,
    "rength": 4101,
    "Ġcolon": 18764,
    "Ġchopping": 24218,
    "Ġfour": 2213,
    "Ġhaul": 11689,
    "Ġtuesday": 9625,
    "repe": 8775,
    "Ġhumming": 12982,
    "Ġappertain": 22212,
    "solving": 3100,
    "satisfy": 16891,
    "Ġ11": 5318,
    "Ġparaph": 22118,
    "Ġcrockery": 24300,
    "acit": 16077,
    "ift": 1605,
    "Ġuncle": 3193,
    "Ġsavoury": 23875,
    "Ġsilently": 6894,
    "expound": 23662,
    "Ġcondense": 21806,
    "Ġbast": 21377,
    "Ġroad": 3881,
    "Ġinsip": 19266,
    "Ġinfrequent": 3824,
    "Ġcaring": 23090,
    "ign": 1702,
    "Ġmichigan": 26425,
    "Ġinexorable": 12252,
    "Ġsurplus": 26303,
    "axing": 18547,
    "painter": 24896,
    "Ġlicensing": 20091,
    "Ġanchored": 17438,
    "Ġbraces": 14667,
    "rec": 6004,
    "serv": 7452,
    "Ġbasket": 9571,
    "Ġvertically": 19378,
    "Ġhorns": 11122,
    "lers": 10105,
    "Ġarmed": 9258,
    "Ġmind": 1615,
    "Ġrandom": 1587,
    "Ġmatrimonial": 25489,
    "Ġvindictive": 20468,
    "separation": 25226,
    "Ġmaledictions": 26427,
    "Ġharpoone": 2911,
    "Ġmathematical": 3348,
    "oided": 11507,
    "inkers": 22614,
    "belongs": 25596,
    "everlasting": 18770,
    "Ġpound": 12612,
    "ility": 624,
    "though": 2116,
    "Ġinvol": 1039,
    "hands": 5967,
    "hog": 8380,
    "Ġstud": 1616,
    "Ġroute": 11380,
    "wouldn": 23535,
    "Ġbount": 15564,
    "Ġbeating": 8145,
    "Ġunqualified": 22057,
    "Ġfanc": 6743,
    "estim": 14168,
    "Ġexhilar": 19682,
    "Ġcapering": 21352,
    "urged": 18048,
    "Ġverily": 16602,
    "Ġcannon": 14152,
    "succeed": 10327,
    "Ġmatrices": 4969,
    "ache": 8518,
    "Ġcav": 13878,
    "Ġgenealogies": 25961,
    "Ġscramble": 24577,
    "tumbled": 21089,
    "Ġproductions": 22944,
    "Ġrem": 954,
    "Ġinstincts": 16985,
    "Ġbegg": 16251,
    "chron": 21692,
    "Ġprone": 18968,
    "acing": 2718,
    "Ġdefend": 9338,
    "Ġwedded": 16673,
    "Ġrelinqu": 12979,
    "Ġsystems": 796,
    "fortun": 3538,
    "Ġwhether": 2002,
    "deceptive": 22147,
    "Ġthrows": 14734,
    "steelkilt": 10045,
    "decan": 22140,
    "Ġsource": 6805,
    "opic": 22474,
    "Ġcoding": 8116,
    "Ġey": 8135,
    "crossed": 16631,
    "misfortunes": 16755,
    "kshire": 13744,
    "Ġweltering": 19584,
    "oo": 7554,
    "Ġundisturbed": 19518,
    "legs": 13180,
    "Ġfreer": 23206,
    "Ġrooted": 13167,
    "doms": 20834,
    "jolly": 20930,
    "assist": 11764,
    "Ġsolace": 16197,
    "Ġmixture": 9561,
    "Ġconcisely": 19043,
    "Ġevalu": 3108,
    "olet": 13764,
    "Ġtusks": 17252,
    "Ġoverwhel": 8197,
    "Ġwrenching": 17321,
    "anely": 17836,
    "lake": 13747,
    "intention": 10366,
    "Ġantarctic": 19551,
    "Ġweld": 8112,
    "tiger": 13795,
    "palms": 25262,
    "Ġguilt": 6179,
    "10": 17471,
    "leful": 17842,
    "Ġabiding": 22268,
    "duty": 20238,
    "Ġclings": 15964,
    "Ġstrict": 7223,
    "Ġquivering": 12854,
    "Ġ42": 16677,
    "acters": 9307,
    "onged": 18410,
    "Ġdardanelles": 26442,
    "Ġhed": 7388,
    "Ġvisited": 5948,
    "Ġsovereign": 10060,
    "Ġmillar": 13859,
    "shipping": 10307,
    "forever": 22517,
    "subsided": 25830,
    "Ġenvy": 13181,
    "Ġelderly": 13493,
    "outre": 18320,
    "vert": 15711,
    "Ġperfidious": 25666,
    "Ġstride": 22615,
    "arted": 2199,
    "Ġpiping": 23249,
    "Ġmethinks": 10390,
    "mindful": 19598,
    "Ġgasps": 24865,
    "Ġpeculiarly": 8287,
    "Ġonly": 788,
    "Ġclubbed": 26546,
    "Ġmornings": 16234,
    "Ġjapanese": 10631,
    "fam": 5989,
    "inite": 6002,
    "Ġbrick": 8924,
    "Ġcharmingly": 24220,
    "Ġinherit": 25352,
    "Ġsystematic": 5245,
    "Ġguilty": 7251,
    "Ġarmitage": 23580,
    "tical": 10127,
    "Ġpemberley": 4589,
    "Ġpurplish": 19140,
    "nosed": 20991,
    "bottle": 20144,
    "Ġfirmament": 19469,
    "Ć": 199,
    "designated": 26295,
    "ggling": 19096,
    "chastic": 2336,
    "Ġmatrim": 11059,
    "Ġbreeze": 5681,
    "Ġsombre": 18859,
    "shop": 14237,
    "Ġcruis": 14622,
    "nuee": 17428,
    "Ġnod": 1890,
    "Ġobservation": 6597,
    "depths": 25663,
    "contempt": 13188,
    "beam": 16035,
    "Ġdressing": 7090,
    "Ġexperiences": 13027,
    "copper": 19188,
    "accompanied": 12419,
    "l": 80,
    "pale": 13770,
    "Ġturbid": 23610,
    "Ġtrying": 4838,
    "Ġpoltroon": 26597,
    "Ġmaker": 15539,
    "odhead": 18117,
    "Ġgin": 13959,
    "Ġdelighted": 5499,
    "Ġsentiments": 7960,
    "Ġtheoretically": 3565,
    "confirmation": 26089,
    "Ġaudits": 24770,
    "Ġdevils": 7231,
    "umer": 9256,
    "Ġpaltry": 16691,
    "third": 8168,
    "Ġresolve": 13168,
    "Ġvalley": 5850,
    "Ġstrictly": 12282,
    "counters": 25397,
    "Ġcum": 21340,
    "Ġglowing": 12279,
    "befall": 22493,
    "eli": 3874,
    "Ġsalut": 10508,
    "wa": 5897,
    "ruin": 22174,
    "Ġhumph": 22881,
    "Ġmiles": 3804,
    "remorse": 14465,
    "ld": 385,
    "Ġgriev": 16633,
    "lim": 9605,
    "ulates": 14053,
    "buncle": 13690,
    "Ġwonderland": 23423,
    "Ġruinous": 24634,
    "R": 54,
    "Ġcomparatively": 9488,
    "Ġsplash": 16547,
    "uteronomy": 15660,
    "cies": 1814,
    "Ġapologizing": 25197,
    "skelter": 24489,
    "Ġmild": 4147,
    "Ġheron": 22071,
    "================================================================": 9988,
    "Ġsoften": 23121,
    "Ġswashing": 23054,
    "Ġscoresby": 10461,
    "Ġtakings": 20571,
    "gument": 20884,
    "Ġther": 17777,
    "bohem": 19002,
    "Ġmunro": 25630,
    "msman": 9268,
    "dignity": 15343,
    "Ġflight": 6580,
    "Ġallured": 14111,
    "two": 3860,
    "Ġallow": 1128,
    "Ġbeef": 6830,
    "injured": 15130,
    "Ġnarrow": 5086,
    "Ġdisp": 3356,
    "cavity": 26126,
    "pine": 13767,
    "Ġmajestic": 8639,
    "Ġcand": 3276,
    "Ġgratification": 24094,
    "Ġwaylaid": 22870,
    "ures": 836,
    "Ġind": 1219,
    "endar": 18364,
    "meadow": 18679,
    "shr": 10979,
    "Ġgossip": 18471,
    "Ġaffectation": 14438,
    "orney": 17873,
    "Ġimpudence": 26241,
    "Ġrand": 1581,
    "Ġgold": 3278,
    "Ġrome": 12152,
    "Ġsque": 18758,
    "pemberley": 9619,
    "expect": 4769,
    "Ġunspeakably": 25172,
    "scale": 3534,
    "Ġphysical": 7523,
    "Ġgros": 14820,
    "Ġtrust": 4080,
    "sufficiently": 14979,
    "Ġmankind": 6698,
    "Ġmeek": 21810,
    "Ġtemperate": 16159,
    "Ġrick": 21968,
    "Ġmouse": 4694,
    "Ġinformation": 1050,
    "ple": 455,
    "Ġperuvian": 18452,
    "Ġsultan": 15182,
    "Ġnonsensical": 21527,
    "faces": 13718,
    "Ġconducted": 10501,
    "ronted": 14874,
    "Ġshark": 5549,
    "Ġtass": 15467,
    "Ġjog": 18404,
    "Ġbearing": 5298,
    "drawers": 19384,
    "Ġpun": 4588,
    "Ġwhel": 15863,
    "Ġbless": 4344,
    "hopper": 23713,
    "Ġben": 1108,
    "forster": 16162,
    "Ġapplicable": 18993,
    "awake": 14450,
    "iluvian": 18060,
    "Ġuninhabited": 22047,
    "Ġheaviest": 23325,
    "fellows": 12270,
    "prepare": 20211,
    "ities": 1825,
    "embarrassed": 20595,
    "opes": 10309,
    "zek": 16260,
    "Ġcollected": 2614,
    "Ġhaunts": 18198,
    "Ġamount": 8511,
    "Ġvacantly": 16814,
    "Ġofficer": 6753,
    "Ġbriskly": 25311,
    "Ġbutchers": 18272,
    "transform": 8050,
    "conclusion": 25671,
    "Ġpace": 9182,
    "Ġard": 5164,
    "Ġmixed": 6974,
    "Ġprime": 10403,
    "squee": 15428,
    "happen": 19330,
    "dually": 3283,
    "Ġlab": 1873,
    "beat": 10985,
    "Ġdrive": 5055,
    "carb": 20809,
    "ardy": 22154,
    "Ġcheese": 9375,
    "Ġyelling": 18096,
    "Ġhunting": 7260,
    "thankful": 16805,
    "Ġconstantinople": 19836,
    "Ġneglig": 18878,
    "fold": 7547,
    "Ġpenetrated": 13470,
    "Ġwhitened": 24867,
    "/(": 2983,
    "Ġbloody": 9886,
    "¸": 121,
    "indirectly": 18437,
    "Ġexclusiveness": 23924,
    "Ġfurlongs": 20722,
    "farewell": 12303,
    "goes": 10425,
    "arcy": 1274,
    "Ġhome": 2029,
    "Ġchronicler": 20228,
    "unct": 18154,
    "Ġtwins": 16117,
    "Ġvertebra": 20180,
    "Ġsulk": 15044,
    "Ġdissuade": 26256,
    "Ġdirected": 5578,
    "Ġpolitely": 8993,
    "Ġoutside": 5553,
    "Ġblot": 9810,
    "Ġwife": 2590,
    "Ġnailing": 21525,
    "Ġstand": 1736,
    "Ġdignity": 5704,
    "Ġpaling": 21461,
    "Ġmeditate": 16681,
    "Ġshow": 3402,
    "Ġslay": 16303,
    "Ġfortresses": 23620,
    "Ġstruggling": 12071,
    "ordered": 8788,
    "Ġinco": 14258,
    "Ġmouthfuls": 20645,
    "Ġsolicit": 22885,
    "Ġroasted": 18458,
    "tain": 558,
    "Ġgroups": 3720,
    "Ġtransient": 18480,
    "Ġdistance": 3483,
    "Ġrust": 6407,
    "Ġunhappy": 5640,
    "Ġcrumpled": 16441,
    "Ġbite": 10796,
    "Ġfrowning": 13621,
    "Ġenticing": 22744,
    "Ġtowed": 11264,
    "Ġrelate": 6875,
    "Ġrickety": 26504,
    "legged": 10465,
    "Ġhedge": 8365,
    "Ġbolted": 12241,
    "Ġquick": 2584,
    "Ġrheum": 18214,
    "zy": 2672,
    "Ġwheeled": 14137,
    "bearer": 18518,
    "Ġcircum": 8258,
    "path": 10117,
    "Ġluggage": 25957,
    "Ġchin": 4891,
    "ultaneous": 18582,
    "Ġthree": 1368,
    "Ġas": 374,
    "Ġequilib": 4136,
    "Ġ7": 4745,
    "attempted": 20173,
    "eronomy": 15522,
    "Ġ46": 19489,
    "Ġcaw": 13881,
    "wandering": 20283,
    "tubs": 15128,
    "request": 21240,
    "Ġbarn": 11585,
    "Ġreassure": 21670,
    "Ġredress": 23750,
    "asked": 8910,
    "orne": 17872,
    "Ġinviting": 19143,
    "Ġperry": 22394,
    "Ġhor": 1661,
    "Ġrotterdam": 25475,
    "humour": 7499,
    "Ġdepth": 2439,
    "Ġflooded": 24961,
    "Ġdefilements": 26284,
    "ortunities": 15937,
    "cherish": 24551,
    "Ġroyals": 19531,
    "Ġstave": 11649,
    "Ġacquainted": 5179,
    "Ġgoin": 18470,
    "Ġcells": 13883,
    "Ġsuperlative": 26074,
    "weeks": 14314,
    "below": 12118,
    "eminent": 25104,
    "Ġestimation": 11217,
    "Ġremains": 4910,
    "Ġvillage": 5774,
    "Ġdynamically": 4035,
    "learn": 2334,
    "Ġheiress": 20696,
    "ender": 9159,
    "untarily": 6312,
    "canst": 22959,
    "Ġinterview": 9768,
    "pth": 2383,
    "Ġjacket": 6488,
    "Ġcomplied": 14731,
    "Ġmomentum": 1600,
    "Ġscientific": 6857,
    "Ġhauling": 14085,
    "suspected": 12369,
    "Ġ53": 19639,
    "ling": 735,
    "ivility": 12783,
    "Ġpractises": 23322,
    "Ġbeckoning": 20500,
    "Ġdetective": 14406,
    "fal": 17535,
    "Ġvector": 1973,
    "Ġgripping": 26186,
    "Ġthrees": 23399,
    "Ġcheerily": 13305,
    "art": 586,
    "Ġinclude": 1876,
    "Ġtroop": 24897,
    "Ġonset": 12707,
    "Ġapplication": 1992,
    "Ġostr": 21323,
    "hurry": 24763,
    "arken": 18667,
    "Ġrecovered": 5481,
    "59": 17472,
    "compass": 9458,
    "Ġinvolves": 1079,
    "morning": 4859,
    "waving": 21130,
    "clever": 20812,
    "Ġrec": 887,
    "Ġraised": 4661,
    "archbishop": 22891,
    "Q": 53,
    "Ġreliable": 18777,
    "Ġfascinating": 17326,
    "Ġsubset": 9868,
    "Ġjets": 10286,
    "Ġwinding": 8236,
    "Ġequivalent": 4802,
    "Ġmanaged": 7907,
    "inordinate": 21193,
    "blue": 13691,
    "pus": 3414,
    "Ġante": 17896,
    "oes": 4435,
    "namely": 23667,
    "Ġclams": 19987,
    "darted": 20831,
    "oot": 13763,
    "angle": 22102,
    "Ġund": 4119,
    "Ġiterate": 13199,
    "Ġsquall": 7043,
    "Ġreinforcement": 3398,
    "daring": 20828,
    "Ġdeacon": 18143,
    "Ġchurch": 4711,
    "Ġmasterless": 23992,
    "arab": 21440,
    "goose": 19101,
    "Ġassociated": 12246,
    "Ġtrait": 23072,
    "ĠĠĠĠĠĠĠĠĠĠĠĠĠĠĠĠĠĠĠĠĠĠĠĠĠĠĠĠĠĠĠĠĠĠĠĠĠĠĠĠĠĠĠĠ": 12150,
    "apart": 15958,
    "ĠcÃ¦": 15551,
    "moored": 22704,
    "thoroughly": 26507,
    "Ġpluck": 15610,
    "overing": 6306,
    "Ġrack": 9311,
    "ssip": 14077,
    "Ġgpt": 4352,
    "dug": 18462,
    "Ġherbage": 25996,
    "Ġsecure": 4912,
    "ez": 5683,
    "rennial": 22339,
    "Ġincorporate": 20453,
    "Ġrefer": 18697,
    "Ġalps": 10869,
    "naturalists": 23510,
    "Ġforbid": 7866,
    "Ġeither": 2607,
    "exam": 10975,
    "ually": 2771,
    "Ġscott": 22279,
    "Ġimmersed": 19483,
    "iveness": 2468,
    "Ġwol": 15527,
    "izens": 18135,
    "Ġtennessee": 26595,
    "haustible": 16890,
    "Ġpurest": 14936,
    "Ġgoat": 16004,
    "Ġrenders": 13281,
    "Ġtexas": 25922,
    "Ġwhaleman": 4655,
    "Ġsensible": 4976,
    "remain": 9836,
    "Ġdominant": 12393,
    "Ġmedit": 8019,
    "nades": 20996,
    "Ġremoving": 12113,
    "dition": 15338,
    "insurance": 18888,
    "Đ": 209,
    "Ġlimbs": 5966,
    "mass": 12486,
    "oran": 8787,
    "Ġawaited": 17073,
    "Ġinquire": 7720,
    "taken": 7561,
    "Ġ16": 7927,
    "Ġnicely": 8708,
    "summer": 11990,
    "knife": 6942,
    "Ġcongealed": 25981,
    "repressed": 21242,
    "Ġchas": 18379,
    "sitting": 8387,
    "Ġletting": 10361,
    "brÃ¦": 11174,
    "Ġsympt": 7012,
    "Ġbegun": 7244,
    "Ġshrieked": 9546,
    "Ġaffected": 5576,
    "Ġabuse": 18392,
    "Ġslit": 13053,
    "stationed": 25453,
    "Ġirons": 7696,
    "liking": 22922,
    "ā": 194,
    "Ġpeaceable": 14720,
    "Ġmiser": 18705,
    "Ġfond": 4755,
    "different": 6500,
    "Ġvan": 1086,
    "Ġtrans": 631,
    "oms": 4594,
    "Ġbecoming": 4398,
    "Ġunsatisfied": 22040,
    "Ġplainer": 23703,
    "iply": 22362,
    "res": 2760,
    "Ġunrestrained": 25554,
    "ertion": 12037,
    "Ġadored": 18291,
    "Ġadjust": 2154,
    "wealth": 22686,
    "rian": 10240,
    "Ġsoothing": 8173,
    "sustained": 20567,
    "Ġincoherent": 17398,
    "Ġprepar": 7898,
    "Ġsavages": 9910,
    "thole": 21984,
    "Ġthreshold": 2810,
    "Ġfretfully": 25447,
    "Ġchannels": 26013,
    "Ġstepped": 7051,
    "church": 8140,
    "darkness": 9510,
    "irect": 5552,
    "cocks": 23560,
    "Ġilluminated": 20174,
    "Ġsulky": 13513,
    "Ġnone": 3224,
    "brave": 19822,
    "Ġmarine": 23030,
    "valued": 2854,
    "Ġprivate": 5345,
    "À": 129,
    "Ġforemost": 12001,
    "ccarthy": 4888,
    "Ġadroit": 26000,
    "athies": 22700,
    "ģ": 228,
    "autumn": 23342,
    "rippa": 11340,
    "Ġbony": 12583,
    "shortly": 12255,
    "Ġgrec": 18960,
    "nel": 11503,
    "Ġtipped": 17727,
    "Ġadequate": 20307,
    "ums": 10271,
    "displeasure": 23493,
    "Ġasi": 12728,
    "guess": 14758,
    "Ġtechnically": 12363,
    "Ġopp": 2698,
    "Ġsale": 14153,
    "Ġolive": 12561,
    "retch": 4372,
    "Ġwondrously": 24063,
    "Ġsympathise": 16793,
    "mouthful": 25208,
    "adem": 21755,
    "Ġknocked": 9498,
    "ilburn": 18059,
    "wickham": 5884,
    "onies": 6806,
    "farm": 15349,
    "hunters": 16832,
    "Ġbuoyed": 20039,
    "Ġgranting": 18737,
    "vap": 13801,
    "heads": 4095,
    "Ġshade": 6550,
    "Ġwilling": 7422,
    "Ġpelt": 15606,
    "bulwarks": 12269,
    "castle": 3347,
    "Ġhabitual": 24790,
    "prevented": 20372,
    "Ġunfit": 14783,
    "Ġhumans": 8928,
    "ally": 530,
    "Ġfug": 12591,
    "prison": 14660,
    "Ġexhilarating": 26337,
    "resembled": 21245,
    "latitudes": 17195,
    "ermaid": 14294,
    "Ġcontinu": 1167,
    "Ġcrad": 21348,
    "Ġhercules": 14126,
    "isions": 6130,
    "Ġcleaned": 23181,
    "sight": 5995,
    "droppers": 24759,
    "Ġenlarged": 25985,
    "Ġautumnal": 19041,
    "Ġexpected": 3697,
    "Ġsquatted": 25841,
    "laying": 19771,
    "lass": 5993,
    "Ġsimplest": 16331,
    "Ġproperly": 7945,
    "Ġtedious": 15265,
    "Ġscrawled": 24579,
    "expressive": 24304,
    "tuning": 1579,
    "Ġshattered": 7885,
    "etwork": 441,
    "Ġinfirmity": 26300,
    "Ġinvestigations": 17245,
    "Ġhardest": 18912,
    "concluding": 19479,
    "oline": 6833,
    "linen": 25257,
    "Ġtrain": 515,
    "cerem": 15674,
    "Ġquee": 1982,
    "Ġpirates": 9072,
    "Ġintroduces": 3269,
    "eagerly": 17314,
    "datasets": 11953,
    "Ġjewell": 19519,
    "Ġcurving": 16228,
    "Ġprodigiously": 14929,
    "Ġdecoyed": 18486,
    "determ": 7105,
    "Ġfruits": 17117,
    "Ġregulate": 22578,
    "sex": 12709,
    "pron": 9004,
    "Ġcavity": 20486,
    "Ġgregarious": 18963,
    "Ġswing": 13032,
    "Ġgranted": 22805,
    "Ġchart": 10944,
    "rative": 17651,
    "meeting": 11018,
    "Ġmanifested": 17156,
    "ivided": 22079,
    "Ġimmensities": 25330,
    "Ġointment": 21324,
    "Ġassociations": 14960,
    "Ġcarpet": 9354,
    "Ġpitied": 14689,
    "Ġplanting": 16082,
    "la": 10704,
    "ĠcÃ¦sar": 20578,
    "Ġorigin": 4120,
    "superstitiousness": 25508,
    "Ġfang": 21401,
    "Ġincalcul": 16060,
    "ses": 3026,
    "hearted": 6970,
    "duct": 3506,
    "Ġinclinations": 19538,
    "shunned": 22467,
    "ouncing": 8494,
    "Ġspence": 22125,
    "Ġemerg": 13422,
    "iles": 2862,
    "between": 5071,
    "Ġpreventing": 884,
    "Ġsweeter": 23915,
    "iah": 14413,
    "atherine": 2598,
    "ni": 1634,
    "dispositions": 25011,
    "clo": 5612,
    "Ġstreaming": 19672,
    "multiple": 15105,
    "Ġintroduced": 7691,
    "piteous": 21032,
    "Ġignoble": 19397,
    "Ġextinguish": 14334,
    "this": 1436,
    "Ñ": 146,
    "oard": 4809,
    "Ġtouch": 3395,
    "Ġreliably": 22878,
    "Ġtransom": 22436,
    "Ġchall": 10943,
    "Ġwanted": 4968,
    "gun": 10095,
    "Ġident": 2240,
    "atiously": 15519,
    "suited": 22638,
    "immed": 9216,
    "Ġaffecting": 2325,
    "Ġvanishing": 1346,
    "Ġenjoying": 11233,
    "Ġconstitutional": 25125,
    "Ġpalpitated": 26085,
    "been": 3342,
    "stad": 7598,
    "effectually": 25128,
    "Ġbells": 19600,
    "Ġunobstructed": 18264,
    "gences": 20876,
    "Ġprof": 2460,
    "Ġapart": 4746,
    "chariot": 26478,
    "Ġclear": 1951,
    "Ġattic": 16095,
    "omitted": 18016,
    "Ġtoll": 7852,
    "Ġimprudence": 10296,
    "ister": 1293,
    "Ġmarks": 6746,
    "achus": 18283,
    "bowsprit": 16852,
    "topp": 22563,
    "Ġpir": 6818,
    "rived": 5373,
    "Ġvapor": 8699,
    "Ġinstrum": 6055,
    "Ġbountiful": 25944,
    "Ġskies": 8919,
    "Ġaddressing": 11163,
    "Ġadmeasure": 18293,
    "Ġcollectively": 19966,
    "Ġstructures": 2720,
    "gled": 10698,
    "were": 2560,
    "helping": 23136,
    "Ġresent": 6049,
    "Ġmahogany": 20576,
    "encountered": 20391,
    "Ġtent": 15465,
    "strip": 19829,
    "batch": 1984,
    "quin": 21845,
    "âĢĻ": 378,
    "olent": 8155,
    "tooth": 18579,
    "Ġshrill": 12138,
    "Ġfinite": 2326,
    "ĠĠĠĠĠĠĠĠĠĠ": 18576,
    "Ġfol": 1287,
    "Ġgazing": 5876,
    "iet": 1775,
    "Ġmag": 1427,
    "conclusions": 25672,
    "ocations": 23706,
    "likely": 9021,
    "Ġlat": 5087,
    "Ġdamps": 23473,
    "Ġemblaz": 16244,
    "Ġhitting": 21485,
    "Ġam": 660,
    "ert": 2635,
    "ical": 754,
    "Ġrekindled": 21675,
    "imprudence": 16555,
    "Ġperf": 12845,
    "pillar": 5618,
    "Ġconnecting": 18630,
    "Ġexposing": 11829,
    "Ġstart": 3258,
    "Ġpresumably": 19623,
    "Ġsneezing": 12244,
    "Ġtrappings": 23080,
    "Ġundu": 15834,
    "Ġspy": 22122,
    "Ġappearance": 3700,
    "ullen": 8235,
    "thodox": 21986,
    "Ġmap": 2392,
    "Ġbag": 5699,
    "Ġpassengers": 13673,
    "Ġbottled": 23794,
    "Ġmingling": 20196,
    "Ġcachalot": 17834,
    "ened": 1387,
    "unwillingly": 21882,
    "Ġshipw": 12974,
    "Ġsarat": 21226,
    "mysteries": 26050,
    "Ġdogs": 7742,
    "estinated": 15918,
    "alf": 4639,
    "Ġtranquilly": 12287,
    "mouth": 9129,
    "sugg": 11838,
    "Ġstoop": 16307,
    "Ġdamp": 8264,
    "Ġspangled": 22134,
    "Ġinhabitant": 19754,
    "infer": 10143,
    "Ġ13": 6718,
    "Ġsuspic": 4472,
    "Ġtravelling": 11306,
    "odox": 21809,
    "Ġcomprehens": 8320,
    "Ġdiscussed": 19558,
    "Ġpeeping": 16124,
    "influ": 9539,
    "unfortunate": 15773,
    "Ġlatterly": 24083,
    "ols": 2413,
    "Ġpredicts": 2597,
    "Ġterrific": 6754,
    "fluttering": 23970,
    "Ġtranquil": 7311,
    "Ġhasn": 12923,
    "Ġdistended": 16041,
    "Ġincarnate": 20373,
    "Ġmid": 2619,
    "crowded": 20189,
    "Ġbox": 5109,
    "Ġpresto": 22228,
    "Ġsant": 21213,
    "Ġamph": 18511,
    "aking": 975,
    "there": 1422,
    "poling": 12216,
    "Ġperv": 15987,
    "Ġunivers": 2126,
    "increas": 10453,
    "Ġwhist": 6022,
    "Ġliberal": 12187,
    "Ġdanes": 25156,
    "Ġboarding": 12083,
    "quit": 15758,
    "Ġstatue": 23148,
    "Ġhunks": 18935,
    "Ġfro": 3470,
    "Ġflitting": 13022,
    "istence": 2429,
    "Ġties": 12523,
    "Ġhugh": 15003,
    "due": 22408,
    "Ġdrink": 4787,
    "united": 14058,
    "Ġendeavouring": 8035,
    "bud": 10681,
    "Ġbitterness": 8025,
    "Ġstrangers": 8314,
    "Ġevian": 24291,
    "too": 4509,
    "v": 90,
    "depart": 12262,
    "Ġassailants": 20447,
    "Ġstun": 11648,
    "Ġpouch": 21468,
    "the": 334,
    "shell": 16284,
    "Ġtol": 6675,
    "Ġenvelopes": 24506,
    "Ġdaugh": 2291,
    "claims": 25319,
    "observed": 7676,
    "presently": 9805,
    "Ġmaintain": 856,
    "Ġsharks": 4499,
    "iny": 4295,
    "brother": 7091,
    "Ġviol": 2073,
    "itiousness": 21332,
    "Ġlizard": 12650,
    "aled": 3946,
    "intending": 22933,
    "slow": 7811,
    "Ġestablishment": 13577,
    "vener": 21110,
    "archangel": 18785,
    "Ġwilled": 21290,
    "Ġvig": 5460,
    "Ġtest": 1575,
    "gardiner": 12288,
    "Ġentirely": 3434,
    "usual": 5841,
    "Ġswitching": 23055,
    "modern": 1151,
    "Ġcompletion": 12144,
    "bly": 6110,
    "draught": 12086,
    "expectations": 24275,
    "Ġshar": 9248,
    "onstr": 12542,
    "child": 5537,
    "Ġengagements": 9976,
    "Ġdepos": 11007,
    "Ġdamn": 11157,
    "Ġloth": 17965,
    "Ġkidn": 20204,
    "Ġdifferently": 10387,
    "kovoko": 20668,
    "Ġus": 495,
    "Ġcombinations": 22853,
    "Ġdistrict": 10317,
    "lp": 898,
    "chants": 21690,
    "Ġexplaining": 15957,
    "Ġresc": 4508,
    "Ġwatchful": 16526,
    "Ġchilian": 25563,
    "Ġtester": 21171,
    "ceive": 3061,
    "Ġexample": 5096,
    "add": 5229,
    "Ġsafe": 5103,
    "Ġdiscontented": 16056,
    "Ġbourgh": 5069,
    "Ġcents": 17828,
    "Ġmutinous": 23955,
    "Ġk": 484,
    "Ġunsub": 22019,
    "rodu": 1818,
    "Ġ115": 24438,
    "Ġthre": 2059,
    "Ġ182": 13234,
    "Ġmeddle": 19490,
    "Ġpaddington": 17094,
    "Ġluxur": 12338,
    "Ġchallenge": 25471,
    "?_âĢĿ": 12313,
    "ction": 502,
    "Ġquarto": 17294,
    "Ġjunior": 15097,
    "Ġfidelity": 15239,
    "Ġwearily": 18177,
    "Ġreveal": 11198,
    "Ġcogent": 14271,
    "pile": 17628,
    "Ġgourmand": 26465,
    "dorff": 15235,
    "linearity": 1650,
    "Ġsallow": 12532,
    "Ġforg": 3788,
    "ik": 17570,
    "Ġhunt": 6183,
    "Ġconversing": 14631,
    "end": 505,
    "uously": 7354,
    "Ġlitter": 19828,
    "Ġtemper": 955,
    "Ġtrains": 10946,
    "appointment": 24058,
    "Ġhull": 5446,
    "hated": 17560,
    "Ġofficers": 4427,
    "Ġenthr": 22745,
    "Ġrobert": 10969,
    "Ġsatisfying": 23696,
    "mediterranean": 16402,
    "brushing": 20787,
    "hypothe": 25905,
    "coll": 23778,
    "Ġsetting": 7046,
    "Ġflung": 8562,
    "poled": 22906,
    "Ġdrawled": 23986,
    "advanced": 19587,
    "Ġharpooneer": 3773,
    "fare": 7799,
    "enjoy": 10773,
    "narrative": 17317,
    "Ġelixir": 26554,
    "stra": 4047,
    "Ġtea": 5041,
    "chari": 21687,
    "Ġbreathes": 13243,
    "Ġal": 342,
    "iction": 4270,
    "brown": 15315,
    "sor": 7353,
    "ished": 1425,
    "Ġhipp": 21490,
    "concern": 5875,
    "Ġtreble": 16502,
    "Ġintervene": 25480,
    "Ġfordham": 21774,
    "Ġwithdrawing": 11339,
    "Ġiteratively": 3055,
    "distrust": 19569,
    "kward": 6958,
    "Ġloathed": 15872,
    "Ġprejudiced": 24809,
    "made": 4808,
    "Ġgovernesses": 25127,
    "Ġmitt": 21306,
    "Ġabound": 8862,
    "Ġeclips": 20695,
    "Ġgoblets": 20517,
    "Ġrom": 4526,
    "Ġmisgivings": 15289,
    "Ġdespite": 19351,
    "Ġsufficiently": 8972,
    "Ġcran": 11997,
    "of": 770,
    "Ġtwisting": 18657,
    "Ġcod": 8412,
    "conclusive": 25673,
    "oko": 18440,
    "lins": 2027,
    "Ġpotent": 12061,
    "civilized": 17074,
    "Ġdevious": 22714,
    "remembered": 17349,
    "Ġsorry": 4212,
    "Ġfert": 15578,
    "Ġrested": 9377,
    "Ġobe": 5800,
    "Ġanytime": 12881,
    "inclined": 10638,
    "otions": 7181,
    "Ġoat": 21321,
    "ger": 1106,
    "ofs": 11827,
    "text": 1975,
    "Ġsermon": 12373,
    "Ġrolls": 8334,
    "altogether": 12635,
    "Ġklux": 22193,
    "Ġlengthwise": 10451,
    "confidential": 25876,
    "unusually": 15776,
    "professional": 20274,
    "pitch": 13296,
    "lined": 12480,
    "veral": 2355,
    "Ġsubjected": 23571,
    "Ġashes": 7617,
    "really": 6971,
    "Ġjourneys": 19473,
    "Ġdiscomposure": 20377,
    "dat": 1683,
    "paused": 17372,
    "Ġchurned": 18385,
    "Ġsanguinary": 25929,
    "affections": 17355,
    "Ġintercept": 14267,
    "Ġru": 948,
    "ruined": 18337,
    "Ġcunning": 6238,
    "Ġcovering": 13252,
    "answers": 22121,
    "book": 4670,
    "Ġimpending": 22382,
    "friendship": 24046,
    "Ġallen": 5160,
    "Ġlieutenant": 15259,
    "Ġchast": 18380,
    "suitableness": 26260,
    "Ġparamet": 608,
    "Ġjonah": 3480,
    "cu": 10082,
    "bell": 7333,
    "ping": 9614,
    "Ġvisitors": 7985,
    "------": 12130,
    "Ġinches": 5845,
    "Ġstout": 6025,
    "Ġproceeding": 9904,
    "bye": 5950,
    "Ġunclad": 22050,
    "reading": 12076,
    "Ġpremature": 3726,
    "gments": 12466,
    "Ġexposure": 16093,
    "franch": 24283,
    "Ġnormalizing": 1820,
    "rant": 11515,
    "kick": 20935,
    "Ġrearing": 12673,
    "Ġgathered": 8443,
    "Ġmust": 844,
    "utions": 1891,
    "Ġchain": 1844,
    "unicorn": 21887,
    "enough": 6809,
    "Ġfam": 1583,
    "approb": 11042,
    "Ġinnumerable": 13349,
    "waited": 24586,
    "dataset": 23248,
    "Ġjavel": 17083,
    "Ġabide": 14186,
    "Ġperson": 2370,
    "Ġnorth": 4320,
    "Ġattempting": 14694,
    "Ġegress": 21621,
    "Ġhis": 380,
    "surrounded": 26088,
    "Ġfrig": 13078,
    "Ġvess": 3295,
    "Ġimmort": 19482,
    "Ġwarmest": 16482,
    "Ġconsolidation": 5060,
    "Ġsy": 490,
    "Ġcapst": 8596,
    "Ġspat": 2666,
    "Ġhav": 12750,
    "Ġrain": 5005,
    "Ġsumm": 3353,
    "Ġphilosophy": 7103,
    "glancing": 11213,
    "Ġmeanly": 12905,
    "Ġdeformed": 14047,
    "arson": 22746,
    "Ġeligible": 10669,
    "Ġleg": 2337,
    "Ġdisease": 14256,
    "Ġmur": 2491,
    "Ġabridged": 26539,
    "Ġholidays": 22920,
    "Ġnupt": 13941,
    "ears": 20844,
    "Ġforge": 8456,
    "Ġunconsciously": 10003,
    "Ġmet": 1880,
    "amp": 2609,
    "Ġguardianship": 17418,
    "sentence": 2940,
    "Ġmock": 3692,
    "mankind": 14372,
    "Ġreleased": 2979,
    "Ġscandal": 9080,
    "absolute": 17121,
    "pie": 21010,
    "Ġrout": 7403,
    "ableness": 8149,
    "youn": 5690,
    "Ġsi": 21211,
    "Ġbracelets": 25502,
    "pagans": 25525,
    "Ġimprec": 14216,
    "Ġcongratulated": 19765,
    "jets": 20927,
    "mountain": 10712,
    "Ġstraggling": 23749,
    "Ġwhipcord": 20093,
    "stout": 21643,
    "Ġdegener": 14048,
    "enemy": 15524,
    "Ġwarehouses": 20416,
    "Ġrope": 4340,
    "shroud": 20311,
    "Ġslid": 7952,
    "Ġdemanding": 16804,
    "Ġsakes": 18326,
    "distant": 13332,
    "Ġeighty": 19474,
    "woman": 5899,
    "peril": 18343,
    "Ġintelligently": 3718,
    "anum": 17835,
    "Ġanother": 1738,
    "Ġgilt": 21604,
    "Ġgrin": 5482,
    "Ġpubl": 3942,
    "aphs": 22334,
    "Ġlargely": 14284,
    "endured": 22225,
    "eth": 620,
    "Ġsuffer": 4722,
    "Ġmonomania": 17084,
    "Ġ86": 24460,
    "int": 1197,
    "Ġtimber": 13347,
    "Ġstubbs": 23293,
    "bur": 4687,
    "Ġchest": 5185,
    "Ġcompos": 22567,
    "ousings": 18335,
    "Ġpainfully": 13140,
    "Ġcling": 11768,
    "Ġplates": 11005,
    "Ġscoundrel": 13668,
    "Ġ84": 19708,
    "turner": 19540,
    "Ġbenevolence": 9525,
    "abomin": 15738,
    "Ġrecover": 9787,
    "largely": 19573,
    "Ġpresc": 15922,
    "Ġbelief": 5855,
    "Ġlash": 8439,
    "Ġwint": 15530,
    "Ġfasting": 16353,
    "Ġdistinguished": 8273,
    "eded": 9672,
    "Ġacquire": 2724,
    "muttered": 13757,
    "ket": 17581,
    "Ġknitted": 19588,
    "Ġrumors": 11320,
    "Ġadvised": 16209,
    "Ġcommentaries": 20159,
    "Ġlonged": 6435,
    "gue": 12464,
    "Ġfluctuating": 24416,
    "Ġgestures": 13534,
    "vain": 15445,
    "st": 316,
    "aught": 2682,
    "overcome": 19049,
    "Ġflew": 5587,
    "Ġrasc": 21972,
    "sp": 894,
    "Ġcharacter": 2795,
    "departed": 24794,
    "walking": 9980,
    "Ġrifle": 18212,
    "plans": 21956,
    "Ġrib": 4936,
    "Ġuncont": 14114,
    "veh": 12677,
    "Ġbeg": 1282,
    "uendoes": 26406,
    "Ġfuriously": 9800,
    "unities": 15767,
    "Ġconnivance": 25225,
    "Ġdolph": 12377,
    "live": 7551,
    "Ġecho": 12664,
    "like": 1887,
    "Ġwork": 1320,
    "Ġcannibals": 10586,
    "Ġhill": 5626,
    "Ġfurlong": 18740,
    "Ġdisquiet": 18552,
    "relu": 17758,
    "Ġminds": 6303,
    "Ġdusting": 24597,
    "Ġeffemin": 18527,
    "Ġhospitality": 13511,
    "astonished": 15031,
    "Ġrudder": 25107,
    "Ġscorn": 7902,
    "delay": 16697,
    "blazing": 24130,
    "home": 7342,
    "Ġnight": 1463,
    "valu": 1716,
    "Ġitem": 12697,
    "Ġaqu": 17741,
    "certainly": 5339,
    "Ġdemon": 7870,
    "Ġsheets": 9720,
    "Ġlam": 21547,
    "Ġconfiding": 19036,
    "lid": 20944,
    "signs": 16537,
    "Ġtierce": 15476,
    "catch": 17505,
    "Ġxlix": 25860,
    "bred": 11468,
    "Ġbore": 5079,
    "Ġwhisper": 6205,
    "tossed": 10995,
    "Ġblankness": 24611,
    "Ġfollowing": 4064,
    "Ġsummer": 4790,
    "Ġheard": 1398,
    "stayed": 25290,
    "Ġarrog": 18339,
    "Ġrashly": 20304,
    "Ġsodden": 25535,
    "benefact": 24641,
    "Ġpeering": 8534,
    "Ġbread": 5404,
    "Ġmaddening": 17242,
    "Ġrestlessness": 23290,
    "Ġglove": 14490,
    "Ġnug": 21523,
    "Ġretreated": 13431,
    "Ġcinque": 20484,
    "Ġscold": 10949,
    "Ġmorris": 18849,
    "granting": 23412,
    "Ġcurling": 9339,
    "joined": 13273,
    "arness": 11669,
    "Ġdub": 13907,
    "Ġcautiously": 16976,
    "Ġdeserving": 14750,
    "Ġknighthood": 25297,
    "Ġfrederick": 15583,
    "Ġdepressed": 10882,
    "calabash": 22895,
    "Ġglorious": 11074,
    "Ġsnow": 3707,
    "Ġcrosswise": 18885,
    "Ġdiscipl": 22783,
    "atic": 4018,
    "enjoyments": 25433,
    "attentions": 13572,
    "knowledge": 7479,
    "Ġsafety": 6339,
    "Ġjan": 11759,
    "racted": 4776,
    "izings": 14042,
    "mistress": 14902,
    "Ġrocking": 10968,
    "natural": 2275,
    "Ġclue": 7020,
    "Ġslugg": 15266,
    "Ġjudgment": 5765,
    "pudding": 17646,
    "Ġfer": 5623,
    "Ġstrewed": 23420,
    "lose": 12878,
    "neighbourhood": 10023,
    "Ġconjecture": 9530,
    "Ġregent": 18591,
    "eter": 11619,
    "Ġphilipp": 23882,
    "Ġfolly": 7941,
    "Ġconcept": 662,
    "Ġsequential": 2132,
    "idy": 21762,
    "Ġweariness": 19793,
    "Ġpop": 5151,
    "Ġbison": 21386,
    "previous": 9758,
    "Ġcensus": 15094,
    "ley": 1816,
    "salesman": 20670,
    "Ġdepend": 794,
    "Ġinquired": 7486,
    "swaying": 25910,
    "erting": 17776,
    "wam": 10134,
    "istic": 1009,
    "Ġaquiline": 26159,
    "horse": 8605,
    "Ġwedged": 24069,
    "Ġgallantry": 15101,
    "Ġelevation": 14894,
    "Ġple": 1467,
    "Ġsharpened": 17363,
    "Ġsanct": 15063,
    "fluke": 25204,
    "Ġproduces": 2094,
    "Ġstooping": 13058,
    "women": 15454,
    "Ġtrembled": 8701,
    "similar": 13451,
    "Ġunfor": 15836,
    "Ġtelescopes": 25690,
    "Ġredu": 1353,
    "Ġsympath": 4861,
    "Ġprotruding": 16657,
    "offic": 7467,
    "Ġhabits": 6926,
    "quet": 6835,
    "conduct": 11794,
    "Ġrecede": 25968,
    "Ġfisher": 3223,
    "Ġhints": 8430,
    "Ġveteran": 17448,
    "Ġrh": 9242,
    "ailed": 3246,
    "Ġpennies": 17269,
    "Ġensl": 19273,
    "Ġeating": 8136,
    "baked": 20778,
    "Ġappal": 18356,
    "Ġfrighted": 24026,
    "Ġparr": 22117,
    "Ġbutler": 18270,
    "Ġbounded": 16625,
    "rels": 6664,
    "Ġcopying": 17067,
    "ship": 1391,
    "Ġeaglet": 19304,
    "Ġmalady": 24391,
    "je": 11494,
    "omon": 10205,
    "Ġacquaint": 13041,
    "Ġseize": 8166,
    "Ġalmost": 1656,
    "ppo": 18175,
    "kin": 7131,
    "Ġ108": 19683,
    "Ġtumble": 16878,
    "Ġdiffused": 12065,
    "Ġdisplays": 19856,
    "advance": 12153,
    "whence": 23214,
    "Ġdoesn": 7439,
    "Ġartfully": 22607,
    "spanish": 14329,
    "Ġmalay": 24390,
    "odes": 18116,
    "Ġtightly": 13532,
    "Ġuncivil": 11154,
    "Ġcode": 1722,
    "Ġspared": 7894,
    "Ġmill": 6666,
    "Ġtamely": 24979,
    "Ġsqueezing": 25006,
    "playful": 24356,
    "Ġ$": 21149,
    "Ġfre": 1568,
    "crew": 7545,
    "Ġuntrodden": 23521,
    "Ġcursory": 18847,
    "rougham": 15990,
    "Ġcolds": 23756,
    "lascar": 20959,
    "Ġchamounix": 14861,
    "ologies": 18772,
    "crossing": 19409,
    "Ġgrapp": 14099,
    "icket": 22666,
    "Ğ": 223,
    "Ġbakers": 17866,
    "Ġdivined": 19441,
    "Ġbreathed": 11219,
    "gazing": 12468,
    "vanity": 24976,
    "wives": 15453,
    "atement": 17772,
    "educated": 17258,
    "Ġbesee": 19242,
    "althy": 8432,
    "ient": 393,
    "Ġdard": 21421,
    "shuff": 18494,
    "ording": 9762,
    "Ġconsort": 18723,
    "Ġvinc": 14083,
    "Ġconquest": 15744,
    "etite": 21577,
    "Ġcontent": 5034,
    "21": 10070,
    "hedge": 22497,
    "Ġaught": 8772,
    "Ġmerchant": 6466,
    "Ġshifting": 12764,
    "anthrop": 17380,
    "possesses": 24617,
    "Ġunluck": 8484,
    "recover": 24623,
    "Ġbenjamin": 26566,
    "ario": 14246,
    "itarian": 21335,
    "Ġsli": 4748,
    "transition": 24509,
    "kindled": 16659,
    "itage": 17816,
    "forth": 9320,
    "are": 638,
    "Ġturn": 1296,
    "Ġchag": 15928,
    "odious": 21808,
    "Ġcontingency": 26244,
    "Ġslippers": 19614,
    "Ġhistorically": 19376,
    "Ġcrimson": 16440,
    "Ġscorched": 17100,
    "Ġtreating": 4285,
    "Ġchecked": 9374,
    "Ġcrash": 11998,
    "zetts": 17713,
    "Ġholland": 10364,
    "batt": 20777,
    "ription": 5676,
    "inquire": 16931,
    "_âĢĶâĢĻ": 13680,
    "Ġfunere": 22262,
    "dinah": 20079,
    "Ġtinkling": 25212,
    "Ġnocturn": 18375,
    "Ġmaking": 1781,
    "dec": 3113,
    "Ġtease": 18800,
    "ington": 21300,
    "Ġdemocracy": 25458,
    "Ġgipsies": 12405,
    "Ġplanet": 14747,
    "itar": 15543,
    "Ġintently": 8169,
    "Ġravine": 18649,
    "Ġunnaturally": 24870,
    "Ġrelaxed": 12980,
    "Ġhabitu": 19527,
    "Ġvict": 3763,
    "Ġfinanc": 23125,
    "Ġbarnacled": 25536,
    "ĠmanÅĵuv": 18417,
    "Ġdubious": 17381,
    "Ġdick": 3497,
    "skylight": 25623,
    "Ġloathing": 15067,
    "Ġwollstonecraft": 26424,
    "Ġdelicious": 14789,
    "encounter": 20390,
    "phants": 9318,
    "irited": 15783,
    "Ġclutched": 13517,
    "Ġmisconduct": 22760,
    "speaks": 19718,
    "acute": 22593,
    "voyage": 7786,
    "Ġsailing": 5323,
    "Ġsund": 8249,
    "circuit": 24187,
    "Ġreplacing": 3449,
    "Ġay": 15489,
    "Ġpartner": 6714,
    "scru": 16239,
    "Ġmerc": 9424,
    "Ġaffront": 18788,
    "Ġessentially": 24924,
    "Ġunctuousness": 17233,
    "benevolent": 15231,
    "Ġbreeds": 23347,
    "Ġunfathomably": 25873,
    "romang": 22003,
    "commanded": 16987,
    "Ġsed": 10760,
    "contriv": 19292,
    "introdu": 8936,
    "Ġdetached": 10278,
    "fulfilment": 26025,
    "Ġmischie": 22762,
    "retired": 11933,
    "pered": 4198,
    "Ġsqueeze": 10037,
    "Ġhop": 1459,
    "Ġhemis": 21682,
    "conveyed": 20519,
    "Ġprincip": 5599,
    "Ġstark": 7391,
    "Ġfate": 4754,
    "Ġr": 404,
    "concent": 19478,
    "ķ": 248,
    "Ġknown": 1640,
    "blows": 17164,
    "Ġnon": 1621,
    "lled": 10106,
    "Ġimputed": 12804,
    "Ġcreeping": 18685,
    "ution": 4351,
    "perquis": 22188,
    "Ġsmoothe": 23657,
    "Ġcuriously": 13006,
    "Ġwolves": 25934,
    "Ġprincely": 24146,
    "uy": 21098,
    "uries": 6147,
    "cop": 20800,
    "atives": 2236,
    "Ġ50": 24318,
    "Ġejaculated": 15167,
    "Ġinquis": 19303,
    "Ġabraham": 18395,
    "Ġreligious": 25121,
    "Ġoutline": 15951,
    "bidden": 19735,
    "suffer": 24332,
    "Ġenveloped": 12205,
    "Ġsal": 3940,
    "Ġquickly": 4243,
    "merit": 19280,
    "rians": 21923,
    "ice": 588,
    "Ġimprove": 1900,
    "Ġmanufactured": 22328,
    "flinging": 20867,
    "jammed": 25906,
    "Ġghostliness": 24651,
    "rain": 462,
    "Ġmorrow": 9341,
    "Ġvoc": 4452,
    "Ġseconds": 16397,
    "Ġvines": 12747,
    "aurs": 20768,
    "Ġcurbstone": 26042,
    "Ġcomforters": 25800,
    "mology": 12488,
    "Ġded": 2481,
    "Ġtimidly": 11337,
    "Ġshort": 2224,
    "Ġruthless": 15283,
    "Ġstands": 5258,
    "Ġcra": 2333,
    "accomplishment": 20222,
    "Ġsupper": 4666,
    "Ġpenetrating": 17010,
    "Ġmab": 12556,
    "ositories": 22261,
    "Ġcomfortable": 6095,
    "Ġages": 7028,
    "earliest": 20118,
    "wis": 12515,
    "Ġincurable": 22550,
    "Ġhighway": 14344,
    "Ġpredicted": 2045,
    "afternoon": 13185,
    "dying": 10693,
    "reject": 21235,
    "gal": 15353,
    "Ġslavish": 23172,
    "Ġsaintly": 25931,
    "tut": 15432,
    "Ġrowing": 10299,
    "Ġscruples": 15076,
    "://": 11464,
    "Ġbo": 797,
    "gpt": 5355,
    "Ġimpenit": 22386,
    "Ġmeasured": 9802,
    "Ġmyster": 5926,
    "raved": 18012,
    "Ġsain": 17749,
    "Ġpetulance": 24226,
    "Ġdown": 830,
    "ch": 321,
    "Ġpleasanter": 19067,
    "Ġconfining": 23303,
    "Ġ64": 24366,
    "aux": 14286,
    "Ġpeace": 3693,
    "vib": 21114,
    "Ġcoronet": 6344,
    "garnished": 26387,
    "Ġskills": 1839,
    "put": 414,
    "Ġviciss": 11291,
    "Ġto": 297,
    "Ġreasoner": 14439,
    "aiian": 23591,
    "Ġjun": 8505,
    "Ġpleasure": 2696,
    "Ġxxi": 24475,
    "Ġfrivolous": 26176,
    "Ġneuron": 1808,
    ",)": 9099,
    "Ġhurried": 4033,
    "Ġvault": 8839,
    "Ġaw": 2512,
    "Ġsickened": 16774,
    "Ġjournal": 15216,
    "Ġboarders": 16599,
    "Ġanomalous": 25637,
    "Ġkill": 4455,
    "Ġinflicted": 11364,
    "Ġmembrane": 20502,
    "Ġwhich": 504,
    "Ġseethe": 21954,
    "Ġrich": 2994,
    "Ġtelegraph": 25583,
    "scr": 16238,
    "Ġrecognised": 8991,
    "¬": 110,
    "beer": 22486,
    "Ġbitter": 4174,
    "Ġpleasurable": 23339,
    "Ġsized": 11561,
    "Ġlasted": 11052,
    "Ġbundles": 26175,
    "----": 4059,
    "Ġsus": 18276,
    "arians": 18523,
    "rench": 3969,
    "Ġleast": 2064,
    "mad": 5280,
    "Ġsounded": 8590,
    "Ġcleansed": 26293,
    "Ġsweep": 8266,
    "friends": 8306,
    "Ġmaintained": 12930,
    "disappo": 8983,
    "repeat": 25151,
    "Ġhunters": 6300,
    "Ġgroaned": 11265,
    "Ġabhorred": 9506,
    "omnipotent": 25964,
    "Ġcatch": 4442,
    "Ġlima": 10441,
    "Ġumb": 11644,
    "Ġdissatisfied": 14255,
    "Ġoffice": 4965,
    "Ġrealise": 16335,
    "Ġabsolut": 3913,
    "Ġderives": 16305,
    "ĠĠĠĠĠĠĠĠĠĠĠĠĠĠĠĠĠĠĠĠĠĠĠĠĠĠĠĠĠĠĠĠĠĠĠĠĠĠĠĠĠĠĠĠĠĠĠĠĠĠĠ": 20037,
    "Ġunearthly": 9035,
    "Ġcontour": 18474,
    "dwell": 15339,
    "Ġago": 3137,
    "eps": 12786,
    "Ġmicha": 17811,
    "dar": 20823,
    "Ġroot": 2652,
    "Ġindeed": 1680,
    "onday": 6064,
    "Ġott": 13864,
    "Ġtall": 4040,
    "Ġforfeit": 21773,
    "nearer": 22448,
    "Ġprecise": 7075,
    "Ġlongitude": 11010,
    "Ġcorre": 3888,
    "Ġpreternatural": 12819,
    "abeth": 906,
    "draw": 23896,
    "provid": 11148,
    "Ġboxed": 24359,
    "Ġaux": 21198,
    "Ġ19": 6719,
    "tail": 8761,
    "Ġsecrecy": 7317,
    "allers": 22195,
    "Ġshudder": 9049,
    "asol": 21538,
    "Ġgpus": 3733,
    "james": 15370,
    "infor": 3090,
    "Ġsqueaking": 26274,
    "Ġatt": 782,
    "presume": 25670,
    "Ġrails": 22657,
    "Ġbye": 12734,
    "icular": 2024,
    "Ġdonkey": 23225,
    "Ġbravest": 23838,
    "Ġincom": 9767,
    "Ġgeese": 7694,
    "Ġstammered": 26199,
    "Ġlock": 5928,
    "Ġoperation": 11995,
    "Ġstiggs": 25792,
    "Ġjost": 23630,
    "Ġblacks": 23386,
    "Ġwoeful": 19618,
    "Ġplu": 8797,
    "Ġadmit": 7711,
    "Ġpatched": 16358,
    "Ġfetched": 24566,
    "Ġsemantics": 2895,
    "onah": 3335,
    "Ġunrivalled": 26518,
    "Ġdelic": 4134,
    "breat": 10076,
    "_).": 5887,
    "quently": 9700,
    "parted": 21015,
    "Ġclock": 9531,
    "Ġty": 6657,
    "Ġslanting": 23171,
    "Ġshelf": 12264,
    "Ġunlabeled": 3800,
    "rut": 8092,
    "Ġmechanisms": 1573,
    "enormous": 26166,
    "Ġmature": 17799,
    "Ġsides": 4580,
    "Ġturbulence": 26596,
    "Ġtenderness": 12212,
    "Ġnearest": 8469,
    "thought": 3849,
    "âĢĶ_": 3201,
    "Ġeasterly": 25962,
    "Ġsmith": 16061,
    "pick": 17633,
    "Ġbenignity": 18782,
    "broker": 13302,
    "Ġfins": 9662,
    "she": 1396,
    "tis": 4105,
    "Ġfists": 15579,
    "Ġwhereof": 16099,
    "print": 23809,
    "Ġmaterials": 11287,
    "Ġstrangely": 5677,
    "ilent": 21718,
    "Ġresource": 10992,
    "relatively": 24011,
    "Ġmales": 17805,
    "Ġbeing": 1163,
    "Ġspirits": 3698,
    "Ġleakage": 23458,
    "eray": 21265,
    "Ġassistant": 7299,
    "Ġsucking": 12781,
    "Ġdeployment": 11200,
    "count": 4215,
    "Ġdef": 1199,
    "Ġadvers": 4887,
    "Ġcompassionate": 24723,
    "Ġdistingu": 2516,
    "hastened": 16844,
    "Ġlandsmen": 11350,
    "Ġdiversity": 25284,
    "Ġshiny": 14104,
    "Ġsaturation": 2062,
    "Ġfatt": 15575,
    "Ġrude": 7235,
    "Ġevenness": 22832,
    "Ġgemin": 21608,
    "sheep": 23085,
    "Ġvictim": 6098,
    "âĢĿ--": 21814,
    "Ġminuteness": 19138,
    "Ġdivineness": 25724,
    "Ġmarvellous": 7539,
    "Ġcorps": 13029,
    "Ġbeams": 14629,
    "Ġexactly": 2769,
    "elev": 12455,
    "Ġteacher": 22909,
    "legra": 10788,
    "Ġmended": 21312,
    "Ġabrid": 22270,
    "Ġenlarge": 21933,
    "breckinridge": 24073,
    "Ġpromethe": 14466,
    "everything": 6324,
    "tern": 4225,
    "Ġweb": 9238,
    "position": 15411,
    "Ġobjective": 3767,
    "Ġmark": 2332,
    "Á": 130,
    "âĢĿ)": 21812,
    "âĢĶâĢĺ_": 24831,
    "shock": 19854,
    "Ġpequod": 2322,
    "impe": 21706,
    "nowledge": 10288,
    "Ġtheoretic": 23307,
    "incom": 21180,
    "Ġcarpenter": 4685,
    "Ġethiop": 26155,
    "Ġconclusions": 10552,
    "Ġobjections": 8564,
    "Ġmichael": 20678,
    "Ġcentral": 7728,
    "dering": 5305,
    "Ġuniform": 2225,
    "Ġhermits": 22072,
    "Ġreporting": 24657,
    "gentlemen": 9502,
    "Ġvanity": 7045,
    "Ġpreyed": 18366,
    "land": 1528,
    "Ġgrapple": 25811,
    "Ġwindward": 6885,
    "Ġpulling": 5862,
    "Ġspade": 9257,
    "runs": 25415,
    "Ġsickness": 10537,
    "scruple": 26044,
    "Ġs": 265,
    "Ġswam": 6447,
    "mal": 6794,
    "Ġtechnical": 17190,
    "roded": 17955,
    "Ġreader": 11931,
    "eneva": 5118,
    "Ġclose": 3035,
    "flow": 2205,
    "surround": 16757,
    "Ġfamil": 4321,
    "Ġremember": 2680,
    "Ġcorrect": 2433,
    "Ġswan": 23049,
    "Ġnursery": 19749,
    "upwards": 18863,
    "Ġclipping": 2441,
    "Ġrepresentations": 1877,
    "Ġcenturies": 8622,
    "Ġthinnest": 24182,
    "Ġdifficult": 3570,
    "yed": 3272,
    "Ġcommenting": 25228,
    "sadly": 25526,
    "surv": 24212,
    "asible": 21540,
    "Ġsnarl": 25715,
    "maltese": 24795,
    "Ġtreacle": 14593,
    "Ġrealised": 18980,
    "Ġmounts": 17806,
    "hers": 7636,
    "bation": 9101,
    "Ġobserve": 4671,
    "involuntarily": 20413,
    "much": 3706,
    "Ġapparently": 6778,
    "Ġtart": 12524,
    "Ġsatir": 18794,
    "Ġcol": 1060,
    "uger": 21102,
    "angels": 22104,
    "Ġcit": 10782,
    "scenes": 16240,
    "Ġbeadle": 26483,
    "butt": 15991,
    "examine": 25477,
    "Ġmus": 3396,
    "dogs": 25402,
    "Ġgenerally": 4159,
    "Ġlean": 7606,
    "fic": 20851,
    "stache": 15686,
    "Ġcaul": 10786,
    "Ġamounts": 6704,
    "Ġsacrificed": 17420,
    "iards": 17573,
    "Ġdromedary": 17437,
    "Ġspinning": 15051,
    "Ġlethargy": 26482,
    "Ġbrows": 13298,
    "mat": 2197,
    "iling": 3094,
    "Ġfeasible": 22209,
    "arched": 10814,
    "Ġpreferment": 19852,
    "Ġgreenland": 5761,
    "Ġremarks": 7475,
    "ensity": 11810,
    "innocence": 15181,
    "Ġunlocking": 20705,
    "Ġpretend": 7722,
    "Ġwasting": 12724,
    "Ġquakers": 22414,
    "och": 21000,
    "lamp": 9607,
    "Ġserpent": 6737,
    "Ġafrica": 12342,
    "Ġclattering": 22353,
    "atoes": 17774,
    "agon": 7872,
    "Ġsparkled": 13460,
    "Ġspilled": 10924,
    "Ġat": 395,
    "Ġoccurrence": 14380,
    "penny": 22943,
    "Ġswore": 10377,
    "deployment": 26526,
    "Ġherself": 1564,
    "Ġmariners": 6068,
    "Ġphilipses": 24451,
    "confusion": 13367,
    "Ġboldly": 9499,
    "Ġrapt": 7228,
    "ruded": 15894,
    "Ġchowder": 10279,
    "jeroboam": 25619,
    "Ġdreaming": 11222,
    "decoder": 3643,
    "Ġquoin": 22416,
    "Ġsettling": 11061,
    "Ġvulgar": 13602,
    "Ġsuccor": 25662,
    "Ġrefresh": 10344,
    "Ġlords": 14639,
    "Ġconfounded": 16379,
    "writ": 16551,
    "gracious": 11828,
    "ober": 15404,
    "abode": 21789,
    "Ġarray": 12806,
    "vices": 21115,
    "Ġmonday": 6127,
    "Ġsorely": 17255,
    "Ġhawk": 15171,
    "Ġbilliard": 16688,
    "Ġthirt": 13937,
    "H": 44,
    "ensions": 14257,
    "Ġconsolation": 6208,
    "alse": 4185,
    "Ġbachel": 7159,
    "Ġgirdled": 19157,
    "Ġmedium": 16680,
    "cely": 3573,
    "Ġdere": 21833,
    "stripped": 16944,
    "Ġforgetting": 3435,
    "icha": 11735,
    "ios": 2173,
    "Ġreverse": 16981,
    "Ġrode": 15994,
    "'m": 9581,
    "mitted": 5213,
    "Ġsnugness": 20075,
    "inglass": 21301,
    "Ġleaps": 14006,
    "mountains": 15178,
    "ĠĠ": 353,
    "mod": 1034,
    "Ġplease": 4723,
    "ounded": 9746,
    "Ġvort": 18193,
    "Ġlanguages": 1566,
    "output": 4402,
    "Ġreferences": 21672,
    "Ġirretrie": 23372,
    "Ġthrill": 24540,
    "weep": 22682,
    "Ġsituations": 10490,
    "dev": 7632,
    "Ġrinal": 21975,
    "Ġfind": 1456,
    "oof": 15403,
    "Ġinventing": 24861,
    "Ġnarrated": 14868,
    "Ġwrist": 8243,
    "Ġaust": 4871,
    "Ġbaboon": 19692,
    "Ġimpress": 6862,
    "dress": 17519,
    "abs": 11665,
    "ze": 1315,
    "itancy": 21331,
    "Ġblasphemy": 26115,
    "Ġultimate": 12346,
    "Ġsympathised": 14859,
    "Ġcredit": 4818,
    "Ġambergris": 8705,
    "Ġappl": 1658,
    "raint": 18317,
    "qu": 368,
    "bad": 12433,
    "Ġrenowned": 26193,
    "icing": 9199,
    "noted": 22747,
    "Ġbasement": 24702,
    "sence": 3305,
    "hig": 12471,
    "rasing": 21044,
    "tch": 9140,
    "Ġexpanding": 25238,
    "ĠâĢĺ_": 11116,
    "inisc": 15486,
    "Ġrates": 1402,
    "wandered": 20284,
    "umblings": 23927,
    "Ġimages": 1598,
    "vol": 724,
    "Ġrecorded": 11292,
    "day": 1860,
    "Ġpreser": 6041,
    "Ġsaratoga": 26422,
    "lab": 3456,
    "abashed": 21790,
    "Ġegyptians": 25289,
    "Ġfleshy": 24615,
    "Ġcreaking": 14326,
    "Ġharsh": 9519,
    "leagues": 21371,
    "Ġlapse": 17119,
    "Ġcanallers": 13625,
    "attered": 4019,
    "Ġtransp": 4770,
    "aven": 8209,
    "Ġnur": 5710,
    "Ġburying": 19251,
    "itted": 2442,
    "Ġlower": 2664,
    "Ġmonosy": 18850,
    "Ġembrace": 16989,
    "Ġacid": 22680,
    "Ġdut": 2989,
    "Ġwith": 349,
    "ĠĠĠĠĠĠĠĠĠĠĠĠĠĠĠĠĠĠĠĠĠĠĠĠĠĠĠĠĠĠĠĠĠĠĠĠĠĠ": 16524,
    "cra": 6354,
    "istered": 14143,
    "Ġperceiving": 8874,
    "Ġchinks": 22249,
    "Ġmanaging": 22323,
    "Ġperformed": 8546,
    "jur": 17577,
    "ahead": 12431,
    "Ġintimate": 6549,
    "Ġced": 10783,
    "Ġgoethe": 22422,
    "Ġdoubtful": 19141,
    "_.âĢĿ": 5886,
    "venge": 4659,
    "Ġanointing": 25539,
    "Ġpreposterous": 13667,
    "hundreds": 25073,
    "licted": 20955,
    "Ġspasmodic": 20396,
    "Ġloun": 7167,
    "Ġconsequent": 18110,
    "Ġspinal": 12299,
    "Ġetext": 23947,
    "Ġrapturously": 24888,
    "Ġhence": 4989,
    ")âĢĶâĢľ": 20742,
    "Ġpredictions": 1454,
    "Ġchance": 3316,
    "ju": 13739,
    "Ġringed": 16749,
    "Ġpots": 9426,
    "bodily": 17313,
    "parlour": 16383,
    "Ġpossibility": 7459,
    "Ġlodge": 5779,
    "sprit": 11381,
    "Ġboscombe": 8326,
    "Ġledger": 19400,
    "Ġconstrued": 26301,
    "Ġspans": 18304,
    "Ġcontinuing": 14395,
    "ructed": 7027,
    "Ġexhib": 6349,
    "Ġexplore": 15905,
    "Ġtwinkle": 12320,
    "Ġfainting": 16896,
    "Ġcertainty": 6734,
    "Ġusurpation": 18361,
    "Ġjago": 22297,
    "Ġbrings": 11877,
    "Ġmaterial": 5178,
    "itous": 13865,
    "forgetting": 25485,
    "Ġnumber": 1983,
    "Ġwhom": 1830,
    "Ġquenched": 22415,
    "Ġpunctures": 25133,
    "unwholesome": 26496,
    "Ġdisordered": 16052,
    "Ġcheat": 19019,
    "Ġcomparing": 14263,
    "Ġyoungster": 23178,
    "ubbub": 23242,
    "Ġful": 4298,
    "Ġleviathan": 3288,
    "Ġhay": 11603,
    "Ġfringe": 17270,
    "Ġhappens": 2187,
    "clergy": 18933,
    "acter": 2509,
    "swear": 16917,
    "Ġcolonial": 22858,
    "ion": 296,
    "Ķ": 247,
    "Ġwhistle": 9065,
    "Ġdiligent": 25075,
    "Ġstim": 18063,
    "ython": 1032,
    "Ġlumber": 13950,
    "evenings": 19461,
    "helm": 12168,
    "presbyter": 20616,
    "ying": 1364,
    "Ġwarned": 16879,
    "surf": 24211,
    "Ġhappiness": 2946,
    "Ġhereabouts": 12973,
    "Ġsurvivor": 17361,
    "Ġindefinite": 17175,
    "plete": 10918,
    "Ġcooked": 13267,
    "Ġsuperstitious": 13518,
    "remem": 13063,
    "appalled": 18762,
    "Ġvine": 8471,
    "Ġmomentous": 16169,
    "Ġweaving": 12736,
    "sincere": 16906,
    "war": 6802,
    "Ġtattered": 21170,
    "Ġirregularly": 25323,
    "ô": 181,
    "Ġdece": 6996,
    "itaries": 21334,
    "Ġmanifold": 13558,
    "hunting": 24384,
    "Ġtoken": 2039,
    "sil": 5282,
    "Ġvaried": 11845,
    "upon": 2722,
    "venison": 22625,
    "mentioned": 10622,
    "aloons": 20009,
    "mbling": 3343,
    "Ġbulldog": 23857,
    "Ġbur": 2699,
    "Ġcounterbalance": 24722,
    "ppered": 15787,
    "skinned": 25387,
    "Ġcontinuation": 22916,
    "Ġthroats": 24574,
    "Ġstorms": 11261,
    "._": 3221,
    "stein": 5505,
    "wonder": 6371,
    "Ġimpelling": 22383,
    "Ġputting": 5326,
    "Ġsovere": 9254,
    "fins": 13717,
    "may": 3679,
    "Ġmuhammad": 26169,
    "Ġhip": 17920,
    "never": 3153,
    "senses": 25022,
    "Ġproofs": 19813,
    "Ġsignify": 16493,
    "aky": 18411,
    "rom": 420,
    "Ġswimmer": 19457,
    "Ġblinded": 13268,
    "Ġcrazy": 8592,
    "Ġhove": 17922,
    "Ġminded": 23227,
    "Ġunreserved": 19395,
    "Ġha": 400,
    "Ġerrand": 11084,
    "Ġdisgu": 8206,
    "Ġsurpasses": 25268,
    "Ġcrop": 10161,
    "Ġmember": 8585,
    "Ġnieces": 8433,
    "Ġharem": 9707,
    "Ġignorant": 5343,
    "crippled": 26383,
    "Ġtren": 17720,
    "loath": 22507,
    "othed": 16509,
    "completely": 12417,
    "Ġgoverned": 23570,
    "Ġresearch": 3143,
    "tailed": 17684,
    "Ġ2": 2930,
    "ization": 486,
    "shad": 10981,
    "uit": 8393,
    "proof": 16421,
    "estation": 15917,
    "Ġbuckets": 17033,
    "Ġ123": 24467,
    "Ġrepe": 3280,
    "Ġsunken": 14492,
    "Ġfiss": 21411,
    "Ġhiss": 15784,
    "Ġcurds": 22966,
    "Ġaccidental": 16847,
    "Ġdigress": 24648,
    "ground": 4672,
    "tashtego": 9621,
    "Ġlogical": 14485,
    "Ġdisinterested": 16054,
    "Ġfare": 5809,
    "Ġchances": 9261,
    "Ġemer": 5959,
    "explained": 23138,
    "riend": 1186,
    "Ġdelights": 14594,
    "Ġacted": 7423,
    "Ġpatterns": 1211,
    "Ġcar": 1418,
    "herfield": 3629,
    "iating": 3207,
    "Ġinfall": 7965,
    "allowing": 24357,
    "Ġluxuries": 25163,
    "sher": 5217,
    "stolen": 13980,
    "Ġcouns": 10519,
    "ug": 1768,
    "Ġlomb": 21557,
    "Ġoverwhelm": 25052,
    "Ġlegisl": 23534,
    "Ġyours": 4124,
    "Ġhapless": 15809,
    "Ġmonument": 16236,
    "fing": 13711,
    "uge": 4017,
    "Ġspanish": 2829,
    "cart": 10687,
    "Ġaltered": 7394,
    "Ġmouth": 3181,
    "worse": 14688,
    "midnight": 14897,
    "burnt": 20078,
    "took": 6164,
    "Ġconversations": 9423,
    "ladder": 19783,
    "aside": 10190,
    "Ġavocation": 23950,
    "Ġoffences": 18693,
    "terrors": 25041,
    "riage": 2124,
    "Ġappropriate": 2249,
    "ulating": 10886,
    "sal": 8757,
    "Ġcheered": 16367,
    "Ġanaly": 1117,
    "Ġnewspaper": 12361,
    "scot": 14414,
    "hill": 15360,
    "injustice": 17736,
    "Ġhousings": 21491,
    "acquired": 24295,
    "oak": 21002,
    "Ġstarted": 4150,
    "ot": 346,
    "Ġre": 317,
    "inno": 10755,
    "Ġstorm": 4302,
    "elihood": 4623,
    "tempered": 13444,
    "secre": 18127,
    "olently": 15750,
    "Ġdisapprobation": 16055,
    "travel": 24315,
    "hopeless": 16916,
    "Ġemail": 19074,
    "falgar": 26130,
    "Ġsang": 12531,
    "os": 524,
    "Ġjumbled": 22295,
    "ding": 1230,
    "Ġgrowth": 14627,
    "Ġdiff": 3116,
    "vinegar": 25420,
    "rer": 3621,
    "Ġorgan": 2505,
    "Ġfacial": 10604,
    "Ġspread": 5161,
    "Ġcapting": 23019,
    "although": 8804,
    "Ġimmensely": 13593,
    "Ġprotested": 9932,
    "Ġmaybe": 12945,
    "Ġparticular": 2449,
    "Ġgenus": 24428,
    "Ġane": 9180,
    "Ġpreliminaries": 25176,
    "paradise": 20634,
    "ival": 4228,
    "Ġcomplacency": 19446,
    "Ġseal": 10253,
    "Ġfinishing": 23122,
    "Ġforeshadowing": 26591,
    "Ġsurmises": 17054,
    "Ġstates": 1853,
    "force": 12956,
    "Ġbecome": 3159,
    "Ġconjectures": 16924,
    "Ġvor": 15803,
    "sailor": 14712,
    "Ġinhale": 20299,
    "memory": 13615,
    "Ġstrove": 9955,
    "Ġastonished": 7087,
    "seems": 10874,
    "Ġperseverance": 13595,
    "Ġintruder": 25991,
    "Ġratio": 5066,
    "uff": 2731,
    "Ġfought": 12589,
    "Ġbordering": 17227,
    "startled": 24941,
    "shattered": 22461,
    "Ġcravat": 26307,
    "andy": 8158,
    "Ġdeterm": 1270,
    "Ġexaggerated": 25650,
    "Ġont": 18120,
    "emorial": 10242,
    "Ġrevolved": 9982,
    "unbounded": 21883,
    "Ġsalary": 13291,
    "Ġnorthwards": 19545,
    "Ġparm": 15874,
    "Ġfossiliferous": 25609,
    "Ġrivals": 20270,
    "Ġascertained": 25296,
    "Ġhind": 9187,
    "Ġbask": 8117,
    "Ġdrows": 21434,
    "Ġmot": 2986,
    "Ġrisen": 9491,
    "Ġpugn": 21479,
    "Ġ97": 19773,
    "bbing": 6323,
    "interval": 7991,
    "bar": 7542,
    "rudence": 7092,
    "Ġgrown": 5628,
    "uel": 6966,
    "Ġrascally": 26505,
    "Ġpeaks": 16125,
    "Ġdelineate": 26057,
    "cable": 20796,
    "if": 376,
    "Ġlangs": 13952,
    "clear": 9022,
    "ricted": 15418,
    "ancho": 4938,
    "Ġuncork": 23428,
    "imson": 12685,
    "Ġword": 1053,
    "vig": 15444,
    "Ġdrowned": 9550,
    "Ġorganically": 3011,
    "Ġsandwich": 19827,
    "eridge": 15523,
    "Ġgoing": 2066,
    "Ġinsolent": 13598,
    "Ġpitched": 9442,
    "Ġtandem": 26410,
    "Ġacquirement": 19254,
    "Ġasph": 21896,
    "Ġopenshaw": 7955,
    "fit": 6645,
    "Ġexord": 21826,
    "Ġreport": 6191,
    "Ġscraping": 13414,
    "Ġmysticetus": 24922,
    "Ġundoubted": 19513,
    "mons": 17599,
    "Ġgifts": 21610,
    "Ġclanging": 18423,
    "Ġaccompanied": 6780,
    "Ġhesitate": 16945,
    "ĠĠĠĠĠĠĠĠĠĠĠĠĠĠĠĠĠĠĠĠĠĠĠĠĠĠĠĠĠĠĠĠ": 2738,
    "Ø": 153,
    "Ġtearing": 14393,
    "mers": 9609,
    "unwillingness": 25802,
    "Ġclubb": 22350,
    "umb": 3478,
    "Ġsweatings": 25710,
    "Ġdesiring": 14411,
    "Ġguido": 2978,
    "Ġspikes": 22135,
    "Ġju": 10285,
    "Ġaffinity": 18787,
    "apsed": 6295,
    "Ġfalling": 6915,
    "Ġprecipices": 12274,
    "cannibals": 25584,
    "Ġindulged": 13415,
    "Ġvenge": 5420,
    "Ġlament": 7857,
    "reporting": 24493,
    "kers": 7132,
    "sombre": 23852,
    "ognit": 19172,
    "Ġfragments": 19027,
    "mas": 5212,
    "edged": 15627,
    "Ġtransitory": 16015,
    "Ġpossessed": 5195,
    "iness": 1281,
    "ingle": 1041,
    "rints": 12499,
    "Ġsoap": 14131,
    "Ġdesisted": 22976,
    "Ġdriver": 16472,
    "peculiarities": 13469,
    "fatig": 17088,
    "rarely": 21632,
    "Ġtoad": 21508,
    "eel": 11482,
    "weight": 2941,
    "Ġknee": 7093,
    "Ġbildad": 3782,
    "Ġstayed": 7998,
    "Ġerad": 25028,
    "Ġknights": 15147,
    "moonlight": 25375,
    "mm": 674,
    "insupportable": 21192,
    "Ġstole": 7953,
    "Ġassembly": 10641,
    "intervals": 10636,
    "Ġnapoleon": 20556,
    "Ġstow": 21728,
    "Ġcapstan": 9097,
    "enged": 23146,
    "desolation": 20448,
    "language": 5129,
    "Ġcomes": 3423,
    "Ġinvolve": 11040,
    "Ġbouquet": 20682,
    "Ġhereford": 22874,
    "owners": 16083,
    "icide": 11616,
    "Ġone": 569,
    "size": 15422,
    "Ġlucas": 3833,
    "shells": 26056,
    "Ġeternities": 19941,
    "Ġstrongest": 11134,
    "Ġcolumns": 14374,
    "Ġhig": 755,
    "Ġgul": 7860,
    "Ġhorrid": 7999,
    "insisted": 23065,
    "Ġattentively": 9948,
    "Ġsensit": 2947,
    "Ġcircumstance": 4987,
    "Ġap": 5008,
    "an": 278,
    "ribbed": 16410,
    "Ġfowler": 16936,
    "Ġener": 10895,
    "Ġruskin": 25808,
    "announced": 19758,
    "Ġfisherman": 12072,
    "Ġapoplexy": 25265,
    "Ġalternating": 15029,
    "Ġsubsequently": 16157,
    "Ġequatorial": 13507,
    "Ġcalmness": 12089,
    "Ġwails": 21295,
    "unned": 21876,
    "month": 6462,
    "Ġcaress": 16337,
    "comfort": 5647,
    "feelings": 5674,
    "Ġvitality": 15170,
    "Ġbeware": 8826,
    "Ġbehalf": 14503,
    "ried": 926,
    "Ġcopse": 17066,
    "handled": 19260,
    "profound": 16423,
    "Ġcurios": 18846,
    "_,âĢĻâĢĿ": 20399,
    "Ġyet": 1029,
    "uss": 8763,
    "Ġtrials": 16788,
    "Ġdetection": 3383,
    "separated": 20158,
    "Ġfollows": 7674,
    "Ġcrowding": 13277,
    "orte": 14183,
    "Ġrelation": 2141,
    "gracechurch": 24580,
    "nourished": 26397,
    "aire": 10679,
    "Ġdistributes": 4196,
    "Ġdraws": 19434,
    "plague": 21957,
    "Ġcontradict": 12382,
    "Ġmob": 16014,
    "Ġcontradictory": 20395,
    "cottagers": 20046,
    "Ġwretch": 6377,
    "Ġtool": 21509,
    "pred": 2803,
    "Ġtemptations": 24504,
    "ribs": 23364,
    "Ġequalled": 13310,
    "Ġcopestone": 24936,
    "Ġinherited": 25353,
    "Ġraw": 3319,
    "Ġburglar": 17353,
    "Ġexulting": 20257,
    "Ġtorture": 9064,
    "Ġboiling": 8525,
    "ivened": 22968,
    "Ġrounding": 16272,
    "cork": 20795,
    "tend": 17673,
    "Ġstrip": 9419,
    "Ġcommonplace": 11095,
    "assured": 10951,
    "Ġmeth": 1447,
    "Ġtrim": 15959,
    "thin": 14095,
    "Ġstricken": 9774,
    "Ġperish": 8873,
    "51": 12428,
    "arranted": 19319,
    "conceal": 25114,
    "Ġbrut": 18767,
    "pronounce": 25192,
    "Ġphilosoph": 19650,
    "orton": 11753,
    "Ġpilgrim": 25599,
    "Ġcomplete": 4383,
    "Ġcared": 8781,
    "Ġseveral": 2675,
    "Ġbec": 1349,
    "grey": 14909,
    "Ġflaming": 8563,
    "Ġzoned": 22818,
    "ated": 732,
    "Ġbeyond": 2458,
    "Ġaimed": 20249,
    "Ġconfinement": 19037,
    "Ġflock": 21410,
    "Ġneutral": 12737,
    "Ġsmothe": 18573,
    "erest": 10696,
    "à": 161,
    "Ġflexible": 23774,
    "ome": 535,
    "rove": 21531,
    "rodden": 21533,
    "Ġoutskirts": 17455,
    "Ġcontemplative": 19892,
    "Ġxxii": 24477,
    "Ġindisposed": 26287,
    "writing": 7721,
    "Ġunjust": 8483,
    "incidentally": 20538,
    "1775": 26377,
    "back": 2018,
    "market": 16838,
    "Ġmustering": 18662,
    "Ġathirst": 20597,
    "Ġunprincipled": 20707,
    "Ġwhose": 2010,
    "Ġscreaming": 13421,
    "Ġlads": 8597,
    "Ġbestow": 6454,
    "fooled": 24418,
    "Ġdoubtless": 6195,
    "Ġproperties": 3119,
    ".âĢĶ": 4250,
    "ners": 3271,
    "turns": 14903,
    "Ġsinners": 18949,
    "Ġlav": 13948,
    "exceedingly": 9565,
    "Ġdozing": 22241,
    "regard": 7974,
    "hecy": 21205,
    "handed": 7483,
    "Ú": 155,
    "Ġdipped": 15591,
    "Ġinexplicable": 12253,
    "adv": 4538,
    "distinctive": 25726,
    "Ġindefinitely": 25221,
    "rob": 5533,
    "wrinkled": 16552,
    "Ġcorrespondence": 10593,
    "Ġborders": 15568,
    "Ġslipper": 24264,
    "vitiated": 25754,
    "ded": 2422,
    "Ġprobed": 18733,
    "deepest": 22825,
    "Ġintroduce": 3205,
    "achable": 14136,
    "Ġmarlingspike": 26578,
    "mering": 12487,
    "Ġdavis": 25952,
    "Ġwhistled": 24624,
    "Ġremark": 2146,
    "eland": 11618,
    "Ġpunishment": 9954,
    "awful": 23113,
    "ached": 2321,
    "Ġcrossed": 6069,
    "Ġult": 9073,
    "Ġaspects": 4175,
    "Ġgrassy": 24378,
    "Ġparson": 6687,
    "need": 10978,
    "pond": 21012,
    "Ġexcessively": 9438,
    "accompl": 9878,
    "Ġpush": 9183,
    "Ġorthodox": 22093,
    "izard": 10878,
    "sensations": 20049,
    "Ġreadability": 2725,
    "derstand": 652,
    "ete": 9202,
    "nnight": 20992,
    "Ġinvolving": 18756,
    "Ġneat": 6999,
    "quarried": 24945,
    "rebellum": 26165,
    "£": 101,
    "Ġconvenient": 8346,
    "Ġparad": 2844,
    "cask": 12443,
    "Ġhurry": 4913,
    "harbor": 13562,
    "alty": 17938,
    "limbs": 20190,
    "Ġopposed": 11187,
    "Ġhaw": 10250,
    "Ġinsc": 7586,
    "Ġsummit": 7731,
    "disappointment": 11424,
    ";âĢĿ": 7791,
    "itt": 570,
    "Ġignorance": 6618,
    "Ġgreedy": 3051,
    "ising": 2254,
    "Ġchanged": 5243,
    "Ġinsist": 9888,
    "Ġsupple": 22999,
    "Ġdissipate": 13631,
    "Ġlakeman": 6986,
    "ksome": 10103,
    "Ġlace": 13947,
    "Ġmemories": 14539,
    "streets": 13393,
    "Ġgravesend": 15214,
    "ittered": 18439,
    "Ġresol": 2667,
    "Ġphysiology": 25332,
    "Ġmaps": 2963,
    "Ġblank": 5951,
    "ack": 611,
    "lynes": 15700,
    "ď": 208,
    "nest": 10112,
    "Ġdella": 21438,
    "Ġbunger": 9994,
    "Ġethics": 15460,
    "Ġhearken": 21683,
    "aying": 15746,
    "Ġhelm": 5275,
    "Ġensu": 7876,
    "Ġshutter": 16669,
    "Ġfacility": 19849,
    "Ġhaughty": 11448,
    "gangway": 20666,
    "Ġsadness": 13284,
    "prosperity": 20734,
    "Ġshin": 18227,
    "Ġracket": 22658,
    "Ġjunks": 25113,
    "Ġrug": 16154,
    "appears": 12057,
    "half": 4931,
    "Ġdilig": 8350,
    "bolts": 11419,
    "braces": 24658,
    "Ġblooming": 17211,
    "assed": 6420,
    "amore": 21841,
    "Ġreappeared": 21663,
    "Ġrubbed": 12951,
    "grown": 10098,
    "========": 2312,
    "Ġfurnished": 6474,
    "queens": 22904,
    "details": 19674,
    "Ġbefallen": 12340,
    "Ġdistant": 5387,
    "Ġlocal": 1198,
    "Ġdisturbed": 8671,
    "society": 9970,
    "[": 63,
    "feature": 4231,
    "Ġexcursion": 26588,
    "Ġjoosy": 23631,
    "Ġmuscle": 14687,
    "Ġquartered": 20371,
    "Ġnature": 2541,
    "Ġharmony": 16813,
    "Ġweaver": 11685,
    "Ġloved": 4600,
    "dict": 15337,
    "Ġcontextual": 3743,
    "comra": 16166,
    "Ġfedallah": 6108,
    "Ġmeetings": 16531,
    "tea": 18741,
    "ys": 3961,
    "uesday": 8587,
    "Ġcastle": 14714,
    "children": 9054,
    "ompl": 4537,
    "renewed": 19703,
    "Ġphilosopher": 12180,
    "Ġprompt": 3190,
    "going": 6313,
    "Ġyojo": 7611,
    "orange": 21398,
    "Ġimpelled": 11779,
    "immediate": 20092,
    "Ġscrib": 22281,
    "riers": 18182,
    "complain": 14355,
    "Ġadmission": 23554,
    "Ġhoney": 12628,
    "Ġhumor": 11050,
    "Ġaspect": 3097,
    "mock": 5174,
    "Ġupon": 718,
    "Ġdeft": 21835,
    "Ġselecting": 16683,
    "Ġcough": 11579,
    "lection": 3651,
    "Ġinsists": 23677,
    "tolerably": 21094,
    "ety": 3520,
    "Ġcurved": 18845,
    "Ġtransactions": 18481,
    "Ġguidance": 9415,
    "ivot": 11715,
    "Ġmin": 1027,
    "Ġblowing": 10483,
    "Ġsod": 11560,
    "bourine": 9394,
    "Ġ5": 4935,
    "Ġhieroglyphic": 25587,
    "rane": 17652,
    "victim": 25530,
    "uns": 21868,
    "Ġconquer": 14025,
    "Ġmildly": 9028,
    "capital": 15086,
    "Ġpenalty": 1841,
    "Ġderiv": 1737,
    "impression": 15707,
    "istical": 8489,
    "actions": 8905,
    "Ġlodging": 24091,
    "rudent": 6481,
    "Ġsen": 9155,
    "bering": 18681,
    "Ġjewel": 9940,
    "lingering": 18601,
    "izes": 886,
    "des": 1563,
    "Ġpredefined": 20717,
    "Ġfastidious": 14491,
    "Ġchristmas": 6924,
    "chard": 21685,
    "Ġfrancis": 26063,
    "Ġdeser": 3887,
    "Ġmagg": 18905,
    "Ġsuns": 23272,
    "Ġforever": 14551,
    "Ġobscured": 15009,
    "Ġadversarial": 5606,
    "Ĩ": 233,
    "Ġlustre": 15132,
    "Ġcollins": 2180,
    "Ġended": 7950,
    "Ġconsternation": 9857,
    "Ġlabels": 3287,
    "wester": 21137,
    "Ġwel": 4528,
    "Ġdawned": 14992,
    "brain": 13685,
    "Ġkrusenstern": 20713,
    "nne": 20988,
    "rie": 2788,
    "import": 5668,
    "Ġfetch": 7770,
    "Ġwishes": 4795,
    "Ġcounters": 24138,
    "places": 7880,
    "Ġresided": 11808,
    "Ġaccommodate": 20515,
    "tons": 7560,
    "Ġhideousness": 16914,
    "Ġv": 399,
    "Ġexchanging": 18132,
    "Ġdrifting": 19278,
    "talking": 10005,
    "Ġuproar": 22153,
    "Ġyouth": 4263,
    "priv": 9618,
    "Ġdiscussion": 17193,
    "Ġlone": 11611,
    "irra": 15781,
    "cnns": 3620,
    "Ġfaintest": 24568,
    "disappeared": 14568,
    "Ġdeputation": 21838,
    "Ġvir": 7001,
    "Ġforms": 6396,
    "Ġperiodical": 14769,
    "Ġaccompaniments": 24481,
    "Ġearliest": 9828,
    "Ġpurporting": 19182,
    "Ġmakes": 3650,
    "poky": 17643,
    "Ġdetestable": 15096,
    "Ġimpulsively": 24880,
    "Ġcommander": 8624,
    "inese": 12875,
    "Ġscarcity": 23824,
    "Ġquadru": 16000,
    "Ġmed": 3989,
    "Ġapproximates": 2418,
    "Ġsquaw": 22839,
    "Ġostentatiously": 20467,
    "Ġbald": 16203,
    "partner": 19221,
    "Ġprudence": 13918,
    "Ġsuperfluous": 17412,
    "Ġappre": 5165,
    "Ġrig": 4226,
    "ation": 320,
    "Ġtempted": 9055,
    "Ġflann": 23012,
    "Ġscrewing": 20207,
    "savagery": 25025,
    "Ġunrest": 11711,
    "organic": 25946,
    "Ġbanqu": 12584,
    "interference": 23736,
    "crane": 24097,
    "studied": 17148,
    "Ġtwig": 11847,
    "Ġobstetrics": 24678,
    "iature": 8741,
    "Ġfarthing": 14452,
    "itect": 973,
    "leave": 7838,
    "Ġreveren": 13195,
    "Ġfoss": 9847,
    "Ġgritted": 22803,
    "Ġmessages": 24983,
    "teak": 22815,
    "exerc": 16012,
    "istry": 22107,
    "Ġ87": 19709,
    "inking": 6709,
    "Ġlookest": 22713,
    "ieve": 1659,
    "Ġrevolve": 19728,
    "angles": 18295,
    "Ġcompar": 4771,
    "Ġolfactories": 26171,
    "regulated": 23466,
    "Ġfairy": 14625,
    "Ġ95": 19772,
    "how": 1643,
    "testing": 12513,
    "ball": 7793,
    "Ġcontaining": 2230,
    "/`)": 13658,
    "Ġinns": 17929,
    "Ġexcited": 5579,
    "Ġheavy": 3744,
    "Ġexempl": 21829,
    "Ġjava": 12309,
    "Ġgoblet": 25823,
    "Ġsnap": 11199,
    "âĢĻ,": 14068,
    "shame": 16022,
    "ouder": 17900,
    "Ġworks": 5857,
    "upid": 6581,
    "Ġclum": 8871,
    "Ġcircumstantial": 14641,
    "Ġattentive": 9032,
    "Ġtrib": 13817,
    "Ġunappe": 22014,
    "Ġincompatible": 25680,
    "Ġbeacon": 21754,
    "Ġpostpone": 17305,
    "bed": 3289,
    "geons": 15976,
    "Ġsepul": 14087,
    "Ġproudly": 19741,
    "Ġargued": 13627,
    "Ġ51": 24319,
    "Ġalgorithms": 855,
    "feet": 6568,
    "solid": 16376,
    "Ġsemicirc": 16391,
    "scales": 22990,
    "Ġscreamed": 9522,
    "Ġcompliment": 5673,
    "Ġquarter": 3978,
    "bunger": 20400,
    "6": 26,
    "Ġ15": 9322,
    "Ġdisco": 3428,
    "Ġunman": 12770,
    "Ġenigmatical": 20596,
    "Ġlur": 5226,
    "Ġoffer": 4843,
    "Ġmixing": 24934,
    "Ġexpectantly": 23524,
    "Ġmoist": 9283,
    "Ġplunged": 8692,
    "ines": 675,
    "Ġcomponents": 8891,
    "Ġdriving": 3616,
    "Ġcomparison": 7099,
    "Ġskill": 6872,
    "Ġoutriders": 26542,
    "thinking": 9012,
    "belief": 13279,
    "Ġstarboard": 7605,
    "where": 2093,
    "ingley": 1542,
    "Ġunrecord": 16620,
    "Ġspecialized": 3923,
    "laid": 10108,
    "Ġmyst": 4052,
    "Ġleaping": 8341,
    "Ġcanoe": 9721,
    "Ġsteps": 2865,
    "Ġcave": 10784,
    "Ġexpansion": 22622,
    "kitchen": 17584,
    "espe": 3498,
    "Ġhysterics": 26093,
    "Ġamused": 11796,
    "Ġintolerable": 8481,
    "Ġmonosyllable": 20725,
    "Ġselfish": 7273,
    "Ġsill": 10764,
    "Ġgaping": 13967,
    "Ġjar": 15947,
    "Ġobedient": 20103,
    "Ġtopsails": 19193,
    "aning": 2253,
    "Ġenglishmen": 19428,
    "Ġmercenary": 17192,
    "Ġdismissed": 12888,
    "idirectional": 2421,
    "Ġwooden": 4730,
    "Ġsetbacks": 11062,
    "oll": 5456,
    "Ġlaug": 3626,
    "Ġprovide": 7750,
    "Ġasks": 5115,
    "Ġhyster": 16872,
    "Ġbaling": 17859,
    "Ġowen": 15092,
    "Ġdistinct": 4610,
    "Ġsuggested": 8321,
    "Ġtragedies": 25241,
    "Ġashen": 21897,
    "Ġmonuments": 22980,
    "ized": 1525,
    "Ġpursue": 6314,
    "Ġencouragement": 13039,
    "flaming": 23967,
    "Ġverdure": 10611,
    "oblig": 16288,
    "Ġtones": 8400,
    "Ġacutely": 14312,
    "Ġissues": 9540,
    "Ġwives": 12551,
    "Ġtesting": 23209,
    "towns": 24854,
    "Ġwakes": 11570,
    "Ġangles": 23587,
    "icking": 8909,
    "apothecary": 26544,
    "flask": 12096,
    "Ġprofile": 16486,
    "Ġslipping": 13358,
    "boiling": 19001,
    "Ġblazing": 11893,
    "Ġpreceded": 13426,
    "murmured": 24454,
    "Ġindef": 9188,
    "Ġgales": 12661,
    "Ġconsumed": 10348,
    "Ġstaving": 21735,
    "ificant": 22204,
    "preserver": 20212,
    "Ġserve": 9367,
    "Ġsublime": 8066,
    "Ġcastor": 19425,
    "property": 19998,
    "happiest": 19331,
    "Ġconveniences": 19811,
    "understanding": 1149,
    "coming": 3561,
    "Ġcareless": 11118,
    "Ġinheritance": 25355,
    "Ġwhichever": 13998,
    "Ġoblig": 3445,
    "eled": 2359,
    "arus": 13910,
    "Ġimpossibility": 20646,
    "Ġprophe": 13076,
    "Ġ37": 24076,
    "Ġeloquence": 11839,
    "Ġburton": 23654,
    "Ġpaddock": 25037,
    "ging": 2604,
    "contrary": 23727,
    "wheeling": 22868,
    "Ġtubs": 11369,
    "Ġslung": 23167,
    "Ġgift": 10839,
    "situation": 11436,
    "forbearance": 22797,
    "Ġstretch": 6993,
    "whom": 8185,
    "Ġsplitting": 4384,
    "mund": 13756,
    "Ġindies": 22949,
    "Ġsm": 704,
    "Ġweedy": 15789,
    "Ġbuttons": 12777,
    "ĠâĢĶâĢĶ": 25757,
    "band": 3056,
    "ows": 1919,
    "Ġvexed": 9992,
    "Ġheroines": 19750,
    "Ġsurtout": 23464,
    "fro": 8732,
    "older": 15749,
    "Ġexcluded": 16380,
    "borean": 25743,
    "critters": 14780,
    "Ġprov": 4401,
    "Ġadvise": 7935,
    "Ġhoot": 19076,
    "Ġplanisp": 24055,
    "Ġstay": 3095,
    "Ġarguments": 8037,
    "load": 12877,
    "Ġnum": 1348,
    "ior": 2040,
    "geneva": 13728,
    "Ġsherry": 19449,
    "Ġvessels": 6755,
    "Ġlangu": 574,
    "Ġlump": 21550,
    "usually": 10284,
    "commun": 15032,
    "Ġdropt": 23675,
    "Ġdocument": 15017,
    "lung": 17590,
    "Ġcraft": 4377,
    "ÿ": 192,
    "Ġtaking": 3249,
    "Ġsuccession": 12098,
    "Ġroyalty": 19734,
    "Ġbulkhead": 24507,
    "folio": 10545,
    "Ġpens": 21459,
    "Ġbermud": 26438,
    "cast": 2929,
    "Ġwill": 678,
    "Ġhasty": 10476,
    "hint": 12472,
    "west": 10738,
    "Ġpractices": 19052,
    "Ġpitiless": 19386,
    "nav": 17610,
    "pots": 11512,
    "inform": 10142,
    "sof": 17656,
    "evinced": 19925,
    "Ġmentioning": 9897,
[...]
