{
  "metadata": {
    "vocab_size": 26614,
    "algorithm": "BPE",
    "created_at": "2026-06-15 07:17:42",
    "special_tokens": [
      "<PAD>",
      "<SOS>",
      "<EOS>",
      "<UNK>",
      "<MASK>"
    ]
  },
  "vocab": {
    "irted": 14071,
    "Ġinex": 6528,
    "ela": 21566,
    "Ġcombines": 1116,
    "Ġwater": 1950,
    "here": 2549,
    "Ġresounds": 22539,
    "Ġvane": 22873,
    "Ġslumber": 13057,
    "Ġrinal": 21977,
    "Ġever": 1179,
    "romising": 18233,
    "cool": 19186,
    "listener": 24930,
    "Ġnorthern": 7265,
    "Ġblasphemy": 26115,
    "plifted": 9709,
    "Ġblessing": 11263,
    "Ġowner": 8921,
    "itous": 13866,
    "hogs": 20080,
    "Ġrespectively": 23247,
    "Ġpor": 5225,
    "bres": 11471,
    "Ġfretfully": 25447,
    "riors": 18183,
    "ched": 1543,
    "ne": 646,
    "early": 20117,
    "ography": 13361,
    "thinking": 9013,
    "Ġchowders": 18386,
    "Ġniag": 21527,
    "wickham": 5883,
    "Ġpro": 360,
    "aked": 2016,
    "Ġshook": 4468,
    "gardiner": 12289,
    "Ġjob": 7015,
    "Ġdiscoverers": 26036,
    "Ġmexico": 15279,
    "Ġnasty": 17442,
    "nants": 17613,
    "Ġodd": 6624,
    "Ġslackened": 15125,
    "Ġloitering": 22113,
    "Ġspanish": 2829,
    "acks": 11786,
    "Ġprosperous": 15169,
    "Ġholmes": 1309,
    "Ġcomplimented": 14903,
    "Ġunderstand": 847,
    "naturalist": 23467,
    "10": 17472,
    "Ġprehens": 22228,
    "rise": 6226,
    "Ġwine": 6810,
    "Ġcour": 1769,
    "prints": 23810,
    "..": 5783,
    "Ġmatches": 14394,
    "always": 5708,
    "ig": 323,
    "Ġavail": 11226,
    "committed": 18734,
    "Ġgipsies": 12406,
    "button": 10966,
    "olerable": 7182,
    "angles": 18295,
    "Ġhunting": 7259,
    "Ġmund": 21317,
    "separation": 25226,
    "Ġinasmuch": 10825,
    "rating": 7808,
    "Ġstumble": 26482,
    "Ġsurmis": 23462,
    "Ġsorting": 3236,
    "Ġbiting": 17861,
    "scand": 18855,
    "herds": 22200,
    "Ġalternative": 19985,
    "Ġagreeably": 24952,
    "consult": 24169,
    "Ġarrive": 6907,
    "Ġbolt": 11334,
    "Ġweariness": 19793,
    "heavens": 19744,
    "shout": 22449,
    "Ġoffering": 3011,
    "Ġfinery": 23124,
    "Ġcreeping": 18684,
    "Ġresent": 6048,
    "Ġindulgence": 11319,
    "aculate": 16080,
    "Ġhorrors": 10479,
    "Ġaust": 4871,
    "Ġheroines": 19750,
    "asper": 7854,
    "idge": 14013,
    "ert": 2634,
    "Ġmitigating": 1615,
    "sip": 10725,
    "Ġprivile": 8645,
    "Ġnowadays": 18546,
    "Ġobser": 2072,
    "ospel": 17010,
    "Ġdropout": 1556,
    "Ġpassions": 7929,
    "Ġexample": 5096,
    "Ġslightest": 6092,
    "Ġcapacity": 10440,
    "Ġspoil": 17007,
    "whole": 6085,
    "vanity": 24974,
    "educ": 10828,
    "acquired": 24296,
    "Ġrobbed": 23028,
    "Ġpasses": 2682,
    "Ġoust": 21322,
    "Ġdeprec": 15755,
    "Ġbreed": 19073,
    "fiercely": 25256,
    "Ġresist": 7915,
    "assin": 22302,
    "Ġskul": 22793,
    "Ġtwelve": 4963,
    "Ġopinion": 3146,
    "Ġfavoring": 2348,
    "Ġunheeded": 18261,
    "Ġtroubles": 19437,
    "Ġendure": 5955,
    "conception": 22471,
    "avings": 12021,
    "Ġtattooing": 15027,
    "bies": 15311,
    "Ġscents": 22284,
    "Ġsecre": 5493,
    "Ġresidual": 1678,
    "prepar": 22463,
    "Ġgentle": 1893,
    "Ġdisgust": 6705,
    "Ġgifts": 21609,
    "apping": 5851,
    "Ġstream": 5186,
    "deliver": 19503,
    "Ġtortures": 14922,
    "Ġstraightway": 9016,
    "Ġkrusenstern": 26377,
    "Ġportent": 12079,
    "lovely": 16044,
    "az": 2183,
    "Ġeyebrows": 23515,
    "hement": 13831,
    "spouting": 25000,
    "shott": 11792,
    "ittance": 12842,
    "Ġjuggling": 20437,
    "Ġdanish": 21429,
    "Ġauthentic": 20533,
    "repe": 8775,
    "gravel": 22617,
    "fever": 22499,
    "Ġperfectly": 3702,
    "Ġdidst": 11847,
    "Ġcommun": 1707,
    "Ġterti": 14538,
    "Ġshouted": 5347,
    "drifting": 19823,
    "Ġmanners": 3792,
    "Ġparading": 23709,
    "weed": 14314,
    "Ġflip": 11910,
    "rebell": 17763,
    "Ġstoried": 18072,
    "Ġrelics": 16194,
    "stands": 22427,
    "elope": 14460,
    "stranded": 19225,
    "laborers": 23913,
    "penny": 22942,
    "Ġted": 13811,
    "Ġineffectual": 17383,
    "Ġtore": 6530,
    "Ġarriving": 19217,
    "Ġweights": 897,
    "inces": 13827,
    "Ġhelter": 24022,
    "Ġrepresented": 8938,
    "Ġdefinite": 11069,
    "Ġintention": 5638,
    "Ġtie": 10750,
    "Ġarrangements": 16514,
    "kindred": 24046,
    "forward": 2188,
    "Ġtorn": 5999,
    "Ġselecting": 16684,
    "Ġasserted": 16949,
    "Ġprovince": 24189,
    "Ġlion": 9675,
    "Ġtolerable": 6949,
    "Ġsnake": 12059,
    "Ġinform": 998,
    "Ġgnarled": 25165,
    "Ġvirtual": 11239,
    "Ġstarboard": 7604,
    "Ġscaramouch": 23825,
    "sch": 21049,
    "profound": 16424,
    "Ġtornado": 24621,
    "inferences": 17739,
    "Ġfoster": 18990,
    "Ġsayest": 22775,
    "edged": 15628,
    "Ġlogger": 11952,
    "Ġwhites": 21714,
    "ux": 7813,
    "Ġcarving": 14442,
    "dances": 17521,
    "holland": 24038,
    "Ġdistantly": 18534,
    "Ġreceived": 2955,
    "Ġaugust": 10597,
    "Ġstars": 6149,
    "Ġgentleman": 3044,
    "ength": 2316,
    "Ġattribute": 16095,
    "angible": 22101,
    "Ġpatterns": 1212,
    "smote": 23907,
    "À": 129,
    "brothers": 17024,
    "fron": 24281,
    "Ġaz": 9629,
    "Ġuntamed": 19163,
    "Ġcustom": 5078,
    "Ġscraps": 16902,
    "Ġliber": 5168,
    "numer": 15398,
    "Ġmoustache": 20482,
    "university": 25983,
    "Ġalmanac": 26485,
    "Ġghostliness": 24651,
    "Ġthat": 335,
    "Ġproceeds": 12075,
    "prov": 16421,
    "Ġribbons": 24329,
    "Ġaggreg": 12881,
    "consol": 9761,
    "Ġexploring": 4305,
    "Ġwhitened": 24867,
    "Ġplains": 14623,
    "j": 78,
    "Ġparm": 15875,
    "arers": 12127,
    "Ġwink": 11568,
    "iceland": 21563,
    "Ġbusily": 9384,
    "yellow": 9624,
    "Ġprofoundest": 16860,
    "clinging": 20821,
    "Ġactivity": 7919,
    "ier": 1136,
    "Ġchanging": 11751,
    "sat": 4810,
    "Ġdoors": 6418,
    "Ġrabbit": 4289,
    "Ġpupp": 10820,
    "à": 161,
    "Ġclasping": 20208,
    "Ġachieve": 3674,
    "pushed": 21022,
    "window": 7742,
    "Ġdedication": 2929,
    "console": 22470,
    "freighted": 14891,
    "collecting": 26081,
    "iss": 2178,
    "Ġvir": 7001,
    "Ġlar": 765,
    "Ġbottom": 3675,
    "Ġoverflowing": 17237,
    "rent": 1171,
    "eter": 11620,
    "Ġhung": 4561,
    "Ġinquiries": 5678,
    "Ġmat": 1146,
    "Ġstrength": 4260,
    "dignity": 15344,
    "Ġrat": 4353,
    "Ġphilosoph": 19650,
    "doubtful": 24791,
    "Ġoverhanging": 22351,
    "gracious": 11829,
    "Ġtwitch": 22673,
    "hent": 12531,
    ".âĢĻâĢĿ": 6739,
    "Ġcommonplace": 11096,
    "Ġstack": 21730,
    "voice": 7816,
    "sail": 3605,
    "Ġskull": 6288,
    "Ġlibr": 15998,
    "Ġacquaintance": 4133,
    "Ġladen": 19176,
    "Ġhebrew": 13987,
    "shooting": 16965,
    "[": 63,
    "disc": 4729,
    "Ġpanthe": 19652,
    "Ġunseen": 3525,
    "Ġtangled": 13826,
    "oak": 21002,
    "Ġthreatened": 8329,
    "ode": 1452,
    "Ġinfl": 6893,
    "Ġrural": 21967,
    "Ġwrig": 13065,
    "izure": 21838,
    "ribute": 7227,
    "conve": 14243,
    "Ġlust": 9197,
    "binnacle": 20786,
    "Ġcrests": 25685,
    "Â·": 21148,
    "Ġblackness": 9392,
    "Ġexam": 3713,
    "Ġbizarre": 17871,
    "Ġsparing": 22126,
    "Ġbowls": 23769,
    "Ġupbra": 22151,
    "Ġmass": 3782,
    "conditionally": 24834,
    "Ġrescales": 5068,
    "Ġtouching": 4681,
    "tered": 2235,
    "Ġagonizing": 17238,
    "Ġjuly": 17236,
    "Ġcigarette": 20655,
    "Ġpersonally": 8599,
    "Ġphant": 7055,
    "eous": 13711,
    "Ġunnaturally": 24870,
    "Ġharris": 13926,
    "quarters": 24946,
    "Ġprey": 6415,
    "Ġprotesting": 14740,
    "telling": 14438,
    "prejudice": 25571,
    "liable": 3819,
    "Ġdependencies": 2318,
    "locked": 7677,
    "Ġeclipsed": 26376,
    "Ġwhiteness": 5918,
    "Ġicebergs": 23972,
    "Ġcraft": 4375,
    "beloved": 19459,
    "Ġtrust": 4080,
    "insufferable": 21191,
    "Ġnumer": 3640,
    "Ġsoaring": 22083,
    "Ġocean": 3307,
    "hammer": 14489,
    "Ġdisown": 22521,
    "Ġpl": 743,
    "Ġpilot": 5984,
    "Ġdenomin": 12065,
    "estations": 22225,
    "Ġregions": 10323,
    "Ġbarbar": 6935,
    "Ġlatitude": 8328,
    "olent": 8154,
    "Ġways": 5396,
    "Ġbony": 12584,
    "Ġalarming": 14778,
    "rubbery": 17341,
    "Ġlaure": 16909,
    "Ġlively": 5449,
    "malicious": 19901,
    "Ġepis": 19980,
    "Ġcast": 3608,
    "Ġlandlessness": 23378,
    "Ġerr": 1321,
    "entric": 11618,
    "pitching": 24075,
    "Ġsolemnity": 9940,
    "returned": 7765,
    "Ġadmiring": 16479,
    ")âĢĶ": 20741,
    "transferred": 24514,
    "ertips": 23638,
    "lob": 22504,
    "proof": 16422,
    "Ġtranqu": 4605,
    "Ġcore": 13877,
    "Ġcomp": 724,
    "Ġtrains": 10947,
    "Ġacceptable": 16744,
    "Ġdisliked": 12888,
    "ising": 2257,
    "Ġsleepless": 14582,
    "Ġfore": 2154,
    "Ġdestined": 7973,
    "Ġcaresses": 26059,
    "Ġbats": 13899,
    "Ġhusband": 3622,
    "Ġentreat": 4511,
    "itying": 21991,
    "sy": 2711,
    "Ġshreds": 12767,
    "Ġweak": 5098,
    "Ġpositive": 2298,
    "distinguish": 19571,
    "Ġreported": 11978,
    "aisance": 15073,
    "Ġtapping": 10752,
    "etite": 21576,
    "down": 3471,
    "summer": 11992,
    "Ġserene": 8166,
    "ending": 1991,
    "Ġkeeps": 8266,
    "Ġrepulses": 26070,
    "Ġconstraint": 16513,
    "Ġretreating": 19798,
    "australian": 20560,
    "rict": 8092,
    "Ġcompleted": 8997,
    "embers": 21926,
    "Ġwarnings": 16881,
    "Ġtypically": 1532,
    "Ġdusk": 12325,
    "Ġinoffensive": 21495,
    "kn": 5791,
    "removing": 17764,
    "Ġconvention": 25546,
    "Ġstig": 14001,
    "Ġwickedness": 9525,
    "Ġfancying": 12110,
    "rin": 10121,
    "Ġmagical": 23096,
    "Ġlouder": 13467,
    "Ġshirt": 8848,
    "Ġresolution": 5500,
    "centre": 17087,
    "uing": 17693,
    "Ġamid": 4959,
    "Ġdeemed": 7613,
    "prince": 23812,
    "Ġcontemporary": 16010,
    "Ġchamp": 18381,
    "pets": 17636,
    "Ġlevels": 12695,
    "):": 11461,
    "Ġloafer": 18299,
    "Ġyoke": 18095,
    "Ġaverages": 2400,
    "rence": 5555,
    "Ġorthodox": 22092,
    "oda": 15747,
    "attain": 21260,
    "Ġinsulted": 14991,
    "Ġlids": 12273,
    "levi": 7047,
    "Ġeleg": 6192,
    "Ġspotted": 12136,
    "Ġwords": 1324,
    "moil": 22702,
    "Ġprices": 15609,
    "Ġzoned": 22817,
    "rate": 2425,
    "Ġquadru": 16001,
    "aky": 18412,
    "Ġkno": 5242,
    "Ġpropontis": 17465,
    "mil": 13751,
    "Ġsphy": 18311,
    "Ġneither": 3688,
    "cold": 9589,
    "Ġhark": 8427,
    "Ġdisconsol": 18557,
    "Ġfaults": 12210,
    "suspicions": 25391,
    "Ġrepositories": 23362,
    "clopÃ¦": 13053,
    "Ġ116": 24440,
    "Ġconcer": 23320,
    "Ġhaggard": 17329,
    "Ġfurnishing": 16645,
    "Ġhopes": 4234,
    "Ġdocks": 14177,
    "Ġconsol": 3816,
    "Ġporch": 19679,
    "Ġrelapses": 26278,
    "convers": 6567,
    "weather": 7229,
    "queness": 18147,
    "barbaric": 26358,
    "Ġ235": 25713,
    "Ġchristendom": 16695,
    "Ġinfall": 7959,
    "cable": 20796,
    "Ġast": 2964,
    "Ġclean": 5652,
    "Ġwonderfully": 10430,
    "Ġrefreshment": 17239,
    "pow": 10717,
    "entirely": 7781,
    "indebted": 26158,
    "Ġown": 1007,
    "Ġfebruary": 15910,
    "Ġabating": 22264,
    "^": 66,
    "Ġcumul": 4178,
    "Ġconceive": 8461,
    "Ġre": 317,
    "Ġsilken": 16377,
    "brill": 16490,
    "Ġmounted": 7832,
    "pervised": 1582,
    "Ġrotation": 25474,
    "probable": 17021,
    "Ġrespectability": 14484,
    "icked": 10332,
    "flung": 16638,
    "oise": 15403,
    "Ġmajor": 13290,
    "league": 17844,
    "Ġcra": 2336,
    "Ġmapp": 2083,
    "Ġsolitary": 5854,
    "intment": 4720,
    "Ġpillar": 21470,
    "Ġmungo": 25631,
    "Ġphrenolog": 12332,
    "Ġirreparable": 19997,
    "Ġindist": 14407,
    "girls": 12317,
    "Ġhas": 825,
    "Ġthoughtless": 16191,
    "Ġbene": 2032,
    "plexion": 14258,
    "impetuous": 23762,
    "proves": 23392,
    "Ġspared": 7892,
    "Ġundulations": 19514,
    "Ġunivers": 2126,
    "ward": 706,
    "Ġnortheast": 23201,
    "Ġequals": 4727,
    "ef": 5134,
    "Ġextinguished": 10343,
    "Ă": 195,
    "bolt": 25135,
    "Ġexperiences": 13027,
    "natured": 7110,
    "Ġworker": 23003,
    "haven": 20911,
    "proud": 9903,
    "Ġol": 17814,
    "apparat": 22846,
    "i": 77,
    "Ġsatisf": 2806,
    "Ġentail": 9791,
    "Ġswap": 23049,
    "Ġgemini": 26469,
    "Ġ0": 1905,
    "Ġperson": 2371,
    "Ġcalamity": 17348,
    "Ġapprehension": 7113,
    "Ġsalisbury": 24061,
    "stretched": 10207,
    "Ġfalling": 6915,
    "idered": 4554,
    "Ġrally": 21968,
    "Ġrambles": 17184,
    "Ġbingleys": 18996,
    "came": 4571,
    "Ġseclusion": 18208,
    "Ġvoy": 2620,
    "god": 4863,
    "Ġpropag": 16346,
    "Ġintended": 5548,
    "Ġmaintains": 2147,
    "Ġovertake": 15965,
    "Ġexceeding": 1581,
    "other": 1315,
    "Ġjavelin": 26104,
    "wild": 8766,
    "Ġbarriers": 23793,
    "lan": 15376,
    "addition": 13383,
    "Ġsnail": 19299,
    "Ġoverwhelming": 17102,
    "ads": 5718,
    "Ġvig": 5460,
    "Ġimpelling": 22383,
    "Ġlighting": 13081,
    "belief": 13280,
    "Ġdorm": 4821,
    "Ġmelting": 24288,
    "considered": 9580,
    "motives": 26137,
    "Ġlifts": 25358,
    "ĵ": 246,
    "Ġmusket": 12294,
    "luyt": 18454,
    "younger": 11312,
    "Ġsitting": 3607,
    "Ġresearch": 3368,
    "Ġview": 2762,
    "Ġgood": 1001,
    "Ġnast": 15636,
    "Ġcopying": 17068,
    "blood": 7779,
    "netherfield": 9812,
    "Ġgrind": 18735,
    "Ġ21": 11199,
    "Ġhazarded": 25654,
    "Ġmatch": 4530,
    "Ġrehears": 15697,
    "Ġclosest": 16763,
    "yield": 13808,
    "Ġquarters": 8619,
    "Ġdish": 6136,
    "Ġthursday": 12641,
    "ight": 403,
    "drab": 23895,
    "Ġ60": 14874,
    "Ġtorm": 5434,
    "onies": 6806,
    "Ġepic": 15029,
    "Ġhurrying": 11993,
    "Ġet": 3582,
    "Ġvices": 14082,
    "Ġflushed": 13024,
    "unch": 14057,
    "Ġelopement": 10329,
    "Ġnice": 6676,
    "Ġabomination": 22275,
    "Ě": 219,
    "Ġmedic": 11247,
    "Ġruefully": 17300,
    "Ġbanking": 19629,
    "Ġeternities": 19941,
    "Ġselected": 9710,
    "Ġincess": 8430,
    "book": 4670,
    "Ġstun": 11649,
    "Ġmerit": 9426,
    "Ġ119": 24441,
    "Ġtinged": 20081,
    "pun": 9617,
    "Ġfrequ": 3331,
    "Ġendeavors": 16545,
    "fatig": 17089,
    "Ġpattering": 18651,
    "Ġprepare": 8646,
    "Ġassumptions": 5517,
    "Ġbrook": 13045,
    "Ġouter": 6859,
    "Ġintrepid": 11704,
    "Ġdevice": 1931,
    "Ġturkey": 19219,
    "Ġexpression": 4517,
    "Ġfrightened": 5341,
    "Ġguarded": 9825,
    "stretch": 13980,
    "lotts": 23823,
    "Ġdrinks": 24279,
    "Ġdiscoverer": 26035,
    "igms": 3050,
    "Ġ44": 16679,
    "barrel": 17060,
    "ulates": 14054,
    "Ġquoin": 22415,
    "Ġoppress": 13171,
    "savagery": 25025,
    "Ġspermaceti": 8967,
    "Ġdesol": 6881,
    "tempestuous": 26097,
    "Ġappointed": 20101,
    "Ġvirginia": 13499,
    "mbling": 3348,
    "Ġlagged": 21555,
    "Ġnegative": 1463,
    "successful": 11358,
    "Ò": 147,
    "needle": 20309,
    "Ġdone": 1818,
    "or": 282,
    "arches": 10816,
    "Ġinitial": 823,
    "Ġnathan": 21523,
    "nest": 10113,
    "Ġobliged": 4286,
    "Ġopera": 23424,
    "Ġessex": 20125,
    "Ġcripple": 11440,
    "invincible": 25089,
    "Ġnominally": 17231,
    "51": 12429,
    "Ġdaft": 19662,
    "point": 6062,
    "Ġraised": 4661,
    "know": 2322,
    "company": 9460,
    "Ġcoldly": 14650,
    "ohnson": 16323,
    "Ġquiescent": 26242,
    "chard": 21684,
    "stream": 15684,
    "Ġfacilitate": 26098,
    "Ġdrawing": 3919,
    "Ġlaws": 8002,
    "Ġdined": 9176,
    "ales": 3319,
    "Ġdictator": 20152,
    "Ġupstairs": 5836,
    "Ġgrosvenor": 17417,
    "ufactured": 15180,
    "Ġferguson": 17469,
    "iate": 6505,
    "Ġpoint": 2056,
    "Ġminutes": 3004,
    "Ġsubl": 7235,
    "Ġdiligence": 17114,
    "Ġ1991": 3019,
    "Ġcoldness": 23758,
    "Ġneck": 4885,
    "Ġbread": 5404,
    "Ġevanesc": 24294,
    "Ġimperfect": 13338,
    "Ġ132": 19895,
    "Ġglowed": 24864,
    "Ġtimid": 6345,
    "wling": 11544,
    "glim": 19363,
    "Ġliter": 8811,
    "servants": 15037,
    "Ġpract": 1791,
    "encing": 21281,
    "Ġcried": 1486,
    "irement": 18355,
    "Ġhan": 15615,
    "flesh": 13489,
    "Ġsashes": 21224,
    "erately": 21272,
    "reference": 13839,
    "pressing": 19017,
    "cr": 4076,
    "Ġdestro": 3724,
    "queens": 22905,
    "Ġangel": 4852,
    "Ġdisappearance": 9296,
    "Ġtus": 10749,
    "Ġwails": 21295,
    "Ġ2": 2932,
    "gradient": 2276,
    "Ġagitated": 7647,
    "Ġheave": 7599,
    "arson": 22743,
    "bermaid": 20789,
    "Ġmental": 21318,
    "Ġtight": 8107,
    "Ġcapstan": 9098,
    "Ġbackground": 18649,
    "Ġhell": 5019,
    "Ġstiff": 6992,
    "Ġchoosing": 19589,
    "Ġ5": 4935,
    "Ġund": 4119,
    "eted": 7591,
    "Ġ71": 24259,
    "Ġhussey": 7724,
    "Ġprestige": 22233,
    "Ġlaying": 7907,
    "Ġlights": 8960,
    "Ġsalvation": 14756,
    "Ġarri": 2554,
    "Ġidleness": 11144,
    "Ġbrawny": 13612,
    "Ġripe": 13234,
    "Ġhush": 13210,
    "precious": 12070,
    "Ġliveliness": 13642,
    "aded": 3550,
    "Ġtake": 1578,
    "calabash": 22891,
    "Ġeasiness": 23536,
    "Ġpirates": 9073,
    "Ġstifle": 18073,
    "variety": 23183,
    "Ġdefects": 12331,
    "balance": 12005,
    "Ġtypewriter": 19097,
    "Ġsickly": 16774,
    "Ġcommod": 10333,
    "Ġvigilant": 20183,
    "Ġbehavioral": 11396,
    "Ġemblaz": 16234,
    "plings": 11693,
    "Ġdom": 2802,
    "prises": 23811,
    "phr": 18706,
    "Ġtheories": 13848,
    "ifications": 9727,
    "Ġvolcano": 24146,
    "Ġbid": 6131,
    "test": 13791,
    "Ġbracing": 16580,
    "Ġfasting": 16354,
    "Ġexposed": 8522,
    "Ġlicence": 25096,
    "some": 2239,
    "Ġholding": 4979,
    "Ġsensitive": 13198,
    "pagan": 17285,
    "itors": 2917,
    "Ġpreserve": 7529,
    "ucy": 15443,
    "Ġstandpoint": 23276,
    "Ġprejudice": 9075,
    "Ġquito": 24408,
    "garet": 9597,
    "Ġslavish": 23170,
    "Ġinterment": 22573,
    "kindly": 14743,
    "humoredly": 26324,
    "volut": 1558,
    "Ġalche": 21780,
    "ariously": 18527,
    "storm": 9681,
    "ugn": 9377,
    "Ġcelest": 9900,
    "impressions": 20697,
    "Ġgambler": 26190,
    "houn": 20892,
    "ĕ": 214,
    "details": 19674,
    "Ġconsiderably": 7714,
    "Ġscattered": 6856,
    "ctuous": 9205,
    "Ġrolled": 4429,
    "6": 26,
    "Ġpulverize": 23391,
    "Ġdeny": 7488,
    "Ġapprove": 12871,
    "Ġtending": 17724,
    "bitterly": 20336,
    "Ġthinker": 22808,
    "Ġgrown": 5628,
    "hyena": 24252,
    "Ġflooded": 24959,
    "Ġmors": 17801,
    "baden": 25615,
    "Ġexplanations": 15908,
    "rugged": 6849,
    "tic": 8390,
    "Ġinput": 608,
    "crated": 16696,
    "Ġregularity": 22771,
    "Ġingrat": 16840,
    "inserted": 18886,
    "impress": 18051,
    "Ġdeference": 10881,
    "Ġworkman": 16244,
    "prom": 6509,
    "Ġadoration": 18290,
    "Ġchast": 18380,
    "allied": 7410,
    "Ġpreacher": 18369,
    "ho": 2860,
    "Ġstiggs": 25792,
    "I": 45,
    "Ġartfully": 22609,
    "dissemble": 23492,
    "Ġmurky": 19202,
    "Ġslew": 23381,
    "indifference": 15981,
    "Ġconfession": 11235,
    "powder": 17645,
    "Ġbos": 4875,
    "cred": 9107,
    "til": 17671,
    "cheeks": 23806,
    "soft": 12507,
    "Ġmasterless": 23992,
    "Ġrelationships": 2928,
    "Ġbubble": 13534,
    "Ġbrigs": 20321,
    "Ġheavenly": 12082,
    "Ġaged": 10321,
    "dro": 6644,
    "Ġimmediate": 6089,
    "Ġchestnuts": 24381,
    "Ġfragrant": 13085,
    "Ġindex": 17049,
    "Ġjavel": 17084,
    "Ġmasoned": 20250,
    "mant": 20964,
    "gings": 7549,
    "Ġtaking": 3252,
    "london": 9609,
    "can": 1232,
    "Ġcyl": 15554,
    "poles": 16208,
    "Ġarrest": 7409,
    "phur": 16148,
    "Ġboughs": 20487,
    "Ġfacil": 16962,
    "stri": 6249,
    "¹": 122,
    "islanders": 25442,
    "Ġgateway": 24802,
    "reas": 990,
    "Ġinherit": 25352,
    "Ġunex": 11711,
    "Ġfairer": 20460,
    "Ġmomentum": 1601,
    "Ġbond": 21382,
    "Ġpretended": 19313,
    "Ġ135": 24785,
    "ornament": 23488,
    "Ġunceasingly": 20357,
    "Ġshipped": 9714,
    "Ġimminent": 11244,
    "makes": 10711,
    "Ġturtle": 4203,
    "lac": 17589,
    "Ġcring": 15549,
    "Ġimmedi": 2908,
    "Ġprovoking": 16743,
    "Ġissue": 2314,
    "cause": 7795,
    "ists": 4003,
    "Ġpictures": 5503,
    "Ġsneeze": 24699,
    "uments": 5552,
    "mile": 17597,
    "features": 14799,
    "Ġhumiliation": 16197,
    "Ġimp": 580,
    "social": 11022,
    "ific": 490,
    "seems": 10875,
    "tie": 21067,
    "Ġsuffusing": 23030,
    "embarrassed": 20595,
    "Ġcatastrop": 3350,
    "¤": 102,
    "morland": 24153,
    "mistakable": 20652,
    "cask": 12444,
    "Ġ111": 24436,
    "Ġclasped": 17206,
    "never": 3155,
    "instruct": 19541,
    "Ġhouse": 1502,
    "Ġstarve": 24625,
    "supper": 12917,
    "Ġpitied": 14691,
    "Ġconveys": 16855,
    "really": 6971,
    "Ġinstruments": 12221,
    "Ĉ": 201,
    "Ġflower": 16232,
    "ientific": 6547,
    "Ġdagger": 21435,
    "bitter": 11240,
    "Ġbeck": 14008,
    "itheat": 21336,
    "bub": 15315,
    "sol": 1790,
    "Ġsporting": 16999,
    "Ġusefulness": 19406,
    "irresistible": 18173,
    "per": 480,
    "ta": 13788,
    "Ġouthouse": 22311,
    "oysius": 14364,
    "Ġdella": 21437,
    "Ġjustly": 11901,
    "Ġrubbed": 12953,
    "accepted": 20135,
    "Ġspray": 7893,
    "bit": 3933,
    "dutch": 17218,
    "Ġslashing": 23167,
    "Ġcalculate": 13263,
    "insufficient": 15488,
    "zen": 5140,
    "Ġop": 2603,
    "Ġspeeches": 22660,
    "Ġ221": 25068,
    "Ġpine": 8796,
    "Ġmac": 15536,
    "Ġsteep": 2892,
    "Ġcousin": 3707,
    "Ġfortunate": 6214,
    "Ġadv": 1124,
    "Ġcountryside": 23595,
    "ezes": 9990,
    "Ġost": 9649,
    "Ġsufficiently": 8973,
    "Ġrap": 14303,
    "Ġyields": 19655,
    "outside": 12801,
    "Ġoutsk": 15954,
    "Ġdur": 11591,
    "Ġmyself": 1453,
    "Ġprevent": 757,
    "carries": 19526,
    "extensive": 18711,
    "Ġswings": 11086,
    "Ġstory": 2904,
    "Ġprayer": 16666,
    "ateral": 19375,
    "Ġxavier": 2856,
    "Ġpersisted": 13034,
    "Ġnightmare": 18919,
    "Ġconciliating": 19049,
    "cruising": 12277,
    "uch": 877,
    "Ġinher": 10179,
    "Ġsublim": 19965,
    "Ġeddystone": 25709,
    "Ġspade": 9258,
    "verty": 8452,
    ",_": 11462,
    "vius": 23541,
    "Ġremonstr": 16160,
    "Ġgravesend": 15215,
    "Ġarchangel": 8542,
    "Ġcounterpart": 24721,
    "Åĵuv": 15181,
    "Ġhospit": 7514,
    "âĢĶ.âĢĿ": 22252,
    "Ġstem": 15716,
    "Ġcirclings": 26431,
    "ling": 735,
    "oved": 5215,
    "hidden": 17370,
    "ascertain": 21540,
    "Ġgreedy": 3057,
    "Ġspine": 7407,
    "Ġattendance": 12179,
    "Ġ177": 13411,
    "Ġco": 731,
    "Ġfiner": 13050,
    "ologist": 22860,
    "Ġcontrol": 13078,
    "Ġcelebrate": 26357,
    "Ġdelusion": 18974,
    "Ġstrainings": 24627,
    "Ġrout": 7402,
    "Ġwalker": 23310,
    "wanderer": 25423,
    "Ġbaleen": 10036,
    "Ġcop": 7579,
    "Ġfrontispiece": 23911,
    "hr": 20887,
    "sofa": 26146,
    "Ġbrine": 18769,
    "Ġunsav": 18251,
    "Ġdescribe": 2766,
    "darted": 20831,
    "Ġexordium": 26492,
    "Ġ62": 24365,
    "Ġseasonable": 24406,
    "caroline": 24149,
    "Ġreced": 15689,
    "princip": 17136,
    "Ġinspire": 11994,
    "Ġstarted": 4150,
    "departure": 15233,
    "Ġcouples": 16852,
    "Ġplough": 18608,
    "Ġpoet": 8207,
    "Ġrenew": 6145,
    "Ġpopularly": 12239,
    "Ġjuggl": 20436,
    "atives": 2240,
    "Ġpuff": 6526,
    "ev": 6952,
    "aching": 5831,
    "Ġfaithfully": 14886,
    "Ġhobbling": 25644,
    "Ġubiquitous": 26195,
    "ract": 996,
    "knowing": 10437,
    "Ġperv": 15988,
    "Ġfervent": 14895,
    "Ġmart": 10779,
    "Ġobsolete": 26558,
    "commanding": 24752,
    "Ġreadily": 5253,
    "Ġpretensions": 16558,
    "Ġvanish": 8926,
    "Ġcomputational": 1623,
    "Ġcurrent": 13003,
    "Ġstammered": 26199,
    "borrowed": 20791,
    "iscient": 17851,
    "Ġroofs": 16985,
    "Ġxlvi": 25590,
    "pling": 8474,
    "ĠĠĠĠĠĠĠĠĠĠĠĠĠĠĠĠĠĠĠĠĠĠĠĠĠĠĠĠ": 9974,
    "Ġinexplicable": 12254,
    "Ġremem": 4313,
    "ription": 5676,
    "ines": 662,
    "Ġunintermitted": 26219,
    "Ġdischarged": 15219,
    "Ġsil": 1797,
    "Ġsoft": 1458,
    "osy": 11756,
    "permitted": 18342,
    "bury": 9106,
    "atch": 675,
    "Ġhipp": 21489,
    "securer": 25602,
    "cell": 10685,
    "mathematics": 26304,
    "Ġmortification": 12091,
    "oof": 15404,
    "Ġperry": 22394,
    "Ġhauling": 14086,
    "ignific": 11953,
    "fixedly": 24929,
    "unearthly": 19272,
    "ached": 2326,
    "Ġbrotherhood": 23666,
    "Ġperfections": 23607,
    "fancy": 7337,
    "respective": 19845,
    "wich": 11543,
    "onian": 17767,
    "Ġendurance": 23142,
    "seals": 21815,
    "fed": 11487,
    "Ġplacid": 11824,
    "Ġsingular": 4423,
    "._]]": 5334,
    "Ġreceive": 4704,
    "Ġcapting": 23018,
    "Ġgratefully": 20443,
    "Ġwr": 1540,
    "Ġqueens": 16706,
    "irra": 15782,
    "hyme": 19608,
    "weigh": 18665,
    "Ġantelope": 24180,
    "Ġexhibit": 14955,
    "sleepy": 24729,
    "Ġoverl": 18423,
    "Ġearlier": 9086,
    "nevertheless": 8285,
    "Ġvivacity": 14940,
    "diligence": 26110,
    "Ġbe": 336,
    "arthy": 4822,
    "Ġdread": 3166,
    "Ġunfav": 14786,
    "erxes": 21274,
    "Ġsof": 18281,
    "Ġmoth": 17802,
    "Ġconjured": 25099,
    "Ġcrozetts": 19628,
    "childhood": 16868,
    "Ġsupply": 6066,
    "Ġcoffee": 6760,
    "Ġsongs": 13419,
    "Ġmockery": 12105,
    "Ġparted": 5928,
    "Ġwelded": 9571,
    "Ġyellow": 5300,
    "Ġdairy": 20685,
    "rop": 541,
    "Ġjeer": 24123,
    "Ġmemory": 2277,
    "ru": 479,
    "Ġfreshly": 23984,
    "Ġse": 402,
    "thoughts": 9934,
    "Ġexploding": 2110,
    "Ġshape": 5639,
    "narrated": 25621,
    ":--": 5784,
    "discern": 14850,
    "architect": 22895,
    "Ġfurrow": 22812,
    "Ġconclusion": 5985,
    "ilent": 21717,
    "task": 13792,
    "perfect": 7634,
    "Ġprep": 4190,
    "Ġfounder": 17883,
    "zes": 11548,
    "clings": 23149,
    "prick": 19341,
    "Ġenglishman": 11229,
    "Ġconquered": 14025,
    "Ġindefatigable": 17177,
    "Ġrecklessness": 24745,
    "plun": 15813,
    "dat": 1633,
    "om": 315,
    "Ġbacking": 16115,
    "Ġvirt": 3908,
    "Ġforget": 2636,
    "Ġkicked": 10581,
    "lance": 12479,
    "begins": 18525,
    "Ġlater": 6016,
    "Ġstabilizing": 3658,
    "memory": 13616,
    "ferences": 10326,
    "ashion": 3859,
    "Ġpensive": 21472,
    "Ġdecl": 3591,
    "Ġcamp": 9164,
    "Ġduchess": 4799,
    "lights": 13204,
    "Ġjerking": 12243,
    "filled": 9594,
    "opement": 10311,
    "Ġinstructing": 3125,
    "¶": 119,
    "Ġgeological": 14533,
    "Ġram": 11013,
    "Ġwhereby": 11834,
    "Ġexposure": 16097,
    "Ġfoss": 9849,
    "Ġimpersonal": 17395,
    "near": 5842,
    "Ġstud": 1541,
    "Ġunhallowed": 17180,
    "Ġbulkington": 14677,
    "Ġchil": 11749,
    "Ġoccasions": 7987,
    "fl": 3602,
    "Ġunfailing": 24111,
    "craft": 12244,
    "Ġimmortal": 8017,
    "Ġdut": 2992,
    "Ġhilariously": 25450,
    "Ġcat": 2122,
    "Ġbrute": 8925,
    "ĠĠĠĠ": 459,
    "_.âĢĻâĢĿ": 17479,
    "reme": 2427,
    "Ġpursued": 6328,
    "Ġdante": 21436,
    "Ġcorrectly": 9403,
    "Ġphilist": 16601,
    "Ġcomra": 7183,
    "Ġpunctil": 20112,
    "Ġintellect": 8169,
    "Ġvindication": 25364,
    "Ġbiggest": 24566,
    "Ġlaughed": 5059,
    "sor": 7352,
    "alive": 10827,
    "discovered": 8324,
    "Ġgrandfather": 19420,
    "Ġpoem": 22586,
    "Ġnugent": 26457,
    "complacency": 19913,
    "ntax": 936,
    "Ġfowler": 16937,
    "weaving": 18666,
    "lier": 20948,
    "Ġclap": 10960,
    "Ġholds": 7974,
    "turbable": 24531,
    "Ġroutine": 13507,
    "Ġawfulness": 23586,
    "kicked": 20942,
    "upp": 10130,
    "cab": 7333,
    "line": 1439,
    "nical": 20990,
    "unusual": 21876,
    "Ġdeliverer": 11948,
    "loa": 18536,
    "Ġfired": 16152,
    "ties": 2759,
    "Ġembattled": 26289,
    "er": 269,
    "Ġswaying": 15046,
    "sensations": 20049,
    "first": 3935,
    "Ġaffirm": 11885,
    "gins": 12466,
    "shaven": 18494,
    "Ġfront": 3453,
    "Ġmun": 12559,
    "pire": 9135,
    "conjectures": 25180,
    "anting": 6412,
    "Ġsigned": 11177,
    "Ġconscience": 6929,
    "Ġguards": 16266,
    "Ġrenewed": 9537,
    "Ġwindpipe": 23103,
    "augh": 1783,
    "Ġveins": 8931,
    "urous": 10212,
    "renewed": 19703,
    "ifle": 10891,
    "pistol": 17642,
    "Ġmaybe": 12946,
    "Ġharpooned": 13261,
    "of": 767,
    "mix": 20973,
    "Ġwit": 3842,
    "domestic": 19824,
    "Ġginger": 9210,
    "Ġsequence": 1978,
    "Ġelijah": 9099,
    "Ġominous": 12422,
    "Ġforgot": 4684,
    "Ġbes": 2663,
    "Ġstruggle": 3676,
    "Ġpours": 17909,
    "Ġtenants": 23546,
    "ulence": 15763,
    "Ġaisle": 21200,
    "mouthed": 12398,
    "ethics": 8877,
    "Ġostrich": 26430,
    "Ġobliter": 14321,
    "Ġinsulated": 23675,
    "Ġoppressively": 25712,
    "Ġsecurely": 16802,
    "lins": 2026,
    "Ġdiscoveries": 13357,
    "stamp": 21651,
    "orative": 21396,
    "Ġintegr": 7968,
    "Ġslice": 23157,
    "Ġchrist": 4074,
    "Ġcrucial": 9892,
    "Ġgash": 15668,
    "Ġparallel": 1414,
    "darcy": 5208,
    "Ġresolve": 13169,
    "exceedingly": 9566,
    "mn": 3578,
    "parlour": 16390,
    "Ġn": 300,
    "]]": 5205,
    "Ġstruck": 3392,
    "Ġfishery": 4175,
    "fail": 17540,
    "Ġsecrets": 9054,
    "Ġplush": 18609,
    "bond": 17489,
    "Ġbowditch": 19322,
    "own": 744,
    "nur": 11505,
    "Ġric": 18211,
    "Ġundeviating": 15216,
    "Ġquest": 2002,
    "Ġshrouds": 11344,
    "Ġgreeted": 23210,
    "msprop": 2626,
    "Ġobey": 9518,
    "Ġmonogram": 26574,
    "anted": 5027,
    "Ġinexpressible": 17332,
    "Ġlot": 6678,
    "Ġsymph": 22208,
    "Ġthrilling": 19747,
    "Ġsheaves": 22155,
    "Ġsands": 14947,
    "ame": 644,
    "etrics": 21582,
    "billiard": 25334,
    "Ġcharts": 12824,
    "cordiality": 25137,
    "Ġcalmly": 7733,
    "Ġaccepted": 7750,
    "Ġroot": 2651,
    "Ġsuperb": 16445,
    "just": 1701,
    "iocr": 20922,
    "Ġfamiliarly": 11303,
    "Ġencoding": 4774,
    "Ġyounge": 16286,
    "Ġmarket": 7708,
    "recked": 17762,
    "idel": 5299,
    "Ġdrunk": 9423,
    "Ġexc": 1832,
    "aspect": 10193,
    "Ġaustral": 12170,
    "Ġsting": 10861,
    "Ġshortened": 23483,
    "pray": 5429,
    "ivided": 22075,
    "Ġsignific": 3829,
    "Ġodorous": 19565,
    "amouch": 21848,
    "Ġfoundations": 11073,
    "Ġdash": 8121,
    "Ġstur": 15714,
    "Ġscaffold": 18401,
    "ront": 15417,
    "Ġbert": 4583,
    "Ġconfusion": 7273,
    "Ġteeth": 4167,
    "Ġcarted": 21347,
    "tch": 9141,
    "sleepers": 24730,
    "wedded": 24339,
    "Ġcharacteristic": 12046,
    "Ġjokes": 18408,
    "seas": 14032,
    "av": 739,
    "Ġharvard": 24573,
    "Ġpredestinated": 18510,
    "Ġwoe": 4793,
    "attle": 4466,
    "Ġdrank": 16535,
    "Ġexpectations": 13142,
    "Ġunrel": 14695,
    "Ġautom": 3467,
    "Ġevangelical": 25506,
    "Ġbump": 9659,
    "Ġclos": 4550,
    "Ġheroism": 24544,
    "Ġraved": 22648,
    "Ġdivision": 19442,
    "Ġcompens": 14263,
    "Ġmajesty": 5201,
    "Ġcontortions": 18476,
    "information": 12391,
    "Ġanchors": 12610,
    "Ġcompletion": 12145,
    "Ġassemblage": 26351,
    "Ġpam": 21451,
    "hetically": 21207,
    "Ġfatally": 19392,
    "Ġreason": 1383,
    "º": 123,
    "Ġjuicy": 25370,
    "startled": 24941,
    "Ġrustling": 24715,
    "Ġsize": 1215,
    "elaborate": 21573,
    "Ġyielded": 14871,
    "gently": 13728,
    "overfitting": 13100,
    "isation": 13892,
    "Ġshriek": 6637,
    "Ġmonogra": 22979,
    "Ġajar": 21201,
    "paid": 15413,
    "Ġinvestigations": 17246,
    "Ġaccomplished": 7104,
    "despairing": 25074,
    "Ġplunging": 14951,
    "Ġdashed": 6009,
    "Ġimmens": 9938,
    "Ġproviding": 1358,
    "Ġbri": 21376,
    "Ġacquiesced": 25493,
    "convul": 24883,
    "dishonourable": 26365,
    "const": 5938,
    "mering": 12488,
    "Ġbeside": 5192,
    "Ġinference": 9671,
    ".âĢĶ": 4249,
    "rows": 6442,
    "Ġconceal": 5973,
    "buried": 14848,
    "ineffectual": 26504,
    "Ġobserved": 3542,
    "Ġextremity": 8988,
    "Ġtransports": 24277,
    "emotions": 15794,
    "Ġspitz": 14148,
    "Ġloving": 8175,
    "ications": 4444,
    "Ġindependently": 4247,
    "Ġtestified": 16335,
    "Ġtea": 5041,
    "val": 1159,
    "bohemia": 20730,
    "jack": 7344,
    "kempt": 20940,
    "Ġcrawled": 17044,
    "Ġorphan": 12381,
    "Ġfugitives": 25634,
    "fatality": 25019,
    "Ġgraph": 10902,
    "Ġii": 7385,
    "Ġlouisiana": 25076,
    "Ġelimin": 16106,
    "Ġbountiful": 25944,
    "kerchief": 7525,
    "unwho": 21874,
    "biqu": 17497,
    "Ġpecks": 18669,
    "oked": 4308,
    "plexy": 18567,
    "Ġoutstretched": 14195,
    "Ġweakened": 16823,
    "isp": 5528,
    "Ġdidn": 4362,
    "Ġ73": 24260,
    "ex": 624,
    "ht": 375,
    "Ġroute": 11381,
    "Ġessentially": 24924,
    "Ġcroquet": 9961,
    "Ġtub": 7146,
    "Ġenjoys": 19448,
    "project": 16423,
    "aps": 1228,
    "azine": 19130,
    "Ġdisappointment": 6626,
    "reception": 15513,
    "Ġsatisfactory": 11192,
    "shad": 10982,
    "ias": 6362,
    "Ġreasoned": 23081,
    "ruct": 685,
    "Ġspeckled": 14308,
    "Ġtypewriting": 16419,
    "Ġsignature": 16492,
    "grin": 19105,
    "remediable": 26294,
    "feit": 16040,
    "Ġcynical": 25770,
    "Ġforbearance": 12326,
    "Ġdecaying": 2250,
    "Ġshaded": 14104,
    "Ġcomputer": 1216,
    "Ġaccidentally": 9504,
    "Ġbritish": 11337,
    "Ġbrag": 23831,
    "Ġstool": 14461,
    "Ġglare": 13014,
    "wh": 509,
    "Ġharmony": 16814,
    "medium": 23637,
    "Ġhumorously": 18778,
    "Ġrescued": 24206,
    "Ġillustrious": 17109,
    "Ġdescription": 7429,
    "tranquil": 25870,
    "binder": 17499,
    "ferent": 4194,
    "consider": 6348,
    "cong": 10687,
    "ivity": 1652,
    "Ġhenry": 5197,
    "mccarthy": 15394,
    "Ġcistern": 17380,
    "Ġtoken": 2038,
    "Ġshillings": 15833,
    "Ġthrow": 3785,
    "Ġxxiv": 24477,
    "osition": 1371,
    "ible": 1113,
    "Ġbridges": 24682,
    "Ġangrily": 9406,
    "Ġsquid": 11876,
    "eyeing": 14945,
    "the": 334,
    "Ġsenate": 25214,
    "persons": 24174,
    "Ġparcels": 25465,
    "Ġslave": 7454,
    "flutter": 23968,
    "Ġmutable": 23952,
    "itute": 9651,
    "Ġshouldn": 14324,
    "Ġinno": 1481,
    "Ġantics": 24178,
    "Ġinquire": 7719,
    "Ġeffusion": 22498,
    "Ġcomes": 3426,
    "Ġargue": 16783,
    "seemingly": 25362,
    "Ġeffemin": 18530,
    "Ġremarking": 13123,
    "desperate": 17351,
    "Ġmuchness": 18708,
    "Ġdeline": 16329,
    "Ġdoubting": 13099,
    "Ġfif": 4216,
    "Ġmagnifying": 16317,
    "sombre": 23852,
    "Ġinexpress": 12632,
    "Ġextremely": 2671,
    "penet": 11070,
    "Ġplaning": 22598,
    "Ġbarn": 11586,
    "iscreet": 20681,
    "Ġofficial": 7081,
    "mira": 20978,
    "Ġenthusiasm": 8064,
    "Ġabstra": 22268,
    "bing": 7791,
    "Ġplanet": 14749,
    "Ġwhitewashed": 14468,
    "result": 12042,
    "Ġdaggoo": 5441,
    "Ġshining": 8171,
    "Ġcontained": 7678,
    "Ġalms": 21777,
    "Ġbriskly": 25311,
    "loat": 8886,
    "Ġmeth": 1434,
    "Ġrespond": 11176,
    "ran": 11515,
    "Ġabst": 9265,
    "Ġskills": 1839,
    "Ġinserted": 8355,
    "Ġinvisible": 7327,
    "Ġcaptive": 14426,
    "Ġgaff": 17993,
    "rose": 6013,
    "Ġungodly": 26513,
    "hen": 3518,
    "Ġbrows": 13299,
    "Ġpainful": 6462,
    "Ġcomplicated": 14734,
    "Ġwaking": 11569,
    "thread": 15824,
    "Ġlap": 8436,
    "Ġaccounts": 7207,
    "Ġalbert": 12703,
    "Ġgolden": 5336,
    "existence": 16012,
    "Ġcaul": 10787,
    "osures": 22258,
    "ipper": 13739,
    "Ġhesitating": 16947,
    "Ġwhirlp": 16963,
    "ville": 6087,
    "cement": 2675,
    "Ġheh": 21677,
    "tling": 9142,
    "ensions": 14259,
    "Ġalive": 4398,
    "exposure": 19256,
    "Ġunlocked": 14119,
    "Ġbluish": 23648,
    "ressing": 8918,
    "Ġhiss": 15785,
    "Ġspouts": 7729,
    "horror": 13158,
    "Ġperished": 11782,
    "xes": 21139,
    "Ġrelent": 18774,
    "Ġconstrain": 2631,
    "Ġcamberwell": 25350,
    "flatter": 23964,
    "accompan": 11452,
    "Ġdiminished": 16665,
    "Ġrifle": 18214,
    "mentioned": 10623,
    "words": 7982,
    "Ġrecoil": 18690,
    "Ġtraced": 10383,
    "appearance": 5333,
    "inct": 3295,
    "Ġori": 8408,
    "abling": 1074,
    "fell": 6953,
    "gabriel": 15359,
    "theirs": 23601,
    "Ġceremonious": 24837,
    "romised": 14111,
    "Ġjacket": 6489,
    "Ġfortifications": 23619,
    "Ġacquire": 2726,
    "greg": 6647,
    "Ġdiabol": 11453,
    "Ġreasoner": 14439,
    "Ġpassers": 18757,
    "chains": 9684,
    "Ġadd": 630,
    "covery": 11171,
    "Ġcomm": 839,
    "Ġsite": 17753,
    "Ġmakes": 3653,
    "Ġbroken": 3450,
    "agation": 1244,
    "Ġglasses": 9474,
    "omitted": 18016,
    "Ġlofty": 6217,
    "Ġfan": 2035,
    "unders": 13309,
    "Ġdisinterested": 16055,
    "avering": 24793,
    "Ġtruest": 16703,
    "neck": 14234,
    "Ġstatistics": 1683,
    "Ġsubdivisions": 26037,
    "fear": 8513,
    "Ġsailing": 5323,
    "fair": 10092,
    "horrible": 14600,
    "Ġcashier": 20197,
    "Ġinsights": 13178,
    "Ġpotent": 12062,
    "ana": 15556,
    "Ġhers": 7888,
    "Ġswelling": 11923,
    "Ġunimpeachable": 26522,
    "Ġdis": 694,
    "Ġhereafter": 9329,
    "Ġto": 297,
    "Ġoutlines": 15955,
    "Ġequ": 1737,
    "Ġleague": 6538,
    "Ġbestirred": 20450,
    "Ġmahogany": 20576,
    "_âĢĿ": 20760,
    "Ġburnished": 23995,
    "Ġcertain": 1555,
    "Ġpacked": 9979,
    "wandered": 20284,
    "Ġrejoicing": 13420,
    "Ġmeanest": 12907,
    "Ġwarm": 2428,
    "Ġcrying": 10786,
    "Ġefficiently": 3564,
    "congenial": 25399,
    "Ġliver": 14227,
    "digger": 24310,
    "fts": 18696,
    "Ġspacious": 18312,
    "alty": 17938,
    "evidently": 20344,
    "Ġliberties": 19666,
    "Ġcor": 1322,
    "Ġrephr": 21676,
    "Ġgrowl": 16537,
    "Ġupbraid": 18318,
    "Ġbiography": 22759,
    "Ġframework": 1923,
    "odd": 21811,
    "Ġthackeray": 26455,
    "Ġhospital": 15039,
    "light": 3020,
    "Ġdilig": 8349,
    "Ġduplicity": 25331,
    "ream": 2712,
    "hours": 9124,
    "Ġmes": 17796,
    "Ġunfitted": 24108,
    "Ġmaria": 7124,
    "Ġ": 225,
    "Ġundeniable": 26510,
    "lege": 17841,
    "neighbour": 7211,
    "ority": 8417,
    "arius": 14248,
    "till": 6965,
    "yp": 1046,
    "Ġsatur": 1933,
    "Ġmultiple": 1186,
    "Ġrecognise": 12038,
    "Ġcoopman": 25827,
    "Ġtranquill": 6630,
    "Ġclerical": 25568,
    "Ġdict": 9175,
    "ement": 1501,
    "retired": 11934,
    "Ġostlers": 25276,
    "Ġswiftly": 5670,
    "complain": 14354,
    "message": 17371,
    "Ġbeg": 1282,
    "Ġrol": 3556,
    "Ġprevious": 2090,
    "Ġdesigned": 7740,
    "ira": 3959,
    "cen": 17502,
    "fug": 17543,
    "bedroom": 14676,
    "uer": 21099,
    "Ġalterations": 19870,
    "Ġunman": 12771,
    "Ġsurgeon": 8981,
    "laying": 19771,
    "Ġconcisely": 19046,
    "Ġtempestuous": 20069,
    "Ġwas": 370,
    "post": 6061,
    "Ġattentively": 9949,
    "Ġseethe": 21960,
    "Ġdo": 511,
    "Ġamelia": 26251,
    "Ġreasonable": 7253,
    "eng": 1488,
    "Ġfris": 23254,
    "Ġidiot": 11970,
    "Ġtumbling": 13825,
    "Ġgoes": 3853,
    "Ġmainz": 22645,
    "ly": 319,
    "abominable": 20592,
    "Ġaddu": 22098,
    "fted": 9118,
    "Ġdiffers": 23780,
    "Ġox": 7153,
    "astonishment": 10029,
    "Ġpersuaded": 5769,
    "Ġcolossal": 11459,
    "Í": 142,
    "Ġlighten": 23257,
    "Ġdeficient": 18825,
    "Ġstructural": 2797,
    "Ġsuperglue": 23456,
    "Ġ58": 24326,
    "philosophers": 25252,
    "thoughtfully": 24041,
    "ep": 446,
    "ved": 870,
    "object": 6884,
    "coward": 13699,
    "Ġpain": 2304,
    "Ġtinge": 25087,
    "Ġmaelstrom": 19354,
    "inary": 3277,
    "Ġbritain": 16956,
    "Ġhugest": 17015,
    "Ġprobability": 1127,
    "contempt": 13189,
    "Ġestimate": 19371,
    "Ġentities": 11863,
    "Ġsoftly": 7947,
    "Ġviii": 16412,
    "any": 3341,
    "racing": 21628,
    "Ġgazing": 5875,
    "Ġoffence": 12941,
    "Ġquadrille": 13540,
    "Ġindia": 10370,
    "Ġpurchasing": 19874,
    "Ġbolivia": 24667,
    "inburgh": 15489,
    "Ġfreer": 23207,
    "shabb": 18495,
    "ication": 969,
    "Ġagreeing": 20017,
    "Ġphyset": 23199,
    "pent": 3494,
    "Ġbelly": 10369,
    "Ġacts": 2296,
    "build": 12185,
    "Ġtoler": 7588,
    "mingled": 14712,
    "if": 376,
    "dry": 13702,
    "former": 11746,
    "reck": 9636,
    "Ġvivid": 8057,
    "cur": 3273,
    "Ġreleased": 2982,
    "Ġanoints": 25538,
    "Ġparl": 8177,
    "Ġsuperl": 16446,
    "seven": 8463,
    "repeated": 12337,
    "ce": 313,
    "Ġstalls": 25647,
    "Ġappropriate": 2252,
    "Ġfest": 10804,
    "al": 292,
    "rol": 5713,
    "Ġhastening": 19335,
    "Ġweighed": 8710,
    "Ġrig": 4224,
    "hinting": 17569,
    "riages": 10242,
    "model": 4230,
    "ċ": 204,
    "eff": 2535,
    "Ġcomply": 8890,
    "Ġwashed": 15762,
    "Ġstruggling": 12072,
    "Ġyour": 634,
    "Ġendeavouring": 8034,
    "/`)": 13659,
    "Ġenlarged": 25985,
    "Ġatrocious": 21940,
    "laws": 19806,
    "Ġplans": 7917,
    "antic": 1604,
    "Ġdistant": 5387,
    "Ġembarked": 17134,
    "detective": 24383,
    "hip": 8740,
    "Ġpelt": 15607,
    "ay": 354,
    "ckery": 22087,
    "Ġgorge": 13565,
    "Ġknow": 632,
    "agitation": 14067,
    "Ġintegrated": 13530,
    "ounts": 4652,
    "Ġquadrant": 11404,
    "Ġprinciples": 10010,
    "Ġcocoan": 20315,
    "Ġperfume": 25665,
    "Ġdenied": 9000,
    "dismay": 19152,
    "Ġlearning": 386,
    "Ġilliterate": 26594,
    "Ġstretch": 6993,
    "happiness": 6469,
    "Ġvines": 12748,
    "Ġallowance": 14388,
    "Ġfaulty": 14906,
    "Ġmanxman": 9565,
    "Ġfields": 2143,
    "Ġprejud": 6851,
    "Ġcongratulatory": 19766,
    "emic": 18184,
    "remonstr": 23188,
    "Ġnavies": 16900,
    "minutely": 19592,
    "before": 3117,
    ".)": 6783,
    "Ġreading": 5114,
    "Ġbegone": 11914,
    "Ġfrigates": 25707,
    "Ġconfeder": 25708,
    "Ġtranquillity": 7536,
    "_.,": 14563,
    "anded": 5922,
    "ket": 17582,
    "Ġsurest": 19056,
    "Ġhammers": 13240,
    "ences": 1264,
    "Ġbeliefs": 24582,
    "Ġhaught": 10252,
    "itigated": 23044,
    "Ġscru": 8191,
    "condite": 23246,
    "Ġfalsehood": 10523,
    "unerative": 21893,
    "Ġreluct": 14371,
    "heard": 5009,
    "Ġj": 533,
    "onden": 13843,
    "Ġanchored": 17439,
    "Ġvap": 6837,
    "utch": 21583,
    "ivance": 22072,
    "pall": 17628,
    "Ġantip": 24177,
    "30": 20753,
    "rope": 3187,
    "Ġneglecting": 25007,
    "Ġruff": 14349,
    "ifford": 15781,
    "Ġoutrage": 15956,
    "Ġsacrificed": 17421,
    "aped": 3766,
    "m": 81,
    "igned": 5656,
    "Ġstoutly": 16924,
    "Ġdismasted": 15250,
    "Ġblasphemer": 26116,
    "modern": 1180,
    "Ġlicense": 20089,
    "Ġinfernal": 11959,
    "Ġadieu": 10050,
    "Ġmodes": 22218,
    "Ġquadruped": 17458,
    "ishness": 22339,
    "Ġgr": 979,
    "ilar": 10215,
    "Ġanimal": 2499,
    "retirement": 23136,
    "Ġpork": 21454,
    "Ġincisive": 18571,
    "Ġchewed": 16368,
    "Ġassign": 11109,
    "continually": 11302,
    "ais": 8070,
    "Ġfullest": 14813,
    "Ġunsupervised": 2523,
    "Ġboarded": 13233,
    "Ġscoresby": 10461,
    "Ġobeisance": 19757,
    "anks": 3918,
    "case": 5206,
    "Ġmillar": 13860,
    "infliction": 25924,
    "Ġassurance": 7774,
    "Ġadmitting": 19182,
    "Ġconference": 15744,
    "Ġreasonably": 11092,
    "Ġzigzag": 26272,
    "Ġjud": 3360,
    "Ġtopic": 9405,
    "Ġmilky": 9946,
    "Ġarab": 7823,
    "Ġfoiled": 23243,
    "Ġshri": 5375,
    "Ġscramble": 24578,
    "Ġhelp": 1638,
    "Ġvine": 8471,
    "Ġwhiting": 10859,
    "oding": 1461,
    "takes": 21074,
    "Ġunknown": 4452,
    "advance": 12154,
    "Ġwithstand": 10225,
    "inian": 21181,
    "kovoko": 20668,
    "Ġrust": 6408,
    "mill": 13753,
    "metic": 14983,
    "Ġrapt": 7226,
    "Ġpity": 4941,
    "Ġstartling": 14670,
    "Ġcuts": 14607,
    "Ġdeployment": 11196,
    "judges": 19572,
    "Ġbeards": 21748,
    "Ġtophet": 23572,
    "Ġuniversally": 11998,
    "send": 15422,
    "Ġwherefore": 8524,
    "Ġimposs": 16616,
    "Ġdecency": 18483,
    "Ġpeninsula": 23193,
    "Ġeastern": 11628,
    "inuating": 16201,
    "Ġleads": 12094,
    "Ġplus": 3883,
    "new": 1465,
    "Ġacquies": 11097,
    "Ġmak": 10778,
    "unted": 6998,
    "greatly": 16623,
    "events": 12315,
    "has": 4016,
    "beholding": 16039,
    "religion": 20574,
    "suffer": 24333,
    "Ġconsists": 11976,
    "free": 8735,
    "Ġdevil": 3615,
    "insist": 23061,
    "ju": 13740,
    "Ġcruellest": 19657,
    "Ġlydia": 2376,
    "Ġtortured": 14923,
    "Ġinheritance": 25355,
    "Ġbegat": 18862,
    "cular": 15327,
    "Ġmuttering": 10499,
    "Ġmartyr": 26360,
    "Ġoil": 3376,
    "Ġcurly": 18839,
    "whisper": 17083,
    "Ġforts": 21769,
    "Ġfeelingly": 22994,
    "atoes": 17775,
    "Ġgrate": 12961,
    "Ġemerged": 8684,
    "Ġacted": 7422,
    "ield": 2410,
    "try": 7812,
    "nades": 20996,
    "Ġhardships": 14450,
    "high": 6649,
    "Ġprometheus": 15291,
    "Ġexpectation": 6904,
    "lengths": 24846,
    "Ġpatients": 24813,
    "oles": 21004,
    "stirred": 20423,
    "Ġquestioning": 10463,
    "iously": 2680,
    "Ġtowering": 16739,
    "Ġmillions": 11354,
    "ely": 620,
    "Ġresurrection": 12891,
    "evenings": 19461,
    "float": 19804,
    "ounix": 14163,
    "hooked": 23714,
    "dler": 13705,
    "Ġat": 395,
    "fun": 3982,
    "Ġresembling": 4098,
    "chat": 21683,
    "Ġ150": 22823,
    "stairs": 5155,
    "spades": 14331,
    "Ġclatter": 22354,
    "Ġmakest": 25435,
    "ould": 427,
    "Ġtrotting": 19974,
    "Ġstrangest": 14794,
    "!--": 10677,
    "humorously": 24017,
    "Ġendeavored": 19302,
    "rank": 21040,
    "devils": 20031,
    "Ġwearied": 15791,
    "Ġprofits": 16488,
    "grained": 20882,
    "Ġdrinking": 12166,
    "tormented": 13644,
    "fastened": 19324,
    "oriental": 23720,
    "Ġhoops": 9388,
    "ships": 5486,
    "Ġconversation": 3333,
    "Ġdispute": 16054,
    "Ġplunge": 13442,
    "Ġmarble": 7668,
    "Ġdoings": 18376,
    "Ġpartaking": 22696,
    "Ġposture": 24164,
    "Ġim": 476,
    "Ġrise": 5637,
    "deemed": 18317,
    "Ġcocoanuts": 26362,
    "Ġacquit": 18897,
    "Ġgesture": 11399,
    "Ġspeakest": 23486,
    "smith": 5669,
    "Ġdifferences": 18714,
    "Ġcin": 13874,
    "shoes": 14240,
    "Ġfirmest": 16664,
    "orm": 425,
    "Ġvowed": 14083,
    "ext": 927,
    "wat": 6231,
    "honest": 17003,
    "Ġupbraiding": 26226,
    "ousness": 10274,
    "Ġdancing": 5703,
    "isson": 23460,
    "weaknesses": 26030,
    "Ġcreating": 3000,
    "Ġeye": 2283,
    "europe": 20664,
    "Ġconsolation": 6208,
    "Ġhal": 1359,
    "Ġhoary": 23352,
    "cheer": 9436,
    "Ġdevote": 10338,
    "Ġincarn": 11812,
    "Ġanger": 5442,
    "Ġleaks": 16448,
    "phology": 3012,
    "aught": 2683,
    "quet": 6835,
    "Ġtradesman": 20071,
    "Ġpowdered": 24237,
    "ter": 359,
    "nuts": 15397,
    "Ġus": 493,
    "brÃ¦": 11175,
    "ency": 3869,
    "Ġtoil": 6531,
    "perform": 15897,
    "kindled": 16660,
    "alous": 7372,
    "ww": 10737,
    "Ġsymptom": 13482,
    "Ġcompass": 4408,
    "Ġwhaler": 7520,
    "Ġspiritual": 9929,
    "Ġdisturbance": 15012,
    "Ġmonths": 3457,
    "shake": 22452,
    "Ġvigorous": 10566,
    "Ġvote": 21944,
    "americans": 25042,
    "omics": 21640,
    "illing": 8174,
    "Ġwakeful": 24266,
    "confusion": 13368,
    "Ġwages": 13853,
    "Ġforming": 7042,
    "Ġproducts": 5198,
    "Ġplaintiffs": 13608,
    "Ġplanned": 14751,
    "Ġjour": 11762,
    "Ġunheard": 22022,
    "Ġphiladel": 23883,
    "Ġmolasses": 25628,
    "Ġ129": 24474,
    "Ġwrithing": 11944,
    "contained": 22469,
    "char": 3504,
    "Ġunhing": 18241,
    "Ġgirls": 4280,
    "Ġheartfelt": 18968,
    "Ġensemble": 1608,
    "Ġerskine": 17431,
    "Ġwonderful": 4564,
    "Ġcarrying": 6071,
    "Ġlandowner": 23379,
    "fo": 5278,
    "caught": 8726,
    "ipelag": 12837,
    "extinguish": 22767,
    "hurt": 19877,
    "Ġ118": 19697,
    "Ġconvenience": 11331,
    "gangway": 20666,
    "entropy": 1437,
    "Ġpropos": 7062,
    "Ġunmannerly": 26517,
    "grave": 16092,
    "Ġfourth": 7706,
    "Ġscaled": 2107,
    "Ġcomplete": 4381,
    "Ġcivility": 4788,
    "Ġperusal": 14225,
    "Ġsticks": 14930,
    "Ġfascinating": 17327,
    "Ġapplied": 6186,
    "Ġwintry": 17433,
    "Ġmoves": 14231,
    "Ġtendinous": 16931,
    "dependence": 17167,
    "ĭ": 238,
    "jol": 20924,
    "Ġcork": 12566,
    "Ġplentiful": 12908,
    "but": 593,
    "chants": 21689,
    "fred": 20854,
    "Ġthunders": 15635,
    "Ġjackson": 24240,
    "gement": 13727,
    "detained": 24382,
    "stately": 18021,
    "Ġdisposition": 5409,
    "Ġmuscles": 12086,
    "Ġdrove": 4984,
    "Ġcheat": 19021,
    "hers": 7635,
    "Ġsaturday": 6452,
    "Ġpale": 4533,
    "Ġmaw": 15537,
    "Ġhaze": 18196,
    "Ġantagonist": 26328,
    "meat": 18676,
    "corn": 13698,
    "Ġdangling": 17174,
    "Ġfreezing": 23881,
    "Ġshow": 3404,
    "eenth": 12458,
    "Ġvillagers": 19472,
    "ieving": 7031,
    "occur": 19574,
    "Ġdusty": 14924,
    "menced": 23143,
    "Ġchimer": 24602,
    "Ġsplintered": 11418,
    "Ġhogshe": 20490,
    "rived": 5373,
    "finally": 9498,
    "Ġindolent": 13002,
    "Ġmanufact": 22325,
    "icide": 11617,
    "Ġrecover": 9790,
    "Ġtwitched": 20442,
    "Ġprophesy": 26061,
    "Ġameric": 3854,
    "understanding": 1118,
    "âĢĿ--": 21808,
    "Ġregent": 18586,
    "Ġlast": 1121,
    "oug": 432,
    ");": 7330,
    "soever": 11858,
    "omely": 21636,
    "ruined": 18337,
    "Ġtimbers": 14838,
    "Ġstrange": 2275,
    "otted": 14023,
    "Ġencounters": 19579,
    "eck": 20843,
    "oso": 12827,
    "Ġc": 277,
    "thrust": 10261,
    "Ġsecurity": 8977,
    "trained": 4239,
    "Ġunshored": 25813,
    "Ġtenement": 23547,
    "elze": 21570,
    "kered": 18274,
    "isive": 10793,
    "Ġfed": 5530,
    "Ġ86": 24461,
    "asse": 15642,
    "Ġhates": 21483,
    "Ġuncommonly": 7759,
    "Ġofficer": 6753,
    "legs": 13181,
    "enorm": 17781,
    "rons": 21038,
    "Ġstacks": 18074,
    "Ġdepressed": 10882,
    "shadows": 25479,
    "Ġsingle": 1694,
    "accomplishment": 20222,
    "rudential": 16709,
    "mental": 16046,
    "ional": 1081,
    "Ġsafely": 9025,
    "iogn": 20920,
    "Ġslept": 8258,
    "Ġlegal": 10439,
    "offered": 14518,
    "thrill": 25656,
    "trifling": 19412,
    "itals": 17820,
    "Ġpervading": 20612,
    "eds": 6674,
    "Ġfren": 10805,
    "Ġfearfully": 23511,
    "Ġunrivalled": 26519,
    "Ġtiar": 21166,
    "grief": 13730,
    "Ġinnocence": 6477,
    "foot": 9046,
    "Ġthrowing": 6335,
    "Ġbreak": 2870,
    "kind": 3864,
    "ud": 902,
    "Ġnow": 692,
    "west": 10739,
    "Ġgould": 17989,
    "uning": 1313,
    "Ġconsidering": 4616,
    "Ġobsequious": 17403,
    "Ġintent": 6409,
    "ol": 362,
    "fain": 13714,
    "Ġworst": 7444,
    "character": 6331,
    "Ġbub": 8117,
    "Ġambiguous": 20163,
    "Ġconst": 1912,
    "solitary": 14505,
    "ĠĠĠĠĠĠĠĠĠĠĠĠĠĠĠĠĠĠĠĠĠĠĠĠĠĠĠĠĠ": 19698,
    "supposing": 24134,
    "Ġsnoring": 23739,
    "Ġstoke": 10395,
    "Ġsanction": 20024,
    "Ġperplexity": 2756,
    "buncle": 13691,
    "Ġrueful": 25581,
    "cap": 8372,
    "Ġinquisitive": 26317,
    "Ġwallowing": 24040,
    "Ġoath": 7833,
    "elter": 21568,
    "Ġautomation": 13246,
    "Ġcompos": 22566,
    "Ġcustody": 13646,
    "Ġinto": 649,
    "lifted": 15385,
    "Ġransacked": 26505,
    "Ġlegitimate": 20641,
    "sent": 759,
    "26": 10072,
    "Ġunerring": 15845,
    "Ġdiversity": 25284,
    "Ġunmolested": 15244,
    "Ġalpha": 13587,
    "Ġclearer": 16310,
    "Ġbarnacled": 25536,
    "Ġcharge": 5324,
    "weary": 22683,
    "Ġcomputations": 16002,
    "Ġaudible": 19880,
    "bask": 20775,
    "Ġsnatched": 10471,
    "Ġsheer": 14150,
    "Ġsub": 952,
    "Ġflann": 23011,
    "jointed": 24007,
    "Ġmantel": 11439,
    "sand": 21051,
    "Ġcrocodile": 20739,
    "Ġintelligent": 1448,
    "Ġeagle": 13201,
    "hist": 7130,
    "explanation": 12356,
    "Ġservant": 5764,
    "Ġsagittarius": 24732,
    "Ġcentral": 7727,
    "Ġfinish": 7948,
    "Ġopenly": 8572,
    "conclusions": 25672,
    "mast": 3604,
    "cru": 7126,
    "intu": 22930,
    "bohem": 19002,
    "iliation": 10860,
    "Ġed": 2144,
    "protested": 13473,
    "dden": 1806,
    "Ġnap": 8808,
    "deepest": 22870,
    "Ġleaped": 8825,
    "itary": 4751,
    "computer": 1934,
    "charm": 13989,
    "Ġl": 303,
    "Ġisolated": 13558,
    "arking": 16123,
    "Ġfavourably": 16360,
    "Ġaction": 5796,
    "Ġequilibrium": 4141,
    "Ġdoubtless": 6195,
    "Ġcontracting": 16009,
    "Ġmocking": 24000,
    "Ġscatter": 18398,
    "could": 2875,
    "pra": 15406,
    "Ġapparelled": 20435,
    "Ġsumat": 14129,
    "neighb": 16021,
    "ince": 4339,
    "against": 5870,
    "Ġexultation": 15170,
    "Ġda": 5150,
    "Ġtrepidation": 19215,
    "Ġfriend": 1297,
    "Ġtransformations": 3486,
    "Ġaffl": 14385,
    "Ġunfrequently": 20738,
    "ercely": 12547,
    "rences": 9271,
    "Ġsung": 23270,
    "Ġgait": 13329,
    "Ġtypewritten": 16420,
    "Ġconverted": 16110,
    "Ġmess": 7831,
    "Ġbir": 17853,
    "becomes": 22493,
    "Ġaccomplish": 14875,
    "ĠĠĠĠĠĠĠĠĠĠĠĠĠĠĠĠĠĠĠĠĠĠ": 16225,
    "Ġmoney": 3420,
    "slo": 17656,
    "Ġperseverance": 13596,
    "Ġseeks": 14302,
    "Ġstability": 1360,
    "capt": 3837,
    "Ġbarrens": 25501,
    "Ġsupple": 22996,
    "obedience": 17409,
    "Ġdodge": 19885,
    "Ġtomahawk": 7539,
    "Ġbison": 21386,
    "etian": 13958,
    "separ": 9230,
    "Ġter": 2050,
    "Ġdeformed": 14046,
    "Ġagreed": 7028,
    "Ġdesired": 4665,
    "Ġgomorrah": 21612,
    "rations": 10723,
    "Ġblinded": 13269,
    "Ġrese": 2278,
    "Ġunconquerable": 22060,
    "fly": 13713,
    "Ġresented": 22540,
    "Ġinconsiderable": 21492,
    "begone": 12876,
    "zed": 8103,
    "throt": 25659,
    "Ġscot": 5643,
    "ushed": 2975,
    "Ġbount": 15565,
    "Ġdolphin": 17311,
    "Ġ16": 7926,
    "Ġspectre": 16630,
    "quently": 9701,
    "Ġbearing": 5298,
    "Ġhereditary": 10664,
    "Ġunwarrantable": 26353,
    "Ġjurymen": 16847,
    "Ġsque": 18756,
    "kindness": 10505,
    "Ġearthy": 23711,
    "Ġsepulch": 15283,
    "Ġcorporeally": 25729,
    "complexion": 14357,
    "slow": 7810,
    "Ġweltering": 19584,
    "Ġsmokes": 22556,
    "Ġrespectable": 6736,
    "Ġgeorgia": 23884,
    "=": 33,
    "Ġreplying": 19580,
    "ient": 393,
    "Ġimmaculate": 19484,
    "Ġseek": 4510,
    "Ġprovid": 1008,
    "Ġindependence": 12102,
    "sounded": 12264,
    "Ġmythologies": 26213,
    "wretchedness": 17252,
    "aping": 8193,
    "quar": 7615,
    "Ġsustenance": 19932,
    "Ġinverted": 12634,
    "Ġmotive": 6091,
    "gh": 3802,
    "useness": 22279,
    "inkled": 5477,
    "ancial": 21360,
    "Ġprescribed": 26010,
    "ford": 2822,
    "police": 10583,
    "Ġfunere": 22256,
    "useful": 16501,
    "icism": 13955,
    "elihood": 4623,
    "blast": 9587,
    "ogne": 12933,
    "snap": 24848,
    "Ġimpetus": 25569,
    "Ġbroadened": 23982,
    "characteristic": 24685,
    "Ġdefence": 11067,
    "Ġmult": 1022,
    "horr": 14599,
    "Ġfurled": 22811,
    "sne": 10124,
    "ache": 8518,
    "Ġcabaco": 13166,
    "rid": 5137,
    "Ġmuzzle": 21319,
    "Ġjost": 23629,
    "inj": 9151,
    "Ġhoarse": 14526,
    "Ġdate": 7841,
    "Ġgleams": 17309,
    "Ġgryphon": 4300,
    "Ġtongue": 6347,
    "Ġhandfuls": 17209,
    "Ġrespectful": 16344,
    "Ġhighland": 18713,
    "Ġoverwhelm": 25050,
    "grasp": 16429,
    "itching": 21333,
    "aution": 9387,
    "Ġthreading": 23400,
    "Ġhailing": 11691,
    "Ġcontemplated": 13463,
    "Ġsympathise": 16794,
    "harpo": 4805,
    "Ġmetallic": 19057,
    "Ġfrosts": 19801,
    "Ġeasterly": 25962,
    "Ġunerringly": 18265,
    "Ġdozen": 8185,
    "Ġcontrivances": 12355,
    "arrange": 23765,
    "fra": 8374,
    "Ġpositively": 13028,
    "dict": 15338,
    "resembling": 25932,
    "Ġroaring": 10968,
    "Ġinvolving": 18765,
    "Ġbeneficial": 23929,
    "Ġdisturbed": 8671,
    "Ġfootmarks": 19336,
    "Ġcurved": 18841,
    "wig": 17704,
    "Ġmargaret": 10376,
    "thank": 4950,
    "Ġperhaps": 1913,
    "Ġsobs": 14134,
    "Ġpurport": 14581,
    "Ġtransp": 4770,
    "Ġegot": 18007,
    "Ġreck": 6537,
    "Ġhadn": 9718,
    "dismal": 23497,
    "Ġbethinking": 25279,
    "Ġgliding": 8560,
    "Ġsaws": 23046,
    "body": 2310,
    "Ġtale": 5142,
    "Ġoutstanding": 22313,
    "Ġcritically": 23444,
    "Ġsovere": 9255,
    "Ġplanting": 16083,
    ".,": 5987,
    "Ġrepulsive": 14530,
    "Ġnarrated": 14870,
    "cart": 10688,
    "Ġhabitual": 24790,
    "antly": 1990,
    "Ġhorizon": 6632,
    "perplex": 18340,
    "Ġredress": 23751,
    "Ġbrig": 11047,
    "Ġunduly": 25994,
    "Ġinterview": 9769,
    "Ġ>": 21150,
    "lacing": 17590,
    "Ġdanger": 3520,
    "icit": 3381,
    "Ġabandoned": 8351,
    "Ġain": 6969,
    "Ġapartments": 19613,
    "Ġfamilies": 8026,
    "rimshander": 20656,
    "painful": 13501,
    "Ġlined": 15647,
    "Ġ1807": 26083,
    "Ġwooden": 4730,
    "Ġstil": 15715,
    "Ġgame": 3630,
    "Ġharp": 17923,
    "Ġillinois": 19136,
    "Ġbright": 3216,
    "Ġexpectantly": 23524,
    "Ġfatal": 5871,
    "Ġvancou": 22874,
    "Ġgross": 11624,
    "rints": 12500,
    "Ġcaptured": 7245,
    "Ġgroup": 2037,
    "accompanied": 12420,
    "bree": 15313,
    "andromeda": 21865,
    "Ġensuring": 11191,
    "Ġdamp": 8263,
    "Ġstill": 1157,
    "canallers": 22966,
    "Ġprepared": 5876,
    "beings": 12874,
    "Ġ200": 19295,
    "Ġdictate": 20150,
    "everywhere": 23696,
    "Ġredness": 19311,
    "Ġyer": 15731,
    "Ġhelps": 9366,
    "wholly": 10941,
    "Ġwhitting": 18055,
    "Ġinmost": 17930,
    "Ġflowed": 10371,
    "reputation": 15514,
    "Ġoaken": 13864,
    "Ġprocure": 9509,
    "earthly": 24724,
    "Ġselling": 21223,
    "ped": 6365,
    "hunters": 16833,
    "Ġrecommended": 8667,
    "Ġbug": 11588,
    "Ġentreaties": 9035,
    "oors": 17620,
    "Ġscenari": 22289,
    "Ġinquirers": 24962,
    "Ġports": 10818,
    "Ġquieted": 23840,
    "Ġankles": 17899,
    "Ġbeard": 11654,
    "reflect": 19864,
    "oology": 21005,
    "bbs": 23687,
    "Ġchill": 11750,
    "ley": 1817,
    "Ġblanche": 18819,
    "Ġhelplessly": 20076,
    "supers": 22639,
    "Ġdiffered": 22710,
    "horizon": 23614,
    "Ġbomb": 17867,
    "Ġreef": 10849,
    "Ġnatur": 17333,
    "Ġunfit": 14785,
    "Ġwalked": 3144,
    "Ġdisguise": 10045,
    "atre": 17770,
    "Ġwaldman": 11345,
    "Ġluxurious": 17310,
    "Ġsurmount": 19999,
    "Ġplant": 8899,
    "Ġyellowish": 24430,
    "counter": 20277,
    "Ġsketches": 26270,
    "Ġcoleridge": 18764,
    "Ġmeeting": 5193,
    "forgetting": 25485,
    "Ġcouch": 12568,
    "Ġsway": 7571,
    "breaking": 14763,
    "Ġfemales": 14936,
    "velope": 17701,
    "Ġmud": 11572,
    "ssed": 3736,
    "aning": 2256,
    "shown": 22451,
    "Ġphenomena": 21480,
    "Ġwith": 349,
    "Ġoverflowed": 20261,
    "Ġmilitia": 13316,
    "Ġfritters": 23255,
    "Ġtoe": 13935,
    "Ġabsurd": 7202,
    "99": 1898,
    "Ġanguish": 5584,
    "adopt": 25544,
    "igating": 21697,
    "Â£": 4812,
    "Ġspending": 10923,
    "Ġflorid": 17135,
    "Ġobed": 8535,
    "Ġcoil": 11816,
    "##": 2320,
    "esting": 7412,
    "Ġoversampling": 20514,
    "gentleman": 7518,
    "lest": 5288,
    "uble": 21101,
    "Ġflows": 13011,
    "pattern": 4480,
    "Ġidler": 16405,
    "Ġorganisation": 23582,
    "iz": 365,
    "ascribed": 24708,
    "Ġwildly": 9413,
    "Ġdiscoursing": 26266,
    "ª": 108,
    "Ġantarctic": 19551,
    "Ġimmeasurable": 26230,
    "Ġreceiving": 4882,
    "odes": 18119,
    "Ġdevelopment": 7058,
    "Ġdecomposes": 5506,
    "Ġequivalent": 4802,
    "Ġlikely": 3599,
    "ateg": 1407,
    "Ġincorporate": 20453,
    "Ġabstracted": 17182,
    "scorched": 25697,
    "amore": 21846,
    "Ġyear": 3288,
    "Ġwhit": 7177,
    "Ġforefinger": 16444,
    "ased": 1267,
    "necessities": 24306,
    "anelles": 26434,
    "Ġcontin": 5382,
    "reinforcement": 7826,
    "yl": 7818,
    "Ġ115": 24439,
    "Ġcranes": 20381,
    "Ġpupils": 20419,
    "horner": 23613,
    "despatched": 19800,
    "Ġlin": 10833,
    "Ġdecks": 6900,
    "Ġsingers": 23770,
    "Ġtester": 21171,
    "nel": 11504,
    "Ġclicked": 22362,
    "planted": 11694,
    "Ġbenchmarks": 15021,
    "Ã": 132,
    "Ġprosper": 10228,
    "rocket": 13943,
    "Ġdavis": 25952,
    "bringing": 17166,
    "Ġpersuasions": 16631,
    "esty": 4306,
    "swallow": 24257,
    "Ġspire": 18306,
    "hills": 13735,
    "Ġ1839": 20458,
    "pardon": 10064,
    "Ġsoo": 15859,
    "oin": 17617,
    "tables": 19756,
    "Ġdreams": 7496,
    "classification": 4386,
    "Ġagreement": 18542,
    "Ġchis": 11748,
    "Ġobsc": 7039,
    "Ġunimag": 12772,
    "prevented": 20372,
    "Ġassoc": 6402,
    "Ġrealise": 16333,
    "apsed": 6295,
    "Ġcent": 3256,
    "visit": 7754,
    "cooee": 12416,
    "Ġplaned": 24052,
    "Ġital": 10866,
    "Ġlands": 6594,
    "Ġrecord": 5316,
    "look": 2264,
    "aintance": 3571,
    "ulum": 21860,
    "Ġoozy": 21325,
    "libr": 22919,
    "Ġprivately": 19522,
    "Ġpsych": 10176,
    "largely": 19573,
    "Ġclaims": 13372,
    "Ġissu": 6253,
    "cturn": 17986,
    "Ġconstruction": 9385,
    "Ġrazor": 22652,
    "Ġdair": 17889,
    "otions": 7180,
    "oner": 6124,
    "Ġmortifying": 13244,
    "romang": 22002,
    "enborough": 21284,
    "Ġremarkably": 7702,
    "Ġthis": 382,
    "stuff": 15685,
    "whal": 10940,
    "Ġforfeit": 21772,
    "ils": 3184,
    "Ġruss": 18720,
    "_).âĢĶ": 8681,
    "Ġlandau": 16418,
    "Ġfedallah": 6108,
    "uctive": 17696,
    "ython": 1030,
    "twelve": 14622,
    "Ġwrought": 11942,
    "pretty": 10621,
    "Ġpersist": 16273,
    "Ġkeenest": 12159,
    "Ġinfluence": 5515,
    "omn": 15679,
    "Ġdashing": 8795,
    "strils": 10458,
    "Ġsakes": 18325,
    "among": 6256,
    "render": 10290,
    "stranger": 9882,
    "Ġcongenial": 12409,
    "Ġhouses": 6138,
    "Ġsaturation": 2063,
    "Ġplayfulness": 23635,
    "remains": 10398,
    "Ġtra": 1382,
    "Ġchuckled": 10647,
    "Ġsearch": 2590,
    "leep": 4635,
    "Ġgroan": 13323,
    "84": 15300,
    "Ġclank": 15971,
    "Ġforged": 12701,
    "Ġbehav": 3541,
    "rit": 21034,
    "Ġlikewise": 5386,
    "prosper": 19100,
    "ims": 7176,
    "Ġremainder": 9857,
    "Ġcryst": 9916,
    "Ġpistols": 17328,
    "Ġstruggled": 9904,
    "Ġnapkins": 25161,
    "Ġneville": 7399,
    "Ġbliss": 12998,
    "Ġdefend": 9339,
    "hosmer": 25902,
    "imble": 10858,
    "watson": 12241,
    "Ġpatriot": 23299,
    "gling": 10097,
    "shall": 4551,
    "Ġidea": 2488,
    "Ġlanded": 7469,
    "Ġnoises": 18374,
    "Ġbenefactor": 14697,
    "Ġcrusad": 23705,
    "Ġlionel": 25286,
    "ultaneously": 4193,
    "Ġpray": 3900,
    "Ġquaker": 10971,
    "Ġsignification": 19203,
    "ap": 547,
    "Ġmouse": 4694,
    "Ġleader": 14701,
    "Ġdelineate": 26057,
    "expression": 10547,
    "Ġface": 1723,
    "vour": 17699,
    "Ġcrows": 24028,
    "rivial": 9433,
    "Ġdispel": 16596,
    "Ġbowlines": 19321,
    "Ġvint": 18194,
    "deserts": 25379,
    "Ġrusty": 14963,
    "Ġcontradictory": 20395,
    "Ġcourt": 4169,
    "sample": 12504,
    "Ġdescend": 7427,
    "Ġcoff": 3508,
    "Ġeasy": 3454,
    "Ġweal": 21917,
    "Ġoccasion": 3248,
    "arman": 11594,
    "impl": 21704,
    "Ġplatform": 17131,
    "Ġrelief": 6059,
    "Ġsubstances": 24165,
    "Ġinconvenience": 9563,
    "stonecraft": 24356,
    "Ġadvice": 4901,
    "Ġbat": 10795,
    "Ġelasticity": 19557,
    "bulwarks": 12270,
    "Ġsupers": 18278,
    "//": 11463,
    "Ġdiscrimination": 23604,
    "Ġfever": 6558,
    "remaining": 20219,
    "thodox": 21985,
    "spikes": 10340,
    "Ġimpaling": 22381,
    "shook": 19855,
    "Ġcontempt": 6275,
    "elastic": 17980,
    "Ġpearl": 20375,
    "Ġstiffness": 24830,
    "Ġprincipally": 11309,
    "genteel": 19947,
    "Ġmarbank": 23036,
    "Ġcivilities": 14847,
    "inside": 23062,
    "Ġent": 903,
    "Ġdeliriously": 23225,
    "cnns": 3623,
    "aggoo": 5130,
    "Ġsentinel": 26065,
    "mangled": 20980,
    "Ġstoper": 14462,
    "ws": 7355,
    "Ġdistricts": 20262,
    "opard": 9290,
    "Ġgpt": 4350,
    "Ġphaeton": 17464,
    "latter": 15381,
    "eel": 11483,
    "Ġsucceeded": 6105,
    "Ġscarcity": 23824,
    "uced": 13799,
    "frost": 15105,
    "ilations": 21719,
    "mature": 20966,
    "Ġcolour": 4460,
    "unt": 2043,
    "Ġthinnest": 24183,
    "earn": 10696,
    "Ġintact": 21986,
    "Ġkrusen": 20713,
    "Ġvolume": 6769,
    "fuller": 22483,
    "Ġdownright": 16116,
    "Ġindiam": 22950,
    "Ġhowl": 12851,
    "whether": 5319,
    "alling": 6036,
    "att": 1456,
    "Ġsupported": 9817,
    "Ġthreads": 13116,
    "Ġsuccessful": 9922,
    "avish": 22591,
    "re": 266,
    "Ġconcealment": 16914,
    "corpse": 24486,
    "Ġdoubloons": 13433,
    "Ġsmith": 16062,
    "Ġstare": 10864,
    "Ġsurf": 19131,
    "lane": 10706,
    "nostr": 22749,
    "Ġdistressing": 12216,
    "onstr": 12543,
    "stooped": 23819,
    "Ġstrove": 9956,
    "Ġward": 10155,
    "sloop": 26145,
    "Ġneighbours": 8302,
    "Ġcomely": 21840,
    "carried": 16711,
    "Ġfant": 9173,
    "gallantry": 15058,
    "Ġnest": 10188,
    "Ġdefines": 1744,
    "alogue": 25159,
    "autions": 20766,
    "acqu": 4842,
    "Ġinvaluable": 10182,
    "Ġversion": 10629,
    "Ġassid": 18944,
    "Ġped": 6817,
    "Ġwearer": 21920,
    "Ġpostponed": 20388,
    "nineteenth": 26138,
    "Ġnecessary": 4473,
    "Ġhave": 445,
    "Ġvillas": 24050,
    "Ġshocks": 16457,
    "Ġasiatic": 20428,
    "Ġarsacidean": 20363,
    "Ġpursuit": 4733,
    "Ġsexes": 25168,
    "actorily": 25576,
    "Ġavowal": 19413,
    "Ġdexterously": 25295,
    "cannibal": 15223,
    "Ġfade": 21405,
    "pointed": 9809,
    "Ġaccompany": 9486,
    "Ġsatire": 22897,
    "ricane": 16277,
    "Ġreservo": 16831,
    "Ġumb": 11645,
    "Ġstranger": 3487,
    "Ġlun": 7855,
    "tempered": 13445,
    "Ġspecial": 2104,
    "Ġhaws": 21948,
    "Ġthinking": 4033,
    "cst": 10084,
    "Ġunbending": 25464,
    "Ġdarkened": 16431,
    "on": 267,
    "Ġwight": 12550,
    "Ġanalyze": 1661,
    "Ġsherlock": 3894,
    "jee": 17579,
    "Ġguise": 14431,
    "Ġspaces": 3114,
    "Ġhumbly": 16196,
    "Ġsutherland": 10148,
    "breadth": 20275,
    "bable": 8718,
    "Ġindignant": 12237,
    "glow": 20873,
    "Ġbigot": 24565,
    "Ġsubmitted": 11869,
    "Ġsuccessive": 10500,
    "furniture": 20241,
    "recur": 4436,
    "giv": 13721,
    "ned": 3493,
    "recl": 15509,
    "Ġprize": 11946,
    "Ġrecol": 4031,
    "Ġrevealed": 6751,
    "Ġquestioned": 14620,
    "Ġnorton": 12646,
    "Ġdru": 8421,
    "Ġviciss": 11292,
    "Ġinnocent": 4921,
    "Ġthickly": 12113,
    "ating": 666,
    "Ġpalace": 16690,
    "Ġ117": 19696,
    "Ġstacked": 21740,
    "should": 3264,
    "Ġanomaly": 25636,
    "itzerland": 9994,
    "reast": 17758,
    "youn": 5690,
    "Ġgi": 15663,
    "wers": 12517,
    "icket": 22665,
    "Ġmystical": 12130,
    "Ġvector": 1974,
    "Ġtoy": 15631,
    "playing": 19656,
    "overspreading": 26139,
    "Ġaversion": 18865,
    "yrin": 12519,
    "venth": 9294,
    "Ġqualities": 7533,
    "itor": 12563,
    "uttermost": 24940,
    "emph": 21925,
    "rals": 21041,
    "Ġasc": 4765,
    "Ġchrysalis": 26538,
    "Ġdragging": 14475,
    "Ġnour": 10830,
    "tremendous": 20672,
    "Ġmari": 6813,
    "expl": 9282,
    "Ġdishon": 12228,
    "single": 10126,
    "prairies": 20565,
    "perils": 22180,
    "atters": 18500,
    "school": 10054,
    "Ġextracts": 9364,
    "Ġfake": 5810,
    "Ġstirs": 14916,
    "because": 4923,
    "Ġrem": 956,
    "Ġoccupies": 24005,
    "Ġhasten": 10478,
    "osure": 5306,
    "constantinople": 25507,
    "Ġunbelief": 22046,
    "~": 98,
    "Ġlayers": 815,
    "Ġmagnificence": 20631,
    "Ġdiction": 8794,
    "Ġsoles": 22082,
    "miserably": 24210,
    "bro": 4036,
    "qual": 8156,
    "Ġspies": 22125,
    "Ġhansom": 13663,
    "added": 11658,
    "aet": 15306,
    "Ġspectrum": 4474,
    "Ġfreshe": 13068,
    "rist": 10122,
    "long": 2915,
    "Ġcomposition": 1689,
    "paus": 13772,
    "maritime": 24173,
    "Ġrises": 9712,
    "Ġsolely": 9909,
    "Ġharpo": 1945,
    "Ġdried": 7367,
    "Ġcontextual": 3744,
    "Ġproprietor": 12371,
    "serve": 13044,
    "Ġexercising": 19906,
    "br": 2480,
    "Ġundue": 25993,
    "Ġheedful": 19739,
    "bouton": 17501,
    "ifting": 6545,
    "Ġpanelled": 19653,
    "Ġfurthest": 22813,
    "Ġtiger": 11554,
    "Ġstunsail": 25543,
    "Ġthemselves": 3254,
    "Ġindividually": 22954,
    "Ġswim": 3821,
    "spite": 16135,
    "furthermore": 20002,
    "believe": 8303,
    "trunk": 23945,
    "Ġstately": 9833,
    "estim": 14169,
    "context": 3406,
    "Ġcolourless": 19568,
    "unken": 10236,
    "Ġquart": 11785,
    "Ġwarrant": 17794,
    "ittingly": 18802,
    "Ĥ": 229,
    "Ġstep": 752,
    "Ġglance": 4233,
    "immortal": 21707,
    "sullen": 17669,
    "Ġhappiness": 2948,
    "Ġsteady": 4847,
    "aract": 17894,
    "Ġangle": 8602,
    "Ĕ": 213,
    "Ġprivilege": 11419,
    "Ġburial": 16520,
    "Ġheaps": 11641,
    "Ġcommunion": 19008,
    "Ġbleak": 10558,
    "Ġreceptive": 1561,
    "helm": 12169,
    "Ġcorrespond": 6209,
    "Ġrewards": 10848,
    "ĠĠĠĠĠĠĠĠĠĠĠĠĠĠĠĠĠĠĠĠĠĠĠĠĠĠĠĠĠĠĠĠĠĠĠĠĠĠĠ": 19258,
    "dimensional": 2352,
    "ining": 3223,
    "Ġcons": 955,
    "Ġ56": 24324,
    "Ġdisgracing": 26255,
    "quis": 7869,
    "Ġburied": 7718,
    "Ġschool": 5512,
    "Ġrespects": 7269,
    "Ġmatrim": 11060,
    "Ġcens": 8412,
    "dum": 17518,
    "Ġstate": 1811,
    "Ġhumbled": 16195,
    "erring": 11057,
    "======================================================================": 10067,
    "ancing": 1760,
    "Ġwinc": 9642,
    "Ġlothario": 26184,
    "deformity": 22144,
    "remarks": 23186,
    "pron": 9005,
    "abond": 15738,
    "somewhere": 12011,
    "het": 5435,
    "Ġhunters": 6300,
    "Ġmealy": 18118,
    "iability": 20919,
    "Ġdispleasure": 16050,
    "Ġgrass": 5177,
    "ĠâĢľâĢĺ_": 25111,
    "virtue": 20568,
    "Ġextravagance": 17279,
    "Ġacquaint": 13042,
    "Ġmarched": 18871,
    "Ġlime": 13947,
    "Ġcoverage": 4288,
    "Ġsimil": 2532,
    "Ġminers": 22832,
    "Ġallowing": 2175,
    "Ġcalmed": 16265,
    "fortunate": 4792,
    "ish": 551,
    "Ġpave": 8799,
    "restoration": 23231,
    "Ġarmada": 23579,
    "Ġgrazed": 15831,
    "Ġpoetic": 17103,
    "Ġcountries": 13096,
    "Ġadvance": 5484,
    "bat": 8071,
    "Ġmarine": 23032,
    "iments": 4945,
    "oping": 5559,
    "ý": 190,
    "vess": 7354,
    "combined": 20319,
    "interview": 19298,
    "party": 8992,
    "ffy": 18314,
    "Ġstrong": 1787,
    "Ġaright": 11738,
    "Ġframe": 1833,
    "Ġdestination": 19149,
    "Ġtraveller": 8048,
    "Ġvaguely": 17365,
    "Ġclim": 8196,
    "spoke": 11023,
    "Ġeleventh": 23367,
    "enced": 4296,
    "Ġluc": 3313,
    "Ġvulgarity": 25363,
    "Ġindicates": 3197,
    "doing": 8584,
    "Ġarchbishop": 18717,
    "swift": 14851,
    "Ġwired": 17786,
    "Ġregret": 5561,
    "ushion": 14719,
    "ues": 2081,
    "Ġeavesdroppers": 25963,
    "Ġiteratively": 3061,
    ":âĢĶâĢĺ": 24193,
    "Ġpatron": 7464,
    "Ġ179": 19753,
    "Ġdownst": 3559,
    "Ġmelted": 19620,
    "Ġconcealed": 7495,
    "Ġunthink": 18247,
    "overlooked": 23323,
    "Ġtune": 17725,
    "Ġnobler": 14175,
    "Ġlunch": 13525,
    "Ġgunwales": 12238,
    "bride": 19200,
    "Ġshort": 2229,
    "passing": 14811,
    "een": 728,
    "listen": 13513,
    "Ġfumes": 21416,
    "exhibited": 18477,
    "Ġupon": 719,
    "Ġgradu": 15830,
    "Ġstren": 15717,
    "Ġdazzling": 15210,
    "problem": 25244,
    "experienced": 15120,
    "Ġbrides": 22863,
    "Ġchorus": 10946,
    "Ġramble": 9312,
    "Ġlistened": 4469,
    "Ġinvolves": 1112,
    "Ġthinkings": 22809,
    "Ġskill": 6872,
    "Ġjeroboam": 10600,
    "papers": 12499,
    "Ġtopsails": 19194,
    "Ġminority": 18752,
    "Ġapplication": 2097,
    "Ġguitar": 16267,
    "Ġhorsham": 10406,
    "Ġimpropriety": 17394,
    "considering": 12172,
    "Ġhistories": 14687,
    "Ġaltering": 18102,
    "Ġhereabouts": 12975,
    "Ġstomach": 11652,
    "Ġavert": 14424,
    "Ġoverwrites": 5033,
    "wonted": 13492,
    "erns": 8777,
    "Ġbagging": 24539,
    "entials": 22661,
    "](": 11466,
    "Ġbreaths": 14856,
    "Ġtended": 21165,
    "Ġbeh": 1803,
    "Ġphilips": 5410,
    "Ġnamely": 20688,
    "ildad": 3533,
    "Ġrefresh": 10345,
    "Ġpenny": 16311,
    "Ġramad": 8527,
    "iction": 4269,
    "Ġsyllable": 9728,
    "Ġinfat": 14500,
    "Ġpill": 7845,
    "Ġforswe": 21771,
    "fashioned": 9570,
    "spirits": 8054,
    "ms": 536,
    "Ġcautious": 12251,
    "Ġpreparations": 12308,
    "Ġfloundered": 18861,
    "Ġmoluccas": 25629,
    "brimmed": 14588,
    "Ġencaps": 12959,
    "bowing": 24454,
    "covenant": 23561,
    "various": 10397,
    "Ġdistrict": 10318,
    "beer": 22485,
    "southern": 20407,
    "Ġwillow": 18531,
    "Ġhuggins": 24828,
    "insurance": 18887,
    "pl": 401,
    "Ġhunks": 18935,
    "Ġfoundling": 22970,
    "Ġhundred": 2696,
    "Ġalternate": 19984,
    "mic": 12486,
    "dozen": 23376,
    "Ġensuing": 12307,
    "Ġmaintenance": 17461,
    "simultaneously": 19863,
    "Ġresulting": 24198,
    "circle": 16736,
    "Ġpeevish": 26557,
    "Ġneighbor": 25803,
    "Ġimbalance": 22171,
    "atter": 652,
    "Ġwestmorland": 24390,
    "Ġ13": 6718,
    "ece": 17531,
    "Ġcanals": 22164,
    "Ġsafe": 5103,
    "tiger": 13796,
    "Ġstricken": 9775,
    "Ġjewel": 9941,
    "Ġstair": 8455,
    "ilburn": 18059,
    "Ġharshly": 25249,
    "Ġplied": 22594,
    "co": 2436,
    "Ġcompressed": 21842,
    "known": 3570,
    "lott": 6650,
    "Ġelev": 5536,
    "urning": 12914,
    "Ġroyalty": 19735,
    "Ġgarn": 13962,
    "®": 111,
    "bourgh": 19103,
    "plicable": 10255,
    "Ġarisen": 11741,
    "Ġfooting": 14482,
    "sails": 7497,
    "Ġpretend": 7721,
    "Ġsay": 935,
    "Ġmechanism": 2628,
    "```": 25893,
    "morrow": 4573,
    "Ġmadman": 13150,
    "fresh": 13391,
    "Ġentirely": 3436,
    "Ġoutlast": 22310,
    "utral": 12660,
    "ispens": 8335,
    "dreaded": 25138,
    "Ġdefection": 22939,
    "Ġsecretary": 19440,
    "Ġfood": 5080,
    "Ġcomputes": 4768,
    "el": 306,
    "Ġwhilst": 9218,
    "Ġcripp": 9653,
    "Ġseparated": 9464,
    "sympathy": 20541,
    "Ġwelcomed": 9481,
    "deserted": 18960,
    "Ġtumble": 16879,
    "Ġsprings": 16687,
    "nar": 12491,
    "Ġvincent": 15282,
    "Ġsyllables": 25298,
    "Ġaccordingly": 6619,
    "Ġmant": 9647,
    "retrie": 18922,
    "urious": 21700,
    "Ġdoubt": 2227,
    "Ġlifting": 10196,
    "izarre": 17388,
    "onent": 21247,
    "Ġtoilet": 13936,
    "Ġ112": 24437,
    "Ġprofundity": 20451,
    "Ġfavourable": 7958,
    "altern": 17941,
    "verd": 21724,
    "Ġjane": 1759,
    "Ġscared": 14189,
    "umbers": 10918,
    "Ġearnest": 3931,
    "Ġcaucus": 17379,
    "Ġpasseng": 12968,
    "Ġparched": 11725,
    "Ġroughs": 19955,
    "falling": 24361,
    "Ġwindlass": 7256,
    "Ġsmilingly": 22557,
    "unconquerable": 21888,
    "hence": 16624,
    "S": 55,
    "Ġreus": 8821,
    "pping": 1423,
    "ken": 2800,
    "Ġmadame": 13149,
    "Ġprinc": 4199,
    "albatross": 15627,
    "Ġinsince": 23674,
    "alterable": 13623,
    "dman": 10088,
    "incidentally": 20538,
    "tears": 11037,
    "smiles": 14692,
    "Ġsmack": 9299,
    "Ġmurdering": 14810,
    "Ġunhappiness": 14117,
    "Ġfortnight": 6200,
    "imate": 4220,
    "max": 1686,
    "Ġvacancies": 24345,
    "Ġsuff": 1305,
    "Ġaverred": 18864,
    "Ġaunt": 3179,
    "Ġextant": 18694,
    "prodig": 16425,
    "Ġcrop": 10162,
    "Ġthanked": 9458,
    "Ġrussia": 26267,
    "opinion": 10984,
    "Ġincor": 2610,
    "jets": 20927,
    "Ġindestruct": 22955,
    "Ġpatted": 16378,
    "Ġsentimental": 24754,
    "ald": 15622,
    "Ġarea": 14186,
    "ces": 577,
    "Ġgestures": 13535,
    "incom": 21180,
    "Ġfail": 4149,
    "confused": 19643,
    "Ġtube": 15003,
    "Ġrespective": 16343,
    "Ġenabling": 1075,
    "Ġrole": 15995,
    "Ġtrace": 6181,
    "Ġofficers": 4425,
    "ricted": 15419,
    "Ġsciences": 15943,
    "handkerchief": 14618,
    "dining": 13704,
    "Ġtwink": 8215,
    "Ġlatterly": 24084,
    "Ġungod": 22021,
    "Ġclair": 6269,
    "Ġscra": 5841,
    "hunsford": 24386,
    "Ġshone": 7404,
    "Ġadviser": 25312,
    "Ġpeering": 8534,
    "Ġlikeness": 11179,
    "Ġsisters": 3642,
    "urns": 10213,
    "Ġgleam": 12306,
    "deduction": 23556,
    "Ġmoonlight": 9957,
    "Ġsteer": 10386,
    "brace": 16942,
    "madly": 24420,
    "increased": 20269,
    "Ġterrified": 14671,
    "Ġexpired": 18624,
    "they": 1882,
    "swim": 16779,
    ";âĢĿâĢĶ": 20759,
    "Ġviciously": 24404,
    "Ġunceasing": 20356,
    "Ġhalloa": 13315,
    "blending": 24128,
    "Ń": 260,
    "oward": 6020,
    "Ġabusive": 22270,
    "Ġcurling": 9340,
    "Ġomitted": 12561,
    "Ġbethink": 12377,
    "âĢĻ-": 18166,
    "aciously": 12904,
    "achment": 5464,
    "Ġhill": 5626,
    "Ġweek": 2828,
    "gast": 20870,
    "Ġwarden": 17224,
    "Ġpout": 17904,
    "sis": 1849,
    "Ġantiquities": 25598,
    "iting": 2159,
    "sufficiently": 14980,
    "atlantic": 15522,
    "Ġdictionary": 15111,
    "imes": 1302,
    "investments": 25532,
    "lit": 9605,
    "penetrating": 25490,
    "stubb": 6017,
    "Ġproceed": 3244,
    "Ġrepublic": 14531,
    "Ġfurnaces": 24002,
    "Ġfollies": 16253,
    "Ġdisappears": 18560,
    "Ġparametric": 2397,
    "bol": 8717,
    "appalling": 22845,
    "Ġimpatient": 5603,
    "Ġtheoretic": 23311,
    "Ġspecific": 2003,
    "Ġsketch": 16163,
    "althy": 8431,
    "hind": 20893,
    "ilight": 12690,
    "Ý": 158,
    "sterns": 23366,
    "Ġfuneral": 10282,
    "Ġsiam": 13837,
    "Ġread": 1446,
    "Ġbrilliancy": 20105,
    "Ġpat": 1802,
    "Ġspectacle": 10496,
    "Ġtow": 4395,
    "Ġconsecrate": 26489,
    "Ġlull": 15648,
    "Ġwarehouse": 20415,
    "Ġopal": 23624,
    "Ġmild": 4147,
    "Ġweave": 21918,
    "icirc": 15653,
    "Ġfact": 1729,
    "Ġbritannica": 24680,
    "Ġdiscussing": 5202,
    "ifully": 13183,
    "remorse": 14466,
    "Ġport": 3312,
    "Ġregard": 3070,
    "ender": 9160,
    "Ġharvest": 13414,
    "incible": 16496,
    "Ġvexed": 9993,
    "Ġbitterest": 12400,
    "tures": 21068,
    "dee": 11731,
    "ington": 21300,
    "Ġvertical": 16604,
    "Ġmyth": 18220,
    "Ġdy": 2551,
    "Ġrepairing": 25589,
    "Ġenclosure": 20622,
    "Ġlow": 1644,
    "Ġroman": 8322,
    "Ġard": 5164,
    "Ġhemisphere": 26478,
    "Ġrestrain": 8964,
    "caut": 20811,
    "followed": 8338,
    "Ġreinforcement": 3096,
    "Ġreach": 4048,
    "interested": 9505,
    "paddington": 20476,
    "lab": 3458,
    "ror": 7351,
    "Ġjen": 9266,
    "Ġrosy": 18459,
    "Ġfarewell": 9519,
    "uber": 15444,
    "questioning": 16850,
    "Ġaudacity": 19881,
    "Ġjac": 1900,
    "owners": 16084,
    "orses": 6051,
    "perse": 15896,
    "Ġpocket": 4898,
    "Ġvisible": 4777,
    "Ġunworthy": 11713,
    "nect": 665,
    "Ġthoughts": 3141,
    "Ġsuited": 12782,
    "things": 6032,
    "Ġgobern": 22422,
    "Ġsemicircular": 26069,
    "Ġisolation": 17150,
    "frequent": 15352,
    "aled": 3945,
    "sk": 5521,
    "Ġsparks": 22129,
    "speptic": 23943,
    "rubbed": 22177,
    "immense": 18052,
    "Ġgladness": 16591,
    "Ġabhor": 5467,
    "Ġbloodshed": 23799,
    "resolution": 17766,
    "Ġzodiac": 16173,
    "astern": 8581,
    "jephro": 26392,
    "Ġrede": 13983,
    "Ġprovides": 1932,
    "Ġwat": 1286,
    "Ġcontrad": 9754,
    "bruary": 15234,
    "ď": 208,
    "Ġshovel": 23491,
    "Ę": 217,
    "Ġcoiled": 11818,
    "Ġsurvey": 13592,
    "Ġbewitched": 25975,
    "Ġprimal": 17107,
    "Ġexchange": 15751,
    "Ġimpassable": 20611,
    "casks": 20401,
    "Ġbradstreet": 9576,
    "Ġtransfer": 2146,
    "asional": 17959,
    "clair": 18932,
    "sciss": 18857,
    "Ġnone": 3225,
    "Ġfem": 6134,
    "rice": 13776,
    "osis": 18389,
    "Ġslewed": 23383,
    "Ġcrystal": 17214,
    "Ġpress": 5931,
    "tu": 12509,
    "mayhew": 23989,
    "Ġpreluding": 18368,
    "shortened": 24748,
    "Ġbordered": 24563,
    "Ġguide": 3218,
    "Ġoccur": 1080,
    "trampled": 26333,
    "present": 1137,
    "Ġpleased": 4065,
    "Ġintimately": 24804,
    "luxur": 25822,
    "shire": 3024,
    "beside": 19876,
    "Ġconfirmation": 17210,
    "Ġnomin": 10190,
    "Ġradiant": 16809,
    "Ġspecialized": 3922,
    "Ġcontraction": 16006,
    "amiable": 14053,
    "organ": 15571,
    "ĉ": 202,
    "Ġbenefit": 8293,
    "Ġconnectivity": 3668,
    "Ġh": 290,
    "dear": 6555,
    "Ġahead": 6662,
    "Ġsuspicion": 6211,
    "Ġreasons": 6019,
    "Ġpiazza": 26450,
    "ulnerable": 18150,
    "ositions": 10283,
    "Ġstatistical": 11104,
    "comp": 3817,
    "Ġdines": 21421,
    "Ġrevealing": 3926,
    "Ġign": 8294,
    "brain": 13686,
    ".âĢĶâĢľ": 20746,
    "ensities": 22543,
    "Ġhaw": 10251,
    "Ġwoll": 21292,
    "Ġshuddering": 9051,
    "Ġmorris": 18850,
    "ob": 1419,
    "acceler": 23597,
    "Ġduplicate": 17215,
    "sound": 6799,
    "ily": 1031,
    "Ġdyspeps": 16505,
    "quite": 4647,
    "Ġassociate": 13449,
    "Ġappalled": 22216,
    "Ġpedest": 14995,
    "Ġgives": 5018,
    "Ġfountains": 13502,
    "while": 2938,
    "unhesitatingly": 26496,
    "Ġkinds": 14504,
    "Ġstretching": 10014,
    "aming": 5828,
    "Ġtear": 6723,
    "Đ": 209,
    "rown": 2197,
    "ograph": 4797,
    "Ġfuss": 13904,
    "Ġasi": 12729,
    "Ġlingu": 11613,
    "Ġroused": 7623,
    "bingley": 4927,
    "together": 3557,
    "Ġpiling": 17908,
    "village": 25422,
    "Ġledger": 19400,
    "Ġdiligent": 25075,
    "Ġwaylaid": 22872,
    "Ġhovering": 10178,
    "Ġtim": 4579,
    "ells": 5303,
    "Ġirene": 8443,
    "Ġrefusing": 11028,
    "Ġseries": 7060,
    "fashion": 8080,
    "alt": 12635,
    "inations": 7567,
    "Ġrode": 15996,
    "Ġtarpaulin": 26157,
    "Ġbusks": 23337,
    "Ġanxiously": 8289,
    "admire": 24943,
    "Ġ23": 13191,
    "Ġhist": 2447,
    "Ġagain": 812,
    "Ġapart": 4746,
    "Ġcured": 21345,
    "Ġlurking": 11289,
    "Ġrealistic": 5860,
    "Ġalco": 21779,
    "Ġfur": 992,
    "endous": 6850,
    "in": 262,
    "mission": 5969,
    "pemberley": 9620,
    "compass": 9459,
    "Ġarmed": 9259,
    "Ġunsettled": 14122,
    "accountable": 7109,
    "Ġscreams": 24603,
    "Ġhistorical": 3647,
    "Ġgasps": 24865,
    "Ġking": 2306,
    "cases": 12445,
    "pursue": 24973,
    "Ġformerly": 7493,
    "Ġintru": 15825,
    "sulphur": 25909,
    "Ġaristotle": 25817,
    "Ġdictated": 25218,
    "Ġmeasurement": 19421,
    "Ġjoined": 4565,
    "Ġwithdrawing": 11340,
    "Ġengraving": 17080,
    "Ġarmitage": 23580,
    "Ġfuture": 1094,
    "Ġfowls": 8690,
    "Ġnorthward": 13320,
    "grown": 10099,
    "Ġvelvets": 25393,
    "kinson": 10025,
    "Ġfolios": 23017,
    "Ġwind": 1432,
    "Ġcents": 17828,
    "Ġtruth": 3322,
    "Ġridge": 14818,
    "Ġimpul": 7208,
    "ript": 4153,
    "Ġsentences": 2685,
    "Ġmeanwhile": 5736,
    "shudder": 26245,
    "Ġhamp": 12627,
    "Ġkeel": 6444,
    "wishes": 13806,
    "urch": 3996,
    "Ġscolded": 25472,
    "Ġimprecations": 25820,
    "lonely": 20956,
    "Ġtechnique": 2421,
    "Ġmccarthys": 19661,
    "ctor": 13959,
    "Ġgossip": 18471,
    "Ġlee": 4222,
    "Ġit": 339,
    "Ġtemptation": 8677,
    "Ġpr": 1598,
    "Ġpantaloons": 20295,
    "fre": 5425,
    "playful": 24357,
    "Ġfinally": 4667,
    "acetty": 24464,
    "Ġbuild": 6474,
    "Ġpoles": 11003,
    "Ġirrevoc": 15038,
    "owders": 18050,
    "Ġfav": 1756,
    "occup": 7752,
    "odings": 4399,
    "nantucketer": 24972,
    "Ġbeats": 21749,
    "supplemental": 25874,
    "Ġkindliness": 23292,
    "Ġarose": 7360,
    "Ġbreeding": 14522,
    "snapping": 24849,
    "Ġcats": 8979,
    "hic": 3251,
    "Ġtoward": 17946,
    "Ġperish": 8874,
    "Ġlavater": 20494,
    "Ġenables": 727,
    "Ġwarp": 8112,
    "hot": 8083,
    "building": 17308,
    "Ġweld": 8111,
    "Ġghost": 6142,
    "Ġtragedies": 25241,
    "itself": 7834,
    "Ġbass": 17855,
    "ys": 3961,
    "rack": 18010,
    "langu": 4807,
    "Ġstruggles": 16578,
    "Ġoblivious": 26032,
    "full": 7420,
    "Ġruinous": 24633,
    "pencil": 18828,
    "Ġspokes": 18313,
    "Ġmetrics": 19058,
    "umbled": 8492,
    "Ġjupiter": 17455,
    "ostentatious": 20651,
    "abilities": 3238,
    "Ġblankets": 24611,
    "Ġabutted": 22272,
    "ilated": 18057,
    "Ġcondensed": 24049,
    "Ġclothed": 19605,
    "Ġcompat": 2941,
    "arest": 4008,
    "helmsman": 24287,
    "Ġservox": 23868,
    "Ġpadd": 9669,
    "thickness": 25367,
    "Ġgenerously": 22398,
    "Ġhy": 5625,
    "Ġscandinavian": 26344,
    "Ġswamp": 14435,
    "Ġdiscompose": 25579,
    "Ġhval": 21485,
    "Ġcrawling": 17045,
    "Ġbenediction": 18783,
    "that": 852,
    "Ġinches": 5845,
    "Ġdrown": 6815,
    "Ġhorses": 6385,
    "Ġrepute": 18034,
    "Ġtrunks": 15962,
    "beware": 16038,
    "Ġaug": 6234,
    "Ġinhab": 5083,
    "ignantly": 23263,
    "enchant": 21282,
    "sea": 4763,
    "estinated": 15921,
    "Ġdodo": 9072,
    "Ġappet": 9730,
    "Ġlordly": 23743,
    "Ġimpenetrable": 17396,
    "Ġstripping": 23694,
    "arken": 18667,
    "Ġwonderland": 23423,
    "ġ": 226,
    "formity": 10278,
    "Ġlouis": 8356,
    "Ġincompatible": 25680,
    "Ġmixture": 9562,
    "ius": 5789,
    "Ġvener": 8163,
    "Ġcultured": 25154,
    "insanity": 23065,
    "bles": 7017,
    "Ġexhibited": 9543,
    "quickness": 19850,
    "ime": 625,
    "Ġexclamation": 8698,
    "Ġminiature": 11040,
    "Ġilluminated": 20174,
    "Ġsworn": 14434,
    "ood": 963,
    "frisco": 16787,
    "Ġadventures": 7747,
    "Ġturnkeys": 23027,
    "Ġwhis": 3505,
    "Ġreception": 9838,
    "Ġcomplaint": 24776,
    "Ġpreprocessing": 26536,
    "Ġflashed": 11911,
    "rust": 2580,
    "ustration": 2262,
    "gradually": 12912,
    "etah": 12658,
    "Ġshells": 20362,
    "supp": 4162,
    "fooled": 24419,
    "Ġleft": 1762,
    "Ġdummy": 25449,
    "penn": 18827,
    "Ġreconciled": 13586,
    "Ġpen": 1529,
    "Ġdevils": 7230,
    "Ġunhinged": 26216,
    "firm": 10698,
    "Ġmorcar": 13012,
    "Ġsubmerged": 11870,
    "Ġoverpow": 14203,
    "Ġhorr": 3192,
    "Ġprofusion": 23567,
    "lesc": 11039,
    "Ġcases": 3963,
    "turning": 8316,
    "Ġlifelessly": 23047,
    "Ġnut": 12643,
    "Ġmainmast": 9778,
    "ivorous": 22076,
    "Ġopine": 19227,
    "Ġhelmet": 19686,
    "Ġcoloss": 11045,
    "scrape": 25698,
    "iscuit": 10598,
    "Ġcontinuing": 14396,
    "Ġmum": 13857,
    "anges": 1673,
    "Ġpurposes": 11168,
    "Ġtyphoons": 20233,
    "Ġuser": 15913,
    "market": 16839,
    "specific": 10497,
    "Ġoverwhelmed": 11403,
    "Ġincorruption": 26309,
    "ots": 3297,
    "Ġstout": 6024,
    "Ġcrags": 23528,
    "Ġfoundation": 4232,
    "regarding": 15070,
    "Ġwarmed": 12022,
    "Ġimpenitent": 26548,
    "Ġdressed": 5081,
    "Ġinducement": 16843,
    "asis": 12647,
    "Ġgangway": 20157,
    "uting": 15657,
    "Ġrepenting": 25322,
    "Ġenvironments": 24055,
    "Ġproperties": 3121,
    "ippi": 20243,
    "asy": 5294,
    "Ġsly": 9632,
    "teous": 16172,
    "Ġmayhap": 18709,
    "masterly": 24530,
    "fetch": 12462,
    "Ġunrelieved": 20544,
    "Ġsincerely": 7962,
    "roofed": 26183,
    "Ġbuttons": 12778,
    "Ġimple": 1813,
    "Ġhome": 2028,
    "accursed": 20539,
    "Ġtistig": 26413,
    "poverty": 22904,
    "Ġcheever": 23282,
    "rough": 591,
    "paws": 21028,
    "Ġdeclaration": 16636,
    "clergy": 18933,
    "Ġshave": 21993,
    "ĠĠĠĠĠĠĠĠĠĠĠĠĠĠĠĠĠĠĠĠĠĠĠĠĠĠĠĠĠĠĠĠĠĠĠĠĠĠĠĠĠĠĠĠĠĠ": 9952,
    "itect": 986,
    "je": 11495,
    "Ġreappeared": 21662,
    "Ġarguing": 25470,
    "Ġcotton": 17378,
    "Ġpredict": 664,
    "links": 20957,
    "Ġpile": 8423,
    "leaves": 12575,
    "Ġsmoky": 22555,
    "Ġsignificant": 8633,
    "unfort": 21873,
    "Ġdeclared": 5595,
    "cules": 12389,
    "Ġconspicuous": 13602,
    "Ġ107": 24415,
    "Ġkingdom": 12017,
    "Ġdare": 3546,
    "Ġchronicled": 25328,
    "ose": 718,
    "went": 6512,
    "Ġanimate": 23421,
    "ha": 3983,
    "uiperai": 10663,
    "won": 7144,
    "allowing": 24358,
    "Ġnoble": 3442,
    "Ġsmaller": 1886,
    "Ġinjection": 3469,
    "Ġreflections": 5946,
    "Ġunexpected": 6841,
    "protected": 19920,
    "Ġsitt": 21216,
    "Ġdevout": 14326,
    "Ġlower": 2665,
    "Ġfriday": 14488,
    "ician": 21562,
    "dorff": 15236,
    "Ġnerves": 2629,
    "Ġfra": 1722,
    "helping": 23137,
    "Ġimpulsively": 24880,
    "Ġshun": 11707,
    "Ġqualifications": 24675,
    "Ġwand": 4341,
    "ifferent": 4263,
    "Ġwarsaw": 26167,
    "ica": 10198,
    "valued": 2853,
    "asters": 8433,
    "Ġare": 526,
    "stern": 8444,
    "Ġexponential": 1055,
    "Ē": 211,
    "shazzar": 15288,
    "advancing": 14835,
    "fleet": 15013,
    "Ġglut": 18853,
    "rigible": 24931,
    "Ġsandwich": 19827,
    "Ġnameless": 7699,
    "Ġlabelled": 23328,
    "Ġbabies": 19691,
    "Ġcolle": 8922,
    "Ġdragg": 23213,
    "Ġinjuries": 11277,
    "bular": 15312,
    "Ġstrand": 11826,
    "Ġtragic": 15254,
    "Ġconsequ": 6254,
    "Ġadmire": 5263,
    "Ġaltern": 7394,
    "ske": 13781,
    "Ġconstable": 19070,
    "Ġslacked": 25188,
    "outer": 9668,
    "Ġcaw": 13882,
    "osed": 1963,
    "afterwards": 7484,
    "Ġfaint": 5811,
    "Ġservice": 6471,
    "Ġconstru": 19071,
    "Ġtig": 13812,
    "Ġbelieves": 14406,
    "cabinet": 25077,
    "Ġsociety": 3979,
    "Ġcurious": 3363,
    "Ġrevolving": 9982,
    "garity": 17554,
    "Ġnominal": 15167,
    "hmael": 7342,
    "Ġpunchbowl": 20230,
    "Ġmortar": 19391,
    "Ġquaint": 18465,
    "Ġplaced": 3446,
    "Ġ59": 24327,
    "Ġmott": 17803,
    "leaped": 17843,
    "Ġuncontrollable": 25814,
    "Ġcells": 13884,
    "Ġcommonplaces": 16287,
    "results": 20385,
    "constit": 24604,
    "Ġunsophisticated": 25992,
    "meth": 11502,
    "glad": 9007,
    "Ġcaved": 21351,
    "perpetually": 20510,
    "mankind": 14373,
    "vil": 2734,
    "Ġparish": 8854,
    "Ġoutrid": 22312,
    "Ġsculpture": 26016,
    "Ġrevol": 5537,
    "Ġcommission": 6712,
    "Ġball": 3625,
    "Ġornamented": 20360,
    "woe": 21134,
    "gress": 2218,
    "Ġamply": 22479,
    "Ġhog": 13923,
    "wrapped": 15208,
    "Ġround": 1367,
    "Ġcaulk": 25440,
    "Ġredeem": 20498,
    "rather": 5430,
    "Ġsunbeam": 23273,
    "Ġgene": 15669,
    "Ġthirteen": 15273,
    "announced": 19758,
    "Ġtweezers": 26556,
    "Ġlightly": 13082,
    "lemagne": 26436,
    "iosity": 2196,
    "Ġhereditarily": 25224,
    "ushing": 5730,
    "ampled": 18882,
    "Ġeyes": 1334,
    "laug": 10707,
    "inative": 15483,
    "rifled": 21046,
    "pull": 6796,
    "Ġwestern": 10654,
    "rawling": 21633,
    "Ġsuddenly": 2647,
    "painted": 17639,
    "Ġcharnel": 22249,
    "feather": 16041,
    "Ġseaman": 8638,
    "Ġtorch": 25030,
    "iod": 3840,
    "Ġkitty": 3910,
    "Ġ184": 16607,
    "Ġnearer": 5301,
    "ird": 2430,
    "Ġemir": 23348,
    "Ġsensitivity": 3072,
    "Ġspec": 1262,
    "clam": 13052,
    "Ġpunishment": 9955,
    "Ġloun": 7166,
    ";âĢĶ": 3751,
    "Ġdarker": 13118,
    "Ġstopping": 2751,
    "Ġwantest": 18788,
    "Ġsanct": 15062,
    "Ġglue": 15671,
    "Ġshutter": 16670,
    "Ġqueerest": 16413,
    "Ġsharpened": 17364,
    "umerable": 11723,
    "Ġcompunction": 18585,
    "lucifer": 25301,
    "Ġimmovable": 15890,
    "Ġarrayed": 25664,
    "Ġexter": 7397,
    "needles": 20310,
    "Ġbulky": 13227,
    "interrupt": 8615,
    "Ġhideous": 5982,
    "oons": 12496,
    "ictions": 14221,
    "combination": 25486,
    "Ġinvest": 4978,
    "compan": 7301,
    "afer": 17481,
    "magistrate": 19862,
    "Ġliable": 14228,
    "Ġcran": 11999,
    "phil": 7924,
    "Ġinscribed": 24938,
    "Ġclang": 15969,
    "Ġinwards": 15618,
    "recurrent": 4994,
    "Ġfitting": 21406,
    "Ġadapt": 1014,
    "transp": 24512,
    "resembled": 21245,
    "iousness": 4899,
    "band": 3062,
    "crum": 17511,
    "daw": 17522,
    "Ġale": 9154,
    "Ġtowards": 1730,
    "Ġproves": 14037,
    "Ġthro": 5817,
    "orious": 6007,
    "whalers": 17263,
    "Ġaccidents": 10295,
    "Ġauthority": 7748,
    "Ġhoe": 23349,
    "special": 14704,
    "Ġfelt": 1748,
    "hug": 17563,
    "convolutional": 4958,
    "Ġconfidence": 6590,
    "Ġscreening": 25300,
    "Ġejac": 10203,
    "Ġveil": 7933,
    "Ġobjective": 3767,
    "mess": 13752,
    "Ġimmense": 4952,
    "sentence": 2942,
    "armed": 7251,
    "ink": 756,
    "lose": 12879,
    "r": 86,
    "rated": 6227,
    "Ġinaccessible": 13933,
    "croquet": 25747,
    "Ġinsupportable": 13931,
    "Ġexceed": 1343,
    ".âĢĿ": 464,
    "Ġvalid": 1747,
    "Ġbenjam": 22888,
    "moor": 22701,
    "Ġscandalous": 24879,
    "Ġdecline": 9286,
    "Ġtoilette": 20491,
    "Ġgradients": 611,
    "Ġpermission": 9278,
    "Ġwan": 15526,
    "Ġunsupp": 22018,
    "ationally": 15702,
    "tedious": 22629,
    "Ġscene": 3101,
    "Ġestate": 6316,
    "Ġlog": 1676,
    "Ġsuite": 18277,
    "cra": 6354,
    "Ġignor": 4015,
    "develop": 13517,
    "irmed": 9238,
    "Ġnarrow": 5086,
    "etimes": 1989,
    "abs": 11666,
    "tempt": 21078,
    "Ġsoil": 9254,
    "bethink": 25744,
    "mong": 15388,
    "vely": 3867,
    "Ġflavor": 16250,
    "dep": 6786,
    "ums": 10272,
    "omination": 21639,
    "nantucket": 7804,
    "Ġporpoises": 13381,
    "Ġvis": 1076,
    "Ġitaly": 10867,
    "hoping": 17566,
    "Ġmizen": 17258,
    "Ġstreets": 5863,
    "Ġspoken": 4836,
    "Ġgang": 9207,
    "Ġdough": 8420,
    "Ġimparts": 18445,
    "income": 15485,
    "Ġstarry": 16923,
    "iar": 2381,
    "Ġchuck": 8501,
    "super": 5943,
    "Ġpartly": 6713,
    "Ġthames": 13937,
    "Ġsullen": 9157,
    "Ġsacrifice": 9555,
    "Ġabundant": 17154,
    "bu": 5132,
    "Ġshetland": 22156,
    "Ġyojo": 7610,
    "marrying": 19546,
    "Ġsuccession": 12099,
    "Ġflapp": 23007,
    "Ġmaled": 21313,
    "Ġretained": 7173,
    "children": 9055,
    "Ġmodeling": 2096,
    "Ġperform": 1034,
    "Ġlimping": 23545,
    "soldiers": 25911,
    "Ġyield": 5093,
    "Ġcomplexion": 8208,
    "berish": 22713,
    "Ġbelike": 18830,
    "Ġgrievances": 20647,
    "Ġnorthwards": 19545,
    "Ġeveryone": 8917,
    "sory": 17659,
    "proper": 7471,
    "Ġphaet": 16315,
    "Ġhorizontal": 7782,
    "threat": 10900,
    "Ġtusks": 17253,
    "Ġowes": 20083,
    "Ġwelfare": 12556,
    "asons": 6014,
    "augmented": 26286,
    "Ġanalog": 12609,
    "ige": 12677,
    "attended": 8952,
    "Ġtriumphant": 12187,
    "Ġcunning": 6238,
    "Ġflourishing": 25187,
    "Ġholder": 6724,
    "trop": 15435,
    "Ġpurposely": 10444,
    "Ġoarsmen": 7737,
    "Ġcon": 348,
    "Ġhardware": 4904,
    "Ġresentment": 7530,
    "Ġdecided": 5471,
    "iles": 2863,
    "Ġshoe": 14568,
    "Ġsaving": 15884,
    "Ġwarmer": 19184,
    "pipe": 8696,
    "Ġpushed": 5909,
    "attacks": 23121,
    "Ġdiffer": 18679,
    "Ġink": 8802,
    "Ġnantucket": 2839,
    "Ġalex": 15132,
    "Ġopportunity": 4786,
    "Ġinnocently": 24025,
    "Ġfurn": 3712,
    "vulgar": 25918,
    "Ġleaps": 14007,
    "shining": 18492,
    "Ġlad": 2367,
    "Ġeternity": 12276,
    "Ġfre": 1570,
    "Ġmich": 21304,
    "Ġquestions": 3974,
    "Ġcocked": 12901,
    "Ġpraise": 6486,
    "Ġbeating": 8144,
    "Ġunfortunately": 10909,
    "Ġbeget": 9225,
    "Ġgoblet": 25823,
    "Ġprotect": 6337,
    "Ġegypt": 9678,
    "ĝ": 222,
    "order": 1962,
    "icle": 10834,
    "Ġdecapitated": 20614,
    "Ġgallery": 10524,
    "plendent": 21955,
    "Ġborders": 15569,
    "Ġbohem": 8526,
    "verse": 9687,
    "Ġungover": 18255,
    "Ġinfirmity": 26298,
    "Ġexists": 14040,
    "Ġfit": 3686,
    "Ġsibbald": 21229,
    "venison": 22625,
    "pen": 1202,
    "backpropagation": 11984,
    "trucks": 25419,
    "ance": 478,
    "Ġalert": 18101,
    "Ġcivilly": 19602,
    "Ġprev": 6264,
    "Ġdata": 519,
    "dor": 12449,
    "Ġinstituted": 18697,
    "Ġpenalty": 1841,
    "Ġradiance": 13369,
    "you": 1006,
    "Ġprudent": 9184,
    "Ġgoble": 14230,
    "Ġventilator": 8713,
    "Ġmanhat": 22324,
    "Ġbelonged": 6922,
    "Ġnightgown": 23130,
    "fishers": 24928,
    "ber": 883,
    "Ġfrederick": 15584,
    "hs": 8377,
    "vict": 11540,
    "Ġgets": 10839,
    "oniously": 21256,
    "Ġcomforter": 20505,
    "Ġchased": 8861,
    "tackles": 25624,
    "Ġentit": 22739,
    "Ġtransition": 14233,
    "blo": 6353,
    "Ġforcing": 3226,
    "isome": 17848,
    "aut": 1914,
    "Ġcontent": 5034,
    "constant": 11324,
    "Ġquill": 12854,
    "Ġavoided": 13258,
    "Ġsulky": 13514,
    "Ġgarden": 3827,
    "Ġforty": 5719,
    "Ġarchy": 14346,
    "Ġfilial": 16620,
    "Ġlighted": 7063,
    "Ġabund": 8864,
    "Ġtranquil": 7310,
    "took": 6164,
    "Ġpreparation": 13528,
    "izing": 1063,
    "furthest": 19840,
    "Ġmemo": 18117,
    "Ġtashtego": 4488,
    "enet": 10152,
    "Ġsigning": 22707,
    "possibility": 13360,
    "wretch": 17708,
    "Ġwitnessed": 14843,
    "Ġdrugg": 17119,
    "Ġwidest": 24234,
    "Ġpresumed": 10544,
    "Ġprudential": 17917,
    "Ġunexpectedly": 19908,
    "Ġascend": 9959,
    "Ġbumps": 21390,
    "Ġattics": 22618,
    "adier": 18089,
    "safe": 10053,
    "ursday": 12274,
    "Ġhanged": 17924,
    "Ġremark": 2148,
    "Ġwondering": 7970,
    "ldog": 21914,
    "Ġprimitive": 25061,
    "Ġhigher": 1821,
    "Ġste": 1387,
    "five": 6356,
    "iture": 5696,
    "Ġconsecut": 18111,
    "Ġcattle": 12569,
    "Ġzones": 22816,
    "Ġup": 463,
    "harpooneer": 8688,
    "ĠĠĠĠĠĠĠĠĠĠĠĠĠĠĠĠĠĠĠĠĠĠĠĠĠĠĠĠĠĠĠĠĠĠĠĠĠĠ": 16524,
    "Ġraises": 11843,
    "orrowed": 19289,
    "Ġinterchange": 16071,
    "Ġsouthampton": 24307,
    "observation": 17269,
    "Ġflight": 6581,
    "Ġinsens": 8276,
    "Ġoldest": 12970,
    "Ġiceberg": 14715,
    "omuch": 21637,
    "Ġdurst": 20351,
    "despicable": 24636,
    "Ġdevoured": 16133,
    "Ġlye": 21548,
    "Ġcheerfully": 12132,
    "Ġcir": 21339,
    "Ġconvolutional": 2164,
    "sex": 12710,
    "Ġnavel": 24576,
    "bushes": 24447,
    "riving": 21923,
    "proceed": 8976,
    "Ġfancies": 10424,
    "famous": 16916,
    "generosity": 23785,
    "Ġbully": 23854,
    "Ġvancouver": 26565,
    "Ġkeen": 4614,
    "Ġtreacherously": 25129,
    "Ġgeese": 7693,
    "istic": 973,
    "ceased": 21623,
    ",âĢĶâĢĺ": 23801,
    "Ġdownstairs": 11224,
    "influences": 25250,
    "corner": 13396,
    "Ġbegrimed": 26578,
    "Ġdepicting": 22604,
    "ometer": 19325,
    "Ġlonged": 6436,
    "pooh": 18798,
    "Ġcrouching": 23442,
    "Ġgot": 2282,
    "Ġemployments": 12100,
    "ribbed": 16411,
    "Ġquant": 6424,
    "Ġpell": 21453,
    "Ġscare": 18397,
    "arranged": 19318,
    "Ġregression": 4409,
    "Ġintrospect": 15826,
    "Ġeul": 21615,
    "ory": 1079,
    "Ġretiring": 16279,
    "Ġconduct": 3735,
    "gunw": 17220,
    "Ġattach": 14287,
    "Ġsteadfast": 8678,
    "Ġgaze": 6932,
    "roded": 17955,
    "\\": 64,
    "wered": 2692,
    "Ġspitzbergen": 15286,
    "bestow": 16929,
    "globe": 25142,
    "asable": 21538,
    "reading": 12077,
    "Ġnecessarily": 13249,
    "Ġcitadel": 25438,
    "Ġtattoo": 7359,
    "Ġgoin": 18470,
    "Ġnur": 5710,
    "lungs": 26135,
    "Ġelephants": 9863,
    "Ġcrosses": 23059,
    "Ġneighbourhood": 5126,
    "precisely": 6917,
    "į": 240,
    "finish": 24384,
    "Ġdefer": 18823,
    "Ġdiscernment": 15067,
    "Ġbeale": 12696,
    "daring": 20828,
    "Ġconfess": 3768,
    "Ġguided": 10460,
    "Ġrudimental": 25108,
    "skill": 24487,
    "Ġser": 1671,
    "Ġswept": 7977,
    "rudence": 7092,
    "Ġbuttoned": 25368,
    "Ġclue": 7020,
    "Ġ84": 19708,
    "regard": 7972,
    "Ġimage": 3405,
    "Ġwigwam": 11428,
    "Ġslippery": 12164,
    "ogene": 18671,
    "hand": 2758,
    "Ġdebility": 24272,
    "Ġdrowned": 9551,
    "ict": 584,
    "herald": 22202,
    "Ġlacey": 10197,
    "bee": 16036,
    "Ġknown": 1640,
    "Ġglued": 20587,
    "ellig": 525,
    "uger": 21102,
    "glorious": 19365,
    "Ġincidentally": 16954,
    "igin": 3657,
    "Ġsaved": 6690,
    "Ġwollstonecraft": 26425,
    "Ġlongitudes": 22631,
    "Ġgoblets": 20517,
    "mped": 16647,
    "profess": 10634,
    "Ġlanterns": 24577,
    "Ġbowl": 11204,
    "âĢĶâĢĺ": 7013,
    "Ġreconc": 9682,
    "Ġbuilded": 24719,
    "reporting": 24494,
    "Ġwondrously": 24062,
    "ensive": 6279,
    "Ġflashing": 13025,
    "arted": 2206,
    "tremble": 17141,
    "Ġbeaufort": 13567,
    "mitting": 17602,
    "ssian": 3402,
    "bows": 10081,
    "Ġbosoms": 16795,
    "Ġwarehouses": 20416,
    "Ġsymmetry": 20364,
    "collinses": 19922,
    "writer": 14648,
    "thesize": 24906,
    "older": 15753,
    "Ġguilty": 7250,
    "Ġknees": 6928,
    "Ġmagnanimous": 17410,
    "wharf": 20605,
    "onged": 18411,
    "Ġdiffident": 23782,
    "influence": 13577,
    "Ġpag": 6010,
    "idly": 12697,
    "Ġvect": 1223,
    "endeavour": 17031,
    "Ġflap": 14421,
    "difficulty": 12388,
    "profitable": 17071,
    "Ġgoethe": 22421,
    "dles": 11480,
    "Ġscr": 11759,
    "hullo": 17570,
    "Ġmappings": 2150,
    "garnished": 26388,
    "Ġident": 2244,
    "jewell": 25523,
    "Ġlany": 21551,
    "Ġmaterials": 11288,
    "Ġtropic": 17064,
    "Ġorganize": 8991,
    "guess": 14760,
    "Ġcou": 5286,
    "follow": 5680,
    "Ġsucceed": 4546,
    "mal": 6794,
    "Ġmilk": 6485,
    "Ġwharves": 13505,
    "fee": 12877,
    "consciously": 19624,
    "Ġach": 2622,
    "Ġintroducing": 11974,
    "univers": 15769,
    "deliber": 17425,
    "remind": 23185,
    "Ġevenings": 18753,
    "Ġsadder": 24048,
    "Ġcathedral": 17412,
    "done": 6500,
    "Ġharpooning": 23976,
    "Ġundec": 22016,
    "Ġasiatics": 20429,
    "invite": 25088,
    "Ġinde": 7371,
    "Ġtingling": 15091,
    "bennet": 5352,
    "Ġpeleg": 3740,
    "Ġgladstone": 23867,
    "Ġblade": 11891,
    "Ġcounters": 24139,
    "opposing": 24825,
    "otograph": 5826,
    "Ġincreases": 3797,
    "Ġploughing": 26259,
    "Ġslipper": 24265,
    "improve": 15709,
    "pents": 11512,
    "Ġconveyed": 8334,
    "rayed": 23562,
    "ruding": 9723,
    "gates": 20871,
    "Ġsecure": 4912,
    "whis": 7897,
    "Ġbespeaking": 26310,
    "Ġscenes": 5731,
    "Ġreefed": 20301,
    "minutes": 7512,
    "_âĢĶâĢĿ": 20762,
    "Ġnative": 4641,
    "dug": 18462,
    "Ġadjusts": 8980,
    "Ġbanish": 15567,
    "atement": 17773,
    "Ġcleaned": 23180,
    "kward": 6958,
    "Ġjinglers": 26018,
    "Ġmirth": 15542,
    "itche": 7578,
    "Ġshut": 3943,
    "Ġhar": 5814,
    "Ġbash": 12583,
    "roads": 17957,
    "Ġtombed": 25160,
    "Ġlightness": 23258,
    "Ġwinding": 8235,
    "Ġspat": 2667,
    "Ġmosses": 20162,
    "Ġmanif": 8870,
    "gish": 20872,
    "Ġanteced": 26177,
    "Ġplayed": 9415,
    "belled": 24033,
    "thou": 4709,
    "ocity": 8277,
    "Ġsemicircle": 26068,
    "Ġhearts": 4972,
    "Ġbas": 6380,
    "Ġblew": 9045,
    "inated": 6804,
    "succeeded": 15174,
    "oyed": 14363,
    "sense": 11523,
    "Ġinattention": 17931,
    "barrels": 15041,
    "olet": 13765,
    "mistaken": 12208,
    "Ġsure": 1866,
    "Ġspell": 8855,
    "Ġ42": 16678,
    "Ġcounting": 13095,
    "Ġlip": 6532,
    "Ġrover": 18456,
    "Ġdivulged": 16648,
    "Ġdiscl": 9796,
    "piling": 15414,
    "Ġpaths": 2569,
    "Ġworshippers": 25693,
    "Ġadjust": 2156,
    "Ġalt": 18098,
    "Ġneglig": 18877,
    "recover": 24622,
    "Ġpinioned": 21479,
    "Ġans": 1642,
    "drunk": 24659,
    "Ġmanual": 14197,
    "Ġmanned": 9270,
    "woman": 5898,
    "Ġwretch": 6378,
    "measure": 10030,
    "Ġease": 5629,
    "consequential": 26249,
    "position": 15412,
    "Ġformed": 3884,
    "Ġcasting": 12098,
    "Ġrepeat": 7999,
    "oud": 1944,
    "coat": 5407,
    "sleet": 20148,
    "Ġsponge": 26003,
    "Ġchristians": 13307,
    "Ġmeanness": 22593,
    "baggage": 24926,
    "algorithm": 3776,
    "Ġsuccor": 25662,
    "goes": 10426,
    "Ġcontemptuously": 19832,
    "ctions": 953,
    "Ġclimbing": 20068,
    "Ġpalpable": 15205,
    "Ġbatch": 890,
    "Ġdownstream": 3777,
    "lamp": 9608,
    "Ġsurpasses": 25268,
    "Ġlobsters": 13516,
    "main": 8087,
    "Ġavalanche": 17432,
    "articulate": 17397,
    "Ġwearing": 12736,
    "Ġobstin": 14952,
    "thing": 1478,
    "aloes": 21499,
    "Ġsuav": 22078,
    "Ġresc": 4508,
    "ishment": 3506,
    "Ġissues": 9541,
    "Ġsuggested": 8320,
    "Ġspecies": 5112,
    "Ġtowing": 9193,
    "bench": 16803,
    "Ġiroqu": 21621,
    "mblings": 19779,
    "Ġmost": 1020,
    "Ġacquiescence": 20329,
    "Ġearls": 18903,
    "Ġrambled": 20167,
    "Ġsleeping": 6319,
    "Ġtend": 6120,
    "Ġsurrounded": 5878,
    "Ġtransform": 746,
    "collect": 16563,
    "Ġvia": 2385,
    "Ġcronies": 23441,
    "Ġ10": 5249,
    "abst": 21785,
    "Ġphantom": 8706,
    "fainting": 20471,
    "Ġconfused": 7963,
    "Ġdeparted": 5564,
    "Ġ100": 14362,
    "Ġcoral": 11920,
    "pression": 10407,
    "89": 20758,
    "Ġdowncast": 18652,
    "ping": 9615,
    "begin": 8883,
    "Ġactuated": 18545,
    "Ġuncounted": 19116,
    "gument": 20884,
    "precision": 4331,
    "awing": 18915,
    "doesn": 19819,
    "ificant": 22206,
    "Ġmoral": 6579,
    "Ġsne": 6372,
    "ivory": 10268,
    "Ġintellectual": 11401,
    "Ġflickering": 23013,
    "Ġhopkins": 23128,
    "beating": 22486,
    "Ġinstant": 2706,
    "rical": 11518,
    "Ġsmacking": 20164,
    "Ġschools": 9476,
    "Ġinfamy": 14502,
    "Ġisle": 8832,
    "Ġbeak": 18079,
    "Ġeliminating": 20618,
    "Ġlightning": 5750,
    "Ġconceited": 12088,
    "Ġcounties": 23303,
    "Ġend": 1484,
    "Ġlovely": 4710,
    "Ġheinous": 18038,
    "affect": 13211,
    "ried": 926,
    "Ġpadded": 25036,
    "igations": 18043,
    "Ġlick": 21547,
    "Ġpremature": 3727,
    "urons": 3133,
    "resent": 10769,
    "boots": 11126,
    "Ġcomposed": 8891,
    "Ġacquitted": 18898,
    "marvell": 24172,
    "Ġensue": 18190,
    "bib": 17491,
    "Ġwritten": 4168,
    "bureau": 20788,
    "life": 4932,
    "Ġaddition": 1145,
    "sailors": 9921,
    "act": 786,
    "Ġuncomfortable": 8485,
    "ellation": 12747,
    "learned": 8592,
    "Ġvoid": 14085,
    "Ġflow": 1238,
    "ounder": 11742,
    "Ġencirc": 18731,
    "Ġbespe": 19241,
    "Ġjib": 14193,
    "ĠĠĠĠĠĠĠĠĠĠĠĠĠĠĠĠĠĠĠĠĠĠĠĠĠĠĠĠĠĠĠĠĠĠĠĠĠĠĠĠĠĠĠĠĠĠĠĠĠĠĠĠĠĠĠĠĠĠĠĠ": 19259,
    "Ġvel": 7186,
    "Ġforging": 18093,
    "Ġindependent": 9015,
    "indisc": 22370,
    "Ġunnatural": 7190,
    "Ġelevate": 24502,
    "Ġletter": 2202,
    "ividually": 22077,
    "movable": 14323,
    "leton": 5148,
    "compassion": 12366,
    "vels": 5432,
    "Ġdecreas": 1645,
    "Ġdestroy": 5772,
    "mbly": 9792,
    "Ġwretched": 4082,
    "magnifying": 25392,
    "Ġspiral": 14584,
    "Ġyourself": 2593,
    "sun": 7139,
    "Ġdecanting": 22440,
    "sixty": 24852,
    "ia": 1258,
    "Ġindeed": 1679,
    "speckled": 23942,
    "Ġunscrew": 22037,
    "Ġbristol": 14379,
    "Ġamericans": 14742,
    "Ġexterm": 21826,
    "ü": 189,
    "striving": 24669,
    "Ġmultimodal": 18747,
    "Ġrefreshed": 15289,
    "base": 20776,
    "Ġcomplex": 738,
    "Ġhorsey": 24249,
    "Ġcoats": 16074,
    "Ġneutral": 12738,
    "Ġ45": 14769,
    "amongst": 24672,
    "oice": 1381,
    "Ġape": 21195,
    "Ġparasol": 22118,
    "Ġclearing": 8239,
    "Ġpersian": 11090,
    "Ġdeadly": 5405,
    "Ġinn": 4591,
    "Ġmagnetic": 17240,
    "nui": 20999,
    "bast": 10076,
    "phew": 6368,
    "Ġmisgiv": 14344,
    "apan": 6860,
    "Ġregained": 18587,
    "generations": 23784,
    "Ġsobbed": 14136,
    "Ġjohn": 5032,
    "larger": 24202,
    "Ġtaller": 16688,
    "neat": 22445,
    "Ġgriev": 16634,
    "Ġcreates": 2010,
    "Ġnoticed": 5549,
    "Ġsquad": 22837,
    "Ġdoub": 1837,
    "rosings": 15641,
    "onet": 12542,
    "Ġquiver": 16000,
    "agatha": 21905,
    "hearted": 6970,
    "Ġottoman": 17377,
    "Ġwo": 3652,
    "Ġflint": 23008,
    "Ġsplashing": 16550,
    "farmer": 25899,
    "nose": 17610,
    "pious": 17633,
    "carrying": 16712,
    "Ġwidows": 24236,
    "Ġdardanelles": 26443,
    "Ġflame": 7448,
    "value": 18808,
    "Ġbackwards": 12922,
    "Ġchoice": 2167,
    "pip": 6654,
    "Ġ87": 19709,
    "Ġgoverned": 23570,
    "acon": 10681,
    "Ġmainland": 22647,
    "Ġtuesday": 9626,
    "igns": 8447,
    "Ġmons": 10156,
    "Ġboundless": 10495,
    "lop": 20947,
    "ile": 521,
    "Ġsally": 15501,
    "Ġunusual": 6553,
    "Ġexceeded": 14432,
    "Ġpostscript": 14807,
    "Ġsurvived": 14933,
    "Ġcharmed": 16762,
    "Ġcocoa": 25482,
    "Ġopens": 23625,
    "Ġbeamed": 23721,
    "Ġindolence": 16227,
    "Ġmixing": 24934,
    "xter": 9146,
    "Ġcott": 3711,
    "ath": 863,
    "Ġminister": 18751,
    "Ġconcentrate": 25063,
    "usually": 10284,
    "Ġminute": 4279,
    "Ġlexicon": 25974,
    "urements": 18123,
    "oquence": 11386,
    "aling": 1033,
    "housekeeper": 24101,
    "Ġstarvation": 19790,
    "Ġgroaned": 11266,
    "calmly": 20138,
    "Ġgerman": 6141,
    "remed": 18952,
    "Ġexpatiate": 18626,
    "returning": 12203,
    "tornadoes": 26153,
    "Ġfiends": 14827,
    "rug": 18336,
    "Ġminimax": 5858,
    "ateful": 5926,
    "Ġinnovative": 1700,
    "electricity": 26385,
    "Ġrevellers": 21675,
    "arle": 21438,
    "Ġcontinues": 18809,
    "Ġbashaw": 25633,
    "Ġtaste": 5524,
    "Ġbravely": 23836,
    "Ġforever": 14554,
    "fitting": 1509,
    "Ġkent": 6691,
    "secur": 18126,
    "Ġtimber": 13348,
    "Ġmisunderstand": 18704,
    "peare": 18911,
    "Ġtackles": 8050,
    "utted": 15658,
    "Ġextravagant": 17278,
    "Ġlondon": 2840,
    "Ġissuing": 16948,
    "Ġarthur": 7196,
    "two": 3860,
    "reproof": 25432,
    "Ġdetected": 18812,
    "Ġsli": 4748,
    "at": 268,
    "ensity": 11811,
    "leather": 13889,
    "anc": 6379,
    "dling": 9111,
    "Ġgenius": 8045,
    "Ġinfirm": 19020,
    "roll": 9196,
    ":âĢĶ": 4431,
    "Ġhero": 5715,
    "Ġchase": 3946,
    "output": 4401,
    "Ġvague": 6406,
    "Ġreser": 5170,
    "Ġhelpless": 8301,
    "face": 3679,
    "Ġtrampling": 25492,
    "Ġwoke": 21288,
    "beaten": 20314,
    "Ġoutermost": 22316,
    "Ġaccount": 2325,
    "Ġcharger": 19005,
    "Ġanonymous": 26178,
    "anders": 18152,
    "Ã¦": 4337,
    "Ġfall": 2991,
    "data": 2191,
    "Ġfirst": 938,
    "text": 1976,
    "Ġdoctrine": 24197,
    "Ġyawning": 12298,
    "lant": 20946,
    "acknowledging": 25476,
    "Ġfiver": 22772,
    "Ġcreatures": 4137,
    "Ġtinted": 13821,
    "ires": 6037,
    "revol": 12537,
    "Ġdrive": 5055,
    "Ġunflinching": 26512,
    "Ġcautiousness": 19865,
    "convenient": 12235,
    "wolf": 26409,
    "Ġliberally": 16830,
    "huzza": 20912,
    "ellect": 7381,
    "Ġcircumspection": 25884,
    "bert": 4663,
    "Ġrobinson": 17463,
    "Ġlan": 5820,
    "Ġcoach": 6867,
    "Ġcontempl": 6701,
    "Ġalow": 18099,
    "Ġorphans": 20203,
    "Ġlanguid": 14210,
    "Ġrector": 21673,
    "Ġcomfortless": 23910,
    "Ġwood": 2293,
    "Ġunwelcome": 12777,
    "emason": 18186,
    "Ġmartin": 25436,
    "Ġtenderest": 23549,
    "partiality": 13159,
    "Ġcoupled": 16851,
    "uture": 1084,
    "Ġdynamic": 5123,
    "Ġtreasure": 9558,
    "ieved": 3232,
    "Ġcool": 5734,
    "Ġmim": 3109,
    "connection": 18868,
    "Ġrounds": 18884,
    "Ġmessages": 24981,
    "Ġentranced": 25833,
    "jug": 17580,
    "Ġexclude": 19043,
    "Ġupp": 13991,
    "countryman": 24639,
    "Ġmoran": 9341,
    "Ġamongst": 8959,
    "Ġage": 3897,
    "Ġprows": 19888,
    "Ġlake": 5227,
    "deprived": 19897,
    "Ġalongside": 6311,
    "Ġrounded": 14437,
    "Ġparcel": 15198,
    "receiving": 12540,
    "Ġsighed": 10337,
    "response": 25762,
    "Ġdusting": 24596,
    "comput": 1928,
    "disappointment": 11425,
    "Ġrhone": 25230,
    "Ġune": 4599,
    "Ġchann": 15933,
    "Ġmatters": 4974,
    "Ġnovels": 15927,
    "Ġspiteful": 19521,
    "Ġbu": 3684,
    "Ġlocket": 22110,
    "Ġspeaks": 11159,
    "Ġbam": 15563,
    "Ġembellish": 25847,
    "Ġhighway": 14345,
    "cain": 15325,
    "Ġslu": 13835,
    "ought": 829,
    "ene": 2170,
    "Ġarrang": 2471,
    "izabeth": 907,
    "kine": 15374,
    "Ġundivided": 24120,
    "Ġwaves": 3920,
    "Ġstudied": 11113,
    "crew": 7544,
    "atus": 21259,
    "Ġcaress": 16336,
    "Ġgeometric": 3220,
    "otherwise": 7670,
    "orus": 10801,
    "Ġkilled": 4955,
    "Ġsimultaneously": 4311,
    "Ġthreatening": 16828,
    "Ġadventure": 5980,
    "Ġsnapping": 19300,
    "Ġgir": 2258,
    "secut": 7866,
    "fif": 9116,
    "Ġfemin": 13435,
    "Ġhatter": 4112,
    "Ġunmanner": 22026,
    "Ġcrazed": 19174,
    "plainly": 11089,
    "Ġcastle": 14716,
    "Ġunidirectional": 3428,
    "Ġchained": 16386,
    "Ġechoed": 20422,
    "Ġchili": 25561,
    "Ġfluffy": 19362,
    "Ġensigns": 23684,
    "leag": 21364,
    "sam": 21050,
    "Ġapothecary": 13658,
    "9": 29,
    "Ġimprecate": 20516,
    "giana": 7800,
    "Ġlascar": 9199,
    "Ġunequal": 14841,
    "Ġpacing": 8425,
    "ture": 7558,
    "Ġdiscours": 18718,
    "evening": 7089,
    "mel": 9127,
    "draul": 9443,
    "Ġunderwent": 23233,
    "Ġdeserving": 14752,
    "Ġdeceiving": 21834,
    "Ġengravings": 15064,
    "seamen": 13625,
    "chambers": 25454,
    "plan": 15812,
    "Ġpatched": 16379,
    "Ġannual": 14831,
    "_:": 17478,
    "Ġshocked": 9400,
    "thrown": 8480,
    "doom": 23375,
    "Ġchoked": 9263,
    "Ġindu": 5293,
    "Ġbuck": 7157,
    "smile": 23903,
    "orting": 9734,
    "osh": 18388,
    "Ġorganically": 3015,
    "Ġscaling": 3634,
    "gems": 20883,
    "throw": 14097,
    "solely": 19815,
    "accept": 8897,
    "Ġunseasonable": 26520,
    "Ġcommitting": 22670,
    "oused": 6556,
    "Ġtranque": 14200,
    "Ġrising": 4355,
    "Ġ]": 15458,
    "Ġget": 1620,
    "iness": 1281,
    "Ġpoignant": 22590,
    "Ġhovers": 19078,
    "significant": 25082,
    "hol": 3839,
    "Ġhinting": 19648,
    "Ġimperilled": 19577,
    "lanter": 15386,
    "ropes": 7902,
    "physiogn": 26263,
    "level": 2656,
    "gorith": 549,
    "speed": 19407,
    "embarr": 15796,
    "whel": 7664,
    "Ġindef": 9189,
    "thousand": 5547,
    "signed": 21060,
    "Ġinterven": 10997,
    "Ġwallowed": 24039,
    "running": 6797,
    "Ġtol": 6675,
    "grateful": 10428,
    "ine": 404,
    "movement": 25577,
    "Ġmadam": 5663,
    "Ġinduced": 8670,
    "Ġgouge": 26188,
    "Ġliking": 23590,
    "culous": 11141,
    "wondrous": 12336,
    "Ġlicensing": 20091,
    "etus": 21575,
    "Ġdisgrace": 7215,
    "Ġfrenz": 25446,
    "Ġrate": 1060,
    "riety": 12741,
    "then": 2052,
    "Ġproportional": 2526,
    "Ġhabit": 6771,
    "Ġfolding": 19726,
    "idate": 21764,
    "Ġviolates": 3168,
    "Ġpoultry": 17440,
    "overing": 6306,
    "apse": 14198,
    "ax": 693,
    "Ġtubs": 11370,
    "touching": 15090,
    "depart": 12263,
    "Ġrosings": 4608,
    "Ġcovering": 13255,
    "Ġhath": 12625,
    "strugg": 21659,
    "Ġtid": 8106,
    "Ġcalmer": 23041,
    "Ġparr": 22116,
    "Ġmole": 11789,
    "Ġscotch": 12207,
    "Ġplumber": 16082,
    "fitzwilliam": 11352,
    "sc": 1259,
    "Ġprofessor": 11230,
    "ound": 585,
    "Ġy": 341,
    "Ġconsum": 9798,
    "Ġalfred": 21783,
    "Ġep": 7384,
    "Ġjesty": 18405,
    "Ġroarings": 25302,
    "metal": 24765,
    "Ġcrossing": 7252,
    "ability": 717,
    "Ġgoal": 10301,
    "shot": 2157,
    "Ġtwelvemonth": 12175,
    "Ġjenkinson": 11431,
    "Ġrepaid": 19082,
    "ellow": 3877,
    "Ġload": 14145,
    "offer": 19062,
    "may": 3681,
    "visitors": 13347,
    "Ġbehold": 5049,
    "Ġaveraging": 2420,
    "itar": 15544,
    "estion": 18363,
    "Ġsubmit": 11868,
    "expanded": 23661,
    "Ġvacantly": 16815,
    "monkey": 19169,
    "Ġrival": 10485,
    "ck": 436,
    "myst": 9821,
    "danced": 20827,
    "washed": 13043,
    "wanted": 10743,
    "Ġlady": 1587,
    "Ġworks": 5857,
    "changing": 10854,
    "Ġcash": 9652,
    "library": 12996,
    "speak": 5504,
    "ivable": 10910,
    "Ġdelineations": 26058,
    "Ġinstrum": 6054,
    "Ġordinary": 6096,
    "Ġaffinity": 18785,
    "eries": 6808,
    "Ġyou": 366,
    "Ġmultitudinous": 26273,
    "stock": 13220,
    "isted": 3301,
    "Ġpolynes": 16077,
    "Ġnet": 3628,
    "feed": 9292,
    "Ġelephant": 8255,
    "great": 3517,
    "Ġfins": 9663,
    "Ġpeddler": 24800,
    "adagrad": 9690,
    "Ġdirector": 18920,
    "waste": 21133,
    "Ġliberty": 7761,
    "Ġdiscipl": 22782,
    "Ġgraces": 18225,
    "Ġboisterously": 25682,
    "opes": 10310,
    "Ġisland": 4050,
    "rann": 21043,
    "ille": 9219,
    "Ġchosen": 7201,
    "Ġworsh": 12997,
    "Ġfetch": 7769,
    "Ġriv": 10746,
    "che": 3174,
    "Ġpref": 14171,
    "Ġsmoking": 6429,
    "Ġmeridians": 17355,
    "Ġsurgeons": 23463,
    "Ġgroups": 3721,
    "Ġaware": 5756,
    "stad": 7597,
    "Ġfamil": 4320,
    "Ġfathers": 16294,
    "Ġaver": 1285,
    "Ġhandles": 22694,
    "Ġde": 364,
    "Ġbakers": 17866,
    "moved": 9784,
    "Ġscalding": 16340,
    "iners": 4937,
    "Ġnuts": 17951,
    "Ġdecomposition": 5342,
    "Ġfitness": 23997,
    "Ġantiqu": 12142,
    "Ġpages": 15605,
    "Ġhardest": 18912,
    "ase": 1160,
    "Ġplanets": 24053,
    "vously": 23504,
    "Ġinstantaneous": 14611,
    "bearing": 9764,
    "killed": 15375,
    "Ġhellaswag": 24343,
    "Ġsovereign": 10061,
    "Ġjog": 18404,
    "Ġhenceforth": 19646,
    "Ġmanipulated": 25178,
    "vedale": 22709,
    "bucket": 17493,
    "standard": 22428,
    "Ġcord": 5222,
    "Ġthomson": 26454,
    "lung": 17591,
    "Ġoccupations": 9457,
    "Ġled": 3522,
    "Ġdisobedience": 22532,
    "Ġtwig": 11848,
    "pictures": 15089,
    "ric": 1373,
    "icates": 11616,
    "Ġbias": 1190,
    "Ġbricks": 13561,
    "dri": 5887,
    "remembrance": 25702,
    "neglect": 25668,
    "Ġfingertips": 24014,
    "Ġbalances": 2344,
    "Ġforeman": 23446,
    "flour": 23963,
    "itime": 15545,
    "Ġprevented": 5941,
    "Ġindignity": 18833,
    "yarn": 15456,
    "Ġmurderous": 8315,
    "Ġho": 1935,
    "Ġhooks": 14967,
    "yt": 17711,
    "under": 3134,
    "glance": 16587,
    "Ġcompare": 9301,
    "Ġvit": 10245,
    "Ġowned": 11874,
    "Ġeuroc": 14958,
    "Ġdat": 497,
    "iteness": 4392,
    "ister": 1296,
    "tarpaulins": 26405,
    "tier": 12512,
    "Ġpunctual": 17137,
    "Ġdisd": 7030,
    "Ġfeature": 747,
    "Ġsecond": 1894,
    "admit": 18090,
    "Ġkelson": 18350,
    "canoes": 16231,
    "avers": 17480,
    "sorting": 17004,
    "Ġharpoon": 3618,
    "resol": 17760,
    "Ġearth": 2851,
    "Ġunwearied": 20601,
    "inhab": 10757,
    "Ġoverlapping": 26238,
    "Ġgoat": 16005,
    "Ġjail": 22291,
    "yed": 3275,
    "Ġhit": 7163,
    "Ġcarpet": 9355,
    "Ġ90": 24588,
    "acknowledge": 18468,
    "Ġcharms": 11130,
    "Ġcomparison": 7099,
    "common": 4128,
    "Ġunconsciously": 10004,
    "Ġsynd": 22207,
    "Ġpills": 21463,
    "Ġcanall": 10930,
    "Ġinterpre": 1590,
    "Ġcompatibility": 2962,
    "patter": 4390,
    "Ġauxiliary": 26418,
    "Ġtunnel": 14929,
    "Ġjamming": 17264,
    "ives": 1408,
    "furn": 10091,
    "isol": 17846,
    "Ġpunctually": 17138,
    "Ġder": 1497,
    "squ": 7809,
    "immedi": 8450,
    "Ġsomebody": 7911,
    "Ġpondered": 15165,
    "Ġsouth": 4911,
    "Ġpockets": 8895,
    "Ġsubstit": 19539,
    "Ġsheltered": 19910,
    "Ġscandal": 9081,
    "Ġunallied": 22029,
    "Ġcontinued": 2925,
    "Ġforeign": 9871,
    "years": 6883,
    "Ġconception": 10317,
    "Ġwave": 7575,
    "overcoat": 19053,
    "share": 14236,
    "turn": 4292,
    "sl": 5794,
    "interred": 23736,
    "Ġmechanically": 14409,
    "Ġduc": 4697,
    "heaved": 21209,
    "Ġdreaded": 8288,
    "ony": 3032,
    "Ġretirement": 25378,
    "Ġslugg": 15267,
    "Ġfalls": 14644,
    "death": 6261,
    "Ġunbecoming": 22061,
    "Ġcart": 11582,
    "Ġspool": 24806,
    "function": 4476,
    "Ġexerting": 21829,
    "Ġlivid": 14988,
    "aways": 15309,
    "Ġpursu": 3241,
    "spears": 23939,
    "Ġdistingu": 2514,
    "Ġproving": 15749,
    "coll": 23778,
    "crossing": 19409,
    "bug": 17492,
    "Ġsagacity": 16974,
    "Ġmechan": 1221,
    "Ġoffended": 7040,
    "Ġsympathised": 14861,
    "persecut": 22182,
    "Ġdependen": 1829,
    "pr": 3177,
    "discoloured": 23498,
    "Ġcl": 556,
    "Ġfidget": 15188,
    "Ġinjure": 16781,
    "Ġoffers": 12942,
    "phant": 6287,
    "osop": 4404,
    "Ġdelights": 14596,
    "Ġinconsistency": 26182,
    "Ġbushy": 16401,
    "Ġpeaking": 22687,
    "Ġchapters": 10473,
    "Ġseasons": 9430,
    "ants": 1388,
    "died": 10693,
    "oker": 10963,
    "sigma": 3007,
    "cig": 17503,
    "Ġgate": 6825,
    "scot": 14417,
    "hereabouts": 23605,
    "Ġliterally": 15115,
    "Ġsnatches": 16543,
    "Ġrepent": 9862,
    "Ġthose": 1173,
    "Ġskirting": 22794,
    "attent": 9358,
    "Ġscholar": 26111,
    "bran": 23573,
    "Ġblankness": 24610,
    "Ġexpeditions": 24954,
    "Ġcompasses": 11267,
    "rece": 21233,
    "Ġpride": 3824,
    "Ġpartake": 18673,
    "Ġmeddling": 24082,
    "Ġabilities": 8866,
    "adders": 24400,
    "Ġtelescopes": 25690,
    "Ġmarvel": 23034,
    "servant": 15035,
    "Ġtold": 2186,
    "Ġmiseries": 10346,
    "ohog": 9843,
    "Ġfaced": 10808,
    "men": 1485,
    "smooth": 20247,
    "observed": 7674,
    "Ġadmeasurements": 26225,
    "Ġemble": 13970,
    "Ġantique": 19550,
    "possessed": 9527,
    "Ġfilthy": 13248,
    "Ġgulf": 10635,
    "growing": 13732,
    "Ġstumbling": 21739,
    "Ġjoyfully": 19344,
    "Ġcarn": 17821,
    "gether": 1595,
    "Ġexpedition": 10633,
    "Ġperfection": 19218,
    "Ġenter": 4032,
    "Ġarchitectures": 2913,
    "Ġreturn": 1711,
    "Ġsaw": 1348,
    "total": 17250,
    "Ġhem": 8445,
    "Ġconductor": 24004,
    "Ġtwilight": 16119,
    "Ġprove": 5231,
    "ibly": 2999,
    "Ġtho": 21511,
    "Ġhorrible": 4905,
    "Ġmanor": 14196,
    "Ġsteamer": 17188,
    "Ġnumerical": 4246,
    "Ġaugment": 8691,
    "alley": 23021,
    "Ġappertaining": 26533,
    "Ġsolicit": 22884,
    "masculine": 24387,
    "cles": 8725,
    "Ġhandful": 9782,
    "Ġfixed": 2688,
    "egypt": 15348,
    "Ġoppression": 23649,
    "Ġcinque": 20484,
    "Ġperpet": 7644,
    "extending": 22766,
    "Ġtahiti": 13618,
    "Ġaggregate": 25677,
    "Ġoft": 9194,
    "conscience": 14859,
    "ite": 714,
    "Ġunlabeled": 3801,
    "awakened": 14452,
    "chess": 16573,
    "ethe": 9676,
    "Ġinterruption": 9472,
    "Ġtongs": 9960,
    "Ġmethods": 3163,
    "Ġtalent": 12295,
    "Ġhove": 17922,
    "Ġcoffins": 13250,
    "Ġemotions": 8969,
    "Ġcomrades": 9554,
    "iant": 5427,
    "Ġpeaks": 16126,
    "chron": 21691,
    "Ġfevers": 22203,
    "Ġ105": 24413,
    "Ġtablets": 13154,
    "bery": 9786,
    "Ġbreadth": 10563,
    "Ġacknowledgment": 16957,
    "remembered": 17350,
    "Ġliquid": 22406,
    "derick": 22159,
    "ker": 5792,
    "stopping": 19348,
    "Ġpulling": 5862,
    "onday": 6063,
    "Ġcottage": 4734,
    "war": 6802,
    "Ġthoughtlessness": 16192,
    "Ġhimmalehs": 26229,
    "Ġgrammatical": 13538,
    "Ġengaged": 3432,
    "urn": 775,
    "encouragement": 17422,
    "Ġillustration": 19135,
    "serpent": 16290,
    "wearing": 22684,
    "Ġoverlook": 10959,
    "Ġbounds": 9917,
    "government": 25406,
    "moonlight": 25375,
    "Ġelevated": 7318,
    "recurring": 24194,
    "drovand": 24760,
    "Ġkrem": 9725,
    "Ġsolution": 9804,
    "professor": 17249,
    "Ġmassacre": 20546,
    "Ġhandsomely": 25497,
    "Ġcapture": 3387,
    "iety": 2818,
    "ured": 1651,
    "Ġtransf": 22434,
    "Ġdied": 4111,
    "Ġprophet": 7680,
    "Ġruminated": 24599,
    "Ġespecial": 26410,
    "driver": 14920,
    "tural": 21065,
    "anger": 2173,
    "ons": 711,
    "latitudes": 17196,
    "scept": 21052,
    "Ġsucked": 14130,
    "Ġshroud": 6483,
    "Ġerud": 20053,
    "Ġfork": 15729,
    "Ġbalance": 2021,
    "Ġ166": 25004,
    "ulpt": 10885,
    "Ġangular": 19207,
    "Ġglades": 19370,
    "ortion": 11755,
    "Ġvaults": 17153,
    "Ġadro": 15865,
    "Ġutensils": 23514,
    "Ġpays": 13295,
    "ask": 858,
    "erie": 21270,
    "Ġobject": 1393,
    "miles": 10712,
    "affrail": 11205,
    "Ġentreaty": 10529,
    "Ġglittering": 10052,
    "deployment": 26527,
    "Ġpencils": 23192,
    "Ġcau": 13880,
    "Ġfuel": 13903,
    "gment": 4389,
    "Ġ500": 24328,
    "Ġtawn": 13822,
    "event": 8076,
    "Ġbier": 22758,
    "Ġquar": 3116,
    "Ġheightens": 24154,
    "Ġboasted": 16105,
    "Ġdependent": 14293,
    "game": 11490,
    "Ġafforded": 8028,
    "Ġunprotected": 22064,
    "Ġapparel": 20434,
    "Ġuniversal": 2238,
    "itate": 6667,
    "Ġelectric": 15193,
    "Ġafter": 871,
    "Ġirreproachable": 24917,
    "Ġphren": 8571,
    "Ġcoroner": 7510,
    "Ġfossiliferous": 25609,
    "leaned": 21367,
    "ternatural": 12712,
    "Ġwrench": 12554,
    "wrath": 23755,
    "dared": 13701,
    "Ġcrippled": 25278,
    "burning": 25078,
    "Ġfamiliarity": 16729,
    "odiac": 14031,
    "Ġhish": 21910,
    "Ġpersonality": 16476,
    "Ġdem": 11673,
    "Ġfaire": 13363,
    "Ġcondemn": 13443,
    "Ġengine": 1921,
    "Ġuncle": 3195,
    "Ġentry": 11025,
    "rel": 3756,
    "Ġrain": 5005,
    "Ġgloried": 22984,
    "pur": 7806,
    "Ġimitation": 22168,
    "ispensable": 9095,
    "dings": 2176,
    "crippled": 26384,
    "stepfather": 19190,
    "gan": 2203,
    "Ġuncouth": 14550,
    "Ġindistinctly": 26117,
    "Ġdoth": 13907,
    "Ġsebastian": 11696,
    "Ġshy": 10903,
    "Ġchace": 14178,
    "Ġmuseum": 15270,
    "Ġharpoons": 5659,
    "Ġlibraries": 20613,
    "Ġdogs": 7741,
    "affa": 23775,
    "Ġjapan": 7639,
    "iqu": 7802,
    "Ġpagans": 16922,
    "Ġsympathising": 24297,
    "ted": 789,
    "Ġinvol": 1058,
    "oko": 18440,
    "Ġstreams": 12190,
    "jaw": 13742,
    "Ġcleansed": 26293,
    "Ġforgetfulness": 14606,
    "Ġcrimin": 6901,
    "Ġindecision": 25781,
    "py": 17624,
    "Ġsurpassing": 20466,
    "recollect": 17223,
    "Ġschoolboys": 24481,
    "Ġendeav": 2958,
    "Ġdangers": 12352,
    "cats": 17512,
    "dial": 20824,
    "aust": 15308,
    "uns": 21867,
    "green": 7115,
    "Ġdisgusted": 14989,
    "Ġname": 2084,
    "straight": 9939,
    "Ġnursery": 19749,
    "horse": 8605,
    "Ġrock": 5310,
    "Ġinformed": 6717,
    "Ġtw": 841,
    "Ġsplendour": 20223,
    "discovery": 12015,
    "Ġdamn": 11158,
    "mens": 20968,
    "Ġconse": 21801,
    "broken": 8020,
    "africa": 26308,
    "Ġconcentric": 20073,
    "estate": 12818,
    "piled": 21014,
    "illum": 15867,
    "Ġpinched": 17035,
    "athan": 2960,
    "country": 6103,
    "?âĢĶ": 3470,
    "Ġflames": 7939,
    "Ġconvulsively": 25717,
    "living": 7133,
    "inridge": 11560,
    "Ġstubbornness": 25380,
    "care": 4928,
    "Ġsubur": 12954,
    "Ġchoke": 22246,
    "Ġtar": 2564,
    "piece": 6655,
    "ructive": 18543,
    "Ġbrotherly": 16526,
    "hamed": 6305,
    "Ġdisdain": 8359,
    "ort": 522,
    "Ġwaving": 8575,
    "whatever": 6694,
    "apidated": 22334,
    "late": 11498,
    "Ġcrate": 19122,
    "Ġdiscovered": 4412,
    "Ġsaratoga": 26423,
    "Ġante": 17896,
    "Ġlesson": 7276,
    "miseries": 16757,
    "indulged": 22372,
    "Ġmagnet": 10389,
    "athed": 7828,
    "Ľ": 254,
    "Ġred": 3009,
    "iment": 2815,
    "Ġchiselled": 25559,
    "Ġdecomp": 3812,
    "separately": 25227,
    "were": 2559,
    "Ġcontextually": 11957,
    "Ġart": 749,
    "duing": 22408,
    "coming": 3563,
    "Ġserpents": 13075,
    "Ġpolished": 11182,
    "Ġlocked": 6034,
    "cannibals": 25584,
    "Ġmark": 2335,
    "Ġcommissioned": 19894,
    "Ġexerted": 15752,
    "glit": 23848,
    "Ġunmethodically": 22068,
    "Ġfaithfulness": 24446,
    "Ġtartar": 17321,
    "\":": 9581,
    "Ġintrig": 21987,
    "Ġlovel": 10271,
    "µ": 118,
    "Ġbon": 8785,
    "Ġwhirled": 14959,
    "Ġthack": 21514,
    "Ġracket": 22651,
    "Ġhands": 1663,
    "possible": 5743,
    "comrade": 20623,
    "Ġskip": 1845,
    "Ġsame": 1340,
    "itically": 21328,
    "haired": 14765,
    "Ġmabel": 17323,
    "control": 16542,
    "Ġpurple": 10433,
    "Ġachieved": 13165,
    "Ġfig": 3626,
    "Ġplenty": 6708,
    "Ġ131": 24782,
    "Ġcask": 5527,
    "Ġcontinuation": 22914,
    "far": 5787,
    "named": 9891,
    "Ġcrime": 4617,
    "Ġsmiling": 5474,
    "benefact": 24641,
    "Ġmarshalled": 25315,
    "Ġwalton": 14971,
    "jewel": 20345,
    "Ġrag": 18641,
    "Ġmist": 2879,
    "supportable": 12368,
    "Ġide": 2123,
    "inople": 13828,
    "Ġextort": 22744,
    "Ġobstacles": 19834,
    "Ġaimed": 20249,
    "Ġsubdued": 11033,
    "Ġplane": 11821,
    "Ġflowery": 16233,
    "oughed": 22080,
    "Ġburn": 3685,
    "ackled": 22418,
    "Ġhysterical": 26092,
    "Ġsweetly": 23916,
    "Ġdocumentation": 20553,
    "Ġdisplays": 19856,
    "Ġluckless": 16797,
    "Ġsong": 5902,
    "narr": 12494,
    "Ġreap": 18026,
    "Ġirregularly": 25323,
    "Ġprodigies": 19792,
    "mar": 4335,
    "Ġhalting": 16272,
    "Ġpretty": 3861,
    "Ġportions": 19367,
    "Ġgentlemanlike": 12064,
    "Ġfeathers": 15118,
    "Ġexpiring": 16096,
    "mir": 20962,
    "Ġsucking": 12783,
    "uneven": 23680,
    "application": 12361,
    "quin": 21850,
    "ppery": 10892,
    "Ġfires": 16471,
    "hears": 12530,
    "Ġdispositions": 13232,
    "inex": 14091,
    "ernal": 4312,
    "Ġindividuality": 14908,
    "fourths": 25509,
    "Ġeyeing": 6460,
    "Ġxx": 5492,
    "pus": 3416,
    "ring": 1754,
    "below": 12119,
    "Ġcrisis": 13125,
    "ciousness": 20816,
    "ipelagoes": 13670,
    "ulance": 15764,
    "Ġintimacy": 8700,
    "Ġconscious": 7743,
    "peter": 24298,
    "Ġdiscol": 12950,
    "Ġsuspects": 16890,
    "Ġcontrivance": 17183,
    "Ġsafety": 6339,
    "princ": 8620,
    "Ġbuoyed": 20039,
    "Ġmultitud": 18746,
    "_--": 20761,
    "Ġvineyards": 25106,
    "Ġunst": 18238,
    "Ġdeaf": 12718,
    "Ġlie": 4406,
    "Ġfoolscap": 24158,
    "phantoms": 24679,
    "Ġbites": 23742,
    "latin": 25258,
    "Ġ*": 1273,
    "ĠĠĠĠĠĠĠĠĠĠĠĠĠĠĠĠĠĠĠĠĠĠĠĠĠĠĠ": 14885,
    "Ġpeculiar": 3156,
    "illes": 12691,
    "Ġpropont": 16348,
    "Ġlodges": 19498,
    "Ġclapping": 14206,
    "Ġgri": 17987,
    "Ġlombardy": 26463,
    "frightened": 17195,
    "Ġpreservation": 24630,
    "Ġacquisition": 18899,
    "Ġme": 353,
    "Ġcarriages": 11098,
    "Ġridges": 16731,
    "Ġspreading": 13377,
    "unching": 18158,
    "heedful": 20572,
    "Ġirrevocably": 15296,
    "Ġrank": 6258,
    "Ġintelligences": 12828,
    "!âĢĶ": 2456,
    "Ġspleen": 26421,
    "species": 13256,
    "rollable": 13944,
    "Ġpugnacious": 26451,
    "Ġfattened": 25949,
    "Ġpush": 9183,
    "Ġointment": 21324,
    "Ġphrenologists": 25608,
    "suspect": 9539,
    "Ġthroat": 7770,
    "Ġfor": 340,
    "&": 10,
    "Ġrefined": 18701,
    "Ġtemporary": 7980,
    "geneva": 13729,
    "Ġdeceitfulness": 25734,
    "historian": 25735,
    "ropy": 1100,
    "Ġgospel": 18000,
    "Ġtawny": 20480,
    "emed": 3383,
    "Ġadhering": 14139,
    "longing": 23725,
    "Ġhosmer": 6774,
    "mb": 910,
    "ĳ": 244,
    "Ġscrape": 14917,
    "Ġsteeple": 19287,
    "Ġdoze": 14176,
    "Ġeuropean": 20044,
    "Ġdaybreak": 18727,
    "Ġanon": 9666,
    "Ġsl": 1496,
    "Ġchamounix": 14863,
    "quit": 15759,
    "Ġmummy": 25768,
    "Ġnor": 1549,
    "irations": 18170,
    "Ġdifference": 1489,
    "Ġshe": 466,
    "É": 138,
    "ĠâĢĺ_": 11117,
    "iquette": 26132,
    "nial": 20983,
    "tailed": 17685,
    "augment": 18829,
    "Ġcod": 8411,
    "Ġdetermination": 9818,
    "Ġcoat": 4555,
    "wit": 7817,
    "Ġcrevice": 22724,
    "Ġwonder": 2118,
    "satisfactory": 16893,
    "insulting": 26055,
    "presently": 9808,
    "wing": 2520,
    "fic": 20851,
    "Ġcomputers": 2646,
    "Ġwisely": 13271,
    "Ġhilarity": 20296,
    "lin": 9603,
    "Ġfastened": 7065,
    "Ġformidable": 8219,
    "ider": 21762,
    "ancies": 11583,
    "Ġbuilt": 8300,
    "Ġbankrupt": 16796,
    "Ġner": 1643,
    "Ġgreen": 3056,
    "smug": 23905,
    "Ġpassionate": 11273,
    "thine": 15822,
    "Ġcarried": 3695,
    "Ġtasted": 12526,
    "Ġsloping": 11937,
    "ben": 4926,
    "Ġtwitching": 25683,
    "flinging": 20867,
    "Ġounce": 15271,
    "Ġincommod": 25307,
    "lean": 21363,
    "Ġ61": 24364,
    "Ġmercifully": 20177,
    "Ġcordage": 19677,
    "Ġesquimaux": 25150,
    "Ġaugmented": 15104,
    "Ġcapable": 5054,
    "extinguished": 16150,
    "Ġparaph": 22117,
    "Ġdoleful": 18377,
    "games": 20879,
    "Ġspeak": 2234,
    "rosc": 17954,
    "Ġpermanently": 25473,
    "Ġcircumnavigating": 25614,
    "Ġevalu": 2971,
    "negro": 18489,
    "Ġimaginations": 16515,
    "Ġbreathed": 11220,
    "Ġindelicacy": 25695,
    "ioning": 21506,
    "quarrel": 20013,
    "Ġfails": 13312,
    "Ġmorbid": 16235,
    "Ġmagnitude": 1946,
    "Ġpreferment": 19852,
    "Ġ$": 21149,
    "û": 188,
    "ids": 21760,
    "Ġdemean": 12720,
    "ifts": 12732,
    "racted": 4776,
    "Ġmarching": 16699,
    "Ġunabated": 15850,
    "vere": 4883,
    "Ġhow": 598,
    "ppers": 7617,
    "Ġspear": 9313,
    "Ġcomprising": 16066,
    "taining": 7206,
    "Ġarom": 15491,
    "osc": 18387,
    "ductive": 23933,
    "Ġnurtured": 19748,
    "Ġrack": 9311,
    "icest": 21561,
    "Ġ180": 16606,
    "Ġabove": 2939,
    "Ġproxim": 3202,
    "inglass": 21301,
    "agreeable": 5829,
    "Ġpeople": 2544,
    "icity": 2540,
    "walking": 9981,
    "Ġundertaken": 18986,
    "1775": 26378,
    "Ġmean": 742,
    "club": 26380,
    "Ġchar": 1705,
    "edily": 17943,
    "Ġdoubtful": 19141,
    "pede": 19843,
    "custom": 15332,
    "stead": 10846,
    "lydia": 6826,
    "indifferent": 14208,
    "epilogue": 22103,
    "Ġexile": 12714,
    "Ġmundane": 26429,
    "Ġexcess": 3345,
    "Ġencode": 4364,
    "Ġtobacco": 8366,
    "lynes": 15701,
    "Ġwrenching": 17322,
    "hos": 15362,
    "Ġscarlet": 13221,
    "Ġtooks": 23325,
    "Ġencouraged": 9354,
    "Ġcook": 3714,
    "Ġmeetings": 16531,
    "declined": 25174,
    "Ġleaping": 8340,
    "ureau": 10226,
    "Ġanvil": 11596,
    "Ġbrazier": 26320,
    "Ġhover": 15617,
    "Ġdiscern": 7925,
    "Ġexamples": 2605,
    "Ġoverbearing": 12839,
    "tland": 21072,
    "Ġdrink": 4787,
    "boy": 4738,
    "Ġhieroglyphics": 17302,
    "177": 20751,
    "scale": 3536,
    "Ġbutts": 15853,
    "lorn": 12485,
    "Ġwarned": 16880,
    "opened": 7912,
    "Ġsleeve": 20139,
    "chel": 11207,
    "clifford": 23154,
    "greeting": 24554,
    "prim": 23808,
    "seventh": 12711,
    "tales": 17686,
    "Ġcontinent": 14887,
    "slackened": 26094,
    "Ġbrings": 11878,
    "copyright": 5277,
    "Ġslate": 11936,
    "Ġvariation": 22662,
    "Ġthreatens": 24375,
    "Ġtrifle": 10601,
    "Ġcoloured": 11044,
    "Ġloadstone": 25816,
    "Ġinspired": 2518,
    "Ġcope": 17830,
    "Ġinferred": 14501,
    "Ġpunch": 9954,
    "omit": 13973,
    "Ġalliance": 18235,
    "Ġdissimilar": 22528,
    "rene": 5379,
    "Ġintrusion": 12762,
    "solic": 16375,
    "adequate": 15202,
    "cim": 8719,
    "Ġmorsel": 20676,
    "Ġscar": 3214,
    "Ġsimilar": 4917,
    "Ġimpl": 7195,
    "Ġcovari": 2342,
    "onomy": 12544,
    "lucky": 24545,
    "ately": 1650,
    "Ġwhims": 12689,
    "Ġsails": 5256,
    "Ġcentre": 5122,
    "Ġjoke": 8868,
    "wealth": 22685,
    "Ġpassionately": 16764,
    "orders": 12872,
    "etting": 21577,
    "day": 1858,
    "Ġplausible": 26553,
    "Ġgripping": 26186,
    "oundered": 14164,
    "Ġunp": 12769,
    "Ġtimidity": 24687,
    "neglected": 25669,
    "tically": 3395,
    "prepare": 20211,
    "Ġdescrying": 18616,
    "tur": 5688,
    "com": 978,
    "Ġdared": 5440,
    "Ġtoll": 7851,
    "Ġshadows": 8012,
    "Ġvent": 4000,
    "rally": 17651,
    "Ġcedars": 20291,
    "Ġerad": 25028,
    "camp": 15329,
    "Ġfrolic": 23921,
    "poison": 14391,
    "Ġhelplessness": 25071,
    "Ġinspirited": 23419,
    "umul": 1289,
    "urp": 1471,
    "Ġaudience": 24769,
    "Ġtroub": 22341,
    "trimmed": 23946,
    "Ġdeactivates": 20702,
    "Ġpad": 8124,
    "pin": 13766,
    "ufact": 10733,
    "disposition": 10041,
    "Ġballasted": 23977,
    "entitled": 21565,
    "hon": 6793,
    "evinced": 19925,
    "Ġkindred": 16373,
    "Ġhigh": 934,
    "Ġspaniard": 20361,
    "Ġreconciliation": 25292,
    "meadow": 18677,
    "Ġtolerably": 8067,
    "Ġvisited": 5947,
    "Ġwe": 388,
    "vert": 15712,
    "_,âĢĻâĢĿ": 20399,
    "trip": 21090,
    "Ġridic": 7508,
    "Ġsermon": 12374,
    "Ġcomforted": 19389,
    "Ġagrees": 22513,
    "animals": 24738,
    "Ġsallow": 12533,
    "Ġdelay": 5748,
    "Ġpioneer": 17916,
    "Ġendured": 6072,
    "Ġbosom": 6939,
    "ò": 179,
    "arb": 1562,
    "uarded": 21104,
    "Ġpainter": 19167,
    "Ġlimp": 19179,
    "Ġsolicited": 20035,
    "Ġhired": 10177,
    "Ġunlock": 18243,
    "Ġgratitude": 5599,
    "Ġwhence": 5839,
    "Ġconflag": 20334,
    "ed": 293,
    "Ġheaths": 25972,
    "Ġseventh": 18206,
    "rock": 15638,
    "Ġindulged": 13416,
    "Ġsymptoms": 8704,
    "Ġcontrari": 23347,
    "favourite": 15142,
    "Ġalighted": 18103,
    "Ġshrieking": 24758,
    "Ġdates": 6693,
    "Ġmarked": 4620,
    "Ġtransom": 22435,
    "Ġkne": 4267,
    "Ġlaurel": 20653,
    "Ġcarr": 23088,
    "jub": 20928,
    "Ġrushed": 4088,
    "Ġpry": 11598,
    "Ġdull": 6384,
    "Ġvengeful": 14889,
    "Ġpublicly": 13321,
    "ull": 1430,
    "foam": 24418,
    "Ġmuff": 8113,
    "grow": 10098,
    "win": 6801,
    "Ġrachel": 11845,
    "Ġxviii": 23408,
    "Ġplacing": 8900,
    "Ġlistener": 16474,
    "Ġsimilarity": 3170,
    "Ġlarge": 1061,
    "Ġmine": 3181,
    "Ġfaintest": 24569,
    "entire": 6824,
    "baboon": 25516,
    "Ġhawk": 15172,
    "Ġlanc": 19763,
    "hat": 6956,
    "Ġinterpreted": 1713,
    "Ġmagnitudes": 3823,
    "Ġblocks": 6321,
    "Ġcounter": 6481,
    "Ġreven": 18028,
    "Ġcongratulate": 9063,
    "Ġformality": 22825,
    "Ġrugged": 18721,
    "judging": 24201,
    "stolen": 13981,
    "Ġflounders": 23012,
    "ard": 465,
    "oub": 1629,
    "Ġsouthwards": 19632,
    "Ġstopped": 5956,
    "Ġtyrant": 24767,
    "Ġsurplus": 26303,
    "Ġ\"": 6119,
    "benevolent": 15232,
    "Ġhailed": 6407,
    "matic": 4619,
    "ility": 623,
    "cks": 3082,
    "omy": 6248,
    "Ġblotting": 25313,
    "Ġamateur": 22482,
    "Ġflatter": 9347,
    "Ġbasis": 16961,
    "started": 10845,
    "particip": 23615,
    "sle": 9138,
    "Ġconsideration": 5191,
    "Ġeditions": 19120,
    "Ġbusiness": 2237,
    "Ġpromethe": 14467,
    "range": 3495,
    "Ġcul": 17822,
    "postp": 24634,
    "Ġnursing": 12212,
    "causing": 25518,
    "Ġattempted": 8000,
    "ental": 7168,
    "beheld": 11799,
    "Ġsuggest": 5417,
    "Ġexcited": 5580,
    "Ġinfidel": 13087,
    "sink": 11521,
    "oubled": 23644,
    "Ġhair": 3316,
    "truck": 15440,
    "Ġtrembling": 7481,
    "Ġcollect": 7237,
    "Ġreminisc": 18726,
    "Ġfarmhouse": 24984,
    "enty": 2919,
    "extric": 22765,
    "Ġunwound": 25169,
    "jah": 17581,
    "Ġstuffed": 13408,
    "warp": 17706,
    "ppered": 15788,
    "aimed": 3953,
    "Ġshare": 1656,
    "Ġride": 12755,
    "Ġprofess": 3700,
    "ó": 180,
    "Ġuneasily": 24230,
    "Ġexecutioner": 12269,
    "Ġsurely": 6307,
    "Ġdisgra": 18549,
    "forbearance": 22783,
    "inter": 2952,
    "Ġcyp": 21343,
    "Ġpur": 2221,
    "Ġdetails": 6565,
    "Ġsuperiority": 14617,
    "Ġunch": 18239,
    "shuff": 18491,
    "Ġsacri": 18327,
    "Ġaltered": 7393,
    "acetti": 13395,
    "Ġvolcanoes": 24145,
    "Ġconfined": 7465,
    "expedition": 26078,
    "connect": 1294,
    "mysteries": 26050,
    "explain": 1479,
    "Ġslang": 23156,
    "cial": 2649,
    "Ġpretension": 23763,
    "Ġslily": 23161,
    "else": 6533,
    "Ġrecorded": 11293,
    "Ġwasted": 9703,
    "Ġpauses": 14814,
    "Ġthickest": 16654,
    "interests": 19707,
    "Ġegg": 8818,
    "Ġbells": 19600,
    "fired": 20859,
    "Ġomit": 17815,
    "national": 20997,
    "orrow": 2918,
    "walk": 5523,
    "Ġcooped": 22580,
    "Ġcottages": 14726,
    "agree": 14066,
    "Ġanatomy": 12318,
    "Ġglory": 6064,
    "osing": 3691,
    "oring": 1861,
    "Ġtalks": 23368,
    "Ġtribute": 15474,
    "antingly": 22095,
    "Ġhatty": 19264,
    "Ġpalsy": 25778,
    "shri": 14235,
    "mun": 20961,
    "Ġbennet": 1575,
    "Ġinflex": 20633,
    "Ġfather": 1450,
    "works": 6587,
    "Ġineffect": 13929,
    "Ġfairly": 6325,
    "Ġborder": 10169,
    "Ġslipping": 13359,
    "Ġlounging": 10021,
    "Ġjonas": 20608,
    "Ġrefused": 6715,
    "Ġsympt": 7012,
    "Ġamerican": 5061,
    "á": 162,
    "crimin": 17508,
    "yn": 7819,
    "Ġminima": 3465,
    "Ġcalam": 13031,
    "Ġlif": 10195,
    "anqu": 4110,
    "onents": 8776,
    "arm": 1354,
    "Ġexercise": 8358,
    "trick": 19411,
    "sudden": 5315,
    "Ġconversed": 13187,
    "material": 13128,
    "Ġchopping": 24219,
    "oubted": 5859,
    "bus": 5354,
    "entreat": 17975,
    "objection": 19914,
    "gallery": 24693,
    "vens": 21111,
    "Ġdiscrete": 2478,
    "sitting": 8386,
    "gree": 10701,
    "tra": 4934,
    "rey": 12535,
    "Ġbee": 21746,
    "Ġpainted": 7978,
    "Ġbaker": 4696,
    "Ġreproofs": 24892,
    "Ġdemanding": 16805,
    "Ġrobe": 18458,
    "Ġundaunted": 24119,
    "disp": 7975,
    "Ġriver": 5411,
    "trem": 17681,
    "Ġreaders": 18914,
    "invariably": 26416,
    "Ġpane": 21460,
    "Ġcompany": 3723,
    "Ġinfluences": 14864,
    "Ġenergies": 25459,
    "wed": 5003,
    "Ġburnt": 9927,
    "Ġeff": 678,
    "trowsers": 17691,
    "Ġcomparatively": 9489,
    "istry": 22106,
    "icher": 9202,
    "69": 17474,
    "Ġbaffled": 12401,
    "Ġstrands": 25574,
    "acted": 11010,
    "Ġbeacon": 21753,
    "Ġapproximates": 2419,
    "Ġdignity": 5704,
    "?_âĢĿ": 12314,
    "morning": 4859,
    "Ġrec": 896,
    "Ġuttermost": 19486,
    "low": 648,
    "Ġexchanging": 18131,
    "Ġcobweb": 22583,
    "Ġthough": 993,
    "bold": 17487,
    "admitted": 18091,
    "Ġchest": 5185,
    "Ġapprehensions": 13403,
    "isco": 12578,
    "Ġbreathes": 13245,
    "Ġwarring": 16865,
    "Ġvertically": 19378,
    "Ġnoblest": 13241,
    "Ġselves": 21221,
    "Ġsunwards": 19011,
    "Ġbears": 6829,
    "Ġgaping": 13968,
    "Ġantichronical": 26609,
    "aciousness": 18606,
    "Ġthirty": 4944,
    "oled": 17619,
    "socket": 22725,
    "Ġnupt": 13942,
    "irably": 13294,
    "Ġacqu": 1416,
    "oices": 7348,
    "Ġbeginning": 4243,
    "Ġmadden": 10447,
    "Ġpsalmody": 20583,
    "Ġneedlessly": 23628,
    "Ġpastures": 23418,
    "Ġrefuge": 8540,
    "Ġinsurance": 23677,
    "Ġbefallen": 12341,
    "astrop": 3318,
    "Ġcommunicating": 16889,
    "steep": 19417,
    "Ġmystery": 5509,
    "dilig": 17282,
    "Ġaval": 15492,
    "Ġsmelt": 16063,
    "Ġthings": 1965,
    "Ġharbors": 24901,
    "bul": 6951,
    "Ġtasks": 1788,
    "Ġchristianity": 19860,
    "itional": 22465,
    "Ġplumage": 17297,
    "Ġsupre": 10269,
    "Ġrespect": 1668,
    "Ġexpressions": 7705,
    "lets": 7836,
    "Ġinsertion": 26343,
    "linen": 25257,
    "abb": 15736,
    "Ġlessons": 7691,
    "vard": 21109,
    "Ġinferences": 17934,
    "âĢĿ;": 11668,
    "Ġtruck": 19510,
    "Ġappeared": 2775,
    "exceed": 7910,
    "fold": 7546,
    "threatened": 25462,
    "jud": 4483,
    "Ġreckon": 19869,
    "conqu": 14244,
    "Ġbuilding": 8062,
    "Ġenthr": 22742,
    "Ġpeculiarities": 12068,
    "Ġscowl": 22287,
    "varying": 13803,
    "Ġupward": 9720,
    "Ġbreathing": 9445,
    "Ġoccurs": 1857,
    "Ġunclasp": 26511,
    "Ġberry": 19745,
    "caps": 20806,
    "Ġeagerly": 4990,
    "Ġeasily": 3891,
    "Ġdisreputable": 22531,
    "suppose": 8644,
    "Ġpluck": 15611,
    "cked": 2763,
    "Ġbeaks": 21752,
    "downward": 16619,
    "umb": 3480,
    "Ġtechnically": 12364,
    "rious": 11687,
    "crier": 20819,
    "Ġcoasts": 12161,
    "Ġlancaster": 26340,
    "Ġscope": 15942,
    "ref": 6515,
    "Ġdecember": 15007,
    "anging": 3552,
    "Ġinflict": 15001,
    "Ġstash": 18067,
    "Ġorbs": 22089,
    "Ġdet": 508,
    "danish": 20832,
    "Ġsmile": 4272,
    "heart": 4527,
    "people": 7676,
    "sterdam": 19089,
    "ibank": 6880,
    "elag": 12655,
    "Ġkey": 2103,
    "Ġapprehens": 5682,
    "Ġvicious": 24403,
    "Ġtormenting": 15103,
    "dut": 10087,
    "Ġimply": 18443,
    "Ġnom": 21516,
    "Ġimpulse": 10023,
    "Ġderanged": 23171,
    "Ġnormalizes": 1863,
    "acid": 11005,
    "bright": 8989,
    "Ġcoronation": 13332,
    "Ġpuzzle": 11305,
    "Ġavocation": 23950,
    "Ġfathoms": 9083,
    "Ġtuck": 10140,
    "Ġwhimsical": 20426,
    "subjects": 19875,
    "Ġconsid": 1814,
    "pleased": 8853,
    "Ġships": 3716,
    "Ġinstability": 3814,
    "waiter": 24586,
    "Ġstum": 21728,
    "Ġvan": 1085,
    "Ġgeneric": 18453,
    "Ġanne": 1527,
    "Ġinfallibly": 10040,
    "fifty": 12350,
    "Ġwounded": 8657,
    "Ġcorn": 9349,
    "Ġallurements": 22004,
    "Ġspasmod": 12412,
    "Ġmu": 17795,
    "secured": 16938,
    "Ġ1671": 25005,
    "Ġsuspend": 14608,
    "eld": 962,
    "urable": 8935,
    "Ġdepart": 4657,
    "esy": 9185,
    "Ġauthoritative": 19560,
    "instant": 8651,
    "ic": 304,
    "appre": 14370,
    "Ġtriumphal": 24371,
    "Ġextent": 7655,
    "Ġche": 1764,
    "Ġhawsers": 26502,
    "critical": 19502,
    "dan": 17515,
    "Ġblast": 7445,
    "parsee": 14514,
    "ption": 7398,
    "Ġdrug": 11410,
    "Ġmoderately": 22219,
    "Ġvol": 4188,
    "Ġbinnacle": 8118,
    "civility": 17513,
    "Ġwester": 25152,
    "Ġburst": 4379,
    "Ġoar": 6236,
    "Ġdiverse": 19209,
    "Ġscre": 9736,
    "slide": 24556,
    "saved": 15430,
    "hammad": 23261,
    "Ġdisordered": 16053,
    "consideration": 14954,
    "Ġmerrily": 23731,
    "Ġreplen": 11115,
    "Ġtexture": 19159,
    "Ġwhal": 5454,
    "Ġenchanted": 9080,
    "Ġstay": 3098,
    "tri": 11529,
    "Ġjunior": 15098,
    "Ġglit": 8559,
    "Ġcenturies": 8622,
    "Ġmournfully": 20115,
    "Ġflesh": 5968,
    "standing": 5558,
    "Ġvertebra": 20180,
    "Ġmultiplied": 23685,
    "meant": 7920,
    "fab": 13715,
    "Ġencourages": 2062,
    "support": 9469,
    "moby": 8536,
    "unvarying": 21884,
    "Ġdeg": 3284,
    "fall": 5135,
    "Ġpoliteness": 8273,
    "Ġconsistence": 23354,
    "Ġcred": 8780,
    "knives": 14912,
    "whispered": 20032,
    "Ġannihilated": 20251,
    "darkened": 24517,
    "Ġinhabitants": 7524,
    "Ġglimpse": 6944,
    "Ġinspection": 14545,
    "Ġwriting": 4668,
    "mechanically": 17299,
    "berwell": 22715,
    "christian": 17232,
    "buttons": 22399,
    "Ġroots": 11185,
    "Ġseparation": 11248,
    "contracting": 19293,
    "ipping": 2211,
    "gre": 5788,
    "Ġlinen": 12405,
    "bb": 2799,
    "town": 7142,
    "Ġparticip": 16129,
    "Ġsheets": 9721,
    "Ġunfavourable": 17416,
    "Ġstaid": 21732,
    "Ġlatin": 16821,
    "touch": 8391,
    "Ġnoise": 1065,
    "tain": 558,
    "sper": 4434,
    "aph": 10954,
    "Ġsembl": 19061,
    "Ġbathe": 25443,
    "Ġunbounded": 18259,
    "Ġspasmodic": 20396,
    "Ġzer": 1093,
    "Ġchemical": 10410,
    "Ġroyal": 5602,
    "Ġjunks": 25113,
    "Ġsolemnly": 8023,
    "subs": 14301,
    "Ġpast": 2100,
    "factories": 19842,
    "elfare": 11775,
    "Ġrecre": 22733,
    "Ġfaith": 5350,
    "Ġele": 1966,
    "Ġquicker": 16507,
    "Ġquies": 18464,
    "Ġappropriated": 23485,
    "Ġeluded": 12919,
    "Ġcornelius": 13572,
    "seated": 11671,
    "Ġnot": 413,
    "Ġoffend": 16141,
    "Ġhost": 7068,
    "Ġwhereof": 16100,
    "claps": 23150,
    "vul": 15447,
    "Ġimpose": 22380,
    "Ġdetest": 8500,
    "ization": 484,
    "stalls": 26473,
    "chose": 18040,
    "Ġbarricade": 14660,
    "Ġsoap": 14132,
    "beneath": 9534,
    "Ĺ": 250,
    "Ġbargain": 23791,
    "Ġcoinc": 11001,
    "Ġimaginative": 19246,
    "taken": 7560,
    "Ġsleep": 2401,
    "cavity": 26126,
    "Ġmort": 3461,
    "Ġthrough": 603,
    "Ġqueequeg": 2013,
    "tisement": 6767,
    "left": 6975,
    "Ĭ": 237,
    "Ġsheepfold": 25466,
    "Ġlent": 21544,
    "Ġdisplaying": 16966,
    "Ġapiece": 16813,
    "Ġpurchased": 12258,
    "clouds": 25496,
    "Ġcomfor": 14051,
    "omach": 11633,
    "nets": 9132,
    "libra": 22921,
    "cure": 11474,
    "irection": 2390,
    "Ġepicurean": 20554,
    "anced": 1287,
    "Ġsnap": 11201,
    "Ġvindictiveness": 25738,
    "Ġmisanthrop": 22756,
    "Ġsodden": 25535,
    "Ġprevail": 13441,
    "queen": 12724,
    "Ġdispelling": 23878,
    "ogr": 18670,
    "Ġsoldiers": 8686,
    "Ġstates": 1852,
    "perch": 18338,
    "uted": 7592,
    "Ġtread": 9408,
    "beginning": 13560,
    "Ġfoolishly": 19781,
    "Ġev": 4828,
    "Ġdearly": 10401,
    "hurry": 24763,
    "Ġcot": 13876,
    "Ġgain": 4827,
    "Ġdisc": 944,
    "Ġanimated": 7701,
    "afflicted": 23777,
    "Ġfootfall": 14661,
    "Ġproof": 6153,
    "turkish": 24533,
    "Ġalgorithm": 772,
    "Ġdriving": 3619,
    "Ġanalogy": 25639,
    "suggested": 17298,
    "Ġprodig": 6027,
    "Ġsed": 10761,
    "Ġinhaled": 25451,
    "Ġeventually": 8616,
    "Ġbent": 5149,
    "Ġblushed": 12999,
    "Ġgraze": 18226,
    "ount": 1110,
    "Ġtop": 2473,
    "Ġevol": 2814,
    "Ü": 157,
    "icil": 17971,
    "Ġbeads": 18083,
    "personal": 24963,
    "Ġpenetration": 19916,
    "behaviour": 11301,
    "vices": 21115,
    "Ġone": 569,
    "itting": 1150,
    "atic": 4020,
    "Ġvillain": 8635,
    "Ġlocks": 11722,
    "Ġdead": 2172,
    "gloves": 25143,
    "Ġlexic": 15721,
    "Ġfling": 9660,
    "ĠâĢľâĢĻ": 22251,
    "Ġdisappo": 4507,
    "Ġwilfully": 16766,
    "utely": 8131,
    "hester": 9631,
    "Ġtrusty": 24104,
    "carte": 25400,
    "Ġindiscreet": 22953,
    "Ġ1820": 25718,
    "Ġshifting": 12765,
    "Ġpul": 2040,
    "Ġresult": 4459,
    "ittered": 18439,
    "ited": 1752,
    "Ġunremitting": 26217,
    "imperturbable": 25790,
    "Ġlaugh": 4113,
    "Ġsquatted": 25841,
    "Ġunrest": 11712,
    "securing": 19812,
    "hing": 981,
    "dÃ¦mon": 17527,
    "thes": 7391,
    "Ġsn": 2953,
    "Ġmapple": 11150,
    "Ġarabic": 24978,
    "Ġclaim": 5106,
    "Ġask": 1492,
    "olly": 3227,
    "possesses": 24616,
    "poor": 6060,
    "Ġsple": 21214,
    "soles": 18686,
    "ney": 2494,
    "Ġprospects": 9958,
    "structure": 2313,
    "Ġrecommending": 24337,
    "Ġcylinders": 25943,
    "Ġextract": 1574,
    "Ġdeeps": 16102,
    "Ġstrolled": 16770,
    "Ġparad": 2843,
    "surround": 16758,
    "tese": 21082,
    "Ġcrews": 8990,
    "Ġsolved": 8930,
    "achines": 1724,
    "minute": 11274,
    "Ġassaulted": 25320,
    "Ġfringed": 17272,
    "Ġfellow": 2776,
    "Ġlastly": 16203,
    "Ġverdure": 10612,
    "opposition": 24823,
    "Ġadvise": 7934,
    "ason": 1269,
    "Ġremaining": 6188,
    "merit": 19280,
    "rossing": 18640,
    "Ġmyster": 5925,
    "sings": 4252,
    "bour": 2074,
    "gay": 11488,
    "reserved": 13842,
    "prev": 12864,
    "him": 1942,
    "iac": 6225,
    "Ġ54": 24322,
    "Ġdispatched": 23879,
    "Ġhard": 1441,
    "Ġimplicit": 19956,
    "horrors": 20540,
    "Ġenderby": 13650,
    "rud": 4189,
    "Ġexpressed": 4467,
    "Ġspect": 3553,
    "intelligent": 16844,
    "omen": 4087,
    "higher": 20405,
    "eness": 2292,
    "reproach": 15185,
    "Ġappeal": 16312,
    "Ġasleep": 6836,
    "Ġpaddling": 25285,
    "sweeping": 24618,
    "omb": 10205,
    "Ġdif": 872,
    "Ġbranded": 14378,
    "ding": 1230,
    "Ġsul": 7570,
    "Ġopenness": 18956,
    "Ġdreary": 10408,
    "atra": 17771,
    "agings": 18165,
    "Ġlovers": 9719,
    "Ġsocks": 14133,
    "Ġwould": 651,
    "iferous": 17291,
    "Ġsales": 12803,
    "Ġflannel": 26577,
    "_": 67,
    "Ġoversight": 22348,
    "iliary": 21723,
    "Ġremonstrance": 20621,
    "Ġconsc": 4275,
    "Ġunravel": 26214,
    "hetic": 12201,
    "avor": 14275,
    "Ġpilgr": 12178,
    "ckinridge": 11717,
    "Ġ68": 24370,
    "Ġcherub": 23285,
    "Ġbeadle": 26484,
    "abriel": 6950,
    "Ġmil": 4255,
    "Ġfavourites": 16644,
    "gentle": 5356,
    "Ġlbs": 11614,
    "swaying": 25910,
    "frequently": 9978,
    "Ġblacks": 23386,
    "Ġinitialization": 1252,
    "Ġenchantment": 24869,
    "Ġsuggestive": 11297,
    "Ġalas": 5921,
    "Ġtarpaul": 17730,
    "vicinity": 20478,
    "Ġeaster": 15672,
    "Ġpredicting": 2417,
    "stop": 11634,
    "Ġturning": 3329,
    "Ġbedford": 7473,
    "brimming": 23576,
    "arrant": 10474,
    "Ġgrooves": 16741,
    "Ġargemone": 24274,
    "Ġthickening": 24021,
    "greatest": 10493,
    "Ġnephews": 24713,
    "Ġuncles": 23429,
    "Ġoct": 10158,
    "Ġeastward": 13389,
    "Ġunnecessary": 8851,
    "Ġsustain": 10016,
    "Ġconsuming": 22790,
    "reject": 21235,
    "although": 8805,
    "multiple": 15106,
    "queg": 1771,
    "officers": 10627,
    "Ġdav": 15587,
    "Ġrandomly": 1922,
    "consc": 4840,
    "terdam": 18129,
    "hereditary": 26419,
    "Ġrelevant": 1864,
    "Ġrepresent": 1210,
    "Ġuntidy": 23522,
    "Ġproofs": 19813,
    "Ġconcept": 674,
    "ading": 5091,
    "Ġenraptured": 26500,
    "Ġpleadings": 25852,
    "easily": 17534,
    "Ġfell": 1979,
    "Ġcontact": 9280,
    "Ġrestoration": 19027,
    "Ġmeek": 21809,
    "Ġexclam": 6757,
    "Ġdiscourage": 3119,
    "Ġorchard": 22091,
    "Ġpopulation": 16827,
    "Ġchemist": 11134,
    "withstand": 23024,
    "Ġruggedness": 26268,
    "inates": 21179,
    "Ġsuspended": 5665,
    "Ġ128": 24473,
    "umber": 5241,
    "Ġdefined": 11896,
    "erce": 6126,
    "presum": 12865,
    "icherry": 15134,
    "Ġrespite": 13153,
    "proved": 11985,
    "hered": 5623,
    "Ġdiff": 3118,
    "Ġpalpitated": 26085,
    "Ġanswerable": 23471,
    "Ġinquiry": 6484,
    "ibule": 13008,
    "Ġcentury": 8290,
    "fiend": 13660,
    "Ġintercourse": 10998,
    "Ġsmiting": 12895,
    "Ġcapric": 14576,
    "Ġwhale": 627,
    "inconsiderable": 21190,
    "Ġtransparent": 9488,
    "sacred": 17028,
    "Ġfusion": 21412,
    "Ġladder": 8598,
    "Ġdevices": 2944,
    "orns": 12589,
    "Ġunquestion": 18248,
    "Ġcared": 8782,
    "âĢĶâĢĿ": 3302,
    "ou": 287,
    "Ġslowly": 3620,
    "tips": 13795,
    "Ġcrumpled": 16442,
    "arthly": 8029,
    "opatra": 22474,
    "Ġarched": 10932,
    "Ġsubterr": 10348,
    "Ġstrugg": 3219,
    "glass": 9908,
    "shunned": 22462,
    "Ġbead": 21747,
    "Ġbuoy": 8003,
    "willing": 6592,
    "Ġspind": 18307,
    "ì": 173,
    "ishnoo": 10955,
    "idation": 5022,
    "Ġcannib": 6035,
    "worth": 8626,
    "tot": 10728,
    "Ġper": 589,
    "Ġroyals": 19531,
    "Ġimpress": 6862,
    "Ġepsom": 19981,
    "put": 414,
    "Ġtrailing": 23076,
    "Ġhyper": 19738,
    "Ġviolently": 6456,
    "Ġarist": 14161,
    "Ġlaug": 3629,
    "inaw": 21182,
    "Ġsnuffing": 25012,
    "castles": 14636,
    "Ġhemp": 9215,
    "Ġcetus": 19884,
    "Ġdense": 8122,
    "Ġingolstadt": 8332,
    "Ġelix": 22642,
    "Ġdismay": 11807,
    "Ġjumping": 13340,
    "mody": 16183,
    "Ġthroats": 24575,
    "Ġlav": 13949,
    "Ġcumbrous": 26432,
    "Ġlisten": 4674,
    "Ġmanhood": 22323,
    "Ġreliable": 18776,
    "od": 355,
    "Ġbefriend": 18081,
    "Ġoverjoy": 15964,
    "innocent": 20285,
    "ents": 1899,
    "Ġcopse": 17067,
    "pence": 15408,
    "Ġtransactions": 18481,
    "Ġgret": 21598,
    "elop": 1498,
    "unwillingly": 21881,
    "Ġvariety": 8530,
    "Ġpercept": 14224,
    "newsp": 23132,
    "Ġadler": 8173,
    "thouse": 21979,
    "Ġflattened": 26047,
    "Ġlaudanum": 20689,
    "Ġsudden": 2000,
    "Ġsprung": 11249,
    "Ġjon": 15946,
    "Ġmasonry": 13598,
    "Ġfrankenstein": 7095,
    "Ġwrecks": 16818,
    "Ġhistory": 4011,
    "isis": 12576,
    "Ġrogue": 22402,
    "eprints": 12789,
    "Ġreports": 19084,
    "Ġmonosy": 18851,
    "Ġchose": 7413,
    "Ġmouth": 3182,
    "Ġunt": 2295,
    "Ġlocal": 1198,
    "Ġmanage": 7640,
    "Ġroses": 11784,
    "orous": 5292,
    "Ġcriminal": 7537,
    "Ġsnugness": 20075,
    "Ġnought": 21519,
    "Ġwhatsoever": 18455,
    "teness": 23203,
    "fishery": 10031,
    "thoroughly": 26508,
    "drawing": 10486,
    "Ġwaif": 9374,
    "Ġcleaning": 23178,
    "alescing": 23864,
    "Ġgrapp": 14100,
    "Ġmushroom": 13235,
    "Ġdistinct": 4610,
    "road": 6677,
    "inhabited": 13619,
    "Ġcit": 10783,
    "Ġpyth": 21458,
    "Ġaffronted": 22889,
    "Ġhopeless": 7462,
    "Ġmoods": 14950,
    "Ġreign": 13984,
    "Ġmail": 17800,
    "Ġshops": 21998,
    "Ġcolouring": 16751,
    "Ġmoment": 991,
    "lads": 20954,
    "Ġsetting": 7046,
    "Ġprophes": 16347,
    "?âĢĿâĢĶ": 12892,
    "Ġtrinity": 22342,
    "resp": 13838,
    "Ġscrib": 22285,
    "Ġpsychology": 11448,
    "explanations": 25234,
    "Ġbour": 4876,
    "east": 9115,
    "Ġslight": 3122,
    "Ġbridge": 8348,
    "arthur": 14829,
    "sur": 4524,
    "Ġold": 1054,
    "ascertaining": 26460,
    "Ġperdition": 15990,
    "congreg": 25398,
    "Ġassisting": 13257,
    "dig": 4929,
    "Ġstaircase": 20094,
    "Ġpaddock": 25037,
    "Ġemboldened": 22972,
    "Ġspices": 22127,
    "rannical": 26401,
    "Ġjollity": 25566,
    "rer": 3624,
    "Ġpaying": 9937,
    "Ġwidely": 8032,
    "Ġtepid": 26412,
    "Ġanimating": 23422,
    "Ġ95": 19772,
    "Ġcurt": 18838,
    "Ġinit": 818,
    "Ġaudacious": 13459,
    "Ġmo": 629,
    "wake": 11545,
    "Ġaltogether": 4831,
    "Ġjudging": 16595,
    "Ġamiss": 18514,
    "Ġannoyance": 20661,
    "Ġexhibiting": 19837,
    "Ġmode": 8499,
    "velling": 14761,
    "Ġelucidated": 26029,
    "Ġagents": 9765,
    "Ġcleaving": 23179,
    "taking": 5689,
    "Ġfacing": 10171,
    "Ġmonkey": 8226,
    "Ġensued": 11394,
    "Ġdefile": 18824,
    "â": 163,
    "ise": 708,
    "repeat": 25151,
    "roots": 15640,
    "Ġunmo": 12770,
    "Ġprincip": 5600,
    "Ġfond": 4755,
    "rift": 11519,
    "Ġdifferently": 10388,
    "lips": 13749,
    "ision": 1854,
    "Ġseated": 4542,
    "Ġringing": 13330,
    "imet": 21703,
    "risonment": 17374,
    "footsteps": 25199,
    "://": 11465,
    "arse": 7160,
    "Ġungrateful": 14120,
    "Ġbower": 15564,
    "Ġmustering": 18662,
    "Ġfinding": 3267,
    "Ġreminded": 9998,
    "Ġinward": 11606,
    "Ġslumbering": 25701,
    "state": 13978,
    "itz": 6005,
    "bounded": 13438,
    "Ġhedgehog": 10644,
    "Ġcurds": 22960,
    "infall": 21187,
    "Ġattain": 12744,
    "Ġunlucky": 10049,
    "axing": 18547,
    "ingle": 1038,
    "Ġmastery": 23990,
    "brad": 20780,
    "Ġmerged": 19296,
    "Ġutilize": 4798,
    "rive": 9706,
    "sole": 6168,
    "Ġlur": 5226,
    "Ġreceptacle": 23189,
    "yder": 10138,
    "Ġisa": 14024,
    "Ġspecks": 14307,
    "Ġprob": 970,
    "athy": 14322,
    "Ġrevered": 23733,
    "Ġpractically": 13093,
    "ulating": 10887,
    "ario": 14247,
    "pyramid": 21029,
    "Ġdefault": 3041,
    "Ġseems": 2483,
    "q": 85,
    "rah": 8136,
    "Ġerrors": 2596,
    "Ġpublic": 4332,
    "loom": 18538,
    "iantly": 13738,
    "communication": 25881,
    "Ġwarmup": 3923,
    "Ġspeedily": 7711,
    "Ġshiny": 14105,
    "experience": 17158,
    "ropri": 2181,
    "Ġwhel": 15864,
    "developed": 15263,
    "Ġdismast": 12885,
    "Ġinseparable": 20687,
    "Ġgathering": 14977,
    "humoured": 11236,
    "Ġpainfully": 13141,
    "Ġscientific": 6857,
    "Ġpan": 5082,
    "Ġgamesome": 17289,
    "Ġconvalescence": 23745,
    "_?âĢĿ": 15304,
    "otion": 4946,
    "ĠarchÃ¦": 22778,
    "Ġstoven": 23173,
    "Ġskeletons": 16791,
    "ĠâĢĶâĢĶ": 25757,
    "Ġalleged": 17290,
    "E": 41,
    "Ġnib": 13939,
    "Ġcorpulence": 24509,
    "Ġgoose": 5937,
    "Ġinquirer": 24961,
    "Ġfoot": 3165,
    "worshipping": 16610,
    "Ġstowed": 21733,
    "aus": 1500,
    "Ġunsh": 14114,
    "!âĢĻ": 3335,
    "Ġincessant": 15096,
    "Ġsubject": 2467,
    "Ġven": 4648,
    "Ġmerchants": 23732,
    "Ġdictionaries": 12338,
    "ove": 1745,
    "Ġdoing": 3662,
    "Ġgettest": 23228,
    "Ġcontrasting": 11154,
    "Ġshower": 11708,
    "Ġtries": 9150,
    "Ġconvenient": 8345,
    "Ġdeficiencies": 26570,
    "ifling": 15780,
    "invisible": 17740,
    "Ġmills": 21310,
    "jump": 10103,
    "castle": 3352,
    "Ġklan": 23658,
    "etence": 21574,
    "Ġmogul": 12859,
    "Ġdistrusting": 25053,
    "Ġnephew": 6404,
    "resum": 17761,
    "dom": 6222,
    "Ġoakum": 16934,
    "Ġkiller": 19567,
    "Ġtwenty": 3950,
    "Ġcircumstance": 4987,
    "Ġfa": 4819,
    "Ġwilful": 10534,
    "Ġgarnery": 17386,
    "leads": 21368,
    "Ġseldom": 4630,
    "venge": 4659,
    "Ġendless": 7053,
    "Ġtransformers": 1102,
    "slipping": 25528,
    "Ġfluctuations": 5516,
    "sailing": 14713,
    "irth": 5634,
    "Ġwhereas": 3855,
    "Ġinspecting": 24613,
    "converse": 22472,
    "Ġgreedily": 18966,
    "Ġbesee": 19242,
    "caus": 11476,
    "concl": 12866,
    "Ġdomestic": 6911,
    "incl": 8109,
    "Ġentra": 18693,
    "Ġseal": 10256,
    "pal": 9616,
    "practised": 20246,
    "pequod": 7052,
    "Ġslumbers": 18941,
    "keepers": 16659,
    "Ġwithhold": 18115,
    "dun": 17516,
    "Ġassume": 10515,
    "ĠĠĠĠĠĠĠĠĠĠĠĠĠĠĠĠĠĠĠĠĠĠĠĠĠĠĠĠĠĠĠĠĠĠĠ": 19257,
    "Ġelevating": 19728,
    "ĠcÃ¦sar": 20578,
    "Ġenters": 11024,
    "supervised": 1964,
    "Ġcounty": 9030,
    "remained": 8569,
    "Ġt": 261,
    "professional": 20274,
    "Ġremotest": 10051,
    "uneasiness": 23682,
    "Ġapplications": 4783,
    "ceiving": 3903,
    "Ġspirits": 3699,
    "Ġcracked": 8594,
    "iarity": 8743,
    "Ġsubdiv": 16158,
    "Ġsigns": 2444,
    "Ġrel": 1095,
    "Ġpips": 9846,
    "achalot": 15861,
    "Ġaccustomed": 6861,
    "ich": 469,
    "Ġjulia": 22299,
    "Ġvideo": 25365,
    "Ġscotland": 6639,
    "Ġfate": 4754,
    "Ġelbowed": 16108,
    "Ġattachment": 6049,
    "Ġelementary": 24814,
    "Ġdesirable": 8941,
    "Ġcloser": 8659,
    "itan": 10159,
    "Ġlamentations": 17076,
    "Ġdent": 13905,
    "Ġcompliment": 5673,
    "Ġbraz": 19356,
    "Ġsubsided": 14551,
    "aboard": 21791,
    "Ġresnet": 5473,
    "pres": 16027,
    "Ġconfines": 23305,
    "Ġfreedom": 9082,
    "ibid": 18846,
    "blind": 16705,
    "Ġanecdote": 26354,
    "iations": 11494,
    "Ġevident": 6611,
    "Ġindoors": 18836,
    "speech": 10666,
    "Ġremains": 4910,
    "Ġimportant": 1089,
    "Ġreplace": 14476,
    "Ġcall": 2076,
    "Ġunstructured": 3008,
    "Ġnapole": 15114,
    "Ġinevitably": 17230,
    "met": 6652,
    "evidence": 25521,
    "Ġsiberia": 26161,
    "scra": 13019,
    "fright": 9595,
    "Ġharm": 5017,
    "ours": 3430,
    "Ġmounttop": 19976,
    "Ġbloodthirsty": 26601,
    "torm": 11530,
    "Ġnobody": 6158,
    "narrowly": 20346,
    "which": 1709,
    "Ġinjury": 10540,
    "Ġelect": 10842,
    "ote": 4597,
    "ñ": 178,
    "Ġtire": 17720,
    "Ġrecital": 16139,
    "Ġbathed": 17865,
    "Ġwheels": 10912,
    "liter": 11501,
    "Ġdownward": 10331,
    "Ġquenched": 22414,
    "Ġdirection": 1793,
    "Ġlargest": 6282,
    "Ġancho": 15600,
    "sn": 7138,
    "Ġbrood": 23098,
    "Ġrelates": 12978,
    "Ġdivine": 6921,
    "Ġmistakes": 16540,
    "Ġshrubbery": 18232,
    "Ġringbolts": 24196,
    "Ġpoverty": 9303,
    "Ġdaily": 5986,
    "idable": 8145,
    "Ġboneless": 19604,
    "obst": 11930,
    "Ġcannibal": 7773,
    "/(": 2986,
    "Ġillustrations": 17108,
    "ivia": 22073,
    "Ġaught": 8772,
    "supplied": 10519,
    "Ġveritable": 19379,
    "Ġcommis": 22668,
    "Ġunfor": 15837,
    "true": 2585,
    "Ġvestige": 20061,
    "Ġfurniture": 6476,
    "Ġtrained": 8502,
    "Ġshop": 9251,
    "miss": 3176,
    "Ġspars": 3811,
    "Ġlivel": 11355,
    "Ġhideousness": 16915,
    "Ġindignantly": 16939,
    "Ġimmutable": 17357,
    "Ġhe": 318,
    "Ġbewildered": 15212,
    "arding": 22154,
    "Ġcub": 8413,
    "unteered": 26495,
    "Ġear": 1421,
    "Ġperceptible": 18451,
    "Ġnewfoundland": 26569,
    "oga": 22692,
    "Ġexplored": 23517,
    "sank": 17662,
    "iful": 2884,
    "ilities": 6991,
    "ucket": 2485,
    "Ġfundament": 2930,
    "Ġobeyed": 12214,
    "Ġawake": 8271,
    "Ġunintelligible": 26514,
    "unworthy": 18161,
    "Ġthem": 640,
    "Ġcomprehension": 15085,
    "Ġfill": 5701,
    "Ġ93": 24591,
    "field": 3074,
    "Ġcreaking": 14327,
    "illar": 5101,
    "Ġrepresents": 4902,
    "Ġthoroughfare": 16944,
    "Ġassociations": 14962,
    "Ġunctuousness": 17234,
    "Ġdiffidence": 14659,
    "ab": 345,
    "Ġepisode": 26346,
    "Ġconjectures": 16925,
    "Ġlosing": 10916,
    "Ġsepul": 14089,
    "ribut": 814,
    "Ġsecondary": 23334,
    "Ġstorm": 4301,
    "however": 4372,
    "Ġundertone": 23234,
    "Ġadmon": 15866,
    "Ġbudge": 15163,
    "guard": 12126,
    "Ġrepresenting": 4062,
    "Ġshoving": 23489,
    "Ġtechnical": 17191,
    "Ġhoping": 11103,
    "colonel": 8284,
    "Ġsomehow": 4841,
    "supplement": 14795,
    "considerable": 10548,
    "Ġstreet": 2961,
    "Ġconvers": 2910,
    "Ġevaluate": 3046,
    "Ġimpregn": 26022,
    "<PAD>": 0,
    "Ġscheme": 7064,
    "Ġclothing": 18430,
    "kne": 20934,
    "hercules": 22201,
    "discernible": 20549,
    "Ġgun": 4702,
    "Ġgeneralization": 984,
    "slee": 17168,
    "moreover": 12966,
    "Ġabstained": 25231,
    "Ġinsensibility": 17110,
    "copper": 19187,
    "housekeeping": 24102,
    "Ġaloysius": 15735,
    "Ġtried": 3649,
    "itable": 5437,
    "res": 2760,
    "Ġresp": 2495,
    "ĠĠĠĠĠĠĠĠĠĠĠĠĠĠĠĠĠĠĠĠĠĠĠĠĠĠĠĠĠĠĠĠĠ": 12041,
    "Ġdeity": 18134,
    "Ġengra": 7873,
    "exper": 8878,
    "Ġsilver": 7463,
    "Ġsuperst": 7703,
    "toes": 22561,
    "might": 4079,
    "Ġgretna": 26468,
    "serious": 14447,
    "flowing": 14540,
    "Ġcasked": 24497,
    "Ġskrimshander": 22796,
    "ipher": 18422,
    "ahit": 9381,
    "Ġmissing": 6175,
    "mortar": 25408,
    "Ġsolemn": 4100,
    "Ġvehement": 16200,
    "ermost": 7430,
    "Ġ33": 16676,
    "Ġkentuckian": 26342,
    "four": 6113,
    "100": 11464,
    "Ġabundantly": 17156,
    "Ġattic": 16093,
    "Ġa": 263,
    "Ġaccidental": 16848,
    "Ġinnoc": 3796,
    "Ġspake": 18308,
    "Ġalphabetical": 17201,
    "verize": 21725,
    "Ġsteal": 16282,
    "Ġcocksure": 26258,
    "Ġrefer": 18699,
    "Ġpreservative": 24629,
    "Ġdrawn": 4276,
    "espe": 3500,
    "Ġawa": 7713,
    "Ġexclusiveness": 23924,
    "Ġporing": 21464,
    "Ġheighten": 19528,
    "Ġfow": 6133,
    "irium": 8161,
    "marriage": 7744,
    "Ġhousings": 21490,
    "msman": 9268,
    "stretching": 20497,
    "Ġevince": 24293,
    "ked": 5616,
    "ouri": 21445,
    "Ġresting": 7961,
    "Ġargued": 13628,
    "agues": 8160,
    "still": 4218,
    "Ġengineering": 3029,
    "Ġrope": 4338,
    "buoy": 7760,
    "Ġinitialized": 3949,
    "Ġcommander": 8624,
    "Ġorgan": 2503,
    "Ġchanc": 18384,
    "leeward": 15209,
    "women": 15455,
    "Ġskies": 8920,
    "Ġhanover": 20584,
    "Ġimages": 1599,
    "remes": 21236,
    "Ġtennes": 23548,
    "Ġadvancing": 6878,
    "endar": 18362,
    "Ġfid": 10803,
    "dist": 4482,
    "Ġsmitten": 12896,
    "Ġhazard": 20430,
    "Ġsuggestion": 19706,
    "Ġgreeting": 18964,
    "razor": 21634,
    "Ġsharper": 17179,
    "Ġunluckily": 20100,
    "sp": 894,
    "Ġflour": 8944,
    "Ġprecipitate": 19940,
    "Ġpolitical": 19223,
    "Ġrenewal": 12232,
    "Ġdirectly": 2106,
    "slack": 16894,
    "Ġhes": 6250,
    "continual": 20643,
    "luent": 15994,
    "cas": 20793,
    "Ġaccelerating": 1616,
    "Ġdifficulty": 5770,
    "didn": 9006,
    "Ġmalicious": 10557,
    "watery": 19825,
    "Ġfilled": 4394,
    "Ġblank": 5950,
    "without": 4846,
    "Ġperu": 14223,
    "Ġascribe": 16782,
    "until": 6596,
    "xible": 13807,
    "Ġstudying": 9841,
    "ishmael": 18420,
    "Ġgrammars": 11402,
    "Ġspread": 5161,
    "Ġzealand": 12348,
    "Ġstress": 18066,
    ",*": 17471,
    "Ġcares": 9365,
    "Ġslung": 23165,
    "Ġschemes": 11131,
    "Ġdiscriminator": 3394,
    "Ġconfiding": 19040,
    "Ġobedient": 20103,
    "Ġmunro": 25630,
    "Ġengrossed": 12994,
    "Ġcardboard": 19977,
    "Ġfew": 1207,
    "latitude": 25259,
    "Ġnewspaper": 12362,
    "Ġsage": 17752,
    "Ġbru": 13894,
    "ods": 8835,
    "Ġrum": 5923,
    "steak": 14707,
    "Ġcolon": 18762,
    "Ġmeddle": 19490,
    "Ġindefinitely": 25221,
    "ogrand": 26261,
    "Ġchanges": 2288,
    "Ġhushed": 13924,
    "Ġstoner": 7178,
    "ested": 3481,
    "Ġpeasants": 12330,
    "Ġsecondly": 14519,
    "Ğ": 223,
    "Ġstiffest": 24829,
    "Ġcable": 11579,
    "wide": 10137,
    "Ġmccauley": 26427,
    "Ġirish": 14534,
    "iving": 1727,
    "Ġant": 4345,
    "Ġescape": 2648,
    "Ġamount": 8511,
    "Ġgovernesses": 25127,
    "Ġfits": 8790,
    "Ġreminiscences": 26269,
    "Ġtimor": 24224,
    "Ġreference": 2566,
    "proceeding": 20140,
    "Ġresume": 18565,
    "Ġhieroglyphic": 25587,
    "isf": 2437,
    "Ġtribe": 10751,
    "Ġnash": 5819,
    "Ġpresentation": 14480,
    "Ġheavily": 6740,
    "Ġske": 4815,
    "Ġphysiology": 25332,
    "Ġscraped": 16903,
    "invest": 11559,
    "hecy": 21205,
    "hee": 10760,
    "rocious": 21536,
    "prec": 3204,
    "Ġmemoirs": 26205,
    "Ġamph": 18513,
    "Ġrelied": 16193,
    "Ġterminating": 23510,
    "Ġmonster": 3795,
    "Ġapproached": 5843,
    "fered": 5560,
    "Ġasked": 2280,
    "Ġchasing": 11752,
    "Ġenjoined": 18191,
    "anous": 21357,
    "Ġsense": 3253,
    "Ġhelper": 24023,
    "Ġerudite": 26350,
    "Ġas": 374,
    "Ġfet": 5807,
    "ception": 6562,
    "Ġsomeone": 6703,
    "Ġhugh": 15004,
    "accompl": 9879,
    "Ġstructure": 831,
    "monsters": 19170,
    "Ġtestimony": 14479,
    "excited": 13379,
    "Ġcommands": 16589,
    "Ġpointing": 5661,
    "Ġworn": 6445,
    "Ġvoyage": 3058,
    "Ġeconomically": 25288,
    "hoisted": 19281,
    "Ġpeterson": 9482,
    "rib": 1948,
    "Ġshift": 2284,
    "Ġshoulders": 5566,
    "Ġsolicitude": 10039,
    "authority": 13590,
    "county": 25396,
    "spersed": 22731,
    "establishment": 26113,
    "Ġmile": 7151,
    "Ġwin": 9641,
    "Ġsafer": 22162,
    "Ġconfirm": 9855,
    "Ġgaieties": 24195,
    "mention": 7214,
    "Ġthundering": 24291,
    "smallest": 23909,
    "Ġsolitude": 6876,
    "activation": 3233,
    "Ġpistol": 7846,
    "Ġcumberland": 21353,
    "warm": 8101,
    "Ġpeaceful": 9455,
    "Ġallen": 5160,
    "Ġamiable": 4270,
    "ational": 5716,
    "Ġic": 9625,
    "happy": 4424,
    "ock": 15401,
    "Ġdipping": 15589,
    "Ġalders": 21781,
    "n": 82,
    "Ġbake": 21380,
    "Ġpatient": 6895,
    "Ġfiery": 6871,
    "repairing": 24495,
    "Ġcapst": 8596,
    "Ġsol": 1101,
    "Ġfluctu": 5267,
    "Ġrange": 9711,
    "tacit": 21097,
    "Ċ": 203,
    "Ġdespair": 4013,
    "Ġatom": 18192,
    "tol": 17672,
    "Ġhousekeeper": 7456,
    "Ġsensationalism": 26066,
    "Ġgidd": 25783,
    "yset": 21144,
    "Ġperiod": 4007,
    "tattoo": 21086,
    "urpation": 16299,
    "rodu": 1819,
    "Ġremove": 7499,
    "ference": 1884,
    "Ġtoad": 21507,
    "sort": 6798,
    "Ġfooted": 23795,
    "foreseen": 14253,
    "Ġfanny": 23389,
    "immediate": 20092,
    "sworn": 24256,
    "cun": 20794,
    "public": 17646,
    "Ġbelow": 4063,
    "Ġcongealed": 25981,
    "ersburgh": 18209,
    "anoke": 21359,
    "numbers": 17616,
    "Ġinjunction": 19616,
    "Ġtelling": 5747,
    "Ġrelease": 19290,
    "Ġhole": 6079,
    "Ġfiltering": 23923,
    "Ġjabbering": 22300,
    "definition": 23115,
    "Ġrattled": 15065,
    "gird": 20878,
    "Ġdelivered": 11116,
    "Ġfashionable": 19543,
    "subst": 12162,
    "Ġrubber": 22785,
    "abash": 18107,
    "detached": 19673,
    "Ġwaters": 3597,
    "Ġsleeves": 10660,
    "quee": 4130,
    "tired": 21071,
    "Ġescorted": 23506,
    "oup": 2015,
    "invol": 12527,
    "Ġhose": 12624,
    "Ġpapered": 20129,
    "Ġlivelong": 25511,
    "Ġimmensely": 13594,
    "angels": 22102,
    "frankly": 20020,
    "otics": 10223,
    "Ġshorter": 4500,
    "Ġblanket": 8342,
    "solving": 3103,
    "belais": 24035,
    "Ġdum": 10811,
    "ot": 346,
    "americ": 8155,
    "Ġaltitude": 26202,
    "ease": 12455,
    "Ġforenoon": 19126,
    "adays": 14012,
    "Ġvishnoo": 12750,
    "fr": 4804,
    "steel": 8298,
    "Ġsnatch": 14639,
    "break": 6101,
    "Ġimpertin": 6933,
    "hatred": 24821,
    "Ġtet": 21156,
    "illuminated": 17452,
    "silenced": 24423,
    "necess": 4896,
    "ry": 806,
    "unwilling": 14060,
    "Ġdarcy": 1341,
    "Ġstilly": 25973,
    "Ġwhittling": 20698,
    "ryphon": 4163,
    "Ġdivide": 12108,
    "Ġparallelization": 3433,
    "insensibility": 23066,
    "Ġappetites": 20205,
    "Ġcensus": 15095,
    "abbering": 21793,
    "Ġchancing": 22245,
    "Ġtanning": 17729,
    "Ġglorious": 11075,
    "Ġwes": 8778,
    "Ġhyena": 24519,
    "Ġengagement": 5397,
    "Ġdock": 15928,
    "lucases": 20209,
    "Ġlets": 18076,
    "Ġstolen": 14006,
    "Ġdeterminate": 23001,
    "ts": 960,
    "Ġdear": 1536,
    "week": 12928,
    "precip": 14664,
    "worthy": 7732,
    "hood": 2662,
    "Ġrevelations": 25223,
    "Ġmichigan": 26426,
    "Ġmixed": 6974,
    "hampshire": 23262,
    "Ġmerciless": 25246,
    "Ġvoices": 7875,
    "Ġchocks": 13344,
    "Ġpromises": 10400,
    "Ġ[": 6967,
    "Ġforbe": 8457,
    "Ġassailants": 20447,
    "Ġcreditor": 24290,
    "Ġdissolved": 18554,
    "Ġrails": 22650,
    "Ġoppressed": 11189,
    "aye": 3661,
    "sphere": 22729,
    "eluded": 21572,
    "safie": 20347,
    "Ġwrist": 8242,
    "question": 5418,
    "propagation": 1246,
    "Ġkeenly": 9484,
    "Ġlub": 15646,
    "Ġmoritz": 11904,
    "Ġkeep": 2359,
    "rowed": 22856,
    "Ġquench": 22416,
    "Ġnotions": 14098,
    "rees": 5436,
    "Ġmale": 9648,
    "Ġdocile": 19957,
    "Ġmaids": 19690,
    "quired": 21852,
    "shoe": 14966,
    "Ġmomentary": 11036,
    "places": 7876,
    "Ġsteed": 13038,
    "Ġbrad": 8786,
    "Ġdigesting": 19808,
    "Ġphilosophy": 7103,
    "Ġago": 3139,
    "enough": 6809,
    "Ġclink": 22355,
    "nesday": 8702,
    "courage": 17509,
    "come": 2380,
    "Ġembark": 8557,
    "Ġcherry": 16935,
    "Ġtwins": 16118,
    "Ġfort": 2578,
    "Ġgreatest": 4093,
    "Ġorders": 5340,
    "Ġmutter": 23951,
    "Ġwitnesses": 9485,
    "ensils": 22545,
    "acter": 2507,
    "Ġwinds": 5746,
    "Ġfanc": 6743,
    "atmosphere": 21263,
    "lilies": 20960,
    "enter": 7857,
    "shoals": 24717,
    "Ġwhitney": 11373,
    "commanded": 16988,
    "Ġfestival": 25445,
    "Ġon": 350,
    "Ġwoof": 14720,
    "Ġmad": 2429,
    "Ġwooing": 19432,
    "Ġdescent": 976,
    "Ġimpending": 22382,
    "Ġindulging": 16904,
    "iem": 20916,
    "Ġrashly": 20304,
    "attendants": 25495,
    "marry": 13322,
    "ee": 1659,
    "illation": 14141,
    "fur": 6355,
    "ortment": 22254,
    "istics": 1626,
    "Ġglassy": 19559,
    "Ġaghast": 16045,
    "Ġultimate": 12347,
    "Ġdistrustful": 25054,
    "Ö": 151,
    "Ġremo": 3787,
    "Ġing": 5283,
    "denial": 18716,
    "suitableness": 26260,
    "delighted": 10562,
    "Ġarticulated": 24433,
    "last": 3804,
    "Ġaccusations": 22377,
    "Ġcrown": 5287,
    "Ġfeatures": 1431,
    "Ġactive": 7914,
    "Ġpriest": 7526,
    "Ġsighs": 22708,
    "Ġquantization": 19853,
    "mystic": 25316,
    "Ġbandaged": 16842,
    "Ġhandsomer": 20332,
    "affected": 10476,
    "autumn": 23341,
    "Ġfleets": 23773,
    "Ġunfeeling": 14118,
    "posted": 24635,
    "Ġpurchase": 12257,
    "Ġglove": 14491,
    "training": 2517,
    "Ġenjoyed": 8007,
    "probably": 10019,
    "Ġthankful": 14737,
    "claim": 9834,
    "Ġacc": 575,
    "seized": 14034,
    "Ġearl": 7675,
    "derbyshire": 18321,
    "Ġinsists": 23673,
    "Ġhabits": 6926,
    "mble": 1405,
    "clouded": 20330,
    "Ġbecalmed": 18086,
    "positive": 20566,
    "remain": 9837,
    "Ġregion": 2274,
    "valley": 16213,
    "Ġmoist": 9284,
    "Ġgrasping": 12163,
    "Ġsuicide": 12784,
    "Ġunsatisfied": 22041,
    "poises": 11887,
    "Ġfrowning": 13622,
    "Ġrheumatic": 20704,
    "circuit": 24188,
    "Ġgrease": 26189,
    "ifted": 4496,
    "Ġmagnus": 18958,
    "pleas": 3852,
    "Ġdams": 16456,
    "Ġcommenting": 25228,
    "increas": 10454,
    "gigantic": 15358,
    "Ġsoothed": 10028,
    "Ġparticular": 2451,
    "Ġtightly": 13533,
    "Ġrecent": 7436,
    "Ġamours": 22478,
    "dance": 17519,
    "chemical": 23807,
    "timidity": 25753,
    "Ġroad": 3881,
    "Ġpanel": 13371,
    "moral": 14801,
    "Ġgovern": 10450,
    "fearfully": 25116,
    "apprec": 22844,
    "Ġducks": 25157,
    "Ġoverspread": 14202,
    "Ġabsent": 7014,
    "wedged": 24338,
    "comple": 7440,
    "Ġdumplings": 15189,
    "800": 17476,
    "shrouded": 26361,
    "Ġquality": 3529,
    "Ġdilated": 24704,
    "Ġsounding": 8264,
    "Ġlulled": 17968,
    "onness": 21253,
    "Ġlean": 7605,
    "mot": 17596,
    "saying": 8640,
    "Ġher": 426,
    "sad": 11520,
    "emper": 18185,
    "bre": 3980,
    "crane": 24098,
    "rum": 3417,
    "Ġvibrated": 25045,
    "ifer": 11683,
    "mews": 22705,
    "clean": 14759,
    "Ġiceland": 15145,
    "usage": 12829,
    "Ġlifeless": 8948,
    "us": 531,
    "ean": 20839,
    "Ġfloor": 4377,
    "passage": 11261,
    "Ġgrimly": 17052,
    "Ġagricultural": 26550,
    "inioned": 19285,
    "uttering": 12659,
    "iable": 3337,
    "Ġtheory": 5798,
    "Ġtam": 7821,
    "dle": 3250,
    "lu": 597,
    "Ġnobly": 22238,
    "ra": 314,
    "ell": 398,
    "speeches": 25239,
    "Ġlass": 15645,
    "ye": 1403,
    "quished": 21851,
    "Ġscuttle": 7414,
    "Ġconfided": 19039,
    "Ġslabs": 13058,
    "Ġtoiling": 15632,
    "Ġhob": 12626,
    "concluded": 11242,
    "arched": 10815,
    "miserable": 8656,
    "Ġvill": 3878,
    "eling": 6681,
    "mystery": 15154,
    "Ġpanegyric": 26449,
    "Ġdiscomposed": 25580,
    "Ġrussian": 14350,
    "ary": 988,
    "Ġwa": 1755,
    "Ġreassure": 21669,
    "Ġthese": 820,
    "sorrows": 17319,
    "overed": 2854,
    "nurtured": 25524,
    "desired": 8956,
    "flag": 14710,
    "persuaded": 15072,
    "Ġfru": 8419,
    "Ġcogent": 14272,
    "Ġcruc": 16534,
    "ument": 5240,
    "lydon": 13988,
    "izer": 2030,
    "nature": 5359,
    "twas": 15436,
    "Ġsolid": 6443,
    "man": 1052,
    "Ġdil": 6383,
    "mical": 9128,
    "meetings": 20376,
    "Ġadequate": 20307,
    "ernally": 22616,
    "Ġrheum": 18216,
    "ination": 2916,
    "Ġnovelties": 24778,
    "Ġpuzzling": 14897,
    "Ġwon": 1664,
    "?_": 8069,
    "Ġassuming": 16693,
    "Ġapologies": 25196,
    "bab": 11468,
    "Ġnotion": 7881,
    "orified": 21400,
    "Ġprovoked": 13324,
    "Ġunless": 4091,
    "Ġsill": 10765,
    "Ġ1883": 23894,
    "appetite": 22847,
    "orse": 5806,
    "Ġvehicles": 10659,
    "chest": 11208,
    "uncomfortable": 18160,
    "Ġfoliage": 18866,
    "Ġobserver": 11987,
    "Ġfears": 5729,
    "Ġscent": 10285,
    "Ġyears": 1895,
    "Ġyounger": 5252,
    "Ġgurgling": 17445,
    "Ġah": 5075,
    "arris": 13208,
    "Ġhorseman": 19606,
    "farintosh": 24553,
    "Ġlistening": 6318,
    "Ġrelentless": 26277,
    "Ġmodels": 776,
    "Ġcrater": 16439,
    "Ġparis": 8178,
    "Ġoffered": 5816,
    "Ġrelig": 8550,
    "define": 1524,
    "Ġenticements": 26034,
    "Ġbolted": 12242,
    "Ġvertu": 23888,
    "Ġcabal": 23640,
    "Ġadvised": 16204,
    "Ġwhispered": 5337,
    "Ġover": 555,
    "Ġirresolute": 24916,
    "Ġopulence": 23626,
    "Ġsleepers": 13148,
    "Ġspy": 22120,
    "Ġfled": 6670,
    "Ġgrappling": 25812,
    "sheltered": 25585,
    "Ġcontains": 2792,
    "cracy": 24690,
    "Ġprovided": 6577,
    "Ġamounts": 6704,
    "uses": 11758,
    "Ġpitches": 23899,
    "Ġrecom": 4556,
    "Ġtotally": 9470,
    "representativeness": 25272,
    "Ġtrophy": 20005,
    "cating": 20801,
    "egyptians": 25898,
    "Ġticklish": 25034,
    "Ġupset": 22150,
    "contrivance": 26316,
    "tray": 21076,
    "Ġferocity": 16866,
    "elab": 21567,
    "Ġrichness": 19310,
    "bald": 16447,
    "presented": 12989,
    "gracechurch": 24581,
    "Ġkeys": 11995,
    "meditated": 19069,
    "Ġbag": 5699,
    "Ġinestimable": 17441,
    "Ġleaders": 16627,
    "Ġjerked": 19831,
    "Ġlvi": 21550,
    "Ġalluding": 18236,
    "Ġdealer": 23974,
    "bordered": 17498,
    "oss": 10115,
    "guessed": 25872,
    "Ġwre": 5077,
    "Ġhearing": 4761,
    "Ġsoothing": 8172,
    "inity": 5693,
    "taller": 26150,
    "Ġpatagonia": 25858,
    "Ġmoon": 4609,
    "okingly": 22375,
    "Ġcalhoun": 23042,
    "Ġwish": 2099,
    "Ġdistrusted": 13541,
    "Ġmorality": 22975,
    "nep": 20985,
    "Ġwebster": 20160,
    "Ġknocked": 9499,
    "Ġtom": 15630,
    "daughters": 13465,
    "youth": 11873,
    "Ġgrat": 4058,
    "Ġfisheries": 17437,
    "Ġnuptials": 20492,
    "Ġupd": 947,
    "Ġawkward": 7073,
    "Ġplowdon": 26447,
    "Ġemerg": 13423,
    "seriously": 18904,
    "Ġfr": 1697,
    "Ġspilling": 22134,
    "obtained": 23093,
    "enances": 10153,
    "Ġtime": 690,
    "Ġoverfitting": 1539,
    "Ġsurpl": 19132,
    "Ġcasement": 25092,
    "Ġconquer": 14026,
    "Ġburg": 23650,
    "Ġsavoury": 23875,
    "Ġexig": 21823,
    "Ġmagic": 8232,
    "Ġbox": 5109,
    "Ġstock": 7455,
    "Ġperforms": 11875,
    "grasping": 20638,
    "Ġemperor": 15157,
    "cupboards": 25401,
    "Ġeternally": 11369,
    "Ġfancied": 7326,
    "irregular": 21908,
    "Ġsplinters": 15101,
    "Ġdel": 1612,
    "Ġgent": 7383,
    "Ġcollected": 2611,
    "Ġcommit": 18655,
    "Ġthereof": 22365,
    "Ġpull": 5152,
    "icions": 21560,
    "Ġestablish": 9542,
    "Ġinsol": 10180,
    "Ġmanx": 7904,
    "arily": 4126,
    "thro": 12758,
    "understood": 13215,
    "Ġdivided": 8631,
    "Ġreduce": 7942,
    "Ġovertaken": 18425,
    "Ġinsight": 16528,
    "Ġtempted": 9056,
    "Ġembod": 14412,
    "iline": 21718,
    "Ġhopeful": 19031,
    "Ġdrawling": 19435,
    "Ġwhisper": 6205,
    "sperm": 5203,
    "aurus": 20559,
    "ade": 881,
    "tale": 10127,
    "Ġdishes": 16048,
    "loops": 12880,
    "umberland": 16837,
    "Ġdexterous": 15147,
    "blacksmith": 17001,
    "Ġpossibilities": 18976,
    "Ġbran": 5251,
    "Ġwindow": 3001,
    "useless": 14594,
    "Ġexpressing": 12007,
    "rowing": 7930,
    "cceed": 4143,
    "Ġreport": 6191,
    "Ġglens": 18854,
    "Ġ96": 24592,
    "Ġinvitation": 5189,
    "Ġoaths": 13523,
    "agos": 21901,
    "Ġshowed": 4498,
    "Ġprocedure": 2809,
    "Ġice": 3606,
    "hatch": 15363,
    "aloud": 17940,
    "Ġwholly": 4446,
    "stirring": 20424,
    "Ġreturns": 11924,
    "Ġinvolved": 8923,
    "Ġmiscellaneous": 17462,
    "Ġeulogy": 26470,
    "Ġlike": 670,
    "steps": 9404,
    "Ġexisting": 12715,
    "young": 7321,
    "Ġmistifying": 23719,
    "ying": 1364,
    "father": 3778,
    "showed": 16025,
    "coburg": 13597,
    "inu": 1114,
    "Ġhateful": 19712,
    "lingering": 18601,
    "Ġsty": 6251,
    "Ġsus": 18276,
    "Ġowners": 7662,
    "Ġtravel": 5952,
    "Ġbeckoned": 25793,
    "Ġcont": 622,
    "Ġenglish": 3616,
    ",--": 2479,
    "Ġklux": 22192,
    "spring": 7231,
    "Ġmurmuring": 23578,
    "Ġfurlong": 18740,
    "Ġcollateral": 20070,
    "Ġelemental": 19918,
    "Ġpreser": 6040,
    "Ġgrop": 12661,
    "Ġschedu": 1824,
    "Ġregain": 22571,
    "consid": 4924,
    "Ġhowled": 12852,
    "Ġinf": 1758,
    "Ġexploit": 19161,
    "ribution": 14306,
    "Ġanalyzing": 18807,
    "Ġstore": 8453,
    "Ġaddresses": 3770,
    "deck": 4502,
    "Ġdeploy": 2905,
    "veral": 2357,
    "omas": 12668,
    "gus": 13724,
    "Ġrevolved": 9983,
    "Ġblindly": 12107,
    "Ġunit": 1848,
    "Ġbackwater": 18650,
    "Ġhunger": 8566,
    "Ġprocopius": 19730,
    "Ġ1778": 25730,
    "Ġwhistles": 24624,
    "Ġrevolve": 19729,
    "Ġloud": 4701,
    "regiment": 16452,
    "Ġslighter": 18939,
    "Ġrunning": 3952,
    "trembling": 17142,
    "Ġshowers": 16605,
    "Ġbraces": 14669,
    "Ġquitted": 5311,
    "Ġdeep": 793,
    "prot": 6899,
    "uberance": 25916,
    "Ġimproper": 22750,
    "gia": 20875,
    "Ġiron": 3237,
    "sure": 5522,
    "leviathans": 19936,
    "Ġsuggestions": 24453,
    "Ġstead": 5650,
    "ĩ": 234,
    "Ġevaluation": 16547,
    "itating": 9650,
    "Ġcleanse": 24527,
    "roses": 17956,
    "id": 338,
    "Ġdarts": 16768,
    "Ġintroduces": 3271,
    "Ġfly": 3870,
    "Ġthinks": 6169,
    "Ġcandidates": 4333,
    "Ġwall": 3843,
    "temper": 10003,
    "Ġgrasp": 4664,
    "raham": 18013,
    "Ġadroop": 26001,
    "Ġplaying": 6909,
    "ource": 5244,
    "progra": 9394,
    "pronouncing": 25193,
    "drove": 16993,
    "Ġforesee": 19125,
    "Ġprender": 22232,
    "Ġnorthumbria": 24171,
    "Ġhovered": 12628,
    "Ġhulls": 13925,
    "zwilliam": 5074,
    "thest": 11653,
    "Ġrainy": 24341,
    "Ġfist": 21402,
    "pher": 11511,
    "Ġtheore": 1830,
    "Ġlay": 582,
    "remark": 7261,
    "leap": 21365,
    "moderate": 22859,
    "Ġmaintained": 12931,
    "Ġcontemplative": 19892,
    "chanced": 18820,
    "Ġpatches": 4237,
    "Ġcivilized": 8664,
    "Ġimprove": 1875,
    "gno": 13726,
    "Ġbackbones": 22656,
    "Ġinsure": 13177,
    "Ġembarrassment": 10626,
    "Ġcommunicated": 9061,
    "Ġapproximate": 2346,
    "Ġintently": 8168,
    "unting": 21871,
    "Ġstaying": 8283,
    "Ġbarrier": 16569,
    "resemblance": 25933,
    "Ġascended": 8665,
    "Ġsevere": 6031,
    "_).": 5886,
    "Ġwhalers": 8047,
    "Ġuniversity": 13120,
    "Ġ91": 24589,
    "Ġacting": 10991,
    "contains": 16029,
    "blown": 25201,
    "iracle": 11243,
    "haw": 6361,
    "Ġgenial": 12192,
    "bbles": 13690,
    "pered": 4197,
    "Ġsmote": 18575,
    "Ġcovers": 18594,
    "==": 945,
    "Ġmill": 6666,
    "Ġunce": 11709,
    "alization": 732,
    "regularly": 13207,
    "bones": 8371,
    "Ġsash": 17754,
    "wester": 21137,
    "Ġwell": 900,
    "Ġphrensy": 25124,
    "ieties": 19025,
    "ladyship": 14828,
    "gain": 8736,
    ".âĢĻ": 1719,
    "Ġwings": 9163,
    "Ġgigantic": 5914,
    "idirection": 2413,
    "Ġconversations": 9424,
    "akened": 7415,
    "Ġmarlingspike": 26579,
    "ivates": 18275,
    "brew": 11473,
    "Ġfortresses": 23620,
    "Ġsociet": 9449,
    "flakes": 23965,
    "Ġcovent": 16072,
    "Ġhappening": 14382,
    "Ġguest": 7249,
    "Ġserious": 4322,
    "Ġmidnight": 5265,
    "Ġuncl": 22013,
    "atever": 3081,
    "Ġagency": 11804,
    "Ġblubber": 5666,
    "walked": 10570,
    "Ġmediocr": 24083,
    "Ġdramatic": 4850,
    "Ġpicturesqueness": 24480,
    "Ġfat": 3463,
    "Ġpresuming": 16793,
    "header": 11931,
    "Ġwildness": 14603,
    "distrust": 19569,
    "sailor": 14714,
    "Ġenable": 686,
    "Ġobli": 9315,
    "Ġtit": 8398,
    "Ġroared": 7023,
    "meet": 11854,
    "Ġclutching": 24951,
    "Ġfel": 1516,
    "Ġinterfere": 11815,
    "Ġledge": 19399,
    "Ġdeaden": 23459,
    "Ġsummary": 19401,
    "Ġheal": 21678,
    "Ġwretchedness": 9026,
    "Ġcage": 17825,
    "Ġenvirons": 13185,
    "Ġmurmur": 14589,
    "ksome": 10104,
    "ds": 4688,
    "Ġboth": 1654,
    "Ġlaborers": 19059,
    "endless": 22221,
    "mr": 1903,
    "Ġadmin": 23552,
    "Ġcobb": 14271,
    "vent": 683,
    "jected": 22711,
    "verity": 14000,
    "treatment": 20410,
    "Ġtradeoff": 2661,
    "itude": 1417,
    "Ġpictured": 16622,
    "meas": 7434,
    "Ġmust": 844,
    "bbing": 6323,
    "Ġplantation": 11423,
    "ace": 716,
    "hung": 8380,
    "immed": 9217,
    "Ġsuavely": 26523,
    "Ġsmoothed": 23655,
    "Ġevidence": 5269,
    "Ġtherein": 11774,
    "Ġcommunic": 5751,
    "Ġtags": 20570,
    "south": 8758,
    "hor": 2571,
    "Ġforgotten": 5679,
    "adequ": 11020,
    "Ġlullaby": 20586,
    "Ġspend": 5304,
    "offended": 16396,
    "Ġhurtling": 24957,
    "iloqu": 11647,
    "Ġblasts": 19994,
    "Ġcru": 2825,
    "Ġ52": 24321,
    "Ġdazz": 11593,
    "faced": 8079,
    "oriented": 2951,
    "Ġresemblance": 7976,
    "Ġclings": 15970,
    "Ġwhistle": 9065,
    "Ġchurches": 12825,
    "Ġsized": 11562,
    "ets": 1161,
    "Ġhairy": 23863,
    "Ġcopies": 24935,
    "Ġchilian": 25563,
    "Ġpervers": 11781,
    "Ġfobbing": 26441,
    "Ġestimable": 23870,
    "dy": 3862,
    "hither": 11492,
    "Ġwiser": 14729,
    "Ġuntil": 2670,
    "H": 44,
    "Ġcomparable": 24278,
    "Ġcurtain": 14410,
    "expect": 4769,
    "ady": 997,
    "Ġhonour": 3924,
    "reflections": 24735,
    "voy": 7143,
    "Ġparties": 7038,
    "Ġind": 1219,
    "Ġpettiness": 24229,
    "riers": 18182,
    "Ġdistributing": 22676,
    "Ġemac": 16406,
    "Ġglancing": 5399,
    "plague": 21950,
    "Ġsprinkled": 19495,
    "Ġgour": 21595,
    "sleep": 6511,
    "moran": 24152,
    "Ġshelter": 17008,
    "Ġplanisphere": 26607,
    "glory": 23850,
    "Ġscraping": 13415,
    "Ġarranged": 9876,
    "Ġbraw": 23832,
    "Ġpoetical": 25056,
    "Ġunfathomably": 25873,
    "Ġdeserts": 10507,
    "ado": 11657,
    "escript": 18469,
    "Ġschedules": 3389,
    "Ġhabitation": 14802,
    "mud": 20970,
    "Ġjago": 22296,
    "Ġshad": 3850,
    "Ġadequ": 10913,
    "Ġregularization": 1166,
    "Ġpresentiment": 18988,
    "Ġcargo": 16288,
    "Ġsallies": 21228,
    "mish": 17598,
    "Ġruffled": 25836,
    "geons": 15977,
    "Ġresponded": 13637,
    "Ġintrospective": 20599,
    "led": 579,
    "ė": 216,
    "Ġambitious": 18516,
    "corrob": 24485,
    "Ġshouting": 10522,
    "Ġexhilarating": 26337,
    "Ġgallied": 19555,
    "Ġcause": 2412,
    "Ġstiffly": 15005,
    "hide": 10703,
    "dation": 2614,
    "aphys": 15200,
    "these": 3243,
    "Ġgiddy": 20495,
    "chant": 4259,
    "Ġduke": 7755,
    "Ġmal": 5221,
    "Ġrallied": 14095,
    "Ġenthusiastic": 19964,
    "Ġinsignific": 13179,
    "transformer": 25015,
    "Ġharpooneers": 4732,
    "compliment": 11364,
    "Ġwaned": 17791,
    "hem": 6663,
    "Ġpratt": 23216,
    "poky": 17644,
    "Ġlapse": 17120,
    "rested": 13073,
    "Ġdream": 3539,
    "lace": 13747,
    "Ġwalled": 15533,
    "Ġagonies": 14251,
    "promontory": 24728,
    "athered": 6972,
    "Ġaffidavit": 20723,
    "atible": 17772,
    "along": 6012,
    "Ġwedge": 24069,
    "Ġapology": 8327,
    "Ġoutside": 5554,
    "Ġtoller": 9090,
    "»": 124,
    "Ġastonishing": 10501,
    "Ġworked": 6580,
    "ange": 1017,
    "Ġunusually": 15844,
    "swelled": 19609,
    "ppa": 10239,
    "gered": 9275,
    "alle": 1295,
    "Ġapprehensiveness": 16877,
    "weekly": 25684,
    "above": 8147,
    "poled": 22903,
    "Ġshrieked": 9547,
    "ff": 460,
    "Ġautonom": 10415,
    "Ġimprudence": 10297,
    "Ġunappe": 22015,
    "Ġmister": 22752,
    "Ġvapor": 8699,
    "glue": 17556,
    "Ġblameless": 19858,
    "W": 59,
    "Ġdrags": 16941,
    "yesterday": 10352,
    "altering": 12637,
    "windlass": 16721,
    "Ġsorts": 6887,
    "Ġerror": 1767,
    "Ġdeal": 3610,
    "Ġheavy": 3745,
    "Ġugly": 8715,
    "compliments": 24810,
    "acing": 2720,
    "Ġresiding": 16059,
    "read": 3278,
    "Ġpemberley": 4589,
    "Ġthigh": 10186,
    "Ġarts": 11008,
    "Ġsteam": 9352,
    "zy": 2672,
    "Ġisn": 7865,
    "rew": 3650,
    "anish": 2617,
    "Ġcopper": 7425,
    "erative": 21271,
    "lost": 8887,
    "better": 7119,
    "Ġnibbling": 17384,
    "Ġsuspecting": 14909,
    "iscuits": 24666,
    "Ġthoughtfully": 12977,
    "Ġawait": 17073,
    "Ġaffecting": 2328,
    "odecimo": 11444,
    "cleanliness": 25871,
    "Ġadmission": 23554,
    "tackle": 17320,
    "Ġcredited": 25153,
    "Ġjest": 18403,
    "ingham": 21299,
    "erm": 787,
    "Ġshrill": 12139,
    "uated": 10131,
    "Ġintercept": 14268,
    "hibited": 17426,
    "iamond": 14590,
    "Ġpresc": 15923,
    "berg": 11856,
    "Ġreposing": 23359,
    "Ġliked": 5264,
    "Ġessential": 7523,
    "ape": 1907,
    "Ġamput": 16032,
    "Ġdirectors": 18921,
    "Ġplump": 14281,
    "Ġunappalled": 22062,
    "Ġmitt": 21306,
    "lessly": 4557,
    "Ġ17": 5740,
    "Ġpushing": 10819,
    "Ġundulated": 19515,
    "engineer": 23145,
    "maul": 11888,
    "anter": 9166,
    "fier": 9593,
    "Ġhull": 5446,
    "Ġpatent": 11961,
    "Ġdeliberation": 19967,
    "Ġpromised": 5181,
    "Ġstupendous": 20499,
    "Ġparc": 10920,
    "eg": 17529,
    "Ġoptimization": 1391,
    "Ġhauled": 11692,
    "Ġnetworks": 596,
    "Ġthrees": 23399,
    "undoubtedly": 13310,
    "Ġcompetition": 14266,
    "Ġclattering": 22361,
    "Ġslink": 23160,
    "Ġspeculations": 22995,
    "Ġdab": 15585,
    "Ġpublished": 11241,
    "Ġauthent": 14507,
    "atered": 22006,
    "Ġmiscell": 16147,
    "Ġaid": 6122,
    "Ġ36": 14766,
    "Ġevening": 2655,
    "Ġlearned": 2024,
    "Ġmanaging": 22322,
    "Ġsalad": 19477,
    "Ġerrand": 11085,
    "murmured": 24455,
    "considerably": 13444,
    "Ġwreaths": 25937,
    "Ġmien": 17808,
    "Ġfiled": 15577,
    "Ġinarticulate": 21497,
    "bethinking": 25745,
    "ocean": 12399,
    "aware": 16293,
    "mend": 20965,
    "Ġtravels": 11925,
    "p": 84,
    "crack": 19839,
    "Ġlat": 5087,
    "Ġhated": 7584,
    "Ġfresh": 3671,
    "Ġpetty": 19594,
    "Ġsacred": 10928,
    "Ġmischie": 22757,
    "plete": 10919,
    "Ġspeedy": 11172,
    "Ġjava": 12310,
    "Ġcrocod": 19627,
    "Ġreliability": 22878,
    "Ġstam": 18065,
    "Ġdirecting": 16298,
    "Ġfo": 1648,
    "Ġilluminate": 17192,
    "force": 12951,
    "ourse": 8869,
    "informed": 17736,
    "ctu": 5088,
    "disposed": 25010,
    "Ġaries": 21196,
    "#": 7,
    "merchant": 10467,
    "Ġreigned": 13986,
    "Ġwomanly": 23550,
    "Ġaccomplishment": 19664,
    "ripp": 6405,
    "Ġfeels": 6882,
    "Ġcountrymen": 23594,
    "sorrow": 12506,
    "Ġfaithful": 9502,
    "Ġcharity": 8862,
    "Ġautoregressive": 3434,
    "Ġpolitic": 23617,
    "Ġabomin": 8188,
    "Ġprone": 18969,
    "Ġjoyful": 13219,
    "Ġprot": 3848,
    "interchange": 23738,
    "Ġarsacides": 17293,
    "Ġloaf": 15870,
    "Ġunsupplied": 22040,
    "onel": 3093,
    "Ġgallon": 24184,
    "Ġsacrilege": 26228,
    "refusal": 24736,
    "Ġadmirer": 16838,
    "imly": 12684,
    "Ġinvective": 26181,
    "larking": 17594,
    "Ġbab": 5289,
    "Ġtorrents": 20054,
    "Ġdiverged": 23593,
    "Ġoperation": 11997,
    "Ġlengthwise": 10452,
    "Ġ----": 7145,
    "unless": 9234,
    "Ġmeditations": 25013,
    "Ġgayer": 24501,
    "aint": 2542,
    "happen": 19330,
    "Ġimitate": 14157,
    "ateur": 22005,
    "Ġmethinks": 10390,
    "Ġadvertisement": 6941,
    "enged": 23144,
    "Ġpart": 861,
    "sharpening": 22461,
    "Ġfinanc": 23126,
    "mount": 9129,
    "Ġaffection": 2641,
    "Ġskin": 5038,
    "Ġdl": 3379,
    "Ġstarting": 7728,
    "osity": 14185,
    "voyages": 24855,
    "ner": 1369,
    "Ġanat": 8123,
    "apt": 725,
    "Ġlegs": 4916,
    "Ġimbec": 14156,
    "ration": 2005,
    "Ġseemingly": 9317,
    "bber": 4569,
    "Ġdizzy": 21430,
    "x": 92,
    "Ġrick": 21970,
    "fleece": 19946,
    "Ġfelix": 4848,
    "Ġannealing": 1552,
    "intim": 22931,
    "teeth": 10354,
    "Ġdilatory": 24705,
    ".*": 7331,
    "Ġseedy": 21959,
    "Ġhaste": 9003,
    "Ġhoneymoon": 25645,
    "Ġefforts": 11800,
    "Ġjer": 6266,
    "Ġsculpt": 15945,
    "Ġdefinitions": 22941,
    "Ġundoubtedly": 8312,
    "Ġmourning": 13477,
    "thus": 5158,
    "procure": 23395,
    "Ġathirst": 20597,
    "accomplishments": 25326,
    "era": 13846,
    "Ġhatred": 8608,
    "journey": 8744,
    "endured": 22222,
    "Ġarctic": 12809,
    "Ġ199": 3013,
    "Ġkick": 5837,
    "Ġarbitrary": 4736,
    "resides": 23667,
    "Ġangels": 11178,
    "uction": 15442,
    "sebastian": 21817,
    "Ġwhisker": 23932,
    "Ġrelating": 2707,
    "Ġflung": 8562,
    "waves": 10742,
    "fem": 17537,
    "Ġvicissitudes": 12417,
    "cures": 20804,
    "fatal": 17088,
    "Ġassociates": 24712,
    "ficial": 17548,
    "Ġexposing": 11832,
    "Ġancest": 12611,
    "Ġacceded": 22376,
    "urpr": 2289,
    "nihil": 9850,
    "Ġpronouncing": 16969,
    "adam": 15727,
    "legra": 10789,
    "discredit": 24250,
    "cal": 1119,
    "Ġdimension": 3242,
    "Ġscalable": 1684,
    "record": 16921,
    "Ġglanced": 5951,
    "lested": 14882,
    "Ġparticularly": 5056,
    "bod": 12435,
    "Ġhunts": 23155,
    "Ġbaby": 6636,
    "Ġspaulding": 11729,
    "based": 2963,
    "ickory": 22666,
    "image": 9685,
    "Ġcity": 4531,
    "Ġdost": 7636,
    "Ġperpetual": 12301,
    "Ġscound": 12830,
    "Ġdistended": 16042,
    "Ġsecret": 3722,
    "tting": 17680,
    "understand": 1098,
    "Ġplates": 11006,
    "Ġgem": 21591,
    "attention": 2111,
    "Ġnarratives": 24353,
    "Ġinfle": 16361,
    "abhorred": 17335,
    "Ġguns": 16776,
    "Ġpartial": 2129,
    "Ġyoun": 1406,
    "worse": 14690,
    "antial": 8487,
    "ause": 1314,
    "Ġjustify": 11072,
    "Ġrejoice": 10208,
    "ĠmanÅĵuv": 18417,
    "Ġbestowed": 6593,
    "Ġmildly": 9029,
    "Ġnights": 7258,
    "Ġnervous": 2406,
    "Ġsultan": 15183,
    "cont": 2923,
    "Ġdiscernible": 15068,
    "Ġsells": 21222,
    "Ġescort": 23505,
    "Ġcost": 2506,
    "Ġmarrying": 6177,
    "Ġmisery": 3815,
    "Ġwarming": 23557,
    "ighter": 7967,
    "Ġgrud": 17995,
    "Ġprinted": 11947,
    "Ġrobes": 16255,
    "Ġblueprints": 13170,
    "Ġeffectual": 18732,
    "Ġfoes": 11950,
    "fixed": 7548,
    "gone": 6504,
    "simon": 16973,
    "Ġnotes": 7189,
    "Ġhilarious": 20297,
    "Ġshar": 9249,
    "uncle": 8158,
    "Ġresid": 22535,
    "Ġpredef": 18509,
    "Ġyarn": 10868,
    "rifle": 21045,
    "Ġbeau": 9224,
    "Ġcooked": 13268,
    "Ġpitchpoling": 14910,
    "Ġbuckskin": 19950,
    "batt": 20777,
    "Ġconjecture": 9531,
    "anse": 12572,
    "Ġnailed": 10189,
    "neighbouring": 19962,
    "Ġunion": 6839,
    "Ġsystems": 817,
    "Ġsem": 1880,
    "Ġfamine": 16325,
    "intellig": 5320,
    "Ġcounterbalance": 24722,
    "Ġrather": 1494,
    "eag": 20841,
    "Ġsixth": 16559,
    "Ġsixteen": 8282,
    "Ġbachelors": 24860,
    "offing": 23331,
    "Ġepid": 18004,
    "lie": 12480,
    "Ġfrench": 4939,
    "Ġconsequent": 18110,
    "Ġpublisher": 24063,
    "rie": 2786,
    "Ġfinancier": 26583,
    "Ġtrustworthy": 24106,
    "approaching": 15011,
    "offices": 19063,
    "Ġcocain": 18596,
    "Ġpolic": 13160,
    "Ġadult": 18289,
    "Ġhoped": 5488,
    "Ġextraction": 11253,
    "Ġbreakfast": 3977,
    "Ġprotruding": 16658,
    "coronet": 16863,
    "Ġindicated": 10469,
    "eon": 8729,
    "shed": 8094,
    "Ġfarthest": 23113,
    "prejud": 11794,
    "pots": 11513,
    "Ġdeact": 18135,
    "/`": 12427,
    "Ġconversing": 14633,
    "intending": 22932,
    "Ġguardians": 14942,
    "cri": 17505,
    "Ġpropri": 6738,
    "Ġsymbol": 7716,
    "Ġga": 4445,
    "Ġarchitects": 18738,
    "Ġbordeaux": 24564,
    "chase": 11644,
    "Ġcrash": 12000,
    "Ġmaximizing": 3172,
    "assed": 6421,
    "Ġsolve": 4196,
    "Ġswallowed": 7943,
    "Ġvisual": 5741,
    "warn": 11542,
    "ivation": 3113,
    "Ġplease": 4723,
    "Ġcontest": 18473,
    "Ġyoungest": 7953,
    "sal": 8757,
    "your": 1986,
    "ical": 753,
    "Ġsprain": 18305,
    "pay": 10718,
    "tooth": 18579,
    "confirmed": 19644,
    "chosen": 21692,
    "coloured": 7291,
    "Ġunseason": 22049,
    "Ġcloth": 9743,
    "Ġinterruptions": 24186,
    "calculating": 25689,
    "Ġchilled": 18382,
    "deaux": 22146,
    "Ġbetake": 22902,
    "Ġalbertus": 25648,
    "Ġmbpp": 21320,
    "Ġdue": 3845,
    "Ġsuspicions": 9478,
    "Ġworlds": 11945,
    "Ġbuckets": 17034,
    "Ġruskin": 25809,
    "ps": 4575,
    "Ġsimilarly": 24308,
    "Ġenveloping": 19733,
    "allies": 14165,
    "Ġwafted": 14499,
    "Ġmutual": 8296,
    "Ġopinions": 9414,
    "Ġcompared": 2233,
    "cc": 473,
    "Ġsight": 2112,
    "Ġevap": 19622,
    "mort": 10710,
    "Ġremedy": 18725,
    "quent": 2095,
    "Ġcourses": 10411,
    "itud": 2934,
    "ĠâĢľ": 516,
    "reshold": 21238,
    "Ġwarmly": 8987,
    "Ġbarrels": 9435,
    "notice": 16145,
    "Ġlees": 18075,
    "Ġpurporting": 19181,
    "Ġgrap": 11705,
    "Ġapartment": 6633,
    "Ġclasp": 9744,
    "Ġpersuading": 19408,
    "Ġdevelop": 1637,
    "omp": 2474,
    "Ġprobabilities": 4966,
    "rigged": 17062,
    "Ġsaviour": 20712,
    "Ġtidy": 17093,
    "Ġanticip": 7507,
    "Ġoptimize": 1580,
    "Ġboy": 3025,
    "married": 9948,
    "headers": 23106,
    "Ġabuse": 18392,
    "Ġvulgar": 13603,
    "Ġcuriously": 13004,
    "Ġjacob": 1901,
    "Ġexperiments": 23020,
    "Ġaccuse": 14212,
    "Ġseveral": 2676,
    "ch": 321,
    "Ġtoss": 10184,
    "Ġdemoniac": 15063,
    "million": 25751,
    "unforeseen": 21885,
    "ordered": 8789,
    "ogue": 9781,
    "gul": 12463,
    "vinegar": 25420,
    "maybe": 23988,
    "Ġbureau": 11589,
    "Ġreplacing": 3451,
    "Ġfettered": 24568,
    "fulness": 4310,
    "ercial": 21273,
    "Ġanswers": 7070,
    "Ġloads": 22111,
    "whalebone": 19118,
    "sig": 2877,
    "Ġoffer": 4843,
    "gd": 3127,
    "Ġshuttle": 12124,
    "sideways": 14572,
    "Ġwhole": 1662,
    "Ġtwisting": 18658,
    "ubbub": 23242,
    "opius": 18508,
    "Ġens": 2787,
    "Ġvision": 1605,
    "Ġderick": 9363,
    "Ġillustrative": 25066,
    "Ġinsincere": 26599,
    "Ġergo": 25029,
    "Ġlic": 8435,
    "Ġcaulking": 20292,
    "peculiar": 6886,
    "solemn": 19816,
    "Ġinclusive": 24163,
    "type": 16174,
    "Ġbunger": 9995,
    "ere": 6789,
    "bons": 17486,
    "asht": 4085,
    "heum": 17747,
    "Ġmourn": 8703,
    "Ġinflamed": 13472,
    "Ġscepticism": 25927,
    "Ġyankees": 26201,
    "Ġmain": 808,
[...]
