{
  "metadata": {
    "vocab_size": 26616,
    "algorithm": "BPE",
    "created_at": "2026-05-09 05:20:38",
    "special_tokens": [
      "<PAD>",
      "<SOS>",
      "<EOS>",
      "<UNK>",
      "<MASK>"
    ]
  },
  "vocab": {
    "irted": 14075,
    "delight": 5345,
    "Ġinitial": 823,
    "Ġcongratulated": 19769,
    "Ġexcl": 3473,
    "Ġblending": 14403,
    "Ġgrating": 14361,
    "Ġankers": 21448,
    "Ġpolynesian": 26027,
    "Ġens": 2785,
    "Ġpensive": 21478,
    "Ġjourneys": 19478,
    "conject": 8883,
    "Ġchiswick": 25561,
    "rudently": 16712,
    "Ġinjunction": 19620,
    "Ġmisty": 16542,
    "idence": 4303,
    "Ġfevers": 22211,
    "lac": 17591,
    "Ġcrutch": 23446,
    "situation": 11439,
    "that": 849,
    "Ġgriff": 22811,
    "Ġdashes": 21437,
    "Ġmason": 10160,
    "gust": 6362,
    "Ġtrespass": 23602,
    "Ġwhisky": 23937,
    "diversity": 25898,
    "tanh": 5204,
    "Ġbead": 21754,
    "Ġfiled": 15585,
    "Ġpurple": 10435,
    "Ġtension": 13827,
    "befriend": 22496,
    "Ġescort": 23507,
    "Ġsavage": 4010,
    "ship": 1394,
    "Ġplaced": 3442,
    "Ġark": 10279,
    "Ġenchant": 7185,
    "Ġbend": 9173,
    "Ġhappened": 3713,
    "Ġsmells": 8893,
    "Ġrebell": 21672,
    "Ġeel": 18004,
    "Ġbeeches": 9229,
    "breckinridge": 24079,
    "Ġcastle": 14720,
    "antique": 18288,
    "Ġneedn": 19231,
    "Ġjump": 4504,
    "ping": 9618,
    "Ġunlim": 18254,
    "Ġwarmup": 3922,
    "ort": 521,
    "Ġjunk": 15958,
    "Ġdug": 21433,
    "Ġguilty": 7250,
    "Ġplans": 7918,
    "hauled": 20671,
    "Ġcircle": 4977,
    "Ġattempts": 10493,
    "tumultuously": 25614,
    "Ġheavy": 3743,
    "resolution": 17768,
    "naturalist": 23546,
    "singing": 24363,
    "Ġdepends": 1052,
    "Ġwalks": 8969,
    "Ġign": 8294,
    "iarity": 8747,
    "consequ": 18505,
    "Ġcassock": 20490,
    "gard": 7339,
    "Ġwitness": 4622,
    "arts": 6565,
    "Ġcaged": 21355,
    "Ġdoings": 18376,
    "don": 3544,
    "Ġevian": 24294,
    "Ġthoughtlessness": 16198,
    "Ġmedd": 15544,
    "Ġnam": 17951,
    "gled": 10701,
    "ipotent": 10963,
    "Ġequilib": 4136,
    "Ġexped": 7651,
    "Ġdeclined": 9924,
    "Ġbefell": 14013,
    "ton": 1726,
    "Ġinflex": 20637,
    "apparat": 22848,
    "Ġsuccessive": 10503,
    "Ġelement": 6898,
    "Ġrequiring": 2922,
    "playful": 24357,
    "gypt": 8261,
    "Ġassociations": 14966,
    "glory": 23855,
    "book": 4670,
    "Ġaunt": 3174,
    "Ġlids": 12280,
    "Ġhierarchical": 1929,
    "aus": 1500,
    "face": 3676,
    "Ġcurric": 22977,
    "Ġconv": 2967,
    "Ġsinew": 25432,
    "ieves": 4005,
    "Ġawhile": 13833,
    "Ġisland": 4049,
    "Ġwhirling": 12253,
    "Ġpours": 17914,
    "congenial": 25400,
    "Ġlivelong": 25512,
    "Ġunde": 11716,
    "Ġ29": 23731,
    "Ġmottled": 20681,
    "withstanding": 8948,
    "Ġcorroborated": 26055,
    "ouncing": 8497,
    "Ġdisgusting": 19896,
    "Ġwaifing": 25244,
    "Ġpenet": 6888,
    "Ġposted": 16726,
    "Ġwast": 21864,
    "declined": 25175,
    "Ġmakest": 25436,
    "Ġledgers": 23941,
    "Ġplacid": 11830,
    "Ġconsisted": 10421,
    "ower": 1031,
    "Ġreservoir": 20653,
    "Ġplacing": 8904,
    "Ġsarat": 21230,
    "asion": 5714,
    "librarian": 26570,
    "Ġsutherland": 10151,
    "Ġspeeches": 22666,
    "plutarch": 21967,
    "Ġ24": 13196,
    "ops": 5248,
    "hurried": 11355,
    "Ġposition": 1957,
    "Ġrushes": 20511,
    "Ġdeclining": 23967,
    "Ġshoals": 13137,
    "speckled": 23948,
    "osc": 18388,
    "Ġpropriety": 10013,
    "hogs": 20085,
    "omination": 21645,
    "Ġlooks": 4166,
    "Ġunaffected": 14125,
    "teak": 22820,
    "Ġrevisit": 21673,
    "Ġcontinuously": 23208,
    "Ġenquired": 21944,
    "ideas": 18582,
    "Ġdefence": 11069,
    "Ġchorus": 10948,
    "Ġtelegram": 15227,
    "fiery": 13584,
    "Ġblame": 6447,
    "ms": 541,
    "Ġtropic": 17065,
    "Ġnotes": 7189,
    "Ġoblig": 3443,
    "Ġbreach": 11978,
    "Ġpelt": 15615,
    "Ġenc": 963,
    "Ġowe": 8115,
    "Ġincidentally": 16956,
    "Ġlengthen": 15659,
    "Ġhogshead": 26369,
    "Ğ": 223,
    "rumours": 23924,
    "Ġ1": 1016,
    "Ġequal": 4135,
    "Ġconnecting": 18632,
    "Ġneared": 14076,
    "accents": 19213,
    "hend": 13255,
    "nur": 11508,
    "oblig": 16295,
    "prejudice": 25572,
    "P": 52,
    "Ġcynicism": 25772,
    "scorched": 25698,
    "rifled": 21050,
    "Ġleap": 5825,
    "Ġstarve": 24626,
    "Ġwhiting": 10861,
    "Ġjob": 7017,
    "pile": 17631,
    "Ġlinen": 12411,
    "Ġmay": 923,
    "bourn": 3301,
    "Ġmaid": 5287,
    "Ġsubsisted": 19119,
    "Ġtaller": 16689,
    "breeding": 16677,
    "Ġdons": 17890,
    "iate": 6506,
    "Ġincognit": 22558,
    "Ġshadow": 5596,
    "Ġcorrob": 16268,
    "Ġgaiters": 20464,
    "Ġimmedi": 2905,
    "Ġdesirable": 8944,
    "didst": 19352,
    "Ġinnoc": 3795,
    "Ġemblazonings": 26043,
    "Ġexerted": 15760,
    "earn": 10698,
    "aned": 5147,
    "Ġfierceness": 26266,
    "Ġunwonted": 15010,
    "Ġsymb": 2589,
    "Ġoutline": 15959,
    "output": 4403,
    "Ġ\"": 6121,
    "hval": 20900,
    "Ġfle": 3088,
    ")": 13,
    "Ġamazing": 9980,
    "manned": 18767,
    "Ġadversary": 12178,
    "Ġeloquence": 11846,
    "unwittingly": 25802,
    "Ġporpoise": 7108,
    "binnacle": 20789,
    "Ġread": 1449,
    "Ġexasper": 8469,
    "taffrail": 15446,
    "Ġalternating": 15033,
    "Ġmaled": 21317,
    "Ġlast": 1124,
    "Ġrum": 5925,
    "decided": 13218,
    "Ġwor": 1190,
    "Ġaddressing": 11166,
    "Ġknight": 9730,
    "Ġprecipice": 19944,
    "computer": 1930,
    "nowled": 5470,
    "Ġgreatly": 5851,
    "chiefly": 14849,
    "Ġlively": 5449,
    "Ġunintelligible": 26516,
    "Ġtrans": 640,
    "Ġcombing": 22856,
    "Ġspeedily": 7712,
    "Ġthreaten": 24374,
    "Ġmayhew": 12955,
    "Ġinvitation": 5188,
    "conceivable": 17133,
    "Ġshriek": 6640,
    "Ġpeasants": 12336,
    "meth": 11505,
    "Ġcatastrophe": 10486,
    "Ġoutrid": 22319,
    "Ġblades": 11899,
    "Ġpigs": 19750,
    "Ġarc": 14163,
    "right": 2767,
    "circ": 4390,
    "sli": 11525,
    "Ġcaw": 13886,
    "Ġconnect": 800,
    "Ġdistributed": 18661,
    "Ġalan": 10871,
    "Ġwars": 17787,
    "Ġethere": 23954,
    "arus": 13915,
    "Ġinexorable": 12260,
    "Ġoak": 6130,
    "Ġscenari": 22277,
    "presume": 25671,
    "Ġconcerning": 4069,
    "Ġgir": 2256,
    "Ġgeneration": 2246,
    "Ġguarded": 9829,
    "Ġprogress": 5023,
    "alleled": 14432,
    "encoura": 15051,
    "Ġethics": 15466,
    "Ĺ": 250,
    "Ġforbidding": 17080,
    "cated": 20805,
    "Ġjavan": 25000,
    "Ġicelandic": 25887,
    "emb": 11693,
    "Ġri": 3393,
    "cept": 551,
    "Ġnormal": 1204,
    "killed": 15380,
    "Ġyarn": 10870,
    "utral": 12669,
    "Ġminimizing": 3462,
    "Ġapolog": 9046,
    "ĠĠĠĠĠĠĠĠĠĠĠĠĠĠĠĠĠĠĠĠĠĠĠĠĠĠĠĠĠĠĠĠĠĠĠĠĠĠĠĠĠĠĠĠĠĠĠĠĠĠĠ": 20042,
    "Ġsolar": 22889,
    "illating": 22111,
    "Ġacqu": 1418,
    "perishing": 22181,
    "likeness": 19481,
    "lied": 6508,
    "autumn": 23345,
    "Ġcoun": 4179,
    "alterable": 13627,
    "Ġratt": 7881,
    "evenings": 19466,
    "Ġcourses": 10413,
    "Ġdrop": 4345,
    "Ġsin": 1516,
    "est": 502,
    "Ġbed": 2152,
    "Ġloos": 15876,
    "ave": 975,
    "Ġlocking": 18299,
    "Ġscener": 10951,
    "Ġisles": 8461,
    "Ġsons": 10768,
    "Ġbod": 4582,
    "Ġsettled": 3741,
    "Ġrational": 8482,
    "Ġuntimely": 16470,
    "rine": 21040,
    "Ġbohemia": 10652,
    "ological": 1884,
    "Ġmortals": 9919,
    "Ġcontradict": 12389,
    "rep": 5525,
    "Ġintensified": 17020,
    "ternatural": 12721,
    "Ġdews": 21842,
    "Ġhospital": 15042,
    "Ġrout": 7402,
    "Ġsavann": 14686,
    "omely": 21642,
    "inguished": 6600,
    "go": 2064,
    "Ġflowing": 14415,
    "Ġsoothing": 8173,
    "Ġdisgu": 8206,
    "squee": 15434,
    "Ġimpenetrable": 17400,
    "pray": 5429,
    "Ġamount": 8514,
    "hound": 20897,
    "commer": 22807,
    "Ġclustered": 25234,
    "Ġintercept": 14272,
    "izure": 21845,
    "Ġexploit": 19164,
    "Ġlike": 669,
    "Ġbradstreet": 9579,
    "Ġimagination": 5759,
    "Ġconvenience": 11333,
    "important": 7114,
    "belated": 24041,
    "Ġwasted": 9707,
    "Ġmean": 743,
    "Ġelimin": 16113,
    "ato": 17771,
    "Ġpublic": 4333,
    "Ġsuppl": 11080,
    "Ġbeggars": 20632,
    ".âĢĻ": 1717,
    "Ġwhitney": 11375,
    "Ġpoliceman": 15262,
    "Ġliber": 5168,
    "continuing": 24479,
    "ishe": 13894,
    "Ġflock": 21414,
    "exceed": 7911,
    "Ġaw": 2508,
    "ardy": 22160,
    "Ġstubb": 1788,
    "possibility": 13365,
    "Ġinsurmountable": 16534,
    "vate": 21112,
    "solemn": 19820,
    "Ġmartyr": 26362,
    "Ġmourning": 13481,
    "Ġhimmale": 18335,
    "Ġpropont": 16354,
    "jep": 20928,
    ",âĢĻâĢĶ": 23528,
    "Ġbur": 2695,
    "Ġlaid": 3942,
    "Ġinspirited": 23423,
    "saving": 21062,
    "Ġvarieties": 14313,
    "Ġshadowed": 24049,
    "Ġjav": 7902,
    "darcy": 5208,
    "Ġtak": 15474,
    "Ġpumping": 25644,
    "shri": 14237,
    "Ġunwarranted": 24831,
    "Ġsubdivisions": 26038,
    "solved": 7685,
    "Ġthereupon": 18435,
    "Ġwears": 10243,
    "Ġresentful": 24632,
    "Ġsurvey": 13596,
    "Ġpunctil": 20117,
    "Ġscheduling": 2348,
    "Ġaltering": 18105,
    "Ġsuited": 12791,
    "Ġtot": 4187,
    "Ġmining": 22832,
    "T": 56,
    "Ġdes": 1252,
    "Ġfrightened": 5342,
    "Ġhopelessly": 16383,
    "quietude": 24656,
    "duct": 3505,
    "sius": 13791,
    "ressed": 3020,
    "Ġsubmission": 22791,
    "Ġbreckinridge": 14525,
    "quid": 18148,
    "Ġstudies": 7956,
    "Ġscott": 22271,
    "Ġrefusal": 10347,
    "lleg": 20953,
    "Ġret": 1382,
    "Ġbigger": 19764,
    "ullo": 12735,
    "Ġpovels": 22598,
    "Ġatrocious": 21947,
    "ating": 666,
    "Ġruin": 6057,
    "Ġripp": 11221,
    "proves": 23397,
    ",âĢĿ": 579,
    "own": 745,
    "hur": 6651,
    "Ġneskyeuna": 26461,
    "ancial": 21365,
    "Ġsuffice": 18871,
    "stein": 5505,
    "Ġcringed": 25943,
    "Ġawed": 23587,
    "Ġam": 661,
    "farmer": 25900,
    "Ġlanyard": 26463,
    "Ġjoosy": 23633,
    "Ġwisest": 11234,
    "violent": 14581,
    "Ġrenowned": 26195,
    "cely": 3575,
    "Ġfreezing": 23886,
    "rather": 5430,
    "Ġunbroken": 18251,
    "Ġchaff": 18383,
    "field": 3069,
    "Ġ96": 24593,
    "Ġprovoke": 14829,
    "Ġfled": 6673,
    "Ġlinear": 3430,
    "azing": 7705,
    "Ġsentimental": 24753,
    "master": 5687,
    "clock": 3934,
    "rium": 3131,
    "Ġjutting": 22305,
    "trade": 19647,
    "Ġunmingled": 18264,
    "onet": 12550,
    "Ġfunction": 587,
    "garnished": 26390,
    "entiful": 10838,
    "roc": 9677,
    "Ġpresume": 8038,
    "gabriel": 15364,
    "Ġadie": 8491,
    "cart": 10692,
    "sailing": 14717,
    "Ġphilosoph": 19654,
    "Ġnuts": 17954,
    "introduction": 15127,
    "Ġentail": 9796,
    "Ġsunset": 8965,
    "Ġarches": 14165,
    "Ġseasonable": 24406,
    "Ġneglected": 10380,
    "Ġunmanner": 22031,
    "Ġvictory": 16656,
    "Ġpian": 13920,
    "render": 10293,
    "Ġtheoretic": 23314,
    "avier": 2828,
    "Ġmarked": 4620,
    "Ġstrain": 6025,
    "arranged": 19321,
    "Ġwarehouses": 20421,
    "arab": 21444,
    "acted": 11012,
    "Ġbehoo": 19037,
    "hateful": 20911,
    "lane": 10708,
    "Ġvexation": 10589,
    "Ġborders": 15577,
    "Ġtoy": 15639,
    "Ġagreeably": 24955,
    "amuse": 14055,
    "iasm": 8061,
    "Ġvolume": 6770,
    "Ġslow": 2379,
    "Ġamph": 18512,
    "single": 10129,
    "Ġexist": 9234,
    "Ġjonas": 20612,
    ",*": 17474,
    "Ġclaim": 5106,
    "Ġexponentiating": 3444,
    "Ġapproving": 18510,
    "past": 8090,
    "Ġdundee": 16999,
    "ple": 455,
    "Ġvessels": 6757,
    "porary": 14552,
    "Ġscandalous": 24879,
    "Ġfixed": 2682,
    "Ġreasoned": 23087,
    "gies": 13729,
    "Ġrat": 4354,
    "Ġparent": 14647,
    "Ġnobody": 6160,
    "Ġtunes": 24620,
    "petulance": 24301,
    "Ġcannibal": 7774,
    "Ġpedro": 15066,
    "Ġvary": 15812,
    "chased": 18044,
    "Ġliveliest": 24774,
    "ff": 463,
    "Ġconnex": 10668,
    "Ġsteadfast": 8682,
    "Ġmarking": 16472,
    "Ġschemes": 11133,
    "Ġcasual": 11411,
    "Ġgallon": 24187,
    "Ġcastaway": 16643,
    "Ġplane": 11827,
    "Ġunimpe": 22074,
    "accomplishments": 25327,
    "Ġchival": 14183,
    "ĠĠĠĠĠĠĠĠĠĠĠĠĠĠĠĠĠĠĠĠĠĠĠĠĠĠĠĠĠĠĠĠĠĠĠĠĠĠĠĠĠĠĠĠ": 12158,
    "Ġcloser": 8663,
    "aired": 8369,
    "Ġreach": 4047,
    "Ġfail": 4149,
    "Ġinvoked": 19146,
    "Ġhesitated": 10005,
    "Ġjinglers": 26019,
    "Ġvenerable": 9097,
    "Ġpurp": 2392,
    "Ġsprawling": 22143,
    "Ġdissuade": 26258,
    "Ġextracted": 16321,
    "Ġ111": 24436,
    "moby": 8539,
    "oard": 4810,
    "thrust": 10264,
    "Ġconfluent": 19042,
    "Ġcondemn": 13447,
    "Ġwhalers": 8048,
    "wn": 720,
    "Ġburned": 8634,
    "Ġperception": 9753,
    "Ġeasier": 11167,
    "Ġadvice": 4902,
    "Ġsociety": 3978,
    "Ġutterance": 14767,
    "quimaux": 21857,
    "guest": 19485,
    "door": 6195,
    "Ġneutral": 12750,
    "enstein": 5800,
    "Ġcreep": 22724,
    ").": 1273,
    "derbyshire": 18322,
    "Ġhaz": 12761,
    "pilot": 25909,
    "Ġgladly": 14683,
    "Ġjoes": 19233,
    "_âĢĿ": 20763,
    "Ġschedules": 3385,
    "ulence": 15771,
    "ped": 6964,
    "nervous": 16282,
    "ity": 416,
    "Ġchopping": 24222,
    "Ġhar": 5815,
    "Ġcoasts": 12168,
    "ran": 11518,
    "Ġhats": 14621,
    "Ġhindrance": 25221,
    "rud": 4191,
    "numer": 15403,
    "reast": 17760,
    "Ġsmothered": 20722,
    "together": 3556,
    "considered": 9583,
    "Ġmexic": 14034,
    "Ġabruptly": 15154,
    "Ġexpectantly": 23526,
    "lady": 4434,
    "Ġgoing": 2068,
    "Ġdisadvantage": 12896,
    "Ġflog": 23624,
    "Ġtwit": 12935,
    "Ġchallenge": 25472,
    "Ġslave": 7454,
    "Ġadaptively": 4031,
    "flies": 19427,
    "Ġpouring": 12630,
    "Ġproced": 2578,
    "Ġget": 1624,
    "find": 6954,
    "raham": 18016,
    "prot": 6899,
    "Ġpeeled": 14321,
    "serv": 7451,
    "performances": 26007,
    "tar": 8098,
    "sartain": 25623,
    "Ġspray": 7894,
    "Ġsweatings": 25709,
    "Ġterr": 3273,
    "Ġtried": 3647,
    "contact": 23729,
    "Ġpierced": 12286,
    "Ġdispose": 23882,
    "greenland": 10024,
    "Ġslaught": 23171,
    "Ġalco": 21786,
    "friends": 8306,
    "Ġcoal": 18594,
    "pad": 13771,
    "skill": 24487,
    "Ġtypically": 1536,
    "neighbours": 24882,
    "Ġinterm": 14271,
    "yourselves": 24959,
    "Ġgases": 21605,
    "Ġsands": 14951,
    "Ġlined": 15655,
    "iamond": 14592,
    "aff": 3098,
    "december": 25559,
    "nearly": 8684,
    "Ġscre": 9739,
    "Ġfeatureless": 22612,
    "racing": 21634,
    "perfect": 7635,
    "Ġconvince": 14644,
    "Ġprecious": 5760,
    "Ġcompose": 12908,
    "Ġminuteness": 19140,
    "ade": 881,
    "ceptible": 10958,
    "Ġtermination": 16464,
    "shorn": 22456,
    "Ġfastidious": 14494,
    "pall": 17630,
    "Ġsprang": 5064,
    "Ġtesting": 23228,
    "philips": 20038,
    "Ġnick": 21526,
    "educ": 10830,
    "ø": 185,
    "Ġmishap": 20579,
    "Ġsprain": 18306,
    "li": 1189,
    "glass": 9912,
    "Ġlinks": 13958,
    "ks": 3143,
    "Ġdangerous": 6616,
    "wick": 5363,
    "Ġnearing": 15801,
    "Ġsequel": 14363,
    "main": 8088,
    "hon": 6794,
    "Ġbusily": 9388,
    "star": 12678,
    "Ġpositions": 2056,
    "Ġslender": 11944,
    "Ġsympt": 7014,
    "Ġgate": 6825,
    "Ġstriving": 8999,
    "Ġfainted": 8796,
    "Ġscimet": 22278,
    "Ġcoachman": 15002,
    "ard": 465,
    "âĢĶ.": 11759,
    "Ġperishing": 22401,
    "Ġwhaling": 2780,
    "Ġmummy": 25769,
    "Ġhoping": 11105,
    "motives": 26138,
    "introdu": 8940,
    "Ġexamined": 6336,
    "Ġwhatever": 3472,
    "ket": 17584,
    "Ġvengeful": 14893,
    "trip": 21094,
    "Ġprepare": 8650,
    "Ġisa": 14028,
    "Ġauthority": 7749,
    "Ġsituated": 9450,
    "ipher": 18433,
    "vinegar": 25421,
    "learned": 8600,
    "Ġcarelessness": 13079,
    "asht": 4085,
    "Ġexertions": 13413,
    "Ġillinois": 19138,
    "cull": 20811,
    "ophisticated": 22482,
    "whispering": 26104,
    "Ġflashes": 11920,
    "Ġindians": 14414,
    "conjecture": 15126,
    "and": 372,
    "Ġswallows": 18884,
    "Ġdry": 5624,
    "Ġcompany": 3721,
    "discernible": 20553,
    "Ġfitting": 21411,
    "Ġabounding": 12348,
    "Ġconverted": 16117,
    "Ġtravell": 5576,
    "mph": 20974,
    "owe": 15713,
    "Ġresignation": 18567,
    "Ġscreams": 24604,
    "Ġadduced": 26526,
    "aw": 1450,
    "iful": 2882,
    "produ": 10722,
    "Ġexactly": 2766,
    "Ġbachelor": 7787,
    "Ġfarm": 7840,
    "scent": 13026,
    "Ġoblivion": 26032,
    "Ġhypocritical": 20740,
    "Ġantagon": 19553,
    "Ġgreatest": 4093,
    "fever": 22504,
    "Ġinestimable": 17445,
    "awned": 19463,
    "Ġoarsmen": 7738,
    "ortunity": 4405,
    "Ġscore": 9740,
    "allies": 14168,
    "rs": 7807,
    "Ġdeeps": 16112,
    "Ġtexel": 25924,
    "Ġstoke": 10398,
    "cating": 20804,
    "Ġpotential": 3619,
    "Ġleagues": 9226,
    "Ġgrounds": 6751,
    "medium": 23640,
    "destro": 13313,
    "teous": 16178,
    "Ġra": 810,
    "Ġthreatens": 24375,
    "spending": 18688,
    "Ġdisent": 22527,
    "Ġinexpressible": 17336,
    "Ġglen": 18854,
    "Ġincommun": 25309,
    "Ġsmack": 9303,
    "ressing": 8922,
    "Ġmates": 4873,
    "Ġrevolt": 24504,
    "Ġdistributing": 22682,
    "esley": 17904,
    "Ġbedroom": 7277,
    "Ġhurst": 5582,
    "lashed": 20956,
    "Ġlethar": 21750,
    "Ġfeeble": 12288,
    "ugging": 23293,
    "zz": 4294,
    "hem": 6666,
    "Ġblend": 14402,
    "phology": 3006,
    "Ġfanatic": 23395,
    "Ġbelshazzar": 16230,
    "Ġeber": 18006,
    "Ġundone": 24120,
    "Ġlayer": 1013,
    "Ġunheard": 22027,
    "Ġshowing": 7732,
    "athans": 7433,
    "Ġdistrust": 8204,
    "cruise": 24842,
    "imprudent": 14653,
    "rating": 7808,
    "Ġreserved": 7515,
    "ification": 995,
    "bunger": 20405,
    "Ġcorpora": 26582,
    "flatter": 23970,
    "Ġearthly": 7990,
    "aspect": 10196,
    "Ġfugitives": 25635,
    "Ġinsurance": 23684,
    "ari": 672,
    "Ġhipp": 21495,
    "rap": 21631,
    "Ġentangled": 10346,
    "Ġnailing": 21530,
    "forever": 22523,
    "rents": 5310,
    "ourable": 4967,
    "Ġplunged": 8696,
    "ě": 220,
    "Ġpair": 5706,
    "Ġmouldy": 14977,
    "Ġfast": 1715,
    "spiracle": 22735,
    "Ġcomfortless": 23916,
    "quin": 21851,
    "Ġexp": 782,
    "Ġjuggling": 20442,
    "ositions": 10286,
    "Ġgrooves": 16743,
    "himself": 3972,
    "Ġvehicle": 20141,
    "wake": 11548,
    "cu": 10086,
    "Ġ8": 5433,
    "Ġpythag": 26450,
    "Ġcarelessly": 11122,
    "prop": 1036,
    "kinder": 24846,
    "lott": 6653,
    "Ġscept": 15507,
    "Ġislets": 21805,
    "exercise": 17462,
    "Ġstops": 3163,
    "gins": 12473,
    "Ġr": 405,
    "Ġchristendom": 16696,
    "gement": 13731,
    "Ġfrocks": 23926,
    "Ġpotency": 14648,
    "ent": 305,
    "add": 5229,
    "Ġstalls": 25648,
    "Ġmbpp": 21325,
    "Ġembedd": 1384,
    "Ġsteam": 9356,
    "Ġburgl": 13176,
    "Ġ113": 19699,
    "Ġgid": 13965,
    "ought": 828,
    "Ġeverything": 3152,
    "Ġcoars": 14274,
    "Ġhoary": 23357,
    "mistakable": 20655,
    "Ġsherlock": 3894,
    "Ġroute": 11383,
    "Ġcommended": 18656,
    "Ġspeckled": 14312,
    "windlass": 16723,
    "Ġale": 9157,
    "Ġcomprehensive": 15091,
    "sworn": 24259,
    "ropes": 7903,
    "13": 20752,
    "angle": 22107,
    "inno": 10758,
    "Ġforenoon": 19127,
    "landish": 11946,
    "Ġentertainment": 12227,
    "variety": 23189,
    "Ġdiamond": 15604,
    "Ġattendance": 12186,
    "appo": 3915,
    "revol": 12545,
    "opence": 18506,
    "sitting": 8387,
    "ians": 2357,
    "Ġinvented": 17038,
    "ivided": 22083,
    "Ġassistant": 7298,
    "stolidity": 21666,
    "neighbouring": 19967,
    "Ġsavag": 19377,
    "arth": 4444,
    "Ġfaithful": 9506,
    "okened": 15989,
    "Ġreport": 6193,
    "Ġvillages": 14752,
    "mayhew": 23995,
    "mblies": 24609,
    "ghan": 19458,
    "Ġguess": 4904,
    "Ġoverladen": 22367,
    "success": 6712,
    "Ġesquimaux": 25154,
    "Ġbuttoned": 25369,
    "Ġsaith": 14158,
    "ignomin": 23269,
    "Ġnorthumbria": 24174,
    "Ġtre": 2533,
    "Ġquarrel": 7292,
    "Ġsuccessfully": 19432,
    "Ġclumsy": 9582,
    "Ġfleetness": 20182,
    "Ġstartling": 14673,
    "Ġfest": 10806,
    "Ġconnectivity": 3666,
    "Ġscar": 3211,
    "Ġcare": 1637,
    "har": 20892,
    "Ġfurled": 22817,
    "Ġpresumed": 10547,
    "Ġdit": 21423,
    "priv": 9622,
    "Ġpl": 744,
    "Ġhistorically": 19381,
    "omnipotent": 25965,
    "Ġsneeze": 24698,
    "Ġhorror": 3771,
    "Ġcranes": 20386,
    "Ġtant": 12530,
    "culine": 19067,
    "í": 174,
    "rious": 11692,
    "Ġfertile": 20586,
    "Ġkindness": 4097,
    "Ġcurse": 7667,
    "relations": 14736,
    "Ġhandsom": 11126,
    "Ġimag": 2672,
    "expl": 9286,
    "Ġcoolness": 16888,
    "Ġmystic": 7503,
    "Ġtimor": 24227,
    "Ġweapon": 7776,
    "Ġsoar": 18283,
    "Ġphysiogn": 12392,
    "Ġlens": 8439,
    "danish": 20835,
    "Ġcubic": 20091,
    "Ġghastly": 10063,
    "Ġlistener": 16478,
    "Ġencompassed": 15257,
    "ief": 2045,
    "Ġxxiv": 24477,
    "Ġbowsprit": 16562,
    "compasses": 19461,
    "ines": 675,
    "characteristic": 24686,
    "impressions": 20701,
    "already": 6981,
    "Ġcharmed": 16764,
    "Ġdandy": 17894,
    "Ġscratches": 22276,
    "trucks": 25420,
    "profitable": 17072,
    "Ġfret": 10808,
    "Ġfluid": 11214,
    "Ġspasmodic": 20401,
    "Ġdodging": 19889,
    "Ġwafted": 14501,
    "exagger": 22434,
    "Ġcrocod": 19631,
    "bular": 15317,
    "Ġdisdain": 8360,
    "Ġprobably": 4315,
    "Ġmixing": 24937,
    "achus": 18284,
    "tery": 14040,
    "Ġensigns": 23691,
    "Ġgr": 974,
    "Ġinto": 648,
    "company": 9464,
    "ial": 409,
    "ities": 1827,
    "wled": 15458,
    "Ġhydraul": 9517,
    "Ġbethinking": 25280,
    "reward": 15513,
    "Ġglades": 19375,
    "Ġlouis": 8357,
    "Ġ98": 24594,
    "Ġtransitory": 16024,
    "Ġobsolete": 26560,
    "ades": 5631,
    "Ġmeas": 1099,
    "Ġponder": 6819,
    "accidents": 19214,
    "Ġungrateful": 14124,
    "reserved": 13846,
    "Ġnominal": 15172,
    "Ġbo": 798,
    "adem": 21761,
    "Ġtarget": 2819,
    "elt": 4115,
    "Ġascended": 8669,
    "Ġaim": 10148,
    "Ġmap": 2391,
    "Ġbomb": 17869,
    "itals": 17822,
    "orses": 6053,
    "Ġscorn": 7900,
    "Ġfamiliarly": 11305,
    "Ġdiscourse": 9801,
    "Ġshrivelled": 19706,
    "}": 97,
    "Ġbreakers": 12059,
    "undoubtedly": 13315,
    "Ġcalmer": 23043,
    "Ġhelpless": 8302,
    "Ġshifting": 12774,
    "Ġprodu": 1206,
    "Ġdifficulty": 5770,
    "print": 23814,
    "n": 82,
    "Ġscheming": 23273,
    "fitted": 17546,
    "hand": 2755,
    "Ġdesper": 6178,
    "Ġdrowning": 19906,
    "Ġdeficiencies": 26572,
    "erve": 12554,
    "Ġunre": 3476,
    "Ġstammered": 26201,
    "Ġ": 225,
    "Ġspectre": 16633,
    "worshipping": 16612,
    "Ġprinted": 11954,
    "Ġscra": 5841,
    "Ġcapacity": 10442,
    "Ġaccidental": 16850,
    "scenes": 16248,
    "house": 4077,
    "Ġlarger": 1405,
    "Ġslumbers": 18944,
    "goodness": 19291,
    "Ġallen": 5160,
    "Ġoldest": 12979,
    "sheep": 23090,
    "Ġperceiving": 8879,
    "Ġfat": 3459,
    "Ġodds": 13333,
    "august": 11073,
    "Ġpriority": 19765,
    "ositories": 22268,
    "Ġraging": 14309,
    "Ġdisappeared": 5645,
    "estation": 15927,
    "Ġsystemat": 18448,
    "Ġways": 5396,
    "Ġstupid": 7604,
    "Ġconjured": 25102,
    "conda": 18993,
    "usation": 18402,
    "cules": 12395,
    "Ġunion": 6839,
    "Ġgunwales": 12245,
    "Ġhurricane": 16435,
    "how": 1644,
    "Ġparted": 5930,
    "Ġsacrificed": 17425,
    "Ġfem": 6136,
    "Ġreversed": 15702,
    "conceal": 25117,
    "Ġsamples": 2960,
    "Ġbr": 1073,
    "Ġtrusting": 24108,
    "between": 5071,
    "Ġballarat": 14722,
    "Ġsinister": 8572,
    "flu": 9120,
    "insulting": 26056,
    "Ġshrieked": 9551,
    "Ġdeduction": 14904,
    "Ġgroups": 3719,
    "Ġmerchants": 23734,
    "ificial": 608,
    "Ġremedy": 18725,
    "phren": 22781,
    "encountered": 20396,
    "claim": 9838,
    "give": 4689,
    "uplifted": 17697,
    "Ġde": 363,
    "med": 1913,
    "Ġus": 494,
    "Ġallowing": 2175,
    "izabeth": 908,
    "recurrent": 4994,
    "Ġlessen": 14534,
    "Ġends": 8238,
    "kes": 3677,
    "hercules": 22208,
    "ividually": 22085,
    "Ġano": 11599,
    "Ġlent": 21550,
    "Ġpreservative": 24630,
    "Ġresisted": 22545,
    "Ġbabies": 19695,
    "mental": 16053,
    "Ġapril": 13665,
    "Ġjacob": 1899,
    "p": 84,
    "limp": 20954,
    "exclaimed": 11794,
    "ure": 356,
    "Ġtoe": 13939,
    "Ġaugment": 8695,
    "Ġgross": 11628,
    "Ġbounded": 16629,
    "Ġpoetic": 17104,
    "Ġmarlings": 23037,
    "Ġ84": 19712,
    "Ġcondemned": 7779,
    "ī": 236,
    "Ġchallenges": 13633,
    "Ġhair": 3313,
    "Ġscrewed": 15124,
    "Ġiter": 2952,
    "Ġcharacter": 2791,
    "Ġundeceive": 25553,
    "sudden": 5316,
    "clergy": 18936,
    "ope": 4125,
    "Ġdoubled": 19640,
    "Ġwigwam": 11430,
    "Ġconfident": 11140,
    "Ġdig": 6137,
    "Ġbewil": 11660,
    "mouthed": 12404,
    "Ġball": 3623,
    "Ġdeaths": 14539,
    "vour": 17701,
    "Ġlend": 17965,
    "gus": 13728,
    "infl": 15491,
    "Ġdesert": 6729,
    "Ġpossessions": 23828,
    "Ġgrammars": 11404,
    "Ġtis": 15469,
    "tt": 13793,
    "Ġhelping": 3267,
    "Ġbourgh": 5069,
    "ena": 11571,
    "Ġherds": 9719,
    "spass": 18686,
    "Ġpistols": 17332,
    "Ġnoise": 1072,
    "hopper": 23716,
    "Ġpersuasions": 16634,
    "Ġarithmetic": 18347,
    "Ġidentifies": 12019,
    "education": 20304,
    "Ġboth": 1656,
    "Ġgord": 21603,
    "Ġyojo": 7611,
    "Ġabhor": 5467,
    "Ġdrunk": 9427,
    "Ġflapp": 23012,
    "Ġsk": 959,
    "sin": 21051,
    "Ġearl": 7676,
    "Ġgeography": 23375,
    "itudes": 3012,
    "embow": 21935,
    "Ġcoarsely": 25830,
    "Ġflesh": 5970,
    "nurs": 21001,
    "comfortableness": 24525,
    "Ġblankets": 24612,
    "Ġflor": 8565,
    "Ġeas": 2351,
    "Ġdark": 2113,
    "Ġhoarsely": 26303,
    "Ġportly": 14680,
    "Ġlaborers": 19059,
    "Ġgorgeous": 20470,
    "abb": 15744,
    "Ü": 157,
    "palms": 25263,
    "Ġshaken": 10267,
    "affected": 10478,
    "Ġhypothe": 4074,
    "Ġprimary": 25063,
    "ulnerable": 18153,
    "warmly": 25029,
    "Ġglac": 9349,
    "Ġsizes": 1522,
    "ensities": 22550,
    "Ġabrid": 22286,
    "ith": 330,
    "Ġthrusting": 10555,
    "reigned": 21245,
    "Ġslam": 13062,
    "Ġlazy": 17051,
    "inv": 8402,
    "stud": 8824,
    "Ġimprovement": 7966,
    "unbe": 21876,
    "Ġwept": 7184,
    "Ġfanc": 6745,
    "cary": 10693,
    "Ġstudied": 11117,
    "Ġalphabetical": 17204,
    "Ġlengths": 19208,
    "Ġpips": 9855,
    "heaved": 21213,
    "Ġsink": 4341,
    "Ġplucked": 15117,
    "Ġdream": 3538,
    "Ġerud": 20058,
    "oper": 7347,
    "Ġberths": 20118,
    "commanders": 16991,
    "coil": 23561,
    "mechanically": 17303,
    "Ġcheek": 8581,
    "Ġgam": 11627,
    "Ġgarnery": 17390,
    "vis": 4578,
    "Ġshoal": 12020,
    "Ġcomplete": 4384,
    "Ġremorseless": 13454,
    "Ġindulged": 13420,
    "Ġstays": 16563,
    "Ġrucastle": 5176,
    "Ġtending": 17726,
    "Ġproperty": 6451,
    "Ġgrego": 18963,
    "stun": 18021,
    "Ġknotted": 17021,
    "Ġirksome": 13115,
    "Ġresolves": 23649,
    "Ġmountains": 4428,
    "quished": 21852,
    "Ġopportunities": 19251,
    "Ġreproof": 24891,
    "Ġrejoined": 14930,
    "Ġard": 5164,
    "amiable": 14056,
    "Ġlost": 2632,
    "Ġannouncement": 14836,
    "ren": 549,
    "ane": 1178,
    "ruff": 15904,
    "Ġdeem": 18136,
    "Ġtul": 21162,
    "ized": 1529,
    "Ġcoloss": 11048,
    "Ġlogger": 11958,
    "Ġjoker": 22302,
    "prove": 11149,
    "interests": 19711,
    "rously": 17656,
    "._]]": 5335,
    "Ġdebar": 24274,
    "Ġstructural": 2795,
    "Ġwhalemen": 3913,
    "Ġpie": 13918,
    "ayed": 12718,
    "Ġmutters": 23959,
    "nostril": 26561,
    "women": 15460,
    "Ġtrousers": 12419,
    "Ġfollows": 7673,
    "tom": 15439,
    "Ġfaculties": 14961,
    "Ġgenerously": 22406,
    "Ġcountenance": 3971,
    "Ġaqu": 17744,
    "Ġcandid": 4099,
    "Ġintolerable": 8484,
    "Ġoutlines": 15962,
    "Ġrecklessly": 16985,
    "dare": 12458,
    "Ġfaltering": 17886,
    "Ġ]": 15463,
    "discharging": 26306,
    "phere": 21021,
    "Ġsorrow": 4629,
    "Ġtrotting": 19979,
    "Ġceasing": 23758,
    "animal": 16980,
    "Ġintric": 9250,
    "Ġintend": 12770,
    "ú": 187,
    "learnt": 23540,
    "Ġpallid": 12303,
    "Ġulster": 14999,
    "Ġsleeping": 6321,
    "Ġingolstadt": 8333,
    "pictures": 15094,
    "Ġrefer": 18698,
    "humorously": 24023,
    "moderate": 22876,
    "ohnson": 16330,
    "Ġcoffins": 13253,
    "Ġflapped": 23015,
    "anger": 2173,
    "Ġconnexion": 11456,
    "Ġbags": 24537,
    "week": 12937,
    "Ġtolerably": 8068,
    "Ġpicked": 6343,
    "liness": 8750,
    "intolerable": 22941,
    "otions": 7181,
    "decan": 22145,
    "Ġringing": 13335,
    "Ġpiqu": 21480,
    "namely": 23770,
    "Ġlimped": 19183,
    "Ġextreme": 2513,
    "Ġmisunderstood": 18706,
    "Ġmidships": 23635,
    "Ġincor": 2608,
    "Ġdistributes": 4196,
    "succeed": 10331,
    "Ġplates": 11009,
    "Ġflour": 8947,
    "Ġloft": 5642,
    "Ġhas": 825,
    "Ġeveryone": 8921,
    "heum": 17749,
    "Ġcircling": 19094,
    "ence": 392,
    "Ġthereby": 7644,
    "Ġpeleg": 3738,
    "Ġretribution": 16286,
    "entary": 21570,
    "Ġeffemin": 18543,
    "Ġdisasters": 16059,
    "Ġtorpor": 25034,
    "Ġrendering": 16660,
    "Ġgoring": 21607,
    "uerus": 26408,
    "ientiously": 21945,
    "mer": 2832,
    "size": 15428,
    "Ġundec": 22021,
    "lot": 3207,
    "laug": 10709,
    "Ġexceed": 1347,
    "directly": 13712,
    "Ġguid": 2635,
    "Ġopulent": 23630,
    "aders": 21762,
    "Ġbennet": 1576,
    "84": 15305,
    "Ġalready": 2710,
    "Ġstumbling": 21746,
    "hill": 15366,
    "Ġdragon": 14947,
    "afforded": 25866,
    "Ġocean": 3303,
    "Ġbeget": 9228,
    "ha": 3981,
    "Ġperpetual": 12307,
    "Ġpremeditated": 22238,
    "uary": 11540,
    "Ġtomorrow": 21516,
    "toes": 22568,
    "Ġmizen": 17261,
    "Ġpaper": 4284,
    "chor": 6148,
    "Ġseized": 4835,
    "beside": 19879,
    "lect": 1223,
    "swelled": 19613,
    "Ġgramm": 8171,
    "Ġlately": 6388,
    "Ġfought": 12599,
    "Ġfranc": 16356,
    "Ġexponentially": 1446,
    "atter": 658,
    "Ġenthr": 22746,
    "eers": 20845,
    "Ġplainly": 4383,
    "Ġbankers": 24304,
    "gang": 17555,
    "Ġcrammed": 16474,
    "Ġentailed": 11029,
    "Ġfacil": 16964,
    "Ġbounce": 21396,
    "Ġsitting": 3605,
    "shudder": 26247,
    "asions": 12657,
    "Ġregret": 5561,
    "Ġconject": 6028,
    "weigh": 18665,
    "precisely": 6917,
    "Ġgrasped": 8034,
    "angs": 5834,
    "mare": 17601,
    "Ġmarvellous": 7538,
    "indispensable": 14212,
    "retrie": 18926,
    "Ġbestow": 6456,
    "Ġstepped": 7053,
    "Ġreplying": 19584,
    "Ġimaginative": 19249,
    "Ġtwist": 11855,
    "mortals": 25410,
    "Ġbowsman": 11256,
    "Ġrepaid": 19084,
    "Ġretreat": 6071,
    "Ġentrances": 25836,
    "Ġchemical": 10412,
    "creation": 14809,
    "Ġattractions": 12923,
    "led": 580,
    "acute": 22601,
    ",âĢĻ": 2327,
    "Ġscheme": 7066,
    "Ġturing": 7566,
    "ig": 323,
    "shoulder": 16586,
    "esu": 17903,
    "Ġoverl": 18428,
    "Ġexpedition": 10636,
    "Ġalt": 18101,
    "Ġjoined": 4565,
    "aths": 22704,
    "Ġeffectively": 2803,
    "Ġharpooneer": 3770,
    "Ġcourage": 4634,
    "Ġhastily": 5763,
    "oried": 10804,
    "condescended": 26250,
    "Ġbehaves": 23303,
    "Ġcelebrated": 13597,
    "Ġunderstood": 5655,
    "Ġbale": 7838,
    "slightest": 25417,
    "Ġmarvels": 11085,
    "Ġshan": 9252,
    "unvarying": 21891,
    "cordiality": 25140,
    "Ġattacks": 12209,
    "Ġstooped": 14467,
    "Ġdiscussion": 17197,
    "parameter": 2911,
    "Ġbackbone": 22661,
    "Ġdais": 24372,
    "tenham": 16326,
    "Ġhumped": 19772,
    "fork": 20859,
    "Ġheadlands": 22901,
    "Ġheartfelt": 18968,
    "remain": 9841,
    "Ġless": 1941,
    "Ġdescrying": 18621,
    "Ġsigma": 1542,
    "Ġstoutest": 24629,
    "favourable": 12268,
    "Ġspeak": 2230,
    "refuge": 24733,
    "ferred": 16411,
    "Ġinsanity": 12051,
    "Ġtwitched": 20447,
    "Ġhearing": 4762,
    "Ġglad": 3325,
    "net": 1195,
    "acquainted": 7313,
    "Ġfemale": 8345,
    "officers": 10630,
    "lemag": 21375,
    "observed": 7675,
    "Ġmanhandle": 22333,
    "Ġoften": 1958,
    "N": 50,
    "Ġdividing": 12116,
    "Ġsurm": 7476,
    "Ġminimax": 5859,
    "tumult": 12427,
    "Ġhumiliating": 22887,
    "Ġtransition": 14236,
    "1775": 26380,
    "Ġlaud": 17970,
    "angu": 569,
    "Ġconcernment": 23646,
    "Ġchambers": 16801,
    "Ġstaple": 26200,
    "replied": 11568,
    "Ġcarved": 7947,
    "Ġswarming": 16278,
    "seen": 2880,
    "Ġnightmare": 18921,
    "Ġcaves": 15559,
    "Ġcandour": 14675,
    "helping": 23146,
    "plied": 10258,
    "large": 6628,
    "Ġharmony": 16816,
    "Ġtamer": 24979,
    "Ġoffice": 4965,
    "Ġyaw": 18097,
    "agre": 18167,
    "jumping": 20248,
    "Ġaugmented": 15109,
    "aste": 4602,
    "Ġrigger": 19533,
    "Ġchildish": 13140,
    "ean": 20842,
    "have": 2057,
    "Ġconcre": 16394,
    "disgraceful": 26077,
    "places": 7879,
    "alled": 5912,
    "Ġsymbols": 2793,
    "ned": 3490,
    "pretty": 10624,
    "Ġtoller": 9094,
    "ste": 3585,
    "Ġconj": 8462,
    "readers": 23851,
    "Ġ1836": 25721,
    "Ġconcise": 23325,
    "Ġrighted": 23182,
    "Ġhol": 1182,
    "ert": 2629,
    "Ġhaunts": 18199,
    "relig": 15516,
    "Ġnurtured": 19752,
    "Ġrude": 7234,
    "offic": 7466,
    "Ġpiny": 21473,
    "Ġscientific": 6857,
    "Ġ110": 24435,
    "Ġcrimin": 6901,
    "tooth": 18580,
    "Ġmiracle": 15097,
    "hope": 5991,
    "Ġcapricious": 20541,
    "bots": 10085,
    "Ġcurve": 22975,
    "Ġdimly": 9491,
    "proportion": 16184,
    "Ġquestion": 2775,
    "Ġjet": 5309,
    "ackled": 22425,
    "american": 11402,
    "tra": 5002,
    "daring": 20831,
    "Ġlifetime": 13605,
    "Ġthunders": 15643,
    "Ġfrank": 4421,
    "Ġnast": 15644,
    "Ġshe": 466,
    "Ġshoots": 14569,
    "Ġtresses": 21178,
    "pattern": 4139,
    "Ġ52": 24317,
    "springs": 24912,
    "idual": 1563,
    "ildad": 3532,
    "Ġinjuring": 24271,
    "Ġindignity": 18835,
    "Ġwhistled": 24624,
    "Ġroad": 3881,
    "uation": 17696,
    "Ġsubstituting": 26328,
    "ts": 958,
    ",--âĢľ": 19198,
    "bellies": 19977,
    "oll": 5456,
    "dough": 15338,
    "Ġseemingly": 9321,
    "Ġfruits": 17121,
    "beating": 22493,
    "topic": 10530,
    "Ġrepresents": 4903,
    "escape": 16012,
    "chambers": 25455,
    "inities": 21188,
    "Ġdetested": 14186,
    "Ġhartshorn": 26182,
    "Ġnervousness": 23559,
    "Ġsuavely": 26525,
    "Ġresembles": 25970,
    "repeat": 25155,
    "opy": 4459,
    "ĠĠĠĠĠĠĠĠĠĠĠĠĠĠĠĠĠĠĠĠĠĠĠĠĠ": 24442,
    "Ġwhelmed": 26000,
    "Ġthirdly": 24146,
    "necessity": 13371,
    "Ġhardest": 18914,
    "Ġslang": 23163,
    "subjects": 19878,
    "Ġunt": 2293,
    "Ġforth": 3460,
    "Ġplied": 22603,
    "european": 26373,
    "Ġerrors": 2594,
    "arest": 4004,
    "Ġhart": 17924,
    "freely": 16856,
    "Ġfinery": 23130,
    "Ġunmanufactured": 20437,
    "Ġdramat": 23217,
    "Ġbullion": 24986,
    "iv": 431,
    "inferiors": 25347,
    "Ġfinny": 23131,
    "atic": 4017,
    "captain": 3954,
    "yea": 23093,
    "vert": 15720,
    "Ġyour": 634,
    "ĵ": 246,
    "Ġstriding": 16095,
    "Ġdepresses": 25798,
    "Ġhusbands": 16645,
    "iter": 4393,
    "sails": 7497,
    "Ġbasket": 9575,
    "lakeman": 13754,
    "Ġexcite": 11970,
    "Ġmorris": 18852,
    "Ġstig": 14005,
    "ictions": 14228,
    "Ġexultation": 15175,
    "Ġfidel": 12602,
    "pocket": 9812,
    "Ġjura": 14195,
    "cil": 8724,
    "ordingly": 18519,
    "Ġveget": 11890,
    "Ġadequ": 10915,
    "Ġingenuity": 17166,
    "arpening": 21446,
    "Ġkramm": 26235,
    "ere": 6790,
    "activation": 3231,
    "bell": 7332,
    "Ġcommanding": 16592,
    "isting": 5551,
    "rust": 2579,
    "Ġdisturbing": 19949,
    "symp": 14618,
    "Ġfi": 935,
    "pinn": 21028,
    "ues": 2081,
    "Ġpun": 4588,
    "Ġillust": 8263,
    "splash": 25210,
    "parsee": 14513,
    "Ġroses": 11790,
    "Ġresemble": 15698,
    "Ġost": 9652,
    "Ġpurely": 12236,
    "expanded": 23667,
    "Ġinde": 7371,
    "Ġreck": 6539,
    "laws": 19810,
    "Ġearnest": 3931,
    "second": 6545,
    "Ġindign": 6175,
    "Ġworsh": 13004,
    "Ġcashier": 20201,
    "Ġpart": 860,
    "osque": 22266,
    "decease": 25558,
    "Ġlawn": 7379,
    "bra": 6221,
    "preserving": 25305,
    "Ġsight": 2112,
    "Ġinfants": 16371,
    "Ġinterested": 6459,
    "Ġtingling": 15096,
    "Ġrails": 22656,
    "axed": 8892,
    "Ġaudio": 24771,
    "Ġeucl": 24708,
    "Ġvision": 1513,
    "Ġexcel": 3568,
    "Ġyarns": 15199,
    "Ġdashed": 6011,
    "Ġlaunched": 14929,
    "Ġpain": 2304,
    "execut": 13658,
    "iel": 11496,
    "Ġleyden": 21751,
    "ga": 17552,
    "Ġchaise": 9079,
    "patient": 25343,
    "quickness": 19853,
    "Ġ135": 24784,
    "Ġvirt": 3908,
    "Ġwithin": 2164,
    "Ġscrolled": 22274,
    "Ġlights": 8963,
    "ppered": 15796,
    "Ġbough": 13897,
    "Ġindistinctly": 26118,
    "Ġaslant": 21905,
    "Ġ132": 19898,
    "Ġintention": 5638,
    "Ġcellars": 24666,
    "Ġpromote": 23196,
    "ed": 293,
    "name": 6796,
    "ural": 505,
    "Ġmidnight": 5266,
    "aments": 12731,
    "readiness": 19366,
    "Ġbashaw": 25634,
    "Ġcomponents": 8896,
    "Ġattacking": 24465,
    "Ġinsertion": 26345,
    "Ġsqueaking": 26276,
    "avers": 17483,
    "Ġconducted": 10505,
    "Ġruthless": 15289,
    "limin": 8384,
    "ios": 2224,
    "Ý": 158,
    "perai": 10278,
    "Ġeels": 21625,
    "inaw": 21186,
    "Ġcaul": 10789,
    "Ġinclined": 6625,
    "ĠĠĠĠĠĠĠĠĠĠĠĠĠĠĠĠĠĠĠĠĠĠĠĠ": 5322,
    "profound": 16430,
    "het": 5435,
    "Ġcastaways": 19431,
    "over": 1846,
    "#": 7,
    "Ġpredictions": 1456,
    "gradually": 12921,
    "Ġsensationalism": 26067,
    "Ġfifty": 4624,
    "Ġbrows": 13304,
    "etence": 21580,
    "roused": 16655,
    "ifications": 9731,
    "loom": 18536,
    "enthus": 17980,
    "opement": 10314,
    "suspicions": 25392,
    "Ġfound": 1247,
    "Ġcircumspect": 15088,
    "dev": 7633,
    "lace": 13751,
    "cen": 17505,
    "advantages": 11273,
    "cott": 8074,
    "ashion": 3860,
    "unforeseen": 21892,
    "Ġelated": 18635,
    "sperm": 5203,
    "knowing": 10439,
    "Ġlooking": 2472,
    "Ġtusked": 25427,
    "presumption": 20445,
    "Ġ500": 24324,
    "empl": 5724,
    "ser": 1428,
    "Ġdimens": 3147,
    "Ġperemptorily": 17370,
    "Ġexpressions": 7706,
    "Ġdivineness": 25724,
    "madly": 24420,
    "umbered": 22121,
    "upid": 6584,
    "desperate": 17360,
    "strugg": 21665,
    "Ġtrade": 2543,
    "Ġmischie": 22763,
    "fth": 20858,
    "aking": 971,
    "Ġalso": 1346,
    "Ġdrifted": 14627,
    "Ġwoods": 5406,
    "volutional": 1938,
    "created": 12455,
    "Ġnecessitates": 23933,
    "Ġinaccessible": 13937,
    "attempt": 9363,
    "Ġdecide": 9289,
    "illing": 8175,
    "Ġlandsman": 11352,
    "flagged": 23975,
    "ers": 404,
    "Ġforward": 1838,
    "Ġbenchmarks": 15024,
    "waited": 24586,
    "Ġdagger": 21440,
    "Ġcastors": 23979,
    "Ġtrad": 9831,
    "Ġdissu": 18551,
    "é": 170,
    "Ġnorth": 4320,
    "ignified": 14492,
    "Ġsubs": 2131,
    "Ġsomehow": 4843,
    "Ġgazing": 5877,
    "monograph": 23527,
    "Ġgur": 21595,
    "Ġcommunity": 19010,
    "Ġsavages": 9915,
    "Ġhovers": 19080,
    "Ġ50": 24315,
    "Ġhappily": 9334,
    "Ġevenly": 4129,
    "Ġconveying": 19717,
    "Ġupward": 9724,
    "uture": 1049,
    "Ġsuperiority": 14619,
    "Ġdivined": 19446,
    "Ġportion": 7492,
    "Ġaccelerating": 1619,
    "Ġdragged": 6889,
    "Ġdeg": 3281,
    "Ġerect": 6145,
    "Ġcornelius": 13576,
    "exerc": 16020,
    "Ġ99": 10747,
    "idly": 12706,
    "finger": 10096,
    "somers": 19371,
    "Ġadieu": 10054,
    "suddenly": 6494,
    "pair": 21014,
    "plan": 15823,
    "shall": 4551,
    "capt": 3837,
    "Ġenergy": 2549,
    "began": 6427,
    "imes": 1299,
    "Ġsurvived": 14937,
    "Ġevidence": 5270,
    "Ġhowling": 8512,
    "Ġshallow": 14397,
    "furniture": 20245,
    "Ġearnestness": 12130,
    "Ġplay": 2623,
    "Ġstirred": 12222,
    "Ġire": 12673,
    "cannibals": 25585,
    "Ġarched": 10934,
    "Ġ32": 19492,
    "J": 46,
    "Ġstoner": 7179,
    "Ġlose": 5028,
    "Ġundiscernible": 22070,
    "Ġinspect": 5965,
    "Ġsw": 1356,
    "Ķ": 247,
    "Ġflood": 7716,
    "Ġseems": 2479,
    "Ġsideboard": 10389,
    "Ġamericans": 14747,
    "Ġfr": 1694,
    "grand": 7970,
    "solitary": 14508,
    "Ġhanover": 20589,
    "'(": 2977,
    "Ġitaly": 10869,
    "Ġadjac": 18293,
    "obed": 14449,
    "harpo": 4806,
    "required": 17031,
    "Ġseventeen": 26212,
    "Ġamongst": 8962,
    "Ġthw": 21518,
    "Ġ31": 12135,
    "twain": 23702,
    "Ġsignificant": 8637,
    "_.âĢĶ": 23474,
    "treasures": 26153,
    "Ġdwell": 5813,
    "ite": 712,
    "Ġable": 3078,
    "igating": 21703,
    "Ġheavens": 5050,
    "chose": 18043,
    "perceived": 8862,
    "!âĢĿâĢĶ": 8535,
    "Ġvineyard": 12334,
    "Ġtut": 8774,
    "Ġmanage": 7641,
    "Ġhunter": 5401,
    "umblings": 23897,
    "Ġcurls": 22976,
    "Ġberkshire": 16886,
    "Ġunra": 18238,
    "Ġevalu": 3104,
    "ince": 4340,
    "alogue": 25163,
    "learning": 2545,
    "ws": 7355,
    "ouncement": 11749,
    "Ġcomical": 11683,
    "throwing": 11707,
    "Ġswayed": 15050,
    "Ġporter": 15616,
    "octavo": 11387,
    "Ġdefend": 9343,
    "pret": 7212,
    "ror": 7351,
    "Ġshillings": 15840,
    "Ġnewcom": 16226,
    "fr": 4805,
    "bun": 12442,
    "Ġcolon": 18768,
    "Ġtroubled": 6618,
    "Ġatom": 18193,
    "Ġredoubled": 23754,
    "Ġstreat": 15726,
    "figures": 20125,
    "_)": 9105,
    "Ġcorpulence": 24509,
    "professional": 20278,
    "Ġunspeak": 8854,
    "tedious": 22637,
    "Ġswing": 13041,
    "Ġpenetrated": 13475,
    "barb": 10083,
    "Ġmerged": 19299,
    "Ġ68": 24370,
    "Ġaye": 3352,
    "harpoons": 24287,
    "Ġcontents": 7210,
    "Ġcocked": 12910,
    "ics": 3257,
    "Ġconfess": 3765,
    "Ġsmiled": 5942,
    "Ġconsummate": 25311,
    "power": 7138,
    "Ġone": 568,
    "Ġrokovoko": 22412,
    "slackened": 26095,
    "Ġunicorn": 22059,
    "Ġtuples": 13480,
    "butter": 11789,
    "§": 105,
    "Ġaug": 6236,
    "Ġagitation": 6865,
    "Ġfow": 6135,
    "Ġsoftly": 7948,
    "ĠĠĠĠĠĠĠ": 7632,
    "15": 12434,
    "perquis": 22185,
    "Ġstones": 9224,
    "oriented": 2947,
    "Ġnevertheless": 5040,
    "Ġholiday": 13002,
    "Ġpolice": 4675,
    "Ġinfrequent": 3825,
    "agged": 9240,
    "Ġbody": 2434,
    "Ġword": 1055,
    "Ġfrequ": 3327,
    "adel": 15734,
    "once": 5905,
    "contempl": 13194,
    "lev": 1234,
    "Ġsurrounds": 24234,
    "Ġminor": 12973,
    "Ġwondrous": 4736,
    "circle": 16738,
    "Ġwonderful": 4564,
    "Ġcandle": 8292,
    "backpropagation": 11990,
    "Ġdivinely": 25723,
    "Ġpresented": 5183,
    "Ġoccupant": 16654,
    "cause": 7796,
    "Ġcand": 3276,
    "Ġinfat": 14502,
    "Ġtendinous": 16933,
    "persecutor": 26531,
    "sorts": 21063,
    "pushed": 21025,
    "Ġflirt": 14426,
    "Ġsupply": 6068,
    "infall": 21191,
    "eler": 1573,
    "Ġviol": 2073,
    "Ġoptim": 775,
    "Ġwedding": 4817,
    "Ġconfirmation": 17213,
    "Ġmysticetus": 24923,
    "Ġphrase": 11189,
    "10": 17475,
    "Ġnamely": 20692,
    "Ġbalmy": 22907,
    "Ġinsulated": 23682,
    "ch": 321,
    "Ġobliging": 13246,
    "strang": 11185,
    "Ġcol": 1068,
    "Ġclaps": 22351,
    "Ġjobs": 24833,
    "inj": 9154,
    "record": 16923,
    "Ġdevelop": 1628,
    "Ġbunch": 11328,
    "Ġmorrow": 9346,
    "Ġbee": 21753,
    "Ġexplained": 5937,
    "Ġstarlight": 24627,
    "Ġdiggings": 24650,
    "Ġbrill": 8552,
    "Ġarrangement": 2654,
    "Ġuncont": 14119,
    "theories": 18081,
    "deck": 4501,
    "Ġmrs": 1467,
    "Ġexpected": 3697,
    "Ġunprinciple": 18255,
    "Ġhappy": 2463,
    "complete": 15037,
    "Ġtapering": 8775,
    "lie": 12487,
    "Ġkid": 9728,
    "Ġencapsulate": 13678,
    "Ġkey": 2102,
    "Ġhints": 8431,
    "Ġconclusion": 5987,
    "Ġintrodu": 1927,
    "ached": 2321,
    "cons": 4310,
    "Ġgl": 1256,
    "Ġchildren": 3766,
    "Ġsunda": 13546,
    "Ġrenders": 13287,
    "Ġdexterity": 25295,
    "Ġextinct": 14337,
    "Ġbriefly": 11369,
    "ensical": 18568,
    "Ġpreventing": 884,
    "regularization": 3513,
    "Ġhost": 7070,
    "claps": 23157,
    "Ġneighbouring": 12123,
    "Ġfalling": 6915,
    "Ġunattended": 15848,
    "Ġmalignant": 14881,
    "Ġkne": 4268,
    "Ġwhereon": 16106,
    "Ġforged": 12710,
    "ruined": 18343,
    "Ġinequalities": 26455,
    "fearfully": 25119,
    "Ġcomplimented": 14907,
    "critters": 14779,
    "Ġworlds": 11952,
    "Ġmons": 10159,
    "Ġtides": 13824,
    "Ġgovernments": 20270,
    "Ġmisconduct": 22761,
    "forecastle": 10992,
    "Ą": 197,
    "Ġnarrowed": 24355,
    "il": 329,
    "Ġeconomically": 25289,
    "Ġconsecrated": 26490,
    "however": 4375,
    "Ġlapse": 17123,
    "ine": 406,
    "Ġadaptation": 3153,
    "kinson": 10029,
    "soo": 18684,
    "Ġtout": 17721,
    "Ġderision": 16313,
    "joy": 3334,
    "Ġenvelope": 7319,
    "Ġportentous": 15233,
    "Ġplough": 18610,
    "Ġbutter": 6842,
    "Ġfingers": 5672,
    "Ġdestruction": 6602,
    "subtle": 24246,
    "sharpening": 22463,
    "street": 6496,
    "lights": 13208,
    "Ġthickest": 16657,
    "Ġengaging": 9339,
    "Ġlegal": 10441,
    "Ġactivation": 918,
    "datasets": 11951,
    "Ġharmless": 9968,
    "Ġstomach": 11656,
    "mighty": 9469,
    "Ġcomput": 600,
    "Ġforcing": 3224,
    "Ġaugmentation": 20119,
    "Ġgout": 21599,
    "occupation": 15059,
    "l": 80,
    "effect": 8607,
    "Ġtracing": 18891,
    "bloom": 24690,
    "Ġactiv": 832,
    "Ġnephew": 6406,
    "Ġpersons": 6182,
    "mal": 6795,
    "Ġmagg": 18907,
    "Ġhour": 1813,
    "Ġdeaden": 23462,
    "Ġvexations": 24610,
    "Ġfullest": 14817,
    "excitement": 19672,
    "Ġfretfully": 25448,
    "sub": 4660,
    "dragging": 16611,
    "osely": 9268,
    "Ġmonstrous": 7790,
    "Ġindeed": 1679,
    "Ġdefer": 18824,
    "Ġdependen": 1829,
    "Ġfeels": 6882,
    "Ġemotion": 7690,
    "instant": 8655,
    "Ġcoefficient": 2885,
    "Ġair": 1836,
    "Ġdesist": 16243,
    "isher": 2877,
    "Ġwaxed": 21300,
    "Ġseverely": 14936,
    "Ġeating": 8136,
    "ĠâĢľ": 516,
    "Ġeighteen": 11241,
    "bran": 23576,
    "Ġhaws": 21955,
    "clear": 9027,
    "Ġincredulity": 11313,
    "putable": 10903,
    "ries": 3353,
    "Ġoccasioned": 13231,
    "Ġdearer": 14052,
    "Ġrussian": 14351,
    "Ġinfall": 7960,
    "Ġsullen": 9160,
    "Ġmun": 12567,
    "ely": 625,
    "Ġconsolidation": 5060,
    "Ġstands": 5259,
    "Ġcontrive": 16015,
    "Ġcall": 2076,
    "Ġsill": 10767,
    "Ġnumbers": 2889,
    "Ġinclusive": 24166,
    "Ġ118": 19701,
    "Ġbuying": 23999,
    "ã": 164,
    "Ġvehicles": 10662,
    "Ġdeclares": 16994,
    "compan": 7301,
    "native": 17613,
    "Ġgrasping": 12170,
    "occasionally": 13523,
    "Ġ23": 13195,
    "Ġspecksnyder": 17406,
    "Ġslighted": 16570,
    "screw": 9350,
    "anguish": 15988,
    "shout": 22451,
    "fair": 10095,
    "Ġrecord": 5317,
    "Ġinsurgents": 26602,
    "mbl": 5947,
    "Ġoverhead": 11777,
    "henomena": 20275,
    "Ġf": 283,
    "Ġinherent": 4592,
    "Ġ28": 19297,
    "insisted": 23070,
    "Ġmantle": 25275,
    "okes": 9280,
    "Ġmodesty": 12825,
    "Ġemployer": 19435,
    "Ġgourmand": 26468,
    "Ġgaiety": 16751,
    "uncle": 8159,
    "tiness": 21074,
    "discoloured": 23500,
    "Ġmonomaniac": 9571,
    "cig": 17506,
    "Ġdocumentation": 20557,
    "Ġcities": 17829,
    "mature": 20969,
    "Ġpreserved": 9265,
    "Ġceler": 15556,
    "queer": 10366,
    "invest": 11562,
    "Ġsweep": 8266,
    "adoes": 11663,
    "watery": 19829,
    "hour": 7340,
    "sentimental": 25682,
    "Ġmasked": 3695,
    "_,âĢĻ": 12437,
    "congratulations": 20282,
    "yden": 21146,
    "Ġcoarse": 14277,
    "Ġheighten": 19532,
    "Ġflank": 8229,
    "human": 7090,
    "Ġservice": 6472,
    "hurry": 24762,
    "Ġshovel": 23493,
    "Ġvehemence": 26568,
    "û": 188,
    "itating": 9653,
    "Ġtom": 15638,
    "Ġwarmly": 8990,
    "imen": 12692,
    "Ġplate": 8902,
    "Ġstarting": 7729,
    "Ġfangs": 12603,
    "Ġfearing": 12821,
    "rr": 17652,
    "Ġstake": 14006,
    "Ġdisliked": 12897,
    "Ġmasterly": 23997,
    "Ġeclipsed": 26378,
    "vo": 11542,
    "civil": 7797,
    "Ġbehind": 2805,
    "mend": 20968,
    "force": 12968,
    "Ġprogressive": 5024,
    "Ġroutine": 13510,
    "hosmer": 25903,
    "Ġsta": 18065,
    "Ġnice": 6678,
    "Ġinfle": 16370,
    "Ġheels": 10852,
    "Ġinnocence": 6478,
    "istical": 8492,
    "tired": 21075,
    "Ġkeepers": 23539,
    "Ġnumerous": 6920,
    "Ġobliquely": 12366,
    "Ġglobe": 6077,
    "Ġmounting": 19980,
    "Ġsubstantiated": 25876,
    "Ġqual": 6276,
    "Ġtechni": 1745,
    "ashed": 3785,
    "izens": 18146,
    "warrior": 24797,
    "Ġoutlast": 22317,
    "Ġstartled": 7084,
    "superiority": 20188,
    "Ġvexed": 9997,
    "garn": 20872,
    "pet": 4868,
    "Ġnovel": 6697,
    "Ġwaldman": 11347,
    "Ġstiffly": 15007,
    "odecimo": 11446,
    "Ġvinegar": 20103,
    "Ġensuing": 12313,
    "Ġcells": 13888,
    "Ġstrong": 1789,
    "Ġstrokes": 16771,
    "stays": 15694,
    "Ġsquared": 1383,
    "abbering": 21800,
    "Ġsisters": 3640,
    "alizing": 17942,
    "ascending": 24706,
    "Ġsulky": 13517,
    "impossible": 8828,
    "Ġtass": 15473,
    "Ġjoints": 12039,
    "determine": 19947,
    "Ġmodeling": 2096,
    "Ġtruthful": 23870,
    "Ġwapping": 21297,
    "Ġholds": 7976,
    "Ġopportunity": 4787,
    "Ġmajority": 13296,
    "seem": 10230,
    "Ġmoonshine": 19600,
    "olen": 9703,
    "Ġheathenish": 13619,
    "Ġage": 3897,
    "pressing": 19015,
    "Ġoutsk": 15961,
    "trick": 19416,
    "Ġimbalance": 22178,
    "Ġinverted": 12643,
    "keeping": 8638,
    "Ġsou": 1887,
    "magistrate": 19865,
    "Ġwife": 2585,
    "Ġalterations": 19873,
    "bro": 4035,
    "Ġsquires": 16186,
    "ounds": 4157,
    "Ġowl": 20087,
    "Ġcanopy": 18323,
    "Ġhurry": 4914,
    "speed": 19412,
    "Ġquit": 5247,
    "Ġaccordingly": 6622,
    "rowsers": 8698,
    "Ġyou": 366,
    "withdrawn": 23029,
    "Ġneur": 813,
    "Ġsprung": 11250,
    "Ġengagement": 5397,
    "Ġrese": 2208,
    "Ġcurtains": 22979,
    "Ġilluminated": 20178,
    "fortune": 4975,
    "Ġain": 6970,
    "mosphere": 10046,
    "liament": 16222,
    "cords": 25139,
    "aintance": 3570,
    "repugnance": 16866,
    "Ġquarter": 3977,
    "et": 307,
    "anced": 1309,
    "Ġdom": 2696,
    "Ġcontrolled": 23253,
    "Ġimpl": 7195,
    "Ġexcluded": 16392,
    "Ġperpendicularly": 11376,
    "Ġattack": 5478,
    "Ġforbid": 7865,
    "Ġdungeon": 16998,
    "income": 15490,
    "tfordshire": 4812,
    "nue": 15400,
    "Ġscraggy": 24580,
    "Ġaccurate": 13272,
    "Ġsurgeon": 8984,
    "vessel": 11379,
    "whiteness": 18371,
    "Ġmilitary": 11260,
    "Ġclaimed": 14204,
    "iary": 15374,
    "introduce": 25187,
    "nourished": 26400,
    "Ġfreemason": 23211,
    "Ġtrust": 4080,
    "vy": 21110,
    "Ġfitness": 24003,
    "Ġpassers": 18759,
    "Ġinteractions": 12909,
    "Ġhomeward": 9395,
    "Ġtoken": 2038,
    "Ġugly": 8719,
    "hee": 10762,
    "Ġshows": 8485,
    "bent": 15315,
    "calm": 8937,
    "Ġintegral": 25011,
    "Ġclad": 12845,
    "Ġnosegay": 24195,
    "Ġtrying": 4840,
    "ander": 6402,
    "itable": 5437,
    "different": 6502,
    "Ġpreluding": 18369,
    "dress": 17522,
    "Ġhove": 17925,
    "Ġdiddled": 22670,
    "le": 279,
    "pth": 2382,
    "hever": 13834,
    "Ġphaeton": 17467,
    "Ġwelcome": 5604,
    "Ġdisinclination": 22540,
    "Ġhollowly": 24526,
    "astonished": 15035,
    "Ġwhales": 1828,
    "Ġflutter": 16251,
    "omics": 21646,
    "Ġurging": 24505,
    "Ġbrazen": 23843,
    "elder": 21575,
    "Ġfriendless": 23027,
    "slouched": 24557,
    "Ġcalculated": 4476,
    "tinted": 17685,
    "arranging": 19320,
    "umphed": 23518,
    "silver": 19693,
    "Ġnowhere": 12892,
    "Ġrepaired": 13111,
    "ious": 770,
    "Ã": 132,
    "Ġpurposely": 10446,
    "Ġvib": 8165,
    "Ġsavagely": 26325,
    "Ġoccasion": 3247,
    "Ġbrand": 16190,
    "tles": 10732,
    "driven": 19774,
    "Ġmaddening": 17245,
    "_": 67,
    "Ġconjectures": 16927,
    "Ġmast": 2901,
    "Ġobtained": 7432,
    "'s": 2467,
    "burnt": 20083,
    "riages": 10245,
    "Ġexecut": 4249,
    "copyright": 5278,
    "Ġ73": 24263,
    "orts": 2552,
    "Ġwhaleman": 4655,
    "Ġfishing": 9665,
    "ime": 626,
    "visitor": 15060,
    "varying": 13807,
    "red": 396,
    "Ġsquatted": 25843,
    "brushing": 20790,
    "Ġloth": 17968,
    "Ġtour": 9150,
    "elze": 21576,
    "Ġnour": 10832,
    "scene": 14422,
    "Ġtimidity": 24688,
    "Ġterrier": 23402,
    "Ġiceland": 15150,
    "twice": 14623,
    "hoisted": 19284,
    "Ġomitted": 12569,
    "Ġklux": 22199,
    "Ġsit": 4218,
    "Ġrapidity": 11102,
    "Ġjewels": 12373,
    "shabb": 18493,
    "Ġrejecting": 17052,
    "Ġgreat": 896,
    "Ġnewcastle": 16227,
    "Ġtying": 15477,
    "fright": 9598,
    "daylight": 19057,
    "waiting": 12225,
    "rubber": 12816,
    "Ġvindictiveness": 25739,
    "Ġrefresh": 10348,
    "Ġinter": 727,
    "Ġclinging": 10294,
    "##": 2316,
    "Ġdisputes": 25826,
    "Ġsnuff": 7992,
    "Ġturner": 7051,
    "Ġbrag": 23837,
    "wretched": 10743,
    "Ġrowing": 10303,
    "circumstances": 8047,
    "Ġfireboard": 23533,
    "bes": 6644,
    "Ġtrappers": 23084,
    "Ġnatural": 1102,
    "Ġreverend": 15263,
    "¹": 122,
    "Ġintru": 15832,
    "Ġdrunken": 12054,
    "Ġconcentration": 25065,
    "Ġimitated": 18330,
    "Ġpreced": 6041,
    "venth": 9298,
    "Ġfamilies": 8027,
    "Ġdaunt": 19667,
    "Ġbathed": 17867,
    "Ġaided": 17747,
    "Ġun": 422,
    "orously": 8420,
    "Ġsenses": 8252,
    "Ġcod": 8413,
    "piece": 6658,
    "so": 892,
    "Ġfilters": 3928,
    "Ġdesigns": 13021,
    "gratification": 24348,
    "Ġhearers": 15708,
    "Ġanne": 1530,
    "voice": 7816,
    "Ā": 193,
    "Ġtriumphal": 24371,
    "pents": 11515,
    "historical": 20469,
    "Ġclutched": 13521,
    "ons": 709,
    "keepers": 16662,
    "ginger": 13166,
    "concent": 19483,
    "happen": 19333,
    "Ġscoresby": 10464,
    "Ġlunacy": 20031,
    "haps": 1671,
    "ctive": 11626,
    "Ġbeth": 9660,
    "stee": 21654,
    "acid": 11008,
    "aways": 15314,
    "Ġfrightful": 7736,
    "Ġsangu": 15508,
    "process": 11150,
    "Ġstacks": 18077,
    "Ġrand": 1586,
    "Ġmountainous": 16601,
    "turbaned": 24532,
    "Ġres": 696,
    "immediately": 10052,
    "Ġmaketh": 15191,
    "Ġnomine": 26458,
    "Ġintermission": 18592,
    "olet": 13769,
    "Ġfrogs": 23927,
    "Ġoarsman": 8641,
    "Ġrays": 10333,
    "injustice": 17739,
    "Ġarchbishop": 18723,
    "oves": 15407,
    "Ġvirtues": 9939,
    "evil": 11488,
    "key": 5462,
    "Ġinterrupted": 6345,
    "Ġjog": 18405,
    "relate": 24014,
    "nson": 16093,
    "contemplated": 20461,
    "Ġmine": 3176,
    "Ġhurling": 19112,
    "ive": 426,
    "Ġfaire": 13368,
    "addressing": 24401,
    "wretch": 17710,
    "Ġxxii": 24478,
    "geons": 15984,
    "Ġtie": 10752,
    "Ġmines": 21311,
    "Ġwasn": 6998,
    "Ġdest": 2237,
    "attempts": 17193,
    "Ġcontinu": 1166,
    "Ġprovides": 1932,
    "agree": 14070,
    "Ġthenceforth": 25183,
    "evidently": 20348,
    "Ġmagnified": 23206,
    "Ġfren": 10807,
    "Ġmor": 1251,
    "Ġflower": 16236,
    "Ġstrictest": 17043,
    "instance": 24171,
    "Ġalps": 10872,
    "justified": 19004,
    "Ġforgotten": 5679,
    "Ġdesisted": 22984,
    "aming": 5829,
    "Ġoutlined": 22324,
    "Ġloftiest": 16876,
    "Ġallowance": 14392,
    "queness": 18149,
    "governed": 25406,
    "employed": 17264,
    "Ġproduce": 4369,
    "Ġgoethe": 22428,
    "tr": 3580,
    "Ġisolated": 13562,
    "Ġpiercing": 13496,
    "Ġstrongly": 5657,
    "Ġrefrained": 14346,
    "Ġdocile": 19962,
    "Ġturkish": 12266,
    "Ġchristians": 13312,
    "uzz": 4524,
    "Ġfolds": 12211,
    "loveliness": 26551,
    "blown": 25202,
    "Ġdismal": 11814,
    "ked": 5616,
    "Ġrenewal": 12239,
    ";--": 8069,
    "measureless": 20238,
    "Ġstigma": 25792,
    "Ġtip": 15475,
    "Ġarbit": 4651,
    "Ġtuck": 10143,
    "Ġproflig": 23569,
    "Ġplaster": 16089,
    "Ġbranded": 14382,
    "Ġredress": 23753,
    "Ġceased": 6469,
    "Ġflashing": 13033,
    "Ġobjecting": 18897,
    "Ġensue": 18191,
    "Ġparading": 23712,
    "exactly": 10639,
    "ingale": 21302,
    "Ġstoop": 16314,
    "Ġgrown": 5628,
    "Ġclient": 5556,
    "Ġoffing": 16148,
    "clean": 14764,
    "Ġabed": 22279,
    "Ġsurpassing": 20471,
    "possibly": 10546,
    "event": 8077,
    "Ġasiatics": 20434,
    "Ġaccidents": 10300,
    "Ġbos": 4876,
    "Ġsolutions": 1950,
    "cain": 15329,
    "comprehensive": 20629,
    "Ġholding": 4979,
    "Ġfavourable": 7959,
    "death": 6263,
    "expected": 5780,
    "values": 4973,
    "ny": 4015,
    "Ġrocked": 12862,
    "gaz": 20880,
    "mon": 2309,
    "azine": 19132,
    "accustomed": 13160,
    "hatches": 19930,
    "overcoat": 19053,
    "Ġinadequate": 17939,
    "Ġhumbly": 16202,
    "Ġdoubt": 2223,
    "Ġprolong": 6832,
    "Ġhieroglyphic": 25588,
    "Ġslides": 18941,
    "Ġsav": 3356,
    "Ġpants": 21468,
    "Ġflow": 1237,
    "Ġnative": 4641,
    "Ġpicture": 4858,
    "Ġhastened": 9007,
    "Ġphantoms": 13489,
    "Ġplanets": 24060,
    "Ġwoody": 23520,
    "eteenth": 20160,
    "Ġstrengthen": 20703,
    "Ġretrie": 10386,
    "hammock": 16358,
    "Ġcond": 3875,
    "Ġthrill": 24541,
    "spin": 22730,
    "rich": 11520,
    "Ġmass": 3781,
    "untering": 15781,
    "amb": 5723,
    "oubted": 5861,
    "ominy": 13981,
    "Ġassent": 12739,
    "angible": 22108,
    "Ġbreaches": 14523,
    "Ġenticements": 26035,
    "Ġdouble": 4940,
    "Ġacceptance": 14830,
    "Ġarri": 2550,
    "port": 10721,
    "sticks": 25966,
    "Ġlascar": 9202,
    "you": 1007,
    "Ġregent": 18587,
    "Ġgames": 11629,
    "rd": 17651,
    "Ġduck": 8798,
    "Ġtraps": 23083,
    "attering": 7419,
    "Ġabused": 22283,
    "Ġmaz": 15547,
    "rack": 18013,
    "Ġclinch": 18425,
    "Ġbatch": 891,
    "irement": 18356,
    "Ġconception": 10316,
    "win": 6802,
    "Ġhem": 8447,
    "Ġconduct": 3733,
    "accurately": 25862,
    "Ġru": 947,
    "Ġdomain": 3433,
    "lesson": 22773,
    "umul": 1288,
    "Ġimportance": 4901,
    "Ġdazz": 11597,
    "Ġextravag": 11255,
    "Ġcore": 13881,
    "Ġaffectionately": 13171,
    "``": 15310,
    "Ġpanel": 13375,
    "Ġspace": 1551,
    "Ġgaining": 9495,
    "user": 5105,
    "Ġgenerations": 10968,
    "mem": 10711,
    "Ġluxur": 12345,
    "blow": 9107,
    "danger": 10092,
    "Ġgest": 8134,
    "fat": 8079,
    "Ġmou": 13858,
    "[": 63,
    "Ġinattention": 17934,
    "ojo": 7349,
    "Ġpadd": 9672,
    "web": 18664,
    "Ġtri": 4814,
    "Ġ48": 24085,
    "x": 92,
    "Ġunfold": 8022,
    "Ġthought": 1096,
    "kered": 18275,
    "zetts": 17716,
    "Ġreven": 18031,
    "quit": 15767,
    "Ġselling": 21227,
    "Ġlit": 6248,
    "Ġbreath": 4792,
    "cruising": 12284,
    "Ġpri": 5814,
    "rosings": 15649,
    "Ġobsole": 22703,
    "Ġtrue": 1339,
    "convolutional": 4958,
    "aul": 6354,
    "Ġintent": 6410,
    "Ġcategor": 4140,
    "Ġconducting": 16652,
    "dressed": 10697,
    "Ġarmada": 23582,
    "esy": 9185,
    "oded": 11673,
    "Ġrelation": 2142,
    "ullied": 23110,
    "Ġdignity": 5704,
    "Ġhills": 6528,
    "iors": 9128,
    "Ġindignantly": 16941,
    "Ġpaced": 7584,
    "Ġreeled": 13989,
    "Ġunfor": 15844,
    "Ġbritish": 11339,
    "existence": 16019,
    "aulding": 11341,
    "Ġbequest": 21757,
    "Ġweig": 7619,
    "is": 280,
    "separated": 20162,
    "Ġpanthe": 19656,
    "Ġones": 3017,
    "Ġyet": 1028,
    "Ġyoke": 18098,
    "Ġcalendar": 18878,
    "Ġdivided": 8635,
    "Ġcumulative": 4213,
    "ergy": 2359,
    "Ġimprudently": 22387,
    "Ġcalculates": 13268,
    "Ġcolourless": 19572,
    "sequent": 6831,
    "Ġdemonstrate": 24997,
    "superstitiousness": 25509,
    "Ġslip": 8957,
    "Ġnarrower": 24354,
    "fin": 5209,
    "Ġfruitless": 25606,
    "Ġcontroverted": 23254,
    "Ġaround": 3611,
    "Ġkicks": 19771,
    "Ġdinn": 23984,
    "Ġessays": 19747,
    "Ġbrain": 2089,
    "Ġdelights": 14598,
    "Ġmccarthy": 5145,
    "Ġcell": 6239,
    "Ġenlarged": 25986,
    "Ġscratching": 20372,
    "Ġmagnific": 16324,
    "abhor": 12713,
    "rist": 10125,
    "Ġcontented": 9759,
    "Ġsage": 17754,
    "Ġmessages": 24984,
    "consist": 14819,
    "Ġgregarious": 18965,
    "Ġwallow": 19469,
    "nor": 2738,
    ";âĢĿâĢĶ": 20762,
    "Ġsadly": 7302,
    "Ġannihilation": 15169,
    "Ġpersisting": 18880,
    "Ġimp": 573,
    "Ġcomposing": 16072,
    "intelligent": 16846,
    "Ġappertain": 22219,
    "illa": 12799,
    "sense": 11526,
    ".}": 20747,
    "overcome": 19052,
    "Ġgale": 5823,
    "inqu": 6123,
    "reas": 986,
    "Ġpushed": 5911,
    "Ġsimilar": 4918,
    "Ġambergris": 8709,
    "tch": 9144,
    "Ġgurgling": 17449,
    "Ġdinner": 4246,
    "osity": 14188,
    "Ġtempest": 8214,
    "nearest": 16031,
    "ont": 2619,
    "Ġdetail": 635,
    "Ġtemper": 955,
    "unders": 13314,
    "Ġaz": 9632,
    "Ġgaz": 4044,
    "Ġabsor": 8507,
    "doms": 20837,
    "Ġbows": 4084,
    "oned": 4631,
    "Ġrelinquish": 17350,
    "Ġoccupations": 9461,
    "Ġprofits": 16492,
    "Ġeleg": 6194,
    "pressed": 6589,
    "Ġpaunch": 23750,
    "Ġsustaining": 25334,
    "mist": 5686,
    "Ġvic": 5237,
    "Ġvalued": 12187,
    "knight": 20942,
    "aling": 1034,
    "Ġrouted": 24908,
    "Ġtipt": 21176,
    "riot": 18183,
    "Ġadapted": 11042,
    "Ġhatred": 8612,
    "Ġreveren": 13200,
    "Ġrule": 1535,
    "Ġavocation": 23956,
    "Ġscotland": 6642,
    "Ġestimated": 16596,
    "Ġshavings": 14113,
    "Ġcart": 11586,
    "astrop": 3315,
    "Ġencounter": 6630,
    "prudently": 21037,
    "Ġshroud": 6484,
    "stop": 11638,
    "Ġuntrodden": 23523,
    "Ġmasks": 23331,
    "Ġtakes": 5007,
    "Ġgover": 2459,
    "elastic": 17983,
    "striving": 24670,
    "Ġarose": 7360,
    "Ġmiraculous": 13550,
    "Ġparlour": 12325,
    "Ġtruth": 3319,
    "Ġspeaking": 4026,
    "jewell": 25524,
    "inev": 21983,
    "itheat": 21341,
    "msgate": 18413,
    "Ġsolely": 9913,
    "Ġblubber": 5666,
    "Ġbagging": 24539,
    "Ġgarden": 3826,
    "exe": 11793,
    "Ġvariation": 22668,
    "Ġdart": 4586,
    "Ġinitials": 11016,
    "anke": 15566,
    "Ġpatient": 6892,
    "Ġfollow": 1398,
    "actorily": 25577,
    "Ġflooded": 24962,
    "Ġtig": 13816,
    "Ġtorture": 9067,
    "Ġstead": 5650,
    "Ġcathed": 14549,
    "subject": 6634,
    "Ġwealth": 7621,
    "Ġceiling": 7997,
    "Ġtottenham": 24145,
    "Ġdeity": 18137,
    "Ġsubject": 2462,
    "ator": 1925,
    "icuous": 10837,
    "Ġserenity": 10031,
    "brance": 7284,
    "pause": 12505,
    "zes": 11551,
    "flying": 13724,
    "otes": 15749,
    "Ġpunctilious": 26355,
    "umn": 5836,
    "Ġstability": 1362,
    "Ġdisagreeable": 9301,
    "Ġhovering": 10181,
    "Ġpatience": 2642,
    "Ġfield": 1246,
    "Ġsaluted": 14762,
    "verd": 21731,
    "Ġlevels": 12704,
    "Ġcaps": 8416,
    "F": 42,
    "Ġbraces": 14672,
    "reluct": 26164,
    "Ġrobots": 11087,
    "Ġluc": 3310,
    "Ġholder": 6726,
    "Ġflattened": 26048,
    "benefact": 24642,
    "Ġflowed": 10374,
    "Ġherb": 15861,
    "Ġhelmsman": 10507,
    "Ġnapkins": 25165,
    "remental": 21250,
    "Ġsubord": 22789,
    "impart": 21712,
    "Ġghost": 6144,
    "uendoes": 26409,
    "Ġlesson": 7276,
    "Ġfirmness": 11240,
    "aits": 20768,
    "Ġhat": 2770,
    "ric": 1378,
    "Ġinscriptions": 20012,
    "scot": 14420,
    "Ġlabel": 14518,
    "Ġconn": 9232,
    "sander": 11529,
    "Ġpounds": 5368,
    "Ġiv": 4045,
    "Ġunwell": 22019,
    "âĢĶâĢĿ": 3298,
    "ascended": 24705,
    "specimen": 26607,
    "Ġdescent": 1006,
    "Ġtended": 21169,
    "Ġwhist": 6023,
    "Ġabundant": 17157,
    "te": 993,
    "Ġcreativity": 2866,
    "imagine": 19934,
    "Ġapprehended": 26091,
    "Ġhook": 6454,
    "Ġdifferen": 936,
    "Ġarise": 7896,
    "Ġ[_": 15465,
    "Ġwardrobe": 17228,
    "pitchpoling": 25725,
    "Ġhospit": 7514,
    "Ġlandscape": 12421,
    "Ġchart": 10947,
    "urch": 3993,
    "copper": 19190,
    "Ġfathom": 17049,
    "Ġcure": 21343,
    "Ġboarded": 13237,
    "mit": 4934,
    "shiver": 16029,
    "Ġinconsist": 17938,
    "machines": 8385,
    "Ġdived": 9180,
    "Ġscaffold": 18395,
    "Ġmuslin": 19386,
    "ikes": 8087,
    "bid": 5611,
    "sharp": 10309,
    "Ġevident": 6615,
    "Ġmingling": 20200,
    "Ġrob": 1342,
    "Ġexclaim": 11223,
    "rese": 15512,
    "Ġemploying": 23981,
    "Ġlouisiana": 25079,
    "invested": 17120,
    "Ġwarmth": 6905,
    "industrious": 26241,
    "Ġwhip": 8453,
    "Ġpurplish": 19142,
    "Ġimbec": 14159,
    "Ġmuscles": 12093,
    "Ġrainy": 24341,
    "Ġans": 1645,
    "outside": 12810,
    "Ġwasting": 12734,
    "Ġinspired": 2516,
    "Ġwhile": 606,
    "Ġstatement": 5255,
    "contained": 22476,
    "enormous": 26167,
    "Ġinvolved": 8926,
    "sooner": 14781,
    "Ġhorses": 6386,
    "zealand": 26053,
    "worked": 19016,
    "Ġdip": 13910,
    "Ġalternate": 19989,
    "lydia": 6826,
    "ighted": 8479,
    "corner": 13400,
    "ames": 2881,
    "wid": 10137,
    "bble": 17487,
    "Ġcriminals": 19924,
    "Ġpand": 21458,
    "Ġbarnacled": 25537,
    "Ġcoiling": 12911,
    "Ġraised": 4661,
    "spent": 12947,
    "Ġobstinacy": 17424,
    "excepting": 19709,
    "Ġmig": 13859,
    "Ġgush": 10205,
    "Ġrepeated": 3832,
    "business": 5610,
    "razor": 21640,
    "Ġvoyager": 16514,
    "Ġhasten": 10480,
    "Ġgloomily": 14804,
    "dut": 10090,
    "affair": 14657,
    "boil": 19000,
    "Ġaugust": 10600,
    "Ġexposed": 8525,
    "_)âĢĶ": 20147,
    "georgiana": 26021,
    "Ġbooks": 4676,
    "Ġconvulsively": 25716,
    "Ġroods": 22410,
    "anche": 10790,
    "acious": 5563,
    "Ġtroub": 22360,
    "Ġwel": 4527,
    "Ġgifted": 17999,
    "Ġcomo": 21858,
    "Ġgrim": 7441,
    "Ġsurpassed": 25268,
    "verize": 21732,
    "Ġgospel": 18003,
    "declare": 25174,
    "Ġscrib": 22273,
    "Ġgroan": 13328,
    "paralleled": 14514,
    "Ġgidd": 25784,
    "gathered": 13735,
    "Ġlawless": 19438,
    "Ġmaj": 3927,
    "Ġward": 10158,
    "rage": 10845,
    "Ġperturbation": 20444,
    "Ġperilous": 7769,
    "ifully": 13187,
    "Ġexclamation": 8702,
    "tomorrow": 25915,
    "Ġscrewing": 20211,
    "Ġswaying": 15049,
    "heidelburgh": 21214,
    "owl": 12689,
    "bag": 7542,
    "Ġlordly": 23745,
    "Ġunremitting": 26219,
    "Ġprocession": 11779,
    "ill": 447,
    "executed": 25740,
    "Ġchag": 15936,
    "Ġpenalties": 10414,
    "Ġarrowy": 25470,
    "Ġrecovered": 5481,
    "Ġvortex": 26210,
    "emed": 3379,
    "gged": 3778,
    "Ġretort": 23073,
    "Ġhermit": 15862,
    "ensions": 14261,
    "Ġshaping": 22007,
    "Ġfreely": 7058,
    "Ġportions": 19372,
    "Ġrehears": 15705,
    "obscure": 23103,
    "Ġprow": 6686,
    "Ġconsistent": 14530,
    "Ġregal": 16074,
    "Ġfaithfully": 14890,
    "whalemen": 10433,
    "Ġje": 4123,
    "hors": 9601,
    "Ġrefined": 18700,
    "Ġspec": 1263,
    "Ġpreferment": 19855,
    "Ġcaulk": 25441,
    "bold": 17490,
    "frock": 20124,
    "Ġirresolute": 24917,
    "oes": 4435,
    "Ġcompre": 4450,
    "practical": 17224,
    "Ġlikewise": 5386,
    "Ġlookest": 22718,
    "bone": 5612,
    "adam": 15735,
    "Ġannounce": 13342,
    "Ġsteady": 4849,
    "Ġstro": 4596,
    "Ġdrily": 23541,
    "Ġproposed": 7460,
    "Ġwatches": 11083,
    "Ġpainted": 7979,
    "Ġupdate": 2461,
    "supplemental": 25875,
    "Ġconfiding": 19040,
    "prevented": 20377,
    "Ġunseason": 22054,
    "Ġnavel": 24577,
    "Ġregions": 10326,
    "steak": 14711,
    "Ġdesperately": 24657,
    "fif": 9119,
    "177": 20754,
    "persons": 24177,
    "Ġcathedral": 17416,
    "Ġexhibition": 14960,
    "tips": 13799,
    "Ġrobustness": 18905,
    "Ġcough": 11584,
    "Ġdanced": 7842,
    "Ġblock": 2572,
    "Ġinterval": 4054,
    "ases": 1524,
    "Ġtinker": 15135,
    "Ġsickly": 16776,
    "Ġblossom": 26313,
    "idean": 14265,
    "Ġminutes": 2998,
    "ignific": 11959,
    "Ġ166": 25007,
    "twas": 15441,
    "reat": 617,
    "Ġcatching": 9481,
    "Ġdejected": 20307,
    "Ġclimb": 15083,
    "Ġshore": 4836,
    "Ġs": 265,
    "Ġdiscerning": 25005,
    "figured": 20126,
    "Ġhurts": 19113,
    "earth": 6503,
    "Ġton": 15468,
    "Ġgaieties": 24198,
    "Ġundulations": 19518,
    "Ġdraws": 19439,
    "urday": 13998,
    "Ġbidding": 9540,
    "Ġinsol": 10183,
    "Ġhotels": 19539,
    "july": 20478,
    "Ġjail": 22298,
    "aux": 14293,
    "oundering": 11750,
    "Ġunfitted": 24111,
    "cond": 1663,
    "Ġdesiring": 14417,
    "orily": 15578,
    "Ġcharnel": 22256,
    "impl": 21710,
    "Ġswept": 7978,
    "built": 16827,
    "Ġlegendary": 20540,
    "anqu": 4110,
    "thed": 8831,
    "Ġpert": 22399,
    "Ġapothe": 12379,
    "schoolmaster": 15165,
    "Ġmacy": 19358,
    "Ġfell": 1978,
    "Ġpenn": 11113,
    "iom": 20917,
    "Ġmomentous": 16176,
    "testing": 12521,
    "Ġfin": 1460,
    "Ġsells": 21226,
    "aug": 1213,
    "Ġheeded": 13406,
    "Ġcomprised": 14270,
    "full": 7420,
    "Ġmodular": 12824,
    "brew": 11475,
    "O": 51,
    "Ġglobu": 23274,
    "Ġtraged": 9355,
    "Ġlivelihood": 24773,
    "Ġlogic": 13081,
    "Ġreckoning": 14982,
    "Ġ58": 24322,
    "Ġhedge": 8364,
    "Ġreservo": 16833,
    "disappointed": 25192,
    "Ġfatally": 19397,
    "sleeve": 26109,
    "Ġtw": 839,
    "Ġglories": 16245,
    "Ġwow": 15533,
    "Æ": 135,
    "omed": 13978,
    "Ġstratag": 26029,
    "ov": 15404,
    "Ġ133": 24782,
    "Ġdiscernment": 15072,
    "Ġrazor": 22658,
    "Ġfreshness": 23991,
    "gre": 5788,
    "Ġcity": 4530,
    "Ġobservation": 6599,
    "concluded": 11245,
    "Ġcamel": 25350,
    "vine": 10736,
    "Ġspectators": 19410,
    "Ġmultitud": 18748,
    "irene": 15919,
    "ais": 8071,
    "noticed": 14344,
    "buckets": 26124,
    "Ġwayward": 22877,
    "Ġerrone": 14433,
    "method": 17287,
    "breaking": 14768,
    "Ġmurmured": 7480,
    "utional": 17986,
    "Ġtakings": 20575,
    "wander": 17711,
    "swimming": 24261,
    "Ġrevealed": 6753,
    "Ġpoints": 5249,
    "iously": 2674,
    "Ġrounds": 18886,
    "Ġhes": 6252,
    "Ġ81": 24457,
    "stood": 4116,
    "confid": 14870,
    "Ġboxes": 13377,
    "ishness": 22346,
    "straw": 24100,
    "owal": 13996,
    "Ġscho": 4437,
    "Ġbuck": 7158,
    "Ġcheerfully": 12139,
    "Ġpleasing": 6192,
    "yard": 5901,
    "Ġeleventh": 23372,
    "Ġblaze": 16224,
    "utted": 15666,
    "tically": 3391,
    "Ġwhatsoever": 18456,
    "lived": 12491,
    "Ġcorpse": 6641,
    "derest": 18316,
    "Ġmistifying": 23721,
    "Ġthrilling": 19751,
    "Ġcedars": 20295,
    "Ġdispleased": 18556,
    "Ġunderstand": 831,
    "Ġmary": 3844,
    "onents": 8781,
    "inement": 11560,
    "nursery": 26401,
    "Ġthickness": 13281,
    "Ġapproaching": 6285,
    "Ġcobbling": 20526,
    "Ġtribes": 20484,
    "Ġpubl": 3941,
    "Ġslink": 23167,
    "Ġslacked": 25189,
    "Ġopera": 23428,
    "Ġliberties": 19670,
    "Ġwar": 5526,
    "Ġrain": 5005,
    "Ġretire": 10385,
    "verbally": 25361,
    "Ġsorts": 6887,
    "Ġpolitics": 19227,
    "Ġchap": 5935,
    "Ġnaturalist": 22888,
    "Ġbased": 3338,
    "pit": 3983,
    "Ġconfid": 7687,
    "Ġpark": 5465,
    "ow": 325,
    "swallow": 24260,
    "thought": 3849,
    "ignorance": 17164,
    "Ġsy": 491,
    "Ġaltern": 7394,
    "Ġnay": 5711,
    "magn": 10613,
    "R": 54,
    "treatment": 20415,
    "_,âĢĿ": 6220,
    "Ġspikes": 22140,
    "Ġdeterminate": 23008,
    "Ġmaintain": 856,
    "worm": 15457,
    "ential": 826,
    "Ġerection": 24004,
    "represented": 20198,
    "Ġdrows": 21438,
    "conduct": 11801,
    "mology": 12496,
    "Ġdir": 21424,
    "Ġhandles": 22700,
    "Ġfierce": 7437,
    "neighboring": 20620,
    "Ġembarrassment": 10629,
    "Ġfresh": 3669,
    "ober": 15410,
    "Ġunprincipled": 20710,
    "bit": 3933,
    "letters": 13177,
    "orum": 12596,
    "Ġtestament": 23230,
    "Ġfiddle": 25445,
    "Ġcovent": 16079,
    "holes": 12058,
    "Ġagent": 6279,
    "confirmation": 26090,
    "leep": 4635,
    "arcy": 1275,
    "Ġarrive": 6907,
    "!âĢĻ": 3331,
    "protest": 24812,
    "bb": 2797,
    "tering": 3807,
    "Ġmizzen": 20292,
    "precision": 4332,
    "Ġtimes": 2303,
    "Ġannoy": 17201,
    "Ġpresum": 4839,
    "Ġlibrary": 6424,
    "Ġoff": 903,
    "hyme": 19612,
    "Ġqueens": 16705,
    "solut": 3363,
    "Ġtorrent": 17093,
    "Ġeastern": 11632,
    "Ġparm": 15882,
    "Ġpad": 8125,
    "âĢĶâĢĻâĢĿ": 20067,
    "Ġjuncture": 17132,
    "Ġantiquity": 15234,
    "Ġbestir": 13113,
    "allowing": 24358,
    "artificial": 996,
    "old": 801,
    "Ġbeheld": 4493,
    "cell": 10689,
    "Ġadvised": 16215,
    "Ġxerxes": 23413,
    "country": 6105,
    "Ġpitchpoling": 14914,
    "Ġbarbara": 24815,
    "oing": 15405,
    "tack": 12517,
    "Ġscrew": 8867,
    "pendicular": 6500,
    "oms": 4594,
    "ured": 1655,
    "bodily": 17318,
    "omach": 11637,
    "conc": 3948,
    "Ġjumping": 13345,
    "Ġsubjected": 23574,
    "Ġgriefs": 16773,
    "needle": 20316,
    "Ġmappings": 2148,
    "Ġforfeit": 21779,
    "circumspect": 26087,
    "Ġrefreshment": 17242,
    "Ġplantation": 11425,
    "Ġmechanisms": 1577,
    "cceed": 4143,
    "Ġajar": 21205,
    "Ġrefusing": 11030,
    "pour": 17632,
    "Ġtashtego": 4487,
    "Ġfriday": 14490,
    "Ġrejected": 12298,
    "Ġsobbed": 14139,
    "Ġaxe": 15064,
    "Ġapplies": 11962,
    "Ġutter": 3975,
    "rigged": 17063,
    "Ġfaint": 5812,
    "nns": 1892,
    "Ġplanks": 5564,
    "Ġrabb": 4164,
    "Ġpass": 1039,
    "Ġchewed": 16377,
    "bottle": 20148,
    "Ġundiscovered": 18253,
    "Ġig": 3498,
    "mmar": 951,
    "bitious": 16672,
    "Ġner": 1646,
    "vere": 4884,
    "langu": 4808,
    "ateur": 22075,
    "Ġcoils": 9306,
    "Ġlargely": 14288,
    "iries": 18172,
    "ilted": 21726,
    "Ġbeings": 2487,
    "icit": 3377,
    "Ġnotice": 4543,
    "make": 5793,
    "blue": 13697,
    "wl": 17704,
    "Ġheedfulness": 24522,
    "shold": 2771,
    "merc": 19282,
    "deliberated": 26119,
    "proble": 9397,
    "Ġsighed": 10340,
    "kov": 17588,
    "Ġcaulking": 20296,
    "Ġcharacteristic": 12052,
    "Ġbeneath": 3238,
    "Ġwhit": 7178,
    "Ġxxxii": 24973,
    "choice": 21694,
    "Ġbuttoning": 17238,
    "Ġdromed": 15602,
    "Ġwestern": 10657,
    "Ġconjectured": 10000,
    "Ġsnatch": 14641,
    "Ġvocabulary": 4995,
    "Ġevaluation": 16568,
    "screen": 23000,
    "lonely": 20959,
    "sche": 13024,
    "reason": 4416,
    "Ġ$": 21153,
    "pronounced": 12350,
    "Ġforgetfulness": 14608,
    "Ġdenominated": 15232,
    "Ġaboard": 6699,
    "xter": 9149,
    "Ġtarpaul": 17732,
    "fab": 13719,
    "ropout": 1320,
    "Ġgaze": 6932,
    "Ġparade": 18302,
    "Ġroasted": 18462,
    "Ġdiscipline": 26563,
    "sample": 12511,
    "Ġenthus": 7232,
    "Ġvigilance": 12375,
    "Ġobstacles": 19838,
    "Ġbeautifully": 13270,
    "Ġmuzzle": 21324,
    "ĠâĢľâĢĻ": 22258,
    "Ġleaders": 16630,
    "Ġoblong": 14324,
    "Ġinspecting": 24614,
    "Ġnews": 3820,
    "Ġembraces": 19874,
    "pread": 7418,
    "Ġcomforter": 20510,
    "Ġcapsizing": 20092,
    "Ġaccuse": 14221,
    "Ġskul": 22798,
    "q": 85,
    "Ġexact": 2539,
    "adays": 14016,
    "Ġblacksmiths": 19875,
    "Ġchest": 5185,
    "Ġrecol": 4028,
    "Ġreserve": 9974,
    "Ġup": 462,
    "Ġbaff": 10801,
    "uttering": 12668,
    "cks": 3077,
    "Ġdate": 7841,
    "Ġshowed": 4497,
    "Ġsails": 5257,
    "Ġdreams": 7496,
    "Ġanswers": 7072,
    "Ġrapt": 7226,
    "Ġnupt": 13946,
    "Ġsummits": 14685,
    "Ġintruder": 25992,
    "grant": 10429,
    "saved": 15435,
    "Ġhers": 7889,
    "Ġholmes": 1305,
    "Ġdiscussed": 19562,
    "Ġfordham": 21780,
    "Ġmiscell": 16154,
    "Ġdisco": 3426,
    "Ġwisely": 13276,
    "laden": 14932,
    "Ġhorsham": 10408,
    "bable": 8722,
    "xi": 17712,
    "merged": 11195,
    "Ġhumor": 11053,
    "Ġbehavior": 8002,
    "Ġnind": 17952,
    "Ġstare": 10866,
    "Ġanecd": 20157,
    "Ġaddressed": 5263,
    "Ġendowed": 18925,
    "Ġbordering": 17231,
    "Ġrag": 18642,
    "ispiece": 19728,
    "Ġtask": 1307,
    "Ġmoodily": 19837,
    "Ġburden": 8611,
    "Ġcau": 13884,
    "Ġcoding": 8116,
    "Ġhumorousness": 25378,
    "Ġwitty": 21295,
    "Ġcaptioning": 23024,
    "cheerfulness": 20183,
    "Ġunheeded": 18262,
    "windows": 19537,
    "Ġnobleman": 19395,
    "Ġdifferent": 1430,
    "false": 15358,
    "avern": 24791,
    "arse": 7161,
    "Ġflatt": 16250,
    "Ġconsummation": 17428,
    "Ġtreasure": 9561,
    "Ġrending": 19470,
    "should": 3262,
    "Ġfl": 1280,
    "fri": 20856,
    "Ġhowled": 12860,
    "Ġ0": 1903,
    "gor": 547,
    "meas": 7434,
    "rapidly": 15247,
    "housekeeping": 24105,
    "Ġshipw": 12983,
    "Ġwatery": 6298,
    "Ġtraversed": 18894,
    "orney": 17875,
    "Ġrestrict": 16381,
    "Ġmainly": 22652,
    "ger": 1107,
    "Ġrecently": 11865,
    "screaming": 20328,
    "Ġhunger": 8570,
    "inging": 5908,
    "Ġfulf": 6773,
    "Ġspeedy": 11174,
    "drove": 16995,
    "blind": 16704,
    "gradient": 2273,
    "vari": 1519,
    "Ġcarcase": 14447,
    "herald": 22209,
    "Ġepo": 21624,
    "aton": 21261,
    "ĠĠĠĠĠĠĠĠĠĠĠĠĠĠĠĠĠĠĠĠĠĠĠĠĠĠĠĠĠĠĠ": 19703,
    "icism": 13959,
    "shaped": 10311,
    "ications": 4446,
    "Ġnobly": 22245,
    "astonishment": 10033,
    "Ġbrad": 8791,
    "osen": 6855,
    "inted": 2646,
    "despairing": 25077,
    "Ġhearsed": 25042,
    "ration": 2005,
    "bowing": 24454,
    "Ġstiggs": 25793,
    "ply": 6367,
    "Ġwalked": 3138,
    "impropriety": 21716,
    "Ġfootpath": 19340,
    "Ġopens": 23628,
    "Ġsetting": 7048,
    "Ġremembrance": 8318,
    "vial": 17699,
    "perch": 18337,
    "orphans": 26442,
    "Ġwent": 1538,
    "Ġbottom": 3673,
    "Ġweaver": 11691,
    "wolf": 26411,
    "oce": 10716,
    "ism": 4875,
    "resembled": 21249,
    "Ġunobserved": 18250,
    "Ġhears": 8139,
    "fact": 6360,
    "Ġcomforts": 14696,
    "pen": 1205,
    "Ġexper": 1244,
    "Ġsensitive": 13202,
    "assin": 22309,
    "Ġvindictive": 20473,
    "Ġchurned": 18385,
    "Ġrandom": 1589,
    "Ġjokes": 18409,
    "sheets": 14445,
    "ument": 5240,
    "Ġlump": 21555,
    "Ġancho": 15608,
    "Ġbashful": 20423,
    "Ġshelter": 17010,
    "tempted": 26405,
    "Ġ71": 24262,
    "poises": 11893,
    "onely": 6517,
    "Ġob": 861,
    "Ġtum": 5692,
    "Ġdischar": 11812,
    "Ġexpressing": 12013,
    "Ġlam": 21552,
    "ı": 242,
    "Ġsufferings": 7513,
    "appin": 18760,
    "Ġcumberland": 21358,
    "nosed": 20994,
    "inery": 17735,
    "youn": 5690,
    "crow": 9593,
    "Ġvel": 7186,
    "Ġlung": 7168,
    "Ġslipping": 13364,
    "Ġrepositories": 23367,
    "inferences": 17741,
    "Ġ1671": 25008,
    ";âĢĿ": 7791,
    "darted": 20834,
    "Ġdesolated": 24809,
    "fred": 20857,
    "Ġeager": 3571,
    "Ġtick": 8109,
    "Ġsquid": 11882,
    "Ġprincipally": 11311,
    "Ġwindpipe": 23111,
    "Ġkeel": 6445,
    "Ġcolours": 12980,
    "done": 6501,
    "Ġformality": 22831,
    "Ġdismember": 20218,
    "pole": 9336,
    "Ġcalf": 16269,
    "Ġsoothe": 7405,
    "shad": 10983,
    "acceptable": 25185,
    "Ġoutstanding": 22320,
    "Ġfainter": 14917,
    "estations": 22232,
    "bones": 8372,
    "_;": 6643,
    "Ġgrievances": 20650,
    "Ġbarrier": 16572,
    "lection": 3652,
    "Ġbidirectional": 3754,
    "Ġtorrents": 20059,
    "Ġapproximation": 2340,
    "reject": 21239,
    "ribed": 7693,
    "Ġbended": 21388,
    "Ġunf": 4090,
    "Ġhackluyt": 25656,
    "Ġpiece": 5367,
    "Ġfidgeted": 25890,
    "Ġcrevice": 22727,
    "Ġriv": 10748,
    "veil": 18045,
    "next": 5893,
    "Ġswallowed": 7944,
    "Ġgame": 3628,
    "Ġseasoned": 24405,
    "Ġinte": 2066,
    "Ġmasses": 10506,
    "uarded": 21108,
    "Ġheadsmen": 14735,
    "pus": 3413,
    "Ġwrithing": 11950,
    "Ġcontact": 9284,
    "lynes": 15709,
    "Ġcomprising": 16073,
    "Ġraving": 16119,
    "Ġbeyond": 2456,
    "putation": 7625,
    "Ġes": 8773,
    "falsehood": 25902,
    "Ġvolley": 24148,
    "Ġheld": 3586,
    "Ġcaptains": 7457,
    "Ġcarr": 23096,
    "Ġindomit": 22960,
    "Ġgave": 2217,
    "glad": 9011,
    "Ġgrat": 4057,
    "tranquillity": 20549,
    "Ġart": 747,
    "murmured": 24455,
    "Ġburtons": 19255,
    "Ġbull": 7839,
    "Ġpleased": 4064,
    "Į": 239,
    "Ġgnashed": 20136,
    "Ġlifted": 6986,
    "resum": 17763,
    "Ġcultivation": 17148,
    "Ġmarty": 20293,
    "Ġunnatural": 7190,
    "Ġomen": 11579,
    "ins": 1379,
    "...": 24549,
    "Ġantiqu": 12149,
    "pleasantness": 19773,
    "Ġlvi": 21556,
    "Ġresol": 2663,
    "rinted": 21046,
    "Ġnewcomer": 26041,
    "Ġbloodthirsty": 26603,
    "Ġmatrix": 1606,
    "Ġwanted": 4968,
    "supportable": 12374,
    "Ġpope": 11605,
    "apparently": 15208,
    "vous": 2252,
    "blows": 17168,
    "ipped": 5790,
    "Ġshipwreck": 20449,
    "Ġdemocracy": 25459,
    "australian": 20564,
    "luc": 9755,
    "Ġcannot": 1667,
    "Ġappertaining": 26535,
    "asional": 17962,
    "Ġdiffer": 18678,
    "gazing": 12476,
    "mopol": 15399,
    "Ġindul": 5858,
    "Ġafrican": 20140,
    "Ġpath": 2115,
    "Ġcries": 7155,
    "Ġenric": 21938,
    "Ġwrath": 16322,
    "Ġoperate": 19117,
    "Ġinclud": 1514,
    "70": 17478,
    "Ġrecess": 10849,
    "hunters": 16835,
    "disapprobation": 19159,
    "Ġdismay": 11813,
    "Ġbow": 3058,
    "hy": 4741,
    "after": 2897,
    "afraid": 10443,
    "eminence": 20102,
    "isk": 9170,
    "Ġmadame": 13153,
    "attempted": 20177,
    "fooled": 24419,
    "Ġmoreover": 6165,
    "tastes": 21099,
    "worn": 13809,
    "adow": 18090,
    "causes": 20346,
    "cele": 21628,
    "ods": 8840,
    "Ġcane": 10929,
    "Ġwaters": 3596,
    "often": 6167,
    "sent": 759,
    "Ġcult": 8786,
    "Ġminima": 3461,
    "Ġalbert": 12712,
    "endless": 22224,
    "Ġwaved": 9647,
    "Ġagrippa": 11810,
    "erne": 21272,
    "swing": 15433,
    "fully": 2201,
    "lover": 18537,
    "ances": 1337,
    "Ġgestic": 21611,
    "vely": 3867,
    "Ġquadrille": 13543,
    "Ġbroom": 18908,
    "Ġunfit": 14790,
    "Ġtattooings": 24901,
    "Ġvital": 9246,
    "ĕ": 214,
    "Ġrevolver": 14903,
    "Ġattitudes": 16101,
    "Ġshifted": 14110,
    "Ġdestiny": 8986,
    "Ġblank": 5952,
    "Ġaristocratic": 20516,
    "unsupervised": 10891,
    "Ġhawaiian": 25367,
    "gloom": 17142,
    "cord": 8727,
    "Ġobjections": 8568,
    "Ġender": 11694,
    "Ġmemoirs": 26207,
    "rest": 1632,
    "Ġloaded": 8493,
    "Ġrecurred": 18978,
    "Ġappetite": 12388,
    "Ġpeace": 3692,
    "ties": 2756,
    "origin": 7582,
    "Ġchests": 19674,
    "Ġbeaks": 21759,
    "Ġsyn": 15918,
    "Ġbespe": 19244,
    "plainly": 11092,
    "showed": 16030,
    "Ġsupplication": 25492,
    "ian": 1236,
    "Ġchildhood": 13141,
    "erect": 20850,
    "Ġsurrounded": 5880,
    "Ġorganically": 3009,
    "inferior": 12398,
    "ortions": 10950,
    "Ġtreatise": 19348,
    "possessed": 9531,
    "Ġsure": 1864,
    "paused": 17377,
    "Ġscales": 4851,
    "Ġantelope": 24183,
    "Ġpeeling": 22697,
    "Ġ117": 19700,
    "Ġultimately": 17167,
    "bright": 8992,
    "Ġsentry": 19027,
    "Ġrocks": 6863,
    "Ġtoilet": 13940,
    "sterdam": 19091,
    "Ġdependence": 18619,
    "vel": 2385,
    "Ġnurse": 9520,
    "Ġclut": 7642,
    "Ġshattered": 7884,
    "game": 11493,
    "Ġbelongs": 8015,
    "poles": 16213,
    "lemagne": 26438,
    "Ġimprobable": 9798,
    "Ġviciously": 24404,
    "Ġquivering": 12864,
    "Ġsurtout": 23467,
    "Ġsun": 1718,
    "onings": 21255,
    "arius": 14251,
    "wrote": 11549,
    "queequeg": 4335,
    "ning": 948,
    "bast": 10080,
    "Ġbattering": 13904,
    "Ġpiazza": 26452,
    "incible": 16500,
    "writhed": 26081,
    "Ġcoincidences": 26365,
    "beg": 22491,
    "Ġtight": 8108,
    "Ġto": 297,
    "Ġruskin": 25809,
    "Ġoverboard": 6046,
    "Ġtroubles": 19442,
    "Ġbert": 4583,
    "Ġboys": 5194,
    "Ġunholy": 26220,
    "Ö": 151,
    "Ġidentity": 2521,
    "Ġpaused": 5416,
    "superior": 9528,
    "Ġrecounted": 22737,
    "Ġcontradicted": 20214,
    "accepted": 20139,
    "iantly": 13742,
    "enchant": 21286,
    "beautiful": 10651,
    "Ġrnns": 2394,
    "bulwarks": 12277,
    "ber": 905,
    "Ġuniformly": 19149,
    "Ġmadly": 16488,
    "Ġcle": 1512,
    "Ġafforded": 8029,
    "Ġcasket": 19727,
    "Ġsorting": 3235,
    "Ġapproach": 853,
    "Ġwax": 10778,
    "Ġgrowing": 6752,
    "Ġegotistical": 26193,
    "Ġconsumm": 15158,
    "Ġidiotic": 25589,
    "Ġringleader": 26214,
    "Ġcountess": 11968,
    "onsible": 22565,
    "drowned": 17372,
    "Ġdetermines": 2367,
    "Ġfalsely": 20585,
    "Ġstepfather": 7222,
    "anum": 17837,
    "eral": 9162,
    "mccarthy": 15398,
    "oman": 2018,
    "Ġcourse": 2132,
    "Ġscatter": 18392,
    "Ġviewed": 10465,
    "Ġreligion": 11417,
    "vess": 7354,
    "Ġcling": 11775,
    "rebellum": 26166,
    "Ġhall": 4185,
    "etimes": 1988,
    "access": 11182,
    "buff": 15322,
    "Ġsleep": 2399,
    "Ġelucidated": 26030,
    "Ġcrony": 23440,
    "tol": 17674,
    "Ġstreamed": 14547,
    "Ġclimbing": 20073,
    "Ġfasting": 16360,
    "©": 107,
    "Ġ125": 24470,
    "Ġdolphins": 20399,
    "Ġph": 1550,
    "Ġwholly": 4448,
    "Ġcopied": 20011,
    "L": 48,
    "Ġgiant": 13971,
    "fatal": 17089,
    "arded": 5029,
    "Ġadorned": 15251,
    "Ġnaught": 8128,
    "Ġstruct": 2781,
    "sell": 13784,
    "hereafter": 19218,
    "Ġwarned": 16882,
    "Ġsly": 9635,
    "Ġresent": 6050,
    "Ġtricks": 13487,
    "Ġembal": 11905,
    "plunging": 25988,
    "Ġlabels": 3287,
    "sad": 11523,
    "Ġ122": 24467,
    "terrific": 25043,
    "Ġtendency": 11331,
    "Ġsobbing": 14138,
    "bbing": 6325,
    "Ġimpetuously": 20375,
    "afflicted": 23780,
    "anning": 10167,
    "Ġenable": 684,
    "Ġnortheast": 23205,
    "Ġfitted": 6245,
    "Ġemail": 19076,
    "Ġactively": 18654,
    "Ġpo": 739,
    "gaze": 17559,
    "Ġodor": 12154,
    "Ġshoreless": 24297,
    "Ġgreenness": 23768,
    "Ġdarted": 4759,
    "Ġaffairs": 6877,
    "Ġcrowd": 6338,
    "Ġcam": 10164,
    "Ġsacrific": 15020,
    "Ġlub": 15654,
    "yl": 7818,
    "sigma": 3000,
    "Ġso": 433,
    "Ġposit": 1303,
    "Ġassertion": 13492,
    "Ġmilk": 6486,
    "Ġenables": 725,
    "compar": 14358,
    "Ġimperson": 14217,
    "Ġcompromising": 22577,
    "Ġsighs": 22712,
    "Ġremoving": 12121,
    "Ġstab": 10864,
    "ÿ": 192,
    "Ġstolen": 14010,
    "unity": 4152,
    "Ġmabel": 17327,
    "ather": 741,
    "ading": 5091,
    "Ġblueprints": 13174,
    "Ġyoked": 15740,
    "oused": 6558,
    "manners": 16188,
    "unning": 4494,
    "Ġbecomes": 6397,
    "Ġwantonly": 22896,
    "ram": 13975,
    "oubtedly": 6943,
    "answering": 26005,
    "Ġagonising": 25374,
    "Ġqueer": 4479,
    "inct": 3291,
    "Ġprobed": 18733,
    "Ġbraced": 16582,
    "Ġassures": 14469,
    "Ġemer": 5960,
    "eringly": 23007,
    "Ġsentence": 6189,
    "Ġd": 284,
    "Ġmoran": 9345,
    "Ġglance": 4235,
    "Ġanticipation": 17058,
    "Ġgained": 4535,
    "orious": 6009,
    "Ġtame": 17724,
    "jabez": 20935,
    "splinter": 25211,
    "Ġlangsdorff": 15280,
    "Ġchimer": 24603,
    "prisoner": 20546,
    "ual": 945,
    "iest": 4037,
    "Ġbeque": 18083,
    "Ġwakes": 11575,
    "oice": 1385,
    "Ġimpenitent": 26550,
    "Ġanyone": 4460,
    "formed": 2551,
    "Ġwoke": 21292,
    "Ġshepherd": 14155,
    "ulatory": 15773,
    "Ġintended": 5548,
    "cial": 2645,
    "Ġsanguinary": 25930,
    "accessory": 25500,
    "¨": 106,
    "Ġassign": 11111,
    "iating": 3206,
    "uts": 8820,
    "Ġguardians": 14946,
    "east": 9118,
    "Ġhabit": 6772,
    "Ġstorms": 11264,
    "Ġschedu": 1824,
    "althily": 19362,
    "boxes": 16890,
    "mingled": 14716,
    "Ġshaped": 15839,
    "Ġforcibly": 10064,
    "Ġlass": 15653,
    "cd": 15326,
    "Ġskrimshander": 22801,
    "itories": 15554,
    "Ġdevious": 22720,
    "Ġpersonality": 16480,
    "Ġimpressive": 15001,
    "Ġcotton": 17382,
    "Ġending": 18924,
    "Ġfundamental": 3011,
    "confused": 19642,
    "Ġpunctures": 25136,
    "Ġabout": 633,
    "Ġresolute": 19247,
    "Ġclaws": 15972,
    "Ġeasterly": 25963,
    "ening": 3101,
    "endure": 22223,
    "Ġclearer": 16316,
    "Ġsought": 5010,
    "cat": 15327,
    "sheltered": 25586,
    "Ġbroken": 3446,
    "Ġperu": 14225,
    "Ġlest": 6396,
    "Ġenlar": 15805,
    "Ġtrample": 20330,
    "aneously": 4060,
    "Ġundet": 16703,
    "Ġbenef": 3486,
    "Ġtongues": 14866,
    "ross": 808,
    "Ġwoe": 4794,
    "shut": 10982,
    "grin": 19107,
    "Ġpurpose": 2706,
    "Ġsuggest": 5417,
    "Ġnavies": 16902,
    "Ġcrest": 12946,
    "sper": 4436,
    "Ġretreating": 19802,
    "Ġsisterly": 16308,
    "Ġtapped": 11556,
    "Ġpalms": 8647,
    "Ġdispleasure": 16057,
    "Ġserve": 9371,
    "someone": 14565,
    "high": 6652,
    "bod": 12441,
    "Ġanimation": 11154,
    "Ġcares": 9369,
    "Ġhurled": 10431,
    "Ġmutable": 23958,
    "Ġ65": 24368,
    "ĠĠĠĠĠĠĠĠĠĠĠĠĠĠĠĠĠĠĠĠĠĠĠĠĠĠĠĠĠĠĠĠ": 2735,
    "Ġdimension": 3242,
    "absolute": 17125,
    "Ġforts": 21776,
    "Ġunceasing": 20361,
    "Ġrequesting": 24633,
    "Ġthunder": 4825,
    "Ġpocket": 4899,
    "Ġteacher": 22918,
    "Ġcoral": 11925,
    "Ġvalleys": 14922,
    "Ġtalker": 23374,
    "Ġclients": 19735,
    "metals": 24765,
    "Ġheaths": 25973,
    "Ġfir": 17879,
    "rote": 4593,
    "uns": 21874,
    "fell": 6953,
    "source": 11528,
    "mastod": 23977,
    "cook": 8270,
    "hence": 16627,
    "crews": 15045,
    "zag": 17715,
    "shot": 2118,
    "Ġduncan": 13464,
    "Ġcottagers": 6762,
    "!_": 7329,
    "Ġtelegra": 11896,
    "accusations": 23601,
    "Ġ19": 6721,
    "Ġcravat": 26308,
    "Ġservices": 11219,
    "Ġmight": 961,
    "called": 6294,
    "adv": 4537,
    "Ġprices": 15617,
    "usion": 3299,
    "Ġsalt": 8017,
    "using": 5468,
    "position": 15417,
    "Ġmumbled": 17809,
    "Ġumbrella": 15269,
    "icher": 9205,
    "Ġtransformed": 22615,
    "Ġbraz": 19361,
    "Ġcollectively": 19971,
    "hed": 671,
    "moment": 3579,
    "Ġpanic": 11288,
    "Ġgrain": 15836,
    "iant": 5427,
    "Ġbluff": 16520,
    "Ġplead": 14458,
    "ê": 171,
    "mews": 22716,
    "intu": 22936,
    "splice": 17173,
    "Ġpossessing": 16578,
    "Ġlay": 582,
    "Ġmurmuring": 23581,
    "Ġven": 4648,
    "Ġtitle": 11410,
    "Ġcount": 1816,
    "Ġhilariously": 25451,
    "Ġdata": 517,
    "Ġdistrusting": 25056,
    "Ġmaids": 19694,
    "Ġfortifications": 23622,
    "Ġcondescension": 10621,
    "Ġdarker": 13123,
    "accompl": 9883,
    "laz": 15389,
    "mockery": 24378,
    "Ġmanxman": 9568,
    "Ġapp": 495,
    "atement": 17775,
    "ant": 438,
    "._": 3220,
    "Ġwilling": 7421,
    "thr": 12766,
    "ostentatious": 20654,
    "astron": 22173,
    "Ġlabyrinth": 13683,
    "Ġgambler": 26192,
    "Ġsakes": 18327,
    "Ġjury": 5378,
    "Ġtalked": 4422,
    "Ġapothecary": 13662,
    "sideways": 14573,
    "happiest": 19334,
    "gainst": 25144,
    "Ġgryphon": 4301,
    "promised": 12256,
    "shattered": 22458,
    "fierce": 25256,
    "Ġcoldness": 23760,
    "Ġtomahawk": 7539,
    "ushion": 14723,
    "Ġcommonplace": 11098,
    "now": 548,
    "journey": 8748,
    "Ġcome": 1240,
    "bare": 12445,
    "Ġabandoned": 8352,
    "Ġpatterns": 1214,
    "lost": 8891,
    "Ġcluster": 13574,
    "Ġgranted": 22812,
    "Ġmastiff": 23726,
    "beards": 22495,
    "Ġgrop": 12670,
    "Ġparc": 10922,
    "Ġflail": 23011,
    "lays": 14925,
    "somewhat": 11162,
    "Ġperilously": 24507,
    "valu": 1714,
    "Ġsir": 1571,
    "male": 15392,
    "ć": 200,
    "glo": 8741,
    "moored": 22709,
    "Ġintegrated": 13533,
    "Ġchristmas": 6924,
    "Ġhel": 3787,
    "Ġthack": 21520,
    "ied": 941,
    "Ġemm": 18005,
    "quadrille": 20598,
    "Ġweak": 5098,
    "Ġconcealed": 7495,
    "Ġdeliverer": 11955,
    "Ġdeprec": 15763,
    "Ġblush": 14405,
    "Ġbasis": 16963,
    "Ġdue": 3845,
    "Ġnever": 1019,
    "Ġinferred": 14503,
    "Ġthirteen": 15278,
    "Ġcrater": 16439,
    "Ġdiscrete": 2474,
    ".âĢĶ": 4250,
    "Ġpostscript": 14811,
    "phants": 9323,
    "Ġtenants": 23550,
    "Ġpred": 665,
    "know": 2318,
    "Ġ63": 24366,
    "ois": 9137,
    "Ġanticip": 7507,
    "Ġmanilla": 15964,
    "kick": 20938,
    "Ġworshipper": 25693,
    "Ġquadru": 16009,
    "Ġreputed": 18038,
    "Ġlater": 6018,
    "report": 13402,
    "Ġfling": 9663,
    "Ġwinking": 17795,
    "sprinkling": 24913,
    "Ġfreshly": 23990,
    "Ġmississ": 18840,
    "Ġoverlooked": 15979,
    "Ġperforms": 11881,
    "herds": 22207,
    "Ġconfide": 13102,
    "Ġspirits": 3698,
    "Ġeliminating": 20623,
    "Ġequilibrium": 4141,
    "crane": 24090,
    "Ġpreposter": 12828,
    "Ġinterlacing": 22582,
    "Ġflo": 2586,
    "Ġtheatre": 21281,
    "yonder": 21147,
    "Ġboats": 2634,
    "Ġinfluence": 5515,
    "ropol": 10955,
    "Ġelopement": 10332,
    "Ġgirth": 13139,
    "deepest": 22854,
    "adieu": 26202,
    "matter": 5136,
    "bingleys": 19637,
    "Ġfrankenstein": 7097,
    "Ġblinds": 8007,
    "invari": 21187,
    "mercenary": 26316,
    "Ġeasiness": 23537,
    "alley": 23025,
    "Ġcherish": 10592,
    "carry": 19529,
    "Ġbon": 8790,
    "bur": 4687,
    "idious": 11665,
    "Ġmethod": 1402,
    "Ġdisreputable": 22538,
    "Ġscratch": 25565,
    "Ġplausible": 26555,
    "Ġhousings": 21496,
    "Ġconstantinople": 19840,
    "Ġforgetting": 3432,
    "Ġelaborate": 18638,
    "Ġsustained": 13485,
    "accomplished": 17214,
    "Ġpatentee": 25587,
    "xic": 9148,
    "Ġdishonoured": 20394,
    "Ġdine": 7366,
    "Ġfugitive": 17330,
    "Ġopenshaw": 7955,
    "unhesitatingly": 26498,
    "alot": 15631,
    "Ġprivile": 8649,
    "Ġlongbourn": 3507,
    "questions": 16762,
    "Ġapply": 1779,
    "Ġdevote": 10341,
    "Ġconveyed": 8335,
    "Ġknot": 7013,
    "tha": 15828,
    "Ġrely": 8825,
    "Ġtoward": 17949,
    "reng": 4002,
    "Ġappet": 9734,
    "instinct": 19546,
    "agrad": 2744,
    "Ġbrothers": 13178,
    "Ġaffl": 14389,
    "Ġcrackling": 24961,
    "Ġswamp": 14439,
    "Ġperplex": 2713,
    "Ġignorantly": 19498,
    "Ġencouragement": 13047,
    "Ġiroqu": 21622,
    "Ġjumped": 7098,
    "nett": 16225,
    "Ġrus": 14095,
    "Ġcompan": 2174,
    "Ġregarded": 5762,
    "==": 944,
    "Ġexponential": 1063,
    "wish": 8100,
    "Ġbake": 21385,
    "Ġsinews": 20290,
    "amples": 1823,
    "skin": 10571,
    "fleece": 19951,
    "Ġstaggering": 20276,
    "ob": 1422,
    "Ġillustration": 19137,
    "Ġslu": 13839,
    "Ġsurve": 9877,
    "Ġirrespective": 23378,
    "Ġtoo": 1165,
    "Ġreappeared": 21668,
    "Ġinfluenced": 19635,
    "Ġmistress": 8615,
    "atible": 17774,
    "ior": 2039,
    "Ġenumerating": 15248,
    "Ġeffaced": 18541,
    "Ġpit": 3418,
    "preced": 10312,
    "Ġreplen": 11116,
    "Ġwandered": 6930,
    "Ġamelia": 26253,
    "Ġmassacre": 20550,
    "Ġspring": 4121,
    "oak": 21005,
    "satisfy": 16894,
    "Ġmorbid": 16241,
    "ĠĠĠĠĠĠĠĠĠĠĠĠ": 12906,
    "ug": 1769,
    "Ġcaring": 23097,
    "oura": 1064,
    "Ġcongregational": 25105,
    "asleep": 21547,
    "Ġasleep": 6836,
    "Ġostens": 25276,
    "Ġomin": 11580,
    "utarch": 15667,
    "Ġorb": 22095,
    "Ġsultanism": 25889,
    "Ġcetus": 19887,
    "Ġextant": 18690,
    "Ġkindled": 19033,
    "Ġbehaved": 13256,
    "liter": 11504,
    "Ġaffronted": 22895,
    "Ġhyp": 3873,
    "Ġadds": 1807,
    "prosper": 19102,
    "Ġwashes": 21865,
    "Ġmal": 5221,
    "fav": 6649,
    "Ġbumpkin": 20203,
    "ones": 2740,
    "Ġturbulence": 26599,
    "Ġromantic": 8031,
    "ifferent": 4264,
    "Ġprayers": 12128,
    "Ġhypotheses": 4388,
    "Ġpanting": 11606,
    "Ġtender": 5753,
    "Ġgnawed": 25168,
    "inquir": 9539,
    "Ġ67": 19663,
    "Ġradiating": 24331,
    "Ġstum": 21735,
    "Ġfisher": 3222,
    "mond": 20976,
    "emberley": 4171,
    "mad": 5281,
    "ilar": 10218,
    "folly": 20864,
    "Ġproceedings": 9910,
    "investments": 25533,
    "fleet": 15016,
    "Ġadler": 8174,
    "rers": 14721,
    "vices": 21119,
    "ifer": 11688,
    "Ġbridle": 24682,
    "ceased": 21629,
    "000": 2557,
    "Ġdisapprobation": 16063,
    "Ġorthodox": 22099,
    "Ġbab": 5291,
    "Ġimple": 1746,
    "Ġknowledge": 1448,
    "Ġenriched": 26501,
    "ishop": 9745,
    "ĠĠĠĠĠĠĠĠĠĠĠĠĠĠĠĠĠĠĠĠĠĠĠĠĠĠ": 13391,
    "Ġgrenadier": 21619,
    "Ġrapidly": 3234,
    "Ġobligation": 13247,
    "Ġawake": 8272,
    "Ġbats": 13903,
    "thorough": 21989,
    "Ġeldest": 6573,
    "Ġexasperate": 20101,
    "Ġbabes": 24425,
    "Ġcellar": 8059,
    "ships": 5486,
    "Ġluxury": 20135,
    "she": 1399,
    "pass": 4292,
    "Ġhish": 21917,
    "Ġveracity": 23892,
    "Ġobstacle": 16957,
    "stead": 10848,
    "Ġgrec": 18962,
    "Ġspe": 821,
    "eous": 13715,
    "presbyterian": 26370,
    "Ġdisput": 14258,
    "Ġprotect": 6339,
    "transferred": 24514,
    "Ġdoran": 9182,
    "Ġdilig": 8350,
    "Ġacquitted": 18899,
    "response": 25763,
    "Ġfetching": 16898,
    "Ġcloudy": 19480,
    "ical": 754,
    "air": 1003,
    "Ġmat": 1148,
    "approbation": 11460,
    "Ġsincerely": 7963,
    "Ġchair": 3661,
    "Ġmeth": 1371,
    "failed": 20865,
    "owing": 7602,
    "Ġbond": 21387,
    "Ġskirts": 14355,
    "Ġord": 3735,
    "Ġrelate": 6875,
    "Ġcrouching": 23443,
    "growing": 13736,
    "Ġfond": 4756,
    "Ġtransmit": 10307,
    "Ġhospitals": 24924,
    "Ġsooner": 5573,
    "shaw": 6864,
    "attendants": 25496,
    "shed": 8095,
    "Ġcolonies": 14379,
    "²": 115,
    "nder": 20989,
    "Ġsmo": 2699,
    "Ġpaddle": 20062,
    "Ġafternoon": 6054,
    "Ġerad": 25031,
    "Ġheedful": 19743,
    "Ġdism": 9770,
    "Ġmanly": 22328,
    "Ġmout": 17800,
    "Ġrags": 18646,
    "Ġsigh": 10339,
    "Ġworkflow": 2495,
    "ashions": 16422,
    "Ġbandaged": 16844,
    "som": 3290,
    "nut": 12499,
    "aken": 1868,
    "Ġlurk": 13386,
    "Ġexceptions": 13233,
    "xible": 13811,
    "Ġfireplace": 13148,
    "pertaining": 22183,
    "mus": 10113,
    "Ġgenerative": 5644,
    "Ġobedient": 20108,
    "served": 5043,
    "Ġvideos": 13609,
    "ox": 9136,
    "Ġchains": 8251,
    "heard": 5009,
    "Ġrephrased": 26479,
    "seized": 14038,
    "protected": 19923,
    "pretending": 17042,
    "considerable": 10551,
    "anations": 12582,
    "Ġperpetually": 17071,
    "Ġacross": 1331,
    "pra": 15411,
    "wealth": 22691,
    "Ġblended": 16223,
    "fortunately": 9453,
    "Ġeste": 6085,
    "terday": 4705,
    "Ġunrival": 22049,
    "erative": 21275,
    "Ġbid": 6133,
    "stumps": 21662,
    "Ġeconomy": 17203,
    "Ġtorm": 5434,
    "answ": 15889,
    "Ġ13": 6720,
    "Ġlatter": 3989,
    "Ġlectures": 17181,
    "Ġdisorder": 16056,
    "Ġlullaby": 20591,
    "Ġcomfortably": 16617,
    "zy": 2667,
    "Ġrouse": 15826,
    "Ġ54": 24318,
    "to": 714,
    "Ġdomineer": 23657,
    "ev": 6952,
    "Ġrequ": 790,
    "Ġnegro": 6448,
    "Ġparticulars": 5754,
    "Ġused": 2059,
    "ellent": 3760,
    "iffs": 9025,
    "savagery": 25028,
    "Ġdeference": 10883,
    "¼": 125,
    "Ġreplace": 14478,
    "Ġrates": 1407,
    "Ġsquint": 22840,
    "fish": 3514,
    "collar": 19330,
    "Ġlevel": 5020,
    "queen": 12733,
    "ustom": 3790,
    "Ġprocedures": 9415,
    "Ġcheerily": 13311,
    "Ġmoon": 4609,
    "nay": 7137,
    "ribe": 1224,
    "Ġhysterical": 26093,
    "ortunities": 15945,
    "Ġcircumstance": 4987,
    "ľ": 255,
    "Ġtransl": 2827,
    "embraced": 25807,
    "summit": 23419,
    "Ġclung": 10960,
    "presently": 9810,
    "Ġmasterless": 23998,
    "Ġallurements": 22011,
    "loun": 17590,
    "Ġperdition": 15997,
    "mises": 20980,
    "Ġequinoctial": 20535,
    "retched": 3066,
    "Ġsnows": 14729,
    "Ġconfeder": 25708,
    "Ġlimping": 23549,
    "asp": 3339,
    "ercely": 12555,
    "Ġreplay": 5047,
    "Ġdrive": 5055,
    "ik": 17573,
    "Ġkicked": 10584,
    "Ġ38": 24083,
    "rann": 21047,
    "deacon": 22151,
    "theast": 21752,
    "clut": 23155,
    "Ġtravelled": 7772,
    "Ġnote": 4265,
    "Ġflu": 3277,
    "treat": 12518,
    "Ġbeen": 627,
    "consideration": 14958,
    "Ġhogshe": 20495,
    "Ġelig": 9781,
    "Ġranging": 8481,
    "Ġimperfectly": 25727,
    "ortment": 22260,
    "Ġ103": 24411,
    "ele": 9117,
    "Ġengland": 3858,
    "tossed": 10998,
    "Ġpolicy": 10459,
    "Ġbrides": 22869,
    "Ġcontent": 5034,
    "antic": 1605,
    "Ġthrice": 10578,
    "Ġinducements": 24968,
    "Ġmetaphys": 16403,
    "stige": 21664,
    "Ġrest": 1783,
    "Ġfive": 2835,
    "Ġincluding": 2850,
    "Ġnormalizes": 1862,
    "maritime": 24176,
    "Ġsuccessful": 9926,
    "Ġresounds": 22546,
    "Ġruddy": 17128,
    "voyages": 24856,
    "Ġassum": 4065,
    "Ġcommunicates": 24547,
    "tell": 1381,
    "Ġfo": 1652,
    "Ġcake": 12575,
    "Ġstockings": 20000,
    "hamlet": 23265,
    "urned": 9309,
    "Ġcomfor": 14057,
    "Ġg": 310,
    "Ġexhib": 6351,
    "Ġoblique": 20172,
    "Ġ30": 10514,
    "rospect": 11615,
    "Ġchoosing": 19593,
    "finish": 24384,
    "Ġspecialized": 3921,
    "Ġaffrighted": 13575,
    "Ġloss": 824,
    "arks": 2844,
    "work": 1732,
    "kish": 20936,
    "Ġcomprehens": 8320,
    "Ġcleans": 18950,
    "Ġhurriedly": 11251,
    "anous": 21362,
    "fishermen": 17062,
    "Ġcrawled": 17045,
    "Ġ77": 24266,
    "teen": 6371,
    "Ġinstruments": 12228,
    "Ġdriven": 6200,
    "Ġthat": 335,
    "brary": 5755,
    "Ġpuzzled": 7317,
    "Ġpan": 5082,
    "Ġparametric": 2395,
    "Ġlanguage": 644,
    "Ġnorthwards": 19549,
    "Ġchancing": 22252,
    "itud": 2931,
    "Ġconverts": 2802,
    "Ġhoard": 23355,
    "tling": 9145,
    "Ġmem": 2165,
    "Ġcontain": 1555,
    "Ġawful": 6201,
    "contempt": 13193,
    "Ġridic": 7508,
    "Ġbackwoods": 22663,
    "jud": 4482,
    "Ġwag": 10777,
    "Ġ7": 4746,
    "Ġsigmoid": 2460,
    "Ġkissed": 10048,
    "Ġawkwardness": 13490,
    "Ġgenerating": 12861,
    "takes": 21079,
    "Ġseedy": 21959,
    "Ġmonotonous": 13266,
    "Ġjoining": 13167,
    "people": 7677,
    "ù": 186,
    "Ġinvective": 26183,
    "Ġowest": 25094,
    "endent": 15922,
    "Ġfrolic": 23928,
    "Ġphrenologist": 25608,
    "Ġwarden": 17227,
    "sweeping": 24619,
    "Ġconfession": 11237,
    "Ġanomalous": 25638,
    "Ġsympathetic": 17362,
    "difficulty": 12394,
    "Ġbleached": 24396,
    "unfearing": 21896,
    "Ġjo": 2607,
    "anything": 5518,
    "Ġsurpasses": 25269,
    "Ġumbrell": 13653,
    "plings": 11701,
    "Ġrepair": 11983,
    "Ġindignation": 8347,
    "Ġtrapped": 23079,
    "Ġreigning": 15706,
    "later": 20955,
    "Ġsharp": 2413,
    "Ġindicates": 3191,
    "ĠĠ": 352,
    "mitted": 5213,
    "Ġlances": 6985,
    "sea": 4764,
    "Ġapprehens": 5682,
    "thanking": 24326,
    "Ġschooner": 16749,
    "Ġsurface": 5119,
    "Ġaffords": 16736,
    "quently": 9705,
    "Ġspinning": 15055,
    "Ġgangs": 21612,
    "Ġaddition": 1147,
    "Ġmant": 9650,
    "Ġstrife": 18614,
    "franch": 24286,
    "barrels": 15044,
    "roses": 17959,
    "sometimes": 5973,
    "Ġfiver": 22778,
    "Ġske": 4816,
    "Ġsmoking": 6430,
    "Ġwines": 21290,
    "Ġsoo": 15866,
    "Ġsallied": 12542,
    "Ġapprobation": 10987,
    "Ġlees": 18078,
    "Ġvengeance": 5886,
    "hatchet": 24819,
    "Ġunho": 18246,
    "apothe": 22338,
    "Ġvariety": 8533,
    "Ġconsistence": 23359,
    "Ġtrait": 23077,
    "Ġgeneva": 5450,
    "furn": 10094,
    "Ġinducement": 16845,
    "Ġinsects": 25647,
    "laborers": 23919,
    "Ġsubproblems": 12962,
    "points": 14396,
    "Ġrecommendation": 17027,
    "Ġlodger": 24097,
    "inously": 21189,
    "riet": 18182,
    "aimed": 3953,
    "Ġtwitching": 25684,
    "Ġcongenial": 12415,
    "uble": 21105,
    "Ġwavering": 23283,
    "achusetts": 20712,
    "abashed": 21796,
    "aven": 8210,
    "Ġmartin": 25437,
    "allah": 5839,
    "they": 1879,
    "leather": 13893,
    "Ġpeter": 10538,
    "Ġwindward": 6885,
    "Ġcyp": 21348,
    "five": 6358,
    "ject": 875,
    "Ġseen": 1369,
    "Ġthimble": 15642,
    "Ġkiss": 8183,
    "Ġaffidav": 18790,
    "igner": 21705,
    "married": 9952,
    "Ġtilted": 20416,
    "Ġalbertus": 25649,
    "Ġdearest": 5457,
    "Ġgrowled": 19285,
    "Ġindividuality": 14912,
    "Ġassociate": 13453,
    "Ġmim": 3102,
    "18": 20753,
    "Ġsounding": 8265,
    "Ġsinusoidal": 4802,
    "Ġdiscomp": 11870,
    "Ġdoctors": 12156,
    "Ġincrust": 22554,
    "hyp": 15370,
    "Ġunmethodically": 22072,
    "Ġdiscuss": 9477,
    "supp": 4162,
    "imely": 14001,
    "Ġtester": 21175,
    "hind": 20896,
    "walton": 20252,
    "Ġmuffled": 10643,
    "herent": 2526,
    "Ġblu": 2683,
    "Ġlurked": 11293,
    "Ġlangu": 574,
    "Ġvoracity": 25987,
    "Ġemails": 13110,
    "Ġprairie": 8716,
    "Ġadvancement": 24475,
    "foreseen": 14256,
    "neville": 22469,
    "Ġgazette": 19504,
    "melted": 25207,
    "Ġunp": 12778,
    "Ġtouching": 4681,
    "Ġparadise": 11196,
    "Ġbugs": 13651,
    "against": 5872,
    "Ġpregn": 22236,
    "Ġoust": 21327,
    "Ġsuns": 23276,
    "Ġmonosy": 18853,
    "Ġincidents": 9302,
    "ne": 647,
    "ffy": 18319,
    "Ġbaleful": 24985,
    "amusement": 15286,
    "Ġpink": 12624,
    "Ġdupl": 9957,
    "Ġleatherhead": 20017,
    "Ġinsomuch": 23685,
    "Ġsuperst": 7704,
    "sol": 1792,
    "Ġheat": 5453,
    "Ġvaulted": 25171,
    "Ġintrospective": 20603,
    "quitted": 21855,
    "azed": 9402,
    "ulged": 12736,
    "Ġriver": 5411,
    "prepare": 20215,
    "lances": 15387,
    "kindness": 10508,
    "must": 3578,
    "Ġassu": 21901,
    "Ġslopes": 18943,
    "ids": 21767,
    "deficient": 23122,
    "ption": 7398,
    "aire": 10683,
    "Ġgilt": 21609,
    "Ġhereditary": 10667,
    "Ġcoals": 16080,
    "Ġdiscipl": 22786,
    "customary": 25896,
    "Ġdestroying": 14732,
    "andam": 10890,
    "Ġorganisation": 23585,
    "fluttering": 23976,
    "Ġhumane": 11888,
    "Ġpianoforte": 15277,
    "rance": 5995,
    "grief": 13734,
    "Ġglances": 10375,
    "Ġconcuss": 19048,
    "abomin": 15747,
    "Ġattempting": 14699,
    "Ġyields": 19659,
    "Ġgaping": 13972,
    "ike": 5000,
    "Ġluxuriant": 20398,
    "Ġcolonial": 22865,
    "Ġproblem": 1272,
    "ascribed": 24707,
    "etwork": 446,
    "Ġeffected": 14362,
    "Ġdeplored": 20508,
    "particulars": 11317,
    "Ġparch": 11730,
    "Ġforemast": 12010,
    "Ġapartments": 19617,
    "rant": 11519,
    "latin": 25259,
    "Ġastonished": 7089,
    "Ġtraditions": 11445,
    "Ġcronies": 23442,
    "Ġimages": 1600,
    "surround": 16760,
    "drawers": 19389,
    "Ġhamper": 19392,
    "reproach": 15190,
    "idity": 8835,
    "surf": 24215,
    "Ġungenerous": 18267,
    "Ġmeryton": 4439,
    "sue": 2078,
    "mast": 3602,
    "Ġunderneath": 16343,
    "Ġlocket": 22117,
    "Ġflexible": 23777,
    "Ġalb": 14019,
    "Ġscenery": 11458,
    "mountain": 10715,
    "Ġpolite": 9885,
    "Ġraising": 8913,
    "Ġsn": 2949,
    "Ġpreside": 18366,
    "Ġeveryday": 22772,
    "Ġsouth": 4912,
    "Ġuses": 1210,
    "ord": 668,
    "Ġprometheus": 15296,
    "beneath": 9538,
    "Ġshare": 1658,
    "Ġsheath": 14154,
    "killer": 20479,
    "Ġpers": 1345,
    "Ġexactness": 23606,
    "Ġtaking": 3250,
    "tender": 14476,
    "Ġwhipping": 21719,
    "Ġdeposited": 25485,
    "Ġpetulance": 24230,
    "rendered": 22343,
    "Ġpersuasion": 10501,
    "Ġfeet": 2258,
    "Ġthinnest": 24186,
    "Ġcollinses": 19131,
    "Ġvegetables": 15225,
    "Ġdistinguished": 8273,
    "direction": 17526,
    "E": 41,
    "rushed": 10587,
    ";âĢĻ": 15306,
    "Ġportcull": 23866,
    "restoration": 23239,
    "Ġsince": 1797,
    "eks": 4728,
    "Ġcivilised": 24247,
    "Ġphilips": 5410,
    "Ġassaulted": 25321,
    "Ġformal": 2942,
    "Ġhogarth": 25781,
    "Ġshirt": 8853,
    "Ġendure": 5957,
    "Ġfavoured": 16368,
    "Ġdefe": 21839,
    "investigations": 25534,
    "umbent": 12094,
    "Ġduty": 4071,
    "Ġrescued": 24209,
    "è": 169,
    "Ġstride": 22616,
    "Ġbills": 17862,
    "Ġostentatious": 25737,
    "Ġdogs": 7742,
    "Ġcommands": 16591,
    "Ġexclam": 6759,
    "arat": 9183,
    "Ġanteced": 26178,
    "Ġmoby": 3664,
    "Ġyellowish": 24430,
    "Ġhundreds": 4329,
    "landsmen": 25062,
    "ater": 3369,
    "Ġcongratulations": 10583,
    "sugg": 11845,
    "Ġwithdrawing": 11342,
    "Ġfrancisco": 26065,
    "iocr": 20925,
    "Ġslewed": 23388,
    "Ġgolden": 5337,
    "caut": 20814,
    "Ġshells": 20367,
    "Ġmortal": 4682,
    "Ġagents": 9769,
    "sides": 12512,
    "Ġcultiv": 13559,
    "dislike": 23496,
    "keep": 3851,
    "those": 4496,
    "Ġharder": 14452,
    "Ġin": 291,
    "downward": 16621,
    "Ġmon": 1253,
    "Ġdy": 2658,
    "rises": 17657,
    "Ġlarge": 1067,
    "Ġforeheads": 23449,
    "Ě": 219,
    "eagerly": 17319,
    "Ġmar": 1308,
    "Ġscal": 1531,
    "Ġspouting": 9442,
    "merry": 16539,
    "Ġproviding": 1360,
    "Ġparis": 8179,
    "Ġaloof": 21789,
    "Ġunit": 1849,
    "Ġcleaving": 23185,
    "suggest": 20379,
    "Ġdespondence": 25870,
    "Ġadditional": 7936,
    "lu": 595,
    "<UNK>": 3,
    "Ġhus": 3089,
    "Ġhand": 859,
    "Ġcascade": 20584,
    "rael": 21632,
    "Ġbrist": 14381,
    "Ġtra": 1387,
    "Ġenemy": 5605,
    "Ġgreedy": 3050,
    "Ġenveloped": 12213,
    "hunter": 10558,
    "ody": 1478,
    "cracy": 24691,
    "Ġfold": 5531,
    "Ġdecisions": 6704,
    "resolutions": 26165,
    "Ġfields": 2143,
    "Ġpropri": 6740,
    "Ġwoodcock": 19165,
    "itious": 8784,
    "augh": 1784,
    "Ġbethink": 12383,
    "Ġcrashes": 13128,
    "Ġantics": 24181,
    "Ġmonomania": 17086,
    "caught": 8730,
    "appointment": 24064,
    "signs": 16541,
    "Ġtrough": 15975,
    "example": 16018,
    "Ġstore": 8455,
    "Ġremarked": 3696,
    "Ġillustrate": 25068,
    "Ġtelescopes": 25691,
    "Ġniag": 21533,
    "iters": 21332,
    "strength": 13983,
    "Ġbeef": 6830,
    "general": 7489,
    "feeder": 12365,
    "Ġstared": 8456,
    "!âĢĶ": 2452,
    "Ġbird": 3755,
    "halloa": 17091,
    "whalebone": 19120,
    "cst": 10087,
    "advancing": 14839,
    "Ġpacing": 8427,
    "Ġhaggerston": 26454,
    "Ġassigned": 16315,
    "Ġep": 7385,
    "Ġenters": 11027,
    "Ġdecomposes": 5506,
    "Ġsociable": 19407,
    "tempest": 16961,
    "sery": 17663,
    "distressed": 24202,
    "Ġconflag": 20338,
    "Ġperth": 7024,
    "Ġclos": 4549,
    "Ġscreamed": 9527,
    "threw": 21988,
    "Ġradiant": 16811,
    "chers": 11319,
    "Ġdiscourage": 3114,
    "Ġjunks": 25116,
    "uning": 1310,
    "Ġcollection": 8223,
    "co": 2432,
    "Ġstanding": 2996,
    "Ġinquired": 7485,
    "Ġcre": 890,
    "iastic": 12484,
    "feren": 766,
    "sequently": 14585,
    "Ġcapture": 3383,
    "Ġportents": 14681,
    "terrible": 8468,
    "varied": 23188,
    "Ġpleases": 16302,
    "smug": 23911,
    "darker": 24516,
    "Ġaccompanied": 6781,
    "ting": 1334,
    "post": 6063,
    "Ġnetherfield": 3932,
    "Ġanguish": 5583,
    "Ġwhis": 3503,
    "Ġpeddling": 21485,
    "ceiving": 3903,
    "Ġshaggy": 13573,
    "Ġdimensions": 16574,
    "]": 65,
    "occasional": 19579,
    "Ġbible": 9322,
    "overed": 2853,
    "Ġcommentaries": 20163,
    "ldog": 21921,
    "both": 5785,
    "distinctive": 25726,
    "Ġviolent": 5117,
    "Ġcologne": 13666,
    "Ġregrets": 18590,
    "quered": 11059,
    "pistol": 17644,
    "Ġhollows": 19744,
    "Ġdiminish": 14749,
    "Ġrack": 9315,
    "Ġbridges": 24683,
    "Ġcomstock": 21862,
    "Ġreminding": 19800,
    "char": 3502,
    "indifferent": 14211,
    "Ġswart": 14437,
    "Ġsex": 8846,
    "igned": 5656,
    "Ġfishers": 19357,
    "farm": 15355,
    "Ġuntoward": 19167,
    "Ġfollowing": 4063,
    "smoke": 17225,
    "Ġchimneys": 16974,
    "Ġdull": 6385,
    "jephro": 26394,
    "Ġhighlands": 22776,
    "Ġcommence": 6169,
    "Ġnotwithstanding": 9717,
    "Ġdeclared": 5595,
    "camp": 15333,
    "ider": 21769,
    "Ġphysiognomically": 25613,
    "Ġunimaginable": 15250,
    "queens": 22913,
    "Ġcharges": 23271,
    "Ġobservant": 20113,
    "Ġunacquainted": 12782,
    "Ġconfessor": 24022,
    "Ġcorrespondence": 10597,
    "Ġforge": 8458,
    "Ġshelves": 15000,
    "Ġgrunted": 16174,
    "Ġafraid": 3530,
    "Ġringle": 18213,
    "whips": 22242,
    "humored": 19456,
    "Ġvenge": 5420,
    "Ġdeuteronomy": 15765,
    "Ġbolts": 16945,
    "Ġwillingly": 8888,
    "Ġoptimize": 1556,
    "Ġreverse": 16984,
    "Ġprized": 23222,
    "Ġsperm": 1843,
    "Ġdisposition": 5409,
    "Ġinhabitant": 19758,
    "bene": 6114,
    "beauty": 20107,
    "eyed": 11489,
    "as": 302,
    "washed": 13050,
    "Ġflattering": 13034,
    "bless": 22316,
    "Ġrichest": 26213,
    "shock": 19857,
    "idol": 21770,
    "arman": 11598,
    "Ġgathers": 24742,
    "ivation": 3108,
    "Ġfinanc": 23132,
    "Ġi": 311,
    "oars": 9617,
    "Ġrobins": 16276,
    "Ġtiller": 8968,
    "Ġarguing": 25471,
    "igning": 12687,
    "Ġidleness": 11146,
    "ette": 15664,
    "Ġrich": 2991,
    "Ġdock": 15935,
    "Ġnotorious": 18224,
    "Ġdissip": 10994,
    "Ġcrews": 8993,
    "Ġfatigued": 13468,
    "Ġgobern": 22429,
    "Ġinvolving": 18765,
    "rew": 3648,
    "Ġcro": 4874,
    "Ġforce": 5092,
    "unwholesome": 26499,
    "Ġcustomary": 8673,
    "Ġreced": 15697,
    "âĢĻ": 378,
    "Ġavail": 11228,
    "adru": 15736,
    "brow": 15319,
    "ols": 2411,
    "prehens": 9292,
    "Ġprogra": 1146,
    "Ġpronounced": 8351,
    "neighb": 16032,
    "fourth": 11330,
    "Ġsupercil": 23455,
    "Ġautonomous": 10678,
    "Ġlingering": 11381,
    "Ġunrestrained": 25555,
    "Ġschol": 17380,
    "Ġswap": 23055,
    "atherley": 7220,
    ".--": 20748,
    "Ġbent": 5149,
    "Ġalmanac": 26487,
    "Ġ101": 24409,
    "Ġdangerously": 23940,
    "Ġsig": 868,
    "larger": 24205,
    "Ġdangers": 12358,
    "Ġnone": 3223,
    "Ġprovidence": 18747,
    "Ġbarrel": 23793,
    "etian": 13962,
    "Ġsneezes": 24697,
    "¡": 99,
    "continue": 16863,
    "Ġrudeness": 17127,
    "Ġrises": 9716,
    "keeper": 5597,
    "determination": 19948,
    "Ġrumpled": 24601,
    "Ġcharacters": 9375,
    "Ġreb": 15696,
    "Ġfrederick": 15592,
    "Ġcombined": 8551,
    "Ġcountenances": 11969,
    "Ġenrapt": 21943,
    "hap": 17561,
    "Ġoverheard": 11778,
    "Ġunited": 6840,
    "bearance": 22498,
    "ske": 13785,
    "Ġadmon": 15873,
    "Ġwhelm": 25999,
    "Ġunravel": 26216,
    "Ġsimulation": 2749,
    "covery": 11173,
    "Ġinfirm": 19021,
    "Ġcompress": 21860,
    "Ġdemoniacal": 20559,
    "Ġextent": 7656,
    "Ġchuck": 8503,
    "ieved": 3230,
    "Ġrequirements": 9792,
    "Ġguineas": 16273,
    "Ġculprit": 26173,
    "Ġstrangely": 5677,
    "Ġpersevering": 20236,
    "Ġdisdained": 15012,
    "Ġfrown": 10809,
    "Ġpantaloons": 20299,
    "Ġpreparation": 13531,
    "Ġequatorial": 13511,
    "oices": 7348,
    "Ġshipmates": 6722,
    "Ġmonstr": 7668,
    "Ġslim": 18939,
    "Ġadmiring": 16483,
    "itatingly": 25278,
    "desolation": 20462,
    "acet": 5476,
    "thanked": 24327,
    "Ġincome": 7917,
    "Ġblessed": 6931,
    "Ġlouisa": 13548,
    "asy": 5296,
    "Ġpassed": 2011,
    "Ġincred": 5646,
    "sion": 8094,
    "Ġcompacted": 23510,
    "Ġpregnant": 26537,
    "chors": 11647,
    "Ġsleepy": 8268,
    "weakness": 16129,
    "disagreeable": 11165,
    "Ġheathen": 10568,
    "tone": 8766,
    "threatened": 25463,
    "mblance": 7323,
    "Ġprompted": 23819,
    "Ġhav": 12760,
    "Ġeternities": 19946,
    "last": 3803,
    "Ġhatherley": 7849,
    "Ġsumm": 3355,
    "Ġopine": 19230,
    "brown": 15321,
    "racted": 4777,
    "pointing": 12229,
    "lled": 10110,
    "Ġcountries": 13100,
    "Ġbloodshed": 23802,
    "Ġobstin": 14956,
    "turkish": 24533,
    "article": 22398,
    "Ġunallied": 22034,
    "Ġinvoluntarily": 8550,
    "Ġsurmount": 20004,
    "ibid": 18842,
    "Ġbackward": 7655,
    "sway": 15429,
    "Ġloite": 22115,
    "deception": 22149,
    "Ġencountered": 8322,
    "gorith": 552,
    "Ġbeams": 14633,
    "Ġstrictly": 12289,
    "narr": 12501,
    "bet": 6111,
    "Ġfolio": 11922,
    "ensation": 22549,
    "menced": 23149,
    "Ġsalisbury": 24068,
    "cross": 3576,
    "Ġferule": 24499,
    "Ġsloop": 25931,
    "ensity": 11817,
    "Ġproduced": 2449,
    "Ġcolleg": 22862,
    "ady": 994,
    "Ġarist": 14164,
    "infallibly": 26419,
    "Ġbusied": 19068,
    "Ġstrands": 25575,
    "deli": 15348,
    "Ġenter": 4029,
    "Ġpoultry": 17444,
    "rival": 12748,
    "astern": 8585,
    "known": 3569,
    "Ġpains": 5966,
    "Ġpossessed": 5195,
    "Ġcontingency": 26246,
    "Ġfert": 15587,
    "Ġadhes": 22106,
    "Ġinquire": 7720,
    "Ġunwelcome": 12786,
    "0": 20,
    "opolising": 25677,
    "final": 19679,
    "======================================================================": 10071,
    "impression": 15716,
    "ingu": 2121,
    "Ġornament": 11724,
    "Ġinf": 1758,
    "Ġfol": 1287,
    "Ġwoollen": 12108,
    "Ġpour": 13917,
    "Ġargu": 10936,
    "Ġyoun": 1410,
    "Ġsurveying": 25326,
    "Ġ94": 17719,
    "tottenham": 25419,
    "Ġacquies": 11099,
    "Ġlone": 11616,
    "Ġautom": 3566,
    "ĠĠĠĠĠĠĠĠĠĠĠĠĠĠ": 22567,
    "Ġpleasantly": 14522,
    "windward": 24163,
    "gely": 10702,
    "Ġsatiated": 22905,
    "Ġbeheaded": 11659,
    "Ġcarriage": 3951,
    "Ġcurly": 18846,
    "Ġinvention": 19956,
    "anywhere": 14684,
    "ques": 2839,
    "Ġwitnessed": 14847,
    "pumps": 21029,
    "athies": 22705,
    "dropped": 12267,
    "Ġpaternal": 16366,
    "Ġox": 7154,
    "Ġtreacher": 8608,
    "Ġprecise": 7077,
    "Ġparamet": 610,
    "othed": 16513,
    "therefore": 5955,
    "ogrand": 26263,
    "Ġscarcely": 4008,
    "Ġ----": 7146,
    "Ġopened": 3511,
    "salis": 25150,
    "shake": 22454,
    "Ġoutlandish": 12844,
    "iah": 14419,
    "Ġsaf": 4001,
    "Ġringed": 16752,
    "Ġnotion": 7882,
    "Ġejaculated": 15173,
    "Ġreaped": 18032,
    "Ġexciting": 23315,
    "Ġwhom": 1832,
    "Ġbowl": 11206,
    "Ġreliability": 22884,
    "Ġgrind": 18736,
    "Ġnewcomers": 26042,
    "Ġrendered": 5773,
    "most": 1257,
    "parlour": 16391,
    "Ġnigh": 4879,
    "Ġafric": 8909,
    "itan": 10162,
    "meadow": 18680,
    "Ġtoma": 7373,
    "commendation": 26351,
    "Ġbrighter": 16191,
    "Ġwhir": 6394,
    "eled": 2356,
    "shapes": 22461,
    "conceive": 16034,
    "uracy": 1117,
    "Ġ1890": 23900,
    "Ġgrudge": 20696,
    "uneasy": 23688,
    "Ġfake": 5811,
    "nerable": 16281,
    "Ġcrunched": 19122,
    "Ġnur": 5710,
    "gether": 1595,
    "Ġinstigated": 18703,
    "Ġmoments": 4847,
    "Ġbestowed": 6595,
    "Ġroylott": 7305,
    "procure": 23400,
    "Ġunass": 14117,
    "Ġcalam": 13038,
    "lean": 21368,
    "picture": 11409,
    "Ġballasted": 23983,
    "heim": 17748,
    "contrary": 23730,
    "Ġdestructive": 23488,
    "trifling": 19417,
    "Ġyears": 1891,
    "versed": 9828,
    "Ġsavoury": 23880,
    "Ġquart": 11791,
    "Ġgratitude": 5599,
    "Ġteacup": 16218,
    "eer": 15351,
    "Ġwarriors": 19726,
    "white": 4603,
    "cheered": 23807,
    "Ġpuppy": 12409,
    "iciously": 17976,
    "Ġcryst": 9920,
    "terns": 21826,
    "Ġsung": 23275,
    "Ġepistle": 24905,
    "Ġstrained": 10221,
    "Ġcem": 17825,
    "Ġancest": 12620,
    "hecy": 21209,
    "inter": 2948,
    "Ġpaint": 7708,
    "Ġbigness": 19763,
    "Ġimmersed": 19488,
    "kee": 18274,
    "Ġzeros": 3324,
    "Ġexpression": 4516,
    "Ġendurance": 23141,
    "ract": 1002,
    "Ġfeed": 2129,
    "came": 4571,
    "naturalists": 23547,
    "ubl": 3595,
    "Ġdawned": 14997,
    "ographical": 16788,
    "Ġincreasing": 8247,
    "axing": 18548,
    "Ġadapts": 3818,
    "!âĢĻâĢĿ": 16594,
    "Ġhumanity": 6733,
    "Ġtrance": 12847,
    "Ġtack": 5621,
    "------": 12138,
    "end": 496,
    "ife": 1024,
    "Ġindic": 2888,
    "Ġsgd": 3128,
    "Ġfocused": 16346,
    "umbling": 6613,
    "Ġpity": 4941,
    "ineas": 15827,
    "Ġoutstretched": 14198,
    "salesman": 20674,
    "Ġrector": 21679,
    "riumph": 4920,
    "itional": 22472,
    "Ġsouls": 6310,
    "skirted": 24489,
    "awful": 23120,
    "Ġelbow": 12927,
    "Ġrise": 5637,
    "Ġmethodically": 23092,
    "Ġandromeda": 21511,
    "Ġtwelvemonth": 12182,
    "haut": 20904,
    "Ġasiatic": 20433,
    "mrs": 3744,
    "Ġlogs": 16351,
    "agonies": 21913,
    "lipped": 16221,
    "fearing": 18530,
    "Ġbehave": 23302,
    "books": 8667,
    "Ġseventy": 7878,
    "Ġincisive": 18571,
    "Ġuntouched": 16469,
    "Ġsimil": 2528,
    "5": 25,
    "Ġcivilized": 8668,
    "Ġexcepting": 14682,
    "soul": 9143,
    "weave": 22688,
    "Ġbrilliantly": 25123,
    "Ġsort": 1508,
    "Ġalex": 15137,
    "angel": 5726,
    "Ġexpatiate": 18628,
    "your": 1985,
    "Ġlittle": 867,
    "reposed": 24492,
    "Ġabridged": 26543,
    "poled": 22909,
    "Ġblaming": 22933,
    "au": 780,
    "Ġupwards": 7634,
    "Ġchain": 1844,
    "Ġbarren": 11208,
    "Ġeaves": 15681,
    "various": 10400,
    "any": 3337,
    "Ġarts": 11010,
    "Ġunexpectedly": 19911,
    "Ġwinds": 5746,
    "mered": 8218,
    "Ġye": 900,
    "arising": 17897,
    "Ġfigures": 8633,
    "Ġinternal": 2247,
    "Ġdread": 3160,
    "hic": 3249,
    "culiarity": 11144,
    "linearity": 1651,
    "Ġheadsman": 13278,
    "Ġacceptable": 16746,
    "erably": 7573,
    "iour": 4038,
    "Ġsob": 12794,
    "Ġclifford": 22358,
    "az": 2182,
    "dried": 20829,
    "Ġrecommending": 24333,
    "Ġpeev": 22698,
    "hoping": 17568,
    "Ġdecks": 6900,
    "Ġmisgiv": 14348,
    "Ġbelieves": 14410,
    "Ġobscured": 15013,
    "Ġunbecoming": 22066,
    "jam": 15375,
    "Ġharem": 9712,
    "whaler": 20312,
    "auley": 22624,
    "buoy": 7761,
    "Ġwhel": 15871,
    "Ġpod": 15609,
    "task": 13796,
    "Ġexclaiming": 13644,
    "Ġvigilant": 20187,
    "Ġrotterdam": 25476,
    "Ġknown": 1642,
    "Ġinsights": 13182,
    "Ġcourt": 4169,
    "Ġimplicate": 24877,
    "transformer": 25018,
    "numbers": 17618,
    "rom": 420,
    "âĢĿ;": 11672,
    "Ġpagoda": 19791,
    "Ġcruelly": 13378,
    "gryphon": 15362,
    "Ġgritted": 22810,
    "excited": 13383,
    "blog": 19842,
    "outh": 2684,
    "pane": 10123,
    "Ġenchantment": 24870,
    "Ġbrief": 6977,
    "earliest": 20123,
    "Ġsticking": 13430,
    "spanish": 14334,
    "Ġhon": 2534,
    "abama": 12715,
    "Ġarea": 14189,
    "Ġagency": 11809,
    "Ġloungers": 24863,
    "Ġbells": 19604,
    "Ġguardsmen": 20633,
    "Ġbelong": 3886,
    "Ġpretty": 3862,
    "Ġdevoting": 22721,
    "iety": 2816,
    "Ġhunters": 6302,
    "regulated": 23469,
    "ribly": 8255,
    "Ġgaol": 19570,
    "Ġstroll": 13356,
    "Ġnails": 12654,
    "^": 66,
    "Ġunhappily": 18263,
    "Ġdistricts": 20266,
    "Ġsweeter": 23921,
    "Ġsymmetrical": 20370,
    "Ġhosea": 17334,
    "pious": 17635,
    "isis": 12585,
    "Ġsunlight": 13088,
    "Ú": 155,
    "Ġhoped": 5488,
    "Ġboarding": 12091,
    "Ġferoc": 14900,
    "prise": 7727,
    "Ġbinding": 20422,
    "forgot": 11035,
    "avery": 13687,
    "Ġrepute": 18037,
    "finally": 9502,
    "spouting": 25003,
    "goose": 19103,
    "Ġhumans": 8933,
    "elements": 25204,
    "Ġrightly": 13069,
    "asked": 8915,
    "Ġpertur": 12856,
    "lascar": 20962,
    "Ġworrying": 22930,
    "attached": 11939,
    "Ġunsophisticated": 25993,
    "sters": 6392,
    "ists": 4000,
    "Ġdexter": 9704,
    "hearted": 6971,
    "thes": 7391,
    "Ġconvers": 2907,
    "Ġflannel": 26579,
    "Ġachieved": 13169,
    "species": 13259,
    "Ġadmeasurements": 26227,
    "sail": 3603,
    "Ġspoilt": 24804,
    "goodbye": 12060,
    "Ġpossess": 3202,
    "Ġsuper": 2155,
    "Ġlothario": 26186,
    "Ġimply": 18444,
    "Ġtenderly": 11316,
    "ware": 3936,
    "Ġtimorous": 24228,
    "Ġphilosop": 5057,
    "Ġcanallers": 13630,
    "apan": 6860,
    "ace": 719,
    "flow": 2288,
    "Ġblocked": 19224,
    "Ġghast": 9212,
    "haust": 5777,
    "Ġoccupation": 9934,
    "Ġcontrad": 9758,
    "Ġdoubts": 8583,
    "Ġrheumatic": 20707,
    "mild": 15395,
    "Ġages": 7029,
    "ifference": 5632,
    "Ġperemptory": 25741,
    "Ġpleadings": 25854,
    "Ġsanctified": 25883,
    "Ġcatholic": 20684,
    "Ġforgive": 8010,
    "level": 2650,
    "Ġinsisted": 12050,
    "friendship": 24052,
    "Ġbay": 9171,
    "questioning": 16852,
    "urged": 18051,
    "ecess": 17534,
    "bearers": 18525,
    "ullen": 8235,
    "Ġpollard": 20389,
    "Ġlexicon": 25975,
    "Ġlace": 13952,
    "scornful": 26577,
    "Ġowning": 18746,
    "Ġhardware": 4905,
    "innocence": 15187,
    "Ġsmelling": 16071,
    "Ġbecame": 2689,
    "sales": 17669,
    "Ġincredulous": 9990,
    "endured": 22225,
    "Ġvolcanoes": 24149,
    "why": 2826,
    "Ġembatt": 18833,
    "Ġfairest": 20466,
    "Ġcloudless": 16671,
    "Ġsemblance": 20736,
    "ly": 319,
    "Ġhungry": 10535,
    "Ġsnatched": 10473,
    "Ġintervening": 17270,
    "enesis": 24388,
    "consequence": 9766,
    "Ġdard": 21425,
    "Ġimperfect": 13343,
    "eager": 12464,
    "accessible": 13642,
    "Ġvagueness": 25738,
    "Ġcontrary": 5261,
    "fellows": 12278,
    "rimshander": 20659,
    "ately": 1711,
    "Ġwarn": 5695,
    "flour": 23969,
    "Ġsickbed": 24249,
    "ę": 218,
    "Ġsoftware": 18920,
    "Ġtorn": 6001,
    "Ġmarry": 4419,
    "philosophers": 25253,
    "eon": 8733,
    "fight": 17540,
    "Ġdollars": 11457,
    "allet": 11084,
    "Ġgraces": 18226,
    "Ġcontinent": 14891,
    "Ġcab": 2630,
    "contrasted": 17309,
    "Ġcrush": 9425,
    "ineering": 21985,
    "Ġ51": 24316,
    "Ġmankind": 6700,
    "Ġkick": 5838,
    "Ġtwo": 1042,
    "Ġanother": 1737,
    "tribute": 21091,
    "simple": 13455,
    "Ġtriumphant": 12194,
    "Ġsurviving": 24637,
    "oky": 8198,
    "ald": 15630,
    "Ġevermore": 18813,
    "stained": 21658,
    "Ġprefer": 6417,
    "arrived": 12615,
    "perplex": 18339,
    "remorse": 14470,
    "Ġintegration": 9871,
    "disaster": 23495,
    "Ġturk": 6605,
    "chariot": 26481,
    "ribution": 14310,
    "Ġwatched": 6299,
    "cess": 539,
    "by": 1156,
    "Ġturn": 1296,
    "Ġfavours": 23284,
    "Ġunfav": 14791,
    "Ġseizure": 21961,
    "forest": 22522,
    "Ġvanishing": 1348,
    "Ġdirector": 18922,
    "Ġexterm": 21833,
    "Ġsuspecting": 14913,
    "arctic": 12616,
    "Ġmead": 8839,
    "Ġtrampling": 25493,
    "Ġoffic": 3184,
    "Ġconver": 806,
    "wrath": 23757,
    "inal": 15484,
    "Ġfebruary": 15917,
    "form": 497,
    "impregn": 21717,
    "Ġsal": 3939,
    "Ġplaned": 24059,
    "Ġconfound": 23307,
    "Ġforster": 5230,
    "Ġtokens": 1774,
    "Ġfix": 2506,
    "warn": 11545,
    "/`)": 13663,
    "Ġsoon": 1228,
    "sc": 1260,
    "alarms": 21508,
    "mountains": 15184,
    "inserted": 18888,
    "Ġanalyzing": 18801,
    "Ġyellow": 5302,
    "Ġpatent": 11964,
    "ras": 21039,
    "Ġminded": 23233,
    "dec": 3110,
    "elizabeth": 1987,
    "Ġtold": 2185,
    "Ġdirectors": 18923,
    "Ġsqueezed": 20039,
    "Ġfates": 15583,
    "least": 8789,
    "Ġclaret": 22355,
    "ousness": 10277,
    "Ġjohn": 5032,
    "mody": 16194,
    "Ġinvoluntary": 18766,
    "ozy": 17624,
    "import": 5668,
    "Ġtread": 9412,
    "Ġmidst": 7986,
    "helmsman": 24289,
    "Ġwave": 7576,
    "eting": 7170,
    "child": 5538,
    "steps": 9408,
    "Ġindefinite": 17179,
    "aks": 8509,
    "completely": 12424,
    "reduced": 15810,
    "Ġrustic": 14968,
    "ias": 6364,
    "isson": 23463,
    "madam": 24421,
    "Ġsam": 7569,
    "Ġrepresenting": 4061,
    "ague": 3907,
    "desper": 13222,
    "Ġrobinson": 17466,
    "iracle": 11246,
    "Ġdrank": 16538,
    "ĸ": 249,
    "Ġcanaller": 25468,
    "stating": 21650,
    "ospit": 22267,
    "luxur": 25823,
    "lust": 15383,
    "Ġdiv": 3731,
    "Ġextending": 11026,
    "Ġtwelve": 4963,
    "Ġhans": 12632,
    "Ġunfinished": 19512,
    "fi": 12466,
    "Ġavalanche": 17436,
    "Ġreferred": 8920,
    "Ġinclination": 6626,
    "Ġcorpore": 13404,
    "crucible": 24843,
    "adequately": 20322,
    "Ġjuicy": 25371,
    "Ġopal": 23627,
    "Ġpurest": 14942,
    "Ġfolk": 10378,
    "Ġingen": 9052,
    "Ġdevoid": 18681,
    "Ġoppressively": 25711,
    "Ġalas": 5923,
    "ssian": 3398,
    "ronted": 14880,
    "Ġimprec": 14216,
    "Ġwedded": 15540,
    "blubber": 15240,
    "Ġalders": 21788,
    "Ġsho": 2245,
    "across": 10327,
    "Ġlabelled": 23333,
    "confirmed": 19643,
    "reasoning": 9479,
    "lid": 20947,
    "Ġincessantly": 11413,
    "Ġmockery": 12112,
    "Ġcretan": 22726,
    "zors": 21150,
    "Ġdreaming": 11225,
    "Ġ36": 14771,
    "Ġlab": 1871,
    "Ġwip": 13856,
    "Ġrage": 5110,
    "Ġsalvation": 14761,
    "Ġadmirably": 16484,
    "onom": 9161,
    "Ġrolling": 5976,
    "Ġbeware": 8832,
    "Ġtry": 3132,
    "Ġgrinning": 9056,
    "Ġungover": 18256,
    "scans": 22993,
    "Ġdebated": 9043,
    "Ġroofs": 16987,
    "Ġexplanation": 6694,
    "floating": 12232,
    "Ġconsist": 1936,
    "Ġfeebly": 24878,
    "Ġpill": 7846,
    "const": 5940,
    "Ġcomely": 21859,
    "Ġspasmod": 12418,
    "Ġenl": 18190,
    "Ġuneasiness": 9487,
    "Ġgloried": 22991,
    "pat": 10119,
    "Ġcold": 3029,
    "Ġtestified": 16336,
    "umbria": 23898,
    "Ġsoldier": 16922,
    "Ġsupple": 23003,
    "Ġprofit": 14587,
    "Ġunbounded": 18260,
    "Ġflee": 7081,
    "Ġscandal": 9084,
    "Ġdemanding": 16807,
    "Ġcountrymen": 23597,
    "Ġaggregate": 25678,
    "character": 6333,
    "iled": 1767,
    "Ġast": 2959,
    "Ġjoyous": 14666,
    "Ġhit": 7164,
    "Ġdella": 21442,
    "Ġfolios": 23022,
    "_âĢĶâĢĻ": 13686,
    "Ġsiber": 17757,
    "Ġscr": 11764,
    "dom": 6224,
    "Ġhunks": 18938,
    "Ġhighness": 22775,
    "Ġgrew": 5182,
    "warm": 8102,
    "Ġrejoiced": 8687,
    "Ġscuffle": 20611,
    "Ġ1778": 25730,
    "clim": 18932,
    "Ġsur": 2183,
    "Ġrecollecting": 17114,
    "Ġboards": 14304,
    "Ġheading": 8938,
    "Ġreddening": 25971,
    "contriv": 19295,
    "Ġmuscle": 14691,
    "Ġdegree": 3704,
    "Ġwhipcord": 20098,
    "here": 2546,
    "attend": 11103,
    "resemblance": 25934,
    "½": 126,
    "Ġalarming": 14785,
    "independent": 26022,
    "fa": 7336,
    "Ġcode": 1719,
    "Ġcanterbury": 22172,
    "Ġbaltic": 18796,
    "earnestly": 17316,
    "Ġintimidated": 24802,
    "Ġency": 21937,
    "unned": 21882,
    "itates": 13872,
    "Ġferocious": 17422,
    "Ġsecrets": 9057,
    "still": 4221,
    "Ġplain": 2815,
    "Ġornaments": 17455,
    "gall": 6361,
    "tram": 19646,
    "Ġcramped": 23531,
    "Ġcoffin": 4430,
    "Ġdemo": 10881,
    "Ġagainst": 1697,
    "encing": 21285,
    "rift": 11522,
    "Ġharsh": 9524,
    "Ġowing": 6006,
    "Ġcolumn": 9331,
    "Ġleaned": 7608,
    "Ġnamed": 6141,
    "ridge": 9500,
    "Ġapproximates": 2416,
    "Ġtertiary": 15298,
    "Åĵuvre": 25888,
    "Ġepis": 19985,
    "Ġsub": 949,
    "iability": 20922,
    "Ġperadventure": 22402,
    "ropy": 1103,
    "Ġtigers": 25759,
    "roar": 17955,
    "Ġslighter": 18942,
    "Ġunwaning": 24830,
    "cast": 2928,
    "Ġprevail": 13445,
    "Ġseaward": 22950,
    "conducted": 25573,
    "Ġlowerings": 23648,
    "Ġmoral": 6582,
    "Ġpra": 4347,
    "epend": 3314,
    "aurus": 20563,
    "asol": 21543,
    "ip": 557,
    "Ġmoderately": 22230,
    "itors": 2915,
    "Ġshadows": 8013,
    "ascertain": 21546,
    "Ġpattering": 18673,
    "Ġconsecrate": 26491,
    "imately": 12694,
    "jointed": 24013,
    "Ġcollins": 2181,
    "sit": 13783,
    "u": 89,
    "Ġforeboding": 20387,
    "Ġshocked": 9404,
    "Ġcurious": 3360,
    "Ġthreshold": 2806,
    "Ġspectacles": 12102,
    "Ġsquall": 7045,
    "icest": 21567,
    "Ġset": 1177,
    "oton": 3607,
    "Ġcolumb": 22863,
    "seeking": 17155,
    "Ġendow": 23139,
    "Ġfidelity": 15245,
    "Ġdaybreak": 18727,
    "assure": 9272,
    "Ġaversion": 18868,
    "anque": 13891,
    "Ġtrooped": 24900,
    "Ġauthentic": 20538,
    "Ġboots": 5944,
    "Ġoily": 13867,
    "eps": 12797,
    "Ġbald": 16210,
    "Ġhissed": 15794,
    "flo": 6116,
    "Ġnephews": 24713,
    "ream": 2707,
    "hopes": 15373,
    "oftener": 23968,
    "Ġdivinest": 25722,
    "Ġhath": 12634,
    "Ġlifelessly": 23053,
    "ĠarchÃ¦": 22794,
    "Ġarguments": 8037,
    "assertion": 22315,
    "brave": 19826,
    "itted": 2439,
    "pping": 1427,
    "Ġveiled": 16205,
    "rified": 15423,
    "Ġaffidavit": 20726,
    "felicity": 25143,
    "Ġfitly": 24002,
    "Ġcrisis": 13129,
    "gered": 9279,
    "Ġlimit": 10445,
    "Ġcav": 13883,
    "Ġglow": 7171,
    "semicirc": 26493,
    "Ġemerging": 24613,
    "Ġuntutored": 19168,
    "recogn": 13428,
    "annica": 24562,
    "every": 2808,
    "Ġtwentieth": 18659,
    "ilogue": 21728,
    "Ġdiscredit": 22784,
    "Ġbaron": 19336,
    "Ġprofessional": 7299,
    "rably": 21636,
    "Ġwhiteness": 5920,
    "Ġmislead": 22760,
    "Ġisinglass": 21806,
    "ak": 538,
    "Ġamendment": 26025,
    "Ġmemories": 14557,
    "Ġxxi": 24476,
    "):": 11463,
    "Ġfew": 1197,
    "tailed": 17687,
    "Ġbund": 17865,
    "ready": 2358,
    "Ġinferiority": 17116,
    "Ð": 145,
    "Ġtags": 20574,
    "fears": 18529,
    "eat": 11485,
    "result": 12048,
    "Ġpicturesque": 14897,
    "akes": 2218,
    "assumed": 22312,
    "========": 2312,
    "corn": 13703,
    "Ġhung": 4561,
    "Ġslid": 7952,
    "ward": 705,
    "Ġregularly": 7658,
    "Ġscrupled": 25052,
    "Ġsm": 704,
    "eminent": 25107,
    "Ġproving": 15757,
    "Ġscattered": 6856,
    "Ġwords": 1326,
    "ieving": 7033,
    "Ġabruptness": 25301,
    "Ġsweating": 16466,
    "Ġjackal": 24242,
    "Ġpalm": 10516,
    "Ġscrawled": 24581,
    "mariners": 19551,
    "ariously": 18528,
    "Ġcreation": 6440,
    "nostr": 22719,
    "Ġcosmopolitan": 20643,
    "Ġq": 1086,
    "Ġfatal": 5873,
    "ital": 4819,
    "leisure": 21374,
    "Ġcrouched": 23441,
    "okingly": 22382,
    "Ġenvirons": 13189,
    "civilities": 24974,
    "ceed": 1076,
    "beheld": 11805,
    "Ġwednesday": 9087,
    "Ġmusk": 7494,
    "Ġworried": 22929,
    "Ġpeople": 2540,
    "Ġhousekeeper": 7456,
    "Ġconvivial": 16550,
    "Ġsatire": 22903,
    "Ġview": 2759,
    "interference": 23739,
    "Ġcurds": 22978,
    "Ġdecap": 16025,
    "Ġinsert": 19907,
    "Ġspur": 18304,
    "swe": 5997,
    "dil": 11480,
    "Ġmoot": 22436,
    "destined": 24117,
    "Ġsensit": 2946,
    "Ġinscrutable": 10675,
    "Ġjer": 6268,
    "osp": 6854,
    "ulates": 14058,
    "Ġtiresome": 26157,
    "Ġsettlement": 19839,
    "Ġwoeful": 19622,
    "Ġsedentary": 25431,
    "und": 4118,
    "Ġcry": 3494,
    "Ġdisquiet": 18553,
    "Ġgallantry": 15107,
    "Ġgift": 10842,
    "stache": 15695,
    "Ġavowed": 16636,
    "discredit": 24253,
    "Ġglo": 1712,
    "Ġgemin": 21613,
    "Ġtrif": 6271,
    "xt": 2082,
    "Ġrevolutions": 23845,
    "eur": 7545,
    "Ġclum": 8876,
    "Ġcrescentic": 20624,
    "somewhere": 12017,
    "Ġineff": 12640,
    "Ġgraph": 10904,
    "anity": 9657,
    "Ġtransparency": 10679,
    "Ġexquisite": 12386,
    "respect": 6375,
    "Ġdoubloon": 6945,
    "Ġgifts": 21615,
    "mai": 22916,
    "Ġsurviv": 13438,
    "omin": 4703,
    "Ġpeculiarity": 12939,
    "Ġequator": 7461,
    "apter": 1194,
    "yours": 7695,
    "Ġdiscriminator": 3390,
    "upset": 23021,
    "division": 20052,
    "tuesday": 17692,
    "uling": 2257,
    "Ġleaks": 16448,
    "Ġpump": 12627,
    "Ġstooping": 13066,
    "Ġlifts": 25359,
    "Ġwrench": 12562,
    "Ġstave": 11654,
    "alyards": 18786,
    "Ġ43": 14773,
    "Ġunimag": 12781,
    "fear": 8516,
    "uther": 8821,
    "remarkable": 13500,
    "Ġutilize": 4799,
    "Ġfabric": 25948,
    "sicilian": 21066,
    "Ġcongealed": 25982,
    "nest": 10116,
    "leviathans": 19941,
    "Ġguido": 2975,
    "blunder": 24132,
    "Ġodorous": 19569,
    "Ġimpute": 18332,
    "Ġprocure": 9513,
    "Ġeducation": 5128,
    "dripping": 16907,
    "anely": 17838,
    "Ġpersisted": 13040,
    "ulent": 21866,
    "traces": 24336,
    "Ġmelbourne": 24291,
    "Ġinterruptions": 24189,
    "Ġoct": 10161,
    "Ġsculpture": 26017,
    "apparatus": 26565,
    "Ġnat": 12651,
    "icient": 792,
    "ange": 1018,
    "ŀ": 257,
    "Ġnar": 7375,
    "hundreds": 25076,
    "byter": 16217,
    "Ġbristles": 25845,
    "construction": 19781,
    "Ġlurking": 11291,
    "bitts": 26123,
    "Ġcoolly": 9775,
    "ickering": 22673,
    "ass": 536,
    "Ġbook": 2700,
    "Ġpavement": 9580,
    "Ġdetection": 3693,
    "ood": 960,
    "Ġhorizontally": 17014,
    "Ġtremendous": 8353,
    "Ġinconven": 7587,
    "antial": 8490,
    "Ġladen": 19179,
    "bber": 4569,
    "lant": 20949,
    "Ġdood": 22246,
    "âĢĺ": 940,
    "fancy": 7337,
    "Ġzoned": 22823,
    "aurs": 20771,
    "gno": 13730,
    "Ġpia": 21467,
    "Ġimpregnable": 26024,
    "icting": 12857,
    "sembled": 7263,
    "startled": 24944,
    "saturday": 14861,
    "theirs": 23604,
    "Ġfulfil": 9554,
    "Ġhurt": 7701,
    "Ġraptures": 13499,
    "Ġpencils": 23198,
    "Ġpinch": 15019,
    "Ġamours": 22485,
    "hunted": 16834,
    "Ġtumbling": 13828,
    "Ġdisgrace": 7215,
    "Ġextended": 7924,
    "empty": 23636,
    "contents": 12062,
    "Ġsperma": 19050,
    "Ġvent": 3997,
    "Ġtrack": 7450,
    "alvan": 21507,
    "ook": 21006,
    "Ġpilgrimage": 17311,
    "Ġinboard": 17935,
    "oda": 15755,
    "Ġbeasts": 10620,
    "Ġextracts": 9368,
    "insurance": 18889,
    "Ġpitied": 14694,
    "Ġluggage": 25958,
    "Ġstealing": 18895,
    "mown": 20972,
    "Ġsyllable": 9732,
    "Ġworsted": 19998,
    "Ġme": 351,
    "ignant": 11131,
    "Ġentities": 11867,
    "Ġactor": 16054,
    "asons": 6016,
    "balance": 12011,
    "Ġattractive": 25576,
    "Ġcomputational": 1626,
    "Ġdazzling": 15215,
    "Ġcalves": 13039,
    "conscience": 14863,
    "Ġinjury": 10543,
    "**": 4686,
    "bildad": 9589,
    "Ġprejudice": 9078,
    "Ġsciences": 15949,
    "pless": 6262,
    "Ġther": 17780,
    "posted": 24636,
    "Ġprot": 3848,
    "Ġinspection": 14545,
    "irms": 18171,
    "ston": 15688,
    "Ġpaddles": 15151,
    "Ġastonishment": 4795,
    "Ġfiss": 21415,
    "arabian": 26448,
    "Ġsteak": 9832,
    "Ġstony": 21743,
    "Ġplaint": 10328,
    "muring": 17603,
    "Ġdefines": 1741,
    "Ġvag": 9711,
    "Ġcrotch": 9966,
    "Ġcommonplaces": 16293,
    "unerative": 21900,
    "Ġeyel": 17097,
    "handedness": 24921,
    "Ġunmindful": 22068,
    "Ġintrospect": 15833,
    "outward": 22164,
    "Ġburn": 3682,
    "ear": 8734,
    "800": 17479,
    "Ġhed": 7387,
    "Ġhandsomely": 25498,
    "Ġrib": 4936,
    "Ġhither": 4760,
    "Ġillness": 8593,
    "Ġwing": 6668,
    "han": 12477,
    "oss": 10118,
    "ten": 1560,
    "Ġtossings": 25357,
    "Ġcordon": 24394,
    "cc": 475,
    "Ġharvard": 24574,
    "Ġcardboard": 19982,
    "Ġcass": 13882,
    "Ġlimber": 16482,
    "Ġhatchway": 13527,
    "iluvian": 18063,
    "may": 3678,
    "Ġdam": 2215,
    "Ġsuckling": 25998,
    "Ġjoky": 18407,
    "Ġunfolded": 10641,
    "Ġmantel": 11441,
    "Ġmonoman": 7939,
    "Ġcongreg": 8464,
    "hemat": 3127,
    "Ġrugged": 18720,
    "harpoone": 6109,
    "instances": 13323,
    "inating": 9156,
    "agger": 7872,
    "afford": 14656,
    "Ġtransf": 22441,
    "Ġrelating": 2703,
    "Ġdrifting": 19281,
    "Ġchrysalis": 26540,
    "abern": 21794,
    "stolen": 13985,
    "finished": 10557,
    "Ġrashly": 20308,
    "ĠĠĠĠĠĠ": 6415,
    "Ġsurely": 6309,
    "curiosity": 8627,
    "pence": 15413,
    "Ġcritic": 19123,
    "instead": 14816,
    "onel": 3087,
    "Ġframework": 1991,
    "Ġpresent": 1641,
    "doesn": 19823,
    "Ġofficio": 23818,
    "Ġbuckets": 17035,
    "akers": 9743,
    "Ġeul": 21623,
    "incess": 15486,
    "Ġreadability": 2722,
    "formality": 22228,
    "Ġmind": 1620,
    "Ġclinched": 17397,
    "Ġrepugn": 23366,
    "Ġsoldiers": 8690,
    "Ġpeak": 16131,
    "anthrop": 17385,
    "Ġhammered": 13243,
    "Ġrevolut": 3258,
    "Ġdesign": 4132,
    "usions": 6161,
    "put": 414,
    "vint": 21117,
    "Ġspread": 5161,
    "¯": 112,
    "une": 2783,
    "Ġwooded": 23521,
    "Ġter": 2050,
    "Ġtwisted": 7228,
    "Ġimbecile": 17395,
    "Ġpromoting": 3158,
    "Ġwherefore": 8527,
    "Ġunnear": 22030,
    "considerably": 13448,
    "Ġnext": 2140,
    "adm": 7609,
    "Ġdrawling": 19440,
    "become": 14249,
    "Ġtutored": 20131,
    "Ġfleshy": 24615,
    "iana": 7050,
    "Ġsavannah": 17419,
    "Ġboomer": 20170,
    "Ġcompared": 2229,
    ",": 16,
    "Ġdeserted": 8640,
    "Ġcaptivating": 26050,
    "Ġhoe": 23354,
    "Ġgoin": 18470,
    "Ġimmutable": 17361,
    "Ġmonkey": 8227,
    "commander": 16989,
    "Ġheh": 21683,
    "Ġdiving": 12607,
    "Ġpapers": 4021,
    "Ġturtle": 4204,
    "belong": 12127,
    "streamed": 25967,
    "Ġscound": 12838,
    "Ġfumes": 21421,
    "î": 175,
    "Ġclatter": 22349,
    "Ġdifficulties": 11227,
    "entropy": 1441,
    "Ġveins": 8935,
    "Ġwishes": 4796,
    "Ġinteraction": 7424,
    "guilty": 19486,
    "Ġstack": 21737,
    "Ę": 217,
    "unks": 15780,
    "hatred": 24818,
    "inois": 17740,
    "Ġrafters": 22659,
    "turned": 7306,
    "olently": 15762,
    "father": 3777,
    "Ġchall": 10946,
    "Ġmeanly": 12915,
    "Ġmission": 13010,
    "Ġproved": 4885,
    "Ġlamps": 14794,
    "adding": 21765,
    "icate": 9204,
    "Ġcouple": 5423,
    "Ġacknowledged": 7534,
    "shook": 19858,
    "wives": 15459,
    "Ġunguarded": 15855,
    "Ġwithdra": 6399,
    "ĠmanÅĵuv": 18418,
    "Ġcocksure": 26260,
    "wood": 5899,
    "Ġbade": 9174,
    "Ġendeav": 2953,
    "Ġincludes": 2012,
    "Ġbrotherly": 16531,
    "Ġtinted": 13825,
    "Ġescape": 2644,
    "Ġwithstand": 10228,
    "Ġsuspense": 9421,
    "reement": 15515,
    "Ġilliterate": 26596,
    "Y": 61,
    "ball": 7793,
    "walk": 5523,
    "Ġbewitching": 25977,
    "Ġinqu": 2963,
    "hauteur": 26393,
    "Ġpowers": 5419,
    "dissatisfied": 26614,
    "Ġframed": 19031,
    "Ġrem": 954,
    "apologizing": 26546,
    "hunt": 20905,
    "Ġangelic": 19630,
    "Ġuncommon": 5026,
    "lighted": 23755,
    "Ġimparts": 18446,
    "Ġwondered": 11127,
    "Ġstages": 14007,
    "Ġclassifies": 11840,
    "Ġencamped": 22803,
    "det": 5207,
    "Ġ75": 19615,
    "Ġperils": 6274,
    "metic": 14987,
    "watches": 14950,
    "Ġirrevoc": 15041,
    "les": 1017,
    "Ġrod": 9283,
    "Ġmerest": 14033,
    "Ġimplac": 24875,
    "usages": 22294,
    "izon": 18144,
    "ķ": 248,
    "til": 17673,
    "Ġhuddled": 20302,
    "Ġfemales": 14940,
    "smallest": 23915,
    "Ġjerking": 12250,
    "Ġadmiration": 5329,
    "rucastle": 22188,
    "ount": 1114,
    "onym": 14651,
    "Ġconceal": 5975,
    "Ġunstructure": 2992,
    "Ġcautiousness": 19868,
    "âĢĶâĢĺ": 7015,
    "iscre": 17852,
    "Ġcommissionaire": 17002,
    "~": 98,
    "Ġconvincing": 19310,
    "Ġsupervised": 3343,
    "remains": 10401,
    "tempered": 13449,
    "Ġtemperate": 16167,
    "Ġlustrous": 20159,
    "Ġfriendly": 9823,
    "Ġslugg": 15272,
    "obliv": 23102,
    "thern": 4953,
    "Ġgrief": 4621,
    "Ġenvironmental": 24073,
    "Ġintroduced": 7691,
    "Ġdrink": 4788,
    "Ġcharity": 8866,
    "Ġlabors": 23332,
    "year": 11097,
    "Ġsoot": 14134,
    "Ġorder": 1685,
    "ieged": 22583,
    "cannon": 22967,
    "abated": 14023,
    "Ġsummons": 13235,
    "Ġsurrey": 14560,
    "Ġreceive": 4704,
    "Ġhardships": 14454,
    "Ġrequire": 887,
    "Ġascending": 14857,
    "fisher": 7547,
    "Ġcoronation": 13337,
    "Ġsli": 4749,
    "murdered": 12207,
    "Ġfossil": 12391,
    "ils": 3179,
    "Ġunc": 2126,
    "beat": 10988,
    "Ġrobust": 1425,
    "rail": 10207,
    "Ġplaus": 22605,
    "Ġcombinations": 22859,
    "condesc": 18504,
    "Ġleisure": 6541,
    "Ġsurmised": 24920,
    "Ġoh": 2176,
    "Ġwight": 12558,
    "thine": 15829,
    "added": 11662,
    "Ġcanes": 22168,
    "jackets": 24896,
    "alescence": 15929,
    "Ġmes": 17798,
    "Ġuseful": 3559,
    "olerable": 7183,
    "Ġrifled": 21980,
    "engagement": 14461,
    "Ġorganizations": 12318,
    "brought": 7285,
    "acks": 11792,
    "Ġsold": 6004,
    "Ġcharles": 11960,
    "undant": 14795,
    "wife": 8101,
    "advice": 12162,
    "ellow": 3877,
    "Ġuncovered": 23434,
    "Ġtarn": 21161,
    "Ġcordially": 16838,
    "Ġlegisl": 23535,
    "qu": 368,
    "Ġforgot": 4684,
    "oning": 7572,
    "Ġtries": 9153,
    "Ġraise": 6168,
    "pronounce": 25193,
    "gu": 3958,
    "Ġrichness": 19313,
    "ambition": 13414,
    "orient": 2878,
    "flakes": 23971,
    "Ġreaching": 7303,
    "Ġzones": 22822,
    "Ġcategorization": 12141,
    "Ġrefused": 6717,
    "Ġlengthened": 25959,
    "prit": 19345,
    "Ġtrunk": 7205,
    "Ġhighest": 3529,
    "prince": 23817,
    "sis": 1870,
    "Ġgates": 10203,
    "Ġamiss": 18513,
    "Ġproudly": 19745,
    "Ġpick": 4258,
    "romeda": 17265,
    "inked": 12919,
    "**:": 4738,
    "Ġpikes": 21481,
    "seeing": 7080,
    "Ġbizarre": 17873,
    "black": 6769,
    "Ġcupboard": 16885,
    "Ġcommissioned": 19897,
    "Ġclump": 15971,
    "Ġjustify": 11074,
    "Ġarrogance": 26233,
    "Ġcoaxing": 18599,
    "Ġasking": 5651,
    "Ġfiercely": 12957,
    "anzas": 17842,
    "Ġdress": 4020,
    "ruding": 9727,
    "ienced": 5685,
    "Ġsu": 432,
    "Ġpudding": 17918,
    "Ġlux": 8818,
    "wrinkles": 16557,
    "Ġcurrents": 13019,
    "Ġlegend": 14576,
    "Ġdirection": 1794,
    "ued": 7561,
    "keys": 15863,
    "Ġbrightness": 16579,
    "Ġmagn": 1559,
    "Ġbreaks": 13186,
    "ingle": 1038,
    "Ġsaves": 18325,
    "flask": 12104,
    "¦": 104,
    "Ġpaid": 5015,
    "Ġhenry": 5197,
    "Ġtable": 2498,
    "restrained": 16341,
    "Ġdecoyed": 18487,
    "watch": 6120,
    "Ġbelonging": 8308,
    "Ġshortness": 23483,
    "Ġproportions": 16471,
    "Ġwives": 12560,
    "imin": 1771,
    "uss": 8767,
    "andish": 18156,
    "Ġaccumul": 1413,
    "Ġwer": 12557,
    "meat": 18679,
    "iam": 2507,
    "Ġbrow": 3988,
    "Ġdispel": 16598,
    "oro": 21398,
    "Ġwarmer": 19187,
    "iron": 3523,
    "soup": 21061,
    "weight": 2940,
    "Ġpersonally": 8603,
    "relieved": 13280,
    "Ġunpardonable": 22064,
    "Ġdauntless": 26338,
    "Ġmythologies": 26215,
    "Ġmccarthys": 19665,
    "ogene": 18668,
    "Ġsubstit": 19543,
    "Ġsubl": 7235,
    "Ġoffered": 5817,
    "Ġamsterdam": 22488,
    "Ġroundabout": 23064,
    "noted": 22752,
    "Ġdif": 871,
    "protruding": 24813,
    "forgive": 18732,
    "t": 88,
    "Ġworms": 25217,
    "id": 338,
    "xim": 1095,
    "Ġ108": 19687,
    "frequented": 25901,
    "Ġsend": 4107,
    "Ġbrook": 13052,
    "gences": 20879,
    "Ġhellaswag": 24343,
    "Ġawaken": 23588,
    "nevertheless": 8286,
    "Ġeye": 2279,
    "winding": 16722,
    "Åĵ": 10746,
    "cus": 3980,
    "Ġvestige": 20066,
    "Ġcarve": 23098,
    "Ġshine": 12772,
    "Ġdeeds": 15764,
    "Ġmicha": 17813,
    "Ġassailants": 20452,
    "Ġriding": 14097,
    "Ġmessage": 13525,
    "Ġcachalot": 17836,
    "erick": 13851,
    "Ġraiment": 22655,
    "Ġcolle": 8927,
    "ile": 522,
    "judged": 14834,
    "Ġthan": 738,
    "Ġhelter": 24028,
    "leap": 21370,
    "believing": 19465,
    "Ġinevitable": 15171,
    "restraint": 18980,
    "Ġdigress": 24649,
    "Ġcompletely": 4861,
    "nature": 5360,
    "onist": 21253,
    "dressing": 11484,
    "battering": 20788,
    "Ġembra": 6580,
    "pans": 13773,
    "Ġstrand": 11832,
    "Ġunsupervised": 2470,
    "Ġrandomly": 1923,
    "Ġgovernesses": 25130,
    ".âĢĿ": 464,
    "Ġplying": 17916,
    "Ġminority": 18754,
    "Ġlin": 10835,
    "Ġtenth": 13829,
    "banked": 25338,
    "Ġacquaintances": 17353,
    "gin": 4931,
    "nailed": 20998,
    "Ġseren": 7401,
    "Ġnose": 4404,
    "iop": 20921,
    "Ġpalp": 11252,
    "sank": 17664,
    "Ġch": 511,
    "Ġmagical": 23104,
    "Ġpeculiarly": 8287,
    "gam": 10098,
    "ö": 183,
    "Ġfilial": 16622,
    "Ġconsequent": 18113,
    "bs": 3775,
    "Ġsidel": 9638,
    "rador": 19129,
    "likes": 18816,
    "Ġluckless": 16799,
    "Ġere": 3684,
    "anxiously": 15114,
    "Ġdoubloons": 13437,
    "medical": 23346,
    "Ġrestoration": 19028,
    "Ġdavy": 25952,
    "Ġspires": 11734,
    "Ġhaught": 10255,
    "Ġaudits": 24769,
    "arrested": 15606,
    "Ġeverybody": 4511,
    "Ġamuse": 5941,
    "Ġfable": 15582,
    "Ġhatty": 19267,
    "ither": 1549,
    "fatigue": 20660,
    "def": 1453,
    "¶": 119,
    "Ġshrunk": 16720,
    "Ġresume": 18566,
    "Ġplowdon": 26449,
    "Ġinscrut": 10037,
    "sherlock": 5422,
    "bib": 17494,
    "Ġscowl": 22275,
    "Ġgo": 615,
    "Ġmetaphysical": 26070,
    "+": 15,
    "Ġchestnut": 19675,
    "ricted": 15424,
    "Ġdisplayed": 10611,
    "desired": 9008,
    "Ġsick": 4693,
    "thrown": 8483,
    "volut": 1564,
    "Ġeffusions": 18542,
    "Ġimmemorial": 10513,
    "54": 15303,
    "Ġundeniable": 26512,
    "art": 585,
    "Ġinscribed": 24941,
    "Ġinterment": 22580,
    "onial": 11569,
    "col": 3099,
    "chard": 21690,
    "Ġtortured": 14927,
    "Ġpiled": 8426,
    "Ġconnections": 968,
    "Ġsofa": 10273,
    "Ġsavi": 18326,
    "Ġenvironment": 3955,
    "Ġaccommodate": 20521,
    "Ġsiam": 13841,
    "Ġdisappo": 4506,
    "oub": 1633,
    "near": 5843,
    "eldom": 4415,
    "blast": 9590,
    "Ġpalpit": 16692,
    "Ġdost": 7637,
    "Ġ127": 24472,
    "Ġoaken": 13868,
    "_,âĢĻâĢĿ": 20404,
    "Ġincluded": 8959,
    "Ġhanging": 5447,
    "Ġsne": 6373,
    "Ġhates": 21489,
    "Ġyawned": 15054,
    "Ġstretched": 5921,
    "Ġpewter": 17188,
    "resentment": 15189,
    "Ġnominally": 17234,
    "Ġtou": 15470,
    "Ġmoored": 11796,
    "Ġguessed": 11284,
    "Ġsh": 419,
    "laugh": 10111,
    "Ġlikeness": 11181,
    "ellig": 524,
    "holding": 7739,
    "Ġanybody": 5314,
    "Ġpall": 7583,
    "Ġphilosophy": 7105,
    "Ġvolumes": 14803,
    "owner": 18612,
    "/*": 10074,
    "Ġguests": 12291,
    "Ġceaseless": 13491,
    "mention": 7214,
    "ker": 5792,
    "Ġuproar": 22158,
    "Ġgenerates": 3663,
    "Ġass": 1504,
    "obedience": 17413,
    "enough": 6810,
    "Ġhabits": 6926,
    "Ġsaint": 15511,
    "Ġinvite": 14564,
    "Ġvictoria": 14876,
    "Ġsomnambul": 26578,
    "Ġroots": 11187,
    "uing": 17695,
    "grat": 5052,
    "Ġteasing": 11895,
    "dutch": 17221,
    "wil": 8769,
    "Ġattentively": 9953,
    "Ġbeacon": 21760,
    "Ġalexander": 17427,
    "Ġmolasses": 25629,
    "Ġstarted": 4150,
    "Ġban": 7157,
    "Ġtop": 2468,
    "Ġpaddington": 17096,
    "repe": 8780,
    "Ġflea": 23775,
    "Ġpat": 1744,
    "Ġutmost": 5496,
    "umber": 5241,
    "Ġmantelpiece": 15211,
    "Ġoutrage": 15963,
    "Ġcomb": 1059,
    "Ġtenement": 23551,
    "Ġbranches": 6777,
    "Ġtough": 13818,
    "Ġtufted": 17016,
    "green": 7117,
    "Ġinn": 4591,
    "Ġansw": 2203,
    "Ġthoughtful": 16196,
    "Ġdescried": 7919,
    "older": 15761,
    "youngest": 19746,
    "organ": 15579,
    "Ġpenalizing": 13094,
    "Ġlip": 6534,
    "Ġseventh": 18205,
    "Ġcongregation": 12333,
    "threat": 10902,
    "Ġresembled": 18036,
    "Ġsales": 12813,
    "Ġdirty": 9181,
    "Ġderiv": 1736,
    "Ġmurmur": 14591,
    "Ġswash": 23058,
    "ribs": 23368,
    "Ġdiscovers": 4429,
    "urring": 21708,
    "Ġwhims": 12698,
    "stretched": 10210,
    "poling": 12224,
    "tumbled": 21093,
    "diver": 20833,
    "Ġhighway": 14349,
    "Ġchannels": 26014,
    "window": 7743,
    "Ġfacts": 2287,
    "adjust": 21763,
    "seemingly": 25363,
    "Ġbrushed": 15576,
    "Ġbene": 2032,
    "Ġappe": 1541,
    "Ġinterp": 16076,
    "oon": 6366,
    "Ġfra": 1786,
    "ospel": 17012,
    "fain": 13718,
    "Ġtho": 21517,
    "Ġear": 1424,
    "suited": 22644,
    "standard": 22432,
    "Ġplants": 22604,
    "Ġneskye": 21534,
    "Ġhalting": 16279,
    "convul": 24884,
    "¾": 127,
    "Ġfear": 2275,
    "ples": 6845,
    "hypothe": 25906,
    "Ġvort": 18194,
    "summoned": 26593,
    "Ġevil": 3806,
    "Ġ2": 2929,
    "Ġgull": 15675,
    "console": 22477,
    "Ġgrant": 11877,
    "Ġmartial": 20294,
    "Ġteach": 8556,
    "Ġlunging": 24992,
    "Ġpiling": 17913,
    "rable": 11635,
    "oam": 8755,
    "agon": 7871,
    "ernal": 4313,
    "Ġinterest": 2249,
    "Ġsettee": 22924,
    "erial": 4632,
    "intimate": 22940,
    "brous": 19200,
    "onds": 13000,
    "Ġspoon": 22138,
    "Ġrequested": 14302,
    "Ġmillar": 13864,
    "Ġnewly": 9341,
    "ben": 4927,
    "Ġgratifying": 13309,
    "Ġinitialized": 3949,
    "Ġunwinding": 22062,
    "Ġsloping": 11943,
    "bull": 13694,
    "cription": 20820,
    "Ġagitated": 7648,
    "ield": 2407,
    "Ġcommend": 10337,
    "Ġdissimilar": 22535,
    "Ġhig": 755,
    "Ġturkey": 19221,
    "rates": 21041,
    "Ġtolerable": 6949,
    "complaisance": 24808,
    "Ġcordage": 19681,
    "Ġtrain": 512,
    "Ġpos": 1012,
    "extent": 22767,
    "Ġincorporate": 20457,
    "clopÃ¦dia": 15260,
    "Ġbefallen": 12347,
    "custom": 15336,
    "satisfaction": 9995,
    "Ġneglecting": 25010,
    "Ġbenignity": 18783,
    "Ġelapsed": 7653,
    "remained": 8573,
    "Ġperceptible": 18452,
    "Ġcomplaints": 12269,
    "Ġpreternatural": 12829,
    "Ġhampshire": 15246,
    "Ġmentioning": 9901,
    "Ġdefy": 11901,
    "Ġrap": 14307,
    "Ġdearly": 10404,
    "Ġwrenched": 12563,
    "Ġdiscovery": 5412,
    "rods": 21541,
    "ropri": 2180,
    "Ġgoose": 5939,
    "contented": 14636,
    "total": 17253,
    "treas": 17681,
    "Ġmerit": 9430,
    "Ġflinging": 13588,
    "inte": 5144,
    "Ġoverflow": 10295,
    "twelve": 14624,
    "Ġcrystals": 20230,
    "pher": 11514,
    "Ġhold": 2244,
    "Ġamateur": 22489,
    "regret": 16452,
    "Ġbedrooms": 19973,
    "Ġstrides": 22617,
    "Ġpressing": 9264,
    "Ġhing": 11607,
    "Ġtechnique": 2451,
    "Ġtacit": 21177,
    "Ġdescends": 14292,
    "Ġisn": 7866,
    "Ġpowdered": 24240,
    "Ġshark": 5550,
    "distance": 12157,
    "Ġarrangements": 16517,
    "Ġprint": 18971,
    "Ġwhat": 599,
    "angels": 22109,
    "vul": 15452,
    "Ġflights": 24752,
    "poky": 17646,
    "Ġwhence": 5840,
    "Ġupheld": 22155,
    "Ġsens": 1853,
    "Ġweeks": 4566,
    "Ġsaxe": 13631,
    "Ġbarbarously": 24816,
    "Ġswell": 8952,
    "Ġratio": 5066,
    "tackles": 25625,
    "Ġobliv": 16138,
    "Ġregiment": 6433,
    "Ġperformed": 8549,
    "Ġconversing": 14635,
    "Ġhorner": 8961,
    "Ġcrosswise": 18887,
    "Ġubiqu": 18049,
    "Ġdazed": 15601,
    "brad": 20782,
    "Ġdrowsy": 26446,
    "Ġcumbrous": 26434,
    "connected": 1306,
    "Ġprimitive": 25064,
    "telling": 14442,
    "Ġvouch": 15814,
    "spect": 3232,
    "caps": 20809,
    "Ġthickening": 24027,
    "rences": 9275,
    "Ġsnuffed": 15076,
    "Ġrelationship": 2315,
    "ives": 1411,
    "Ġparting": 9787,
    "iliary": 21730,
    "poster": 11057,
    "immedi": 8452,
    "Ġexcess": 3341,
    "Ġwallet": 21301,
    "Ġhardened": 14453,
    "rigging": 20009,
    "Ġcroquet": 9965,
    "Ġsatisfaction": 5667,
    "obtained": 23101,
    "Ġuniform": 2227,
    "minutes": 7512,
    "Ġflorida": 20661,
    "Ġsque": 18758,
    "surprise": 9533,
    "Ġgeorge": 3748,
    "frankenstein": 11393,
    "Ġlighter": 12659,
    "Ġgold": 3278,
    "Ġnervous": 2403,
    "Ġeaglet": 19307,
    "Ġdiabolism": 25515,
    "asburgh": 15652,
    "Ġrisen": 9496,
    "Ġmincer": 14369,
    "Ġpuzzling": 14901,
    "Ġbrid": 6292,
    "Ġwaterward": 23370,
    "contrivance": 26317,
    "continued": 8679,
    "iments": 4945,
    "Ġhours": 2817,
    "Ġgossiping": 26245,
    "Ġvul": 10250,
    "Ġimaginations": 16519,
    "Ġresumed": 11816,
    "Ġlikely": 3598,
    "drunk": 24660,
    "Ġreturns": 11930,
    "Ġscroll": 14192,
    "Ġunmo": 12779,
    "arbuck": 2025,
    "igations": 18046,
    "Ġinstincts": 16988,
    "Ġpossibly": 4514,
    "teenth": 11878,
    "Ġeducated": 16787,
    "office": 16400,
    "Ġarch": 952,
    "Ġmud": 11576,
    "Ġjingling": 26018,
    "Ġlazarus": 15031,
    "Ġmechanism": 2366,
    "Ġbodiless": 24229,
    "sleep": 6512,
    "Ġpriests": 15043,
    "Ġexal": 10879,
    "modern": 1185,
    "horrors": 20544,
    "Ġrepented": 23365,
    "pt": 386,
    "zor": 15462,
    "Ġbrush": 17866,
    "Ġmab": 12565,
    "Ġfrig": 13084,
    "Ġhides": 16265,
    "Ġphysiognomical": 25612,
    "Ġhospitable": 17060,
    "Ġ106": 24414,
    "Ġmalice": 7153,
    "Ġdisenc": 22530,
    "Ġprisoner": 8676,
    "Ġenvironments": 24062,
    "shape": 10984,
    "Ġprocesses": 3633,
    "Ġ82": 24458,
    "cible": 20808,
    "Ġinstruct": 2863,
    "Ġhelper": 24029,
    "ength": 2313,
    "Ġtoils": 10188,
    "Ġtearing": 14399,
    "acters": 9312,
    "ulity": 10888,
    "Ġhark": 8429,
    "Ġtin": 15467,
    "conversations": 24748,
    "--------": 14786,
    "Ġmogul": 12868,
    "Ġintently": 8169,
    "Ġhowever": 1302,
    "Ġyielded": 14875,
    "Ġscraped": 16905,
    "Ġsuspend": 14610,
    "thirty": 12768,
    "Ġinstances": 5568,
    "antages": 7192,
    "Ġstingy": 25456,
    "Ġque": 4159,
    "Ġescapes": 23509,
    "Ġorchard": 22098,
    "Ġers": 15464,
    "Ġblown": 12090,
    "Ġunche": 23431,
    "homely": 25618,
    "anel": 21360,
    "Ġcompass": 4410,
    "principal": 20662,
    "Ġreneg": 21678,
    "Ġlosing": 10918,
    "Ġfrock": 10492,
    "Ġlovel": 10274,
    "Ġchurches": 12833,
    "Ġimpediments": 26242,
    "neck": 14244,
    "oled": 17621,
    "Ġblot": 9815,
    "Ġ*": 1274,
    "Ġslices": 23169,
    "Ġdank": 21431,
    "excuse": 13384,
    "Ġattic": 16100,
    "Ġmed": 4178,
    "eze": 20849,
    "halfway": 24313,
    "Ġaston": 3702,
    "Ġprophet": 7681,
    "etrics": 21588,
    "Ġwoodlands": 23522,
    "Ġpantry": 20298,
    "arboard": 7266,
    "Ġdifficult": 3572,
    "Ġtons": 11552,
    "Ġhumble": 8554,
    "Ġslumber": 13064,
    "Ġcork": 12574,
    "Ġund": 4119,
    "partiality": 13163,
    "Ġgeomet": 3188,
    "Ġfundament": 2927,
    "Ġostrich": 26432,
    "Ġextra": 4056,
    "sweet": 8689,
    "Ġdwelt": 12611,
    "stoke": 18025,
    "Ġheadache": 22902,
    "Ġshop": 9255,
    "mas": 5212,
    "Ġastr": 15498,
    "Ġtrembled": 8705,
    "Ġvest": 8163,
    "Ġjudges": 14687,
    "Ġbarrowful": 25596,
    "Ġtransom": 22442,
    "ims": 7177,
    "boots": 11128,
    "Ġserv": 3328,
    "loud": 11503,
    "Ġbelted": 22951,
    "aid": 1924,
    "Ġany": 687,
    "prim": 23813,
    "Ġreconciliation": 25293,
    "allows": 15912,
    "Ġabraham": 18401,
    "Ġcommotion": 9783,
    "Ġsteamer": 17191,
    "Ġdistrustful": 25057,
    "Ġunrecord": 16623,
    "ornamented": 26597,
    "Ġrecognise": 12044,
    "Ġhaughty": 11451,
    "Ġspin": 7630,
    "enc": 7574,
    "seven": 8466,
    "Ĉ": 201,
    "Ġconjure": 17126,
    "Ġchanc": 18384,
    "Ġachieve": 3672,
    "Ġfish": 2708,
    "Ġlucases": 9013,
    "Ġsledge": 8111,
    "Ġlearnable": 3995,
    "Ġcomprehended": 11296,
    "Ġchis": 11754,
    "Ġobserve": 4671,
    "Ġladyship": 5046,
    "Ġmarchant": 14789,
    "malicious": 19904,
    ":--âĢľ": 24550,
    "pacific": 17643,
    "superstitious": 17283,
    "ĠĠĠĠĠĠĠĠĠĠĠĠĠĠĠĠĠĠĠĠĠĠĠĠĠĠĠĠĠĠĠĠĠĠĠĠĠĠĠĠĠĠĠ": 12159,
    "Ġdisposed": 7085,
    "pper": 3209,
    "Ġgain": 4829,
    "deceiving": 22148,
    "Ġcomprehen": 5350,
    "doublo": 24661,
    "fetch": 12469,
    "misery": 13347,
    "Ġcorridor": 10674,
    "Ġvine": 8474,
    "Ġvideo": 25366,
    "Ġmam": 8406,
    "woods": 13422,
    "insensibility": 23072,
    "Ġgrounded": 23713,
    "approached": 13488,
    "uneven": 23687,
    "Ġenhance": 3192,
    "Ġsecondly": 14519,
    "Ġdesire": 3717,
    "rising": 7557,
    "Ġhearses": 20063,
    "Ġmen": 1436,
    "promising": 24725,
    "Ġsearch": 2588,
    "interrupted": 11419,
    "lun": 20948,
    "Ġimpudence": 26243,
    "Ġroyal": 5602,
    "ributed": 8215,
    "Ġlxi": 21564,
    "glasses": 11217,
    "Ġindulgence": 11321,
    "Ġscholars": 26113,
    "uberance": 25917,
    "silent": 9977,
    "Ġnerves": 2624,
    "Ġtheories": 13852,
    "Ġpious": 11602,
    "understand": 1088,
    "Ġshook": 4469,
    "Ġlacey": 10200,
    "banish": 20784,
    "anth": 13890,
    "Ġventure": 7740,
    "fe": 674,
    "barrow": 15324,
    "Ġrever": 6538,
    "hus": 5072,
    "mount": 9132,
    "Ġsymbolize": 24963,
    "Ġharbors": 24902,
    "Ġunless": 4091,
    "Ġseas": 3075,
    "Ġcliffs": 15973,
    "Ġsteer": 10390,
    "Ġunwe": 15843,
    "Ġfarthing": 14457,
    "Ġexclamations": 11363,
    "Ġelderly": 13497,
    "rip": 9244,
    "onic": 7827,
    "Ġpossesses": 19355,
    "Ġrestless": 10415,
    "Ġvac": 5025,
    "Ġpine": 8801,
    "Ġtwitch": 22679,
    "conspicuous": 26249,
    "Ġedges": 3827,
    "Ġtackle": 9516,
    "Ġexc": 1833,
    "miss": 3171,
    "Ġhast": 3148,
    "Ġgrievous": 13264,
    "arthly": 8030,
    "Ġpiteous": 17920,
    "Ġmisfortune": 5569,
    "Ġemployed": 5200,
    "descried": 11933,
    "data": 2067,
    "Ġappellation": 22222,
    "Ġcomplement": 23711,
    "covered": 11479,
    "Ġtenderest": 23553,
    "Ġunpleasing": 22057,
    "Ġsecurely": 16804,
    "heavenly": 20048,
    "Ġamber": 7028,
    "Ġtarred": 23611,
    "illustration": 2281,
    "Ġjost": 23632,
    "cheap": 23806,
    "Ġcoroner": 7510,
    "preference": 22471,
    "Ġfloat": 12036,
    "rary": 4576,
    "Ġmaking": 1781,
    "queg": 1772,
    "Ġemptied": 24347,
    "Ġdescribing": 19256,
    "Ġclosed": 4605,
    "Ġpatched": 16365,
    "umbled": 8495,
    "Ġsket": 18728,
    "Ġdictionary": 15116,
    "Ġmansfield": 25939,
    "Ġassurances": 10003,
    "Ġconcer": 23323,
    "Ġspark": 6691,
    "confined": 24328,
    "Ġsus": 18278,
    "Ġgas": 8133,
    "Á": 130,
    "Ġendeavored": 19305,
    "Ġtext": 2267,
    "Ġtypewritten": 16426,
    "tubs": 15134,
    "Ġnetworks": 598,
    "Ġyours": 4124,
    "Ġth": 299,
    "born": 7543,
    "Ġwired": 17788,
    "pump": 21019,
    "ilst": 8144,
    "Ġcenturies": 8626,
    "nuts": 15402,
    "asant": 17961,
    "Ġencl": 16170,
    "anct": 21361,
    "mot": 17598,
    "Ġgently": 7172,
    "Ġfetch": 7770,
    "scho": 8763,
    "heading": 5487,
    "ump": 2283,
    "senses": 25025,
    "Ġcordiality": 24395,
    "relu": 17761,
    "truth": 9922,
    "safie": 20351,
    "jump": 10106,
    "Ġont": 18119,
    "Ġmerciless": 25247,
    "seas": 14036,
    "dri": 5889,
    "Ġbrack": 23839,
    "iff": 3906,
    "acup": 14282,
    "Ġarabian": 9093,
    "Ġascribe": 16784,
    "Ġimpenit": 22389,
    "chapter": 1406,
    "Ġvillainous": 25134,
    "Ġcelerity": 17439,
    "log": 18535,
    "Ġlic": 8437,
    "instruct": 19545,
    "Ġhind": 9191,
    "iated": 5891,
    "Ġvalidate": 3203,
    "persuaded": 15077,
    "Ġincoherent": 17403,
    "etween": 777,
    "Ġpills": 21469,
    "Ġimpress": 6861,
    "Ġgrow": 2859,
    "Ġencaps": 12966,
    "ested": 3477,
    "ense": 2051,
    "Ġjiff": 22300,
    "fortun": 3539,
    "imate": 4223,
    "Ġhy": 5625,
    "estion": 18364,
    "laying": 19775,
    "Ġbaked": 21389,
    "wic": 21123,
    "Ġchased": 8865,
    "Ġretained": 7174,
    "Ġventilator": 8717,
    "ploy": 2071,
    "aren": 10077,
    "Ġshivering": 10268,
    "Ġxxxix": 24971,
    "Ġelbows": 18637,
    "Ġgetting": 4066,
    "Ġlord": 2964,
    "Ġstrike": 4857,
    "Ġtrout": 22359,
    "Ġpraise": 6487,
    "given": 8377,
    "Ġnonsense": 6983,
    "Ġsafer": 22174,
    "oquent": 12504,
    "Ġcope": 17832,
    "clinging": 20824,
    "Ġcurved": 18848,
    "ĠâĢľ_": 6698,
    "ury": 3311,
    "Ġimpassable": 20615,
    "Ġensued": 11396,
    "Ġalternative": 19990,
    "Ġinasmuch": 10827,
    "<SOS>": 1,
    "Ġspectacle": 10499,
    "Ġmachinery": 20488,
    "iet": 1776,
    "sharks": 14241,
    "Ġasse": 8160,
    "Ġjanuary": 13656,
    "Ġprocopius": 19734,
    "Ġtil": 12529,
    "Ġsemicircular": 26069,
    "mistake": 24529,
    "boiling": 19001,
    "Ġheal": 21684,
    "sufficiently": 14984,
    "Ġprofundity": 20455,
    "Ġcauses": 2558,
    "Ġdub": 13912,
    "hoped": 20912,
    "younger": 11314,
    "Ġcommunicating": 16891,
    "inting": 9817,
    "Ġbears": 6829,
    "moran": 24155,
    "particip": 23618,
    "suff": 4961,
    "cop": 20803,
    "(": 12,
    "hooked": 23717,
    "Ġsouthampton": 24309,
    "Ġexclude": 19043,
    "Ġbacked": 12930,
    "bordered": 17501,
    "sebastian": 21824,
    "nothing": 3151,
    "90": 12436,
    "ogr": 18667,
    "Ġevol": 2813,
    "hastened": 16847,
    "Ġmister": 22758,
    "Ġrains": 24340,
    "Ġgretna": 26470,
    "Ġuniversal": 2234,
    "Ġpoet": 8209,
    "Ġdra": 1592,
    "Ġshin": 18228,
    "Ġseams": 12129,
    "riving": 21930,
    "Ġstaying": 8284,
    "Ġlightly": 13087,
    "ulsive": 10236,
    "Ġnational": 13945,
    "Ġhyper": 19742,
    "Ġclust": 9277,
    "Ġempire": 11147,
    "Ġunav": 18241,
    "Ġseeming": 8543,
    "grim": 19108,
    "Ġsufferable": 16260,
    "Ġleave": 2455,
    "bestowed": 12230,
    "Ġcollect": 7237,
    "Ġhighly": 4846,
    "Ġperforming": 7928,
    "ousand": 2427,
    "emone": 21931,
    "enchanted": 26426,
    "č": 206,
    "adventure": 17236,
    "verity": 14004,
    "Ġwedged": 24936,
    "Ġbony": 12593,
    "Ġspots": 11733,
    "Ġsitt": 21220,
    "Ġdenoted": 16567,
    "Ġwester": 25156,
    "Ġprodigy": 19795,
    "Ġfagged": 17884,
    "intment": 4720,
    "Ġdreamy": 14706,
    "Ġprocessions": 18434,
    "Ġwee": 21923,
    "mates": 5073,
    "Ġcivil": 4679,
    "Ġinsect": 12642,
    "Ġphenomenon": 17919,
    "bits": 17491,
    "Ġchowder": 10282,
    "Ġunlimited": 26224,
    "Ġinterfere": 11821,
    "Ġdeformity": 11679,
    "Ġoverthrown": 18431,
    "deemed": 18317,
    "aught": 2677,
    "2": 22,
    "crack": 19843,
    "Ġsmite": 22561,
    "Ġwhal": 5454,
    "Ġforbe": 8459,
    "Ġcircus": 19093,
    "Ġroy": 4231,
    "Ġbusks": 23342,
    "Ġlancaster": 26342,
    "sat": 4811,
    "Ġwolves": 25935,
    "argue": 21447,
    "Ġtransactions": 18483,
    "likewise": 13109,
    "rics": 13042,
    "Ġpleasantness": 24141,
    "standers": 18478,
    "Ġcontradictory": 20400,
    "Ġrec": 898,
    "Ġproxim": 3198,
    "Ġjun": 8508,
    "sun": 7141,
    "gment": 4392,
    "Ġchose": 7413,
    "Ġknowing": 4458,
    "purp": 8091,
    "Ġcheered": 16376,
    "Ġliver": 14230,
    "Ġbark": 10800,
    "americ": 8156,
    "Ġdistinguish": 2724,
    "teringly": 21827,
    "Ġseap": 15819,
    "Ġlayers": 816,
    "Ġguitar": 16272,
    "Ġ123": 24468,
    "many": 5251,
    "Ġflowers": 8943,
    "lar": 4484,
    "Ġrigged": 16719,
    "Ġstubbs": 23299,
    "Ġexpanse": 14296,
    "unw": 14060,
    "flame": 16640,
    "delay": 16697,
    "Ġabandonment": 25604,
    "Ġmuteness": 19420,
    "chains": 9688,
    "rodden": 21538,
    "swam": 24257,
    "itiousness": 21337,
    "Ġacquainted": 5179,
    "Ġpopular": 6218,
    "Ġharness": 17930,
    "riety": 12749,
    "Ġthroughout": 8880,
    "arian": 10319,
    "Ġperempt": 13677,
    "Ġfoot": 3159,
    "ushes": 22295,
    "acher": 6868,
    "Ġashen": 21903,
    "Ġmeasureless": 14713,
    "Ġangry": 5498,
    "Ġcape": 5146,
    "Ġmeddle": 20580,
    "howling": 18990,
    "hester": 9634,
    "Ġinterpreted": 1709,
    "ated": 732,
    "Ġdidst": 11853,
    "lur": 13750,
    "Ġdefendants": 15144,
    "judgment": 16755,
    "Ġcurtain": 14416,
    "Ġnail": 9198,
    "rior": 12747,
    "Ġgroves": 16742,
    "Ġbreak": 2868,
    "Ġcovers": 18595,
    "Ġentirely": 3431,
    "spears": 23945,
    "Ġaghast": 16052,
    "bear": 10318,
    "frisco": 16789,
    "sen": 21052,
    "Ġnot": 413,
    "Ġboneless": 19608,
    "iness": 1281,
    "Ġnodes": 1969,
    "Ġsmile": 4273,
    "Ġcruc": 16537,
    "Ġgen": 5298,
    "Ġhansom": 13668,
    "Ġkate": 15910,
    "umnal": 18301,
    "Ġblunder": 18820,
    "sensibility": 25026,
    "Ġanoint": 25538,
    "Ġinno": 1375,
    "Ġroughs": 19960,
    "Ġincantation": 26259,
    "brim": 23577,
    "Ġoffers": 12951,
    "Ġentertained": 10001,
    "Ġshudder": 9053,
    "Ġvol": 4190,
    "Ġholiest": 18814,
    "Ġlull": 15656,
    "Ġjour": 11768,
    "Ġtormented": 8678,
    "lic": 17589,
    "Ġindicated": 10471,
    "Ġmyster": 5927,
    "solving": 3096,
    "Ġapplication": 2107,
    "Ġgracechurch": 12203,
    "billiard": 25335,
    "rations": 10725,
    "Ġtens": 17725,
    "Ġlangs": 13957,
    "Ġnon": 1625,
    "ctu": 5088,
    "umer": 9261,
    "drop": 15340,
    "Ġsuccour": 20438,
    "etah": 12667,
    "Ġshut": 3943,
    "Ġoppression": 23652,
    "onde": 21254,
    "Ġbuoyant": 13534,
    "Ġdot": 4822,
    "Ġseason": 5238,
    "Ġrattling": 11397,
    "matical": 13131,
    "reduc": 5459,
    "Ġshoes": 7073,
    "Ġappare": 12823,
    "purpose": 10047,
    "include": 23591,
    "Ġamusements": 16915,
    "Ġcourtiers": 24139,
    "tes": 11531,
    "Ġchilled": 18382,
    "confidence": 16810,
    "pool": 16212,
    "Ġpurporting": 19184,
    "Ġris": 4887,
    "Ġpe": 850,
    "jee": 17581,
    "Ġdec": 641,
    "follow": 5680,
    "Ġbasin": 19850,
    "Ġbound": 3517,
    "Ġcommenting": 25229,
    "Ġsigned": 11179,
    "owder": 8450,
    "Ġcircumvent": 25067,
    "promise": 12255,
    "Ġfrequented": 16588,
    "Ġhappens": 2188,
    "Ġclaw": 22352,
    "Ġgrizzled": 11452,
    "Ġprof": 2458,
    "Ġwilds": 16511,
    "Ġjaws": 5593,
    "Ġbetray": 7442,
    "advance": 12161,
    "Ġguiding": 19243,
    "inside": 23068,
    "acles": 8522,
    "Ġfright": 3797,
    "Ġstruck": 3388,
    "wing": 2517,
    "Ġtackles": 8051,
    "Ġmanor": 14199,
    "Ġcables": 15563,
    "!)": 10072,
    "convenient": 12242,
    "glances": 23856,
    "Ġaudacity": 19884,
    "Ġrio": 23894,
    "owders": 18050,
    "Ġthing": 1638,
    "Ġuplifted": 11650,
    "reinforcement": 7826,
    "Ġsleek": 23387,
    "fare": 7799,
    "Ġprophesy": 26062,
    "Ġunctuous": 10269,
    "âĢĿ)": 21815,
    "Ġawe": 7148,
    "stern": 8446,
    "Ġfatality": 12100,
    "dream": 8731,
    "Ġnap": 8813,
    "Ġpettiness": 24232,
    "Ġxii": 11995,
    "catherine": 7129,
    "brill": 16494,
    "Ġimpossible": 3543,
    "Ġtambourine": 9567,
    "icions": 21566,
    "Ġcomplied": 14737,
    "interrupt": 8619,
    "Ġbestirred": 20454,
    "Ġliberty": 7762,
    "Ġlecture": 13570,
    "Ġinequal": 21500,
    "Ġbarbarians": 19590,
    "Ġreckon": 19872,
    "ceiling": 21630,
    "tick": 17680,
    "cool": 19189,
    "Ġunnearable": 26518,
    "Ġinseparable": 20691,
    "century": 20050,
    "Ġelusive": 22650,
    "phur": 16158,
    "osed": 1963,
    "Ġfever": 6560,
    "actor": 11842,
    "atmosphere": 21267,
    "Ġprep": 4192,
    "cun": 20797,
    "readily": 19365,
    "omuch": 21643,
    "Ġarve": 15907,
    "Ġcreditors": 20133,
    "reflect": 19867,
    "Î": 143,
    "Ġfinished": 5044,
    "projecting": 26074,
    "immense": 18055,
    "Ġepit": 18009,
    "Ġpleated": 16301,
    "purposes": 25024,
    "Ġmodified": 14171,
    "civilized": 17076,
    "generous": 16571,
    "hearts": 13348,
    "capitals": 25083,
    "separately": 25228,
    "ynolds": 10039,
    "tacit": 21101,
    "Ġwithal": 18116,
    "Ġliked": 5265,
    "display": 19158,
    "uger": 21106,
    "Ġwharf": 9562,
    "Ġcommunicative": 24548,
    "hent": 12539,
    "Ġconting": 18473,
    "Ġmarine": 23034,
    "Ġstamped": 13529,
    "Ġsorrows": 13358,
    "enderby": 25216,
    "dwell": 15345,
    "Ġcraven": 16473,
    "Ġmutineer": 19421,
    "awing": 18917,
    "Ġclank": 15970,
    "scence": 14421,
    "Ġmari": 6814,
    "Ġstash": 18070,
    "Ġcarried": 3694,
    "uy": 21102,
    "Ġ10": 5250,
    "Ġaffright": 9335,
    "Ġgum": 21598,
    "dening": 22779,
    "Ġfashion": 4299,
    "Ġvicissitudes": 12423,
    "aples": 20770,
    "Ġsquat": 14371,
    "took": 6166,
    "fit": 6648,
    "Ġhardly": 2431,
    "whales": 5187,
    "ificent": 8184,
    "concealed": 25118,
    "Ġprofundities": 20456,
    "ister": 1293,
    "Ġdeficient": 18826,
    "Ġmeant": 3550,
    "impatient": 13643,
    "Ġmonths": 3453,
    "Ġbecause": 2210,
    "Ġext": 901,
    "Ġyielding": 12191,
    "want": 8770,
    "Ġoughts": 23904,
    "Ġsteward": 6586,
    "Ġrecording": 24434,
    "dismal": 23499,
    "gration": 9124,
    "buffalo": 20566,
    "mistress": 14908,
    "twenty": 6609,
    "huzza": 20915,
    "thrasher": 25659,
    "õ": 182,
    "nels": 12500,
    "staff": 21659,
    "Ġpompous": 20426,
    "Ġhob": 12635,
    "Ġwa": 1755,
    "Ġquar": 3111,
    "luck": 5733,
    "Ġcleaned": 23186,
    "Ġbuild": 6475,
    "Ġbennets": 9809,
    "generations": 23787,
    "hered": 5623,
    "Ġthousandth": 23686,
    "Ġsilken": 16386,
    "dered": 2471,
    "kempt": 20943,
    "Ġfascinating": 17331,
    "ce": 313,
    "Ġphrenologists": 25609,
    "solid": 16385,
    "Ġrecent": 7436,
    "Ġimmensely": 13598,
    "Ġfru": 8421,
    "Ġunjustifiable": 25112,
    "Ġghostliness": 24652,
    "odiac": 14035,
    "ighbour": 3387,
    "÷": 184,
    "terr": 8154,
    "understanding": 1112,
    "ā": 194,
    "Ġoptimal": 1856,
    "ifford": 15789,
    "Ġelements": 2664,
    "apt": 729,
    "Ġappear": 2482,
    "oa": 9615,
    "Ġelephants": 9867,
    "Ġribs": 7103,
    "Ġagree": 7647,
    "Ġge": 1979,
    "Ġking": 2305,
    "eyeing": 14949,
    "weekly": 25685,
    "Ġassoc": 6403,
    "shipmates": 11932,
    "lucifer": 25302,
    "upwards": 18866,
    "Ġadvisable": 11444,
    "oline": 6834,
    "uming": 8494,
    "illed": 2621,
    "shipped": 18491,
    "calculation": 25689,
    "fordshire": 4677,
    "Ġlucy": 17972,
    "Ġcustody": 13650,
    "Ġbalance": 2021,
    "Ġshores": 8852,
    "infant": 19830,
    "hroom": 12481,
    "Ġvicious": 24403,
    "ocris": 23710,
    "Ġangular": 19209,
    "Ġsmote": 18575,
    "Ġsaws": 23052,
    "chari": 21692,
    "seems": 10877,
    "partly": 14604,
    "networks": 2404,
    "vision": 5620,
    "equal": 14996,
    "Ġirreproachable": 24918,
    "nour": 20990,
    "rusted": 16509,
    "Ġaglow": 22517,
    "Ġabsurdities": 24880,
    "Ġsocietal": 11438,
    "ă": 196,
    "Ġbitterest": 12406,
    "perils": 22182,
    "Ġcrop": 10165,
    "ggling": 19098,
    "Ġfaults": 12217,
    "Ġpredicts": 2592,
    "Ġsaw": 1352,
    "Ġinsists": 23680,
    "Ġcandidate": 16700,
    "elzebub": 26466,
    "Ġgentle": 1890,
    "quarrel": 20018,
    "Ġreview": 18033,
    "Ġclubs": 25180,
    "Ġunsav": 18252,
    "iew": 2444,
    "Ġrome": 12160,
    "vitiated": 25755,
    "Ġsanguine": 25929,
    "coburg": 13601,
    "coronet": 16865,
    "Ġencoding": 4775,
    "Ġpeasant": 13554,
    "Ġmermaid": 17815,
    "Ġcirculating": 23376,
    "stuff": 15693,
    "hopeless": 16919,
    "seated": 11675,
    "Ġmontan": 22987,
    "Ġrainbows": 19651,
    "min": 4572,
    "Ġranges": 2884,
    "pier": 17637,
    "Ġlevi": 3031,
    "Ġloathsome": 13530,
    "Ġinstructive": 19287,
    "natured": 7112,
    "Ġpassive": 22843,
    "Ġstraggling": 23752,
    "Ġimprove": 1898,
    "Ġbishop": 13905,
    "Ġallev": 18103,
    "wonderful": 16962,
    "Ġtune": 17727,
    "Ġontario": 26206,
    "Ġhandwriting": 14322,
    "bru": 12443,
    "Ġbes": 2657,
    "Ġ1807": 26084,
    "Ġwipe": 25765,
    "bill": 10079,
    "Ġrol": 3555,
    "Ġhorseback": 14853,
    "substance": 15235,
    "soles": 18685,
    "mysteries": 26051,
    "Ġthousands": 6750,
    "Ġeasy": 3450,
    "Ġmule": 13865,
    "Ġsketches": 26272,
    "Ġmerry": 5870,
    "Ġnovelty": 13466,
    "supervised": 1942,
    "Ġallows": 3233,
    "Ġwhitewashed": 14472,
    "connection": 18870,
    "utter": 7594,
    "itchen": 7788,
    "Ġattachment": 6051,
    "acked": 10976,
    "Ġhastening": 19338,
    "Ġgreece": 17070,
    "elfare": 11781,
    "stripped": 16947,
    "Ġcrusad": 23708,
    "taught": 17686,
    "ishing": 1144,
    "Ġuncompromised": 20606,
    "Ġdumplings": 15194,
    "Ġintrepidity": 25551,
    "Ġhinting": 19652,
    "valued": 2852,
    "erranean": 9337,
    "Ġfailure": 13318,
    "Ġingratitude": 17471,
    "Ġenslaved": 26315,
    "Ġsab": 10764,
    "aping": 8194,
    "Ġcheerful": 6624,
    "Ġbottle": 7490,
    "Ġsaleve": 17394,
    "Ġscud": 14191,
    "Ġineffable": 17335,
    "carpet": 25203,
    "Ġstand": 1735,
    "correct": 24483,
    "Ġbiting": 17863,
    "Ġlaz": 7378,
    "Ġeigenvalues": 4998,
    "Ġclutches": 20021,
    "Ġcorrect": 2430,
    "Ġsoaring": 22090,
    "smiles": 14695,
    "Ġheavenly": 12089,
    "Ġdint": 15596,
    "slee": 17171,
    "haul": 14769,
    "Ġrecommend": 7104,
    "Ġbam": 15571,
    "ub": 1226,
    "Ġmeadows": 11424,
    "Ġthrowing": 6337,
    "september": 14039,
    "Ġfilling": 13411,
    "calmly": 20142,
    "Ġempt": 5051,
    "Ġanatomy": 12324,
    "think": 3609,
    "firmly": 20283,
    "rity": 13779,
    "lege": 17843,
    "Ġinspire": 12000,
    "arr": 3042,
    "Ġjurymen": 16849,
    "Ġmachinations": 25768,
    "uded": 6288,
    "hung": 8381,
    "Ġdrops": 9035,
    "Ġenig": 15804,
    "carefully": 13372,
    "Ġfinger": 5274,
    "Ġeyelashes": 26107,
    "conversation": 7124,
    "Ġchecking": 23289,
    "Ġdecreases": 3408,
    "Ġdespond": 14670,
    "Ġloud": 4701,
    "Ġincompetent": 25680,
    "Ġslabs": 13065,
    "ference": 1882,
    "Ġcriminal": 7537,
    "ains": 5094,
    "Ġmadness": 6603,
    "Ġhanded": 8217,
    "Ġaccompl": 5167,
    "isticated": 1643,
    "Ġverge": 23890,
    "aying": 15754,
    "Ġfondly": 19619,
    "st": 316,
    "Ġardent": 9973,
    "Ġfanny": 23394,
    "following": 10575,
    "Ġextinguished": 10344,
    "greg": 6650,
    "Ġphysical": 7522,
    "iliating": 12701,
    "not": 909,
    "Ġjelly": 22304,
    "Ġmeasures": 1207,
    "Ġcoward": 7156,
    "Ġ119": 24441,
    "Ġillustrative": 25069,
    "Ġrushing": 7403,
    "Ġrelated": 3715,
    "whom": 8185,
    "Ġpipeline": 2595,
    "itigated": 23046,
    "Ġlife": 1354,
    "Ġorgies": 18286,
    "say": 3984,
    "Ġgrasshopper": 24380,
    "Ġpur": 2216,
    "Ġsat": 1132,
    "tattoo": 21090,
    "ii": 4014,
    "Ġeh": 6988,
    "Ġoblige": 10491,
    "nuee": 17433,
    "Ġmaintenance": 17464,
    "uff": 2728,
    "Ġpursuing": 9441,
    "Ġpowder": 11277,
    "Ġcharing": 14181,
    "Ġtrinity": 22361,
    "Ġenclosure": 20627,
    "Ġmonarchs": 25851,
    "Ġmultiplication": 2871,
    "comparison": 25842,
    "Ġundergo": 23240,
    "tured": 13798,
    "Ġhatchet": 16532,
    "Ġfactory": 23279,
    "fashion": 8081,
    "Ġgenus": 24429,
    "conv": 7213,
    "Ġfil": 3471,
    "Ġfervently": 25878,
    "invariably": 26418,
    "Ġjoists": 19235,
    "whe": 1074,
    "Ġproceed": 3244,
    "interview": 19301,
    "Ġtram": 11093,
    "ome": 535,
    "crew": 7544,
    "Ġagain": 814,
    "Ġborn": 5224,
    "Ġfootmen": 23799,
    "Ġcrippled": 25279,
    "Ġhomely": 25220,
    "Ġwithhold": 18118,
    "Ġselecting": 16683,
    "Ġstochastic": 3266,
    "Ġforehead": 5262,
    "Ī": 235,
    "alid": 13938,
    "torture": 26152,
    "Ġsnap": 11202,
    "vain": 15451,
    "Ġgloves": 8578,
    "Ġlogical": 14489,
    "Ġenlightened": 12752,
    "Ġsolemnisation": 24116,
    "Ġenduring": 16306,
    "Ġappend": 18360,
    "Ġembellished": 25850,
    "Ġapr": 12537,
    "Ġsagaciously": 24730,
    "Ġbulk": 5591,
    "leaped": 17845,
    "Ġdesolation": 12273,
    "hav": 20899,
    "Ġtraffic": 23086,
    "Ġwrit": 8242,
    "Ġpurchase": 12264,
    "Ġreduce": 7943,
    "Ġmedium": 16708,
    "Ġclout": 22348,
    "Ġchalk": 15938,
    "previous": 9764,
    "Ġsmothe": 18574,
    "ineer": 11706,
    "wear": 22686,
    "Ġsatir": 18795,
    "beings": 12882,
    "Ġminister": 18753,
    "silence": 8045,
    "Ġharshly": 25250,
    "Ġlinn": 13956,
    "ð": 177,
    "usations": 15952,
    "Ġcomparing": 14267,
    "weed": 14318,
    "Ġsandwich": 19831,
    "Ġfamil": 4321,
    "Ġclin": 14203,
    "Ġvaluable": 5608,
    "Ġant": 4346,
    "rings": 10724,
    "Ġcalls": 6746,
    "scrape": 25699,
    "Ġcher": 6131,
    "redit": 3876,
    "Ġstalk": 12703,
    "Ġdocks": 14178,
    "ounder": 11748,
    "Ġreign": 13988,
    "Ġsixpence": 19319,
    "Ġendured": 6074,
    "ailing": 7023,
    "Ġconversed": 13191,
    "Ġdevotedly": 24749,
    "Ġfascinated": 25636,
    "Ġkindred": 16382,
    "Ġwane": 21291,
    "Ġdad": 12606,
    "Ġbarbarous": 13479,
    "Ġinterpreter": 23214,
    "Ġrivers": 9445,
    "Ġcrowned": 16843,
    "Ġdreading": 23800,
    "Ġessence": 13408,
    "Ġexplain": 545,
    "daughters": 13469,
    "Ġleg": 2334,
    "Ġunstructured": 3001,
    "Ġrough": 7187,
    "amped": 12037,
    "floor": 14939,
    "Ġoffer": 4845,
    "Ġagitates": 22520,
    "burning": 25081,
    "Ġterrified": 14674,
    "Ġcum": 21345,
    "Ġbillows": 7502,
    "incident": 14593,
    "Ġauthoritative": 19564,
    "Ġterrors": 6918,
    "whilst": 18372,
    "Ġexpedite": 24956,
    "Ġswam": 6449,
    "Ġoutdone": 22322,
    "Ġremoval": 12122,
    "Ġcracked": 8597,
    "isf": 2433,
    "oof": 15409,
    "measure": 10034,
    "Ġhalyards": 21497,
    "travel": 24337,
    "wling": 11547,
    "Ġsallies": 21232,
    "rough": 590,
    "unable": 14062,
    "Ġkeen": 4614,
    "browed": 25895,
    "Ġendwise": 23140,
    "Ġpapered": 20134,
    "Ġrecords": 12200,
    "Ġrid": 4355,
    "Ġsymmet": 11751,
    "Ġwickedness": 9529,
    "Ġmatlock": 18802,
    "joining": 19449,
    "Ġpicturesqueness": 24480,
    "Ġmund": 21321,
    "getting": 12972,
    "emason": 18189,
    "longing": 23727,
    "Ġforeman": 23448,
    "Ġinspiring": 19114,
    "apping": 5853,
    "Ġninetieth": 25358,
    "dually": 3283,
    "lively": 12489,
    "arers": 12134,
    "Ġkindling": 19034,
    "Ġbalancing": 2428,
    "bering": 18695,
    "Ġnow": 692,
    "Ġsinners": 18952,
    "Ġintroducing": 11980,
    "Ġsentin": 16379,
    "resol": 17762,
    "Ġfaultless": 24540,
    "Ġaband": 6563,
    "Ġende": 21936,
    "Ġunavailing": 26217,
    "despicable": 24638,
    "hurrying": 14986,
    "myster": 16264,
    "Ġwearing": 12745,
    "delighted": 10565,
    "Ġbreast": 8971,
    "hook": 12057,
    "elev": 12463,
    "Ġmightiest": 12965,
    "exhibited": 18479,
    "Ġdestitute": 14567,
    "whiskers": 12315,
    "Ġqualified": 14953,
    "recollected": 25348,
    "Ġlieuten": 13330,
    "Ġrefuge": 8542,
    "Ġmaelstrom": 19359,
    "der": 468,
    "Ġcalculate": 13267,
    "Ġobtaining": 16137,
    "games": 20882,
    "Ġork": 18285,
    "scru": 16247,
    "Ġcompleted": 9000,
    "Ġoscillations": 2899,
    "Ġmagnus": 18959,
    "Ġspain": 15885,
    "stalls": 26475,
    "Ġfad": 17878,
    "Ġphotography": 24684,
    "em": 391,
    "Ġwre": 5077,
    "Ġawait": 17074,
    "Ġrecesses": 17263,
    "Ġskiff": 16168,
    "uous": 4145,
    "ignantly": 23268,
    "Ġtweezers": 26558,
    "Ġwooing": 19437,
    "!--": 10680,
    "Ġpassion": 4558,
    "Ġperry": 22400,
    "his": 1414,
    "repid": 11567,
    "Ġanimals": 8981,
    "Ġquoin": 22422,
    "Ġtal": 7564,
    "securer": 25603,
    "spite": 16143,
    "Ġprudence": 13923,
    "Ġhil": 10823,
    "lantern": 17431,
    "dischar": 19155,
    "Ġjoyfully": 19349,
    "por": 2150,
    "Ġdisciple": 22785,
    "Ġcomputers": 2641,
    "Ġ1950": 11361,
    "Ġcanal": 8182,
    "Ġtide": 6661,
    "Ġcheese": 9380,
    "Ġrambles": 17187,
    "Ġinnocently": 24031,
    "Ġsingers": 23773,
    "accident": 11183,
    "Ġleadenhall": 16631,
    "Ġbump": 9662,
    ",_": 11464,
    "Ġfairly": 6327,
    "Ġkettle": 26234,
    "Ġshy": 10905,
    "Ġstrives": 23697,
    "Ġbridal": 14957,
    "Ġformation": 2943,
    "jerked": 25619,
    "erted": 7361,
    "Ġcritically": 23445,
    "husband": 8042,
    "Ġcorn": 9353,
    "Ġcripp": 9656,
    "Ġchapters": 10475,
    "Ġnavigators": 19766,
    "Ġreceptacle": 23195,
    "Ġdivert": 23595,
    "Ġsagacity": 16976,
    "Ġsilver": 7464,
    "Ġwound": 4528,
    "load": 12887,
    "Ġthrow": 3784,
    "Ġwon": 1666,
    "Ġthemselves": 3252,
    "Ġdiscre": 2415,
    "Ġchili": 25562,
    "Ġdescribe": 2763,
    "agos": 21908,
    "ó": 180,
    "Ġlistless": 16479,
    "colonel": 8285,
    "Ġsemicircle": 26068,
    "low": 657,
    "habit": 16193,
    "untary": 9870,
    "Ġcommendation": 13613,
    "thy": 2934,
    "Ġsurvive": 9069,
    "Ġscrutin": 26015,
    "Ġfiftieth": 24702,
    "eronomy": 15529,
    "admirably": 24947,
    "Ġautumnal": 19038,
    "upp": 10133,
    "Ġatonement": 21946,
    "Ġdictated": 25219,
    "magnet": 14973,
    "Ġweighted": 2091,
    "lorious": 17594,
    "Ġfowls": 8694,
    "masts": 19428,
    "Ġinoffensive": 21501,
    "Õ": 150,
    "Ġaccommod": 14222,
    "Ġwhich": 503,
    "Ġphysiology": 25333,
    "Ġmaintaining": 1509,
    "estic": 4956,
    "Ġcanals": 22169,
    "entering": 17979,
    "breat": 10081,
    "Ġkept": 3346,
    "Ġrespect": 1669,
    "Ġnearly": 3362,
    "Ġaltitude": 26204,
    "jolly": 20933,
    "Ġlambton": 10660,
    "Ġsetbacks": 11065,
    "Ġbreakfast": 3976,
    "Ġprynne": 25541,
    "Ġtriumph": 5143,
    "deeply": 16187,
    "Ġexpressive": 8985,
    "antingly": 22102,
    "Ġgenerate": 1613,
    "ut": 308,
    "Ġexcept": 3312,
    "listener": 24931,
    "Ġsport": 6690,
    "Ġunprecedented": 15859,
    "Ġconsent": 5372,
    "Ġpostpone": 17310,
    "Ġforming": 7044,
    "Ġcanvassed": 19938,
    "raint": 18315,
    "Ġpens": 21463,
    "Ġimplicit": 19961,
    "Ġhumaneval": 25583,
    "Ġcranial": 25593,
    "sword": 10728,
    "Ġdeserves": 13293,
    "Ġlasting": 18793,
    "Ġconceited": 12096,
    "Ġdish": 6138,
    "Ġextinguish": 14339,
    "Ġshrieking": 24757,
    "###": 3828,
    "ab": 345,
    "city": 15330,
    "Ġampl": 22484,
    "colnett": 19332,
    "onstrate": 17770,
    "Ġspell": 8859,
    "Ġshag": 9254,
    "Ġpier": 7163,
    "soon": 4027,
    "effort": 19216,
    "Ġimmaculate": 19489,
    "Ġintroduction": 8973,
    "Ġevangel": 11282,
    "Ġdenny": 9004,
    "Ġtongs": 9964,
    "Ġscript": 18393,
    "Ġrecompense": 14841,
    "Ġport": 3309,
    "says": 13303,
    "ational": 5716,
    "Ġ131": 24781,
    "Ġdepress": 14049,
    "Ġplague": 11828,
    "ustomed": 6100,
    "row": 1069,
    "road": 6679,
    "Ġnoisy": 13322,
    "rue": 1128,
    "f": 74,
    "Ġwondrously": 24069,
    "bows": 10084,
    "pleasanter": 24051,
    "dock": 16423,
    "Ġparched": 11731,
    "Ġaloysius": 15743,
    "warning": 25532,
    "Ġjuly": 17239,
    "Ġcanst": 8861,
    "altogether": 12645,
    "grad": 2564,
    "pleasing": 14746,
    "Ġidiot": 11976,
    "Ġknowest": 12869,
    "Ġmanipulated": 25179,
    "Ġgroom": 13969,
    "dirty": 20836,
    "Ġcomprehend": 6495,
    "Ġmeasure": 3594,
    "msman": 9273,
    "springing": 24890,
    "ilated": 18060,
    "Ġcould": 703,
    "Ġ89": 19715,
    "Ġhammock": 5768,
    "endurable": 22226,
    "Ġprovided": 6579,
    "isions": 6132,
    "Ġnicely": 8712,
    "Ġblanche": 18821,
    "Ġsucking": 12792,
    "atre": 17772,
    "Ġmoonlight": 9961,
    "Ġrespond": 11178,
    "cou": 13699,
    "Ġrepublican": 17415,
    "loops": 12889,
    "Ġarticle": 9505,
    "Ġpenalty": 1841,
    "Ġopposite": 5120,
    "Ġavert": 14428,
    "tical": 10131,
    "favourite": 15147,
    "dig": 4930,
    "convinced": 10625,
    "Ġtheir": 645,
    "Ġannual": 14835,
    "africa": 26309,
    "Ġclearness": 23187,
    "Ġweeps": 24950,
    "Ġinst": 912,
    "ĠĠĠĠĠĠĠĠĠĠĠĠĠĠĠĠĠĠĠĠĠĠĠĠĠĠĠĠĠĠĠĠĠĠĠĠ": 23668,
    "Ġblasphemer": 26117,
    "Ġrigid": 16718,
    "Ġbadly": 12136,
    "hospit": 25904,
    "Â·": 21152,
    "Ġexpand": 9310,
    "Ġgaped": 13970,
    "Ġappropriate": 2250,
    "marvell": 24175,
    "Ġbrazier": 26322,
    "Ġrucastles": 18721,
    "Ġdisconsolate": 20721,
    "ilder": 15718,
    "igation": 5919,
    "mate": 5359,
    "Ġfourteen": 12014,
    "¢": 100,
    "bermaid": 20792,
    "Ï": 144,
    "Ġrecover": 9795,
    "saw": 5895,
    "Ġlow": 1647,
    "Ġepoch": 26474,
    "Ġapo": 9633,
    "Ġsolitary": 5856,
    "Ġaccomplish": 14879,
    "accomp": 10457,
    "Ġdash": 8122,
    "missionary": 24616,
    "Ġbulldog": 23862,
    "ubb": 1650,
    "feelings": 5674,
    "Ġseven": 4542,
    "Ġcontract": 18476,
    "Ġmercy": 9001,
    "Ġstole": 7953,
    "Ġtransaction": 22443,
    "cuniary": 26381,
    "Ġstubbornness": 25380,
    "Ġapprovingly": 26252,
    "immed": 9220,
    "Ġwealthy": 18181,
    "maybe": 23994,
    "dinner": 11408,
    "Ġanew": 11432,
    "belongs": 25597,
    "Ġpretending": 19317,
    "observation": 17272,
    "Ġpace": 9186,
    "Ġaustral": 12177,
    "Ġlodged": 11253,
    "ribbed": 16417,
    "Ġreflecting": 24750,
    "mouthful": 25209,
    "Ġharbour": 19983,
    "deceit": 25557,
    "Ġdecomp": 3811,
    "Ġpawn": 12067,
    "Ġdirections": 1972,
    "Ġboasted": 16111,
    "meant": 7921,
    "Ġparalle": 1412,
    "tur": 5688,
    "operation": 13503,
    "Ġbully": 23859,
    "our": 534,
    "Ġstern": 4224,
    "Ġinclude": 1874,
    "Ġbiography": 22765,
    "sil": 5283,
    "Ġgleamed": 17078,
    "describe": 1517,
    "Ġeverywhere": 9799,
    "arent": 4251,
    "guilt": 24075,
    "ville": 6088,
    "Ġashes": 7617,
    "Ġsult": 10769,
    "emporary": 15803,
    "pronouncing": 25194,
    "Ã¦us": 14820,
    "Ġvernal": 23891,
    "Ġabomination": 22292,
    "Ġbeing": 1163,
    "Ġascent": 19621,
    "Ġthomson": 26456,
    "Ġrecollect": 8310,
    "Ġdistinguishing": 16499,
    "Ġoutlaws": 22327,
    "Ġesteem": 7531,
    "resc": 21241,
    "Ġapparition": 8067,
    "Ġdeployment": 11203,
    "Ġprecipitous": 24836,
    "om": 315,
    "hailed": 17567,
    "Ġglass": 4371,
    "Ġtransform": 750,
    "agings": 18168,
    "syntax": 5868,
    "Ġformula": 2864,
    "Ġleader": 14705,
    "Ġmothers": 14542,
    "Ġwat": 1286,
    "oid": 3125,
    "Ġfaith": 5351,
    "Ġgrass": 5177,
    "sip": 10727,
    "dipped": 20839,
    "Ġsuggests": 12205,
    "Ġsound": 2242,
    "Ė": 215,
    "Ġspake": 18309,
    "long": 2913,
    "gener": 3124,
    "Ġmonitors": 3154,
    "lingering": 18603,
    "inquiries": 13580,
    "ulled": 14059,
    "Ġreplenished": 13639,
    "Ġfragrant": 13097,
    "returned": 7766,
    "ittleness": 22380,
    "Ġricher": 12765,
    "_âĢĶ": 11469,
    "Ġtransplanted": 22445,
    "ĠĠĠĠĠĠĠĠĠĠĠĠĠĠĠĠĠĠĠĠĠĠĠĠĠĠĠĠĠĠĠĠĠ": 12047,
    "Ġappearances": 10453,
    "Ġhumour": 7932,
    "ays": 6685,
    "brit": 19199,
    "Ġnowadays": 18547,
    "Ġengra": 7874,
    "remaining": 20223,
    "Ġerie": 20057,
    "Ġprayed": 16670,
    "functions": 11238,
    "Ġdiction": 8799,
    "Ġsilvery": 13098,
    "Ġcontinuing": 14400,
    "acency": 12914,
    "winds": 10524,
    "Ġextraordinary": 5414,
    "gan": 2197,
    "Ġapart": 4747,
    "breakfast": 8691,
    "Ġdiscl": 9800,
    "Ġdomestic": 6910,
    "proachable": 23401,
    "prow": 15415,
    "Ġquenched": 22421,
    "Ġetern": 7087,
    "ilt": 2966,
    "mean": 6439,
    "ells": 5305,
    "Ġbanks": 6815,
    "Ġreserves": 19673,
    "Ġreprehensible": 15704,
    "Ġthirds": 16710,
    "Ġlithe": 24669,
    "Ġfreckled": 18960,
    "Ġguernsey": 9354,
    "oop": 10717,
    "Ġgrimly": 17053,
    "ý": 190,
    "Ġexertion": 8054,
    "Ġoccasionally": 5590,
    "º": 123,
    "Ġforgiveness": 16659,
    "Ġstating": 15727,
    "searching": 25106,
    "dozen": 23381,
    "Ġkneel": 14810,
    "Ġaristotle": 25818,
    "Ġslumbering": 25702,
    "usual": 5842,
    "Ġcleared": 6076,
    "Ġmazes": 25941,
    "Ġapplications": 4784,
    "spout": 7923,
    "Ġquartered": 20376,
    "Ġwhereof": 16107,
    "isol": 17848,
    "Ġupd": 946,
    "ake": 748,
    "Ġheedless": 14906,
    "nikin": 23249,
    "evident": 25521,
    "apes": 9744,
    "Ġcharcoal": 19008,
    "Ġscrape": 14921,
    "Ġluckily": 16800,
    "stave": 21652,
    "Ġbuffaloes": 25218,
    "Ġ183": 13241,
    "Ġcomprise": 18584,
    "Ġsplash": 16551,
    "proportions": 22837,
    "Ġformerly": 7493,
    "precise": 19354,
    "Ġcurrent": 13016,
    "Ġruff": 14350,
    "Ġforb": 11666,
    "devils": 20036,
    "Ġidentify": 12018,
    "Ġsomething": 1796,
    "Ġisrael": 21807,
    "Ġhourly": 23305,
    "Ġpirate": 14998,
    "Ġwidows": 24239,
    "omp": 2469,
    "Ġjulia": 22306,
    "sweep": 24618,
    "twist": 23703,
    "Ġprogno": 14043,
    "toller": 20675,
    "ty": 1000,
    "Ġfob": 21412,
    "Ġpopulous": 16828,
    "sto": 3197,
    "Ġintercepted": 25828,
    "Ġpersian": 11088,
    "Ġapparel": 20439,
    "Ġvisitors": 7985,
    "piled": 21017,
    "Ġshort": 2226,
    "ety": 3520,
    "Ġhid": 1317,
    "Ġhatchways": 24990,
    "windibank": 24164,
    "Ġincorporated": 25710,
    "Ġruinous": 24634,
    "Ġintimately": 24801,
    "keen": 12788,
    "Ġfeathers": 15123,
    "Ġlitter": 19832,
    "vulgar": 25919,
    "Ġloudly": 7312,
    "urities": 18052,
    "Ġfolding": 19730,
    "grasp": 16434,
    "Ń": 260,
    "cence": 9591,
    "Ġstifle": 18076,
    "Ġowns": 22827,
    "Ġsporty": 19892,
    "Ġaud": 6664,
    "higher": 20410,
    "Ġsquares": 11171,
    "listen": 13516,
    "paddington": 20481,
    "Ġimputed": 12814,
    "Ġsatisfied": 4172,
    "Ġprize": 11953,
    "patter": 4079,
    "Ġgrateful": 7661,
    "deep": 1057,
    "Ġdrives": 14579,
    "branch": 23580,
    "Ġwager": 17794,
    "Ġinjunctions": 24272,
    "Ġbegun": 7243,
    "Ġorphan": 12387,
    "Ġinjured": 9042,
    "Ġsingle": 1691,
    "Ġconvinced": 4207,
    "shriek": 20523,
    "Ġhorrors": 10482,
    "Ġsplashed": 23749,
    "Ġdemi": 25549,
    "dispositions": 25014,
    "pire": 9138,
    "Ġsuperflu": 14555,
    "conced": 22474,
    "Ġhome": 2028,
    "robotics": 11308,
    "tisement": 6768,
    "Ġfooted": 23798,
    "duing": 22415,
    "uries": 6149,
    "carbuncle": 26384,
    "whereby": 23420,
    "ache": 8521,
    "Ġoozy": 21330,
    "mut": 17597,
    "dissatisf": 26130,
    "Ġtale": 5142,
    "Ġprotested": 9937,
    "Ġdenial": 13217,
    "Ġweigh": 10896,
    "gn": 8082,
    "ript": 4153,
    "pagans": 25526,
    "Ġmunro": 25631,
    "Ġsoftmax": 1688,
    "vi": 2374,
    "orters": 21404,
    "Ġovertook": 18429,
    "Ġassizes": 11110,
    "Ġdominic": 25381,
    "urmount": 13999,
    "Ġband": 5292,
    "Ġhieroglyphics": 17306,
    "Ġinnovative": 1547,
    "Ġshoved": 23492,
    "Ġdeterm": 1271,
    "Ġj": 533,
    "jacket": 12296,
    "Ġcritics": 23444,
    "Ġscolded": 25473,
    "clu": 20801,
    "Ġbloodthirst": 23803,
    "Ġhails": 21954,
    "unwilling": 14064,
    "Ġposter": 14279,
    "Ġorgan": 2501,
    "Ġpalpitated": 26086,
    "miles": 10714,
    "absence": 12714,
    "mock": 5174,
    "ignominious": 26589,
    "Ġimpotently": 22391,
    "Ġfalse": 4344,
    "faces": 13723,
    "masters": 16836,
    "Ġdigesting": 19812,
    "could": 2872,
    "giv": 13725,
    "delirium": 14788,
    "Ġartist": 12918,
    "assisted": 22311,
    "Ġdiscrimination": 23607,
    "mency": 18928,
    "mud": 20973,
    "plans": 21962,
    "Ġhertfordshire": 5377,
    "Ġdelight": 2544,
    "Ġpremises": 10490,
    "Ġstowed": 21740,
    "ascertaining": 26462,
    "Ġpor": 5225,
    "Ġobserving": 6081,
    "Ġsor": 4146,
    "||": 4870,
    "Ġsystems": 822,
    "Ġwantest": 18791,
    "Ġinmates": 15628,
    "Ġlifeless": 8951,
    "apology": 22337,
    "Ġreject": 7386,
    "Ġinhaled": 25452,
    "ounded": 9751,
    "Ġobtruded": 20724,
    "Ġstir": 5824,
    "convalescence": 24885,
    "Ġengage": 9338,
    "Ġconveys": 16857,
    "Ġobligations": 12097,
    "Ġnineveh": 13392,
    "hurst": 19881,
    "striking": 13443,
    "third": 8168,
    "Ġreflect": 6576,
    "a": 69,
    "iem": 20919,
    "Ġarrang": 2466,
    "Ġlabor": 10420,
    "Ġtennessee": 26598,
    "tide": 11535,
    "Ġcottages": 14730,
    "Ġmichigan": 26428,
    "stand": 622,
    "plumed": 21965,
    "comput": 1921,
    "indignation": 18439,
    "oward": 6022,
    "Ġswears": 16467,
    "Ġunusual": 6555,
    "Ġcongeal": 25981,
    "haven": 20914,
    "Ġthackeray": 26457,
    "scoured": 22997,
    "Ġjack": 4653,
    "Ġmilliner": 19886,
    "Ġabsolutely": 4859,
    "relative": 24016,
    "Ġscarlet": 13227,
    "eyes": 5684,
    "Ġfeast": 10280,
    "Ġcontrasting": 11156,
    "iosity": 2300,
    "Ġspurred": 22142,
    "Ġlivery": 16003,
    "Ġassume": 10518,
    "Ġenjoyments": 24021,
    "Ġreasons": 6021,
    "irra": 15790,
    "Ġunreasonably": 17454,
    "Ġcases": 3962,
    "pal": 9619,
    "Ġimposs": 16618,
    "Ġembell": 14412,
    "Ġhead": 1125,
    "Ġraises": 11849,
    "prof": 7699,
    "Ġdanger": 3518,
    "ll": 1139,
    "Ġcir": 21344,
    "Ġguns": 16778,
    "Ġfactor": 19014,
    "Ġoctavo": 15167,
    "tallow": 21088,
    "Ġpluck": 15619,
    "Ġoccasions": 7988,
    "Ġdim": 4758,
    "Ġphrenolog": 12338,
    "iding": 3847,
    "Ġdangling": 17177,
    "Ġdeactivates": 20706,
    "Ġhelm": 5276,
    "Ġpoignant": 22599,
    "unting": 21878,
    "Ġfollies": 16258,
    "Ġsituations": 10494,
    "comprehend": 14359,
    "Ġpacific": 5153,
    "Ġexperiment": 11910,
    "Ġrepeat": 8000,
    "Ġcentury": 8291,
    "Ġdoing": 3660,
    "Ġdon": 1614,
    "Ġmisunderstand": 18705,
    "umbrance": 22122,
    "its": 1149,
    "consolatory": 25307,
    "Ġsign": 2493,
    "guess": 14765,
    "Ġsupper": 4666,
    "Ġfame": 21409,
    "closing": 23160,
    "Ġspinal": 12306,
    "Ġperpendicular": 7209,
    "Ġoriental": 9100,
    "Ġfervour": 19729,
    "apers": 3479,
    "Ġhut": 15624,
    "Ġimmemorially": 25384,
    "Ġcontrol": 13083,
    "obser": 11101,
    "Ġsoda": 25535,
    "nered": 18495,
    "occurrences": 26333,
    "Ġscornful": 24999,
    "Ġunintellig": 22028,
    "Ġcame": 1298,
    "Ġpilgr": 12185,
    "Ġgoblet": 25824,
    "Ġeffectually": 16175,
    "Ġthine": 7374,
    "Ġgot": 2278,
    "sk": 5521,
    "Ġpunch": 9958,
    "Ġclassification": 1077,
    "Ġperiodically": 19497,
    "Ġcultured": 25158,
    "izz": 7614,
    "oga": 22692,
    "sacred": 17030,
    "Ġsickening": 19607,
    "Ġmend": 8407,
    "cried": 8728,
    "Ġpartly": 6715,
    "thesize": 24907,
    "slanting": 24558,
    "Ġconstraints": 2737,
    "amore": 21847,
    "Ġwheeled": 14141,
    "anchor": 13892,
    "algorith": 3519,
    "Ġauthors": 10418,
    "Ġpersuas": 23950,
    "dict": 15341,
    "moonlight": 25376,
    "Ġresigned": 9771,
    "Ġmasking": 2418,
    "Ġphiladelphia": 26606,
    "rob": 5534,
    "Ġenormousness": 24515,
    "sounding": 24795,
    "âĢĶ(": 15943,
    "apped": 5395,
    "ustration": 2259,
    "Ġoccupy": 14734,
    "Ġquietly": 4568,
    "cked": 2760,
    "Ġbuoyancy": 20045,
    "Ġharpoone": 2912,
    "Ġdishonor": 25602,
    "Ġmouse": 4694,
    "examined": 17269,
    "Ġbride": 6293,
    "Ġengagements": 9981,
    "Ġexpect": 2306,
    "coloured": 7291,
    "Ġdisplays": 19859,
    "remed": 18955,
    "Ġdesertion": 24786,
    "Ġbloodshot": 23801,
    "Ġ275": 20114,
    "Ġdeemed": 7613,
    "Ġvivacious": 19818,
    "alk": 1152,
    "Ġpublished": 11244,
    "ink": 756,
    "Ġapproxim": 1219,
    "izar": 14053,
    "Ġspecific": 2003,
    "dependence": 17170,
    "Ġcus": 21346,
    "Ġow": 8409,
    "Ġsteeply": 23725,
    "Ġgranting": 18738,
    "Ġtools": 11612,
    "Ġdrove": 4984,
    "ced": 695,
    "Ġabst": 9269,
    "meditation": 19073,
    "Ġaggregated": 25679,
    "Ġexplore": 15913,
    "rank": 21044,
    "Ġsympathised": 14865,
    "Ġcontrivance": 17186,
    "Ġor": 437,
    "Ġlasted": 11055,
    "account": 5330,
    "Ġn": 300,
    "Ġecc": 11631,
    "destroy": 19513,
    "into": 3679,
    "Ġsally": 15506,
    "Ġcontrols": 1731,
    "Ġriot": 14690,
    "Ġwhalebone": 10979,
    "Ġagreement": 18540,
    "Ġrele": 2918,
    "Ġregularizer": 2338,
    "Ġpatiently": 19920,
    "Ġnoiseless": 10360,
    "Ġhover": 15625,
    "Ġfinal": 5400,
    "Ġdup": 21430,
    "Ġtook": 1855,
    "Ġconfine": 14512,
    "wonder": 6372,
    "Ġfri": 17880,
    "ult": 722,
    "tri": 11532,
    "Ġslee": 8977,
    "Ġdwelling": 7322,
    "Ġmomentum": 1602,
    "Ġmax": 2007,
    "Ġarcher": 22194,
    "Ġvocation": 10528,
    "daw": 17524,
    "Ġgenial": 12199,
    "ĠdÃ¦mon": 7844,
    "Ġlory": 12658,
    "gpt": 5356,
    "Ġeddies": 25089,
    "Ġstacked": 21747,
    "Ġaccumulating": 2720,
    "Ġformations": 18750,
    "Ġlivid": 14992,
    "Ġoppressive": 20458,
    "Ġmournful": 12340,
    "Ġsundial": 15086,
    "Ġduly": 13354,
    "Ġsnatching": 10474,
    "Ġdegenerated": 20509,
    "walked": 10573,
    "Ġcorruption": 15229,
    "Ġdelineations": 26059,
    "Ġrecovery": 11443,
    "oney": 3046,
    "Ġsincere": 11138,
    "Ġbulb": 23858,
    "Ġdozing": 22247,
    "aye": 3659,
    "Ġgasfitters": 25041,
    "Ġindulge": 10585,
    "Ġquarters": 8623,
    "Ġaffection": 2636,
    "Ġbenjamin": 26569,
    "Ġcra": 2331,
    "formity": 10281,
    "Ġadam": 2128,
    "Ġinvestig": 10552,
    "Ä": 133,
    "Ġveil": 7934,
    "Ġamusement": 8056,
    "consumed": 25676,
    "enthusiastic": 20695,
    "Ġiceberg": 14719,
    "dum": 17520,
    "Ġm": 274,
    "Ġtranscend": 25668,
    "Ġsublim": 19970,
    "Ġforbade": 15218,
    "national": 21000,
    "Ġhandy": 12942,
    "Ġfort": 2577,
    "Ġdiligent": 25078,
    "Ġvigorous": 10569,
    "Ġdesirous": 8945,
    "Ġaudience": 24768,
    "Ġ_": 838,
    "Ġadmirers": 19689,
    "Ġoccurrence": 14385,
    "beholding": 16046,
    "rict": 8093,
    "Ġsoil": 9258,
    "Ġcelest": 9903,
    "ĠâĢĶâĢĶ": 25758,
    "Ġdriver": 16477,
    "Ġthoroughfares": 26096,
    "Ġpainting": 13144,
    "ureau": 10229,
    "around": 12614,
    "Ġcommunic": 5751,
    "Ġran": 3342,
    "Ġskewer": 19623,
    "antage": 3879,
    "Ġscand": 7202,
    "save": 13788,
    "Ġgirdled": 19161,
    "Ġreplied": 2264,
    "try": 7812,
    "shud": 18488,
    "locks": 14459,
    "Ġsepulchral": 25893,
    "tale": 10130,
    "iage": 17575,
    "ist": 449,
    "Ġsinking": 7307,
    "whaleman": 23438,
    "Ġbowlines": 19324,
    "Ġinterests": 14570,
    "Ġoutskirts": 17460,
    "were": 2555,
    "Ġepid": 18007,
    "bol": 8721,
    "Ġcensure": 15099,
    "Ġpilot": 5986,
    "anean": 7443,
    "Ġpreacher": 18370,
[...]
