{
  "metadata": {
    "vocab_size": 26614,
    "algorithm": "BPE",
    "created_at": "2026-09-18 07:01:33",
    "special_tokens": [
      "<PAD>",
      "<SOS>",
      "<EOS>",
      "<UNK>",
      "<MASK>"
    ]
  },
  "vocab": {
    "dwelling": 20563,
    "Ġlysander": 13138,
    "Ġbeacon": 21753,
    "Ġappointed": 20101,
    "Ġbloodthirsty": 26601,
    "plainly": 11089,
    "Ġpequod": 2322,
    "elab": 21567,
    "Ġinference": 9671,
    "Ġcells": 13884,
    "abb": 15736,
    "Ġrefresh": 10345,
    "Ġcomforters": 25800,
    "Ġconstantinople": 19836,
    "ckets": 6843,
    "isation": 13892,
    "Ġvisitor": 5330,
    "Ġimpetuously": 20370,
    "Ġwasted": 9703,
    "residual": 19261,
    "Ġbrine": 18769,
    "Ġcele": 9899,
    "anche": 10788,
    "Ġgoest": 22418,
    "Ġvine": 8471,
    "hast": 5357,
    "network": 1932,
    "Ġdiminishing": 4210,
    "Ġsulkily": 25882,
    "iasm": 8060,
    "Ġearly": 2079,
    "ravelled": 18014,
    "stri": 6249,
    "ivot": 11716,
    "Ġdangers": 12352,
    "hills": 13735,
    "Ġwhichever": 13999,
    "Ġintellect": 8169,
    "Ġoperation": 11997,
    "apes": 9740,
    "Ġhemp": 9215,
    "hotel": 20048,
    "Ġsalut": 10509,
    "patched": 17643,
    "enched": 10154,
    "Ġexertions": 13409,
    "Ġoccasion": 3247,
    "Ġmyster": 5925,
    "Ġdelight": 2545,
    "Ġfeeds": 16432,
    "allet": 11083,
    "bour": 2073,
    "irted": 14071,
    "hyme": 19608,
    "Ġgifted": 17996,
    "fitzwilliam": 11352,
    "Ġchristmas": 6924,
    "Ġunrelieved": 20544,
    "Ġidentify": 12012,
    "hem": 6663,
    "Ġbreezes": 14868,
    "Ġwalks": 8966,
    "Ġsunk": 5752,
    "_?âĢĿ": 15304,
    "Á": 130,
    "Ġbrixton": 13662,
    "Ġinflamed": 13472,
    "Ġsupervised": 3686,
    "ojo": 7349,
    "narrowly": 20346,
    "Ġinsolent": 13599,
    "Ġunimag": 12772,
    "Ġsaville": 15887,
    "Ġartificial": 791,
    "Ġsociety": 3974,
    "Ġnut": 12643,
    "plunging": 25987,
    "Ġbenignity": 18781,
    "vitiated": 25754,
    "Ġmonuments": 22974,
    "Ġrear": 6535,
    "Ġrecital": 16147,
    "Ġscaramouch": 23825,
    "bast": 10076,
    "Ġspecific": 2003,
    "Ġswashing": 23053,
    "Ġsatisfy": 6912,
    "harpoone": 6107,
    "ersampling": 18216,
    "dock": 16417,
    "tooth": 18579,
    "shroud": 20311,
    "Ġrippling": 17277,
    "eers": 20842,
    "ely": 621,
    "Ġmonkey": 8225,
    "save": 13784,
    "lic": 17587,
    "clothed": 19737,
    "Ġroute": 11381,
    "Ġringed": 16750,
    "Ġafraid": 3528,
    "Ġknown": 1643,
    "Ġwrapped": 8341,
    "Ġforesaw": 19127,
    "Ġperse": 6272,
    "Ġunforeseen": 22050,
    "shabbily": 26246,
    "Ġol": 17814,
    "correspond": 13397,
    "Ġlearned": 2024,
    "Ġsperma": 19048,
    "orough": 5700,
    "Ġequals": 4726,
    "Ġcontributed": 16007,
    "Ġtyros": 26101,
    "Ġdrawling": 19435,
    "Ġenraged": 10244,
    "perse": 15898,
    "Ġnonsensical": 21526,
    "Ġdoubloon": 6945,
    "ias": 6362,
    "Ġstirs": 14916,
    "nelson": 25620,
    "iating": 3206,
    "Ġcurves": 18855,
    "Ġrifle": 18212,
    "superst": 11325,
    "Ġimpropriety": 17395,
    "Ġrefusing": 11028,
    "blow": 9103,
    "Ġunobserved": 18249,
    "Ġdoubted": 7965,
    "Ġdistinct": 4609,
    "ale": 505,
    "Ġtrample": 20326,
    "Ġap": 5008,
    "ernation": 8211,
    "Ġquietude": 19358,
    "oura": 1059,
    "Ġgallied": 19555,
    "Ġrealising": 18983,
    "3": 23,
    "Ġmidships": 23635,
    "september": 14035,
    "Ġnervousness": 23555,
    "Ġrept": 13982,
    "Ġcoldly": 14650,
    "ĭ": 238,
    "Ġfinding": 3266,
    "Ġcommander": 8624,
    "Ġnephew": 6404,
    "Ġspeedy": 11172,
    "Ġtr": 552,
    "Ġswelling": 11923,
    "Ġcomprehensive": 15086,
    "relative": 24010,
    "Ġremoter": 20104,
    "Ġintend": 12761,
    "Ġdisclosed": 15152,
    "Ġparsonage": 7123,
    "produ": 10720,
    "ifle": 10891,
    "Ġfacil": 16962,
    "Ġsome": 654,
    "exceed": 7910,
    "Ġextract": 1495,
    "Ġshag": 9250,
    "Ġproduces": 2093,
    "Ġgloom": 4203,
    "Ġmum": 13857,
    "circ": 4388,
    "Ġinher": 10179,
    "isk": 9167,
    "Ġdependencies": 2314,
    "impenet": 18053,
    "Ġtweezers": 26556,
    "Ġtranspired": 16784,
    "eed": 20840,
    "Ġstoner": 7178,
    "Ġchronic": 9928,
    "far": 5787,
    "Ġdwelling": 7322,
    "Ĵ": 245,
    "pate": 21009,
    "Ġhercules": 14127,
    "Ġflank": 8228,
    "Ġsecure": 4912,
    "terrors": 25041,
    "ky": 4520,
    "Ġcru": 2820,
    "oped": 6046,
    "Ġfamil": 4321,
    "Ġsibbald": 21229,
    "mysteries": 26051,
    "Ġbrimming": 22864,
    "Ġslightest": 6092,
    "Ġop": 2600,
    "Ġdow": 17886,
    "Ġexcessively": 9439,
    "Ġprofundity": 20451,
    "Ġincompatible": 25680,
    "Ġstir": 5823,
    "Ġrumpled": 24600,
    "Ġmarch": 4085,
    "city": 15326,
    "Ġinstances": 5568,
    "Ġcraft": 4376,
    "inger": 6812,
    "Ġtam": 7821,
    "Ġtufted": 17014,
    "slow": 7810,
    "Ġapprehended": 26091,
    "Ġz": 1000,
    "Ġ124": 24469,
    "Ġneur": 808,
    "rus": 5929,
    "Ġcons": 954,
    "igns": 8447,
    "Ġschooner": 16747,
    "met": 6652,
    "Ġmes": 17796,
    "Ġbillow": 14778,
    "Ġbreast": 8968,
    "intelligent": 16844,
    "ckinridge": 11717,
    "hamed": 6305,
    "Ġcombines": 1177,
    "isc": 6239,
    "Ġsurf": 19131,
    "Ġspit": 22121,
    "Ġpeasants": 12330,
    "Ġaghast": 16045,
    "mad": 5280,
    "Ġm": 274,
    "Ġash": 4832,
    "eted": 7592,
    "Ġsignals": 10585,
    "dec": 3113,
    "Ġsomething": 1797,
    "blister": 24128,
    "sufficient": 6635,
    "Ġpresented": 5183,
    "Ġinterest": 2245,
    "kl": 4865,
    "sor": 7352,
    "Ġquito": 24408,
    "fins": 13718,
    "shrugged": 22459,
    "examine": 25477,
    "imagine": 19930,
    "factories": 19842,
    "Ġsc": 534,
    "Ġsucceeding": 16761,
    "Ġexcessive": 3890,
    "Ġgenteel": 19979,
    "Ġfiery": 6871,
    "tables": 19756,
    "icirc": 15653,
    "rers": 14717,
    ";âĢĿ": 7790,
    "Ġpsal": 15613,
    "Ġtroubled": 6615,
    "Ġisrael": 21800,
    "ich": 470,
    "Ġprejudices": 13468,
    "altering": 12637,
    "Ġreducing": 1960,
    "Ġrelate": 6875,
    "Ġlapl": 19776,
    "Ġalexander": 17423,
    "Ġchiefly": 5766,
    "Ġineffect": 13929,
    "sn": 7138,
    "Ġlig": 21545,
    "Ġcumberland": 21353,
    "tedious": 22630,
    "Ġglaring": 11905,
    "Ġbeloved": 5572,
    "passed": 8025,
    "Ġchronicled": 25328,
    "Ġunnearable": 26516,
    "Ġpeered": 18668,
    "Ġsovere": 9255,
    "Ġdiscoverers": 26036,
    "oar": 12495,
    "Ġoverseeing": 22357,
    "ality": 2510,
    "Ġknighthood": 25297,
    "hever": 13830,
    "Ġdeclare": 6614,
    "Ġtendency": 11329,
    "Ġromans": 16759,
    "pens": 17632,
    "augmented": 26286,
    "Ġtrim": 15966,
    "cused": 15331,
    "Ġprofited": 19190,
    "Ġstrength": 4260,
    "Ġindicated": 10469,
    "Ġsideways": 6181,
    "Ġwhole": 1661,
    "hau": 17562,
    "Ġlap": 8436,
    "ots": 3295,
    "different": 6501,
    "lanterns": 17428,
    "haust": 5777,
    "?": 35,
    "Ġaccidents": 10295,
    "vocabulary": 25085,
    "sway": 15423,
    "Ġdevoured": 16133,
    "dropout": 3195,
    "imen": 12683,
    "idol": 21763,
    "Ġgallons": 14817,
    "Ġegot": 18007,
    "matlock": 23468,
    "Ġdishes": 16048,
    "brought": 7285,
    "suspect": 9539,
    "Ġaverage": 3140,
    "ĠâĢĶ": 13810,
    "gentle": 5356,
    "Ġanecdote": 26354,
    "Ġblasts": 19994,
    "Ġdusting": 24596,
    "ras": 21035,
    "aste": 4601,
    "vering": 15713,
    "remediable": 26294,
    "Ġpilgrimage": 17307,
    "Ġgrateful": 7660,
    "Ġperceptibly": 25821,
    "Ġhell": 5019,
    "Ġhermits": 22071,
    "Ġproduced": 2451,
    "Ġaugmented": 15104,
    "ously": 2489,
    "Ġhurt": 7700,
    "Ġangels": 11178,
    "Ġprodig": 6027,
    "Ġembalmed": 13655,
    "hval": 20897,
    "Ġdiscomposure": 20377,
    "Ġtwink": 8215,
    "Ġmomentarily": 22810,
    "moored": 22703,
    "Ġdrown": 6815,
    "Ġphren": 8571,
    "phew": 6368,
    "Ġflogged": 23623,
    "Ġexact": 2540,
    "Ġstrata": 26027,
    "Ġbashaw": 25633,
    "ier": 1136,
    "angs": 5834,
    "â": 163,
    "eldom": 4413,
    "assist": 11764,
    "Ġannihilation": 15164,
    "vel": 2384,
    "veral": 2353,
    "Ġinformation": 1045,
    "maged": 15392,
    "notice": 16142,
    "Ġsledge": 8110,
    "Ġbennet": 1574,
    "Ġmechanis": 1203,
    "him": 1943,
    "match": 15389,
    "Ġawful": 6199,
    "Ġlie": 4406,
    "Ġsilently": 6895,
    "Ġunite": 9253,
    "ence": 392,
    "jackets": 24895,
    "mal": 6794,
    "ling": 735,
    "Ġidiotic": 25588,
    "Ġgibraltar": 25787,
    "Ġinduced": 8670,
    "Ġ60": 14874,
    "Ġmother": 2068,
    "Ġadjusts": 8980,
    "Ġcra": 2331,
    "scap": 22982,
    "Ġmean": 742,
    "Ġphyset": 23197,
    "Ġsought": 5010,
    "saf": 11524,
    "zening": 21147,
    "Ġworthless": 19564,
    "Ġrally": 21965,
    "thirst": 15823,
    "Ġtresses": 21174,
    "achine": 609,
    "Ġcard": 7363,
    "Ġbarmaid": 19334,
    "welt": 12518,
    "Ġpractices": 19089,
    "Ġswan": 23048,
    "Ġoxford": 11371,
    "wife": 8100,
    "act": 785,
    "Ġdomineer": 23629,
    "Ġbackpropagation": 1281,
    "Ġtouched": 6000,
    "Ġven": 4647,
    "abri": 6682,
    "Ġfreighted": 16321,
    "Ġblunt": 11892,
    "Ġpaddled": 20200,
    "Ġexclude": 19041,
    "fed": 11487,
    "Ġpenalizing": 13090,
    "Ġperil": 5557,
    "himself": 3968,
    "pshire": 21023,
    "coat": 5407,
    "infidel": 24663,
    "Ġguided": 10461,
    "assured": 10950,
    "Ý": 158,
    "Ġdestined": 7974,
    "Ġjustified": 11902,
    "onse": 21248,
    "collins": 6916,
    "Ġcrews": 8990,
    "Ġundu": 15835,
    "phur": 16143,
    "lead": 10165,
    "Ġpilgrim": 25599,
    "Ġprodigious": 8056,
    "Ġsolution": 9804,
    "Ġquadr": 8199,
    "Ġwillow": 18533,
    "Ġsiber": 17755,
    "Ġparc": 10920,
    "Ġcentrally": 23829,
    "iary": 15369,
    "Ġwhitewashed": 14468,
    "Ġamours": 22478,
    "Ġdelivery": 18975,
    "Ġgrand": 3591,
    "Ġwanted": 4968,
    "Ġreminding": 19796,
    "Ġvoice": 2187,
    "Ġvexatious": 19780,
    "Ġbeneath": 3238,
    "Ġ86": 24461,
    "Ġsuspending": 19242,
    "Ġundo": 15838,
    "tossing": 18580,
    "Ġarch": 923,
    "Ġtough": 13814,
    "Ġcogn": 11002,
    "ateg": 1352,
    "Ġarid": 22173,
    "industrious": 26239,
    "Ġmistaking": 23717,
    "Ġremembr": 24170,
    "Ġceremonious": 24837,
    "Ġsize": 1217,
    "Ġjer": 6266,
    "uzzle": 19582,
    "Ġcottages": 14726,
    "admon": 21758,
    "ede": 21503,
    "Ġdeparted": 5564,
    "wondered": 17029,
    "Ġfielding": 16228,
    "Ġcovariate": 2349,
    "Ġshoulders": 5566,
    "mpus": 13756,
    "Ġunchanged": 22028,
    "Ġresponsible": 9886,
    "congreg": 25398,
    "wheeler": 16187,
    "accurately": 25861,
    "Ġlabelled": 23326,
    "Ġdiscourage": 3117,
    "12": 20748,
    "lounged": 26133,
    "Ġdoctors": 12149,
    "inable": 11555,
    "Ġfrighted": 24026,
    "Ġacquaint": 13042,
    "diss": 17523,
    "Ġfurrow": 22812,
    "Ġorb": 22088,
    "charmed": 21693,
    "Åĵuv": 15181,
    "training": 2515,
    "Ġsqualid": 14367,
    "Ġvexations": 24609,
    "Ġtame": 17722,
    "Ġsorting": 3234,
    "Ġunseen": 3522,
    "coll": 23778,
    "picture": 11407,
    "owed": 2268,
    "Ġgallant": 8654,
    "Ġinsult": 6747,
    "Ġshock": 6082,
    "puzzling": 26143,
    "threadbare": 25989,
    "confusion": 13368,
    "Ġassert": 7120,
    "fr": 4804,
    "Ġvaulted": 25167,
    "Ģ": 227,
    "influences": 25250,
    "Ġr": 404,
    "Ġcompletely": 4860,
    "Ġremarked": 3695,
    "Ġoarsmen": 7737,
    "Ġtreacherously": 25129,
    "Ġenforced": 21935,
    "kinder": 24845,
    "Ġlogic": 13077,
    "Ġcaught": 3729,
    "Ġswamp": 14435,
    "noble": 7923,
    "acks": 11786,
    "Ġprompted": 23814,
    "benevol": 12224,
    "prop": 1048,
    "sit": 13779,
    "compar": 14356,
    "would": 2351,
    "forward": 2184,
    "intimate": 22934,
    "Ġoffence": 12942,
    "Ġdiscoursing": 26266,
    "quarter": 11388,
    "eu": 17530,
    "Ġcausal": 3411,
    "entiful": 10836,
    "Ġgash": 15668,
    "aled": 3941,
    "Ġjolly": 6856,
    "bub": 15315,
    "Ġquite": 1743,
    "retreat": 23132,
    "aling": 1034,
    "Ġbeholding": 8668,
    "Ġdistrust": 8204,
    "stamp": 21651,
    "queg": 1772,
    "Ġgable": 15664,
    "Ġquestioned": 14619,
    "Ġcensured": 25094,
    "Ġel": 799,
    "Ġsolved": 8931,
    "places": 7876,
    "introduced": 15123,
    "member": 20974,
    "Ġlichen": 20090,
    "Ġlearns": 2642,
    "Ġbefore": 806,
    "Ġoff": 902,
    "Ġlogits": 3451,
    "Ġpor": 5225,
    "Ġant": 4346,
    "Ġcontrol": 13079,
    "civility": 17513,
    "Ġpurport": 14581,
    "Ġs": 265,
    "Ġstreamed": 14546,
    "neighb": 16021,
    "Ġhedge": 8363,
    "Ġwarb": 17787,
    "Ġmysterious": 7528,
    "Ġocean": 3305,
    "Ġtal": 7565,
    "olerably": 11675,
    "Ġpapa": 10656,
    "Ġyell": 21774,
    "achment": 5464,
    "Ġfunction": 581,
    "Ġnail": 9195,
    "drab": 23895,
    "Ġloos": 15869,
    "Ġbuck": 7157,
    "vation": 4744,
    "Ġignorantly": 19494,
    "Ġpredictions": 1454,
    "idence": 4303,
    "Ġsemicircular": 26069,
    "Ġsermon": 12374,
    "Ġfails": 13312,
    "odings": 4399,
    "Ġintroduced": 7691,
    "Ġdisappo": 4505,
    "Ġabove": 2931,
    "Ġoptimization": 1473,
    "Ġintrepidity": 25550,
    "hy": 4740,
    "Ġtemperate": 16160,
    "Ġunche": 23427,
    "Ġnobler": 14175,
    "Ġberry": 19745,
    "Ġpier": 7162,
    "Ġpicturesque": 14893,
    "Ġpensive": 21473,
    "rin": 10121,
    "Ġrepresent": 1212,
    "Ġwaggish": 25434,
    "exe": 11787,
    "Ġshivering": 10265,
    "Ġcoquet": 22581,
    "Ġknob": 24407,
    "Ġallows": 3233,
    "chance": 6827,
    "Ġclerks": 17294,
    "Ġwidow": 8662,
    "Ġhaught": 10252,
    "Ġwigwam": 11428,
    "ete": 9203,
    "assumed": 22294,
    "Ġenlar": 15798,
    "Ġeggs": 12340,
    "killer": 20474,
    "terday": 4704,
    "Ġbeck": 14008,
    "Ġbegrimed": 26578,
    "Ġlavenza": 17970,
    "bastian": 10673,
    "Ġcloak": 9533,
    "hoping": 17566,
    "Ġladen": 19176,
    "Ġtranspointed": 22437,
    "changed": 7175,
    "doom": 23375,
    "splice": 17170,
    "Ġgord": 21597,
    "Ġstern": 4223,
    "Ġdischarge": 18556,
    "dreaded": 25138,
    "Ġhurst": 5582,
    "Ġgroaned": 11266,
    "Ġpromising": 10399,
    "raham": 18013,
    "Ġcountries": 13095,
    "boots": 11126,
    "Ġsystems": 811,
    "Ġdissembling": 26254,
    "bo": 1690,
    "Ġvestige": 20061,
    "Ġfault": 5702,
    "acy": 3951,
    "elling": 5830,
    "Ġcoffee": 6760,
    "Ġcontrived": 10303,
    "Ġfearfully": 23511,
    "Ġpr": 1596,
    "Ġstrugg": 3216,
    "Ġweighing": 20014,
    "Ġtinged": 20081,
    "}": 97,
    "arpo": 1756,
    "Ġplucked": 15112,
    "Ġhansom": 13663,
    "ette": 15656,
    "Ġinst": 912,
    "cious": 6643,
    "putation": 7625,
    "ruin": 22177,
    "university": 25983,
    "year": 11094,
    "Ġhovers": 19076,
    "Ġsupports": 3047,
    "Ġunfor": 15837,
    "queness": 18147,
    "Ġkidnapping": 26356,
    "swept": 19785,
    "exam": 10976,
    "Ġal": 342,
    "allowed": 5728,
    "Ġseparated": 9464,
    "Ġavoided": 13257,
    "morland": 24153,
    "Ġbec": 1350,
    "Ġsummarization": 3646,
    "Ġtable": 2497,
    "Ġgiving": 4088,
    "Ġobjection": 6585,
    "Ġincompetent": 25679,
    "Ġfeeling": 3083,
    "Ġresol": 2665,
    "Ġwish": 2098,
    "ensed": 10995,
    "Ġbucket": 8787,
    "Ġplum": 11820,
    "Ġinsp": 2101,
    "orrow": 2910,
    "Ġthreads": 13116,
    "Ġatone": 15800,
    "Ġtink": 9148,
    "ments": 1399,
    "Ġdeployment": 11200,
    "stache": 15687,
    "blown": 25201,
    "Ġy": 341,
    "advice": 12155,
    "Ġtents": 13817,
    "inian": 21181,
    "Ġmaster": 3680,
    "Ġcasc": 15553,
    "urpr": 2287,
    "Ġundersampling": 19517,
    "Ġcharging": 23265,
    "Ġfurnaces": 24002,
    "Ġ1894": 5196,
    "Ġwild": 2599,
    "Ġanonymous": 26178,
    "Ġcommanders": 23866,
    "Ġfake": 5810,
    "rock": 15638,
    "Ġasia": 11682,
    "contempt": 13187,
    "Ġinser": 6820,
    "dread": 8728,
    "hero": 21203,
    "mitted": 5213,
    "Ġbash": 12583,
    "Ġexult": 10229,
    "Ġ1": 1014,
    "Ġsabbee": 17255,
    "Ġaddu": 22099,
    "Ġdeficient": 18825,
    "Ġwise": 6811,
    "lections": 4752,
    "!âĢĶâĢĻ": 23564,
    "Ġvultures": 25653,
    "Ġsinister": 8568,
    "Ġenrolled": 21934,
    "Ġcomfits": 21849,
    "itude": 1415,
    "miles": 10712,
    "ony": 3025,
    "Ġxli": 14542,
    "Ġcrunched": 19123,
    "Ġexploit": 19161,
    "Ġreliably": 22875,
    "Ġdependen": 1831,
    "Ġaccomplish": 14875,
    "Ġsmiled": 5940,
    "spermaceti": 12191,
    "credit": 12446,
    "ithing": 11648,
    "Ġresp": 2492,
    "Ġxxxi": 24966,
    "Ġsweeter": 23915,
    "Ġdere": 21830,
    "Ġsatur": 1931,
    "Ġresidence": 8206,
    "Ġjacket": 6489,
    "Ġconf": 1821,
    "ctuous": 9205,
    "Ġemployment": 8628,
    "[_": 5131,
    "Ġhelpless": 8301,
    "Ġcolon": 18762,
    "indisc": 22370,
    "Ġtort": 5901,
    "Ġcompress": 21846,
    "Ġthere": 564,
    "Ġhabits": 6926,
    "Ġwarmup": 3919,
    "kick": 20935,
    "Ġembarrassment": 10626,
    "Ġgrimes": 11034,
    "simple": 13451,
    "Ġwashes": 21858,
    "Ġobstetrics": 24678,
    "entieth": 17978,
    "heavens": 19744,
    "Ġtrampling": 25492,
    "Ġeveryday": 22771,
    "fro": 8732,
    "fellows": 12271,
    "Ġmatrimony": 13634,
    "breat": 10077,
    "ating": 664,
    "Ġponder": 6819,
    "Ġgall": 4352,
    "ceive": 3064,
    "Ġheartily": 6890,
    "ishe": 13890,
    "Ġuntrodden": 23521,
    "Ġimpenetrable": 17397,
    "Ġpurchase": 12257,
    "Ġbathed": 17865,
    "Ġsigning": 22705,
    "allies": 14165,
    "Ġlone": 11612,
    "Ġindiscreet": 22953,
    "alog": 8804,
    "Ġplunder": 22599,
    "Ġbriony": 9328,
    "lever": 2926,
    "el": 306,
    "Ġglare": 13010,
    "Ġmissionary": 25696,
    "asily": 13945,
    "part": 2572,
    "Ġmonstr": 7667,
    "learnt": 23526,
    "precious": 12070,
    "Ġfors": 21768,
    "cra": 6354,
    "Ġjustification": 22963,
    "Ġleader": 14701,
    "Ġharmless": 9964,
    "Ġfoam": 6891,
    "Ġgrasping": 12163,
    "led": 582,
    "akeman": 6267,
    "Ī": 235,
    "Ġfired": 16152,
    "heim": 17746,
    "Ġhandspike": 22695,
    "Ġloggerhead": 13656,
    "Ġaboriginal": 14188,
    "Ġobstinacy": 17420,
    "Ġdeprec": 15753,
    "Ġrevenue": 26194,
    "Ġeth": 17716,
    "Ġtw": 841,
    "ske": 13781,
    "acet": 5476,
    "Ġcramped": 23530,
    "architect": 22891,
    "Ġcity": 4530,
    "Ġponderous": 8354,
    "Ġshaken": 10264,
    "99": 1898,
    "fect": 2300,
    "interrupted": 11417,
    "rolling": 9060,
    "Ġinvulnerable": 19146,
    "cooks": 25067,
    "Ġtarn": 21157,
    "Ġgasps": 24865,
    "Ġsteam": 9352,
    "Ġspade": 9258,
    "Ġrates": 1402,
    "revival": 26162,
    "Ġsche": 1705,
    "information": 12391,
    "Ġunhe": 22007,
    "Ġsupposing": 6728,
    "Ġdebt": 12165,
    "Ġmary": 3841,
    "Ġintellig": 524,
    "teak": 22815,
    "inquire": 16932,
    "oper": 7347,
    "Ġattentive": 9033,
    "Ġcorrection": 5062,
    "distinguished": 10526,
    "ĠĠĠĠĠĠĠĠĠĠĠĠĠ": 22559,
    "fier": 9593,
    "muring": 17601,
    "aculate": 16080,
    "Ġwade": 17784,
    "Ġoft": 9194,
    "Ġreproached": 24891,
    "earnestly": 17312,
    "Ġblades": 11893,
    "Ġsolve": 4198,
    "Ġbenefactor": 14697,
    "Ġdisappoint": 24205,
    "Ġfireplace": 13144,
    "Ġimparts": 18446,
    "Ġxlvi": 25590,
    "bright": 8989,
    "Ġincapable": 7423,
    "aternity": 21264,
    "Ġing": 5283,
    "restoration": 23233,
    "Ġcocaine": 20720,
    "rights": 23674,
    "Ġhates": 21483,
    "Ġhoot": 19074,
    "trans": 5594,
    "Ġmuhammad": 26169,
    ",--": 2476,
    "secure": 12233,
    "emone": 21924,
    "Ġmingling": 20196,
    "Ġhated": 7585,
    "Ġmagn": 1555,
    "Ġtearless": 24786,
    "Ġunsocial": 18256,
    "Ġloitering": 22113,
    "Ġcasting": 12098,
    "pressed": 6588,
    "topp": 22562,
    "Ġperverseness": 13653,
    "Ġwonder": 2117,
    "Ġgr": 978,
    "Ġdegener": 14046,
    "Ġquieted": 23840,
    "Ġpresum": 4837,
    "Ġnormal": 1204,
    "Ġunqualified": 22058,
    "Ġhurts": 19111,
    "Ġkindly": 6077,
    "ositories": 22261,
    "Ġperem": 12929,
    "Ġherds": 9715,
    "consolation": 15151,
    "ics": 3258,
    "osoever": 17342,
    "ivil": 6411,
    "ss": 397,
    "azz": 8261,
    "Ġunseasonable": 26520,
    "Ġstand": 1738,
    "Ġconstrained": 19238,
    "Ġstiff": 6992,
    "Ġstraits": 7993,
    "Ġrefinement": 18699,
    "Ġbel": 1216,
    "Ġbrink": 18770,
    "Ġindications": 14632,
    "Ġconsumed": 10349,
    "Ġwhistled": 24623,
    "Ġrome": 12153,
    "Ġbeautifully": 13265,
    "Ġtransfer": 2259,
    "Ġmenaced": 16291,
    "Ġevid": 3499,
    "Ġadversity": 24303,
    "keeper": 5597,
    "ises": 3653,
    "Ġbrown": 6298,
    "icorn": 15654,
    "dissatisf": 26129,
    "Ġentic": 16141,
    "Ġrush": 5924,
    "fortune": 4975,
    "reasoning": 9475,
    "Ġtom": 15630,
    "gypt": 8260,
    "Ġplowdon": 26447,
    "mitting": 17602,
    "mist": 5686,
    "Ġdirect": 1470,
    "inf": 6232,
    "Ġextinguished": 10339,
    "Ġstr": 757,
    "Ġcreatures": 4140,
    "ir": 380,
    "Ġsmell": 7216,
    "Ġscare": 18405,
    "laws": 19806,
    "Ġcongratulated": 19765,
    "continuance": 19717,
    "Ġbabies": 19691,
    "Ġresc": 4506,
    "harm": 13734,
    "Ġ20": 8613,
    "Ġcol": 1058,
    "twill": 21073,
    "flagged": 23969,
    "geons": 15977,
    "Ġchisel": 20366,
    "Ġperceive": 6699,
    "Ġangel": 4852,
    "Ġtremulous": 14985,
    "Ġimpass": 15983,
    "Ġincredible": 9514,
    "Ġtreasure": 9558,
    "Ġliberality": 24377,
    "Ġrisk": 8038,
    "Ġlurk": 13382,
    "Ġnam": 17948,
    "Ġcrashes": 13124,
    "erpillar": 5797,
    "Ġfarm": 7840,
    "Ġquality": 3526,
    "Ġdwelt": 12602,
    "Ġillustrative": 25066,
    "Ġestablishment": 13578,
    "Ġslim": 18936,
    "Ġprices": 15609,
    "mond": 20972,
    "Ġwhims": 12689,
    "Ġnormalizing": 1823,
    "Ġpaid": 5015,
    "Ġbales": 21387,
    "mission": 5969,
    "Ġkitty": 3907,
    "Ġilluminated": 20174,
    "Ġwoollen": 12101,
    "Ġrhine": 12354,
    "Ġindec": 13927,
    "Ġsuspend": 14608,
    "Ġexpand": 9306,
    "movable": 14323,
    "Ġelixir": 26555,
    "Ġcorpulence": 24509,
    "Ġmachines": 1778,
    "mush": 20976,
    "Ġnightmare": 18919,
    "voc": 8393,
    "Ġlionel": 25286,
    "Ġcaps": 8414,
    "Ġpresents": 8244,
    "Ġsheet": 6262,
    "timidity": 25753,
    "Ġmild": 4149,
    "infernal": 24662,
    "Ġowners": 7663,
    "said": 4108,
    "Ġconfirms": 23307,
    "ri": 390,
    "peare": 18911,
    "Ġembodied": 25847,
    "Ġround": 1369,
    "reel": 21232,
    "context": 3405,
    "Ġshin": 18227,
    "Ġconducted": 10502,
    "Ġbrushed": 15568,
    "hent": 12531,
    "Ġdressing": 7090,
    "satisfaction": 9991,
    "Ġforlorn": 14014,
    "Ġdesper": 6176,
    "Ġoutput": 930,
    "Ġincom": 9768,
    "Ġdearest": 5456,
    "Ġmich": 21305,
    "puzz": 17640,
    "Ġsunday": 7270,
    "Ġwrecks": 16818,
    "Ġofficious": 19346,
    "pursuit": 20339,
    "irc": 1732,
    "Ġsharply": 9402,
    "âĢĻ-": 18166,
    "Ġsqualidness": 25842,
    "Ġassure": 4418,
    "Ġadvertised": 17247,
    "Ġindulged": 13416,
    "contemplated": 20457,
    "pered": 4199,
    "Ġmoonlight": 9957,
    "Ġillustrations": 17108,
    "Ġpreacher": 18369,
    "Ġwhit": 7177,
    "Ġframework": 1842,
    "Ġumbrell": 13649,
    "Ġdescrying": 18618,
    "vig": 15445,
    "Ġhis": 381,
    "Ġfusion": 21412,
    "instant": 8651,
    "Ġblasp": 14400,
    "circled": 24187,
    "Ġrecogn": 2953,
    "jaws": 20931,
    "ounds": 4159,
    "Ġinquir": 4243,
    "Ġfrankness": 16746,
    "Ġautomation": 13237,
    "shunned": 22464,
    "Ġstructural": 2796,
    "Ġprofessors": 14724,
    "Ġdrawers": 12103,
    "Ġimitate": 14157,
    "representation": 20195,
    "Ġsteer": 10386,
    "Ġfren": 10805,
    "oforte": 14285,
    "tish": 17677,
    "inhab": 10757,
    "bus": 5354,
    "telesc": 22816,
    "Ġembark": 8560,
    "Ġsuccession": 12099,
    "Ġinferences": 17934,
    "Ġpowerful": 1497,
    "Ġwhalebone": 10977,
    "Ġmoccas": 22431,
    "shot": 2207,
    "cient": 4569,
    "Ġdeserted": 8636,
    "Ġoars": 3895,
    "Ġterrors": 6918,
    "Ġsuspicion": 6211,
    "attery": 18501,
    "Ġmedicine": 15204,
    "Ġlam": 21546,
    "Ġcus": 21341,
    "Ġdetestable": 15097,
    "Ġpott": 21466,
    "Ġgreenness": 23765,
    "scream": 11076,
    "Ġawakened": 10453,
    "ensils": 22545,
    "Ġrestlessness": 23291,
    "worth": 8626,
    "Ġcorre": 3886,
    "Ġeffemin": 18530,
    "composure": 24031,
    "estate": 12818,
    "twig": 23698,
    "Ġclear": 1952,
    "Ġclam": 7416,
    "fish": 3514,
    "fel": 8733,
    "Ġped": 6817,
    "Ġwashington": 17202,
    "Ġvial": 10248,
    "gument": 20884,
    "owners": 16085,
    "rote": 4592,
    "Ġdeploy": 2928,
    "Ġsigh": 10336,
    "Ġsevered": 18205,
    "Ġtener": 21162,
    "study": 15116,
    "Ġginger": 9210,
    "ł": 259,
    "Ġsewing": 21958,
    "Ġbusied": 19064,
    "Ġaccommod": 14212,
    "Ġones": 3015,
    "attached": 11933,
    "stood": 4120,
    "clim": 18929,
    "Ġstud": 1641,
    "uneasiness": 23686,
    "Ġbending": 12582,
    "oundered": 14164,
    "Ġraving": 16112,
    "Ġriggers": 24156,
    "Ġbeaufort": 13567,
    "Ġnoon": 6559,
    "mystical": 25317,
    "Ġfurious": 10353,
    "Ġdiscipl": 22782,
    "Ġperformed": 8546,
    "Ġspeedily": 7711,
    "Ġholding": 4979,
    "Ġsliding": 9363,
    "Ġstrongest": 11135,
    "collected": 13212,
    "Ġeigen": 4881,
    "jud": 4481,
    "Ġstiffness": 24830,
    "slee": 17168,
    "Ġbasin": 19847,
    "Ġsounds": 5190,
    "landlord": 9839,
    "adm": 7609,
    "Ġauthor": 4375,
    "herfield": 3630,
    "regard": 7972,
    "Ġforesight": 13126,
    "manif": 14372,
    "ivility": 12782,
    "etence": 21574,
    "Ġswinging": 7449,
    "j": 78,
    "Ġposted": 16724,
    "schoolmaster": 15160,
    "ose": 718,
    "Ġwards": 17789,
    "Ġsou": 1890,
    "rebellum": 26165,
    "manifested": 20524,
    "Ġimpact": 10296,
    "Ġgene": 15669,
    "Ġdisembow": 22534,
    "spee": 9316,
    "Ġacceler": 1608,
    "Ġbarbary": 24216,
    "Ġtolerably": 8067,
    "Ġcollins": 2178,
    "character": 6331,
    "forgot": 11033,
    "Ġarriving": 19215,
    "Ġflattering": 13026,
    "Ġheartless": 13071,
    "Ġsuspicious": 9479,
    "Ġadvice": 4901,
    "Ġpolar": 9410,
    "least": 8784,
    "Ġimproves": 22737,
    "dragged": 16608,
    "flo": 6114,
    "Ġreporting": 24657,
    "abling": 1080,
    "Ġroused": 7623,
    "Ġexpost": 18622,
    "Ġguise": 14431,
    "Ġshortened": 23481,
    "Ġburning": 5976,
    "inement": 11557,
    "eric": 3470,
    "bouton": 17501,
    "Ġuntidy": 23522,
    "Ġitself": 2519,
    "Ġreplay": 5047,
    "Ġrank": 6258,
    "uck": 1234,
    "cept": 557,
    "Ġattain": 12746,
    "Ġsavages": 9911,
    "zers": 21145,
    "Ġvoluntary": 14798,
    "Ġslam": 13055,
    "Ġ43": 14768,
    "Ġwaiting": 4324,
    "Ġinsure": 13177,
    "Ġsorrowful": 10536,
    "cous": 8721,
    "Ġpossibly": 4513,
    "Ġmappings": 2148,
    "Ġpiteous": 17917,
    "Ġwarm": 2425,
    "Ġdream": 3536,
    "idable": 8145,
    "Ġaggregate": 25677,
    "Ġgoug": 17990,
    "Ġbenefited": 19396,
    "omitted": 18016,
    "confl": 22466,
    "Ġworship": 10366,
    "conjectures": 25180,
    "lover": 18539,
    ".)": 6783,
    "whom": 8184,
    "Ġcongrat": 5827,
    "Ġtantalizing": 20412,
    "should": 3263,
    "Ġspades": 12793,
    "Ġhopelessly": 16377,
    "mountain": 10713,
    "Ġostlers": 25276,
    "Ġrucastle": 5176,
    "tomorrow": 25914,
    "summer": 11992,
    "subsided": 25830,
    "Ġforgery": 25977,
    "gener": 3127,
    "Ġshilling": 18228,
    "Ġentail": 9790,
    "Ġdomin": 10459,
    "Ġdeal": 3607,
    "Ġquar": 3114,
    "Ġquitting": 7646,
    "Ġlookest": 22713,
    "Ġupper": 5090,
    "Ġselection": 18204,
    "benevolent": 15232,
    "Ġincludes": 2012,
    "washed": 13043,
    "ieving": 7031,
    "Ġdoub": 1838,
    "wearing": 22684,
    "Ġchapter": 2951,
    "Ġhorribly": 16340,
    "itching": 21333,
    "Ġsuspecting": 14909,
    "Ġprepared": 5876,
    "vex": 21699,
    "repro": 10770,
    "Ġnecessity": 7296,
    "coil": 23558,
    "Ġnewcomer": 26040,
    "apparat": 22841,
    "Ġtossing": 8125,
    "velled": 9875,
    "Ġslime": 23157,
    "Ġstrings": 11827,
    "Ġkl": 2737,
    "Ġsan": 7824,
    "our": 535,
    "admit": 18090,
    "Ġminor": 12965,
    "Ġceases": 19312,
    "wond": 8767,
    "Ġangry": 5498,
    "Ġlightnings": 16351,
    "Ġpurposed": 23551,
    "Ġhydraulic": 10063,
    "anel": 21355,
    "harpooneer": 8688,
    "Ġreusable": 13556,
    "been": 3344,
    "Ġcivilly": 19602,
    "Ġheight": 4221,
    "Ġsucking": 12785,
    "Ġreigns": 21668,
    "Ġmadame": 13149,
    "Ġbath": 9658,
    "Ġchick": 22244,
    "Ġafter": 870,
    "osed": 1963,
    "Ġabsurdities": 24878,
    "Ġstingy": 25455,
    "cabinet": 25077,
    "Ġrecklessness": 24745,
    "Ġinfer": 7684,
    "younger": 11312,
    "iancy": 13006,
    "Ġconceits": 19388,
    "stricken": 9883,
    "Ġforgotten": 5679,
    "recollected": 25347,
    "Ġmediocr": 24081,
    "Ġcandles": 9907,
    "Ġbenediction": 18783,
    "rifled": 21046,
    "ants": 1389,
    "Ġ}": 21152,
    "Ġunsav": 18251,
    "captains": 12125,
    "Ġauthent": 14508,
    "]": 65,
    "Ġaltitude": 26202,
    "grees": 20885,
    "Ġforming": 7042,
    "odious": 21809,
    "beyond": 8882,
    "iscient": 17851,
    "Ġbund": 17863,
    "Ġmachinations": 25767,
    ",": 16,
    "varying": 13803,
    "Ġanimals": 8978,
    "Ġsettle": 6293,
    "Ġimpaling": 22382,
    "Ġsplin": 8618,
    "prodigious": 17466,
    "Ġarchitectures": 2905,
    "Ġclos": 4549,
    "avoiding": 25236,
    "Ġassid": 18944,
    "Ġhurtling": 24957,
    "englishman": 23676,
    "Ġaromatic": 25925,
    "Ġmessages": 24981,
    "only": 3308,
    "Ġknife": 7309,
    "Ġacid": 22679,
    "alluring": 18352,
    "clothes": 9057,
    "orously": 8418,
    "ĠĠĠĠĠĠĠĠĠĠ": 18577,
    "ulate": 5233,
    "te": 997,
    "Ġimmovable": 15890,
    "Ġconfederate": 17353,
    "Ġbonnet": 10655,
    "Ġcontro": 1687,
    "retion": 9361,
    "Ġfrankenstein": 7095,
    "Ġdates": 6693,
    "g": 75,
    "steaks": 23958,
    "Ġbeings": 2488,
    "Ġrays": 10330,
    "heaven": 8052,
    "Ġ110": 24435,
    "Ġrobes": 16242,
    "Ġsurmised": 24919,
    "Ġmiles": 3801,
    "cont": 2915,
    "we": 847,
    "Ġembarks": 22978,
    "Ġbanished": 10616,
    "Ġconfused": 7964,
    "Ġyoung": 1506,
    "Ġxiv": 23406,
    "henry": 16625,
    "otle": 21794,
    "retired": 11934,
    "ghost": 20886,
    "paradise": 20636,
    "83": 13679,
    "yond": 2329,
    "dismay": 19152,
    "Ġlobsters": 13516,
    "Ġnathan": 21523,
    "Ġbeh": 1803,
    "Ġdaresay": 14703,
    "Ġgo": 613,
    "maritime": 24173,
    "Ġsurging": 19133,
    "Ġuncontrollable": 25814,
    "urns": 10213,
    "mistake": 24529,
    "Ġet": 3578,
    "Ġmight": 968,
    "sail": 3602,
    "Ġtowing": 9193,
    "Ġmurmur": 14589,
    ".*": 7331,
    "Ġthese": 817,
    "Ġprudent": 9185,
    "Ġapple": 14168,
    "unted": 6998,
    "Ġcrowd": 6336,
    "oring": 1862,
    "Ġjealous": 9468,
    "officers": 10627,
    "truth": 9918,
    "Ġforces": 12699,
    "support": 9469,
    "yt": 17711,
    "Ġprev": 6264,
    "Ġinvaluable": 10182,
    "presented": 12988,
    "ascended": 24706,
    "real": 10149,
    "Ġdepart": 4656,
    "endeavoured": 12278,
    "Ġarsacides": 17293,
    "Ġvacantly": 16815,
    "madam": 24421,
    "Ġferoc": 14896,
    "sander": 11526,
    "col": 3104,
    "Ġsnake": 12058,
    "Ġdeact": 18134,
    "Ġthyself": 6602,
    "Ġyourself": 2591,
    "Ġuttermost": 19486,
    "Ġ2": 2923,
    "okingly": 22378,
    "important": 7112,
    "Ġamaze": 22480,
    "Ġdishonoured": 20389,
    "Ġintercepted": 25826,
    "Ġfrightens": 24027,
    "confidence": 16808,
    "Ġequal": 4138,
    "broker": 13303,
    "Ġspasmodically": 17313,
    "placed": 7877,
    "bbing": 6323,
    "ai": 2523,
    "Ġink": 8802,
    "Ġsubstant": 14808,
    "Ġsuffered": 5649,
    "moran": 24152,
    "Ġneed": 2606,
    "Ġintimately": 24804,
    "involved": 25626,
    "Ġguineas": 16269,
    "esting": 7412,
    "Ġabated": 18390,
    "itarian": 21335,
    "Ġcoal": 18593,
    "Ġsaturn": 22899,
    "Ġslide": 10393,
    "ouching": 13176,
    "Ġscheme": 7064,
    "penet": 11070,
    "Ġhandwriting": 14318,
    "chose": 18040,
    "ocratic": 17245,
    "breathing": 25335,
    "laying": 19771,
    "Ġabusing": 18393,
    "Ġscraps": 16902,
    "Ġswear": 6461,
    "beside": 19876,
    "toss": 22563,
    "Ġunwaning": 25170,
    "Ġhurried": 4033,
    "Ġintrig": 21987,
    "inspector": 13645,
    "Ġinco": 14259,
    "Ġsupplement": 22996,
    "compl": 6873,
    "Ġoak": 6128,
    "sphere": 22731,
    "Ġvideos": 13605,
    "Ġproceed": 3243,
    "breckinridge": 24072,
    "Ġomin": 11576,
    "Ġbrawn": 10481,
    "iloquent": 21722,
    "Ġmoran": 9340,
    "**:": 4737,
    "putting": 14099,
    "Ġmutiny": 13258,
    "Ġnostrils": 10943,
    "crown": 13697,
    "Ġupdate": 2463,
    "Ġearth": 2847,
    "covery": 11171,
    "Ġadaptive": 1348,
    "ĠĠĠĠĠĠĠĠĠĠĠĠĠĠĠĠĠĠĠĠĠĠĠĠĠĠ": 13387,
    "Ġwash": 9702,
    "Ġano": 11595,
    "Ġcrests": 25685,
    "Ġale": 9154,
    "Ġimpotently": 22389,
    "Ġcove": 22579,
    "Ġapart": 4746,
    "Ġuproar": 22152,
    "humoredly": 26324,
    "Ġskiff": 16163,
    "Ġacross": 1330,
    "Ġscruple": 25048,
    "abular": 4762,
    "Ġcheck": 7271,
    "Ġknitted": 19588,
    "Ġthirst": 7590,
    "Ġrecurred": 18977,
    "Ġlads": 8597,
    "Ġjerked": 19831,
    "spirited": 19752,
    "Ġexpanding": 25238,
    "Ġgradual": 20600,
    "Ġappl": 1720,
    "ccas": 15883,
    "Ġimpressions": 9552,
    "Ġvessel": 3796,
    "Ġtormented": 8674,
    "sham": 9760,
    "Ġconsidered": 4611,
    "Ġtwisting": 18658,
    "Ġpretension": 23762,
    "enger": 10773,
    "Ġbigger": 19760,
    "eps": 12787,
    "making": 2571,
    "grow": 10098,
    "hroom": 12474,
    "Ġhusbands": 16642,
    "Ġprodigies": 19792,
    "Ġrouted": 24907,
    "Ġgushed": 21604,
    "children": 9055,
    "pin": 13766,
    "Ġsuited": 12784,
    "ek": 1909,
    "ĠĠĠĠĠĠĠĠ": 711,
    "Ġimmemorially": 25383,
    "Ġtowers": 16738,
    "he": 264,
    "Ġsanely": 24980,
    "Ġunfit": 14787,
    "Ġrepeatedly": 9020,
    "Ġnaturally": 2466,
    "upwards": 18863,
    "Ġpattering": 18654,
    "enial": 17780,
    "Ġholes": 16406,
    "Ġmarry": 4417,
    "worship": 19385,
    "Ġthrob": 21515,
    "Ġhearken": 21682,
    "Ġbingley": 1675,
    "appointment": 24056,
    "Ġemboldened": 22979,
    "tailed": 17685,
    "Ġdisgra": 18549,
    "Ġripe": 13233,
    "Ġcatholic": 20680,
    "Ġsherlock": 3891,
    "Ġark": 10275,
    "Ġinflu": 4909,
    "oboam": 9357,
    "Ġembraced": 10005,
    "Ġraise": 6166,
    "usations": 15940,
    "Ġundivided": 24121,
    "Ġprimitive": 25061,
    "eches": 8077,
    "arm": 1358,
    "fted": 9118,
    "Ġcircling": 19092,
    "Ġvirginia": 13499,
    "til": 17671,
    "precaution": 23820,
    "Ġast": 2957,
    "Ġslight": 3121,
    "Ġstructured": 2968,
    "Ġaccent": 10293,
    "Ġintelligent": 1612,
    "Ġundeniable": 26510,
    "having": 5211,
    "ivates": 18277,
    "mess": 13752,
    "Ġtumbled": 13405,
    "Ġparad": 2839,
    "broad": 8642,
    "Ġfree": 3377,
    "Ġquivered": 18467,
    "planks": 21951,
    "Ġequator": 7461,
    "itely": 5365,
    "ian": 1238,
    "asper": 7854,
    "Ġscreening": 25300,
    "Ġwraps": 19775,
    "bles": 7017,
    "Ġretrie": 10382,
    "Ġqueerest": 16413,
    "Ġramadan": 9575,
    "Ġtrue": 1339,
    "Ġunfortunate": 5376,
    "Ġvisibly": 22853,
    "Ġimmortal": 8017,
    "Ġhove": 17922,
    "hastening": 24448,
    "Ġadmired": 7981,
    "Ġvaried": 11846,
    "ric": 1376,
    "Ġthought": 1095,
    "Ġbefitting": 15723,
    "ip": 560,
    "ullied": 23101,
    "ustomed": 6098,
    "Ġdescrib": 2720,
    "Ġpleasures": 11143,
    "Ġaristotle": 25817,
    "favourite": 15142,
    "continually": 11302,
    "ef": 5134,
    "Ġstrove": 9956,
    "Ġhogarth": 25780,
    "mild": 15390,
    "Ġprophesy": 26061,
    "uiperai": 10663,
    "Ġadviser": 25312,
    "Ġwinchester": 10065,
    "dignity": 15344,
    "Ġdre": 1746,
    "itch": 10160,
    "Ġsensible": 4976,
    "Ġinjection": 3467,
    "Ġscatter": 18406,
    "Ġve": 1107,
    "Ġunbroken": 18250,
    "Ġslashing": 23166,
    "Ġfinds": 6299,
    "Ġmildly": 9029,
    "Ġfootman": 8287,
    "istry": 22106,
    "Ġspool": 24806,
    "Ġcher": 6129,
    "sim": 6510,
    "Ġegypt": 9678,
    "sold": 15425,
    "ĠâĢľ": 516,
    "eleg": 20848,
    "Ġgeorge": 3747,
    "Ġteaches": 18798,
    "Ġdisinclined": 22526,
    "Ġcobbler": 25829,
    "Ġlarge": 1064,
    "Ġarabic": 24978,
    "eness": 2291,
    "sole": 6168,
    "Ġpassed": 2011,
    "money": 8749,
    "sius": 13787,
    "devil": 7894,
    "Ġpouch": 21467,
    "Ġhelen": 16655,
    "Ġpalpable": 15205,
    "Ġdeaden": 23459,
    "Ġshift": 2282,
    "Ġprogress": 5023,
    "Ġrelieve": 8223,
    "Ġwaste": 9233,
    "Ġubiqu": 18046,
    "tea": 18741,
    "Ġmagical": 23095,
    "Ġfiver": 22773,
    "Ġeng": 1160,
    "Ġmarrying": 6177,
    "shells": 26056,
    "Ġsuccessive": 10500,
    "Ġscroll": 14193,
    "Ġmuttered": 7086,
    "Ġdefined": 11896,
    "plan": 15812,
    "Ġunnatural": 7190,
    "Ġbathing": 20198,
    "pursued": 17281,
    "hitherto": 17283,
    "Ġcork": 12566,
    "venge": 4658,
    "ctor": 13959,
    "Ġfourteen": 12008,
    "Ġscrewing": 20207,
    "oried": 10802,
    "Ġmultitude": 9324,
    "Ġbounds": 9917,
    "Ġdecanting": 22440,
    "Ġtumbling": 13825,
    "iferous": 17291,
    "Ġchar": 1704,
    "Ġappearing": 9840,
    "Ġdoc": 7200,
    "Ġfootpaths": 26318,
    "Ġshirt": 8848,
    "Ġsinks": 19548,
    "Ġdiscourse": 9797,
    "Ġlanding": 11983,
    "reclining": 20573,
    "Ġbrow": 3986,
    "Ġalacrity": 15734,
    "Ġobsequ": 14319,
    "grounds": 11151,
    "approb": 11042,
    "Ġutterance": 14762,
    "uvier": 9068,
    "Ġdevelopments": 23223,
    "Ġmaid": 5285,
    "Ġgiant": 13967,
    "Ġflorid": 17135,
    "Ġtrip": 16788,
    "Ġscorn": 7901,
    "Ġshaved": 21999,
    "floated": 24643,
    "Ġchaldee": 26234,
    "itional": 22475,
    "Ġscenery": 11456,
    "Ġstruggled": 9904,
    "resolved": 9639,
    "added": 11658,
    "Ġcentral": 7727,
    "kov": 17586,
    "poverty": 22906,
    "Ġrefrained": 14342,
    "Ġsummons": 13230,
    "Ġbenevolent": 7772,
    "Ġstorms": 11262,
    "Ġtuples": 13476,
    "azing": 7704,
    "Ġengrossed": 12994,
    "Ġislanders": 19500,
    "Ġquiescent": 26242,
    "Ġbitterest": 12400,
    "Ġstochastic": 3267,
    "Ġsynthe": 26007,
    "onent": 21247,
    "osy": 11756,
    "trial": 20349,
    "ressed": 3019,
    "Ġblanche": 18819,
    "Ġanoint": 25537,
    "barrow": 15320,
    "onstrate": 17768,
    "Ġhearse": 10420,
    "lik": 3913,
    "Ġpossess": 3202,
    "station": 10844,
    "uracy": 1049,
    "Ġcruisings": 25864,
    "Ġpra": 4347,
    "Ġvest": 8162,
    "Ġreflection": 6440,
    "Ġridiculous": 10629,
    "olog": 1110,
    "Ġreligions": 20106,
    "Ġsymb": 2589,
    "Ġtill": 1827,
    "Ġbrazier": 26320,
    "Ġme": 351,
    "Ġheadway": 18793,
    "ortion": 11755,
    "Ġintrusion": 12762,
    "vell": 3955,
    "ining": 3221,
    "Ġoptimize": 1695,
    "Ġsnugly": 17111,
    "Ġcadiz": 17324,
    "Ġundoubted": 19513,
    "Ġremote": 8919,
    "lection": 3652,
    "Ġsubsequent": 7659,
    "ckled": 9256,
    "Ġgaping": 13968,
    "chess": 16573,
    "Ġbid": 6131,
    "Ġtossed": 5815,
    "Ġvelocity": 10620,
    "Ġleaning": 5228,
    "Ġbargain": 23791,
    "P": 52,
    "ativeness": 15519,
    "Ġimmens": 9938,
    "Ġsting": 10861,
    "Ġurging": 24505,
    "Ġpopulous": 16826,
    "Ġmeadows": 11422,
    "events": 12315,
    "Ġwholesome": 16003,
    "agement": 4190,
    "Ġbehaviors": 13253,
    "fiercely": 25256,
    "Ġwake": 4749,
    "Ġprodu": 1206,
    "Ġprovided": 6577,
    "·": 120,
    "Ġmetropolitan": 17275,
    "Ġimpudence": 26241,
    "Ġswarming": 16271,
    "salesman": 20670,
    "Ġgroves": 16740,
    "based": 2956,
    "Ġlimp": 19179,
    "pilot": 25908,
    "Ġcorrespondent": 19821,
    "guinea": 16672,
    "lower": 8880,
    "Ġauto": 23296,
    "Ġwedding": 4858,
    "Ġunreasonably": 17450,
    "queen": 12724,
    "iar": 2377,
    "Ġfinger": 5273,
    "Ġlively": 5449,
    "Ġmeantime": 6206,
    "Ġwalrus": 14972,
    "storied": 18024,
    "beautiful": 10648,
    "Ġintroduction": 8970,
    "Ġmouth": 3179,
    "vast": 10736,
    "specul": 23940,
    "Ġweight": 656,
    "Ġreck": 6537,
    "provided": 13636,
    "rise": 6226,
    "pton": 15791,
    "Ġaisle": 21200,
    "bloom": 24689,
    "Ġpiling": 17910,
    "Ġdeceitfulness": 25734,
    "Ġstained": 11651,
    "osp": 6854,
    "Ġeffected": 14350,
    "Ġhabitual": 24790,
    "Ġloungers": 24862,
    "Ġwithin": 2161,
    "uting": 15657,
    "wers": 12517,
    "concealed": 25115,
    "Ġeaves": 15673,
    "horizon": 23614,
    "ibilities": 13005,
    "Ġcool": 5734,
    "Ġtear": 6722,
    "Ġpovelson": 26552,
    "Ġdiscredit": 22780,
    "natural": 2275,
    "Ġdetached": 10279,
    "Ġest": 2264,
    "Ġseasonable": 24406,
    "neys": 23581,
    "Ġmonsieur": 12419,
    "weather": 7229,
    "Ġsheep": 10928,
    "Ġallegor": 25545,
    "Ġwallow": 19464,
    "oused": 6556,
    "Ġjura": 14189,
    "Ġbathe": 25443,
    "oundering": 11744,
    "Ġblock": 2574,
    "ictions": 14225,
    "idated": 11660,
    "Ġhedgehog": 10644,
    "Ġslowly": 3617,
    "Ġjob": 7015,
    "Ġdepos": 11007,
    "Ġgermans": 25784,
    "Ġroasted": 18458,
    "Ġimpending": 22383,
    "Ġsheeted": 19830,
    "Ġknocking": 10559,
    "Ġsunken": 14494,
    "Ġdischar": 11806,
    "pha": 22747,
    "strikes": 24670,
    "Ġinquiry": 6484,
    "Ġpeddler": 24800,
    "Ġvanity": 7045,
    "Ġabiding": 22267,
    "Ġsnodhead": 19300,
    "thouse": 21979,
    "idea": 9300,
    "Ġcomprehending": 24445,
    "admirably": 24944,
    "action": 3725,
    "Ġmaterials": 11288,
    "Ġasks": 5115,
    "!âĢĻ": 3332,
    "Ġmoved": 4839,
    "Ġtex": 15471,
    "serious": 14447,
    "Ġshipmate": 8928,
    "iving": 1728,
    "Ġbowels": 9429,
    "Ġmanor": 14196,
    "valued": 2849,
    "Ġfeeble": 12282,
    "Ġacquiesce": 20328,
    "host": 5867,
    "Ġinfinity": 23281,
    "Ġdistinguish": 2728,
    "Ġtranslation": 3086,
    "apsed": 6295,
    "umerable": 11723,
    "beh": 5472,
    "Ġbrag": 23831,
    "income": 15485,
    "Ġmarbank": 23034,
    "Ġrespite": 13153,
    "eight": 9591,
    "Ġrecognised": 8998,
    "Ġalders": 21781,
    "Ġcontemptuously": 19832,
    "on": 267,
    "ated": 717,
    "Ġcaus": 1727,
    "Ġapplication": 2094,
    "haired": 14765,
    "Ġembeddings": 2209,
    "Ġsheltered": 19910,
    "Ġeag": 2963,
    "Ġwasting": 12725,
    "Ġunlim": 18253,
    "thole": 21983,
    "ness": 853,
    "Ġmaimed": 21315,
    "elder": 21569,
    "surv": 24213,
    "Ġirresolution": 24915,
    "Ġunb": 10907,
    "Ġtour": 9147,
    "Ġtucked": 12390,
    "Ġcomplaint": 24776,
    "inform": 10143,
    "ĝ": 222,
    "Ġpersuasion": 10498,
    "Ġfidget": 15188,
    "quarrel": 20013,
    "Ġmalignant": 14877,
    "Ġperform": 1035,
    "Ġshaster": 21995,
    "Ġsuperstition": 15054,
    "itiousness": 21332,
    "call": 8722,
    "Ġunited": 6840,
    "itan": 10159,
    "Ġtistig": 26413,
    "Ġrests": 13092,
    "Ġguido": 2973,
    "orient": 2874,
    "unwholesome": 26497,
    "swaying": 25910,
    "Ġevenly": 4132,
    "unching": 18158,
    "Ġcommit": 18655,
    "Ġintens": 7003,
    "Ġflood": 7715,
    "those": 4495,
    "Ġinstead": 2788,
    "Ġsyllables": 25298,
    "tempted": 26403,
    "Ġsalvation": 14756,
    "rict": 8092,
    "Ġgrease": 26189,
    "Ġcrowder": 19454,
    "iner": 2670,
    "Ġshocking": 10435,
    "Ġunhappily": 18262,
    "Ġexchanged": 10878,
    "Ġsolitary": 5854,
    "correct": 24483,
    "chers": 11317,
    "Ġblooming": 17212,
    "cet": 15324,
    "Ġgranted": 22804,
    "Ġunreasoning": 15843,
    "Y": 61,
    "Ġattitude": 8903,
    "Ġembod": 14413,
    "oam": 8751,
    "Ġtimidity": 24687,
    "Ġdebts": 8035,
    "results": 20385,
    "irous": 8838,
    "Ġstig": 14001,
    "Ġsunset": 8962,
    "lift": 15383,
    "Ġrugged": 18720,
    "aulets": 18619,
    "monster": 8591,
    "influ": 9540,
    "Ġefficiently": 4059,
    "Ġadduced": 26524,
    "Ġentertained": 9997,
    "evenings": 19461,
    "Ġheated": 21679,
    "erringly": 16210,
    "Ġinasmuch": 10825,
    "Ġdiscretion": 10347,
    "jure": 20923,
    "fa": 7336,
    "Ġgover": 2461,
    "procure": 23395,
    "penetrating": 25490,
    "Ġcredited": 25153,
    "Ġcrotch": 9962,
    "Ġcrawling": 17045,
    "Ġblinds": 8006,
    "precipitance": 25867,
    "yp": 1043,
    "hammered": 19007,
    "illes": 12691,
    "Ġhandle": 3138,
    "safe": 10053,
    "astonished": 15032,
    "wild": 8766,
    "Ġmercy": 8997,
    "filled": 9594,
    "ommod": 13976,
    "Ġcou": 5286,
    "Ġpetersburgh": 24228,
    "Ġaback": 22263,
    "naturalists": 23510,
    "anations": 12573,
    "pleasing": 14741,
    "humoured": 11236,
    "Ġqueens": 16706,
    "clean": 14759,
    "protection": 19919,
    "Ġsolid": 6443,
    "icha": 11735,
    "Ġannot": 15599,
    "fearing": 18532,
    "farewell": 12304,
    "Ġnoble": 3441,
    "Ġsummer": 4790,
    "Ġcaterpillar": 5864,
    "Ġalps": 10870,
    "umul": 1289,
    "Ġscoresby": 10462,
    "Ġpoliceman": 15257,
    "ascending": 24707,
    "retch": 4371,
    "Ġlo": 452,
    "net": 1196,
    "Ġindividuality": 14908,
    "Ġspirits": 3697,
    "equ": 6790,
    "Ġwherefore": 8524,
    "Ġprecisely": 6466,
    "day": 1860,
    "alions": 21498,
    "gazing": 12469,
    "Ġpaddock": 25037,
    "ropri": 2177,
    "Ġmerchant": 6467,
    "Ġvind": 10249,
    "centred": 25017,
    "Ġtamer": 24976,
    "thern": 4953,
    "rugg": 15896,
    "sacrifice": 13491,
    "Ġsomebody": 7912,
    "?âĢĶ": 3468,
    "oise": 15403,
    "Ġscreen": 17205,
    "Ġdirty": 9178,
    "bos": 17483,
    "Ġland": 1998,
    "ruff": 15895,
    "Ġdesign": 4135,
    "Ġemployed": 5200,
    "Ġpry": 11599,
    "dun": 17516,
    "Ġunfair": 19506,
    "yn": 7819,
    "class": 4100,
    "Ġbandages": 24427,
    "Ġappertaining": 26533,
    "Ġsatisf": 2804,
    "Ġineffectual": 17383,
    "takes": 21074,
    "Ġsincere": 11136,
    "Ġjar": 15943,
    "weeks": 14315,
    "Ġsust": 7007,
    "Ġperformer": 18754,
    "Ġfailure": 13313,
    "Ġopenness": 18955,
    "Ġhaggard": 17329,
    "Ġassign": 11110,
    "Ġrenow": 18027,
    "bowing": 24454,
    "Ġsuffice": 18869,
    "Ġdavis": 25952,
    "Ġconting": 18472,
    "belais": 24035,
    "Ġdutch": 6327,
    "gratification": 24348,
    "Ġinhabitants": 7525,
    "Ġbracing": 16580,
    "Ġrevolving": 9982,
    "Ġtrusty": 24105,
    "ooping": 21006,
    "feature": 4027,
    "Ġinnoc": 3792,
    "Ã¦us": 14816,
    "ink": 756,
    "Ġlonging": 14299,
    "writ": 16552,
    "Ġconsecutive": 20701,
    "llable": 6878,
    "Ġexcel": 3565,
    "Ġtrained": 8502,
    "seas": 14032,
    "Ġfibres": 12948,
    "Ġimmaculate": 19484,
    "04": 10679,
    "Ġchains": 8250,
    "Ġcontortions": 18476,
    "Ġakin": 15494,
    "due": 22407,
    "Ġvicissitudes": 12417,
    "Ġoverhung": 15972,
    "pr": 3174,
    "pth": 2381,
    "rity": 13775,
    ".}": 20744,
    "Ġbasic": 24701,
    "Ġimputable": 22170,
    "Ġcerem": 7077,
    "Ġsuperstitions": 17072,
    "bruary": 15234,
    "Ġupwards": 7634,
    "Ġrestless": 10413,
    "Ġcocks": 18595,
    "Ġsporty": 19889,
    "Ġgoverness": 8601,
    "tenderly": 20529,
    "Ġsecret": 3719,
    "Ġpour": 13913,
    "en": 271,
    "Ġlining": 13950,
    "Ġindication": 22949,
    "Ġinit": 814,
    "Ġovertaken": 18429,
    "quietly": 10592,
    "Ġdisagree": 22529,
    "Ġdisregarded": 22527,
    "define": 1526,
    "ì": 173,
    "icult": 3341,
    "aff": 3103,
    "Ġexclusion": 19394,
    "Ġgales": 12662,
    "ullo": 12726,
    "prom": 6509,
    "Ġsole": 3298,
    "contains": 16028,
    "besides": 8695,
    "Ġreason": 1371,
    "Ġpromoting": 3161,
    "ples": 6845,
    "Ġgnashed": 20131,
    "Ġtumble": 16879,
    "Ġcombat": 16184,
    "commend": 19991,
    "Ġanchored": 17439,
    "Ġlater": 6016,
    "Ġ13": 6718,
    "Ġmoonshine": 19596,
    "alt": 12635,
    "Ġrevolt": 24504,
    "judge": 13335,
    "Ġmechan": 1171,
    "Ġarve": 15891,
    "coff": 9108,
    "Ġshri": 5375,
    "Ġnod": 1891,
    "Ġspilling": 22134,
    "Ġpill": 7845,
    "licted": 20955,
    "lemag": 21370,
    "lodged": 25907,
    "depart": 12263,
    "¯": 112,
    "header": 11931,
    "Ġdorm": 4821,
    "ean": 20839,
    "Ġroof": 6564,
    "oyed": 14363,
    "outon": 12801,
    "play": 5099,
    "infallibly": 26417,
    "Ġparagraph": 17453,
    "Ġrheum": 18214,
    "Ġsailed": 4889,
    "Ġanswerable": 23469,
    "pleasure": 5977,
    "Ġcritically": 23444,
    "poured": 17637,
    "Ġassociate": 13449,
    "ultural": 22565,
    "lung": 17591,
    "Ġcontemplation": 11357,
    "Ġluxur": 12339,
    "Ġformed": 3882,
    "Ġperpendicular": 7209,
    "Ġinstantaneously": 23660,
    "Ġclanking": 20610,
    "Ġwhar": 7388,
    "Ġtext": 2266,
    "Ġincrease": 9369,
    "furnished": 20240,
    "Ġmenacing": 23104,
    "yea": 23084,
    "ected": 7872,
    "uation": 17694,
    "ists": 3998,
    "Ġvon": 14080,
    "Ġclumsy": 9579,
    "Ġconfirming": 25321,
    "Ġcreases": 22724,
    "morn": 20975,
    "iv": 431,
    "Ġminimizing": 3465,
    "Ġlamentations": 17076,
    "Ġbumps": 21390,
    "why": 2825,
    "mouse": 15391,
    "Ġlimped": 19180,
    "Ġcoldness": 23757,
    "Ġgardeners": 12118,
    "infer": 10144,
    "constellation": 24607,
    "achalot": 15861,
    "atever": 3078,
    "brevi": 24071,
    "Ġreaped": 18029,
    "Ġpassages": 12967,
    "Ġtoe": 13935,
    "Ġclasping": 20208,
    "Ġberyls": 25775,
    "Ġincorrect": 2730,
    "sciss": 18851,
    "«": 109,
    "Ġirrevocably": 15296,
    "never": 3152,
    "Ġpeaceful": 9454,
    "Ġbills": 17860,
    "Ġmedit": 8018,
    "consumed": 25675,
    "oting": 2745,
    "Ġspeculations": 22992,
    "Ġbounce": 21391,
    "Ġmac": 15536,
    "Ġtrunk": 7205,
    "hatches": 19927,
    "Ġsickness": 10538,
    "Ġbough": 13893,
    "Ġlibrary": 6423,
    "Ġfeatureless": 22606,
    "isle": 13891,
    "Ġbeque": 18080,
    "make": 5793,
    "Ġamb": 9291,
    "Ġ75": 19611,
    "ele": 9114,
    "Ġsafely": 9025,
    "Ġdardanelles": 26443,
    "stirring": 20424,
    "caut": 20811,
    "txt": 12513,
    "Ġgovernment": 15175,
    "Ġremnants": 22790,
    "aiian": 23591,
    "Ġcanall": 10927,
    "Ġvirtual": 11239,
    "Ġstratag": 26028,
    "Ġphyseter": 26586,
    "urring": 21702,
    "azed": 9398,
    "Ġconstruct": 23338,
    "wise": 2573,
    "taffrail": 15441,
    "Ġawait": 17073,
    "Ġplayfulness": 23638,
    "ore": 418,
    "Ġtrades": 8231,
    "ignorantly": 25189,
    "enorm": 17781,
    "ography": 13361,
    "Ġswitzerland": 10379,
    "arthy": 4822,
    "Ġtrivial": 10142,
    "Ġpity": 4941,
    "Ġimpartial": 15218,
    "Ġhellaswag": 24343,
    "Ġlift": 8810,
    "Ġplayfully": 19237,
    "Ġspectacle": 10496,
    "pig": 8752,
    "Ġdiffused": 12066,
    "ald": 15622,
    "Ġseventeen": 26210,
    "Ġda": 5150,
    "Ġlod": 4043,
    "yder": 10138,
    "hair": 9122,
    "Ġscientific": 6858,
    "icuous": 10835,
    "ceptible": 10960,
    "conducted": 25572,
    "bonnet": 25742,
    "Ġadversarial": 5607,
    "intending": 22932,
    "apply": 18758,
    "Ġenemy": 5605,
    "Ġthoughtful": 16190,
    "ige": 12676,
    "Ġdrowned": 9551,
    "feelings": 5674,
    "Ġrecollected": 8310,
    "Ġdrove": 4984,
    "antages": 7192,
    "inquiries": 13576,
    "Ġwindward": 6885,
    "Ġmending": 17804,
    "madly": 24420,
    "Ġcolds": 23756,
    "Ġlike": 668,
    "bottle": 20144,
    "Ġben": 1108,
    "fluttering": 23970,
    "Ġupon": 719,
    "Ġbakers": 17866,
    "Ġsurvive": 9066,
    "Ġcontrary": 5260,
    "mag": 6508,
    "oro": 21393,
    "intosh": 22937,
    "Ġcalling": 5662,
    "Ġbigot": 24565,
    "repressed": 21242,
    "buoy": 7760,
    "Ġhoofs": 14527,
    "Ġfoolish": 5979,
    "otherwise": 7671,
    "Ġtheirs": 7024,
    "adel": 15726,
    "robber": 21534,
    "Ġresult": 4460,
    "unlike": 18156,
    "retaining": 21244,
    "lan": 15376,
    "paws": 21028,
    "Ġfunny": 7638,
    "visual": 24222,
    "Ġeuropean": 20044,
    "Ġambition": 11432,
    "ans": 458,
    "ty": 1002,
    "Ġdistant": 5387,
    "Ġpinched": 17035,
    "cask": 12444,
    "studied": 17149,
    "chants": 21689,
    "want": 8765,
    "estab": 14170,
    "Ġcharge": 5324,
    "decl": 8856,
    "Ġrubbing": 9320,
    "structure": 2380,
    "ribs": 23361,
    "xes": 21139,
    "eastward": 15128,
    "dman": 10088,
    "Ġcontinually": 5042,
    "hour": 7340,
    "falgar": 26130,
    "Ġthrow": 3781,
    "derer": 4600,
    "Ġsimulation": 2752,
    "Ġtending": 17724,
    "allow": 5104,
    "itations": 17817,
    "Ġfigured": 16643,
    "Ġmurderous": 8315,
    "mong": 15388,
    "ex": 622,
    "Ġprofits": 16489,
    "Ġbordering": 17228,
    "semble": 1525,
    "decided": 13214,
    "Ġri": 3396,
    "Ġimpertinence": 11366,
    "baden": 25615,
    "master": 5687,
    "Ġbennets": 9805,
    "surf": 24212,
    "hit": 20888,
    "Ġwearing": 12736,
    "butter": 11783,
    "berg": 11857,
    "fering": 17542,
    "Ġentertain": 6053,
    "cherries": 19755,
    "dil": 11478,
    "Ġremorseless": 13450,
    "Ġniag": 21527,
    "Ġcontribute": 12858,
    "Ġtorrents": 20054,
    "ferred": 16407,
    "Ġphysiology": 25332,
    "Ġchanging": 11751,
    "Ġchag": 15929,
    "Ġunlo": 22009,
    "Ġemerge": 14927,
    "Ġremorse": 6441,
    "Ġaright": 11738,
    "Ġfaintness": 24570,
    "Ġhesitation": 13440,
    "Ġproprietors": 20185,
    "exasper": 22424,
    "abern": 21787,
    "somehow": 12010,
    "Ġvoc": 4451,
    "Ġuncles": 23429,
    "Ġestimates": 3746,
    "scornful": 26575,
    "hurry": 24763,
    "Ġducks": 25157,
    "Ġmature": 17799,
    "Ġnodes": 1969,
    "wl": 17702,
    "Ġnumerical": 4246,
    "Ġalpine": 18105,
    "between": 5071,
    "Ġhark": 8427,
    "Ġmultiplied": 23689,
    "staking": 21645,
    "Ġmanual": 14197,
    "Ġinvader": 23477,
    "Ġknew": 2055,
    "Ġemerged": 8684,
    "Ġclut": 7642,
    "calculating": 25689,
    "stre": 5451,
    "Ġchron": 19436,
    "Ġpulley": 2972,
    "Ġsiamese": 20481,
    "Ġlooked": 1804,
    "iza": 6255,
    "Ġporpoise": 7106,
    "high": 6649,
    "Ġdifficulties": 11225,
    "Ġblushed": 12999,
    "Ġinaccessible": 13933,
    "Ġunfav": 14788,
    "Ġfixed": 2685,
    "Ġdesigned": 7740,
    "racts": 14362,
    "Ġlawn": 7379,
    "help": 1477,
    "Ġwhoever": 10973,
    "expanded": 23665,
    "bearers": 18524,
    "Ġdomain": 3246,
    "ardy": 22158,
    "ience": 822,
    "Ġmerciless": 25246,
    "Ġcomplain": 6685,
    "Ġaspect": 3096,
    "Ġpyramids": 15113,
    "Ġplanisp": 24054,
    "Ġrecording": 24434,
    "Ġstupendous": 20499,
    "sister": 5139,
    "Ġindist": 14408,
    "Ġhired": 10177,
    "Ġirrad": 19093,
    "fair": 10092,
    "Ġspasmod": 12412,
    "una": 21866,
    "Ġdefend": 9339,
    "Ġensued": 11394,
    "Ġanaly": 1111,
    "etus": 21575,
    "Ġbas": 6380,
    "saw": 5893,
    "thes": 7391,
    "Ġpant": 10817,
    "brother": 7091,
    "Ġindign": 6173,
    "Ġbenchmarks": 15021,
    "argue": 21442,
    "Ġcompassion": 6487,
    "Ġcategor": 4142,
    "circum": 16737,
    "Ġillinois": 19136,
    "Ġarisen": 11741,
    "Ġspinning": 15052,
    "rints": 12500,
    "Ġimpression": 5732,
    "Ġspots": 11727,
    "Ġprayers": 12121,
    "que": 1116,
    "Ġinconsistency": 26182,
    "Ġ6": 5141,
    "Ġdarkly": 19114,
    "remaining": 20219,
    "atives": 2233,
    "Ġclapped": 9743,
    "rece": 21233,
    "inferences": 17739,
    "osal": 11757,
    "Ġretains": 20028,
    "pires": 13774,
    "weave": 22682,
    "Ġplaymate": 23639,
    "kitty": 10105,
    "Ġunattended": 15841,
    "report": 13398,
    "Ġships": 3713,
    "Ġoverjoy": 15969,
    "Ġquoin": 22415,
    "Ġlaudanum": 20689,
    "corrid": 24484,
    "Ġabstraction": 26539,
    "Ġtracing": 18888,
    "Ġpardon": 5727,
    "Ġlash": 8438,
    "Ġstriving": 8995,
    "result": 12041,
    "Ġnervously": 19183,
    "Ġchapel": 9522,
    "Ġarchitects": 18731,
    "Ġtend": 6120,
    "crat": 24098,
    "Ġhues": 21486,
    "Ġtreatment": 12069,
    "terogene": 21822,
    "co": 2434,
    "erect": 20847,
    "Ġabode": 7899,
    "Ġent": 903,
    "fore": 686,
    "âĢĶâĢĺ": 7013,
    "Ġlast": 1123,
    "Ġready": 3399,
    "utmost": 21585,
    "fastened": 19324,
    "bil": 20770,
    "²": 115,
    "lish": 1954,
    "chors": 11643,
    "Ġcordage": 19677,
    "plutarch": 21954,
    "Ġshroud": 6483,
    "meantime": 9091,
    "Ġnose": 4402,
    "ned": 3491,
    "Ġcondense": 21805,
    "Ġreaches": 18031,
    "Ġeven": 1027,
    "Ġexcite": 11964,
    "sav": 8096,
    "Ġunwilling": 7885,
    "admitted": 18091,
    "Ġwants": 5742,
    "ims": 7176,
    "Ġsells": 21222,
    "arying": 9800,
    "Ġpaint": 7707,
    "Ġaccompaniments": 24482,
    "mysterious": 26052,
    "Ġparac": 12792,
    "Ġbuoy": 8003,
    "iron": 3628,
    "Ġwriggling": 15256,
    "cable": 20796,
    "ylon": 24975,
    "malicious": 19901,
    "whiskers": 12309,
    "Ġfry": 17879,
    "build": 12185,
    "Ġgrave": 5100,
    "Ġtorrent": 17092,
    "Ġdistricts": 20262,
    "mering": 12488,
    "Ġour": 1009,
    "harpooneers": 8689,
    "wid": 10134,
    "Ġburden": 8607,
    "Ġtattooings": 24900,
    "Ġseedy": 21959,
    "Ġchatbots": 11349,
    "mistaken": 12208,
    "ington": 21300,
    "Ġrational": 8479,
    "thousand": 5547,
    "Ġturbulence": 26597,
    "Ġmaddening": 17243,
    "Ġwest": 5219,
    "Ġupstairs": 5836,
    "Ġmerrily": 23730,
    "Ġdiscriminator": 3393,
    "nailed": 20995,
    "shelf": 20379,
    "Ġlomb": 21556,
    "strong": 6322,
    "effort": 19212,
    "Ġrestrictions": 20634,
    "Ġneedless": 19227,
    "Ġmemo": 18117,
    "Ġtorch": 25030,
    "Ġheat": 5453,
    "Ġrelied": 16193,
    "Ġrevive": 13478,
    "Ġlasting": 18792,
    "Ġunsupp": 22018,
    "apparatus": 26563,
    "._)": 10480,
    "arity": 1302,
    "Ġislands": 6766,
    "stirred": 20423,
    "Ġvindication": 25364,
    "Ġflukes": 5266,
    "Ġshuddered": 11300,
    "Ġlaw": 3654,
    "stolidity": 21660,
    "Ġexclamations": 11361,
    "Ġkindling": 19032,
    "Ġinterfere": 11815,
    "fisher": 7548,
    "umbling": 6758,
    "Ġrisks": 9963,
    "etieth": 21581,
    "gling": 10097,
    "Ġtaught": 6803,
    "Ġworld": 1594,
    "Ġunidirectional": 3427,
    "laughed": 20280,
    "Ġsave": 4052,
    "Ġreceptive": 1562,
    "elevating": 20404,
    ".--": 20745,
    "Ġresented": 22540,
    "Ġwint": 15531,
    "Ġretire": 10381,
    "Ġexplanatory": 22200,
    "giana": 7800,
    "attent": 9358,
    "Ġindicate": 23721,
    "Ġrecovering": 11862,
    "surround": 16758,
    "Ġnoisy": 13317,
    "proachable": 23396,
    "Ġdependency": 3487,
    "Ġscene": 3097,
    "Ġworse": 4718,
    "culine": 19063,
    "eding": 7165,
    "Ġcattle": 12569,
    "Ġcontinent": 14887,
    "Ġensue": 18190,
    "utch": 21583,
    "Ġannesley": 19576,
    "Ġrogue": 22402,
    "sunlight": 24851,
    "Ġchained": 16386,
    "Ġblasphemy": 26115,
    "unned": 21875,
    "otently": 21797,
    "Ġobligation": 13243,
    "Ġproduct": 3532,
    "datasets": 11951,
    "Ġyield": 5093,
    "Ġshare": 1656,
    "perform": 15899,
    "Ġmixing": 24934,
    "Ġmarried": 3409,
    "Ġcontact": 9280,
    "Ġtrinity": 22353,
    "Ġgracious": 8846,
    "bald": 16446,
    "Ġfiend": 4411,
    "Ġmysticetus": 24922,
    "Ġsweet": 3466,
    "Ġamidst": 9493,
    "abilities": 3237,
    "Ġarchipelagoes": 14346,
    "Ġfoul": 7159,
    "fe": 676,
    "peasant": 23107,
    "Ġsweetheart": 19393,
    "Ġsplintered": 11418,
    "apothe": 22331,
    "Ġdownright": 16116,
    "desc": 1392,
    "Ġmonogra": 22972,
    "ĠĠĠĠĠĠĠĠĠĠĠĠĠĠĠĠĠ": 22946,
    "Ġcups": 16882,
    "specim": 23941,
    "Ġbart": 17856,
    "Ġclimate": 9272,
    "Ġreverber": 19868,
    "engthen": 14457,
    "Ġat": 396,
    "Ġsurmisings": 26593,
    "Ġgib": 13964,
    "Ġan": 286,
    "chamber": 13624,
    "Ġother": 759,
    "Ġgraze": 18226,
    "Ġshame": 6410,
    "sailors": 9921,
    "pour": 17630,
    "Ġinvited": 6903,
    "egypt": 15348,
    "fortunes": 6332,
    "Ġshapeless": 24524,
    "Ġadmire": 5263,
    "persons": 24174,
    "Ġmarchant": 14785,
    "Ġzig": 18743,
    "scy": 21054,
    "Ġceleb": 20224,
    "Ġexpectantly": 23524,
    "agonies": 21906,
    "dred": 2524,
    "elect": 20845,
    "Ġstubbs": 23294,
    "Ġterrific": 6754,
    "Ġunkindness": 22039,
    "Ġimprec": 14219,
    "Ġadagrad": 2899,
    "Ġ&": 6513,
    "isters": 11918,
    "Ġchivalry": 25819,
    "chains": 9684,
    "Ġpeculiarly": 8286,
    "poke": 18801,
    "Ġcontrast": 2118,
    "Ġclank": 15962,
    "è": 169,
    "Ġlucas": 3830,
    "bask": 20775,
    "Ġsecrecy": 7316,
    "Ġeverlasting": 9336,
    "deliberated": 26118,
    "Ġsympath": 4861,
    "Ġhint": 5016,
    "Ġenergies": 25459,
    "coun": 10686,
    "ippi": 20243,
    "Ġdecrease": 4202,
    "Ġcollection": 8221,
    "disgust": 23494,
    "Ġstigma": 25791,
    "Ġgul": 7859,
    "Ġenvelope": 7319,
    "getic": 12963,
    "Ġmathematics": 12071,
    "accusations": 23598,
    "Ġspikes": 22133,
    "Ġirretrie": 23372,
    "Ġchased": 8861,
    "Ġinquis": 19303,
    "lace": 13747,
    "Ġlan": 5820,
    "Ġdiligent": 25075,
    "Ġsongs": 13419,
    "Ġcompares": 20165,
    "Ġwol": 15528,
    "Ġdragon": 14943,
    "Ġshrugged": 12766,
    "cruet": 17026,
    "wrinkled": 16553,
    "Ġportent": 12079,
    "Ġaugust": 10597,
    "Ġvices": 14082,
    "Ġrelaxed": 12981,
    "Ġvale": 14081,
    "Ġbred": 9169,
    "Ġmounts": 17806,
    "Ġunrel": 14695,
    "preference": 22450,
    "Ġtype": 2020,
    "Ġtrumpet": 9573,
    "Ġstamp": 7863,
    "Ġmock": 3691,
    "Ġexamination": 8004,
    "Ġlanded": 7469,
    "ogene": 18679,
    "Ġbubble": 13534,
    "Ġalcoves": 26486,
    "greatly": 16623,
    "izz": 7615,
    "Ġpantry": 20294,
    "pol": 5892,
    "Ġmoot": 22427,
    "Ġrashly": 20304,
    "À": 129,
    "Ġcosy": 13130,
    "insult": 16277,
    "tray": 21076,
    "progression": 20380,
    "rist": 10122,
    "Ġcheered": 16370,
    "Ġinterpreter": 23209,
    "Ġredress": 23750,
    "Ġcursed": 6729,
    "Ġnavigators": 19762,
    "arily": 4129,
    "Ġflirt": 14422,
    "aint": 2539,
    "Ġkick": 5837,
    "naturedly": 24840,
    "Ġintuitions": 17340,
    "ote": 4596,
    "Ġtester": 21171,
    "Ġmarks": 6746,
    "erative": 21271,
    "Ġtraversed": 18891,
    "Ġharpoone": 2906,
    "ux": 7813,
    "powder": 17645,
    "Ġdang": 9174,
    "aggoo": 5130,
    "erately": 21272,
    "Ġformality": 22826,
    "ruined": 18340,
    "Ġinsignific": 13179,
    "lid": 20944,
    "Ġimmediately": 3368,
    "hereabouts": 23605,
    "Ġlaure": 16909,
    "Ġwounds": 17790,
    "parted": 21015,
    "relation": 19445,
    "onds": 12993,
    "lust": 15378,
    "Ġchocks": 13344,
    "Ġuneasiness": 9483,
    "anc": 6379,
    "raction": 8137,
    "Ġyon": 9692,
    "Ġvess": 3296,
    "Ġselling": 21223,
    "Ġstumble": 26482,
    "arbuck": 2026,
    "Ġenthr": 22742,
    "Ġpuzzled": 7317,
    "Ġtong": 4870,
    "Ġobtaining": 16131,
    "bber": 4568,
    "ĠĠĠĠĠĠ": 6414,
    "war": 6802,
    "ander": 6401,
    "Ġarrival": 4730,
    "brad": 20780,
    "Ġfatally": 19392,
    "Ġostens": 25275,
    "Ġslaughtered": 26584,
    "perv": 1607,
    "hunters": 16833,
    "Ġmig": 13855,
    "undoubtedly": 13309,
    "Ġsakes": 18326,
    "Ġoverwhelm": 25052,
    "Ġweave": 21917,
    "Ġweaving": 12737,
    "Ġloomed": 12299,
    "Ġentity": 10342,
    "duchess": 18463,
    "Ġbrush": 17864,
    "aning": 2251,
    "soldiers": 25911,
    "tanh": 5204,
    "Ġsimul": 1810,
    "Ġmak": 10778,
    "cked": 2762,
    "Ġspouted": 14674,
    "Ġsuppressed": 11910,
    "Ġcommonplace": 11096,
    "aved": 5475,
    "Ġledge": 19399,
    "icient": 783,
    "horses": 17567,
    "wheels": 14380,
    "Ġsobbing": 14133,
    "queer": 10362,
    "Ġsuperfluous": 17413,
    "Ġtaking": 3251,
    "Ġboats": 2636,
    "Ġsoothe": 7405,
    "resting": 23232,
    "atches": 13845,
    "Ġundisturbed": 19518,
    "violent": 14580,
    "Ġrespectfully": 18998,
    "abbering": 21793,
    "pro": 2050,
    "Ġjeopardy": 13595,
    "gradually": 12912,
    "cat": 15323,
    "Ġwhat": 601,
    "Ġdangling": 17174,
    "Ġoar": 6236,
    "Ġbespeaking": 26310,
    "revolver": 25627,
    "Ġarsacidean": 20363,
    "Ġfiled": 15577,
    "ily": 1032,
    "unknown": 10890,
    "Â·": 21148,
    "Ġimputed": 12805,
    "Ġcrouched": 23440,
    "Ġshaded": 14104,
    "Ġgenerously": 22392,
    "bene": 6112,
    "Ġbewit": 15725,
    "investigations": 25533,
    "rown": 2188,
    "Ġaside": 5234,
    "dri": 5887,
    "Ġextras": 22721,
    "Ġenjoying": 11234,
    "Ġperfidious": 25666,
    "Ġpastures": 23418,
    "imitably": 21708,
    "mend": 20965,
    "Ġglut": 18846,
    "Ġopulence": 23626,
    "Ġmort": 3460,
    "histor": 13490,
    "Ġdesignated": 19520,
    "angular": 11721,
    "sing": 5138,
    "Ġfelony": 18951,
    "Ġsleepless": 14582,
    "Ġdegree": 3703,
    "Ġaver": 1286,
    "onsible": 22558,
    "Ġundressed": 19512,
    "Ġfly": 3868,
    "Ġforecastle": 5495,
    "Ġluxurious": 17310,
    "Ġfields": 2141,
    "Ġital": 10866,
    "pigs": 17140,
    "im": 327,
    "rendering": 22348,
    "inridge": 11560,
    "Ġathirst": 20597,
    "Ġinducements": 24965,
    "Ġvouch": 15807,
    "fever": 22499,
    "erate": 7149,
    "Ġrepeat": 7999,
    "Ġchinks": 22248,
    "lled": 10107,
    "rior": 12739,
    "ipping": 2204,
    "Ġmelancholy": 5606,
    "trick": 19411,
    "Ġdazzling": 15210,
    "gazed": 15360,
    "Ġcondem": 6338,
    "keel": 14128,
    "Ġsquid": 11876,
    "threaten": 25461,
    "erxes": 21274,
    "E": 41,
    "Ġgryphon": 4301,
    "Ġacts": 2295,
    "Ġlabour": 7274,
    "ellative": 21940,
    "says": 13298,
    "Ġroanoke": 22404,
    "Ġknives": 14836,
    "opence": 18507,
    "Ġrust": 6408,
    "Ġfollows": 7673,
    "Ġpursu": 3240,
    "Ġunrestrained": 25554,
    "Ġprevious": 2089,
    "Ġbrut": 18768,
    "Ġloo": 22107,
    "Ġappeared": 2774,
    "Ġduplicate": 17215,
    "kovoko": 20668,
    "dispute": 23497,
    "Ġeleventh": 23365,
    "Ġtrapped": 23074,
    "Ġsincer": 13063,
    "Ġarsac": 11740,
    "hanging": 10100,
    "Ġvindictive": 20468,
    "Ġgenerate": 1472,
    "Ġthanks": 6707,
    "publ": 17638,
    "icherry": 15134,
    "ume": 4835,
    "Ġsolicited": 20035,
    "Ġdecreed": 18484,
    "Ġwrongfully": 24248,
    "icing": 9200,
    "Ġagonizing": 17238,
    "began": 6426,
    "declined": 25174,
    "Ġpunctual": 17137,
    "Ġinns": 17929,
    "Ġencomp": 12960,
    "Ġsharks": 4497,
    "iations": 11494,
    "Ġilliter": 23467,
    "Ġassurance": 7774,
    "etition": 7382,
    "Ġreality": 7058,
    "turbaned": 24532,
    "Ġstabbing": 20302,
    "Ġexposed": 8522,
    "Ġransacked": 26504,
    "Ġdemocracy": 25458,
    "Ġscents": 22301,
    "Ĝ": 221,
    "Ġhail": 7400,
    "sil": 5282,
    "worked": 18978,
    "Ġfaltering": 17884,
    "cement": 2875,
    "Ġadmirals": 20383,
    "Ġcuff": 17829,
    "Ġnaturalist": 22907,
    "itious": 8779,
    "perceived": 8858,
    "000": 2558,
    "Ġaunt": 3176,
    "Ġheavily": 6740,
    "village": 25422,
    "Ġunpleasing": 22052,
    "Ġprogressive": 5024,
    "leaned": 21367,
    "owing": 7602,
    "mael": 6723,
    "Ġmaybe": 12946,
    "Ġstat": 1489,
    "thumb": 18218,
    "drive": 8682,
    "piled": 21014,
    "por": 2150,
    "aye": 3659,
    "Ġchr": 3688,
    "Ġsuperiors": 23454,
    "Ġcompensated": 17400,
    "Ġscript": 18407,
    "Ġgateway": 24802,
    "Ġreplace": 14476,
    "Ġseconds": 16397,
    "ks": 3146,
    "Ġsuffer": 4721,
    "rary": 4575,
    "Ġcommissioned": 19894,
    "Ġdevice": 1929,
    "occur": 19574,
    "Ġrubbed": 12952,
    "Ġscor": 8190,
    "madness": 14881,
    "Ġfather": 1450,
    "Ġunpardonable": 22059,
    "Ġvertically": 19378,
    "Ġdegra": 2587,
    "Ġdress": 4020,
    "Ġacre": 22678,
    "Ġevanesc": 24294,
    "Ġ500": 24328,
    "ension": 6569,
    "Ġcorroboration": 26053,
    "liest": 6294,
    "Ġstables": 23657,
    "sleepers": 24730,
    "Ġtimor": 24224,
    "irt": 3076,
    "Ġxviii": 23408,
    "Ġindulging": 16904,
    "wanted": 10743,
    "Ġscolded": 25472,
    "arious": 10316,
    "ounix": 14163,
    "bey": 10313,
    "investments": 25532,
    "Ġac": 845,
    "Ġspitz": 14148,
    "vul": 15447,
    "Ġsporting": 16999,
    "Ġunfulfilled": 26509,
    "lengthwise": 19948,
    "Ġretiring": 16278,
    "richard": 17286,
    "Ġruggedness": 26268,
    "Ġprov": 4400,
    "dipped": 20836,
    "Ġsmall": 892,
    "hateful": 20908,
    "wives": 15454,
    "Ġclosely": 6488,
    "reflection": 13454,
    "headsman": 16700,
    "compliment": 11364,
    "Ġclipping": 2440,
    "Ġconcealment": 16914,
    "jub": 20928,
    "Ġhampshire": 15241,
    "oot": 13764,
    "Ġwhen": 514,
    "Ġbaked": 21384,
    "lonely": 20956,
    "Ġtrade": 2544,
    "progress": 11986,
    "Ġpertur": 12848,
    "Ġmob": 16015,
    "Ġobjective": 3764,
    "Ġsoup": 7067,
    "Ġpoliteness": 8273,
    "age": 506,
    "Ġblame": 6446,
    "Ġcomra": 7183,
    "Ġuncomp": 15839,
    "Ġnaught": 8127,
    "Ġasc": 4765,
    "oping": 5559,
    "despatched": 19800,
    "Ġcakes": 13883,
    "Ġmuskets": 17057,
    "Ġorthodox": 22092,
    "Ġclams": 19987,
    "Ġglove": 14492,
    "earnest": 12397,
    "Ġconveys": 16855,
    "Ġbinding": 20417,
    "Ġheadache": 22897,
    "supper": 12916,
    "Ġpigs": 19746,
    "Ġreadability": 2726,
    "Ġpoorly": 9852,
    "Ġheire": 18036,
    "leag": 21364,
    "Ġsubstantial": 14809,
    "Ġhorseback": 14849,
    "Ġbordeaux": 24564,
    "Ġmatter": 1736,
    "Ġzoology": 22819,
    "Ġapplies": 11957,
    "frame": 17116,
    "speech": 10666,
    "Ġpatent": 11958,
    "content": 11197,
    "Ġspont": 22128,
    "Ġretained": 7173,
    "nes": 6961,
    "Ġarmchair": 8270,
    "Ġruns": 8595,
    "Ġtornado": 24621,
    "Ġ1807": 26083,
    "kind": 3862,
    "Ġbrook": 13045,
    "Ġsgd": 3131,
    "oid": 3128,
    "Ġdevoting": 22711,
    "Ġcomment": 9232,
    "princ": 8620,
    "Ġvillage": 5774,
    "Ġtun": 5998,
    "Ġtottenham": 24142,
    "Ġcompact": 2261,
    "Ġsplash": 16548,
    "Ġvital": 9242,
    "towing": 17689,
    "Ġboth": 1654,
    "conceive": 16027,
    "Ġsaints": 20673,
    "Ġcranial": 25592,
    "S": 55,
    "entitled": 21565,
    "Č": 205,
    "impl": 21704,
    "prepare": 20211,
    "_.âĢĿ": 5885,
    "Ġsmut": 22553,
    "Ġbodies": 8031,
    "Ġdiminished": 16665,
    "Ġjourneys": 19473,
    "bad": 12434,
    "ensibility": 22544,
    "âĢľâĢĺ": 1483,
    "Ġcetus": 19884,
    "Ġretention": 23068,
    "Ġpretended": 19313,
    "Ġbaker": 4695,
    "swe": 5995,
    "oppressed": 24824,
    "Ġsoftness": 18917,
    "arance": 4697,
    "reason": 4414,
    "party": 8992,
    "orders": 12871,
    "Ġ1950": 11359,
    "Ġchart": 10945,
    "wig": 17704,
    "crum": 17511,
    "Ġgemini": 26469,
    "Ġfishers": 19352,
    "tranquillity": 20545,
    "aspect": 10193,
    "too": 4507,
    "Ġagitated": 7648,
    "glo": 8737,
    "Ġoptimal": 1858,
    "Ġcombined": 8548,
    "iah": 14415,
    "Ġpoem": 22586,
    "Ġwhittingham": 26197,
    "Ġforgive": 8009,
    "strang": 11183,
    "uctive": 17696,
    "Ġgid": 13961,
    "Ġcommod": 10333,
    "Ġdreaming": 11223,
    "Ġbumping": 25280,
    "inople": 13828,
    "Ġimposing": 11779,
    "Ġrather": 1493,
    "distinction": 19570,
    "despicable": 24636,
    "Ġresort": 18563,
    "Ġquartered": 20371,
    "Ġcandidates": 4334,
    "Ġdelineations": 26058,
    "stige": 21658,
    "prints": 23810,
    "Ġtheoretic": 23309,
    "Ġdrank": 16535,
    "zas": 17712,
    "elius": 13286,
    "Ġwait": 4907,
    "Ġconveniences": 19811,
    "bur": 4686,
    "Ġsubstituting": 26326,
    "eled": 2358,
    "Ġtwitched": 20442,
    "Ġsubtlety": 24780,
    "Ġtrace": 6180,
    "igned": 5656,
    "hold": 3979,
    "rog": 15637,
    "merc": 19279,
    "Ġwantonly": 22893,
    "Ġhelp": 1640,
    "Ġshowed": 4496,
    "Ġasiatics": 20429,
    "wedged": 24338,
    "Ġshowing": 7731,
    "ituted": 13872,
    "Ġordered": 5832,
    "Ġbloodshot": 23798,
    "Ġabroad": 8865,
    "mand": 3892,
    "Ġconflagration": 26364,
    "Ġmand": 21303,
    "Ġfaulty": 14906,
    "enter": 7857,
    "Ġbetween": 789,
    "Ġpluck": 15611,
    "Ġcharley": 19009,
    "punct": 20191,
    "Ġord": 3734,
    "Ġcaution": 11346,
    "Ġanswer": 2596,
    "branch": 23577,
    "Ġunsophisticated": 25992,
    "spears": 23939,
    "orated": 12588,
    "Ġseethings": 26503,
    "Ġdiary": 24739,
    "Ġfejee": 18353,
    "rest": 1630,
    "garity": 17554,
    "everlasting": 18771,
    "Ġbloom": 9887,
    "Ġfirmest": 16664,
    "Ġmovement": 9967,
    "Ġdiverted": 14592,
    "leader": 25351,
    "Ġvirtue": 4922,
    "Ġquivers": 22410,
    "ivered": 7005,
    "Ġaccelerate": 23225,
    "Ġrevenge": 5452,
    "Ġregret": 5561,
    "Ġscattered": 6857,
    "Ġwhalers": 8047,
    "Ġwrites": 23195,
    "Ġfe": 490,
    "finally": 9498,
    "Ġabominate": 20063,
    "abs": 11666,
    "curious": 10482,
    "screw": 9345,
    "Ġsurgeons": 23463,
    "phr": 18700,
    "Ġmilliner": 19883,
    "eminently": 25105,
    "Ġnature": 2536,
    "Ġbear": 3657,
    "Ġsilvery": 13093,
    "Ġthirty": 4944,
    "becomes": 22493,
    "Ġattractive": 25575,
    "Ġlonged": 6436,
    "Ġrum": 5923,
    "Ġmarling": 23031,
    "Ġstared": 8454,
    "Ġdin": 3624,
    "move": 11855,
    "mody": 16183,
    "Ġhog": 13923,
    "Ġmcc": 21304,
    "frost": 15105,
    "Ġmemory": 2274,
    "Ġfidelity": 15240,
    "Ġcomputes": 4768,
    "Ġassumed": 9465,
    "Ġsne": 6372,
    "grasping": 20638,
    "ures": 837,
    "Ġwork": 1331,
    "uvian": 12240,
    "Ġwil": 4580,
    "Ġreport": 6191,
    "Ġdidst": 11847,
    "Ġcomplet": 4422,
    "erman": 5108,
    "seeing": 7078,
    "Ġoutdone": 22315,
    "Ġstrides": 22614,
    "obviously": 25242,
    "Ġimmort": 19482,
    "benefit": 24642,
    "Ġcalhoun": 23040,
    "Ġdefile": 18824,
    "Ġdancing": 5703,
    "Ġreports": 19082,
    "Ġcrowds": 14738,
    "dition": 15339,
    "Ġiii": 7860,
    "Ġsplendour": 20223,
    "Ġballarat": 14718,
    "grass": 23411,
    "links": 20957,
    "woman": 5898,
    "Ġcup": 5697,
    "meant": 7920,
    "Ġwound": 4528,
    "Ġfift": 6382,
    "Ġpro": 360,
    "Ġslip": 8954,
    "urried": 21701,
    "Ġhumane": 11882,
    "Ġchry": 22243,
    "Ġfr": 1696,
    "Ġthroat": 7770,
    "ą": 198,
    "uary": 11537,
    "Ġdied": 4115,
    "ushion": 14719,
    "justine": 7683,
    "Ġplausible": 26553,
    "Ġjonas": 20607,
    "itation": 1782,
    "itative": 13869,
    "Ġedges": 3823,
    "Ġholy": 6591,
    "Ġguest": 7249,
    "Ġtrappers": 23078,
    "Ġcomprehended": 11294,
    "Ġmute": 19414,
    "Ġcapting": 23019,
    "hood": 2658,
    "thoroughly": 26508,
    "Ġimproper": 22736,
    "Ġimpro": 898,
    "Ġcategorization": 12134,
    "Ġindecision": 25781,
    "Ġbearing": 5298,
    "geor": 15976,
    "aswag": 21543,
    "Ġforbidding": 17079,
    "Ġpur": 2215,
    "intim": 22931,
    "Ġepsom": 19981,
    "weight": 2935,
    "Ġeludes": 26554,
    "Ġparacelsus": 15265,
    "Ġdeacon": 18139,
    "atter": 651,
    "ograph": 4797,
    "Ġgame": 3627,
    "ogy": 22715,
    "Ġthick": 3780,
    "Ġconsol": 3813,
    "fell": 6953,
    "dining": 13704,
    "iners": 4937,
    "Ġbespe": 19240,
    "rowing": 7930,
    "clifford": 23153,
    "Ġaperture": 26160,
    "Ġlanguor": 12844,
    "Ġdistributes": 4197,
    "downward": 16619,
    "Ġfearfulness": 23512,
    "allowance": 16824,
    "sad": 11520,
    "ğ": 224,
    "arrangement": 17414,
    "cod": 12441,
    "clu": 20798,
    "abulary": 4800,
    "weigh": 18665,
    "Ġresembles": 25969,
    "Ġcrav": 19172,
    "Ġliterary": 25162,
    "tarpaul": 21096,
    "palms": 25262,
    "itical": 5801,
    "reshold": 21238,
    "inously": 21185,
    "ower": 1028,
    "Ġskilfully": 20522,
    "Ġstilly": 25973,
    "Ġinsipid": 26313,
    "azine": 19130,
    "ield": 2407,
    "Ġmoisture": 12357,
    "get": 1021,
    "Ġlayers": 812,
    "trying": 15437,
    "Ġhaunts": 18198,
    "light": 3012,
    "wall": 10136,
    "Ġsn": 2944,
    "»": 124,
    "Ġveneration": 25044,
    "Ġdan": 8792,
    "ihood": 20920,
    "Ġsource": 6805,
    "Ġpiece": 5367,
    "male": 15387,
    "Ġcapric": 14576,
    "Ġmur": 2487,
    "ques": 2838,
    "Ġfluctuating": 24417,
    "iments": 4945,
    "Ġtout": 17719,
    "ascertaining": 26460,
    "lesson": 22772,
    "Ġcontemporary": 16010,
    "ibly": 2991,
    "Ġclinch": 18422,
    "Ġwrap": 24594,
    "Ġpassionately": 16764,
    "Ġknowest": 12860,
    "suspected": 12370,
    "Ġbolts": 16943,
    "Ġmccarthy": 5145,
    "Ġlock": 5927,
    "Ġwhaleman": 4654,
    "obvious": 9356,
    "Ġmusky": 19380,
    "Ġrichness": 19310,
    "Ġdisappears": 18560,
    "Ġharpooneer": 3770,
    "henomenon": 13613,
    "estinated": 15919,
    "Ġstrewed": 23420,
    "law": 6115,
    "reply": 19721,
    "Ġevolved": 9890,
    "Ġsyrian": 18354,
    "ceiving": 3900,
    "approach": 24833,
    "apside": 22957,
    "narwhale": 17317,
    "Ġnods": 19062,
    "Ġperforms": 11875,
    "roses": 17956,
    "177": 20751,
    "Ġholder": 6724,
    "Ġwink": 11568,
    "Ġuprising": 12799,
    "Ġmowers": 17812,
    "Ġpap": 8797,
    "Ġsequentially": 4914,
    "Þ": 159,
    "Ġspringing": 10518,
    "shorn": 22456,
    "Ġraising": 8909,
    "Ġsus": 18279,
    "Ġskylight": 24070,
    "Ġdefinition": 14404,
    "hollow": 24037,
    "ato": 17769,
    "Ġnavel": 24576,
    "Ġtransport": 11278,
    "lotts": 23823,
    "Ġarrest": 7409,
    "bent": 15310,
    "omas": 12668,
    "Ġrever": 6536,
    "Ġnug": 21522,
    "Ġcheer": 4068,
    "crooked": 25746,
    "plun": 15813,
    "sust": 15421,
    "ought": 828,
    "Ġarea": 14186,
    "Ġradiant": 16809,
    "Ġseethe": 21960,
    "Ġexacted": 23602,
    "Ġgarb": 21600,
    "Ġpound": 12613,
    "Ġlaurel": 20653,
    "Ġcoverage": 4289,
    "Ġlistened": 4469,
    "sne": 10124,
    "ment": 691,
    "Ġconsistence": 23352,
    "Ġcharacters": 9371,
    "Ġreg": 730,
    "Ġduty": 4072,
    "Ġmichael": 20678,
    "Ġtemper": 956,
    "Ġcut": 2641,
    "Ġbernard": 20683,
    "Ġevian": 24292,
    "Ġlot": 6678,
    "Ġcontingency": 26244,
    "Ġliable": 14228,
    "Ġenabled": 9295,
    "present": 1137,
    "Ġoppression": 23653,
    "Ġeber": 18003,
    "Ġunequal": 14841,
    "Ġlays": 15987,
    "wheeling": 22868,
    "Ġtraitors": 23075,
    "riptions": 14794,
    "ton": 1729,
    "Ġrecursive": 4782,
    "Ġjoyously": 19345,
    "Ġsable": 15499,
    "treat": 12511,
    "Ġdesperado": 19818,
    "Ġtartar": 17321,
    "Ġeverywhere": 9794,
    "Ġnarwhales": 24902,
    "Ġ87": 19709,
    "kles": 17584,
    "Ġprogrammed": 11058,
    "Ġhighlands": 22775,
    "courage": 17509,
    "Ġcapst": 8596,
    "Ġart": 749,
    "sombre": 23852,
    "Ġ117": 19696,
    "anges": 1673,
    "Ġpump": 12618,
    "Ġexal": 10877,
    "Ð": 145,
    "je": 11495,
    "youth": 11873,
    "Ġprudential": 17919,
    "cus": 3977,
    "Ġload": 14145,
    "Ġbronze": 22865,
    "¬": 110,
    "jour": 20926,
    "Ġconcussion": 26300,
    "Ġstress": 18066,
    "Ġvindictiveness": 25738,
    "Ġglimmered": 20170,
    "Ġassaults": 15155,
    "doms": 20834,
    "Ġtepid": 26412,
    "Ġsignificant": 8633,
    "urous": 10212,
    "Ġdegenerating": 25799,
    "Ġalien": 14017,
    "wich": 11543,
    "Ġbruised": 25772,
    "ilations": 21719,
    "Ġdeduction": 14900,
    "Ġconsole": 8150,
    "Ġchaplain": 19911,
    "secret": 12234,
    "========": 2312,
    "Ġ23": 13189,
    "skull": 24488,
    "Ġchewing": 23284,
    "lake": 13748,
    "Ġrocky": 13386,
    "cater": 20814,
    "Ġleadenhall": 16628,
    "mar": 4336,
    "Ġburial": 16522,
    "Ġcelestial": 10066,
    "Ġrazor": 22651,
    "Ġbar": 3148,
    "Ġdignified": 15595,
    "Ġhenceforth": 19646,
    "Ġflannel": 26577,
    "Ġbacks": 8528,
    "smiles": 14692,
    "Ġcathedral": 17412,
    "Ġspoke": 2748,
    "Ġfeasible": 22206,
    "Ġdoubly": 16384,
    "orm": 425,
    "Ġfishing": 9662,
    "Ġdismantled": 20215,
    "Ġdisplay": 6428,
    "Ġsince": 1798,
    "Ġstrange": 2271,
    "Ġconfines": 23303,
    "Ġherein": 16189,
    "adv": 4537,
    "commun": 15033,
    "Ġtoilette": 20491,
    "Ġalbatross": 10871,
    "Ġfritters": 23255,
    "Ġgreyish": 24208,
    "thinking": 9013,
    "Ġplace": 1652,
    "superior": 9524,
    "Ġabundance": 17155,
    "Ġbars": 13896,
    "thro": 12758,
    "rendered": 22347,
    "Ġfold": 5531,
    "Ġpathways": 11153,
    "Ġstudent": 14479,
    "Ġhappy": 2465,
    "ertain": 1208,
    "iour": 4038,
    "Ġchoicest": 24220,
    "larger": 24202,
    "idity": 8830,
    "Ġagric": 22512,
    "slipped": 25529,
    "Ġlance": 4879,
    "Ġcorresponding": 13437,
    "Ġpea": 14316,
    "Ġsee": 800,
    "pole": 9332,
    "Ġoverlooked": 15971,
    "Ġerroneous": 17408,
    "hopes": 15368,
    "Ġbeards": 21748,
    "88": 20757,
    "51": 12429,
    "ifers": 15778,
    "Ġbreeze": 5681,
    "Ġlustre": 15133,
    "heat": 15496,
    "ll": 1140,
    "late": 11498,
    "Ġuntamed": 19163,
    "nal": 1904,
    "Ġsweetness": 9445,
    "Ġvirgin": 7328,
    "Ġquestions": 3969,
    "Ġtravelled": 7771,
    "Ġjustinian": 22964,
    "Ġgreas": 17991,
    "Ġtroops": 24898,
    "displeasure": 23493,
    "iem": 20916,
    "atered": 22004,
    "Ġpair": 5706,
    "Ġenchanted": 9080,
    "ruction": 4358,
    "Ġboasting": 19934,
    "Ġfloated": 7288,
    "Ġne": 389,
    "Ġslips": 23162,
    "adamite": 20591,
    "Ġnearer": 5301,
    "Ġdetected": 18820,
    "gardiner": 12289,
    "Ġwhosoever": 21716,
    "Ġdemanded": 8326,
    "eler": 1571,
    "Ġoverlooking": 22354,
    "Ġdank": 21426,
    "Ġought": 3421,
    "dia": 2133,
    "ump": 2284,
    "Ġhip": 17920,
    "Ġnavies": 16900,
    "Ġsense": 3252,
    "illuminated": 17452,
    "erring": 11057,
    "silly": 24422,
    "Ġornaments": 17451,
    "Ġdisp": 3361,
    "Ġabsolute": 6765,
    "ooped": 17623,
    "iquette": 26132,
    "vag": 8764,
    "gent": 7129,
    "ils": 3181,
    "laz": 15384,
    "individual": 18436,
    "Ġeaster": 15672,
    "joy": 3335,
    "Ġscanning": 18408,
    "skelter": 24490,
    "surrounded": 26088,
    "Ġhateful": 19712,
    "Ġgaining": 9491,
    "Ġbehind": 2805,
    "Ġclifford": 22346,
    "Ġpleated": 16295,
    "Ġconcise": 23320,
    "Ġdair": 17889,
    "Ġuplifted": 11646,
    "Ġcontrivance": 17183,
    "ory": 1082,
    "mming": 1169,
    "Ġbestowing": 16971,
    "Ġmout": 17798,
    "Ġpalmy": 19497,
    "fem": 17537,
    "Ġrudimental": 25108,
    "Ġdisenc": 22523,
    "Ġamerican": 5061,
    "merged": 11193,
    "widely": 25343,
    "ghan": 19453,
    "Ġdaybreak": 18726,
    "Ġplains": 14622,
    "Ġresolute": 19243,
    "Ġalluding": 18236,
    "depths": 25663,
    "Ġaboard": 6697,
    "prob": 7069,
    "Ġellenborough": 26154,
    "ipped": 5790,
    "jury": 15372,
    "Ġcold": 3028,
    "Ġinclemency": 22552,
    "Ġsalisbury": 24060,
    "Ġcomforter": 20505,
    "Ġthreats": 13376,
    "absolutely": 10645,
    "Ġturn": 1298,
    "shutters": 20312,
    "kily": 20936,
    "Ġinforming": 18742,
    "Ġconvolutions": 21804,
    "forget": 11032,
    "F": 42,
    "Ġfade": 21405,
    "us": 531,
    "Ġwh": 328,
    "Ġbrace": 11211,
    "Ġanyone": 4459,
    "Ġnarrower": 24354,
    "Ġalph": 9694,
    "Ġcandelabra": 26602,
    "Ġtoiling": 15632,
    "eronomy": 15523,
    "Ġdeformed": 14045,
    "Ġpretending": 19314,
    "caus": 11476,
    "Ġbrotherhood": 23670,
    "Ġpatagonia": 25857,
    "Ġcharlotte": 3888,
    "Ġperplexed": 23661,
    "Ġphys": 5653,
    "âĢĶ_": 3199,
    "ods": 8835,
    "Ġbegging": 11080,
    "Ġroylott": 7305,
    "Ġgrim": 7439,
    "Ġsparks": 22129,
    "dart": 20825,
    "Ġclust": 9271,
    "Ġstupid": 7604,
    "stately": 18021,
    "england": 18928,
    "Ġpersuas": 23944,
    "tempered": 13445,
    "Ġdefection": 22939,
    "Ġpronounced": 8350,
    "Ġchace": 14178,
    "intercourse": 14638,
    "Ġclaw": 22340,
    "Ġsouthwards": 19632,
    "cannibal": 15223,
    "direction": 17524,
    "ulated": 6029,
    "happiness": 6469,
    "spike": 16136,
    "Ġdisturbing": 19944,
    "/*": 10070,
    "Ġparticle": 18673,
    "Ġemploying": 23975,
    "Ġrestrained": 16374,
    "Ġhackluyt": 25655,
    "Ġdiabolically": 25513,
    "Ġatom": 18192,
    "royal": 11393,
    "Ġreefed": 20301,
    "Ġma": 3254,
    "Ġtransf": 22434,
    "Ġarchitecture": 1100,
    "Ġhearts": 4972,
    "Ġpurch": 6599,
    "Ġneskyeuna": 26459,
    "Ġic": 9625,
    "Ġdrugg": 17119,
    "Ġrack": 9311,
    "Ġconv": 2965,
    "come": 2376,
    "word": 2486,
    "Ġleagues": 9223,
    "ht": 376,
    "dishonourable": 26365,
    "itute": 9651,
    "Ġbilliard": 16689,
    "Ġendeavored": 19302,
    "ar": 285,
    "Ġlengthwise": 10452,
    "ban": 9584,
    "Ġunmo": 12770,
    "Ġseem": 914,
    "Ġdenomin": 12065,
    "Ġneeded": 7717,
    "rum": 3417,
    "Ġlimping": 23545,
    "Ġdashed": 6009,
    "Ġkinds": 14505,
    "Ġbarrowful": 25595,
    "Ġpeninsula": 23193,
    "Ġungenerous": 18266,
    "originally": 24937,
    "Ġcontinue": 5398,
    "Ġcomm": 838,
    "Ġlights": 8960,
    "whales": 5187,
    "Ġpray": 3897,
    "Ġmotives": 7487,
    "Ġnour": 10830,
    "een": 727,
    "Ġbegg": 16252,
    "uzz": 4524,
    "rian": 10241,
    "sk": 5521,
    "Ġbouquet": 20682,
    "careful": 14865,
    "tling": 9142,
    "iew": 2446,
    "dreadful": 11421,
    "Ġadvanced": 1521,
    "Ġincant": 18568,
    "anks": 3914,
    "Ġwa": 1754,
    "familiar": 19782,
    "Ġintru": 15825,
    "Ġawaited": 17074,
    "Ġdepression": 21836,
    "Ġconveying": 19713,
    "acity": 5735,
    "Ġtwisted": 7228,
    "Ġpass": 1038,
    "Ġjove": 9267,
    "letter": 6201,
    "cloth": 11935,
    "Ġfruit": 12324,
    "Ġpossibility": 7458,
    "fanc": 20863,
    "races": 21627,
    "Ġninetieth": 25357,
    "Ġcaring": 23088,
    "phil": 7924,
    "Ġer": 8104,
    "considering": 12172,
    "playing": 19656,
    "Ġtyro": 16994,
    "Ġpriv": 4185,
    "Ġportly": 14678,
    "Ġmy": 412,
    "noon": 5037,
    "Ġacquainted": 5179,
    "braid": 17494,
    "Ġrobust": 1325,
    "cies": 1816,
    "Ġtawn": 13822,
    "Ġgpus": 3731,
    "Ġmamm": 25090,
    "Ġbehav": 3538,
    "emorial": 10243,
    "Ġ99": 10745,
    "Ġbalances": 2339,
    "ÿ": 192,
    "Ġhinges": 15211,
    "Ġbloss": 19255,
    "wind": 4253,
    "Ġparadigms": 3056,
    "wrong": 13205,
    "Ġcompliment": 5673,
    "appo": 3912,
    "tail": 8761,
    "Ġostentatious": 25736,
    "Ġbegins": 7244,
    "mankind": 14373,
    "burst": 10537,
    "quee": 4133,
    "ophisticated": 22473,
    "Ġassur": 6073,
    "Ġcomplexity": 1694,
    "Ġfiles": 21411,
    "Ġfinery": 23122,
    "é": 170,
    "ķ": 248,
    "icate": 9201,
    "oh": 1576,
    "Ġcoils": 9302,
    "_âĢĶ": 11467,
    "sych": 9892,
    "edmund": 17945,
    "Ġ9": 5900,
    "ructure": 761,
    "housekeeper": 24102,
    "Ġwithdrew": 9695,
    "Ġpopular": 6216,
    "Ġswallows": 18882,
    "Ġhereabouts": 12975,
    "Ġdoings": 18376,
    "Ġoversampling": 20514,
    "travelling": 24317,
    "Ġpapered": 20129,
    "Ġduodecimo": 16767,
    "Ġtempt": 5565,
    "window": 7742,
    "oology": 21005,
    "Ġbuckle": 17033,
    "Ġtop": 2470,
    "Ġannals": 17898,
    "airing": 16176,
    "Ġdolphin": 17311,
    "Ġolder": 9326,
    "princip": 17136,
    "bweb": 20790,
    "Ġaust": 4871,
    "Ġloving": 8175,
    "Ġmulti": 1042,
    "black": 6768,
    "ung": 2746,
    "Ġannum": 24203,
    "Ġsuccessfully": 19427,
    "Ġirish": 14534,
    "Ġentertainment": 12220,
    "Ġpanelled": 19653,
    "Ġeve": 13969,
    "Ġtashtego": 4486,
    "Ġpaste": 23417,
    "Ġfacial": 10605,
    "perch": 18342,
    "clouds": 25496,
    "Ġruled": 22783,
    "Ġdeafened": 25651,
    "Ġborrowed": 17229,
    "Ġthird": 4189,
    "Ġyea": 8915,
    "Ġgnawed": 25164,
    "Ġjumbled": 22284,
    "Ġrequest": 6050,
    "inct": 3293,
    "Ġmainly": 22645,
    "Ġstack": 21730,
    "Ġexceptional": 19369,
    "Ġalgorithms": 850,
    "expense": 22426,
    "Ġunprofitable": 18267,
    "appl": 9325,
    "resnet": 4071,
    "earn": 10696,
    "Ġunconnected": 18242,
    "Ġcommerce": 11015,
    "Ġattempting": 14696,
    "Ġfortifications": 23619,
    "Ġmet": 1868,
    "Ġarticles": 7108,
    "Ġgreedy": 3051,
    "matic": 4618,
    "crane": 24099,
    "Ġbrisk": 9802,
    "Ġlondon": 2836,
    "sweep": 24617,
    "Ġshunned": 17292,
    "epilogue": 22097,
    "Ġdiscomp": 11864,
    "alloyed": 22199,
    "Ġunique": 12775,
    "outh": 2687,
    "Ġconcil": 23319,
    "Ġquaint": 18465,
    "hued": 20910,
    "Ġslept": 8258,
    "quake": 11679,
    "Ġpunct": 8660,
    "Ġare": 527,
    "source": 11525,
    "Ġha": 400,
    "Ġwr": 1544,
    "Ġvulgarity": 25363,
    "Ġshetland": 22161,
    "Ġleyden": 21744,
    "het": 5435,
    "Ù": 154,
    "Ġgermany": 25785,
    "Ġtwit": 12926,
    "convenient": 12235,
    "ripp": 6405,
    "Ġinvented": 17037,
    "Ġdefici": 22940,
    "Ġsanguinary": 25929,
    "Ġacres": 14312,
    "Ġcaptured": 7245,
    "gain": 8736,
    "Ġbusy": 6189,
    "imet": 21703,
    "compan": 7301,
    "½": 126,
    "Ġredeemed": 25789,
    "sis": 1808,
    "Ġhas": 823,
    "Ġderbyshire": 6586,
    "Ġrel": 1097,
    "engagement": 14458,
    "Ġrecede": 25968,
    "theast": 21745,
    "Ġabide": 14187,
    "inated": 6804,
    "Ġcooked": 13267,
    "Ġofficial": 7081,
    "Ġuncertain": 4069,
    "Ġiceberg": 14715,
    "pitchpoling": 25725,
    "Ġelsewhere": 7712,
    "Ġcuriosities": 26289,
    "Ġisolation": 17150,
    "Ġdisposing": 19373,
    "Ġ=": 1075,
    "doors": 19094,
    "gue": 12465,
    "Ġfollowed": 1796,
    "Ġdisengaged": 12886,
    "Ġroots": 11185,
    "Ġintruder": 25991,
    "Ġconce": 3424,
    "Ġravine": 18645,
    "Ġcolourless": 19568,
    "Ġzer": 1096,
    "Ġaffronted": 22890,
    "pure": 17626,
    "Ġarrows": 18336,
    "Ġaffection": 2638,
    "contrast": 25594,
    "Ġmummy": 25768,
    "Ġhence": 4989,
    "59": 17473,
    "arding": 22159,
    "Ġcongreg": 8462,
    "inity": 5693,
    "unaffected": 21880,
    "Ġinterpretation": 19715,
    "Ġbale": 7838,
    "ival": 4228,
    "ark": 849,
    "erranean": 9333,
    "jacket": 12290,
    "angels": 22103,
    "Ġwell": 901,
    "Ġqualifications": 24675,
    "Ġfear": 2276,
    "Ġkn": 4546,
    "lig": 3172,
    "stupid": 12673,
    "Ġenvy": 13199,
    "Ġsweetest": 13246,
    "Ġresigned": 9767,
    "Ġbuffaloes": 25217,
    "ersburgh": 18215,
    "Ġpeaceable": 14722,
    "Ġwife": 2585,
    "ens": 701,
    "Ġsorrow": 4628,
    "Ġcommunity": 19012,
    "conversations": 24749,
    "injustice": 17737,
    "ignominious": 26587,
    "ved": 869,
    "Ġ121": 24466,
    "Ġgriev": 16634,
    "Ġomens": 21326,
    "paddington": 20476,
    "hester": 9631,
    "perai": 10276,
    "evade": 24820,
    "Ġexcitement": 9380,
    "ĠĠ": 353,
    "Ġpondering": 17005,
    "Ġhorn": 6185,
    "Ġdominant": 12394,
    "Ġcrammed": 16470,
    "Ġhumanity": 6731,
    "mel": 9127,
    "Ġalchemists": 26487,
    "Ġholds": 7975,
    "Ġmbpp": 21320,
    "Ġhol": 1182,
    "Ġze": 8545,
    "Ġrussian": 14349,
    "namely": 23647,
    "Ġswept": 7977,
    "Ġwall": 3840,
    "Ġnegro": 6447,
    "Ġentirely": 3435,
    "Ġflap": 14421,
    "Ġrouse": 15819,
    "Ġxerxes": 23409,
    "Ġsen": 9156,
    "Ġunresting": 25553,
    "Ġjail": 22281,
    "Ġchatting": 24747,
    "Ġrh": 9243,
    "bered": 4504,
    "naught": 20993,
    "Ġoccurring": 2790,
    "Ġflush": 14423,
    "Ġdefinitions": 22941,
    "Ġknee": 7093,
    "Ġimmemorial": 10510,
    "draught": 12087,
    "cific": 10085,
    "allen": 22194,
    "erc": 5904,
    "Ġsmo": 2702,
    "ailed": 3248,
    "derest": 18314,
    "rooms": 10432,
    "Ġfan": 2036,
    "Ġoffensive": 18693,
    "unfortunate": 15774,
    "speptic": 23943,
    "brow": 15314,
    "Ġuncork": 23428,
    "Ġorganizations": 12312,
    "consid": 4924,
    "Ġswe": 2290,
    "Ġexempt": 21825,
    "blo": 6353,
    "Ġtinge": 25087,
    "fes": 20850,
    "Ġlandscape": 12415,
    "Ġlounged": 19952,
    "Ġconsolation": 6208,
    "Ġmartin": 25436,
    "Ġb": 281,
    "Ġreliable": 18776,
    "Ġentreaties": 9035,
    "conveyed": 20519,
    "Ġreclining": 26034,
    "Ġarising": 10933,
    "Ġvex": 5948,
    "Ġcombination": 22859,
    "shipmates": 11926,
    "Ġscent": 10288,
    "Ġle": 333,
    "Ġfurniture": 6476,
    "Ġinn": 4590,
    "onents": 8776,
    "Ġcontrivances": 12355,
    "position": 15412,
    "Ġentering": 6285,
    "may": 3678,
    "https": 11683,
    "cares": 24309,
    "Ġobserver": 11987,
    "Ġbelieving": 8224,
    "Ġspaniards": 25555,
    "Ġrewarding": 13436,
    "Ġwherein": 14294,
    "Ġdivulged": 16648,
    "Ġimpregnable": 26023,
    "Ġskirting": 22794,
    "avor": 14275,
    "Ġreported": 11978,
    "Ġwidows": 24236,
    "Ġunheard": 22022,
    "addressing": 24401,
    "Ġfigures": 8629,
    "ear": 8730,
    "shaken": 16024,
    "Ġattacks": 12202,
    "itors": 2909,
    "Ġhertfordshire": 5377,
    "Ġmethodically": 23189,
    "Ġexhibiting": 19837,
    "Ġbuttoning": 17235,
    "Ġtipt": 21172,
    "Ġcetace": 14987,
    "Ġupbraided": 26528,
    "Ġbelf": 21379,
    "Ġconcuss": 19046,
    "Ġresuming": 12890,
    "Ġoverflowed": 20261,
    "pression": 10407,
    "Ġthimble": 15634,
    "recurring": 24194,
    "Ġnoiselessly": 22855,
    "Ġobtruded": 20721,
    "gast": 20870,
    "club": 26380,
    "eties": 10837,
    "canst": 22958,
    "Ġmechanically": 14397,
    "Ġjoke": 8867,
    "mingled": 14712,
    "mill": 13753,
    "Ġtallow": 14777,
    "cture": 15662,
    "avenza": 17104,
    "rossed": 11012,
    "glorious": 19365,
    "hers": 7636,
    "uncommonly": 25549,
    "Ġhorrid": 7998,
    "Ġte": 1133,
    "Ġvoracity": 25986,
    "yonder": 21143,
    "Ġmales": 17805,
    "Ġfoaming": 18993,
    "ria": 15793,
    "embraced": 25806,
    "went": 6512,
    "Ġadvertise": 25388,
    "Ġvicinity": 7315,
    "iltrated": 19305,
    "Ġrichest": 26211,
    "Ġbeast": 7179,
    "Ġsublime": 8065,
    "Ġsimilarly": 24308,
    "Ġwandering": 8653,
    "cast": 2922,
    "Ġgreenland": 5761,
    "Ġcoinc": 11001,
    "phantoms": 24679,
    "Ġcalms": 23038,
    "negro": 18489,
    "Ġfre": 1570,
    "======": 9832,
    "ise": 708,
    "Ġpict": 3498,
    "Ġcowardice": 17032,
    "Ġprick": 14477,
    "Ġfisherman": 12073,
    "cloud": 11105,
    "Ġsuccor": 25662,
    "churning": 21694,
    "Ġsecurity": 8977,
    "loath": 22506,
    "Ġwhatsoever": 18460,
    "Ġcriminal": 7538,
    "Ġheathen": 10565,
    "Ġwinter": 5220,
    "Ġdimens": 3150,
    "restrained": 16334,
    "yourself": 6742,
    "------": 12131,
    "imately": 12685,
    "bench": 16803,
    "contrad": 19290,
    "Ġsurrounded": 5878,
    "ott": 1876,
    "circuit": 24188,
    "Ġstru": 2168,
    "Ġunjust": 8483,
    "Ġinexpressible": 17332,
    "Ġchoke": 22246,
    "Ġgerm": 13963,
    "Ġpresided": 20206,
    "Ġyawn": 7610,
    "Ġhypocritical": 20737,
    "crews": 15042,
    "ivory": 10269,
    "leading": 15559,
    "Ġprejudiced": 24809,
    "retrie": 18922,
    "Ġfamous": 5255,
    "Ġimproved": 7657,
    "prudently": 21033,
    "Ġscaled": 2106,
    "Ġjan": 11759,
    "efficient": 2866,
    "Ġtied": 7357,
    "Ġgravesend": 15215,
    "Ġprincipal": 6496,
    "Ġfat": 3462,
    "Ġapprehension": 7113,
    "sounded": 12264,
    "morning": 4859,
    "Ġrefill": 18697,
    "riving": 21923,
    "Ġhazarded": 25654,
    "deliber": 17425,
    "cordiality": 25137,
    "Ġhabitation": 14802,
    "hist": 7130,
    "Ġamateur": 22482,
    "ilburn": 18059,
    "Ġjupiter": 17455,
    "sensible": 20050,
    "particular": 5757,
    "ancient": 9655,
    "Ġgenus": 24429,
    "Ġfossil": 12385,
    "Ġunassuming": 20507,
    "Ġcharnel": 22249,
    "Ġsympathised": 14861,
    "Ġtotally": 9470,
    "Ġcapricious": 20537,
    "Ġtriangular": 14858,
    "Ġclubs": 25179,
    "Ġprotecting": 24686,
    "Ġexasperated": 11412,
    "Ġpitiable": 9913,
    "Ġbead": 21747,
    "Ġunjustifiable": 25109,
    "Ġstupidity": 15049,
    "aped": 3763,
    "âĢĻ,": 14069,
    "shortly": 12256,
    "Ġperpet": 7645,
    "ibank": 6880,
    "memory": 13616,
    "Ġcommendation": 13609,
    "ctive": 11622,
    "/`": 12427,
    "thorough": 21982,
    "Ġtells": 9360,
    "Ġportable": 19368,
    "Ġtransmit": 10304,
    "Ġagony": 5388,
    "Ġdoors": 6418,
    "Ġeavesdroppers": 25963,
    "Ġsway": 7572,
    "Ġspeckled": 14307,
    "Ġmoney": 3420,
    "Ġoverhead": 11771,
    "Ġbreathlessly": 24280,
    "carefully": 13367,
    "native": 17612,
    "embed": 18187,
    "standing": 5558,
    "Ġwriters": 13542,
    "cursed": 23841,
    "Ġlancaster": 26340,
    "Ġ125": 24470,
    "Ġstart": 3260,
    "Ġbare": 6132,
    "Ġdome": 15586,
    "hatred": 24821,
    "securer": 25602,
    "Ġvehicles": 10659,
    "dering": 5305,
    "roded": 17955,
    "imp": 3030,
    "az": 2179,
    "Ġtangle": 25760,
    "rugged": 6849,
    "ended": 1836,
    "Ġservox": 23868,
    "Ġsilken": 16380,
    "Ġdespondency": 16577,
    "capting": 24036,
    "Ġconversation": 3330,
    "qual": 8156,
    "uncle": 8158,
    "mastod": 23971,
    "osing": 3689,
    "ilogue": 21721,
    "Ġpleasantly": 14520,
    "onden": 13843,
    "Ġdignity": 5704,
    "ideas": 18581,
    "Ġhardware": 4904,
    "Ġpoetry": 15079,
    "Ġpoisoned": 24886,
    "Ġgoney": 14545,
    "mown": 20969,
    "bill": 10075,
    "Ġplug": 17147,
    "cried": 8724,
    "Ġnineveh": 13388,
    "neying": 22446,
    "aks": 8506,
    "Ġyoked": 15732,
    "iably": 13737,
    "Ġassertion": 13488,
    "need": 10979,
    "jewell": 25523,
    "Ġtand": 21159,
    "¨": 106,
    "Ġpresuming": 16793,
    "Ġverge": 23885,
    "Ġbest": 1976,
    "Ġthrew": 3970,
    "companion": 9557,
    "Ġalterations": 19870,
    "Ġprompt": 3188,
    "Ġsisters": 3640,
    "Ġhummed": 18777,
    "straight": 9939,
    "so": 890,
    "stranded": 19223,
    "Ġvane": 22871,
    "Ġinteresting": 4326,
    "Ġimplements": 2484,
    "commission": 22807,
    "Ġperplex": 2717,
    "Ġrev": 6988,
    "rees": 5436,
    "Ġdomes": 23628,
    "Ġsummary": 19402,
    "handle": 11190,
    "Ġhouses": 6138,
    "Ġtwo": 1041,
    "sentimental": 25681,
    "°": 113,
    "tar": 8097,
    "Ġsa": 474,
    "Ġrind": 21966,
    "Ġroyal": 5602,
    "Ġfug": 12592,
    "landed": 18954,
    "fav": 6646,
    "Ġjump": 4503,
    "Ġfeasts": 25369,
    "notwithstanding": 22746,
    "start": 7599,
    "mews": 22693,
    "inde": 17731,
    "exclaimed": 11788,
    "Ġconcl": 5095,
    "Ġinhabitant": 19754,
    "ama": 11676,
    "Ġemer": 5958,
    "pumps": 21026,
    "Ġcrowding": 13277,
    "meal": 22692,
    "Ġreturning": 5325,
    "Ġknocked": 9499,
    "Ġdistress": 5844,
    "Ġarri": 2550,
    "Ġexploded": 15907,
    "Ġextremity": 8988,
    "Ġlent": 21544,
    "ainted": 3658,
    "omed": 13974,
    "itud": 2925,
    "Ġalarming": 14779,
    "Ġalarm": 4048,
    "parm": 21013,
    "Ġcareless": 11118,
    "Ġsubterr": 10348,
    "Ġviewed": 10463,
    "desirable": 23204,
    "Ġexcuses": 19042,
    "Ġmonotonous": 13261,
    "Ġausten": 5880,
    "Ġadmeasure": 18293,
    "igations": 18042,
    "Ė": 215,
    "Ġcharges": 23266,
    "Ġ92": 24590,
    "departure": 15233,
    "Ġleech": 24155,
    "Ġpiping": 23274,
    "Ġcross": 1373,
    "Ġ98": 24593,
    "Ġdiscipline": 26561,
    "observing": 25494,
    "Ġcronies": 23441,
    "Ġwishing": 7830,
    "Ġflew": 5588,
    "regiment": 16451,
    "affa": 23775,
    "Ġyes": 2689,
    "moid": 2449,
    "Ĳ": 243,
    "Ġvect": 1224,
    "Ġpup": 12616,
    "pendicular": 6499,
    "ieve": 1657,
    "soc": 5175,
    "Ġfleetness": 20178,
    "built": 16825,
    "Ġdone": 1819,
    "ilty": 6394,
    "Ġbountiful": 25944,
    "Ġphilips": 5410,
    "Ġimperilled": 19577,
    "Ġmove": 5107,
    "Ġstaid": 21732,
    "Ġgleamed": 17077,
    "Ġescorted": 23504,
    "Ü": 157,
    "Ġjoy": 3183,
    "lies": 15380,
    "Ġdig": 6135,
    "Ġrevered": 23732,
    "Ġbridges": 24682,
    "Ġcalifornia": 20528,
    "Ġyarn": 10868,
    "ction": 498,
    "Ġcontract": 18475,
    "mor": 4216,
    "Ġvindict": 13604,
    "tube": 20409,
    "enthusiastic": 20691,
    "Ġdepartments": 24242,
    "inition": 11556,
    "ulation": 5458,
    "pine": 13768,
    "Ġrecommendation": 17025,
    "general": 7490,
    "antingly": 22095,
    "entary": 21564,
    "Ġentrances": 25834,
    "ufact": 10733,
    "itted": 2441,
    "bed": 3290,
    "Ġblend": 14398,
    "Ġeyelids": 26107,
    "Ġadroit": 26000,
    "itably": 10782,
    "Ġchall": 10944,
    "bureau": 20788,
    "isition": 11585,
    "tuesday": 17690,
    "intu": 22930,
    "Ġfrosty": 14934,
    "imble": 10858,
    "Ġquant": 6424,
    "Ġsav": 3359,
    "Ġfix": 2505,
    "Ġtipped": 17728,
    "Ġnovember": 11747,
    "Ġaccord": 4025,
    "Ġ[_": 15460,
    "supers": 22632,
    "Ġclearly": 6897,
    "trampled": 26333,
    "Ġsatisfactory": 11192,
    "dial": 20824,
    "ris": 9137,
    "Ġwhilst": 9218,
    "omy": 6248,
    "hav": 20896,
    "sleep": 6511,
    "overcome": 19050,
    "bow": 5424,
    "Ġtraits": 23072,
    "Ġpul": 2041,
    "Ġindefatigable": 17177,
    "third": 8167,
    "merit": 19280,
    "erness": 6434,
    "cur": 3271,
    "Ġcommitted": 7431,
    "whosoever": 22237,
    "byter": 16212,
    "Ġmatlock": 18803,
    "ulnerable": 18150,
    "ler": 3490,
    "remote": 23185,
    "Ġplay": 2625,
    "street": 6495,
    "endous": 6850,
    "Ġbank": 4877,
    "oided": 11508,
    "Ġreiter": 21663,
    "Ġfragrant": 13075,
    "Ġphrases": 2795,
    "greatest": 10493,
    "Ġdoorway": 14498,
    "Ġexulting": 20257,
    "Ġbo": 795,
    "Ġgrizzled": 11450,
    "Ġpursuits": 12074,
    "Ġfates": 15575,
    "engagements": 25853,
    "Ġspear": 9313,
    "Ġrevolve": 19729,
    "Ġintently": 8168,
    "Ġserenely": 13506,
    "ints": 3419,
    "Ġrenew": 6145,
    "Ġenlist": 21933,
    "Ġascertain": 9705,
    "ac": 741,
    "Ġplainer": 23703,
    "Ġglassy": 19559,
    "Ġstash": 18067,
    "Ġgirdled": 19157,
    "Ġvalu": 5039,
    "Ġwhipping": 21713,
    "Ġprosperity": 20256,
    "Ġprofoundly": 16859,
    "Ġfitting": 21406,
    "violence": 16477,
    "nuts": 15397,
    "Ġman": 544,
    "Ġperch": 10298,
    "Ġheaven": 3367,
    "Ġsaint": 15506,
    "Ġincumbent": 16060,
    "Ġdoing": 3660,
    "lady": 4433,
    "Ġstone": 4645,
    "Ġrude": 7234,
    "Ġ119": 24441,
    "Ġopposed": 11188,
    "Ġequ": 1737,
    "Ġreconc": 9682,
    "Ġsled": 21217,
    "warnings": 20350,
    "metal": 24765,
    "Ġqualified": 14949,
    "who": 2445,
    "_--": 20761,
    "dislike": 23492,
    "Ġpairs": 4184,
    "uous": 4147,
    "Ġmiserably": 12945,
    "assment": 9736,
    "ouraged": 22852,
    "Ġcircles": 7966,
    "plicable": 10255,
    "Ġseasoned": 24405,
    "anxiously": 15109,
    "Ġ19": 6719,
    "Ġwal": 6517,
    "Ġicebergs": 23972,
    "Ġintensely": 17017,
    "utes": 5913,
    "prow": 15410,
    "despair": 8343,
    "Ġnortheast": 23199,
    "Ġinscriptions": 20007,
    "µ": 118,
    "Ġsidelong": 11438,
    "australian": 20560,
    "Ġushered": 18355,
    "Ġignor": 4011,
    "Ġpipe": 4323,
    "liable": 3816,
    "Ġpinioned": 21480,
    "Ġdoct": 4455,
    "resolutions": 26164,
    "Ġmem": 2070,
    "Ġlevels": 12695,
    "Ġbag": 5699,
    "convolutional": 4958,
    "ow": 325,
    "Ġgrow": 2856,
    "sideways": 14572,
    "Ġmogul": 12859,
    "Ġsuppress": 13017,
    "accur": 14593,
    "Ġjuicy": 25370,
    "Ġgladstone": 23867,
    "Ġcontemplative": 19892,
    "Ġeverybody": 4510,
    "Ġdissimilar": 22528,
    "Ġcobweb": 22583,
    "Ġfatt": 15576,
    "Ġcarrying": 6071,
    "Ġfluid": 11212,
    "Ġcorpora": 26580,
    "Ġconvalescence": 23744,
    "Ġhooked": 19077,
    "thirds": 25046,
    "skylight": 25623,
    "Ġ50": 24319,
    "Ġconsternation": 9858,
    "Ġrelevance": 5184,
    "commence": 19990,
    "Ġargument": 7098,
    "Ġexpensive": 12914,
    "landish": 11940,
    "Ġsolicit": 22882,
    "case": 5206,
    "Ġwet": 6518,
    "Ġming": 9645,
    "Ġful": 4298,
    "Ġcalam": 13031,
    "Ġvisitors": 7984,
    "Ġbud": 10168,
    "Ġcompat": 2933,
    "Ġaltern": 7394,
    "lips": 13749,
    "Ġgrief": 4620,
    "Ġbachel": 7158,
    "useless": 14594,
    "Ġmutilated": 23956,
    "Ġslammed": 20446,
    "Ġcontentment": 14869,
    "Ġannual": 14831,
    "Ġtahiti": 13618,
    "Ġsupply": 6066,
    "Ġspiral": 14584,
    "Ġincred": 5646,
    "Ġterminated": 23507,
    "Ġallusions": 10906,
    "Ġpirates": 9073,
    "Ġfreshly": 23984,
    "fairly": 17219,
    "whole": 6085,
    "Ġseam": 3906,
    "upid": 6581,
    "macy": 18805,
    "Ġparson": 6687,
    "Ġsinful": 18948,
    "Ġfalsely": 20580,
    ":--âĢľ": 24550,
    "Ġoffer": 4843,
    "Ġmerited": 23729,
    "Ġdoomed": 11342,
    "Ġspermaceti": 8967,
    "Ġdisc": 944,
    "Ġcaress": 16337,
    "Ġunclasp": 26511,
    "Ġrecommended": 8667,
    "smoking": 23908,
    "curiosity": 8623,
    "Ġconfusion": 7273,
    "Ġohio": 19128,
    "Ġstray": 18069,
    "fre": 5425,
    "Ġturner": 7049,
    "Ġumbrella": 15264,
    "Ġwithdraw": 16964,
    "Ġdeclared": 5595,
    "iness": 1282,
    "sli": 11522,
    "Ġautonom": 10415,
    "rily": 7622,
    "Ġpatentee": 25586,
    "Ġblackest": 19098,
    "somerset": 26322,
    "Ġscenari": 22306,
    "endless": 22223,
    "ain": 343,
    "Ġnind": 17949,
    "pur": 7806,
    "Ġconsoling": 19455,
    "repent": 15512,
    "relapse": 24013,
    "tinted": 17683,
    "Ġwinking": 17793,
    "Ġcasualties": 25512,
    "Ġfavourites": 16644,
    "lux": 14226,
    "Ġshall": 1142,
    "hur": 6648,
    "Ġmarshalled": 25315,
    "Ġstrangest": 14795,
    "Ġmatrim": 11060,
    "ifference": 5632,
    "Ġdecision": 2675,
    "Ġsurround": 4617,
    "gave": 7799,
    "Ġprone": 18967,
    "windibank": 24161,
    "Ġpunctually": 17138,
    ",âĢĿâĢĶ": 14215,
    "Ġcommanded": 6330,
    "Ġwaif": 9374,
    "grateful": 10428,
    "throughout": 24085,
    "Ġbrighton": 6470,
    "ilated": 18057,
    "stolen": 13981,
    "Ġloading": 15872,
    "Ġmari": 6813,
    "Ġyet": 1029,
    "Ġschedule": 2371,
    "clo": 5613,
    "charge": 9447,
    "Ġ67": 19659,
    "Ġcondemn": 13443,
    "Ġlengthen": 15651,
    "Ġshark": 5550,
    "brothers": 17024,
    "Ġbeckoned": 25793,
    "your": 1986,
    "yd": 21141,
    "Ġfil": 3472,
    "Ġoutwardly": 24998,
    "Ġimpetus": 25569,
    "Ġvintage": 26209,
    "eternal": 17982,
    "Ġoverwrites": 5033,
    "Ġspy": 22120,
    "Ġexped": 7651,
    "lect": 1222,
    "sebastian": 21817,
    "begins": 18525,
    "tolerable": 17688,
    "coward": 13699,
    "Ġarmed": 9259,
    "Ġ1820": 25718,
    "Ġgrown": 5628,
    "Ġpenetration": 19916,
    "Ġchancery": 20715,
    "Ġgardener": 19134,
    "Ġabridged": 26540,
    "Ġeasterly": 25962,
    "Ġmembrane": 20502,
    "acrity": 14278,
    "Ġsmith": 16062,
    "Ġaffliction": 25844,
    "erval": 4019,
    "Ġprepar": 7896,
    "formed": 2551,
    "Ġthen": 665,
    "agger": 7871,
    "Ġfaint": 5811,
    "pe": 1433,
    "uten": 11621,
    "causes": 20342,
    "axed": 8888,
    "wor": 3418,
    "Ġrummaged": 16910,
    "provid": 11149,
    "Ġsubt": 11866,
    "Ġdoubt": 2221,
    "neville": 22448,
    "Ġalfred": 21783,
    "Ġrequires": 1054,
    "Ġrelatives": 12979,
    "unc": 15766,
    "Ġgn": 8817,
    "Ġdecorated": 22442,
    "omen": 4089,
    "Ġdisreputable": 22531,
    "Ġsharper": 17179,
    "featured": 24088,
    "Ġdisquis": 22524,
    "Ġbelt": 13000,
    "Ġlikely": 3596,
    "terrific": 25040,
    "Ġpainting": 13140,
    "Ġproportionably": 19969,
    "Ġsaddest": 16662,
    "herald": 22203,
    "Ġunceasing": 20356,
    "shri": 14236,
    "altogether": 12636,
    "Ġnursery": 19749,
    "Ġmurderer": 4980,
    "fatigue": 20657,
    "Ġavert": 14424,
    "Ġhanover": 20584,
    "regards": 23465,
    "accounted": 16501,
    "concluding": 19479,
    "critters": 14783,
    "simultaneously": 19863,
    "olic": 14048,
    "Ġlandlord": 5581,
    "unpardonable": 21887,
    "Ġ12": 5483,
    "erably": 7574,
    "Ġpepper": 9780,
    "attempts": 17190,
    "Ġbequest": 21750,
    "urpation": 16299,
    "Ġquery": 2478,
    "Ġendeavors": 16545,
    "Ġreluctant": 20523,
    "Ġtwain": 16117,
    "initely": 7569,
    "seventy": 10876,
    "tro": 15432,
    "Ġrenowned": 26193,
    "Ġlanterns": 24577,
    "fishery": 10031,
    "principal": 20659,
    "Ġgenerations": 10964,
    "Ġyouthful": 16723,
    "Ġtension": 13823,
    "Ġunansw": 22055,
    "Ġharness": 17927,
    "Ġasserted": 16949,
    "isely": 4488,
    "Ġyour": 632,
    "Ġassembly": 10642,
    "hunted": 16832,
    "Ġcarbuncle": 14444,
    "Ġsnatch": 14639,
    "pire": 9135,
    "Ġmach": 13856,
    "box": 5749,
    "nothing": 3154,
    "Ġ270": 25130,
    "arthur": 14829,
    "enemy": 15525,
    "Ġlangu": 577,
    "william": 4562,
    "Ġmassive": 9931,
    "Ġattracted": 8904,
    "Ġbedfellow": 16436,
    "Ġinvest": 4978,
    "orter": 4256,
    "Ġsubstance": 5510,
    "Ġthings": 1964,
    "appe": 2939,
    "Ġrekindled": 21674,
    "Ġelapsed": 7653,
    "Ï": 144,
    "Ġtemple": 7654,
    "Ġnicely": 8708,
    "formality": 22214,
    "Ġdisliked": 12888,
    "Ġcharitable": 23267,
    "Ġprayed": 16667,
    "bun": 12436,
    "proves": 23392,
    "Ġenlightened": 12743,
    "answered": 10273,
    "Ġshivered": 14107,
    "Ġattractions": 12915,
    "ringle": 21039,
    "arrant": 10474,
    "Ġ69": 19660,
    "Ġemploys": 19429,
    "commanding": 24752,
    "Ġreckoning": 14978,
    "Ġstriking": 6088,
    "Ġor": 437,
    "Ġfem": 6134,
    "Ġfell": 1979,
    "possibility": 13360,
    "Ġpanther": 16819,
    "adays": 14012,
    "Ġrejoined": 14926,
    "Ġhissed": 15786,
    "Ġclim": 8194,
    "inclination": 20056,
    "Ġcap": 2362,
    "derbyshire": 18322,
    "Ġdiscriminative": 4328,
    "Ġmagg": 18905,
    "anatory": 21361,
    "Ġrepentance": 15159,
    "athies": 22699,
    "Ġbetokened": 18799,
    "Ġfluttered": 16248,
    "Ġsneezing": 12245,
    "ath": 863,
    "Ġserving": 14486,
    "Ġtheatre": 21277,
    "Ġsubfield": 11867,
    "Ġparty": 3509,
    "Ġget": 1619,
    "ĠlinnÃ¦us": 15274,
    "discover": 10539,
    "Ġdiscontented": 16057,
    "partner": 19219,
    "rious": 11687,
    "inexplicable": 25809,
    "Ġstruct": 2782,
    "fo": 5278,
    "Ġliberties": 19666,
    "Ġlocket": 22110,
    "Ġfragment": 14483,
    "I": 45,
    ",âĢĶâĢľ": 10069,
    "Ġjaws": 5593,
    "octial": 20003,
    "Ġvaults": 17153,
    "arts": 6563,
    "Ġplying": 17913,
    "Ġlet": 1112,
    "Ġidentified": 19150,
    "Ġbells": 19600,
    "Ġrecovery": 11441,
    "calm": 8934,
    "acies": 14276,
    "Ġnapoleon": 20556,
    "Ġinsulated": 23679,
    "Ġsnuffed": 15071,
    "Ġsafety": 6339,
    "Ġhappening": 14382,
    "Ġheel": 9683,
    "inese": 12877,
    "Ġtroub": 22352,
    "similar": 13452,
    "Ġdrop": 4345,
    "Ġdecomposition": 5342,
    "Ġtren": 17721,
    "ignation": 11128,
    "yes": 986,
    "Ġont": 18116,
    "Ġcellar": 8058,
    "Ġharpooned": 13260,
    "nearer": 22447,
    "Ġfundamental": 3009,
    "eprints": 12788,
    "gaffman": 26390,
    "ge": 561,
    "labour": 23912,
    "Ġsemi": 11967,
    "enty": 2911,
    "Ġcro": 4873,
    "Ġherself": 1567,
    "covered": 11477,
    "Ġaffectation": 14440,
    "Ġbeaver": 18085,
    "jo": 3750,
    "Ġkrem": 9726,
    "Ġperf": 12847,
    "Ġgrowth": 14629,
    "Ġagencies": 18541,
    "surd": 6934,
    "Ġcyn": 13885,
    "ĠĠĠĠĠĠĠĠĠĠĠĠ": 12897,
    "Ġmost": 1020,
    "Ġunhing": 18241,
    "tt": 13789,
    "Ġinsertion": 26343,
    "ished": 1424,
    "ass": 533,
    "Ġeye": 2281,
    "Ġfisher": 3222,
    "Ġcommitting": 22670,
    "Ġinvincible": 23478,
    "Ġglitter": 25122,
    "Ġconsum": 9798,
    "Ġpantheistic": 26335,
    "Ġnet": 3625,
    "inquir": 9535,
    "Ġcompared": 2226,
    "Ġsepulchral": 25892,
    "qualities": 25043,
    "swim": 16779,
    "smug": 23905,
    "understood": 13215,
    "unting": 21871,
    "Ġcrow": 3802,
    "backward": 2683,
    "Ġemergency": 25731,
    "Ġladyship": 5046,
    "Ġmiz": 10777,
    "Ġcosine": 2372,
    "Ġperils": 6273,
    "Ġflapp": 23007,
    "Ġconstrain": 2628,
    "eel": 11483,
    "leap": 21365,
    "cks": 3079,
    "Ġconj": 8460,
    "Ġsacrifice": 9555,
    "Ġdistrusted": 13541,
    "Ġnarwhale": 12291,
    "determ": 7105,
    "Ġunf": 4093,
    "vard": 21109,
    "ach": 435,
    "anelles": 26434,
    "Ġcalmed": 16266,
    "Ġgarden": 3824,
    "î": 175,
    "Ġseeks": 14301,
    "Ġproud": 5654,
    "Ġvigorously": 11299,
    "esu": 17901,
    "Ġriddle": 14819,
    "Ġgladness": 16591,
    "immed": 9217,
    "Ġpunchbowl": 20230,
    "Ġparl": 8177,
    "Ġmetrics": 19056,
    "Ġbook": 2703,
    "Ġwhereon": 16099,
    "Ġspans": 18304,
    "Ġgore": 17988,
    "Ġscrupled": 25049,
    "Ġkettle": 26232,
    "Ġcarav": 18901,
    "Ġarchbishop": 18711,
    "ternatural": 12712,
    "neighboring": 20615,
    "Ġrokovoko": 22403,
    "Ġstraighten": 24001,
    "Ġhangs": 11605,
    "Ġwooden": 4729,
    "public": 17646,
    "Ġimmut": 13296,
    "Ġarthur": 7196,
    "yard": 5899,
    "Ġmaledictions": 26428,
    "Ġpenetrating": 17011,
    "Ġsquat": 14366,
    "Ġimpetuous": 25570,
    "Ġstill": 1155,
    "Ē": 211,
    "Ġ97": 19773,
    "Ġscholar": 26111,
    "Ġabominable": 12320,
    "Ġdecreasing": 2443,
    "Ġbulge": 23855,
    "Ġcoincidence": 25483,
    "Ġtreated": 7080,
    "Ġrounded": 14437,
    "Ġrough": 7187,
    "Ġhereditarily": 25224,
    "write": 14647,
    "Ġmotive": 6091,
    "mistak": 16878,
    "Ġrowing": 10300,
    "Ġleaping": 8340,
    "scale": 3533,
    "ents": 1899,
    "Ġfishermen": 5970,
    "Ġboneless": 19604,
    "log": 18537,
    "Ġharsh": 9520,
    "Ġfrigates": 25707,
    "abst": 21785,
    "Ġfinish": 7948,
    "Ġengagement": 5397,
    "food": 12461,
    "good": 2895,
    "batross": 9092,
    "Ġcrowned": 16841,
    "apolog": 22329,
    "Ġye": 900,
    "thrust": 10261,
    "urned": 9305,
    "Ġtomorrow": 21510,
    "Ġconjured": 25099,
    "press": 1733,
    "really": 6971,
    "Ġhorrible": 4905,
    "fetch": 12462,
    "Ġsends": 14790,
    "diminished": 20838,
    "Ġcured": 21345,
    "Ġseething": 18203,
    "Ġsebastian": 11696,
    "Ġwindigate": 18910,
    "bl": 4144,
    "allied": 7410,
    "win": 6801,
    "Ġslop": 23158,
    "Ġbedfellows": 23437,
    "eries": 6808,
    "Ġwin": 9641,
    "Ġslavery": 16306,
    "Ġadult": 18289,
    "dried": 20826,
    "Ġhuggins": 24828,
    "Ġchrysalis": 26538,
    "Ġcolumns": 14375,
    "Ġhovering": 10178,
    "Ġlayer": 1011,
    "ribly": 8254,
    "Ġglades": 19370,
    "Ġeyford": 10641,
    "Ġdeny": 7489,
    "Ġscriptures": 26236,
    "Ġ199": 3005,
    "Ġdigest": 24647,
    "Ġusing": 714,
    "Ġbrimstone": 25686,
    "Ġglances": 10372,
    "Ġpresenting": 18989,
    "vable": 10132,
    "verted": 10217,
    "Ġburtons": 19252,
    "cleanliness": 25871,
    "Ġreplacing": 3450,
    "iding": 3844,
    "Ġsurpl": 19132,
    "ock": 15401,
    "msprop": 2624,
    "Ġhousekeeper": 7456,
    "poled": 22905,
    "Ġencourages": 2061,
    "Ġattend": 5035,
    "Ġhaving": 1884,
    "Ġtrap": 7672,
    "Ġannounce": 13337,
    "caves": 20815,
    "Ġmonoman": 7938,
    "Ġtalking": 3855,
    "Ġporpoises": 13381,
    "noted": 22744,
    "pest": 6964,
    "care": 4928,
    "apt": 726,
    "heard": 5009,
    "venerable": 26408,
    "Ġdetestation": 17127,
    "Ġ]": 15458,
    "Ġlashed": 9198,
    "Ġcreamy": 14331,
    "imely": 13997,
    "Ġweapon": 7775,
    "Ġnowhere": 12883,
    "enchant": 21282,
    "Ġincor": 2608,
    "Ġinstinct": 6575,
    "Ġappointment": 10646,
    "Ġdesisted": 22970,
    "liv": 9607,
    "blue": 13692,
    "omist": 21635,
    "itting": 1150,
    "Ġmultipl": 2789,
    "orable": 8119,
    "barbs": 20236,
    "Ġavocation": 23950,
    "Ġindispens": 22951,
    "levelled": 23645,
    "conda": 18997,
    "Ġdisclose": 16154,
    "hibited": 17426,
    "apprec": 22839,
    "Ġpuzzling": 14897,
    "anyone": 16593,
    "Ġamericans": 14742,
    "Ġspouter": 12795,
    "reinforcement": 7826,
    "Ġlad": 2364,
    "pale": 13770,
    "icked": 10332,
    "rid": 5137,
    "entire": 6824,
    "archbishop": 22892,
    "borough": 20784,
    "clergyman": 20728,
    "smiled": 16614,
    "murderers": 25728,
    "Ġavowed": 16633,
    "Ġpemberley": 4588,
    "Ġoverwhelming": 17102,
    "Ġpersecut": 16952,
    "mme": 22497,
    "Ġchilled": 18382,
    "Ġlar": 765,
    "Ġtermination": 16460,
    "ription": 5676,
    "Ġgould": 17989,
    "icest": 21561,
    "sent": 760,
    "h": 76,
    "Ġsnatching": 10472,
    "Ġriddles": 16732,
    "cold": 9589,
    "Ġharvard": 24573,
    "Ġspent": 3961,
    "Ġcam": 10161,
    "Ġimmured": 24069,
    "Ġmr": 660,
    "Ġclouds": 5775,
    "ust": 494,
    "cannon": 22959,
    "Ġinch": 7849,
    "invariably": 26416,
    "Ġeluded": 12919,
    "Ġheredit": 9216,
    "ece": 17531,
    "Ġunfathom": 14789,
    "legs": 13181,
    "Ġrat": 4354,
    "Ġhypocr": 19470,
    "Ġnlp": 3062,
    "subject": 6631,
    "Ġbuttoned": 25368,
    "Ġpanted": 21470,
    "Ġmortifying": 13244,
    "ur": 326,
    "Ġfulfilment": 20186,
    "Ġarmy": 11739,
    "vis": 4577,
    "Ġfloundering": 16250,
    "Ġkilling": 13331,
    "Ġstaying": 8283,
    "ditch": 17528,
    "Ġphrenolog": 12332,
    "Ġtedious": 15266,
    "Ġwat": 1287,
    "Ġdiab": 10611,
    "Ġfris": 23254,
    "Ġhid": 1318,
    "Ġaffront": 18788,
    "gold": 9120,
    "Ġtidings": 11397,
    "Ġrus": 14091,
    "ilst": 8143,
    "Ġcurved": 18856,
    "listened": 15043,
    "ife": 1025,
    "Ġclaims": 13372,
    "coarse": 16487,
    "aples": 20767,
    "Ġinflexibly": 26370,
    "Ġdevouring": 11856,
    "å": 166,
    "Ġsneeze": 24699,
    "Ġconnexion": 11454,
    "oker": 10963,
    "Ġharpoon": 3615,
    "Ġson": 2979,
    "enses": 10994,
    "Ġflower": 16230,
    "labours": 16617,
    "inu": 1117,
    "hog": 8379,
    "der": 472,
    "Ġwitnessing": 19597,
    "quite": 4646,
    "Ġstranded": 9774,
    "Ġcheerfully": 12132,
    "ic": 304,
    "Ġpermanently": 25473,
    "Ġshifted": 14106,
    "Ġbacking": 16115,
    "longer": 8612,
    "Ġcaptiv": 16255,
    "ancholy": 5070,
    "Ġgrowled": 19282,
    "Ġpurchases": 24756,
    "talked": 14984,
    "Ġworkman": 16270,
    "aut": 1915,
    "Ġupdates": 1299,
    "brim": 23574,
    "Ġbelly": 10369,
    "Ġunperceived": 22034,
    "Ġguessed": 11282,
    "Ġsoutherly": 23330,
    "Ġseas": 3077,
    "Ġtrance": 12838,
    "ryphon": 4165,
    "perquis": 22187,
    "Ġdarkened": 16431,
    "Ġsurpassing": 20466,
    "devouring": 24950,
    "Ġangles": 23587,
    "arned": 21814,
    "Ġshoved": 23488,
    "Ġtwin": 12925,
    "bride": 19198,
    "Ġdif": 871,
    "Ġig": 3500,
    "Ġdireful": 11018,
    "arded": 5029,
    "disappearing": 23500,
    "Ġcelest": 9900,
    "Ġwondered": 11125,
    "Ġabundant": 17154,
    "Ġscratching": 20369,
    "profess": 10628,
    "Ġterm": 2265,
    "Ġacceptable": 16744,
    "free": 8735,
    "Ġmoustache": 20482,
    "Ġlips": 3989,
    "Ġgallery": 10524,
    "Ġcomfor": 14053,
    "Ġleakage": 23458,
    "Ġaffected": 5577,
    "Ġterr": 3274,
    "Ġnearest": 8469,
    "Ġdeified": 18136,
    "atural": 948,
    "ulls": 8837,
    "Ġsong": 5902,
    "Ġexordium": 26492,
    "anything": 5518,
    "Ġpupella": 20420,
    "Ġmouldy": 14973,
    "Ġhungry": 10532,
    "supplied": 10519,
    "Ġreturned": 2887,
    "Ġbelie": 14406,
    "buttoned": 13631,
    "former": 11746,
    "Ġmurmuring": 23578,
    "pedest": 24695,
    "Ġfrequented": 16585,
    "gr": 2086,
    "Ġexalted": 12410,
    "web": 18664,
    "Ġunlikely": 10908,
    "Ġshipw": 12976,
    "Ġdiving": 12598,
    "Ġsauntering": 18327,
    "alarms": 21502,
    "Ġcleaning": 23176,
    "Ġjoined": 4564,
    "Ġcedars": 20291,
    "wol": 21121,
    "Ġcolle": 8923,
    "Ġterti": 14538,
    "moon": 10335,
    "Ġmuster": 16120,
    "Ġxxxix": 24968,
    "Ġlion": 9675,
    "Ġupright": 8493,
    "Ġblurred": 22928,
    "Ġrequesting": 24632,
    "Ġnotions": 14098,
    "Ġpetrified": 19595,
    "assemblies": 25956,
    "Ġcuring": 21342,
    "Ġmistakes": 16540,
    "Ġsecondary": 23332,
    "erer": 8731,
    "Ġforwards": 12700,
    "Ġinspect": 5963,
    "Ġmorocco": 26573,
    "acup": 14277,
    "narrated": 25621,
    "Ġpeeled": 14317,
    "Ġbye": 12735,
    "flakes": 23965,
    "tormented": 13644,
    "Ġhereby": 10358,
    "Ġyawning": 12298,
    "farm": 15350,
    "Ġcough": 11580,
    "Ġconsulted": 13429,
    "Ġintegrity": 12311,
    "gress": 2212,
    "thou": 4708,
    "viii": 12019,
    "ency": 3867,
    "istol": 6259,
    "sets": 17660,
    "buffalo": 20562,
    "Ġpuppy": 12403,
    "Ġtar": 2561,
    "Ġspectacles": 12095,
    "Ġinsisted": 12043,
    "uing": 17693,
    "Ġtired": 9149,
    "Ġimpose": 22381,
    "crossed": 16632,
    "orand": 21395,
    "Ġbarnacled": 25536,
    "denial": 18717,
    "Ġforetold": 23450,
    "arent": 4250,
    "petulance": 24299,
    "Ġplease": 4722,
    "Ġpooh": 18603,
    "Ġstruggle": 3674,
    "Ġbeliever": 25845,
    "wag": 21122,
    "backs": 9390,
    "Ġlocations": 12411,
    "Ġembraces": 19871,
    "separ": 9230,
    "Ġscandinav": 19959,
    "ports": 13773,
    "Ġtophet": 23572,
    "elev": 12456,
    "Ġpours": 17911,
    "Ġstepped": 7051,
    "glit": 23848,
    "Ġdodge": 19885,
    "Ġstores": 18068,
    "Ġplanned": 14751,
    "Ġmariner": 7247,
    "Ġarab": 7823,
    "clerval": 7950,
    "privilege": 25263,
    "Ġgodly": 19078,
    "Ġtwos": 18657,
    "Ġbrows": 13299,
    "....": 11316,
    "Ġflowed": 10371,
    "Ġvillain": 8635,
    "Ġmagazine": 23096,
    "verest": 13990,
    "Ġcosmopolitan": 20640,
    "Ġdistension": 22502,
    "Ġmarket": 7708,
    "Ġcluster": 13570,
    "meeting": 11016,
    "Ġboisterous": 20441,
    "Ġneurons": 977,
    "Ġseams": 12122,
    "Ġ22": 8278,
    "Ġavail": 11226,
    "ounder": 11742,
    "Ġinsists": 23677,
    "ies": 584,
    "Ġengineer": 11973,
    "Ġribbed": 16804,
    "particip": 23615,
    "rit": 21034,
    "Ġwert": 12553,
    "dog": 10692,
    "istically": 14143,
    "Ġsupers": 18281,
    "pie": 21010,
    "Ġorigin": 4123,
    "battering": 20785,
    "Ġheap": 12675,
    "Ġtherefore": 2236,
    "Ġju": 10285,
    "Ġcoding": 8115,
    "iard": 9601,
    "unvarying": 21884,
    "Ġcastaway": 16640,
    "bear": 10314,
    "going": 6313,
    "list": 7552,
    "Ġshad": 3847,
    "Ġpoured": 8800,
    "Ġsitting": 3604,
    "Ġconve": 5455,
    "scores": 22984,
    "Ġact": 690,
    "Ġthickening": 24021,
    "Ġdefy": 11895,
    "Ġdeliverance": 15156,
    "Ġacquitted": 18898,
    "Ġsulky": 13514,
    "Ġlif": 10195,
    "Ġscotch": 12207,
    "Ġdoctrine": 24197,
    "arians": 18526,
    "ault": 2306,
    "Ġsally": 15501,
    "Ġundulating": 19516,
    "minded": 9037,
    "Ġtawny": 20480,
    "Ġeasiest": 23537,
    "Ġallow": 1127,
    "danish": 20832,
    "ate": 421,
    "Ġcouldn": 7649,
    "Ġbounded": 16626,
    "Ġcracking": 14574,
    "Ġcapering": 21352,
    "Ġheels": 10850,
    "Ġishmael": 7395,
    "Ġvisited": 5947,
    "ounced": 4954,
    "springing": 24889,
    "anous": 21357,
    "Ġjacobians": 2889,
    "ipt": 12476,
    "succeeded": 15174,
    "Ġdelicate": 6480,
    "Ġfrozen": 9012,
    "ache": 8518,
    "hyp": 15365,
    "ratulations": 20124,
    "Ġpresence": 5031,
    "Ġluckily": 16798,
    "perpet": 14161,
    "Ġtowering": 16739,
    "nowhere": 18418,
    "Ġladder": 8598,
    "directly": 13708,
    "Ġseems": 2480,
    "Ġstrives": 23694,
    "include": 23588,
    "Ġbrides": 22863,
    "plendent": 21955,
    "Ġcuba": 25095,
    "love": 9293,
    "Ġhandkerchief": 8913,
    "misfortunes": 16756,
    "Ġstormy": 16728,
    "Ġlens": 8437,
    "ais": 8070,
    "Ġhorrors": 10479,
    "Ġkindred": 16376,
    "Ġsaintly": 25931,
    "told": 7811,
    "Ġardent": 9969,
    "lilies": 20960,
    "hig": 12472,
    "Ġdamning": 19139,
    "ress": 931,
    "Ġwipe": 25764,
    "generous": 16568,
    "Ġtwins": 16118,
    "zeal": 16259,
    "Ġbambooz": 26119,
    "taste": 10129,
    "speckled": 23942,
    "Ġpurposely": 10444,
    "Ġstab": 10862,
    "Ġlowerings": 23649,
    "Î": 143,
    "Ġheeded": 13402,
    "ious": 769,
    "huzza": 20912,
    "str": 2576,
    "hatch": 15363,
    "Ġpurses": 23475,
    "gpt": 5355,
    "cu": 10083,
    "Ġlouisiana": 25076,
    ":--": 5784,
    "Ġdiscount": 22779,
    "Ġdesc": 772,
    "Ġmayhew": 12947,
    "Ġencompassed": 15252,
    "ub": 1225,
    "Ġhair": 3314,
    "f": 74,
    "date": 17517,
    "Ġknotted": 17019,
    "igated": 15704,
    "Ġfacility": 19849,
    "Ġcombing": 22858,
    "Ġeu": 6390,
    "Ġprodigy": 19791,
    "Ġelated": 18632,
    "inburgh": 15489,
    "Ġquadru": 16002,
    "Ġignorant": 5343,
    "hunter": 10555,
    "Ġvortex": 26208,
    "Ġsketches": 26270,
    "Ġsubl": 7235,
    "Ġsluggishly": 25891,
    "Ġripp": 11219,
    "original": 9084,
    "holding": 7738,
    "duty": 20238,
    "guess": 14760,
    "still": 4220,
    "Ġtoss": 10184,
    "Ġclings": 15961,
    "reproach": 15185,
    "yesterday": 10352,
    "Ġork": 18284,
    "itates": 13868,
    "Ġeulogy": 26470,
    "antediluvian": 24346,
    "Ġbarque": 23789,
    "exhibited": 18477,
    "Ġpiled": 8424,
    "Ġmabel": 17323,
    "Ġtrail": 16280,
    "Ġsuit": 5725,
    "Ġstanders": 19018,
    "Ġshine": 12763,
    "astrous": 15884,
    "ð": 177,
    "frankenstein": 11391,
    "Ġgrieve": 14706,
    "Ġframed": 18995,
    "oce": 10714,
    "Ġassembl": 20059,
    "Ġathe": 17741,
    "encyclopÃ¦dia": 16663,
    "prepared": 13589,
    "Ġplanks": 5563,
    "iliation": 10860,
    "Ġoarsman": 8637,
    "lamp": 9608,
    "Ġspect": 3550,
    "Ġpref": 14171,
    "Ġimbu": 15889,
    "Ġtremendous": 8352,
    "Ġtradeoff": 2657,
    "ork": 415,
    "Ġconvict": 23743,
    "Ġtro": 7356,
    "Ġcocain": 18596,
    "omited": 21638,
    "Ġvisions": 12973,
    "rust": 2579,
    "Ġ101": 24409,
    "excuse": 13380,
    "ishmael": 18425,
    "Ġprocesses": 3633,
    "Ġsupercil": 23453,
    "Ġlist": 2365,
    "ahawk": 23314,
    "apan": 6860,
    "Ġindignant": 12237,
    "loo": 10319,
    "Ġunknown": 4453,
    "Ġgap": 21596,
    "none": 6962,
    "rud": 4192,
    "fabulous": 20472,
    "grieved": 17316,
    "Ġplague": 11822,
    "ms": 540,
    "emy": 14074,
    "ology": 1634,
    "air": 1004,
    "Ġindians": 14409,
    "Ġowned": 11874,
    "ized": 1530,
    "ors": 854,
    "Ġobstructed": 24677,
    "Ġinconvenience": 9563,
    "transferred": 24514,
    "nine": 13760,
    "Ġthinking": 4032,
    "kinson": 10025,
    "Ġundertaking": 8573,
    "ins": 1377,
    "Ġfron": 14488,
    "snow": 10724,
    "Ġprivately": 19522,
    "Ġpam": 21452,
    "Ġenduring": 16301,
    "Ġchurning": 15935,
    "Ġviolation": 23404,
    "brown": 15316,
    "Ġdiscours": 18718,
    "Ġshoreless": 24295,
    "Ġstubbornness": 25380,
    "Ġ1828": 25720,
    "set": 3864,
    "Ġsend": 4111,
    "Ġautoregressive": 3433,
    "Ġreputed": 18035,
    "Ġcaged": 21350,
    "Ł": 258,
    ".âĢĻ": 1721,
    "glue": 17556,
    "Ġstate": 1813,
    "Ġthoroughfare": 16944,
    "abounding": 25979,
    "Ġregarding": 13209,
    "Ġsmite": 22554,
    "Ġcanst": 8857,
    "Ġenglishmen": 19428,
    "Ġobserved": 3539,
    "balance": 12005,
    "Ġstabbed": 25456,
    "dient": 442,
    "Ġbefall": 8828,
    "Ġbroken": 3449,
    "Õ": 150,
    "bod": 12435,
    "Ġtablet": 19203,
    "favouring": 24762,
    "Ġboom": 9309,
    "ifies": 6686,
    "oton": 3606,
    "Ġwooing": 19432,
    "x": 92,
    "Ġeffectually": 16161,
    "lant": 20946,
    "Ġpsychology": 11448,
    "Ġsuggested": 8320,
    "Ġ39": 19488,
    "Ġspecies": 5112,
    "infl": 15486,
    "Ġrosy": 18457,
    "inside": 23062,
    "Ġdeceived": 6544,
    "bows": 10081,
    "Ġloafer": 18299,
    "Ġbetray": 7442,
    "Ġpikes": 21476,
    "Ġoriginated": 24123,
    "Ġnomine": 26456,
    "Ġvariants": 1794,
    "Ġrespectable": 6736,
    "Ġexplo": 2285,
    "consider": 6348,
    "wishing": 21127,
    "Ġsegment": 12754,
    "Ġincalculable": 17460,
    "sam": 21050,
    "nurtured": 25524,
    "Ġchair": 3661,
    "Ġstranger": 3485,
    "europe": 20664,
    "peter": 24298,
    "sec": 6152,
    "Ġendwise": 23140,
    "Ġsurviv": 13434,
    "ips": 2590,
    "desponding": 26341,
    "aston": 7408,
    "Ġ59": 24327,
    "Ġhumph": 22878,
    "Ġdenoted": 16565,
    "gh": 3798,
    "Ġsides": 4579,
    "Ġunpitying": 25660,
    "Ġfort": 2577,
    "Ġrecover": 9792,
    "Ġreception": 9838,
    "Ġcig": 6520,
    "Ġnurtured": 19748,
    "innocent": 20285,
    "chain": 18039,
    "science": 11907,
    "Ġsuppressing": 22995,
    "Ġterrier": 23397,
    "compass": 9459,
    "Ġgun": 4701,
    "overcoat": 19051,
    "Ġbarber": 23788,
    "coburg": 13597,
    "infant": 19826,
    "Ġmodified": 14166,
    "Ġowing": 6004,
    "Ġilliterate": 26594,
    "Ġdreary": 10408,
    "Ġsurpassed": 25267,
    "_).": 5886,
    "deficient": 23114,
    "Ġtoday": 12640,
    "sequence": 2852,
    "Ġfreshet": 25704,
    "Ġadequ": 10913,
    "azore": 23461,
    "enc": 7575,
    "Ġclay": 7018,
    "Ġshout": 4265,
    "Ġignorance": 6618,
    "marvell": 24172,
    "Ġstra": 2987,
    "Ġoutcast": 18414,
    "embraces": 25805,
    "accustomed": 13156,
    "Ġexponential": 1057,
    "Ġjabez": 11763,
    "Ġsculpture": 26018,
    "Ġscrews": 25177,
    "Ġdisent": 22520,
    "Ġoverheard": 11772,
    "fur": 6355,
    "Ġdetermine": 3245,
    "rative": 17652,
    "two": 3857,
    "Ġsouthern": 7689,
    "omination": 21639,
    "Ġprivile": 8645,
    "inglass": 21301,
    "Ġphysi": 9987,
    "Ġmounting": 19975,
    "Ġsorts": 6887,
    "ö": 183,
    "Ġwhom": 1833,
    "occasion": 7753,
    "prolong": 23393,
    "mechan": 11853,
    "ologist": 22886,
    "Ġseriously": 7061,
    "Ġwrite": 3819,
    "appearing": 14637,
    "Ġdivinest": 25722,
    "Ġrescue": 13341,
    "atherine": 2593,
    "solemn": 19816,
    "Ġgre": 1581,
    "pleased": 8853,
    "cstasy": 11445,
    "Ġinmost": 17930,
    "avast": 8896,
    "Ġattach": 14290,
    "Ġspars": 3807,
    "drew": 7334,
    "Ġpresc": 15923,
    "Ġrelics": 16194,
    "pshaw": 21027,
    "Ġfrighten": 13276,
    "Ġintending": 11703,
    "utility": 21584,
    "mense": 4780,
    "Ġdisorder": 16049,
    "Ġcontracted": 12857,
    "irious": 15783,
    "Ġfoliage": 18866,
    "warm": 8101,
    "Ġsubsiding": 23432,
    "whaleman": 23434,
    "Ġconfess": 3765,
    "th": 408,
    "Ġcontroverted": 23250,
    "Ġnailing": 21524,
    "forbid": 14351,
    "Ġamaz": 5385,
    "Ġorchard": 22091,
    "Ġbits": 11587,
    "Ġutilize": 4798,
    "Ġseverity": 15818,
    "heedful": 20572,
    "Ġalmost": 1655,
    "Ġwondrously": 24061,
    "more": 1033,
    "ging": 2598,
    "ogra": 4573,
    "vocation": 25084,
    "conclusions": 25672,
    "Ġutterly": 6100,
    "Ġphr": 2681,
    "muttered": 13758,
    "100": 11464,
    "plex": 703,
    "blood": 7779,
    "tie": 21067,
    "Ġgard": 2186,
    "Ġgentle": 1893,
    "Ġvillainous": 25131,
    "Ġnominally": 17231,
    "Ġgrapp": 14100,
    "clam": 13052,
    "^": 66,
    "orte": 14184,
    "abiding": 21790,
    "Ġcomputation": 970,
    "Ġdil": 6383,
    "asht": 4087,
    "Ġphysical": 7523,
    "Ġharpooning": 23976,
    "Ġcobb": 14271,
    "Ġprognostics": 20557,
    "servant": 15035,
    "pagan": 17285,
    "ically": 834,
    "clings": 23148,
    "tumult": 12421,
    "Ġduchess": 4799,
    "buncle": 13691,
    "ĠĠĠĠĠĠĠĠĠĠĠĠĠĠĠĠ": 1219,
    "ouse": 1193,
    "Ġperu": 14222,
    "pious": 17633,
    "Ġhalls": 19524,
    "Ġpoet": 8207,
    "Ġtiny": 11552,
    "Ġaffecting": 2323,
    "Ġfills": 12591,
    "acknowledge": 18470,
    "etime": 12656,
    "ancho": 4938,
    "Ġdict": 9175,
    "Ġ182": 13235,
    "Ġenlarge": 21932,
    "ribes": 23362,
    "Ġwrist": 8242,
    "Ġsoda": 25534,
    "Ġmic": 17797,
    "Ġpsych": 10176,
    "bable": 8718,
    "ather": 740,
    "âĢĶ": 517,
    "Ġsights": 7473,
    "helpless": 16790,
    "Ġenveloping": 19733,
    "Ġburgled": 23656,
    "Ġagrees": 22513,
    "Ġaims": 15495,
    "Ġcontinued": 2917,
    "Ġinequal": 21494,
    "Ġsorely": 17256,
    "Ġvint": 18194,
    "display": 19154,
    "listener": 24930,
    "masculine": 24387,
    "Ġpreternatural": 12820,
    "Ġenjoyments": 24015,
    "Ġenormity": 19694,
    "erted": 7361,
    "ividually": 22082,
    "Ġdesmarest": 22971,
    "unctuous": 21879,
    "quently": 9701,
    "Ġisol": 8833,
    "Ġbond": 21382,
    "Ġsold": 6002,
    "Ġdated": 10939,
    "Ġconsequences": 11335,
    "carb": 20809,
    "Ġconcentrate": 25063,
    "shark": 14239,
    "enet": 10152,
    "Ġpeterson": 9482,
    "vanished": 15060,
    "Ġagency": 11804,
    "Ġdescribed": 6606,
    "Ġrebellion": 26475,
    "Ġhose": 12624,
    "Ġdiffident": 23782,
    "Ġselves": 21221,
    "Ġhideousness": 16915,
    "Ġflesh": 5968,
    "Ġcherry": 16935,
    "Ġdub": 13908,
    "Ġfinished": 5044,
    "iverer": 11714,
    "Ġsubstantiated": 25875,
    "Ġwearer": 21919,
    "Ġbeatrix": 24204,
    "Ġassaulted": 25320,
    "gang": 17553,
    "Ġexpressive": 8982,
    "Ġconvulsively": 25717,
    "consent": 18503,
    "Ġchecked": 9375,
    "strate": 12671,
    "Ġprimary": 25060,
    "Ġmanager": 11767,
    "chemical": 23807,
    "ters": 1572,
    "follow": 5680,
    "Ġcontinuous": 1561,
    "anct": 21356,
    "bar": 7542,
    "Ġflo": 2586,
    "Ġloss": 821,
    "Ġingenuity": 17163,
    "questioning": 16850,
    "Ġexpense": 7652,
    "Ġdaw": 21427,
    "ont": 2620,
    "Ġcrane": 23438,
    "Ġtask": 1310,
    "asher": 15643,
    "studies": 25166,
    "mell": 20963,
    "iforn": 14063,
    "Ġsurpasses": 25268,
    "poor": 6060,
    "possibly": 10543,
    "Ġoutlines": 15955,
    "Ġapparition": 8066,
    "ivation": 3111,
    "Ġsed": 10761,
    "Ġdesperate": 7776,
    "Ġstepdaughter": 22610,
    "combination": 25486,
    "Ġcoefficient": 2880,
    "blows": 17165,
    "Ġbearded": 15724,
    "reng": 4000,
    "Ġscratches": 22305,
    "Ġunimaginable": 15245,
    "Ġspeak": 2227,
    "Ġstump": 7603,
    "ars": 904,
    "steelkilt": 10046,
    "rowed": 22854,
    "Ġalternate": 19984,
    "Ġwallowing": 24040,
    "Ġinstituted": 18703,
    "iz": 365,
    "Ġweb": 9239,
    "consuming": 25674,
    "Ġjoppa": 12034,
    "Ġfain": 5808,
    "Ġmethods": 3160,
    "umber": 5240,
    "Ġhorseman": 19606,
    "bran": 23573,
    "Ġaccomplishment": 19664,
    "Ġseated": 4541,
    "Ġcultivation": 17145,
    "Ġslanting": 23168,
    "Ġturtles": 19218,
    "leaving": 10791,
    "Ġinsolence": 20252,
    "da": 17514,
    "meadow": 18671,
    "Ġskeletons": 16791,
    "Ġreappeared": 21662,
    "Ġrevisit": 21667,
    "sorrows": 17319,
    "allions": 22196,
    "Ġgilt": 21603,
    "pulled": 25145,
    "Ġfriday": 14489,
    "hint": 12473,
    "cottage": 9569,
    "enough": 6809,
    "Ġmapple": 11150,
    "Ġappetite": 12382,
    "Ġidol": 7467,
    "Ġbrougham": 17870,
    "Ġpatchwork": 24141,
    "alescing": 23864,
    "Ġwalking": 4325,
    "Ġimaginative": 19245,
    "Ġrelig": 8550,
    "therly": 18341,
    "Ġprovoke": 14825,
    "Ġass": 1504,
    "Ġmyself": 1453,
    "Ġordinary": 6096,
    "Ġram": 11013,
    "conven": 6162,
    "lemency": 21372,
    "crossing": 19409,
    "Ġhonourable": 10456,
    "Ġcastles": 16639,
    "Ġprop": 1681,
    "nered": 18488,
    "Ġelab": 22639,
    "Ġtierce": 15477,
    "Ġhalting": 16272,
    "Ġinnermost": 12158,
    "Ġpublicly": 13321,
    "Ġexciting": 23310,
    "distant": 13333,
    "Ġsculpt": 15951,
    "Ġpreceding": 7529,
    "Ġancles": 21444,
    "Ġnourishment": 15191,
    "Ġgait": 13329,
    "Ġsaintsbury": 26372,
    "Ġprovidence": 18745,
    "Ġguardians": 14942,
    "semic": 21818,
    "swam": 24254,
    "Ġnomin": 10190,
    "Ġtwelfth": 22675,
    "Ġambiguous": 20163,
    "Ġunlocking": 20705,
    "Ġenchantment": 24869,
    "Ġshow": 3403,
    "Ġowes": 20083,
    "sur": 4523,
    "Ġimpreg": 15985,
    "Ġobli": 9315,
    "ieved": 3230,
    "concern": 6099,
    "Ġluff": 15650,
    "arson": 22743,
    "lantern": 17427,
    "ols": 2411,
    "rec": 6003,
    "Ġenthusiastic": 19964,
    "Ġdines": 21421,
    "tps": 11534,
    "Ġfelicity": 7260,
    "headers": 23105,
    "ades": 5631,
    "posterity": 25488,
    "stump": 21650,
    "Ġlabourers": 23328,
    "Ġgrammars": 11402,
    "hall": 8084,
    "mercenary": 26315,
    "fingers": 17369,
    "Ġsufferable": 16256,
    "Ġshoving": 23487,
    "Ġentreat": 4509,
    "cad": 17504,
    "Ġremorselessly": 16967,
    "erred": 6376,
    "®": 111,
    "line": 1438,
    "Ġindividually": 22954,
    "oner": 6124,
    "Ġall": 422,
    "Ġchanges": 2286,
    "quick": 6400,
    "âĢĶ.âĢĿ": 22252,
    "Ġposition": 1957,
    "buckets": 26123,
    "Ġevangelical": 25506,
    "Ġdesponding": 25868,
    "Ġtenth": 13824,
    "aintance": 3567,
    "Ġdominion": 16510,
    "later": 20952,
    "Ġprecious": 5760,
    "Ġsord": 21218,
    "Ġweeps": 24947,
    "Ġquadruped": 17458,
    "Ġmagistrate": 8233,
    "Ġhairy": 23863,
    "Ġemm": 18002,
    "Ġunlabeled": 3797,
    "meaning": 2903,
    "Ġsphynx": 20711,
    "Ġagatha": 6866,
    "Ġdesolate": 10012,
    "ashed": 3782,
    "ksome": 10104,
    "Ġcongenial": 12409,
    "Ġlonely": 6823,
    "oud": 1945,
    "Ġhope": 1791,
    "Ġrusty": 14963,
    "nearest": 16020,
    "Ġspoken": 4836,
    "Ġshallow": 14394,
    "greek": 25404,
    "Ġhalts": 3159,
    "object": 6884,
    "wake": 11545,
    "Ġpreser": 6040,
    "Ġnursing": 12212,
    "ason": 1261,
    "Ġblanched": 26282,
    "destiny": 16702,
    "eds": 6674,
    "Ġminimax": 5857,
    "nourished": 26398,
    "Ġcovari": 2337,
    "Ġannihilated": 20251,
    "Ġcomparing": 14264,
    "Ġcomplexion": 8208,
    "Ġrange": 9711,
    "aper": 4999,
    "Ġsprain": 18305,
    "Ġovertook": 18428,
    "Ġreduces": 2342,
    "lets": 7836,
    "Ġendeavoured": 4918,
    "Ġcurse": 7668,
    "yed": 3273,
    "Ġreckless": 13457,
    "Ġuncovered": 23430,
    "language": 5129,
    "Ġlogger": 11952,
    "acter": 2504,
    "mediate": 16513,
    "sensations": 20049,
    "Ġnodded": 11968,
    "idual": 1559,
    "Ġladies": 3192,
    "Ġholland": 10365,
    "thrown": 8480,
    "confirm": 16807,
    "mod": 1071,
    "Ġere": 3684,
    "brilliancy": 26077,
    "non": 9611,
    "terms": 15748,
    "unmistakable": 21892,
    "shire": 3016,
    "Ġcontrari": 23345,
    "both": 5785,
    "van": 7814,
    "Ġstable": 2700,
    "standard": 22433,
    "irth": 5634,
    "total": 17250,
    "Ġsuspect": 5758,
    "Ġheaving": 7601,
    "Ġcarriages": 11098,
    "onah": 3337,
    "Ġrepro": 7275,
    "Ġcombinations": 22861,
    "Ġpoets": 11819,
    "Ġgradu": 15830,
    "Ġensuing": 12307,
    "Ġlashing": 11615,
    "Ġfamiliarly": 11303,
    "barb": 10080,
    "Ġcripp": 9653,
    "explanation": 12356,
    "Ġpainted": 7978,
    "Ġevenness": 22831,
    "fi": 12459,
    "infall": 21187,
    "Ġkeepers": 23538,
    "Ġhoe": 23347,
    "Ġdiligently": 11405,
    "dden": 1807,
    "Ġbelshazzar": 16223,
    "vult": 21112,
    "Ġstature": 10863,
    "Ġirresistible": 13111,
    "Ġdecks": 6900,
    "Ġxvi": 19104,
    "Ġbethinking": 25279,
    "Ġphilosophical": 26334,
    "Ġjagged": 18402,
    "Åĵ": 10744,
    "Ġscalable": 1714,
    "sterdam": 19087,
    "Ġmicroscopic": 26373,
    "Ġnapoleons": 25885,
    "Ġbelieves": 14407,
    "Ġraging": 14305,
    "Ġpregnant": 26535,
    "Ġprovince": 24189,
    "thunder": 10262,
    "Ġastonished": 7087,
    "Ġ15": 9323,
    "whaling": 7898,
    "gainst": 25141,
    "Ġtimid": 6345,
    "Ġconvers": 2902,
    "Ġdesperately": 24656,
    "Ġthroes": 24574,
    "Ġparade": 18301,
    "Ġsaloon": 24059,
    "Ġcruelty": 9968,
    "majesty": 26280,
    "Ġsquatted": 25841,
    "rect": 1595,
    "Ġfling": 9660,
    "Ġplanted": 9773,
    "Ġmien": 17808,
    "Ġdispelling": 23878,
    "Ġvort": 18193,
    "Ġshield": 21996,
    "Ġslopes": 18940,
    "Ġevaporate": 26332,
    "Ġlexic": 15721,
    "whale": 2139,
    "Ġseparating": 16685,
    "som": 3292,
    "Ġhandspikes": 12935,
    "Ġcampa": 17173,
    "Ġmarvell": 7248,
    "Ġdi": 6525,
    "ribe": 1223,
    "Ġgleam": 12306,
    "process": 11148,
    "Ġgate": 6825,
    "ureau": 10226,
    "mira": 20978,
    "Ġbeds": 14551,
    "bowl": 14890,
    "deepest": 22814,
    "waste": 21133,
    "anation": 5803,
    "Ġterrify": 19359,
    "os": 526,
    "Ġmonument": 16235,
    "Ġgrey": 4512,
    "asp": 3340,
    "castle": 3350,
    "aloud": 17940,
    "Ġtags": 20570,
    "Ġrevelation": 25222,
    "roof": 17953,
    "Ġmission": 13003,
    "Ġconditions": 8306,
    "Ġris": 4886,
    "Ġincorruption": 26309,
    "Ġdeft": 21832,
    "Ġunfathomable": 20547,
    "confused": 19643,
    "Ġcolonial": 22851,
    "objects": 13469,
    "Ġmassa": 19452,
    "Ġelect": 10842,
    "Ġjealously": 24125,
    "Ġsucc": 12783,
    "Ġregions": 10323,
    "Ġiter": 2947,
    "Ġconveniently": 20077,
    "Ġhelping": 3268,
    "Ġcon": 349,
    "Ġheav": 1853,
    "unusually": 15777,
    "Ġdom": 2601,
    "Ġlibraries": 20613,
    "Ġartistic": 18612,
    "Ġspaniard": 20361,
    "icles": 17972,
    "obed": 14445,
    "Ġ130": 24781,
    "lat": 9604,
    "Ġaccomplished": 7104,
    "ursday": 12274,
    "uded": 6287,
    "Ġrobert": 10970,
    "Ġcondescension": 10618,
    "Ġspell": 8855,
    "destroy": 19509,
    "Ġrepaid": 19080,
    "reduced": 15803,
    "Ğ": 223,
    "Ġsupport": 6727,
    "Ġincomplete": 17208,
    "Ġdromedary": 17438,
    "Ġlascar": 9199,
    "fitted": 17544,
    "aution": 9387,
    "rodu": 1820,
    "Ġvac": 5025,
    "Ġsciences": 15949,
    "ener": 562,
    "fare": 7798,
    "Ġspring": 4124,
    "Ġirrevoc": 15038,
    "icular": 2023,
    "Ġequinoctial": 20531,
    "ructive": 18544,
    "Ġdaugh": 2293,
    "itable": 5437,
    "op": 653,
    "Ġtalent": 12295,
    "Ġfarmhouse": 24984,
    "Ġhospit": 7515,
    "¶": 119,
    "raised": 15676,
    "perpendicular": 14162,
    "Ġgoverned": 23570,
    "torm": 11530,
    "thin": 14096,
    "fluke": 25204,
    "Ġresisted": 22538,
    "Ġpresumption": 10545,
    "bound": 6220,
    "unw": 14056,
    "Ġrepeating": 11213,
    "Ġprank": 23216,
    "Ġgrinned": 16857,
    "wedded": 24339,
    "uncont": 15771,
    "shud": 18493,
    "Ġaugmentation": 20114,
    "smo": 10125,
    "quar": 7616,
    "Ġcourtiers": 24137,
    "oters": 21796,
    "Ġspoutings": 14675,
    "spouting": 25000,
    "Ġfaintly": 14914,
    "annica": 24561,
    "Ġgroom": 13965,
    "Ġsteals": 23081,
    "Ġunsavory": 20706,
    "Ġsin": 1512,
    "Ġindul": 5856,
    "Ġbankrupt": 16796,
    "accomplished": 17211,
    "calmed": 16202,
    "omon": 10206,
    "Ġdeliberately": 10624,
    "Ġarom": 15491,
    "Ġineffable": 17331,
    "idled": 21765,
    "Ġfitly": 23996,
    "Ġvacuous": 24344,
    "Ġdiabolism": 25514,
    "han": 12470,
    "Ġjapan": 7640,
    "Ġpaunch": 23747,
    "narrow": 11507,
    "Ġkuiperai": 10935,
    "use": 2533,
    "stayed": 25290,
    "Ġindu": 5293,
    "norm": 20984,
    "committed": 18738,
    "âĢľâĢĶ": 10872,
    "remorse": 14466,
    "Ġessays": 19743,
    "Ġregion": 2270,
    "oms": 4593,
    "¢": 100,
    "Ġmorsel": 20676,
    "frozen": 25139,
    "Ġplainpalais": 20736,
    "ioneer": 15629,
    "feels": 22500,
    "bitter": 11240,
    "ag": 377,
    "deed": 1517,
    "Ġlive": 2736,
    "othed": 16511,
    "christian": 17232,
    "Ġjungfrau": 15247,
    "Ġsummoned": 9910,
    "agree": 14066,
    "solely": 19815,
    "Ġsnows": 14725,
    "amuse": 14051,
    "rally": 17651,
    "isco": 12578,
    "Ġblanket": 8342,
    "Ġgenial": 12192,
    "rice": 13776,
    "Ġwired": 17786,
    "Ġbeadle": 26484,
    "Ġnocturn": 18375,
    "Ġscant": 22299,
    "Ġdense": 8122,
    "Ġsuff": 1303,
    "stad": 7598,
    "Ġfaster": 3196,
    "harb": 9123,
    "Ġbashee": 19848,
    "aid": 1923,
    "Ġrenegades": 26476,
    "below": 12119,
    "_âĢĶâĢĿ": 20762,
    "page": 13771,
    "Ġprendergast": 26537,
    "Ġpossessing": 16575,
    "Ġfootmarks": 19336,
    "ister": 1295,
    "Ġpearl": 20375,
    "Ġbony": 12584,
    "ppo": 18175,
    "Ġeccentric": 13648,
    "Ġputs": 19035,
    "Ġsubsc": 22786,
    "Ġmainland": 22646,
    "Ġgums": 21608,
    "Ġgoose": 5937,
    "(-": 2976,
    "Ġlink": 8129,
    "buff": 15317,
    "Ġstoven": 23171,
    "Ġsilent": 3413,
    "pistol": 17642,
    "Ġoverboard": 6044,
    "Ġtakings": 20571,
    "Ġexterior": 19986,
    "ĠĠĠĠĠĠĠĠĠĠĠĠĠĠĠĠĠĠĠĠĠĠĠĠĠĠĠĠĠĠĠĠĠĠĠĠĠĠĠĠĠĠĠĠĠĠĠĠĠĠĠ": 20037,
    "ied": 942,
    "Ġinvariably": 8063,
    "Ġalong": 1981,
    "Ġspeed": 2447,
    "els": 1765,
    "Ġenchant": 7185,
    "ries": 3356,
    "ispens": 8335,
    "ugal": 19024,
    "Ġwerter": 15238,
    "ethe": 9676,
    "Ġplump": 14281,
    "Ġmatrimonial": 25489,
    "brated": 12025,
    "Ń": 260,
    "Ġreal": 1632,
    "ady": 998,
    "whaler": 20308,
    "Ġleave": 2457,
    "Ġshavings": 14109,
    "soles": 18688,
    "Ġopportunity": 4786,
    "honor": 19899,
    "surpr": 5996,
    "tick": 17678,
    "Ġcham": 4892,
    "Ġparlour": 12319,
    "Ġ53": 19639,
    "gate": 12464,
    "Ġrejoicing": 13420,
    "Ġplaint": 10325,
    "cure": 11474,
    "Ġcomb": 1072,
    "until": 6596,
    "mblance": 7323,
    "Ġhistor": 3392,
    "Ġelbow": 12918,
    "Ġeternities": 19941,
    "Ġhush": 13210,
    "Ġserious": 4322,
    "Ġbulkington": 14677,
    "Ġtradesmen": 17105,
    "Ġmajest": 24057,
    "Ġfurthest": 22813,
    "Ġevenings": 18753,
    "Ġ8": 5433,
    "Ġcracked": 8594,
    "Ġshrouds": 11344,
    "Ġmysteries": 11322,
    "scoured": 22985,
    "Ġbegan": 2022,
    "cheerfulness": 20179,
    "Ġunconsc": 6552,
    "Ġpockets": 8895,
    "concl": 12866,
    "laborers": 23913,
    "Ġfrantically": 23256,
    "Ġmelting": 24288,
    "Ġserpentine": 11360,
    "iguous": 18043,
    "Ġcanterbury": 22157,
    "Ġsteering": 10387,
    "uated": 10131,
    "Ġcircumspection": 25884,
    "employ": 10895,
    "Ġinland": 11607,
    "_,âĢĻ": 12431,
    "Ġflooring": 23622,
    "loun": 17588,
    "Ġt": 261,
    "ox": 9133,
    "Ġexceeded": 14432,
    "Ġsuffers": 2969,
    "Ġhavoc": 15811,
    "Ġspanish": 2824,
    "Ġlightly": 13083,
    "shine": 9288,
    "ative": 744,
    "Ġneg": 1333,
    "Ġwitty": 21291,
    "Ġprovoking": 16743,
    "Ġcyl": 15554,
    "ene": 2167,
    "Ġreminded": 9998,
    "Ġfluke": 14673,
    ",âĢĶ": 3170,
    "Ġours": 4612,
    "uff": 2732,
    "Ġlouisa": 13545,
    "Ġpoltroon": 26598,
    "gence": 875,
    "alogies": 25158,
    "Ġstiffest": 24829,
    "roc": 9674,
    "Ġedinburgh": 16435,
    "poison": 14392,
    "Ġhereford": 22874,
    "Ġclattering": 22344,
    "verdict": 21726,
    "ishes": 6523,
    "Ġshuttle": 12124,
    "Ġcaptive": 14426,
    "Ġrecomm": 4996,
    "culous": 11141,
    "Ġrationally": 18213,
    "Ġexpecting": 10436,
    "gathered": 13731,
    "Ġsnar": 13197,
    "eration": 10772,
    "atmosphere": 21263,
    "iform": 2198,
    "Ġnarrated": 14870,
    "Ġmixture": 9562,
    "Ġhurrying": 11993,
    "avings": 12021,
    "_": 67,
    "Ġtelescope": 17347,
    "Ġdared": 5440,
    "Ġhind": 9188,
    "Ġteacup": 16206,
    "proper": 7472,
    "Ġrefreshing": 20263,
    "flowing": 14570,
    "amore": 21840,
    "Ġpertaining": 18451,
    "Ġfriend": 1296,
    "pagans": 25525,
    "Ġskies": 8920,
    "Ġsedentary": 25430,
    "Ġraiment": 22648,
    "w": 91,
    "Ġgush": 10202,
    "twenty": 6607,
    "Ġassumptions": 5517,
    "Ġshrivelled": 19702,
    "Ġyounge": 16286,
    "Ġinseparable": 20687,
    "Ġfin": 1458,
    "easily": 17534,
    "Ġcountless": 16381,
    "aceti": 7111,
    "Ġdanger": 3518,
    "Ġjing": 15942,
    "Ġbarricade": 14660,
    "during": 6787,
    "Ġcott": 3708,
    "Ġpromise": 4200,
    "ro": 301,
    "grant": 10427,
    "crowd": 25254,
    "Ġhut": 15616,
    "Ġcandidate": 16701,
    "Ġbackstays": 22660,
    "Ġexertion": 8053,
    "Ġhamp": 12627,
    "Ġmile": 7151,
    "Ġtransitory": 16016,
    "request": 21240,
    "Ġbetake": 22904,
    "dles": 11480,
    "Ġdriven": 6198,
    "deck": 4500,
    "Ġblown": 12083,
    "Ġfountain": 7365,
    "Ġgrud": 17995,
    "taining": 7206,
    "inav": 15482,
    "asingly": 17960,
    "Ġdisappeared": 5645,
    "varieties": 23182,
    "Ġuncomfortable": 8485,
    "Ġbelfry": 26438,
    "Ġbrim": 12974,
    "Ġslipper": 24265,
    "boards": 23253,
    "Ġgri": 17987,
    "ppings": 18176,
    "pushed": 21022,
    "Ġwarbling": 26168,
    "ist": 448,
    "avery": 13682,
    "watery": 19825,
    "Ġhappen": 5571,
    "Ġpand": 21453,
    "Ġhers": 7888,
    "Ġactivation": 917,
    "Ġhath": 12625,
    "usation": 18396,
    "vengeance": 13355,
    "mixed": 15393,
    "without": 4846,
    "contained": 22467,
    "oqu": 7556,
    "meth": 11502,
    "Ġblasphemer": 26116,
    "Ġdissu": 18550,
    "meetings": 20376,
    "milk": 20475,
    "riv": 3110,
    "satisfy": 16892,
    "express": 4895,
    "priv": 9619,
    "Ġresulting": 24198,
    "reflections": 24735,
    "tack": 12510,
    "vative": 1626,
    "Ġunearthly": 9036,
    "Ġstar": 6022,
    "summon": 23414,
    "Ġjerk": 16950,
    "Ġtendons": 19807,
    "Ġsentry": 19028,
    "instance": 24168,
    "Ġfro": 3471,
    "Ġsending": 8774,
    "august": 11071,
    "aug": 1213,
    "Ġpredef": 18516,
    "jar": 17577,
    "Ġcho": 4547,
    "Ġdisease": 14257,
    "gins": 12466,
    "oration": 2206,
    "smallest": 23909,
    "happy": 4424,
    "pron": 9005,
    "laughing": 15178,
    "Ġconjectured": 9996,
    "field": 3071,
    "Ġproject": 5546,
    "stating": 21644,
    "anke": 15558,
    "manners": 16182,
    "Ġdeliver": 9846,
    "Ġinitialization": 1250,
    "lest": 5288,
    "Ġfruits": 17118,
    "Ġfrom": 434,
    "mouthful": 25208,
    "Ġemb": 1253,
    "Ġyards": 5371,
    "Ġages": 7027,
    "colour": 9902,
    "ctic": 8441,
    "Ġdeity": 18133,
    "Ġgour": 21595,
    "Ġhappier": 10359,
    "belt": 24032,
    "Ġpeleg": 3737,
    "Ġreceive": 4703,
    "Ġdivin": 13271,
    "Ġunctuous": 10266,
    "inkles": 7426,
    "Ġunch": 18239,
    "cheerful": 13574,
    "bearded": 18522,
    "Ġhailing": 11691,
    "Ġprizes": 13072,
    "agrad": 2747,
    "!âĢĶ": 2454,
    "Ġimitated": 18329,
    "Ġposs": 1613,
    "nez": 22444,
    "Ġtopic": 9405,
    "Ġsolely": 9909,
    "Ġwavering": 23278,
    "spent": 12940,
    "Ġtransc": 12861,
    "Ġelements": 2666,
    "Ġactivations": 2721,
    "Ġplaying": 6910,
    "reat": 617,
    "Ġcompleted": 8996,
    "Ġslacked": 25188,
    "restraint": 18980,
    "omin": 4702,
    "Ġmadly": 16484,
    "Ġwindings": 18909,
    "Ġcounteracted": 19861,
    "incom": 21180,
    "Ġsnuffing": 25012,
    "Ġsurv": 6081,
    "Ġpatient": 6893,
    "Ġpoisonous": 24887,
    "itals": 17820,
    "Ġwhales": 1830,
    "pursu": 11392,
    "Ġsits": 10768,
    "anque": 13887,
    "Ġplanet": 14749,
    "ittle": 807,
    "ount": 1113,
    "Ġlawless": 19433,
    "verbally": 25360,
    "Ġreverence": 12056,
    "Ġdie": 3959,
    "tru": 10729,
    "Ġhorsey": 24249,
    "at": 268,
    "Ġsignificance": 13279,
    "lasting": 8010,
    "Ġjesty": 18400,
    "alescence": 15922,
    "Ġdynamically": 3859,
    "showing": 22460,
    "myself": 5113,
    "Ġbam": 15563,
    "Ġdoes": 943,
    "Ġcanvassed": 19933,
    "serv": 7451,
    "Ġfowl": 11330,
    "Ġfut": 15572,
    "turbable": 24531,
    "Ġdl": 3378,
    "Ġcompromising": 22570,
    "Ġnotes": 7189,
    "Ġthrusting": 10552,
    "Ġnights": 7258,
    "Ġcables": 15555,
    "Ġacquirement": 19254,
    "Ġbubb": 12581,
    "Ġconfined": 7465,
    "Ġleaf": 15720,
    "bunger": 20400,
    "barrel": 17061,
    "Ġeffort": 8202,
    "dashed": 12453,
    "Ġsighing": 18675,
    "sided": 17664,
    "Ġempires": 19073,
    "Ġfrederick": 15584,
    "amidst": 25652,
    "happiest": 19331,
    "go": 2063,
    "Ġcarries": 7674,
    "Ġadvertising": 25389,
    "imens": 1748,
    "Ġwhoa": 22417,
    "likewise": 13103,
    "Ġsomnambul": 26576,
    "quarried": 24945,
    "opinion": 10984,
    "Ġtruly": 4796,
    "left": 6975,
    "ains": 5094,
    "ridden": 24362,
    "mile": 17597,
    "Ġborne": 6351,
    "illum": 15867,
    "Ġboys": 5194,
    "Ġassailed": 23173,
    "Ġmultiplicity": 19274,
    "colonel": 8284,
    "Ġinc": 702,
    "Ġextracts": 9362,
    "Ġlabels": 3288,
    "every": 2808,
    "Ġcompasses": 11267,
    "Ġaud": 6661,
    "Ġsnapping": 19299,
    "Ġjackal": 24239,
    "Ġroad": 3879,
    "Ġweap": 6155,
    "beaten": 20314,
    "kward": 6958,
    "Ġmaintained": 12931,
    "fort": 1750,
    "Ġdescending": 8902,
    "nurse": 15207,
    "umphed": 23516,
    "Ġdives": 17890,
    "agon": 7870,
    "Ġcompare": 9301,
    "Ġowner": 8921,
    "Ġaz": 9629,
    "alcul": 15625,
    "Ġafterwards": 3529,
    "Ġbehave": 23298,
    "enstein": 5799,
    "Ġoaken": 13864,
    "fifth": 20145,
    "Ġintolerably": 15827,
    "Ġdistributions": 1050,
    "Ġlurks": 11290,
    "Ġlombardy": 26463,
    "Ġsparsity": 4209,
    "Ġdismasted": 15250,
    "Ġraven": 16113,
    "characteristic": 24685,
    "considerable": 10548,
    "Ġcomp": 724,
    "ond": 1159,
    "Ġemployments": 12100,
    "oa": 9612,
    "fl": 3599,
    "owder": 8448,
    "Ġrefine": 3018,
    "beholding": 16039,
    "rew": 3648,
    "Ġnuts": 17951,
    "Ġblasted": 7937,
    "osity": 14185,
    "Ġhabit": 6771,
    "Ġkink": 22191,
    "Ġczar": 12571,
    "Ġfootsteps": 16572,
    "young": 7321,
    "Ġfogs": 25282,
    "Ġensl": 19273,
    "voyages": 24855,
    "Ġguernsey": 9350,
    "Ġetc": 7084,
    ",_": 11462,
    "pip": 6654,
    "Ġu": 324,
    "Ġnon": 1623,
    "tomahawk": 25915,
    "ons": 709,
    "Ġgovernesses": 25127,
    "Ġcyp": 21343,
    "Ġprodigiously": 14931,
    "Ġgloves": 8574,
    "copyright": 5277,
    "warrior": 24798,
    "outer": 9668,
    "Ġshake": 6033,
    "Ġdetermining": 14420,
    "quickness": 19850,
    "Ġcring": 15549,
    "ap": 546,
    "Ġclicked": 22345,
    "Ġproves": 14037,
    "Ġdais": 24372,
    "Ġnoteworthy": 24162,
    "Ġexaggerated": 25650,
    "Ġdialogue": 12402,
    "Ġproceeds": 12075,
    "Ġship": 1093,
    "Ġgovernor": 16490,
    "seriously": 18904,
    "ract": 1015,
    "Ġsort": 1507,
    "peleg": 16292,
    "Ġpugn": 21478,
    "Ġindestruct": 22955,
    "Ġwoodlands": 23520,
    "Ġpers": 1404,
    "early": 20117,
    "Ġoverpowered": 15287,
    "Ġmonsie": 11447,
    "sal": 8757,
    "knowing": 10437,
    "aging": 2235,
    "ners": 3272,
    "minds": 24232,
    "Ġaveraging": 2417,
    "ssible": 2988,
    "Ġconsoled": 18115,
    "idered": 4553,
    "isions": 6130,
    "Ġpapers": 4021,
    "Ġobligations": 12089,
    "obedience": 17409,
    "Ġheavier": 13100,
    "teenth": 11872,
    "Ġcollectively": 19966,
    "ess": 411,
    "nnight": 20992,
    "Ġfascinating": 17327,
    "Ġprosper": 10228,
    "Ġbene": 2033,
    "ascar": 8434,
    "might": 4081,
    "Ġpistols": 17328,
    "Ġdur": 11591,
    "Ġsuburban": 17345,
    "Ġinherited": 25353,
    "Ġpol": 2575,
    "Ġniece": 5712,
    "moor": 22701,
    "Ġcapacity": 10440,
    "gage": 13723,
    "Ġleading": 7297,
    "Ġchowder": 10280,
    "Ġimmense": 4952,
    "Ġtip": 15470,
    "Ġteeth": 4169,
    "Ġabsorbing": 17128,
    "pitch": 13297,
    "obtained": 23092,
    "unning": 4493,
    "suit": 18628,
    "account": 5329,
    "Ġseize": 8165,
    "Ġpredicting": 2414,
    "Ġdoxology": 22241,
    "gir": 8082,
    "Ġinterview": 9769,
    "Ġdissol": 18551,
    "attle": 4466,
    "Ġuns": 15834,
    "âĢĿ": 354,
    "Ġklan": 23662,
    "Ġbraved": 23835,
    "Ġsubjected": 23571,
    "clock": 3930,
    "Ġinflict": 15001,
    "Ġpossible": 2583,
    "miserable": 8656,
    "Ġingratitude": 17468,
    "Ġsucceed": 4545,
    "Ġuninhabited": 22048,
    "Ġgem": 21591,
    "Ġtu": 6968,
    "inferiors": 25346,
    "Ġprotesting": 14740,
    "Ġencountering": 11269,
    "Ġterms": 2560,
    "Ġappend": 18360,
    "Ġbristles": 25843,
    "spring": 7231,
    "Ġcommunications": 16353,
    "vere": 4883,
    "Ġperemptorily": 17366,
    "Ġdug": 21428,
    "Ġheaviest": 23322,
    "Ġsubmerged": 11870,
    "Ġlawyer": 10668,
    "Ġpunish": 12157,
    "Ġrestricted": 19030,
    "Ġsources": 10147,
    "Ġinquirer": 24961,
    "bears": 22487,
    "msman": 9269,
    "30": 20753,
    "Ġenriched": 26499,
    "Ġdivision": 19442,
    "Ġtaurus": 21177,
    "resembled": 21245,
    "avoid": 9304,
    "Ġskirt": 18730,
    "lightened": 12063,
    "Ġcontempt": 6275,
    "Ġgreece": 17070,
    "Ġdried": 7367,
    "Ġdismal": 11808,
    "Ġphysiognomy": 25610,
    "87": 20756,
    "Ġsounded": 8590,
    "Ġforegoing": 23448,
    "Ġunwearied": 20601,
    "Ġmerest": 14029,
    "Ġpurplish": 19140,
    "fields": 14653,
    "Ġadvancing": 6879,
    "Ġ180": 16606,
    "ignant": 11129,
    "Ġ58": 24326,
    "Ġfascinated": 25635,
    "rod": 10831,
    "Ġbeen": 626,
    "Ġswing": 13033,
    "whisper": 17083,
    "Ġcust": 11581,
    "aneously": 4061,
    "Ġcrackling": 24958,
    "Ġbiography": 22761,
    "Ġdevout": 14325,
    "urred": 8449,
    "Ġkitchen": 8495,
    "Ġstrategies": 1841,
    "pow": 10717,
    "Ġascendency": 20231,
    "dismal": 23495,
    "Ġusurpation": 18356,
    "agation": 1265,
    "izar": 14049,
    "ĠâĢĶ_": 3459,
    "Ġfireboard": 23532,
    "Ġproblems": 2845,
    "Ġreplete": 15695,
    "underneath": 23787,
    "gained": 20880,
    "iply": 22361,
    "insulting": 26055,
    "agos": 21901,
    "Ġpoultry": 17440,
    "ceed": 1076,
    "judges": 19572,
    "cries": 17510,
    "remained": 8569,
    "Ġprying": 15606,
    "indirectly": 18437,
    "des": 1566,
    "Ġjanuary": 13652,
    "Ġscrewed": 15119,
    "<MASK>": 4,
    "rain": 462,
    "Ġvestibule": 13536,
    "stay": 9680,
    "Ġelimin": 16106,
    "ivers": 1985,
    "Ġboomer": 20166,
    "Ġshop": 9251,
    "apologizing": 26544,
    "ippers": 17576,
    "Ġrent": 11638,
    "otograph": 5826,
    "Ġferrule": 24500,
    "Ġacknowled": 6350,
    "Ġwhale": 627,
    "Ġfl": 1280,
    "constantly": 24606,
    "Ġdeadly": 5405,
    "Ġdevotedly": 24750,
    "Ġreplen": 11114,
    "Ġpresume": 8037,
    "Ġintentions": 10607,
    "Ġdes": 1248,
    "quer": 11678,
    "Ġdock": 15928,
    "ga": 17550,
    "Ġinsular": 19267,
    "burn": 8370,
    "Ġstudents": 23238,
    "Ġnapole": 15114,
    "Ġwiping": 25765,
    "Ġexpressly": 16453,
    "abhor": 12704,
    "avail": 18604,
    "brit": 19196,
    "Ġslice": 23156,
    "gies": 13725,
    "uncomfortable": 18160,
    "Ġimpunity": 14218,
    "Ġtapping": 10752,
    "Ġjoist": 19229,
    "Ġgentleness": 8709,
    "est": 501,
    "adier": 18089,
    "inion": 2871,
    "Ġeldest": 6571,
    "Ġty": 6657,
    "separated": 20158,
    "detached": 19673,
    "ceptive": 15974,
    "Ġloosened": 26002,
    "Ġtomahawk": 7540,
    "Ġgraves": 11706,
    "Ġ**": 4720,
    "Ġelderly": 13494,
    "Ġsneering": 24697,
    "lue": 8508,
    "walked": 10570,
    "canallers": 22961,
    "Ġgriff": 22803,
    "described": 18893,
    "Ġprocopius": 19730,
    "udg": 22770,
    "Ġpetulance": 24227,
    "Ġpolite": 9881,
    "Ġunquestion": 18248,
    "Ġsequences": 1752,
    "Ġgorge": 13565,
    "Ġkeel": 6444,
    "Ġdepths": 4327,
    "Ġrep": 1940,
    "Ġshorter": 4498,
    "Ġthirdly": 24143,
    "Ġem": 1925,
    "Ġlagged": 21555,
    "ase": 1157,
    "stonecraft": 24356,
    "interrupt": 8615,
    "Ġcircumst": 2971,
    "Ġpia": 21462,
    "Ġpiny": 21468,
    "Ġforbade": 15213,
    "Ġreplying": 19580,
    "acting": 22628,
    "Ġhitherto": 5879,
    "Ġgratifying": 13304,
    "Ġardently": 9497,
    "Ġtrad": 9827,
    "Ġryder": 10258,
    "Ġmadam": 5663,
    "Ġbrute": 8926,
    "stubb": 6017,
    "Ġankers": 21443,
    "ix": 1802,
    "Ġreveal": 11199,
    "misrepresented": 24211,
    "Ġcave": 10785,
    "Ġaqu": 17742,
    "Ġassuring": 13061,
    "hurst": 19878,
    "Ġprovides": 1930,
    "owers": 12681,
    "Ġmund": 21316,
    "cell": 10685,
    "Ġcosmopol": 16454,
    "sterns": 23364,
    "Ġbottom": 3673,
    "Ġdisturb": 7107,
    "Ġmottled": 20677,
    "Ġnib": 13939,
    "ilib": 4121,
    "Ġpallid": 12297,
    "promontory": 24728,
    "ographical": 16786,
    "Ġauthors": 10416,
    "Ġsherry": 19449,
    "Ġmortal": 4681,
    "Ġaw": 2508,
    "sky": 12508,
    "Ġaccountability": 10438,
    "provoke": 26071,
    "owner": 18611,
    "chase": 11644,
    "saturday": 14857,
    "Ġgobern": 22420,
    "Ġerecting": 24652,
    "Ġhaggerston": 26452,
    "avating": 18605,
    "Ġwould": 650,
    "Ġexpectation": 6904,
    "adieu": 26200,
    "Ġobsc": 7039,
    "lanter": 15386,
    "poss": 4778,
    "Ġheadland": 22895,
    "Ġmultitudinous": 26273,
    "igms": 3042,
    "Ġgle": 7858,
    "pocket": 9808,
    "grat": 5052,
    "contrary": 23727,
    "Ġtiller": 8965,
    "Ġsouthampton": 24307,
    "enary": 12548,
    "Ġlocked": 6034,
    "ure": 356,
    "Ġoccur": 1084,
    "Ġnetherfield": 3928,
    "Ġencoun": 4511,
    "Ġdarting": 7756,
    "Ġyankees": 26201,
    "adjust": 21757,
    "Ġprofane": 13151,
    "Ġproportions": 16467,
    "elastic": 17980,
    "Ġrotterdam": 25475,
    "ĠĠĠĠĠĠĠĠĠĠĠĠĠĠĠĠĠĠĠĠĠĠĠĠ": 5321,
    "Ġidea": 2485,
    "Ġanimate": 23421,
    "Ġhav": 12751,
    "Ġwithdrawn": 10606,
    "drawing": 10486,
    "mindful": 19598,
    "Ġascend": 9959,
    "splinter": 25210,
    "andering": 21864,
    "Ġmagnificent": 9841,
    "Ġmushroom": 13234,
    "imodal": 17446,
    "anxious": 15108,
    "Ġdenny": 9001,
    "Ġintentionally": 24523,
    "comfortableness": 24525,
    "Ġmizzen": 20288,
    "Ġprison": 5403,
    "tin": 6116,
    "last": 3800,
    "Ġdivergence": 2729,
    "Ġaspects": 4176,
    "Ġwhereby": 11835,
    "Ġcannibals": 10587,
    "z": 94,
    "Ġestim": 3349,
    "Ġinterchange": 16069,
    "Ġunivers": 2125,
    "Ġgloomily": 14800,
    "Ġinvested": 7279,
    "exceeded": 24999,
    "Ġpained": 19166,
    "Ġnumber": 1983,
    "Ġdeep": 790,
    "shold": 2772,
    "Ġwreath": 25936,
    "yth": 983,
    "Ġwides": 17788,
    "Ġmonica": 22975,
    "Ġport": 3310,
    "Ġnobly": 22238,
    "ape": 1907,
    "Ġdanes": 25156,
    "Ġwhistle": 9065,
    "Ġseparation": 11247,
    "kine": 15374,
    "seals": 21815,
    "Ġneighb": 14073,
    "ishly": 14203,
    "ulity": 10886,
    "weary": 22683,
    "Ġdisco": 3430,
    "Ġtight": 8107,
    "gallant": 7780,
    "Ġmira": 8406,
    "Ġprize": 11946,
    "Ġcomposing": 16065,
    "Ġpruning": 18969,
    "Ġfob": 21407,
    "xic": 9145,
    "Ġpositive": 2297,
    "howling": 18991,
    "anim": 6522,
    "Ġlazily": 11380,
    "cal": 1121,
    "Ġtag": 15467,
    "isite": 15560,
    "Ġindicates": 3193,
    "Ġstepping": 9353,
    "draw": 23896,
    "Ġspecial": 2103,
    "Ġprosecut": 9697,
    "Ġlengths": 19204,
    "Ġdelicacy": 6340,
    "Ġflaw": 23009,
    "Ġvoyager": 16512,
    "Ġneedlessly": 23631,
    "Ġreliability": 22876,
    "Ġvary": 15805,
    "aged": 2605,
    "Ġowest": 25091,
    "hauteur": 26391,
    "Ġprivacy": 19523,
    "extracts": 22767,
    "Ġbleeds": 24397,
    "elihood": 4622,
    "Ġlic": 8435,
    "oted": 4597,
    "Ġodd": 6624,
    "Ġincredulity": 11311,
    "Ġneighbours": 8302,
    "monkey": 19169,
    "lands": 8240,
    "\\": 64,
    "Ġexercised": 24803,
    "officer": 17054,
    "brew": 11473,
    "ern": 763,
    "comes": 5394,
    "Ġ156": 20169,
    "raid": 3280,
    "Ġmiscell": 16148,
    "remes": 21236,
    "Ġponies": 21474,
    "fen": 20849,
    "Ġwherever": 8523,
    "sof": 17657,
    "Ġstorm": 4302,
    "Ġmonths": 3456,
    "northern": 23667,
    "paus": 13772,
    "Ġsingled": 23770,
    "Ġoppressive": 20454,
    "ph": 910,
    "twelve": 14621,
    "Ġrelationships": 2920,
    "Ġdeduced": 12205,
    "Ġbasement": 24702,
    "Ġwednesday": 9024,
    "Ġinhuman": 13928,
    "Ġbelief": 5855,
    "Ġtrifled": 24674,
    "bale": 20773,
    "strange": 6086,
    "waves": 10742,
    "natured": 7110,
    "owders": 18047,
    "Ġgrenadier": 21613,
    "reading": 12077,
    "Ġconsequence": 5542,
    "Ġswash": 23052,
    "utherland": 9578,
    "Ġmonstrous": 7789,
    "Ġjudges": 14685,
    "un": 373,
    "cent": 8072,
    "Ġdischarged": 15219,
    "Ġfrench": 4939,
    "mical": 9128,
    "Ġthrill": 24541,
    "Ġvult": 12749,
    "Ġsubmitted": 11869,
    "Ġapproximates": 2416,
    "Ġlivers": 18461,
    "Ġadmirer": 16838,
    "Ġabhorred": 9507,
    "ica": 10198,
    "Ġlashes": 17966,
    "Ġskilful": 25837,
    "gravel": 22617,
    "Ġoriginal": 6102,
    "Ġjurors": 17343,
    "Ġ109": 24416,
    "leep": 4634,
    "ribbed": 16411,
    "Ġvalued": 12180,
    "Ġherd": 7887,
    "Ġdevelop": 1603,
    "affording": 23776,
    "Ġmisgivings": 15290,
    "Ġattempts": 10490,
    "eli": 3872,
    "shortened": 24748,
    "?âĢĿ": 700,
    "Ġmeasure": 3592,
    "introdu": 8937,
    "Ġfacing": 10171,
    "Ġbecame": 2692,
    "Ġadequately": 15197,
    "Ġge": 1980,
    "Ġdecoyed": 18486,
    "Ġviii": 16412,
    "Ġshrieking": 24758,
    "Ġwant": 1120,
    "Ġepicures": 25880,
    "valu": 1699,
    "mosp": 8088,
    "ame": 644,
    "Ġreb": 15688,
    "join": 12111,
    "Ġglens": 18847,
    "Ġpest": 13912,
    "Ġswart": 14433,
    "ickory": 22666,
    "Ġjudging": 16595,
    "Ġcloser": 8659,
    "Ġrecurrent": 1806,
    "Ġanalog": 12609,
    "proportions": 22844,
    "inex": 14095,
    "gradu": 18616,
    "Ġlosing": 10916,
    "remind": 23183,
    "Ġmilitia": 13316,
    "Ġtoo": 1164,
    "Ġbored": 16104,
    "Ġhebrew": 13987,
    "omically": 13975,
    "Ġchoice": 2164,
    "uel": 6966,
    "Ġhoney": 12629,
    "Ġtrespass": 23599,
    "Ġforgetfulness": 14606,
    "Ġcalled": 1974,
    "Ġscound": 12834,
    "Ġdel": 1611,
    "Ġhoary": 23350,
    "Ġmagnet": 10389,
    "Ġschemes": 11131,
    "Ġdescribing": 19253,
    "Ġlulled": 17968,
    "Ġexpansion": 22622,
    "brain": 13686,
    "Ġtigers": 25758,
    "Ġrecurring": 23229,
    "Ġsnoring": 23738,
    "Ġconvert": 11841,
    "athans": 7434,
    "Ġdoubling": 23317,
    "teeth": 10354,
    "Ġmaritime": 23035,
    "ugl": 23288,
    "Ġmusic": 5268,
    "fashion": 8080,
    "Ġmentioning": 9898,
    "Ġmaternal": 11059,
    "consist": 14815,
    "Ġmothers": 14540,
    "Ġpine": 8796,
    "Ġxxxiv": 24967,
    "aping": 8193,
    "inence": 15480,
    "suffer": 24333,
    "Ġsand": 6235,
    "heeded": 13833,
    "Ġblasphe": 17406,
    "Ġspace": 1564,
    "isis": 12576,
    "Ġreside": 22536,
    "Ġberkshire": 16884,
    "Ġdexterous": 15147,
    "stained": 21652,
    "Ġgraph": 10902,
    "itory": 12564,
    "waist": 13417,
    "inisc": 15487,
    "Ġstair": 8455,
    "Ġflanks": 11913,
    "ally": 529,
    "Ġapprovingly": 26252,
    "pherd": 13643,
    "ented": 4349,
    "Ġawkwardness": 13486,
    "Ġinvis": 6902,
    "Ġtin": 15462,
    "Ġbob": 22635,
    "whatsoever": 18487,
    "Ġtempor": 2366,
    "Ġspong": 15879,
    "gi": 17551,
    "Ġimpat": 4456,
    "-": 17,
    "Ġcomprising": 16066,
    "Ġmarred": 23029,
    "repaid": 24491,
    "aries": 6244,
    "typewritten": 26038,
    "Ġfossils": 20221,
    "yet": 3752,
    "fold": 7547,
    "Ġdeck": 2137,
    "Ġcarried": 3693,
    "Ġplight": 14280,
    "Ġwarmer": 19184,
    "Ġmasts": 6465,
    "Ġgathering": 14977,
    "Ġclo": 6042,
    "weed": 14314,
    "Ġke": 1153,
    "Ġinscribed": 24938,
    "Ġvaliantly": 22798,
    "Ġshameful": 19851,
    "Ġview": 2761,
    "Ġassiduous": 26292,
    "Ġsafer": 22167,
    "upper": 11538,
    "Ġdropped": 4471,
    "adding": 21756,
    "Ġduplicates": 17216,
    "Ġmel": 4816,
    "inate": 6233,
    "Ġenergy": 2549,
    "Ġquestioning": 10464,
    "J": 46,
    "rubbery": 17341,
    "ees": 13710,
    "Ġfestival": 25445,
    "itled": 7578,
    "Ġmaria": 7124,
    "jol": 20924,
    "Ġpick": 4257,
    "Ġdante": 21436,
    "Ġburton": 23655,
    "Ġchurchyard": 16777,
    "Ġcart": 11582,
    "Ġbarren": 11206,
    "Ġwithstand": 10224,
    "Ġparcel": 15198,
    "Ġgips": 10841,
    "Ġwide": 4112,
    "Ġgardens": 16452,
    "Ġ2026": 12333,
    "Ġinward": 11606,
    "Ġsagacity": 16974,
    "Ġspices": 22127,
    "ties": 2758,
    "ne": 645,
    "ched": 1546,
    "Ġdescribe": 2765,
    "solic": 16378,
    "serpent": 16290,
    "Ġxavier": 2851,
    "Ġkissed": 10044,
    "Ġwrinkles": 8570,
    "Ġeffeminacy": 20717,
    "Ġstam": 18065,
    "Ġthread": 14539,
    "Ġfore": 2152,
    "Ġmurdering": 14810,
    "Ġexceptionable": 25503,
    "Ġgazes": 24093,
    "Ġcollect": 7237,
    "Ġonce": 1490,
    "Ġenthus": 7232,
    "Ġsullenly": 17172,
    "Ġanimal": 2496,
    "Ġflying": 5413,
    "deal": 12796,
    "Ġscrew": 8868,
    "Ġprofusion": 23567,
    "friends": 8305,
    "Ġuncommon": 5026,
    "twist": 23700,
    "Ġassistance": 6333,
    "etite": 21576,
    "inguished": 6598,
    "Ġreflect": 6574,
    "ahab": 4291,
    "Ġcrocodile": 20739,
    "Ġdears": 18135,
    "helping": 23136,
    "Ġfol": 1288,
    "Ġowning": 18744,
    "Ġdanish": 21429,
    "Ġcopse": 17068,
    "cob": 10086,
    "Ġcoach": 6867,
    "Ġath": 15799,
    "Ġcage": 17825,
    "Ġorganically": 3007,
    "Ġ/*": 10139,
    "Ġseemed": 1278,
    "Ġinadequate": 17936,
    "vicious": 21117,
    "ouched": 4636,
    "Ġapp": 499,
    "jer": 12478,
    "lifeless": 24312,
    "iciency": 9574,
    "nor": 2742,
    "felix": 10653,
    "thinks": 16641,
    "waters": 11333,
    "omach": 11633,
    "eld": 964,
    "crawling": 16958,
    "gans": 11489,
    "Ġeternity": 12276,
    "Ġarts": 11008,
    "penn": 18827,
    "Ġblowing": 10484,
    "Ġlangsdorff": 15275,
    "avern": 24792,
    "bpp": 20771,
    "Ġfalse": 4344,
    "dream": 8727,
    "deceit": 25556,
    "Ġand": 295,
    "err": 1141,
    "awn": 3832,
    "Ġce": 3027,
    "bat": 8071,
    "practised": 20246,
    "Ġdecency": 18483,
    "Ġsurvivors": 25732,
    "Ġfainting": 16897,
    "Ġformal": 2937,
    "seem": 10227,
    "roofed": 26183,
    "Ġpassion": 4557,
    "Ġ123": 24468,
    "Ġderived": 8238,
    "Ġunhinged": 26216,
    "Ġfemales": 14936,
    "Ġantip": 24177,
    "inioned": 19285,
    "softened": 20408,
    "Ġsword": 6732,
    "Ġmince": 22828,
    "Ġpartners": 11854,
    "Ġstrive": 23692,
    "Ġbristol": 14379,
    "Ġmasses": 10503,
    "text": 1975,
    "Ġtug": 11550,
    "mangled": 20980,
    "Ġoutlast": 22310,
    "Ġflint": 23008,
    "phant": 6286,
    "Ġprevention": 16091,
    "Ġpile": 8423,
    "Ġexperiment": 11917,
    "Ġseldom": 4629,
    "attracted": 13048,
    "Ġatrocious": 21942,
    "Ġcroquet": 9961,
    "perceive": 12809,
    "Ġgroans": 14823,
    "Ġtwentieth": 18659,
    "Ġcirc": 1987,
    "Ġpeeped": 10011,
    "ider": 21762,
    "Ġunduly": 25994,
    "Ġappropri": 2225,
    "Ġuncouth": 14549,
    "Ġsqueezing": 25006,
    "Ġremind": 6057,
    "artificial": 938,
    "Ġsultanism": 25888,
    "Ġextremely": 2668,
    "linen": 25257,
    "religion": 20574,
    "foreseen": 14253,
    "oof": 15404,
    "Ġra": 813,
    "problems": 11434,
    "Ġdrawled": 23986,
    "Ġeddy": 13122,
    "a": 69,
    "Ġtens": 17723,
    "Ġledger": 19400,
    "ollion": 19714,
    "bird": 9585,
    "Ġexclaimed": 4682,
    "Ġcandid": 4103,
    "osa": 22257,
    "Ġrecip": 16146,
    "Ġbeheaded": 11655,
    "Ġwhaleboats": 18478,
    "Ġwouldn": 6045,
    "Ġtechni": 1663,
    "sisters": 13375,
    "ision": 1856,
    "ergy": 2361,
    "Ġkindness": 4101,
    "Ġparasol": 22118,
    "Ġaerial": 21197,
    "Ġcruising": 6913,
    "Ġconfid": 7687,
    "Ġdragg": 23214,
    "Ġassume": 10515,
    "Ġpassions": 7929,
    "Ġpostponed": 20388,
    "Ġpassers": 18756,
    "offices": 19061,
    "Ġcubic": 20086,
    "Ġethiopian": 26613,
    "Ġaccomplishments": 13378,
    "delights": 19700,
    "Ġul": 6828,
    "bounded": 13438,
    "Ġice": 3603,
    "luent": 15996,
    "hunting": 24385,
    "ispiece": 19724,
    "Ġstrained": 10218,
    "ladder": 19783,
    "Ġevaluation": 16555,
    "Ġfairest": 20461,
    "oubted": 5859,
    "orrowed": 19288,
    "izings": 14050,
    "Ġgrego": 18961,
    "Ġtortoise": 16908,
    "impud": 23758,
    "Ġsweep": 8265,
    "Ġmagnitude": 1947,
    "Ġconversations": 9424,
    "behind": 6779,
    "successfully": 14990,
    "comput": 1936,
    "Ġlodger": 24091,
    "Ġstings": 21731,
    "Ġunav": 18240,
    "cun": 20794,
    "button": 10966,
    "Ġsod": 11561,
    "eter": 11620,
    "Ġenumerating": 15243,
    "oda": 15746,
    "pent": 3492,
    "Ġswims": 12117,
    "hab": 1078,
    "Ġsagittarius": 24732,
    "Ġlatitudes": 9495,
    "mightily": 24104,
    "Ġrepulses": 26070,
    "Ġmanhandle": 22326,
    "Ġj": 532,
    "gorith": 553,
    "Ġconcocted": 26299,
    "Ġmore": 677,
    "Ġbenevolence": 9526,
    "Ġworks": 5858,
    "R": 54,
    "Ġsneezes": 24698,
    "Ġloadstone": 25816,
    "Ġglacier": 11433,
    "Ġbundles": 26175,
    "Ġcolonel": 3408,
    "Ġrattling": 11395,
    "Ġvesu": 21946,
    "Ġ68": 24370,
    "ju": 13740,
    "Ġclasped": 17206,
    "r": 86,
    "Ġinvade": 19142,
    "Ġobserv": 8586,
    "Ġinert": 15619,
    "Ġroyals": 19531,
    "H": 44,
    "Ġis": 347,
    "Ġcreditor": 24290,
    "Ġinsight": 16530,
    "Ġfinancial": 23125,
    "amb": 5723,
    "Ġtransparency": 10676,
    "Ġstiggs": 25792,
    "Ġhaze": 18196,
    "Ġilluminating": 25245,
    "ator": 1924,
    "ado": 11657,
    "Ġchim": 5932,
    "lowering": 16029,
    "iqu": 7802,
    "Ġbun": 6006,
    "Ġblinding": 14727,
    "Ġwarn": 5695,
    "Ġintention": 5638,
    "Ġextraordinary": 5414,
    "ivery": 17572,
    "Ġcasually": 25093,
    "Ġbuilding": 8062,
    "throwing": 11701,
    "Ġsermons": 20193,
    "rance": 5993,
    "ease": 12455,
    "Ġentreaty": 10529,
    "sofa": 26146,
    "Ġgodfrey": 15292,
    "track": 24314,
    "nx": 17607,
    "nder": 20986,
    "Ġsimil": 2528,
    "oft": 3589,
    "Ġmorass": 22966,
    "Ġrecumbent": 22753,
    "Ġoct": 10158,
    "Ġdisobedience": 22532,
    "Ġportions": 19367,
    "Ġrelief": 6059,
    "ribed": 7693,
    "warning": 25531,
    "either": 6791,
    "Ġxlix": 25860,
    "hullo": 17570,
    "Ġbelted": 22945,
    "goodbye": 12053,
    "unched": 10235,
    "Ġholiday": 12995,
    "resemblance": 25933,
    "Ġabuse": 18392,
    "Ġassist": 3562,
    "Ġannouncement": 14832,
    "Ġinattention": 17931,
    "Ġsuns": 23271,
    "Ġconcoct": 19045,
    "protected": 19920,
    "Ġvertu": 23888,
    "Ġguiding": 19239,
    "È": 137,
    "ifully": 13183,
    "farintosh": 24553,
    "Ġcompanions": 5865,
    "hairs": 20903,
    "refuge": 24734,
    "bbs": 23691,
    "Ġreced": 15689,
    "endering": 21283,
    "âĢĿ)": 21811,
    "Ġmere": 2715,
    "oldened": 22638,
    "bones": 8371,
    "Ġscuffle": 20608,
    "etrics": 21582,
    "joke": 20929,
    "estic": 4956,
    "Ġdictionary": 15111,
    "umpled": 15874,
    "Ġsavagely": 26323,
    "harbor": 13563,
    "ductive": 23933,
    "alter": 10826,
    "eze": 20846,
    "Ġdeliber": 7268,
    "Ġeul": 21615,
    "Ġhunt": 6183,
    "active": 16101,
    "Ġmatches": 14395,
    "Ġunsounded": 15847,
    "Ġresemble": 15690,
    "Ġbackground": 18649,
    "an": 278,
    "Ġcubs": 20085,
    "Ġconscience": 6929,
    "ers": 406,
    "Ġglided": 7446,
    "Ġbast": 21377,
    "Ġhuzza": 12630,
    "Ġclimbing": 20068,
    "meditated": 19067,
    "Ġmostly": 7664,
    "Ġinvitation": 5189,
    "Ġjune": 10287,
    "brÃ¦": 11175,
    "married": 9948,
    "Ġevol": 2812,
    "Ġembodiment": 20526,
    "Ġsketch": 16164,
    "Ġunwarranted": 25171,
    "Ġaccompanied": 6780,
    "Ġmouldings": 24737,
    "Ġsmoky": 22555,
    "Ġforeshad": 23451,
    "saved": 15430,
    "Ġpatroness": 13509,
    "Ġstarting": 7728,
    "Ġhat": 2771,
    "client": 18931,
    "Ġoverwhel": 8196,
    "Ġgrain": 15829,
    "Ġrephrased": 26477,
    "Ġfitness": 23997,
    "Ġportents": 14679,
    "Ġchrist": 4074,
    "Ġdelivered": 11115,
    "Ġdav": 15587,
    "Ġclutching": 24951,
    "Ġawake": 8271,
    "Ġweedy": 15789,
    "atlantic": 15522,
    "Ġregression": 4409,
    "Ġdeliverer": 11948,
    "Ġinvestigations": 17246,
    "Ġinitial": 819,
    "Ġcal": 1326,
    "hammer": 14490,
    "Ġarrange": 3122,
    "Ġactually": 5389,
    "Ġ106": 24414,
    "furthermore": 20002,
    "aneous": 7240,
    "Ġresounded": 22541,
    "))": 1514,
    "Ġsugg": 4499,
    "Ġcommunicated": 9061,
    "Ġkings": 7198,
    "ems": 5235,
    "Ġblinded": 13268,
    "anned": 17839,
    "Ġpainful": 6462,
    "Ġdependence": 18627,
    "ē": 212,
    "Ġselfishness": 12287,
    "Ġancient": 5443,
    "Ġval": 969,
    "Ġhatch": 7847,
    "Ġsparing": 22126,
    "Ġsympathising": 24297,
    "pat": 10116,
    "Ġforster": 5230,
    "Ġcherub": 23286,
    "Ġepoch": 26471,
    "Ġsymmetrical": 20365,
    "Ġensures": 3055,
    "Ġimpenet": 14221,
    "singular": 12186,
    "Ġbridle": 24681,
    "Ġmix": 7577,
    "Ġafar": 14291,
    "makes": 10711,
    "opÃ¦": 12869,
    "Ġextremest": 19193,
    "und": 4090,
    "carbuncle": 26382,
    "succeed": 10328,
    "driver": 14920,
    "Ġpostscript": 14807,
    "ubbub": 23241,
    "convul": 24883,
    "Ġdecent": 10978,
    "wal": 10133,
    "Ġunlocked": 14119,
    "Ġdomineering": 23630,
    "Ġmistake": 6203,
    "Ġoscill": 2853,
    "rumours": 23897,
    "Ġchanged": 5242,
    "orn": 2240,
    "cils": 20813,
    "Ġsly": 9632,
    "Ġphil": 3387,
    "Ġclever": 7054,
    "Ġreven": 18028,
    "Ġdistributing": 22676,
    "Ġflu": 3278,
    "iod": 3837,
    "forming": 15916,
    "iag": 20915,
    "post": 6061,
    "gings": 7550,
    "bulwarks": 12270,
    "Ġprovoked": 13324,
    "Ġscot": 5643,
    "odox": 21810,
    "ref": 6515,
    "Ġplainly": 4381,
    "Ġclatter": 22337,
    "Ġmermaids": 26170,
    "counters": 25397,
    "appetite": 22842,
    "ġ": 226,
    "Ġplantation": 11423,
    "sustained": 20567,
    "Ġcrescentic": 20619,
    "Ġlug": 15649,
    "Ġscreaming": 13422,
    "Ġ31": 12128,
    "record": 16921,
    "Ġcats": 8979,
    "Ġgust": 21594,
    "scruple": 26044,
    "Ġinev": 10181,
    "Ġboy": 3017,
    "Ġdarker": 13118,
    "Ġjavel": 17084,
    "Ġadmir": 12020,
    "Ġmediterranean": 12313,
    "caps": 20806,
    "Ġpractised": 23368,
    "Ġcentre": 5123,
    "Ġmer": 2924,
    "gers": 8375,
    "shining": 18495,
    "Ġsofa": 10268,
    "Ġsupplying": 19797,
    "ilities": 6991,
    "Ġfoundations": 11073,
    "Ġcrept": 11022,
    "Ġaccustomed": 6861,
    "billiard": 25334,
    "ediction": 17944,
    "quakes": 21853,
    "Ġrigged": 16717,
    "Ġdepicting": 22604,
    "Ġbes": 2660,
    "Ġinclement": 22550,
    "Ġsubstances": 24165,
    "companies": 24894,
    "Ġhigh": 933,
    "Ġberths": 20113,
    "Ġstrait": 23748,
    "Ġcalcul": 3637,
    "Ġharb": 7370,
    "voy": 7143,
    "Ġallowance": 14388,
    "Ġresid": 22535,
    "Ġtennes": 23548,
    "lab": 3457,
    "Ġhunter": 5401,
    "drown": 13703,
    "Ġdrowsy": 26444,
    "mannered": 22846,
    "idation": 5022,
    "gallery": 24693,
    "utted": 15658,
    "Ġcensure": 15094,
    "Ġmovements": 24359,
    "conve": 14243,
    "Ġugly": 8715,
    "Ġleft": 1762,
    "Ġcorporeally": 25729,
    "communication": 25881,
    "apse": 14198,
    "gaz": 20877,
    "Ġpredefined": 20716,
    "Ġjacob": 1901,
    "Ġoften": 1958,
    "Ġbled": 17857,
    "Ġdeposited": 25484,
    "###": 3825,
    "confined": 24332,
    "arrested": 15598,
    "Ġunfortunately": 10909,
    "devilish": 17082,
    "desired": 8956,
    "Ġscheduling": 2348,
    "Ġsolace": 16198,
    "Ġtyph": 10007,
    "lyph": 10852,
    "Ġdifferen": 937,
    "Ġmustering": 18662,
    "Ġdaughters": 4421,
    "Ġmaz": 15539,
    "Ġaband": 6561,
    "garious": 17558,
    "frisco": 16787,
    "Ġchildish": 13136,
    "Ġmallet": 17810,
    "initions": 21186,
    "tured": 13794,
    "Ġpedestrian": 25879,
    "plexion": 14260,
    "Ġschool": 5512,
    "contriv": 19291,
    "Ġmining": 22827,
    "Ġflung": 8562,
    "Ġinterposed": 20617,
    "hel": 4814,
    "reporting": 24494,
    "Ġvol": 4191,
    "Ġcrucifix": 26079,
    "Ġsallow": 12533,
    "Ġdashing": 8795,
    "alarm": 15624,
    "Ġperseverance": 13596,
    "Ġagreeing": 20017,
    "gall": 6359,
    "er": 269,
    "Ġtypewriter": 19097,
    "Ġhig": 755,
    "Ġexcellence": 11451,
    "agitation": 14067,
    "prehensible": 12358,
    "Ġtim": 4578,
    "Ġcrags": 23528,
    "Ġquivering": 12855,
    "Ġfeedback": 23431,
    "Ġresponses": 23651,
    "ast": 473,
    "cheeks": 23806,
    "akes": 2217,
    "Ġwhirling": 12246,
    "Ġexaggerate": 25649,
    "Ġaccusation": 22375,
    "Ġcot": 13876,
    "Ġsurvived": 14933,
    "Ġimplies": 24873,
    "adem": 21754,
    "Ġharriet": 24572,
    "Ġourselves": 5127,
    "Ġim": 475,
    "tranquil": 25870,
    "Ġloth": 17965,
    "Ġsnowy": 9017,
    "Ġdistances": 22501,
    "Ġplat": 8520,
    "swiftly": 20550,
    "salis": 25147,
    "bushes": 24447,
    "Ġcorrespond": 6209,
    "Ġgangs": 21606,
    "Ġtid": 8106,
    "Ġdent": 13905,
    "Ġanx": 3180,
    "darkened": 24517,
    "asserted": 22295,
    "Ġlongbourn": 3507,
    "sample": 12504,
    "cottagers": 20046,
    "Ġoverwhelmed": 11403,
    "darker": 24516,
    "Ġeluc": 16107,
    "repid": 11564,
    "Ġfeverish": 11348,
    "Ġlamp": 4118,
    "Ġcomposed": 8891,
    "Ġpreface": 18367,
    "Ġhints": 8429,
    "Ġtarpaul": 17730,
    "Ġdispatched": 23879,
    "Ġcrimson": 16440,
    "clair": 18932,
    "Ġaverse": 11081,
    "Ġeternally": 11369,
    "Ġcircumnav": 12424,
    "Ġofficio": 23813,
    "paid": 15413,
    "Ġso": 430,
    "Ġjustice": 5111,
    "history": 15014,
    "among": 6256,
    "Ġwarring": 16865,
    "maltese": 24795,
    "Ġscandinavian": 26344,
    "Ġtwopence": 18660,
    "Ġapprehen": 16829,
    "Ġdrives": 14578,
    "Ġpreliminary": 10056,
    "Ġspires": 11728,
    "Ġdairy": 20685,
    "Ġcampaign": 20660,
    "za": 13809,
    "Ġmug": 21311,
    "hot": 8083,
    "Ġcollapsed": 15080,
    "Ġlandau": 16418,
    "slouched": 24557,
    "Ġuninjured": 22053,
    "Ġcrows": 24028,
    "Ġtilted": 20411,
    "Ġdepresses": 25797,
    "oices": 7348,
    "wing": 2517,
    "disappo": 8984,
    "Ġadversary": 12171,
    "Ġdrowsiness": 26445,
    "Ġincisive": 18570,
    "turns": 14905,
    "Ġfollowing": 4064,
    "Ġinf": 1758,
    "Ġindefinite": 17176,
    "Ġnast": 15636,
    "Ġvernal": 23886,
    "Ġhempen": 13549,
    "Ġ3": 3982,
    "Ġwithdra": 6398,
    "Ġtit": 8398,
    "abode": 21788,
    "rabb": 15677,
    "Ġcan": 465,
    "Ġhours": 2816,
    "Ġharpooneers": 4731,
    "Ġhier": 1897,
    "Ġtearing": 14390,
    "Ġgraphs": 25463,
    "Ġbutchers": 18272,
    "Ġfulfilled": 11362,
    "conversation": 7122,
    "anter": 9166,
    "Ġbehaviour": 4384,
    "time": 3147,
    "Ġmalicious": 10557,
    "Ġhistory": 4006,
    "Ġramble": 9312,
    "Ġ133": 24783,
    "Ġexcepting": 14680,
    "Ġwhisper": 6205,
    "grin": 19105,
    "icating": 15652,
    "Ġcaravan": 26290,
    "choice": 21688,
    "no": 897,
    "keen": 12779,
    "Ľ": 254,
    "sure": 5522,
    "Ġloite": 22108,
    "Ġsleeps": 10446,
    "umblings": 23927,
    "aly": 1079,
    "Ġmood": 6276,
    "Ġlumber": 13951,
    "orous": 5292,
    "Ġproportionate": 17043,
    "Ġname": 2083,
    "Ġtet": 21156,
    "Ġgoin": 18468,
    "Ġlucases": 9009,
    "Ġflail": 23006,
    "Ġwaxed": 21296,
    "Ġswears": 16463,
    "Ġ36": 14766,
    "Ġominous": 12422,
    "Ġstim": 18063,
    "Ġinconvenient": 20008,
    "Ġinfallible": 15069,
    "Ġliar": 22405,
    "Ġtapers": 11551,
    "Ġfertile": 20581,
    "globe": 25142,
    "Ġlowermost": 23240,
    "Ġobservant": 20108,
    "Ġbarbarians": 19586,
    "ail": 566,
    "Ġreinforcement": 3355,
    "dom": 6222,
    "horrible": 14600,
    "Ġchose": 7413,
    "Ġvigorous": 10566,
    "Ġpassionate": 11273,
    "Ġaval": 15492,
    "Ġdefect": 8554,
    "cr": 4078,
    "Ġcourt": 4171,
    "Ġray": 18640,
    "hen": 3516,
    "front": 12168,
    "og": 882,
    "Ġboister": 12917,
    "ify": 1340,
    "sy": 2831,
    "ators": 7829,
    "moral": 14801,
    "Ġpossessed": 5195,
    "Ġbuckets": 17034,
    "Ġwaned": 17791,
    "Ġgesture": 11399,
    "ĠarchÃ¦": 22769,
    "Ġmonarch": 14412,
    "](": 11466,
    "Ġsamuel": 10032,
    "pard": 9618,
    "Ġsenor": 20149,
    "ckles": 22086,
    "Ġdetained": 18372,
    "Ġinput": 610,
    "Ġbegged": 8230,
    "amiable": 14052,
    "pend": 6367,
    "reflect": 19864,
    "hatchet": 24822,
    "brace": 16942,
    "onged": 18410,
    "entered": 8814,
    "remem": 13064,
    "comparatively": 25839,
    "isl": 21373,
    "Ġran": 3343,
    "assistant": 25566,
    "share": 14237,
    "daughter": 8353,
    "discredit": 24250,
    "circumstance": 7763,
    "Ġenlivened": 26207,
    "leaped": 17843,
    "Ġpalace": 16690,
    "Ġmakest": 25435,
    "Ġperiods": 13302,
    "rd": 17649,
    "existence": 16012,
    "unforeseen": 21885,
    "Ġobviously": 16810,
    "Ġ221": 25068,
    "Ġfourth": 7706,
    "Ġravines": 25831,
    "Ġinvite": 14562,
    "its": 1148,
    "ship": 1390,
    "mists": 17605,
    "resol": 17760,
    "Ġoverfitting": 1543,
    "folly": 20861,
    "tor": 15431,
    "Ġprairies": 20019,
    "Ġout": 543,
    "Ġalex": 15132,
    "Ġbamboo": 17436,
    "prosper": 19100,
    "Ġisn": 7865,
    "Ġblue": 3455,
    "Ġvillanous": 24051,
    "Ġshipped": 9714,
    "robust": 19727,
    "ively": 1279,
    "ww": 10737,
    "acknowled": 10975,
    "groom": 8739,
    "Ġacceptance": 14826,
    "Ġnewspapers": 17186,
    "Ġcharacter": 2792,
    "Ġsake": 4095,
    "Ġprender": 22232,
    "ops": 5246,
    "beating": 22486,
    "Ġconnex": 10665,
    "riages": 10242,
    "frankly": 20020,
    "ut": 308,
    "Ġaccidentally": 9504,
    "Ġstare": 10864,
    "Ġresentment": 7531,
    "Ġinclosed": 19537,
    "Ġsnow": 3706,
    "Ġreasonable": 7252,
    "Ġpausing": 8652,
    "Ġshattered": 7883,
    "talk": 6656,
    "Ġdimmed": 24267,
    "Ġinvoluntarily": 8547,
    "grinder": 23413,
    "izer": 2031,
    "sculptured": 26045,
    "Ġslices": 23161,
    "Ġ0": 1905,
    "Ġchristendom": 16695,
    "Ġantichronical": 26609,
    "Ġ(âĢľ": 15993,
    "Ġunsolved": 22030,
    "Ġcharm": 4548,
    "receive": 12539,
    "ity": 417,
    "Ġshocks": 16456,
    "lin": 9603,
    "Ġunmingled": 18263,
    "Ġenviron": 4007,
    "Ġstacked": 21740,
    "Ġvelvet": 12396,
    "Ġcreeping": 18686,
    "Ġpence": 17905,
    "witted": 17707,
    "Ġinvesting": 19645,
    "Ġapparel": 20434,
    "vinegar": 25420,
    "Ġcongregated": 20095,
    "Ġuntil": 2667,
    "Ġlengthened": 25958,
    "ased": 1267,
    "tackles": 25624,
    "rs": 7807,
    "Ġmounted": 7832,
    "Ġresponded": 13637,
    ",*": 17471,
    "Ġformations": 18748,
    "oct": 7555,
    "Ġresnet": 5473,
    "Ġbengal": 18782,
    "bony": 15318,
    "doc": 23374,
    "inities": 21184,
    "white": 4602,
    "vitality": 20477,
    "Ġpallor": 13515,
    "Ġwaifing": 25243,
    "rimshander": 20656,
    "Ġonto": 14027,
    "Ġquiet": 3262,
    "reme": 2424,
    "cats": 17512,
    "Ġstood": 2548,
    "pennies": 26285,
    "Ġtasted": 12526,
    "Ġbursting": 8655,
    "engineer": 23144,
    "Ġgrec": 18960,
    "Ġsaleve": 17390,
    "Ġstates": 1854,
    "Ġfailing": 12135,
    "Ġinexplicable": 12254,
    "Ġbelong": 3884,
    "Ġrode": 15995,
    "Ġample": 11796,
    "Ġdefects": 12331,
    "Ġsupposed": 4558,
    "solved": 7685,
    "Ġfundamentals": 14635,
    "Ġcommodores": 25374,
    "Ġstatements": 7517,
    "Ġobservation": 6597,
    "sequently": 14583,
    "Ġmonth": 2846,
    "Ġcultivated": 17363,
    "batim": 25016,
    "Ġcondescend": 19953,
    "loss": 22505,
    "Ġdest": 2234,
    "Ġsailor": 3534,
    "Ġpleasantness": 24139,
    "hum": 3776,
    "pretend": 24882,
    "Ġopening": 5045,
    "speak": 5504,
    "Ġ111": 24436,
    "rested": 13073,
    "stripped": 16945,
    "Ġbowls": 23768,
    "opotam": 22474,
    "Ġwearied": 15790,
    "Ġsul": 7571,
    "Ġenclosure": 20622,
    "ired": 1442,
    "garnished": 26388,
    "anybody": 12080,
    "Ġdifference": 1488,
    "asion": 5714,
    "Ġprynne": 25540,
    "irms": 18169,
    "ables": 7890,
    "Ġfringed": 17272,
    "ference": 1885,
    "ster": 1955,
    "Ġinnocence": 6477,
    "ues": 2080,
    "hopper": 23713,
    "flutter": 23968,
    "concerns": 24064,
    "invested": 17117,
    "furnish": 25338,
    "Ġdreamt": 23936,
    "Ġalice": 1482,
    "Ġaye": 3354,
    "Ġgibe": 25959,
    "ios": 2350,
    "Ġrecollect": 8309,
    "Ġascended": 8665,
    "berwell": 22718,
    "isance": 17847,
    "proceeding": 20140,
    "Ġgravely": 7882,
    "Ġpain": 2303,
    "Ġdashes": 21432,
    "Ġleviathan": 3289,
    "chest": 11208,
    "Ġobeisance": 19757,
    "uits": 21103,
    "Ġwhy": 1761,
    "Ġhumour": 7931,
    "Ġbehavior": 8001,
    "Ġvisible": 4777,
    "after": 2892,
    "Ġpaddle": 20057,
    "Ġboon": 22636,
    "greeting": 24554,
    "Ġnimble": 21525,
    "A": 37,
    "Ġcrack": 7709,
    "Ġparagra": 15877,
    "Ġmoritz": 11903,
    "se": 358,
    "Ġlethar": 21743,
    "Ġdemo": 10879,
    "sive": 4146,
    "Ġparties": 7038,
    "ements": 11108,
    "ued": 7562,
    "Ġdong": 17887,
    "comple": 7441,
    "Ġminimize": 7050,
    "compared": 24030,
    "liness": 8746,
    "Ġers": 15459,
    "Ġengine": 1921,
    "Ġspears": 12921,
    "Ġstunsail": 25543,
    "Ġbands": 14883,
    "confirmation": 26089,
    "Ġelasticity": 19557,
    "cushion": 20820,
    "irect": 5553,
    "Ġupbra": 22151,
    "chard": 21684,
    "Ġsage": 17752,
    "hs": 8377,
    "Ġheedless": 14902,
    "Ġthrilling": 19747,
    "Ġrashness": 25460,
    "Ġsombre": 18859,
    "hatchway": 25904,
    "forgetting": 25485,
    "Ġwinged": 16995,
    "Ġcurls": 22998,
    "ivable": 10911,
    "Ġattent": 4361,
    "Ġchildhood": 13137,
    "determination": 19943,
    "Ġunflinching": 26512,
    "Ġbulwarks": 5592,
    "Ġdiana": 21434,
    "Ġrenewed": 9537,
    "Ġshol": 21992,
    "Ġclient": 5555,
    "plentiful": 21953,
    "enance": 3373,
    "Ġ122": 24467,
    "_âĢĶâĢĻ": 13681,
    "Ġevalu": 3029,
    "bearings": 25371,
    "ray": 2437,
    "Ġseparately": 13301,
    "ak": 539,
    "ifications": 9724,
    "Ġadapt": 1016,
    "Ġprofit": 14585,
    "backed": 9865,
    "attention": 2110,
    "they": 1883,
    "Ġburned": 8630,
    "Ġrepeated": 3829,
    "Ġcompan": 2171,
    "Ġcin": 13874,
    "Ġ184": 16607,
    "necessarily": 19630,
    "Ġplus": 3881,
    "Ġprow": 6684,
    "Ġvictims": 19803,
    "Ġnupt": 13942,
    "Ġlight": 1701,
    "Ġattraction": 18624,
    "photograph": 16144,
    "Ġinstructing": 3124,
    "Ġkrusen": 20713,
    "uesday": 8587,
    "Ġcolony": 18763,
    "swed": 24253,
    "Ġopportunities": 19248,
    "Ġgent": 7383,
    "Ġsixth": 16559,
    "Ġmatch": 4529,
    "Ġstage": 7389,
    "ising": 2252,
    "com": 980,
    "ud": 925,
    "aurs": 20768,
    "Ġfeet": 2256,
    "Ġunhappiness": 14117,
    "Ġride": 12755,
    "Ġpenet": 6888,
    "conjecture": 15121,
    "Ġbounding": 19398,
    "Ġderiv": 1739,
    "thodox": 21985,
    "Ġsent": 1777,
    "atiable": 17774,
    "Ġabomin": 8188,
    "Ġaff": 1118,
    "Ġreproof": 24890,
    "Ġskin": 5038,
    "consult": 24169,
    "Ġundec": 22016,
    "Ġfeel": 1258,
    "leisure": 21369,
    "Ġ63": 24366,
    "Ġoccurred": 4462,
    "Ġstones": 9221,
    "cially": 3489,
    "G": 43,
    "ipher": 18433,
    "Ġdetain": 14173,
    "superstitiousness": 25508,
    "Ġnumerous": 6920,
    "ames": 2948,
    "Ġaddressed": 5262,
    "cooee": 12416,
    "Ġaccept": 4410,
    "laug": 10707,
    "Ġlooking": 2473,
    "ivance": 22077,
    "Ġcoopers": 20520,
    "activation": 3231,
    "thought": 3846,
    "of": 767,
    "arnel": 18124,
    "Ġsins": 13836,
    "Ġeasiness": 23536,
    "Ġquarrel": 7292,
    "Ġfame": 21404,
    "exerc": 16013,
    "Ġstroke": 6936,
    "Ġcorrupt": 11921,
    "Ġsi": 21211,
    "Ġjournal": 15217,
    "Ġcared": 8782,
    "Ġvoices": 7875,
    "shone": 22452,
    "Ġlye": 21548,
    "protruding": 24816,
    "week": 12928,
    "Ġperusal": 14224,
    "antic": 1602,
    "Ġpupils": 20419,
    "rely": 6123,
    "Ġfate": 4754,
    "Ġlifts": 25358,
    "Ġproductions": 22943,
    "alid": 13934,
    "ask": 857,
    "nest": 10113,
    "utarch": 15659,
    "knife": 6942,
    "althily": 19357,
    "Ġstudious": 23237,
    "serve": 13044,
    "ole": 9613,
    "Ġdrew": 3535,
    "Ġvent": 3995,
    "Ġstruck": 3391,
    "Ġtempest": 8213,
    "Ġactionable": 24559,
    "discovery": 12015,
    "recl": 15509,
    "Ġmurmured": 7481,
    "assistance": 20368,
    "Ġblu": 2686,
    "Ġworker": 23042,
    "Ġengraving": 17080,
    "Ġcooper": 16075,
    "remark": 7261,
    "clopÃ¦": 13053,
    "Ġfuller": 11156,
    "Ġrepel": 23355,
    "Ġhardships": 14450,
    "image": 9685,
    "Ġmunro": 25630,
    "Ġexterm": 21826,
    "consequence": 9762,
    "find": 6954,
    "shattered": 22458,
    "Ġmechanism": 2273,
    "point": 6062,
    "Ġgoring": 21601,
    "turner": 19540,
    "achines": 1726,
    "Ġpresumably": 19623,
    "Ġassociated": 12247,
    "Ġantelope": 24180,
    "extrem": 18708,
    "Ġexperienced": 6582,
    "Ġforbid": 7864,
    "Ġsadness": 13285,
    "Ġzones": 22817,
    "Ġcelerity": 17435,
    "Ġmutter": 23951,
    "Ġpurposes": 11168,
    "Ġespecially": 3933,
    "reward": 15508,
    "spersed": 22733,
    "stochastic": 3772,
    "Ġreluct": 14370,
    "searching": 25103,
    "bble": 17484,
    "Ġassistant": 7298,
    "proof": 16422,
    "Ġespecial": 26410,
    "Ġneighbors": 25804,
    "Ġveins": 8932,
    "Ġlane": 5627,
    "Ġting": 8397,
    "Ġfears": 5729,
    "Ġtalked": 4420,
    "tery": 14036,
    "inite": 6001,
    "Ġconfirmed": 11139,
    "pipe": 8696,
    "Ġthomas": 17947,
    "Ġdispute": 16054,
    "Ġgrunted": 16166,
    "has": 4012,
    "Ġcellars": 24665,
    "Ġroutine": 13507,
    "ading": 5091,
    "conditional": 9078,
    "application": 12361,
    "olent": 8154,
    "nose": 17610,
    "Ġgurg": 15670,
    "Ġunprincipled": 20707,
    "Ġaimed": 20249,
    "art": 574,
    "Ġmuttering": 10499,
    "ustom": 3787,
    "anite": 17837,
    "Ġrabb": 4166,
    "Ġmarriage": 3187,
    "Ġwaits": 23277,
    "plain": 1359,
    "Ġdeclined": 9920,
    "Ġfashionable": 19543,
    "oregressive": 3426,
    "Ġfo": 1651,
    "mber": 7803,
    "fac": 17541,
    "Ġlunch": 13525,
    "hatherley": 17568,
    "renewed": 19703,
    "inous": 8771,
    "Ġjobs": 24832,
    "oss": 10115,
    "Ġunwillingly": 15846,
    "stone": 5089,
    "sembled": 7263,
    "Ġbasket": 9572,
    "Ġuncont": 14115,
    "unwillingly": 21881,
    "division": 20047,
    "encouragement": 17422,
    "ĠĠĠĠĠĠĠĠĠĠĠĠĠĠĠĠĠĠĠĠĠĠĠĠĠĠĠĠĠĠĠĠĠĠ": 14613,
    "Ġtumultuous": 10615,
    "ustration": 2257,
    "Ġsoften": 23120,
    "attempt": 9359,
    "heed": 15497,
    "Ġactual": 3736,
    "Ġdart": 4585,
    "simon": 16973,
    "Ġwhimsical": 20426,
    "Ġunwarrantable": 26353,
    "Ġtalents": 15044,
    "Ġincreasing": 8246,
    "Ġincommod": 25307,
    "Ġdinn": 23978,
    "Ġcommenced": 8531,
    "Ġbedroom": 7277,
    "Ġspl": 2980,
    "hereafter": 19214,
    "Ġbusks": 23335,
    "Ġunappalled": 22062,
    "Ġleak": 2159,
    "Ġformidable": 8219,
    "Ġdoublo": 6078,
    "Ġjackets": 19601,
    "Ġpretty": 3858,
    "Ġoblivious": 26032,
    "Ġpalp": 11250,
    "conced": 22465,
    "Ġfuneral": 10282,
    "Ġauxiliary": 26418,
    "regular": 3038,
    "Ġapproximate": 2341,
    "Ġhowling": 8509,
    "Ġtuileries": 24826,
    "Ġaddressing": 11164,
    "swinging": 25912,
    "Ġchamois": 16800,
    "osque": 22259,
    "orial": 8416,
    "Ġhopeless": 7463,
    "Ġacknowledge": 13401,
    "9": 29,
    "Ġmarched": 18871,
    "Ġresponsiveness": 2893,
    "byshire": 6172,
    "warmly": 25026,
    "conduct": 11795,
    "ppered": 15788,
    "Ġgrove": 12144,
    "Ġkelson": 18350,
    "hies": 17560,
    "Ġcorrected": 10448,
    "ousness": 10274,
    "Ġwig": 9161,
    "Ġminds": 6303,
    "Ġelusive": 22643,
    "Ġencaps": 12959,
    "Ġleaped": 8825,
    "Ġir": 1994,
    "Ġarg": 4766,
    "james": 15371,
    "Ġunsur": 22019,
    "Ġexquisite": 12380,
    "ound": 586,
    "Ġregard": 3067,
    "Ġshell": 11734,
    "Ġconcentric": 20073,
    "delight": 5344,
    "wrote": 11546,
    "Ġlibr": 15999,
    "antial": 8487,
    "side": 2301,
    "Ġcommons": 22669,
    "Ġremained": 3142,
    "Ġcrest": 12939,
    "Ġdetested": 14174,
    "Ġwhitney": 11373,
    "Ġslo": 15505,
    "Ġtheir": 643,
    "loving": 18540,
    "Ġparameter": 881,
    "moby": 8536,
    "Ġsingularly": 12146,
    "Ġrags": 18643,
    "neat": 22445,
    "Ġgrosvenor": 17417,
    "charming": 15703,
    "Ġgates": 10200,
    "Ġtenderly": 11314,
    "Ġplayers": 12036,
    "utral": 12660,
    "uction": 15442,
    "pute": 8844,
    "hering": 12811,
    "bingley": 4927,
    "Ġamuse": 5939,
    "lemagne": 26436,
    "Ġsimilarity": 3167,
    "Ġconsecut": 18114,
    "rices": 4559,
    "Ġsubsided": 14550,
    "idelburgh": 10560,
    "disposed": 25010,
    "bbings": 19275,
    "Ġaffording": 14820,
    "Ġaccuse": 14211,
    "agatha": 21905,
    "Ġcloth": 9741,
    "Ġcultured": 25154,
    "africa": 26308,
    "Ġdivided": 8631,
    "uy": 21098,
    "ror": 7351,
    "Ġweighed": 8710,
    "Ġraises": 11843,
    "Ġgracefully": 13390,
    "ĠâĢľ_": 6696,
    "articulate": 17394,
    "Ġwitnesses": 9485,
    "philosop": 9567,
    "Ġprincely": 24148,
    "antled": 18287,
    "Ġbethink": 12377,
    "barrels": 15041,
    "Ġrail": 7225,
    "Ġknights": 15148,
    "Ġill": 2189,
    "Ġfortune": 4241,
    "Ġpettiness": 24229,
    "Ġembra": 6579,
    "Ġthoughts": 3139,
    "Ġcoiled": 11818,
    "counterpart": 26359,
    "hurried": 11353,
    "Ġexercising": 19906,
    "Ġstudded": 18988,
    "score": 18850,
    "Ġshovel": 23489,
    "erm": 786,
    "Ġwrenching": 17322,
    "Ġsaw": 1351,
    "windlass": 16721,
    "antage": 3877,
    "tes": 11528,
    "Ġfer": 5529,
    "Ġquarter": 3973,
    "Ġsimilitude": 19208,
    "Ġlifted": 6985,
    "Ġsquare": 2396,
    "Ġwand": 4342,
    "Ġminimizes": 2047,
    "Ġsane": 21220,
    "ladyship": 14828,
    "brimmed": 14588,
    "pulling": 25146,
    "Ġservices": 11217,
    "token": 21081,
    "Ġrazors": 22653,
    "Ġrealise": 16335,
    "itche": 7579,
    "Ġconciliating": 19047,
    "gy": 2097,
    "Ġmeat": 8151,
    "Ġshirr": 18231,
    "Ġpatience": 2695,
    "Ġincrust": 22547,
    "Ġraw": 3321,
    "Ġtrod": 15026,
    "hertfordshire": 10936,
    "abominable": 20592,
    "Ġlived": 3988,
    "capital": 15087,
    "Ġnarrowed": 24355,
    "Ġdying": 2135,
    "Ġcuts": 14607,
    "erland": 9640,
    "Ġhaunt": 18197,
    "Ġproximity": 3219,
    "numer": 15398,
    "pride": 11210,
    "ou": 287,
    "etwork": 441,
    "Ġoverhear": 15973,
    "Ġreduced": 11922,
    "Ġrural": 21964,
    "ribute": 7224,
    "Ġanalysis": 1864,
    "Ġrehears": 15697,
    "pad": 13767,
    "Ġpassing": 4316,
    "humanity": 24839,
    "Ġsublim": 19965,
    "Ġtire": 17720,
    "Ġdepending": 14292,
    "ellest": 21571,
    "postp": 24634,
    "perils": 22184,
    "Ġscho": 4436,
    "arled": 21440,
    "Ġproper": 1378,
    "let": 2734,
    "blast": 9587,
    "acca": 23596,
    "Ġcalmer": 23039,
    "Ġplane": 11821,
    "Ġhospitality": 13512,
    "oars": 9614,
    "Ġflog": 23621,
    "Ġattendance": 12179,
    "Ġkne": 4267,
    "Ġsnaky": 23740,
    "Ġinspire": 11994,
    "movement": 25578,
    "Ġspine": 7407,
    "luxur": 25822,
    "Ġflask": 3036,
    "furniture": 20241,
    "Ġyanke": 18097,
    "Ġdegraded": 19224,
    "ineering": 21978,
    "Ġmaj": 3924,
    "Ġresistance": 13529,
    "firm": 10698,
    "Ġrambled": 20167,
    "Ġdegrees": 7294,
    "Ġunprotected": 22064,
    "Ġcravat": 26307,
    "drunk": 24659,
    "accomplishments": 25326,
    "wick": 5362,
    "Ġwhirlp": 16963,
    "appeared": 4283,
    "Ġcircumnavigation": 20398,
    "Ġworsh": 12997,
    "Ġeurope": 8061,
    "Ġcanoe": 9721,
    "Ġfriesland": 26442,
    "Ġaccommodate": 20515,
    "Ġimmeas": 18330,
    "wonted": 13492,
    "Ġrepresentations": 1879,
    "Ġaristocratic": 20510,
    "Ġhelplessness": 25071,
    "Ġdatasets": 2388,
    "Ġpanting": 11602,
    "scarcely": 12384,
    "repeating": 20127,
    "Ġcandle": 8291,
    "Ġfiftieth": 24703,
    "Ġpointed": 4773,
    "ball": 7792,
    "Ġinterruptions": 24186,
    "Ġencircling": 26271,
    "Ġintermediate": 18588,
    "step": 2456,
    "anse": 12572,
    "sank": 17662,
    "each": 7335,
    "Ġshows": 8482,
    "Ġgloss": 11956,
    "Ġenric": 21931,
    "Ġsacri": 18328,
    "Ġmonomaniac": 9568,
    "orton": 11754,
    "Ġmuteness": 19415,
    "Ġglim": 9342,
    "Ġphysiognomical": 25611,
    "inois": 17738,
    "Ġsooner": 5573,
    "peculiarity": 23106,
    "Ġchasing": 11752,
    "bank": 10079,
    "Ġwantest": 18791,
    "Ġsweating": 16462,
    "Ġclue": 7019,
    "attoo": 6807,
    "Ġawaken": 23585,
    "whether": 5319,
    "Ġiroquois": 26472,
    "estone": 18363,
    "Ġfals": 15578,
    "Ġlose": 5028,
    "Ġdisgraceful": 15019,
    "Ġlull": 15648,
    "aset": 10832,
    "runs": 25415,
    "Ġpolitics": 19222,
    "Ġbread": 5404,
    "Ġamong": 1667,
    "Ġpure": 6137,
    "Ġphrase": 11187,
    "Ġbeams": 14631,
    "Ġlifelessly": 23047,
    "Ġpitiful": 13238,
    "Ġvit": 10245,
    "ondency": 15268,
    "Ġprove": 5231,
    "dz": 4739,
    "Ġsuccour": 20433,
    "attacks": 23119,
    "Ġjoyous": 14663,
    "fly": 13713,
    "Ġachieved": 13165,
    "Ġflashed": 11912,
    "&": 10,
    "fra": 8374,
    "Ġleviathanic": 12078,
    "Ġprobabilities": 4966,
    "Ġunra": 18237,
    "cription": 20817,
    "Ġgenerous": 6271,
    "vid": 915,
    "hauled": 20667,
    "robotics": 11306,
    "Ġoffic": 3186,
    "Ġcheerily": 13306,
    "Ġerr": 1321,
    "Ġreliance": 14384,
    "Ġfairy": 14627,
    "Ġrustic": 14964,
    "Ġfrequent": 3287,
    "Ġinsurg": 23680,
    "six": 7141,
    "bery": 9786,
    "threat": 10900,
    "Ġpanthe": 19652,
    "alot": 15623,
    "Ġod": 4439,
    "Ġshan": 9248,
    "Ġattending": 3285,
    "Ġbanking": 19629,
    "Ġtelesc": 12987,
    "Ġbone": 4694,
    "hr": 20887,
    "Ġphilipp": 23882,
    "mystery": 15154,
    "months": 9071,
    "Ġlog": 1677,
    "Ġmaintains": 2145,
    "rudential": 16709,
    "Ġwhither": 10214,
    "origin": 7582,
    "racted": 4776,
    "volut": 1560,
    "Ġwip": 13852,
    "Ġthrobbing": 16898,
    "Ġquick": 2580,
    "Ġstow": 21727,
    "Ġtechnically": 12364,
    "Ġjones": 7203,
    "acon": 10681,
    "reserved": 13842,
    "Ġstructure": 848,
    "Ġconfession": 11235,
    "Ġkidn": 20204,
    "ornamented": 26595,
    "Ġhartshorn": 26180,
    "Ġlinguistic": 12423,
    "lac": 17589,
    "Ġshoes": 7071,
    "connected": 1309,
    "kept": 11715,
    "Ġinsights": 13178,
    "_)âĢĶ": 20143,
    "Ġmurdered": 6464,
    "astron": 22166,
    "Ġemptied": 24347,
    "olently": 15757,
    "Ġfins": 9663,
    "arranted": 19319,
    "Ġecho": 12663,
    "Ġexactly": 2767,
    "ism": 4874,
    "anch": 15557,
    "Ġspacious": 18312,
    "ula": 2822,
    "empl": 5724,
    "Ġenraptured": 26500,
    "Ġrestrain": 8964,
    "fugitive": 26131,
    "Ġyale": 21776,
    "Ġcomply": 8890,
    "Ġaffinity": 18787,
    "warrant": 21136,
    "Ġprom": 1529,
    "Ġforbearance": 12326,
    "Ġpint": 17909,
    "Ġvel": 7186,
    "Ġestimate": 19371,
    "Ġgrounded": 23710,
    "Ġhighway": 14347,
    "Ġoysters": 20577,
    "Ġlegitimate": 20641,
    "definition": 23115,
    "Ġdistributed": 18661,
    "hearted": 6970,
    "cab": 7333,
    "Ġminute": 4280,
    "Ġbidding": 9536,
    "Ġbleached": 24396,
    "Ġcalls": 6744,
    "00": 1609,
    "aet": 15306,
    "rapidly": 15242,
    "boys": 13358,
    "iting": 2156,
    "Ġdaft": 19662,
    "Ġperpetually": 17071,
    "appears": 12057,
    "Ġstrokes": 16769,
    "Ġnash": 5819,
    "Ġcit": 10783,
    "Ġcocked": 12901,
    "Ġmasters": 11574,
    "ann": 5802,
    "Ġintroduce": 3203,
    "Ġje": 4126,
    "exceedingly": 9566,
    "esc": 618,
    "knew": 9126,
    "inhabited": 13619,
    "Ġaloof": 21782,
    "hearing": 8402,
    "amy": 8467,
    "Ġowns": 22822,
    "Ġthinnest": 24183,
    "Ġinspired": 2516,
    "Ġrelish": 14383,
    "Ġdepicted": 14283,
    "stee": 21648,
    "Ġgraceful": 11296,
    "Ġthanking": 18602,
    "civilities": 24971,
    "Ġbritain": 16956,
    "Ġfishes": 11590,
    "Ġconsecrate": 26489,
[...]
