{
  "metadata": {
    "vocab_size": 26616,
    "algorithm": "BPE",
    "created_at": "2026-05-31 06:16:52",
    "special_tokens": [
      "<PAD>",
      "<SOS>",
      "<EOS>",
      "<UNK>",
      "<MASK>"
    ]
  },
  "vocab": {
    "Ġaccumulation": 2689,
    "Ġkrem": 9729,
    "Ġtorrents": 20058,
    "fr": 4803,
    "Ġparr": 22123,
    "Ġaye": 3352,
    "ouch": 2778,
    "rifice": 12508,
    "Ġcredit": 4818,
    "mont": 19171,
    "Ġoutlaws": 22327,
    "Ġeager": 3570,
    "etics": 21584,
    "Ġspaniard": 20365,
    "Ġ94": 17719,
    "Ġsupplied": 8946,
    "Ġsn": 2947,
    "jee": 17581,
    "Ġterrible": 5328,
    "Ġpills": 21468,
    "Ġnewly": 9341,
    "grasping": 20642,
    "anted": 5026,
    "Ġlocker": 16913,
    "Ġbrighter": 16190,
    "Ġparts": 4164,
    "peculiarities": 13475,
    "Ġgets": 10841,
    "ols": 2412,
    "inces": 13831,
    "sway": 15427,
    "ece": 17533,
    "jets": 20930,
    "on": 267,
    "Ġfiddle": 25445,
    "cheon": 23807,
    "Ġsolid": 6443,
    "Ġoverthrown": 18431,
    "Ġgenerator": 3381,
    "Ġincorporate": 20456,
    "Ġlistener": 16477,
    "Ġdoted": 21436,
    "Ġunhappily": 18267,
    "icity": 2538,
    "Ġprobability": 1129,
    "tw": 2808,
    "Ġpalms": 8647,
    "Ġparis": 8178,
    "Ġrattle": 10901,
    "Ġadmitting": 19186,
    "bermaid": 20792,
    "Ġfit": 3684,
    "zag": 17715,
    "Ġstealing": 18896,
    "contains": 16035,
    "Ġwave": 7575,
    "Ġappe": 1540,
    "sterns": 23372,
    "Ġindications": 14635,
    "Ġgestic": 21611,
    "Ġguardian": 14946,
    "Ġentreating": 24211,
    "inition": 11560,
    "bare": 12445,
    "Ġinsc": 7585,
    "Ġkentuckian": 26344,
    "Ġcoil": 11823,
    "Ġslave": 7453,
    "Ġsmothe": 18575,
    "Ġlocal": 1199,
    "Ġgourmand": 26468,
    "Ġstun": 11654,
    "rushing": 10021,
    "Ġmutiny": 13264,
    "Ġisle": 8837,
    "articulate": 17401,
    "Ġjinglers": 26016,
    "Ġsomewhere": 5384,
    "Ġspeeches": 22666,
    "ignominious": 26589,
    "Ġlose": 5027,
    "Ġweep": 7619,
    "Ġdiminishing": 4208,
    "rable": 11636,
    "Ġnorth": 4318,
    "contr": 12060,
    "Ġdistricts": 20265,
    "Ġdepart": 4656,
    "call": 8726,
    "Ġpeddling": 21484,
    "brother": 7092,
    "arthur": 14834,
    "mouthful": 25209,
    "Ġjoky": 18402,
    "Ġnormalizing": 1822,
    "ious": 767,
    "Ġimmens": 9942,
    "Ġacc": 573,
    "els": 1765,
    "likelihood": 4990,
    "Ġusher": 22226,
    "Ġpawnbroker": 13662,
    "Ġplan": 3879,
    "Ġender": 11695,
    "Ġgi": 15670,
    "Ġasp": 15785,
    "butt": 15998,
    "Ġclams": 19991,
    "Ġpirate": 14999,
    "Ġconverts": 2802,
    "unte": 21877,
    "erately": 21276,
    "Ġlean": 7605,
    "Ġunusually": 15851,
    "Ġtransported": 11282,
    "acid": 10996,
    "Ġpe": 851,
    "Ġfurnished": 6475,
    "whiteness": 18371,
    "creator": 26383,
    "Ġunchanged": 22035,
    "Ġattentively": 9953,
    "Ġelbow": 12927,
    "Ġpuffing": 12259,
    "draughts": 20390,
    "mention": 7214,
    "clear": 9027,
    "ě": 220,
    "Ġsteady": 4847,
    "Ġilluminating": 25246,
    "illum": 15873,
    "Ġhapless": 15816,
    "verize": 21732,
    "screaming": 20327,
    "Ġduchess": 4798,
    "Ġunrest": 11719,
    "Ġsluggishly": 25892,
    "english": 2772,
    "confid": 14871,
    "Ġpushed": 5911,
    "Ē": 211,
    "suitableness": 26262,
    "Ġduc": 4696,
    "Ġlines": 4533,
    "Ġslu": 13839,
    "igate": 8827,
    "Ġsentimental": 24753,
    "Ġpardon": 5727,
    "Ġprofound": 5497,
    "Ġfasting": 16359,
    "iom": 20917,
    "arth": 4442,
    "Ġbrass": 11050,
    "phys": 18707,
    "Ġawakened": 10455,
    "Ġempires": 19077,
    "Ġdecomposes": 5506,
    "Ġunhinged": 26218,
    "brill": 16493,
    "ression": 3405,
    "Ġpl": 744,
    "Ġweedy": 15796,
    "calabash": 22899,
    "Ġheal": 21684,
    "Ġhas": 825,
    "quickly": 14965,
    "Ġ43": 14773,
    "Ġsurplus": 26304,
    "Ġecon": 9680,
    "Ġunguarded": 15855,
    "Ġprints": 16333,
    "gyric": 19111,
    "Ġmixture": 9564,
    "Ġbeyond": 2457,
    "lun": 20948,
    "chemical": 23812,
    "large": 6628,
    "imens": 1748,
    "Ġsurging": 19135,
    "movable": 14328,
    "bell": 7331,
    "Ġfemin": 13440,
    "Ġbank": 4876,
    "Ġinvolving": 18758,
    "Ġdisco": 3427,
    "uing": 17695,
    "Ġexchanged": 10880,
    "Ġhans": 12631,
    "Ġevaporate": 26334,
    "mult": 8751,
    "coo": 11173,
    "ry": 807,
    "Ġglare": 13022,
    "Ġwishes": 4794,
    "Ġpercept": 14227,
    "Ġpaper": 4281,
    "Ġrefresh": 10348,
    "Ġrevolutionized": 3366,
    "Ġrests": 13097,
    "presence": 18497,
    "Ġprison": 5403,
    "Ġdoran": 9182,
    "drowned": 17372,
    "Ġcrawled": 17045,
    "Ġvocation": 10528,
    "Ġunsounded": 15854,
    "Ġtend": 6122,
    "Ġreusable": 13561,
    "ama": 11681,
    "Ġaccomplished": 7105,
    "Ġmassacre": 20550,
    "rimin": 2423,
    "Ġlanguages": 1569,
    "crossing": 19414,
    "Ġfraud": 19055,
    "Ġrushed": 4086,
    "moored": 22708,
    "Ġfuture": 1068,
    "Ġunfolded": 10641,
    "Ġquantity": 6948,
    "Ġmoccas": 22440,
    "Ġelasticity": 19559,
    "dz": 4738,
    "Ġbenefit": 8292,
    "Ġchance": 3318,
    "Ġbrought": 2514,
    "Ġwo": 3651,
    "ov": 15403,
    "Ġcracked": 8598,
    "Ġhomeless": 23391,
    "Ġstory": 2899,
    "Ġpreface": 18368,
    "removed": 15519,
    "Ġvault": 8845,
    "Ġensu": 7874,
    "Ġwisely": 13276,
    "Ġtempestuous": 20073,
    "Ġpivot": 13926,
    "seek": 8841,
    "jur": 17580,
    "Ġautom": 3268,
    "Ġincluding": 2848,
    "othing": 6996,
    "transferred": 24515,
    "Ġbuild": 6474,
    "Ġthom": 21519,
    "duty": 20241,
    "Ġoverwhelm": 25055,
    "Ġverte": 9443,
    "tish": 17679,
    "resp": 13842,
    "app": 1040,
    "Ġherbage": 25997,
    "ĕ": 214,
    "unalterable": 21891,
    "date": 17519,
    "caves": 20818,
    "Ġcrime": 4615,
    "centred": 25020,
    "uction": 15446,
    "Ġteaches": 18803,
    "archbishop": 22897,
    "Ġsupported": 9821,
    "Ġwhites": 21720,
    "Ġcompens": 14270,
    "sincere": 16909,
    "Ġeyelashes": 26107,
    "versed": 9828,
    "whisper": 17084,
    "Ġactively": 18655,
    "Ġplans": 7917,
    "Ġvolley": 24149,
    "companies": 24895,
    "Ġplucked": 15118,
    "accidents": 19214,
    "Ġjourneys": 19478,
    "anged": 3587,
    "Ġdesires": 9458,
    "incident": 14594,
    "Ġprogra": 1146,
    "Ġswaying": 15050,
    "Ġpulley": 2974,
    "Ġpressed": 6042,
    "Ĺ": 250,
    "ages": 829,
    "certainly": 5340,
    "ref": 6515,
    "Ġsympathised": 14866,
    "Ġcove": 22584,
    "wol": 21125,
    "Ġravine": 18650,
    "Ġcharts": 12832,
    "Ġactive": 7914,
    "Ġnephew": 6405,
    "Ġcrippled": 25279,
    "Ġstreat": 15725,
    "Ġarmada": 23583,
    "bles": 7019,
    "supplemental": 25875,
    "Ġinformed": 6719,
    "**": 4685,
    "ĠĠĠĠĠĠĠĠĠĠĠĠĠĠĠĠĠĠĠĠĠĠĠĠĠĠĠĠĠĠĠĠĠĠĠĠĠĠĠĠĠĠĠĠĠĠĠĠĠ": 20040,
    "adagrad": 9694,
    "Ġtackle": 9515,
    "bruary": 15239,
    "Ġmuttering": 10502,
    "Ġonce": 1494,
    "reast": 17761,
    "Ġexert": 5722,
    "a": 69,
    "inquir": 9538,
    "Ġforegoing": 23451,
    "Ġdawn": 6817,
    "ale": 504,
    "bohemia": 20733,
    "Ġimpotent": 18447,
    "Ġoverdone": 22364,
    "bottom": 11429,
    "globe": 25145,
    "mortals": 25410,
    "fitting": 1511,
    "Ġsticking": 13431,
    "Ġradiance": 13375,
    "Ġyon": 9696,
    "Ġunlucky": 10053,
    "Ġclothes": 4995,
    "Ġpack": 5444,
    "Ġexamination": 8004,
    "Ġconnection": 5479,
    "hon": 6794,
    "arying": 9804,
    "Ġseap": 15821,
    "Ġmartha": 16265,
    "Ġbottom": 3674,
    "Ġsunset": 8965,
    "igation": 5919,
    "(_": 7539,
    "Ġclues": 18423,
    "unwilling": 14064,
    "aw": 1450,
    "Ġmasterless": 23999,
    "Ġnot": 413,
    "guess": 14765,
    "earn": 10698,
    "persuasion": 20046,
    "Ġsunrise": 9376,
    "Ġclaws": 15973,
    "Ġpressure": 13426,
    "bohem": 19002,
    "Ġeliza": 6437,
    "Ġrnns": 2395,
    "Ġknife": 7308,
    "inserted": 18889,
    "Ġtendinous": 16933,
    "elijah": 19476,
    "âĢĶ(": 15942,
    "Ġsearch": 2589,
    "sailing": 14718,
    "Ġexchange": 15760,
    "Ġcrutch": 23447,
    "alloyed": 22205,
    "Ġtapering": 8775,
    "tese": 21086,
    "Ġducks": 25161,
    "ateur": 22011,
    "Ġlieu": 19565,
    "quet": 6835,
    "icating": 15659,
    "Ġbeds": 14554,
    "Ġpainfully": 13146,
    "Ġvariation": 22668,
    "ieth": 10706,
    "Ġseethings": 26505,
    "Ġtroops": 24899,
    "Ġcover": 3557,
    "Ġcategorization": 12141,
    "Ġpredicts": 2593,
    "Ġfossil": 12391,
    "listened": 15047,
    "board": 3565,
    "Ġmor": 1251,
    "Ġalready": 2710,
    "nui": 21002,
    "Ġsharkish": 24507,
    "Ġflit": 23010,
    "Ġmartin": 25437,
    "Ġunited": 6841,
    "Ġessential": 7522,
    "immediate": 20096,
    "Ġbulldog": 23863,
    "Ġmetallic": 19059,
    "Ġunfinished": 19512,
    "Ġmanaging": 22329,
    "Ġcracking": 14576,
    "Ġnarwhale": 12297,
    "Ġvertical": 16606,
    "Ġhopeless": 7462,
    "Ġpatted": 16378,
    "creature": 5347,
    "aked": 2015,
    "Ġgarments": 15198,
    "gods": 13371,
    "Ġcus": 21346,
    "Ġdeprived": 8209,
    "Ġsubterr": 10351,
    "Ġportra": 9012,
    "ĠĠĠĠĠĠĠĠĠĠĠĠĠĠĠĠĠĠĠĠĠĠĠĠĠĠĠĠĠĠĠĠĠ": 12046,
    "Ġharshly": 25250,
    "Ġtren": 17723,
    "Ġwitt": 17786,
    "iracle": 11246,
    "sey": 5543,
    "happiness": 6469,
    "Ġvenerable": 9097,
    "situation": 11440,
    "Ġmonosy": 18847,
    "Ã¦us": 14820,
    "Ġreturn": 1710,
    "Ġhue": 8429,
    "Ġwhite": 1538,
    "Ġdisquiet": 18552,
    "Ġstamping": 20033,
    "cons": 4308,
    "mangled": 20983,
    "Ġcongratulate": 9066,
    "oned": 4630,
    "Ġopen": 1553,
    "Ġdragged": 6889,
    "Ġbefriend": 18085,
    "mare": 17601,
    "stiff": 12680,
    "Ġcaves": 15558,
    "Ġdisconsolate": 20721,
    "Ġvarying": 15814,
    "Ġcurious": 3360,
    "berwell": 22746,
    "b": 70,
    "prodigious": 17469,
    "Ë": 140,
    "Ġbremen": 23349,
    "americans": 25045,
    "Ġwitnessing": 19600,
    "Ġnibbling": 17388,
    "Ġtranslations": 12055,
    "Ġincompatible": 25681,
    "Ġstilly": 25974,
    "summoned": 26593,
    "Ġmanly": 22328,
    "Ġcomputing": 2220,
    "money": 8753,
    "Ġcomprehensive": 15092,
    "romang": 22010,
    "wind": 4251,
    "Ġpopularly": 12246,
    "Ġdropping": 7482,
    "lessness": 5318,
    "omn": 15686,
    "ustry": 18360,
    "Ġneural": 620,
    "Ġowning": 18746,
    "Ġcongregation": 12333,
    "pets": 17638,
    "bethink": 25745,
    "Ġbrooding": 18909,
    "ĠâĢľ_": 6698,
    "Ġoriginally": 7303,
    "Ġsucceed": 4544,
    "dischar": 19155,
    "Ġdinnertime": 16721,
    "bs": 3775,
    "Ġunsafe": 22045,
    "Ġstones": 9224,
    "Ġnational": 13945,
    "Ġlanterns": 24579,
    "Ġpeterson": 9485,
    "Ġshudderings": 25201,
    "Ġintegrated": 13534,
    "tor": 15435,
    "ateg": 1352,
    "Ġswept": 7977,
    "knowledge": 7477,
    "Ġorphans": 20206,
    "Ġsliding": 9366,
    "Ġbutterfly": 19910,
    "Ġsuccessful": 9926,
    "Ġchanged": 5243,
    "Ġprofited": 19194,
    "Ġcircumvent": 25067,
    "question": 5418,
    "Ġmail": 17803,
    "Ġprivileged": 20115,
    "Ġkneeling": 12147,
    "Ġlabel": 14520,
    "å": 166,
    "Ġaz": 9632,
    "lyph": 10854,
    "most": 1258,
    "Ġunprincipled": 20710,
    "Ġdigesting": 19811,
    "Ġexcavating": 23319,
    "Ġtransition": 14237,
    "acceptable": 25184,
    "orrowed": 19291,
    "ift": 1607,
    "Ġheedfully": 24522,
    "Ġpacket": 14897,
    "Ġplayful": 19238,
    "amous": 15765,
    "Ġfortun": 4980,
    "zealand": 26055,
    "Ġprincess": 23229,
    "Ġcreeping": 18683,
    "Ġinvested": 7278,
    "Ġtreacherous": 13558,
    "Ġlegal": 10441,
    "Ġvancouver": 26567,
    "master": 5687,
    "avoid": 9308,
    "<": 32,
    "Ġincreased": 2212,
    "olds": 9314,
    "Ġupdate": 2462,
    "mort": 10712,
    "Ġxvi": 19106,
    "lled": 10110,
    "Ġrooms": 5180,
    "ram": 13975,
    "causes": 20345,
    "Ġmorocco": 26575,
    "Ġunsettled": 14128,
    "Ġbrother": 2745,
    "icles": 17976,
    "Ġbasement": 24700,
    "terms": 15755,
    "Ġcows": 15557,
    "Ġgipsies": 12412,
    "Ġequivalent": 4801,
    "Ġdire": 863,
    "aning": 2254,
    "Ġsuits": 22092,
    "Ġranging": 8480,
    "Ġswerve": 14441,
    "follow": 5680,
    "Ġfountain": 7364,
    "Ķ": 247,
    "Ġwin": 9644,
    "Ġcham": 4891,
    "Ġmorality": 22977,
    "Ġscraped": 16905,
    "alo": 7587,
    "compared": 24037,
    "Ġcased": 21349,
    "Ġsummoned": 9914,
    "Ġusual": 3940,
    "Ġpersonages": 23543,
    "anatory": 21366,
    "orses": 6053,
    "Ġplunder": 22608,
    "Ġinsurmountable": 16532,
    "Ġmyster": 5927,
    "Ġtending": 17726,
    "Ġpleases": 16301,
    "driven": 19773,
    "Ġafternoon": 6054,
    "Ġfailing": 12142,
    "high": 6652,
    "Ġtying": 15476,
    "Ġloftiest": 16876,
    "Ġshavings": 14113,
    "Ġcommonplaces": 16292,
    "Ġzoology": 22825,
    "eness": 2291,
    "Ġgenerously": 22397,
    "umbers": 10920,
    "Ġagonized": 25373,
    "Ŀ": 256,
    "Ġchimneys": 16973,
    "Ġbespeaking": 26311,
    "Ġmoulded": 16976,
    "Ġtranslates": 12054,
    "gg": 1996,
    "Ġshaped": 15838,
    "Ġratt": 7880,
    "Ġglitter": 25126,
    "Ġmisty": 16542,
    "Ġloathed": 15879,
    "Ġinsomuch": 23683,
    "Ġincorporated": 25710,
    "servant": 15039,
    "Ġhandfuls": 17212,
    "Ġrespectful": 16348,
    "urously": 18054,
    "plutarch": 21962,
    "Ġwidest": 24238,
    "queens": 22900,
    "Ġishmael": 7394,
    "Ġstripping": 23696,
    "Ġear": 1424,
    "Ġcompany": 3721,
    "Ġuntrodden": 23524,
    "fired": 20862,
    "Ġharpooning": 23983,
    "Ġadjusting": 3412,
    "Ġinjuring": 24272,
    "hecy": 21209,
    "Ġacquaint": 13050,
    "Ġclient": 5556,
    "Ġreigns": 21674,
    "Åĵuvre": 25888,
    "ided": 2782,
    "Ġtr": 551,
    "ine": 406,
    "Ġork": 18285,
    "Ġruffled": 25837,
    "Ġhovel": 8253,
    "Ġflea": 23777,
    "oppressed": 24821,
    "construction": 19798,
    "Ġconclusions": 10556,
    "Ġseem": 912,
    "Ġembalmed": 13660,
    "Ġreasonably": 11093,
    "Ġmechanical": 7936,
    "Ġfalse": 4342,
    "ri": 389,
    "Ġtall": 4034,
    "Ġqueequeg": 2012,
    "Ġembra": 6580,
    "Ġblackstone": 23393,
    "decease": 25558,
    "Ġknows": 4159,
    "racted": 4775,
    "Ġsaturday": 6452,
    "Ġsmote": 18576,
    "Ġsurmised": 24920,
    "ckets": 6843,
    "Ġstruct": 787,
    "augh": 1783,
    "resum": 17764,
    "Ġseams": 12129,
    "rip": 9244,
    "say": 3979,
    "yra": 8102,
    "bore": 13690,
    "Ġslanting": 23178,
    "proble": 9396,
    "Ġsources": 10150,
    "Ġim": 475,
    "Ġsurvivor": 17366,
    "libr": 22927,
    "Ġdetest": 8502,
    "Ġpondering": 17007,
    "Ġfired": 16158,
    "Ġsulkily": 25882,
    "stating": 21650,
    "Ġcl": 552,
    "Ġinfidel": 13092,
    "heed": 15501,
    "nelson": 25621,
    "Ġmason": 10160,
    "Ġdescent": 1019,
    "verb": 10219,
    "Ġevenings": 18756,
    "Ġindulging": 16906,
    "Ġsolved": 8934,
    "Ġingenuity": 17166,
    "Ġaccount": 2320,
    "Ġultimate": 12353,
    "Ġmach": 13860,
    "Ġmoved": 4839,
    "Ġrevolved": 9987,
    "Ġaffidav": 18790,
    "omical": 9683,
    "Ġdry": 5624,
    "Ġtender": 5753,
    "evinced": 19927,
    "Ġtoll": 7851,
    "boy": 4737,
    "Ġergo": 25032,
    "Ġday": 956,
    "despond": 19802,
    "Ġcream": 22724,
    "Ġhideous": 5983,
    "mistake": 24530,
    "Ġdrugged": 12607,
    "minded": 9040,
    "ot": 346,
    "Ġunjust": 8485,
    "obey": 11513,
    "Ġworth": 4415,
    "Ġgreatest": 4092,
    "Ġrecital": 16152,
    "mosphere": 10046,
    "Ġepisode": 26349,
    "Ġjustly": 11909,
    "anced": 1356,
    "Ġsnatches": 16546,
    "Ġpockets": 8900,
    "unted": 6999,
    "Ġoutput": 928,
    "escaped": 14234,
    "Ġstanding": 2998,
    "brown": 15321,
    "Ġunthinkingly": 26222,
    "Ġhanged": 17928,
    "Ġothers": 2582,
    "Ġfurs": 18741,
    "heeded": 13837,
    "Ġmistake": 6205,
    "liking": 22928,
    "Ġsanguine": 25929,
    "Ġcreep": 22725,
    "conversation": 7123,
    "moment": 3578,
    "Ġmeanness": 22602,
    "wheel": 22872,
    "Ġinsince": 23679,
    "Ġdenial": 13218,
    "Ġmines": 21311,
    "Ġworsted": 19997,
    "Ġbohem": 8528,
    "Ġassurances": 10003,
    "Ġbash": 12591,
    "Ġthackeray": 26457,
    "Ġis": 347,
    "Ġcoloured": 11047,
    "Ġswiftly": 5670,
    "bons": 17489,
    "Ġapartments": 19616,
    "Ġprovoking": 16745,
    "Ġgnawed": 25168,
    "Ġsizes": 1521,
    "xim": 1093,
    "sacrifice": 13496,
    "Ġwar": 5526,
    "Ġsent": 1776,
    "Ġbelly": 10372,
    "Ġcontour": 18474,
    "ia": 1259,
    "Ġshriek": 6640,
    "Ġreleased": 2976,
    "Ġcigar": 9547,
    "Ġtangled": 13830,
    "Ġenjoying": 11237,
    "Ġunflinching": 26514,
    "icle": 10836,
    "Ġaries": 21200,
    "Ġremembr": 24173,
    "Ġcourtship": 24139,
    "Ġsnug": 8279,
    "anelles": 26436,
    "dashed": 12460,
    "Ġexclusiveness": 23932,
    "inctions": 17734,
    "Ġshirt": 8853,
    "Ġconsequently": 8059,
    "Ġclutching": 24954,
    "harpoon": 9493,
    "Ġemployed": 5200,
    "âĢĿ)": 21815,
    "Ġconvergence": 975,
    "ga": 17552,
    "health": 13836,
    "Ġannum": 24207,
    "Ġsoil": 9258,
    "Ġstoop": 16313,
    "renewed": 19706,
    "Ġdilated": 24702,
    "Ġbundle": 13430,
    "Ġveritable": 19384,
    "Ġdiscretion": 10350,
    "Ġadventurous": 16735,
    "Ġhave": 443,
    "Ġinmost": 17934,
    "Ġas": 374,
    "accepting": 20137,
    "finds": 19928,
    "itatingly": 25278,
    "Ġcreat": 1421,
    "Ġprofoundly": 16861,
    "Ġmonoton": 3637,
    "Ġpainting": 13145,
    "Ġadvantages": 9814,
    "Ġcan": 469,
    "bl": 4141,
    "lemagne": 26438,
    "Ġdost": 7636,
    "icular": 2023,
    "Ġ74": 24265,
    "Ġdeser": 3884,
    "Ġpilot": 5985,
    "##": 2316,
    "Ġxxiv": 24478,
    "Ġcircumstance": 4985,
    "ut": 308,
    "powder": 17647,
    "Ġstubborn": 10418,
    "Ġtransfer": 2195,
    "ineering": 21986,
    "Ġperformer": 18757,
    "Ġdishonoured": 20393,
    "Ġchoked": 9267,
    "continu": 5501,
    "Ġheathen": 10568,
    "pulled": 25148,
    "Ġoccurrences": 11052,
    "garden": 15029,
    "Ġfills": 12599,
    "Ġvehicles": 10662,
    "Ġclean": 5652,
    "Ġairth": 23322,
    "âĢĻâĢĶ": 12741,
    "Ġwarriors": 19725,
    "Ġsearched": 15823,
    "Ġmadden": 10449,
    "infernal": 24664,
    "Ġprotruding": 16661,
    "inclined": 10642,
    "Ġderision": 16312,
    "Ġresounds": 22546,
    "conceivable": 17133,
    "Ġbrooks": 25701,
    "Ġsooty": 25816,
    "Ġstacks": 18078,
    "Ġindisc": 16232,
    "Ġvivacious": 19817,
    "arbuck": 2026,
    "ue": 1178,
    "Ġpythag": 26450,
    "Ġbeneficial": 23935,
    "Ġspeedily": 7711,
    "Ġaccompanied": 6781,
    "marked": 9051,
    "Ġcaged": 21355,
    "izings": 14054,
    "myster": 16266,
    "acceptance": 25185,
    "Ġscept": 15506,
    "Ġboarders": 16602,
    "Ġsymmet": 11752,
    "Ġbristling": 20530,
    "Ġhum": 1099,
    "Ġgaieties": 24199,
    "Ġspeaks": 11161,
    "Ġcrow": 3804,
    "bour": 2072,
    "Ġdoctrine": 24201,
    "Ġconfines": 23309,
    "walk": 5523,
    "Ġfootfall": 14664,
    "Ġnewcomers": 26042,
    "ĠcÃ¦sar": 20583,
    "Ġsal": 3935,
    "Ġholds": 7975,
    "Ġtrooped": 24900,
    "Ġsting": 10863,
    "Ġpart": 858,
    "Ġalacrity": 15741,
    "Ġsuperlative": 26075,
    "Ġtouched": 6001,
    "imen": 12691,
    "courage": 17512,
    "Ġwester": 25156,
    "Ġdelicately": 24129,
    "Ġdirt": 15598,
    "Ġnuptials": 20496,
    "despatched": 19803,
    "oldened": 22643,
    "Ġsales": 12812,
    "Ġpenetration": 19918,
    "usoid": 4766,
    "goodness": 19290,
    "skull": 24489,
    "Ġthankful": 14742,
    "accursed": 20543,
    "Ġimputed": 12813,
    "](": 11469,
    "Ġmolasses": 25629,
    "rog": 15644,
    "Ġcondensed": 24056,
    "actually": 14301,
    "Ġconsecrate": 26491,
    "somebody": 14568,
    "dock": 16422,
    "Ġherd": 7887,
    "Ġbabies": 19694,
    "assuming": 22314,
    "Ġembedding": 2102,
    "Ġpaws": 13924,
    "Ġabsorb": 25115,
    "Ġconsiderable": 4001,
    "Ġgrounds": 6751,
    "straw": 24099,
    "Ġreminisc": 18726,
    "Ġapproach": 834,
    "--âĢľ": 12977,
    "build": 12192,
    "Ġaction": 5797,
    "Ġmyth": 18222,
    "kine": 15379,
    "Ġnameless": 7699,
    "Ġgiver": 21608,
    "Ġsher": 3763,
    "Ġlabyrinth": 13683,
    "invest": 11563,
    "eration": 10774,
    "dman": 10091,
    "Ġdint": 15595,
    "illation": 14145,
    "Ġeh": 6988,
    "Ġundecided": 22052,
    "Ġrobots": 11085,
    "laugh": 10111,
    "repaid": 24492,
    "Ġconnivance": 25226,
    "Ġere": 3685,
    "Ġmaps": 2962,
    "americ": 8155,
    "Ġcetus": 19886,
    "Ġterra": 13121,
    "Ġcalculating": 9928,
    "cl": 1496,
    "Ġmilan": 19538,
    "Ġentail": 9795,
    "Ġpauses": 14818,
    "terr": 8153,
    "Ġunallied": 22036,
    "bushes": 24448,
    "Ġir": 1991,
    "Ġcrossed": 6070,
    "Ġtrans": 636,
    "grave": 16098,
    "alvan": 21507,
    "unken": 10239,
    "Ġabrid": 22276,
    "Ġregrets": 18602,
    "oward": 6021,
    "Ġsleepers": 13153,
    "Ġparticularly": 5055,
    "sided": 17666,
    "preference": 22471,
    "Ġhurricane": 16434,
    "Ġsteeple": 19289,
    "Ġpharaoh": 26587,
    "bringing": 17169,
    "Ġpest": 13916,
    "Ġspas": 10924,
    "expectant": 24279,
    "Ġerrors": 2595,
    "Ġregarded": 5762,
    "Ġder": 1501,
    "dearest": 11740,
    "Ġrack": 9315,
    "supposing": 24138,
    "Ġplague": 11829,
    "Ġhunch": 18937,
    "Ġscrew": 8872,
    "Ġboundless": 10498,
    "Ġincarnation": 25574,
    "Ġatrocious": 21948,
    "specim": 23948,
    "destiny": 16701,
    "Ġnavel": 24578,
    "Ġtelescope": 17351,
    "Ġraiment": 22660,
    "Ġpod": 15608,
    "insensibility": 23074,
    "steam": 23964,
    "teak": 22821,
    "Ġsidel": 9638,
    "Ġofficially": 24839,
    "Ġdwelling": 7321,
    "address": 14885,
    "anges": 1674,
    "Ġlengthened": 25959,
    "fail": 17542,
    "Ġwatching": 4854,
    "sides": 12512,
    "Ġsoliloqu": 11890,
    "tattoo": 21090,
    "Ġdramatic": 4850,
    "Ġsuffered": 5649,
    "tolerably": 21098,
    "ais": 8070,
    "revealed": 20418,
    "Ġsenor": 20152,
    "Ġrelations": 5854,
    "Ġcrushing": 20178,
    "apt": 731,
    "Ġrelated": 3715,
    "rin": 10124,
    "amaz": 21848,
    "Ġswamp": 14440,
    "ization": 486,
    "Ġcolder": 22855,
    "Ġattended": 5391,
    "Ġexceeded": 14437,
    "Ġwriters": 13546,
    "loaded": 22515,
    "ĠĠĠĠĠĠĠĠĠĠĠĠ": 12908,
    "umbling": 6613,
    "frame": 17117,
    "Ġrending": 19470,
    "Ġwon": 1664,
    "iteous": 14268,
    "Ġaqu": 17745,
    "sprinkling": 24913,
    "Ġchas": 18380,
    "Ġimag": 2672,
    "covenant": 23565,
    "Ġopposing": 12044,
    "Ġsecret": 3720,
    "ellations": 21949,
    "Ġcuts": 14610,
    "incredible": 16500,
    "Ġourselves": 5126,
    "Ġthirt": 13942,
    "Ġcried": 1490,
    "umes": 10919,
    "clopÃ¦": 13061,
    "Ġdisse": 18548,
    "Ġfixing": 13160,
    "elag": 12663,
    "Ġblessings": 24179,
    "Ġproverb": 12721,
    "Ġascent": 19620,
    "Ġclair": 6271,
    "Ġencourag": 1396,
    "Ġdefile": 18825,
    "Ġcaulk": 25441,
    "Ġbranded": 14383,
    "rigible": 24932,
    "Ġintruder": 25992,
    "Ġrickety": 26507,
    "Ġcovering": 13260,
    "Ġaccept": 4409,
    "Ġstraps": 19312,
    "Ġbunch": 11328,
    "Ġsnaky": 23745,
    "Ġinstinctively": 13463,
    "Ġinflamed": 13477,
    "equ": 6791,
    "Ġcontinuation": 22921,
    "Ġseventeen": 26212,
    "Ġgods": 6454,
    "Ġplane": 11828,
    "shroud": 20314,
    "Ġdecided": 5471,
    "original": 9088,
    "Ġvector": 1971,
    "atory": 6127,
    "Ġpermit": 9752,
    "rol": 5713,
    "win": 6802,
    "ĠĠĠĠĠĠĠĠĠĠĠĠĠĠĠĠ": 1223,
    "Ġvexations": 24607,
    "Ġhemp": 9218,
    "Ġaccumul": 1413,
    "ought": 830,
    "Ġabuse": 18393,
    "caterpillar": 26385,
    "Ġcircumspection": 25885,
    "forced": 11033,
    "Ġbodings": 21394,
    "Ġcharming": 6631,
    "Ġfishe": 15590,
    "Ġdearly": 10404,
    "Ġspe": 821,
    "scans": 22993,
    "lad": 5992,
    "atical": 10773,
    "wander": 17711,
    "Ġstim": 18067,
    "Ġexcuses": 19041,
    "osition": 1375,
    "Ġobjective": 3765,
    "unnecessary": 21885,
    "Ġmoody": 8200,
    "Ġpostp": 12148,
    "wheels": 14385,
    "belong": 12127,
    "Ġexpatiate": 18627,
    "Ġth": 299,
    "Ġgazette": 19504,
    "Ġfire": 2332,
    "Ġerroneous": 17412,
    "Ġstochastic": 3266,
    "Ġimprecations": 25821,
    "Ġcoleridge": 18769,
    "âĢĿ--": 21817,
    "Ġpow": 4637,
    "Ġcord": 5222,
    "Ġtalk": 1969,
    "prison": 14666,
    "Ġlaud": 17971,
    "Ġwoman": 2386,
    "tables": 19759,
    "Ġcommanders": 23872,
    "Ġenriched": 26501,
    "Ġhercules": 14131,
    "plied": 10257,
    "ement": 1504,
    "dem": 10695,
    "Ġ126": 24472,
    "Ġ120": 16860,
    "Ġsymptoms": 8708,
    "Ġshrubbery": 18234,
    "Ġadviser": 25313,
    "Ġvoyages": 6908,
    "Ġashen": 21904,
    "oro": 21398,
    "Ġsemblance": 20736,
    "Ġmutilated": 23963,
    "Ġcons": 953,
    "invari": 21187,
    "omed": 13978,
    "Ġdisaster": 12892,
    "Â£": 4811,
    "state": 13982,
    "Ġano": 11600,
    "idirection": 2411,
    "Ġscramble": 24580,
    "Ġpiazza": 26452,
    "words": 7982,
    "atherine": 2594,
    "Ġincredible": 9517,
    "ratulations": 20128,
    "Ġnecessity": 7295,
    "Ġoutskirts": 17460,
    "trial": 20352,
    "ium": 4863,
    "Ġlouisa": 13549,
    "Ġeffectually": 16171,
    "Ġfem": 6136,
    "Ġtheoretically": 3566,
    "Ġbrim": 12982,
    "variety": 23191,
    "Ġthree": 1372,
    "Ġgaiety": 16751,
    "Ġremember": 2675,
    "Ġbarriers": 23798,
    "Ġpot": 2989,
    "Ġfurled": 22818,
    "crowd": 25255,
    "gin": 4929,
    "Ġpeep": 6870,
    "will": 1968,
    "Ġrevolutions": 23846,
    "partly": 14605,
    "Ġtambourine": 9566,
    "Ġdaily": 5987,
    "Ġdisobedience": 22539,
    "Ġrush": 5926,
    "12": 20751,
    "Ġforbe": 8458,
    "undertaking": 23791,
    "Ġreading": 5113,
    "contented": 14637,
    "Ġthoughts": 3135,
    "Ġforget": 2632,
    "Ġdropt": 23676,
    "verted": 10220,
    "Ġexterior": 19990,
    "Ġfiles": 21416,
    "Ġdeserves": 13294,
    "petulance": 24302,
    "Ġpredecessor": 26255,
    "Ġveracity": 23893,
    "Ġbutton": 10269,
    "Ġrobert": 10972,
    "fine": 10093,
    "Ġslackened": 15131,
    "Ġexertions": 13414,
    "Ġeducation": 5127,
    "Ġturtle": 4203,
    "ashion": 3857,
    "amidst": 25653,
    "Ġtongues": 14867,
    "Ġdemi": 25549,
    "Ġcapstan": 9102,
    "Ġdev": 884,
    "Ġprayer": 16669,
    "than": 4087,
    "oves": 15406,
    "Ġobligations": 12097,
    "Ġdefendants": 15145,
    "Ġmitig": 1335,
    "Ġrats": 21978,
    "thro": 12766,
    "aye": 3660,
    "Ġoper": 2119,
    "Ġinferred": 14504,
    "gale": 13726,
    "Ġyear": 3286,
    "Ġchaldee": 26236,
    "Ġimpertinent": 9080,
    "Ġorange": 8488,
    "Ġelephants": 9867,
    "Ġvastly": 23864,
    "har": 20892,
    "Ġcalamities": 25700,
    "Ġcolle": 8927,
    "Ġindirect": 18837,
    "rative": 17654,
    "Ġignominy": 15090,
    "ering": 1267,
    "Ġuncont": 14121,
    "thur": 7187,
    "short": 6567,
    "Ġferrule": 24501,
    "Ġundeserving": 18272,
    "landish": 11946,
    "Ġpie": 13918,
    "soever": 11864,
    "accident": 11184,
    "Ġineffable": 17335,
    "Ġpositively": 13036,
    "Ġtea": 5040,
    "Ġagile": 22516,
    "Ġtelegra": 11896,
    "Ġunansw": 22062,
    "Ġbarrowful": 25596,
    "Ġsymmetry": 20368,
    "mistress": 14909,
    "Ġcomprehens": 8319,
    "tles": 10732,
    "pense": 10371,
    "gu": 3953,
    "Ġdeserving": 14757,
    "previously": 17210,
    "Ġingrat": 16842,
    "Ġenvelop": 5587,
    "Ġstains": 21745,
    "Ġworse": 4718,
    "Ġrole": 16001,
    "Ġofficers": 4424,
    "description": 11096,
    "kovoko": 20672,
    "Ġgoose": 5939,
    "oled": 17621,
    "Ġgild": 15673,
    "inging": 5908,
    "lust": 15383,
    "isf": 2434,
    "Ġtoilet": 13940,
    "Ġmaintenance": 17464,
    "Ġemployments": 12107,
    "darted": 20834,
    "rived": 5373,
    "priv": 9622,
    "darcy": 5208,
    "Ġintricate": 15142,
    "Ġinstituted": 18695,
    "giv": 13725,
    "thee": 9693,
    "things": 6033,
    "sebastian": 21824,
    "Ġrecklessly": 16984,
    "barbs": 20239,
    "Ġaspect": 3094,
    "Ġpuffs": 14979,
    "Ġflavor": 16254,
    "fol": 4861,
    "knives": 14917,
    "sleeping": 13458,
    "Ġproblems": 2845,
    "Ġcircling": 19094,
    "aby": 18110,
    "ney": 2491,
    "sculpt": 16248,
    "acey": 7649,
    "ele": 9117,
    "inger": 6813,
    "Ġovertaken": 18430,
    "Ġpainted": 7978,
    "Ġglove": 14494,
    "Ġlocket": 22117,
    "blister": 24131,
    "Ġket": 18348,
    "scept": 21056,
    "Ġaffected": 5577,
    "Ġrashness": 25461,
    "Ġunfaltering": 24115,
    "âĢľâĢĶ": 10874,
    "pursu": 11395,
    "Ġjoyously": 19350,
    "cri": 17508,
    "Ġsage": 17755,
    "Ġwonders": 7499,
    "cloudless": 20334,
    "Ġunequal": 14846,
    "Ġcalmness": 12098,
    "Ġbony": 12592,
    "Ġpad": 8124,
    "onden": 13847,
    "Ġirreproachable": 24918,
    "Ġpreach": 14176,
    "itating": 9653,
    "Ġguineas": 16273,
    "acles": 8520,
    "30": 20756,
    "Ġmended": 21316,
    "Ġnearing": 15800,
    "Ġfancying": 12117,
    "Ġmorphology": 3010,
    "distrustful": 26332,
    "insurance": 18890,
    "poky": 17646,
    "Ġinqu": 2964,
    "Ġdiabolically": 25514,
    "interval": 7990,
    "Ġforgery": 25978,
    "Ġaudacious": 13464,
    "Ġinstability": 3812,
    "Ġperceive": 6701,
    "Ġhelmeted": 19690,
    "Ġparacelsus": 15270,
    "Ġcontinually": 5041,
    "Ġoblique": 20171,
    "Ġdemonstrate": 24997,
    "writ": 16556,
    "Ġoffences": 18689,
    "Ġbreadth": 10566,
    "adventure": 17236,
    "mouth": 9133,
    "Ġbaltic": 18796,
    "Ġwronged": 24251,
    "Ġstatement": 5255,
    "Ġprized": 23226,
    "Ġgloomy": 7503,
    "gro": 10097,
    "Ġbes": 2658,
    "Ġorders": 5341,
    "Ġsurrounds": 24235,
    "Ġdiver": 2527,
    "Ġeffeminacy": 20720,
    "foremost": 14256,
    "turned": 7305,
    "Ġcheshire": 13094,
    "Ġmeetings": 16533,
    "escript": 18477,
    "Ġmoral": 6581,
    "Ġdreary": 10410,
    "Ġnarr": 5084,
    "Ġsimilarly": 24311,
    "Ġtailed": 21171,
    "Ġbeck": 14012,
    "Ġbier": 22773,
    "ilations": 21725,
    "introduced": 15129,
    "Ġcolonel": 3407,
    "cheeked": 19342,
    "osures": 22265,
    "Ġhuman": 1318,
    "Ġaffectation": 14445,
    "Ġbegging": 11081,
    "Ġsurely": 6308,
    "gely": 10702,
    "Ġconvulsive": 19309,
    "mutually": 26137,
    "Ġbeggars": 20632,
    "Ġsurpr": 2549,
    "Ġblending": 14404,
    "Ġseptember": 18209,
    "Ġpersuading": 19413,
    "Ġal": 342,
    "Ġdissip": 10994,
    "while": 2932,
    "search": 8466,
    "city": 15330,
    "hearts": 13349,
    "qu": 368,
    "Ġhire": 21488,
    "Ġwoodlands": 23523,
    "ologies": 18774,
    "Ġdeliver": 9851,
    "sticking": 21663,
    "Ġroads": 13293,
    "Ġgrego": 18962,
    "Ġneville": 7398,
    "wish": 8099,
    "ethics": 8881,
    "singing": 24364,
    "Ġfortitude": 9888,
    "dl": 20825,
    "Ġmisfortune": 5569,
    "Ġsplitting": 4382,
    "Ġliar": 22412,
    "Ġplacid": 11831,
    "Ġcreature": 2383,
    "Ġresign": 18564,
    "Ġrick": 21975,
    "Ġprovide": 7749,
    "data": 2205,
    "eling": 6683,
    "fear": 8515,
    "Ġlaboratory": 13616,
    "five": 6357,
    "Ġassid": 18947,
    "chat": 21689,
    "Ġslow": 2379,
    "Ġrever": 6537,
    "Ġnatur": 17337,
    "appo": 3911,
    "peaceful": 20449,
    "dragged": 16610,
    "this": 1441,
    "Ġinsens": 8276,
    "Ġsupple": 23003,
    "folly": 20864,
    "Ġexhaust": 6399,
    "Ġhogshe": 20494,
    "ested": 3478,
    "Ġdesmarest": 22980,
    "Ġenric": 21939,
    "lucases": 20212,
    "belled": 24040,
    "Ġreplen": 11116,
    "hered": 5623,
    "till": 6966,
    "Ġtroubling": 26548,
    "Ġrascal": 11706,
    "âĢľâĢĻ": 10224,
    "Ġpiqu": 21479,
    "patched": 17645,
    "Ġfly": 3867,
    "disputed": 23503,
    "Ġdiffers": 23785,
    "Ġ87": 19712,
    "ibly": 2995,
    "Ġassembl": 20063,
    "Ġillum": 9402,
    "erie": 21274,
    "Ġharness": 17931,
    "overfitting": 13105,
    "Ġcanal": 8181,
    "Ġbass": 17858,
    "rie": 2784,
    "ssible": 2991,
    "Ġhills": 6527,
    "Ġlakeman": 6987,
    "Ġsorts": 6887,
    "Ġcalcul": 3638,
    "Ġve": 1108,
    "Ġperilous": 7768,
    "Ġtinge": 25090,
    "Ġtot": 4185,
    "Ġpenny": 16316,
    "Ġmamma": 10051,
    "scr": 16245,
    "foreign": 18544,
    "neighbourhood": 10028,
    "Ġpanted": 21474,
    "sw": 4740,
    "Ġsuccess": 3609,
    "Ġfelony": 18954,
    "asse": 15649,
    "sip": 10727,
    "Ġunidirectional": 3424,
    "Ġhumming": 12991,
    "coil": 23562,
    "Ġmanual": 14201,
    "Ġ15": 9327,
    "Ġendeavor": 16548,
    "Ġreliable": 18778,
    "Ġwaldman": 11347,
    "ivered": 7007,
    "Ġplaid": 22606,
    "venth": 9298,
    "deserted": 19344,
    "Ġequally": 5258,
    "Ġperturbation": 20443,
    "thest": 11658,
    "Ġperpet": 7644,
    "Ġdropped": 4471,
    "Ġappet": 9733,
    "mews": 22719,
    "Ġexhibited": 9546,
    "han": 12477,
    "strate": 12679,
    "ogne": 12945,
    "Ġlandsman": 11353,
    "Ġbracelets": 25503,
    "yp": 1044,
    "Ġdowry": 20688,
    "Ġmetaphys": 16396,
    "conditional": 9081,
    "secret": 12241,
    "Ġsolemnisation": 24117,
    "supposed": 13320,
    "Ġtrampled": 20330,
    "rades": 8592,
    "Ġimpressions": 9555,
    "isely": 4488,
    "Ġconfronted": 23312,
    "waiting": 12225,
    "Ġopens": 23629,
    "amplified": 26496,
    "Ġwait": 4906,
    "luent": 16000,
    "Ġarchitects": 18735,
    "load": 12886,
    "honey": 20907,
    "Ġdines": 21426,
    "Ġprecautions": 23730,
    "Ġriots": 23896,
    "Ġbeloved": 5572,
    "Ġgot": 2281,
    "broker": 13309,
    "Ġinjunctions": 24273,
    "vii": 13152,
    "Ġrind": 21974,
    "Ġdance": 4441,
    "Ġjon": 15947,
    "Ġlabours": 8585,
    "arrange": 23770,
    "Ġdisappointing": 19581,
    "Ġceremony": 8360,
    "iries": 18173,
    ".âĢĻ": 1718,
    "Ġspiracle": 14153,
    "Ġvillain": 8639,
    "Ġdemoniac": 15069,
    "remem": 13072,
    "murdered": 12207,
    "Ġtheoretic": 23315,
    "Ġspot": 4154,
    "gence": 875,
    "Ġafloat": 9311,
    "influences": 25251,
    "Ġaffections": 10387,
    "iqu": 7802,
    "Ġmister": 22767,
    "Ġthundering": 24294,
    "swallowed": 14857,
    "blind": 16704,
    "Ġjackal": 24243,
    "quiet": 6156,
    "amb": 5723,
    "Ġsentry": 19025,
    "Ġworked": 6585,
    "tar": 8097,
    "Ġvalidate": 3188,
    "Ġincorrect": 2726,
    "Ġreduce": 7942,
    "Ġmeekly": 26492,
    "Ġplant": 8903,
    "silver": 19692,
    "Ġfam": 1586,
    "two": 3858,
    "consolatory": 25307,
    "Ġopp": 2693,
    "Ġterritories": 23850,
    "Ġheaved": 9386,
    "Ġurgent": 16871,
    "assured": 10954,
    "Ġclothe": 4711,
    "Ġgasp": 7172,
    "Ġspared": 7892,
    "lascar": 20962,
    "Ġnetworks": 596,
    "Ġmeridian": 25713,
    "Ġbottle": 7489,
    "Ġmilky": 9950,
    "Ġweaving": 12745,
    "Ġmundane": 26431,
    "ilder": 15717,
    "Ġchristian": 6479,
    "iability": 20922,
    "appearing": 14640,
    "st": 316,
    "Ġtickled": 20059,
    "Ġuncertain": 4065,
    "Ġdiscrete": 2475,
    "Ġerr": 1321,
    "Ġcrisp": 12007,
    "seeing": 7079,
    "Ġtaffrail": 15479,
    "mud": 20973,
    "zy": 2667,
    "Ġtilted": 20415,
    "Ġreiter": 21669,
    "Ġaffair": 4462,
    "Ġwhipping": 21719,
    "Ġlandlessness": 23384,
    "Ġell": 17717,
    "Ġfoam": 6891,
    "Ġreplacing": 3448,
    "Ġnecessitates": 23934,
    "ĠâĢľâĢĺ_": 25114,
    "Ġfright": 3796,
    "obst": 23098,
    "rade": 9682,
    "Ġacquaintance": 4132,
    "Ġhymn": 24519,
    "gravel": 22622,
    "marching": 25753,
    "collected": 13217,
    "et": 307,
    "dough": 15338,
    "Ġrank": 6260,
    "Ġmortar": 19396,
    "Ġpractises": 23325,
    "ancing": 1760,
    "âĢľ_": 5720,
    "Ġbowed": 6244,
    "Ġunaccountable": 7886,
    "dr": 6223,
    "Ġ/*": 10142,
    "chose": 18044,
    "ilet": 12834,
    "bidden": 19739,
    "Ġdoub": 1837,
    "Ġ90": 24590,
    "emotion": 21935,
    "Ġsperm": 1844,
    "half": 4930,
    "Ġcriminals": 19923,
    "Ġwhisker": 23939,
    "shoe": 14970,
    "Ġscales": 4849,
    "ront": 15421,
    "moby": 8538,
    "delights": 19703,
    "Ġwhoever": 10977,
    "Ġforging": 18097,
    "Ġlist": 2365,
    "Ġnantucket": 2836,
    "repeat": 25155,
    "Ġgin": 13964,
    "rev": 17759,
    "sus": 6230,
    "Ġoutrage": 15962,
    "Ġgrounded": 23712,
    "Ġtwitched": 20446,
    "ract": 1029,
    "Ġsuccor": 25663,
    "oman": 2018,
    "tery": 14040,
    "etime": 12664,
    "breeding": 16677,
    "peasant": 23116,
    "Ġmary": 3842,
    "Ġdignity": 5704,
    "frightened": 17198,
    "sery": 17663,
    "Ġsacrilege": 26230,
    "Ġhoriz": 4725,
    "Ġtottenham": 24146,
    "Ġcottagers": 6762,
    "cupboards": 25402,
    "Ġvainly": 9927,
    "feather": 16047,
    "Ġschedules": 3385,
    "Ġsan": 7823,
    "Ġincommod": 25308,
    "Ġlip": 6533,
    "Ġexpecting": 10438,
    "vine": 10736,
    "Ġintensified": 17020,
    "Ġfingers": 5672,
    "iarity": 8747,
    "Ġoutside": 5554,
    "Ġsleek": 23388,
    "shortened": 24746,
    "zz": 4293,
    "Ġencirc": 18731,
    "events": 12321,
    "Ġadult": 18290,
    "dece": 11739,
    "âĢĻ,": 14073,
    "Ġunprovided": 18265,
    "alarms": 21508,
    "listen": 13517,
    "Ġcomplaisance": 19452,
    "Ġforetold": 23453,
    "Ġlayer": 1011,
    "Ġmakes": 3652,
    "Ġbath": 9661,
    "Ġprofounder": 23572,
    "Ġlucy": 17973,
    "Ġmah": 15545,
    "fering": 17544,
    "speptic": 23950,
    "Ġenjoyment": 7299,
    "Ġdisplayed": 10611,
    "rict": 8092,
    "Ġsafe": 5102,
    "usable": 22283,
    "Ġtestimony": 14473,
    "Ġclose": 3037,
    "Ġpatient": 6894,
    "Ġdarling": 12609,
    "Ġregression": 4408,
    "Ġstudying": 9847,
    "Ġdutch": 6328,
    "Ġmaintain": 855,
    "Ġseasonable": 24407,
    "independ": 15985,
    "Ġmasked": 3694,
    "Ġmanip": 8875,
    "Ġ63": 24367,
    "Ġuncontrollable": 25815,
    "Ġdistrict": 10321,
    "Ġselfishness": 12293,
    "Ġwicked": 5961,
    "Ġmoving": 1677,
    "bulkington": 19926,
    "specimen": 26607,
    "autions": 20769,
    "despairing": 25077,
    "rael": 21632,
    "Ġgroaned": 11269,
    "ouble": 2659,
    "Ġchristianity": 19861,
    "ocity": 8277,
    "kitty": 10108,
    "osure": 5308,
    "Ġlabyrin": 13109,
    "voyages": 24856,
    "Ġunharmed": 15144,
    "Ġwilful": 10537,
    "Ġimpersonal": 17399,
    "obtained": 23101,
    "Ġcalamity": 17352,
    "par": 1835,
    "Ġmodest": 15920,
    "Ġphilosop": 5056,
    "Ġfastidious": 14495,
    "Ġnoteworthy": 24166,
    "Ġmuse": 13863,
    "Ġsitting": 3604,
    "carpet": 25203,
    "Ġfairest": 20465,
    "ption": 7397,
    "Ġscore": 9741,
    "Ġreligion": 11418,
    "Ġdeportment": 22601,
    "eries": 6809,
    "Ġmodified": 14172,
    "Ġchagrin": 20610,
    "Ġdetermination": 9822,
    "Ġvoyager": 16514,
    "Ġsubmerged": 11877,
    "Ġannounced": 9037,
    "bes": 6644,
    "Ġimputable": 22177,
    "Ġcontinu": 1164,
    "Ġjour": 11768,
    "tea": 18743,
    "Ġstruggling": 12079,
    "succeed": 10332,
    "etimes": 1986,
    "Ġnoticed": 5549,
    "osite": 4892,
    "Ġpea": 14321,
    "âĢĶâĢĻâĢĿ": 20066,
    "Ġfood": 5079,
    "Ġcurling": 9346,
    "cellar": 20279,
    "Ġdiscredit": 22786,
    "Ġunluck": 8486,
    "entimes": 12661,
    "exactly": 10639,
    "espe": 3498,
    "Ġnarrower": 24355,
    "rey": 12543,
    "persu": 8027,
    "Ġbranch": 8331,
    "Ġdefinition": 14408,
    "Ġjokes": 18404,
    "Ġw": 272,
    "Ġtwelfth": 22681,
    "taking": 5689,
    "Ġminimizes": 2047,
    "Ġmariner": 7246,
    "agged": 9240,
    "wic": 21123,
    "Ġreplace": 14481,
    "Ġgaol": 19569,
    "Ġcentrally": 23836,
    "vision": 5620,
    "Ġunpardonable": 22066,
    "Ġreeling": 18036,
    "Ġforcibly": 10064,
    "inite": 6002,
    "Ġchamber": 6215,
    "Ġward": 10158,
    "ally": 530,
    "import": 5668,
    "terrible": 8467,
    "n": 82,
    "twain": 23700,
    "etch": 9207,
    "Ġsinful": 18951,
    "Ġseparately": 13307,
    "Ġallies": 18236,
    "Ġact": 689,
    "cask": 12451,
    "Ġaloof": 21789,
    "Ġbathe": 25444,
    "Ġwhale": 628,
    "rics": 13043,
    "comfort": 5647,
    "itates": 13872,
    "Ġdestro": 3722,
    "Ġpointed": 4772,
    "Ġwrenched": 12563,
    "Ġencapsulate": 13678,
    "soundest": 24796,
    "owing": 7601,
    "Ġhagger": 21494,
    "apologizing": 26546,
    "Ġbedrooms": 19972,
    "ienced": 5685,
    "Ġblot": 9815,
    "varying": 13807,
    "Ġpresto": 22234,
    "Ġalleviated": 26205,
    "Ġchairs": 12831,
    "swift": 14856,
    "chain": 18043,
    "Ġmelting": 24291,
    "odhead": 18124,
    "Ġeucl": 24707,
    "Ġdut": 2987,
    "Ġdifficulty": 5770,
    "Ġtows": 19563,
    "taller": 26151,
    "Ġberkshire": 16886,
    "?âĢĿâĢĶ": 12903,
    "children": 9058,
    "Ġthreshold": 2805,
    "ival": 4226,
    "Ġscrupulous": 20071,
    "Ġweigh": 10895,
    "sensible": 20054,
    "frequently": 9982,
    "shattered": 22463,
    "Ġbefall": 8833,
    "Ġstoke": 10398,
    "corn": 13703,
    "jected": 22714,
    "heidelburgh": 21214,
    "Ġpup": 12624,
    "Ġtreacherously": 25132,
    "Ġmill": 6669,
    "Ġfid": 10805,
    "Ġbarren": 11209,
    "Ġpoker": 13925,
    "Ġjustinian": 22973,
    "Ġluxur": 12345,
    "Ġgunw": 6214,
    "Ġhorse": 4724,
    "Ġwinged": 16997,
    "Ġgrosvenor": 17421,
    "Ġrabbit": 4289,
    "Ġdang": 9177,
    "Ġstrangely": 5677,
    "ifts": 12740,
    "Ġdid": 835,
    "Ġwisdom": 11236,
    "Ġstaid": 21739,
    "Ġdevotion": 22723,
    "suspect": 9542,
    "deep": 1048,
    "Ġbellies": 13360,
    "discharging": 26306,
    "Ġcoincidences": 26365,
    "Ġarts": 11010,
    "Ġwooing": 19437,
    "Ġstolen": 14010,
    "abond": 15745,
    "audible": 17135,
    "settled": 10509,
    "dw": 3333,
    "bearings": 25372,
    "ascertain": 21546,
    "bered": 4504,
    "Ġdistraction": 22509,
    "typewritten": 26039,
    "calm": 8937,
    "Ġensuring": 11194,
    "holding": 7738,
    "Ġlurk": 13387,
    "Ġcompetition": 14273,
    "tier": 12519,
    "ials": 11711,
    "Ġsoften": 23128,
    "ise": 708,
    "few": 8202,
    "entle": 1737,
    "Ġdispleasure": 16055,
    "Ġhairy": 23869,
    "intending": 22939,
    "beheaded": 22497,
    "medi": 2627,
    "lutions": 20952,
    "avenue": 25060,
    "Ġpredictions": 1458,
    "ilar": 10218,
    "cell": 10689,
    "oment": 921,
    "Ġconcealment": 16915,
    "Ġnumberless": 16419,
    "Ġreciproc": 20625,
    "Ġfinancial": 23133,
    "Ġpovels": 22596,
    "Ġrachel": 11852,
    "ilburn": 18063,
    "Ġnote": 4262,
    "Ġgrotes": 19564,
    "Ġgur": 21595,
    "miraculous": 26398,
    "Ġhalting": 16278,
    "Ġteneriffe": 26416,
    "Ġlimber": 16481,
    "ĠĠĠĠĠĠĠĠĠĠĠĠĠĠĠĠĠĠĠĠĠĠĠĠĠĠĠĠĠĠĠĠĠĠĠĠĠĠĠĠĠĠĠĠĠĠĠĠĠĠĠ": 20041,
    "witness": 10038,
    "Ġslavish": 23179,
    "ckles": 22093,
    "oftentimes": 19424,
    "Ġhumour": 7931,
    "speckled": 23949,
    "Ġoutputs": 2884,
    "Ġleagues": 9226,
    "approached": 13489,
    "Ġperu": 14226,
    "mary": 8752,
    "Ġoptimizer": 5035,
    "Ġamply": 22487,
    "Ġinclemency": 22560,
    "Ġsket": 18728,
    "fat": 8078,
    ";--": 8068,
    "Ġhigh": 930,
    "ĠĠĠĠĠĠĠĠĠĠ": 18579,
    "!âĢĶ": 2453,
    "clearly": 25196,
    "Ġdirectly": 2103,
    "Ġforemost": 12009,
    "Ġcoaxing": 18598,
    "Ġshooting": 11164,
    "Ġthink": 987,
    "Ġconsort": 18724,
    "locks": 14460,
    "Ġnarrating": 24352,
    "Ġsimultaneous": 22592,
    "using": 5468,
    "pence": 15412,
    "Ġprevail": 13446,
    "Ġkn": 4545,
    "clothed": 19740,
    "Ġlegisl": 23537,
    "Ġconsoled": 18116,
    "whaler": 20311,
    "tried": 13797,
    "Ġbower": 15571,
    "Ġoverlooking": 22362,
    "ource": 5244,
    "Ġsoftmax": 1691,
    "Ġbingleys": 18996,
    "Ġhealthy": 10853,
    "vocabulary": 25088,
    "clay": 18933,
    "Ġembellished": 25850,
    "ingolstadt": 21306,
    "Ġtone": 4035,
    "Ġimpact": 10299,
    "Ġcorners": 18876,
    "Ġplumber": 16089,
    "Ġdistant": 5387,
    "Ġpillows": 24989,
    "aks": 8508,
    "Ġconfirmation": 17213,
    "Ġderanged": 23180,
    "iety": 2814,
    "Ġthrew": 3969,
    "Ġtorrent": 17093,
    "mark": 5282,
    "Ġlodge": 5779,
    "Ġwhitish": 24867,
    "Ġprint": 18970,
    "Ġplied": 22603,
    "mies": 20970,
    "errand": 22914,
    "Ġethics": 15465,
    "Ġepaulets": 24906,
    "Ġrepose": 6743,
    "Ġrome": 12160,
    "sax": 21059,
    "Ġbillows": 7501,
    "Ġclasses": 4050,
    "Ġastonished": 7088,
    "Ġlaure": 16911,
    "etwork": 444,
    "peare": 18913,
    "Ġcommend": 10337,
    "highly": 24763,
    "diff": 9116,
    "Ġhumorous": 10363,
    "Ġwhaleboats": 18480,
    "Ġdubious": 17386,
    "Ġsmiting": 12906,
    "Ġjealousy": 13580,
    "Ġshe": 466,
    "hoped": 20912,
    "Ġshoes": 7072,
    "Ġdisgrace": 7213,
    "Ġseething": 18205,
    "Ġresented": 22547,
    "compassion": 12372,
    "Ġprocesses": 3634,
    "Ġinquest": 16550,
    "Ġsnows": 14730,
    "Ġpurpose": 2705,
    "Ġers": 15463,
    "Ġsuccession": 12106,
    "Ġrepugn": 23367,
    "Ġrapid": 1439,
    "Ġsturgeon": 20595,
    "Ġsuspense": 9420,
    "stream": 15691,
    "isance": 17850,
    "urrection": 12413,
    "Ġnought": 21525,
    "Ġproportions": 16470,
    "Ġguardsmen": 20633,
    "claimed": 9839,
    "shooting": 16966,
    "Ġgore": 17992,
    "volutions": 16325,
    "Ġdespise": 14669,
    "Ġconstraint": 16515,
    "Ġphilipp": 23888,
    "..": 5783,
    "iag": 20918,
    "prom": 6509,
    "Ġcommanding": 16592,
    "drawers": 19389,
    "faith": 15028,
    "palms": 25263,
    "Ġfoster": 18992,
    "Ġrelentless": 26279,
    "Ġray": 18645,
    "Ġwindibank": 7256,
    "Ġresembling": 4097,
    "Ġplead": 14459,
    "Ġornamented": 20364,
    "getic": 12971,
    "Ġrings": 11705,
    "Ġcrowder": 19459,
    "Ġscolding": 15205,
    "apply": 18763,
    "Ġdey": 11679,
    "Ġsor": 4145,
    "Ġinscrut": 10037,
    "Ġglist": 9348,
    "tracks": 19648,
    "X": 60,
    "Ġentry": 11027,
    "Ġavalanche": 17436,
    "Ġsquared": 1385,
    "soon": 4023,
    "Ġprehens": 22235,
    "Ġsymph": 22212,
    "Ġrim": 21970,
    "Ġexhib": 6350,
    "Ġpattering": 18652,
    "ements": 11109,
    "forecastle": 10992,
    "Ġclosing": 11777,
    "fallen": 19661,
    "broad": 8646,
    "Ġfat": 3460,
    "Ġsepulch": 15288,
    "backpropagation": 11990,
    "execution": 20474,
    "Ġplatonian": 25121,
    "Ġfolk": 10378,
    "Ġprofane": 13156,
    "ulated": 6030,
    "ston": 15687,
    "like": 1888,
    "Ġvit": 10248,
    "Ġmorsel": 20680,
    "chair": 5918,
    "Ġattempt": 3485,
    "muttered": 13762,
    "letter": 6203,
    "cherries": 19758,
    "Ġcautious": 12258,
    "Ġjustification": 22972,
    "Ġtale": 5142,
    "alogies": 25162,
    "Ġcity": 4529,
    "Ġbuff": 9175,
    "Ġcoarse": 14281,
    "Ġdiscoverer": 26036,
    "oul": 4698,
    "Ġgangway": 20160,
    "Ġcanall": 10930,
    "Ġpermitting": 22404,
    "asted": 4649,
    "wanderer": 25424,
    "venant": 22630,
    "engthen": 14461,
    "Ġbroods": 23108,
    "Ġeffects": 7235,
    "Ġwhispers": 14704,
    "Ġpersonal": 7478,
    "Ġwhal": 5454,
    "Ġrom": 4524,
    "gangway": 20670,
    "Ġjames": 6419,
    "Ġsketch": 16168,
    "Ġfoot": 3158,
    "Ġboiling": 8527,
    "Ġclung": 10960,
    "Ġmarshy": 20220,
    "engine": 18929,
    "instinct": 19567,
    "nature": 5360,
    "arising": 17898,
    "rasing": 21048,
    "elev": 12463,
    "Ġagreed": 7030,
    "Ġrules": 1920,
    "properly": 24919,
    "Ġfragment": 14519,
    "mond": 20976,
    "Ġextremity": 8991,
    "Ġabated": 18391,
    "Ġameric": 3852,
    "Ġvagu": 13593,
    "Ġendow": 23139,
    "borough": 20787,
    "Ġvillages": 14752,
    "Ġfeminine": 15267,
    "iliating": 12700,
    "cles": 8729,
    "Ġbanker": 8670,
    "Ġcontains": 2791,
    "Ġshut": 3939,
    "Ġwoollen": 12108,
    "Ġretirement": 25379,
    "Ġkicking": 16903,
    "Ġstrive": 23693,
    "Ġensue": 18192,
    "Ġbus": 1905,
    "dirty": 20836,
    "reflect": 19865,
    "Ġcampa": 17176,
    "madly": 24421,
    "Ġfing": 3757,
    "soc": 5175,
    "Ġof": 298,
    "Ġinhuman": 13932,
    "Ġcolony": 18768,
    "isles": 15568,
    "Ġfour": 2215,
    "afforded": 25866,
    "Ġcorrob": 16268,
    "cred": 9111,
    "15": 12434,
    "oak": 21005,
    "stand": 625,
    "Ġfresh": 3670,
    "Ġcadiz": 17328,
    "Ġmarks": 6748,
    "Ġshelf": 12272,
    "Ġinterfere": 11822,
    "reference": 13843,
    "seems": 10877,
    "Ġlearned": 2024,
    "Ġtigris": 25760,
    "ength": 2313,
    "Ġtreasure": 9560,
    "european": 26373,
    "Ġsinned": 18953,
    "assemblies": 25957,
    "Ġl": 303,
    "cool": 19190,
    "Ġdesisted": 22979,
    "outs": 7010,
    "Ġparticular": 2447,
    "papers": 12506,
    "Ġincredulous": 9990,
    "nonsense": 17617,
    "ases": 1523,
    "rested": 13079,
    "Ġcommun": 1706,
    "Ġagreement": 18540,
    "Ġimmersed": 19488,
    "Ġprovision": 14828,
    "Ġeasiest": 23540,
    "Ġdesp": 3212,
    "Ġobeying": 13418,
    "Ġveteran": 17453,
    "Ġneglecting": 25010,
    "replied": 11569,
    "adventurous": 25362,
    "Ġneighbours": 8302,
    "riers": 18185,
    "been": 3344,
    "Ġsupplement": 23006,
    "fall": 5135,
    "Ġpile": 8424,
    "dear": 6556,
    "Ġremembered": 5277,
    "judged": 14835,
    "Ġwings": 9166,
    "mber": 5850,
    "girdling": 26391,
    "abated": 14023,
    "Ġconvert": 11847,
    "itance": 13871,
    "ordingly": 18516,
    "erest": 10699,
    "Ġcharacteristically": 23691,
    "Ġvoracity": 25987,
    "convenient": 12242,
    "Ġcase": 1941,
    "Ġone": 567,
    "Ġnorm": 760,
    "storm": 9685,
    "consequential": 26251,
    "unusually": 15784,
    "Ġwood": 2292,
    "Ġdear": 1539,
    "Ġthickness": 13282,
    "Ġ**": 4720,
    "hatchway": 25905,
    "orative": 21401,
    "eel": 11487,
    "anqu": 4109,
    "friends": 8305,
    "educ": 10830,
    "Þ": 159,
    "sam": 21054,
    "Ġsupercil": 23456,
    "retch": 4370,
    "Ġtorn": 6000,
    "Ġincome": 7916,
    "Ġagitation": 6865,
    "Ġgouldings": 26189,
    "Ġbounded": 16629,
    "supportable": 12374,
    "Ġdome": 15593,
    "Ġfluid": 11215,
    "Ġdining": 6978,
    "Ġincalculable": 17463,
    "Ġforever": 14555,
    "Ġdisease": 14261,
    "ĠĠĠĠĠĠĠĠĠĠĠĠĠĠĠĠĠĠĠĠĠĠĠĠĠĠĠĠĠĠĠĠĠĠĠĠĠĠĠĠĠĠĠĠĠĠĠĠ": 7988,
    "iffe": 21907,
    "ĠĠĠĠĠĠĠĠĠĠĠĠĠĠĠĠĠĠĠĠĠĠĠĠĠĠĠĠĠĠĠĠĠĠ": 14617,
    "Ġpemberley": 4587,
    "square": 15063,
    "Ġcable": 11584,
    "Ġshrew": 22005,
    "Ġarrows": 18337,
    "Ġrelu": 1045,
    "flu": 9120,
    "Ġsubterranean": 13615,
    "Ġtranslation": 3085,
    "lesc": 11040,
    "Ġhose": 12632,
    "_âĢĶ": 11470,
    "Ġatmosphere": 10899,
    "Ġreturning": 5326,
    "calmed": 16207,
    "Ġcol": 1058,
    "Ġexchanging": 18136,
    "arcy": 1274,
    "fen": 20852,
    "Ġmeadows": 11425,
    "ica": 10201,
    "Ġwashing": 9708,
    "Ġadventure": 5981,
    "them": 3018,
    "Ġbankers": 24305,
    "adopt": 25545,
    "sweep": 24615,
    "Ġglimmered": 20173,
    "conject": 8884,
    "Ġnineveh": 13393,
    "Ġ14": 9326,
    "Ġcollege": 11427,
    "irra": 15789,
    "get": 1022,
    "ruit": 22191,
    "Ġphotography": 24683,
    "Ġbeatrix": 24208,
    "Ġperils": 6275,
    "Ġcrouching": 23444,
    "achalot": 15867,
    "beloved": 19464,
    "Ġjanuary": 13657,
    "kins": 7344,
    "Ġlevers": 18081,
    "Ġcharitable": 23274,
    "attendants": 25496,
    "produce": 20284,
    "bec": 4048,
    "transition": 24514,
    "Ġconstructed": 9578,
    "Ġenormous": 5609,
    "Ġwager": 17795,
    "Ġembal": 11906,
    "vul": 15451,
    "Ġconception": 10320,
    "Ġpleasantness": 24142,
    "Ġliberty": 7761,
    "Ġoversight": 22363,
    "ment": 694,
    "collect": 16566,
    "Ġsobbed": 14138,
    "Ġlust": 9200,
    "Ġpicturesqueness": 24481,
    "pan": 10718,
    "Ġsummits": 14686,
    "close": 9989,
    "Ġrector": 21679,
    "Ġsanction": 20028,
    "amy": 8469,
    "lived": 12491,
    "thesize": 24907,
    "downward": 16621,
    "umer": 9261,
    "am": 367,
    "Ġopt": 783,
    "Ġministers": 22838,
    "Ġ80": 24457,
    "Ġcosine": 2372,
    "offic": 7465,
    "Ġjohn": 5031,
    "impud": 23764,
    "Ġreco": 9797,
    "Ġdoxology": 22248,
    "Ġdesperado": 19821,
    "Ġcetacea": 20556,
    "Ġpublisher": 24069,
    "cc": 474,
    "ither": 1550,
    "thomas": 18221,
    ",âĢĶâĢĺ": 23806,
    "represented": 20197,
    "icking": 8914,
    "objection": 19916,
    "Ġuniform": 2226,
    "guinea": 16675,
    "bearer": 18519,
    "Ġtashtego": 4486,
    "Ġarch": 933,
    "Ġconsoling": 19460,
    "Ġpinioned": 21485,
    "Ġnobly": 22245,
    "Ġneedles": 11187,
    "beer": 22492,
    "Ġrehears": 15704,
    "po": 1139,
    "Ġfarewell": 9522,
    "Ġsuspicious": 9482,
    "rets": 12546,
    "Ġimpunity": 14219,
    "landsmen": 25062,
    "Ġdandy": 17895,
    "Ġpoets": 11826,
    "itering": 17821,
    "leep": 4634,
    "Ġdecipher": 22450,
    "severe": 21823,
    "Ġconvenience": 11334,
    "accessory": 25500,
    "Ġbinnacle": 8118,
    "Ġpaved": 17914,
    "Ġhorror": 3772,
    "Ġhertfordshire": 5377,
    "Ġaristotle": 25818,
    "Ġmockery": 12112,
    "Ġcombine": 4414,
    "Ġdozen": 8185,
    "Ġusing": 720,
    "coffin": 10665,
    "planks": 21959,
    "Ġfoolish": 5980,
    "Ġzero": 1202,
    "hounds": 20909,
    "Ġmonsie": 11450,
    "plans": 21957,
    "Ġdivergence": 2725,
    "ship": 1395,
    "springing": 24890,
    "Ġlabors": 23334,
    "Ġde": 363,
    "Ġfaults": 12217,
    "Ġlimits": 3452,
    "Ġquadrant": 11407,
    "mish": 17600,
    "Ġamours": 22486,
    "shadow": 20316,
    "Ġpig": 5705,
    "evade": 24817,
    "Ġbids": 24647,
    "mmar": 952,
    "Ġmalacca": 24394,
    "Ġreserve": 9974,
    "Ġmeasured": 9807,
    "dered": 2471,
    "ul": 371,
    "Ġconject": 6027,
    "cim": 8723,
    "Ġsucked": 14140,
    "Ġventil": 8018,
    "tick": 17680,
    "ain": 343,
    "leader": 25352,
    "Ġcleans": 18950,
    "nav": 17614,
    "Ġcontributed": 16012,
    "luck": 5733,
    "quar": 7615,
    "cription": 20820,
    "morland": 24157,
    "Ġrevolt": 24505,
    "Ġinsure": 13182,
    "Ġsus": 18280,
    "out": 467,
    "Ġsimilarity": 3163,
    "ignorantly": 25190,
    "mown": 20972,
    "Ġdrove": 4982,
    "Ġspain": 15884,
    "Ġimpotently": 22394,
    "Ġint": 409,
    "lested": 14887,
    "Ġst": 332,
    "Ġbooks": 4675,
    "Ġrainy": 24342,
    "fing": 13716,
    "Ġbran": 5252,
    ".": 18,
    "henry": 16628,
    "Ġrehearsed": 25972,
    "gue": 12472,
    "Ġhitherto": 5881,
    "Ġdiscipline": 26563,
    "Ġlaz": 7377,
    "verbally": 25361,
    "friendship": 24052,
    "Ġmonkey": 8225,
    "sideways": 14574,
    "Ġpriests": 15044,
    "Ġnailing": 21530,
    "plun": 15819,
    "Ġpoisoned": 24887,
    "geor": 15982,
    "Ġinduced": 8674,
    "Ġcrest": 12946,
    "aneously": 4056,
    "sign": 8387,
    "Ġgrop": 12669,
    "trowsers": 17693,
    "Ġneed": 2606,
    "O": 51,
    "conve": 14247,
    "Ġscaled": 2104,
    "secut": 7866,
    "Ġdeposit": 17271,
    "Ġtranscend": 25668,
    "Ġdiscoveries": 13363,
    "racts": 14371,
    "wear": 22686,
    "Ġseries": 7061,
    "Ġremorse": 6441,
    "age": 506,
    "Ġbenevol": 5962,
    "Ġguidance": 9419,
    "Ġast": 2960,
    "Ġreynolds": 10212,
    "Ġhur": 2098,
    "Ġcollateral": 20074,
    "forth": 9325,
    "Ġdetermines": 2367,
    "Ġimpetus": 25570,
    "Ġphilist": 16603,
    "Ġcircus": 19093,
    "Ġfoundling": 22974,
    "vative": 1545,
    "Ġsalutations": 25383,
    "Ġpreferment": 19853,
    "Ġbeth": 9660,
    "stocks": 23825,
    "cases": 12452,
    "fancy": 7336,
    "Ġworkmen": 23037,
    "brilliancy": 26078,
    "torn": 17684,
    "Ġsubsided": 14552,
    "Ġkick": 5838,
    "conveyed": 20524,
    "Ġemergency": 25731,
    "icious": 7379,
    "Ġenig": 15803,
    "Ġsunlight": 13089,
    "Ġmethinks": 10394,
    "inople": 13832,
    "Ġattacked": 10570,
    "vels": 5432,
    "cd": 15326,
    "Ġwail": 21289,
    "Ġimaginary": 11189,
    "Ġfert": 15586,
    "did": 3193,
    "pot": 10120,
    "Ġmultitud": 18749,
    ";âĢĿ": 7790,
    "fortunes": 6333,
    "Ġscenari": 22306,
    "Ġgrant": 11878,
    "Ġhonour": 3919,
    "Ġchann": 15939,
    "Ġcrevice": 22728,
    "victim": 25531,
    "ances": 1336,
    "su": 809,
    "Ġshadows": 8012,
    "Ġheron": 22077,
    "Ġslides": 18941,
    "Ġdifferent": 1430,
    "Ġmonuments": 22983,
    "meet": 11861,
    "preserving": 25305,
    "razor": 21640,
    "bestowed": 12230,
    "Ġsoul": 2723,
    "reliable": 21243,
    "Ġz": 998,
    "Ġthistle": 21921,
    "Ġwhisper": 6207,
    "astonishment": 10033,
    "direct": 12461,
    "precipitance": 25868,
    "Ġproble": 1110,
    "Ġshel": 6847,
    "adie": 18092,
    "Ġhill": 5626,
    "Ġfar": 1452,
    "fetch": 12469,
    "Ġremoter": 20108,
    "Ġreverie": 13461,
    "irms": 18172,
    "Ġuncles": 23434,
    "hauled": 20671,
    "Ġoutermost": 22323,
    "Ġmun": 12567,
    "Ġcraw": 7281,
    "Ġcinque": 20488,
    "Ġloth": 17969,
    "Ġcompetent": 11821,
    "Ġai": 3125,
    "Ġmer": 2927,
    "Ġfriends": 2652,
    "iature": 8745,
    "Ġembarked": 17137,
    "mense": 4779,
    "uted": 7592,
    "Ġraise": 6168,
    "asable": 21544,
    "cess": 540,
    "Ġwaifing": 25244,
    "service": 15040,
    "Ġexecute": 7504,
    "Ġhasty": 10479,
    "lesome": 12970,
    "enchant": 21286,
    "dick": 11482,
    "Ġleaders": 16630,
    "Ġlangu": 579,
    "Ġredden": 15698,
    "Ġoverall": 4357,
    "tallow": 21088,
    "Ġembodied": 25848,
    "Ġproportion": 7280,
    "Ġqualities": 7532,
    "Ġensure": 23688,
    "Ġpathetic": 19029,
    "iop": 20921,
    "Ġfrench": 4937,
    "Ġglac": 9349,
    "ipt": 12483,
    "altering": 12645,
    "Ġanatomical": 15081,
    "Ġappointed": 20105,
    "Ġmiracle": 15098,
    "Ġfearfully": 23514,
    "vinegar": 25421,
    "Ġnursed": 16887,
    "contrivance": 26317,
    "shipped": 18494,
    "Ġthrilling": 19750,
    "Ġfunny": 7637,
    "interests": 19710,
    "knew": 9129,
    "Ġtaller": 16689,
    "ailed": 3248,
    "Ġsmoking": 6429,
    "imming": 9690,
    "Ġcoop": 14277,
    "Ġwretch": 6378,
    "Ġstam": 18069,
    "Ġarchy": 14351,
    "Ġautonomous": 10678,
    "Ġo": 275,
    "Ġapparently": 6779,
    "Ġhorizontal": 7782,
    "Ġintegral": 25011,
    "Ġversion": 10632,
    "Ġladen": 19179,
    "Ġaverage": 3136,
    "Ġniag": 21533,
    "supp": 4162,
    "Ġconcussion": 26301,
    "dled": 9114,
    "Ġwere": 555,
    "uling": 2257,
    "itch": 10163,
    "Ġhimmalehs": 26232,
    "Ġtransparen": 10544,
    "Ġpreference": 9736,
    "Ġcontained": 7678,
    "ivil": 6411,
    "utted": 15665,
    "Ġmarine": 23039,
    "creation": 14810,
    "Ġsubject": 2463,
    "Ġwight": 12558,
    "Ġparticulars": 5754,
    "Ġcerem": 7078,
    "gives": 15361,
    "Ġgrievous": 13265,
    "Ġbas": 6380,
    "Ġoriginated": 24126,
    "cordiality": 25140,
    "Ġdishon": 12235,
    "Ġsplit": 7992,
    "fresh": 13396,
    "months": 9074,
    "Ġconqueror": 25797,
    "drovand": 24759,
    "Ġsnake": 12064,
    "Ġforswe": 21778,
    "Ġcherish": 10592,
    "Ġwinking": 17796,
    "sight": 5995,
    "Ġlodges": 19503,
    "ralian": 19602,
    "Ġexercised": 24800,
    "conce": 8512,
    "Ġinvariable": 13460,
    "Ġcom": 369,
    "sartain": 25623,
    "Ġpatentee": 25587,
    "charm": 13993,
    "ulls": 8842,
    "boil": 19000,
    "inks": 6869,
    "Ġinfallibly": 10044,
    "Ġswells": 9830,
    "ourable": 4965,
    "ersampling": 18212,
    "Ġwines": 21290,
    "Ġsuav": 22091,
    "relapse": 24020,
    "Ġbear": 3658,
    "Ġmajority": 13297,
    "Ġcrowned": 16843,
    "gre": 5788,
    "Ġlent": 21550,
    "Ġdeceive": 12727,
    "Ġlizzy": 3546,
    "kind": 3861,
    "istry": 22113,
    "Ġtrail": 16286,
    "cake": 20806,
    "Ġgreenwich": 19323,
    "iary": 15374,
    "Ġvertically": 19383,
    "just": 1700,
    "Ġhurled": 10431,
    "w": 91,
    "Ġpenetrated": 13476,
    "Ġcoroner": 7509,
    "oot": 13768,
    "Ġwaned": 17794,
    "Ġstern": 4221,
    "Ġcandid": 4098,
    "Ġdiving": 12606,
    "Ġforgiven": 24031,
    "Ġdisregarded": 22534,
    "Ġregulations": 18601,
    "englishman": 23677,
    "Ġbodies": 8031,
    "Ġinterrupted": 6344,
    "Ġfalling": 6915,
    "Ġ1846": 26085,
    "ifers": 15786,
    "Ġsubterraneous": 20267,
    "Ġextant": 18698,
    "Ġelement": 6898,
    "Ġfisheries": 17441,
    "3": 23,
    "Ġunst": 18243,
    "ock": 15405,
    "Ġcounties": 23307,
    "Ġvehement": 16205,
    "features": 14793,
    "Ġobsole": 22701,
    "Ġmechanism": 2399,
    "istically": 14147,
    "final": 19678,
    "term": 3758,
    "rib": 1947,
    "Ġdetected": 18841,
    "etieth": 21587,
    "Ġdaresay": 14708,
    "Ġtipped": 17730,
    "onical": 21256,
    "Ġhell": 5018,
    "Ġdoct": 4454,
    "Ġbills": 17863,
    "Ġdisturbed": 8675,
    "Ġtemple": 7654,
    "Ġdiet": 13913,
    "Ġkidnapping": 26358,
    "lace": 13751,
    "cats": 17514,
    "Ġmanufactured": 22334,
    "iftings": 23230,
    "Ġcuvier": 9168,
    "congratulations": 20281,
    "Ġengaged": 3428,
    "riminately": 16485,
    "customary": 25896,
    "Ġunrel": 14699,
    "Ġembracing": 14984,
    "Ġdistrusted": 13545,
    "Ġtyros": 26102,
    "Ġ104": 24413,
    "Ġpresumed": 10547,
    "Ġforesee": 19126,
    "Ġtap": 12531,
    "Ġhusband": 3620,
    "wes": 17705,
    "istic": 968,
    "Ġdismally": 20216,
    "Ġmak": 10780,
    "repugnance": 16866,
    "Ġimport": 1046,
    "Ġgrace": 5374,
    "philips": 20037,
    "Ġbathed": 17868,
    "Ġvort": 18195,
    "oqu": 7554,
    "commanding": 24751,
    "unsuitable": 21898,
    "ta": 13792,
    "oles": 21007,
    "Ġchief": 3380,
    "Ġoffice": 4963,
    "Ġumbrell": 13654,
    "Ġprotracted": 19472,
    "Ġoverwrites": 5032,
    "Ġcyn": 13889,
    "species": 13261,
    "mell": 20966,
    "Ġinterposed": 20622,
    "Ġtwice": 4661,
    "Ġsprings": 16688,
    "remains": 10401,
    "Ġkentuck": 19892,
    "Ġtyp": 1133,
    "afflicted": 23782,
    "Ġlowers": 23246,
    "Ġunmindful": 22070,
    "Ġvile": 8474,
    "whose": 6852,
    "Ġeag": 2966,
    "Ġshaded": 14108,
    "rusted": 16509,
    "Ġgre": 1583,
    "Ġtowed": 11268,
    "Ġfeatures": 1434,
    "remediable": 26296,
    "Ġantique": 19552,
    "Ġcapt": 1290,
    "sof": 17659,
    "Ġindestruct": 22964,
    "Ġsequentially": 4913,
    "fanning": 20868,
    "Ġpaste": 23422,
    "Ġconciliating": 19048,
    "injustice": 17740,
    "Ġexquis": 9703,
    "Ġpremises": 10490,
    "circumst": 5349,
    "Ġflights": 24752,
    "Ġweave": 21925,
    "cro": 13700,
    "ĠĠĠĠĠĠĠĠĠĠĠĠĠĠĠĠĠĠĠĠĠĠĠĠĠĠĠĠĠĠĠ": 19702,
    "carbuncle": 26384,
    "ire": 492,
    "Ġsol": 1104,
    "Ġbrute": 8930,
    "Ġdamps": 23477,
    "Ġcrunched": 19122,
    "Ġdiligence": 17115,
    "Ġsoldier": 16921,
    "dramatic": 19388,
    "Ġuntamed": 19166,
    "acency": 12902,
    "Ġearnestly": 5979,
    "Ġminim": 1323,
    "unhes": 21879,
    "Ġloads": 22118,
    "Ġtrunk": 7204,
    "id": 338,
    "grat": 5051,
    "Ġfuller": 11158,
    "sed": 4175,
    "Ġshades": 9465,
    "Ġaberde": 22281,
    "Ġglide": 22990,
    "Ġtints": 17729,
    "Ġpublic": 4331,
    "Ġnation": 12652,
    "Ġbias": 1190,
    "Ġforest": 9874,
    "tri": 11533,
    "Ġexponentiating": 3445,
    "olet": 13769,
    "pure": 17628,
    "lover": 18537,
    "Ġviolent": 5116,
    "athy": 14327,
    "Ġburden": 8611,
    "Ġbart": 17859,
    "Ġrequire": 886,
    "Ġhurst": 5582,
    "Ġyoked": 15739,
    "Ġdifferently": 10391,
    "Ġrinal": 21982,
    "Ġgravely": 7882,
    "Ġpent": 17904,
    "Ġrepublican": 17415,
    "Ġrising": 4354,
    "urean": 18126,
    "Ġhostile": 19942,
    "Ġankers": 21448,
    "es": 289,
    "Ġsummit": 7730,
    "Ġtim": 4577,
    "Ġderivative": 2999,
    "Ġanoint": 25538,
    "stead": 10848,
    "pretending": 17042,
    "imble": 10860,
    "Ġhackney": 20435,
    "onents": 8781,
    "prot": 6899,
    "?âĢĻâĢĿ": 23645,
    "Ġnich": 21523,
    "Ġgas": 8132,
    "Ġkiller": 19570,
    "med": 1914,
    "dissatisfied": 26614,
    "Ġbelfry": 26440,
    "Ġoccasional": 7288,
    "Ġfleeting": 19329,
    "stones": 11640,
    "Ġaway": 1246,
    "Ġthird": 4186,
    "arted": 2202,
    "Ġrecollect": 8309,
    "Ġadorn": 12797,
    "Ġgent": 7382,
    "Ġaudacity": 19883,
    "steak": 14712,
    "mas": 5212,
    "haven": 20914,
    "Ġgasped": 11375,
    "inese": 12885,
    "baron": 24926,
    "Ġdenominated": 15232,
    "Ġexhibiting": 19839,
    "Ġrewarding": 13441,
    "Ġaright": 11745,
    "fanc": 20866,
    "stuff": 15692,
    "display": 19158,
    "okingly": 22382,
    "Ġenvironments": 24087,
    "Ġdep": 740,
    "sisters": 13380,
    "Ġcongenial": 12415,
    "Ġunh": 9256,
    "matic": 4617,
    "Ġwhistling": 19791,
    "sworn": 24260,
    "Ġloud": 4700,
    "begging": 22501,
    "Ġblacksmiths": 19874,
    "Ġscream": 5936,
    "Ġsteel": 3886,
    "pronouncing": 25194,
    "Ġlustrous": 20158,
    "cheered": 23809,
    "recursion": 13333,
    "Ġcoffins": 13255,
    "uccas": 21109,
    "Ġapproaching": 6285,
    "sively": 13789,
    "resides": 23672,
    "Ġostr": 21328,
    "Ġapologize": 15133,
    "racing": 21634,
    "Ġinducement": 16845,
    "derment": 22165,
    "Ġsaints": 20677,
    "Ġdeparture": 6490,
    "Ġignorance": 6621,
    "Ġstronger": 8581,
    "Ġliveliness": 13647,
    "geneva": 13733,
    "church": 8139,
    "Ġfates": 15582,
    "Ġsee": 804,
    "Ġbi": 920,
    "ub": 1230,
    "Ġloving": 8175,
    "itten": 3440,
    "Ġchange": 1992,
    "Ġdrawback": 23994,
    "Ġbehind": 2804,
    "ends": 6039,
    "Ġcandelabra": 26604,
    "Ġubiqu": 18050,
    "Ġstrings": 11834,
    "pieces": 8758,
    "Ġidly": 16408,
    "Ġsleeping": 6320,
    "ridden": 24363,
    "Ġenviron": 4003,
    "é": 170,
    "agree": 14070,
    "Ġerecting": 24654,
    "Ġcaptains": 7456,
    "Ġhovering": 10181,
    "Ġpled": 17908,
    "susceptible": 24663,
    "perseus": 26006,
    "objections": 19917,
    "Ġsidelong": 11441,
    "Ġopportunities": 19250,
    "honor": 19901,
    "ezing": 10576,
    "Ġgurglings": 26467,
    "c": 71,
    "Ġhelp": 1641,
    "Ġheavenly": 12089,
    "resentment": 15190,
    "eat": 11486,
    "Ġmich": 21308,
    "Ġcup": 5697,
    "destroyed": 15264,
    "Ġremotest": 10055,
    "Ġsuperstitions": 17073,
    "Ġcatherine": 2809,
    "Ġmors": 17804,
    "echo": 15352,
    "Ġdaint": 15597,
    "Ġoccupations": 9460,
    "ulum": 21867,
    "rical": 11522,
    "Ġhatter": 4111,
    "Ġbrink": 18772,
    "iah": 14421,
    "tu": 12516,
    "Ġ": 225,
    "Ġmin": 1026,
    "Ġconvince": 14645,
    "Ġsignals": 10588,
    "Ġrainbows": 19650,
    "another": 5439,
    "Ġsto": 1502,
    "Ġopinion": 3139,
    "Ġpunctures": 25136,
    "Ġsquee": 7928,
    "Ġcaliforn": 14435,
    "Ġreported": 11984,
    "Ġqueen": 3210,
    "ken": 2798,
    "Ġfitting": 21411,
    "Ġclo": 6043,
    "east": 9118,
    "Ġcumulative": 4210,
    "ral": 4627,
    "clothes": 9060,
    "Ġperception": 9753,
    "accordingly": 19215,
    "Ġpeasants": 12336,
    "unbe": 21876,
    "Ġclim": 8195,
    "Ġla": 5914,
    "Ġfirmest": 16667,
    "Ġvane": 22880,
    "Ġtri": 4812,
    "Ġfri": 17881,
    "Ġale": 9157,
    "Ġdeal": 3607,
    "Ġevian": 24295,
    "Ġdevouring": 11863,
    "omics": 21646,
    "Ġupheld": 22156,
    "cooee": 12422,
    "Ġtallow": 14783,
    "ortment": 22262,
    "gracechurch": 24583,
    "Ġmemorable": 16448,
    "Ġexpert": 18869,
    "painful": 13505,
    "Ġbraced": 16582,
    "Ġaccumulated": 11936,
    "Ġage": 3893,
    "Ġamelia": 26253,
    "continually": 11305,
    "sullen": 17671,
    "Ġgladstone": 23873,
    "Ġtablet": 19207,
    "cook": 8269,
    "Ġmagnetic": 17243,
    "hau": 17564,
    "Ġkitchen": 8497,
    "Ġelias": 18636,
    "absolut": 8459,
    "Ġtexas": 25923,
    "Ġsadness": 13291,
    "Ġdictated": 25219,
    "Ġretired": 6072,
    "Ġapprobation": 10986,
    "affected": 10478,
    "Ġproposition": 23254,
    "Ġaut": 1759,
    "Ġunperceived": 22041,
    "Ġdrenched": 12608,
    "bern": 20777,
    "Ġter": 2051,
    "Ġjog": 18400,
    "Ġends": 8237,
    "oters": 21803,
    "Ġcolumn": 9331,
    "ppers": 7617,
    "Ġdignified": 15602,
    "retrospect": 23144,
    "Ġadversary": 12178,
    "appearance": 5334,
    "Ġanecd": 20156,
    "Ġsinew": 25432,
    "Ġ1807": 26084,
    "ence": 392,
    "congreg": 25399,
    "Ġrampart": 20320,
    "Ġpassenger": 14374,
    "measure": 10034,
    "Ġtink": 9151,
    "leviathans": 19940,
    "Ġdescrying": 18621,
    "thousand": 5547,
    "Ġreefed": 20304,
    "ctors": 21593,
    "atter": 653,
    "Ġredeem": 20502,
    "Ġox": 7153,
    "Ġadmirable": 8268,
    "Ġovertook": 18429,
    "overcoat": 19052,
    "Ġfishery": 4174,
    "circumamb": 26088,
    "Ġrepl": 1594,
    "Ġoverpowered": 15292,
    "Ġadoption": 24951,
    "oth": 1183,
    "Ġprey": 6415,
    "Ġcooking": 16649,
    "Ġmillion": 14991,
    "Ġreply": 4514,
    "Ġtackles": 8050,
    "resembled": 21249,
    "syntax": 5868,
    "hush": 20908,
    "Ġfav": 1755,
    "Ġquietude": 19363,
    "Ġforming": 7043,
    "regulated": 23470,
    "Ġcontracting": 16014,
    "counters": 25398,
    "Ġfamine": 16330,
    "shoulders": 16587,
    "anywhere": 14685,
    "Ġdescrib": 2716,
    "Ġthigh": 10189,
    "Ġdodging": 19888,
    "dart": 20828,
    "collinses": 19924,
    "Ġflattered": 10377,
    "Ġclutch": 15057,
    "Ġjavan": 24999,
    "ters": 1573,
    "ber": 903,
    "Ġlace": 13952,
    "Ġnupt": 13946,
    "Ġgrapple": 25812,
    "Ġgardener": 19136,
    "Ġspare": 5101,
    "Ġdashed": 6010,
    "Ġkings": 7196,
    "Ġskiff": 16167,
    "Ġeffemin": 18543,
    "Ġcontain": 1555,
    "brain": 13691,
    "pertaining": 22187,
    "rd": 17651,
    "Ġrequested": 14303,
    "zes": 11552,
    "Ġhaw": 10254,
    "ware": 3932,
    "Ġdexter": 9704,
    "Ġsultanism": 25889,
    "turbable": 24532,
    "Ġtorpor": 25034,
    "Ġtargets": 4204,
    "Ġsem": 1880,
    "Ġrecognised": 9002,
    "Ġbeams": 14634,
    "arranging": 19320,
    "Ġcommons": 22675,
    "Ġicebergs": 23979,
    "hic": 3249,
    "Ġnovember": 11754,
    "Ġundiscovered": 18257,
    "tremble": 17144,
    "Ġsubproblems": 12962,
    "Ġsax": 10931,
    "vanished": 15064,
    "Ġmeasure": 3593,
    "important": 7113,
    "girl": 12322,
    "Ġeliminating": 20623,
    "whaling": 7898,
    "Ġtenth": 13829,
    "Ġtelegram": 15228,
    "stands": 22434,
    "acter": 2504,
    "Ġnimble": 21531,
    "indian": 11783,
    "aging": 2237,
    "Ġsuff": 1303,
    "Ġpurposed": 23556,
    "Ġpore": 21460,
    "abling": 1078,
    "Ġcompacted": 23511,
    "Ġsteered": 11095,
    "iv": 432,
    "Ġcorporeally": 25729,
    "Ġseren": 7400,
    "Ġpraying": 19555,
    "Ġmagnificence": 20635,
    "Ġproceedings": 9910,
    "Ġlob": 7627,
    "lance": 12486,
    "Ġtarquin": 23613,
    "Ġrecovery": 11444,
    "play": 5098,
    "Ġreasons": 6020,
    "Y": 61,
    "feed": 9296,
    "Ġstaff": 14009,
    "first": 3931,
    "Ġdormouse": 4924,
    "Ġhateful": 19715,
    "Ġshabby": 14114,
    "received": 9641,
    "requirements": 24858,
    "Ġruefully": 17304,
    "Ġenthusiastic": 19968,
    "Ġexistence": 4706,
    "passed": 8025,
    "Ġroot": 2647,
    "Ġmarch": 4081,
    "Ġamusement": 8055,
    "Ġungenerous": 18270,
    "Ġmajest": 24064,
    "Ġattribute": 16101,
    "magnificent": 20276,
    "Ġdyspepsia": 20645,
    "lan": 15381,
    "Ġincommun": 25309,
    "Ġrelief": 6061,
    "Ġmercenary": 17196,
    "Ġantichronical": 26611,
    "Ġunra": 18242,
    "Ġlightning": 5750,
    "Ġsituations": 10494,
    "Ġthese": 820,
    "Ġappearing": 9844,
    "Ġvoices": 7875,
    "Ġprocured": 8680,
    "Ġlit": 6248,
    "greeting": 24555,
    "steep": 19422,
    "Ġtimber": 13354,
    "Ġretreat": 6071,
    "Ġunnearable": 26518,
    "influence": 13582,
    "ret": 1478,
    "Ġmis": 918,
    "Ġcombining": 22864,
    "Ġtest": 1536,
    "Ġlikened": 16501,
    "Ġmighty": 4229,
    "Î": 143,
    "Ġfrightens": 24034,
    "Ġhinted": 6012,
    "ague": 3903,
    "amuse": 14055,
    "Ġgriefs": 16773,
    "Ġacceded": 22383,
    "Ġflesh": 5969,
    "vessel": 11380,
    "£": 101,
    "Ġ18": 3406,
    "Ġrequired": 7222,
    "Ġelij": 8912,
    "Ġagreeably": 24955,
    "Ġrevolver": 14904,
    "Ġxxv": 19719,
    "Ġgreek": 10633,
    "Ġble": 5223,
    "Ġnobler": 14179,
    "Ġbacking": 16112,
    "Ġcomplain": 6687,
    "Ġthickening": 24028,
    "Ġswiftness": 9930,
    "Ġhurtling": 24960,
    "hopeless": 16918,
    "Ġfable": 15581,
    "Ġfil": 3472,
    "Ġacknowledge": 13406,
    "ack": 609,
    "Ġxviii": 23413,
    "_,âĢĿ": 6220,
    "quest": 4537,
    "oriously": 17877,
    "Æ": 135,
    "Ġbeing": 1162,
    "ishly": 14203,
    "riage": 2122,
    "immed": 9220,
    "rights": 23675,
    "Ġfrost": 6097,
    "Ġsire": 15504,
    "altogether": 12644,
    "moran": 24156,
    "knot": 13748,
    "Ġawful": 6201,
    "Ġsurpasses": 25269,
    "Ġtarred": 23612,
    "mitting": 20975,
    "Ġdisagree": 22536,
    "atches": 13849,
    "Ġinaccessible": 13937,
    "Ġcargo": 16293,
    "yrin": 12527,
    "Ġoutbreak": 22321,
    "Ġcubs": 20089,
    "Ġvest": 8162,
    "Ġcertain": 1560,
    "Ġpresented": 5183,
    "Ġrig": 4224,
    "instead": 14833,
    "appre": 14375,
    "Ġpotent": 12067,
    "Ġaught": 8777,
    "whence": 23221,
    "Ġconn": 9232,
    "ember": 1957,
    "Ġleeward": 6212,
    "ated": 719,
    "Ġ79": 24268,
    "Ġconcoct": 19046,
    "Ġpersonified": 19180,
    "Ġmac": 15542,
    "Ġsallies": 21232,
    "rawling": 21639,
    "Ġafrica": 12349,
    "atious": 10154,
    "Ġchil": 11756,
    "wag": 21126,
    "yn": 7818,
    "Ġfinest": 10395,
    "rible": 3226,
    "Ġalternately": 15035,
    "nor": 2738,
    "charmed": 21699,
    "Ġcreator": 7254,
    "Ġwield": 21293,
    "Ġacquitted": 18900,
    "Ġiii": 7860,
    "queg": 1771,
    "Ġstepping": 9357,
    "Ġrevenge": 5452,
    "Ġplainpalais": 20739,
    "uesday": 8590,
    "cloud": 11107,
    "kers": 7133,
    "islands": 21379,
    "mes": 1197,
    "merged": 11197,
    "Ġblanket": 8342,
    "throt": 25660,
    "Ġpremium": 23909,
    "missed": 11212,
    "Ġtransitory": 16022,
    "apolog": 22336,
    "Ġdet": 509,
    "Ġconsider": 2568,
    "Ġforeb": 12008,
    "legra": 10791,
    "Ġinches": 5846,
    "extreme": 11031,
    "Ġtight": 8107,
    "watches": 14951,
    "Ġknocked": 9502,
    "Ġlifts": 25359,
    "Ġvolcano": 24151,
    "[": 63,
    "road": 6679,
    "Ġthemselves": 3252,
    "Ġentertained": 10001,
    "Ġcoffin": 4427,
    "ula": 2823,
    "Ġdeposed": 16087,
    "Ġcontract": 18475,
    "Ġrans": 21971,
    "bots": 10085,
    "careful": 14870,
    "ldog": 21922,
    "earthly": 24722,
    "Ġwrap": 24596,
    "Ġbedfellow": 16441,
    "ocation": 14629,
    "alid": 13938,
    "turner": 19544,
    "Ġbackstays": 22647,
    "both": 5785,
    "Ġbowls": 23774,
    "ruding": 9727,
    "lingly": 9776,
    "Ġdetained": 18373,
    "Ġcapsized": 20092,
    "Ġdetestation": 17130,
    "hew": 5286,
    "view": 5897,
    "Ġreb": 15695,
    "mbl": 5946,
    "Ġgloss": 11962,
    "slipping": 25529,
    "Ġdeputation": 21843,
    "considering": 12179,
    "Ġeng": 1161,
    "zek": 16275,
    "Ġcombined": 8550,
    "Ġmag": 1431,
    "nihil": 9850,
    "foreseen": 14257,
    "Ġerror": 1767,
    "hanging": 10103,
    "Ġlinn": 13956,
    "Ġquoted": 22419,
    "Ġleviathans": 8281,
    "coast": 10451,
    "Ġreverse": 16983,
    "iations": 11498,
    "Ġdeceitful": 25733,
    "sembled": 7262,
    "Ġdetain": 14177,
    "Ġidle": 8252,
    "Ġremembering": 14613,
    "Ġ(âĢľ": 15999,
    "justice": 7957,
    "Ġtransports": 24281,
    "Ġvigour": 24463,
    "Ġdaybreak": 18727,
    "mouthed": 12404,
    "þ": 191,
    "libra": 22929,
    "wonder": 6371,
    "Ġpun": 4586,
    "ough": 471,
    "Ġprotect": 6338,
    "Ġfather": 1453,
    "Ġdab": 15592,
    "ophisticated": 22480,
    "Ġdere": 21838,
    "uck": 1237,
    "idel": 5301,
    "anel": 21360,
    "happily": 14660,
    "deli": 15348,
    "Ġclap": 10959,
    "Ġmilk": 6485,
    "fears": 18529,
    "Ġinher": 10182,
    "Ġbestow": 6455,
    "Ġabsolute": 6766,
    "Ġodor": 12154,
    "Ġcontest": 18473,
    "pe": 1438,
    "Ġpolice": 4674,
    "Ġstruck": 3388,
    "lim": 9609,
    "mockery": 24379,
    "ellent": 3761,
    "Ġapproached": 5844,
    "Ġvulgar": 13608,
    "Ġintersect": 22580,
    "composure": 24038,
    "ego": 4031,
    "Ġwithhold": 18119,
    "Ġhospitals": 24924,
    "Ġessays": 19746,
    "Ġcitations": 25438,
    "Ġbenediction": 18785,
    "sales": 17669,
    "Ġadventures": 7747,
    "Ġpoet": 8207,
    "Ġeloped": 22652,
    "Ġprotesting": 14745,
    "fered": 5560,
    "generations": 23789,
    "saddest": 25528,
    "Ġturns": 4979,
    "Ġheadway": 18794,
    "Ġslowly": 3618,
    "mere": 11860,
    "Ġuproar": 22159,
    "commod": 16172,
    "alarmed": 21506,
    "Ġscorn": 7901,
    "Ġabusive": 22277,
    "Ġwarden": 17227,
    "Ġgovernments": 20269,
    "hound": 20897,
    "Ġ21": 11202,
    "Ġmob": 16021,
    "isher": 2875,
    "desired": 9008,
    "Ġune": 4597,
    "Ġand": 295,
    "shut": 10983,
    "Ġislets": 21805,
    "turkish": 24534,
    "Ġshining": 8171,
    "Ġshowers": 16607,
    "Ġbrightness": 16579,
    "Ġrecede": 25969,
    "Ġinjurious": 24274,
    "Ġdisenc": 22530,
    "Ġcompanion": 3644,
    "Ġwatchman": 23668,
    "Ġincarnate": 20377,
    "eted": 7591,
    "tottenham": 25419,
    "hangs": 15372,
    "ĠĠĠĠĠĠĠĠĠĠĠĠĠĠĠĠĠĠĠĠĠĠĠĠĠĠĠĠĠĠ": 24444,
    "de": 461,
    "Ġinser": 6820,
    "Ġwithdrawing": 11342,
    "Ġser": 1670,
    "blazing": 24135,
    "'(": 2978,
    "Ġmaze": 23835,
    "Ġscared": 14195,
    "Ġgratifying": 13310,
    "Ġseaman": 8642,
    "sick": 13787,
    "move": 11859,
    "draul": 9445,
    "Ġbul": 3294,
    "Ġfierceness": 26267,
    "supers": 22655,
    "Ġnorthern": 7264,
    "mut": 17597,
    "total": 17253,
    "Ġrelinquish": 17350,
    "Ġbernard": 20687,
    "coun": 10690,
    "irement": 18356,
    "Ġconfusion": 7272,
    "Ġfierc": 18715,
    "Ġwow": 15532,
    "Ġcassock": 20489,
    "Ġeaten": 14849,
    "Ġtimely": 19596,
    "Ġon": 350,
    "Ġcatastrop": 3347,
    "Ġcheapside": 23293,
    "Ġcommands": 16591,
    "Ġreduces": 2343,
    "Ġcelerity": 17439,
    "Ġamused": 11804,
    "Ġlouisiana": 25079,
    "Ġcon": 348,
    "uend": 21104,
    "ortions": 10950,
    "southern": 20411,
    "malicious": 19903,
    "Ġadvanced": 1580,
    "banish": 20784,
    "Ġparsee": 6413,
    "promise": 12255,
    "Ġturnpike": 23033,
    "plexion": 14267,
    "ued": 7560,
    "kempt": 20943,
    "Ġmain": 810,
    "ror": 7350,
    "Ġdo": 511,
    "Ġstarbuck": 2192,
    "gloom": 17142,
    "Ġcherry": 16937,
    "Ġstuffed": 13413,
    "Ġtyph": 10011,
    "Ġwoodcock": 19165,
    "Ġhalts": 3155,
    "motives": 26138,
    "Ġjumbled": 22291,
    "ief": 2046,
    "Ġqualifications": 24677,
    "Ġexplore": 15912,
    "Ġboy": 3021,
    "Ġsuperst": 7703,
    "Ġowed": 10782,
    "Ľ": 254,
    "¸": 121,
    "Ġbirds": 5875,
    "contracting": 19295,
    "Ġload": 14149,
    "Ġbraided": 16584,
    "Ġundue": 25994,
    "Ġelephant": 8255,
    "circumstantial": 24445,
    "floated": 24645,
    "Ġbackground": 18633,
    "Ġunreserved": 19400,
    "Ġorder": 1688,
    "asets": 2310,
    "reputable": 15520,
    "Ġreneg": 21678,
    "by": 1157,
    "Ġweapons": 10596,
    "Ġxlvi": 25591,
    "em": 391,
    "Ġflushed": 13032,
    "Ġwet": 6518,
    "Ġstirs": 14921,
    "Ġpedro": 15067,
    "Ġdull": 6384,
    "Ġmerc": 9428,
    "Ġsatirical": 26281,
    "Ġvegetables": 15226,
    "Ġexal": 10879,
    "pans": 13773,
    "Ġcease": 7077,
    "Ġ65": 24369,
    "Ġcocked": 12912,
    "Ġmoran": 9344,
    "Ġimbedded": 18333,
    "acing": 2715,
    "Ġcomplying": 18586,
    "Ġextrem": 2473,
    "pred": 2799,
    "trade": 19646,
    "omach": 11638,
    "Ġsentiments": 7961,
    "Ġimpregn": 26023,
    "ĠĠĠĠĠĠĠĠĠĠĠĠĠĠĠĠĠĠĠĠĠĠĠĠĠĠĠĠĠĠĠĠĠĠĠĠĠĠĠĠ": 4516,
    "opinion": 10987,
    "la": 10707,
    "oda": 15754,
    "gradient": 2275,
    "Ġimpression": 5732,
    "Ġlany": 21557,
    "Ġstriking": 6089,
    "ma": 1150,
    "Ġcreates": 2009,
    "Ġfacetious": 20587,
    "Ġhob": 12634,
    "ces": 580,
    "iza": 6257,
    "rel": 3754,
    "pious": 17635,
    "Ġfascinating": 17331,
    "og": 874,
    "little": 3351,
    "Ġcirculation": 16420,
    "ately": 1720,
    "minds": 24236,
    "meadow": 18680,
    "Ġcircular": 13115,
    "Ġsublimity": 26348,
    "Ġnat": 12650,
    "dense": 18717,
    "Ġshore": 4834,
    "Ġtypically": 1535,
    "limping": 26395,
    "confirmed": 19642,
    "weed": 14319,
    "Ġhearers": 15707,
    "Ġselection": 18206,
    "riors": 18186,
    "boo": 16354,
    "Ġwatson": 3596,
    "social": 11024,
    "Ġpalm": 10516,
    "Ġbecher": 18881,
    "Ġhaggard": 17333,
    "once": 5905,
    "Ġobscured": 15014,
    "itable": 5437,
    "Ġluckily": 16800,
    "Ġalterations": 19871,
    "Ġinterruption": 9475,
    "Ġfanning": 23394,
    "Ġdivers": 9668,
    "Ġgestures": 13539,
    "Ġreaders": 18916,
    "Ġdimin": 3869,
    "urity": 8142,
    "Ġfol": 1286,
    "Ġlouis": 8356,
    "representativeness": 25273,
    "Ġtag": 15471,
    "fort": 1750,
    "concerned": 24640,
    "Ġkeel": 6444,
    "Ġobliging": 13248,
    "Ġwinds": 5746,
    "Ġshapeless": 24525,
    "Ġcalled": 1972,
    "Ġstrasburgh": 18615,
    "Ġpreferred": 14969,
    "Ġcentral": 7727,
    "Ġscalable": 1712,
    "Ġstorm": 4300,
    "Ġperemptory": 25741,
    "Ġdecomposition": 5343,
    "aunt": 8369,
    "Ġabstraction": 26541,
    "Ġcharcoal": 19008,
    "antarctic": 22103,
    "Ġpop": 5151,
    "Ġmost": 1021,
    "Ġaffording": 14824,
    "Ġrestrict": 16377,
    "Ġadditional": 7934,
    "surely": 10572,
    "showed": 16031,
    "ploy": 2025,
    "Ġshipw": 12984,
    "Ġinvest": 4976,
    "izzy": 3093,
    "Ġtwin": 12933,
    "Ġunder": 1635,
    "ality": 2510,
    "Ġtool": 21514,
    "ď": 208,
    "Ġchallenge": 25472,
    "Ġspectator": 19409,
    "Ġmoreover": 6165,
    "watch": 6120,
    "Ġex": 362,
    "viv": 17700,
    "Ā": 193,
    "Ġrefill": 18701,
    "Ġcurving": 16243,
    "mpt": 6656,
    "Ġmates": 4871,
    "Ġviolently": 6456,
    "creatures": 7516,
    "Ġprobabilities": 4964,
    "indirect": 22376,
    "Ġcomfortless": 23917,
    "Ġocc": 887,
    "thoughtfully": 24048,
    "Ġbottomless": 12111,
    "Ġmerciless": 25247,
    "Ġjapan": 7639,
    "Ġhamp": 12635,
    "Ġcynical": 25771,
    "Ġwe": 386,
    "Ġbelieved": 4367,
    "Ġreclining": 26035,
    "Ġunhappy": 5640,
    "ther": 481,
    "answ": 15888,
    "Ġladies": 3191,
    "Ġagricultural": 26552,
    "Ġprofile": 16490,
    "Ġbrimstone": 25687,
    "Ġpope": 11605,
    "Ġhistories": 14690,
    "ustom": 3789,
    "quired": 21853,
    "Ġassisting": 13262,
    "Ġunlocking": 20708,
    "Ġfonder": 17883,
    "orns": 12597,
    "Ġardu": 22182,
    "gigantic": 15363,
    "Ġdynam": 3289,
    "therefore": 5954,
    "Ġaffidavit": 20726,
    "Ġmabel": 17327,
    "Ġdumplings": 15195,
    "Ġsimul": 1808,
    "Ġdard": 21425,
    "Ġsigmoid": 2461,
    "sp": 894,
    "Ġhad": 441,
    "ott": 1875,
    "Ġmet": 1867,
    "sleet": 20151,
    ".âĢĶâĢľ": 20749,
    "Ġoutset": 15959,
    "Ġbad": 3982,
    "Ġbending": 12590,
    "Ġcowards": 12578,
    "elstrom": 17985,
    "Ġmcc": 21309,
    "Ġpartners": 11858,
    "Ġomit": 17818,
    "Ġscandal": 9084,
    "eed": 20843,
    "jac": 8381,
    "lightened": 12069,
    "Ġdoze": 14180,
    "woe": 21138,
    "Ġcommenced": 8533,
    "Ġfuel": 13907,
    "atic": 4013,
    "Ġpatterns": 1216,
    "skelter": 24491,
    "Ġitems": 9695,
    "ors": 854,
    "Ġeluc": 16114,
    "alescence": 15928,
    "Ġbuoyant": 13535,
    "Ġunthink": 18252,
    "Ġinterference": 8898,
    "Ġminimum": 23046,
    "Ġsecured": 6747,
    "Ġqueerest": 16418,
    "achus": 18284,
    "pervading": 18974,
    "Ġreminded": 10002,
    "Ġfinanc": 23132,
    "Ġstated": 9692,
    "Ġ183": 13243,
    "ive": 426,
    "Ġarmies": 16494,
    "remind": 23193,
    "Ġmasts": 6465,
    "itan": 10162,
    "))": 1517,
    "Ġimpart": 11785,
    "Ġwired": 17789,
    "illa": 12798,
    "Ġpresentiment": 18990,
    "ushion": 14724,
    "hes": 1401,
    "Ġcomfortable": 6096,
    "antly": 1987,
    "Ġsciences": 15955,
    "fl": 3599,
    "Ġimplement": 3098,
    "Ġpioneer": 17920,
    "Ġattached": 5392,
    "nial": 20986,
    "Ġclutched": 13522,
    "Ġ4": 3981,
    "ichever": 13960,
    "sustained": 20571,
    "itely": 5365,
    "Ġwaste": 9237,
    "Ġoughts": 23905,
    "Ġcusack": 26435,
    "Ġinvari": 6529,
    "Ġdiverse": 19211,
    "Ġcompre": 4448,
    "Ġscepticism": 25928,
    "izer": 2031,
    "do": 1995,
    "Ġits": 707,
    "allow": 5103,
    "fairly": 17222,
    "|": 96,
    "Ġsubjected": 23575,
    "chel": 11210,
    "Ġformer": 3323,
    "Ġmaledictions": 26430,
    "Ġsandwiched": 26612,
    "Ġmethod": 1480,
    "Ġgait": 13335,
    "Ġunseasonable": 26522,
    "Ġshoulder": 5849,
    "Ġinev": 10184,
    "cked": 2760,
    "cept": 553,
    "Ġfisherman": 12080,
    "wait": 11323,
    "Ġargument": 7099,
    "Ġinsists": 23678,
    "Ġconsiderations": 9412,
    "rendering": 22343,
    "Ġsympathising": 24300,
    "Ġfixedly": 19249,
    "dan": 17517,
    "mistaken": 12215,
    "Ġcontraction": 16011,
    "ol": 361,
    "Ġaccomplice": 24377,
    "Ġspeaker": 19150,
    "endar": 18365,
    "Ġmeditating": 20045,
    "acknowledging": 25477,
    "Ġsword": 6734,
    "Ġshocked": 9403,
    "closing": 23161,
    "work": 1805,
    "confusion": 13374,
    "eur": 7544,
    "affrail": 11208,
    "Ġdoctor": 5066,
    "Ġisrael": 21807,
    "Ġassurance": 7774,
    "Ġwantest": 18792,
    "Ġdestabilizing": 5052,
    "discern": 14855,
    "Ġworkman": 16263,
    "Ġpartially": 13127,
    "faces": 13723,
    "Ġcalm": 3446,
    "abhorred": 17339,
    "Ġharpoon": 3616,
    "Ġallurements": 22014,
    "Ġdeem": 18137,
    "ip": 556,
    "Ġcounters": 24144,
    "Ġstroke": 6936,
    "Ġtremble": 6906,
    "Ġmazes": 25941,
    "Ġuttermost": 19491,
    "Ġindelible": 25695,
    "Ġprick": 14482,
    "bran": 23577,
    "Ġimp": 574,
    "viii": 12025,
    "Ġtechni": 1680,
    "Ġeastward": 13394,
    "Ġwrists": 11114,
    "Ġmatches": 14400,
    "attle": 4465,
    "loat": 8890,
    "vess": 7353,
    "harpooneer": 8692,
    "Ġplug": 17150,
    "Ġrheum": 18218,
    "Ġplainly": 4380,
    "shutters": 20315,
    "Ġheav": 1851,
    "stove": 21655,
    "mering": 12495,
    "Ġpresc": 15929,
    "informed": 17739,
    "hens": 3934,
    "contempl": 13193,
    "Ġcontr": 1916,
    "ollion": 19717,
    "Ġinstrum": 6056,
    "makers": 20984,
    "genteel": 19951,
    "Ġquadruped": 20618,
    "Ġdiscrimin": 2544,
    "Ġbuttons": 12777,
    "Ġlatitudes": 9498,
    "Ġglen": 18854,
    "darkened": 24518,
    "wonders": 17146,
    "ets": 1159,
    "Ġaston": 3702,
    "Ġremo": 3785,
    "utarch": 15666,
    "Ġdarker": 13124,
    "Ġdock": 15934,
    "button": 10968,
    "Ġjura": 14193,
    "Ġthreatened": 8329,
    "itate": 6670,
    "Ġcommence": 6169,
    "Ġtexel": 25924,
    "abound": 15744,
    "Ġwherefore": 8526,
    "ĠÂ£": 5005,
    "love": 9297,
    "Ġnantucketer": 6913,
    "Ġpaling": 21464,
    "trembling": 17145,
    "Ġcomplacency": 19451,
    "Ġfavours": 23285,
    "forgotten": 12420,
    "shore": 10308,
    "sorrow": 12513,
    "breat": 10081,
    "Ġcurved": 18851,
    "Ġsquint": 22841,
    "Ġency": 21938,
    "Ġoaken": 13868,
    "Ġdesignated": 19524,
    "ashing": 4824,
    "portuguese": 25414,
    "unwholesome": 26499,
    "ĠâĢĶâĢľ_": 17720,
    "Ġpauper": 26180,
    "Ġhalloa": 13321,
    "ships": 5486,
    "v": 90,
    "Ġworried": 22930,
    "Ġframework": 2105,
    "Ġrich": 2992,
    "Ġlessons": 7691,
    "included": 19210,
    "Ġninety": 13605,
    "Ñ": 146,
    "Ġceased": 6468,
    "onym": 14652,
    "Ġtinged": 20085,
    "swing": 15432,
    "slight": 10729,
    "Ġrifled": 21981,
    "gener": 3123,
    "Ġdrowning": 19905,
    "Ġcrocodile": 20742,
    "sil": 5283,
    "utter": 7593,
    "Ġenveloping": 19736,
    "Ġtransparent": 9491,
    "eff": 2532,
    "tackle": 17324,
    "Ġtis": 15468,
    "Ġwreaths": 25938,
    "ctive": 11627,
    "Ġbulls": 23862,
    "butter": 11790,
    "robustness": 26340,
    "shudder": 26247,
    "Ġoccasionally": 5590,
    "Ġfumbled": 17884,
    "isure": 6242,
    "cary": 10693,
    "Ġseclusion": 18210,
    "Ġfifty": 4623,
    "lodged": 25908,
    "Ġnowhere": 12891,
    "future": 13720,
    "Ġseek": 4508,
    "Ġchuckled": 10650,
    "Ġyoungest": 7953,
    "Ġbroke": 5323,
    "Ġbattering": 13904,
    "Ġcompanionship": 14924,
    "Ġseventy": 7879,
    "Ġconjure": 17126,
    "Ġoldest": 12979,
    "rebell": 17766,
    "Ġevinced": 7101,
    "soldiers": 25912,
    "finished": 10557,
    "Ġstature": 10865,
    "Ġunwilling": 7885,
    "ensibility": 22552,
    "Ġdisappointed": 7098,
    "Ġrefusing": 11030,
    "Ġpoliceman": 15262,
    "Ġitaly": 10869,
    "Ġprosperity": 20259,
    "Ġprivate": 5346,
    "Ġfurnace": 19443,
    "Ġnarrated": 14875,
    "Ġsinister": 8571,
    "erm": 788,
    "inian": 21185,
    "Ġwounds": 17793,
    "Ġrenewing": 19812,
    "Ġtests": 8960,
    "Ġsauce": 15893,
    "attended": 8955,
    "younger": 11315,
    "occurred": 13342,
    "headsman": 16699,
    "ick": 836,
    "Ġ179": 19756,
    "Ġindifferent": 6176,
    "Ġmysticetus": 24923,
    "Ġgrimly": 17053,
    "Ġcatch": 4440,
    "Ġroaring": 10970,
    "Ġgemini": 26471,
    "Ġbarely": 16938,
    "loom": 18536,
    "nson": 16092,
    "introdu": 8940,
    "Ġlady": 1587,
    "Ġpenetrating": 17013,
    "Ġcand": 3277,
    "Ġhark": 8428,
    "Ġtraces": 7945,
    "Ġarranged": 9880,
    "Ġafterwards": 3531,
    "Ġcaulking": 20295,
    "Ġunprinciple": 18259,
    "Ġabraham": 18396,
    "Ġselecting": 16683,
    "Ġchild": 2260,
    "Ġbritain": 16957,
    "humoured": 11239,
    "nailed": 20998,
    "Ġaggregated": 25679,
    "cannib": 11908,
    "cast": 2925,
    "powers": 25411,
    "Ġregain": 22590,
    "Ġsore": 10766,
    "_;": 6643,
    "olerable": 7182,
    "Ġslate": 11942,
    "Ġreappearance": 21670,
    "Ġrepelled": 19087,
    "Ġenslaved": 26315,
    "Ġdoleful": 18378,
    "Ġguide": 3213,
    "Ġfastened": 7066,
    "err": 1142,
    "ety": 3521,
    "Ġburg": 23654,
    "Ġclergy": 7642,
    "Ġelevating": 19731,
    "Ġtear": 6724,
    "Ġconstrain": 2626,
    "uts": 8820,
    "apable": 6422,
    "Ġsomeone": 6705,
    "understand": 1090,
    "whenever": 11886,
    "abulary": 4799,
    "expound": 23663,
    "Ġsqueezing": 25009,
    "Ġstanzas": 21748,
    "Ġsmoothed": 23659,
    "Ġscal": 1683,
    "atched": 6375,
    "vict": 11544,
    "Ġpledge": 11604,
    "Ġheedful": 19742,
    "Ġcrept": 11023,
    "Ġbulk": 5591,
    "Ġwhitt": 18058,
    "unvarying": 21892,
    "Ġunpitying": 25661,
    "extending": 22761,
    "rec": 6004,
    "Ġsketches": 26272,
    "ouses": 5163,
    "recover": 24620,
    "Ġbanish": 15574,
    "fluttering": 23977,
    "Ġmulti": 1043,
    "Ġwithstand": 10228,
    "Ġchecking": 23291,
    "pendicular": 6499,
    "Ġcharmed": 16764,
    "Ġeddies": 25089,
    "lifted": 15390,
    "Ġjoy": 3180,
    "Ġpipes": 9855,
    "irous": 8843,
    "Ġchapters": 10475,
    "Ġbrings": 11885,
    "Ġaberdeen": 26543,
    "proposal": 18748,
    "Ġfriendship": 7245,
    "ration": 2004,
    "Ġevaluate": 3026,
    "Ġmainland": 22658,
    "Ġadmission": 23559,
    "seem": 10230,
    "Ġmole": 11796,
    "ursday": 12281,
    "olent": 8154,
    "rarely": 21637,
    "uneasy": 23686,
    "Ġjuicy": 25371,
    "Ġedd": 8397,
    "increase": 20270,
    "Ġdominant": 12400,
    "dam": 7797,
    "igner": 21705,
    "Ġorgans": 15869,
    "ater": 3369,
    "Ġunsolved": 22037,
    "Ġlogic": 13082,
    "Ġassented": 17341,
    "Ġjerk": 16952,
    "def": 1455,
    "loun": 17590,
    "Ġacquiesce": 20331,
    "æ": 167,
    "Ġthinner": 24185,
    "Ġsale": 14158,
    "Ġtoast": 21515,
    "Ġprobed": 18734,
    "Ġtearing": 14398,
    "Ġremonstr": 16165,
    "missionary": 24613,
    "Ġcomput": 601,
    "Ġundone": 24121,
    "Ġarea": 14190,
    "Ġauthorized": 16737,
    "Ġfriendless": 23030,
    "occasion": 7753,
    "Ġemployment": 8632,
    "Ġslyness": 25267,
    "offended": 16401,
    "coming": 3562,
    "nez": 22451,
    "Ġdevoutly": 25834,
    "Ġhollow": 5648,
    "F": 42,
    "caps": 20809,
    "Ġwarb": 17790,
    "Ġarrang": 2467,
    "improve": 15716,
    "itute": 9654,
    "qualified": 17099,
    "Ġphenomena": 21486,
    "Ġsister": 1477,
    "Ġentreaties": 9038,
    "Ġresembled": 18037,
    "Ġhaste": 9006,
    "solitude": 23302,
    "Ġlewis": 15729,
    "Ġresolving": 9421,
    "distraction": 24204,
    "Ġinvariably": 8063,
    "unteered": 26497,
    "illity": 18297,
    "Ġclever": 7055,
    "Ġcamp": 9167,
    "ravity": 21638,
    "Ġcleaned": 23188,
    "Ġselves": 21225,
    "?": 35,
    "Ġtherefore": 2238,
    "Ġpirates": 9076,
    "rudently": 16712,
    "scales": 22998,
    "bitts": 26123,
    "Ġchoosing": 19592,
    "effect": 8607,
    "ĠĠĠĠĠĠĠĠĠĠĠĠĠĠĠĠĠĠĠĠĠĠĠĠ": 5322,
    "elfare": 11782,
    "readily": 19365,
    "bbing": 6324,
    "Ġspermacetti": 19050,
    "Ġtrib": 13822,
    "Ġeduc": 4784,
    "Ġquitting": 7645,
    "Ġaverred": 18866,
    "Ġbottled": 23799,
    "Ġwidower": 24239,
    "hearse": 17751,
    "Ġcumbrous": 26434,
    "Ġlurch": 21558,
    "featured": 24116,
    "Ġrelaxed": 12989,
    "Ġspeedy": 11175,
    "Ġsalutation": 12401,
    "when": 1592,
    "ilted": 21726,
    "grace": 5847,
    "Ġconvalescence": 23749,
    "cape": 13701,
    "Ġchurned": 18386,
    "Ġtruly": 4795,
    "grammar": 6434,
    "Ġstruggled": 9908,
    "carte": 25401,
    "Ġcogent": 14280,
    "Ġprecise": 7076,
    "oga": 22715,
    "Ġwildly": 9416,
    "Ġmemoirs": 26207,
    "dared": 13706,
    "subsided": 25832,
    "laying": 19774,
    "Ġconge": 15750,
    "Ġperished": 11789,
    "Ġrows": 10563,
    "Ġdoubt": 2223,
    "Ġveins": 8935,
    "bred": 11472,
    "ado": 11662,
    "Ġpanthe": 19655,
    "Ġstrangest": 14800,
    "Ġapiece": 16815,
    "Ġcent": 3254,
    "Ġunderstood": 5655,
    "Ġstrolled": 16772,
    "outside": 12809,
    "Ġreckless": 13462,
    "Ġwondrous": 4734,
    "Ġdeuteronomy": 15764,
    "Ġannual": 14836,
    "thrill": 25657,
    "Ġbravery": 23841,
    "ivering": 7697,
    "Ġgranted": 22813,
    "Ġequality": 16362,
    "Ġovers": 14209,
    "Ġtrag": 13045,
    "yarn": 15460,
    "hands": 5967,
    "Ġdesiring": 14418,
    ").": 1272,
    "pret": 7211,
    "rs": 7806,
    "Ġcarpets": 18904,
    "Ġfriendly": 9823,
    "Ġstru": 2170,
    "judges": 19575,
    "Ġgrim": 7440,
    "Ġbuilding": 8062,
    "shirt": 22462,
    "cried": 8728,
    "iver": 2049,
    "bounded": 13443,
    "Ġgospel": 18004,
    "Ġvia": 2382,
    "Ġpreceding": 7527,
    "Ġ13": 6720,
    "iamond": 14593,
    "Ġsorrowful": 10539,
    "Ġfugitives": 25635,
    "Ġreus": 8826,
    "Ġpalaces": 24095,
    "scy": 21058,
    "talked": 14989,
    "ĠĠĠĠĠĠĠĠĠĠĠĠĠĠĠĠĠĠĠĠĠĠĠĠĠĠĠĠĠĠĠĠĠĠĠĠĠ": 14618,
    "lat": 9607,
    "Ġmonsieur": 12425,
    "Ġcertainly": 2495,
    "Ġacquisition": 18901,
    "Ġhier": 1896,
    "Ġ108": 19686,
    "pread": 7417,
    "Ġominous": 12428,
    "Ġthe": 270,
    "inkling": 16094,
    "nearly": 8684,
    "event": 8076,
    "crop": 20800,
    "±": 114,
    "Ġknots": 15012,
    "Ġbushes": 16404,
    "caught": 8730,
    "Ġhud": 10824,
    "rom": 420,
    "Ġshoved": 23493,
    "Ġheh": 21683,
    "Ġhun": 1498,
    "Ġjew": 9469,
    "Ġget": 1624,
    "Ġsubstantiated": 25876,
    "Ġcareful": 2611,
    "Ġfeasts": 25370,
    "Ġjoint": 12038,
    "Ġtahitian": 25428,
    "Ġdun": 6676,
    "Ġserved": 8245,
    "consequence": 9766,
    "neat": 22452,
    "Ġlonely": 6823,
    "reeling": 21247,
    "blog": 19840,
    "Ġbeliefs": 24584,
    "Ġraptures": 13500,
    "Ġlingered": 13508,
    "Ġshrugged": 12774,
    "penn": 18828,
    "usation": 18397,
    "Ġnib": 13943,
    "ien": 10104,
    "Ġlichen": 20094,
    "Ġlived": 3985,
    "Ġinquiries": 5678,
    "Ġfoaming": 18993,
    "Ġunwillingness": 20034,
    "Ġyonder": 7391,
    "Ġtoo": 1163,
    "Ġ61": 24365,
    "Ġdeliriously": 23234,
    "Ġhaws": 21956,
    "Ġfrig": 13085,
    "Ġheredit": 9219,
    "tent": 21067,
    "Ġphrensy": 25127,
    "Ġrest": 1782,
    "aration": 12612,
    "Ġrude": 7233,
    "allen": 22200,
    "ieces": 4771,
    "pooh": 18800,
    "spell": 22734,
    "Ġadmin": 23557,
    "Ġregiment": 6432,
    "Ġdolph": 12384,
    "Ġauthority": 7748,
    "swed": 24257,
    "Ġdece": 6997,
    "ellect": 7380,
    "Ġwalking": 4323,
    "national": 21000,
    "Ġtricks": 13488,
    "p": 84,
    "dist": 4480,
    "Ġboundary": 11225,
    "Ġthroats": 24577,
    "Ġlashings": 25100,
    "Ġtrifling": 10605,
    "urance": 10859,
    "owder": 8449,
    "Ġsavoury": 23881,
    "restored": 18980,
    "Ġdisplaying": 16967,
    "Ġscientific": 6858,
    "etus": 21581,
    "usion": 3301,
    "shining": 18493,
    "determined": 9082,
    "Ġfusion": 21417,
    "Ġher": 427,
    "Ġcasualty": 20343,
    "Ġdated": 10941,
    "Ġsalesman": 13672,
    "safety": 20351,
    "Ġext": 913,
    "number": 10117,
    "Ġsaxe": 13632,
    "trivial": 21095,
    "Ġincident": 6282,
    "Ġfingertips": 24021,
    "Ġrmsprop": 3354,
    "Ġunsatisfied": 22048,
    "dred": 2524,
    "Ġdebar": 24275,
    "Ġshaking": 6552,
    "insisted": 23072,
    "Ġappare": 12821,
    "Ġinquisitive": 26318,
    "Ġreal": 1634,
    "Ġvalue": 2084,
    "gledy": 25404,
    "Ġgraph": 10904,
    "Ġweaver": 11692,
    "re": 266,
    "Ġdomineer": 23719,
    "addressed": 13389,
    "pierced": 26142,
    "Ġsomehow": 4841,
    "Ġ23": 13194,
    "bular": 15317,
    "Ġequalled": 13317,
    "Ġconvention": 25547,
    "ĠĠĠĠĠĠĠĠĠĠĠĠĠĠĠĠĠĠĠĠĠĠĠĠĠĠĠĠĠĠĠĠĠĠĠĠĠĠĠĠĠ": 19584,
    "Ġenemies": 9041,
    "Ġshare": 1657,
    "Ġemerged": 8688,
    "Ġsublim": 19969,
    "Ġpleadings": 25854,
    "umbria": 23899,
    "cords": 25139,
    "{": 95,
    "Ġlarboard": 11011,
    "Ġresponsible": 9889,
    "Ġwidows": 24240,
    "Ġoarsman": 8641,
    "icacy": 15662,
    "source": 11529,
    "Ġproperties": 3116,
    "poles": 16212,
    "thoughts": 9938,
    "Ġcheck": 7270,
    "zor": 15461,
    "Ġhid": 1319,
    "Ġchin": 4890,
    "Ġfirm": 3868,
    "ention": 852,
    "spirited": 19755,
    "Ġlo": 452,
    "Ġdependencies": 2314,
    "post": 6063,
    "Ġunsupervised": 2607,
    "pursuit": 20342,
    "intimate": 22941,
    "irregular": 21916,
    "Ġpens": 21462,
    "Ġcler": 11775,
    "Ġglances": 10375,
    "Ġsumatra": 15290,
    "Ġswiss": 18883,
    "retreat": 23142,
    "Ġafford": 4364,
    "Ġpiercing": 13497,
    "Ġgidd": 25784,
    "stretched": 10210,
    "sham": 9761,
    "Ġpink": 12623,
    "unities": 15775,
    "america": 17098,
    "Ġtrouble": 3690,
    "Ġsyrian": 18354,
    "torture": 26152,
    "Ġsepulchral": 25893,
    "Ġgroom": 13969,
    "Ġdancing": 5703,
    "Ġadagrad": 2901,
    "inative": 15486,
    "his": 1414,
    "dron": 17527,
    "Ġdeath": 2043,
    "determ": 7106,
    "Ġwalks": 8969,
    "Ġslit": 13062,
    "onged": 18411,
    "Ġselling": 21227,
    "Ġgeorgiana": 8629,
    "retion": 9365,
    "Ġunqualified": 22065,
    "Ġremarking": 13128,
    "Ġnets": 21527,
    "shaw": 6864,
    "match": 15394,
    "Ġinns": 17933,
    "calcul": 12992,
    "Ġgunwales": 12245,
    "Ġcapst": 8600,
    "iceland": 21569,
    "Ġcontortions": 18476,
    "Ġmechanisms": 1576,
    "rods": 21541,
    "Ġactivity": 7919,
    "enhall": 13853,
    "Ġromans": 16761,
    "odious": 21819,
    "Ġsleepless": 14585,
    "Ġalman": 21785,
    "Ġportly": 14681,
    "Ġripp": 11222,
    "Ġdefinite": 11071,
    "Ġconve": 5455,
    "Ġdimensions": 16574,
    "streamed": 25967,
    "pane": 10123,
    "Ġloops": 8856,
    "avings": 12027,
    "gan": 2198,
    "prises": 23818,
    "proper": 7470,
    "Ġimpress": 6862,
    "pockets": 16213,
    "Ġpurposes": 11171,
    "Ġpick": 4255,
    "Ġvic": 5237,
    "Ġjig": 15950,
    "Ġwh": 328,
    "bbings": 19278,
    "hears": 12538,
    "Ġstair": 8456,
    "Ġmark": 2330,
    "Ġnavigation": 9996,
    "Ġheinous": 18042,
    "Ġandromeda": 21511,
    "Ġavowed": 16636,
    "dare": 12458,
    "Ġreaped": 18033,
    "gain": 8740,
    "Ġmort": 3458,
    "mountain": 10715,
    "woods": 13423,
    "Ġgreas": 17995,
    "Ġdespised": 14670,
    "smug": 23912,
    "Ġclassifies": 11841,
    "Ġmart": 10781,
    "fashioned": 9572,
    "impressed": 12696,
    "Ġinfat": 14503,
    "Ġblackness": 9395,
    "Ġrumpled": 24602,
    "Ġgardeners": 12125,
    "Ġsideways": 6184,
    "lur": 13750,
    "Ġethiop": 26156,
    "Ġcreation": 6439,
    "Ġindecision": 25782,
    "gris": 8259,
    "Ġsympathise": 16796,
    "Ġguided": 10462,
    "Ġinhaled": 25452,
    "Ġshrouded": 14972,
    "Ġkilled": 4953,
    "Ġroots": 11188,
    "mens": 20971,
    "Ġaxe": 15065,
    "emporary": 15802,
    "holland": 24045,
    "Ġcomely": 21859,
    "Ġjunks": 25116,
    "ontory": 10461,
    "Ġintermix": 25827,
    "Ġangel": 4852,
    "Ġpromote": 23198,
    "Ġseedy": 21967,
    "Ġservox": 23874,
    "coiled": 16488,
    "Ġpalpable": 15210,
    "grant": 10429,
    "Ġcalhoun": 23049,
    "99": 1897,
    "ounder": 11749,
    "Ġrecommendation": 17027,
    "desk": 23813,
    "ades": 5631,
    "Ġpompous": 20425,
    "Ġvehemently": 26040,
    "Ġitalian": 12414,
    "eches": 8077,
    "Ġbarbaric": 10017,
    "Ġenchanting": 17040,
    "Ġ1820": 25718,
    "programming": 10066,
    "Ġexh": 5232,
    "suffer": 24330,
    "alley": 23026,
    "enari": 21284,
    "Ġtow": 4394,
    "advice": 12162,
    "Ġfluctu": 5268,
    "Ġconfession": 11238,
    "striking": 13444,
    "greenland": 10024,
    "Ġguitar": 16272,
    "Ġincumbent": 16069,
    "Ġheed": 5630,
    "ounders": 22399,
    "Ġgrappling": 25813,
    "vicious": 21121,
    "Ġflip": 11917,
    "retched": 3067,
    "shown": 22458,
    "jack": 7343,
    "Ġescape": 2644,
    "Ġwindow": 2997,
    "umn": 5836,
    "Ġclang": 15969,
    "Ġarguments": 8036,
    "Ġansw": 2206,
    "upp": 10133,
    "Ġanchor": 7367,
    "Ġsch": 13838,
    "shri": 14239,
    "Ġchurning": 15941,
    "Ġformed": 3881,
    "Ġmoluccas": 25630,
    "ă": 196,
    "Ġri": 3394,
    "Ġlect": 9225,
    "Ġcarted": 21353,
    "sander": 11530,
    "Ġtraits": 23080,
    "glorious": 19370,
    "Ġbec": 1347,
    "Ġcasement": 25095,
    "breaking": 14768,
    "Ġtur": 2563,
    "Ġhieroglyphic": 25588,
    "rodden": 21538,
    "ĠcÃ¦": 15559,
    "ole": 9616,
    "Ġentr": 14339,
    "ian": 1241,
    "ould": 428,
    "Ġjiff": 22290,
    "Ġmaelstrom": 19359,
    "Ġlance": 4878,
    "ority": 8418,
    "Ġtwee": 22678,
    "Ġrosings": 4606,
    "poling": 12224,
    "Ġpictures": 5503,
    "Ġtruest": 16702,
    "Ġintended": 5548,
    "Ġbidden": 24648,
    "ha": 3976,
    "Ġswimming": 5507,
    "Ġconsummation": 17428,
    "Ġcontempl": 6703,
    "Ġindia": 10373,
    "perv": 1605,
    "Ġfilled": 4393,
    "blunder": 24133,
    "aggoo": 5130,
    "Ġrent": 11643,
    "towing": 17691,
    "Ġskul": 22799,
    "Ġpursuits": 12081,
    "fo": 5279,
    "Ġcome": 1244,
    "Ġexhaled": 19684,
    "Ġpains": 5965,
    "Ġallowing": 2174,
    "Ġpacifics": 24374,
    "Ġcur": 1254,
    "lively": 12489,
    "induce": 22378,
    "Ġhabitations": 24788,
    "Ġprotruded": 19473,
    "Ġdaw": 21432,
    "Ġdeformed": 14050,
    "zers": 21149,
    "Ġindulge": 10585,
    "Ġ52": 24318,
    "find": 6954,
    "Ġundaunted": 24123,
    "Ġmedical": 9472,
    "Ġspades": 12801,
    "Ġnovel": 6697,
    "Ġblaming": 22934,
    "Ġconsciousness": 9951,
    "Ġrandomly": 1922,
    "Ġbeside": 5192,
    "contents": 12061,
    "Ġflu": 3278,
    "rably": 21636,
    "Ġrecollection": 6623,
    "ced": 745,
    "Ġjur": 12838,
    "anean": 7442,
    "ender": 9163,
    "13": 20752,
    "Ġilluminated": 20177,
    "oons": 12503,
    "Ġbir": 17856,
    "indust": 18436,
    "Ġaint": 17747,
    "ques": 2838,
    "Ġang": 2509,
    "concerns": 24071,
    "Ġabating": 22271,
    "Ġvalues": 2649,
    "Ġedged": 23490,
    "Ġwasn": 6998,
    "eric": 3470,
    "Ġarve": 15897,
    "Ġsolutions": 1948,
    "Ġnails": 12653,
    "Ġrolls": 8333,
    "conditionally": 24835,
    "Ġascendency": 20234,
    "Ġrepeated": 3830,
    "aming": 5829,
    "20": 20755,
    "isp": 5528,
    "Ġhindrance": 25221,
    "Ġcabinets": 23866,
    "iction": 4267,
    "Ġmenacing": 23113,
    "Ġpious": 11602,
    "bering": 18692,
    "Ġidentity": 2521,
    "Ġcorrespondent": 19824,
    "hurriedly": 25511,
    "september": 14039,
    "Ġpeculiar": 3149,
    "Ġcommitting": 22676,
    "Ġequival": 4782,
    "Ġhappier": 10362,
    "abash": 18111,
    "Ġvariants": 1792,
    "Ġelsewhere": 7712,
    "Ġprognost": 15285,
    "Ġdelic": 4133,
    "odings": 4398,
    "Ġreckoning": 14982,
    "gh": 3800,
    "Ġcalculate": 13268,
    "heartily": 24219,
    "designated": 26320,
    "Ġfurnish": 9022,
    "Ġepit": 18010,
    "Ġtolland": 24991,
    "Ġstudies": 7955,
    "vi": 2374,
    "sharks": 14243,
    "Ġbarrels": 9438,
    "Ġboscombe": 8325,
    "ifling": 15787,
    "Ġeasy": 3451,
    "flagged": 23976,
    "Ġlion": 9678,
    "Ġretiring": 16284,
    "strom": 15688,
    "Ġrod": 9283,
    "Ġsingular": 4422,
    "Ġtierce": 15481,
    "Ġarticulate": 24433,
    "Ġsatisf": 2803,
    "amed": 4447,
    "Ġlatest": 16824,
    "Ġinfatuated": 20536,
    "Ġundulations": 19518,
    "Ġbarbarous": 13480,
    "Ġdazzling": 15216,
    "Ġhandsomer": 20335,
    "heads": 4094,
    "vest": 6232,
    "Ġremnants": 22797,
    "Ġbehav": 3540,
    "Ġkrusen": 20716,
    "Ġplank": 7034,
    "Ġsetbacks": 11065,
    "Ġdesolation": 12273,
    "ante": 11726,
    "Ġknowest": 12868,
    "Ġphys": 5653,
    "pardonable": 17220,
    "Ġdup": 21430,
    "yard": 5901,
    "Ġoriginate": 24125,
    "Ġfift": 6382,
    "Ġsecretary": 19445,
    "unct": 18158,
    "Ġjustify": 11074,
    "treas": 17681,
    "Ġavast": 9923,
    "Ġaffecting": 2323,
    "Ġimitation": 22175,
    "cowardly": 25750,
    "Ġcounter": 6481,
    "Ġfold": 5531,
    "Ġscrape": 14922,
    "arious": 10319,
    "Ġinch": 7849,
    "strange": 6087,
    "depend": 9115,
    "collecting": 26082,
    "Ġreluctant": 20528,
    "Ġcombination": 22863,
    "rive": 9710,
    "Ġbenef": 3487,
    "shark": 14242,
    "Ġripples": 25506,
    "Ġstandards": 19016,
    "Ġcordial": 16837,
    "Ġled": 3522,
    "Ġasked": 2278,
    "Ġfrancis": 26064,
    "aract": 17897,
    "Ġcryst": 9920,
    "rudence": 7093,
    "prophecy": 22831,
    "Ġclumsy": 9582,
    "orous": 5294,
    "Ġly": 2269,
    "inclination": 20060,
    "Ġdistinguish": 2724,
    "Ġesteem": 7530,
    "Ġmantle": 25275,
    "ikes": 8086,
    "Ġprocessing": 897,
    "gments": 12474,
    "Ġmythologies": 26215,
    "Ġlogits": 3449,
    "presented": 12995,
    "hills": 13739,
    "Ġnightgown": 23136,
    "leg": 2810,
    "._]]": 5335,
    "resnet": 4067,
    "Ġbreed": 19075,
    "prejudiced": 17300,
    "given": 8376,
    "Ġcooked": 13273,
    "Ġdiabolism": 25515,
    "Ġengraved": 17082,
    "Ġthrowing": 6336,
    "pots": 11517,
    "icions": 21566,
    "rosc": 17958,
    "rippa": 11343,
    "Ġlanes": 19767,
    "Ġstage": 7388,
    "spades": 14336,
    "Ġunsupplied": 22047,
    "Ġsurmisings": 26595,
    "Ġminiatures": 20323,
    "atives": 2235,
    "Ġevidently": 6760,
    "Ġsermon": 12380,
    "ivened": 22971,
    "buck": 17493,
    "Ġseas": 3076,
    "explain": 1485,
    "Ġknown": 1643,
    "tinted": 17685,
    "consternation": 16927,
    "wherein": 19109,
    "Ġoutrageous": 20613,
    "Ġexcused": 23317,
    "Ġrealise": 16339,
    "Åĵuv": 15187,
    "rally": 17653,
    "Ġscare": 18406,
    "pents": 11516,
    "Ġscot": 5643,
    "Ġsect": 17754,
    "shapes": 22466,
    "rew": 3649,
    "scar": 9819,
    "Ġslaughter": 20732,
    "Ġturn": 1297,
    "Ġaccosted": 13676,
    "Ġobjections": 8567,
    "Ġdissol": 18551,
    "glances": 23857,
    "quick": 6400,
    "Ġthames": 13941,
    "ading": 5090,
    "Ġtickets": 17095,
    "idirectional": 2421,
    "Ġbenefited": 19401,
    "inte": 5144,
    "smoke": 17225,
    "tack": 12517,
    "whip": 22241,
    "Ġlords": 14644,
    "Ġredu": 1351,
    "Ġdiligently": 11408,
    "swelled": 19612,
    "Ġnoise": 1070,
    "Ġvalley": 5852,
    "intervals": 10640,
    "Ġmari": 6814,
    "Ġdelivered": 11118,
    "Ġcontrived": 10306,
    "exam": 10978,
    "Ġsalisbury": 24067,
    "Ġwife": 2586,
    "impl": 21710,
    "Ġslighted": 16570,
    "miserable": 8660,
    "august": 11073,
    "requiem": 24857,
    "Ġpenn": 11113,
    "immedi": 8451,
    "passage": 11264,
    "Ġincorrupt": 19236,
    "aborate": 14025,
    "token": 21085,
    "ales": 3317,
    "Ġfaithful": 9505,
    "charles": 14703,
    "Ġdeserts": 10510,
    "Ġhav": 12759,
    "ortunities": 15944,
    "Ġdeclaration": 16639,
    "regular": 3042,
    "avor": 14283,
    "feel": 3811,
    "uncle": 8158,
    "Ġunmanner": 22033,
    "everlasting": 18773,
    "Ġcit": 10785,
    "struct": 2270,
    "sm": 3435,
    "Ġlearns": 2640,
    "Ġhil": 10823,
    "Ġguinea": 8950,
    "Ġhart": 17925,
    "Ġcheetah": 14508,
    "Ġjulia": 22296,
    "Ġarg": 4765,
    "hauteur": 26393,
    "Ġshort": 2225,
    "Ġerrand": 11087,
    "Ġcoils": 9306,
    "Ġbrougham": 17873,
    "Ġwretched": 4080,
    "Ġexquisite": 12386,
    "meant": 7920,
    "Ġproflig": 23570,
    "Ġthy": 2511,
    "Ġformality": 22834,
    "Ġlar": 763,
    "Ġsplash": 16552,
    "Ġpalmed": 24094,
    "Ġfrankness": 16748,
    "Ġunquestion": 18253,
    "tastes": 21099,
    "Ġearly": 2078,
    "Ġbriefly": 11370,
    "Ġcharing": 14184,
    "Ġprecipice": 19943,
    "happiest": 19334,
    "Ġgallantry": 15108,
    "Ġgrows": 4983,
    "simon": 16974,
    "Ġnormalizes": 1864,
    "Ġfalls": 14647,
    "ifled": 14066,
    "Ġsummoning": 23878,
    "Ġannot": 15606,
    "Ġbattalions": 25777,
    "Ġgnarled": 25169,
    "Ġready": 3397,
    "Ġgrasped": 8033,
    "enial": 17783,
    "Ġindividuality": 14913,
    "prim": 23815,
    "Ġpetticoat": 15299,
    "property": 20002,
    "Ġejaculated": 15174,
    "Ġdocks": 14181,
    "hack": 20898,
    "Ġphysi": 9991,
    "Ġworry": 18817,
    "aim": 2753,
    "pointing": 12229,
    "Ġsharks": 4497,
    "arness": 11675,
    "happ": 3102,
    "Ġheadland": 22901,
    "Ġanalyze": 1654,
    "Ġintimately": 24801,
    "Ġsunday": 7269,
    "Ġfurlong": 18742,
    "Ġinstructed": 19286,
    "Ġfirmness": 11240,
    "Ġbelonged": 6922,
    "Ġmanaged": 7905,
    "Ġavenue": 13625,
    "Ġbarbarously": 24816,
    "irty": 4045,
    "Ġacross": 1329,
    "disciple": 16780,
    "culine": 19067,
    "Ġdrown": 6816,
    "complied": 19914,
    "elab": 21573,
    "Ġarisen": 11748,
    "Ġdiscernible": 15074,
    "theories": 18082,
    "Ġalliance": 18237,
    "omitted": 18020,
    "Ġ30": 10514,
    "specul": 23947,
    "Ġherself": 1568,
    "entire": 6824,
    "shoes": 14244,
    "Ġmatrices": 4967,
    "Ġstoven": 23181,
    "Ġenlarge": 21940,
    "Ġfought": 12598,
    "pest": 6965,
    "Ġunmingled": 18268,
    "fiend": 13665,
    "Ġrelevance": 5184,
    "Ġrocks": 6863,
    "elope": 14464,
    "unched": 10238,
    "killed": 15380,
    "pain": 7349,
    "Ġont": 18120,
    "possession": 12226,
    "Ġmute": 19419,
    "Ġplaything": 19239,
    "Ġclum": 8876,
    "eastern": 17535,
    "Ġgap": 21602,
    "inable": 11559,
    "Ġbulkhead": 24512,
    "Ġclank": 15971,
    "Ġbar": 3144,
    "Ġfiss": 21415,
    "Ġanalytical": 22915,
    "Ġnotion": 7881,
    "sensations": 20053,
    "leviathan": 7784,
    "Ġtwinkled": 14316,
    "Ġtemporary": 7980,
    "cence": 9591,
    "Ġannesley": 19579,
    "Ġcask": 5527,
    "apprehens": 17409,
    "Ġjogged": 26237,
    "Ġbottles": 16573,
    "Ġtumble": 16881,
    "ads": 5718,
    "barrel": 17061,
    "bitt": 17488,
    "Ġentreated": 9954,
    "Ġbrine": 18771,
    "larking": 17596,
    "Ġinvent": 7164,
    "nable": 13765,
    "Ġskewer": 19622,
    "Ğ": 223,
    "Ġty": 6660,
    "Ġslates": 11108,
    "orate": 10802,
    "Ġabounding": 12348,
    "Ġbatch": 889,
    "fight": 17540,
    "als": 2042,
    "Ġgunwale": 7324,
    "Ġrudimental": 25111,
    "Ġreligions": 20110,
    "arer": 3964,
    "Ġdiscerned": 25006,
    "Ġexceptionable": 25504,
    "ethe": 9679,
    "Ġacres": 14317,
    "Ġvisions": 12978,
    "Ġunshored": 25814,
    "Ġfatt": 15583,
    "Ġskipper": 22801,
    "kles": 17586,
    "Ġthrusts": 24351,
    "Ġthyself": 6604,
    "period": 15901,
    "inter": 2946,
    "supper": 12930,
    "Ġsurm": 7475,
    "affect": 13216,
    "Ġsprout": 24092,
    "erative": 21275,
    "Ġgibe": 25960,
    "Ġpendulous": 25956,
    "Ġvent": 3992,
    "Ġcoast": 4655,
    "Ġachieves": 4378,
    "Ġcompletion": 12152,
    "Ġvoc": 4450,
    "gest": 5426,
    "Ġcontrary": 5261,
    "Ġupp": 13995,
    "ren": 548,
    "ance": 478,
    "people": 7676,
    "ims": 7176,
    "ê": 171,
    "Ġsame": 1340,
    "Ġconcernment": 23647,
    "Ġforthwith": 16620,
    "admit": 18094,
    "analy": 17841,
    "Ġenumer": 12750,
    "Ġhumbug": 18781,
    "maker": 12497,
    "Ġhing": 11608,
    "Ġug": 8140,
    "wreat": 21130,
    "ume": 4835,
    "Ġrecent": 7435,
    "Ġpowder": 11278,
    "Ġeligible": 10673,
    "Ġcool": 5735,
    "Ġhatchway": 13528,
    "addressing": 24402,
    "successfully": 14995,
    "nue": 15400,
    "Ġincludes": 2011,
    "Ġdarkly": 19116,
    "Ġstung": 21742,
    "Ġbuckle": 17034,
    "variance": 2653,
    "situ": 9624,
    "brace": 16944,
    "shook": 19856,
    "100": 11467,
    "Ġconversations": 9427,
    "Ġpale": 4531,
    "erity": 21270,
    "Ġobstinacy": 17424,
    "Ġcringed": 25943,
    "Ġjunk": 15952,
    "Ġponder": 6819,
    "Ġhowling": 8511,
    "osa": 22264,
    "Ġskirting": 22800,
    "ceiling": 21630,
    "Ġbricks": 13566,
    "Ġincivility": 18574,
    "Ġtant": 12530,
    "Ġofficio": 23820,
    "Ġlight": 1701,
    "Ġpride": 3822,
    "Ġrelationship": 2315,
    "Ġpositions": 2057,
    "test": 13795,
    "varieties": 23192,
    "Ġsmite": 22562,
    "civilized": 17076,
    "Ġwindlass": 7255,
    "Ġvener": 8163,
    "Ġbagging": 24540,
    "Ġdividing": 12116,
    "Ġmalice": 7152,
    "Ġhues": 21492,
    "Ġparliament": 18303,
    "Ġgum": 21598,
    "extent": 22759,
    "Ġisles": 8460,
    "suggested": 17302,
    "Ġinitial": 822,
    "Ġhesitation": 13445,
    "write": 14650,
    "houn": 20895,
    "Ġdimmed": 24271,
    "free": 8739,
    "Ġcheery": 16371,
    "Ġrags": 18648,
    "Ġpleasantest": 24141,
    "Ġnlp": 3061,
    "Ġdivision": 19447,
    "Ġenchant": 7184,
    "istical": 8491,
    "Ġfif": 4216,
    "mits": 13759,
    "Ġfestoon": 20296,
    "detached": 19676,
    "Ġmalignant": 14882,
    "commission": 22809,
    "Ġdeductions": 19735,
    "grow": 10101,
    "use": 2533,
    "Ġsubdivisions": 26038,
    "Ġquantization": 19854,
    "Ġsentiment": 6590,
    "Ġcivilly": 19605,
    "moreover": 12974,
    "gr": 2085,
    "Ġpicturesque": 14898,
    "Ġgradually": 3400,
    "Ġcentre": 5121,
    "Ġlurks": 11293,
    "Ġheaven": 3364,
    "artificial": 964,
    "whilst": 18372,
    "ion": 296,
    "Ġdel": 1615,
    "garious": 17560,
    "ugn": 9381,
    "Ġhighly": 4844,
    "eck": 20846,
    "abhor": 12712,
    "Ġbegrim": 23019,
    "Ġshar": 9253,
    "repeating": 20131,
    "Ġmorose": 18845,
    "Ġtranspired": 16786,
    "Ġallow": 1130,
    "Ġperhaps": 1912,
    "Ġartful": 22613,
    "Ġful": 4296,
    "preading": 18498,
    "Ġwhistled": 24621,
    "dashing": 20838,
    "Ġexultation": 15176,
    "ã": 164,
    "Ġgained": 4534,
    "Ġpaused": 5416,
    "Ġlun": 7855,
    "true": 2585,
    "intim": 22938,
    "ras": 21039,
    "ork": 416,
    "eter": 11625,
    "hammock": 16357,
    "Ġtorrid": 25035,
    "Ġconfusing": 23311,
    "Ġproprietor": 12377,
    "Ġtried": 3648,
    "tot": 10730,
    "conside": 9293,
    "Ġbull": 7838,
    "Ġunabated": 15857,
    "Ġpuffed": 14980,
    "playful": 24358,
    "Ġassu": 21902,
    "inting": 9817,
    "Ġmaintaining": 1510,
    "Ġnewton": 3533,
    "disappointed": 25192,
    "paying": 25412,
    "acute": 22549,
    "avish": 22598,
    "Ġplaned": 24059,
    "Ġdazz": 11598,
    "miseries": 16759,
    "Ĥ": 229,
    "Ġanchored": 17443,
    "histicated": 20903,
    "Ġblock": 2575,
    "Ġemotion": 7689,
    "churning": 21700,
    "Ġglens": 18856,
    "Ġtakes": 5006,
    "omit": 13977,
    "Ġrichest": 26213,
    "ulating": 10889,
    "Ġhelplessness": 25074,
    "clings": 23157,
    "Ġharmony": 16816,
    "shake": 22459,
    "hus": 5071,
    "Ġwillingly": 8888,
    "relate": 24015,
    "hunters": 16835,
    "Ġthimble": 15641,
    "inkers": 22618,
    "rene": 5379,
    "troubled": 17113,
    "================": 3723,
    "Ġdeftly": 26495,
    "Ġjost": 23633,
    "nnight": 20995,
    "glory": 23856,
    "Ġheartfelt": 18968,
    "Ġdraught": 9848,
    "d": 72,
    "ientiously": 21946,
    "iments": 4943,
    "Ġfetched": 24569,
    "Ġtearless": 24785,
    "Ġcomp": 724,
    "Ġenergetic": 15202,
    "Ġrisk": 8038,
    "Ġaustrian": 24303,
    "Ġcentury": 8290,
    "Ġquieted": 23847,
    "Ġperish": 8878,
    "A": 37,
    "Ġbells": 19603,
    "Ġindebted": 8711,
    "Ġwhelmed": 26000,
    "Ġshell": 11741,
    "visitor": 15061,
    "meantime": 9095,
    "Ġvessel": 3798,
    "gno": 13730,
    "Ġcompass": 4407,
    "Ġcovent": 16079,
    "Ġerred": 21159,
    "Ġpeculiarly": 8286,
    "ster": 1953,
    "Ġpersu": 3563,
    "bless": 22316,
    "Ġunc": 2123,
    "Ġfur": 992,
    "Ġregularly": 7657,
    "interruption": 20114,
    "Ġbund": 17866,
    "protest": 24812,
    "Ġunstruct": 2993,
    "Ġemma": 20697,
    "Ġpriest": 7525,
    "Ġign": 8293,
    "Ġpossesses": 19355,
    "intention": 10370,
    "Ġnieces": 8433,
    "Ġpovelson": 26554,
    "evening": 7090,
    "Ġtreatise": 19348,
    "Ġdomains": 6618,
    "Ġoverjoy": 15976,
    "Ġlaws": 8002,
    "Ġprovincial": 20652,
    "Ġgrowl": 16540,
    "Ġdam": 2216,
    "Ġenraged": 10247,
    "renew": 24451,
    "Ġsurtout": 23468,
    "aways": 15314,
    "Ġconfidently": 24958,
    "Ġhate": 5445,
    "distinct": 13340,
    "Ġproclaim": 18134,
    "Ġcordon": 24395,
    "Ġascended": 8669,
    "Ġpassion": 4556,
    "enges": 13059,
    "Ġcred": 8785,
    "Ġvomit": 21953,
    "oubled": 23648,
    "inc": 2518,
    "tallied": 21092,
    "progression": 20384,
    "Ġmorbidness": 20631,
    "achel": 7032,
    "resemblance": 25934,
    "cor": 5520,
    "engagements": 25855,
    "prior": 21035,
    "king": 3059,
    "Ġbomb": 17870,
    "Ġquietly": 4566,
    "barbaric": 26360,
    "Ġcommunicate": 10580,
    "Ġneighbor": 25804,
    "permission": 15902,
    "vital": 17702,
    "generative": 4329,
    "Ġgreat": 895,
    "ield": 2408,
    "Ġrasc": 21979,
    "Ġavoided": 13263,
    "Ġsubsequent": 7658,
    "Ġkins": 22198,
    "Ġxxxii": 24973,
    "tormented": 13649,
    "Ġmist": 2874,
    "Ġdeduce": 8336,
    "Ġpurplish": 19142,
    "lifeless": 24315,
    "confined": 24329,
    "Ġdeficient": 18826,
    "caut": 20814,
    "Ġvolcanoes": 24150,
    "Ġfeeding": 7971,
    "Ġpair": 5706,
    "Ġice": 3603,
    "Ġlighted": 7064,
    "ouement": 21451,
    "Ġdecisions": 6704,
    "Ġalluding": 18238,
    "paper": 9139,
    "Ġstate": 1812,
    "silent": 9977,
    "Ġcritically": 23446,
    "Ġpreserved": 9265,
    "fourth": 11331,
    "food": 12468,
    "Ġsemicircular": 26070,
    "Ġshone": 7403,
    "Ġsisterly": 16307,
    "Ġcorrupt": 11928,
    "Ġinstincts": 16988,
    "iates": 13740,
    "Ġmaybe": 12954,
    "Ġrelish": 14388,
    "Ġpals": 13921,
    "Ġhig": 754,
    "Ġgarn": 13966,
    "fugitive": 26132,
    "Ġvaguely": 17369,
    "Ġovercome": 6044,
    "sme": 17660,
    "Ġdense": 8122,
    "Ġeach": 892,
    "Ġevap": 19625,
    "Ġfogs": 25283,
    "onic": 7826,
    "Ġnotice": 4542,
    "Ġplu": 8803,
    "Ġdepend": 777,
    "co": 2433,
    "indifferent": 14212,
    "Ġoverl": 18428,
    "puzzling": 26144,
    "Ġnerves": 2625,
    "Ġfruit": 12330,
    "Ġjonah": 3479,
    "jol": 20927,
    "Ġphantom": 8710,
    "Ġcontrols": 1731,
    "Ġenrolled": 21942,
    "Ġcorrespond": 6211,
    "¬": 110,
    "Ġtribe": 10753,
    "Ġattendant": 11288,
    "Ġharry": 24573,
    "Ġfix": 2505,
    "Ġsixpence": 19319,
    "Ġsinging": 7723,
    "amouch": 21849,
    "Ġhessian": 3548,
    "my": 1315,
    "Ġe": 312,
    "atha": 6574,
    "Ġairs": 14516,
    "Ġ-": 1946,
    "°": 113,
    "balls": 12309,
    "Ġimplicate": 24877,
    "Ġtuesday": 9629,
    "Ġattempted": 8000,
    "scores": 22996,
    "Ġluxuriant": 20397,
    "Ġspread": 5161,
    "Ġrephr": 21682,
    "ahawk": 23320,
    "wedged": 24560,
    "Ġadam": 2125,
    "Ġthine": 7373,
    "Ġcondesc": 7181,
    "Ġexpectantly": 23527,
    "Ġdependency": 3486,
    "Ġview": 2759,
    "Ġaccuse": 14215,
    "angry": 18295,
    "Ġdepends": 1067,
    "igning": 12686,
    "invisible": 17743,
    "leeward": 15215,
    "Ġsouls": 6309,
    "sails": 7496,
    "Ġvolat": 24148,
    "Ġmel": 4816,
    "Ġmainz": 22656,
    "Ġparsonage": 7124,
    "Ġgaily": 16750,
    "described": 18897,
    "quent": 2093,
    "Ġsolicit": 22891,
    "Ġpole": 6433,
    "Ġspec": 1264,
    "all": 485,
    "Ġlanguor": 12853,
    "Ġusefulness": 19411,
    "Ġimpelled": 11787,
    "Ġare": 527,
    "beaut": 8514,
    "gressive": 2751,
    "Ġinhospit": 25453,
    "ricane": 16282,
    "oices": 7347,
    "natural": 2391,
    "Ġtarts": 10755,
    "Ġ115": 24440,
    "round": 3367,
    "Ġclicked": 22359,
    "Ġvitality": 15177,
    "Ġgeological": 14536,
    "Ġoverthrow": 18432,
    "Ġtenderest": 23552,
    "Ġdistinct": 4608,
    "Ġtheology": 21279,
    "Ġlay": 586,
    "leap": 21370,
    "treacle": 25151,
    "Ġlatin": 16823,
    "preced": 10312,
    "Ġmumbled": 17810,
    "ilies": 18060,
    "Ġwhel": 15870,
    "Ġconvolutional": 2161,
    "Ġwhitened": 24868,
    "Ġmar": 1311,
    "tired": 21075,
    "Ġplunged": 8696,
    "Ġprodig": 6028,
    "goldsmith": 20149,
    "Ġdecayed": 22829,
    "vain": 15450,
    "Ĉ": 201,
    "befall": 22499,
    "Ġprivacy": 19527,
    "gether": 1596,
    "Ġfin": 1462,
    "Ġcopestone": 24939,
    "Ġrhone": 25231,
    "Ġassistants": 9453,
    "Ġscraps": 16904,
    "Ġcanterbury": 22171,
    "dev": 7632,
    "Ġfourteen": 12014,
    "bloom": 24689,
    "Ġhospit": 7513,
    "Ġnext": 2138,
    "iard": 9604,
    "Ġslight": 3117,
    "Ġstone": 4645,
    "!âĢĿ": 846,
    "||": 4868,
    "Ġzer": 1096,
    "Ġro": 600,
    "Ġsmilingly": 22565,
    "in": 262,
    "Ġanimal": 2496,
    "ne": 645,
    "Ġhydraulic": 10067,
    "Ġboisterous": 20445,
    "Ġsociable": 19406,
    "Ġsuavely": 26525,
    "elect": 20848,
    "whales": 5187,
    "pretend": 24883,
    "Ġcondem": 6339,
    "fare": 7798,
    "Ġbon": 8790,
    "Ġtrance": 12844,
    "Ġepic": 15033,
    "quer": 11682,
    "Ġyourself": 2592,
    "Ġfireboard": 23535,
    "Ġcet": 6672,
    "Ġabomination": 22282,
    "Ġunwillingly": 15853,
    "ices": 2136,
    "Ġcocoanuts": 26364,
    "Ġcra": 2331,
    "bres": 11474,
    "Ġapples": 22217,
    "Ġpaunch": 23753,
    "Ġinvol": 1036,
    "Ġbroken": 3447,
    "said": 4103,
    "Ġhistorically": 19381,
    "Ġjacob": 1900,
    "descend": 23090,
    "rospect": 11616,
    "Ġblades": 11900,
    "Ġimparts": 18446,
    "Ġfishermen": 5971,
    "Ġtriangular": 14863,
    "Ġjustice": 5110,
    "Ě": 219,
    "indulged": 22379,
    "Ġscreen": 17208,
    "leagues": 21376,
    "mbles": 23093,
    "ornamented": 26597,
    "Ġpromises": 10403,
    "Ġclad": 12845,
    "Ġemergencies": 17365,
    "Ġvect": 1228,
    "irements": 22216,
    "Ġmustering": 18663,
    "Ġrespectively": 23252,
    "Ġtunnel": 14934,
    "dwelt": 23875,
    "onist": 21253,
    "Ġperceptibly": 25822,
    "cre": 4249,
    "Ġresidence": 8206,
    "Ġso": 430,
    "Ġpadded": 25039,
    "Ġobst": 6573,
    "Ġedge": 5189,
    "sacred": 17030,
    "Ġswitzerland": 10382,
    "lit": 9608,
    "Ġhilarity": 20299,
    "remark": 7260,
    "Ġcalling": 5662,
    "Ġadjacent": 20713,
    "Ġthoughtful": 16195,
    "key": 5462,
    "commander": 16989,
    "include": 23592,
    "belonged": 25598,
    "Ġdataset": 12825,
    "Ġneutral": 12749,
    "Ġsilk": 11967,
    "exper": 8882,
    "Ġagainst": 1699,
    "Ġmont": 8561,
    "Ġbustle": 17230,
    "Ġscimet": 22307,
    "Ġfanned": 19101,
    "Ġcharm": 4547,
    "Ġunclad": 22058,
    "exasper": 22431,
    "hatch": 15368,
    "Ġsilver": 7463,
    "ć": 200,
    "flow": 2167,
    "Ġpunish": 12164,
    "Ġwrithed": 17107,
    "Ġclaps": 22353,
    "aments": 12730,
    "Ġhoist": 11981,
    "Ġattacking": 24466,
    "Ġfishers": 19357,
    "Ġrug": 16161,
    "Ġwearing": 12744,
    "er": 269,
    "embers": 21934,
    "Ġtestament": 23204,
    "assembled": 21548,
    "Ġsiberia": 26162,
    "readiness": 19366,
    "Ġsquat": 14372,
    "Ġcorresponding": 13442,
    "Ġdenying": 14661,
    "dham": 20832,
    "talking": 10010,
    "lege": 17844,
    "deaux": 22152,
    "Ġsolitude": 6876,
    "Ġvain": 3630,
    "Ġtwit": 12934,
    "Ġdust": 5910,
    "Ġtu": 6969,
    "Ġpurchasing": 19876,
    "Ġreg": 733,
    "Ġimpute": 18332,
    "him": 1940,
    "studies": 25170,
    "brary": 5755,
    "Ġpupp": 10822,
    "quered": 11055,
    "Ġsens": 1854,
    "Ġsymb": 2590,
    "algorith": 3520,
    "chancing": 22923,
    "Ġphrases": 2795,
    "Ġmemo": 18121,
    "×": 152,
    "aloes": 21505,
    "Ġinf": 1757,
    "itime": 15552,
    "county": 25397,
    "Ġheated": 21685,
    "Ġtop": 2469,
    "Ġcrony": 23441,
    "obscure": 23103,
    "Ġmadman": 13155,
    "Ġdoes": 941,
    "opatra": 22479,
    "howling": 18991,
    "Ġalps": 10872,
    "Ġreminiscences": 26271,
    "io": 3801,
    "Ġcheers": 16369,
    "methodically": 20666,
    "Ġsatisfactory": 11195,
    "Ġstand": 1734,
    "consol": 9765,
    "agement": 4187,
    "Ġheartless": 13077,
    "Ġfarmhouse": 24987,
    "hotel": 20052,
    "Ġmechan": 1184,
    "Ġmott": 17806,
    "understanding": 1111,
    "haz": 17566,
    "Ġthieves": 15640,
    "Ġdella": 21442,
    "wishing": 21131,
    "Ġapothe": 12379,
    "Ġridiculous": 10631,
    "Ġglut": 18855,
    "Ġauthorities": 11267,
    "ze": 1354,
    "Ġmoulton": 17438,
    "Ġspoiled": 11366,
    "enesis": 24389,
    "Ġregimentals": 19858,
    "farewell": 12310,
    "Ġconquered": 14029,
    "###": 3826,
    "bolt": 25138,
    "rush": 7012,
    "Ġprettier": 23769,
    "Ġnecess": 3475,
    "Ġdisp": 3358,
    "Ġinsignific": 13184,
    "secre": 18131,
    "clinging": 20824,
    "Ġmelancholy": 5606,
    "adventures": 20258,
    "Ġsupplication": 25492,
    "arse": 7160,
    "Ġcordially": 16838,
    "Ġ1950": 11362,
    "added": 11663,
    "Ġsuck": 15866,
    "Ġgilder": 21616,
    "Ġcig": 6520,
    "Ġflukes": 5267,
    "Ġgreyish": 24212,
    "Ġrecesses": 17263,
    "Ġsavesoul": 26229,
    "moil": 22707,
    "Ġhysterical": 26093,
    "Ġinverted": 12642,
    "Ġaugment": 8695,
    "icherry": 15140,
    "Ġlurked": 11294,
    "Ġowes": 20087,
    "anybody": 12087,
    "Ġprinciple": 6771,
    "Ġfairly": 6326,
    "Ġchart": 10947,
    "artic": 14224,
    "Ġloveliest": 20263,
    "endurable": 22232,
    "purposes": 25024,
    "omb": 10208,
    "Ġmastiff": 23728,
    "Ġdot": 4820,
    "r": 86,
    "Ġfitted": 6245,
    "lect": 1226,
    "Ġbreezes": 14873,
    "Ġenl": 18191,
    "Ġmischie": 22772,
    "ery": 1269,
    "Ġpreternatural": 12828,
    "Ġpreparations": 12314,
    "Ġwinding": 8235,
    "Ġhanover": 20589,
    "carries": 19530,
    "foundered": 20869,
    "Ġmeets": 7395,
    "Ġsaloon": 24066,
    "Ġneat": 7000,
    "charitable": 23937,
    "Ġspurned": 12802,
    "position": 15416,
    "Ġearthy": 23713,
    "athed": 7827,
    "umed": 6555,
    "Ġcannibal": 7773,
    "Ġdomain": 3701,
    "sar": 12509,
    "ingu": 2118,
    "visible": 10536,
    "developed": 15268,
    "Ġpia": 21466,
    "Ġsqualid": 14373,
    "utral": 12668,
    "Ġsimilitude": 19212,
    "Ġmig": 13859,
    "Ġoffic": 3183,
    "Ġaccordance": 19501,
    "damn": 20026,
    "Ġstillness": 12998,
    "Ġsubordinate": 18723,
    "ena": 11572,
    "Ġundo": 15845,
    "ce": 313,
    "Ġgrie": 3583,
    "Ġpalsy": 25779,
    "Ġhers": 7888,
    "popular": 26141,
    "Ġcultiv": 13560,
    "!--": 10680,
    "Ġunimpe": 22076,
    "Ġportraits": 20144,
    "Ġinvader": 23481,
    "cutting": 23788,
    "worship": 19390,
    "crime": 14778,
    "leton": 5148,
    "try": 7811,
    "triumph": 15443,
    "Ġeggs": 12346,
    "Ġtheatre": 21281,
    "cturn": 17990,
    "Ġadmeasurements": 26227,
    "Ġlaurel": 20656,
    "afterwards": 7483,
    "Ġanyone": 4458,
    "serpent": 16295,
    "Ġimmedi": 2902,
    "Ġwhosoever": 21722,
    "Ġperpetual": 12307,
    "Ġremains": 4909,
    "Ġsheltered": 19912,
    "tstone": 21087,
    "Ġunit": 1849,
    "sphere": 22735,
    "wound": 21129,
    "Ġbordering": 17231,
    "athered": 6973,
    "enthusiastic": 20695,
    "born": 7542,
    "bar": 7540,
    "Ġgrove": 12151,
    "pow": 10719,
    "account": 5330,
    "oat": 13767,
    "Ġclimates": 25053,
    "Ġsupernatural": 9876,
    "Ġinjunction": 19619,
    "Ġtiara": 26417,
    "Ġprying": 15613,
    "Ġlengthwise": 10454,
    "nearer": 22454,
    "unhappy": 10240,
    "specific": 10500,
    "greatly": 16626,
    "Ġavenues": 25430,
    "Ġminds": 6304,
    "Ġbecame": 2688,
    "drifting": 19826,
    "fainting": 20475,
    "Ġinspire": 12000,
    "Ġordin": 16653,
    "Ġwithdrew": 9699,
    "Ġserenely": 13510,
    "dost": 14538,
    "elements": 25204,
    "quake": 11683,
    "Ġpearl": 20379,
    "Ġclinched": 17397,
    "Ġplatform": 17134,
    "Ġrele": 2914,
    "Ġoce": 3031,
    "Ġinvisibly": 24814,
    "Ġchildren": 3767,
    "Ġesquimaux": 25154,
    "Ġimpartial": 15224,
    "doub": 6225,
    "Ġii": 7383,
    "coarse": 16489,
    "impul": 16559,
    "perpet": 14165,
    "vour": 17701,
    "Ġequ": 1733,
    "Ġtrop": 7564,
    "considerably": 13449,
    "Ġdeduced": 12212,
    "Ġnest": 10191,
    "Ġgenus": 24430,
    "Ġnetwork": 451,
    "ptember": 10896,
    "Ġprophecy": 25706,
    "Ġincant": 18570,
    "Ġdeck": 2137,
    "towns": 24855,
    "Ġfoolishly": 19783,
    "Ġhiss": 15792,
    "trouble": 8295,
    "Ġattach": 14291,
    "Ġalow": 18103,
    "Ġoffspring": 16146,
    "Ġreel": 9216,
    "Åĵ": 10746,
    "cures": 20807,
    "amp": 2604,
    "Ġbanqu": 12593,
    "Ġcloser": 8663,
    "ixed": 4851,
    "interested": 9508,
    "attacked": 23126,
    "Ġcivilised": 24248,
    "throw": 14101,
    "Ġmot": 2984,
    "entric": 11623,
    "ornament": 23491,
    "Ġelegant": 7531,
    "surf": 24216,
    "Ġremonstrance": 20626,
    "fiery": 13585,
    "Ġnarrowed": 24356,
    "Ġendwise": 23140,
    "acit": 16066,
    "Ġsince": 1796,
    "Ġthr": 5709,
    "Ġprophets": 20452,
    "ura": 1071,
    "Ġjewels": 12373,
    "Ġopenshaw": 7954,
    "Ġnecessitated": 23933,
    "hester": 9634,
    "Ġadapted": 11042,
    "gaffman": 26392,
    "Ġnug": 21528,
    "Ġassociation": 24709,
    "Ġ36": 14771,
    "alled": 5912,
    "Ġsequel": 14364,
    "indul": 22374,
    "Ġloos": 15875,
    "intosh": 22944,
    "ī": 236,
    "Ġslapped": 23177,
    "Ġunite": 9257,
    "Ġroofs": 16986,
    "upt": 13801,
    "somewhere": 12017,
    "Ġoccurred": 4461,
    "distance": 12157,
    "remaining": 20222,
    "tips": 13799,
    "Ġannihil": 10177,
    "Ġcontrolled": 23255,
    "Ġrefers": 1567,
    "avoiding": 25237,
    "Ġlanguage": 651,
    "Ġmisconduct": 22770,
    "osed": 1961,
    "Ġtremor": 24767,
    "under": 3129,
    "across": 10325,
    "majesty": 26282,
    "Ġdiverged": 23597,
    "Ġsulk": 15049,
    "ied": 940,
    "Ġschooner": 16749,
    "Ġoff": 901,
    "quimaux": 21857,
    "Ġreception": 9842,
    "Ġisa": 14028,
    "Ġpetulance": 24231,
    "Ġsobs": 14136,
    "Ġdisconsol": 18557,
    "jar": 17579,
    "Ġburtons": 19254,
    "Ġantilles": 24182,
    "pleasant": 5876,
    "Ġdisastrous": 16063,
    "Ġforeshadowing": 26594,
    "Ġsyllable": 9732,
    "presents": 18798,
    "Ġdoll": 10815,
    "Ġlofty": 6219,
    "continuing": 24480,
    "walked": 10573,
    "apparently": 15209,
    "Ġslices": 23171,
    "Ġlurid": 19683,
    "Ġdeprec": 15762,
    "Ġapplied": 6188,
    "Ġpoured": 8805,
    "Ġferocious": 17422,
    "Ġhare": 5157,
    "Ġdragging": 14480,
    "ucket": 2482,
    "Ġuncle": 3190,
    "Ġrel": 1097,
    "tawn": 21083,
    "Ġknives": 14841,
    "Ġeddying": 17119,
    "desirable": 23814,
    "recurring": 24198,
    "Ġca": 21342,
    "pur": 7805,
    "Ġoutdone": 22322,
    "ister": 1294,
    "Ġdispersed": 16599,
    "Ġrewarded": 14944,
    "Ġcrescentic": 20624,
    "Ġapril": 13666,
    "Ġweights": 896,
    "Ġparadigms": 3056,
    "spot": 9794,
    "Ġmantelpiece": 15212,
    "extrem": 18704,
    "result": 12047,
    "raltar": 24237,
    "Ġsmoky": 22563,
    "Ġadversarial": 5607,
    "Ġpool": 5173,
    "imprisonment": 23766,
    "abilities": 3236,
    "Ġcheese": 9380,
    "Ġgroping": 13669,
    "Ġincl": 4269,
    "ff": 462,
    "resent": 10771,
    "hors": 9601,
    "Ġestimated": 16596,
    "Ġvor": 15810,
    "zen": 5140,
    "Ġcav": 13883,
    "zors": 21150,
    "Ġextinguished": 10346,
    "Ġscroll": 14197,
    "Ġasser": 6259,
    "urns": 10216,
    "sol": 1791,
    "Ġinclination": 6626,
    "L": 48,
    "Ġobli": 9319,
    "Ġrefused": 6717,
    "Ġdesist": 16240,
    "rant": 11520,
    ":âĢĶ": 4430,
    "Ġloungers": 24863,
    "plan": 15818,
    "onday": 6065,
    "Ġpoltroon": 26600,
    "Ġanalog": 12617,
    "luxur": 25823,
    "mil": 13755,
    "Ġ97": 19776,
    "Ġgerm": 13967,
    "favour": 9551,
    "Ġfurthest": 22820,
    "Ġstig": 14005,
    "Ġlig": 21551,
    "Ġcomforts": 14697,
    "Ġlavenza": 17974,
    "Ġmonotonous": 13267,
    "Ġassaulted": 25321,
    "Ġchalk": 15937,
    "embedding": 20359,
    "Ġpleasurable": 23345,
    "Ġcate": 4108,
    "Ġlam": 21552,
    "Ġspr": 4020,
    "ipelagoes": 13675,
    "Ġpromotion": 23199,
    "abbering": 21800,
    "&": 10,
    "material": 13133,
    "Ġenergies": 25460,
    "accomplishment": 20225,
    "Ġplanet": 14754,
    "oton": 3606,
    "northern": 23667,
    "shell": 16290,
    "fortnight": 13091,
    "Ġselected": 9714,
    "labour": 23919,
    "interest": 5421,
    "Ġdocuments": 10026,
    "superstitiousness": 25508,
    "taken": 7559,
    "Ġenhance": 2977,
    "Ġlivid": 14993,
    "incl": 8109,
    "Ġpeev": 22696,
    "Ġcompares": 20168,
    "Ġappertaining": 26535,
    "introduce": 25187,
    "sort": 6799,
    "manners": 16187,
    "Ġawkwardness": 13491,
    "fle": 7129,
    "isl": 21378,
    "Ġstiffly": 15008,
    "Ġslightly": 7292,
    "below": 12126,
    "ios": 2265,
    "Ġprofessed": 14728,
    "Ġlat": 5086,
    "Ġpitiful": 13244,
    "magnitude": 17251,
    "Ġsquire": 16184,
    "sullenly": 26150,
    "Ġberyl": 20492,
    "Ġlounged": 19956,
    "Ġfamil": 4319,
    "Ġespe": 21158,
    "Ġcontentment": 14874,
    "Ġevangel": 11283,
    "be": 668,
    "hood": 2657,
    "ogue": 9788,
    "`": 68,
    "Ġworking": 5574,
    "Ġdistinctly": 7310,
    "Ġmo": 629,
    "Ġbeheaded": 11660,
    "Ġinvite": 14566,
    "Ġsunny": 13090,
    "laborers": 23920,
    "umberland": 16839,
    "Ġutter": 3970,
    "ppo": 18179,
    "occasionally": 13524,
    "Ġprime": 10406,
    "Ġstatue": 23154,
    "Ġaround": 3610,
    "Ġjonas": 20611,
    "Ġimagined": 8610,
    "Ġjoker": 22292,
    "kl": 4864,
    "grasp": 16433,
    "horizon": 23618,
    "Ġpluck": 15618,
    "Ġdeer": 12725,
    "ically": 848,
    "Ġinnocence": 6477,
    "Ġahab": 1217,
    "Ġinclinations": 19542,
    "Ġpaus": 4298,
    "Ġproof": 6155,
    "casks": 20405,
    "dreaded": 25141,
    "Ġ16": 7926,
    "Ġargued": 13633,
    "unaffected": 21888,
    "nigh": 13766,
    "Ġmagg": 18907,
    "âĢĻ": 378,
    "intentions": 22943,
    "ibles": 18787,
    "atoes": 17778,
    "Ġjer": 6268,
    "Ġderived": 8238,
    "uity": 12522,
    "Ġwhirlwinds": 20467,
    "Ġassistant": 7297,
    "Ġshivering": 10268,
    "Ġeditions": 19154,
    "Ġcastaways": 19431,
    "thousands": 16874,
    "Ġreach": 4042,
    "Ġconceivable": 16615,
    "Ġlightened": 23266,
    "Ġwilled": 21294,
    "Ġtransplanted": 22445,
    "Ġreconciliation": 25293,
    "jep": 20928,
    "Ġyours": 4123,
    "better": 7120,
    "Ġgrec": 18961,
    "Ġfearful": 6199,
    "cial": 2645,
    "fthand": 26388,
    "circumstances": 8046,
    "Ġodds": 13334,
    "rmsprop": 4521,
    "Ġpatter": 827,
    "william": 4561,
    "Ġtears": 4230,
    "Ġauthor": 4374,
    "Ġafresh": 18628,
    "Ġjabez": 11770,
    "verity": 14004,
    "arman": 11599,
    "Ġseason": 5238,
    "Ġbam": 15570,
    "ihood": 20923,
    "Ġinvective": 26183,
    "Ġliberality": 24378,
    "full": 7419,
    "cated": 20805,
    "circumspect": 26087,
    "Ġtwos": 18658,
    "carry": 19529,
    "height": 21208,
    "tained": 4404,
    "Ġuttered": 7279,
    "leagued": 26437,
    "Ġalways": 1698,
    "'m": 9585,
    "Ġspoutings": 14679,
    "benefit": 24644,
    "keeping": 8638,
    "seven": 8465,
    "ond": 1160,
    "Ġensigns": 23689,
    "Ġleakage": 23461,
    "Ġcardboard": 19981,
    "she": 1400,
    "mystery": 15160,
    "upright": 23020,
    "Ġsod": 11565,
    "flood": 19808,
    "Ġmem": 2163,
    "Ġpreparation": 13532,
    "icorn": 15661,
    "Ġimagine": 3920,
    "Ġmorocc": 22978,
    "Ġexisted": 15759,
    "diligence": 26111,
    "Ġhosmer": 6775,
    "Ġaltering": 18106,
    "âĢĻ!âĢĿ": 18171,
    "Ġconfederate": 17356,
    "Ġdad": 12605,
    "Ġvanished": 6874,
    "phia": 22766,
    "Ġcough": 11585,
    "wantonly": 25153,
    "yield": 13812,
    "umst": 2501,
    "Ġpods": 17916,
    "Ġreads": 23118,
    "Ġthought": 1094,
    "Ġslo": 15509,
    "Ġwoke": 21292,
    "Ġoccupies": 24012,
    "Ġahead": 6665,
    "Ġmankind": 6700,
    "Ġboard": 3382,
    "Ġsyntax": 957,
    "Ġcontrivances": 12361,
    "Ġeternal": 5976,
    "Ġextent": 7656,
    "sufficient": 6638,
    "Ġken": 22195,
    "Ġneck": 4884,
    "ĠâĢĶâĢĶ": 25758,
    "Ġgra": 415,
    "Ġenormousness": 24516,
    "erve": 12554,
    "thereby": 14451,
    "Ġmarbank": 23043,
    "Ġacre": 22684,
    "fowl": 17551,
    "Ġincorpor": 13169,
    "Ġsecrets": 9057,
    "tfordshire": 4810,
    "gryphon": 15362,
    "oregressive": 3423,
    "clock": 3930,
    "Ġunfortunately": 10911,
    "por": 2147,
    "Ġaglow": 22517,
    "Ġren": 3844,
    "Ġplentiful": 12916,
    "Ġpreliminary": 10060,
    "Ġserving": 14489,
    "intu": 22937,
    "Ġdestroyer": 13417,
    "derness": 11742,
    "pleasure": 5978,
    "Ġpit": 3419,
    "island": 10796,
    "cent": 8072,
    "Ġdiscriminative": 4326,
    "Ġsheets": 9725,
    "sun": 7140,
    "Ġdial": 10812,
    "Ġstudents": 23219,
    "mises": 20980,
    "Ġspectacle": 10499,
    "Ġresounded": 22548,
    "Ġbreaths": 14861,
    "Ġreceptive": 1565,
    "hom": 12478,
    "Ġlima": 10444,
    "Ġcringing": 25942,
    "clut": 23156,
    "ily": 1032,
    "Ġassistance": 6334,
    "Ġhundreds": 4327,
    "Ġmatrim": 11062,
    "conclusion": 25672,
    "Ġrequisition": 22636,
    "heading": 5487,
    "Ġmermaid": 17816,
    "Ġyears": 1894,
    "ohnson": 16328,
    "Ġsalmon": 24065,
    "Ġbizarre": 17874,
    "Ġreceives": 20356,
    "Ġfobbing": 26443,
    "utored": 15667,
    "ca": 20795,
    "built": 16827,
    "leads": 21373,
    "Ġsell": 7824,
    "Ġstaring": 8829,
    "lock": 1472,
    "assistant": 25568,
    "ience": 824,
    "Ġlaudanum": 20693,
    "ents": 1898,
    "Ġslabs": 13066,
    "strugg": 21665,
    "Ġdents": 13914,
    "chased": 18045,
    "scence": 14423,
    "dishonourable": 26367,
    "atigable": 15274,
    "currents": 23849,
    "G": 43,
    "Ġcareless": 11121,
    "Ġ500": 24325,
    "gallantry": 15062,
    "Ġconsented": 11298,
    "uge": 4012,
    "Ġremove": 7498,
    "Ġcrucifix": 26080,
    "Ġbowlines": 19324,
    "itar": 15551,
    "Ġdespatched": 23834,
    "aring": 1479,
    "footsteps": 25200,
    "ompl": 4535,
    "Ġowns": 22828,
    "Ġbrah": 19360,
    "Ġencouraging": 2263,
    "Ġcetology": 10012,
    "Ġsearching": 13166,
    "Ġrossum": 3012,
    "Ġwrinkles": 8573,
    "different": 6501,
    "great": 3516,
    "Ġcondu": 18113,
    "Ġexam": 3711,
    "contemplated": 20460,
    "Ġorb": 22095,
    "Ġap": 5007,
    "Ġtorments": 13398,
    "Ġnile": 21524,
    "Ġwallowed": 24046,
    "Ġprediction": 2239,
    "Ġquakers": 22420,
    "Ġbison": 21391,
    "Ġhorses": 6385,
    "mosp": 8088,
    "Ġpertaining": 18452,
    "brimmed": 14591,
    "concern": 6101,
    "Ġmantel": 11442,
    "article": 22395,
    "Ã¦st": 24178,
    "Ń": 260,
    "leag": 21369,
    "dering": 5307,
    "Ġcharley": 19007,
    "Ġbab": 5291,
    "wards": 1276,
    "glings": 23855,
    "Ġacquiring": 2764,
    "excellent": 8043,
    "Ġmrs": 1469,
    "Ġevid": 3500,
    "narrowly": 20349,
    "biting": 20783,
    "Ġberry": 19748,
    "eastward": 15134,
    "Ġfishy": 16525,
    "braid": 17497,
    "suff": 4959,
    "Ġwrench": 12562,
    "encoun": 12302,
    "thrown": 8482,
    "Ġmicrosc": 20679,
    "Ġtriumph": 5143,
    "leness": 4690,
    "Ġgenerate": 1475,
    "Ġfulfil": 9553,
    "Ġ89": 19714,
    "craft": 12251,
    "Ġstreams": 12197,
    "ostent": 16848,
    "Ġunquestionable": 26223,
    "Ġsingled": 23776,
    "Ġregions": 10327,
    "Ġrapidly": 3246,
    ");": 7329,
    "expectations": 24280,
    "taught": 17686,
    "Ġunche": 23432,
    "Ġconsecutive": 20705,
    "oded": 11674,
    "pull": 6797,
    "race": 11635,
    "Ġsloop": 25931,
    "Ġ1778": 25730,
    "Ġslugg": 15272,
    "Ġmonica": 22984,
    "read": 3276,
    "aker": 3663,
    "oss": 10118,
    "Ġpasseng": 12976,
    "harpo": 4804,
    "Ġinward": 11611,
    "Ġinterrupt": 4358,
    "Ġbert": 4581,
    "Ġexploding": 2108,
    "Ġsomnam": 23009,
    "discovered": 8324,
    "Ġfir": 17880,
    "Ġsoaked": 15864,
    "Ġire": 12672,
    "Ġscaramouch": 23832,
    "Ġshoots": 14571,
    "resses": 16157,
    "Ġbanished": 10619,
    "Ġredoubled": 23757,
    "leaves": 12583,
    "Ġexeget": 24086,
    "Ġcoer": 22583,
    "rosings": 15648,
    "lose": 12887,
    "Ġelderly": 13498,
    "Ġdemanding": 16807,
    "mindful": 19601,
    "Ġemig": 14527,
    "supernatural": 19780,
    "irksome": 18176,
    "Ġinstruction": 14343,
    "Ġhudson": 15196,
    "Ġwooded": 23522,
    "Ġspoil": 17009,
    "Ġcrammed": 16473,
    "Ġunmethodically": 22074,
    "Ġforwards": 12708,
    "tie": 21071,
    "Ġomitted": 12569,
    "Ġsund": 8248,
    "Ġdearer": 14052,
    "Ġascribe": 16784,
    "Ġnotable": 18224,
    "ink": 755,
    "omon": 10209,
    "Ġconnect": 799,
    "Ġdebated": 9043,
    "Ġenticements": 26034,
    "Ġconnecting": 18632,
    "Ġfigures": 8633,
    "Ġtrem": 6662,
    "Ġrambles": 17187,
    "Ġcane": 10929,
    "Ġpostponed": 20392,
    "threadbare": 25990,
    "asburgh": 15651,
    "Ġscuff": 15953,
    "Ġmortal": 4681,
    "finding": 17015,
    "Ġfiend": 4410,
    "Ġstash": 18071,
    "felix": 10656,
    "Ġformerly": 7492,
    "nowadays": 22341,
    "abashed": 21796,
    "Ġbubbling": 17329,
    "Ġconfused": 7964,
    "substance": 15235,
    "rates": 21041,
    "tossing": 18582,
    "heavy": 10577,
    "Ġdistracted": 11808,
    "affection": 7486,
    "Ġnear": 1717,
    "reflection": 13459,
    "$": 8,
    "commanded": 16990,
    "Ġthoughtfulness": 18775,
    "Ġconverse": 11848,
    "Ġvindictiveness": 25739,
    "Ġzeal": 9101,
    "renched": 7906,
    "Ġinquirers": 24965,
    "problems": 11437,
    "Ġchurches": 12833,
    "imely": 14001,
    "fa": 7335,
    "Ġskies": 8924,
    "Ġeurope": 8061,
    "Ġwilliam": 3481,
    "Ġspine": 7406,
    "Ġseizure": 21969,
    "ited": 1751,
    "poured": 17639,
    "Ġlingering": 11382,
    "joy": 3335,
    "Ġbidirectional": 3755,
    "Ġapproximates": 2418,
    "Ġingen": 9052,
    "Ġundersampling": 19521,
    "Ġunfailing": 24114,
    "Ġhugh": 15007,
    "sust": 15425,
    "4": 24,
    "waiter": 24588,
    "deployment": 26529,
    "accessible": 13643,
    "treatment": 20414,
    "Ġoccurring": 2790,
    "ial": 410,
    "Ġcoopman": 25829,
    "asper": 7854,
    "txt": 12520,
    "Ġjuncture": 17132,
    "Ġsixth": 16562,
    "Ġepis": 19984,
    "discrimin": 19610,
    "Ġgod": 1937,
    "Ġmerit": 9429,
    "Ġurged": 6782,
    "Ġvult": 12757,
    "Ġcomparison": 7100,
    "Ġsurpass": 13587,
    "Ġgenial": 12199,
    "absent": 21793,
    "Ġhereafter": 9333,
    "Ġhumph": 22887,
    "Ġgovernor": 16492,
    "increas": 10456,
    "pton": 15798,
    "Ġball": 3623,
    "ib": 1238,
    "Ġmotioned": 19594,
    "Ġdiary": 24737,
    "impotence": 23765,
    "âĢĺ": 939,
    "didst": 19352,
    "Ġambiguous": 20166,
    "Ġperil": 5557,
    "Ġrelied": 16198,
    "Ġsegmentation": 17343,
    "Ġdoing": 3661,
    "Ġshank": 22002,
    "Ġenglishman": 11232,
    "Ġdeeply": 4716,
    "Ġrange": 9715,
    "actions": 8910,
    "Ġtyphoon": 12393,
    "shabb": 18496,
    "Ġwearily": 18181,
    "shorn": 22461,
    "Ġpsalmody": 20588,
    "overs": 17623,
    "Ġasks": 5114,
    "orphans": 26442,
    "Ġgro": 4395,
    "Ġkne": 4265,
    "ositories": 22268,
    "Ġhousehold": 8570,
    "Ġoverpower": 12847,
    "Ġadmirer": 16840,
    "imitably": 21714,
    "Ġflo": 2587,
    "Ġdisembow": 22541,
    "glue": 17558,
    "?âĢĶ": 3467,
    "Ġhotels": 19539,
    "surprising": 16920,
    "Ġmidday": 23635,
    "history": 15018,
    "Ġbritannica": 24680,
    "uc": 1879,
    "Ġhadn": 9722,
    "iply": 22368,
    "Ġloved": 4598,
    "dig": 4928,
    "Ġpassengers": 13679,
    "Ġaugust": 10600,
    "Ġexcellence": 11454,
    "poster": 11058,
    "Ġcatholic": 20684,
    "Ġappeased": 23205,
    "Ġreview": 18034,
    "Ġglittering": 10056,
    "Ġconstrued": 26302,
    "Ġperform": 1035,
    "Ġnigh": 4877,
    "Ġacquainted": 5179,
    "ertain": 1208,
    "satisfied": 10581,
    "Ġpresently": 5115,
    "Ġstatements": 7515,
    "Ġreveren": 13199,
    "Ġinstigated": 18696,
    "Ġimpat": 4455,
    "Ġgate": 6825,
    "Ġprudential": 17921,
    "Ġordering": 18998,
    "Ġgayer": 24502,
    "nesday": 8706,
    "Ġentailed": 11028,
    "footman": 17165,
    "Ġfondness": 16782,
    "Ġduck": 8798,
    "iquet": 17577,
    "Ġplanting": 16090,
    "rue": 1131,
    "Ġblush": 14406,
    "Ġgenerating": 12854,
    "star": 12677,
    "asked": 8915,
    "explaining": 23149,
    "Ġpeninsula": 23201,
    "functions": 11256,
    "bbs": 23692,
    "cour": 4479,
    "Ġgames": 11630,
    "Ġpsal": 15620,
    "Ġsignature": 16495,
    "azed": 9401,
    "engines": 18930,
    "grained": 20885,
    "tanh": 5204,
    "Ġsteeply": 23727,
    "Ġexciting": 23316,
    "base": 20779,
    "Ġcongen": 10875,
    "Ġtrailing": 23084,
    "Ġmonarchs": 25851,
    "table": 5795,
    "Ġoptimization": 1408,
    "Ġmixed": 6975,
    "Ġalgorithm": 776,
    "Ġcollection": 8222,
    "nantucket": 7803,
    "Ġcut": 2639,
    "Ġgave": 2218,
    "Ġshuddering": 9054,
    "str": 2577,
    "Ġposture": 24168,
    "Ġcrossing": 7252,
    "Ġsong": 5904,
    "Ġsafety": 6340,
    "Ġgalvan": 21620,
    "Ġroom": 1465,
    "ader": 14015,
    "Ġperv": 15994,
    "Ġsympathies": 14865,
    "achusetts": 20712,
    "Ġsandwich": 19830,
    "ander": 6401,
    "tering": 3806,
    "Ġprimal": 17108,
    "Ġfug": 12600,
    "Ġbelie": 14410,
    "luckily": 19754,
    "Ġbehaves": 23305,
    "Ġfeigned": 22214,
    "Ġdestined": 7974,
    "Ġstandpoint": 23282,
    "enemy": 15530,
    "¹": 122,
    "Ġsoundings": 13137,
    "Ġpetty": 19597,
    "ade": 880,
    "Ġoccasions": 7987,
    "dles": 11484,
    "sleeves": 26110,
    "Ġparaphrasing": 26528,
    "Ġrelatives": 12987,
    "Ġreputation": 11644,
    "Ġaffection": 2637,
    "themselves": 6541,
    "Ġheart": 1595,
    "Ġforms": 6397,
    "revival": 26163,
    "ckery": 22094,
    "Ġclearer": 16315,
    "'t": 3141,
    "Ġmurky": 19204,
    "ibid": 18843,
    "related": 24016,
    "risonment": 17378,
    "Ġpresumably": 19626,
    "crimin": 17511,
    "weigh": 18666,
    "Ġarbit": 4650,
    "Ġvirt": 3904,
    "grieved": 17320,
    "Ġwhittingham": 26199,
    "Ġbored": 16109,
    "enter": 7857,
    "sense": 11527,
    "Ġcomprehending": 24446,
    "Ġrighteous": 18948,
    "ique": 8746,
    "Ġflamingo": 15105,
    "Ġdeferred": 18827,
    "benevolent": 15237,
    "Ġdevelopment": 7059,
    "latitude": 25260,
    "Ġthomson": 26456,
    "Ġperfume": 25666,
    "ĠĠĠĠĠĠĠĠĠĠĠĠĠĠĠĠĠĠĠĠĠĠĠĠĠĠĠ": 14890,
    "alling": 6037,
    "ome": 535,
    "neck": 14238,
    "Ġsociety": 3973,
    "gaff": 20884,
    "pre": 648,
    "Ġadding": 2404,
    "Ġrebounds": 25968,
    "acca": 23600,
    "Ġopenly": 8575,
    "Ġstudious": 23218,
    "Ġvaliantly": 22807,
    "Ġmarling": 23040,
    "chery": 24552,
    "Ġrefuge": 8542,
    "Ġbough": 13897,
    "Ġreadiness": 13055,
    "Ġrises": 9716,
    "Ġfaintest": 24571,
    "Ġwithered": 19468,
    "hamlet": 23267,
    "Ġridges": 16733,
    "rine": 21040,
    "Ġunctuous": 10270,
    "Ġapproximate": 2341,
    "Ġembraces": 19873,
    "Ġobe": 5801,
    "Ġnormal": 1203,
    "sleeve": 26109,
    "Ġcoiling": 12913,
    "amid": 12729,
    "Ġsqueaking": 26276,
    "Ġinquiring": 9001,
    "Ġsap": 18324,
    "Ġmappings": 2145,
    "Ġconflict": 17276,
    "Ġhooped": 23359,
    "Ġintimacy": 8704,
    "step": 2455,
    "Ġvineyard": 12334,
    "Ġrecourse": 22755,
    "Ġintelligent": 1429,
    "Ġsmiling": 5475,
    "atum": 21262,
    "Ġslaughtered": 26586,
    "Ġfrown": 10809,
    "irm": 3106,
    "ources": 2786,
    "rinted": 21046,
    "loveliness": 26551,
    "Ġsurprising": 14600,
    "º": 123,
    "ambition": 13415,
    "Ġpossessor": 23828,
    "Ġfris": 23260,
    "heum": 17750,
    "Ġwildness": 14606,
    "}": 97,
    "Ġmeeting": 5193,
    "(-": 2979,
    "Ġdisagreeable": 9301,
    "Ġremarkable": 4914,
    "Ġhearties": 18967,
    "Ġthenceforth": 25183,
    "Ġdarcy": 1341,
    "best": 6113,
    "oning": 7571,
    "Ġwooden": 4729,
    "Ġwhence": 5840,
    "terdam": 18133,
    "Ġted": 13815,
    "fulness": 4309,
    "Ġsleet": 8978,
    ",âĢĶ": 3166,
    "bro": 4030,
    "Ġdistension": 22508,
    "Ġmonument": 16241,
    "lections": 4751,
    "game": 11494,
    "Ġabomin": 8188,
    "andering": 21871,
    "Ġjeopard": 9946,
    "Ġtattoo": 7358,
    "le": 279,
    "Ġfo": 1652,
    "Ġlake": 5227,
    "Ġdinah": 9455,
    "taste": 10132,
    "ict": 595,
    "grandfather": 25012,
    "avast": 8901,
    "Ġpuff": 6526,
    "thodox": 21993,
    "Ļ": 252,
    "nel": 11508,
    "partiality": 13164,
    "Ġgrapp": 14104,
    "itty": 3554,
    "tale": 10130,
    "Ġobliter": 14326,
    "Ġpersons": 6182,
    "Ġcompassion": 6487,
    "Ġvigorous": 10569,
    "bree": 15318,
    "elizabeth": 1985,
    "Ġsta": 18066,
    "Ġcemeteries": 26377,
    "Ġextinct": 14344,
    "Ġmanipulated": 25179,
    "Ġportent": 12086,
    "Ġabsurdly": 19962,
    "convalescence": 24885,
    "Ġhealthful": 24062,
    "Ī": 235,
    "inted": 2646,
    "venor": 16104,
    "avail": 18606,
    "Ġdistributing": 22682,
    "completed": 19996,
    "Ġwallet": 21301,
    "Ġnoblest": 13247,
    "Ġsank": 5075,
    "Ġslip": 8957,
    "Ġstalls": 25648,
    "Ġearth": 2847,
    "Ġdeliverance": 15162,
    "nowled": 5470,
    "Ġsurface": 5118,
    "Ġunsupp": 22025,
    "Ġlament": 7856,
    "luyt": 18455,
    "gir": 8082,
    "Ġbarbary": 24220,
    "Ġgriev": 16637,
    "Ġdoubts": 8582,
    "Ġmysteries": 11325,
    "scarcely": 12390,
    "Ġallured": 14116,
    "engaged": 7451,
    "Ġvap": 6837,
    "Ġbreathes": 13251,
    "Ġdefine": 9818,
    "Ġshould": 862,
    "separated": 20161,
    "tarpaul": 21100,
    "Ġaverages": 2400,
    "Ġwipe": 25765,
    "don": 3544,
    "somewhat": 11162,
    "sunlight": 24852,
    "igms": 3046,
    "favourable": 12268,
    "Ġcomposing": 16074,
    "Ġwandering": 8656,
    "shuff": 18492,
    "Ġdecreed": 18485,
    "garity": 17556,
    "Ġdraw": 3671,
    "Ġdiabolical": 20344,
    "Ġfolly": 7940,
    "urried": 21707,
    "Ġmingling": 20199,
    "Ġobserver": 11993,
    "Ġoutward": 7903,
    "Ġsuperlatively": 26076,
    "acqu": 4842,
    "Ġuninter": 18251,
    "Ġcondition": 6765,
    "Ġenchanted": 9083,
    "constantly": 24631,
    "Ġacquaintances": 17353,
    "Ġconsole": 8150,
    "lessly": 4555,
    "Ġabsorbed": 12335,
    "Ġtread": 9411,
    "Ġnavigators": 19765,
    "Ġprovince": 24192,
    "Ġpew": 9318,
    "Ġseeth": 21965,
    "Ġcommunity": 19010,
    "bacc": 7794,
    "pity": 17629,
    "Ġobtaining": 16136,
    "ommod": 13980,
    "ament": 2438,
    "Ġhams": 16614,
    "Ġsolving": 2481,
    "Ġfashioned": 13324,
    "Ġservant": 5764,
    "itchen": 7787,
    "Ġdisturbing": 19948,
    "Ġadduced": 26526,
    "ago": 14068,
    "ino": 15482,
    "Ġmiserably": 12953,
    "Ġslips": 23172,
    "Ġunlimited": 26224,
    "Ġmadame": 13154,
    "Ġbegone": 11921,
    "Ġsphynx": 20714,
    "Ġripe": 13240,
    "Ĕ": 213,
    "Ġside": 1391,
    "Ġtrusty": 24107,
    "Ġlantern": 7117,
    "Ġstil": 15722,
    "bold": 17490,
    "Ġderick": 9367,
    "emper": 18189,
    "Ġgreatness": 12948,
    "what": 642,
    "itz": 6006,
    "Ġhed": 7386,
    "Ġdiv": 3731,
    "pered": 4197,
    "ands": 21870,
    "Ġseverely": 14937,
    "Ġattempting": 14700,
    "Ġfurniture": 6476,
    "dipped": 20839,
    "Ġhappiness": 2942,
    "Ġcin": 13878,
    "Ģ": 227,
    "helmsman": 24290,
    "iple": 4805,
    "Ġtruck": 19514,
    "Ġcosmopolitan": 20643,
    "Ġjuggl": 20440,
    "Ġenigmatical": 20600,
    "Ġthither": 6821,
    "ĵ": 246,
    "sex": 12718,
    "Ġfad": 17879,
    "Ġpenalty": 1841,
    "ĠĠĠĠĠĠĠĠĠĠĠĠĠĠĠĠĠĠĠĠĠĠĠĠĠĠĠĠĠĠĠĠĠĠĠĠĠĠĠĠĠĠĠĠĠ": 9955,
    "Ġpeaceful": 9457,
    "buckets": 26124,
    "Ġdecreases": 3409,
    "Ġ235": 25712,
    "Ġblundering": 26285,
    "shr": 10982,
    "Ġcaptured": 7244,
    "piteous": 21036,
    "Ġchr": 3688,
    "Ġnew": 1195,
    "copper": 19191,
    ",": 16,
    "Ġcommenting": 25229,
    "Ġpolluted": 25594,
    "general": 7488,
    "Ġrecently": 11869,
    "rr": 17652,
    "Ġblacksmith": 6597,
    "Ġcrawl": 11378,
    "1775": 26380,
    "whale": 2139,
    "~": 98,
    "afric": 19181,
    "Ġhopeful": 19032,
    "Ġimprudent": 12852,
    ";âĢĿâĢĶ": 20762,
    "Ġinexorable": 12260,
    "measureless": 20237,
    "handsome": 13180,
    "Ġyes": 2685,
    "Ġgenerations": 10966,
    "Ġpostmark": 16727,
    "connection": 18870,
    "Ġdiscontented": 16062,
    "Ġdarkness": 4276,
    "dest": 4102,
    "presbyterian": 26370,
    "fluke": 25205,
    "ublic": 11230,
    "Ġringleader": 26214,
    "Ġante": 17899,
    "mistak": 16880,
    "vitality": 20481,
    "Ġfring": 11129,
    "Ġoriental": 9100,
    "Ġstaves": 21744,
    "Ġpress": 5933,
    "Ġinstant": 2701,
    "Ġprogeny": 17391,
    "Ġcrane": 23440,
    "Ġbegrimed": 26580,
    "Ġunimag": 12781,
    "Ġtolerably": 8067,
    "Ġsneering": 24695,
    "Ġaggreg": 12889,
    "Ġsupports": 3050,
    "aster": 1869,
    "Ġskilful": 25838,
    "agon": 7870,
    "Ġunless": 4089,
    "header": 11937,
    "Ġlightness": 23265,
    "Ġsuffice": 18871,
    "Ġtimidly": 11340,
    "ution": 4348,
    "Ġpiled": 8425,
    "Ġabandoned": 8351,
    "worse": 14694,
    "etition": 7381,
    "oping": 5559,
    "Ġpleas": 1907,
    "Ġpersisted": 13041,
    "enet": 10155,
    "Ġcoun": 4177,
    "wondrous": 12342,
    "Ġdecisive": 18486,
    "Ġachieved": 13170,
    "Ġcreatures": 4136,
    "Ġcleared": 6076,
    "Ġcalifornia": 20533,
    "ter": 359,
    "Ġhieroglyphics": 17306,
    "Ġdealing": 14048,
    "Ġhereford": 22883,
    "Ġalmighty": 18108,
    "Ġcivilities": 14852,
    "Ġwhispered": 5338,
    "Ġscatter": 18407,
    "itled": 7577,
    "Ġinj": 4759,
    "Ġoutweigh": 22326,
    "Ġcring": 15556,
    "uteness": 17989,
    "Ġthick": 3782,
    "entieth": 17982,
    "Ġdivulged": 16651,
    "Ġhuge": 4699,
    "ud": 909,
    "Ġschool": 5512,
    "Ġagitated": 7647,
    "Ġfel": 1519,
    "Ġretreating": 19801,
    "Ġflannel": 26579,
    "Ġmassachusetts": 24026,
    "Ġcocoa": 25483,
    "Ġfavourites": 16647,
    "awakened": 14457,
    "Ġanxiety": 5408,
    "Ġkeenly": 9487,
    "Ġberth": 8683,
    "Ġforce": 5091,
    "Ġheidelburgh": 11647,
    "Ġimple": 1806,
    "ear": 8734,
    "absurd": 21799,
    "Ġannealing": 1557,
    "Ġaccomplish": 14880,
    "Ġaccomplishment": 19667,
    "tell": 1382,
    "Ġcondemned": 7778,
    "bantering": 25254,
    "onial": 11570,
    "Ġpresumption": 10548,
    "mael": 6725,
    "Ġreligious": 25124,
    "Ġclubs": 25180,
    "archical": 1928,
    "christ": 10213,
    "Ġtransom": 22442,
    "Ġvanishing": 1344,
    "Ġstrove": 9960,
    "chest": 11211,
    "Ġrover": 18457,
    "Ġswore": 10381,
    "Ġemaciated": 20641,
    "Ġqual": 6276,
    "Ġeddystone": 25736,
    "Ġtunes": 24617,
    "oky": 8197,
    "Ġexper": 1287,
    "resembling": 25933,
    "Ġtreble": 16505,
    "neighboring": 20620,
    "Ġunw": 7005,
    "Ġaware": 5756,
    "os": 526,
    "avating": 18607,
    "Ġbolts": 16945,
    "frisco": 16789,
    "Ġhints": 8430,
    "Ġconsulted": 13434,
    "Ġfatigue": 8701,
    "Ġlabour": 7273,
    "ived": 1533,
    "Ġfergus": 16869,
    "Ġinclined": 6625,
    "character": 6332,
    "jo": 3751,
    "Ġalbertus": 25649,
    "Ġgraphs": 25464,
    "Ġpurposely": 10446,
    "clair": 18935,
    "Ġembrace": 16992,
    "Ġnomine": 26458,
    "unavoid": 14065,
    "eskye": 21487,
    "apprehension": 26115,
    "tide": 11536,
    "Ġneuron": 1809,
    "Ġknee": 7094,
    "ertips": 23642,
    "violence": 16480,
    "might": 4077,
    "considerable": 10551,
    "Ġinclude": 1877,
    "ojo": 7348,
    "slouched": 24558,
    "ispensable": 9099,
    "Ġconsc": 4273,
    "Ġfilthy": 13253,
    "Ġtent": 15470,
    "Ġmarvelled": 18875,
    "Ġing": 5284,
    "Ġmadam": 5663,
    "Ġinherit": 25353,
    "Ġsepul": 14093,
    "Ġimproper": 22729,
    "Ġfill": 5701,
    "ilities": 6992,
    "Ġproviding": 1361,
    "Ġpettic": 14845,
    "Ġwrongfully": 24252,
    "sciss": 18859,
    "Ġconscious": 7743,
    "Ġclin": 14205,
    "ropout": 1320,
    "Ġhoard": 23356,
    "angels": 22110,
    "ase": 1158,
    "ui": 9147,
    "Ġavail": 11229,
    "Ġcleaving": 23187,
    "too": 4507,
    "ibility": 2390,
    "ishments": 9276,
    "astrop": 3316,
    "Ġdanes": 25160,
    "gather": 20877,
    "Ġran": 3343,
    "ġ": 226,
    "ton": 1726,
    "Ġfriesland": 26444,
    "Ġequilib": 4135,
    "neg": 12870,
    "Ġcovered": 5171,
    "Ġsubtlety": 24779,
    "ures": 771,
    "expl": 9286,
    "Ġmitigates": 3051,
    "Ġstomach": 11657,
    "Ġtouch": 3395,
    "Ġanswer": 2597,
    "Ġplight": 14286,
    "heartedness": 24825,
    "Ġrobbery": 11924,
    "Ġsuperseded": 26226,
    "iscient": 17854,
    "Ġspurred": 22142,
    "approbation": 11461,
    "Ġthreatening": 16830,
    "smart": 23911,
    "Ġdirecting": 16303,
    "ptic": 21929,
    "Ġsevered": 18207,
    "remonstr": 23196,
    "ap": 546,
    "whiskers": 12315,
    "Ġlessen": 14535,
    "Ġscrutin": 26017,
    "Ġlaid": 3938,
    "looked": 6084,
    "Ġport": 3310,
    "Ġcircumstantial": 14646,
    "Ġjabbering": 22297,
    "ā": 194,
    "batch": 1981,
    "Ġslaugh": 18940,
    "Ġhorizont": 6937,
    "ers": 404,
    "Ġoverbearing": 12848,
    "fed": 11491,
    "Ġcontinuing": 14401,
    "ford": 2819,
    "itive": 6671,
    "tram": 19645,
    "asons": 6015,
    "Ġswell": 8952,
    "Ġincommunicable": 26613,
    "Ġlothario": 26186,
    "happening": 16567,
    "ishing": 1145,
    "Ġgothic": 18003,
    "Ġbrid": 6291,
    "rints": 12507,
    "gammon": 20245,
    "Ġseaport": 20602,
    "Ġquaker": 10973,
    "rows": 6442,
    "ology": 1585,
    "iven": 1240,
    "Ġintent": 6409,
    "Ġmira": 8407,
    "Ġarrange": 3118,
    "Ġjeopardy": 13600,
    "ism": 4873,
    "Ġgallery": 10527,
    "Ġatt": 773,
    "irt": 3075,
    "aux": 14295,
    "earnest": 12403,
    "ushed": 2970,
    "Ġconsent": 5372,
    "Ġblotted": 20219,
    "Ġess": 5691,
    "rapid": 12675,
    "vous": 2252,
    "impe": 21711,
    "prop": 1015,
    "Ġgates": 10203,
    "royal": 11396,
    "Ġopened": 3512,
    "comfortableness": 24526,
    "Ġchrist": 4070,
    "Ġwashes": 21865,
    "Ġfeasible": 22215,
    "pall": 17630,
    "Ġbrighton": 6470,
    "onstrate": 17771,
    "Ġpettiness": 24233,
    "Ġembarrassment": 10629,
    "Ġsa": 473,
    "Ġproced": 2579,
    "sweetly": 25137,
    "Ġcran": 12005,
    "Ġemptied": 24348,
    "Ġaunts": 21203,
    "trucks": 25420,
    "fastened": 19327,
    "iture": 5696,
    "Ġshrine": 19534,
    "Ġtrad": 9831,
    "Ġwearer": 21927,
    "Ġviv": 6158,
    "surd": 6934,
    "irmed": 9242,
    "Ġfolios": 23022,
    "Ġgases": 21605,
    "Ġmiguel": 25767,
    "Ġlayers": 817,
    "cure": 11477,
    "fool": 9050,
    "Ġdie": 3958,
    "Ġanguish": 5584,
    "mb": 881,
    "queen": 12732,
    "Ġleader": 14706,
    "Ġsult": 10769,
    "iate": 6505,
    "Ġmonosyllable": 20728,
    "Ġdiscomposure": 20381,
    "slept": 17172,
    "Ġmagnitude": 1944,
    "Ġlift": 8815,
    "Ġhumaneval": 25583,
    "abby": 14024,
    "ancies": 11588,
    "ira": 3954,
    "Ġadie": 8490,
    "screen": 23000,
    "Ġrendering": 16660,
    "Ġembarrassed": 11387,
    "Ġmasoned": 20253,
    "ur": 326,
    "burn": 8370,
    "Ġloves": 10917,
    "Ġcro": 4872,
    "Ġmunro": 25631,
    "Ġmorrow": 9345,
    "man": 1052,
    "prodig": 16430,
    "Ġbubblingly": 25633,
    "Ġagreeable": 4551,
    "Ġinterests": 14572,
    "gi": 17553,
    "Ġdelightfully": 13162,
    "Ġorganically": 3011,
    "Ġattorney": 18620,
    "Ġhatchet": 16530,
    "Ġrummaged": 16912,
    "Ġeyebrows": 23518,
    "questioning": 16852,
    "repressed": 21246,
    "Ġsensitiveness": 23738,
    "could": 2870,
    "Ġdepressions": 25799,
    "Ġguid": 2636,
    "Ġresume": 18565,
    "Ġinvis": 6902,
    "Ġunprofitable": 18271,
    "Ġinjection": 3466,
    "Ġinquirer": 24964,
    "Ġstrengthen": 20703,
    "Ġirr": 10423,
    "Ġracket": 22662,
    "Ġcommodores": 25375,
    "Ġhammers": 13246,
    "iet": 1775,
    ",âĢĻâĢĶ": 23530,
    "jah": 17583,
    "Ġuniformly": 19149,
    "Ġthumb": 6982,
    "Ġenables": 726,
    "beheld": 11806,
    "Ġtarget": 2818,
    "seeking": 17155,
    "Ġaltitude": 26204,
    "Ġheathenish": 13620,
    "Ġallowance": 14393,
    "Ġwoe": 4792,
    "wandering": 20286,
    "Ġsecre": 5493,
    "ghost": 20889,
    "Ġcivility": 4787,
    "deceptive": 22153,
    "Ġexecut": 4246,
    "aren": 10077,
    "pect": 1256,
    "Ġtho": 21517,
    "Ġskirts": 14356,
    "ascertaining": 26462,
    "Ġreaction": 15699,
    "olence": 10232,
    "Ġparm": 15881,
    "carrying": 16714,
    "tes": 11532,
    "Ġendued": 14080,
    "dark": 5614,
    "cause": 7795,
    "Ġbrow": 3983,
    "Ġphilosoph": 19653,
    "obedience": 17413,
    "iated": 5891,
    "Ġstaircase": 20098,
    "olen": 9702,
    "Ġirreducible": 5519,
    "Ġpowdered": 24241,
    "Ġvilla": 14751,
    "izure": 21845,
    "response": 25763,
    "Ġsounding": 8264,
    "Ġ1839": 20462,
    "Ġentity": 10344,
    "neural": 3065,
    "Ġplausible": 26555,
    "Ġprecision": 13191,
    "Ġresist": 7915,
    "Ġtophet": 23576,
    "Ġfearing": 12820,
    "Ġwednesday": 9087,
    "Ġaccord": 4021,
    "threshold": 21992,
    "į": 240,
    "Ġhair": 3314,
    "unwillingly": 21889,
    "Ġdipped": 15599,
    "Ġaisle": 21204,
    "Ġprogress": 5022,
    "fell": 6953,
    "arking": 16129,
    "==": 943,
    "olently": 15758,
    "Ġgpt": 4349,
    "Ġspermaceti": 8970,
    "Ġgloomily": 14805,
    "retirement": 23145,
    "Ġloaded": 8492,
    "parsee": 14514,
    "Ġsk": 959,
    "Ġappl": 1738,
    "Ġsolemnity": 9944,
    "Ġshud": 5461,
    "osal": 11764,
    "deceit": 25557,
    "Ġsignify": 16496,
    "Ġeating": 8135,
    "ulsive": 10236,
    "Ġexe": 3989,
    "Ġrascally": 26508,
    "Ġimplicated": 24876,
    "size": 15428,
    "Ġflourished": 15130,
    "Ġryder": 10262,
    "Ġ55": 24320,
    "Ġaccent": 10296,
    "Ġzigzag": 26274,
    "Ġdeplored": 20507,
    "Ġtit": 8399,
    "watching": 16932,
    "Ġarticle": 9504,
    "51": 12435,
    "Ġcarved": 7946,
    "Ġmeasureless": 14714,
    "Ġscarce": 8625,
    "ppings": 18180,
    "Ġtw": 839,
    "Ġblinds": 8006,
    "inal": 15483,
    "games": 20882,
    "Ġstaple": 26200,
    "hoisting": 23717,
    "haps": 1669,
    "Ġinv": 2224,
    "death": 6263,
    "bal": 2155,
    "ssian": 3399,
    "lined": 12488,
    "Ġamidst": 9496,
    "Ġobject": 1398,
    "Ġgroans": 14827,
    "Ġimprudently": 22390,
    "Ġrefrain": 12952,
    "oting": 2741,
    "please": 8176,
    "Ġwarsaw": 26168,
    "Ġdams": 16457,
    "Ġroll": 5381,
    "Ġthre": 2059,
    "Ġrosy": 18460,
    "Ġchatting": 24745,
    "Ġlighten": 23264,
    "runs": 25416,
    "Ġinfluence": 5515,
    "Ġcomposition": 1690,
    "Ġoutlined": 22324,
    "Ġadmits": 23558,
    "cruet": 17028,
    "Ġvolumes": 14804,
    "Ġstoried": 18076,
    "opposite": 19930,
    "Ġmystic": 7502,
    "Ù": 154,
    "Ġdiscovery": 5412,
    "ries": 3353,
    "judgment": 16755,
    "ingale": 21302,
    "itor": 12571,
    "Ġpos": 1010,
    "Ġhelm": 5276,
    "remes": 21240,
    "formality": 22223,
    "hullo": 17572,
    "Ġprecipitous": 24836,
    "Ġpsychology": 11451,
    "Ġexecutioner": 12276,
    "Ġbeast": 7179,
    "Ġarchipelagoes": 14352,
    "Ġinterpretation": 19718,
    "Ġstill": 1156,
    "Ġtherein": 11781,
    "unmistakable": 21900,
    "Ġrib": 4934,
    "itarian": 21340,
    "formed": 2553,
    "Ġ8": 5433,
    "hun": 5210,
    "iday": 8834,
    "ended": 1834,
    "Ġsecrecy": 7315,
    "reported": 24494,
    "giving": 8742,
    "Ġregion": 2273,
    "report": 13403,
    "Ġneskyeuna": 26461,
    "Ġunexpectedly": 19911,
    "crimes": 16686,
    "Ġlulled": 17972,
    "Ġconse": 21808,
    "Ġmogul": 12867,
    "herfield": 3631,
    "sorts": 21063,
    "orious": 6008,
    "orable": 8119,
    "Ġaustralia": 15236,
    "Ġheld": 3585,
    "Ġre": 317,
    "Ġdivert": 23596,
    "Ġimparted": 15992,
    "eds": 6530,
    "Ġbalances": 2339,
    "ical": 753,
    "Ġhospitality": 13516,
    "Ġadequ": 10915,
    "ith": 330,
    "Ġsoldiers": 8690,
    "Ġmining": 22835,
    "liter": 11505,
    "Ġalighted": 18107,
    "Ġdescends": 14292,
    "arded": 5028,
    "Ġleaped": 8830,
    "Ġfrantic": 7956,
    "Ġcorresponds": 19823,
    "Ġbrace": 11214,
    "Ġengagement": 5397,
    "male": 15392,
    "Ġspatial": 2727,
    "machines": 8384,
    "awful": 23120,
    "pike": 11518,
    "Ġsuitable": 18283,
    "changed": 7175,
    "Ġtowns": 11176,
    "Ġoverpow": 14211,
    "difficult": 10061,
    "determine": 19946,
    "Ġboth": 1655,
    "Ġsagacity": 16975,
    "Ġgain": 4827,
    "zed": 8103,
    "Ġdeepest": 8212,
    "Ġabutted": 22279,
    "vapor": 25756,
    "Ġumb": 11650,
    "Ġpurely": 12236,
    "points": 14397,
    "Ġwanderings": 20145,
    "cherish": 24553,
    "Ġtempest": 8213,
    "Ġdeny": 7487,
    "Ġemm": 18006,
    "judge": 13341,
    "Ġcapture": 3383,
    "Ġfacing": 10174,
    "Ġtongs": 9964,
    "tisement": 6768,
    "slee": 17171,
    "dissemble": 23495,
    "Ġshipwrecked": 25688,
    "Ġlances": 6985,
    "Ġsaves": 18325,
    "avier": 2828,
    "Ġtouches": 20573,
    "Ġabroad": 8869,
    "Ġasi": 12737,
    "Ġcousin": 3705,
    "Ġiceberg": 14720,
    "Ġpeace": 3692,
    "deformity": 22150,
    "Ġfugitive": 17330,
    "ette": 15663,
    "Ġchoice": 2165,
    "painter": 24897,
    "Ġknob": 24408,
    "Ġeffort": 8204,
    "oice": 1386,
    "tered": 2230,
    "iful": 2879,
    "Ġrubbed": 12960,
    "helpless": 16792,
    "Ġjewel": 9945,
    "perceived": 8862,
    "itage": 17819,
    "Ġbenjam": 22894,
    "isle": 13895,
    "Ġtrifled": 24676,
    "well": 1693,
    "Ġfished": 21413,
    "som": 3292,
    "prepar": 22470,
    "Ġbeggar": 9352,
    "Ġbelshazzar": 16228,
    "Ġbrilliant": 11417,
    "osity": 14189,
    "Ġdisasters": 16057,
    "Ġparch": 11731,
    "Ġbishop": 13905,
    "Ġbond": 21387,
    "Ġhartshorn": 26182,
    "Ġausten": 5882,
    "astron": 22173,
    "calling": 12454,
    "Ġremain": 1876,
    "Ġproudly": 19744,
    "silly": 24423,
    "mastod": 23978,
    "Ġadaptation": 3152,
    "acup": 14263,
    "Ġdownward": 10334,
    "âĢĶ.": 11760,
    "Ġpr": 1599,
    "combined": 20322,
    "Ġassociates": 24710,
    "Ġbrazier": 26322,
    "Ġmeadow": 17154,
    "Ġscandinav": 19963,
    "È": 137,
    "Ġprob": 971,
    ")(": 2980,
    "ob": 1422,
    "Ġstroll": 13357,
    "Ġknighthood": 25298,
    "Ġtester": 21175,
    "Ġmiller": 19884,
    "trimmed": 23953,
    "Ġaccumulates": 2888,
    "animate": 12582,
    "mankind": 14378,
    "oboam": 9361,
    "Ġinstance": 2543,
    "Ġoar": 6238,
    "Ġmortifying": 13250,
    "Ġconcluded": 5658,
    "Ġbounding": 19403,
    "esc": 621,
    "Ġmitt": 21310,
    "whalers": 17266,
    "ach": 435,
    "Ġdeceitfulness": 25734,
    "div": 8075,
    "newsp": 23138,
    "Ġwas": 370,
    "Ġcollected": 2610,
    "ductive": 23940,
    "Ġwhenever": 5166,
    "Ġswings": 11089,
    "Ġloose": 4648,
    "ercely": 12555,
    "of": 765,
    "Ġcombinations": 22865,
    "Ġfilial": 16622,
    "fatality": 25022,
    "Ġrevol": 5537,
    "Ġsallied": 12542,
    "stayed": 25291,
    "responsible": 25764,
    "surface": 10533,
    "Ġgravel": 14105,
    "Ġguilt": 6181,
    "Ġremark": 2143,
    "Ġjourney": 3877,
    "Ġsucking": 12793,
    "apprec": 22847,
    "Ġmoderate": 10940,
    "Ġtons": 11553,
    "Ġobed": 8537,
    "Ġbreakfast": 3971,
    "thole": 21991,
    "roded": 17959,
    "ifle": 10893,
    "taining": 7205,
    "waves": 10744,
    "Ġmon": 1253,
    "emason": 18190,
    "Ġbleached": 24397,
    "affair": 14658,
    "Ġsentinel": 26066,
    "Ġeuroc": 14962,
    "Ġugly": 8719,
    "Ġdomestic": 6914,
    "glancing": 11217,
    "urre": 10858,
    "Ġfrankly": 16747,
    "Ġfatal": 5873,
    "laden": 14933,
    "Ġchased": 8865,
    "Ġbrick": 8929,
    "Ġissue": 2311,
    "Ġguests": 12291,
    "Ġsovere": 9259,
    "Ġelijah": 9103,
    "ivial": 15865,
    "unerative": 21901,
    "Ġdispatched": 23885,
    "blast": 9590,
    "allest": 5485,
    "Ġlanding": 11989,
    "Ġmistress": 8615,
    "Ġconjugal": 25104,
    "Ġcertainty": 6736,
    "Ġdegener": 14051,
    "cannibal": 15229,
    "Ġmanifold": 13564,
    "encing": 21285,
    "progra": 9397,
    "Ġimmovable": 15896,
    "Ġestim": 3348,
    "holes": 12057,
    "Ġbegat": 18864,
    "strikes": 24672,
    "Ġunscrew": 22044,
    "lounged": 26134,
    "Ġaccustomed": 6861,
    "Ġgifted": 18000,
    "nosed": 20994,
    "Ġhaunts": 18200,
    "Ġlieuten": 13330,
    "Ġserves": 4668,
    "organ": 15578,
    "Ġprinc": 4199,
    "Ġrobustness": 18887,
    "Ġblacks": 23392,
    "Ġze": 8547,
    "Ġdip": 13910,
    "stem": 568,
    "Ġscreamed": 9526,
    "Ġoftener": 13569,
    "landed": 18957,
    "ctor": 13963,
    "Ġrecogn": 2994,
    "wishes": 13810,
    "Ġbehold": 5048,
    "add": 5229,
    "Ġling": 7376,
    "Ġeight": 3898,
    "Ġoverwhelming": 17103,
    "roqu": 21537,
    "ohog": 9846,
    "Ġwrought": 11948,
    "uned": 21875,
    "snow": 10726,
    "Ġrecognise": 12068,
    "Ġlionel": 25287,
    "Ġspectacles": 12102,
    "Ġpainful": 6462,
    "although": 8810,
    "Ġallegor": 25546,
    "Ġpaying": 9941,
    "weakness": 16128,
    "entary": 21570,
    "erxes": 21278,
    "Ġabsent": 7016,
    "penny": 22949,
    "iveness": 2466,
    "oran": 8793,
    "Ġparlor": 13543,
    "Ġ3": 3980,
    "Ġdatasets": 2389,
    "Ġimpelling": 22389,
    "Ġinscriptions": 20011,
    "Ġconsisting": 8974,
    "Ġaspire": 21905,
    "Ġrelent": 18776,
    "Ġabandon": 12262,
    "Ġarranging": 11177,
    "Ġlazily": 11383,
    "Ġtal": 7563,
    "Ġhooks": 14971,
    "unquiet": 21886,
    "Ġspat": 2662,
    "Ġreject": 7385,
    "Ġexacted": 23606,
    "Ġult": 9077,
    "Ġcomplicated": 14739,
    "Ġabruptly": 15155,
    "Ġrevel": 9217,
    "Ġsea": 1210,
    "Ġorthodox": 22099,
    "byshire": 6174,
    "jump": 10106,
    "ppery": 10894,
    "Ġtak": 15473,
    "Ġlibrary": 6423,
    "card": 11478,
    "rid": 5137,
    "itheat": 21341,
    "Ġliterary": 25166,
    "Ġforced": 4351,
    "Ġshed": 8180,
    "Ġjudged": 12088,
    "Ġmut": 3582,
    "Ġarabic": 24981,
    "Ġbetake": 22910,
    "glimmer": 26323,
    "Ġdoubling": 23323,
    "Ġhuggins": 24826,
    "Ġhighway": 14350,
    "Ġshallow": 14399,
    "Ġwretchedly": 19509,
    "https": 11689,
    "Ġbackwoods": 22646,
    "Ġseam": 3905,
    "Ġomen": 11580,
    "Ġsusp": 2661,
    "promised": 12256,
    "spirits": 8054,
    "Ġcomprehensiveness": 25075,
    "Ġmidst": 7985,
    "Ġep": 7384,
    "forks": 26389,
    "stairs": 5155,
    "anite": 17840,
    "Ġaffront": 18789,
    "Ġgamy": 18002,
    "afford": 14657,
    "Ġconventional": 25548,
    "iforn": 14067,
    "Ġsuggests": 12205,
    "anum": 17838,
    "baden": 25616,
    "Ġsorrow": 4628,
    "Ġupd": 945,
    "ust": 495,
    "lement": 10169,
    "grad": 2567,
    "postp": 24636,
    "Ġbodily": 6108,
    "itation": 1781,
    "Ġdejected": 20306,
    "Ġcoiled": 11825,
    "Ġanimated": 7701,
    "Ġagency": 11810,
    "Ġclients": 19734,
    "Ġobserved": 3541,
    "cheer": 9439,
    "Ġhooked": 19081,
    "Ġresearch": 3215,
    "encyclopÃ¦dia": 16666,
    "deacon": 22151,
    "Ġfi": 934,
    "content": 11201,
    "desperate": 17360,
    "began": 6426,
    "azing": 7704,
    "Ġwharves": 13509,
    "Ġsaint": 15510,
    "fate": 17541,
    "¼": 125,
    "Ġcorrespondence": 10597,
    "Ġcommercial": 22677,
    "Ġdante": 21441,
    "slo": 17658,
    "Ġacqu": 1418,
    "sive": 4143,
    "overspreading": 26140,
    "Ġrenewal": 12239,
    "Ġstreets": 5865,
    ",--": 2476,
    "rength": 4100,
    "Ġspoon": 22138,
    "Ġclosest": 16765,
    "Ġendeavouring": 8034,
    "uv": 6231,
    "Ġshadow": 5596,
    "\"]": 17473,
    "Ġnoah": 10944,
    "horror": 13163,
    "Ġsickening": 19606,
    "press": 1730,
    "reck": 9639,
    "hunsford": 24387,
    "Ġeludes": 26556,
    "Ġundergo": 23241,
    "Ġsimon": 5172,
    "Ġfrightful": 7735,
    "urements": 18127,
    "Ġspars": 3809,
    "Ġf": 283,
    "Ġcheered": 16372,
    "foundation": 16716,
    "Ġbenignity": 18783,
    "brink": 23579,
    "murderer": 13397,
    "Ġjup": 15951,
    "Ġbeats": 21756,
    "ders": 8074,
    "Ġnews": 3818,
    "Ġboarding": 12091,
    "Ġital": 10868,
    "Ġdistingu": 2512,
    "Ġexecutors": 19536,
    "opol": 12877,
    "Ġnourishment": 15197,
    "Ġobtain": 8918,
    "Ġintact": 21994,
    "Ġbodiless": 24230,
    "Ġhipp": 21495,
    "Ġnecessarily": 13254,
    "================================": 5671,
    "Ġfamiliar": 5511,
    "pillar": 5619,
    "appl": 9329,
    "ird": 2427,
    "Ġgenerates": 3664,
    ".--": 20748,
    "constellation": 24632,
    "Ġattendance": 12186,
    "Ġrevenue": 26196,
    "iner": 2668,
    "Ġprot": 3846,
    "centre": 17088,
    "Ġloomed": 12305,
    "Ġassizes": 11110,
    "Ġstrung": 22621,
    "turning": 8316,
    "week": 12936,
    "Ġoffence": 12949,
    "Ġdepresses": 25798,
    "Ġfate": 4753,
    "Ġmournful": 12340,
    "9": 29,
    "Ġlinen": 12411,
    "enger": 10775,
    "uation": 17696,
    "Ġencoder": 3636,
    "orously": 8419,
    "bergen": 14340,
    "Ġstray": 18073,
    "famous": 16917,
    "absolutely": 10648,
    "Ġdoom": 6417,
    "Ġamazed": 14893,
    "beauty": 20106,
    "Ġnormalization": 1245,
    "based": 2959,
    "Ġmab": 12565,
    "idled": 21772,
    "Ġsnarled": 25715,
    "Ġwhist": 6022,
    "Ġfits": 8795,
    "rudential": 16711,
    "Ġsally": 15505,
    "Ġfe": 491,
    "disgraceful": 26077,
    "Ġthomas": 17951,
    "Ġfebruary": 15917,
    "Ġboat": 1277,
    "Ġeverybody": 4510,
    "Ġlets": 18080,
    "beries": 22745,
    "Ġazores": 20195,
    "Ġshine": 12771,
    "grand": 7969,
    "morn": 20978,
    "head": 1437,
    ",âĢĿâĢĶ": 14225,
    "Ġslightest": 6093,
    "Ġeighteenth": 14758,
    "sound": 6800,
    "Ġowest": 25094,
    "Ġspecific": 2002,
    "Ġsatir": 18795,
    "Ġoperation": 12003,
    "row": 1064,
    "Ġmental": 21322,
    "Ġcont": 618,
    "Ġvideo": 25366,
    "Ġtags": 20574,
    "Ġtawny": 20484,
    "accompan": 11455,
    "wail": 21128,
    "observation": 17272,
    "Ġbroiled": 18910,
    "Ġadv": 1166,
    "forster": 16170,
    "travel": 24338,
    "Ġreproofs": 24893,
    "Ġriot": 14691,
    "ifications": 9731,
    "Ġrefreshment": 17242,
    "Ġplayfully": 19240,
    "eternal": 17986,
    "Ġcaut": 6521,
    "Ġscruple": 25051,
    "Ġsallow": 12541,
    "Ġdeployment": 11196,
    "Ġdemocracy": 25459,
    "gave": 7799,
    "Ġradiating": 24332,
    "houses": 9602,
    "at": 268,
    "ench": 21282,
    "Ġduplicates": 17219,
    "Ġspilling": 22141,
    "Ġaccompl": 5167,
    "asmuch": 10197,
    "Ġhumility": 12990,
    "attributed": 23125,
    "5": 25,
    "phere": 21021,
    "Ġminimizing": 3464,
    "Ġtext": 2268,
    "Ġlitter": 19831,
    "Ġinfernal": 11965,
    "Ġfashionable": 19545,
    "Ġafter": 869,
    "Ġbeseeching": 26312,
    "erman": 5107,
    "Ġneighbour": 3807,
    "Ġvir": 7002,
    "Ġswarming": 16277,
    "Ġwidely": 8032,
    "Ġpepper": 9784,
    "Č": 205,
    "merely": 16138,
    "Ġalert": 18105,
    "furnished": 20243,
    "gging": 7696,
    "Ġprovidence": 18747,
    "mons": 17602,
    "opotam": 22481,
    "Ġtransformer": 2634,
    "ologically": 22879,
    "Ġpacing": 8426,
    "Ġspouts": 7729,
    "bery": 9796,
    "Ġlowly": 11123,
    "onement": 21259,
    "Ġsped": 22129,
    "Ġhear": 1965,
    "Ġretrogress": 23078,
    "mortal": 10115,
    "Ġpretext": 22233,
    "purp": 8090,
    "turtle": 12216,
    "Ġobservable": 25129,
    "Ï": 144,
    "comrade": 18737,
    "Ġprevailing": 24675,
    "mariners": 19549,
    "riumph": 4918,
    "oftener": 23969,
    "Ġhatchways": 24990,
    "Ġrider": 24188,
    "Ġdu": 4583,
    "Ġquarter": 3972,
    "Ġagonies": 14255,
    "Ġboot": 11844,
    "ald": 15629,
    "Ġbetween": 795,
    "Ġpreside": 18366,
    "Ġacknowledges": 24688,
    "weeks": 14320,
    "Ġescapes": 23510,
    "itzerland": 9998,
    "Ġexotic": 21836,
    "mysterious": 26052,
    "wondering": 19845,
    "Ġmushroom": 13241,
    "Ġrequest": 6052,
    "Ġsurveying": 25326,
    "Ġestimable": 23876,
    "Ġwardrobe": 17228,
    "Ġsnatching": 10474,
    "irium": 8161,
    "shrouded": 26363,
    "Ġwretchedness": 9029,
    "Ġvel": 7185,
    "flying": 13724,
    "Ġequin": 14498,
    "century": 20049,
    "conjectured": 25182,
    "Ġneurons": 979,
    "standard": 22435,
    "Ġlirra": 21563,
    "Ġdrows": 21438,
    "Ġebb": 21627,
    "Ġinfl": 6893,
    "Ġsort": 1509,
    "idence": 4301,
    "Ġtoller": 9094,
    "Ġsanct": 15066,
    "Ġfowl": 11333,
    "Ġgeneva": 5450,
    "Ġorbs": 22096,
    "Ġsebastian": 11703,
    "exceedingly": 9568,
    "inder": 9155,
    "Ġrepositories": 23368,
    "Ġencode": 4363,
    "Ġinflict": 15004,
    "Ġposted": 16726,
    "Ġmexic": 14034,
    "fra": 8374,
    "Ġblindly": 12114,
    "experienced": 15126,
    "Ġdepicted": 14284,
    "inquiry": 15147,
    "Ġexempt": 21833,
    "conspicuous": 26249,
    "alf": 4638,
    "Ġyellowish": 24431,
    "Ġscand": 7203,
    "fatal": 17089,
    "unders": 13315,
    "Ġinjured": 9042,
    "Ġbanking": 19632,
    "Ġhorizon": 6635,
    "90": 12436,
    "instr": 12536,
    "ensions": 14265,
    "facts": 19843,
    "Ġprofundities": 20455,
    "Ġtil": 12529,
    "Ġgenerative": 5644,
    "Ġplanning": 14755,
    "ashions": 16421,
    "browed": 25895,
    "waving": 21134,
    "Ġtired": 9152,
    "Ġborrowed": 17232,
    "istrate": 7405,
    "recovered": 19788,
    "Ġopposition": 16522,
    "Ġdisc": 942,
    "vel": 2384,
    "orter": 4254,
    "Ġbruised": 25773,
    "ension": 6571,
    "ron": 5216,
    "Ġwhitewashed": 14474,
    "Ġpedd": 17911,
    "Ġdisappoint": 24209,
    "proved": 11991,
    "Ġgazes": 24098,
    "Ġvirtuous": 14759,
    "Ġomin": 11581,
    "Ġdescended": 7427,
    "Ġterrify": 19364,
    "Ġdisappeared": 5645,
    "Ġcorroded": 18877,
    "ourage": 2449,
    "Ġencoding": 4773,
    "Ġproc": 5545,
    "Ġmouldy": 14977,
    "Ġtracks": 18892,
    "Ġpersonally": 8603,
    "Ġmuster": 16126,
    "idable": 8145,
    "ouder": 17903,
    "Ġsemi": 11973,
    "Ġunctuousness": 17238,
    "Ġtam": 7820,
    "Ġtrespass": 23603,
    "iam": 2507,
    "correct": 24484,
    "ignific": 11960,
    "Ġappro": 656,
    "Ġadmirably": 16483,
    "iron": 3629,
    "Ġmatted": 22917,
    "Ġbaling": 17862,
    "proud": 9907,
    "Ġbetrayed": 9563,
    "fatigue": 20660,
    "countenances": 24155,
    "Ġunicorn": 22061,
    "Ġnapole": 15120,
    "Ġpitching": 16613,
    "tt": 13793,
    "Ġcompress": 21860,
    "Ġdefines": 1741,
    "disagreeable": 11165,
    "Ġblankness": 24608,
    "unting": 21878,
    "hog": 8379,
    "otted": 14027,
    "Ġstraighten": 24008,
    "Ġperuvian": 18454,
    "Ġinstruct": 2862,
    "Ġbathing": 20201,
    "ĝ": 222,
    "Ġdangerously": 23941,
    "Ġlunatic": 24993,
    "_.)": 7277,
    "Ġbou": 17855,
    "Ġplaintiffs": 13613,
    "Ġhilarious": 20300,
    "erated": 21273,
    "Ġespecial": 26412,
    "Ġhumiliating": 22888,
    "Ġchemical": 10414,
    "furniture": 20244,
    "wretched": 10743,
    "sooner": 14781,
    "bergs": 18693,
    "lab": 3455,
    "Ġtorm": 5434,
    "Ġmagical": 23104,
    "Ġembarks": 22953,
    "Ġhungry": 10535,
    "rab": 7596,
    "share": 14240,
    "sufferable": 12181,
    "Ġtimidity": 24687,
    "Ġdespite": 19356,
    "Ġomnipotent": 13552,
    "pile": 17631,
    "Ġarduous": 26531,
    "Ġtack": 5621,
    "Ġstore": 8454,
    "Ġpand": 21457,
    "miles": 10714,
    "Ġever": 1179,
    "nourished": 26400,
    "Ġknelt": 12163,
    "ineff": 21985,
    "derbyshire": 18322,
    "orders": 12879,
    "Ġtide": 6661,
    "Ġallude": 12776,
    "Ġcautiousness": 19866,
    "smiles": 14696,
    "Ġlength": 2498,
    "Ġremoved": 5275,
    "itions": 4147,
    "Ġwayward": 22874,
    "Ġdistinguished": 8272,
    "Ġtolerable": 6949,
    "Ġblew": 9048,
    "Ġwand": 4340,
    "Ġadhering": 14143,
    "Ġblasts": 19998,
    "mason": 17604,
    "roc": 9677,
    "Ġyour": 634,
    "Ġbrilliancy": 20109,
    "Ġinfirmity": 26299,
    "Ġsunwards": 19012,
    "Ġjuggler": 26368,
    "deficient": 23122,
    "Ġfaithfulness": 24447,
    "ms": 542,
    "past": 8089,
    "Ġbow": 3060,
    "arers": 12134,
    "Ġpretended": 19316,
    "contempt": 13192,
    "romed": 10907,
    "vial": 17699,
    "Ġalco": 21786,
    "Ġlain": 17965,
    "gates": 20874,
    "nes": 6961,
    "Ġyelled": 9697,
    "Ġpract": 1842,
    "\"],": 26121,
    "Ġprimitive": 25064,
    "Ġdeceased": 15009,
    "rifle": 21049,
    "vac": 15453,
    "Ġsquaring": 22843,
    "Ġstruggles": 16581,
    "Ġit": 339,
    "Ġoccasioned": 13232,
    "abez": 10225,
    "Ġconcise": 23328,
    "ourselves": 9014,
    "ictions": 14229,
    "Ġbuttoning": 17237,
    "boilers": 26298,
    "Ġcalmed": 16270,
    "Ġsuccour": 20437,
    "Ġcarefully": 6305,
    "infallibly": 26419,
    "Ġtongue": 6348,
    "Ġappetite": 12388,
    "confidential": 25877,
    "Ġtiresome": 26157,
    "stopping": 19353,
    "Ġreminds": 13435,
    "remed": 18955,
    "discovering": 24255,
    "Ġpoultry": 17444,
    "Ġorph": 9720,
    "Ġembark": 8558,
    "Ġdepartments": 24246,
    "grate": 23415,
    "Ġspouting": 9441,
    "Ġfundament": 2924,
    "Ġfixed": 2682,
    "mon": 2308,
    "Ġepo": 21624,
    "calculating": 25690,
    "excepting": 19708,
    "Ġencamped": 22804,
    "arrival": 15604,
    "ore": 418,
    "Ġconflagration": 26366,
    "Ġdespairing": 14777,
    "lantic": 6364,
    "Ġraved": 22659,
    "sincerely": 24586,
    "Ġmod": 496,
    "Ġplaced": 3443,
    "Ġwarring": 16867,
    "gypt": 8260,
    "Ġunreasoning": 15850,
    "Ġdedu": 5583,
    "cring": 20813,
    "Ġhem": 8446,
    "Ġshalt": 18232,
    "Ġcobweb": 22588,
    "Ġmorbid": 16238,
    "Ġsecuring": 11996,
    "Ġsuffusing": 23035,
    "Ġsucc": 12791,
    "chants": 21695,
    "happy": 4423,
    "uary": 11541,
    "off": 1889,
    "Ġdine": 7365,
    "ingly": 2134,
    "Ġjovial": 19235,
    "Ġlimp": 19182,
    "Ġforeshad": 23454,
    "Ġfrom": 434,
    "hent": 12539,
    "Ġconnectivity": 3667,
    "Ġcarpenters": 16754,
    "ensing": 12904,
    "Ġjets": 10289,
    "Ġsalvation": 14761,
    "Ġmouth": 3176,
    "Ġfeet": 2258,
    "Ġcomprehen": 5350,
    "Ġselects": 4384,
    "Ġrecurred": 18979,
    "Ġseems": 2480,
    "Ġfind": 1460,
    "Ġinjury": 10543,
    "Ġabode": 7899,
    "door": 6195,
    "Ġinattention": 17935,
    "ification": 1008,
    "Ġladder": 8602,
    "Ġ131": 24781,
    "metallic": 19881,
    "Ġ132": 19897,
    "pul": 8757,
    "Ġmisgivings": 15295,
    "Ġhumorously": 18780,
    "eh": 13713,
    "Ġambergris": 8709,
    "overlooked": 23329,
    "Ġblossom": 26313,
    "swinging": 25913,
    "uture": 1061,
    "Ġnotwithstanding": 9717,
    "Ġdiana": 21439,
    "Ġhaught": 10255,
    "ultaneously": 4193,
    "Ġsunbeam": 23280,
    "flight": 15356,
    "Ġchapter": 2955,
    "Ġreproachfully": 25252,
    "Ġgentle": 1893,
    "plings": 11700,
    "anders": 18156,
    "Ġpregn": 22236,
    "Ġbind": 12587,
    "ather": 741,
    "Ġashamed": 6403,
    "Ġate": 8844,
    "unicorn": 21894,
    "Ġshowing": 7731,
    "Ġdrawers": 12110,
    "mar": 4334,
    "Ġadmir": 12026,
    "league": 17847,
    "Ġado": 7626,
    "Ġprairie": 8716,
    "itiousness": 21337,
    "omin": 4702,
    "Ġassertion": 13493,
    "Ġtooks": 23331,
    "mccarthy": 15398,
    "encouragement": 17426,
    "commence": 19994,
    "Ġchina": 8039,
    "Ġinterment": 22579,
    "Ġkinds": 14510,
    "oking": 4605,
    "jammed": 25907,
    "Ġknights": 15154,
    "Ġbag": 5699,
    "Ġtinkling": 25213,
    "agery": 21912,
    "ropri": 2179,
    "Ġconver": 806,
    "Ġnarrations": 24353,
    "length": 7135,
    "splinter": 25211,
    "drugg": 20840,
    "Ġsequences": 1752,
    "justified": 19004,
    "Ġ47": 14775,
    "Ġest": 2266,
    "Ġhammered": 13245,
    "!)": 10072,
    "lady": 4431,
    "meaning": 2905,
    "party": 8995,
    "dress": 17522,
    "embarr": 17295,
    "Ġdismay": 11814,
    "leisure": 21374,
    "Ġlan": 5821,
    "Ġgrimesby": 11460,
    "Ġinequalities": 26455,
    "gentlemen": 9506,
    "appetite": 22850,
    "corrupt": 14899,
    "Ġsitt": 21220,
    "Ġhere": 1089,
    "Ġjoining": 13168,
    "Ġbased": 3339,
    "Ġbabel": 24427,
    "Ġpain": 2303,
    "Ġexplicit": 3588,
    "Ġextend": 18699,
    "Ġcens": 8413,
    "Ġfinally": 4666,
    "Ġsegment": 12762,
    "Ġdestructive": 23489,
    "Ġstormy": 16730,
    "Ġdiscuss": 9476,
    "ged": 1514,
    "Ġwrites": 23206,
    "Ġunwaning": 24830,
    "mming": 1170,
    "tru": 10731,
    "vil": 2729,
    "Ġsh": 419,
    "Ġconquest": 15752,
    "vings": 9754,
    "Ġheroism": 24545,
    "tre": 8764,
    "Ġattend": 5034,
    "Ġprank": 23224,
    "ö": 183,
    "Ġgar": 10840,
    "igned": 5656,
    "Ġsembl": 19063,
    "Ġcarpenter": 4684,
    "fee": 12884,
    "Ġpaddled": 20203,
    "lemag": 21375,
    "Ġfumes": 21421,
    "Ġunaccount": 22031,
    "apes": 9744,
    "Ġaveraging": 2419,
    "--âĢĺ": 22851,
    "Ġid": 1910,
    "iber": 6506,
    "Ġskills": 1839,
    "Ġcreations": 18682,
    "porpoise": 16437,
    "Ġretention": 23076,
    "uous": 4144,
    "Ġtasted": 12534,
    "Ġah": 5074,
    "Ġautonom": 10412,
    "treasures": 26153,
    "fit": 6648,
    "Ġcouch": 12576,
    "Ġbarbarians": 19589,
    "Ġstum": 21735,
    "Ġhailed": 6407,
    "Ġemigrant": 25860,
    "Ġstoutly": 16925,
    "Ġsealed": 15822,
    "Ġsparkling": 11359,
    "Ġearliest": 9834,
    "Ġbrandy": 11051,
    "smile": 23910,
    "Ġlizard": 12659,
    "Ġcastle": 14721,
    "wedding": 12526,
    "beside": 19878,
    "alions": 21504,
    "Ġmile": 7151,
    "Ġplaying": 6909,
    "ctic": 8442,
    "Ġyanke": 18101,
    "alone": 10186,
    "Ġmanhat": 22331,
    "Ġbullion": 24986,
    "jephro": 26394,
    "raved": 18016,
    "Ġcage": 17828,
    "Ġfruits": 17121,
    "Ġcomfits": 21863,
    "Ġrepresented": 8941,
    "ĠâĢľ": 516,
    "Ġexclude": 19040,
    "Ġclosed": 4604,
    "Ġens": 2785,
    "dance": 17521,
    "Ġlestrade": 5826,
    "Ġchar": 1704,
    "Ġeverything": 3151,
    "Ġunsophisticated": 25993,
    "growing": 13736,
    "Ġaccents": 14214,
    "iem": 20919,
    "Ġfearlessness": 19163,
    "Ġrequires": 989,
    "Ġcuring": 21347,
    "Ġhorn": 6187,
    "biscuit": 17503,
    "Ġnocturnal": 20717,
    "Ġfrighted": 24033,
    "Ġrested": 9382,
    "albatross": 15634,
    "Ġimbec": 14160,
    "Ġtor": 8105,
    "Ġevince": 24296,
    "Ġlabourers": 23337,
    "Ġdances": 10814,
    "Ġsinks": 19550,
    "Ġfashion": 4297,
    "aven": 8208,
    "Ġplanned": 14756,
    "edding": 4365,
    "Ġcommodore": 12399,
    "volume": 18589,
    "iro": 20916,
    "Ġgaiters": 20463,
    "Ġexpanse": 14297,
    "perfect": 7634,
    "cares": 24312,
    "maj": 18806,
    "Ġnovelist": 24776,
    "Ġfleecy": 17025,
    "strils": 10460,
    "lorious": 17594,
    "affording": 23781,
    "Ġfettered": 24570,
    "virt": 15454,
    "Ġbeer": 10222,
    "Ġcall": 2074,
    "azine": 19132,
    "Ġtoler": 7588,
    "jolly": 20933,
    "islanders": 25443,
    "Ġstocks": 23182,
    "Ġcrying": 10788,
    "Ġtradesmen": 17106,
    "msgate": 18413,
    "traversed": 19649,
    "zening": 21151,
    "wild": 8771,
    "igns": 8448,
    "Ġdaniel": 15116,
    "Ġpreprocess": 22237,
    "Ġwaistcoat": 12275,
    "Ġexerted": 15761,
    "Ġutil": 4672,
    "Ġintently": 8168,
    "ii": 4010,
    "Ġrestraint": 15132,
    "ò": 179,
    "Ġstandard": 14499,
    "Ġdepicting": 22600,
    "Ġestates": 16462,
    "Ġgradients": 612,
    "Ġbook": 2698,
    "presum": 12873,
    "Ġsurpl": 19134,
    "lording": 24054,
    "complacency": 19915,
    "tawny": 26406,
    "Ġdishonor": 25602,
    "Ġdeliberation": 19971,
    "quarters": 24949,
    "Ġexpans": 18624,
    ".)": 6784,
    "Ġdare": 3545,
    "Ġpratt": 23225,
    "Ġbashaw": 25634,
    "Ġabund": 8868,
    "Ġpleasanter": 19069,
    "Ġresearches": 13134,
    "Ġpre": 507,
    "rer": 3622,
    "Ġorchard": 22098,
    "Ġlassitude": 20590,
    "Ġannouncement": 14837,
    "Ġadditionally": 1175,
    "Ġassault": 9840,
    "Ġadvent": 4355,
    "returns": 23143,
    "tic": 8390,
    "Ġthing": 1640,
    "Ġmarched": 18873,
    "Ġsarat": 21230,
    "Ġvertu": 23894,
    "Ġarrangement": 2655,
    "Ġtantalizing": 20416,
    "Ġmaterially": 12196,
    "thus": 5158,
    "Ġpestilent": 25778,
    "Ġcrests": 25686,
    "iscuits": 24668,
    "Ġcarav": 18903,
    "Ġfeel": 1263,
    "Ġspeech": 4609,
    "Ć": 199,
    "ives": 1411,
    "Ġbarbara": 24815,
    "Ġrev": 6989,
    "ulates": 14058,
    "Ġunusual": 6554,
    "Ġdec": 641,
    "osy": 11763,
    "Ġunseason": 22056,
    "Ġshamefully": 24714,
    "Ġreconciled": 13591,
    "convul": 24884,
    "secure": 12240,
    "iding": 3845,
    "Ġrespects": 7268,
    "Ġactions": 6280,
    "old": 800,
    "Ġscrutiny": 26018,
    "hib": 15371,
    "Ġtumbled": 13410,
    "liament": 16221,
    "Ġern": 8396,
    "Ġproport": 2298,
    "Ġfishing": 9665,
    "angel": 5726,
    "Ġindef": 9192,
    "ordinary": 4406,
    "Ġeasily": 3888,
    "tiest": 21084,
    "Ġcontemptuous": 24678,
    "Ġwill": 677,
    "Ġsuburban": 17349,
    "besides": 8699,
    "Ġresting": 7962,
    "Ġeclips": 20699,
    "Ġflowed": 10374,
    "Ġpedest": 15068,
    "Ġrem": 954,
    "Ġunclasp": 26513,
    "ĠĠĠĠĠĠĠĠĠĠĠĠĠĠĠĠĠĠĠĠĠĠĠĠĠĠĠĠĠĠĠĠĠĠĠĠĠĠĠĠĠĠĠĠĠĠĠ": 16757,
    "Ġresentment": 7529,
    "Ġwouldn": 6046,
    "Ġsorrows": 13359,
    "icit": 3377,
    "Ġquery": 2478,
    "Ġinherited": 25354,
    "Ġwinc": 9645,
    "Ġnatural": 1128,
    "Ġshocking": 10437,
    "Ġmeta": 3234,
    "Ġreaching": 7302,
    "Ġimpro": 890,
    "mn": 3576,
    "Ġdecks": 6900,
    "Ġdent": 13909,
    "Ġconsequence": 5542,
    "Ġpar": 456,
    "admirably": 24947,
    "Ġspind": 18308,
    "bond": 17492,
    "ung": 2742,
    "attent": 9362,
    "prit": 19345,
    "Ġmuttered": 7087,
    "Ġcamel": 25350,
    "Ġbusks": 23344,
    "Ġpaw": 12625,
    "rist": 10125,
    "Ġsensational": 16395,
    "Ġglimp": 6067,
    "ria": 15799,
    "Ġirre": 7467,
    "remembered": 17354,
    "Ġprize": 11952,
    "Ġriding": 14097,
    "impenet": 18057,
    "Ġconceived": 8149,
    "rubber": 12817,
    "Ġoverladen": 22367,
    "Ġlangsdorff": 15280,
    "Ġscattered": 6857,
    "Ġcannibals": 10590,
    "Ġboots": 5943,
    "Ġdeaf": 12726,
    "Ġshrieked": 9550,
    "ior": 2040,
    "Ġtoe": 13939,
    "Ġthreaten": 24375,
    "Ġcivil": 4678,
    "omist": 21641,
    "Ġequinox": 25856,
    "Ġflew": 5588,
    "Ġviciss": 11295,
    "Ġgrope": 17998,
    "onsensical": 18578,
    "proceeding": 20143,
    "Ġtemperature": 1004,
    "south": 8762,
    "val": 1155,
    "Ġtoil": 6532,
    "Ġproblem": 1271,
    "later": 20955,
    "Ġtainted": 21173,
    "ĠâĢľâĢĶ": 9737,
    "Ġplease": 4722,
    "Ġgrowth": 14632,
    "Ġgrinning": 9056,
    "Ġserm": 9636,
    "Ġmultipl": 2789,
    "Ġhastening": 19338,
    "Ġramadan": 9577,
    "Ġdollars": 11458,
    "Ġvenge": 5420,
    "Ġstretching": 10018,
    "Ġtrait": 23079,
    "surprised": 9533,
    "allah": 5839,
    "inex": 14099,
    "Ġinvitation": 5188,
    "ountain": 2916,
    "Ġintrepid": 11710,
    "Ġchancery": 20718,
    "tornadoes": 26154,
    "putation": 7624,
    "Ġholiest": 18814,
    "quely": 10234,
    "Ġcologne": 12981,
    "thoroughly": 26510,
    "personal": 24966,
    "Ġ24": 13195,
    "whal": 10942,
    "sherlock": 5422,
    "Ġungodly": 26515,
    "umphed": 23519,
    "Ġheighten": 19532,
    "disguise": 26307,
    "Ġplaster": 16088,
    "Ġtails": 9905,
    "Ġpitchpoling": 14915,
    "Ġpreceded": 13432,
    "Ġcoldness": 23763,
    "rary": 4574,
    "Ġstabbing": 20305,
    "Ġwarp": 8112,
    "opy": 4457,
    "ogra": 4572,
    "ieves": 4000,
    "Ġwhether": 2000,
    "ounded": 9751,
    "pil": 15411,
    "Ġhag": 12630,
    "isol": 17849,
    "Ġsubmitted": 11876,
    "Ġpyramid": 8806,
    "shiver": 16030,
    "Ġshyness": 20308,
    "Ġrevelations": 25224,
    "Ġromish": 19586,
    "Ġhood": 10825,
    "folio": 10549,
    "Ġplanisphere": 26609,
    "Ġassembled": 9239,
    "Ġsettee": 22925,
    "Ġreappeared": 21668,
    "Ġvelvets": 25394,
    "lucky": 24546,
    "Ġalmost": 1656,
    "Ġruddy": 17128,
    "followed": 8338,
    "ators": 7828,
    "Ġunsuccessful": 18262,
    "Ġgasfitters": 25041,
    "roy": 7853,
    "Ġhouses": 6140,
    "Ġinvestigated": 25387,
    "Ġaval": 15496,
    "Ġtrembled": 8705,
    "Ġdan": 8797,
    "itting": 1151,
    "erable": 1918,
    "Ġmiddle": 4137,
    "Ġgable": 15671,
    "Ġunjustly": 17129,
    "Ġbead": 21754,
    "Ġinh": 10826,
    "Ġdin": 3625,
    "osely": 9268,
    "Ġamsterdam": 22489,
    "Ġgraceful": 11299,
    "Ġundertaking": 8576,
    "atherley": 7219,
    "Ġsaturation": 2062,
    "Ġsolitudes": 22890,
    "Ġouter": 6859,
    "Ġspoken": 4836,
    "seen": 2878,
    "Ġmarchant": 14789,
    "Ġcurric": 22987,
    "estruct": 22227,
    "Ġstretched": 5921,
    "inced": 3336,
    "Ġswimmer": 19462,
    "instance": 24197,
    "Ġawaken": 23589,
    "Ġsentin": 16375,
    "cold": 9592,
    "Ġenthr": 22743,
    "devils": 20035,
    "Ġsharper": 17182,
    "Ġphrenologically": 20396,
    "Ġeyelids": 26108,
    "Ġjunior": 15104,
    "Ġexclaiming": 13645,
    "Ġflies": 13030,
    "Ġchag": 15935,
    "fatig": 17090,
    "Ġhawsers": 26504,
    "Ġharbour": 19982,
    "regularly": 13212,
    "Ġpinch": 15020,
    "Ġhardship": 18915,
    "spr": 7434,
    "Ġproperty": 6450,
    "Ġwarm": 2425,
    "cadence": 26126,
    "shazz": 14245,
    "Ġpresents": 8244,
    "ists": 3995,
    "Ġtail": 3087,
    "mospheric": 17092,
    "consciously": 19627,
    "german": 11495,
    "zeal": 16276,
    "war": 6803,
    "hap": 17561,
    "Ġprosperous": 15175,
    "Ġlivelihood": 24773,
    "Ġducking": 17149,
    "Ġsweating": 16465,
    "ignorant": 13567,
    "rub": 15903,
    "Ġproud": 5654,
    "Ġpolic": 13165,
    "yielded": 25757,
    "Ġcasts": 19429,
    "onde": 21254,
    "Ġomn": 8410,
    "anxiety": 25159,
    "Ġpunctual": 17140,
    "grey": 14916,
    "Ġstaving": 21741,
    "outh": 2684,
    "Ġaudibly": 24770,
    "performances": 26007,
    "Ġgrievances": 20650,
    "Ġwraps": 19778,
    "Ġbowels": 9432,
    "Ġsystemat": 18448,
    "swallow": 24261,
    "iocr": 20925,
    "Ġarrival": 4730,
    "Ġconsuming": 22796,
    "Ġmuhammad": 26170,
    "Ġsubdiv": 16163,
    "Ġdramat": 23223,
    "Ġlash": 8439,
    "irious": 15790,
    "Ġethere": 23955,
    "wet": 15455,
    "Ġprevent": 756,
    "Ġoffer": 4843,
    "esting": 7411,
    "Ġsabbee": 17258,
    "Ġglit": 8562,
    "conclude": 24070,
    "Ġbet": 1136,
    "Ġprocession": 11780,
    "bald": 16446,
    "Ġmad": 2426,
    "carried": 16713,
    "Ġinexperienced": 26101,
    "shabbily": 26248,
    "Ġsticks": 14935,
    "unfort": 21881,
    "cement": 3004,
    "rich": 11521,
    "contrasted": 17309,
    "Ġvivacity": 14945,
    "ĭ": 238,
    "Ġknocking": 10562,
    "dreadful": 11424,
    "necessity": 13372,
    "franch": 24287,
    "murderers": 25728,
    "Ġarguing": 25471,
    "Ġmanor": 14200,
    "Ġshuddered": 11303,
    "oon": 6365,
    "times": 8098,
    "Ġglimmer": 15146,
    "Ġdiscoloured": 15256,
    "Ġbench": 7237,
    "nd": 11507,
    "accepted": 20138,
    "Ġringle": 18214,
    "Ġinsight": 16531,
    "friend": 3860,
    "Ġdecide": 9289,
    "buffalo": 20566,
    "Ġstraightened": 12113,
    "Ġoperate": 19117,
    "Ġkicked": 10584,
    "Ġparadise": 11198,
    "Ġshipping": 14107,
    "haul": 14769,
    "Ġflow": 1242,
    "thin": 14100,
    "ferences": 10329,
    "arr": 3045,
    "Ġshower": 11715,
    "Ø": 153,
    "Ġdisk": 22526,
    "Ġconceal": 5974,
    "Ġpowerful": 1449,
    "Ġmummy": 25769,
    "Ġmartial": 20293,
    "eyes": 5684,
    "Ġintrig": 21995,
    "Ġgrunt": 18739,
    "mody": 16193,
    "affections": 17359,
    "gentleman": 7517,
    "Ġfundamental": 3013,
    "Ġpartly": 6715,
    "Ġways": 5396,
    "valu": 1679,
    "Ġwaterward": 23371,
    "astrous": 15889,
    "pun": 9620,
    "Ġeagerness": 6610,
    "Ġplacing": 8904,
    "Ġstrong": 1788,
    "smote": 23914,
    "Ġsen": 9159,
    "Ġjealous": 9470,
    "Ġreflection": 6440,
    "Ġornam": 15868,
    "tranqu": 14710,
    "also": 7850,
    "ricted": 15423,
    "Ġfrosted": 19805,
    "Ġeighty": 19479,
    "damp": 15347,
    "Ġefforts": 11812,
    "handedness": 24921,
    "bus": 5355,
    "Ġcharted": 22254,
    "Ġchat": 6561,
    "Ġjuly": 17239,
    "://": 11468,
    "Ġverify": 12092,
    "Ġtapers": 11555,
    "sloop": 26146,
    "Ġtwisted": 7227,
    "Ġrejoiced": 8687,
    "dropped": 12267,
    "Ġgradual": 20604,
    "]]": 5205,
    "Ġrides": 21976,
    "deliver": 19507,
    "draw": 23904,
    "Ġlimit": 10445,
    "Ġsystem": 577,
    "Ġfrocks": 23927,
    "Ġrefres": 14347,
    "last": 3802,
    "mme": 22504,
    "Ġwhiteness": 5920,
    "Ġrobberies": 23029,
    "Ġflail": 23011,
    "Ġpoorly": 9858,
    "Ġalle": 11670,
    "Ġbaptized": 25775,
    "Ġequilibrium": 4140,
    "Ġcrav": 19175,
    "Ġsir": 1570,
    "subjects": 19877,
    "know": 2318,
    "Ġemboldened": 22954,
    "Ġintelligence": 557,
    "dogs": 25403,
    "instant": 8659,
    "intercourse": 14641,
    "Ġexped": 7650,
    "Ġrecip": 16151,
    "Ġbuoy": 8003,
    "bath": 13693,
    "Ġindic": 2885,
    "killing": 20944,
    "Ġperformed": 8548,
    "Ġarchitectures": 2907,
    "Ġalb": 14019,
    "âĢĶ_": 3199,
    "Ġworsh": 13005,
    "Ġholding": 4977,
    "Ġclapham": 17268,
    "Ġornament": 11725,
    "Ġpleasure": 2691,
    "Ġcircumstances": 3922,
    "finish": 24385,
    "Ġirretrie": 23378,
    "Ġessence": 13409,
    "anks": 3913,
    "Ġdisappearance": 9300,
    "Ġtahit": 10756,
    "adequ": 11022,
    "Ġdesperately": 24658,
    "Ġdisdain": 8359,
    "ominy": 13981,
    "Ġtransformations": 3483,
    "Ġsomebody": 7911,
    "Ġupbra": 22158,
    "Ġeastern": 11633,
    "Ġdemean": 12728,
    "Ġdominion": 16539,
    "aying": 15753,
    "Ġscriptures": 26238,
    "Ġrural": 21972,
    "utherland": 9581,
    "Ġcared": 8787,
    "Ġdebility": 24276,
    "pitching": 24078,
    "ampton": 18148,
    "Ġemperors": 15164,
    "Ġburnished": 24002,
    "Ġcabs": 23643,
    "estone": 18364,
    "Ġreside": 22543,
    "Ġcolleague": 17162,
    "Ġobstetrics": 24748,
    "wit": 7816,
    "Ġtie": 10752,
    "Ġoftentimes": 20157,
    "Ġdriver": 16476,
    "het": 5435,
    "Ġheaped": 18041,
    "Ġunp": 12778,
    "Ġbeaten": 10531,
    "Ġwalton": 14975,
    "Ġendowed": 18925,
    "dining": 13709,
    "Ġtistig": 26415,
    "Ġarri": 2552,
    "Ġargue": 16785,
    "Ġbasic": 24699,
    "Ġpam": 21456,
    "bony": 15323,
    "Ġconsisted": 10421,
    "thunder": 10265,
    "bo": 1692,
    "Ġaltern": 7393,
    "icide": 11622,
    "means": 9789,
    "deprived": 19899,
    "trying": 15441,
    "Ġvintage": 26211,
    "Ġfondly": 19618,
    "wretchedness": 17255,
    "unavoidable": 17393,
    "Ġstartled": 7083,
    "required": 17031,
    "ites": 3895,
    "Ġconsummate": 25311,
    "Ġ88": 19713,
    "oved": 5215,
    "Ġlevel": 5019,
    "Ġuncovered": 23435,
    "Ġpatagonian": 20538,
    "Ġdisent": 22527,
    "Ġdash": 8121,
    "Ġinjure": 16783,
    "Ġsnap": 11204,
    "Ġnumer": 3639,
    "Ġmurdered": 6464,
    "oriented": 2945,
    "Ġleap": 5825,
    "mm": 673,
    "ĠĠĠĠĠĠĠĠĠĠĠĠĠĠĠĠĠĠĠĠĠĠ": 16231,
    "incidentally": 20542,
    "Ġmournfully": 20119,
    "Ġspake": 18309,
    "Ġtomorrow": 21516,
    "Ġperry": 22401,
    "Ġdocile": 19961,
    "Ġtoes": 10831,
    "woes": 21136,
    "ator": 1925,
    "oil": 7804,
    "conversations": 24747,
    "sne": 10127,
    "Ġneskye": 21534,
    "Ġstaggered": 9541,
    "gaz": 20880,
    "Ġindoors": 18838,
    "imes": 1300,
    "Ġabsolut": 3907,
    "Ġautomatically": 3434,
    "parts": 14604,
    "clerval": 7950,
    "Ġordinarily": 20651,
    "!_": 7328,
    "Ġargosy": 24277,
    "Ġpartner": 6716,
    "Ġ124": 24470,
    "Ġsickness": 10541,
    "suspicions": 25392,
    "Ġdecently": 22446,
    "tossed": 10999,
    "Ġpoles": 11006,
    "Ġbrittle": 22867,
    "Ġdrunken": 12053,
    "Ġlays": 15993,
    "Ġsquare": 2397,
    "Ġhoops": 9391,
    "²": 115,
    "Ġut": 2280,
    "Ġmeditate": 16709,
    "Ġtreacher": 8608,
    "belt": 24039,
    "rollable": 13948,
    "Ġinsolent": 13604,
    "Ġsurrey": 14562,
    "Ġbashful": 20422,
    "Ġcottages": 14731,
    "Ġgrating": 14363,
    "floating": 12232,
    "Ġdrive": 5054,
    "indirectly": 18438,
    "Ġensemble": 1608,
    "nns": 1895,
    "ĠĠĠĠĠĠĠĠĠĠĠĠĠĠĠĠĠĠĠĠĠĠĠĠĠĠĠĠĠĠĠĠĠĠĠĠĠĠĠĠĠĠ": 24213,
    "dimensional": 2349,
    "vis": 4576,
    "ibank": 6880,
    "uneven": 23685,
    "Ġpail": 15611,
    "Ġtrap": 7671,
    "asses": 7018,
    "Ġchall": 10946,
    "Ġwheel": 9721,
    "Ġcomparative": 10545,
    "Ġanomalously": 25639,
    "ime": 626,
    "darker": 24517,
    "Ġstrateg": 1353,
    "Ġgibberish": 25787,
    "remental": 21250,
    "Ġbenchmarks": 15025,
    "Ġfors": 21775,
    "Ġforbearing": 25101,
    "ensive": 6281,
    "Ġweal": 21924,
    "urmountable": 15283,
    "Ġfevers": 22213,
    "Ġfailure": 13319,
    "Ġ128": 24474,
    "Ġfeared": 5932,
    "Ġdownstream": 3774,
    "**:": 4736,
    "harm": 13738,
    "Ġdictating": 20154,
    "f": 74,
    "Ġdevote": 10341,
    "Ġmounted": 7831,
    "vice": 15452,
    "arnel": 18128,
    "circle": 16738,
    "Ġ50": 24316,
    "summon": 23419,
    "Ġdesolate": 10016,
    "Ġfound": 1249,
    "jewell": 25524,
    "Ġill": 2191,
    "vint": 21117,
    "Ġstars": 6151,
    "Ġcents": 17831,
    "Ġapple": 14170,
    "izard": 10885,
    "spirit": 11316,
    "Ġtemples": 18639,
    "Ġspan": 11733,
    "Ġstarlight": 24624,
    "Ġembedd": 1389,
    "deemed": 18317,
    "Ġconfined": 7464,
    "Ġintensely": 17019,
    "Ġpouch": 21471,
    "Ġshouts": 19540,
    "Ġgrazed": 15837,
    "Ġsequ": 984,
    "ward": 706,
    "ker": 5792,
    "gia": 20878,
    "Ġgrew": 5182,
    "Ġextraordinary": 5414,
    "Ġthey": 576,
    "Ġunsc": 22019,
    "pronounced": 12350,
    "Ġmanx": 7904,
    "gone": 6504,
    "Ġpine": 8801,
    "desolation": 20461,
    "Ġbounty": 26439,
    "Ġkink": 22197,
    "constable": 24630,
    "teness": 23212,
    "abst": 21792,
    "Ġhitting": 21490,
    "melted": 25207,
    "Ġboasting": 19938,
    "Ġslide": 10396,
    "Ġyoke": 18099,
    "bted": 7793,
    "accur": 14596,
    "arab": 21444,
    "eminently": 25108,
    "ellative": 21950,
    "ser": 1427,
    "Ġperseus": 10606,
    "Ġexpressive": 8985,
    "Ġabundant": 17157,
    "Ġprovinces": 24193,
    "Ġnon": 1625,
    "Ġdistress": 5845,
    "Ġrefined": 18702,
    "Ġelder": 7223,
    "Ġapex": 24343,
[...]
