{
  "metadata": {
    "vocab_size": 26614,
    "algorithm": "BPE",
    "created_at": "2026-08-03 05:39:52",
    "special_tokens": [
      "<PAD>",
      "<SOS>",
      "<EOS>",
      "<UNK>",
      "<MASK>"
    ]
  },
  "vocab": {
    "Ġsoot": 14131,
    "volutional": 1936,
    "Ġboot": 11838,
    "Ġcheerfully": 12132,
    "Ġsoap": 14132,
    "Ġattractive": 25575,
    "Ġnewcomer": 26040,
    "Ġpleaded": 16298,
    "unte": 21870,
    "Ġguardsmen": 20629,
    "engthen": 14456,
    "Ġflash": 8229,
    "Ġlicense": 20089,
    "Ġholland": 10365,
    "Ġdirt": 15593,
    "Ġacquies": 11097,
    "omely": 21636,
    "Ġcourtship": 24133,
    "deceit": 25555,
    "ohn": 4560,
    "ica": 10198,
    "Ġconn": 9229,
    "orers": 14102,
    "asted": 4648,
    "ump": 2284,
    "Ġremember": 2681,
    "Ġcivilized": 8664,
    "oup": 2014,
    "Ġbushy": 16400,
    "Ġpatient": 6892,
    "impenet": 18053,
    "Ġwines": 21286,
    "Ġimaginations": 16516,
    "ske": 13781,
    "Ġgalvan": 21614,
    "coast": 10449,
    "Ġbos": 4875,
    "hat": 6956,
    "Ġtyp": 1131,
    "Ġscent": 10284,
    ",)": 9100,
    "Ġkeepers": 23538,
    "Ġcentaurs": 23829,
    "ravelled": 18014,
    "Ġpaddles": 15146,
    "Ġdeepest": 8214,
    "Ġcuriosity": 2485,
    "Ġemphasis": 20535,
    "Ġsafe": 5103,
    "Ġharris": 13926,
    "Ġinarticulate": 21497,
    "withstanding": 8945,
    "Ġsuperlative": 26074,
    "atived": 21261,
    "Ġtongues": 14862,
    "moment": 3576,
    "Ġlayers": 817,
    "Ġhelp": 1639,
    "Ġoughts": 23898,
    "Ġrevolve": 19729,
    "ricane": 16277,
    "Ġdebts": 8035,
    "Ġsensitivity": 3071,
    "ws": 7355,
    "Ġdisturb": 7107,
    "Ġdisadvantages": 18558,
    "move": 11852,
    "jud": 4481,
    "Ġstrateg": 1344,
    "lilies": 20960,
    "Ġcharnel": 22249,
    "Ġenig": 15797,
    "Ġerskine": 17431,
    "Ġpagans": 16922,
    "Ġdiscreet": 16482,
    "Ġinconvenience": 9563,
    "folding": 24927,
    "Ġtapering": 8770,
    "valu": 1678,
    "Ġgrinned": 16857,
    "Ġcents": 17828,
    "Ġexacted": 23602,
    "Ġoblique": 20168,
    "Ġcarving": 14442,
    "Ġmethods": 3160,
    "Ġspaces": 3112,
    "changed": 7175,
    "amouch": 21848,
    "Ġcame": 1300,
    "acted": 11010,
    "Ġsofa": 10270,
    "Ġfict": 21403,
    "Ġloved": 4598,
    "erman": 5108,
    "Ġsubdued": 11030,
    "dict": 15338,
    "omit": 13973,
    "Ġspending": 10922,
    "m": 81,
    "Ġnovelties": 24778,
    "Ġproceedings": 9906,
    "Ġparents": 6752,
    "Ġmathematics": 12071,
    "Ġgrand": 3590,
    "Ġencountered": 8321,
    "ounders": 22381,
    "Ġclicked": 22345,
    "Ġsatiated": 22898,
    "======================================================================": 10067,
    "Ġcurt": 18845,
    "ascribed": 24708,
    "Ġdu": 4583,
    "Ġ95": 19772,
    "Ġconsent": 5372,
    "hairs": 20903,
    "ifies": 6686,
    "Ġparamount": 15880,
    "ame": 645,
    "Ġmetaphys": 16392,
    "Ġinclination": 6623,
    "Ġreasons": 6019,
    "Ġdouble": 4940,
    "Ġbreeds": 23346,
    "Ġlatin": 16821,
    "Ġnocturnal": 20714,
    "Ġover": 554,
    "Ġlima": 10442,
    "promise": 12248,
    "duodecimo": 16000,
    "tomorrow": 25914,
    "dispositions": 25011,
    "Ġdriver": 16473,
    "presented": 12989,
    "Ġconceals": 23901,
    "Ġameric": 3852,
    "Ġsteady": 4846,
    "carries": 19526,
    "Ġdrenched": 12605,
    "mblies": 24608,
    "Ġquito": 24408,
    "road": 6677,
    "disputed": 23498,
    "Ġwashington": 17202,
    "Ġniagara": 26458,
    "Ġnur": 5710,
    "Ġoverjoyed": 17457,
    "Ġsplashing": 16550,
    "were": 2559,
    "vicious": 21117,
    "Ġaccusation": 22367,
    "Ġexercise": 8357,
    "ity": 417,
    "Ġ13": 6718,
    "Ġchased": 8861,
    "Ġbattered": 17862,
    "disgrace": 16458,
    "consideration": 14954,
    "Ġomniscient": 20084,
    "ĠâĢĶâĢľ_": 17718,
    "Ġred": 3004,
    "mixed": 15393,
    "wol": 21121,
    "hee": 10760,
    "convinced": 10622,
    "ridge": 9496,
    "hol": 3836,
    "ouse": 1192,
    "Ġseventy": 7879,
    "Ġbuoyancy": 20040,
    "Ġbabel": 24426,
    "Ġscuttle": 7414,
    "Ġpoising": 22588,
    "Ġlonely": 6823,
    "staff": 21653,
    "Ġpewter": 17185,
    "Ġmason": 10157,
    "Ġvect": 1225,
    "Ġrejoice": 10208,
    "Ġverify": 12085,
    "Ġfreckled": 18961,
    "collinses": 19922,
    "Ġside": 1390,
    "occ": 4484,
    "script": 11077,
    ".âĢĶ": 4248,
    "Ġshone": 7404,
    "Ġauger": 21202,
    "lest": 5288,
    "Ġwalrus": 14972,
    "Ġswarm": 23051,
    "indul": 22370,
    "Ġemb": 1247,
    "oper": 7347,
    "Ġcare": 1636,
    "lingly": 9772,
    "ucumber": 19057,
    "Ġclimate": 9272,
    "Ġofficers": 4425,
    "below": 12119,
    "Ġrejoined": 14926,
    "Ġthousands": 6748,
    "Ġmainly": 22651,
    "Ġfollows": 7673,
    "compassion": 12366,
    "Ġnobly": 22238,
    "Ġforbearing": 25098,
    "sof": 17657,
    "liest": 6294,
    "Ġresignation": 18566,
    "manner": 6170,
    "haz": 17564,
    "Ġdromed": 15596,
    "H": 44,
    "Ġcab": 2634,
    "Ġmonths": 3454,
    "Ġweather": 3994,
    "leep": 4633,
    "Ġswears": 16463,
    "Ġsubmitted": 11869,
    "sutherland": 21061,
    "Ġway": 1085,
    "Ġincreases": 3794,
    "Ġ8": 5433,
    "Ġlook": 879,
    "Ġemployer": 19430,
    "earth": 6502,
    "Ġarmed": 9259,
    "Ġclaps": 22339,
    "Ġmccauley": 26426,
    "Ġsanely": 24980,
    "Ġtalents": 15044,
    "Ġsing": 3075,
    "gave": 7799,
    "Ġproble": 1106,
    "Ġsnatching": 10472,
    "bons": 17486,
    "Ġtombed": 25160,
    "olerably": 11672,
    "Ġgulp": 20027,
    "Ġpeaked": 2295,
    "r": 86,
    "impe": 21705,
    "Ġtongs": 9960,
    "Ġscud": 14190,
    "ateur": 22068,
    "eous": 13711,
    "sensations": 20049,
    "Ġtoiled": 12639,
    "Ġtyphoon": 12387,
    "Ġhigher": 1818,
    "new": 1467,
    "Ġmagg": 18905,
    "lant": 20946,
    "Ġporpoise": 7106,
    "chanced": 18809,
    "ren": 551,
    "Ġhumbug": 18778,
    "Ġamidst": 9493,
    "Ġdwelling": 7322,
    "Ġlinked": 15076,
    "Ġtwinkling": 12322,
    "Ġvoyager": 16512,
    "pair": 21011,
    "Ġspell": 8855,
    "contr": 12055,
    "reading": 12077,
    "Ġcult": 8781,
    "Ġaback": 22263,
    "Ġquality": 3524,
    "Ġlic": 8435,
    "ensity": 11811,
    "Ġsat": 1132,
    "cost": 19185,
    "tri": 11529,
    "Ġretiring": 16279,
    "leag": 21364,
    "thanked": 24331,
    "Ġextant": 18680,
    "obtain": 23090,
    "repeated": 12337,
    "wearing": 22684,
    "Ġcalhoun": 23040,
    "Ġevaporate": 26332,
    "Ġscandinav": 19959,
    "Ġmic": 17797,
    "Ġtrusty": 24102,
    "Ġphilipp": 23881,
    "Ġbuttoned": 25368,
    "Ġtumult": 7114,
    "obey": 11509,
    "tish": 17677,
    "Ġglances": 10372,
    "Ġ10": 5248,
    "anum": 17835,
    "Ġlocks": 11722,
    "viv": 17698,
    "Ġadditionally": 1176,
    "Ġfile": 13902,
    "Ġhearing": 4760,
    "letters": 13173,
    "dangerous": 20239,
    "tell": 1382,
    "Ġreservoir": 20650,
    "Ġreap": 18026,
    "icism": 13955,
    "Ġstagger": 10591,
    "pherd": 13643,
    "Ġnormalization": 1243,
    "fastened": 19324,
    "tremble": 17141,
    "Ġclaw": 22340,
    "glances": 23850,
    "verse": 9687,
    "sweetly": 25134,
    "Ġchim": 5932,
    "Ġpantry": 20294,
    "Ġdishon": 12228,
    "Ġprovidence": 18744,
    "Ġpunishment": 9955,
    "Ġ57": 24325,
    "iag": 20915,
    "Ġalarmed": 6923,
    "Ġencodings": 4775,
    "wrinkled": 16554,
    "fier": 9593,
    "Ġdedu": 5585,
    "ede": 21503,
    "verb": 10216,
    "pertaining": 22181,
    "Ġearls": 18903,
    "non": 9611,
    "virt": 15450,
    "Ġresembles": 25969,
    "Ġcaptioning": 23018,
    "agonies": 21906,
    "Ġroughs": 19955,
    "disgust": 23494,
    "Ġrattle": 10899,
    "Ġepisode": 26346,
    "Ġrazor": 22657,
    "steering": 16635,
    "Ġeigen": 4881,
    "rolling": 9060,
    "Ġembarkation": 25122,
    "Ġfleecy": 17023,
    "acle": 4715,
    "Ġhumbled": 16195,
    "Ġhardened": 14449,
    "Ġ51": 24320,
    "lizzy": 6651,
    "Ġelbow": 12918,
    "Ġsqu": 1041,
    "Ġimmense": 4952,
    "poison": 14391,
    "Ġredress": 23750,
    "cheon": 23801,
    "Ġoccurred": 4462,
    "Ġgoring": 21601,
    "Ġsadly": 7302,
    "Ġkentuck": 19890,
    "Ġstationary": 19693,
    "Ġauthorities": 11264,
    "angle": 22101,
    "Ġremark": 2145,
    "Ġprevented": 5941,
    "Ġelev": 5536,
    "Ġfat": 3460,
    "scarcely": 12384,
    "interesting": 12199,
    "Ġpunish": 12157,
    "Ġembrace": 16990,
    "should": 3261,
    "unimportant": 18159,
    "Ġton": 15463,
    "recovered": 19786,
    "Ġposter": 14274,
    "Ġshalt": 18230,
    "europe": 20664,
    "strils": 10458,
    "Ġaggreg": 12881,
    "mitted": 5213,
    "Ġprepared": 5876,
    "Ġdiscomposed": 25580,
    "melancholy": 12351,
    "kindness": 10505,
    "yd": 21141,
    "Ġroyalty": 19735,
    "aled": 3942,
    "Ġmoulded": 16975,
    "Ġocc": 887,
    "\":": 9581,
    "nose": 17610,
    "gest": 5426,
    "Ġfoolish": 5979,
    "Ġruinous": 24633,
    "Ġwouldst": 18501,
    "Ġinsignificance": 20456,
    "Ġjuly": 17236,
    "Ġsteelkilt": 5675,
    "Ġramsgate": 18650,
    "inioned": 19285,
    "Ġriots": 23890,
    "Ġendued": 14076,
    "li": 1188,
    "Ġensl": 19273,
    "Ġhastening": 19335,
    "Ġbob": 22636,
    "Ġlace": 13948,
    "Ġproced": 2579,
    "Ġax": 7822,
    "Ġembodied": 25846,
    "spe": 3557,
    "rod": 10831,
    "âĢĻ-": 18166,
    "Ġhugh": 15004,
    "Ġafghan": 22627,
    "vengeance": 13355,
    "wond": 8767,
    "Ġspecial": 2103,
    "Ġvariety": 8530,
    "astic": 1866,
    "Ġangle": 8602,
    "harbor": 13563,
    "Ġmovable": 22432,
    "Ġlaz": 7378,
    "mers": 9610,
    "Ġcursory": 18850,
    "sleep": 6511,
    "flagged": 23969,
    "hunted": 16832,
    "ages": 829,
    "Ġexerc": 6832,
    "Ġthrow": 3782,
    "Ġpoll": 12028,
    "alyards": 18783,
    "Ġentitled": 8538,
    "Ġwonder": 2117,
    "hammered": 19004,
    "Ġled": 3518,
    "into": 3679,
    "deserted": 18960,
    "Ġinventing": 24861,
    "Ġworried": 22923,
    "Ġweary": 5635,
    "Ġawa": 7713,
    "cer": 6642,
    "Ġrushed": 4086,
    "Ġcorps": 13030,
    "Ġyea": 8915,
    "likely": 9022,
    "Ġwounds": 17790,
    "Ġbubblingly": 25632,
    "eks": 4727,
    "ô": 181,
    "Ġbesides": 3510,
    "Ġsufferer": 16257,
    "Ġabove": 2934,
    "Ġpromising": 10399,
    "rever": 21234,
    "imperturbable": 25790,
    "itled": 7578,
    "conf": 4957,
    "retched": 3069,
    "Ġcouples": 16852,
    "Ġbrighton": 6470,
    "Ġmultimodal": 18747,
    "Ġmastery": 23990,
    "ually": 2771,
    "Ġutter": 3973,
    "Ġmajest": 24057,
    "disguise": 26306,
    "agatha": 21905,
    "bub": 15315,
    "astrop": 3317,
    "Ġcoquet": 22581,
    "Ġinterested": 6458,
    "Ġdispel": 16596,
    "Ġinfirm": 19018,
    "osely": 9264,
    "Ġclothes": 4997,
    "Ġfaltering": 17884,
    "Ġannesley": 19576,
    "enit": 17779,
    "Ġtiara": 26415,
    "Ġurged": 6781,
    "Ġretains": 20028,
    "Ġtexture": 19159,
    "Ġfavoured": 16362,
    "Ġsurvey": 13592,
    "agery": 21904,
    "slee": 17168,
    "Ġwrist": 8242,
    "Ġapparel": 20434,
    "Ġsperma": 19046,
    "Ġbrooks": 25700,
    "Ġcoast": 4654,
    "Ġdisown": 22521,
    "Ġtragedy": 10667,
    "screw": 9346,
    "Ġimpulsively": 24880,
    "Ġneared": 14072,
    "zar": 11547,
    "Ġvult": 12747,
    "disinterested": 23499,
    "Ġlikely": 3595,
    "Ġbrisk": 9802,
    "favourite": 15142,
    "beheaded": 22490,
    "Ġexperiment": 11915,
    "elson": 16372,
    "Ġchamounix": 14863,
    "Ġburn": 3682,
    "baned": 17495,
    "Ġgur": 21589,
    "Ġwaving": 8575,
    "humiliation": 24018,
    "velling": 14761,
    "lotts": 23822,
    "persecutor": 26529,
    "Ġwaited": 4908,
    "uteness": 17985,
    "Ġimparted": 15987,
    "husband": 8041,
    "Ġwrecked": 9965,
    "Ġseeming": 8539,
    "Ġdusky": 13548,
    "Ġflowery": 16230,
    "ades": 5631,
    "proceed": 8976,
    "Ġadjusted": 23457,
    "Ġbattery": 21392,
    "shooting": 16965,
    "Ġspake": 18308,
    "Ġstun": 11649,
    "Ġwail": 21285,
    "Ġpine": 8796,
    "Ġanno": 9667,
    "Ġwrench": 12554,
    "spoken": 11858,
    "Ġfinishing": 23121,
    "Ġbag": 5699,
    "Ġher": 427,
    "Ġsallow": 12533,
    "ract": 966,
    "swaying": 25910,
    "ference": 1882,
    "ount": 1111,
    "Ġmol": 12558,
    "Ġrank": 6258,
    "Ġadds": 1805,
    "Ġbrawny": 13612,
    "Ġboone": 11839,
    "rier": 9241,
    "Ġbelfry": 26438,
    "Ġmachinations": 25767,
    "sentence": 2937,
    "Ġguid": 2640,
    "Ġunexpected": 6841,
    "Ġperem": 12929,
    "brushing": 20787,
    "allied": 7410,
    "Ġrenounce": 19466,
    "finding": 17013,
    "ff": 462,
    "utterly": 20010,
    "this": 1440,
    "Ġvaults": 17153,
    "Ġhandy": 12933,
    "Ġrelationships": 2924,
    "Ġflanks": 11912,
    "Ġclasses": 4053,
    "Ġsuperb": 16444,
    "antingly": 22096,
    "yder": 10138,
    "Ġvictor": 5125,
    "Ġindisposed": 26287,
    "remediable": 26294,
    "earn": 10696,
    "Ġrepresenting": 4059,
    "Ġgeese": 7694,
    "Ġdevout": 14336,
    "Ġpalpit": 16691,
    "chain": 18039,
    "Ġalleg": 14016,
    "Ġminutest": 14559,
    "descend": 23082,
    "Ġcarpets": 18902,
    "centred": 25017,
    "Ġtenderest": 23549,
    "mast": 3599,
    "Ġele": 1963,
    "sherlock": 5422,
    "Ġbewit": 15725,
    "Ġrucastle": 5176,
    "recognised": 15261,
    "olera": 21830,
    "Ġbritannica": 24680,
    "edy": 2858,
    "Ġmomentum": 1603,
    "Ġbewitching": 25976,
    "Ġbeer": 10219,
    "Ġforenoon": 19126,
    "Ġinsipid": 26313,
    "Ġcoco": 11000,
    "resist": 8275,
    "Ġdisciple": 22776,
    "'": 11,
    "is": 280,
    "Ġlydia": 2373,
    "Ġbeneath": 3236,
    "Ġdirecting": 16299,
    "Ġstabbing": 20302,
    "Ġrevellers": 21675,
    "Ġmedicine": 15204,
    "Ġprecipitate": 19940,
    "repairing": 24495,
    "Ġbehaviors": 13252,
    "Ġcorre": 3886,
    "Ġconsiderably": 7714,
    "Ġnib": 13939,
    "ad": 337,
    "Ġpilgrim": 25599,
    "Ġimpress": 6862,
    "ented": 4349,
    "Ġenjoyments": 24015,
    "Ġefficient": 1051,
    "Ġgallows": 12143,
    "Ġunreasonably": 17450,
    "ge": 560,
    "Ġwisely": 13270,
    "Ġabhorrence": 9052,
    "billiard": 25334,
    "Ġgeneral": 1860,
    "reach": 17757,
    "Ġcautiously": 16977,
    "Ġsubset": 9869,
    "nameless": 19902,
    "Ġdiscerned": 25003,
    "score": 18855,
    "Ġdem": 11673,
    "Ġuntrodden": 23521,
    "Ġextended": 7921,
    "coo": 11170,
    "Ġforgery": 25977,
    "steady": 14708,
    "tailed": 17685,
    "Ġbulldog": 23856,
    "Ġcongratulated": 19765,
    "plied": 10254,
    "Ġprogramming": 1183,
    "Ġdecisive": 18483,
    "machine": 955,
    "Ġanon": 9666,
    "resp": 13838,
    "leaving": 10791,
    "Ġperusal": 14224,
    "Ġindignity": 18832,
    "Ġdeclaration": 16636,
    "mathematics": 26304,
    "ich": 471,
    "Ġwreck": 7314,
    "embarrassed": 20595,
    "Ġmagistrate": 8233,
    "othic": 16214,
    "Ġlungless": 24863,
    "positive": 20566,
    "Ġinferences": 17934,
    "depart": 12263,
    "occasion": 7753,
    "concerning": 9067,
    "atible": 17772,
    "Ġsuffers": 2972,
    "Ġdeliverer": 11948,
    "lever": 2930,
    "Ġbrotherhood": 23667,
    "Ġwheeling": 18286,
    "Ġovers": 14205,
    "happiness": 6469,
    "advantages": 11271,
    "Ġbra": 3254,
    "Ġsqualidness": 25842,
    "Ġpaddock": 25037,
    "Ġtrim": 15966,
    "irable": 5776,
    "Ġmot": 2984,
    "Ġpelt": 15607,
    "admire": 24943,
    "Ġtambourine": 9564,
    "Ġcapable": 5054,
    "across": 10324,
    "writhed": 26080,
    "Ġpriority": 19761,
    "Ġacc": 561,
    "leads": 21368,
    "Ġfunctions": 1343,
    "Ġmakes": 3650,
    "Ġlaughing": 5338,
    "âĢĻ!âĢĿ": 18167,
    "Ġrepro": 7275,
    "Ġkicks": 19767,
    "puff": 21021,
    "perceive": 12807,
    "Ġexceed": 1348,
    "Ġcoiling": 12902,
    "Ġidle": 8252,
    "Ġiroquois": 26472,
    "Ġdisabled": 18561,
    "Ġbroken": 3447,
    "Ġobedient": 20103,
    "Ġungodly": 26513,
    "uzza": 11270,
    "boo": 16349,
    "grandfather": 25009,
    "Ġfem": 6134,
    "Ġexal": 10877,
    "Ġdependence": 18630,
    "nantucket": 7804,
    "Ġhasty": 10477,
    "Ġtraverse": 18892,
    "Ġkindly": 6077,
    "rian": 10241,
    "Ġfinny": 23123,
    "stra": 4044,
    "earnest": 12397,
    "carrying": 16712,
    "game": 11490,
    "Ġhumane": 11882,
    "Ġshelf": 12265,
    "Ġtire": 17720,
    "ertain": 1206,
    "backed": 9865,
    "Ġdoubtful": 19141,
    "Ġforthwith": 16618,
    "supplementary": 20548,
    "Ġtook": 1854,
    "Ġhandsomest": 20333,
    "Ġunfathomably": 25873,
    "Ġmastiff": 23723,
    "Ġcontext": 1712,
    "Ġimagenet": 19245,
    "Ġborne": 6351,
    "Ġjunior": 15098,
    "full": 7420,
    "Ġjub": 22292,
    "question": 5418,
    "done": 6500,
    "Ġwhittling": 20698,
    "etimes": 1988,
    "Ġholiest": 18812,
    "ĠĠĠĠĠĠĠĠĠĠĠĠĠĠĠĠĠĠĠĠĠĠĠĠĠĠĠĠĠĠĠĠĠĠĠ": 19257,
    "inquire": 16932,
    "Ġjun": 8505,
    "Ġnug": 21522,
    "Ġenl": 18188,
    "ğ": 224,
    "Ġlying": 4825,
    "Ġfilial": 16620,
    "lived": 12484,
    "Ġhast": 3149,
    "Ġ52": 24321,
    "Ġirish": 14534,
    "sli": 11522,
    "Ġunearthly": 9036,
    "table": 5795,
    "Ġtravellers": 11308,
    "Ġreconciliation": 25292,
    "Ġconfining": 23302,
    "Ġenormity": 19694,
    "Ġindec": 13927,
    "Ġacquired": 13041,
    "Ġplayful": 19235,
    "Ġcongenial": 12409,
    "Ġsignificant": 8633,
    "Ġpenet": 6888,
    "Ġincredulous": 9986,
    "Ġschol": 17376,
    "uendoes": 26407,
    "Ġcourage": 4632,
    "Ġrolls": 8333,
    "Ġpattering": 18651,
    "Ġprogeny": 17387,
    "country": 6103,
    "letons": 14612,
    "Ġearl": 7676,
    "Ġsig": 867,
    "Ġmass": 3779,
    "Ġdemanding": 16805,
    "Ġinstance": 2546,
    "Ġpugnacious": 26451,
    "gen": 6503,
    "Ġsource": 6805,
    "Ġhoops": 9388,
    "oky": 8197,
    "Ġforbidding": 17079,
    "Ġclattered": 22342,
    "Ġhope": 1789,
    "Ġbirch": 26174,
    "Ġmaria": 7124,
    "Ġhysterical": 26092,
    "Ġhatchet": 16528,
    "3": 23,
    "Ġcommentators": 25229,
    "Ġconvalescence": 23744,
    "therly": 18343,
    "itory": 12564,
    "Ġcongrat": 5827,
    "Ġpolitely": 8993,
    "Ġpicture": 4855,
    "totally": 25417,
    "day": 1857,
    "Ġmock": 3690,
    "Ġflorid": 17135,
    "Ġfors": 21768,
    "Ġincantation": 26257,
    "upp": 10130,
    "Ġbuy": 8299,
    "Ġfrank": 4419,
    "Ġworked": 6583,
    "Ġcomprehension": 15085,
    "aan": 20763,
    "alloyed": 22198,
    "paradise": 20636,
    "wil": 8395,
    "Ġtendons": 19807,
    "Ġcircumstances": 3924,
    "Ġvigour": 24462,
    "Ġput": 1797,
    "Ġdeaths": 14537,
    "Ġsnuff": 7991,
    "Ġbeliefs": 24582,
    "Ġwindlass": 7256,
    "Ġfol": 1288,
    "0": 20,
    "Ġcaul": 10787,
    "Ġuttering": 16461,
    "piling": 15414,
    "dial": 20824,
    "congratulations": 20278,
    "draught": 12087,
    "departure": 15233,
    "Ġseclusion": 18208,
    "Ġdeclare": 6613,
    "frost": 15105,
    "Ġbulwarks": 5592,
    "Ġshocking": 10435,
    "Ġagrees": 22513,
    "bowsprit": 16853,
    "Ġillustration": 19135,
    "Ġartic": 5314,
    "Ġtranslates": 12049,
    "famous": 16916,
    "Ġarsacides": 17293,
    "blocks": 25517,
    "Ġzones": 22817,
    "Ġcrumb": 16439,
    "nourished": 26398,
    "Ġhoot": 19076,
    "destroyed": 15259,
    "Ġcontribute": 12858,
    "Ġmisanthropic": 26560,
    "frightened": 17195,
    "vation": 4743,
    "Ġseasoned": 24405,
    "Ġsmoky": 22555,
    "Ġbelow": 4060,
    "?âĢĿâĢĶ": 12892,
    "ancing": 1759,
    "Ġbaltic": 18794,
    "Ġturk": 6603,
    "Ġ36": 14766,
    "with": 1297,
    "Ġunworth": 22031,
    "kinson": 10025,
    "Ġimpregnable": 26023,
    "Ġencoder": 3633,
    "Ġtroub": 22352,
    "Ġtrib": 13818,
    "Ġexasper": 8466,
    "Ġscotch": 12207,
    "Ġrag": 18643,
    "Ġbeaver": 18085,
    "Ġforecastle": 5495,
    "Ġobtained": 7432,
    "Ġass": 1505,
    "Ġtreats": 19342,
    "Ġfoes": 11950,
    "Ġnoticed": 5549,
    "Ġpieces": 7369,
    "Ġreadability": 2726,
    "Ġdragon": 14943,
    "Ġanat": 8123,
    "Ġremembrance": 8317,
    "Ġinstigated": 18698,
    "Ġgrassy": 24379,
    "Ġassiduous": 26292,
    "Ġbilliard": 16689,
    "Ġgarnery": 17386,
    "Ġswept": 7977,
    "dia": 2133,
    "urred": 8449,
    "ifications": 9728,
    "maintained": 25020,
    "Ġtistig": 26413,
    "Ġfiver": 22773,
    "Ġscho": 4435,
    "Ġcome": 1242,
    "Ġequ": 1736,
    "dashed": 12453,
    "Ġrenegades": 26476,
    "Ġfordham": 21773,
    "Ġzig": 18742,
    "Ġeternities": 19941,
    "resolved": 9639,
    "Ġxlvi": 25590,
    "Ġdisinclination": 22533,
    "_?âĢĿ": 15304,
    "pleasing": 14741,
    "Ġindist": 14407,
    "Ġjuncture": 17129,
    "Ġfrankenstein": 7095,
    "reas": 989,
    "crippled": 26384,
    "Ġbluish": 23649,
    "Ġbarrow": 12067,
    "square": 15059,
    "Ġwoke": 21288,
    "--": 1045,
    "Ġuniversity": 13120,
    "ather": 740,
    "australian": 20560,
    "brought": 7285,
    "Ġ18": 3406,
    "Ġpresence": 5031,
    "Ġdest": 2236,
    "Ġbrigs": 20321,
    "Ġhealed": 21680,
    "iger": 8446,
    "Ġ49": 24079,
    "Ġilliter": 23467,
    "bitterly": 20336,
    "Ġproclaim": 18131,
    "Ġcensured": 25094,
    "elze": 21570,
    "Ġassur": 6073,
    "Ġpointing": 5661,
    "Ġtrunk": 7205,
    "Ġwoods": 5406,
    "Ġrepl": 1594,
    "Ġsmelt": 16063,
    "io": 3800,
    "finished": 10554,
    "infl": 15486,
    "ohnson": 16324,
    "cet": 15324,
    "Ġapprehensiveness": 16877,
    "dimens": 2316,
    "Ġjoking": 12834,
    "Ġgenuine": 14884,
    "formed": 2555,
    "Ġvales": 21941,
    "Ġnet": 3624,
    "Ġboneless": 19604,
    "pursu": 11392,
    "Ġcorrespondence": 10594,
    "Ġcoward": 7155,
    "Ġ122": 24467,
    "hon": 6793,
    "Ġejaculated": 15168,
    "immortal": 21707,
    "Ġkey": 2102,
    "Ġgrind": 18734,
    "pped": 1998,
    "Ġvisit": 2583,
    "illing": 8174,
    "ationally": 15702,
    "sometimes": 5971,
    "Ġcrumpled": 16441,
    "Ġpoltro": 23618,
    "till": 6965,
    "100": 11464,
    "Ġhogarth": 25780,
    "Ġinvoking": 19145,
    "chance": 6827,
    "shows": 22453,
    "Ġsolemnly": 8023,
    "Ġwreat": 15529,
    "Ġchecking": 23284,
    "aries": 6244,
    "Ġbrightened": 23825,
    "Ġseparating": 16685,
    "Ġstraightway": 9016,
    "ese": 4443,
    "train": 2035,
    "Ġwet": 6518,
    "jets": 20927,
    "Ġneighbors": 25804,
    "moderate": 22868,
    "sculptured": 26046,
    "offended": 16395,
    "datasets": 11949,
    "Ġtons": 11549,
    "Ġceremonies": 24836,
    "Ġill": 2193,
    "uiperai": 10663,
    "silly": 24422,
    "tinted": 17683,
    "Ġbreach": 11972,
    "pennies": 26285,
    "Ġwild": 2601,
    "Ġnapoleons": 25885,
    "igate": 8822,
    "Ġrevolver": 14899,
    "Ġplying": 17911,
    "encyclopÃ¦dia": 16663,
    "Ġsuggested": 8320,
    "Ġcontemplated": 13463,
    "command": 6576,
    "exam": 10976,
    "duchess": 18463,
    "trad": 21075,
    "Ġworry": 18815,
    "Ġriveted": 13617,
    "Ġmil": 4255,
    "Ġpatagon": 14495,
    "Ġdisadvantage": 12887,
    "emone": 21924,
    "iony": 9191,
    "Ġdesertion": 24787,
    "cturn": 17986,
    "Ġfanning": 23388,
    "ersman": 11700,
    "bedstead": 23846,
    "Ġgenerous": 6273,
    "Ġabstraction": 26539,
    "wheel": 22865,
    "ents": 1896,
    "Ġtener": 21162,
    "Ġsensation": 6896,
    "tipt": 25083,
    "Ġcogent": 14272,
    "Ġabridged": 26540,
    "Ġcreates": 2009,
    "pid": 1387,
    "rench": 3966,
    "Ġjail": 22291,
    "Ġcongratulations": 10580,
    "ublic": 11227,
    "Ġtweezers": 26556,
    "Ġstructure": 815,
    "Ġcath": 17826,
    "Ġgibberish": 25786,
    "Ġusher": 22212,
    "straight": 9939,
    "Ġverte": 9440,
    "Ġthoughtfulness": 18772,
    "Ġnervousness": 23555,
    "Ġreview": 18030,
    "Ġmeddle": 19490,
    "Ġantiquities": 25598,
    "Ġvess": 3297,
    "grained": 20882,
    "Ġamericans": 14742,
    "Ġempires": 19075,
    "Ġpays": 13295,
    "eng": 1489,
    "Ġor": 437,
    "concluded": 11242,
    "educ": 10828,
    "Ġpagan": 7117,
    "Ġstrung": 22613,
    "iliar": 15711,
    "Ġwires": 21294,
    "Ġconfused": 7963,
    "landlord": 9840,
    "ai": 2527,
    "ound": 583,
    "Ġcarpenters": 16752,
    "Ġincompetent": 25679,
    "aphs": 22333,
    "Ġallow": 1128,
    "insupportable": 21192,
    "irs": 14070,
    "fitted": 17544,
    "Ġpeels": 22688,
    "Ġcarav": 18901,
    "green": 7115,
    "Ġlawy": 9454,
    "whaling": 7898,
    "poises": 11887,
    "Ġvitality": 15171,
    "\"],": 26120,
    "mission": 5969,
    "leather": 13889,
    "Ġpurring": 23474,
    "Ġtropics": 17067,
    "Ġgraphs": 25463,
    "Ġapparently": 6778,
    "Ġtiger": 11554,
    "Ġreluctant": 20523,
    "Ġfascinated": 25635,
    "wl": 17702,
    "Ġbush": 23335,
    "Ġteacher": 22910,
    "Ġcharity": 8862,
    "Ġexact": 2544,
    "Ġshrieked": 9547,
    "hill": 15361,
    "Ġalternative": 19985,
    "murdered": 12200,
    "Ġchances": 9262,
    "Ġending": 18189,
    "ength": 2312,
    "ance": 480,
    "ority": 8417,
    "ar": 284,
    "yes": 984,
    "surprised": 9530,
    "Ġchann": 15933,
    "ral": 4626,
    "herfield": 3628,
    "riend": 1186,
    "Ġdamps": 23473,
    "iriously": 18171,
    "Ġmentioning": 9898,
    "Ġsucceeded": 6105,
    "swallowed": 14852,
    "Ġsleeps": 10446,
    "Ġmortified": 14694,
    "prison": 14662,
    "Ġbehaved": 13251,
    "nevertheless": 8285,
    "eed": 20840,
    "Ġfinish": 7948,
    "Ġomen": 11575,
    "Ġshells": 20362,
    "Ġunansw": 22053,
    "Ġcurrent": 13010,
    "orus": 10801,
    "Ġawfulness": 23586,
    "Ġpetticoat": 15294,
    "late": 11498,
    "aired": 8368,
    "Ġtwelvemonth": 12175,
    "imming": 9686,
    "baden": 25615,
    "Ġraving": 16112,
    "mix": 20973,
    "Ġaccurately": 4031,
    "Ġcomp": 723,
    "merit": 19280,
    "Ġadmiral": 17304,
    "Ġalarm": 4046,
    "Ġvisitor": 5330,
    "Ġincred": 5646,
    "Ġloves": 10915,
    "Ġthen": 668,
    "representing": 25271,
    "Ġcompos": 22566,
    "Ġporus": 24398,
    "Ġscriptures": 26235,
    "Ġspots": 11728,
    "Ġkrem": 9725,
    "ats": 4254,
    "Ġsomebody": 7911,
    "Ġseas": 3079,
    "Ġpronounced": 8350,
    "Ġnational": 13941,
    "olic": 14041,
    "mariners": 19547,
    "Ġhelped": 7459,
    "Ġcomprehended": 11294,
    "blasted": 20188,
    "Ġbulky": 13227,
    "Ġimpulses": 19960,
    "Ġfranc": 16350,
    "ensive": 6279,
    "Ġnowadays": 18546,
    "Ġcircumnavigation": 20398,
    "ments": 1403,
    "Ġnosegay": 24192,
    "bloom": 24689,
    "hyme": 19608,
    "playing": 19656,
    "intim": 22931,
    "Ġinvader": 23477,
    "Ġquarrel": 7292,
    "Ġblown": 12083,
    "dimensional": 2348,
    "trimmed": 23946,
    "Ġbursting": 8655,
    "Ġservices": 11217,
    "natural": 2278,
    "Ġconjunction": 25100,
    "Ġast": 2960,
    "Ġaided": 17745,
    "forgotten": 12414,
    "Ġvariance": 1169,
    "sequence": 2855,
    "Ġprying": 15606,
    "Ġdwelt": 12607,
    "Ġgods": 6454,
    "Ġshroud": 6483,
    "orily": 15570,
    "sor": 7352,
    "threw": 21981,
    "Ġtrem": 6659,
    "mental": 16047,
    "ilations": 21719,
    "Ġexponentiating": 3445,
    "ical": 755,
    "Ġflourishing": 25187,
    "Ġmeridian": 25714,
    "Ġconsistence": 23354,
    "ised": 1066,
    "ful": 662,
    "Ġknob": 24407,
    "inlaid": 21189,
    "pet": 4867,
    "ylon": 24975,
    "Ġcharing": 14178,
    "Ġgin": 13960,
    "Ġrepute": 18034,
    "Ġtrance": 12838,
    "Ġhighland": 18710,
    "lowering": 16029,
    "Ġroast": 18457,
    "Ġprogra": 1146,
    "Ġliked": 5264,
    "ã": 164,
    "Ġdoct": 4454,
    "Ġlangu": 578,
    "Ġsarat": 21226,
    "Ġaquiline": 26159,
    "uneasy": 23682,
    "Ġsurmises": 17056,
    "rative": 17652,
    "Ġacute": 16121,
    "Ġagents": 9765,
    "slouched": 24557,
    "max": 1683,
    "iest": 4035,
    "augh": 1782,
    "owe": 15705,
    "Ġharpooneer": 3771,
    "Ġexpans": 18622,
    "shall": 4549,
    "Ġtepid": 26412,
    "Ġleap": 5824,
    "Ġsinister": 8568,
    "Ġpettic": 14840,
    "goes": 10426,
    "Ġdiversion": 17197,
    "de": 456,
    "leisure": 21369,
    "Ġslightest": 6092,
    "ensical": 18567,
    "angling": 14140,
    "oh": 1579,
    "Ġsubstit": 19539,
    "maj": 18804,
    "Ġoverfitting": 1543,
    "Ġsaloon": 24059,
    "Ġmealy": 18117,
    "Ġdri": 2363,
    "Ġbillow": 14777,
    "Ġdecayed": 22823,
    "stern": 8444,
    "Ġheaps": 11641,
    "Ġprocuring": 16870,
    "Ġencounters": 19579,
    "Ġequal": 4132,
    "Ġentic": 16145,
    "Ġincreased": 2210,
    "Ġcanst": 8857,
    "Ġprejud": 6851,
    "reject": 21235,
    "Ġbenevolent": 7772,
    "token": 21081,
    "Ġcriminals": 19921,
    "Ġescort": 23503,
    "Ġexpanding": 25238,
    "conda": 18993,
    "Ġpaddled": 20200,
    "ve": 322,
    "Ġblasphemy": 26115,
    "itated": 4439,
    "Ġrepresents": 4902,
    "Ġspile": 22130,
    "Ġparmacetti": 20603,
    "determination": 19943,
    "Ġinjunction": 19616,
    "Ġacquitted": 18898,
    "Ġunivers": 2125,
    "flesh": 13489,
    "Ġconvergence": 974,
    "Ġhem": 8445,
    "Ġterra": 13115,
    "Ġtechni": 1717,
    "msgate": 18412,
    "Ġdetained": 18386,
    "pistol": 17642,
    "Ġabreast": 18394,
    "pping": 1424,
    "Ġregular": 932,
    "Ġcertainty": 6734,
    "Ġconcisely": 19042,
    "Ġapprehended": 26091,
    "Ġsignifies": 19203,
    "discovered": 8324,
    "Ġinterruptions": 24186,
    "Ġfastening": 16355,
    "Ġexisting": 12714,
    "Ġow": 8407,
    "Ġblaming": 22927,
    "let": 2735,
    "Ġdusk": 12325,
    "sar": 12502,
    "ders": 8074,
    "Ġuniversal": 2233,
    "story": 9212,
    "Ġmosses": 20162,
    "shold": 2774,
    "necessary": 5881,
    "Ġboiling": 8525,
    "Ġdaughter": 2868,
    "saying": 8640,
    "Ġadvent": 4357,
    "Ġsmothe": 18573,
    "bright": 8989,
    "Ġargu": 10934,
    "satisf": 5781,
    "uneven": 23681,
    "Ġkindling": 19028,
    "Ġcosmetic": 23470,
    "sme": 17658,
    "Ġunnecessary": 8851,
    "Ġbefallen": 12341,
    "Ġquadrille": 13540,
    "rably": 21630,
    "Ġdislike": 6047,
    "Ġlion": 9675,
    "Ġexpense": 7652,
    "text": 1974,
    "Ġalone": 2567,
    "racting": 10351,
    "Ġcoasts": 12161,
    "uish": 5431,
    "shoulder": 16583,
    "Ġprinciple": 6770,
    "evinced": 19925,
    "iful": 2880,
    "assist": 11765,
    "minutely": 19592,
    "Ġadmeasurements": 26225,
    "Ġtigris": 25759,
    "suggest": 20374,
    "Ġineffable": 17331,
    "Ġfriends": 2655,
    "Ġpleasantly": 14520,
    "agation": 1223,
    "Ġawaited": 17074,
    "Ġinclined": 6622,
    "Ġscrewed": 15119,
    "Ġbanqu": 12585,
    "Ġfant": 9173,
    "noon": 5037,
    "Ġincompatible": 25680,
    "Ġblind": 3714,
    "Ġsmiling": 5474,
    "courage": 17509,
    "Ġinherited": 25353,
    "Ġestate": 6316,
    "Ġliv": 6679,
    "te": 994,
    "lands": 8240,
    "ivable": 10910,
    "cing": 1012,
    "Ġtrack": 7450,
    "Ġstepmother": 16087,
    "[_": 5131,
    "ary": 986,
    "mile": 17597,
    "ss": 397,
    "Ġgrapes": 15214,
    "Ġmole": 11789,
    "zza": 24167,
    "Ġmonarchs": 25849,
    "Ġcorn": 9349,
    "Ġlooks": 4163,
    "goodness": 19287,
    "ault": 2306,
    "insanity": 23065,
    "etymology": 14700,
    "Ġvoc": 4450,
    "Ġrenowned": 26193,
    "Ġpulley": 2974,
    "hip": 8740,
    "Ġblunt": 11892,
    "Ġwax": 10776,
    "cripp": 20818,
    "dried": 20826,
    "Ġprosperity": 20257,
    "Ġinterven": 10997,
    "gris": 8259,
    "Ġreplied": 2263,
    "omon": 10206,
    "Ġaver": 1286,
    "Ġrecom": 4554,
    "isl": 21373,
    "onah": 3338,
    "Ġthreatens": 24375,
    "proves": 23392,
    "halloa": 17090,
    "Ġcontrolled": 23248,
    "Ġmenaced": 16291,
    "Ġalle": 11665,
    "Ġsaturn": 22897,
    "Ġtechnique": 2391,
    "ament": 2440,
    "Ġsecondary": 23334,
    "ark": 851,
    "photograph": 16164,
    "Ġchronicler": 20228,
    "Ġclouded": 13288,
    "Ġgracious": 8846,
    "Ġsow": 17749,
    "dreams": 12335,
    "Ġcreator": 7251,
    "Ġjury": 5378,
    "Ġmaintained": 12931,
    "Ġpir": 6818,
    "Ġfre": 1573,
    "Ġwantest": 18789,
    "Ġeclips": 20695,
    "Ġminimize": 7050,
    "Ġglim": 9343,
    "Ġcenturies": 8622,
    "surround": 16758,
    "arted": 2201,
    "Ġteaching": 10364,
    "Ġrearing": 12674,
    "Ġgaping": 13968,
    "Ġbarricade": 14660,
    "dis": 2249,
    "Ġwerter": 15238,
    "Ġconsider": 2568,
    "string": 15683,
    "Ġtiles": 17726,
    "Ġsurpassed": 25267,
    "Ġunderstood": 5655,
    "dataset": 23237,
    "asons": 6014,
    "Ġbreat": 3459,
    "Ġconcealing": 23900,
    "Ġexcluded": 16383,
    "swallow": 24257,
    "Ġconvert": 11841,
    "emptied": 23635,
    "Ġbravely": 23835,
    "Ġegot": 18007,
    "earthly": 24724,
    "Ġdevelopments": 23250,
    "gage": 13723,
    "Ġoftentimes": 20154,
    "Ġseaward": 22944,
    "Ġflit": 23003,
    "Ġcommunicative": 24548,
    "Ġextinguished": 10338,
    "acc": 2535,
    "open": 7025,
    "Ġperception": 9749,
    "Ġdoubted": 7964,
    "Ġresumed": 11810,
    "application": 12361,
    "world": 5058,
    "entering": 17976,
    "roar": 17952,
    "gigantic": 15358,
    "Ġweighed": 8710,
    "Ġsingular": 4423,
    "Ġauthorized": 16735,
    "determined": 9079,
    "Ġfront": 3450,
    "phur": 16163,
    "result": 12042,
    "Ġcreeping": 18685,
    "Ġcalculating": 9924,
    "tis": 4103,
    "sooner": 14774,
    "Ġcelebrate": 26357,
    "ishe": 13890,
    "impression": 15708,
    "mathemat": 19137,
    "hoisted": 19281,
    "Ġottoman": 17377,
    "irc": 1731,
    "ological": 1884,
    "vi": 2374,
    "Ġcentrally": 23828,
    "ter": 359,
    "itioned": 22466,
    "Ġforever": 14553,
    "Ġsnorting": 23739,
    "Ġaccounts": 7207,
    "Ġcompany": 3719,
    "Ġupdating": 2693,
    "Ġcolour": 4461,
    "Ġsquid": 11876,
    "Ġscare": 18396,
    "voyages": 24855,
    "bearer": 18521,
    "Ġnonsense": 6982,
    "ester": 11602,
    "Ġneskye": 21528,
    "Ġfaithful": 9502,
    "Ġcatches": 23425,
    "Ġfug": 12592,
    "Ġfret": 10806,
    "Ġmedium": 16681,
    "cen": 17502,
    "aved": 5475,
    "Ġcook": 3710,
    "Ġbowlines": 19321,
    "fedallah": 25522,
    "iluvian": 18060,
    "Ġsinging": 7723,
    "Ġincorrupt": 19233,
    "Ġearthquake": 14627,
    "names": 16510,
    "commun": 15033,
    "Ġattic": 16092,
    "ifted": 4494,
    "gradient": 2273,
    "Ġdownst": 3555,
    "estinated": 15919,
    "akened": 7415,
    "Ġunlocked": 14119,
    "Ġgates": 10200,
    "phenomenon": 17648,
    "Ġsturgeon": 20590,
    "circumstance": 7763,
    "unching": 18158,
    "anged": 3585,
    "Ġex": 360,
    "iting": 2155,
    "Ġconductor": 24004,
    "unhappy": 10237,
    "Ġunwe": 15836,
    "imodal": 17446,
    "dilig": 17282,
    "Ġunctuousness": 17234,
    "Ġintruding": 21988,
    "Ġmouth": 3179,
    "Ġprimary": 25060,
    "Ġalterations": 19870,
    "Ġfads": 21414,
    "Ġdecision": 2678,
    "impulse": 20644,
    "Ġmatrix": 1608,
    "Ġthr": 5709,
    "Ġdarcy": 1346,
    "quietude": 24655,
    "article": 22398,
    "terbury": 21821,
    "Ġinfrequent": 3822,
    "publ": 17638,
    "Ġrevolved": 9983,
    "Ġgrain": 15829,
    "geese": 22364,
    "Ġlistless": 16475,
    "spears": 23939,
    "ken": 2802,
    "Ġfasc": 12595,
    "Ġunseasonable": 26520,
    "softened": 20408,
    "Ġsmite": 22554,
    "Ġbigot": 24565,
    "Ġnor": 1553,
    "Ġlad": 2364,
    "Ġiv": 4043,
    "Ġsmack": 9299,
    "?âĢĿ": 700,
    "Ġburke": 19250,
    "Ġgallied": 19555,
    "Ġdiminishing": 4206,
    "bourine": 9395,
    "iosity": 2357,
    "twig": 23695,
    "organic": 25946,
    "Ġreward": 6144,
    "Ġviv": 6156,
    "operations": 19973,
    "Ġsilly": 7686,
    "hent": 12531,
    "Ġenc": 967,
    "Ġreminding": 19796,
    "Ġcloser": 8659,
    "benevol": 12224,
    "breeding": 16675,
    "Ġcentral": 7727,
    "handle": 11190,
    "Ġvesuvius": 26501,
    "Ġallusion": 7626,
    "amusement": 15281,
    "uniform": 18157,
    "Ġgeometric": 3216,
    "Ġfrantic": 7956,
    "Ġaudits": 24770,
    "Ġklux": 22192,
    "Ġmary": 3841,
    "bethinking": 25745,
    "Ġnin": 10187,
    "rene": 5379,
    "drawers": 19384,
    "Ġspecimen": 13020,
    "save": 13784,
    "choice": 21688,
    "Ġplough": 18608,
    "Ġthinkings": 22808,
    "expose": 23661,
    "Ġflattening": 26048,
    "Ġroofs": 16985,
    "ampton": 18145,
    "reme": 2426,
    "Ġawaiting": 11390,
    "Ġapplying": 13090,
    "iancy": 13006,
    "rusted": 16506,
    "Ġthirdly": 24141,
    "Ġsaleve": 17390,
    "Ġbremen": 23343,
    "Ġwithheld": 18110,
    "Ġloops": 8852,
    "Ġatmosphere": 10897,
    "short": 6566,
    "Ġwoven": 9925,
    "Ġeffective": 1248,
    "improve": 15709,
    "Ġtemptations": 24508,
    "lashed": 20953,
    "raised": 15676,
    "Ġspend": 5304,
    "Ġofficious": 19346,
    "Ġindefinite": 17176,
    "Ġeve": 13969,
    "Ġperplexity": 2757,
    "Ġslay": 16305,
    "âĢĻâĢĶ": 12733,
    "Ġdiscovering": 13356,
    "Ġgateway": 24802,
    "Ġcousins": 9914,
    "hetically": 21207,
    "un": 373,
    "Ġobsc": 7039,
    "Ġfloating": 6604,
    "larking": 17594,
    "Ġpath": 2114,
    "scr": 16240,
    "hever": 13830,
    "pressed": 6587,
    "Ġneedn": 19227,
    "verest": 13990,
    "Ġintense": 6157,
    "tee": 16172,
    "glings": 23848,
    "blast": 9587,
    "Ġstables": 23654,
    "Ġdarts": 16768,
    "Ġsimilitude": 19209,
    "aits": 20765,
    "Ġslight": 3119,
    "century": 20045,
    "Ġindestructible": 26572,
    "Ġbro": 1431,
    "Ġblushed": 12999,
    "some": 2234,
    "Ġwashing": 9704,
    "Ġpretend": 7721,
    "fulfilment": 26025,
    "Ġunsub": 22018,
    "Ġshyness": 20305,
    "Ġstraps": 19308,
    "vapor": 25755,
    "glass": 9908,
    "apology": 22331,
    "Ġlined": 15647,
    "Ġrefuge": 8540,
    "Ġinclement": 22550,
    "Ġcontrivances": 12355,
    "ħ": 232,
    "heredit": 21208,
    "ibles": 18785,
    "Ġdemean": 12720,
    "Ġrugged": 18717,
    "Ġorganisation": 23582,
    "Ġimmens": 9938,
    "beside": 19876,
    "idually": 21766,
    "Ġlowermost": 23240,
    "Ġpratt": 23219,
    "circum": 16737,
    "Ġsees": 8842,
    "Ġunspeakably": 25172,
    "Ġwhirled": 14959,
    "Ġfloat": 12030,
    "Ġfulf": 6772,
    "uary": 11537,
    "Ġfell": 1977,
    "Ġnlp": 3063,
    "Ġsideways": 6182,
    "Ġhypothesis": 14780,
    "Ġaglow": 22511,
    "sy": 2898,
    "Ġsociet": 9448,
    "Ġlearning": 385,
    "wandering": 20283,
    "Ġpredestinated": 18515,
    "happiest": 19331,
    "ross": 807,
    "scornful": 26575,
    "Ġoriginally": 7304,
    "paper": 9136,
    "Ġfrancis": 26063,
    "Ġtennessee": 26596,
    "Ġoften": 1955,
    "englishman": 23673,
    "arned": 21814,
    "problems": 11434,
    "Ġ_": 840,
    "Ġanalogical": 25640,
    "Ġbald": 16205,
    "Ġfabric": 25947,
    "Ġtransom": 22440,
    "gments": 12467,
    "Ġinexperience": 26099,
    "go": 2064,
    "Ġheiress": 20696,
    "Ġundu": 15835,
    "Ġdataset": 12817,
    "pro": 2050,
    "Ġcoachman": 15000,
    "ectual": 21912,
    "glo": 8737,
    "Ġowen": 15093,
    "dread": 8728,
    "Ġhorns": 11123,
    "Ġcomb": 1039,
    "iscreet": 20681,
    "Ġprodigy": 19791,
    "Ġtown": 2455,
    "Ġboomer": 20166,
    "Ġresiding": 16059,
    "ggy": 13112,
    "Ġsettle": 6293,
    "Ġpyramids": 15113,
    "poky": 17644,
    "pass": 4291,
    "Ġhover": 15617,
    "Ġpumps": 8426,
    "abashed": 21789,
    "Ġwherever": 8523,
    "Ġsitt": 21216,
    "Ġunless": 4089,
    "orphans": 26440,
    "Ġgloves": 8574,
    "Ġthrilling": 19747,
    "Ġpursued": 6328,
    "Ġhedge": 8363,
    "Ġfiery": 6871,
    "Ġunsophisticated": 25992,
    "cies": 1812,
    "Ġmethinks": 10393,
    "uten": 11621,
    "Ġazores": 20192,
    "Ġscandal": 9081,
    "ustom": 3788,
    "sus": 6228,
    "Ġstruck": 3389,
    "Ġjustine": 4970,
    "Ġmort": 3458,
    "Ġnum": 1351,
    "Ġlatent": 19654,
    "kings": 17583,
    "Ġscrupulous": 20067,
    "connected": 1309,
    "Ġsciences": 15942,
    "Ġbaboon": 19692,
    "coming": 3559,
    "Ġstiffly": 15005,
    "Ġunfathom": 14788,
    "glancing": 11214,
    "Ġsuperstition": 15054,
    "Ġtrout": 22351,
    "Ġshipping": 14103,
    "Ġtimely": 19593,
    "Ġlofty": 6217,
    "ece": 17531,
    "thoroughly": 26508,
    "Ġjoll": 11763,
    "Ġanywhere": 8516,
    "Ġbestir": 13108,
    "nep": 20985,
    "gloves": 25143,
    "Ġachieves": 4379,
    "itia": 11578,
    "Ġinherit": 25352,
    "Ġinoffensive": 21495,
    "Ġevangelists": 20338,
    "commanding": 24752,
    "Ġsympathising": 24297,
    "Ġmer": 2928,
    "Ġpatroness": 13508,
    "Ġ2026": 12333,
    "islanders": 25442,
    "Ġberkshire": 16884,
    "Ġmutable": 23952,
    "winding": 16720,
    "Ġtheore": 1828,
    "breast": 11245,
    "acet": 5476,
    "ified": 3224,
    "riminately": 16483,
    "crat": 24095,
    "Ġstreaked": 19113,
    "Ġp": 288,
    "credit": 12446,
    "ign": 1702,
    "Ġgas": 8132,
    "Ġfootfalls": 25866,
    "Ġblows": 5972,
    "ĠĠĠĠĠĠĠĠĠĠĠĠĠĠĠĠĠĠĠĠĠĠĠĠĠĠĠĠĠĠĠĠĠĠĠĠĠĠĠĠĠĠĠĠĠĠĠĠĠĠĠĠĠĠĠĠĠĠĠĠ": 19259,
    "Ġsneering": 24697,
    "Ġmarvelled": 18873,
    "apple": 22843,
    "Ġstubbornness": 25380,
    "Ġorganize": 8991,
    "neglected": 25669,
    "Ġblindly": 12107,
    "tears": 11037,
    "Ġyounge": 16286,
    "Ġselected": 9710,
    "Ġskilful": 25837,
    "developed": 15263,
    "Ġdelightfully": 13157,
    "y": 93,
    "Ġtattooed": 11378,
    "Ġconstit": 8583,
    "Ġfare": 5809,
    "Ġunfaltering": 24110,
    "Ġspence": 22129,
    "meadow": 18679,
    "ering": 1267,
    "Ġremains": 4910,
    "Ġim": 477,
    "charming": 15703,
    "Ġemblazonings": 26042,
    "Ġdelivery": 18975,
    "Ġgeneralize": 3101,
    "Ġidentifies": 12013,
    "Ġaristotle": 25817,
    "ondescript": 22913,
    "liament": 16216,
    "Ġcar": 1419,
    "Ġtram": 11092,
    "Ġminor": 12965,
    "Ġpipe": 4322,
    "Ġruins": 16155,
    "shattered": 22456,
    "Ġtormented": 8674,
    "Ġdark": 2112,
    "Ġgarments": 15192,
    "ensation": 22542,
    "Ġhussey": 7724,
    "Ġimmutable": 17357,
    "Ġinflu": 4909,
    "Ġassent": 12730,
    "Ġsuccessfully": 19427,
    "Ġ70": 11276,
    "resembled": 21245,
    "Ġgrapnels": 25551,
    "unting": 21871,
    "Ġone": 569,
    "oard": 4808,
    "odecimo": 11444,
    "bitter": 11240,
    "yramid": 8367,
    "Ġannihil": 10174,
    "parlour": 16390,
    "iers": 5990,
    "Ġjeopard": 9942,
    "xim": 1091,
    "Ġfluke": 14673,
    "Ġflog": 23621,
    "Ġcooper": 16075,
    "broke": 14775,
    "Ġfins": 9663,
    "oters": 21796,
    "seemed": 4304,
    "Ġcontin": 5382,
    "arance": 4696,
    "Ġconfidently": 24955,
    "Ġcrack": 7709,
    "Ġarrayed": 25664,
    "Ġgnawed": 25164,
    "Ġbarn": 11586,
    "Ġpeninsula": 23194,
    "fishing": 20858,
    "Ġdistressing": 12216,
    "Ġexplain": 545,
    "Ġinjure": 16781,
    "rocket": 13943,
    "Ġobliterated": 17404,
    "Ġstoried": 18072,
    "fre": 5425,
    "izing": 1068,
    "milk": 20475,
    "Ġpleasanter": 19067,
    "Ġprized": 23220,
    "Ġplan": 3880,
    "genteel": 19947,
    "_:": 17478,
    "phia": 22797,
    "Ġdespaired": 14668,
    "abhorred": 17335,
    "orns": 12589,
    "iary": 15369,
    "Ġintrodu": 1926,
    "Ġdive": 10173,
    "opatra": 22474,
    "Ġaboard": 6697,
    "Ġfals": 15578,
    "octavo": 11385,
    "relative": 24009,
    "ounded": 9747,
    "whel": 7665,
    "Ġflat": 8227,
    "Ġnerves": 2628,
    "unctuous": 21879,
    "Ġfading": 15581,
    "elly": 17979,
    "fr": 4803,
    "Ġintact": 21986,
    "zor": 15457,
    "Ġbodiless": 24226,
    "Ġgets": 10839,
    "Ġpraised": 19552,
    "pede": 19843,
    "nailed": 20995,
    "Ġburst": 4380,
    "Ġninetieth": 25357,
    "Ġmelt": 21317,
    "Ġspec": 1264,
    "Ġted": 13811,
    "cats": 17512,
    "won": 7144,
    "ckles": 22086,
    "hus": 5072,
    "Ġgiver": 21602,
    "intimate": 22934,
    "Ġdug": 21433,
    "direful": 25896,
    ".": 18,
    "transformers": 8714,
    "significant": 25082,
    "atically": 2734,
    "reproof": 25432,
    "Ġpopulous": 16826,
    "Ġmetaphysical": 26069,
    "forster": 16158,
    "Ġexistence": 4705,
    "Ġdemanded": 8326,
    "Ġbroom": 18906,
    "Ġhowl": 12851,
    "rets": 12538,
    "Ġshadow": 5596,
    "Ġcakes": 13883,
    "Ġhenry": 5197,
    "Ġlived": 3989,
    "Ġlionel": 25286,
    "henry": 16625,
    "Ġabused": 22266,
    "smug": 23905,
    "shutters": 20312,
    "Ġtinge": 25087,
    "Ġcomplexion": 8209,
    "Ġsides": 4578,
    "Ġcircus": 19091,
    ":": 30,
    "Ġastern": 6090,
    "========": 2311,
    "Ġunreasonable": 12774,
    "jug": 17580,
    "Ġvalidation": 2356,
    "sc": 1260,
    "Ġsuckling": 25997,
    "Ġventilator": 8713,
    "detective": 24383,
    "Ġfun": 524,
    "Ġdissuade": 26256,
    "Ġgorgeous": 20465,
    "mbling": 3346,
    "Ġunion": 6839,
    "Ġvillagers": 19472,
    "Ġdefinite": 11069,
    "return": 5489,
    "Ġkuiperai": 10935,
    "Ġrecess": 10847,
    "Ġcrackling": 24958,
    "Ġvision": 1557,
    "sword": 10726,
    "el": 306,
    "quiet": 6154,
    "Ġtubs": 11370,
    "icorn": 15654,
    "Ġhow": 598,
    "Ġtink": 9148,
    "currents": 23841,
    "Ġfitted": 6243,
    "contact": 23726,
    "Ġyards": 5371,
    "Ġanalogy": 25639,
    "escape": 16005,
    "Ġstates": 1851,
    "Ġtarts": 10753,
    "Ġsisters": 3638,
    "french": 9119,
    "Ġhills": 6527,
    "Ġgaol": 19566,
    "Ġunheeded": 18261,
    "Ġdiffused": 12066,
    "Ġsolicitude": 10039,
    "augmented": 26286,
    "corner": 13396,
    "Ġmistaking": 23717,
    "Ġanalyze": 1622,
    "Ġabode": 7899,
    "utional": 17983,
    "Ġanticipating": 17059,
    "Ġsoaring": 22083,
    "Ġfail": 4146,
    "seized": 14034,
    "alogies": 25158,
    "thoughtfully": 24041,
    "Ġvoids": 25807,
    "shud": 18490,
    "Ġsolomon": 11052,
    "Ġlanc": 19763,
    "Ġcastors": 23973,
    "monograph": 23525,
    "every": 2811,
    "anything": 5518,
    "Ġpallet": 21478,
    "Ġwardrobe": 17225,
    "Ġexercising": 19906,
    "inridge": 11560,
    "Ġseemingly": 9317,
    "darker": 24516,
    "summon": 23414,
    "Ġobstetrics": 24678,
    "ints": 3417,
    "gee": 15975,
    "aments": 12722,
    "imprisonment": 23760,
    "Ġdiabolically": 25513,
    "Ġcomforts": 14693,
    "Ġinducement": 16843,
    "pendicular": 6499,
    "garet": 9597,
    "ĠcÃ¦sar": 20578,
    "Ġwhistling": 19789,
    "Ġphantom": 8706,
    "lessness": 5317,
    "Ġscientific": 6857,
    "urned": 9305,
    "Ġvoid": 14085,
    "attempts": 17190,
    "Ġslumber": 13057,
    "Ġmake": 1285,
    "bat": 8071,
    "Ġblooming": 17212,
    "Ġbedrooms": 19968,
    "solved": 7685,
    "azing": 7704,
    "welcome": 10000,
    "pra": 15406,
    "Ġcrews": 8990,
    "Ġrepetition": 8972,
    "sheep": 23083,
    "ä": 165,
    "Ġcorresponds": 19820,
    "Ġinexpressible": 17332,
    "Ġmerciless": 25246,
    "Ġdisturbing": 19944,
    "isation": 13892,
    "Ġseverely": 14932,
    "chari": 21686,
    "Ġoverladen": 22359,
    "Ġsurmis": 23462,
    "Ġregularizer": 2339,
    "Ġsill": 10765,
    "Ġ34": 16677,
    "Ġcomforters": 25800,
    "Ġbedfellows": 23437,
    "uling": 2256,
    "Ġdifficulties": 11225,
    "bweb": 20790,
    "Ġsuff": 1304,
    "Ġplague": 11822,
    "Ġbut": 424,
    "Ġunctuous": 10266,
    "Ġnooks": 26011,
    "Ġthomson": 26454,
    "Ġcomical": 11676,
    "Ġrelations": 5852,
    "Ġhalting": 16272,
    "Ġtold": 2183,
    "Ġdeprived": 8210,
    "Ġsure": 1863,
    "Ġslighter": 18939,
    "Ġcommands": 16589,
    "Ġunexpectedly": 19908,
    "flakes": 23965,
    "Ġresolved": 3796,
    "weather": 7229,
    "enjoy": 10774,
    "Ġflatt": 16244,
    "ivil": 6411,
    "Ġexclamation": 8698,
    "Ġperv": 15988,
    "dog": 10692,
    "erably": 7574,
    "bag": 7543,
    "Ġharpo": 1943,
    "Ġmix": 7577,
    "Ġaccording": 5508,
    "Ġciv": 3309,
    "Ġdemoniac": 15063,
    "considerable": 10548,
    "following": 10572,
    "terror": 18128,
    "Ġqual": 6274,
    "older": 15753,
    "rib": 1946,
    "Ġnotorious": 18223,
    "ce": 313,
    "alice": 3207,
    "mir": 20962,
    "Ġislanders": 19500,
    "Ġkindled": 19027,
    "Ġhuggins": 24828,
    "Ġsocially": 22084,
    "Ġadmitted": 8986,
    "Ġdisc": 941,
    "happened": 9432,
    "Ġsuspic": 4470,
    "union": 15767,
    "Ġweep": 7620,
    "Ġpronouncing": 16969,
    "Ġinfatuation": 25857,
    "Ġblundering": 26283,
    "uring": 820,
    "Ġadapts": 3815,
    "Ġshrimp": 24155,
    "whaleman": 23434,
    "Ġthereby": 7644,
    "Ġlater": 6016,
    "trade": 19635,
    "cursed": 23840,
    "Ġpovels": 22589,
    "gunw": 17220,
    "Ġtreacherously": 25129,
    "ums": 10272,
    "Ġfortunately": 12177,
    "Ġgrowled": 19282,
    "Ġfix": 2508,
    "Ġglide": 22983,
    "whether": 5319,
    "proposal": 18754,
    "Ġimputed": 12805,
    "miseries": 16757,
    "conditional": 9078,
    "Ġstalked": 20427,
    "Ġimprecate": 20516,
    "Ġdisturbed": 8671,
    "Ġnovels": 15927,
    "Ġpeasant": 13550,
    "Ġcoverage": 4288,
    "Ġpalp": 11250,
    "Ġinhospit": 25452,
    "Ġender": 11688,
    "sequent": 6831,
    "voyage": 7785,
    "Ġcripp": 9653,
    "Ġdeadly": 5405,
    "classification": 4387,
    "Ġbloodshot": 23797,
    "Ġbachel": 7158,
    "encouragement": 17422,
    "Ġfolding": 19726,
    "Ġ4": 3984,
    "Ġflirting": 16247,
    "ishing": 1144,
    "thyself": 19296,
    "onent": 21247,
    "Ġtooth": 9192,
    "prob": 7069,
    "Ġinputs": 843,
    "Ġsupplies": 20325,
    "Ġeconomical": 25287,
    "Ġlust": 9197,
    "desc": 1396,
    "Ġlaure": 16909,
    "theless": 4261,
    "Ġscraps": 16902,
    "bohem": 19002,
    "Ġsystem": 580,
    "Ġtacit": 21173,
    "Ġcongregational": 25102,
    "adv": 4536,
    "Ġpulled": 5660,
    "exact": 7909,
    "helped": 18923,
    "lording": 24047,
    "Ġste": 1392,
    "Ġcomfor": 14051,
    "Ġdiscover": 4717,
    "shortly": 12256,
    "ropri": 2178,
    "Ġconstant": 6309,
    "Ġduplicate": 17215,
    "Ġsult": 10767,
    "Ġscaramouch": 23824,
    "march": 13754,
    "approve": 19935,
    "Ġadhering": 14139,
    "Ġfugitive": 17326,
    "Ġvanish": 8927,
    "orses": 6051,
    "petulance": 24299,
    "chased": 18041,
    "Ġdau": 21428,
    "Ġdinners": 23979,
    "Ġblades": 11893,
    "Ġquivering": 12855,
    "Ġgratify": 19501,
    "Ġsweet": 3464,
    "Ġlow": 1646,
    "Ġneighbouring": 12116,
    "Ġfiltering": 23923,
    "Ġfists": 15580,
    "Ġcruisings": 25864,
    "neville": 22448,
    "Ġindisp": 18833,
    "Ġasc": 4764,
    "Ġseparate": 5778,
    "Ġsentry": 19024,
    "Ġfid": 10803,
    "Ġhilarious": 20297,
    "appeared": 4282,
    "Ġaper": 17743,
    "Ġhappening": 14382,
    "nlp": 8750,
    "scence": 14417,
    "Ġinscrutable": 10672,
    "Ġfrankly": 16745,
    "Ġdireful": 11017,
    "Ġgreenhorn": 23766,
    "Ġem": 1925,
    "Ġhappened": 3711,
    "amore": 21846,
    "====": 1483,
    "Ġproduces": 2093,
    "july": 20473,
    "greek": 25404,
    "unsuitable": 21890,
    "Ġinfant": 11959,
    "alarmed": 21500,
    "Ġ200": 19294,
    "Ġunpleasant": 7191,
    "Ġzoned": 22818,
    "z": 94,
    "Ġraptures": 13496,
    "sized": 15427,
    "uming": 8491,
    "ructive": 18528,
    "Ġowed": 10780,
    "Ġjelly": 22297,
    "burning": 25078,
    "Ġbanish": 15567,
    "Ġalgorith": 557,
    "bod": 12435,
    "Ġaustrian": 24300,
    "speechless": 25395,
    "Ġlearned": 2025,
    "```": 25893,
    "eluded": 21572,
    "Ġcrisis": 13125,
    "attentive": 17189,
    "beg": 22484,
    "Ġshakespeare": 20306,
    "Ġsperm": 1841,
    "matical": 13127,
    "outre": 18320,
    "ibank": 6880,
    "Ġguided": 10460,
    "Ġwaif": 9374,
    "tarpaulins": 26405,
    "Ġunsc": 22009,
    "Ġseals": 11695,
    "Ġcorrob": 16262,
    "Ġhandspike": 22693,
    "Ġdl": 3376,
    "Ġfooted": 23794,
    "Ġaccidental": 16848,
    "suffered": 24334,
    "Ġmusical": 23891,
    "Ġhanover": 20584,
    "Ġspoilt": 24807,
    "hampshire": 23262,
    "icient": 784,
    "physiogn": 26270,
    "Ġmumbling": 11573,
    "Ġaforethought": 25428,
    "apes": 9740,
    "Ġcoun": 4176,
    "Ġbleeds": 24397,
    "tossing": 18580,
    "why": 2829,
    "Ġmaxim": 3086,
    "ibule": 13004,
    "Ġcalms": 23038,
    "Ġsulphur": 24933,
    "Ġequilib": 4133,
    "Ġcourting": 23289,
    "igh": 2030,
    "sho": 6425,
    "Ġnewfound": 22929,
    "Ġmercy": 8998,
    "Ġsympathetic": 17358,
    "Ġrenewal": 12232,
    "chosen": 21692,
    "Ġreassure": 21669,
    "henomen": 10494,
    "sac": 7140,
    "Ġerred": 21155,
    "Ġpre": 506,
    "crack": 19839,
    "creation": 14805,
    "Ġfeed": 2127,
    "Ġpasses": 2682,
    "Ġamiable": 4270,
    "algorith": 3623,
    "impropriety": 21710,
    "Ġundisturbed": 19518,
    "Ġconcealed": 7496,
    "opp": 6963,
    "Ġcourtiers": 24134,
    "Ġbasis": 16961,
    "Ġfor": 340,
    "ousness": 10274,
    "Ġhitting": 21484,
    "ste": 3582,
    "entials": 22661,
    "pillar": 5619,
    "Ġcapstan": 9098,
    "Ġwick": 2005,
    "sufficiently": 14980,
    "pulous": 15415,
    "Ġthroat": 7770,
    "Ġrumours": 24598,
    "Ġwhereof": 16100,
    "Ġabraham": 18395,
    "Ġreproof": 24890,
    "ert": 2633,
    "Ġepid": 18004,
    "Ġhanged": 17924,
    "Ġcommonly": 3263,
    "hig": 12472,
    "oundered": 14164,
    "Ġvenerable": 9093,
    "Ġtestament": 23212,
    "heading": 5487,
    "Ġconstantinople": 19836,
    "Ġnotwithstanding": 9713,
    "placidity": 25988,
    "heedful": 20572,
    "Ġstages": 14003,
    "travel": 24316,
    "Ġphilosophers": 10551,
    "caves": 20815,
    "Ġoffspring": 16144,
    "Ġdescribes": 3121,
    "Ġhired": 10177,
    "Ġbiting": 17861,
    "Ġcrime": 4615,
    "Ġadroop": 26001,
    "Ġrain": 5005,
    "loose": 11803,
    "urer": 18122,
    "smith": 5669,
    "Ġflora": 11416,
    "hs": 8377,
    "Ġconflagration": 26364,
    "Ġtopmost": 14587,
    "ginger": 13162,
    "pagan": 17285,
    "Ġinvaluable": 10182,
    "itations": 17817,
    "royal": 11393,
    "rmsprop": 4521,
    "ample": 1365,
    "Ġassembled": 9235,
    "Ġfleshy": 24614,
    "Ġmishap": 20575,
    "become": 14246,
    "Ġaddison": 14232,
    "Ġaffinity": 18786,
    "Ġplow": 21456,
    "Ġfundament": 2925,
    "Ġminiatures": 20320,
    "tar": 8097,
    "Ġglittering": 10052,
    "Ġpython": 1070,
    "Ġcloth": 9741,
    "keeping": 8634,
    "Ġinterests": 14568,
    "Ġextreme": 2515,
    "Ġvainly": 9923,
    "Ġaddresses": 3768,
    "Ġincludes": 2011,
    "mind": 4625,
    "Ġsavage": 4008,
    "Ġkelson": 18350,
    "Ġcommodore": 12393,
    "protected": 19920,
    "Ġsple": 21214,
    "Ġshocks": 16457,
    "Ġbamboo": 17436,
    "Ġspy": 22126,
    "Ġimpertinence": 11366,
    "Ġheavenly": 12082,
    "iew": 2447,
    "Ġowl": 20082,
    "veil": 18042,
    "north": 14615,
    "Ġnoisy": 13317,
    "Ġsammy": 24932,
    "ense": 2052,
    "gloom": 17139,
    "bidden": 19736,
    "Ġavenue": 13620,
    "heavy": 10574,
    "Ġswift": 3668,
    "Ġconcer": 23318,
    "Ġcurled": 8226,
    "Ġsolar": 22880,
    "Ġcontribut": 12856,
    "Ġdetails": 6565,
    "Ġadhes": 22100,
    "met": 6652,
    "Ġ134": 24784,
    "fixed": 7549,
    "ize": 769,
    "Ġdisapprobation": 16056,
    "Ġdeposit": 17268,
    "cheeked": 19339,
    "ifts": 12732,
    "Ġsultanism": 25888,
    "Ġtheme": 16016,
    "fight": 17538,
    "Ġsynd": 22206,
    "Ġportion": 7493,
    "osed": 1960,
    "Ġhandfuls": 17209,
    "hills": 13735,
    "utored": 15660,
    "Ġflinging": 13584,
    "Ġhempen": 13549,
    "Ġlounged": 19952,
    "vis": 4576,
    "assumed": 22304,
    "Ġfailed": 6671,
    "Ġvel": 7186,
    "Ġwarning": 9058,
    "itu": 1228,
    "develop": 13517,
    "Ġassoc": 6402,
    "Ġdrunk": 9423,
    "gish": 20872,
    "ging": 2600,
    "Ġsummary": 19401,
    "Ġstars": 6149,
    "although": 8805,
    "Ġsod": 11561,
    "Ġomin": 11576,
    "Ġginger": 9210,
    "Ġmechanisms": 1578,
    "oars": 9614,
    "Ġrevealed": 6751,
    "Ġtears": 4230,
    "bacc": 7794,
    "Ġdrab": 13069,
    "eyeing": 14945,
    "urities": 18049,
    "offers": 16393,
    "ruding": 9723,
    "Ġbenef": 3486,
    "nights": 16448,
    "Ġprotection": 9461,
    "tt": 13789,
    "warnings": 20350,
    "skinned": 25387,
    "Ġmystic": 7504,
    "Ġepit": 18006,
    "Ġtreacher": 8604,
    "Ġthackeray": 26455,
    "Ġpure": 6137,
    "ifference": 5632,
    "pronouncing": 25193,
    "Ġengland": 3855,
    "Ġperverseness": 13653,
    "Ġpermanent": 13630,
    "Ġmotions": 8280,
    "Ġlike": 670,
    "Ġnobleman": 19390,
    "Ġcheer": 4065,
    "Ġessex": 20125,
    "ernsey": 8903,
    "Ġspilling": 22140,
    "Ġdiffered": 22706,
    "ember": 1956,
    "placed": 7877,
    "tering": 3805,
    "Ġpolished": 11182,
    "ilated": 18057,
    "Ġstealing": 18894,
    "Ġsupports": 3052,
    "Ġfears": 5729,
    "Ġwhereby": 11835,
    "organ": 15571,
    "asmuch": 10194,
    "Ġabrupt": 9735,
    "Ġrisk": 8038,
    "Ġsharper": 17179,
    "Ġplant": 8899,
    "Ġforeshadowing": 26592,
    "Ġpulse": 13113,
    "Ġincommun": 25308,
    "Ġawoke": 7286,
    "Ġsockets": 22085,
    "Ġpeleg": 3737,
    "Ġingenuity": 17163,
    "Ġsuit": 5725,
    "Ġribs": 7101,
    "Ġpythag": 26448,
    "Ġcondescend": 19953,
    "Ġhear": 1965,
    "Ġwhir": 6393,
    "Ġfrozen": 9012,
    "nowledge": 10289,
    "Ġthirteen": 15273,
    "Ġrecommended": 8667,
    "Ġsensitive": 13196,
    "Ġlaughed": 5059,
    "Ġsurm": 7477,
    "Ą": 197,
    "Ġlunatic": 24990,
    "Ġbreath": 4790,
    "Ġunder": 1633,
    "Ġfist": 21402,
    "perpetually": 20510,
    "sh": 647,
    "Ġcordage": 19677,
    "Ġoaths": 13523,
    "painted": 17639,
    "acies": 14276,
    "Ġestablishment": 13578,
    ".;": 20743,
    "grew": 17555,
    "effect": 8603,
    "Ġback": 808,
    "nants": 17613,
    "virtue": 20568,
    "ladies": 9528,
    "â": 163,
    "Ġenlist": 21933,
    "Ġproficiency": 19191,
    "splice": 17170,
    "Ġoscill": 2856,
    "Ġaffords": 16734,
    "idav": 18092,
    "orts": 2556,
    "led": 579,
    "speps": 14335,
    "Ġwrought": 11942,
    "lee": 11584,
    "cord": 8723,
    "vul": 15447,
    "Ġshoes": 7071,
    "bouton": 17501,
    "continual": 20643,
    "anybody": 12080,
    "solute": 16598,
    ".âĢĻ": 1718,
    "Ġfiercely": 12949,
    "Ġpurely": 12229,
    "erity": 21266,
    "Ġswan": 23048,
    "perform": 15897,
    "Ġbend": 9170,
    "Ġancest": 12611,
    "Ġwinged": 16995,
    "Ġdenominated": 15227,
    "keep": 3848,
    "right": 2770,
    "Ġdec": 641,
    "Ġconnexion": 11454,
    "Ġdeft": 21834,
    "Ġpattern": 1320,
    ";--": 8068,
    "Ġintimate": 6549,
    "Ġadmirers": 19685,
    "fights": 20864,
    "Ġharpooned": 13260,
    "itime": 15545,
    "Ġripples": 25505,
    "Ġphaeton": 17464,
    "Ġorgan": 2503,
    "Ġpresents": 8244,
    "Ġdismasted": 15250,
    "Ġconse": 21801,
    "stones": 11635,
    "Ġinestim": 15621,
    "judgment": 16753,
    "Ġjoppa": 12034,
    "damp": 15342,
    "Ġquery": 2479,
    "Ġdistinct": 4608,
    "Ġlines": 4533,
    "Ġstoop": 16309,
    "varieties": 23181,
    "secre": 18127,
    "Ġlandau": 16418,
    "Ġtipped": 17728,
    "Ġobtruded": 20721,
    "points": 14392,
    "alog": 8804,
    "Ġchemist": 11134,
    "Ġpiteous": 17915,
    "ga": 17550,
    "Ġactions": 6278,
    "sip": 10725,
    "Ġinformed": 6717,
    "bantering": 25253,
    "Ġvii": 13107,
    "from": 1991,
    "Ġflow": 1239,
    "Ġskiff": 16161,
    "Ġobtain": 8914,
    "Ġnon": 1624,
    "reeling": 21243,
    "Ġop": 2602,
    "Ġchapel": 9522,
    "Ġindestruct": 22955,
    "Ġcared": 8782,
    "Ġremoter": 20104,
    "Ġrad": 4962,
    "wind": 4253,
    "Ġpetrified": 19595,
    "swinging": 25912,
    "Ġoffer": 4842,
    "Ġpunctilious": 26352,
    "Ġnumber": 1981,
    "garity": 17554,
    "Ġ1671": 25005,
    "Ġpolice": 4673,
    "Ġguest": 7249,
    "vitality": 20477,
    "Ġabsurd": 7202,
    "Ġune": 4597,
    "Ġattentively": 9949,
    "person": 7745,
    "Ġtravels": 11925,
    "Ġexclude": 19037,
    "iam": 2509,
    "Ġknotted": 17019,
    "Ġdarker": 13118,
    "Ġwednesday": 9024,
    "Ġunseen": 3520,
    "constit": 24604,
    "»": 124,
    "Ġprotectors": 9070,
    "Ġenjoys": 19448,
    "Ġowned": 11874,
    "Ġstubborn": 10414,
    "ishes": 6523,
    "Ġenergetic": 15196,
    "legra": 10789,
    "pitchpoling": 25725,
    "âĢĶ.": 11753,
    "Ġgazed": 6478,
    "renched": 7906,
    "Ġbrack": 23832,
    "Ġpoet": 8207,
    "Ġmarvellous": 7539,
    "Ġdetest": 8501,
    "pr": 3174,
    "Ġrake": 18645,
    "Ġrecording": 24434,
    "dÃ¦mon": 17527,
    "Ġpreacher": 18369,
    "Ġinc": 702,
    "Ġsocks": 14133,
    "_)âĢĶ": 20143,
    "ser": 1426,
    "fitters": 24761,
    "Ġfortifications": 23619,
    "Ġlamp": 4112,
    "hopper": 23713,
    "Ġalready": 2714,
    "ĠâĢĻ": 3045,
    "Ġimperilled": 19577,
    "astes": 11737,
    "Ġabroad": 8865,
    "ase": 1161,
    "transferred": 24514,
    "Ġshut": 3940,
    "Ġhollowly": 24526,
    "Ġabsor": 8504,
    "lascar": 20959,
    "terrific": 25040,
    "Ġjoints": 12033,
    "danced": 20827,
    "mush": 20976,
    "avish": 22591,
    "Ġscraped": 16903,
    "tempest": 16959,
    "Ġdelighted": 5499,
    "Ġbewildered": 15212,
    "Ġmerc": 9425,
    "daylight": 19054,
    "lue": 8508,
    "agos": 21901,
    "fered": 5560,
    "Ġcoincid": 20316,
    "Ġcondemn": 13443,
    "Ġme": 350,
    "Ġmut": 3580,
    "ispiece": 19724,
    "Ġrespective": 16342,
    "Ġclimb": 15078,
    "Ġpan": 5082,
    "isles": 15561,
    "increased": 20269,
    "Ġaugust": 10597,
    "Ġmiller": 19882,
    "Ġresort": 18563,
    "Ġgam": 11623,
    "Ġvoy": 2621,
    "Ġdiscoverers": 26036,
    "inously": 21185,
    "Ġstately": 9833,
    "Ġfirm": 3869,
    "humored": 19451,
    "elder": 21569,
    "oysius": 14364,
    "miraculous": 26396,
    "ect": 381,
    "Ġexaggerated": 25650,
    "Ġmoderate": 10938,
    "Ġportra": 9008,
    "Ġarist": 14161,
    "Ġrem": 954,
    "ed": 293,
    "serv": 7451,
    "Ġinsects": 25646,
    "situ": 9621,
    "Ġloo": 22107,
    "pity": 17627,
    "Ġvagueness": 25737,
    "kindred": 24046,
    "Ġponies": 21473,
    "decease": 25556,
    "anter": 9166,
    "geor": 15976,
    "flung": 16638,
    "squall": 13521,
    "Ġvideo": 25365,
    "Ġsaluted": 14757,
    "rously": 17654,
    "Ġtorture": 9064,
    "nav": 17612,
    "Ġhosea": 17330,
    "iet": 1774,
    "Ġexist": 9231,
    "Ġcampaign": 20660,
    "extrem": 18707,
    "Ġdismally": 20213,
    "Ġvacant": 9494,
    "nature": 5359,
    "Ġran": 3344,
    "congreg": 25398,
    "Ġroared": 7023,
    "Ġruskin": 25808,
    "wickham": 5883,
    "deliberated": 26118,
    "Ġwonderfully": 10430,
    "Ġdesiring": 14412,
    "Ġdeputation": 21837,
    "Ġtemporal": 2613,
    "Ġprayed": 16667,
    "fi": 12459,
    "thesize": 24906,
    "masculine": 24387,
    "words": 7982,
    "Ġoptimizer": 5036,
    "Ġspind": 18307,
    "Ġobservation": 6597,
    "Ġdevelopment": 7062,
    "Ġpush": 9183,
    "comrade": 20623,
    "Ġgallery": 10524,
    "Ġaudience": 24769,
    "Ġride": 12755,
    "compose": 24029,
    "Ġasp": 15778,
    "Ġhinges": 15211,
    "came": 4569,
    "Ġeth": 17716,
    "Ġunre": 3475,
    "backward": 2686,
    "christmas": 20254,
    "Ġparchment": 13651,
    "ruded": 15895,
    "Ġmarvell": 7248,
    "Ġyield": 5093,
    "Ġsumat": 14129,
    "ethics": 8878,
    "Ġsalutation": 12395,
    "Ġfrenz": 25446,
    "Ġenslaved": 26314,
    "Ġambitious": 18513,
    "û": 188,
    "Ġmornings": 16233,
    "Ġincoherent": 17399,
    "Ġsweetest": 13245,
    "Ġodious": 12148,
    "Ġgratifying": 13304,
    "Ġaccumulated": 11929,
    "Ġglades": 19370,
    "gir": 8082,
    "Ġcav": 13879,
    "Ġloosened": 26002,
    "Ġelder": 7224,
    "luckily": 19751,
    "Ġspire": 18306,
    "Ġcler": 11768,
    "Ġplaus": 22596,
    "duck": 22409,
    "Ġspermaceti": 8967,
    "shame": 16022,
    "Ġecon": 9677,
    "dislike": 23492,
    "Ġcharles": 11955,
    "urean": 18123,
    "Ġdate": 7841,
    "embers": 21926,
    "cabinet": 25077,
    "asable": 21538,
    "embedding": 20703,
    "ĠĠĠĠĠĠĠĠĠĠĠĠĠĠĠĠĠĠĠĠĠĠĠĠĠĠĠĠĠĠĠĠĠĠĠĠĠĠĠĠĠ": 19581,
    "Ġprayers": 12121,
    "bl": 4138,
    "Ġungrateful": 14120,
    "Ġoar": 6236,
    "Ġpantaloons": 20295,
    "whilst": 18371,
    "cock": 12024,
    "olstadt": 7788,
    "Ġthrills": 24542,
    "crossing": 19409,
    "itions": 4145,
    "utting": 17984,
    "Ġdecorated": 22437,
    "inces": 13827,
    "Ġplain": 2817,
    "Ġspatial": 2731,
    "allen": 22193,
    "Ġresistance": 13529,
    "Ġcass": 13878,
    "vices": 21115,
    "Ġpress": 5931,
    "barrel": 17061,
    "Ġcunning": 6238,
    "Ġbriony": 9328,
    "Ġsulkily": 25882,
    "Ġwarriors": 19722,
    "impregnable": 26481,
    "Ġcombine": 4415,
    "oriental": 23719,
    "estone": 18363,
    "bation": 9102,
    "Ġgoverning": 2796,
    "pardon": 10064,
    "Ġsuspicious": 9479,
    "Ġpuzz": 5533,
    "involved": 25626,
    "Ġoptimizers": 18626,
    "Ġbody": 2437,
    "Ġmeanness": 22593,
    "Ġcable": 11579,
    "Ġsurf": 19131,
    "Ġain": 6969,
    "Ġrestrict": 16375,
    "ulsive": 10233,
    "Ġeffectively": 2638,
    "Ġrobberies": 23027,
    "Ġtriumphal": 24371,
    "Ġsnoring": 23738,
    "Ġcurses": 13012,
    "itor": 12563,
    "Ġconnecting": 18633,
    "Ġcovari": 2338,
    "Ġflattering": 13026,
    "¡": 99,
    "walk": 5523,
    "Ġpresuming": 16793,
    "shortened": 24748,
    "Ġemerg": 13423,
    "whale": 2139,
    "yea": 23084,
    "Ġbountiful": 25944,
    "Ġslippery": 12164,
    "perv": 1527,
    "Ġmainland": 22652,
    "Ġbustle": 17227,
    "Ġjiff": 22293,
    "rapid": 12667,
    "Ġclut": 7642,
    "abern": 21787,
    "Ġimmemorial": 10510,
    "Ġcheating": 16368,
    "Ġpotency": 14646,
    "Ġpained": 19166,
    "Ġjewels": 12367,
    "Ġobstructed": 24677,
    "Ġproc": 5545,
    "Ġlinen": 12405,
    "Ġmodel": 508,
    "Ġterr": 3274,
    "itan": 10159,
    "southern": 20407,
    "Ġoptimize": 1607,
    "please": 8176,
    "Ġanteced": 26177,
    "Ġexposes": 22622,
    "conceivable": 17130,
    "falgar": 26130,
    "vital": 17700,
    "Ġoperated": 14547,
    "Ġoverspread": 14206,
    "Ġstained": 11651,
    "threaten": 25461,
    "Ġpupils": 20419,
    "Ġniece": 5712,
    "mess": 13752,
    "renadier": 18424,
    "Ġarticle": 9501,
    "dry": 13702,
    "Ġcrimin": 6901,
    "Ġimprinted": 22390,
    "Ġdreaming": 11223,
    "Ġflowers": 8940,
    "Ġdispleasure": 16050,
    "Ġabsorbed": 12329,
    "Ġjoyously": 19345,
    "Ġripp": 11219,
    "Ġplot": 14279,
    "quely": 10231,
    "Ġfeels": 6882,
    "crimes": 16697,
    "settle": 16661,
    "iates": 13736,
    "Ġbigger": 19760,
    "Ġperseus": 10603,
    "Ġfringe": 17271,
    "Ġclear": 1949,
    "member": 20974,
    "Ġwrenched": 12555,
    "Ġmarine": 23030,
    "awe": 20764,
    "extending": 22763,
    "Ġnailed": 10189,
    "Ġsenor": 20149,
    "thar": 18217,
    "whalers": 17263,
    "sky": 12508,
    "Ġrefuse": 5739,
    "Ġscreams": 24603,
    "outer": 9668,
    "grate": 23410,
    "Ġsystems": 827,
    "imately": 12685,
    "Ġbeau": 9224,
    "mong": 15388,
    "Ġobey": 9518,
    "Ġfift": 6382,
    "iffe": 21899,
    "pots": 11513,
    "Ġmanx": 7904,
    "ony": 3030,
    "Ġpolynes": 16077,
    "rather": 5430,
    "Ġknelt": 12156,
    "Ġdesol": 6881,
    "min": 4570,
    "impossible": 8823,
    "cart": 10688,
    "Ġcrib": 21346,
    "Ġchaldee": 26234,
    "Ġjoin": 4852,
    "Ġprovides": 1931,
    "Ġthreshold": 2809,
    "Ġdocile": 19957,
    "Ī": 235,
    "pered": 4195,
    "Ġbathed": 17865,
    "Ġen": 392,
    "Ġsupp": 1266,
    "Ġdiscovers": 4427,
    "Ġ20": 8613,
    "Ġanonymous": 26178,
    "Ġconting": 18472,
    "Ġhurrah": 9868,
    "Ġmysticetus": 24922,
    "thin": 14096,
    "Ġhair": 3315,
    "Ġcalifornia": 20528,
    "Ġhatter": 4110,
    "Ġgrooves": 16741,
    "Ġwest": 5219,
    "Ġgrego": 18963,
    "Ġregularization": 1170,
    "increas": 10454,
    "Ġaromatic": 25925,
    "Ġly": 2268,
    "Ġmemoirs": 26204,
    "Ġtattooings": 24900,
    "nihil": 9847,
    "Ġphrenologists": 25608,
    "Ġsanguine": 25928,
    "Ġsain": 17750,
    "people": 7677,
    "Ġclaim": 5106,
    "Ġdepending": 14298,
    "Ġaltar": 9228,
    "Ġdesc": 775,
    "asions": 12648,
    "fisher": 7548,
    "Ĵ": 245,
    "Ġpiling": 17908,
    "a": 69,
    "ricted": 15419,
    "Ġven": 4646,
    "Ġnewspaper": 12362,
    "Ġsentences": 2685,
    "ling": 735,
    "Ġspars": 3808,
    "binder": 17499,
    "Ġgnashed": 20131,
    "Ġlvi": 21550,
    "Ġreversed": 15694,
    "Ġabating": 22264,
    "Ġwinchester": 10065,
    "Ġtrappings": 23079,
    "Ġsuperiors": 23454,
    "Ġactual": 3736,
    "Ġtrousers": 12413,
    "Ġmen": 1435,
    "makes": 10711,
    "madly": 24420,
    "Ġunra": 18237,
    "Ġextinguish": 14327,
    "Ġwhaling": 2784,
    "Ġdiscriminator": 3391,
    "Ġsigh": 10336,
    "Ġopine": 19226,
    "Ġrefers": 1568,
    "Ġsaviour": 20712,
    "Ġmamm": 25090,
    "hands": 5966,
    "Ġfatigued": 13464,
    "Ġloveliest": 20260,
    "Ġbestowed": 6593,
    "Ġpostpone": 17306,
    "izz": 7614,
    "Ġflap": 14421,
    "biscuit": 17500,
    "miserable": 8656,
    "py": 17624,
    "Ġbrimming": 22862,
    "Ġplanets": 24053,
    "Ġfetch": 7769,
    "Ġancles": 21444,
    "Ġintelligently": 4319,
    "drown": 13703,
    "eries": 6808,
    "Ġrolled": 4429,
    "vius": 23541,
    "angular": 11721,
    "opening": 10312,
    "tick": 17678,
    "Ġsummits": 14683,
    "Ġconfessed": 8008,
    "Ġlanyard": 26461,
    "Ġfuneral": 10283,
    "Ġbade": 9171,
    "Ġslain": 8953,
    "Ġplanned": 14751,
    "Ġinmost": 17930,
    "Ġdelic": 4131,
    "Ġdefault": 3040,
    "Ġresource": 10993,
    "Ġdistinctly": 7311,
    "humour": 7499,
    "Ġscore": 9737,
    "Ġmcc": 21304,
    "monsters": 19170,
    "Ġbended": 21383,
    "mistress": 14904,
    "lop": 20947,
    "Ġrelish": 14383,
    "ortion": 11755,
    "Ġillustrations": 17108,
    "education": 20300,
    "myst": 9821,
    "Ġbunger": 9995,
    "Ġtickled": 20055,
    "Ġdress": 4017,
    "Ġpleasures": 11143,
    "Ġdenote": 19332,
    "Ġbrad": 8786,
    "immense": 18052,
    "Ġmultiplicity": 19274,
    "deal": 12792,
    "Ġrevelations": 25223,
    "Ġbelshazzar": 16224,
    "mistakable": 20652,
    "Ġbrush": 17864,
    "ribly": 8254,
    "typewritten": 26038,
    "Û": 156,
    "Ġtrains": 10947,
    "Ġboa": 22635,
    "ouch": 2780,
    "Ġ53": 19639,
    "Ġflush": 14423,
    "Ġfootpaths": 26318,
    "Ġglory": 6064,
    "lude": 6161,
    "Ġtone": 4038,
    "Ġungracious": 18258,
    "Ġearning": 23938,
    "liking": 22921,
    "Ġunprecedented": 15852,
    "Ġchannels": 26013,
    "urous": 10212,
    "Ġreads": 23109,
    "thrust": 10261,
    "bott": 9105,
    "ago": 14064,
    "sorrow": 12506,
    "chess": 16573,
    "ommod": 13976,
    "fishers": 24928,
    "Ġfaithfully": 14886,
    "ipotence": 22362,
    "Ġclock": 9532,
    "whales": 5187,
    "canoes": 16228,
    "resc": 21237,
    "Ġtem": 804,
    "Ġfrig": 13079,
    "metals": 24766,
    "Ġthou": 1808,
    "Ġsick": 4692,
    "Ġaccustomed": 6861,
    "Ġcreep": 22721,
    "Ġoaks": 16933,
    "Ġcountryside": 23595,
    "Ġess": 5691,
    "Ġsuffice": 18869,
    "aped": 3764,
    "Ġassistant": 7298,
    "ici": 8439,
    "Ġvigorously": 11299,
    "Ġforeman": 23446,
    "term": 3757,
    "Ġdoubting": 13097,
    "Ġsolitary": 5854,
    "stands": 22427,
    "allingly": 22196,
    "ot": 346,
    "Ġ132": 19895,
    "fortunately": 9449,
    "Ġpropont": 16347,
    "avier": 2831,
    "Ġregulations": 18591,
    "Ġspar": 10920,
    "dening": 22772,
    "Ġacqu": 1417,
    "ug": 1767,
    "appin": 18758,
    "shri": 14235,
    "ocr": 10468,
    "harrow": 20907,
    "angible": 22102,
    "Ġarrang": 2469,
    "begging": 22494,
    "ieces": 4771,
    "ą": 198,
    "greg": 6647,
    "Ġstalls": 25647,
    "Ġsoph": 1727,
    "Ġcapsizing": 20087,
    "Ġwriggling": 15256,
    "Ġbust": 10167,
    "Ġwin": 9641,
    "Ġtrappers": 23078,
    "Ġdiligent": 25075,
    "Ġwait": 4907,
    "shadow": 20313,
    "imental": 16532,
    "Ġjam": 10951,
    "Ġtwice": 4660,
    "Ġobstacles": 19834,
    "Ġleaders": 16627,
    "Ġmainmast": 9778,
    "possess": 5983,
    "Ġnearer": 5301,
    "icated": 7591,
    "Ġright": 1506,
    "iscuit": 10598,
    "pinn": 21025,
    "accept": 8897,
    "Ġlift": 8810,
    "Ġships": 3712,
    "Ġperil": 5557,
    "Ġahab": 1215,
    "Ġmccarthy": 5145,
    "terr": 8153,
    "Ġclung": 10956,
    "Ġchag": 15929,
    "enty": 2914,
    "Ġwarbling": 26168,
    "nes": 6961,
    "crop": 20797,
    "factories": 19842,
    "Ġ24": 13190,
    "lone": 11499,
    "Ġbroadened": 23982,
    "Ġpersisting": 18883,
    "Ġtelegraph": 25583,
    "Ġcapabilities": 4377,
    "isp": 5528,
    "Ġref": 916,
    "Ġincomplete": 17208,
    "Ġnathan": 21523,
    "heartedness": 24827,
    "Ġglobu": 23269,
    "Ġsurprising": 14597,
    "earliest": 20118,
    "Ġsteadily": 8051,
    "shake": 22452,
    "outside": 12801,
    "live": 7551,
    "blacksmith": 17001,
    "Ġsmells": 8889,
    "Ġdowncast": 18652,
    "iate": 6505,
    "Ġseparation": 11247,
    "nam": 2615,
    "Ġpriest": 7527,
    "ref": 6515,
    "chief": 4643,
    "ilst": 8143,
    "igen": 4829,
    "dramatic": 19383,
    "Ġbearing": 5298,
    "Ġrises": 9712,
    "itatingly": 25277,
    "Ġdint": 15590,
    "dition": 15339,
    "Ġfert": 15579,
    "machines": 8384,
    "Ġmagician": 25058,
    "Ġcarelessly": 11120,
    "Ġcharcoal": 19007,
    "Ġfaith": 5350,
    "ascar": 8434,
    "Ġdistinguishing": 16496,
    "keeper": 5597,
    "Ġliving": 3064,
    "unbidden": 21891,
    "Ġlect": 9222,
    "hibited": 17426,
    "Ġpred": 661,
    "Ġoak": 6128,
    "iard": 9601,
    "Ġstaggering": 20272,
    "ç": 168,
    "Ġprophes": 16346,
    "Ġknowing": 4456,
    "iating": 3205,
    "racing": 21628,
    "bet": 6109,
    "Ġdependent": 14299,
    "atoes": 17775,
    "Ġstair": 8455,
    "refuge": 24734,
    "father": 3775,
    "dying": 10694,
    "ì": 173,
    "tacit": 21097,
    "sin": 21047,
    "Ġseems": 2482,
    "Ġpenalties": 10412,
    "Ġproof": 6153,
    "enial": 17780,
    "allows": 15905,
    "Ġsilk": 11961,
    "Ġflesh": 5968,
    "ods": 8835,
    "Ġplaymate": 23637,
    "inction": 6660,
    "Ġbroods": 23099,
    "phren": 22796,
    "theirs": 23601,
    "Ġfed": 5530,
    "\",": 10678,
    "zag": 17713,
    "period": 15898,
    "Ġdefiance": 11068,
    "Ġrecurrent": 1803,
    "bots": 10082,
    "Ġdiamond": 15598,
    "Ġnupt": 13942,
    "Ġdatasets": 2389,
    "Ġmagnus": 18958,
    "Ġtrained": 8502,
    "Ġbounds": 9917,
    "Ġprophet": 7681,
    "Ġunfav": 14787,
    "Ġexcitement": 9380,
    "cruet": 17026,
    "Ġgossip": 18470,
    "Ġidly": 16403,
    "Ġmis": 917,
    "Ġshivered": 14107,
    "fourths": 25509,
    "Ġmansfield": 25938,
    "Ġrapidity": 11100,
    "Ġburning": 5976,
    "Ġtreacle": 14595,
    "Ġscraggy": 24579,
    "forty": 9373,
    "Ġcompens": 14263,
    "Ġnarr": 5085,
    "Ġpriests": 15040,
    "Ġapprove": 12871,
    "paws": 21028,
    "Ġsets": 8773,
    "Ġdone": 1815,
    "Ġnecessity": 7296,
    "Ġens": 2789,
    "Ġtube": 15003,
    "Ġassumpt": 5415,
    "Ġhosts": 19937,
    "magnet": 14969,
    "Ġmartin": 25436,
    "Ġrambled": 20167,
    "irresistible": 18173,
    "Ġseeks": 14302,
    "lorious": 17592,
    "ecess": 17532,
    "Ġwrest": 11570,
    "piled": 21014,
    "Ġskylight": 24070,
    "Ġinterchange": 16069,
    "linked": 17593,
    "Ġteneriffe": 26414,
    "Ġbumps": 21390,
    "shoe": 14966,
    "olstad": 7613,
    "Ġphiladelphia": 26604,
    "hosmer": 25902,
    "Ġridiculous": 10629,
    "Ġploughed": 22602,
    "Ġnantucketers": 9893,
    "Ġscramble": 24578,
    "stood": 4114,
    "Ġundec": 22014,
    "safety": 20348,
    "deck": 4500,
    "Ġqueer": 4478,
    "Ġowest": 25091,
    "Ġassociations": 14962,
    "Ġinsists": 23674,
    "igation": 5917,
    "Ġsleeves": 10660,
    "charm": 13989,
    "Ġsane": 21220,
    "favour": 9548,
    "lied": 6507,
    "Ġraging": 14305,
    "Ġshare": 1655,
    "considerably": 13444,
    "Ġexh": 5231,
    "Ġtiller": 8965,
    "ollion": 19714,
    "Ġadler": 8173,
    "Ġdefer": 18822,
    "Ġepis": 19980,
    "Ġmarried": 3408,
    "Ġcolumbus": 26564,
    "bble": 17484,
    "Ġslo": 15505,
    "Ġdeclined": 9920,
    "Ġfigure": 4204,
    "Ġitalian": 12408,
    "obviously": 25242,
    "Ġoffices": 14337,
    "apologizing": 26544,
    "Ġhertfordshire": 5377,
    "based": 2958,
    "Ġdestroyed": 5271,
    "Ġpronounce": 16968,
    "Ġgroves": 16740,
    "Ġrecollect": 8309,
    "tolerable": 17688,
    "Ġobliging": 13241,
    "Ġapprobation": 10985,
    "saw": 5893,
    "offic": 7466,
    "iro": 20913,
    "Ġshake": 6033,
    "Ġsculpt": 15944,
    "Ġthroats": 24575,
    "ials": 11702,
    "Ġcigaret": 16976,
    "composure": 24031,
    "Ġdrama": 16328,
    "Ġcrisp": 12001,
    "wicked": 24449,
    "Ġrudimental": 25108,
    "Ġaltitude": 26202,
    "Ġ(âĢľ": 15993,
    "ativeness": 15519,
    "Ġsoothingly": 25047,
    "Ġ66": 24369,
    "Ġstum": 21728,
    "Ġmors": 17801,
    "plate": 18199,
    "uccas": 21105,
    "alt": 12635,
    "brous": 19197,
    "neighbouring": 19962,
    "mock": 5174,
    "Ġweights": 897,
    "Ġdaw": 21432,
    "Ġ65": 24368,
    "Ġfigured": 16643,
    "thou": 4708,
    "Ġunhappily": 18262,
    "Ġvicinity": 7315,
    "dutch": 17218,
    "Ġcurious": 3361,
    "Ġamusements": 16913,
    "respective": 19845,
    "Ġdata": 519,
    "Ġpipes": 9851,
    "Ġtobacc": 7852,
    "Į": 239,
    "Ġamong": 1665,
    "unavoidable": 17389,
    "Ġinattention": 17931,
    "conviction": 19963,
    "Ġinnocent": 4921,
    "frau": 15088,
    "Ġadv": 1097,
    "Ġpathetic": 19013,
    "friendship": 24045,
    "etween": 776,
    "Ġfool": 4234,
    "Ġset": 1177,
    "pockets": 16209,
    "Ġsealed": 15816,
    "¢": 100,
    "Ġknitting": 24218,
    "Ġcanada": 22162,
    "vitiated": 25754,
    "Ġ104": 24412,
    "Ġapprehensions": 13403,
    "Ġkith": 22189,
    "Ġirksome": 13110,
    "magnificent": 20273,
    "actorily": 25576,
    "ondon": 2708,
    "Ġensures": 3057,
    "Ġencourage": 10380,
    "..": 5783,
    "trouble": 8294,
    "Ġkrusen": 20713,
    "char": 3500,
    "decor": 23778,
    "Ġfairness": 9892,
    "Ġour": 1007,
    "Ġwaters": 3593,
    "Ġimitated": 18331,
    "irwin": 8468,
    "Ġbirds": 5873,
    "Ġinfants": 16365,
    "aks": 8506,
    "Ġheap": 12675,
    "Ġhath": 12625,
    "anders": 18152,
    "Ġnar": 7375,
    "Ġ{": 21151,
    "Ġpatience": 2596,
    "Ġlaurel": 20653,
    "pursue": 24973,
    "urements": 18124,
    "duing": 22408,
    "composed": 14739,
    "Ġworaciousness": 22926,
    "fairly": 17219,
    "gam": 10095,
    "Ġsiamese": 20481,
    "Ġquitting": 7646,
    "terogene": 21822,
    "Ġdey": 11674,
    "Ġinsatiate": 19269,
    "ĠĠĠĠĠĠĠĠĠĠĠĠĠĠĠĠĠĠĠĠĠĠĠ": 18831,
    "Ġphilips": 5410,
    "oftentimes": 19419,
    "fred": 20854,
    "Ġnic": 7376,
    "fore": 687,
    "Ġconstitutional": 25125,
    "Ġalbertus": 25648,
    "baron": 24925,
    "iation": 7343,
    "k": 79,
    "nigh": 13762,
    "rally": 17651,
    "aging": 2237,
    "ptic": 21921,
    "exceeded": 24999,
    "interest": 5421,
    "Ġwillow": 18529,
    "prove": 11147,
    "Ġordering": 18998,
    "Ġriver": 5411,
    "Ġopenness": 18957,
    "fal": 17536,
    "somerset": 26322,
    "weigh": 18665,
    "Ġabout": 633,
    "Ġcongen": 10873,
    "Ġbrows": 13299,
    "Ġking": 2304,
    "Ġstraw": 9428,
    "philosophy": 13579,
    "Ġsubsisting": 23433,
    "rodu": 1816,
    "Ġmanufact": 22325,
    "sto": 3197,
    "olent": 8154,
    "Ġdocks": 14175,
    "etent": 10199,
    "eronomy": 15523,
    "Ġjealously": 24122,
    "Ġshears": 18319,
    "Ġafrican": 20136,
    "Ġthird": 4185,
    "Ġcaptive": 14426,
    "neighbour": 7211,
    "impotence": 23759,
    "Ġcounted": 12137,
    "Ġus": 494,
    "Ġexotic": 21828,
    "Ġblood": 3168,
    "Ġdrifted": 14624,
    "Ġacquire": 2725,
    "nal": 1901,
    "Ġpleasurable": 23338,
    "etuous": 21580,
    "caused": 25519,
    "Ġreplen": 11115,
    "Ġply": 21450,
    "Ġrounds": 18884,
    "solution": 14686,
    "sleeves": 26109,
    "Ġmislead": 22754,
    "find": 6954,
    "Ġpsychology": 11448,
    "bath": 13688,
    "plumed": 21952,
    "cream": 15330,
    "Ġensemble": 1610,
    "deser": 10402,
    "Ġmixed": 6974,
    "attempt": 9359,
    "Ġsettling": 11062,
    "stretch": 13980,
    "Ġsummarization": 3645,
    "Ġfreshet": 25704,
    "Ġbi": 919,
    "Ġlakes": 8130,
    "Ġcomplete": 4382,
    "Ġfearless": 9874,
    "residual": 19261,
    "Ġvulgar": 13603,
    "Ġunited": 6840,
    "user": 5105,
    "Ġ0": 1902,
    "Ġbuying": 23993,
    "Ġcard": 7363,
    "Ġportent": 12079,
    "belonged": 25597,
    "women": 15455,
    "aud": 8521,
    "distrustful": 26330,
    "Ġensue": 18190,
    "compasses": 19456,
    "Ġmbpp": 21320,
    "orrow": 2913,
    "Ġfashionable": 19543,
    "ez": 5683,
    "act": 787,
    "Ġfoul": 7159,
    "cannibals": 25584,
    "Ġlory": 12649,
    "accident": 11181,
    "Ġheh": 21677,
    "paying": 25411,
    "Ġpepper": 9780,
    "dense": 18712,
    "Ġsufferings": 7514,
    "Ġplane": 11821,
    "Ġagain": 814,
    "offer": 19062,
    "consolatory": 25306,
    "Ġhon": 2539,
    "Ġascent": 19617,
    "eland": 11619,
    "Ġmagazine": 23096,
    "Ġdocument": 15018,
    "spirit": 11313,
    "minds": 24232,
    "Ġthorough": 6245,
    "Ġmant": 9647,
    "inclination": 20056,
    "Ġorganically": 3011,
    "Ġaccents": 14208,
    "Ġadrift": 11720,
    "kov": 17586,
    "Ġslipped": 6492,
    "Ġpal": 4040,
    "Ġblessings": 24176,
    "Ġlog": 1675,
    "é": 170,
    "Ġfearful": 6197,
    "towing": 17689,
    "Ġsimilarity": 3167,
    ".,": 5987,
    "Ġpossessor": 23820,
    "overfitting": 13099,
    "transformer": 25015,
    "Ġreproach": 9556,
    "Ġord": 3734,
    "calcul": 12986,
    "Ġunshored": 25813,
    "impul": 16556,
    "onse": 21248,
    "Ġpig": 5705,
    "exclaimed": 11788,
    "Ġbedside": 19121,
    "showed": 16025,
    "Ġpens": 21457,
    "Ġcircular": 13109,
    "poles": 16208,
    "Ġhonourable": 10456,
    "Ġaccosted": 13671,
    "Ġaspire": 21897,
    "generous": 16568,
    "derstand": 638,
    "smoke": 17222,
    "notice": 16146,
    "Ġken": 22188,
    "Ġadding": 2404,
    "Ġgrip": 11626,
    "Ġsoften": 23120,
    "usually": 10285,
    "Ġjackson": 24240,
    "disciple": 16778,
    "ient": 395,
    "Ġphrenologically": 20392,
    "arranging": 19317,
    "Ġinsupportable": 13931,
    "entreat": 17975,
    "Ġincluding": 2847,
    "ĠĠĠĠĠĠĠĠĠĠĠĠĠĠĠĠĠĠĠĠĠĠĠĠĠĠĠĠĠĠĠĠĠĠĠĠĠĠĠĠ": 4516,
    "endous": 6850,
    "Ġtalker": 23369,
    "corrid": 24484,
    "Ġenvironment": 4247,
    "naught": 20993,
    "Ġhack": 12753,
    "Ġlubber": 17443,
    "gue": 12465,
    "marriage": 7744,
    "Ġneglig": 18877,
    "Ġrmsprop": 3355,
    "fever": 22498,
    "Ġglobe": 6076,
    "shown": 22451,
    "Ġappetite": 12382,
    "w": 91,
    "Ġgale": 5822,
    "Ġartist": 12909,
    "Ġbecause": 2209,
    "Ġpassionately": 16764,
    "draughts": 20386,
    "Ġforgive": 8009,
    "Ġcaged": 21350,
    "instinct": 19542,
    "Ġunsounded": 15847,
    "Ġoriginate": 24119,
    "Ġsupers": 18278,
    "moreover": 12966,
    "ffy": 18317,
    "Ġrachel": 11845,
    "evidence": 25521,
    "Ġobjective": 3765,
    "Ġelasticity": 19557,
    "Ġplaning": 22598,
    "Ġprynne": 25540,
    "Ġpebbles": 16127,
    "Ġmiracle": 15092,
    "ě": 220,
    "hamed": 6305,
    "Ġcollinses": 19129,
    "Ġsex": 8841,
    "aire": 10680,
    "loun": 17588,
    "Ġtransf": 22439,
    "prosper": 19100,
    "Ġintroduction": 8970,
    "icts": 22382,
    "Ġstays": 16561,
    "Ġspeech": 4609,
    "Ġbarmaid": 19334,
    "Ġembodiment": 20526,
    "Ġvig": 5460,
    "Ġdaggoo": 5441,
    "Ġattentive": 9033,
    "hro": 20890,
    "aguy": 21907,
    "Ġcarriage": 3949,
    "Ġimmediate": 6089,
    "dogs": 25402,
    "trap": 24313,
    "Ġdespond": 14667,
    "Ġdevoured": 16137,
    "uvier": 9068,
    "Ġwhatsoever": 18455,
    "Ġsporty": 19889,
    "sixteen": 24853,
    "ĠâĢĺ": 1629,
    "ibility": 2390,
    "Ġunfit": 14786,
    "sort": 6798,
    "Ģ": 227,
    "Ġnoblest": 13240,
    "brink": 23575,
    "Ġdictionaries": 12338,
    "Ġaunts": 21199,
    "confidential": 25876,
    "rumours": 23897,
    "gammon": 20242,
    "Ġmonogra": 22974,
    "apse": 14198,
    "Ġdood": 22239,
    "ulia": 18148,
    "ok": 572,
    "Ġturned": 2132,
    "Ġswish": 23050,
    "Ġceaseless": 13487,
    "uguese": 20731,
    "Ġsole": 3299,
    "Ġencoura": 1367,
    "Ġacceptance": 14826,
    "thur": 7188,
    "Ġindistinct": 17407,
    "Ġhovel": 8253,
    "Ġeighteen": 11238,
    "Ã¦st": 24175,
    "insufficient": 15488,
    "eled": 2358,
    "Ġaz": 9629,
    "Ġcreaking": 14330,
    "Ġemblaz": 16231,
    "Ġselects": 4385,
    "shore": 10305,
    "Ġmaled": 21313,
    "Ġpledged": 20686,
    "Ġsymptoms": 8704,
    "oubted": 5859,
    "Ġexposing": 11833,
    "Ġuttered": 7280,
    "trick": 19411,
    "Ġforemost": 12003,
    "Ġscornful": 24996,
    "Ġmothers": 14540,
    "acetti": 13395,
    "Ġimplies": 24873,
    "Ġkettle": 26232,
    "Ġcreative": 9826,
    "Ġheading": 8935,
    "Ġdepressions": 25798,
    "Ġsurvive": 9066,
    "impregn": 21711,
    "leman": 21366,
    "onents": 8776,
    "opic": 22473,
    "Ġjeer": 24121,
    "biqu": 17497,
    ".]": 15297,
    "Ġmid": 2617,
    "Ġfields": 2141,
    "Ġreplay": 5047,
    "fireside": 24692,
    "Ġrequesting": 24632,
    "Ġattics": 22616,
    "wand": 10738,
    "tornadoes": 26153,
    "Ġcaw": 13882,
    "acid": 11005,
    "Ġsaying": 3243,
    "Ġdynamic": 5122,
    "etwork": 442,
    "Ġstrong": 1787,
    "exerc": 16013,
    "Ġcrippled": 25278,
    "solely": 19815,
    "treatment": 20410,
    "Ġapprehens": 5682,
    "Ġiceland": 15145,
    "Ġwake": 4748,
    "mean": 6438,
    "Ġwages": 13853,
    "affairs": 14656,
    "Ġstreat": 15718,
    "outs": 7008,
    "Ġaccomplished": 7104,
    "Ġgrass": 5177,
    "Ġendeavor": 16545,
    "Ġbugs": 13647,
    "wonder": 6371,
    "Ġheaped": 18037,
    "Ġhushed": 13924,
    "Ġanalytical": 22905,
    "Ġwhalemen": 3910,
    "further": 7536,
    "Ġcrusad": 23702,
    "ain": 343,
    "thread": 15824,
    "igned": 5656,
    "inois": 17738,
    "Ġmyth": 18220,
    "Ġassid": 18944,
    "Ġquant": 6424,
    "Ġmethodic": 23189,
    "imly": 12684,
    "derer": 4599,
    "Ġdissolved": 18554,
    "Ġmanifold": 13559,
    "Ġappet": 9730,
    "Ġasser": 6257,
    "app": 1044,
    "Ġrector": 21673,
    "Ġwaldman": 11345,
    "Ġdrug": 11410,
    "Ġloos": 15869,
    "Ġevidence": 5269,
    "Ġflorida": 20658,
    "quimaux": 21856,
    "imin": 1769,
    "dece": 11725,
    "Ġunsupp": 22016,
    "gul": 12463,
    "Ġincarnate": 20373,
    "Ġgar": 10838,
    "shabbily": 26246,
    "Ġbud": 10168,
    "Ġhaunted": 10253,
    "cousin": 10652,
    "Ġentreaty": 10529,
    "Ġsuperl": 16445,
    "Ġberyl": 20488,
    "appearing": 14637,
    "Ġspoutings": 14675,
    "Ġcensure": 15094,
    "Ġmaking": 1779,
    "gress": 2212,
    "Ġdisappoint": 24205,
    "Ġcrumbs": 20639,
    "omited": 21638,
    "Ġpostp": 12141,
    "sius": 13787,
    "Ġconsol": 3813,
    "pulled": 25145,
    "vens": 21111,
    "cim": 8719,
    "estation": 15918,
    "Ġpeev": 22690,
    "aunted": 20769,
    "onden": 13843,
    "Ġrailway": 15020,
    "Ġamazed": 14888,
    "Ġscre": 9736,
    "Ġtelesc": 12991,
    "Ġdistinction": 8885,
    "bud": 10682,
    "Ġarranging": 11174,
    "incl": 8109,
    "Ġslavery": 16306,
    "st": 316,
    "Ġwheels": 10912,
    "Ġ27": 8614,
    "Ġamours": 22478,
    "Ġcranes": 20381,
    "pronounce": 25192,
    "Ġinj": 4759,
    "Ġwhole": 1659,
    "tremendous": 20672,
    "Ġtenderly": 11314,
    "Ġmeasureless": 14709,
    "withdrawn": 23023,
    "life": 4932,
    "Ġ48": 24078,
    "Ġdetail": 636,
    "Ġscrawled": 24580,
    "ough": 472,
    "Ġdreadfully": 7725,
    "shaken": 16023,
    "Ġevil": 3804,
    "Ġshrieks": 12197,
    "Ġequality": 16360,
    "Ġheathenish": 13615,
    "Ġveritable": 19379,
    "Ġmingling": 20196,
    "Ġplaying": 6909,
    "aet": 15306,
    "Ġdanes": 25156,
    "Ġwhisper": 6205,
    "make": 5793,
    "Ġrehears": 15697,
    "ingale": 21298,
    "Ġrally": 21965,
    "Ġbolted": 12242,
    "adamite": 20591,
    "jam": 15370,
    "Ġcomforter": 20505,
    "Ġdiscipl": 22777,
    "Ġslung": 23163,
    "Ġtrunks": 15968,
    "Ġparagraph": 17453,
    "Ġmarvel": 23032,
    "Ġterti": 14538,
    "truth": 9918,
    "rushing": 10017,
    "Ġshoving": 23487,
    "honor": 19899,
    "Ġmultitud": 18746,
    "cks": 3081,
    "Ġdefilements": 26284,
    "Ġbutterfly": 19909,
    "Ġremembr": 24170,
    "Ē": 211,
    "Ġincensed": 18571,
    "sebastian": 21817,
    "Ġextremely": 2670,
    "Ġjack": 4651,
    "Ġplead": 14454,
    "Ġbelieves": 14406,
    "Ġtools": 11608,
    "reader": 23843,
    "Ġhindoo": 17175,
    "Ġgerm": 13963,
    "Ġsuffocated": 20727,
    "osop": 4404,
    "Ġascertaining": 17203,
    "j": 78,
    "Ġhonest": 7287,
    "Ġdetective": 14420,
    "ished": 1427,
    "Ġliberated": 19665,
    "ravity": 21632,
    "Ġfang": 21401,
    "Ġparticip": 16129,
    "Ġten": 2385,
    "Ġhumble": 8551,
    "Ġdiab": 10611,
    "Ġregression": 4409,
    "Ġdispelling": 23877,
    "usages": 22287,
    "Ġreefed": 20301,
    "upt": 13797,
    "sailor": 14714,
    "butt": 15992,
    "heard": 5009,
    "Ġflann": 23009,
    "pivot": 21030,
    "Ġattendance": 12179,
    "jeroboam": 25619,
    "Ġfairly": 6325,
    "Ġhumbly": 16196,
    "h": 76,
    "Ġfinding": 3264,
    "barrels": 15041,
    "Ġcommunicates": 24547,
    "Ġperman": 10964,
    "oqu": 7556,
    "Ġplanisphere": 26607,
    "Ġlub": 15646,
    "®": 111,
    "roded": 17955,
    "Ġnibbling": 17384,
    "Ġactiv": 834,
    "pul": 8753,
    "Ġreadiness": 13047,
    "Ġniag": 21527,
    "misrepresented": 24211,
    "outon": 12800,
    "loud": 11500,
    "enjoyments": 25433,
    "Ġs": 265,
    "veh": 12676,
    "Ġcommonplace": 11096,
    "Ġcaravan": 26290,
    "shad": 10982,
    "otently": 21797,
    "Ġportents": 14679,
    "Ġcommencement": 12236,
    "wedged": 24338,
    "Ġconsummation": 17424,
    "troubled": 17112,
    "Ġstout": 6024,
    "prit": 19340,
    "Ġornam": 15862,
    "Ġrecourse": 22738,
    "Ġhas": 825,
    "delight": 5344,
    "Ġmeans": 698,
    "ensibility": 22544,
    "Ġrh": 9243,
    "Ġthrew": 3972,
    "richard": 17286,
    "scru": 16241,
    "Ġforbear": 17121,
    "Ġlearn": 361,
    "Ġeighty": 19474,
    "Ġfirmly": 8013,
    "footman": 17162,
    "Ġparted": 5928,
    "Ġprofessions": 11231,
    "Ġdimmed": 24267,
    "Ġdodging": 19886,
    "Ġ221": 25068,
    "Ġtrusted": 10517,
    "Ġlounging": 10021,
    "ĠĠĠĠĠĠĠĠĠĠĠĠĠĠĠĠĠĠĠĠĠĠĠĠĠĠĠĠĠĠĠĠĠĠĠĠ": 23663,
    "Ġdorm": 4821,
    "Ġhol": 1182,
    "Ġblanc": 11065,
    "Ġcontrivance": 17183,
    "streamed": 25966,
    "disaster": 23491,
    "ifle": 10891,
    "Ġdod": 6672,
    "mblance": 7323,
    "Ġreproofs": 24892,
    "afterwards": 7485,
    "ais": 8070,
    "prisoner": 20542,
    "Ġhunting": 7259,
    "Ġimpressive": 14999,
    "Ġey": 8134,
    "mmar": 951,
    "vers": 1328,
    "she": 1400,
    "Ġheels": 10850,
    "Ġrecogn": 2680,
    "onist": 21249,
    "render": 10291,
    "Ġirre": 7468,
    "Ġlashing": 11615,
    "omitted": 18016,
    "Ġhumorously": 18777,
    "Ġestimation": 11218,
    "belongs": 25596,
    "Ġcried": 1488,
    "Ġaffronted": 22888,
    "ailed": 3246,
    "stead": 10846,
    "lover": 18540,
    "Ġexchanging": 18130,
    "_,âĢĻâĢĿ": 20399,
    "Ġcitations": 25437,
    "era": 13846,
    "Ġoft": 9194,
    "Ġsimil": 2532,
    "Ġfest": 10804,
    "Ġfollies": 16252,
    "omuch": 21637,
    "odhead": 18119,
    "Ġassume": 10515,
    "Ġlaunched": 14925,
    "Ġvicissitudes": 12417,
    "inforcement": 3002,
    "Ġwhelmed": 25999,
    "Ġinstead": 2791,
    "Ġunconditional": 15842,
    "Ġbier": 22758,
    "Ġpurch": 6599,
    "Ġboil": 16102,
    "Ġhammock": 5768,
    "Ġexordium": 26492,
    "Ġadvisable": 11442,
    "Ġpeep": 6870,
    "Ġsenses": 8251,
    "Ġunthinkingly": 26220,
    "Ġinsect": 12633,
    "Ġself": 1778,
    "ys": 3958,
    "Ġunappe": 22013,
    "Ġaversion": 18866,
    "gins": 12466,
    "subst": 12162,
    "Ġsuggest": 5417,
    "Ġbuilt": 8300,
    "Ġhandsom": 11124,
    "wet": 15451,
    "Ġbloody": 9888,
    "Ġriddle": 14819,
    "Ġgrope": 17994,
    "Ġquaint": 18465,
    "fortun": 3535,
    "Ġfolks": 14425,
    "rels": 6664,
    "Ġstratag": 26028,
    "Ġtea": 5041,
    "crossed": 16632,
    "Ġpuffing": 12252,
    "capt": 3834,
    "Ġpaddle": 20057,
    "avoid": 9304,
    "Ġfever": 6558,
    "Ġlandlady": 10422,
    "Ġchival": 14180,
    "Ġxiv": 23406,
    "ble": 542,
    "companions": 15023,
    "Ġ119": 24441,
    "ruit": 22174,
    "Ġsilken": 16380,
    "inable": 11555,
    "Ġdavis": 25952,
    "Ġdine": 7366,
    "Ġunhappy": 5640,
    "clay": 18930,
    "Ġgemin": 21607,
    "_.": 2211,
    "Ġheavier": 13101,
    "luxur": 25822,
    "Ġbumping": 25280,
    "54": 15298,
    "Ġexchange": 15750,
    "Ġhipp": 21489,
    "Ġgrove": 12144,
    "Ġpardon": 5727,
    "Ġdeject": 10881,
    "Ġbishop": 13901,
    "dischar": 19151,
    "Ġtwelfth": 22675,
    "Ġyork": 11664,
    "Ġinconstant": 21493,
    "Ġcharted": 22247,
    "rit": 21034,
    "sweet": 8685,
    "Ġreceive": 4703,
    "Ġeducation": 5128,
    "cry": 12443,
    "Ġrats": 21970,
    "Ġexploration": 2336,
    "Ġvineyards": 25106,
    "made": 4807,
    "dark": 5614,
    "Ġslaught": 23162,
    "inc": 2520,
    "âĢĶ(": 15936,
    "Ġbedford": 7474,
    "wherefore": 19108,
    "Ġsubsiding": 23432,
    "laug": 10707,
    "Ġinheritance": 25355,
    "adier": 18089,
    "Ġgoat": 16004,
    "Ġplainly": 4381,
    "Ġleviathanic": 12078,
    "Ġ**": 4720,
    "circumst": 5348,
    "Ġoperate": 19115,
    "Ġfurnace": 19438,
    "Ġglared": 13015,
    "inburgh": 15489,
    "Ġsabbee": 17255,
    "interference": 23736,
    "Ġhabitu": 19527,
    "Ġagony": 5388,
    "Ġinsult": 6747,
    "Ġintrusted": 21989,
    "truck": 15440,
    "Ġgenius": 8045,
    "Ġbohemia": 10649,
    "ppery": 10892,
    "uv": 6229,
    "Ġjer": 6266,
    "50": 6784,
    "Ġaint": 17744,
    "turbable": 24531,
    "Ġtents": 13817,
    "Ġthing": 1637,
    "Ġactively": 18654,
    "hurst": 19878,
    "bingley": 4927,
    "Ġwives": 12552,
    "cap": 8372,
    "gladness": 25194,
    "Ġhears": 8138,
    "Ġfrolic": 23921,
    "Ġbusied": 19066,
    "Ġbutt": 14125,
    "Ġcomfortably": 16615,
    "Ġapologizing": 25197,
    "shish": 11791,
    "Ġroom": 1463,
    "grace": 5846,
    "Ġvariations": 22663,
    "steam": 23957,
    "Ġbase": 5013,
    "steep": 19417,
    "Ġtormenting": 15103,
    "unciation": 25982,
    "Ġtrinity": 22353,
    "Ġmisfortune": 5569,
    "Ġmale": 9648,
    "Ġlik": 2523,
    "Ġunb": 10907,
    "Ġenigmatical": 20596,
    "Ġ60": 14874,
    "Ġtist": 21161,
    "pleasures": 24043,
    "Ġawe": 7147,
    ",*": 17471,
    "Ġmodeling": 2096,
    "Ġowns": 22822,
    "classes": 12133,
    "Ġascribe": 16782,
    "Ġswinging": 7449,
    "Ġdim": 4756,
    "Ġleg": 2335,
    "Ġinteresting": 4326,
    "Ġsad": 3866,
    "Ġrehearsed": 25971,
    "Ġappropriated": 23483,
    "Ġnarratives": 24353,
    "unerative": 21893,
    "Ġfitting": 21406,
    "Ġworshipping": 22925,
    "ÿ": 192,
    "que": 1136,
    "heart": 4525,
    "Ġwreak": 16817,
    "oquent": 12497,
    "Ġoysters": 20577,
    "ends": 6038,
    "Ġiroqu": 21621,
    "becoming": 18519,
    "hum": 3777,
    "Ġfainter": 14913,
    "Ġfad": 17876,
    "Ġkingdom": 12017,
    "Ġsentimental": 24754,
    "Ġhatty": 19264,
    "Ġauthoritative": 19560,
    "ily": 1034,
    "Ġheadlands": 22894,
    "Ġsord": 21218,
    "leo": 21362,
    "Ġobliged": 4286,
    "umber": 5240,
    "Ġestimate": 19371,
    "alleging": 23020,
    "Ġsiber": 17755,
    "Ġinterfere": 11815,
    "Ġappertain": 22214,
    "Ġdestiny": 8983,
    "Ġjohn": 5032,
    "Ġineff": 12631,
    "ceremony": 20588,
    "pred": 2803,
    "Ġrow": 5309,
    "bunger": 20400,
    "know": 2317,
    "Ġstrikes": 13180,
    "Ġimpotent": 18447,
    "Ġfeelingly": 22994,
    "velled": 9875,
    "Ġcompass": 4408,
    "shell": 16285,
    "Ġshorter": 4498,
    "Ġwhiskers": 10492,
    "before": 3114,
    "ĠĠĠĠĠĠĠĠ": 711,
    "Ġprovoking": 16743,
    "Ġdew": 14044,
    "Ġfossiliferous": 25609,
    "Ġpressure": 13421,
    "Ġdizzy": 21435,
    "Ġgloomily": 14799,
    "Ġfleet": 9431,
    "principle": 10650,
    "Ġprosecution": 12380,
    "byshire": 6172,
    "Ġaccompl": 5167,
    "Ġadro": 15865,
    "Ġobjects": 5578,
    "icates": 11616,
    "Z": 62,
    "chorus": 19810,
    "dorff": 15236,
    "mped": 16647,
    "unlike": 18156,
    "Ġrobbery": 11918,
    "tottenham": 25418,
    "tall": 17673,
    "length": 7134,
    "mort": 10710,
    "Ġingratitude": 17468,
    "Ġsoon": 1229,
    "phew": 6368,
    "Ġmat": 1148,
    "Ġeigenvalues": 4998,
    "Ġparasol": 22145,
    "Ġshipw": 12976,
    "oons": 12496,
    "bru": 12437,
    "Ġfrighted": 24026,
    "Ġconfess": 3766,
    "Ġwhen": 513,
    "Ġbeard": 11654,
    "bre": 3977,
    "Ġskirting": 22792,
    "flies": 19422,
    "rear": 21231,
    "izard": 10879,
    "Ġdisobey": 18559,
    "vulgar": 25918,
    "okingly": 22378,
    "Ġopposing": 12039,
    "Ġpresc": 15923,
    "another": 5439,
    "Ġwond": 3937,
    "Ġdeer": 12717,
    "Ġvic": 5236,
    "Ġdifferently": 10388,
    "Ġmade": 1052,
    "Ġdefined": 11896,
    "Ġmorcar": 13008,
    "Ġdives": 17893,
    "Ġenumerating": 15243,
    "Ġrushing": 7403,
    "Ġtoiling": 15632,
    "Ġcore": 13877,
    "begone": 12876,
    "Ġrel": 1094,
    "Ġwaiting": 4324,
    "Ġlend": 17962,
    "âĢĶ_": 3199,
    "Ġarter": 22185,
    "¥": 103,
    "ut": 308,
    "aloons": 20009,
    "behold": 12875,
    "Ġnecess": 3473,
    "Ġpatent": 11958,
    "elastic": 17980,
    "Ġugl": 12679,
    "inating": 9153,
    "Ġmari": 6813,
    "Ġunh": 9252,
    "unt": 2044,
    "Ġtradesmen": 17105,
    "Ġspool": 24806,
    "athans": 7433,
    "stalk": 21647,
    "consult": 24169,
    "Ġpatronage": 17053,
    "Ġont": 18120,
    "town": 7142,
    "Ġderivatives": 2370,
    "drop": 15336,
    "Ġbelonged": 6922,
    "kward": 6958,
    "ne": 646,
    "Ġshabby": 14110,
    "ructed": 7027,
    "health": 13832,
    "¤": 102,
    "azz": 8261,
    ",âĢĻâĢĶ": 23526,
    "places": 7876,
    "iscuits": 24666,
    "Ġyojo": 7611,
    "handled": 19260,
    "Ġattaining": 15801,
    "ellative": 21946,
    "Ġevangelist": 20337,
    "peddling": 24696,
    "ishment": 3502,
    "Ġsystemat": 18442,
    "accustomed": 13156,
    "idation": 5022,
    "lean": 21363,
    "Ġopen": 1552,
    "Ġestimable": 23869,
    "Ġvenge": 5420,
    "Ġlongitude": 11011,
    "Ġcustody": 13646,
    "Ġsymbol": 7716,
    "Ġcontrived": 10303,
    "Ġmult": 1024,
    "Ġsh": 419,
    "opes": 10310,
    "islands": 21374,
    "recur": 4436,
    "Ġhams": 16612,
    "Ġcrowding": 13277,
    "Ġadmission": 23554,
    "detained": 24382,
    "Ġdeterminate": 23001,
    "iance": 5279,
    "hering": 12811,
    "longing": 23724,
    "Ġprincipal": 6496,
    "Ġconjoined": 21803,
    "sad": 11520,
    "Ġbracelets": 25502,
    "Ġcupidity": 24535,
    "Ġhid": 1318,
    "Ġaffected": 5577,
    "bowl": 14890,
    "Ġbonds": 17869,
    "heim": 17746,
    "Ġryder": 10258,
    "Ġwarnings": 16881,
    "Ġinfallible": 15069,
    "private": 13581,
    "Ġfact": 1729,
    "pigs": 17140,
    "idled": 21765,
    "Ġaccost": 12842,
    "etime": 12656,
    "Ġarchipelagoes": 14350,
    "Ġshot": 4543,
    ".âĢĶâĢľ": 20746,
    "Ġsob": 12785,
    "Ġhoist": 11975,
    "loaded": 22509,
    "by": 1160,
    "Ġforeseen": 16442,
    "inno": 10756,
    "Ġinner": 9670,
    "Ġport": 3310,
    "Ġpraise": 6486,
    "cil": 8720,
    "book": 4668,
    "antled": 18287,
    "log": 18538,
    "Ġcalam": 13031,
    "Ġannot": 15599,
    "Ġscorching": 20066,
    "Ġprodigies": 19792,
    "Ġcommodores": 25374,
    "Ġviciously": 24404,
    "Ġarrested": 9560,
    "Ġbusy": 6189,
    "olen": 9699,
    "Ġgales": 12662,
    "Ġcorner": 4370,
    "Ġconceal": 5973,
    "Ġstreatham": 17448,
    "ission": 6457,
    "Ġabominate": 20063,
    "æ": 167,
    "Ġhighway": 14345,
    "ille": 9219,
    "cain": 15325,
    "Ġcrosswise": 18885,
    "Ġneighbourhood": 5126,
    "specul": 23940,
    "Ġsupremacy": 20259,
    "ulus": 21861,
    "Ġiii": 7860,
    "Ġheavily": 6740,
    "Ġreciproc": 20620,
    "Ġgomorrah": 21612,
    "Ġrud": 8477,
    "okes": 9276,
    "stay": 9680,
    "Ġnantucket": 2838,
    "Ġpresumption": 10545,
    "yard": 5899,
    "dl": 20822,
    "Ġoutskirts": 17456,
    "Ġunremitting": 26217,
    "Ġstab": 10862,
    "dozen": 23376,
    "Ġfluctuating": 24417,
    "Ġdiscernible": 15068,
    "Ġsunday": 7270,
    "Ġcontempl": 6701,
    "Ġstrugg": 3215,
    "oth": 1185,
    "Ġimpatience": 7510,
    "Ġplantation": 11423,
    "Ġmust": 844,
    "Ġserenity": 10027,
    "rebellum": 26165,
    "cottage": 9569,
    "Ġwhim": 13998,
    "hark": 15364,
    "Ġdiscuss": 9473,
    "Ġsneezes": 24698,
    "į": 240,
    "avast": 8896,
    "Ġdrawback": 23987,
    "Ġdifferences": 18711,
    "hundred": 8330,
    "rences": 9273,
    "Ġgemini": 26469,
    "lux": 14226,
    "Ġreceived": 2950,
    "felix": 10653,
    "burg": 16773,
    "hereditary": 26419,
    "Ġcock": 10999,
    "Ġincarn": 11812,
    "Ġpro": 362,
    "Ġminds": 6303,
    "faint": 17545,
    "acknowledging": 25476,
    "reated": 10301,
    "Ġextract": 1464,
    "Ġphysi": 9987,
    "Ġabutted": 22272,
    "xible": 13807,
    "anations": 12573,
    "Ġancestors": 25642,
    "Ġmerits": 13193,
    "gale": 13722,
    "Ġty": 6657,
    "Ġguns": 16776,
    "Ġangry": 5498,
    "Ġclouds": 5775,
    "Ġrobust": 1381,
    "ience": 800,
    "Ġmouthful": 16574,
    "impatiently": 20469,
    "Ġturkish": 12259,
    "Ġrecord": 5316,
    "Ġparallel": 1415,
    "Ġquietude": 19358,
    "ouching": 13176,
    "ounix": 14163,
    "Ġmodified": 14166,
    "Ġsummons": 13230,
    "begged": 18520,
    "Ġwarmer": 19184,
    "conclusive": 25673,
    "Ġcrystals": 20226,
    "advanced": 19587,
    "urious": 21700,
    "Ġglove": 14491,
    "à": 161,
    "Ġsembl": 19059,
    "unched": 10235,
    "Ġfrightful": 7735,
    "Ġgeorgiana": 8625,
    "Ġoblig": 3444,
    "Ġunrecorded": 17467,
    "Ġinstant": 2706,
    "kingly": 20938,
    "Ġoutset": 15953,
    "Ġelegant": 7533,
    "attle": 4466,
    "Ġhyp": 3871,
    "tie": 21067,
    "rigible": 24931,
    "Ġhurried": 4029,
    "residence": 19262,
    "Ġfilling": 13407,
    "cocks": 23560,
    "considering": 12172,
    "scans": 22986,
    "uplifted": 17695,
    "Ġgracechurch": 12196,
    "Ġdimension": 3239,
    "Ġunwonted": 14124,
    "Ġcask": 5527,
    "Ġdampening": 2893,
    "Ġeffectually": 16166,
    "Ġpassing": 4315,
    "coff": 9108,
    "Ġconsummate": 25310,
    "stop": 11634,
    "Ġaffidavit": 20723,
    "hers": 7636,
    "Ġservox": 23867,
    "Ġexclusiveness": 23924,
    "Ġstammered": 26199,
    "Ġpince": 21468,
    "Ġnormal": 1202,
    "operation": 13500,
    "Ġstiffest": 24829,
    "figures": 20120,
    "Ġannoy": 17198,
    "casks": 20401,
    "och": 21000,
    "intment": 4719,
    "Ġknave": 11272,
    "determ": 7105,
    "Ġnatives": 17950,
    "Ġchains": 8250,
    "Ġimpartial": 15218,
    "Ġraising": 8909,
    "Ġheire": 18036,
    "valuable": 8246,
    "Ġcolonnades": 26275,
    "gia": 20875,
    "Ġcruis": 14623,
    "ively": 1319,
    "carriage": 9945,
    "Ġzeal": 9097,
    "Ġlighten": 23257,
    "con": 654,
    "Ġglorious": 11075,
    "Ġvanquished": 22873,
    "!âĢĿâĢĶ": 8532,
    "Ġapply": 1777,
    "aching": 5831,
    "conside": 9289,
    "Ġquarters": 8619,
    "Ġunthink": 18247,
    "ounce": 6557,
    "Ġdescends": 14287,
    "rise": 6226,
    "Ġaffectionately": 13167,
    "Ġcocksure": 26258,
    "onies": 6806,
    "settled": 10506,
    "Ġturn": 1298,
    "lessly": 4555,
    "ists": 3998,
    "Ġjing": 15947,
    "Ġdam": 2214,
    "Ġinfat": 14500,
    "chapter": 1405,
    "Ġunobstructed": 18264,
    "Ġdiscussing": 5202,
    "Ġbraved": 23834,
    "Ġwrong": 4723,
    "Ġtwentieth": 18659,
    "urring": 21702,
    "hours": 9124,
    "Ġfreemason": 23209,
    "Ġteaches": 18803,
    "ston": 15680,
    "fortune": 4975,
    "beings": 12874,
    "Ġdescending": 8904,
    "zas": 17712,
    "Ġdreamt": 23936,
    "Ġxerxes": 23409,
    "Ġarab": 7823,
    "Ġwraps": 19775,
    "Ġdimin": 3870,
    "joining": 19444,
    "farmer": 25899,
    "including": 23589,
    "Ġcontrast": 2118,
    "pitching": 24073,
    "believing": 19460,
    "bol": 8717,
    "Ġfriend": 1296,
    "che": 3171,
    "Ġpalaces": 24088,
    "Ġabrid": 22269,
    "Ġjerked": 19831,
    "trowsers": 17691,
    "Ġtrous": 10958,
    "Ġoblivious": 26032,
    "lected": 1634,
    "Ġastonished": 7087,
    "Ġr": 404,
    "Ĺ": 250,
    "urpation": 16300,
    "ellations": 21945,
    "tor": 15431,
    "Ġdepress": 14047,
    "Ġcongregation": 12327,
    "closed": 23149,
    "Ġfaulty": 14906,
    "hot": 8083,
    "idel": 5299,
    "Ġcondensed": 24049,
    "Ġthereupon": 18433,
    "Ġ1": 1014,
    "elect": 20845,
    "Ġfinancier": 26583,
    "tes": 11528,
    "nical": 20990,
    "Ġmanhandle": 22326,
    "Ġdegener": 14049,
    "Ġvery": 637,
    "ishnoo": 10957,
    "ond": 1163,
    "transform": 8049,
    "Ġbashful": 20418,
    "Ġsalmon": 24058,
    "Ġtawny": 20480,
    "Ġplaced": 3443,
    "entire": 6824,
    "actory": 8907,
    "Ġstable": 2701,
    "Ġfeatureless": 22609,
    "Ġbarbarously": 24819,
    "intelligent": 16844,
    "Ġcetace": 14987,
    "Ġallies": 18234,
    "Ġsatisfactory": 11192,
    "Ġmeetings": 16531,
    "cious": 6643,
    "advise": 24217,
    "hug": 17563,
    "Ġglut": 18852,
    "slack": 16894,
    "ted": 791,
    "Ġlichen": 20090,
    "Ġinforming": 18741,
    "Ġseam": 3906,
    "Ġlangsdorff": 15275,
    "================================": 5671,
    "Ġshort": 2225,
    "ger": 1103,
    "crown": 13697,
    "Ġdelicately": 24123,
    "Ġconcern": 2658,
    "Ġvexation": 10586,
    "Ġsimply": 7218,
    "Ġsympathise": 16794,
    "danish": 20832,
    "breadth": 20275,
    "jur": 17578,
    "Ġflood": 7715,
    "Ġced": 10784,
    "Ġweariness": 19793,
    "expanded": 23662,
    "Ġghostliness": 24651,
    "Ġwidows": 24236,
    "saturday": 14857,
    "driver": 14920,
    "goldsmith": 20146,
    "aly": 1107,
    "Ġpeeped": 10011,
    "Ġsoftened": 11102,
    "Ġamphitheat": 26251,
    "raise": 18011,
    "Ġmasses": 10503,
    "Ġbus": 1903,
    "ĠĠĠĠĠĠĠĠĠĠĠĠĠĠĠĠĠĠĠĠĠĠĠĠĠĠĠĠĠĠ": 24443,
    "Ġredden": 15691,
    "Ġwhine": 21712,
    "Ġkent": 6691,
    "Ġfretfully": 25447,
    "Ġchildish": 13136,
    "Ġpredictions": 1456,
    "Ġrummaged": 16910,
    "gno": 13726,
    "Ġunembarrassed": 22064,
    "Ġinjuring": 24268,
    "Ġsituated": 9446,
    "civility": 17513,
    "brother": 7091,
    "Ġfifty": 4622,
    "ashions": 16416,
    "wling": 11544,
    "usable": 22286,
    "Ġimpatient": 5603,
    "anse": 12572,
    "Ġenthusiasm": 8064,
    "=": 33,
    "luc": 9751,
    "Ġchatbots": 11349,
    "Ġuppermost": 15277,
    "Ġcompat": 2936,
    "Ġbars": 13896,
    "Ġpulling": 5862,
    "Ġbankers": 24302,
    "Ġcondition": 6764,
    "Ġsurrender": 16449,
    "Ġrumbling": 18211,
    "Ġwhe": 438,
    "Ġprairies": 20019,
    "Ġneedless": 19228,
    "Ġpicking": 11259,
    "borough": 20784,
    "Ġstation": 5297,
    "Ġeluded": 12919,
    "rs": 7807,
    "conducted": 25572,
    "Ġacknowledged": 7535,
    "Ġtalent": 12295,
    "Ġadjusts": 8980,
    "Ġrav": 14304,
    "trying": 15437,
    "Ġkept": 3347,
    "Ġtanning": 17729,
    "Ġhoisting": 9861,
    "emotion": 21927,
    "Ġren": 3843,
    "Ġsurvivors": 25732,
    "knives": 14912,
    "Ġsaturation": 2063,
    "Ġwon": 1661,
    "Ġlistener": 16474,
    "Ġwid": 4631,
    "stirring": 20424,
    "Ġfiend": 4411,
    "Ġundeceive": 25552,
    "Ġpassage": 3883,
    "Ġencode": 4365,
    "Ġmutinous": 23955,
    "Ġapplied": 6186,
    "Ġlevi": 3035,
    "Ġmilk": 6485,
    "Ġthrob": 21515,
    "breaking": 14763,
    "Ġattribute": 16094,
    "Ġpau": 17906,
    "Ġrelieve": 8223,
    "Ġdrunken": 12048,
    "Ġdesign": 4129,
    "origin": 7582,
    "morn": 20975,
    "yrin": 12519,
    "Ġwronged": 24247,
    "Ġpleasantness": 24136,
    "ggling": 19096,
    "overcoat": 19049,
    "Ġretain": 7862,
    "Ġexpanded": 14289,
    "Ġ156": 20169,
    "Ġfeel": 1262,
    "Ġenh": 3314,
    "Ġneither": 3685,
    "Ġtimber": 13348,
    "terrible": 8465,
    "eked": 16401,
    "Ġjovial": 19232,
    "Ġspont": 22134,
    "arity": 1303,
    "passing": 14811,
    "Ġsun": 1719,
    "loo": 10319,
    "frank": 7757,
    "Ġrestore": 9379,
    "admit": 18090,
    "church": 8139,
    "Ġseries": 7059,
    "----âĢĻ": 24094,
    "Ġcircumstantial": 14643,
    "oblivious": 26582,
    "Ġinvoluntarily": 8548,
    "Ġterribly": 10425,
    "Ġmillions": 11354,
    "Ġmidst": 7985,
    "Ġunjustifiable": 25109,
    "rifled": 21046,
    "Ġhappens": 2186,
    "Ġshan": 9248,
    "Ġtainted": 21169,
    "Ġrecommend": 7102,
    "ittingly": 18806,
    "Ġcolon": 18762,
    "arbuck": 2026,
    "Ġrepeatedly": 9020,
    "Ġoff": 904,
    "last": 3801,
    "Ġscand": 7203,
    "Ġcandles": 9907,
    "estations": 22221,
    "osures": 22257,
    "Ġparticle": 18671,
    "Ġworshipped": 25691,
    "Ġpantheistic": 26335,
    "mount": 9129,
    "anges": 1673,
    "reluct": 26163,
    "Ġabilities": 8866,
    "Ġwho": 613,
    "illating": 22104,
    "provided": 13636,
    "shine": 9287,
    "uttermost": 24940,
    "Ġspinning": 15052,
    "Ġgipsies": 12406,
    "early": 20117,
    "spr": 7435,
    "Ġfrosts": 19801,
    "Ġmountainous": 16599,
    "infidel": 24663,
    "Ġgovernments": 20266,
    "Ġ74": 24261,
    "Ġregard": 3068,
    "Ġrocks": 6863,
    "Ġcondem": 6338,
    "ributed": 8213,
    "accepting": 20134,
    "patient": 25342,
    "Ġpow": 4636,
    "č": 206,
    "Ġcheat": 19019,
    "Ġputting": 5326,
    "Ġflamingo": 15099,
    "Ġwars": 17785,
    "Ġ$": 21149,
    "Ġsplice": 19307,
    "Ġoh": 2174,
    "Ġold": 1058,
    "chose": 18040,
    "Ġtap": 12523,
    "sch": 21049,
    "Ġcrowd": 6336,
    "Â£": 4811,
    "Ġridic": 7509,
    "itate": 6667,
    "Ġincome": 7916,
    "umblings": 23927,
    "Þ": 159,
    "Ã¦": 4338,
    "Ġpond": 13915,
    "Ġgod": 1937,
    "ĠĠĠĠĠĠĠĠĠĠĠĠĠĠĠĠĠĠĠĠĠĠĠĠĠĠĠĠĠĠĠĠ": 2740,
    "Ġmungo": 25631,
    "Ġ26": 10470,
    "fo": 5278,
    "sm": 3435,
    "Ġscarcity": 23823,
    "Ġuncork": 23428,
    "Ġobeying": 13413,
    "Ġarom": 15491,
    "pate": 21009,
    "Ġecstasy": 11629,
    "Ġgrizz": 10352,
    "Ġplat": 8520,
    "Ġdesper": 6176,
    "Ġostentatiously": 20467,
    "Ġinterposed": 20617,
    "speed": 19407,
    "irection": 2388,
    "Ġmal": 5221,
    "Ġpyramid": 8801,
    "evident": 25520,
    "Ġmajesty": 5201,
    "Ġapples": 22213,
    "hurry": 24763,
    "Ġcultured": 25154,
    "Ġsleepless": 14582,
    "Ġdome": 15588,
    "deficient": 23114,
    "Ġtablets": 13154,
    "Ġpreservation": 24630,
    "Ġtags": 20570,
    "Ġincluded": 8930,
    "Ġdes": 1250,
    "original": 9084,
    "Ġpian": 13916,
    "Ġphysiology": 25332,
    "Ġhearth": 11980,
    "eyes": 5684,
    "rap": 21625,
    "apering": 8040,
    "Ġdimly": 9487,
    "redible": 15802,
    "iability": 20919,
    "Ġwhose": 2008,
    "subject": 6631,
    "Ġdreadful": 4920,
    "Ġwert": 12553,
    "Ġpresum": 4836,
    "Ġbrood": 23097,
    "feels": 22499,
    "wh": 509,
    "Ġavocation": 23950,
    "Ġmilitary": 11258,
    "Ġbourgh": 5069,
    "drink": 10595,
    "Ġexperienced": 6582,
    "Ġnautical": 17385,
    "Ġvulture": 17338,
    "Ġcoarsely": 25828,
    "Ġscenari": 22284,
    "Ġcrav": 19172,
    "Ġ29": 23728,
    "Ġfunere": 22261,
    "feet": 6568,
    "Ġfrequ": 3329,
    "Ġtickets": 17094,
    "Ġhelper": 24023,
    "Ġrail": 7225,
    "Ġtext": 2267,
    "lead": 10165,
    "Ġhemisphere": 26478,
    "aspect": 10193,
    "Ġconsulting": 13428,
    "Ġgroaned": 11266,
    "Ġanswerable": 23469,
    "cused": 15331,
    "Ġsmooth": 2779,
    "warrior": 24798,
    "continuing": 24479,
    "Ġcust": 11581,
    "vert": 15712,
    "Ġcrept": 11022,
    "beh": 5472,
    "Ġtelegram": 15222,
    "Ġcommun": 1705,
    "Ġcovers": 18594,
    "Ġsunwards": 19011,
    "whom": 8184,
    "Ġstren": 15717,
    "Ġsplinters": 15101,
    "Ġsadness": 13284,
    "riv": 3109,
    "Ġvideos": 13605,
    "Ġtreat": 3175,
    "Ġital": 10866,
    "Ġpuzzling": 14897,
    "Ġcompassionate": 24723,
    "Ġrelied": 16193,
    "science": 11907,
    "Ġegg": 8818,
    "Ġirregularity": 25324,
    "rights": 23671,
    "post": 6061,
    "pattern": 4207,
    "Ġevils": 9019,
    "Ġcondescending": 24868,
    "rugged": 6849,
    "Ġsunshine": 14494,
    "Ġadvances": 12984,
    "satisfied": 10578,
    "Ġjon": 15946,
    "ù": 186,
    "between": 5071,
    "otted": 14023,
    "Ġdandy": 17895,
    "silver": 19689,
    "Ġmoody": 8200,
    "Ġenters": 11025,
    "Ġmankind": 6698,
    "Ġcreations": 18684,
    "irth": 5634,
    "Ġbrother": 2750,
    "Ġvertu": 23888,
    "antages": 7192,
    "Ġglued": 20587,
    "pressing": 19015,
    "Ġremoved": 5274,
    "Ġdeem": 18136,
    "Ġamateur": 22482,
    "Ġgrasping": 12163,
    "Ġstage": 7389,
    "Ġsmoothe": 23655,
    "Ġalong": 1979,
    "Ġsetbacks": 11063,
    "Ġsavory": 23873,
    "Ġreceiving": 4882,
    "Ġcrooked": 11281,
    "Ġsed": 10761,
    "Ġafternoon": 6052,
    "Ġcrush": 9421,
    "Ġengagement": 5397,
    "safe": 10053,
    "Ġprophecy": 25706,
    "features": 14804,
    "yt": 17711,
    "Ġsnowy": 9017,
    "Ġlane": 5627,
    "Ġtarpaul": 17730,
    "Ġkeenly": 9484,
    "Ġdragg": 23216,
    "Ġflag": 7242,
    "Ġlower": 2664,
    "Ġarthur": 7196,
    "Ġrepulsive": 14530,
    "each": 7335,
    "Ġslaugh": 18937,
    "guilty": 19481,
    "althy": 8431,
    "Ġfunny": 7638,
    "uth": 3017,
    "Ġget": 1623,
    "Ġsurely": 6307,
    "Ġubiquitous": 26195,
    "Ġballs": 9014,
    "Ġadver": 5641,
    "walked": 10570,
    "Ġtangle": 25760,
    "Ġprettier": 23763,
    "Ġproprietors": 20185,
    "alously": 15626,
    "sum": 2087,
    "Ġentertaining": 16926,
    "Ġintegration": 9867,
    "Ġhappiest": 11880,
    "Ġdrawer": 13264,
    "ined": 1261,
    "Ġdecks": 6900,
    "america": 17097,
    "bres": 11471,
    "Ġantiquity": 15229,
    "Ġexpectantly": 23524,
    "arpening": 21421,
    "Ġantics": 24178,
    "Ġcommended": 18656,
    "Ġtreas": 7358,
    "utions": 1889,
    "solitary": 14505,
    "english": 2775,
    "dies": 15337,
    "Ġtot": 4184,
    "Ġapart": 4745,
    "Ġ72": 19610,
    "Ġreclining": 26033,
    "illuminated": 17452,
    "Ġintolerable": 8481,
    "Ġswearing": 16464,
    "Ġrays": 10330,
    "Ġwheelbarrow": 17204,
    "Ġoutlandish": 12835,
    "Ġsoothing": 8172,
    "Ġsullen": 9157,
    "Ġindiscreet": 22953,
    "press": 1732,
    "ition": 652,
    "Ġaddu": 22099,
    "Ġinserted": 8355,
    "Ġconjure": 17123,
    "Ġnavel": 24576,
    "Ġmad": 2428,
    "Ġlavater": 20494,
    "Ġarbitrary": 4735,
    "omin": 4702,
    "evening": 7089,
    "Ġfamiliarity": 16729,
    "Ġunkindness": 22037,
    "aiian": 23591,
    "Ġoverthrown": 18430,
    "apparently": 15203,
    "dishon": 20402,
    "Ġextracting": 11104,
    "<MASK>": 4,
    "dick": 11479,
    "Ġswaths": 23055,
    "cc": 469,
    "Ġstrike": 4854,
    "condemned": 26060,
    "lott": 6650,
    "alone": 10183,
    "_âĢĶ": 11467,
    "perseus": 26005,
    "Ġhardship": 18913,
    "Ġwondrously": 24061,
    "irt": 3078,
    "Ġfund": 2843,
    "Ġdagger": 21440,
    "ins": 1379,
    "Ġcargo": 16288,
    "mem": 10709,
    "Ġur": 5540,
    "mud": 20970,
    "Ġric": 18209,
    "Ġtranquo": 14842,
    "Ġmob": 16015,
    "Ġparc": 10924,
    "Ġlieutenant": 15260,
    "sicilian": 21062,
    "admon": 21758,
    "asting": 12803,
    "Ġsol": 1101,
    "Ġyou": 366,
    "Ġcorners": 18874,
    "ining": 3219,
    "reclining": 20573,
    "Ġfaint": 5811,
    "Ġperplexed": 23658,
    "arrow": 4178,
    "Ġdestroyer": 13412,
    "omb": 10205,
    "Ġtypewriting": 16419,
    "match": 15389,
    "Ġfrom": 433,
    "corrob": 24485,
    "Ġmusic": 5268,
    "aswag": 21543,
    "Ġthrone": 12211,
    "Ġshocked": 9400,
    "Ġpeterson": 9482,
    "Ġscatter": 18397,
    "00": 1612,
    "bred": 11469,
    "Ġerrone": 14429,
    "Ġbuck": 7157,
    "Ġyellow": 5300,
    "ogrand": 26261,
    "Ġhideousness": 16915,
    "amused": 21849,
    "Ġlandsc": 11146,
    "Ġherein": 16189,
    "Ġflask": 3041,
    "Ġexecut": 4246,
    "Ġcheered": 16370,
    "C": 39,
    "Ġmarch": 4080,
    "Ġhadn": 9718,
    "Ġsemicirc": 16391,
    "Ġpredomin": 16033,
    "rendering": 22348,
    "Ġrecept": 1522,
    "money": 8749,
    "Ġdil": 6383,
    "Ġstraighten": 24001,
    "Ġgrimly": 17052,
    "Ġerect": 6143,
    "Ġgid": 13961,
    "higher": 20405,
    "Ġunseason": 22047,
    "Ġmockery": 12105,
    "Ġprolonged": 8358,
    "Ġcoils": 9302,
    "Ġhyena": 24519,
    "Ġplanet": 14749,
    "Ġwhal": 5454,
    "jack": 7344,
    "appalling": 22846,
    "Ġessential": 7524,
    "Ġretort": 23067,
    "Ġarrow": 10931,
    "avating": 18605,
    "Ġtantalizing": 20412,
    "Ġachieved": 13165,
    "Ġbehaves": 23297,
    "aw": 1449,
    "pleasantness": 19769,
    "rist": 10122,
    "strikes": 24670,
    "Ġsolitude": 6877,
    "Ġext": 881,
    "Ġcash": 9652,
    "Ġfalling": 6915,
    "Ġmicrosc": 20675,
    "Ġmoul": 15541,
    "Ġprophesied": 26062,
    "Ġcomment": 9232,
    "Ġshaft": 18229,
    "Ġvowed": 14083,
    "Ġfireboard": 23532,
    "iminished": 19022,
    "Ġimpossibility": 20646,
    "cific": 10085,
    "view": 5895,
    "owed": 2269,
    "actions": 8906,
    "forever": 22516,
    "Ġscrew": 8867,
    "flag": 14710,
    "Ġrever": 6536,
    "muttered": 13758,
    "Ġweal": 21916,
    "probability": 17022,
    "Ġpip": 1662,
    "fering": 17542,
    "Ġcontextually": 11956,
    "Ġlodger": 24089,
    "Ġpersons": 6180,
    "isis": 12576,
    "Ġderive": 10394,
    "concern": 6099,
    "dil": 11478,
    "Ġinflexibly": 26370,
    "Ġvacancies": 24345,
    "Ġperched": 10299,
    "plague": 21950,
    "Ġconstables": 19072,
    "Ġmisanthrop": 22756,
    "freely": 16854,
    "chase": 11644,
    "Ġtrial": 6634,
    "Ġterrified": 14671,
    "Ġpaintings": 15055,
    "istrate": 7406,
    "Ġsecond": 1891,
    "Ġsandwiched": 26610,
    "Ġplush": 18609,
    "epilogue": 22093,
    "Ġtales": 10141,
    "Ġsy": 490,
    "walton": 20248,
    "õ": 182,
    "Ġar": 482,
    "gin": 4930,
    "Ġdevotees": 25376,
    "thankful": 16806,
    "Ġdevil": 3610,
    "Ġpaste": 23417,
    "Ġscowl": 22282,
    "Ġyoked": 15732,
    "Ġgrosvenor": 17417,
    "whatever": 6694,
    "intended": 11066,
    "shapes": 22459,
    "Ġmabel": 17323,
    "Ġdante": 21441,
    "Ġpurplish": 19140,
    "slight": 10727,
    "breakfast": 8687,
    "consc": 4839,
    "stige": 21658,
    "Ġsisterly": 16301,
    "Ġenderby": 13650,
    "Ġshipwreck": 20444,
    "Ġdeserve": 8308,
    "Ġfragments": 19053,
    "inuating": 16202,
    "Ġvultures": 25653,
    "sk": 5521,
    "ioning": 21506,
    "Ġenric": 21931,
    "xology": 21140,
    "icilian": 20690,
    "p": 84,
    "Ġ43": 14768,
    "bour": 2073,
    "Ġpreyed": 18366,
    "ev": 6952,
    "Ġconsoling": 19455,
    "Ġnetherfield": 3929,
    "Ġwear": 6030,
    "Ġrewarding": 13436,
    "Ġcloudy": 19475,
    "Ġtraced": 10383,
    "Ġadmiration": 5328,
    "Ġoxen": 19949,
    "Ġcontentment": 14869,
    "counter": 20277,
    "independent": 26021,
    "horrible": 14600,
    "chairs": 21690,
    "ock": 15401,
    "diminished": 20838,
    "expectant": 24275,
    "Ġblotting": 25313,
    "Ġmeanest": 12907,
    "Ġlimped": 19180,
    "bel": 3833,
    "Ġdesigns": 13009,
    "Ġhypocr": 19470,
    "myself": 5113,
    "surd": 6934,
    "Ġtorrents": 20054,
    "airing": 16176,
    "ojo": 7349,
    "emin": 8470,
    "asses": 7016,
    "hes": 1401,
    "Ġcop": 7580,
    "Ġunmolested": 15244,
    "Ġhoky": 17926,
    "Ġminut": 2203,
    "ompl": 4535,
    "Ġbreathes": 13244,
    "ante": 11719,
    "Ġ56": 24324,
    "hogs": 20080,
    "Ġdisgrace": 7215,
    "Ġimpregn": 26022,
    "Ġstuck": 9220,
    "ids": 21760,
    "Ġthus": 2037,
    "Ġcommercial": 22671,
    "rum": 3415,
    "Ġhunter": 5401,
    "Ġcoherent": 3262,
    "blo": 6353,
    "Ú": 155,
    "Ġattempting": 14696,
    "Ġtrading": 23073,
    "window": 7742,
    "Ġlamentations": 17076,
    "nantucketer": 24972,
    "Ġfirmament": 19469,
    "Ġconcluded": 5658,
    "Ġcompliments": 8632,
    "Ġsuccessive": 10500,
    "Ġ23": 13189,
    "Ġbalmy": 22900,
    "Ġcomprised": 14267,
    "liked": 10508,
    "pher": 11511,
    "did": 3194,
    "Ġ92": 24590,
    "Ġchaps": 14177,
    "iction": 4269,
    "Ġprivilege": 11419,
    "certainly": 5339,
    "Ġcloudless": 16668,
    "Ġactivity": 7919,
    "Ġpettiness": 24229,
    "Ġhan": 15615,
    "Ġdomin": 10466,
    "band": 3060,
    "Ġpapers": 4018,
    "libr": 22920,
    "Ġgag": 21590,
    "volutions": 16321,
    "ino": 15478,
    "Ġapparition": 8066,
    "Ġmince": 22828,
    "Ġproperty": 6450,
    "Ġassisting": 13256,
    "arent": 4249,
    "Ġeh": 6987,
    "Ġmem": 2070,
    "Ġtablet": 19204,
    "ourably": 14376,
    "Ġwhistled": 24623,
    "Ġdespondency": 16577,
    "Ġmalay": 24391,
    "Ġbarbar": 6935,
    "Ġinverted": 12634,
    "Ġjets": 10287,
    "Ġtempest": 8212,
    "seated": 11671,
    "mists": 17605,
    "Ġwal": 6517,
    "restraint": 18979,
    "Ġunspeakable": 10055,
    "Ġexterior": 19986,
    "motion": 17606,
    "answer": 11733,
    "Ġdiscredit": 22775,
    "Ġman": 544,
    "Ġsister": 1475,
    "Ġsuccess": 3607,
    "urried": 21701,
    "Ġgiving": 4083,
    "Ġbu": 3681,
    "ilburn": 18059,
    "Ġaffording": 14820,
    "Ġkeels": 11061,
    "Ġmicroscopic": 26373,
    "Ġpaltry": 16692,
    "Ġalph": 9694,
    "Ġshrivelled": 19702,
    "Ġchronicled": 25328,
    "Ġalcoves": 26486,
    "Ġamazing": 9976,
    "Ġidol": 7467,
    "Ġdictating": 20151,
    "Ġindividuality": 14908,
    "Ġteased": 18802,
    "wrapped": 15208,
    "Ġseren": 7401,
    "snatched": 24850,
    "Ġinvolved": 8924,
    "Ġacquaint": 13042,
    "year": 11095,
    "uracy": 1025,
    "obvious": 9356,
    "Ġmask": 1864,
    "Ġcompletely": 4860,
    "tale": 10127,
    "Ġadmits": 23553,
    "Ġarrived": 3745,
    "Ġpsych": 10176,
    "Ġyesterday": 5332,
    "resolutions": 26164,
    "rices": 4558,
    "supp": 4159,
    "coiled": 16486,
    "Ġcrocod": 19627,
    "Ġoath": 7833,
    "mingled": 14712,
    "Ġcuring": 21342,
    "Ġscold": 10950,
    "Ġcorrespond": 6209,
    "Ġpassions": 7929,
    "Ġsire": 15500,
    "Ġringbolts": 24196,
    "Ġwo": 3649,
    "clings": 23147,
    "Ġdistance": 3481,
    "Ġinferiority": 17115,
    "Ġboston": 22638,
    "aning": 2252,
    "Ġfrench": 4939,
    "Ġcro": 4873,
    "Ġpitiless": 19386,
    "Ġrosy": 18459,
    "Ġunobserved": 18249,
    "height": 21204,
    "Ġwisest": 11232,
    "Ġcanaller": 25467,
    "ots": 3296,
    "Ġbowsman": 11254,
    "display": 19154,
    "Ġwaned": 17791,
    "thest": 11653,
    "Ġwoody": 23518,
    "Ġdeformed": 14048,
    "Ġtowns": 11173,
    "istol": 6259,
    "Ġsoundings": 13132,
    "Ġpatagonian": 20531,
    "Ġcompletion": 12145,
    "Ġstairs": 5541,
    "Ġbowed": 6242,
    "Ġsle": 2013,
    "Ġmarchant": 14784,
    "irited": 15784,
    "Ġga": 4445,
    "ogany": 18677,
    "Ġtong": 4870,
    "acious": 5562,
    "Ġdistrust": 8204,
    "Ġvolcano": 24145,
    "Ġlabor": 10416,
    "Ġdearer": 14050,
    "are": 639,
    "Ġantiqu": 12142,
    "Ġasked": 2277,
    "brevi": 24071,
    "Ġlungs": 8361,
    "ike": 5000,
    "exciting": 19667,
    "bal": 2154,
    "Ġexpiring": 16096,
    "Ġchronicle": 20227,
    "Ġmichael": 20678,
    "uend": 21100,
    "Ġnorms": 3664,
    "Ġalgorithms": 846,
    "auley": 22621,
    "told": 7811,
    "Ġrepugnance": 19086,
    "sperm": 5203,
    "Ġoppress": 13171,
    "Ġpious": 11597,
    "Ġtok": 1245,
    "Ġexhale": 24402,
    "ee": 1657,
    "hem": 6663,
    "Ġmaster": 3680,
    "Ġslowly": 3615,
    "Ġmoles": 22431,
    "Ġgradual": 20600,
    "vessels": 10625,
    "Ġuninter": 18246,
    "Ġstruggled": 9904,
    "promising": 24726,
    "footsteps": 25199,
    "Ġinfatuated": 20533,
    "nephew": 26397,
    "Ġringed": 16750,
    "Ġemperor": 15157,
    "Ġgentleness": 8709,
    "Ġassu": 21894,
    "Ġsplitting": 4383,
    "running": 6797,
    "bread": 10684,
    "modern": 1199,
    "Ġcucumber": 21354,
    "Ġreproachfully": 25251,
    "fainting": 20471,
    "Ġerecting": 24652,
    "garious": 17558,
    "Ġsumm": 3356,
    "msprop": 2626,
    "bulkington": 19924,
    "Ġricher": 12756,
    "complexion": 14360,
    "he": 264,
    "quar": 7616,
    "Ġexceeded": 14432,
    "seemingly": 25362,
    "Ġconflag": 20334,
    "Ġhun": 1496,
    "Ġcommence": 6167,
    "Ġperch": 10298,
    "oton": 3604,
    "magnifying": 25392,
    "moral": 14800,
    "Ġwaxed": 21296,
    "leaning": 10790,
    "Ġhistories": 14687,
    "Ġtargets": 4202,
    "fel": 8733,
    "Ġconquest": 15745,
    "ribution": 14306,
    "hammer": 14489,
    "Ġexecuted": 9471,
    "Ġperforms": 11875,
    "Ġbuoyed": 20039,
    "Ġundulating": 19516,
    "ra": 314,
    "Ġsprain": 18305,
    "Ġslid": 7951,
    "Ġprinc": 4197,
    "Ġascertained": 25296,
    "ley": 1814,
    "wra": 11541,
    "ignorance": 17161,
    "Ġbacking": 16110,
    "87": 20756,
    "Ġseparately": 13301,
    "Ġdespondence": 25869,
    "Ġbr": 1072,
    "ess": 413,
    "Ġreaped": 18029,
    "insult": 16278,
    "Ġdefici": 22940,
    "Ġlav": 13949,
    "Ġvehicles": 10659,
    "cially": 3487,
    "Ġbutler": 18270,
    "ult": 722,
    "Ġcronies": 23441,
    "Ġofficially": 24838,
    "prof": 7471,
    "Ġhave": 445,
    "syntax": 5867,
    "Ġstim": 18063,
    "Ġtongue": 6347,
    "star": 12669,
    "plings": 11693,
    "Ġ94": 17717,
    "Ġexe": 3992,
    "ech": 4389,
    "Ġarsacidean": 20363,
    "Ġconsult": 6056,
    "Ġdiverged": 23593,
    "Ġbreathlessly": 24280,
    "execut": 13654,
    "moby": 8536,
    "sight": 5994,
    "Ġroy": 4227,
    "entirely": 7781,
    "Ġpreternatural": 12820,
    "sharpening": 22461,
    "Ġslily": 23159,
    "Ġformless": 22825,
    "Ġbrandy": 11049,
    "vint": 21113,
    "Ġvirtue": 4922,
    "ureau": 10226,
    "Ġse": 402,
    "Ġlogits": 3449,
    "Ġfarmhouse": 24984,
    "histicated": 20900,
    "oices": 7348,
    "together": 3553,
    "ody": 1480,
    "c": 71,
    "itage": 17816,
    "steel": 8297,
    "Ġacquirement": 19254,
    "rice": 13776,
    "Ġslouched": 13056,
    "ogra": 4572,
    "tashtego": 9622,
    "Ġaccordingly": 6619,
    "alcul": 15625,
    "guard": 12126,
    "Ġgeorgia": 23883,
    "Ġcruel": 5121,
    "Ġstarry": 16923,
    "Ġunparalleled": 15851,
    "Ġshamefully": 24716,
    "Ġscot": 5643,
    "Ġfervently": 25877,
    "fav": 6646,
    "plunging": 25987,
    "Ġinstructions": 11195,
    "Ġducking": 17146,
    "windlass": 16721,
    "impenetrable": 26196,
    "!--": 10677,
    "threatened": 25462,
    "Ġwrithed": 17106,
    "Ġ93": 24591,
    "Ġinvoked": 19144,
    "sentiment": 12911,
    "Ġkill": 4453,
    "Ġchap": 5933,
    "Ġcatastrophic": 3538,
    "marks": 7346,
    "Ġdistension": 22502,
    "Ġcomputes": 4767,
    "Ġasiatics": 20429,
    "neighbourhood": 10024,
    "Ġwarring": 16865,
    "abound": 15737,
    "Ġbordeaux": 24564,
    "axed": 8888,
    "Ġperempt": 13672,
    "flinging": 20867,
    "Ġk": 485,
    "Ġiteratively": 3059,
    "employed": 17261,
    "enstein": 5799,
    "Ġnuptial": 25782,
    "--âĢĺ": 22849,
    "Ġunsav": 18251,
    "Ġproportional": 2525,
    "Ġmaj": 3925,
    "Ġsorting": 3233,
    "culiarity": 11142,
    "somewhere": 12011,
    "Ġblu": 2689,
    "Ġglen": 18851,
    "estim": 14169,
    "Ġtransp": 4769,
    "Ġnuptials": 20492,
    "seals": 21815,
    "Ġaccurate": 13253,
    "Ġcommunicate": 10577,
    "asht": 4082,
    "endured": 22224,
    "swept": 19785,
    "olets": 21007,
    "Ġmarsh": 9820,
    "Ġtotal": 4993,
    "Ġpicturesque": 14893,
    "property": 19998,
    "Ġcorpora": 26580,
    "abouts": 9452,
    "Ġrecorded": 11293,
    "Ġoverwhelmed": 11403,
    "ighbour": 3388,
    "Ġmutilated": 23956,
    "Ġherds": 9715,
    "Ġcomes": 3423,
    "Ġhinting": 19648,
    "Ġsince": 1795,
    "Ġpull": 5152,
    "definition": 23115,
    "Ġtasks": 1788,
    "cture": 15662,
    "meditated": 19069,
    "Ġshaped": 15832,
    "epend": 3316,
    "itig": 1332,
    ".--": 20745,
    "Ġas": 374,
    "stun": 18018,
    "irably": 13294,
    "Ġpointed": 4772,
    "shott": 11792,
    "Ġsigns": 2443,
    "Ġdemand": 4947,
    "egyptians": 25898,
    "appl": 9325,
    "enari": 21280,
    "Ġ/*": 10139,
    "Ġluxury": 20130,
    "Ġnearest": 8469,
    "addressed": 13384,
    "Ġcomplied": 14733,
    "Ġsmiles": 6706,
    "Ġhelm": 5275,
    "rusion": 11323,
    "Ġdepended": 9776,
    "mare": 17599,
    "Ġacquisition": 18899,
    "Ġyon": 9692,
    "Ġshutters": 9936,
    "inte": 5144,
    "Ġincidents": 9298,
    "madness": 14881,
    "philosop": 9567,
    "Ġslope": 14459,
    "Ġdropped": 4471,
    "Ġreplenished": 13635,
    "Ġplayfulness": 23636,
    "Ġdominic": 25381,
    "Ġtinged": 20081,
    "forehead": 8515,
    "need": 10979,
    "Ġbreeding": 14522,
    "mer": 2833,
    "flutter": 23968,
    "err": 1142,
    "yourselves": 24956,
    "Ġthrough": 603,
    "Ġgown": 10201,
    "married": 9948,
    "Ġhangs": 11605,
    "Ġreef": 10849,
    "Ġinflicted": 11365,
    "erland": 9640,
    "Ġmanip": 8871,
    "Ġfeast": 10277,
    "Ġcracks": 12018,
    "Ġbuoy": 8003,
    "Ġbewil": 11656,
    "Ġcedars": 20291,
    "Ġcomputer": 1184,
    "Ġmuttering": 10499,
    "Ġworshippers": 25693,
    "Ġconveyed": 8334,
    "bedroom": 14676,
    "Ġjavel": 17084,
    "itance": 13867,
    "Ġnav": 5818,
    "Ġdedication": 3289,
    "Ġframework": 2094,
    "Ġinquis": 19302,
    "Ġsymmetrical": 20365,
    "elzebub": 26464,
    "warm": 8101,
    "Ġannihilated": 20251,
    "ssed": 3733,
    "contracting": 19292,
    "Ġtwink": 8215,
    "Ġwee": 21915,
    "Ġancho": 15600,
    "master": 5687,
    "Ġattends": 19649,
    "man": 1055,
    "much": 3704,
    "Ġeighteenth": 14753,
    "ness": 854,
    "Ġnavigation": 9992,
    "Ġuniversally": 11998,
    "snowy": 20282,
    "Ġlists": 11166,
    "Ġmach": 13856,
    "Ġdestination": 19149,
    "Ġevenings": 18753,
    "Ġpractises": 23317,
    "Ġdoomed": 11342,
    "Ġperpetual": 12301,
    "Ġdeactivates": 20702,
    "pool": 16207,
    "Ġdivineness": 25724,
    "Ġsteward": 6584,
    "Ġutterance": 14762,
    "Ġpol": 2576,
    "Ġmur": 2490,
    "Ġhatred": 8608,
    "Ġcall": 2075,
    "Ġdupl": 9953,
    "Ġnewfoundland": 26569,
    "Ġentra": 18695,
    "acting": 22628,
    "Ġupbraid": 18318,
    "Ġcountrymen": 23594,
    "zz": 4293,
    "Ġtransparen": 10541,
    "Ġrasc": 21971,
    "Ġxxxvi": 24969,
    "Ġpaint": 7707,
    "ty": 1001,
    "Ġbal": 1133,
    "av": 739,
    "reproach": 15185,
    "Ġtakes": 5007,
    "Ġdistur": 5312,
    "Ġservants": 6610,
    "Ġceti": 24773,
    "Ġproportion": 7281,
    "Ġvolcanoes": 24144,
    "queen": 12724,
    "Ġprofession": 6207,
    "Ġsim": 732,
    "Ġfrigid": 17352,
    "Ġsubsided": 14550,
    "arrangement": 17414,
    "Ġlearnt": 7612,
    "Ġslam": 13055,
    "Ġproducing": 11897,
    "Ġgold": 3279,
    "Ġconfiding": 19034,
    "Ġflatter": 9347,
    "Ġjustify": 11072,
    "twist": 23697,
    "indifferent": 14211,
    "Ġpoignant": 22590,
    "alvan": 21501,
    "Ġanticip": 7508,
    "ĳ": 244,
    "Ġequival": 4783,
    "itating": 9650,
    "Ġgraves": 11706,
    "Ġwhaleboats": 18479,
    "Ġpossesses": 19350,
    "Ġbriefly": 11367,
    "Ġsiam": 13837,
    "evenings": 19461,
    "Ġbask": 8116,
    "Ġbackbone": 22645,
    "abular": 4761,
    "frock": 20119,
    "Ġsworn": 14434,
    "Ġdoings": 18375,
    "etrics": 21582,
    "Ġlingered": 13504,
    "Ġaccursed": 9450,
    "waistcoat": 17360,
    "geneva": 13729,
    "elopement": 23195,
    "Ġresemblance": 7973,
    "sail": 3600,
    "Ġroyal": 5602,
    "gled": 10699,
    "indispensable": 14212,
    "water": 4868,
    "nest": 10113,
    "inting": 9813,
    "asing": 5911,
    "Ġfollowing": 4061,
    "prehend": 14242,
    "Ġpivot": 13922,
    "Ġmine": 3178,
    "Ġassistants": 9451,
    "71": 20755,
    "invisible": 17740,
    "ca": 20792,
    "ologies": 18784,
    "Ġrascal": 11698,
    "Ġsherlock": 3891,
    "Ġsmo": 2703,
    "Ġsilently": 6895,
    "mur": 5428,
    "isson": 23460,
    "alth": 3255,
    "Ġempt": 5051,
    "Ġdere": 21832,
    "arson": 22746,
    "Ġrecover": 9791,
    "Ġfobbing": 26441,
    "Ġissu": 6253,
    "whiteness": 18370,
    "Ġsovereign": 10061,
    "Ġblock": 2575,
    "octial": 20003,
    "isol": 17846,
    "itting": 1152,
    "Ġlustrous": 20155,
    "ink": 758,
    "Ġdozen": 8185,
    "ister": 1295,
    "Ġindic": 2885,
    "Ġtore": 6530,
    "hunting": 24385,
    "covery": 11171,
    "Ġabhor": 5467,
    "lengths": 24846,
    "Ġbought": 8415,
    "Ġwalls": 6762,
    "Ġtransactions": 18487,
    "eagerly": 17315,
    "Ġstruggle": 3674,
    "Ġdummy": 25449,
    "ial": 410,
    "Ġrelent": 18773,
    "Ġwidower": 24235,
    "Ġmichigan": 26427,
    "Ġhisself": 21911,
    "started": 10845,
    "Ġsake": 4090,
    "Ġfingertips": 24014,
    "Ġhermit": 15855,
    "Ġcured": 21345,
    "Ġminiature": 11040,
    "Ġgrampus": 21990,
    "Ġdepl": 14045,
    "clo": 5613,
    "iver": 2049,
    "Ġderick": 9364,
    "cano": 18838,
    "Ġlordly": 23742,
    "Ġgames": 11625,
    "Ġserved": 8245,
    "Ġextending": 11021,
    "Ġsymb": 2590,
    "oid": 3126,
    "Ġparsee": 6413,
    "sold": 15425,
    "rogress": 21533,
    "Ġbacked": 12921,
    "ĠĠĠĠ": 460,
    "Ġconsecrate": 26489,
    "Ġcollateral": 20070,
    "Ġamaz": 5385,
    "Ġ182": 13235,
    "affording": 23775,
    "Ġblinding": 14727,
    "Ġsubject": 2464,
    "Ġhurt": 7700,
    "rule": 15892,
    "Ġap": 5008,
    "Ġthemselves": 3251,
    "floating": 12225,
    "Ġbree": 5012,
    "otherwise": 7671,
    "Ġunconcerned": 20508,
    "Ġimmaculate": 19484,
    "doubtless": 17002,
    "gd": 3124,
    "Ġenergies": 25459,
    "Ġconcussion": 26300,
    "Ġhues": 21486,
    "Ġphysiognomical": 25611,
    "abond": 15738,
    "Ġproposal": 10018,
    "desk": 23205,
    "Ġblasted": 7937,
    "antee": 22095,
    "Ġconstrain": 2630,
    "Ġpaused": 5416,
    "opinion": 10984,
    "widows": 25344,
    "Ġcreditors": 20128,
    "judged": 14830,
    "cle": 3954,
    "romed": 10905,
    "Ġsweeping": 8985,
    "countryman": 24639,
    "Ġecc": 11627,
    "Ġadversity": 24303,
    "Ġswam": 6448,
    "frequently": 9978,
    "Ġradney": 6775,
    "Ġbidding": 9536,
    "Ġtrait": 23071,
    "Ġrecognition": 3026,
    "increasing": 20268,
    "Ġlucky": 7758,
    "Ġfejee": 18353,
    "Ġdeeps": 16115,
    "batross": 9092,
    "Ġcarbuncle": 14444,
    "ushes": 22288,
    "Ġunman": 12771,
    "Ġauthent": 14516,
    "harpooneers": 8689,
    "advent": 10220,
    "Ġbeasts": 10617,
    "Ġmurderers": 16811,
    "Ġrevelation": 25222,
    "Ġcapering": 21352,
    "bill": 10075,
    "merry": 16536,
    "Ġworkflow": 2468,
    "murder": 10564,
    "Ġevince": 24293,
    "Ġsitting": 3602,
    "Ġinquiries": 5678,
    "Ġcrutch": 23445,
    "Ġfestival": 25445,
    "Ġexperiments": 23015,
    "Ġsloop": 25930,
    "Ġjetted": 24431,
    "stript": 21654,
    "action": 3725,
    "gentlemanlike": 20000,
    "Ġfurious": 10354,
    "inkled": 5477,
    "Ġpoor": 1708,
    "Ġgreece": 17070,
    "shavings": 22460,
    "Ġbig": 5805,
    "Ġredundant": 16551,
    "Ġslacked": 25188,
    "moon": 10335,
    "Ġmagnet": 10389,
    "Ġseizing": 7878,
    "exped": 16524,
    "Ġepicurean": 20554,
    "Ġwhelm": 25998,
    "many": 5249,
    "industrious": 26239,
    "Ġdownstairs": 11224,
    "Ġassault": 9836,
    "stating": 21644,
    "Ġfable": 15574,
    "const": 5938,
    "Ġencouragement": 13040,
    "Ġexpose": 10327,
    "Ġskirt": 18727,
    "spring": 7230,
    "Ġdamp": 8263,
    "Ġsinew": 25431,
    "Ġdoesn": 7438,
    "Ġinspirited": 23419,
    "Ġgrievous": 13259,
    "Ġcr": 2150,
    "course": 6104,
    "mology": 12489,
    "Ġsubur": 12953,
    "Ġreceptive": 1566,
    "Ġland": 1997,
    "Ġembarrassed": 11384,
    "isance": 17847,
    "Ġinconvenient": 20008,
    "rely": 6123,
    "^": 66,
    "fatig": 17089,
    "Ġunpitying": 25660,
    "Ġtoilette": 20491,
    "Ġsavoury": 23874,
    "unwillingness": 25802,
    "Ġdevote": 10341,
    "Ġgrimesby": 11457,
    "Ġindelicacy": 25695,
    "Ġilliterate": 26594,
    "Ġlearnedly": 23384,
    "bert": 4661,
    "177": 20751,
    "resent": 10769,
    "chie": 21687,
    "Ġlocket": 22110,
    "remaining": 20219,
    "scent": 13018,
    "stat": 21641,
    "Ġanointing": 25539,
    "Ġhabitations": 24789,
    "Ġfrantically": 23256,
    "eches": 8077,
    "ĩ": 234,
    "silent": 9973,
    "necessities": 24306,
    "Ġdoubloons": 13433,
    "son": 2328,
    "asional": 17959,
    "mouse": 15391,
    "girls": 12317,
    ":--âĢľ": 24550,
    "shape": 10983,
    "Ġproposition": 23247,
    "atic": 4014,
    "Ġjustinian": 22964,
    "cont": 2919,
    "separated": 20158,
    "ornamented": 26595,
    "Ġlink": 8129,
    "esting": 7412,
    "Ġears": 4490,
    "reduc": 5459,
    "Ġbeen": 627,
    "Ġ21": 11199,
    "Ġpiercing": 13493,
    "Ġoutriders": 26543,
    "ography": 13361,
    "Ġintervene": 25480,
    "Ġimply": 18444,
    "daugh": 6788,
    "Ġdeliber": 7268,
    "python": 4691,
    "watches": 14946,
    "Ġwarrant": 17794,
    "Ġrans": 21963,
    "Ġlawless": 19433,
    "houn": 20892,
    "Ġembarr": 7446,
    "bly": 6110,
    "B": 38,
    "<": 32,
    "Ġmingled": 12375,
    "enes": 5218,
    "Ġplaited": 14282,
    "Ġcourtesy": 9944,
    "deformity": 22121,
    "ities": 1825,
    "Ġidolator": 19996,
    "Ġincisive": 18570,
    "month": 6463,
    "Ġdub": 13909,
    "Ġsolitudes": 22881,
    "Ġand": 295,
    "ertion": 12037,
    "Ġuncomp": 15839,
    "look": 2260,
    "Ġmuslin": 19381,
    "ulty": 22564,
    "shipping": 10307,
    "Ġspine": 7407,
    "Ġeast": 5370,
    "lin": 9603,
    "pure": 17626,
    "Ġ19": 6719,
    "Ġcam": 10161,
    "Ġ235": 25713,
    "helpless": 16790,
    "Ġrelinqu": 12980,
    "Ġidiotic": 25588,
    "Ġintruder": 25991,
    "oker": 10963,
    "Ġpace": 9182,
    "Ġclinging": 10290,
    "ops": 5246,
    "fiery": 13580,
    "Ġhopeful": 19029,
    "Ġunceasingly": 20357,
    "uesday": 8587,
    "doctor": 19095,
    "Ġpill": 7845,
    "Ġintrig": 21987,
    "owl": 12680,
    "Ġcleans": 18947,
    "Ġmasked": 3693,
    "Ġagreeably": 24952,
    "secut": 7866,
    "waist": 13417,
    "clothes": 9057,
    "Ġplied": 22594,
    "Ġranges": 2881,
    "Ġmeadows": 11422,
    "peleg": 16292,
    "Ġgrop": 12661,
    "Ġfirmness": 11237,
    "Ġderision": 16308,
    "Ġdisd": 7030,
    "elfth": 22369,
    "Ġtwist": 11849,
    "iage": 17573,
    "icip": 6389,
    "Ġspeckled": 14308,
    "pur": 7806,
    "Ġspaniards": 25558,
    "Ġimmortality": 26325,
    "Ġvelocity": 10620,
    "Ġutil": 4671,
    "avings": 12021,
    "bered": 4504,
    "Ġcele": 9899,
    "Ġclam": 7416,
    "impressed": 12688,
    "ets": 1162,
    "ousand": 2431,
    "Ġinstituted": 18697,
    "oro": 21393,
    "Ġwiser": 14729,
    "Ġmoby": 3663,
    "bushes": 24447,
    "false": 15353,
    "gunwale": 20662,
    "Ġnoting": 18221,
    "Ġ85": 24460,
    "Ġbump": 9659,
    "Ġlizzie": 26462,
    "berg": 11856,
    "Ġmaddening": 17243,
    "Ġunsocial": 18256,
    "antucket": 2645,
    "Ġxxi": 24476,
    "Ġlinguistic": 12423,
    "Ġdis": 695,
    "Ġfruitless": 25605,
    "fs": 17535,
    "getic": 12963,
    "Ġelementary": 24814,
    "pow": 10717,
    "Ġappeals": 16315,
    "lying": 7174,
    "Ġoverl": 18427,
    "ram": 13971,
    "Ġshaved": 21999,
    "Ġadvertised": 17247,
    "Ġsky": 3968,
    "Ġheroism": 24544,
    "Ġwield": 21289,
    "Ġpredef": 18514,
    "careful": 14865,
    "oman": 2018,
    "esu": 17918,
    "Ġcuriosities": 26289,
    "Ġtantamount": 25625,
    "lights": 13202,
    "degrees": 22125,
    "Ġadaptation": 3155,
    "vac": 15449,
    "Ġwithdrawing": 11340,
    "Ġpencils": 23193,
    "Ġsaturday": 6452,
    "asible": 21539,
    "Ġantagonist": 26328,
    "Ġsleeve": 20139,
    "trained": 4238,
    "Ġhooped": 23353,
    "Ġscener": 10949,
    "Ġallurements": 22004,
    "Ġlunch": 13525,
    "Ġconce": 3422,
    "ceiving": 3900,
    "Ġcased": 21344,
    "Ġc": 277,
    "Ġannum": 24203,
    "Ġcrucial": 9891,
    "Ġabhorrent": 16856,
    "Ġsermons": 20193,
    "Ġwildly": 9413,
    "Ġtwitched": 20442,
    "recol": 10150,
    "income": 15485,
    "Ġhogshead": 26367,
    "wid": 10134,
    "inisc": 15487,
    "endless": 22223,
    "appear": 13195,
    "fall": 5135,
    "Ġjustified": 11902,
    "!_âĢĿ": 11376,
    "fail": 17540,
    "Ġreeled": 13985,
    "Ġindulged": 13416,
    "Ġchilly": 25562,
    "Ġhumanity": 6731,
    "has": 4010,
    "Ġcreases": 22722,
    "accursed": 20539,
    "Ġtint": 13816,
    "uberance": 25916,
    "gird": 20878,
    "handkerchief": 14617,
    "glorious": 19365,
    "Ġser": 1669,
    "meant": 7920,
    "Ġdirty": 9179,
    "Ġhus": 3093,
    "Ġtransl": 2830,
    "Ġmum": 13857,
    "Ġdesignated": 19520,
    "Ġrivals": 20270,
    "waving": 21130,
    "wr": 3029,
    "Ġroads": 13286,
    "Ġassures": 14464,
    "ampled": 18882,
    "ildad": 3528,
    "Ġassure": 4418,
    "Ġtortured": 14923,
    "anoke": 21359,
    "G": 43,
    "Ġwhat": 599,
    "ov": 15399,
    "Ġform": 1026,
    "Ġancestry": 25641,
    "Ġpeaks": 16126,
    "Ġdisk": 22519,
    "of": 768,
    "Ġpromote": 23187,
    "Ġcoffins": 13248,
    "Ġho": 1933,
    "Ġvexations": 24609,
    "ument": 5239,
    "hatches": 19927,
    "ĠĠĠ": 2115,
    "Ġdr": 2824,
    "._]]": 5334,
    "Ġimages": 1601,
    "pike": 11514,
    "msman": 9269,
    "osity": 14185,
    "steelkilt": 10046,
    "Ġpatagonia": 25855,
    "Ġmended": 21312,
    "zing": 7820,
    "Ġclanking": 20610,
    "Ġswitzerland": 10379,
    "Ġindication": 22949,
    "posterity": 25488,
    "ode": 1454,
    "cket": 3686,
    "sne": 10124,
    "end": 502,
    "Ġconverts": 2806,
    "Ġpractically": 13098,
    "ython": 1032,
    "Ġinert": 15619,
    "Ġcasualty": 20340,
    "opposite": 19928,
    "Ġdru": 8421,
    "acles": 8519,
    "Ġpowder": 11275,
    "Ġthose": 1174,
    "Ġledge": 19399,
    "plans": 21949,
    "queens": 22902,
    "Ġgentle": 1890,
    "Ġpor": 5225,
    "Ġ98": 24593,
    "Ġbenches": 18779,
    "Ġcrash": 12000,
    "Ġforg": 3786,
    "activity": 22629,
    "Ġreturned": 2889,
    "Ġilluminated": 20174,
    "wondrous": 12336,
    "urp": 1473,
    "Ġcastaways": 19426,
    "rarely": 21631,
    "circled": 24187,
    "Ġcirclings": 26431,
    "Ġfruit": 12324,
    "opÃ¦": 12869,
    "Ġmitig": 1338,
    "again": 3399,
    "Ġinanimate": 13932,
    "blow": 9103,
    "Ġauto": 23330,
    "Ġrisen": 9492,
    "Ġfeat": 10937,
    "Ġmaledictions": 26428,
    "iment": 2816,
    "Ġcyl": 15554,
    "Ġimprovements": 14519,
    "Ġviciss": 11292,
    "Ġlicence": 25096,
    "Ġstocks": 23171,
    "rippa": 11341,
    "swim": 16779,
    "Ġcream": 22720,
    "Ġrelevance": 5184,
    "Ġprince": 18972,
    "Ġsanta": 26420,
    "Ġarchitect": 1013,
    "Ġsalt": 8016,
    "anyth": 5438,
    "thee": 9689,
    "Ġinsignific": 13179,
    "Ġtunes": 24619,
    "rous": 3751,
    "Ġlitter": 19828,
    "Ġcool": 5734,
    "Ġfishers": 19352,
    "Ġpossession": 5589,
    "Ġstandard": 14497,
    "ator": 1924,
    "Ġstructured": 2971,
    "od": 351,
    "humoured": 11236,
    "ons": 709,
    "sugg": 11837,
    "reve": 12536,
    "Ġadvantage": 4316,
    "Ġamel": 18509,
    "Ġcorrect": 2433,
    "Ġbellies": 13354,
    "fuller": 22483,
    "readily": 19360,
    "Ġmedic": 11246,
    "Ġspread": 5161,
    "Ġintrude": 25990,
    "Ġgranted": 22805,
    "Ġtremble": 6906,
    "Ġphilosop": 5057,
    "Ġemptied": 24347,
    "icate": 9201,
    "Ġfoss": 9848,
    "ĠĠĠĠĠĠĠĠĠĠĠĠĠĠĠĠĠĠĠ": 22947,
    "Ġ111": 24436,
    "Ġspermacetti": 19047,
    "Ġ87": 19709,
    "Ġinequal": 21494,
    "province": 26072,
    "ose": 718,
    "remarked": 12286,
    "Ġunaccountable": 7886,
    "Ġnorton": 12646,
    "retaining": 21244,
    "Ġshovel": 23489,
    "ater": 3370,
    "ckery": 22087,
    "Ġdisinterested": 16055,
    "Ġcritic": 19124,
    "seen": 2879,
    "rah": 8136,
    "conversations": 24749,
    "Ġsor": 4143,
    "Ġgather": 6534,
    "neying": 22446,
    "irons": 10238,
    "dipped": 20836,
    "Ê": 139,
    "eded": 9673,
    "Ġwalking": 4325,
    "algorithms": 8298,
    "commencement": 26347,
    "Ġbows": 4081,
    "Ġboyhood": 23753,
    "Ġground": 2846,
    "Ġlargest": 6282,
    "Ġmillion": 14986,
    "eness": 2290,
    "Ġinherent": 4590,
    "Ġspasmodic": 20396,
    "Ġcomparatively": 9489,
    "Ġmimic": 3142,
    "Ġ103": 24411,
    "Ġpersonally": 8599,
    "Ġclad": 12836,
    "Ġtopic": 9405,
    "Ġsneeze": 24699,
    "Ġintend": 12761,
    "uated": 10131,
    "batch": 1983,
    "Ġnews": 3817,
    "bull": 13689,
    "Ġmeant": 3546,
    "iv": 430,
    "Ġcognitive": 13633,
    "Ġvict": 3761,
    "Ġwarsaw": 26167,
    "oried": 10802,
    "Ġtendinous": 16931,
    "Ġdrawn": 4276,
    "Ġhumility": 12982,
    "manned": 18761,
    "ascertain": 21540,
    "Ġstake": 14002,
    "hearted": 6970,
    "Ġeu": 6390,
    "popular": 26140,
    "sales": 17667,
    "nor": 2743,
    "Ġmonosyllable": 20725,
    "Ġbuckskin": 19950,
    "Ġpistol": 7846,
    "Ġassign": 11110,
    "Ġkinds": 14504,
    "Ġirresistible": 13111,
    "solemn": 19816,
    "imod": 15707,
    "Ġvac": 5025,
    "Ġdiligently": 11405,
    "Ġsolic": 7933,
    "Ġabandonment": 25603,
    "Ġinstability": 3811,
    "Ġrisks": 9963,
    "big": 13684,
    "Ġreliably": 22875,
    "Ġunhinged": 26216,
    "Ġpetersburgh": 24228,
    "Ġisa": 14024,
    "pictures": 15089,
    "Ġbred": 9169,
    "Ġwr": 1546,
    "inching": 21188,
    "Ġinfer": 7684,
    "dream": 8727,
    "Ġdomes": 23703,
    "Ġshivering": 10265,
    "falling": 24361,
    "Ġjew": 9467,
    "tr": 3577,
    "incredible": 16498,
    "ake": 749,
    "Ġshillings": 15833,
    "Ġsample": 3177,
    "Ġcommunicating": 16889,
    "copyright": 5277,
    "ace": 716,
    "susp": 10596,
    "looks": 12016,
    "Ġdiscipline": 26561,
    "strangely": 17276,
    "Ġsketch": 16162,
    "you": 1004,
    "Ġvolley": 24143,
    "Ġpagoda": 19787,
    "doms": 20834,
    "Ġvalleys": 14918,
    "arab": 21419,
    "foreseen": 14253,
    "vocation": 25084,
    "Ġdiscove": 16151,
    "Ġcompute": 2904,
    "www": 17251,
    "Ġuncles": 23429,
    "Ġgriev": 16634,
    "Ġprocesses": 3631,
    "Ġabundantly": 17156,
    "Ġphiladel": 23882,
    "mency": 18925,
    "eaten": 20343,
    "Ġskylarking": 19485,
    "ractions": 11632,
    "Ġboth": 1653,
    "ounted": 5030,
    "Ġprime": 10404,
    "Ġdomain": 3642,
    "Ġalan": 10869,
    "ire": 492,
    "rel": 3753,
    "Ġhall": 4182,
    "Ġimpertin": 6933,
    "ayed": 12709,
    "Ġsuperlatively": 26075,
    "Ġreser": 5170,
    ")âĢĶâĢľ": 20742,
    "Ġmorphology": 3009,
    "bur": 4686,
    "Ġsimulates": 2741,
    "Ġfeasts": 25369,
    "justice": 7957,
    "Ġfierce": 7437,
    "Ġlowering": 7986,
    "Ġcouch": 12568,
    "commend": 19991,
    "Ġfurlong": 18739,
    "Ġcertainly": 2498,
    "Ġowe": 8114,
    "Ġstanzas": 21741,
    "acute": 22592,
    "give": 4688,
    "Ġelephants": 9863,
    "Ġcobb": 14271,
    "Ġmud": 11572,
    "requirements": 24857,
    "urn": 777,
    "ources": 2790,
    "Ġredu": 1357,
    "feelings": 5674,
    "tured": 13794,
    "close": 9985,
    "lines": 6959,
    "Ġfools": 14481,
    "Ġcirculation": 16415,
    "Ġheeded": 13402,
    "Ġevening": 2653,
    "fters": 20860,
    "hereabouts": 23605,
    "Ġslips": 23161,
    "Ġboasted": 16104,
    "Ġaud": 6661,
    "Ġmagn": 1558,
    "orand": 21395,
    "omeness": 18015,
    "ry": 806,
    "soft": 12507,
    "given": 8376,
    "Ġautomation": 13289,
    "Ġconducted": 10502,
    "Ġtraveller": 8048,
    "Ġblank": 5950,
    "anx": 8783,
    "control": 16542,
    "Ġcorrid": 9823,
    "Ġtrad": 9828,
    "Ġrelates": 12978,
    "Ġpossibilities": 18976,
    "Ġunimpeachable": 26522,
    "lets": 7836,
    "mured": 6960,
    "spiracle": 22732,
    "er": 269,
    "Ġtranquill": 6630,
    "Ġdefence": 11067,
    "Ġprivileged": 20111,
    "Ġvault": 8840,
    "lesome": 12962,
    "Ġscott": 22278,
    "former": 11746,
    "Ġillustrious": 17109,
    "Ġriggers": 24154,
    "Ġsmelling": 16064,
    "Ġplacing": 8900,
    "sink": 11521,
    "amb": 5723,
    "Ġdivinest": 25722,
    "Ġhobbling": 25644,
    "idered": 4552,
    "Ġdawn": 6816,
    "particular": 5757,
    "Ġcommons": 22669,
    "etence": 21574,
    "portuguese": 25413,
    "despair": 8343,
    "ercial": 21273,
    "Ġunflinching": 26512,
    "Ġmagic": 8232,
    "ribbed": 16411,
    "own": 745,
    "engagement": 14457,
    "Ġproving": 15752,
    "feeling": 6616,
    "Ġmortification": 12091,
    "entreaties": 26185,
    "Ġastonishing": 10501,
    "Ġapp": 496,
    "ura": 997,
    "Ġperformed": 8546,
    "Ġgrief": 4619,
    "âĢĿâĢĶ": 5721,
    "Ġmanage": 7641,
    "Ġinsp": 2101,
    "Ġdav": 15589,
    "oors": 17620,
    "Ġrest": 1781,
    "finally": 9498,
    "Ġwholesome": 16003,
    "ased": 1268,
    "august": 11071,
    "Ġdamning": 19139,
    "Ġstory": 2900,
    "Ġelimin": 16105,
    "Ġempty": 5353,
    "beries": 22717,
    "Ġcracking": 14574,
    "same": 5361,
    "Ġgratefully": 20443,
    "aternity": 21264,
    "Ġclap": 10955,
    "Ġcondescension": 10618,
    "prairies": 20565,
    "Ġragged": 11844,
    "pervading": 18954,
    "Ġwife": 2586,
    "Ġarches": 14162,
    "Ġready": 3398,
    "Ġvisage": 18765,
    "anous": 21357,
    "Ġforger": 15730,
    "Ġplays": 12035,
    "Ġsquat": 14367,
    "Ġfron": 14487,
    "Ġnile": 21518,
    "fatality": 25019,
    "Ġgleaming": 24993,
    "Ġcautiousness": 19865,
    "Ġcrows": 24028,
    "mouth": 9130,
    "Ġspouter": 12797,
    "Ġincognit": 22551,
    "Ġlabeled": 3716,
    "shoulders": 16584,
    "wish": 8099,
    "Ġvivid": 8057,
    "Ġupbra": 22151,
    "Ġcommit": 18655,
    "purposes": 25021,
    "aples": 20767,
    "piteous": 21032,
    "Ġentr": 14338,
    "otam": 21795,
    "Ġbenefited": 19396,
    "Ġflights": 24753,
    "Ġrecollections": 10512,
    "._": 3218,
    "tha": 15821,
    "Ġelopement": 10329,
    "Ġcoleridge": 18764,
    "Ġhimself": 1355,
    "Ġfacility": 19849,
    "Ġoptim": 782,
    "Ġsecretly": 13269,
    "«": 109,
    "Ġparad": 2842,
    "as": 302,
    "Ġassurance": 7774,
    "Ġlimping": 23545,
    "Ġthreading": 23400,
    "ives": 1410,
    "tiness": 21070,
    "Ġcats": 8979,
    "Ġeddystone": 25709,
    "hr": 20887,
    "Ġsetting": 7046,
    "Ġdong": 17890,
    "accur": 14593,
    "crier": 20819,
    "Ġsweetly": 23916,
    "itted": 2442,
    "Ġpartner": 6714,
    "mayhew": 23989,
    "bringing": 17166,
    "Ġprelimin": 8860,
    "enormous": 26166,
    "Ġimportant": 1112,
    "Ġfaces": 6008,
    "Ġleagues": 9223,
    "Ġunique": 12775,
    "england": 18928,
    "Ġinstantly": 3589,
    "arms": 10172,
    "Ġell": 17715,
    "Ġdrop": 4345,
    "Ġfoiled": 23242,
    "Ġcontact": 9280,
    "Ġpiqu": 21474,
    "Ġgenteel": 19979,
    "wel": 6117,
    "ccess": 3182,
    "Ġbanished": 10616,
    "oforte": 14286,
    "Ġplumage": 17297,
    "Ġthigh": 10186,
    "Ġhence": 4989,
    "Ġdece": 6996,
    "ĠâĢĶ_": 3457,
    "boats": 6204,
    "Ġunrest": 11712,
    "laborers": 23913,
    "Ġentertainment": 12220,
    "Ġsigned": 11177,
    "Ġimprovement": 7965,
    "Ġkra": 18348,
    ")": 13,
    "Ġwithstand": 10224,
    "burn": 8370,
    "Ġsuccessful": 9922,
    ":âĢĶâĢĺ": 24193,
    "sir": 5001,
    "fed": 11487,
    "Ġsilver": 7464,
    "Ġvisions": 12973,
    "unning": 4493,
    "Ġstr": 756,
    "Ġtheoretically": 3564,
    "Ġloathsome": 13527,
    "rained": 5162,
    "Ġfarewell": 9519,
    "Ġtaken": 2529,
    "Ġcliffs": 15965,
    "danger": 10089,
    "breeze": 20561,
    "immediate": 20092,
    "Ġtertiary": 15293,
    "Ġdungeon": 16996,
    "Ġlevels": 12695,
    "Ġawkward": 7073,
    "Ġlurch": 21552,
    "ic": 304,
    "twill": 21073,
    "Ġbeaten": 10528,
    "Ġboldness": 24428,
    "Ġincarnation": 25573,
    "Ġappalled": 22216,
    "squeezing": 25913,
    "Ġanxiously": 8289,
    "tray": 21076,
    "Ġflock": 21409,
    "ieve": 1656,
    "Ġpant": 10817,
    "tur": 5688,
    "read": 3276,
    "Ġcountless": 16381,
    "Ġpredicted": 2045,
    "Ġbottomless": 12104,
    "Ġflower": 16229,
    "feit": 16040,
    "verty": 8452,
    "Ġris": 4886,
    "actually": 14294,
    "Ġsense": 3250,
    "Ġless": 1939,
    "Ġvis": 1063,
    "ï": 176,
    "conce": 8510,
    "Ġtrivial": 10142,
    "Ù": 154,
    "Ġaltern": 7394,
    "Ġlighting": 13081,
    "remained": 8569,
    "ills": 1627,
    "Ġchallenge": 25471,
    "sacred": 17028,
    "Ġperceived": 4713,
    "Ġzigzag": 26272,
    "Ġusual": 3941,
    "Ġclub": 8873,
    "gazing": 12469,
    "Ġinfirmity": 26298,
    "Ġinterpret": 5490,
    "Ġlibr": 15999,
    "Ġimmensity": 25329,
    "neys": 23581,
    "hint": 12473,
    "Ġcon": 349,
    "talked": 14984,
    "Ġrepressed": 21665,
    "Ġruggedness": 26267,
    "ulate": 5233,
    "Ġspam": 7632,
    "Ġarchitects": 18745,
    "arks": 2844,
    "illar": 5101,
    "Ġparcel": 15198,
    "Ġregions": 10323,
    "ispensable": 9095,
    "Ġcommission": 6712,
    "(_": 7541,
    "Ġmayhew": 12947,
    "gentlemen": 9503,
    "the": 334,
    "pence": 15408,
    "goin": 23401,
    "Ġcruelty": 9968,
    "warks": 5004,
    "reflect": 19864,
    "Ġmien": 17808,
    "Ġlabours": 8582,
    "po": 1139,
    "Ġblowing": 10484,
    "seem": 10227,
    "rador": 19158,
    "bourgh": 19103,
    "Ġveins": 8932,
    "anning": 10164,
    "ideas": 18581,
    "iron": 3759,
    "Ġdefinitions": 22941,
    "_.,": 14561,
    "£": 101,
    "Ġactually": 5389,
    "complacency": 19913,
    "Ġstool": 14460,
    "Ġlethargy": 26483,
    "Ġexternal": 8364,
    "Ġrece": 11637,
    "even": 3835,
    "ugging": 23288,
    "terms": 15748,
    "Ġvoyagings": 19234,
    "Ġcons": 952,
    "icial": 12652,
    "Ġimprove": 1905,
    "ė": 216,
    "Ġpreservative": 24629,
    "rollable": 13944,
    "Ġfowl": 11330,
    "Ġprecisely": 6466,
    "iven": 1237,
    "hast": 5357,
    "Ġhospit": 7515,
    "holder": 13280,
    "Ġchaplain": 19911,
    "Ġnations": 8809,
    "Ġthem": 640,
    "pal": 9616,
    "Ġbroiled": 18908,
    "oam": 8751,
    "ĝ": 222,
    "journey": 8744,
    "greatly": 16623,
    "Ġaghast": 16045,
    "Ġdelicate": 6480,
    "what": 642,
    "anesc": 21358,
    "Ġstartling": 14670,
    "masterly": 24530,
    "Ġencamp": 22798,
    "uncommon": 11680,
    "Ġfatigue": 8697,
    "imely": 13997,
    "Ġdeceit": 13480,
    "Ġassumed": 9465,
    "ental": 7168,
    "Ġdup": 21430,
    "Ġmerry": 5868,
    "Ġringing": 13330,
    "Ġlayer": 1010,
    "Ġcheerfulness": 10516,
    "Ġtransportation": 13641,
    "Ġlay": 582,
    "Ġpleases": 16297,
    "Ġoverlapping": 26238,
    "ional": 1083,
    "Ġstarve": 24625,
    "ithmetic": 18061,
    "Ġleathern": 15050,
    "<EOS>": 2,
    "Ġwelfare": 12556,
    "Ġcul": 17822,
    "ancholy": 5070,
    "carried": 16711,
    "Ġforegoing": 23448,
    "-------": 20387,
    "Ġtweed": 22674,
    "devilish": 17082,
    "Ġanybody": 5313,
    "thus": 5158,
    "athered": 6972,
    "gus": 13724,
    "bedded": 13226,
    "Ġrecollected": 8310,
    "Ġoutstretched": 14195,
    "Ġsharpened": 17364,
    "ued": 7562,
    "Ġgobern": 22422,
    "Ġengineering": 3025,
    "Ġcocks": 18595,
    "Ġinvested": 7279,
    "Ġinqu": 2964,
    "Ġretrieval": 10674,
    "mass": 12487,
    ":âĢĶ": 4431,
    "Ġdrives": 14578,
    "obliv": 23093,
    "azine": 19130,
    "Ġfeedback": 23431,
    "Ġalabama": 14018,
    "fate": 17539,
    "Ġfishy": 16523,
    "Ġtypewritten": 16420,
    "Ġsteeply": 23722,
    "Ġbeadle": 26484,
    "entions": 17974,
    "Ġbiases": 2398,
    "iness": 1281,
    "Ġlightly": 13082,
    "su": 796,
    "remonstr": 23185,
    "Ġwretched": 4079,
    "Ġshipped": 9714,
    "Ġpoisonous": 24887,
    "Ġreg": 728,
    "ribs": 23363,
    "Ġlumps": 21553,
    "Ġsubsc": 22782,
    "herald": 22202,
    "Ġparty": 3507,
    "twilight": 23698,
    "Ġfeasible": 22205,
    "lesc": 11038,
    "Ġvanished": 6874,
    "Ġdesigned": 7740,
    "Ġleech": 24153,
    "bordered": 17498,
    "wander": 17709,
    "Ġcharming": 6628,
    "Ġsingers": 23769,
    "Ġ82": 24458,
    "Ġheartily": 6890,
    "Ġsubterr": 10348,
    "Ġhammers": 13239,
    "....": 11316,
    "reng": 4000,
    "brÃ¦": 11175,
    "orous": 5292,
    "Ġlighted": 7063,
    "connections": 14427,
    "Ġround": 1371,
    "Ġeag": 2966,
    "Ġtwos": 18657,
    "ortment": 22254,
    "ris": 9137,
    "Ġgazing": 5875,
    "hau": 17562,
    "Ġshave": 21993,
    "ias": 6362,
    "Ġhy": 5625,
    "ians": 2359,
    "Ġunreasoning": 15843,
    "qu": 369,
    "largely": 19573,
    "Ġpreliminaries": 25176,
    "second": 6543,
    "Ġorgans": 15863,
    "Ġproper": 1380,
    "cked": 2764,
    "Ġadequ": 10913,
    "Ġtreasure": 9558,
    "indirectly": 18437,
    "Ġoutdone": 22315,
    "Ġtra": 1388,
    "inese": 12870,
    "Ġrealism": 18983,
    "Ġnameless": 7699,
    "Ġfreed": 7267,
    "Ġvit": 10245,
    "Ġmixing": 24934,
    "eral": 9159,
    "Ġconjugal": 25101,
    "regular": 3044,
    "Ġhissing": 15787,
    "Ġstaid": 21732,
    "penny": 22942,
    "Ġbefall": 8828,
    "Ġwrapt": 24595,
    "Ġriverside": 25247,
    "ature": 521,
    "our": 535,
    "Ġmisgiv": 14344,
    "Ġpompous": 20421,
    "preced": 10309,
    "Ġlowers": 23239,
    "really": 6971,
    "vag": 8764,
    "Ġjacobians": 2891,
    "Ġstorms": 11262,
    "strang": 11183,
    "Ġcredulous": 17144,
    "accurately": 25861,
    "Ġimplements": 2487,
    "Ġadmirable": 8268,
    "Ġargemone": 24274,
    ",âĢĶ": 3170,
    "perpet": 14158,
    "echo": 15347,
    "compl": 6873,
    "ospel": 17010,
    "ights": 8475,
    "Ġnavies": 16900,
    "Ġcircling": 19092,
    "'re": 12426,
    "cence": 9588,
    "Ġclenched": 14202,
    "voy": 7143,
    "Ġsmallest": 6430,
    "Ġexpect": 2305,
    "Ė": 215,
    "Ġwhitewashed": 14469,
    "became": 10514,
    "Ġsprung": 11248,
    "Ġadvantageously": 19544,
    "Ġdisappo": 4505,
    "Ġconfeder": 25708,
    "Ġruined": 12951,
    "ars": 906,
    "bold": 17487,
    "Ġphyseter": 26586,
    "Ġimbecile": 17391,
    "Ġoakum": 16934,
    "Ġcompromised": 22568,
    "wantonly": 25149,
    "Ġdelineations": 26058,
    "tide": 11532,
    "zealand": 26054,
    "Ġconsideration": 5191,
    "Ġsom": 1275,
    "mend": 20965,
    "deli": 15343,
    "Ġextraordinary": 5414,
    "Ġdisappointing": 19578,
    "Ġvillainous": 25131,
    "Ġupdates": 1299,
    "Ġabed": 22262,
    "Ġtradeoff": 2660,
    "Ġfer": 5529,
    "Ġconsented": 11295,
    "Ġassailed": 23172,
    "remain": 9837,
    "Ġz": 999,
    "Ġerad": 25028,
    "Ġfries": 21413,
    "Ġunwillingly": 15846,
    "Ġassociates": 24712,
    "Ġblew": 9045,
    "ama": 11677,
    "complain": 14357,
    "oke": 1858,
    "onious": 15517,
    "Ġpropos": 7061,
    ".}": 20744,
    "ronted": 14876,
    "istical": 8489,
    "mid": 5617,
    "Ġspeculations": 22995,
    "Ġflip": 11910,
    "Ġobli": 9315,
    "oing": 15400,
    "Ġreplacing": 3448,
    "hawks": 24694,
    "Ġsolely": 9909,
    "bbles": 13690,
    "Ġwould": 651,
    "Ġsubjects": 7072,
    "Ġisle": 8832,
    "tawny": 26404,
    "Ġgilt": 21603,
    "Ġfathers": 16294,
    "Ġ67": 19659,
    "Ġvain": 3627,
    "Ġvindictive": 20468,
    "consternation": 16912,
    "Ġovercome": 6043,
    "ivial": 15857,
    "vess": 7354,
    "ulnerable": 18150,
    "Ġquestion": 2778,
    "Ġ1846": 26084,
    "Ġcrust": 21349,
    "Ġboots": 5943,
    "Ġcritical": 7476,
    "Ġnugent": 26457,
    "Ġsuperstitions": 17072,
    "Ġepic": 15029,
    "Ġtranslation": 3088,
    "possessed": 9527,
    "been": 3345,
    "atious": 10151,
    "castles": 14636,
    "izzy": 3096,
    "Ġhulls": 13925,
    "bewil": 22495,
    "Ġtorrent": 17092,
    "Ġfurnaces": 24002,
    "Ġbison": 21386,
    "lakeman": 13750,
    "intervals": 10637,
    "Ġsteering": 10387,
    "Ġeliminating": 20618,
    "urbed": 15706,
    "dropped": 12260,
    "Ġbushes": 16399,
    "ortunities": 15938,
    "Ġpatients": 24813,
    "Ġimbued": 17454,
    "ington": 21300,
    "Ġsensibly": 14511,
    "ises": 3652,
    "Ġgodly": 19080,
    "maged": 15392,
    "Ġdrily": 23539,
    "Ġcomplaint": 24776,
    "Ġpolite": 9881,
    "Ġdirected": 5579,
    "Ġautomatically": 4174,
    "Ġwretch": 6378,
    "Ġsparsity": 4205,
    "Ġbrim": 12974,
    "flatter": 23964,
    "Ġdism": 9766,
    "Ġpredecessor": 26252,
    "Ġcostume": 16495,
    "Ġcertain": 1561,
    "Ġreplying": 19580,
    "Ġinconsist": 17935,
    "Ġdialogue": 12402,
    "landish": 11940,
    "perch": 18338,
    "oubtedly": 6943,
    "Ġcurving": 16237,
    "Ġgently": 7171,
    "Ġreduced": 11922,
    "Ġsubdiv": 16156,
    "Ġquieted": 23839,
    "ocratic": 17245,
    "#": 7,
    "ipt": 12476,
    "bruary": 15234,
    "Ġswallow": 8950,
    "Ġracket": 22656,
    "Ġcage": 17825,
    "overing": 6306,
    "james": 15371,
    "boscombe": 26121,
    "Ġfurther": 1057,
    "Ġunwearied": 20601,
    "Ġinscriptions": 20007,
    "noted": 22747,
    "Ġpract": 1839,
    "Ġwooded": 23519,
    "Ġundeniable": 26510,
    "Ġrev": 6988,
    "Ġspotted": 12136,
    "written": 7994,
    "Ġbear": 3656,
    "Ġcontinuously": 23204,
    "Ġformula": 2864,
    "kered": 18274,
    "Ġinvestigation": 9042,
    "Ġsuperseded": 26223,
    "anatory": 21361,
    "Ġpretensions": 16558,
    "Ġguilt": 6179,
    "asiness": 8128,
    "ning": 947,
    "Ġdistantly": 18535,
    "omically": 13975,
    "Ġgurgling": 17445,
    "Ġchildren": 3767,
    "ims": 7176,
    "Ġswear": 6461,
    "Ġconfinement": 19035,
    "Ġsupplied": 8943,
    "Ġsmall": 892,
    "swimming": 24258,
    "ario": 14247,
    "Ġquebec": 24130,
    "Ġmultipl": 2792,
    "Ġholy": 6591,
    "Ġdeduction": 14900,
    "µ": 118,
    "Ġmichaelmas": 26374,
    "Ġfatt": 15576,
    "Ġregardless": 19323,
    "hav": 20896,
    "Ġlost": 2636,
    "Ġstrove": 9956,
    "relieved": 13274,
    "acquaintance": 6938,
    "Ġdiscrimin": 2547,
    "Ġspectator": 19404,
    "leeward": 15209,
    "Ġairth": 23314,
    "Ġbowls": 23768,
    "Ġlent": 21544,
    "Ġpalm": 10513,
    "desperate": 17351,
    "necess": 4896,
    "answ": 15882,
    "abez": 10222,
    "Ġsubstant": 14808,
    "dashing": 20835,
    "Ġfurniture": 6476,
    "Ġglass": 4369,
    "pemberley": 9620,
    "Ġoverflow": 10292,
    "incom": 21180,
    "Ġquench": 22416,
    "Ġwebster": 20160,
    "sufficient": 6635,
    "Ġstow": 21727,
    "Ġequinox": 25856,
    "Ġrepairing": 25589,
    "Ġtease": 18801,
    "import": 5668,
    "Ġrotterdam": 25475,
    "Ġoily": 13863,
    "Ġsports": 18310,
    "uts": 8815,
    "Ġglue": 15671,
    "Ġbowditch": 19322,
    "Ġruin": 6055,
    "mediterranean": 16402,
    "ishly": 14203,
    "Ġsponge": 26003,
    "Ġdisorder": 16049,
    "Ġhousekeeper": 7456,
    "Ġimmeas": 18332,
    "Ġstilly": 25973,
    "Ġcollecting": 12284,
    "Ġsink": 4341,
    "andes": 18151,
    "eu": 17530,
    "knight": 20939,
    "ees": 13710,
    "smote": 23907,
    "rab": 7597,
    "Ġwhiff": 21715,
    "Ġgifted": 17996,
    "cop": 20800,
    "Ġtechniques": 2866,
    "owder": 8448,
    "Ġjest": 18403,
    "Ġsympath": 4861,
    "Ġfollowed": 1793,
    "oles": 21004,
    "hend": 13250,
    "Ġsplendid": 17213,
    "Ġbristles": 25843,
    "Ġbaffled": 12401,
    "Ġbased": 3340,
    "helping": 23135,
    "Ġdy": 2379,
    "mangled": 20980,
    "ret": 1476,
    "Ġreasoner": 14437,
    "Ġpainful": 6462,
    "Ġnights": 7258,
    "Ġshuddered": 11300,
    "Ġpursuits": 12074,
    "ivering": 7698,
    "wont": 21131,
    "Ġdanger": 3516,
    "Ġearnestly": 5978,
    "Ġfusion": 21412,
    "Ġsteam": 9352,
    "ward": 705,
    "T": 56,
    "uits": 21103,
    "Ġtus": 10749,
    "Ġwing": 6665,
    "Ġmagnetic": 17240,
    "Ġpupella": 20420,
    "Ġsteer": 10386,
    "Ġkeys": 11995,
    "Ġwhiteness": 5918,
    "Ġobserve": 4669,
    "Ġappetites": 20205,
    "eline": 2521,
    "Ġjumped": 7096,
    "Ġaug": 6234,
    "Ġvicious": 24403,
    "Ġcor": 1324,
    "strength": 13979,
    "Ġcharacter": 2795,
    "Ġtruest": 16703,
    "Ġbell": 4634,
    "umerable": 11723,
    "Ġcelestial": 10066,
    "hollow": 24037,
    "Ġuse": 845,
    "Ġcontextual": 3741,
    "Ġfatality": 12092,
    "grave": 16095,
    "Ġmel": 4815,
    "Ġreading": 5114,
    "Ġcopper": 7425,
    "propagation": 1226,
    "angered": 16177,
    "Ġamerica": 6763,
    "mysteries": 26050,
    "Ġimperfect": 13338,
    "Ġflail": 23004,
    "Ġsuperflu": 14554,
    "snapping": 24849,
    "Ġarmies": 16492,
    "stein": 5505,
    "Ġrejoinder": 24597,
    "sculpt": 16243,
    "Ġsynthe": 26007,
    "Ġstatistical": 11105,
    "Ġeternally": 11369,
    "Ġreminiscences": 26268,
    "intention": 10367,
    "Ġsources": 10147,
    "Ġ1807": 26083,
    "Ġhours": 2819,
    "Ġxx": 5492,
    "Ġpromised": 5181,
    "Ġheard": 1402,
    "favourable": 12261,
    "Ġegypt": 9678,
    "linen": 25257,
    "Ġjup": 15950,
    "Ġdiana": 21439,
    "Ġmysteriously": 24601,
    "Ġcedar": 15187,
    "ager": 6546,
    "Ġdefile": 18823,
    "Ġguests": 12285,
    "Ġbehavior": 8001,
    "Ġtype": 2020,
    "Ġenjoying": 11234,
    "Ġprocessing": 902,
    "irmed": 9238,
    "Ġviolin": 16427,
    "Ġattempted": 8000,
    "fold": 7547,
    "morning": 4858,
    "an": 278,
    "Ġnatures": 16505,
    "Ġhes": 6250,
    "Ġdegree": 3702,
    "pent": 3490,
    "Ġpike": 12620,
    "Ġfixedly": 19247,
    "del": 4074,
    "erve": 12546,
    "Ġunfold": 8022,
    "abroad": 18108,
    "Ġstumped": 24942,
    "Ġparlor": 13539,
    "Ġpatchwork": 24139,
    "Ġmustering": 18662,
    "Ġpierce": 17036,
    "Ġcollected": 2610,
    "Ġembal": 11903,
    "Ġoccasions": 7987,
    "profound": 16424,
    "violent": 14580,
    "mews": 22711,
    "Ġcontracting": 16009,
    "Ġcumbrous": 26432,
    "Ġencaps": 12959,
    "Ġrefreshment": 17239,
    "thickness": 25367,
    "angu": 571,
    "quickness": 19850,
    "abash": 18107,
    "Ġevap": 19622,
    "andy": 8157,
    "Ġsnuffing": 25012,
    "highly": 24764,
    "Ġpossess": 3203,
    "Ġpaper": 4283,
    "Ġfolk": 10375,
    "loath": 22506,
    "Ġlest": 6395,
    "'s": 2470,
    "Ġprep": 4189,
    "gaz": 20877,
    "assemblies": 25956,
    "flu": 9117,
    "hy": 4739,
    "Ġbeggar": 9348,
    "Ġbegat": 18862,
    "Ġsought": 5010,
    "Ġveneration": 25044,
    "Ġfielding": 16239,
    "order": 1959,
    "rud": 4188,
    "bishop": 13693,
    "Ġsquaw": 22840,
    "Ġspikes": 22139,
    "Ġspiritual": 9929,
    "Ġfurthest": 22814,
    "Ġrecalled": 8537,
    "Ġcornelius": 13572,
    "Ġcinque": 20484,
    "ception": 6562,
    "Ġheaving": 7601,
    "Ġstabbed": 25456,
    "Ġstatements": 7517,
    "Ġannouncing": 16754,
    "leviathan": 7784,
    "untarily": 6312,
    "Ġpublished": 11241,
    "importance": 9988,
    "ĠĠĠĠĠĠĠĠĠĠĠĠĠĠĠĠĠ": 22946,
    "bearing": 9764,
    "versed": 9824,
    "Ġinsinuating": 19270,
    "arp": 2028,
    "Ġambiguous": 20163,
    "rior": 12739,
    "limping": 26393,
    "Ġeaten": 14844,
    "Ġdet": 514,
    "scene": 14418,
    "Ġprovinc": 16742,
    "Ġextremest": 19193,
    "uted": 7593,
    "ban": 9584,
    "Ġchamois": 16800,
    "Ġsheep": 10926,
    "Ġgigantic": 5914,
    "bery": 9787,
    "legs": 13181,
    "riptions": 14793,
    "Ġincorporated": 25711,
    "Ġneurons": 976,
    "Ġmace": 21308,
    "ior": 2040,
    "Ġcommunications": 16353,
    "fat": 8078,
    "Ġcripple": 11440,
    "Ġriding": 14093,
    "diff": 9113,
    "Ġcarted": 21347,
    "mund": 13757,
    "Ġhum": 1096,
    "isting": 5551,
    "Ġrestrictions": 20634,
    "tery": 14036,
    "ni": 1643,
    "Ġtahiti": 13618,
    "Ġaft": 5737,
    "ouder": 17900,
    "adopt": 25544,
    "Ġmonth": 2849,
    "Ġcompare": 9301,
    "Ġcounties": 23299,
    "Ġpurpose": 2710,
    "Ġexactness": 23603,
    "Ġrattled": 15065,
    "Ġoutfits": 22318,
    "Ġwinc": 9642,
    "oboam": 9357,
    "Ġprocessions": 18434,
    "sher": 5217,
    "Ġcatastrop": 3348,
    "Ġsymptom": 13482,
    "Ġravings": 18648,
    "Ġeyelids": 26107,
    "Ġtest": 1585,
    "Ġbargain": 23790,
    "Ġbridle": 24681,
    "vial": 17697,
    "enthusiastic": 20691,
    "profitable": 17055,
    "entieth": 17978,
    "soup": 21057,
    "lion": 20943,
    "Ġassisted": 11111,
    "but": 590,
    "flutterings": 26606,
    "Ġreverie": 13456,
    "bern": 20774,
    "Ġscheming": 23268,
    "Ġbreadth": 10563,
    "ment": 692,
    "Ġjan": 11760,
    "Ġweighty": 16030,
    "ery": 1269,
    "pleased": 8853,
    "Ġnumerous": 6920,
    "Ġfine": 1316,
    "Ġpromotion": 23188,
    "t": 88,
    "Ġpearl": 20375,
    "Ġwat": 1287,
    "Ġnimble": 21525,
    "Ġberg": 24536,
    "Ġshadows": 8012,
    "ulation": 5458,
    "Ġmurdered": 6464,
    "teous": 16173,
    "Ġtwain": 16117,
    "bowed": 10683,
    "sey": 5543,
    "K": 47,
    "coloured": 7291,
    "Ġsevent": 18202,
    "tle": 2410,
    "gr": 2086,
    "Ġbond": 21382,
    "Ġboughs": 20487,
    "Ġphaet": 16317,
    "Ġtailed": 21167,
    "Ġcomplement": 23708,
    "Ġbrazen": 23836,
    "himself": 3970,
    "69": 17474,
    "Ġcister": 13881,
    "Ġoffences": 18693,
    "Ġtub": 7146,
    "Ġledger": 19400,
    "Ġjoist": 19230,
    "Ġpound": 12613,
    "Ġfac": 6381,
    "Ġearn": 3543,
    "alleled": 14428,
    "final": 19675,
    "Ġsixpence": 19316,
    "tone": 8762,
    "weep": 22681,
    "Ġfootman": 8287,
    "Ġ71": 24259,
    "feed": 9292,
    "Ġmapple": 11150,
    "Ġpavement": 9577,
    "Ġeel": 18001,
    "Ġanxious": 4517,
    "fabulous": 20472,
    "rily": 7622,
    "-": 17,
    "Ġwhirling": 12246,
    "frequented": 25900,
    "Ġapproximates": 2419,
    "Ġmercifully": 20177,
    "reason": 4414,
    "Ġincidentally": 16954,
    "mody": 16188,
    "hitherto": 17283,
    "Ġterminated": 23507,
    "Ġterrific": 6754,
    "kye": 20937,
    "advancing": 14835,
    "inks": 6869,
    "wear": 22680,
    "Ġcopestone": 24936,
    "surprising": 16919,
    "Ġdevotedly": 24750,
    "Ġupdate": 2463,
    "afraid": 10441,
    "Ġconsciousness": 9947,
    "Ġoakshott": 12227,
    "or": 282,
    "iant": 5427,
    "Ġattracted": 8902,
    "Ġattraction": 18615,
    "Ġmarty": 20289,
    "Ġbelly": 10369,
    "tete": 10732,
    "Ġperiodical": 14771,
    "fl": 3597,
    "mighty": 9466,
    "inst": 4295,
    "Ġblunder": 18818,
    "Ġgenial": 12192,
    "splinter": 25210,
    "Ġburly": 19249,
    "Ġarrangements": 16515,
    "Ġcham": 4892,
    "inities": 21184,
    "Ġshag": 9250,
    "Ġskull": 6287,
    "office": 16394,
    "whip": 22234,
    "Ġbullion": 24983,
    "gallant": 7780,
    "Ġrepented": 23360,
    "Ġscorch": 20065,
    "Ġmillar": 13860,
    "âĢĶâĢĶâĢĿ": 15937,
    "Ġjacket": 6489,
    "ash": 1992,
    "Ġbough": 13893,
    "ordered": 8789,
    "Ġmonica": 22977,
    "Ġconceited": 12088,
    "explained": 23137,
    "Ġmaimed": 21315,
    "Ġscrutiny": 26015,
    "Ġantichronical": 26609,
    "Ġresounds": 22539,
    "!)": 10068,
    "Ġhaunts": 18198,
    "Ġresnet": 5473,
    "Ġelevate": 24502,
    "Ġclue": 7019,
    "Ġskin": 5038,
    "Ġbabes": 24425,
    "Ġpeddler": 24800,
    "Ġrivers": 9441,
    "beauty": 20102,
    "create": 24159,
    "Ġblueprints": 13170,
    "Ġpenal": 1773,
    "Ġresurrection": 12891,
    "uge": 4013,
    "treas": 17679,
    "deliber": 17425,
    "itudes": 3014,
    "Ġinvol": 1069,
    "Ġaccordance": 19496,
    "flow": 2264,
    "Ġexpenses": 11834,
    "Ġexpected": 3695,
    "quest": 4537,
    "doesn": 19819,
    "Ġswamp": 14435,
    "acing": 2719,
    "Ġdissatisfied": 14256,
    "squee": 15429,
    "Ġpilgrimage": 17307,
    "Ġloom": 7629,
    "dwell": 15340,
    "ue": 1179,
    "Ġsleet": 8975,
    "miniature": 16765,
    "Ġexperience": 1372,
    "Ġalongside": 6311,
    "ching": 5156,
    "drive": 8682,
    "inconsiderable": 21190,
    "Ġheight": 4218,
    "Ġeffectual": 18732,
    "Ġsequence": 1976,
    "completely": 12418,
    "Ġcrouched": 23440,
    "Ġrib": 4936,
    "Ġthough": 992,
    "Ġeducated": 16785,
    "stolidity": 21660,
    "Ġhundred": 2696,
    "oked": 4308,
    "ust": 495,
    "ench": 21278,
    "Ġcarpent": 4465,
    "Ġexpansion": 22624,
    "years": 6883,
    "Ġunfair": 19506,
    "Ċ": 203,
    "ignity": 4374,
    "Ġpioneer": 17916,
    "vict": 11540,
    "Ġdesolation": 12266,
    "Ġexponentially": 1445,
    "Ġfulfilment": 20186,
    "Ġsolution": 9806,
    "complet": 11383,
    "Ġstructures": 2721,
    "Ġdial": 10813,
    "som": 3293,
    "Ġgaped": 13966,
    "Ġmoisture": 12357,
    "Ġvice": 6548,
    "Ġtheirs": 7024,
    "endom": 15921,
    "iza": 6255,
    "Ġprolong": 6833,
    "directed": 20403,
    "itably": 10782,
    "Ġgestures": 13535,
    "Ġyielding": 12184,
    "winds": 10521,
    "Ġtalked": 4420,
    "Ġmurky": 19201,
    "Ġfavours": 23279,
    "Ġranging": 8478,
    "Ġglasses": 9474,
    "uries": 6147,
    "Ġalways": 1697,
    "Ġpropensity": 18997,
    "hopeless": 16917,
    "Ġundeviating": 15216,
    "circumamb": 26087,
    "Ġadviser": 25312,
    "Ġcrowned": 16841,
    "Ġuntimely": 16466,
    "rese": 15507,
    "Ġmadness": 6601,
    "Ġfrequented": 16585,
    "°": 113,
    "Ġmurmur": 14589,
    "etieth": 21581,
    "Ġslaughtered": 26584,
    "atics": 15521,
    "aught": 2683,
    "Ġhabits": 6926,
    "Ġproduced": 2452,
    "Ġval": 970,
    "characteristic": 24685,
    "gossip": 23402,
    "pper": 3208,
    "Ġcraven": 16469,
    "nue": 15396,
    "Ġeventually": 8616,
    "Ġmember": 8585,
    "Ġskies": 8920,
    "Ġadmires": 19684,
    "Ġdif": 870,
    "crowd": 25254,
    "Ġallude": 12768,
    "Ë": 140,
    "osing": 3688,
    "Ġsmiled": 5940,
    "onstrate": 17768,
    "Ġawhile": 13829,
    "kne": 20934,
    "Ġfilm": 23922,
    "thirty": 12759,
    "Ġwer": 12549,
    "vision": 5620,
    "commission": 22810,
    "Ġblaze": 16218,
    "forecastle": 10990,
    "Ġdiscontented": 16057,
    "Ġrepeating": 11213,
    "lemency": 21372,
    "Ġferocity": 16866,
    "angels": 22103,
    "Ġunduly": 25994,
    "none": 6962,
    "subsided": 25830,
    "mpus": 13756,
    "inent": 9628,
    "apply": 18759,
    "Ġlapl": 19776,
    "Ġthickly": 12113,
    "taking": 5689,
    "trunk": 23945,
    "wonted": 13492,
    "osition": 1376,
    "Ġcoffin": 4428,
    "fulfil": 16034,
    "Ġsheets": 9721,
    "Ġbled": 17856,
    "9": 29,
    "lounged": 26133,
    "Ġdiscourse": 9797,
    "field": 3073,
    "anke": 15558,
    "lers": 10106,
    "hurriedly": 25510,
    "Ġdoxology": 22241,
    "warmly": 25026,
    "ster": 1952,
    "Ġcanoe": 9722,
    "Ġspas": 10921,
    "Ġrestrained": 16374,
    "cherries": 19755,
    "Ġproport": 2298,
    "umn": 5835,
    "ention": 830,
    "Ġbambooz": 26119,
    "Ġjane": 1758,
    "Ġstains": 21738,
    "Ġlan": 5820,
    "ogy": 22709,
    "note": 14339,
    "Ġyourselves": 9028,
    "Ġintelligible": 15939,
    "lantic": 6363,
    "one": 616,
    "Ġcold": 3033,
    "Ġlaud": 17967,
    "Ġpartially": 13121,
    "rowsers": 8694,
    "nar": 12491,
    "Ġrequiring": 2920,
    "Ġperfectly": 3699,
    "Ġimitate": 14157,
    "lace": 13747,
    "Ġstaring": 8824,
    "oes": 4433,
    "four": 6113,
    "Ġbelrive": 18830,
    "aper": 4999,
    "Ġstraggling": 23749,
    "Ġcrouching": 23442,
    "mightily": 24101,
    "Ġdrugg": 17119,
    "since": 5894,
    "Ġunsh": 14114,
    "Ġbrains": 2631,
    "Ġadroit": 26000,
    "Ġgreenland": 5761,
    "Ġinsurance": 23678,
    "Ġsires": 21225,
    "ource": 5243,
    "ifer": 11682,
    "Ġexpressed": 4467,
    "folio": 10546,
    "bermaid": 20789,
    "ds": 4687,
    "Ġworlds": 11945,
    "Ġexploring": 4305,
    "Ġwinter": 5220,
    "mr": 1900,
    "sory": 17659,
    "Ġconcent": 8249,
    "----âĢĿ": 13305,
    "Ġde": 365,
    "upid": 6581,
    "str": 2577,
    "Ġcoloss": 11045,
    "Ġforge": 8456,
    "Ġ118": 19697,
    "Ġpacific": 5153,
    "answering": 26004,
    "Ġnets": 21521,
    "bib": 17491,
    "Ġaccumulating": 2724,
    "Ġgu": 1329,
    "comb": 11035,
    "comprehensive": 20625,
    "Ġsmile": 4272,
    "Ġguardianship": 17419,
    "Ġdrawling": 19435,
    "Ġbrut": 18768,
    "Ġparadigms": 3058,
    "Ġjoyful": 13219,
    "Ġbare": 6132,
    "oregressive": 3424,
    "Ġnarration": 13503,
    "Ġcups": 16882,
    "Ġconfederate": 17353,
    "gypt": 8260,
    "cles": 8725,
    "Ġtor": 8105,
    "upper": 11538,
    "ĠĠĠĠĠĠĠĠĠĠĠĠĠĠĠĠĠĠĠĠĠĠĠĠĠĠĠ": 14885,
    "sence": 3307,
    "sullen": 17669,
    "Ġhimmale": 18329,
    "Ġgallon": 24184,
    "Ġrolling": 5974,
    "dat": 1635,
    "involuntarily": 20413,
    "Ġv": 398,
    "fab": 13715,
    "inition": 11556,
    "Ġtrain": 515,
    "Ġvale": 14081,
    "Ġredeem": 20498,
    "ancient": 9655,
    "important": 7112,
    "weeks": 14315,
    "telesc": 22816,
    "uled": 11536,
    "Ġhistorical": 3644,
    "summer": 11992,
    "silence": 8044,
    "mering": 12488,
    "Ġinde": 7371,
    "utely": 8131,
    "Ġmonoton": 3634,
    "cules": 12389,
    "ses": 3028,
    "Ġed": 2142,
    "Ġcurb": 16236,
    "blood": 7779,
    "Ġnose": 4402,
    "Ġguitar": 16266,
    "colour": 9902,
    "Ġenriched": 26499,
    "ther": 481,
    "Ġsatisfaction": 5667,
    "Ġtricks": 13483,
    "Ġnoon": 6559,
    "ulent": 21859,
    "Ġacquiesced": 25493,
    "Ġeligible": 10670,
    "respond": 12541,
    "Ġtul": 21158,
    "Ġinterference": 8893,
    "Ġremorse": 6441,
    "Ġjost": 23629,
    "Ġplaguy": 22601,
    "Ġliber": 5168,
    "ampling": 12723,
    "notwithstanding": 22749,
    "spikes": 10340,
    "Ġgallons": 14817,
    "presents": 18796,
    "Ġclatter": 22337,
    "Ġcaut": 6521,
    "Ġfel": 1517,
    "Ġproduce": 4367,
    "Ġattack": 5478,
    "Ġparametric": 2396,
    "cupboards": 25401,
    "call": 8722,
    "Ġquivered": 18467,
    "Ġgermans": 25784,
    "Ġinstruments": 12221,
    "Ġbennett": 16323,
    "Ġloomings": 24949,
    "Ġmayhap": 18709,
    "achines": 1723,
    "designated": 26295,
    "Ġbuild": 6474,
    "exceedingly": 9566,
    "itively": 21329,
    "Ġslit": 13054,
    "Ġinit": 819,
    "Ġsins": 13836,
    "Ġknowest": 12860,
    "Ġtahit": 10754,
    "Ġformation": 2941,
    "Ġlimber": 16479,
    "Ġingen": 9049,
    "glue": 17556,
    "Ġxxxi": 24966,
    "Ġchowder": 10279,
    "violently": 23542,
    "e": 73,
    "Ġsatisfy": 6911,
    "Ġremo": 3784,
    "Ġbrag": 23830,
    "down": 3467,
    "ential": 826,
    "Ġsymphony": 26532,
    "Ġsafety": 6339,
    "Ġsubmerged": 11870,
    "Ġstudying": 9839,
    "Ġhackluyt": 25655,
    "Ġwilds": 16508,
    "jumped": 20245,
    "Ġsherry": 19449,
    "Ġby": 383,
    "Ġcolonel": 3407,
    "evil": 11485,
    "Ġdra": 1593,
    "Ġdeficient": 18824,
    "ittleness": 22376,
    "mrs": 3743,
    "Ġconvention": 25546,
    "haust": 5777,
    "Ġadam": 2126,
    "onds": 12993,
    "whispering": 26103,
    "Ġrobinson": 17463,
    "Ġverdant": 15002,
    "Ġanimating": 23422,
    "Ġwishing": 7830,
    "Ġconstable": 19070,
    "Ġluff": 15650,
    "Ġmemb": 14027,
    "Ġdejected": 20303,
    "shaven": 18494,
    "stiff": 12672,
    "Ġchal": 18377,
    "Ġtruce": 24113,
    "Ġcases": 3960,
    "Ġrepaired": 13106,
    "Ġyourself": 2592,
    "Ġneglect": 7941,
    "acrity": 14278,
    "Ġsepul": 14089,
    "Ġilluminating": 25245,
    "Ġbeautifully": 13265,
    "Ġbouton": 17868,
    "ivot": 11716,
    "painter": 24896,
    "Ġabsorbing": 17128,
    "Ġdestructive": 23485,
    "Ġtr": 553,
    "Ġexhilarating": 26337,
    "Ġwight": 12550,
    "Ġadored": 18291,
    "Ġaffability": 14386,
    "Ġtheir": 644,
    "Ġant": 4346,
    "dead": 8177,
    "unalterable": 21883,
    "Ġdrought": 19277,
    "remind": 23182,
    "Ġwatch": 2745,
    "Ġdestabilizing": 5053,
    "Ğ": 223,
    "Ġguineas": 16267,
    "Ġvomit": 21943,
    "ß": 160,
    "Ġrepairs": 19083,
    "think": 3606,
    "ootiful": 17372,
    "sych": 9894,
    "Ġduplicates": 17216,
    "Ġmannish": 26237,
    "Ġbubbling": 17325,
    "Ġforfeit": 21772,
    "Ġportcullis": 26603,
    "orable": 8119,
    "bree": 15313,
    "dr": 6221,
    "Ġmanipulation": 10658,
    "x": 92,
    "Ġspokes": 18313,
    "Ġformer": 3324,
    "jammed": 25906,
    "Ġwarb": 17787,
    "Ġiceberg": 14715,
    "Ġtrepidation": 19214,
    "Ġchestnut": 19671,
    "Ġpropag": 16345,
    "Ġexplained": 5935,
    "Ġsupposed": 4557,
    "deceiving": 22119,
    "icide": 11617,
    "Ġkneel": 14806,
    "Ġcalm": 3446,
    "Ġ80": 24456,
    "Ġcontinuing": 14396,
    "Ġinexper": 16980,
    "ham": 1701,
    "Ġstooping": 13059,
    "escript": 18471,
    "ignantly": 23263,
    "Ġethere": 23948,
    "Ġostens": 25275,
    "Ġfinancial": 23125,
    "Ġcivilised": 24244,
    "Ġproject": 5546,
    "Ġlullaby": 20586,
    "Ġkn": 4545,
    "Ġsubstance": 5510,
    "asters": 8433,
    "Ġpleasant": 4167,
    "ilies": 18056,
    "Ġpuff": 6526,
    "Ġchancery": 20715,
    "asingly": 17960,
    "Ġcomrades": 9554,
    "Ġdictate": 20150,
    "Ġdilatory": 24705,
    "Ġinclinations": 19538,
    "disappeared": 14569,
    "asc": 6386,
    "Ġplatform": 17131,
    "Ġwallowed": 24039,
    "Ġplaster": 16081,
    "luding": 6700,
    "Ġsultry": 20287,
    "Ġmerrily": 23730,
    "Ġfireplace": 13144,
    "Ġreminded": 9998,
    "Ġsouthern": 7689,
    "@": 36,
    "Ġmoonlight": 9957,
    "Ġconversing": 14633,
    "Ġbeak": 18079,
    "Ġvegetables": 15220,
    "mas": 5212,
    "Ġhorribly": 16340,
    "Ġdeprec": 15755,
    "Ġexhibit": 14955,
    "spond": 5567,
    "Ġrecollecting": 17113,
    "Ġplum": 11820,
    "Ġgifts": 21609,
    "Ġsatir": 18793,
    "object": 6884,
    "Ġwitnesses": 9485,
    "Ġclams": 19987,
    "programming": 10062,
    "Ġwintry": 17433,
    "Ġdashes": 21437,
    "Ġduration": 20352,
    "brated": 12025,
    "Ġje": 4120,
    "Ġbrig": 11047,
    "Ġtorn": 5999,
    "Ġblessed": 6931,
    "Ġanswer": 2598,
    "Ġprecise": 7075,
    "watching": 16930,
    "Ġblight": 18817,
    "Ġbound": 3515,
    "Ġtranced": 18426,
    "fitzwilliam": 11352,
    "Ġdeliberation": 19967,
    "nns": 1893,
    "leaned": 21367,
    "Ġjones": 7204,
    "ippi": 20243,
    "Ġunexpl": 22034,
    "appro": 7044,
    "Ġcandidates": 4334,
    "Ġshout": 4265,
    "numbers": 17616,
    "Ġmightier": 18730,
    "guess": 14760,
    "Ġpoison": 7219,
    "icked": 10332,
    "Ġstrength": 4260,
    "Ġhearses": 20058,
    "Ġidentity": 2524,
    "Ġexploitation": 2347,
    "Ġappar": 7411,
    "leg": 2814,
    "Ġalley": 15733,
    "Ġnodes": 1967,
    "Ġstarted": 4147,
    "Ġcompromising": 22570,
    "Ġnapole": 15114,
    "Ġviolently": 6456,
    "Ġbasics": 13447,
    "emporary": 15795,
    "Ġsalvation": 14756,
    "Ġxxxix": 24968,
    "Ġlord": 2965,
    "base": 20776,
    "Ġmargin": 11919,
    "iquet": 17575,
    "Ġpliny": 11823,
    "flour": 23963,
    "Ġimprudent": 12846,
    "Ġtenants": 23546,
    "originally": 24937,
    "Ġindepend": 3666,
    "Ġfeet": 2257,
    "board": 3563,
    "Ġsincerity": 13677,
    "Ġprescribed": 26010,
    "Ġfind": 1458,
    "Ġgrammar": 1062,
    "Ġrepose": 6741,
    "urons": 3130,
    "Ġdev": 895,
    ",âĢĻ": 2327,
    "Ġdiscre": 2418,
    "stolen": 13981,
    "Ġshall": 1143,
    "unc": 15766,
    "ppings": 18176,
    "Ġmast": 2899,
    "cherish": 24552,
    "Ġdispute": 16054,
    "waves": 10742,
    "asant": 17958,
    "narrative": 17318,
    "Ġchoke": 22246,
    "ailing": 7021,
    "Ġgen": 5296,
    "Ġislands": 6766,
    "savage": 15074,
    "agrad": 2748,
    "inquiries": 13576,
    "Ġgib": 13964,
    "Ġdiverse": 19208,
    "Ġresolute": 19243,
    "Ġreceptacle": 23186,
    "ilingly": 21720,
    "Ġreconsidered": 21670,
    "refusal": 24736,
    ");": 7330,
    "Ġtaking": 3249,
    "Ġnewspapers": 17186,
    "Ġassistance": 6333,
    "pop": 17631,
    "bbing": 6323,
    "habit": 16187,
    "ubbub": 23241,
    "unction": 10234,
    "wishes": 13806,
    "leagued": 26435,
    "nyder": 16686,
    "Ġorder": 1684,
    "Ô": 149,
    "Ġhoneymoon": 25645,
    "Ġvictim": 6097,
    "Ġcurved": 18848,
    "Ġmuttered": 7086,
    "Ġfumbling": 21415,
    "Ġzealand": 12348,
    "penn": 18826,
    "Ġexec": 19491,
    "+": 15,
    "concluding": 19479,
    "inger": 6812,
    "clair": 18932,
    "ersburgh": 18215,
    "abilizing": 2923,
    "evidently": 20344,
    "weaknesses": 26030,
    "Ġgr": 978,
    "mond": 20972,
    "jewell": 25523,
    "Ġwaylaid": 22870,
    "ifiable": 18163,
    "Ġchaise": 9076,
    "Ġbeseeching": 26311,
    "Ġbakers": 17866,
    "Ġappertaining": 26533,
    "Ġjog": 18404,
    "Ġtolerably": 8067,
    "Ġmart": 10779,
    "burned": 25079,
    "Ġlegit": 16472,
    "Ġbequest": 21750,
    "Ġhagger": 21488,
    "Ġspray": 7894,
    "serpent": 16290,
    "Ġavast": 9919,
    "etah": 12658,
    "Ġenvironmental": 24158,
    "Ġprevents": 2558,
    "cous": 8721,
    "Ġentreated": 9950,
    "apt": 726,
    "eding": 7165,
    "likeness": 19476,
    "Ġnephews": 24713,
    "merchant": 10467,
    "Ġalms": 21777,
    "Ġarch": 960,
    "bury": 9106,
    "now": 548,
    "very": 498,
    "Ġincorrect": 2730,
    "Ġdens": 21427,
    "Ġbarque": 23788,
    "Ġocean": 3305,
    "Ġcolt": 11043,
    "Ġtimes": 2302,
    "Ġfury": 7662,
    "Ġcharacters": 9371,
    "Ġsimpler": 2048,
    "onomy": 12544,
    "Ġprobabilities": 4966,
    "Ġoozy": 21325,
    "ploy": 2060,
    "Ġconstrained": 19238,
    "rows": 6442,
    "Ġjackal": 24239,
    "quer": 11678,
    "Ġeconomy": 17200,
    "simon": 16973,
    "breathing": 25335,
    "system": 4676,
    "Ġbiographical": 22760,
    "Ġholding": 4979,
    "Ġheadlong": 11886,
    "ó": 180,
    "Ġinch": 7849,
    "Ġstall": 12693,
    "Ġbes": 2662,
    "Ġempire": 11145,
    "Ġtool": 21508,
    "expressing": 16801,
    "Ġsympt": 7012,
    "Ġreigns": 21668,
    "kerchief": 7526,
    "Ġvinc": 14084,
    "Ġapothecary": 13658,
    "entiful": 10836,
    "oquence": 11386,
    "Ġresp": 2495,
    "rot": 21529,
    "Ġimparts": 18446,
    "Ġfevers": 22203,
    "Ġperfections": 23607,
    "Ġretreated": 13432,
    "Ġlove": 2054,
    "Ġaustralia": 15231,
    "Ġpondering": 17005,
    "tube": 20409,
    "apparatus": 26563,
    "rich": 11517,
    "Ġdebated": 9040,
    "Ġinequalities": 26453,
    "Ġdrops": 9032,
    "Ġphys": 5653,
    "Ġincor": 2609,
    "onday": 6063,
    "Ġcruisers": 25863,
    "Ġleisurely": 24746,
    "Ġdemon": 7868,
    "Ġle": 333,
    "morrow": 4571,
    "ected": 7872,
    "Ġherd": 7887,
    "Ġastonishment": 4793,
    "Ġdrinks": 24279,
    "Ġvariation": 22662,
    "fowl": 17549,
    "Ġsentin": 16373,
    "fen": 20849,
    "Ġalco": 21779,
    "retch": 4371,
    "buried": 14848,
    "Ġdispleased": 18555,
    "ained": 3066,
    "Ġdare": 3541,
    "Ġobstinacy": 17420,
    "ived": 1533,
    "Ġprevention": 16091,
    "Ġbene": 2033,
    "Ġmott": 17803,
    "uel": 6966,
    "Ġdashing": 8795,
    "Ġatone": 15800,
    "vity": 7815,
    "continue": 16861,
    "Ġlodge": 5779,
    "confined": 24332,
    "Ġsound": 2241,
    "roll": 9196,
    "Ġcompassion": 6487,
    "Ġmarbank": 23034,
    "Ġgradu": 15830,
    "Ġsensit": 2944,
    "Ġbo": 797,
    "ific": 491,
    "followed": 8338,
    "trees": 10731,
    "Ġclose": 3038,
    "Ġjerking": 12243,
    "leap": 21365,
    "Ġtornado": 24621,
    "Ġstoutly": 16924,
    "neural": 3067,
    "Ġmoney": 3418,
    "ine": 405,
    "Ġkrempe": 10669,
    "Ġoccupied": 5272,
    "Ġslapped": 23166,
    "ressed": 3023,
    "Ġstoke": 10395,
    "Ġrobert": 10970,
    "¨": 106,
    "Ġunwell": 22012,
    "Ġremedy": 18722,
    "Ġembellished": 25848,
    "happy": 4424,
    "odecim": 9831,
    "ria": 15793,
    "contempt": 13187,
    "younger": 11312,
    "any": 3339,
    "irts": 9237,
    "gence": 875,
    "visit": 7754,
    "pale": 13770,
    "Ġminutes": 2999,
    "Ġgibe": 25959,
    "sham": 9757,
    "gorith": 549,
    "ale": 504,
    "Ġjames": 6419,
    "Ġunanswerable": 26521,
    "Y": 61,
    "single": 10126,
    "Ġasks": 5115,
    "Ġrewarded": 14939,
    "affected": 10476,
    "Ġrecumbent": 22739,
    "Ġupp": 13991,
    "always": 5708,
    "house": 4075,
    "infliction": 25924,
    "hunt": 20902,
    "Ġequalled": 13311,
    "strong": 6322,
    "three": 5238,
    "waited": 24585,
    "porpoise": 16437,
    "Ġaffections": 10384,
    "whispered": 20032,
    "Ġbravery": 23833,
    "longbourn": 9895,
    "Ġpatted": 16356,
    "Ġnovelty": 13462,
    "Ġix": 12665,
    "Ġstru": 2168,
    "Ġbottle": 7491,
    "precedented": 15173,
    "ront": 15417,
    "ak": 538,
    "Ġcolossal": 11459,
    "distrust": 19569,
    "recklessly": 25269,
    "chor": 6146,
    "odings": 4399,
    "Ġchristendom": 16695,
    "Ġinvestig": 10549,
    "Ġunlike": 7004,
    "Ġvirt": 3905,
    "sets": 17660,
    "Ġtrans": 643,
    "Ġnaught": 8127,
    "Ġsuperiority": 14616,
    "Ġunderground": 18984,
    "dear": 6555,
    "Ġreusability": 13557,
    "Ġprobably": 4314,
    "Ġsighs": 22704,
    "fron": 24281,
    "Ġcoloured": 11044,
    "tic": 8390,
    "arrang": 14652,
    "Ġscal": 1534,
    "ppo": 18175,
    "Ġmomentarily": 22811,
    "itar": 15544,
    "Ġindign": 6173,
    "Ġapprehen": 16829,
    "Ġinterior": 8894,
    "Ġcravat": 26307,
    "anth": 13886,
    "Ġdarkly": 19114,
    "Ġindomit": 22952,
    "serve": 13044,
    "Ġpricking": 23221,
    "comfortableness": 24525,
    "Ġdisgracing": 26255,
    "Ġpallidness": 25604,
    "Ġdoubtfully": 23476,
    "º": 123,
    "uous": 4142,
    "Ġtottenham": 24140,
    "Ġextra": 4054,
    "Ġstalk": 12694,
    "manifested": 20524,
    "Ġundone": 24115,
    "Ġemac": 16405,
    "Ġpool": 5173,
    "Ġvalued": 12180,
    "Ġign": 8293,
    "Ġalt": 18098,
    "Ġbehaviour": 4384,
    "Ġmilitia": 13316,
    "hoping": 17566,
    "Ġliveliest": 24775,
    "acked": 10973,
    "Ġsums": 2901,
    "taining": 7206,
    "sustained": 20567,
    "Ġnumberless": 16414,
    "Ġgrant": 11871,
    "behaved": 24463,
    "ruin": 22173,
    "Ġinsurgents": 26600,
    "dared": 13701,
    "Ġsprawling": 22142,
    "Ġthread": 14539,
    "Ġincreasing": 8247,
    "amidst": 25652,
    "fill": 15349,
    "Ġvers": 7564,
    "falsehood": 25901,
    "ud": 899,
    "Ġhighest": 3525,
    "Ġcasually": 25093,
    "Ġfish": 2712,
    "Ġletter": 2197,
    "Ġgritted": 22803,
    "vib": 21114,
    "Ġenraged": 10244,
    "uction": 15442,
    "idirectional": 2422,
    "rd": 17649,
    "Ġhabit": 6771,
    "eel": 11483,
    "Ġbrink": 18770,
    "plainly": 11089,
    "leviathans": 19936,
    "iii": 14773,
    "Ġbutcher": 18271,
    "Ġdescended": 7428,
    "uation": 17694,
    "Ġlandscape": 12415,
    "eldom": 4413,
    "dy": 3860,
    "Ġthro": 5817,
    "Ġforget": 2635,
    "welt": 12518,
    "Ġimportance": 4900,
    "Ġwalker": 23306,
    "Ġopenly": 8572,
    "Ġagency": 11804,
    "flame": 16637,
    "attered": 4015,
    "Ġholds": 7975,
    "Ġarrog": 18345,
    "Ġhor": 1658,
    "Ġperplex": 2717,
    "Ġgladstone": 23866,
    "Ġmexico": 15279,
    "Ġswitching": 23054,
    "Ġberyls": 25775,
    "Ġsenseless": 12076,
    "Ġrounded": 14438,
    "Ġbetokened": 18795,
    "Ġulster": 14997,
    "Ġcircumspect": 15083,
    "Ġubiqu": 18046,
    "Ġans": 1644,
    "04": 10679,
    "transom": 19734,
    "Ġcells": 13884,
    "Ġanyone": 4458,
    "ĠĠĠĠĠĠĠĠĠĠĠĠĠĠĠĠĠĠĠĠĠĠĠĠĠĠĠĠĠĠĠĠĠĠĠĠĠĠĠĠĠĠĠĠĠ": 9951,
    "Ġcrane": 23438,
    "Ġunsupervised": 2416,
    ":--": 5784,
    "Ġmortals": 9915,
    "venant": 22625,
    "Ġknee": 7093,
    "Ġreverence": 12057,
    "Ġsweetheart": 19393,
    "cely": 3572,
    "Ġcott": 3707,
    "Ġaccuse": 14209,
    "stains": 11636,
    "Ġeaglet": 19303,
    "Ġgasping": 17038,
    "istan": 22105,
    "Ġcringing": 25941,
    "archangel": 18790,
    "africa": 26308,
    "requ": 7148,
    "Ġstricken": 9775,
    "Ġfearlessness": 19160,
    "Ġshrunk": 16718,
    "rinted": 21042,
    "ccarthy": 4888,
    "putable": 10901,
    "Ġostrich": 26430,
    "electricity": 26385,
    "Ġimplac": 24874,
    "Ġmisunderstood": 18705,
    "propriety": 14366,
    "Ġwaifing": 25243,
    "Ġat": 393,
    "Ġdesolated": 24812,
    "meanwhile": 10609,
    "ezing": 10573,
    "Ġmissionary": 25696,
    "cod": 12441,
    "Ġrefusal": 10344,
    "Ġvernal": 23886,
    "Ġharsh": 9520,
    "food": 12461,
    "Ġbil": 15562,
    "direct": 12454,
    "fri": 20853,
    "Ġcarries": 7674,
    "Ġsunlight": 13083,
    "Ġhappy": 2465,
    "reement": 15510,
    "Ġhead": 1125,
    "ixed": 4850,
    "Ġapplications": 4782,
    "Ġsquare": 2397,
    "conscientious": 19625,
    "took": 6164,
    "Ġsacri": 18328,
    "Ġaffliction": 25844,
    "Ġfrosty": 14934,
    "Ġtangles": 25761,
    "chemical": 23806,
    "unworthy": 18161,
    "Ġfriesland": 26442,
    "Ġillness": 8589,
    "Ġrambling": 18646,
    "unfort": 21873,
    "maid": 8553,
    "Ġslighted": 16567,
    "Ġfir": 17877,
    "Ġwaves": 3916,
    "Ġplaintiffs": 13608,
    "ieties": 19023,
    "Ġsmut": 22553,
    "coward": 13699,
    "Ġbaggy": 24538,
    "Ġgabriel": 7596,
    "Ġxv": 23405,
    "probably": 10019,
    "suspected": 12370,
    "Ġtraitors": 23075,
    "quake": 11679,
    "ercely": 12547,
    "access": 11180,
    "cus": 3978,
    "Ġunche": 23427,
    "Ġorgies": 18285,
    "Ġmonstrous": 7789,
    "Ġallegor": 25545,
    "Ġharpooneers": 4731,
    "Ġswimmer": 19457,
    "bearings": 25371,
    "Ġscaling": 3629,
    "Ġfeared": 5930,
    "Ġgout": 21593,
    "Ġconstraints": 2742,
    "Ġrebell": 21666,
    "Ġflank": 8228,
    "Ġauthors": 10418,
    "Ġmountain": 3372,
    "Ġsits": 10768,
    "oll": 5456,
    "ograph": 4796,
    "Ġunostentatious": 22065,
    "Ġharbor": 10026,
    "Ġnoses": 18372,
    "eastward": 15128,
    "her": 488,
    "Ġdefendants": 15139,
    "Ġgoble": 14229,
    "Ġstove": 6733,
    "Ġskewer": 19619,
    "Ġthese": 821,
    "Ġdames": 23472,
    "ogn": 2481,
    "ended": 1832,
    "reference": 13839,
    "Ġfrigates": 25707,
    "foreign": 18544,
    "ix": 1799,
    "Ġtenderness": 12213,
    "anel": 21355,
    "Ġamendment": 26024,
    "istence": 2403,
    "Ġhaze": 18196,
    "Ġconciliating": 19045,
    "Ġgrenadier": 21613,
    "papers": 12499,
    "Ġadvancement": 24475,
    "Ġboat": 1277,
    "Ġdisconnected": 22522,
    "Ġkings": 7197,
    "Ġbuffaloes": 25217,
    "Ġalchemists": 26487,
    "Ġbone": 4694,
    "Ġimmortal": 8017,
    "iving": 1726,
    "Ġhandkerchief": 8913,
    "certain": 3675,
    "Ġhousings": 21490,
    "Ġbran": 5250,
    "idelburgh": 10560,
    "Ġbraz": 19356,
    "Ġspilled": 10923,
    "Ġenthus": 7232,
    "formality": 22219,
    "Ġgasped": 11372,
    "Ġsquad": 22838,
    "¹": 122,
    "Ġdefray": 22938,
    "Ġjaws": 5593,
    "Ġvon": 14080,
    "Ġbrooding": 18907,
    "Ġhood": 10823,
    "Ġsl": 1498,
    "Ġsplintered": 11418,
    "Ġmeditative": 25014,
    "Ġmetropolitan": 17275,
    "ò": 179,
    "Ġbackwards": 12922,
    "Ġexalted": 12410,
    "rage": 10843,
    "frantic": 24283,
    "Ġlens": 8437,
    "school": 10054,
    "chair": 5916,
    "Ġtoler": 7589,
    "footed": 19688,
    "nett": 16219,
    "Ġglided": 7447,
    "Ġgreater": 3039,
    "Ġunsolved": 22028,
    "Ġflying": 5413,
    "dler": 13705,
    "prior": 21031,
    "Ġheredit": 9216,
    "Ġcharm": 4547,
    "Ġadopt": 10632,
    "Ġchat": 6560,
    "Ġdeep": 818,
    "caroline": 24147,
    "Ġ101": 24409,
    "Ġcontributed": 16007,
    "Ġclim": 8194,
    "arat": 9174,
    "offices": 19063,
    "preserving": 25304,
    "lung": 17591,
    "tallied": 21088,
    "reception": 15513,
    "Ġmaterials": 11288,
    "Ġlascar": 9199,
    "Ġledgers": 23935,
    "intense": 22933,
    "đ": 210,
    "Ġfeeling": 3085,
    "Ġsporting": 16999,
    "Ġtort": 5901,
    "ĠĠĠĠĠĠĠĠĠĠĠĠĠĠĠĠĠĠĠĠĠĠĠĠĠĠĠĠĠĠĠ": 19699,
    "gunpowder": 25339,
    "ober": 15405,
    "ienced": 5685,
    "collected": 13212,
    "Ġenable": 686,
    "Ġtar": 2564,
    "Ġdissect": 16051,
    "happ": 3104,
    "astrous": 15884,
    "entary": 21564,
    "Ġtransports": 24277,
    "childhood": 16868,
    "engines": 18927,
    "broken": 8020,
    "Ġfisher": 3220,
    "Ġslink": 23158,
    "ears": 20844,
    "mai": 22911,
    "asse": 15642,
    "Ġcompliance": 12112,
    "lock": 1471,
    "Ġcorpusants": 13676,
    "ab": 345,
    "Ġthrusts": 24350,
    "rock": 15638,
    "Ġheads": 3739,
    "Ġrecent": 7436,
    "Ġname": 2083,
    "rip": 9240,
    "urously": 18050,
    "crazy": 24691,
    "Ġmessages": 24981,
    "oy": 1020,
    "Ġslow": 2378,
    "noble": 7922,
    "furn": 10091,
    "Ġriotous": 20543,
    "Ġsitu": 3492,
    "Ġapartment": 6633,
    "Ġprognost": 15280,
    "Ġuniverse": 14123,
    "Ġindef": 9189,
    "Ġmechanis": 1214,
    "plete": 10919,
    "Č": 205,
    "Ġstoner": 7178,
    "Ġcranial": 25592,
    "continuance": 19717,
    "pad": 13767,
    "Ġuntil": 2669,
    "Ġstretched": 5919,
    "Ġdears": 18139,
    "Ġwaterproof": 19088,
    "Ġphr": 2684,
    "sneezes": 11446,
    "Ġexhaustion": 14960,
    "inarticulate": 21194,
    "Ġstud": 1530,
    "things": 6032,
    "Ġcivility": 4787,
    "Ġdropt": 23672,
    "Ġpresumed": 10544,
    "gathered": 13731,
    "Ġodd": 6624,
    "Ġsordid": 26422,
    "lect": 1222,
    "Ġexplanatory": 22199,
    "ext": 923,
    "ounds": 4154,
    "Ġconsistent": 14528,
    "Ġsuperfluous": 17413,
    "suddenly": 6493,
    "ru": 478,
    "mun": 20961,
    "produ": 10720,
    "Ġwillingly": 8884,
    "jure": 20923,
    "Ġshameful": 19851,
    "Ġlikewise": 5386,
    "etw": 406,
    "Ġgriff": 22804,
    "Ġparaph": 22144,
    "Ġkick": 5837,
    "aited": 12433,
    "Ġabounding": 12342,
    "Ġlifting": 10196,
    "Ġlasting": 18791,
    "Ġrough": 7187,
    "Ġprofounder": 23568,
    "itude": 1418,
    "exc": 5169,
    "Ġkidn": 20204,
    "ics": 3256,
    "Ġweeds": 21920,
    "Ġsickle": 24245,
    "Ġtomb": 8807,
    "Ġsoutherly": 23332,
    "Ġaction": 5796,
    "Ġlikened": 16499,
    "Ġsignificance": 13278,
    "Ġhierarchical": 1928,
    "russian": 22176,
    "hunsford": 24386,
    "Ġfeedforward": 2326,
    "Ġinspect": 5963,
    "Ġstript": 23690,
    "tically": 3393,
    "heidelburgh": 21210,
    "washed": 13043,
    "Ġadmitting": 19182,
    "race": 11630,
    "beds": 16586,
    "waters": 11333,
    "wheeling": 22866,
    "Ġswelled": 11087,
    "Ġwarmest": 16484,
    "Ġcondu": 18112,
    "Ġdeceitfulness": 25734,
    "Ġglancing": 5399,
    "Ġrounding": 16274,
    "Ġoffers": 12943,
    "Ġinclusive": 24163,
    "intern": 23734,
    "Ġequator": 7462,
    "jour": 20926,
    "lins": 2027,
    "Ġpredicting": 2417,
    "Ġahoy": 12182,
    "Ġunwarranted": 25171,
    "Ġcommitting": 22670,
    "yourself": 6742,
    "Ġintermix": 22574,
    "Ġexecutioner": 12269,
    "Ġswash": 23052,
    "Ġimperfectly": 25727,
    "Ġlouisiana": 25076,
    "tles": 10730,
    "ackinaw": 22418,
    "Ġdonkey": 23226,
    "Ġkl": 2738,
    "Ġmouse": 4693,
    "Ġprevailed": 7777,
    "Ġwished": 3728,
    "Ġstore": 8453,
    "?": 35,
    "accompanied": 12420,
    "Ġprotested": 9933,
    "Ġlaws": 8002,
    "links": 20957,
    "Ġinterrupting": 19556,
    "Ġhospitable": 17060,
    "lemagne": 26436,
    "ogr": 18675,
    "Ġtwig": 11848,
    "Ġdines": 21426,
    "sombre": 23851,
    "unnatural": 15770,
    "Ġtw": 841,
    "ermost": 7430,
    "Ġrecall": 3854,
    "share": 14236,
    "Ġbequeathed": 20700,
    "cial": 2649,
    "judging": 24201,
    "Ġinflict": 15001,
    "risonment": 17374,
    "continually": 11302,
    "ahab": 4290,
    "feature": 4228,
    "murmured": 24455,
    "torn": 17682,
    "Ġgathers": 24743,
    "Ġ115": 24439,
    "months": 9071,
    "Ġblankness": 24610,
    "tubes": 25211,
    "valued": 2852,
    "Ġengraving": 17080,
    "Ġeyed": 12664,
    "indeed": 4487,
    "Ġunrivalled": 26519,
    "Ġdisco": 3428,
    "iring": 1706,
    "Ġperiodically": 19493,
    "Ġdisobedience": 22532,
    "iling": 3094,
    "ved": 868,
    "Ġdrag": 6184,
    "ime": 626,
    "icy": 6140,
    "pump": 21016,
    "longer": 8612,
    "Ġsplendidly": 25327,
    "Ġgri": 17987,
    "Ġbash": 12583,
    "Ġequin": 14496,
    "bar": 7542,
    "sell": 13780,
    "opportunity": 12272,
    "Ġsculpture": 26016,
    "Ġrecently": 11860,
    "Ġinjustice": 9190,
    "beam": 16037,
    "Ġsangu": 15503,
    "ism": 4874,
    "Ġlittle": 866,
    "Ġvelvet": 12396,
    "Ġinstincts": 16986,
    "Ġsheepfold": 25466,
    "endeavoured": 12278,
    "jacket": 12290,
    "/`)": 13659,
    "deserving": 17241,
    "Ġperchance": 15989,
    "),": 1350,
    "Ġslabs": 13058,
    "Ġnind": 17949,
    "Ġassembl": 20059,
    "nered": 18488,
    "burst": 10537,
    "ortal": 6265,
    "perfect": 7635,
    "vid": 914,
    "Ġrheumatic": 20704,
    "request": 21240,
    "Ġmerryweather": 9521,
    "istics": 1628,
    "code": 15328,
    "Ġcomfort": 3438,
    "Ġcaptiv": 16253,
    "Ġejac": 10203,
    "Ġreception": 9838,
    "Ġintersect": 22572,
    "initions": 21186,
    "Ġchannel": 26012,
    "Ġdevilish": 11228,
    "Ġliberties": 19666,
    "consequence": 9762,
    "Ġpraises": 16730,
    "Ġgoal": 10302,
    "Ġirene": 8443,
    "Ġaimed": 20249,
    "Ġcomposed": 8891,
    "Ġxavier": 2854,
    "prosperity": 20734,
    "Ġdestitute": 14565,
    "Ġsumatra": 15285,
    "Ġdomains": 6614,
    "Ġanswers": 7070,
    "irect": 5553,
    "gely": 10700,
    "covenant": 23561,
    "Ġdoubly": 16384,
    "Ġruminated": 24599,
    "Ġtemptation": 8677,
    "Ġsweatings": 25710,
    "Ġwhereupon": 14293,
    "Ġswayed": 15047,
    "wrinkles": 16555,
    "ctu": 5088,
    "load": 12878,
    "jephro": 26392,
    "Ġcetacean": 25878,
    "preading": 18499,
    "Ġtopsails": 19192,
    "Ġdrows": 21438,
    "Ġdigest": 24647,
    "Ġtie": 10750,
    "Ġsimplicity": 2922,
    "Ġforlorn": 14014,
    "Ġstep": 754,
    "Ġflo": 2587,
    "batim": 25016,
    "Ġmultiplication": 2870,
    "reward": 15508,
    "Ġyore": 21775,
    "Ġelevation": 14898,
    "nearly": 8680,
    "Ġdeuteronomy": 15757,
    "greeting": 24554,
    "Ġblemish": 19678,
    "Ġplutarch": 22600,
    "terns": 21819,
    "Ġbulge": 23854,
    "Ġeduc": 4784,
    "Ġalpine": 18105,
    "flo": 6114,
    "Ġpurposes": 11168,
    "Ġcomparable": 24278,
    "Ġhereditarily": 25224,
    "Ġburgled": 23653,
    "pling": 8474,
    "Ġinboard": 17932,
    "Ġapiece": 16813,
    "Ġmending": 17804,
    "Ġelevates": 24503,
    "Ġafford": 4366,
    "Ġfoundling": 22965,
    "Ġdistraction": 22503,
    "Ġproportionably": 19969,
    "Ġhopeless": 7463,
    "Ġol": 17814,
    "hunters": 16833,
    "Ġsolemnity": 9940,
    "Ġglowing": 12280,
    "Ġbod": 4580,
    "Ġdevoutly": 25832,
    "Ġthrusting": 10552,
    "Ġoffended": 7040,
    "Ġclassifies": 11832,
    "Ġ58": 24326,
    "Ġespecially": 3934,
    "Ġearly": 2079,
    "biting": 20779,
    "Ġutility": 23513,
    "oce": 10714,
    "Ġqualifications": 24675,
    "itation": 1780,
    "Ġglimmer": 15140,
    "Ġisolated": 13558,
    "Ġcontingency": 26244,
    "Ġguilty": 7250,
    "Ġemergency": 25731,
    "Ġtragic": 15254,
    "sim": 6510,
    "perils": 22180,
    "Ġarriving": 19216,
    "blubber": 15235,
    "Ġoffice": 4965,
    "Ġreally": 2157,
    "wharf": 20605,
    "anted": 5027,
    "Ġxxxiv": 24967,
    "contains": 16028,
    "season": 14033,
    "Ġobedience": 11413,
    "oury": 22308,
    "Ġcottage": 4733,
    "believe": 8303,
    "Ġgestic": 21605,
    "Ġloc": 10914,
    "Ġunrival": 22042,
    "joke": 20929,
    "undant": 14785,
    "Ġmorose": 18842,
    "ney": 2494,
    "headers": 23105,
    "Ġpreser": 6040,
    "Ġaperture": 26160,
    "Ġsplinter": 23745,
    "Ġpoured": 8800,
    "Ġgrowl": 16537,
    "Ġmeasurement": 19421,
    "Ġdisregarded": 22527,
    "Ġoffending": 22741,
    "mont": 19168,
    "ougher": 18280,
    "Ġprofusion": 23567,
    "Ġfore": 2151,
    "iled": 1765,
    "accomplishment": 20222,
    "grinder": 23413,
    "Ġvertebra": 20180,
    "icket": 22665,
    "circle": 16736,
    "Ġmaddened": 17244,
    "tort": 17675,
    "Ġrooted": 13168,
    "Ġunmanufactured": 20432,
    "plexy": 18575,
    "Ġfoundering": 21417,
    "Ġsaucer": 20604,
    "Ġsaxon": 25468,
    "ress": 929,
    "Ġimpenitent": 26548,
    "Ġseethe": 21960,
    "cal": 1119,
    "Ġhoped": 5488,
    "Ġhieroglyphic": 25587,
    "pointing": 12222,
    "Ġtasted": 12526,
    "Ġag": 685,
    "iterranean": 15547,
    "Ġdisease": 14257,
    "ent": 305,
    "Ġinvariably": 8063,
    "Ġemma": 20693,
    "Ġmutters": 23953,
    "avor": 14275,
    "Ġconventional": 25547,
    "protruding": 24816,
    "pier": 17635,
    "Ġtill": 1823,
    "odious": 21809,
[...]
