{
  "metadata": {
    "vocab_size": 26616,
    "algorithm": "BPE",
    "created_at": "2026-05-26 06:05:41",
    "special_tokens": [
      "<PAD>",
      "<SOS>",
      "<EOS>",
      "<UNK>",
      "<MASK>"
    ]
  },
  "vocab": {
    "Ġcomplicated": 14738,
    "gladness": 25195,
    "Ġexpiration": 22628,
    "Ġclouds": 5775,
    "Ġabhorrent": 16858,
    "Ġwrithed": 17107,
    "Ġwarmed": 12028,
    "urrection": 12413,
    "W": 59,
    "Ġtone": 4038,
    "Ġhansom": 13668,
    "teness": 23211,
    "points": 14397,
    "Ġbec": 1352,
    "Ġappalled": 22227,
    "acknowledged": 15207,
    "Ġcensured": 25097,
    "Ġtumbled": 13410,
    "Ġincredulity": 11314,
    "70": 17478,
    "repro": 10772,
    "Ġrat": 4352,
    "Ġconclusion": 5986,
    "Ġsave": 4050,
    "themselves": 6541,
    "eddling": 11905,
    "Ġexplore": 15912,
    "Ġtrustees": 24109,
    "mur": 5428,
    "had": 1950,
    "scy": 21058,
    "unct": 18158,
    "garity": 17556,
    "Ġdevices": 2938,
    "Ġtinker": 15136,
    "Ġpersist": 16276,
    "Ġelixir": 26557,
    "ually": 2769,
    "ash": 1992,
    "Ġagrees": 22520,
    "Ġranged": 10261,
    "estic": 4955,
    "Ġfire": 2329,
    "Ġsettling": 11064,
    "Ġliter": 8816,
    "Ġuncomp": 15845,
    "Ġmoist": 9288,
    "agers": 5633,
    "Ġexercise": 8359,
    "Ġfle": 3089,
    "Ġscheme": 7065,
    "Ġherd": 7887,
    "travelling": 24339,
    "Ġbulge": 23861,
    "comm": 7440,
    "Ġwallow": 19469,
    "Ġchancing": 22252,
    "Ġwid": 4632,
    "Ġdebility": 24276,
    "ool": 17620,
    "Ġheron": 22077,
    "response": 25763,
    "Ġthre": 2059,
    "rees": 5436,
    "Ġye": 900,
    "Ġcandour": 14675,
    "Ġhoarse": 14528,
    "Ġslices": 23171,
    "Ġsplinter": 23750,
    "Ġconfirmation": 17213,
    "Ġgrated": 22807,
    "Ġcul": 17825,
    "sails": 7498,
    "Ġcondesc": 7182,
    "Ġinconsistency": 26184,
    "Ġhurtling": 24960,
    "Ġextending": 11026,
    "Ģ": 227,
    "acious": 5562,
    "Ġazores": 20195,
    "Ġbre": 1915,
    "wouldn": 23539,
    "Ġusages": 15920,
    "Ġclusters": 25233,
    "Ġenthusiastic": 19968,
    "ravity": 21638,
    "erns": 8782,
    "Ġboarding": 12091,
    "dost": 14537,
    "aste": 4601,
    "Ġfoaming": 18994,
    "Ġstability": 1368,
    "prints": 23817,
    "»": 124,
    "ian": 1237,
    "Ġgaping": 13972,
    "Ġquitted": 5312,
    "discoveries": 25386,
    "Ġerskine": 17435,
    ",)": 9104,
    "Ġworshipper": 25693,
    "feeder": 12365,
    "Ġviolently": 6455,
    "Ġdiversion": 17200,
    "idly": 12705,
    "Ġcord": 5222,
    "functions": 11258,
    "Ġcele": 9903,
    "Ġpist": 12620,
    "Ġbehavioral": 11399,
    "eenth": 12465,
    "Ġmodesty": 12823,
    "ĠlinnÃ¦us": 15279,
    "Ġencourag": 1396,
    "rot": 21535,
    "borean": 25744,
    "Ġinadequate": 17940,
    "aulets": 18622,
    "rannical": 26403,
    "Ġespe": 21158,
    "mystic": 25317,
    "Ġamusement": 8055,
    "ortunity": 4403,
    "Ġpreliminaries": 25177,
    "profound": 16429,
    "village": 25423,
    "Ġimmensities": 25331,
    "Ġpreventing": 884,
    "Ġworshipped": 25692,
    "Ġcowardice": 17033,
    "Ġwatery": 6297,
    "Ġcroquet": 9965,
    "Ġsatan": 14394,
    "Ġsumatra": 15290,
    "ruit": 22202,
    "seam": 10876,
    "Ġcupidity": 24536,
    "Ġprayers": 12128,
    "Ġcomply": 8894,
    "Ġrural": 21972,
    "Ġbeer": 10222,
    "usages": 22294,
    "Ġwhirling": 12253,
    "Ġmanly": 22328,
    "tray": 21080,
    "Ġinstructing": 3121,
    "Ġtransportation": 13646,
    "Ġtwice": 4661,
    "Ġbreaching": 23351,
    "Ġesq": 15113,
    "oice": 1387,
    "Ġ133": 24782,
    "Ġclean": 5652,
    "Ġdrily": 23543,
    "Ġfasten": 11134,
    "ks": 3144,
    "rucastle": 22203,
    "Ġserpent": 6739,
    "Ġthine": 7374,
    "Ġpauper": 26180,
    "Ġxx": 5492,
    "Ġmantle": 25275,
    "Ġserving": 14490,
    "Ġsebastian": 11701,
    "quickness": 19851,
    "Ġweld": 8111,
    "Ġassociates": 24710,
    "Ġpeasant": 13555,
    "Ġsettee": 22924,
    "Ġinvulnerable": 19148,
    ".]": 15302,
    "Ġoutlandish": 12843,
    "uits": 21107,
    "Ġhatherley": 7848,
    "derbyshire": 18322,
    "Ġreader": 11938,
    "Ġbeckoned": 25794,
    "Ġelderly": 13498,
    "solute": 16600,
    "Ġmicrosc": 20679,
    "Ġweather": 3994,
    "Ġparchment": 13656,
    "Ġribbed": 16806,
    "Ġbristol": 14384,
    "destined": 24116,
    "Ġfossils": 20224,
    "irements": 22216,
    "Ġobscured": 15014,
    "Ġpreliminary": 10060,
    "Ġconjectures": 16926,
    "frankly": 20024,
    "Ġsecond": 1883,
    "Ġfatality": 12100,
    "Ġpint": 17910,
    "Ġmyster": 5927,
    "moved": 9789,
    "Ġtraversed": 18894,
    "Ġpyramid": 8806,
    ".;": 20746,
    "asher": 15650,
    "attain": 21264,
    "Ġpeas": 8535,
    "Ġbalm": 22909,
    "Ġgates": 10203,
    "raint": 18317,
    "Ġscoresby": 10463,
    "learnt": 23593,
    "Ġexcellence": 11454,
    "Ġbol": 6243,
    "ė": 216,
    "Ġtahit": 10756,
    "Ġblinds": 8006,
    "eldom": 4414,
    "Ġshr": 4224,
    "Ġbear": 3656,
    "Ġband": 5292,
    "forth": 9324,
    "Ġbrooded": 23109,
    "Ġgroaned": 11269,
    "Ġcaw": 13886,
    "illes": 12699,
    "formity": 10281,
    "Ġceaseless": 13492,
    "Ġtin": 15466,
    "Ġconceals": 23908,
    "Ġunav": 18242,
    "Ġimbued": 17458,
    "Ġtrapped": 23081,
    "Ġhammer": 6095,
    "}": 97,
    "Ġarithmetic": 18344,
    "ifiable": 18167,
    "wild": 8771,
    "Ġimpatiently": 8337,
    "ĠĠĠĠĠĠĠĠĠĠĠĠĠĠĠĠĠĠĠĠĠĠĠĠĠĠĠĠĠ": 19701,
    "Ġanat": 8123,
    "Ġceases": 19314,
    "Ġcorpora": 26582,
    "Ġmultitud": 18748,
    "Ġtrifle": 10604,
    "Ġplus": 3880,
    "vapor": 25756,
    "sailor": 14718,
    "remained": 8572,
    "Ġrecorded": 11296,
    "raction": 8137,
    "Ġrelatives": 12987,
    "Ġwhisky": 23938,
    "violently": 23546,
    "Ġlazily": 11383,
    "Ġlo": 453,
    "iosity": 2418,
    "silence": 8044,
    "Ġresolves": 23650,
    "aps": 1229,
    "ff": 462,
    "Ġgunwales": 12245,
    "Ġsquaw": 22841,
    "Ġmovable": 22439,
    "bath": 13693,
    "Ġmermaids": 26171,
    "pertaining": 22183,
    "Ġtreated": 7081,
    "arrested": 15605,
    "Ġanomalous": 25638,
    "dead": 8179,
    "bing": 7791,
    "Ġcassock": 20489,
    "Ġabomin": 8188,
    "Ġcuvier": 9168,
    "sailors": 9925,
    "Ġslaves": 23175,
    "Ġsly": 9635,
    "Ġresembling": 4096,
    "inqu": 6123,
    "Ġextant": 18690,
    "ñ": 178,
    "poles": 16213,
    "wling": 11548,
    "Ġafar": 14296,
    "Ġeagerly": 4989,
    "Ġlightly": 13089,
    "Ġevidently": 6760,
    "Ġwilds": 16511,
    "Ġconcer": 23323,
    "adamite": 20596,
    "Ġspring": 4118,
    "Ġinsolence": 20255,
    "Ġpursuits": 12081,
    "Ġjesty": 18406,
    "Ġtarred": 23612,
    "Ġren": 3844,
    "Ġpromptly": 23822,
    "ison": 3073,
    "Ġfundamental": 3008,
    "Ġglory": 6066,
    "Ġ124": 24470,
    "capable": 13705,
    "worth": 8630,
    "buoy": 7760,
    "Ġdegenerated": 20508,
    "Ġdearest": 5457,
    "±": 114,
    "advancing": 14839,
    "Ġsubdued": 11032,
    "Ġsubtle": 6718,
    "Ġspan": 11733,
    "ingale": 21302,
    "ager": 6547,
    "Ġtaller": 16689,
    "Ġbrought": 2511,
    "nals": 16403,
    "produced": 25415,
    "Ġovers": 14209,
    "Ġpage": 6979,
    "gems": 20886,
    "Ġrequired": 7223,
    "Ġrue": 11872,
    "transition": 24514,
    "Ġglobules": 26590,
    "Ġstrangled": 24135,
    "Ġgrounded": 23714,
    "ential": 828,
    "Ġcannibals": 10590,
    "Ġmabel": 17327,
    "stript": 21660,
    "continually": 11305,
    "irth": 5634,
    "Ġnext": 2140,
    "hard": 4689,
    "moid": 2446,
    "Ġweeps": 24950,
    "ais": 8070,
    "nue": 15400,
    "Ġvarieties": 14314,
    "Ġworks": 5860,
    "Ġpresumed": 10547,
    "conveyed": 20524,
    "Ġcapsizing": 20091,
    "Ġwhale": 628,
    "Ġgreatness": 12948,
    "Ġinterchange": 16075,
    "arer": 3966,
    "hur": 6651,
    "Ġzeros": 3324,
    "Ġvivacity": 14944,
    "Ġregulate": 22590,
    "Ġcaus": 1725,
    "ild": 1154,
    "bale": 20776,
    "Ġsurpl": 19134,
    "Ġminiature": 11042,
    "Ġtrivial": 10145,
    "imagination": 13484,
    "Ġquestioning": 10466,
    "Ġsaws": 23053,
    "Ġright": 1506,
    "Ġgulp": 20031,
    "Ġirons": 7696,
    "Ġorders": 5341,
    "boy": 4738,
    "Ġstump": 7607,
    "Ġdanger": 3517,
    "hoisting": 23719,
    "Ġwhistled": 24621,
    "eling": 6683,
    "Ġhobbling": 25645,
    "Ġnovelties": 24777,
    "kward": 6958,
    "arrival": 15604,
    "Ġapoplexy": 25266,
    "Ġjug": 12840,
    "ē": 212,
    "Ġplug": 17150,
    "Ġreve": 2930,
    "Ġentity": 10345,
    "ske": 13785,
    "cient": 4569,
    "Ġmanipulated": 25179,
    "Ġcomfortless": 23917,
    "Ġ[\"": 19932,
    "Ġcorruption": 15230,
    "Ġrate": 1062,
    "Ġadmits": 23557,
    "Ġblo": 2732,
    "Ġlying": 4826,
    "Ġprocedural": 12035,
    "turbable": 24532,
    "dry": 13707,
    "Ġsalted": 14760,
    "immortal": 21713,
    "Ġconfusing": 23311,
    "arming": 8954,
    "ifers": 15786,
    "Ġappellation": 22228,
    "Ġpeaking": 22693,
    "Ġspark": 6691,
    "blunder": 24131,
    "Ġverses": 17065,
    "Ġcontrolled": 23255,
    "Ġvirtuous": 14758,
    "Ġswelled": 11090,
    "este": 15923,
    "icuous": 10837,
    "Ġsailors": 4276,
    "Ġimpertin": 6933,
    "Ġhundredth": 16520,
    "Ġbraced": 16582,
    "Ġcrunched": 19122,
    "Ġodious": 12155,
    "hetic": 12208,
    "sincere": 16909,
    "Ġconfirms": 23313,
    "impression": 15715,
    "Ġsenior": 17174,
    "icting": 12861,
    "Ġenormous": 5609,
    "Ġpane": 21465,
    "Ġpallid": 12303,
    "Ġgrasped": 8033,
    "rodu": 1819,
    "ilburn": 18063,
    "tranquillity": 20549,
    "Ġmand": 21307,
    "huzza": 20915,
    "legra": 10791,
    "despairing": 25077,
    "Ġcandidate": 16700,
    "grant": 10429,
    "Ġlabour": 7274,
    "Ġvindict": 13609,
    "Ġintu": 12768,
    "Ġbabel": 24427,
    "Ġpleas": 1908,
    "Ġstepfather": 7221,
    "unquiet": 21886,
    "erm": 784,
    "Ġflattened": 26048,
    "contents": 12062,
    "ced": 691,
    "Ġzealand": 12354,
    "Ġweariness": 19795,
    "branch": 23580,
    "Ġcautiously": 16978,
    "Ġhoriz": 4725,
    "Ġexclusion": 19399,
    "lit": 9608,
    "Ġabode": 7899,
    "Ġven": 4647,
    "upp": 10133,
    "Ġviolet": 19090,
    "Ġincites": 22555,
    "enjoy": 10776,
    "rium": 3131,
    "Ġlabel": 14517,
    "ccarthy": 4888,
    "Ġrevealing": 3922,
    "Ġcop": 7581,
    "Ġdoctors": 12156,
    "Ġbarnacled": 25537,
    "Ġtuck": 10143,
    "Ġdeep": 819,
    "forget": 11035,
    "Ĩ": 233,
    "Ġusurpation": 18358,
    "Ġgenus": 24430,
    "Ġcow": 13879,
    "creat": 20802,
    "Ġbackstays": 22665,
    "Ġshortness": 23484,
    "Ġhalls": 19528,
    "Ġdomin": 10464,
    "unks": 15779,
    "Ġastir": 14642,
    "true": 2584,
    "fork": 20859,
    "Ġdiscl": 9800,
    "Ġirreparable": 20001,
    "Ġmayhew": 12955,
    "Ġdisgracing": 26257,
    "sax": 21059,
    "nal": 1904,
    "Ġtypewritten": 16425,
    "ev": 6952,
    "hour": 7340,
    "cnns": 3618,
    "Ġcolds": 23761,
    "Ġhauling": 14090,
    "terbury": 21828,
    "curious": 10485,
    "Ġpublicly": 13326,
    "upset": 23022,
    "ampton": 18148,
    "angered": 16181,
    "Ġswiss": 18883,
    "Ġapo": 9633,
    "Ġhurricane": 16434,
    "Ġtrunks": 15968,
    "cr": 4011,
    "appear": 13200,
    "harmony": 25751,
    "trees": 10733,
    "Ġproxim": 3198,
    "broker": 13309,
    "Ġvi": 1953,
    "cest": 12449,
    "lected": 1638,
    "plun": 15823,
    "such": 3081,
    "iration": 4540,
    "ĠÂ£": 5005,
    "Ġproprietors": 20188,
    "Ġcame": 1304,
    "Ġ]": 15462,
    "Ġbags": 24538,
    "Ġsequence": 1975,
    "Ġdistributes": 4193,
    "Ġpatron": 7461,
    "Ġcoron": 4465,
    "withstand": 23031,
    "mis": 4521,
    "aswag": 21549,
    "Ġconstit": 8586,
    "Ġhyperborean": 26341,
    "Ġweeks": 4565,
    "superst": 11327,
    "children": 9058,
    "Ġpredicted": 2044,
    "husband": 8041,
    "Ġbeneficial": 23935,
    "Ġsurrender": 16451,
    "Ġunkindness": 22046,
    "Ġtowing": 9196,
    "ifference": 5632,
    "kempt": 20943,
    "sect": 8152,
    "dz": 4739,
    "Ġconvivial": 16550,
    "ille": 9222,
    "Ġlug": 15656,
    "everybody": 8614,
    "tooth": 18580,
    "Ġfret": 10808,
    "Ġshaved": 22007,
    "although": 8810,
    "etuous": 21586,
    "Ġturk": 6605,
    "ohn": 4561,
    "Ġthumb": 6982,
    "cap": 8372,
    "Ġignor": 4010,
    "increas": 10456,
    "Ġaffirm": 11892,
    "tiger": 13800,
    "Ġhad": 445,
    "Ġtrance": 12844,
    "Ġsatur": 1930,
    "speaking": 12103,
    "chanced": 18814,
    "compliments": 24807,
    "Ġthank": 3791,
    "completely": 12424,
    "Ġdeposit": 17271,
    "Ġcorrection": 5062,
    "Ġlearnable": 3993,
    "Ġdisd": 7031,
    "unken": 10239,
    "cherries": 19758,
    "Ġpuzzling": 14901,
    "detective": 24384,
    "Ġanimated": 7701,
    "title": 17290,
    "Ġlux": 8818,
    "humour": 7499,
    "Ġformations": 18750,
    "Ġcomprising": 16072,
    "Ġstamp": 7863,
    "lands": 8240,
    "Ġfirmament": 19474,
    "little": 3351,
    "ing": 273,
    "Ġeyelashes": 26107,
    "igation": 5919,
    "Ġplayers": 12043,
    "Ġmetropol": 11147,
    "Ġimpetuous": 25571,
    "Ġperseus": 10606,
    "Ġapplicable": 19017,
    "Ġparticulars": 5754,
    "attempt": 9363,
    "Ġstren": 15727,
    "bs": 3773,
    "Ġfolks": 14430,
    "oner": 6126,
    "Ġcoars": 14275,
    "Ġenslaved": 26315,
    "orient": 2875,
    "Ġdispel": 16598,
    "Ġredu": 1356,
    "pedest": 24823,
    "Ġnewspaper": 12368,
    "Ġcigarette": 20658,
    "Ġindians": 14414,
    "Ġman": 544,
    "uded": 6286,
    "Ġjackson": 24244,
    "Ġjoin": 4854,
    "yarn": 15460,
    "Ġfatally": 19397,
    "tomahawk": 25916,
    "Ġsurgeons": 23467,
    "decl": 8860,
    "sip": 10727,
    "ú": 187,
    "Ġabsence": 4894,
    "topic": 10530,
    "nearly": 8684,
    "Ġdisrespect": 18553,
    "Ġjung": 12841,
    "Ġjewels": 12373,
    "Ġelephants": 9867,
    "Ġcertainly": 2493,
    "Ġcombinations": 22859,
    "Ġprints": 16335,
    "sister": 5139,
    "Ġwherein": 14297,
    "allest": 5485,
    ")âĢĶ": 20744,
    "Ġtranquillize": 24756,
    "Ġbelow": 4060,
    "opius": 18509,
    "Ġexped": 7652,
    "rudent": 6481,
    "Ġpriest": 7527,
    "trained": 4237,
    "gul": 12470,
    "minded": 9040,
    "Ġprogram": 12999,
    "fixed": 7549,
    "Ġcapture": 3383,
    "anoke": 21364,
    "Ġscolded": 25473,
    "Ġhighlands": 22779,
    "skelter": 24491,
    "cross": 3572,
    "Ġflaming": 8566,
    "Ġdeclaration": 16639,
    "bent": 15315,
    "Ġconveys": 16857,
    "Ġbarber": 23793,
    "thread": 15830,
    "twinkle": 23706,
    "extensive": 18709,
    "Ġguernsey": 9354,
    "Ġcirc": 1985,
    "speckled": 23949,
    "cas": 20796,
    "hee": 10762,
    "answers": 22144,
    "Ġpolitic": 23621,
    "grown": 10102,
    "Ġsend": 4105,
    "Ġfinest": 10395,
    "Ġadvis": 9810,
    "ĠmanÅĵuv": 18418,
    "Ġthreatens": 24376,
    "Ġcompassion": 6486,
    "disgust": 23499,
    "daylight": 19055,
    "Ġstumble": 26485,
    "avery": 13687,
    "Ġstrain": 6024,
    "Ġminima": 3461,
    "lab": 3454,
    "wa": 5898,
    "Ġsuperior": 2752,
    "illity": 18297,
    "perch": 18337,
    "Ġsufferings": 7514,
    "Ġcalling": 5662,
    "Ġenem": 4707,
    "Ġmortally": 23921,
    "Ġappeals": 16319,
    "Ġapprehended": 26091,
    "Ġtheirs": 7026,
    "gar": 5615,
    "secure": 12240,
    "Ġceasing": 23760,
    "Ġdoc": 7200,
    "Ġcork": 12574,
    "³": 116,
    "imet": 21709,
    "Ġisa": 14028,
    "Ġexpanded": 14294,
    "Ġgardiner": 3236,
    "Ġtrust": 4077,
    "Ġride": 12763,
    "Ġrespons": 2683,
    "Ġlament": 7856,
    "Ġfogs": 25283,
    "Ġdampening": 2892,
    "pret": 7212,
    "dict": 15341,
    "idea": 9304,
    "ë": 172,
    "Ġsuperlatively": 26076,
    "sand": 21055,
    "omit": 13977,
    "Ġglossy": 15231,
    "Ġtenderest": 23553,
    "Ġwidows": 24240,
    "rusion": 11326,
    "Ġhandkerchief": 8917,
    "Ġtwopence": 18661,
    "Ġshores": 8852,
    "Ġstatement": 5255,
    "Ġwhich": 505,
    "pend": 6367,
    "illar": 5101,
    "mediate": 16516,
    "Ġmonkey": 8225,
    "ouch": 2778,
    "Ġobliging": 13247,
    "Ġtorment": 8677,
    "Ġconsole": 8150,
    "Ġlines": 4534,
    "american": 11403,
    "near": 5843,
    "Ġimpl": 7195,
    "Ġplat": 8522,
    "ó": 180,
    "faced": 8079,
    "anation": 5804,
    "ivities": 22081,
    "Ġexpedite": 24956,
    "Ġpoltroon": 26600,
    "terr": 8153,
    "disc": 4728,
    "Ġis": 347,
    "insulting": 26056,
    "Ġabundant": 17157,
    "carb": 20812,
    "look": 2258,
    "Ġaffront": 18790,
    "Ġconsort": 18722,
    "bold": 17490,
    "Ġrambling": 18646,
    "Ġhauled": 11699,
    "rival": 12747,
    "Ġduplicate": 17218,
    "Ġyawn": 7611,
    "rences": 9275,
    "Ġsurplus": 26304,
    "arent": 4248,
    "clu": 20801,
    "Ġinvoked": 19146,
    "Ġperplexed": 23661,
    "ssed": 3733,
    "aged": 2606,
    "eight": 9594,
    "Ġblotting": 25314,
    "Ġtem": 805,
    "Ġrage": 5110,
    "change": 6391,
    "Ġnewly": 9341,
    "ead": 2599,
    "lacings": 26135,
    "nt": 923,
    "Ġfrosted": 19805,
    "clothes": 9060,
    "Ġbulb": 23859,
    "Ġchilly": 25563,
    "mit": 4933,
    "Ġplainer": 23707,
    "discern": 14854,
    "turning": 8316,
    "Ġnearly": 3362,
    "Ġangrily": 9409,
    "aw": 1450,
    "Ġevian": 24295,
    "tured": 13798,
    "Ġmagazine": 23105,
    "Ġsidelong": 11441,
    "Ġsmothered": 20722,
    "Ġdisquis": 22531,
    "use": 2533,
    "Ġstupid": 7608,
    "Ġventil": 8018,
    "Ġpondicherry": 20493,
    "Ġobsequ": 14324,
    "Ġperform": 1034,
    "Ġmosses": 20165,
    "Ġconsiderations": 9412,
    "Ġbegun": 7243,
    "Ġperforms": 11882,
    "Ġtrap": 7673,
    "Ġbless": 4341,
    "Ġfingers": 5672,
    "Ġsub": 949,
    "Ġwithheld": 18118,
    "Ġprocured": 8680,
    "Ġenumerating": 15248,
    "majesty": 26282,
    "Ġwhereby": 11841,
    "whisper": 17084,
    "de": 459,
    "mped": 16650,
    "boone": 23258,
    "token": 21085,
    "Ġbethinking": 25280,
    "Ġtherein": 11781,
    "lengths": 24847,
    "Ġhuggins": 24826,
    "ara": 12611,
    "Ġrespond": 11179,
    "Ġunresting": 25554,
    "fatal": 17089,
    "Ġtoler": 7590,
    "Ġcountry": 2530,
    "Ġconsulting": 13433,
    "Ġpeak": 16130,
    "herself": 4890,
    "Ġsher": 3761,
    "vac": 15453,
    "Ġsurface": 5119,
    "Ġextremities": 19198,
    "Ġavail": 11229,
    "wake": 11549,
    "Ġsnows": 14729,
    "Ġyoung": 1507,
    "whaling": 7898,
    "word": 2484,
    "only": 3307,
    "Ġrecommended": 8671,
    "engine": 18929,
    "mates": 5073,
    "Ġrobust": 1366,
    "Ġoverboard": 6045,
    "og": 854,
    "03": 20750,
    "Ġretreating": 19801,
    "ifications": 9731,
    "Ġwarning": 9061,
    "lodged": 25908,
    "Ġsyn": 15916,
    "round": 3367,
    "Ġordered": 5833,
    "lin": 9606,
    "Ġbeliever": 25847,
    "Ġpudding": 17917,
    "Ġmenaced": 16296,
    "Ġworshippers": 25694,
    "Ġinterp": 16073,
    "ġ": 226,
    "Ġallowance": 14393,
    "Ġindoors": 18838,
    "Ġcoldly": 14652,
    "Ġanywhere": 8518,
    "anim": 6521,
    "Ġfork": 15736,
    "collected": 13217,
    "ethics": 8881,
    "Ġproposed": 7460,
    "Ġdifferen": 936,
    "Ġinjurious": 24274,
    "til": 17673,
    "Ġrather": 1497,
    "Ġprogressive": 5023,
    "moreover": 12974,
    "pred": 2799,
    "Ġshocking": 10437,
    "Ġcoil": 11823,
    "league": 17847,
    "Ġharvest": 13419,
    "Ġgrimesby": 11460,
    "ÿ": 192,
    "Ġsickening": 19606,
    "python": 4691,
    "ullen": 8234,
    "Ġscandal": 9084,
    "projecting": 26074,
    "uarded": 21108,
    "ak": 537,
    "honor": 19901,
    "Ġthirty": 4943,
    "interested": 9508,
    "ost": 5361,
    "causing": 25519,
    "dep": 6787,
    "Ġfelix": 4849,
    "Ġnumber": 1981,
    "Ġoutskirts": 17460,
    "Ġdew": 14046,
    "Ġfires": 16474,
    "Ġseriously": 7062,
    "Ġopens": 23629,
    "Ġshore": 4835,
    "Ġsuav": 22085,
    "Ġswims": 12124,
    "commanded": 16990,
    "humorously": 24024,
    "Ġneighbours": 8302,
    "Ġassistance": 6334,
    "Ġlaunched": 14929,
    "urday": 13998,
    "erick": 13851,
    "trop": 15439,
    "Ġreply": 4515,
    "alvan": 21507,
    "Ġinterrupt": 4358,
    "Ġadmitting": 19186,
    "bies": 15316,
    "Ġperceiving": 8879,
    "dependence": 17170,
    "ieged": 22581,
    "Ġ57": 24322,
    "Ġcause": 2408,
    "Ġ183": 13242,
    "obli": 23100,
    "Ġstig": 14006,
    "spoke": 11025,
    "stead": 10848,
    "Ġstung": 21745,
    "avor": 14280,
    "etrics": 21588,
    "Ġdesigns": 13017,
    "Ġhind": 9191,
    "pudding": 17649,
    "Ġdebated": 9043,
    "Ġmended": 21316,
    "Ġcasualties": 25513,
    "adoes": 11664,
    "Ġhe": 318,
    "Ġresolving": 9421,
    "Ġburgled": 23656,
    "asing": 5913,
    "Ġdiscoveries": 13363,
    "bull": 13694,
    "between": 5071,
    "deployment": 26529,
    "00": 1611,
    "Ġattaining": 15807,
    "Ġgraces": 18227,
    "Ġap": 5007,
    "fifth": 20148,
    "Ġsple": 21218,
    "Ġforbade": 15219,
    "Ġutmost": 5496,
    "sigma": 2998,
    "rings": 10724,
    "cl": 1495,
    "sander": 11530,
    "Ġcolumb": 22862,
    "supplied": 10522,
    "ago": 14068,
    "countenances": 24154,
    "Ġreasonable": 7253,
    "pier": 17637,
    "Ġscratch": 25565,
    "Ġbible": 9322,
    "Ġclassical": 22635,
    "Ġjustify": 11074,
    "Ġindefinitely": 25222,
    "Ġbenefits": 4286,
    "sharp": 10309,
    "didst": 19352,
    "Ġdesired": 4664,
    "warrior": 24797,
    "der": 468,
    "Ġconceivable": 16615,
    "vit": 13804,
    "Ġeuroclydon": 15300,
    "Ġjoes": 19232,
    "Ġpear": 11857,
    "commence": 19994,
    "uteness": 17989,
    "Ġindomitableness": 26573,
    "Ġamends": 14249,
    "darkness": 9514,
    "Ġwished": 3728,
    "body": 2304,
    "thinks": 16644,
    "Ġfiercely": 12957,
    "Ġgrunted": 16172,
    "Ġsigned": 11180,
    "strike": 14952,
    "ickering": 22673,
    "Ġsuppressing": 23001,
    "Ġfoiled": 23248,
    "malice": 17605,
    "Ġparticular": 2445,
    "Ġascendency": 20234,
    "Ġstart": 3256,
    "ino": 15482,
    "arranged": 19320,
    "Ġyer": 15738,
    "neurons": 3133,
    "atisf": 21266,
    "Ġtorrent": 17093,
    "uguese": 20734,
    "Ö": 151,
    "Ġbo": 797,
    "famous": 16917,
    "Ġparameter": 875,
    "Ġrefuse": 5739,
    "Ġweaver": 11692,
    "inhab": 10759,
    "Ġpermit": 9752,
    "aunt": 8369,
    "Ġcontributed": 16013,
    "ige": 12685,
    "comed": 8546,
    "Ġhats": 14621,
    "Ġbody": 2433,
    "Ġpossession": 5589,
    "Ġtribute": 15478,
    "jets": 20930,
    "Ġphiladel": 23889,
    "intern": 23739,
    "Ġeyel": 17097,
    "Ġbaronial": 23797,
    "Ġlangs": 13957,
    "rubbery": 17345,
    "Ġsavory": 23880,
    "Ġoun": 13866,
    "Ġvineyarder": 25607,
    "caught": 8730,
    "rect": 1599,
    "makers": 20984,
    "Ġ1828": 25720,
    "Ġabominably": 20068,
    "cure": 11477,
    "Ġtusked": 25427,
    "ension": 6570,
    "Ġpatentee": 25587,
    "Ġthey": 575,
    "Ġmodern": 3226,
    "thoroughly": 26510,
    "Ġserenity": 10031,
    "Ġaperture": 26161,
    "forgotten": 12420,
    "Ġhanding": 16135,
    "proportions": 22850,
    "Ġalliance": 18237,
    "Ġunpleasant": 7191,
    "Ġtougher": 21179,
    "Ġdescribing": 19256,
    "assed": 6420,
    "peace": 13054,
    "cou": 13699,
    "bottle": 20147,
    "sneezes": 11449,
    "Ġchapter": 2952,
    "raham": 18017,
    "reme": 2422,
    "rary": 4575,
    "unerative": 21901,
    "Ġgrosvenor": 17421,
    "Ġlye": 21554,
    "surrounded": 26089,
    "Ġretrogression": 26583,
    "Ġmiz": 10779,
    "Ġstubb": 1789,
    "Ġseemed": 1281,
    "coloured": 7291,
    "Ġmassive": 9935,
    "Ġblackest": 19100,
    "Ġflights": 24752,
    "Ġquoted": 22419,
    "Ġpugnacious": 26453,
    "Ġtremble": 6906,
    "sounded": 12271,
    "Ġcompromising": 22577,
    "timidity": 25754,
    "conjectured": 25182,
    "Ġorder": 1684,
    "Ġsympathise": 16796,
    "attentive": 17192,
    "utions": 1892,
    "dislike": 23497,
    "Ġaccelerate": 23231,
    "Ġsick": 4692,
    "Ġunfortunate": 5376,
    "Ġglue": 15678,
    "boat": 3361,
    "jer": 12485,
    "Ġsteak": 9832,
    "Ġintervened": 25482,
    "Ġworn": 6444,
    "Ġvisibly": 22879,
    "Ġflexible": 23778,
    "Ġordinary": 6098,
    "base": 20779,
    "Ġrigger": 19533,
    "Ġcam": 10164,
    "Ġ1846": 26085,
    "squee": 15433,
    "Ġdirecting": 16303,
    "Ġmadam": 5663,
    "Ġconfluent": 19041,
    "fully": 2201,
    "ocations": 23710,
    "Ġcomplexity": 1693,
    "assistance": 20373,
    "aspect": 10196,
    "urous": 10215,
    "Ġmissed": 8559,
    "Ġimmedi": 2902,
    "Ġdealer": 23981,
    "Ġmatters": 4973,
    "eur": 7546,
    "Ġdiet": 13913,
    "Ġpork": 21459,
    "umer": 9261,
    "Ġlargely": 14289,
    "inkle": 22617,
    "Ġoppression": 23653,
    "Ġunable": 4950,
    "int": 1199,
    "Ġcordage": 19680,
    "Ġworse": 4718,
    "Ġentreaties": 9038,
    "Ġshag": 9254,
    "net": 1195,
    "Ġrevealed": 6753,
    "Ġcranial": 25593,
    "Ġmountainous": 16601,
    "arboard": 7266,
    "alizing": 17943,
    "runs": 25416,
    "easily": 17536,
    "Ġgiving": 4083,
    "compar": 14362,
    "Ġcomposedly": 25184,
    "eli": 3871,
    "aping": 8193,
    "Ġunintellig": 22030,
    "tremendous": 20676,
    "sales": 17669,
    "mes": 1198,
    "pleasure": 5978,
    "Ġencountering": 11272,
    "hawk": 7122,
    "killing": 20944,
    "ahab": 4290,
    "cloth": 11941,
    "Ġsow": 17752,
    "metallic": 19881,
    "shish": 11798,
    "Ġrose": 3440,
    "oid": 3125,
    "therly": 18345,
    "venant": 22630,
    "rocket": 13947,
    "Ġwaning": 15537,
    "Ġcrystall": 20228,
    "Ġformal": 2939,
    "cc": 472,
    "deprived": 19899,
    "grasp": 16433,
    "Ġpassers": 18758,
    "Ġintercept": 14273,
    "whew": 22874,
    "through": 4022,
    "Ġconfirm": 9859,
    "Ġrubbing": 9323,
    "Ġtreacherous": 13558,
    "Ġavast": 9923,
    "Ġimprecations": 25821,
    "Ġopenness": 18959,
    "bow": 5424,
    "training": 2512,
    "control": 16545,
    "Ġannihil": 10177,
    "Ġtarshish": 12033,
    "Ġstyled": 24673,
    "Ġwides": 17791,
    "firmly": 20282,
    "oved": 5215,
    "Ġmanagement": 8192,
    "Ġclipping": 2437,
    "Ġfel": 1519,
    "Ġfrightful": 7735,
    "Ġannealing": 1557,
    "shoals": 24715,
    "Ġexclamation": 8702,
    "Ġborrowed": 17232,
    "filled": 9597,
    "Ġheaven": 3364,
    "Ġwax": 10778,
    "harpoon": 9493,
    "Ġcells": 13888,
    "Ġdav": 15594,
    "ington": 21304,
    "Ġentreaty": 10532,
    "Ġchaldee": 26236,
    "Ġdorm": 4822,
    "soc": 5175,
    "bro": 4033,
    "Ġadmeasure": 18294,
    "Ġenable": 684,
    "abeth": 907,
    "Ġtram": 11094,
    "Ġbusiness": 2229,
    "uming": 8493,
    "mer": 2829,
    "Ġsummers": 23877,
    "splash": 25210,
    "Ġstir": 5826,
    "readily": 19365,
    "ile": 520,
    "Ġautom": 3449,
    "Ġcommendation": 13614,
    "://": 11468,
    "Ġcharted": 22254,
    "confid": 14870,
    "Ġjoky": 18407,
    "Ġzones": 22823,
    "aments": 12730,
    "Ġimmediately": 3365,
    "rage": 10845,
    "blind": 16704,
    "Ġmuskets": 17058,
    "elop": 1496,
    "Ġimpassable": 20615,
    "Ġpant": 10819,
    "Ġhydraulic": 10067,
    "Ġjustified": 11910,
    "Ġblubber": 5666,
    "Ġdaring": 8120,
    "dragged": 16610,
    "Ġlooks": 4163,
    "dearest": 11740,
    "struck": 7861,
    "Ġanaly": 1127,
    "Ì": 141,
    "aly": 1096,
    "Ġstrike": 4856,
    "Ġunbroken": 18252,
    "Ġcommit": 18656,
    "Ġdirest": 22713,
    "iracle": 11246,
    "Ġcanterbury": 22171,
    "Ġfabric": 25948,
    "tailed": 17687,
    "boots": 11128,
    "Ġdevice": 1928,
    "Ġsurely": 6308,
    "Ġgenerative": 5644,
    "Ġejaculation": 20256,
    "Ġadmirer": 16840,
    "Ġvolume": 6770,
    "Ġanticip": 7507,
    "concerning": 9070,
    "mists": 17606,
    "Ġ71": 24263,
    "Ġgild": 15673,
    "Ġflirt": 14427,
    "Ġinterpretation": 19718,
    "Ġclutch": 15057,
    "Ġeffaced": 18539,
    "Ġindiscreet": 22960,
    "Ġdefects": 12337,
    "Ġaccost": 12851,
    "ezes": 9994,
    "Ġsacrificed": 17425,
    "oo": 7554,
    "fin": 5209,
    "Ġlabours": 8585,
    "tinted": 17685,
    "Ġtraged": 9355,
    "Ġgreater": 3032,
    "Ġmultiplication": 2867,
    "ckles": 22093,
    "Ġ22": 8278,
    "Ġessays": 19746,
    "Ġrobes": 16258,
    "Ġgradual": 20604,
    "Ġexcell": 10418,
    "notice": 16152,
    "Ġcl": 552,
    "itable": 5437,
    "Ġstruggle": 3675,
    "gratification": 24349,
    "Ġcor": 1324,
    "Ġmacro": 25940,
    "immediately": 10052,
    "Ġmem": 2164,
    "Ġjokes": 18409,
    "Ġcontour": 18475,
    "Ġdiscredit": 22783,
    "Ġupon": 720,
    "Ġhiss": 15792,
    "Ġburke": 19253,
    "mast": 3598,
    "canst": 22967,
    "Ġhumaneval": 25583,
    "'re": 12432,
    "Ġrags": 18647,
    "Ġdimens": 3148,
    "Ġsteel": 3886,
    "Ġevaluate": 3054,
    "forbid": 14358,
    "Ġrol": 3552,
    "Ġpolluted": 25594,
    "Ġarchitects": 18726,
    "utely": 8131,
    "Ġunfathom": 14793,
    "maul": 11897,
    "sooner": 14781,
    "Ġoverlook": 10962,
    "Ġunanswerable": 26523,
    "soled": 14334,
    "mentioned": 10626,
    "H": 44,
    "Ġ129": 24475,
    "quaker": 15767,
    "Ġislanders": 19505,
    "Ġrefreshed": 15294,
    "Ġchal": 18379,
    "Ġtomorrow": 21516,
    "Ġvitality": 15177,
    "ome": 535,
    "Ġlingered": 13508,
    "Ġinvaders": 23483,
    "Ġsullenly": 17175,
    "Ġsovere": 9259,
    "watch": 6120,
    "probability": 17024,
    "rmsprop": 4522,
    "silver": 19692,
    "beside": 19878,
    "Ġvenom": 24242,
    "Ġmole": 11796,
    "Ġsog": 22088,
    "Ġobservations": 13557,
    "Ġback": 826,
    "Ġwip": 13856,
    "ales": 3316,
    "itate": 6670,
    "Ġmaled": 21317,
    "istan": 22112,
    "esteem": 26009,
    "Ġenergetic": 15202,
    "onds": 13001,
    "pid": 1393,
    "ies": 584,
    "allions": 22197,
    "Ġvict": 3760,
    "Ġbashee": 19849,
    "Ġmornings": 16239,
    "longing": 23729,
    "ns": 749,
    "ti": 8389,
    "Ġroman": 8322,
    "Ġfac": 6380,
    "Ġlarge": 1063,
    "Ġburg": 23654,
    "shaw": 6864,
    "Ġcelestial": 10070,
    "mut": 17597,
    "Ġbad": 3985,
    "storied": 18028,
    "stairs": 5155,
    "59": 17476,
    "winter": 10742,
    "hideous": 25408,
    "Ġappearing": 9844,
    "Ġboisterous": 20445,
    "Ġdisinterested": 16060,
    "ĠĠĠĠĠĠĠĠĠĠĠĠĠĠĠĠĠĠĠĠĠĠĠĠĠĠĠĠĠĠĠĠĠĠĠĠĠĠĠĠĠĠĠĠĠĠĠĠĠĠĠ": 20041,
    "nantucketer": 24975,
    "Ġvale": 14085,
    "Ġnegatived": 23050,
    "sory": 17661,
    "Ġgambler": 26192,
    "Ġoccur": 1080,
    "backpropagation": 11990,
    "ĠĠĠĠĠĠĠĠĠĠĠĠĠĠĠĠĠ": 22953,
    "Ġcyn": 13889,
    "Ġsubsets": 2341,
    "corn": 13703,
    "plete": 10921,
    "Ġscore": 9741,
    "Ġsoothingly": 25050,
    "Ġsolicitude": 10043,
    "Ġmaelstrom": 19359,
    "Ġ109": 24417,
    "Ġphilist": 16603,
    "market": 16841,
    "Ġmassa": 19457,
    "Ġsincerity": 13682,
    "Ġsqualid": 14372,
    "claims": 25320,
    "Ġtake": 1580,
    "james": 15376,
    "Ġvictory": 16656,
    "Ġreaching": 7303,
    "Ġexeget": 24087,
    "Ġfolios": 23023,
    "Ġexposing": 11839,
    "Ġprincess": 23229,
    "ued": 7562,
    "oles": 21007,
    "fee": 12885,
    "Ġinseparable": 20691,
    "Ġhedgehog": 10647,
    "Ġcomput": 603,
    "inkles": 7426,
    "renched": 7906,
    "Ġembark": 8558,
    "inarticulate": 21198,
    "Ġtart": 12532,
    "Ġthomson": 26456,
    "Ġmultitude": 9328,
    "Ġshuddering": 9054,
    "Ġpuzzled": 7317,
    "Ġouthouse": 22318,
    "Ġmaternal": 11061,
    "onist": 21253,
    "Ġvictor": 5125,
    "Ġdefinition": 14409,
    "pha": 22804,
    "Ġmbpp": 21325,
    "Ġcham": 4892,
    "Ġauto": 23301,
    "Ġperverseness": 13658,
    "Ġpatch": 4179,
    "collar": 19330,
    "Ġstare": 10866,
    "Ġgravesend": 15221,
    "Ġopera": 23429,
    "steep": 19422,
    "osen": 6855,
    "Ġgracechurch": 12203,
    "iem": 20919,
    "lingering": 18602,
    "Ġderivatives": 2367,
    "j": 78,
    "Ġfrigid": 17355,
    "Ġenl": 18191,
    "Ġ73": 24264,
    "Ġpiping": 23252,
    "est": 499,
    "surround": 16760,
    "charming": 15710,
    "Ġregards": 16081,
    "Ġstructural": 2787,
    "Ġoverwhel": 8196,
    "dropped": 12267,
    "Ġenderby": 13655,
    "Ġmariners": 6069,
    "Ġrecommence": 16814,
    "Ġdiscipline": 26563,
    "descending": 16288,
    "Ġfift": 6381,
    "Ġunit": 1850,
    "sive": 4141,
    "Ġgroping": 13669,
    "Ġflock": 21414,
    "Ġinsisted": 12050,
    "Ġspeckled": 14313,
    "Ġloudly": 7312,
    "aved": 5475,
    "ĠâĢĶ_": 3456,
    "Ġbandaged": 16844,
    "Ġbarrels": 9438,
    "Ġmartin": 25437,
    "Ġcheating": 16371,
    "sighted": 19786,
    "omb": 10208,
    "ellect": 7381,
    "Ġconsecrated": 26490,
    "Ġgamming": 25543,
    "ooped": 17625,
    "Ġroll": 5381,
    "mon": 2305,
    "Ġabhorred": 9510,
    "Ġsemantics": 2891,
    "construction": 19798,
    "amouch": 21849,
    "Ġbeards": 21755,
    "Ġringing": 13336,
    "Ġembellish": 25849,
    "woman": 5900,
    "Ġsayest": 22780,
    "ogn": 2393,
    "irst": 880,
    "arying": 9804,
    "Ġanswers": 7071,
    "Ġempty": 5354,
    "Ġbackwater": 18652,
    "Ġeconomical": 25288,
    "Ġlinen": 12411,
    "Ġconnected": 5393,
    "Ġunallied": 22036,
    "Ġeats": 15681,
    "txt": 12520,
    "ency": 3866,
    "Ġclimate": 9278,
    "Ġaccusation": 22384,
    "Ġoccupations": 9460,
    "Ġwatches": 11083,
    "conceal": 25117,
    "Ġoffences": 18692,
    "Ġbelieves": 14412,
    "Ġdarts": 16770,
    "Ġhaunts": 18200,
    "Ġ76": 24266,
    "Ġwil": 4580,
    "flowing": 14572,
    "ette": 15663,
    "ulous": 4451,
    "Ġequilibrium": 4138,
    "Ġnaked": 8126,
    "sen": 21052,
    "bitious": 16672,
    "Ġsomeone": 6705,
    "lengthwise": 19952,
    "ushing": 5731,
    "Ġdies": 11597,
    "Ġextract": 1528,
    "pattern": 3976,
    "Ġeve": 13973,
    "Ġpreternatural": 12828,
    "deliberated": 26119,
    "Ġrev": 6989,
    "Ġlane": 5627,
    "Ġindelicacy": 25696,
    "poison": 14396,
    "Ġcircumspect": 15089,
    "Ġfondly": 19618,
    "erval": 4018,
    "Ġattending": 3282,
    "wheels": 14385,
    "Ġenables": 725,
    "Ġsqualls": 17022,
    "Ġstrugg": 3215,
    "ignantly": 23271,
    "Ġhusbands": 16645,
    "Ġsimply": 7218,
    "confirmation": 26090,
    "Ġresignation": 18566,
    "glass": 9912,
    "Ġsuffoc": 18872,
    "ick": 837,
    "Ġonce": 1493,
    "Ġquieted": 23847,
    "Ġgross": 11629,
    "ug": 1766,
    "Ġcolumns": 14380,
    "Ġorganically": 3006,
    "Ġpurple": 10435,
    "Ġprogeny": 17391,
    "Ġappropriated": 23487,
    "Ġreserve": 9974,
    "Ġignited": 25072,
    "Ġdesperation": 19820,
    "Ô": 149,
    "Ġtwinkling": 12328,
    "uesday": 8590,
    "Ġstubbornness": 25380,
    "springs": 24912,
    "magn": 10613,
    "Ġtarget": 2818,
    "Ġget": 1624,
    "influence": 13582,
    "Ġirrad": 19095,
    "verty": 8453,
    "Ġmysteries": 11325,
    "Ġwars": 17788,
    "uck": 1233,
    "Ġchances": 9266,
    "leful": 17845,
    "Ġremoval": 12122,
    "Ġmightier": 18729,
    "ise": 707,
    "provoke": 26072,
    "brill": 16493,
    "returned": 7765,
    "Ġcarpent": 4466,
    "third": 8167,
    "ĠcÃ¦sar": 20583,
    "iece": 3227,
    "Ġswaying": 15050,
    "Ġsupp": 1265,
    "Ġfumbled": 17884,
    "composure": 24038,
    "Ġdeclines": 23967,
    "Ġsoar": 18283,
    "Ġlivelihood": 24773,
    "Ġholds": 7975,
    "Ġwar": 5526,
    "Ġdisregard": 22532,
    "breadth": 20278,
    "Ġpenet": 6888,
    "otently": 21804,
    "Ġicebergs": 23979,
    "offensive": 16402,
    "thin": 14100,
    "ougher": 18281,
    "Ġdedication": 3286,
    "Ġservice": 6470,
    "Ġwolves": 25935,
    "Ġinsist": 9893,
    "ylon": 24978,
    "Ġphren": 8574,
    "Ġwavering": 23286,
    "venth": 9298,
    "impressed": 12696,
    "Ġwoodcock": 19165,
    "ersed": 10260,
    "Ġabsent": 7016,
    "Ġnoon": 6560,
    "_âĢĶâĢĿ": 20765,
    "ateful": 5928,
    "Ġslid": 7951,
    "Ġdear": 1541,
    "alongside": 19790,
    "Ġfumes": 21421,
    "Ġcloudless": 16671,
    "Ġassembled": 9239,
    "confirm": 16809,
    "Ġfrank": 4420,
    "mockery": 24379,
    "Ġpaste": 23422,
    "Ġyonder": 7392,
    "Ġclubs": 25180,
    "Ġmysterious": 7528,
    "ĠĠĠĠĠĠĠĠĠĠĠĠĠĠĠĠĠĠĠĠĠĠĠ": 18834,
    "Ġmonitors": 3155,
    "acting": 22633,
    "Ġmou": 13858,
    "Ġvibration": 17100,
    "ber": 905,
    "Ġdenoted": 16568,
    "Ġthinks": 6171,
    "Ġscreamed": 9526,
    "Ġcheerless": 16695,
    "Ġbig": 5806,
    "Ġwilderness": 14843,
    "confl": 22475,
    "salis": 25150,
    "Ġhighland": 18713,
    "onents": 8781,
    "Ġwinding": 8235,
    "naturally": 14574,
    "anded": 5924,
    "Ġriding": 14097,
    "Ġdecreed": 18493,
    "feeling": 6619,
    "Ġlive": 2734,
    "Ġhorses": 6384,
    "ann": 5803,
    "Ġuser": 15919,
    "teak": 22819,
    "Ġmotioned": 19594,
    "Ġinterment": 22578,
    "anders": 18156,
    "sm": 3433,
    "rus": 5931,
    "Ġglories": 16242,
    "terday": 4704,
    "Ġnowadays": 18546,
    "Ġtawn": 13826,
    "Ġcomputing": 2217,
    "lucas": 15156,
    "Ġsubord": 22789,
    "Ġlvi": 21556,
    "properly": 24919,
    "awakened": 14457,
    "reasoning": 9478,
    "parad": 16394,
    "77": 15304,
    "Ġhaz": 12760,
    "Ġimperfect": 13344,
    "tumbled": 21093,
    "Ġincantation": 26259,
    "Ġgid": 13965,
    "block": 11473,
    "Ġalfred": 21790,
    "Ġbiting": 17864,
    "accordingly": 19215,
    "Ġoutstretched": 14199,
    "Ġcongratulate": 9066,
    "Ġlayer": 1011,
    "Ġanyways": 22524,
    "Ġconsecut": 18115,
    "Ġbroadway": 23988,
    "Ġgap": 21602,
    "Ġpoltro": 23622,
    "Ġliquid": 22413,
    "Ġweeping": 11691,
    "Ġdumb": 7842,
    "grin": 19107,
    "Ġelab": 22644,
    "record": 16922,
    "Ġalice": 1485,
    "ants": 1394,
    "pleasanter": 24051,
    "connections": 14432,
    "Ġrepair": 11983,
    "Ġpoliteness": 8273,
    "beneath": 9537,
    "Ġwhaleman": 4654,
    "Ġfiendish": 13331,
    "Ġbreath": 4791,
    "Ġdifficulty": 5770,
    "Ġser": 1671,
    "Ġcompany": 3720,
    "Ġjove": 9271,
    "Ġhumbug": 18782,
    "er": 269,
    "Ġspatial": 2728,
    "Ġaxe": 15065,
    "Ġalluded": 7884,
    "Ġhousehold": 8570,
    "injured": 15137,
    "Ġspasmodic": 20400,
    "Ġhawaiian": 25367,
    "Ġplains": 14625,
    "add": 5229,
    "Ġbehaviour": 4384,
    "Ġlaughter": 9030,
    "rs": 7806,
    "reader": 23851,
    "fluttering": 23977,
    "Ġlig": 21551,
    "Ġwindow": 2993,
    "Ġexcite": 11968,
    "glance": 16589,
    "Ġdevotedly": 24749,
    "Ġ17": 5740,
    "Ġbooks": 4675,
    "Ġstuff": 5717,
    "Ġnic": 7376,
    "zen": 5140,
    "bound": 6222,
    "daughter": 8354,
    "Ġsunlight": 13090,
    "Ġbinding": 20421,
    "instr": 12536,
    "yrin": 12527,
    "Ġforcing": 3222,
    "act": 783,
    "Ġwithout": 1123,
    "onies": 6807,
    "spouter": 22738,
    "instances": 13332,
    "Ġgorgeous": 20469,
    "Ġstocks": 23182,
    "Ġmill": 6669,
    "Ġpeculiarity": 12938,
    "danish": 20835,
    "Ġliving": 3059,
    "Ġsupervised": 3095,
    "Ġdiligence": 17115,
    "resol": 17763,
    "Ġsorely": 17259,
    "Ġbespeaking": 26311,
    "||": 4869,
    "entiating": 3435,
    "every": 2808,
    "ness": 851,
    "Ġprynne": 25541,
    "shop": 14240,
    "one": 615,
    "Ġcondition": 6765,
    "Ġanswered": 2847,
    "Ġsizes": 1522,
    "Ġlombardy": 26465,
    "Ġcru": 2820,
    "strikes": 24672,
    "Ġhither": 4759,
    "Ġga": 4447,
    "Ġmincing": 18752,
    "Ġgathers": 24741,
    "Ġfilling": 13412,
    "Ġcases": 3959,
    "Ġcarpets": 18904,
    "Ġruns": 8598,
    "Ġillustrate": 25068,
    "Ġhopelessly": 16380,
    "Ġcrests": 25686,
    "Ġdoubting": 13103,
    "Ġacres": 14317,
    "Ġbri": 21381,
    "empt": 2617,
    "Ġauthorities": 11267,
    "Ġbelike": 18832,
    "Ġstage": 7389,
    "important": 7113,
    "Ġclair": 6271,
    "Ġinferior": 8351,
    "Ġcus": 21346,
    "Ġdis": 693,
    "Ġsharply": 9405,
    "Ġintolerably": 15833,
    "stepfather": 19193,
    "pretty": 10624,
    "Ġreven": 18032,
    "Ġignominy": 15090,
    "Ġcolumbus": 26566,
    "grate": 23415,
    "Ġprofessor": 11233,
    "Ġproduct": 3531,
    "Ġtaffrail": 15479,
    "Ġintervals": 5598,
    "ofs": 11835,
    "Ġexist": 9234,
    "emotion": 21935,
    "Ġhosmer": 6775,
    "Ġvictoria": 14876,
    "Ġrecall": 3854,
    "ints": 3415,
    "Ġcig": 6519,
    "presently": 9812,
    "Ġbeard": 11659,
    "Ġcuriously": 13028,
    "sixteen": 24854,
    "deal": 12804,
    "Ġreflections": 5947,
    "Ġawfulness": 23589,
    "handsome": 13180,
    "uation": 17696,
    "Ġwearer": 21928,
    "Ġbrightened": 23833,
    "Ġeccentric": 13653,
    "anous": 21362,
    "Ġshapes": 14112,
    "Ġsuspic": 4471,
    "Ġtruly": 4796,
    "Ġserviceable": 24716,
    "othe": 2613,
    "Ġgraph": 10904,
    "okers": 18442,
    "Ġimpatience": 7510,
    "Ġmir": 9649,
    "Ġcompensated": 17404,
    "Ġstrongest": 11137,
    "Ġnailing": 21530,
    "Ġrecourse": 22733,
    "Ġhas": 827,
    "ĠĠĠĠĠĠĠĠĠĠĠĠĠĠĠĠĠĠĠĠĠĠĠĠĠĠĠĠĠĠĠĠĠĠĠĠĠĠĠĠĠĠĠĠĠĠĠĠĠĠĠĠĠĠĠĠĠĠĠĠ": 19262,
    "Ġverily": 16605,
    "Ġcomplex": 748,
    "Ġspec": 1261,
    "Ġterrified": 14674,
    "Ġimagination": 5759,
    "ries": 3353,
    "âĢĶâĢľ": 2966,
    "questioning": 16852,
    "Ġroots": 11188,
    "Ġwaited": 4908,
    "holmes": 4431,
    "playing": 19659,
    "ill": 447,
    "Ġdeficiencies": 26572,
    "rabb": 15684,
    "Ġconsistence": 23360,
    "inexplicable": 25810,
    "Ġmend": 8406,
    "Ġ65": 24369,
    "experience": 17161,
    "Ġsticks": 14934,
    "Ġstrait": 23753,
    "Ġindulging": 16906,
    "Ġafloat": 9311,
    "seals": 21822,
    "ghan": 19458,
    "Ġsteeply": 23727,
    "second": 6544,
    "Ġpush": 9186,
    "Ġbomb": 17870,
    "Ġexplanatory": 22206,
    "Ġcomposed": 8895,
    "Ġstrongly": 5657,
    "early": 20121,
    "Ġbeautiful": 3672,
    "Ġimmense": 4951,
    "annica": 24563,
    "Ġshocks": 16460,
    "Ġoptimizers": 18629,
    "ue": 1179,
    "chat": 21689,
    "Ġspirit": 3723,
    "Ġintegrated": 13534,
    "Ġtyro": 16996,
    "scuttle": 11915,
    "Ġcounties": 23306,
    "urre": 10858,
    "Ġpouch": 21471,
    "Ġtraditions": 11446,
    "hen": 3515,
    "Ĥ": 229,
    "Ġerudite": 26353,
    "Ġbead": 21754,
    "forgot": 11036,
    "Ġashore": 5352,
    "Ġdeficient": 18827,
    "Ġrepose": 6743,
    "Ġchairs": 12831,
    "Ġ12": 5483,
    "Ġpy": 21453,
    "Ġblend": 14403,
    "ä": 165,
    "Ġopen": 1553,
    "hundreds": 25076,
    "semic": 21825,
    "wester": 21141,
    "joint": 24013,
    "benevol": 12231,
    "Ġcontrived": 10306,
    "Ġinducement": 16845,
    "adjust": 21763,
    "avenza": 17105,
    "Ġdest": 2233,
    "Ġtet": 21160,
    "Ġg": 310,
    "thouse": 21987,
    "Ġarg": 4766,
    "handled": 19263,
    "houn": 20895,
    "delights": 19703,
    "Ġcatch": 4442,
    "build": 12192,
    "germans": 20568,
    "naturalist": 23529,
    "Ġdepressions": 25799,
    "Ġactionable": 24561,
    "vengeance": 13361,
    "Ġdon": 1615,
    "height": 21208,
    "hor": 2570,
    "Ġfools": 14485,
    "lying": 7175,
    "wins": 21132,
    "astron": 22173,
    "Ġpassion": 4557,
    "leag": 21369,
    "Ġuniverse": 14128,
    "Ġric": 18213,
    "recollected": 25348,
    "dispute": 23502,
    "cool": 19190,
    "Ġacquitted": 18900,
    "Þ": 159,
    "Ġrods": 9757,
    "prisoner": 20546,
    "Ġadro": 15871,
    "i": 77,
    "Ġapple": 14174,
    "lo": 679,
    "Ġdash": 8121,
    "pherd": 13648,
    "Ġemploying": 23982,
    "Ġstudded": 18958,
    "Ġmurmur": 14591,
    "glad": 9011,
    "allowing": 24359,
    "eminence": 20101,
    "Ġpanel": 13376,
    "Ġhonour": 3920,
    "Ġspr": 4023,
    "Ġagric": 22519,
    "Ġintruding": 21996,
    "thest": 11658,
    "Ġforging": 18097,
    "belais": 24042,
    "Ġ75": 19614,
    "Ġcrystal": 17217,
    "Ġchoked": 9267,
    "ineas": 15826,
    "Ġbattery": 21397,
    "soles": 18685,
    "dreadful": 11424,
    "Ġvest": 8162,
    "fri": 20856,
    "Ġjeopardy": 13600,
    "umbled": 8494,
    "scept": 21056,
    "honorable": 19902,
    "Ġhalts": 3157,
    "ultaneous": 18583,
    "perfect": 7636,
    "erland": 9643,
    "I": 45,
    "chains": 9688,
    "Ġshoot": 11163,
    "Ġallegor": 25546,
    "Ġforthwith": 16620,
    "Ġbustle": 17230,
    "Ġvolcanoes": 24148,
    "Ġcrying": 10788,
    "Ġhappiest": 11887,
    "Ġencourages": 2061,
    "Ġlancaster": 26342,
    "ret": 1477,
    "Ġly": 2266,
    "Ġdusty": 14928,
    "Ġharrow": 17929,
    "ifted": 4495,
    "Ġtransc": 12869,
    "Ġoptimizer": 5035,
    "Ġalarmed": 6923,
    "Ġdaniel": 15116,
    "recur": 4438,
    "Ġpretence": 13209,
    "ython": 1028,
    "Ġ36": 14771,
    "Ġanimal": 2494,
    "madness": 14885,
    "Ġcalmed": 16271,
    "vast": 10738,
    "acquainted": 7313,
    "Ġtass": 15473,
    "Ġmisconduct": 22762,
    "Ġplays": 12042,
    "Ġoutlaws": 22327,
    "ders": 8074,
    "Ġboasting": 19938,
    "Ġtrampled": 20330,
    "ationally": 15709,
    "Ġfavoured": 16368,
    "Ġtypically": 1538,
    "sound": 6800,
    "Ġbreeding": 14524,
    "Ġjoyously": 19350,
    "scand": 18851,
    "prophet": 16185,
    "Ġarduous": 26533,
    "Ġvectors": 1772,
    "Ġsafety": 6340,
    "Ġusually": 6265,
    "pity": 17629,
    "function": 4735,
    "Ġgall": 4350,
    "Ġoccurred": 4463,
    "Ġchange": 1994,
    "Ġtying": 15476,
    "agony": 14072,
    "Ġhearty": 9849,
    "Ġirreducible": 5519,
    "ase": 1160,
    "Ġwhistling": 19791,
    "Ġinfamy": 14513,
    "Ę": 217,
    "Ġcrowned": 16843,
    "Ġpractice": 2908,
    "Ġdivision": 19447,
    "Ġmiscell": 16153,
    "univers": 15776,
    "vinegar": 25421,
    "matters": 14877,
    "Ġbenevolent": 7772,
    "Ġcherry": 16937,
    "Ġpolitical": 19225,
    "lantern": 17431,
    "swam": 24258,
    "ny": 4014,
    "Ġtre": 2534,
    "gentlemen": 9506,
    "Ġmonoman": 7938,
    "square": 15063,
    "akin": 11772,
    "pressing": 19021,
    "Ġpert": 22400,
    "hauled": 20671,
    "10": 17475,
    "Ġplumber": 16088,
    "Ġ89": 19714,
    "Ġherds": 9719,
    "Ġbaggy": 24539,
    "acon": 10684,
    "Ġdirect": 1472,
    "Ġtransl": 2826,
    "Ġrob": 1293,
    "showed": 16026,
    "Ġminded": 23235,
    "wra": 11545,
    "Ġhonest": 7287,
    "Ġsobs": 14138,
    "ubines": 22965,
    "Ġdocks": 14181,
    "Ġic": 9628,
    "Ġfitness": 24004,
    "gg": 1996,
    "Ġcopestone": 24939,
    "supp": 4160,
    "Ġskull": 6288,
    "Ġsmith": 16068,
    "Ġturned": 2134,
    "Ġsolomon": 11054,
    "Ġplumage": 17301,
    "Ġcapsized": 20092,
    "Ġoffing": 16148,
    "Ġassistant": 7298,
    "Ġbegging": 11081,
    "Ġlaud": 17971,
    "passage": 11264,
    "Ġleaders": 16630,
    "Ġbedfellows": 23448,
    "Ġpeeled": 14322,
    "Ġtribes": 20483,
    "treasures": 26153,
    "Ġimpass": 15989,
    "covering": 15337,
    "Ġhapless": 15816,
    "Ġvoyages": 6908,
    "Ġbeget": 9228,
    "Ġunattended": 15847,
    "Ġmartyr": 26362,
    "rated": 6229,
    "Ġattacked": 10570,
    "glances": 23857,
    "Ġthreshold": 2806,
    "Ġjane": 1757,
    "crowd": 25255,
    "Ġwhittingham": 26199,
    "Ġtren": 17723,
    "different": 6500,
    "Ġquietly": 4567,
    "Ġdespaired": 14671,
    "Ġeddying": 17119,
    "ov": 15403,
    "uting": 15664,
    "Ġprogra": 1147,
    "teous": 16175,
    "Ġtrucks": 19515,
    "Ġlaudanum": 20693,
    "Ġmissionary": 25697,
    "masterly": 24531,
    "hurriedly": 25511,
    "tent": 21067,
    "ket": 17584,
    "Ġbinnacle": 8118,
    "Ġallows": 3231,
    "Ġunsh": 14118,
    "volume": 18601,
    "Ġstands": 5259,
    "ĠĠ": 352,
    "atmosphere": 21267,
    "egyptians": 25899,
    "Ġweighed": 8714,
    "loops": 12888,
    "Ġgn": 8822,
    "Ġcommotion": 9783,
    "Ġcries": 7155,
    "Ġreceipt": 20357,
    "igner": 21705,
    "Ġemac": 16410,
    "Ġemployed": 5200,
    "Ġpag": 6011,
    "uer": 21103,
    "Ġexecute": 7506,
    "Ġexecuted": 9474,
    "Ġdelicacy": 6341,
    "Ġabraham": 18396,
    "Ġmournfully": 20119,
    "iciously": 17977,
    "Ġrece": 11642,
    "Ġenglish": 3611,
    "Ġsecre": 5493,
    "Ġways": 5396,
    "Ġeulogy": 26472,
    "against": 5872,
    "Ġlandowner": 23385,
    "frost": 15111,
    "enter": 7857,
    "Ġfrancisco": 26065,
    "Ġped": 7844,
    "latin": 25259,
    "Ġray": 18644,
    "Ġtons": 11553,
    "Ġsecured": 6747,
    "eprints": 12797,
    "Ġbroiled": 18910,
    "carp": 9113,
    "narrative": 17322,
    "oct": 7555,
    "olen": 9703,
    "prejudiced": 17300,
    "replied": 11569,
    "ouse": 1193,
    "Ġbegat": 18865,
    "Ġtrials": 16791,
    "Ġhealed": 21686,
    "following": 10575,
    "Ġpleadings": 25854,
    "itories": 15553,
    "Ġbluish": 23652,
    "Ġeternally": 11372,
    "Ġcomputes": 4768,
    "scream": 11078,
    "Ġsenseless": 12083,
    "Ġult": 9077,
    "é": 170,
    "Ġimpetus": 25570,
    "might": 4076,
    "sol": 1793,
    "powers": 25411,
    "hear": 10149,
    "untering": 15780,
    "riv": 3108,
    "Ġrecesses": 17263,
    "Ġinstantaneous": 14614,
    "ascended": 24704,
    "ithing": 11653,
    "levelled": 23646,
    "Ġschedule": 2368,
    "Ġeldest": 6572,
    "Ġshin": 18229,
    "Ġregrets": 18599,
    "Ġjud": 3357,
    "definition": 23123,
    "Ġwrithing": 11950,
    "u": 89,
    "advance": 12161,
    "Ġhereditary": 10667,
    "Ġsedentary": 25431,
    "roused": 16655,
    "Ġinclinations": 19542,
    "antages": 7192,
    "Ġyouth": 4260,
    "Ġduke": 7755,
    "Ġindignantly": 16941,
    "beth": 13692,
    "allic": 12817,
    "Ġecstasy": 11634,
    "Ġshame": 6409,
    "Ġrespite": 13158,
    "Ġwestmorland": 24391,
    "Ġgunwale": 7325,
    "andy": 8157,
    "excellent": 8043,
    "relapse": 24020,
    "cular": 15331,
    "tut": 15437,
    "dle": 3305,
    "Ġmilky": 9950,
    "resc": 21241,
    "matlock": 23472,
    "alas": 8808,
    "romed": 10907,
    "entric": 11623,
    "Ġantics": 24181,
    "Ġvac": 5024,
    "Ġsolving": 2479,
    "Ġacceptance": 14829,
    "Ġsighed": 10340,
    "ior": 2039,
    "Ġpack": 5444,
    "Ġseasons": 9433,
    "Ġtorm": 5434,
    "lined": 12488,
    "vanity": 24977,
    "exp": 2736,
    "Ġastr": 15497,
    "Ġbloodthirst": 23805,
    "pening": 2828,
    "Ġscr": 11765,
    "arle": 21443,
    "medi": 2628,
    "Ġtails": 9905,
    "tles": 10732,
    "Ġkindled": 19032,
    "Ġfacts": 2286,
    "Ġinhabitants": 7525,
    "Ġspecimens": 18854,
    "Ġalgorithm": 772,
    "omely": 21642,
    "Ġdank": 21431,
    "ingly": 2136,
    "aulding": 11341,
    "eness": 2288,
    "ċ": 204,
    "Ġconcealing": 23907,
    "Ġcruc": 16536,
    "Ġepisode": 26349,
    "bation": 9106,
    "Ġdevout": 14331,
    "roman": 22009,
    "Ġbrack": 23840,
    "Ġbounded": 16629,
    "Ġdimensions": 16574,
    "Ġscrewed": 15125,
    "minutes": 7513,
    "Ġirksome": 13116,
    "enesis": 24389,
    "iced": 3897,
    "Ġwharf": 9561,
    "Ġ177": 13416,
    "jug": 17582,
    "Ġtimorous": 24229,
    "Ġhappen": 5571,
    "Ġmingled": 12381,
    "traces": 24337,
    "Ġbenjamin": 26569,
    "finds": 19928,
    "Ġobeyed": 12221,
    "oundered": 14168,
    "Ġslanting": 23178,
    "Ġcontroverted": 23256,
    "visible": 10536,
    "Ġforeb": 12008,
    "Ġhunch": 18937,
    "ĠâĢľ_": 6698,
    "Ġworker": 23051,
    "Ġsingers": 23774,
    "chest": 11211,
    "ĠĠĠĠĠĠĠĠĠĠĠĠĠĠĠĠĠĠĠĠĠĠĠĠ": 5322,
    "Ġwind": 1435,
    "Ġpossibly": 4514,
    "Ġ}": 21156,
    "Ġdined": 9179,
    "sign": 8387,
    "ander": 6400,
    "Ġtranque": 14204,
    "g": 75,
    "Ġoat": 21326,
    "Ġidleness": 11145,
    "tottenham": 25419,
    "Ġhaggerston": 26454,
    "Ġgeometric": 3216,
    "Ġislets": 21805,
    "Ġferry": 24499,
    "achalot": 15867,
    "transferred": 24515,
    "Ġoblivion": 26032,
    "Ġlimbs": 5966,
    "Ġanvil": 11601,
    "Ġrivers": 9444,
    "Ġlists": 11168,
    "partly": 14604,
    "clump": 23160,
    "Ġdormouse": 4925,
    "content": 11200,
    "along": 6013,
    "Ġconstitutional": 25128,
    "Ġthro": 5818,
    "theirs": 23605,
    "Ġkeep": 2352,
    "Ġharry": 24573,
    "Ġcrocodile": 20742,
    "woods": 13423,
    "hears": 12538,
    "wrapped": 15214,
    "hers": 7637,
    "Ġmentioned": 4328,
    "Ġcamberwell": 25351,
    "ifying": 5235,
    "street": 6494,
    "Ġdial": 10812,
    "Ġappar": 7412,
    "dischar": 19155,
    "Ġidolator": 20000,
    "Ġphilipses": 24453,
    "Ġang": 2506,
    "Ġincrease": 9373,
    "rine": 21040,
    "arial": 5532,
    "Ġdust": 5910,
    "Ġunful": 22016,
    "despatched": 19803,
    "Ġintroduced": 7691,
    "Ġvillagers": 19477,
    "Ġharder": 14453,
    "Ġfingertips": 24021,
    "Ġlobsters": 13520,
    "Ġimperson": 14224,
    "strange": 6087,
    "violent": 14582,
    "Ġaccidental": 16850,
    "Ġrattled": 15071,
    "Ġentra": 18694,
    "belonged": 25598,
    "Ġdefence": 11069,
    "Ġharriet": 24574,
    "abound": 15744,
    "Ġlam": 21552,
    "Ġextinction": 14339,
    "Ġdimin": 3869,
    "laid": 10112,
    "apprec": 22846,
    "Ġlav": 13953,
    "ecess": 17534,
    "Ġgrenadier": 21619,
    "Ġsubstituting": 26328,
    "Ġphilosophy": 7104,
    "Ġbulldog": 23863,
    "likeness": 19481,
    "Ġdawned": 14998,
    "wil": 8769,
    "apple": 22844,
    "coun": 10690,
    "withdrawn": 23032,
    "Ġtitle": 11411,
    "Ġfing": 3755,
    "Ġid": 1910,
    "pie": 21013,
    "Ġaboard": 6699,
    "much": 3705,
    "Ġcart": 11587,
    "Ġcontext": 1700,
    "octavo": 11388,
    "Ġcommitted": 7431,
    "bildad": 9589,
    "Ġparted": 5930,
    "Ġplayed": 9418,
    "Ġinheritance": 25356,
    "ollen": 11301,
    "Ġoutrageous": 20613,
    "frequented": 25901,
    "Ġcapstan": 9102,
    "ete": 9206,
    "Ġsucking": 12791,
    "rants": 13781,
    "mysteries": 26052,
    "Ġstanding": 2994,
    "islands": 21379,
    "from": 1991,
    "complete": 15038,
    "Ġalpha": 13592,
    "Ġnoted": 15834,
    "su": 811,
    "private": 13586,
    "Ġmamma": 10051,
    "shoulder": 16586,
    "houses": 9602,
    "Ġsmiting": 12903,
    "worship": 19390,
    "Ġelastic": 4360,
    "peculiarities": 13475,
    "Ġgrass": 5177,
    "Ġincorrupt": 19236,
    "intend": 16228,
    "Ġextra": 4054,
    "Ġutterance": 14767,
    "Ġfish": 2709,
    "Ġsupply": 6068,
    "Ġpikes": 21480,
    "Ġmiseries": 10349,
    "descend": 23090,
    "allows": 15906,
    "iony": 9194,
    "Ġleatherhead": 20016,
    "Ġmeddling": 21323,
    "stealthily": 23966,
    "ounts": 4651,
    "sim": 6509,
    "Ġlabyrinth": 13683,
    "rossed": 11014,
    "_.âĢĿ": 5887,
    "Ġexhibition": 14959,
    "Ġdoorway": 14502,
    "re": 266,
    "Ġberry": 19748,
    ":--": 5784,
    "oton": 3604,
    "destroyed": 15264,
    "Ġunass": 14117,
    "presbyter": 20621,
    "....": 11319,
    "clut": 23156,
    "king": 3056,
    "Ġsomnambul": 26578,
    "ispens": 8335,
    "Ġnavies": 16902,
    "shabbily": 26248,
    "superiority": 20187,
    "Ġenvelope": 7319,
    "Ġachieved": 13170,
    ">": 34,
    "Ġsy": 490,
    "Ġsombre": 18862,
    "Ġmeryton": 4439,
    "Ġtoilings": 24740,
    "ineering": 21986,
    "Ġcastors": 23980,
    "Ġne": 390,
    "Ġender": 11695,
    "Ġstrides": 22620,
    "uary": 11541,
    "Ġspectator": 19409,
    "Ġacceler": 1610,
    "Ġparacels": 13671,
    "Ġlunch": 13529,
    "Ġdeceit": 13485,
    "Ġearlier": 9090,
    "hon": 6794,
    "Ġautoregressive": 3429,
    "Ġfre": 1573,
    "Ġhackney": 20435,
    "Ġconfusion": 7273,
    "Ġexecutors": 19536,
    "ory": 1079,
    "Ġweigh": 10896,
    "Ġuniformly": 19149,
    "Ġrumpled": 24602,
    "cob": 10089,
    "Ġprecipices": 12282,
    "Ġobst": 6573,
    "Ġedd": 8397,
    "Ġhim": 476,
    "Ġbulky": 13233,
    "instance": 24197,
    "Ġneighbors": 25805,
    "Ġsolely": 9913,
    "Ġmagg": 18907,
    "Ġdraws": 19439,
    "parameter": 3067,
    "Ġherein": 16194,
    "Ġhoof": 23357,
    "neville": 22469,
    "amiable": 14056,
    "Ġxiii": 25592,
    "Ġulster": 15000,
    "Ġigniting": 25073,
    "Ġoblivious": 26033,
    "Ġcopied": 20010,
    "Ġgrasping": 12170,
    "Ġperse": 6274,
    "Ġunexampled": 20362,
    "bantering": 25254,
    "earnestly": 17316,
    "Ġhatty": 19267,
    "Ġgardeners": 12125,
    "Ġwounding": 19588,
    "miniature": 16767,
    "Ġvehicles": 10662,
    "Ġrud": 8479,
    "Ġrevive": 13483,
    "Ġfifteen": 6947,
    "worm": 15456,
    "Ġweig": 7620,
    "Ġpent": 17904,
    "Ġheartily": 6890,
    "Ġrash": 10900,
    "Ġromantic": 8030,
    "screen": 22995,
    "Ġcares": 9370,
    "Ġlower": 2661,
    "Ġporch": 19682,
    "Ġdistributed": 18662,
    "Ġother": 759,
    "baron": 24926,
    "Ġdreams": 7497,
    "Ġterr": 3271,
    "Ġbowditch": 19325,
    "Ġpeter": 10538,
    "mmed": 7913,
    "ffy": 18318,
    "else": 6534,
    "roc": 9677,
    "Ġtempted": 9059,
    "Ġlens": 8438,
    "onial": 11570,
    "Ġcheers": 16370,
    "game": 11494,
    "Ġmap": 2388,
    "Ġanyhow": 14258,
    "gather": 20877,
    "compose": 24036,
    "final": 19678,
    "Ġmaintained": 12940,
    "Ġoysters": 20582,
    "paint": 21020,
    "abhor": 12712,
    "asets": 2306,
    "Ġplunge": 13447,
    "ĠĠĠĠĠĠĠĠĠĠĠĠĠĠĠĠĠĠĠĠĠĠĠĠĠĠĠĠĠĠĠĠĠĠĠ": 19260,
    "Ġlovely": 4709,
    "ĠĠĠĠĠĠĠĠĠĠĠĠ": 12905,
    "Ġbuzz": 24001,
    "Ġsidel": 9638,
    "Ġviews": 7290,
    "Ġwounded": 8661,
    "Ġdreary": 10410,
    "Ġlittle": 866,
    "fering": 17544,
    "owers": 12689,
    "fi": 12466,
    "Ġbrightest": 13230,
    "trap": 24335,
    "Ġinstincts": 16988,
    "Ġfaded": 10811,
    "turbaned": 24533,
    "Ġbehold": 5048,
    "Ġlysander": 13143,
    "Ġhoot": 19076,
    "remains": 10401,
    "Ġuntidy": 23525,
    "Ġbenignity": 18784,
    "Ġunlikely": 10910,
    "Ġtolerably": 8067,
    "Ġprotect": 6338,
    "Ġcourage": 4633,
    "Ġdazzling": 15216,
    "Ġunrecord": 16623,
    "Ġorph": 9720,
    "Ġstraggling": 23754,
    "fabulous": 20476,
    "Ġtit": 8399,
    "Ġvines": 12756,
    "Ġcheerfulness": 10519,
    "Ġprogramming": 1183,
    "spin": 22735,
    "Ġmomentarily": 22815,
    "rey": 12543,
    "Ġbedside": 19125,
    "Ġperished": 11789,
    "Ġpike": 12628,
    "Ġcabal": 23644,
    "Ġthoughtful": 16195,
    "Ġjerking": 12250,
    "Ġassemblage": 26354,
    "Ġcustom": 5078,
    "untarily": 6313,
    "Ġdeacon": 18144,
    "cturn": 17990,
    "Ġmeth": 1431,
    "Ġthirdly": 24145,
    "Ġinjure": 16783,
    "shortly": 12263,
    "Ġharsh": 9523,
    "Ġelopement": 10331,
    "accurately": 25862,
    "Ġfive": 2832,
    "Ġpagan": 7118,
    "Ġfaintness": 24572,
    "Ġascent": 19620,
    "believe": 8303,
    "acquaintance": 6938,
    "Ġreview": 18034,
    "Ġcirculation": 16420,
    "Ġstrokes": 16771,
    "?âĢĻâĢĿ": 23645,
    "Ġtemptations": 24509,
    "Ġrapt": 7226,
    "spark": 18688,
    "boxes": 16890,
    "Ġboundary": 11225,
    "Ġgentleness": 8713,
    "Ġdetect": 1171,
    "ribs": 23369,
    "Ġmirth": 15549,
    "iguous": 18048,
    "Ġpoliceman": 15262,
    "whaleman": 23439,
    "Ġbench": 7238,
    "onsible": 22565,
    "Ġtend": 6122,
    "Ġarmies": 16494,
    "Ġowe": 8114,
    "Ġdelighted": 5499,
    "swe": 5996,
    "freely": 16856,
    "condition": 7060,
    "prince": 23819,
    "Ġreef": 10851,
    "Ġstript": 23697,
    "Ġnewcastle": 16227,
    "ctors": 21593,
    "cold": 9592,
    "cheeked": 19342,
    "Ġpropont": 16353,
    "otions": 7181,
    "stonecraft": 24357,
    "Ġhealth": 3900,
    "struct": 2372,
    "bular": 15317,
    "Ġ42": 16680,
    "Ġrender": 8304,
    "Ġalien": 14021,
    "Ġval": 979,
    "hest": 3368,
    "Ġsimultaneous": 22591,
    "lemagne": 26438,
    "Ġtemple": 7655,
    "İ": 241,
    "Ġnavy": 14919,
    "Ġspeechless": 13358,
    "fashion": 8080,
    "formal": 14170,
    "Ġpossibility": 7458,
    "Ġbal": 1137,
    "Ġsuccessfully": 19432,
    "encoura": 15052,
    "Ġmeasurement": 19426,
    "Ġreassure": 21675,
    "Ġloathing": 15072,
    "Ġhoars": 19077,
    "fain": 13718,
    "nez": 22465,
    "Ġelegant": 7533,
    "toller": 20675,
    "Ġlocal": 1200,
    "Ã¦": 4336,
    "Ġsounding": 8264,
    "Ġsisterly": 16307,
    "sius": 13791,
    "endom": 15927,
    "Ġsnake": 12065,
    "its": 1150,
    "iful": 2878,
    "ubb": 1650,
    "strugg": 21665,
    "akeman": 6269,
    "miles": 10714,
    "aned": 5147,
    "Ġbat": 10797,
    "ar": 285,
    "Ġbrotherhood": 23673,
    "Ġlegisl": 23538,
    "Ġswimming": 5507,
    "Ġlicensing": 20095,
    "met": 6655,
    "Ġorphan": 12387,
    "Ġblessing": 11266,
    "Ġbennett": 16329,
    "Ġemotions": 8972,
    "Ġabsolutely": 4858,
    "slack": 16896,
    "Ġsliding": 9366,
    "Ġspouts": 7729,
    "athans": 7434,
    "Ġunimpeachable": 26524,
    "Ġinfancy": 10419,
    "elt": 4113,
    "Ġpressing": 9264,
    "Ġstones": 9226,
    "==": 943,
    "Ġdistrust": 8203,
    "gener": 3124,
    "pan": 10718,
    "happ": 3103,
    "Ġhierarchical": 1927,
    "illation": 14145,
    "odecimo": 11447,
    "Ġsideways": 6184,
    "Ġaz": 9632,
    "can": 1232,
    "Ġbunch": 11328,
    "Ġimpulsively": 24881,
    "~": 98,
    "Ġsensationalism": 26067,
    "Ġassail": 13068,
    "Ġpath": 2116,
    "archical": 1926,
    "Ġlogical": 14491,
    "Ġcompl": 3757,
    "Ġacknowled": 6351,
    "rever": 21238,
    "Ġmerits": 13198,
    "Ġscuff": 15946,
    "Ġsubs": 2131,
    "hide": 10705,
    "Ġcovers": 18591,
    "Ġdip": 13910,
    "Ġbordered": 24565,
    "Ġdates": 6695,
    "Ġassuring": 13069,
    "Ġtilted": 20415,
    "iot": 9603,
    "phren": 22805,
    "Ġsooty": 25816,
    "Ġprofess": 3698,
    "Ġwisest": 11235,
    "Ġlodging": 24097,
    "Ġagile": 22517,
    "ears": 20847,
    "Ġspear": 9317,
    "Ġmagic": 8232,
    "Ġupdating": 2689,
    "Ġdeg": 3279,
    "Ġdrought": 19280,
    "Í": 142,
    "aster": 1868,
    "Ġeffectively": 2566,
    "gers": 8375,
    "Ġpolitely": 8996,
    "indirectly": 18438,
    "Ġpitches": 23906,
    "Ġfrequently": 4679,
    "Ġaisle": 21204,
    "Ġadds": 1808,
    "Ġpursued": 6329,
    "understood": 13220,
    "Ġmeaning": 1418,
    "laden": 14932,
    "Ġscrib": 22287,
    "conda": 18995,
    "_.âĢĶ": 23475,
    "Ġassumptions": 5517,
    "hyena": 24256,
    "ascal": 10195,
    "worshipping": 16612,
    "variety": 23191,
    "Ġsubsc": 22790,
    "rd": 17651,
    "solution": 14688,
    "Ġregret": 5561,
    "iew": 2443,
    "Ġbewitching": 25977,
    "assisted": 22311,
    "Ġwont": 9853,
    "Ġusage": 9733,
    "thirst": 15829,
    "Ġtasted": 12534,
    "onom": 9161,
    "Ġfalls": 14646,
    "**": 4685,
    "antique": 18288,
    "straight": 9943,
    "abode": 21795,
    "Ġnotable": 18224,
    "dissatisf": 26130,
    "Ġpave": 8804,
    "Ġexpeditions": 24957,
    "Ġ_": 839,
    "Ġpers": 1339,
    "Ġethics": 15465,
    "Ġslumber": 13065,
    "Ġcommand": 3321,
    "Ġjurymen": 16849,
    "Ġkindliness": 23298,
    "ashed": 3783,
    "igating": 21703,
    "Ġderive": 10397,
    "nui": 21002,
    "Ġconductor": 24011,
    "owl": 12688,
    "Ġsweetheart": 19398,
    "tempt": 21082,
    "Ġrobe": 18459,
    "Ġescort": 23508,
    "Ġdecapitated": 20619,
    "ods": 8839,
    "attending": 18918,
    "ign": 1702,
    "Ġhysterics": 26094,
    "eminent": 25107,
    "Ġyanke": 18101,
    "Ġ[": 6968,
    "Ġformula": 2861,
    "poises": 11894,
    "merchant": 10469,
    "scotch": 25852,
    "boilers": 26298,
    "supper": 12928,
    "eled": 2354,
    "Ġplunder": 22605,
    "Ġelated": 18633,
    "itude": 1420,
    "eler": 1574,
    "Ġpredict": 685,
    "Ġsiamese": 20485,
    "nest": 10116,
    "Ġquadru": 16008,
    "Ġcomputation": 968,
    "Ġpawnbroker": 13662,
    "Ġcentral": 7727,
    "Ġorganize": 8994,
    "Ġdistrusted": 13545,
    "Ġdeceased": 15009,
    "Ġconsider": 2567,
    "erve": 12554,
    "Ġostent": 13588,
    "Ġuntamed": 19166,
    "rack": 18014,
    "Ġwrought": 11948,
    "Ġleaping": 8340,
    "Ġvoyagings": 19237,
    "Ġirresolution": 24916,
    "Ġoper": 2122,
    "Ġanimals": 8981,
    "Ġundone": 24119,
    "string": 15690,
    "crime": 14778,
    "Ġcorrespondence": 10597,
    "cupboards": 25402,
    "Ġcomforters": 25801,
    "Ġfow": 6135,
    "Ġgloried": 22986,
    "abhorred": 17339,
    "dropping": 14986,
    "gaz": 20880,
    "Ġdinners": 23986,
    "Ġnear": 1719,
    "ection": 4947,
    "pans": 13773,
    "Ġhinting": 19651,
    "brows": 17499,
    "Ġsingled": 23775,
    "ond": 1162,
    "Ġlottery": 19889,
    "Ġamusing": 11805,
    "Ġspool": 24803,
    "Ġquivering": 12863,
    "Ġunclasp": 26513,
    "sford": 5998,
    "Ġslice": 23166,
    "Ġcorroboration": 26054,
    "Ġdestructive": 23489,
    "Ġfervour": 19728,
    "Ġcourtesy": 9948,
    "Ġimplement": 2850,
    "Ġfuller": 11158,
    "Ġcane": 10929,
    "Ġadmit": 7710,
    "Ġhowling": 8511,
    "Ġscrut": 15949,
    "Ġscal": 1564,
    "summit": 23420,
    "Ġrestored": 7067,
    "Ġfrigate": 13087,
    "Ġsphere": 15886,
    "estations": 22223,
    "Ġcamel": 25350,
    "Ġjour": 11769,
    "reeable": 3609,
    "Ġtempered": 12927,
    "Ġresolutely": 14612,
    "Ġendeavored": 19304,
    "Ġapproximates": 2415,
    "ations": 709,
    "Ġcolder": 22860,
    "Ġtoll": 7851,
    "lead": 10168,
    "regret": 16452,
    "chased": 18045,
    "Ġseating": 18201,
    "Ġburst": 4379,
    "unte": 21877,
    "ĠâĢľ": 517,
    "repeat": 25155,
    "Ġshone": 7404,
    "Ġbumpkin": 20202,
    "bub": 15320,
    "urously": 18054,
    "Ġbefallen": 12347,
    "Ġprofounder": 23571,
    "gloom": 17142,
    "compasses": 19461,
    "Ġcomparatively": 9492,
    "Ġinferiority": 17116,
    "Ġextort": 22741,
    "Ġbaleen": 10040,
    "Ġunbounded": 18261,
    "ant": 438,
    "Ġaffidavit": 20726,
    "peculiarity": 23115,
    "Ġbrilliancy": 20109,
    "Ġpossibilities": 18978,
    "Ġbay": 9171,
    "observation": 17272,
    "Ġvis": 1084,
    "Ġstrangest": 14799,
    "turn": 4292,
    "hyme": 19611,
    "Ġthrills": 24543,
    "Ġtoad": 21513,
    "Ġdoors": 6417,
    "Ġguid": 2637,
    "altering": 12645,
    "sets": 17662,
    "Ġvisitor": 5331,
    "exerc": 16019,
    "Ġupbraiding": 26228,
    "Ġcanada": 22169,
    "Ġinclination": 6626,
    "Ġbesides": 3511,
    "Ġmills": 21314,
    "Ġstores": 18075,
    "Ġparadigms": 3052,
    "Ġmerest": 14034,
    "Ġcoaxing": 18595,
    "Ġcrescent": 16141,
    "Ġskilfully": 20527,
    "ameter": 3015,
    "Ġardour": 8042,
    "Ġinvests": 14871,
    "estion": 18360,
    "k": 79,
    "Ġthou": 1811,
    "hello": 13368,
    "atum": 21262,
    "Ġcoloss": 11047,
    "Ġentail": 9796,
    "Ġwaterproof": 19088,
    "aths": 22707,
    "Ġskilful": 25838,
    "Ġmolasses": 25629,
    "Ġinasmuch": 10827,
    "Ġcitations": 25438,
    "Ġgay": 5535,
    "rec": 6004,
    "Ġjelly": 22304,
    "atered": 22014,
    "Ġsharkish": 24507,
    "Ġdaint": 15597,
    "Ġpow": 4637,
    "skinned": 25388,
    "Ġfinally": 4666,
    "Ġjustly": 11909,
    "Ġbet": 1138,
    "Ġarrangements": 16517,
    "dia": 2135,
    "adam": 15734,
    "deep": 1017,
    "oky": 8197,
    "Ġpil": 5013,
    "Ġturbid": 23614,
    "const": 6047,
    "Ġvices": 14086,
    "Ġcomfortable": 6096,
    "Ġwhereas": 3853,
    "Ġforbear": 17124,
    "cruising": 12284,
    "Ġpanic": 11289,
    "repaid": 24492,
    "Ġsheet": 6264,
    "ired": 1447,
    "Ġwrap": 24596,
    "opes": 10313,
    "Ġtransformations": 3482,
    "infor": 3247,
    "someone": 14565,
    "Ġvelv": 10622,
    "iam": 2504,
    "Ġmarking": 16471,
    "Ġunclad": 22058,
    "Ġunfit": 14791,
    "Ġwrong": 4723,
    "Ġblending": 14404,
    "Ġthirds": 16710,
    "Ġsuperflu": 14555,
    "Ġremem": 4312,
    "Ġexchanging": 18135,
    "ù": 186,
    "commodore": 20628,
    "trying": 15441,
    "greg": 6650,
    "scythes": 26404,
    "Ġwarnings": 16883,
    "Ġunreserved": 19400,
    "accursed": 20543,
    "Ġinteractions": 12908,
    "Ġclients": 19734,
    "ich": 470,
    "addition": 13388,
    "Ġsense": 3248,
    "idled": 21772,
    "Ġmel": 4817,
    "Ġevenly": 4126,
    "Ġvivid": 8057,
    "embow": 21936,
    "Ġundec": 22023,
    "Ġpainfully": 13146,
    "Ġeither": 2603,
    "Ġlub": 15653,
    "running": 6798,
    "ank": 1370,
    "Ġgenteel": 19983,
    "doctor": 19097,
    "Ġyell": 21781,
    "V": 58,
    "yea": 23092,
    "Ġopenshaw": 7955,
    "Ġadmin": 23556,
    "idents": 6152,
    "Ġmacey": 12568,
    "Ġrain": 5004,
    "gerine": 22893,
    "Ġtis": 15468,
    "Ġost": 9652,
    "cano": 18842,
    "entials": 22667,
    "Ġfidel": 12601,
    "izers": 18146,
    "avenue": 25060,
    "Ġsums": 2900,
    "Ġstifle": 18080,
    "total": 17253,
    "Ġmisled": 22760,
    "oura": 1059,
    "bearing": 9768,
    "Ġrespectful": 16349,
    "distressed": 24203,
    "Ġpicking": 11262,
    "Ġiroquois": 26474,
    "Ġmil": 4253,
    "Ġge": 1977,
    "Ġstup": 14009,
    "torm": 11534,
    "Ġwallet": 21301,
    "Ġhaught": 10255,
    "Ġnotorious": 18225,
    "useness": 22296,
    "Ġpasseng": 12976,
    "Ġgratification": 24100,
    "Ġjerk": 16952,
    "behind": 6780,
    "osity": 14189,
    "Ġrooted": 13173,
    "lorious": 17594,
    "Ġmaking": 1782,
    "ronted": 14880,
    "rous": 3750,
    "valley": 16218,
    "Ġpurse": 12015,
    "oniously": 21260,
    "Ġnailed": 10192,
    "att": 1458,
    "yellow": 9627,
    "ob": 1422,
    "Ġdoze": 14180,
    "Ġsimulation": 2751,
    "Ġwrinkles": 8573,
    "Ġgrain": 15835,
    "Ġexcitement": 9384,
    "invari": 21187,
    "Ġloaf": 15876,
    "Ġdeaths": 14539,
    "Ġgaining": 9494,
    ",âĢĻ": 2324,
    "Ġdisaster": 12892,
    "Ġwraps": 19778,
    "Ġdard": 21425,
    "Ġaghast": 16051,
    "Ġjolly": 6858,
    "Ġtransported": 11282,
    "robustness": 26340,
    "key": 5462,
    "Ġho": 1931,
    "Ġtasselled": 25922,
    "Ġchowders": 18387,
    "Ġreusable": 13561,
    "Ġnorth": 4318,
    "Ġeconomy": 17203,
    "widows": 25345,
    "consciousness": 13370,
    "Ġaper": 17746,
    "Ġshape": 5639,
    "footman": 17165,
    "Ġhand": 859,
    "Ġhatred": 8612,
    "Ġbloodthirsty": 26603,
    "Ġinstruction": 14346,
    "Ġrealise": 16341,
    "'": 11,
    "Ġpalsied": 25780,
    "Ġtresses": 21178,
    "Ġconsecutive": 20705,
    "Ġfluke": 14676,
    "seated": 11676,
    "inously": 21189,
    "Ġcrown": 5289,
    "Ġchoicest": 24224,
    "Ġprofundity": 20454,
    "lost": 8891,
    "what": 646,
    "Ġdeft": 21840,
    "Ġsentiment": 6591,
    "Ġstraining": 11329,
    "Ġprofessors": 14728,
    "Ġhaving": 1882,
    "Ġcraggy": 23533,
    "Ġbeside": 5192,
    "Ġnominally": 17234,
    "cords": 25139,
    "Ġencamp": 22801,
    "Ġexhilarating": 26339,
    "urious": 21706,
    "Ġendeavoured": 4918,
    "Ġcaused": 5047,
    "Ġclo": 6043,
    "pitch": 13303,
    "Ġapologies": 25197,
    "Ġbaboon": 19695,
    "llable": 6879,
    "born": 7544,
    "Ġomn": 8410,
    "Ġsorts": 6887,
    "Ġsleep": 2398,
    "our": 534,
    "¿": 128,
    "Ġhark": 8428,
    "nurtured": 25525,
    "Ġmarried": 3407,
    "Ġhon": 2535,
    "Ġpaces": 13922,
    "Ġhearses": 20062,
    "maj": 18806,
    "Ġfet": 5808,
    "iom": 20917,
    "method": 17287,
    "Ġextinct": 14338,
    "Ġhoary": 23358,
    "Ġafter": 869,
    "Ġemblazonings": 26043,
    "Ġboyhood": 23758,
    "Ġbells": 19603,
    "Ġpugn": 21482,
    "Ġer": 8104,
    "Ġpalmed": 24094,
    "aciously": 12912,
    "Ġwhipping": 21719,
    "Ġtamely": 24980,
    "Ġelevating": 19731,
    "Ġgenuine": 14888,
    "Ġway": 1083,
    "regarding": 15076,
    "Ġnought": 21525,
    "mechanically": 17303,
    "Ġtrades": 8231,
    "Ġsuite": 18278,
    "comparatively": 25841,
    "Ġunalterable": 15855,
    "Ġjapanese": 10636,
    "Ġextreme": 2510,
    "Ġtempor": 2362,
    "Ġlovers": 9723,
    "Ġcomstock": 21862,
    "gaining": 20126,
    "Ġexacted": 23606,
    "achusetts": 20712,
    "Ġrepublican": 17415,
    "Ġtempest": 8212,
    "burn": 8370,
    "Ġascribe": 16784,
    "Ġhooked": 19079,
    "mish": 17600,
    "Ġmelancholy": 5606,
    "Ġheroism": 24545,
    "culiarity": 11143,
    "Ġsuperficial": 23458,
    "Ġpos": 1010,
    "Ġdutch": 6328,
    "governed": 25406,
    "nings": 9134,
    "Ġtapering": 8775,
    "network": 1939,
    "Ġnich": 21523,
    "Ġsullen": 9160,
    "Ġfasc": 12603,
    "swinging": 25913,
    "question": 5418,
    "Ġgreeted": 23219,
    "Ġju": 10289,
    "moonlight": 25376,
    "etah": 12666,
    "Ġintending": 11710,
    "cheerfulness": 20182,
    "Ġstalls": 25648,
    "Ġpale": 4532,
    "Ġdet": 508,
    "gledy": 25404,
    "ccas": 15889,
    "event": 8076,
    "establishment": 26114,
    "Ġlexicon": 25974,
    "ascribed": 24706,
    "Ġjames": 6418,
    "Ġremain": 1874,
    "greeting": 24555,
    "rane": 17655,
    "Ġdoing": 3659,
    "answer": 11737,
    "ane": 1178,
    "Ġswe": 2287,
    "Ġh": 290,
    "Ġgratefully": 20447,
    "itchen": 7787,
    "Ġpoets": 11826,
    "Ġforwarded": 19044,
    "vens": 21115,
    "light": 3011,
    "Ġbruited": 25774,
    "Ġfiery": 6871,
    "Ġwrecks": 16820,
    "blood": 7779,
    "Ġpod": 15608,
    "Ġass": 1505,
    "Ġcheek": 8579,
    "Ġwriggling": 15261,
    "Ġinclu": 1101,
    "Ġtackle": 9515,
    "Ġdearly": 10404,
    "ornament": 23491,
    "warn": 11546,
    "Ġflann": 23017,
    "Ġmac": 15542,
    "Ġpaths": 2568,
    "Ġar": 480,
    "Ġtenth": 13829,
    "Ġroy": 4227,
    "Ġrossum": 3007,
    "Ġsure": 1866,
    "itoring": 21335,
    "embraces": 25806,
    "Ġinland": 11612,
    "Ġchat": 6561,
    "abbering": 21800,
    "extinguish": 22773,
    "Ġdoubtless": 6197,
    "Ġprom": 1530,
    "Ġhurry": 4913,
    "Ġcased": 21349,
    "conversations": 24747,
    "Ġcontextually": 11959,
    "Ġmaiden": 13390,
    "Ġbuilding": 8062,
    "Ġterti": 14540,
    "Ġdiscern": 7924,
    "Ġthyself": 6604,
    "racted": 4776,
    "Ġpredecessor": 26255,
    "trifling": 19417,
    "Ġbubb": 12589,
    "doing": 8588,
    "hind": 20896,
    "str": 2576,
    "Ġdecap": 16028,
    "Ġequinox": 25858,
    "Ġfunere": 22263,
    "fanning": 20868,
    "Ġturbul": 23615,
    "Ġstructures": 2718,
    "Ġaccumulated": 11936,
    "Ġpart": 860,
    "still": 4217,
    "Ġshuttle": 12131,
    "Ġencode": 4363,
    "tons": 7560,
    "Ġmislead": 22761,
    "Ġknighthood": 25298,
    "Ġabandonment": 25604,
    "doubtless": 17004,
    "Ġmeditating": 20045,
    "Ġpled": 17908,
    "Ġgenerating": 12854,
    "Ġecho": 12671,
    "ains": 5094,
    "Ġseems": 2478,
    "Ġsnug": 8279,
    "structure": 5055,
    "swift": 14855,
    "unnecessary": 21885,
    "Ġimpud": 18446,
    "Ġbapt": 13899,
    "Ġwash": 9706,
    "specimen": 26607,
    "therefore": 5954,
    "Ġremained": 3140,
    "Ġbecause": 2208,
    "Ġterritories": 23850,
    "Ġporthole": 24400,
    "modern": 1165,
    "Ġfascinating": 17331,
    "Ġbolted": 12249,
    "Ġgrimly": 17053,
    "rifice": 12508,
    "Ġconsequ": 6256,
    "igators": 18049,
    "fishery": 10035,
    "perseus": 26006,
    "Ġwhichever": 14003,
    "rapt": 13976,
    "Ġmarling": 23038,
    "rooms": 10434,
    "speed": 19412,
    "Ġgroves": 16742,
    "Ġexertion": 8053,
    "Ġflame": 7448,
    "Ġwaves": 3916,
    "Ġdespairing": 14777,
    "Ġeverywhere": 9799,
    "pray": 5429,
    "entropy": 1439,
    "Ġwritten": 4165,
    "Ġleghorn": 13150,
    "Ġrustic": 14967,
    "Ġgul": 7859,
    "taller": 26151,
    "riers": 18185,
    "Ġfra": 1664,
    "sheet": 16289,
    "physiogn": 26273,
    "achable": 14141,
    "Ġfastened": 7066,
    "Ġconceits": 19393,
    "Ġemperor": 15163,
    "Ġexord": 21831,
    "asserted": 22313,
    "Ġtranscend": 25668,
    "Ġhospitable": 17061,
    "surd": 6934,
    "Ġthe": 270,
    "Ġenough": 1761,
    "Ġunnatural": 7190,
    "foreign": 18544,
    "Ġexclude": 19042,
    "Ġblandly": 20325,
    "Ġthinkings": 22814,
    "izar": 14053,
    "reading": 12084,
    "Ġperson": 2364,
    "spoken": 11867,
    "Ġ106": 24415,
    "pre": 651,
    "Ġtuning": 3071,
    "remain": 9841,
    "Ġchief": 3380,
    "grandfather": 25012,
    "resides": 23675,
    "marry": 13327,
    "odes": 18121,
    "Ġtemporarily": 11169,
    "Ġintense": 6159,
    "trial": 20352,
    "`": 68,
    "hammad": 23269,
    "Ġexcurs": 23317,
    "Ġsucceed": 4545,
    "Ġdocument": 15022,
    "Ġready": 3396,
    "Ġbuckets": 17035,
    "Ġeigenvalues": 4997,
    "description": 11096,
    "Ġpersonages": 23544,
    "aring": 1478,
    "unaccountable": 15783,
    "Ġwinking": 17796,
    "ross": 808,
    "ulatory": 15772,
    "quished": 21852,
    "Ġsurv": 6082,
    "Ġsubfield": 11874,
    "clings": 23157,
    "shining": 18488,
    "pooh": 18801,
    "Ġresigned": 9771,
    "Ġbidirectional": 3753,
    "Ġschoolmaster": 16864,
    "Ġ100": 14367,
    "Ġrelinqu": 12988,
    "Ġcoupled": 16853,
    "Ġsmall": 894,
    "Ġcompunction": 18586,
    "Ġthrees": 23405,
    "Ġproduced": 2448,
    "Ġtucked": 12396,
    "yed": 3270,
    "Ġexceptional": 19374,
    "ĠĠĠĠĠĠĠĠĠĠĠĠĠĠĠĠĠĠĠĠĠĠĠĠĠĠĠĠĠĠĠĠĠĠĠĠĠ": 14617,
    "Ġaverages": 2396,
    "unconquerable": 21896,
    "Ġtwin": 12933,
    "Ġiceberg": 14719,
    "Ġedward": 19153,
    "misfortunes": 16758,
    "iscuits": 24668,
    "Ġdisplays": 19857,
    "Ġtugged": 17291,
    "Ġcovariate": 2346,
    "Ġpallidness": 25605,
    "surely": 10572,
    "olstadt": 7788,
    "Ġexpl": 487,
    "etieth": 21587,
    "Ġfelony": 18954,
    "marrying": 19548,
    "Ġsk": 961,
    "Ġapothe": 12379,
    "Ġanxiety": 5408,
    "Ġostlers": 25277,
    "Ġconce": 3420,
    "Ġgracefully": 13395,
    "Ġbarrel": 23795,
    "Ġ31": 12135,
    "division": 20051,
    "tch": 9144,
    "Ġdiabolically": 25514,
    "outre": 18321,
    "Ġacquaint": 13050,
    "Ġmedd": 15543,
    "Ġempires": 19075,
    "Ġdepress": 14049,
    "Ġbacks": 8530,
    "Ġruffled": 25837,
    "Ġsw": 1357,
    "substance": 15235,
    "said": 4102,
    "Ġtrembled": 8705,
    "Ġadventures": 7747,
    "sample": 12511,
    "Ġbegrimed": 26580,
    "Ġpursu": 3237,
    "Ġfriendly": 9823,
    "activation": 3229,
    "Ġebony": 18012,
    "Ġclassifies": 11843,
    "Ġmocking": 24007,
    "regulated": 23470,
    "Ġgoethe": 22428,
    "Ġagent": 6279,
    "Ġever": 1180,
    "Ġcoco": 11002,
    "Ġreced": 15696,
    "lovely": 16049,
    "Ġhampshire": 15246,
    "Ġpitching": 16613,
    "exception": 9979,
    "allied": 7410,
    "Ġcomb": 1054,
    "Ġneedless": 19231,
    "otted": 14027,
    "it": 276,
    "omet": 3074,
    "beef": 18520,
    "Ġfiends": 14830,
    "Ġdiscrete": 2473,
    "zing": 7819,
    "Ġseething": 18203,
    "idated": 11665,
    "Ġwol": 15533,
    "Ġperturbation": 20443,
    "Ġmaker": 15547,
    "Ġdanish": 21434,
    "Ġboiling": 8527,
    "Ġemployments": 12107,
    "Ġpromises": 10403,
    "Ġir": 1993,
    "ne": 649,
    "host": 5869,
    "amy": 8469,
    "Ġwisdom": 11236,
    "Ġfinny": 23133,
    "Ġwrung": 14475,
    "Ġsnuffing": 25015,
    "?âĢĿâĢĶ": 12900,
    "Ġsill": 10767,
    "reduc": 5459,
    "Ġpacifics": 24374,
    "advantages": 11274,
    "Ġcaring": 23096,
    "apparent": 11043,
    "Ġfrenzy": 13626,
    "Ġparmacetti": 20607,
    "Ġimprinted": 22395,
    "ancy": 4393,
    "orm": 426,
    "Ġbarbarians": 19589,
    "id": 338,
    "Ġblame": 6445,
    "conject": 8883,
    "Ġ68": 24371,
    "Ġmoses": 21318,
    "Ġimprudent": 12853,
    "Ġdisappointed": 7098,
    "vable": 10135,
    "unctions": 18159,
    "Ġhelplessness": 25074,
    "Ġaloud": 6254,
    "making": 2571,
    "Ġrattling": 11398,
    "Ġuses": 1210,
    "Ġpaunch": 23752,
    "gorith": 554,
    "Ġhope": 1792,
    "stad": 7599,
    "catch": 17509,
    "answ": 15888,
    "avating": 18606,
    "opposite": 19930,
    "Ġshipped": 9718,
    "uling": 2253,
    "gravel": 22623,
    "Ġmalignant": 14881,
    "Ġslopes": 18943,
    "Ġprocession": 11780,
    "alled": 5912,
    "Ġraises": 11850,
    "Ġhumbly": 16201,
    "account": 5330,
    "Ġhollowly": 24527,
    "eland": 11624,
    "possibly": 10546,
    "Ġlatitudes": 9498,
    "Ġbend": 9173,
    "Ġevils": 9023,
    "pard": 9621,
    "Ġheeds": 24521,
    "Ġcastaways": 19431,
    "Ġyourself": 2592,
    "encoun": 12302,
    "Ġdoth": 13911,
    "Ġdivined": 19446,
    "weed": 14319,
    "Ġprobability": 1131,
    "announced": 19761,
    "doc": 23380,
    "Ġgenerally": 4155,
    "mar": 4334,
    "Ġweep": 7621,
    "ging": 2600,
    "Ġrevolving": 9986,
    "Ġjudiciously": 23882,
    "ols": 2410,
    "Ġgibe": 25960,
    "Ġbuoyed": 20043,
    "Ġridicule": 13515,
    "Ġdaughter": 2865,
    "oregressive": 3422,
    "dashed": 12460,
    "Ġbl": 1191,
    "Ġmichaelmas": 26376,
    "Ġintrepid": 11711,
    "school": 10058,
    "Ġ32": 19492,
    "Ġmead": 8840,
    "Ġmistaken": 4985,
    "iarity": 8747,
    "Ġsuggested": 8320,
    "gl": 3289,
    "Ġredundant": 16554,
    "Ġhoard": 23356,
    "Ġmach": 13860,
    "Ġcalled": 1972,
    "ħ": 232,
    "Ġplunged": 8696,
    "approbation": 11461,
    "dishonourable": 26367,
    "tout": 21068,
    "Ġawed": 23587,
    "Ġwretched": 4079,
    "<UNK>": 3,
    "Ġwindward": 6885,
    "Ġholiest": 18815,
    "kins": 7345,
    "Ġcent": 3251,
    "Ġstep": 750,
    "sensations": 20053,
    "ext": 921,
    "late": 11502,
    "Ġpoker": 13925,
    "Ġcivilly": 19605,
    "Ġrepugn": 23367,
    "Ġmummy": 25769,
    "bbles": 13695,
    "Ġthickly": 12120,
    "sisters": 13380,
    "Ġwhirlp": 16964,
    "Ġfelt": 1746,
    "Ġimpotent": 18448,
    "Ġanimate": 23426,
    "objections": 19917,
    "Ġwatson": 3593,
    "Ġilluminated": 20177,
    "Ġinquiries": 5678,
    "Ġscorching": 20070,
    "Ġfowl": 11333,
    "br": 2475,
    "critical": 19499,
    "complaisance": 24808,
    "vously": 23507,
    "Ġmuslin": 19386,
    "tired": 21075,
    "Ġlid": 6984,
    "Ġ116": 24441,
    "Ġfuss": 13908,
    "Ġexcessive": 3889,
    "telesc": 22820,
    "Ġamb": 9295,
    "aloons": 20013,
    "Ġmurky": 19204,
    "yra": 8102,
    "Ġnation": 12652,
    "Ġrav": 14309,
    "Ġslabs": 13066,
    "Ġringleader": 26214,
    "affold": 16565,
    "Ġfretfulness": 25449,
    "atory": 6127,
    "Ġlamps": 14795,
    "Ġplaid": 22603,
    "Ġconstrain": 2627,
    "Ġimprobable": 9798,
    "within": 6732,
    "Ġgained": 4535,
    "bingley": 4927,
    "Ġadjust": 2155,
    "treatment": 20414,
    "Ġunconnected": 18244,
    "Ġal": 342,
    "brimming": 23579,
    "liberal": 26283,
    "Ġthorough": 6247,
    "Ġenjoys": 19453,
    "hro": 20893,
    "or": 282,
    "tee": 16174,
    "ution": 4348,
    "Ġaspired": 25985,
    "Ġlongitudes": 22638,
    "Ġlaws": 8002,
    "prolong": 23399,
    "Ġrelease": 19292,
    "Ġappare": 12826,
    "Ġcrystals": 20229,
    "across": 10327,
    "Ä": 133,
    "zed": 8103,
    "heart": 4526,
    "pervading": 18962,
    "Ġgives": 5017,
    "alloyed": 22200,
    "wondering": 19845,
    "Ġpomp": 12627,
    "Ġdusky": 13553,
    "Ġdrooping": 9422,
    "Ġleader": 14705,
    "51": 12435,
    "Ġretribution": 16285,
    "Ġcabinet": 23865,
    "Ġengineer": 11979,
    "ments": 1405,
    "Ġchains": 8250,
    "impropriety": 21716,
    "orial": 8417,
    "cess": 539,
    "unearthly": 19275,
    "text": 1973,
    "Ġcopper": 7425,
    "Ġsensible": 4975,
    "recked": 17765,
    "Ġrubber": 22788,
    "ented": 4347,
    "Ġdeputation": 21843,
    "Ġkettle": 26234,
    "Ġheaped": 18041,
    "ees": 13714,
    "Ġdisorder": 16054,
    "Ġgathering": 14981,
    "Ġlabor": 10420,
    "Ġwig": 9164,
    "iel": 11497,
    "sche": 13020,
    "state": 13982,
    "shazzar": 15293,
    "paid": 15417,
    "Ġstrive": 23696,
    "ensing": 12901,
    "Ġtendency": 11332,
    "Ġmiraculous": 13551,
    "Ġ19": 6721,
    "Ġburgl": 13177,
    "Ġ78": 19615,
    "J": 46,
    "Ġgoblet": 25824,
    "Ġtarts": 10755,
    "information": 12397,
    "youn": 5690,
    "Ġshall": 1145,
    "Ġindisposed": 26289,
    "Ġpleasurable": 23345,
    "Ġunnecessary": 8855,
    "kindness": 10508,
    "Ġhighway": 14352,
    "Ġcloth": 9746,
    "Ġworm": 9165,
    "apable": 6421,
    "ford": 2819,
    "found": 4212,
    "Ġapplication": 2071,
    "Ġaromatic": 25926,
    "hunter": 10558,
    "bel": 3834,
    "engagements": 25855,
    "Ġdod": 6675,
    "Ġoverhead": 11778,
    "Ġprofound": 5497,
    "acled": 16085,
    "Ġvancouver": 26567,
    "extinguished": 16154,
    "Ġbill": 4039,
    "Ġopposed": 11191,
    "Ġvehem": 22894,
    "killer": 20478,
    "Ġvague": 6405,
    "estruct": 22222,
    "Ġtomahawk": 7540,
    "Ġrepeated": 3830,
    "Ġheadlands": 22904,
    "domestic": 19827,
    "nuts": 15401,
    "ĠĠĠĠĠĠĠĠĠĠĠĠĠĠĠĠĠĠĠĠĠĠĠĠĠĠĠĠ": 9978,
    "Ġ50": 24316,
    "Ġseeth": 21958,
    "Ġrelaxed": 12989,
    "abetical": 15747,
    "Ġcom": 369,
    "Ġaccent": 10296,
    "Ġfoliage": 18869,
    "Ġbuoyancy": 20044,
    "Ġthing": 1640,
    "Ġoverjoyed": 17461,
    "Ġax": 7821,
    "upt": 13801,
    "Ġethere": 23955,
    "Ġjollity": 25567,
    "hun": 5210,
    "Ġobservable": 25129,
    "Ġbathed": 17868,
    "Ġtransaction": 22443,
    "iscuit": 10601,
    "Ġhoops": 9390,
    "Ġginger": 9213,
    "dom": 6224,
    "copyright": 5278,
    "Ġconflict": 17276,
    "enhall": 13853,
    "Ġinstrument": 7119,
    "Ġilliter": 23471,
    "Ġcate": 4107,
    "winds": 10524,
    "Ġchair": 3660,
    "Ġheedfully": 24522,
    "Ġunden": 22018,
    "cod": 12448,
    "Ġintelligence": 560,
    "Ġlewis": 15723,
    "Ġinstinct": 6576,
    "Ġcascade": 20584,
    "Ġflow": 1238,
    "Ġhandsom": 11126,
    "Ġbesee": 19244,
    "Ġrejoiced": 8687,
    "if": 376,
    "unexpected": 15782,
    "Ġformless": 22832,
    "Ġ[_": 15464,
    "stun": 18022,
    "maltese": 24794,
    "blast": 9590,
    "Ġlightnings": 16359,
    "prises": 23818,
    "mistaken": 12215,
    "oney": 3045,
    "silent": 9977,
    "gates": 20874,
    "Ġstam": 18072,
    "omn": 15686,
    "Ġbreckinridge": 14525,
    "tes": 11532,
    "Ġvoluntarily": 12145,
    "barbar": 20240,
    "Ġexciting": 23315,
    "unted": 6999,
    "commer": 22821,
    "Ġfid": 10805,
    "pleasant": 5876,
    "Ġcenturies": 8626,
    "Ġungod": 22028,
    "clearly": 25196,
    "Ġcond": 3872,
    "augmented": 26288,
    "Ġevaluation": 16553,
    "dried": 20829,
    "igan": 21702,
    "luck": 5733,
    "Ġsaintly": 25932,
    "secret": 12241,
    "personal": 24966,
    "Ġquestion": 2776,
    "Ġfortunate": 6216,
    "Ġintervene": 25481,
    "Ġguardians": 14946,
    "Ġtaught": 6804,
    "sentiment": 12919,
    "ulation": 5458,
    "Ġmastiff": 23728,
    "morland": 24156,
    "Ġcontained": 7680,
    "Ġshol": 22000,
    "Ġchar": 1703,
    "peasant": 23116,
    "inhabited": 13624,
    "oldened": 22643,
    "quently": 9705,
    "Ġcrazed": 19177,
    "arn": 356,
    "Ġrescales": 5068,
    "Ġdiscontented": 16062,
    "complain": 14361,
    "wilful": 25152,
    "Ġsem": 1879,
    "Ġspending": 10925,
    "Ġinsip": 19269,
    "Ġkilled": 4954,
    "Ġbut": 424,
    "Ġmaj": 3924,
    "Ġregiment": 6431,
    "Ġwhiting": 10861,
    "Ġcombining": 22858,
    "inkled": 5477,
    "overing": 6307,
    "Ġthem": 642,
    "crat": 24088,
    "ds": 4687,
    "quit": 15766,
    "Ġrepairs": 19083,
    "ario": 14251,
    "friends": 8305,
    "Ġmatted": 22917,
    "Ġabuse": 18393,
    "Ġsevere": 6032,
    "Ġpie": 13918,
    "Ġrattler": 24998,
    "Ġhearken": 21688,
    "Ġpreluding": 18369,
    "Ġste": 1392,
    "Ġchose": 7413,
    "icted": 5938,
    "Ġcolleague": 17162,
    "Ġpref": 14175,
    "examined": 17269,
    "Ġcampaign": 20663,
    "Ġfals": 15585,
    "Ġgradu": 15836,
    "Ġguests": 12291,
    "wreat": 21130,
    "Ġoffer": 4844,
    "Ġvisited": 5948,
    "Ġakin": 15498,
    "Ġnooks": 26012,
    "Ġpea": 14321,
    "Ġinstituted": 18698,
    "whel": 7666,
    "Ġpanthe": 19655,
    "zag": 17715,
    "Ġreferences": 21677,
    "nailed": 20998,
    "Ġnegative": 1465,
    "Ġchivalry": 25820,
    "Ġfabulous": 25949,
    "mentioning": 24886,
    "apprehens": 17409,
    "remonstr": 23196,
    "Ġunconditional": 15848,
    "Ġloud": 4700,
    "usations": 15951,
    "Ġhanded": 8217,
    "Ġdivinely": 25723,
    "Ġdoct": 4456,
    "oriental": 23724,
    "Ġgladness": 16593,
    "nervous": 16281,
    "Ġperemptorily": 17370,
    "Ġperish": 8878,
    "Ġcontrad": 9758,
    "sa": 8760,
    "Ġslide": 10396,
    "latitudes": 17199,
    "accidents": 19214,
    "alarm": 15631,
    "Ġmast": 2898,
    "Ġfairy": 14629,
    "Ġwear": 6031,
    "Ġdissol": 18551,
    "oriously": 17877,
    "ball": 7792,
    "disgu": 19157,
    "Ġwing": 6668,
    "Ġmixture": 9564,
    "Ġladies": 3192,
    "Ġfestival": 25446,
    "Ġmists": 14632,
    "Ġabroad": 8869,
    "Ġgar": 10840,
    "Ġtexture": 19162,
    "viv": 17700,
    "ittance": 12850,
    "Ġtaurus": 21181,
    "Ġreconc": 9686,
    "Ġavert": 14429,
    "ract": 1005,
    "Ġabsolut": 3907,
    "Ġrelationship": 2311,
    "Ġfancies": 10426,
    "ision": 1856,
    "Ġspeaker": 19150,
    "Ò": 147,
    "aying": 15754,
    "attoo": 6808,
    "Ġfond": 4755,
    "Ġskylight": 24076,
    "Ġparcel": 15204,
    "inev": 21984,
    "Ġminimizing": 3462,
    "Ġency": 21938,
    "Ġseasoned": 24406,
    "Ġvilest": 20103,
    "Ġvisits": 8222,
    "Ġnarration": 13507,
    "Ġanointing": 25540,
    "Ġruminated": 24601,
    "water": 4868,
    "ounce": 6558,
    "libra": 22929,
    "Ġrabb": 4161,
    "Ġmanor": 14200,
    "Ġprivileged": 20115,
    "kinson": 10029,
    "Ġconcert": 11969,
    "Ġphilosophers": 10554,
    "Ġunsophisticated": 25993,
    "Ġstained": 11656,
    "Ġboisterously": 25683,
    "inisc": 15491,
    "Ġmonoton": 3634,
    "ubl": 3591,
    "Ġplaus": 22602,
    "imitably": 21714,
    "Ġincessant": 15102,
    "Ġensl": 19276,
    "Ġbashful": 20422,
    "Ġemblaz": 16233,
    "Ġdecoding": 3080,
    "Ġalter": 6543,
    "Ġspeeches": 22661,
    "Ġbranded": 14383,
    "below": 12126,
    "Ġungovernable": 20711,
    "Ġmorbidness": 20631,
    "rudence": 7093,
    "Ġanew": 11433,
    "Ġindefinite": 17179,
    "ctor": 13963,
    "bb": 2797,
    "rices": 4559,
    "Ġfoot": 3160,
    "abriel": 6950,
    "Ġimm": 3963,
    "lish": 1951,
    "icy": 6142,
    "ition": 652,
    "bell": 7332,
    "Ġinvoluntarily": 8550,
    "_?âĢĿ": 15309,
    "Ġinvisible": 7327,
    "Ġlobster": 11392,
    "Ġabominate": 20067,
    "reporting": 24495,
    "Ġtrouble": 3690,
    "Ġcards": 7582,
    "atic": 4016,
    "Ġriot": 14690,
    "Î": 143,
    "Ġopened": 3510,
    "pennies": 26287,
    "Ġchrist": 4071,
    "sur": 4523,
    "iday": 8834,
    "variance": 2653,
    "Ġcelebrated": 13598,
    "Ġfettered": 24570,
    "Ġflattering": 13035,
    "Ġgnawed": 25168,
    "hidden": 17374,
    "Ġnet": 3623,
    "Ġpartake": 18676,
    "orously": 8419,
    "Ġmoby": 3663,
    "Ġlived": 3988,
    "bbing": 6324,
    "Ġ113": 19698,
    "Ġpensive": 21477,
    "outs": 7010,
    "Ġjoy": 3182,
    "ppers": 7619,
    "Ġimpudence": 26243,
    "elzebub": 26466,
    "Ġwinged": 16997,
    "Ġcruise": 12053,
    "dat": 1714,
    "Ġheat": 5453,
    "Ġcondescension": 10621,
    "Ġblooming": 17215,
    "Ġwithstand": 10228,
    "leeward": 15215,
    "astrous": 15890,
    "Ġendeav": 2951,
    "awned": 19463,
    "Ġworthless": 19566,
    "eks": 4727,
    "strom": 15688,
    "clad": 14463,
    "Ġmaintain": 857,
    "Ġpoint": 2056,
    "wart": 17707,
    "azine": 19132,
    "reliable": 21243,
    "Ġlabrador": 23334,
    "Ġtwentieth": 18660,
    "Ġslow": 2376,
    "Ġlargest": 6284,
    "Ļ": 252,
    "Ġbrief": 6977,
    "Ġdeject": 10882,
    "Ġpads": 21476,
    "Ġconfounded": 16385,
    "Ġdiverged": 23597,
    "Ġscroll": 14195,
    "ollion": 19717,
    "Ġimmemorial": 10513,
    "Ġende": 21937,
    "mind": 4626,
    "Û": 156,
    "Ġpills": 21468,
    "Ġrio": 23895,
    "innocent": 20288,
    "Ġinsert": 19906,
    "Ġperfect": 2553,
    "Ġdespondency": 16580,
    "neither": 9761,
    "Ġdelirium": 10407,
    "Ġonto": 14031,
    "Ġheighten": 19532,
    "ulty": 22571,
    "voc": 8393,
    "Ġnantucketer": 6914,
    "sticking": 21663,
    "care": 4928,
    "Ġheedful": 19742,
    "Ġwindigate": 18912,
    "aphys": 15206,
    "Ġhercules": 14131,
    "Ġsquid": 11883,
    "aching": 5832,
    "enances": 10156,
    "Ġlengthened": 25959,
    "Ġvalidation": 2353,
    "destroy": 19513,
    "Ġspile": 22131,
    "mme": 22506,
    "Ġidentity": 2521,
    "Ġnay": 5711,
    "._]]": 5335,
    "Ġdistributions": 1051,
    "Ġyoun": 1411,
    "irting": 11690,
    "P": 52,
    "smiled": 16616,
    "Ġthird": 4185,
    "ju": 13744,
    "Ġ1671": 25008,
    "Ġimpropri": 14221,
    "Ġveteran": 17453,
    "shook": 19856,
    "earliest": 20122,
    "Ġcalculated": 4476,
    "Ġwoes": 23990,
    "shoe": 14969,
    "Ġattraction": 18620,
    "Ġpuffed": 14979,
    "Ġmorning": 1749,
    "usage": 12838,
    "Ġbreaths": 14860,
    "Ġresentful": 24633,
    "Ġbelonged": 6922,
    "abond": 15745,
    "Ġlegendary": 20540,
    "collins": 6916,
    "separ": 9233,
    "Ġting": 8398,
    "Ġretreat": 6071,
    "ability": 718,
    "Ġunconquerable": 22067,
    "...": 24550,
    "Ġshy": 10905,
    "amuse": 14055,
    "Ġpreferment": 19853,
    "Ġ182": 13241,
    "Ġlees": 18066,
    "Ġtongues": 14866,
    "Ġshown": 5159,
    "Ġshort": 2222,
    "Ġsickbed": 24250,
    "distinguished": 10529,
    "Ġinvestig": 10552,
    "Ġpliny": 11830,
    "Ġwhom": 1832,
    "Ġinsane": 19271,
    "marvell": 24175,
    "sac": 7141,
    "squall": 13525,
    "Ġobtruded": 20724,
    "omy": 6250,
    "Ġsharper": 17182,
    "Ġmart": 10781,
    "Ġsubmission": 22791,
    "Ġhatchways": 24990,
    "Ġdesper": 6178,
    "Ġlash": 8439,
    "Ġmarket": 7708,
    "queness": 18150,
    "Ġinquirer": 24964,
    "Ġoverbearing": 12848,
    "pal": 9619,
    "Ġrational": 8481,
    "lemag": 21375,
    "Ġsociet": 9451,
    "Ġaccompaniments": 24483,
    "achment": 5464,
    "fortune": 4974,
    "crack": 19841,
    "and": 372,
    "arm": 1358,
    "--âĢĺ": 22852,
    "ithmetic": 18065,
    "Ġgilder": 21616,
    "itself": 7833,
    "Ġprosecuted": 25294,
    "Ġsavoury": 23881,
    "Ġbackwoods": 22664,
    "driver": 14924,
    "lone": 11503,
    "!âĢĿâĢĶ": 8534,
    "Ġgin": 13964,
    "meal": 22700,
    "lower": 8884,
    "etw": 408,
    "shortened": 24746,
    "Ġabandoned": 8352,
    "Ġcharcoal": 19014,
    "Ġungrateful": 14125,
    "ribut": 817,
    "marriage": 7744,
    "Ġstriving": 8999,
    "Ġgeneric": 18449,
    "Ġharvard": 24575,
    "command": 6578,
    "carries": 19530,
    "proble": 9396,
    "Ġlowly": 11123,
    "Ġspeculations": 22997,
    "impossible": 8828,
    "Ġpassing": 4314,
    "Ġcolours": 12979,
    "Ġfuel": 13907,
    "Ġalley": 15740,
    "Ġplayful": 19238,
    "Ġdevouring": 11863,
    "tic": 8390,
    "Ġfighting": 12202,
    "express": 4895,
    "stove": 21655,
    "train": 2034,
    "Ġscholar": 26112,
    "Ġboast": 7035,
    "^": 66,
    "Ġcrew": 2492,
    "orns": 12597,
    "Ġhaven": 8475,
    "Ġcaresses": 26060,
    "Ġrecognition": 2894,
    "Ġlomb": 21562,
    "bib": 17494,
    "Ġresembles": 25970,
    "Ġpa": 2984,
    "Ġprice": 10405,
    "Ġcloak": 9536,
    "Ġshivered": 14111,
    "Ġbiography": 22766,
    "Ġremoved": 5275,
    "¹": 122,
    "Ġavoid": 5199,
    "Ġruined": 12959,
    "drowned": 17372,
    "Ġstayed": 7997,
    "otograph": 5827,
    "Ġpier": 7163,
    "Ġclimates": 25053,
    "eting": 7170,
    "Ġcompan": 2173,
    "Ġgaiety": 16751,
    "15": 12434,
    "lived": 12491,
    "94": 4803,
    "Ġacquired": 13049,
    "Ġtarn": 21161,
    "trunk": 23952,
    "Ġofficial": 7082,
    "Ġstow": 21737,
    "likes": 18817,
    "corner": 13401,
    "Ġdoor": 1739,
    "Ġnumer": 3636,
    "darker": 24517,
    "Ġcourses": 10412,
    "Ġrelieved": 7667,
    "Ġdazz": 11598,
    "Ġletting": 10365,
    "axing": 18547,
    "wooden": 24589,
    "Ġchowder": 10283,
    "Ġdistances": 22507,
    "ht": 375,
    "Ġproblem": 1273,
    "hullo": 17572,
    "ernsey": 8905,
    "Ġfeelingly": 22996,
    "Ġspent": 3962,
    "Ġhostile": 19942,
    "Ġrequisition": 22637,
    "Ã¦us": 14819,
    "Ġexpense": 7653,
    "Ġnoblest": 13246,
    "Ġbowels": 9432,
    "Ġgans": 5822,
    "Ġtestified": 16325,
    "Ġchecked": 9379,
    "Ġgrapple": 25812,
    "Ġmales": 17808,
    "dared": 13706,
    "Ġbeaver": 18089,
    "tedious": 22636,
    "Ġdenote": 19335,
    "sle": 9141,
    "unwillingly": 21889,
    "Ġquiver": 16007,
    "Ġ14": 9326,
    "Ġgrinning": 9056,
    "Ġfarm": 7839,
    "yd": 21145,
    "Ġmerc": 9428,
    "pot": 10120,
    "thickness": 25368,
    "pun": 9620,
    "ippers": 17578,
    "voice": 7815,
    "iny": 4294,
    "Ġminutes": 2996,
    "Ġunspeakable": 10059,
    "Ġsaturn": 22907,
    "Ġcalculating": 9928,
    "Ġyankees": 26203,
    "Ġassaults": 15161,
    "Ġderives": 16311,
    "ress": 931,
    "Ġimputed": 12813,
    "mor": 4213,
    "Ġinsupportable": 13935,
    "Ġforster": 5230,
    "Ġxliv": 23412,
    "Ġ40": 14772,
    "aisance": 15079,
    "conside": 9293,
    "Ġcleaned": 23188,
    "Ġdiv": 3730,
    "Ġhoe": 23355,
    "Ġintensity": 10019,
    "chorus": 19813,
    "itled": 7579,
    "sufferable": 12181,
    "Ġsuccessful": 9926,
    "ê": 171,
    "Ġtoward": 17950,
    "âĢĶ.": 11760,
    "erde": 21271,
    "Ġprimitive": 25064,
    "Ġenormity": 19697,
    "Ġforgot": 4683,
    "Ġthieves": 15640,
    "ow": 325,
    "Ġsofas": 26226,
    "Ġcivilized": 8668,
    "Ġunderstood": 5655,
    "Ġliber": 5168,
    "popular": 26141,
    "Ġruff": 14353,
    "Ġdefined": 11903,
    "Ġplain": 2814,
    "geor": 15982,
    "Ġ54": 24319,
    "Ġav": 3578,
    "emb": 11694,
    "uments": 5552,
    "Ġyour": 635,
    "wolf": 26411,
    "Ġplough": 18609,
    "iltrated": 19307,
    "Ġclay": 7021,
    "being": 3910,
    "Ġastern": 6091,
    "Ġcheerful": 6624,
    "Ġperplexity": 2754,
    "inea": 7625,
    "Ġscope": 15947,
    "Ġcre": 888,
    "shipping": 10310,
    "apparat": 22848,
    "rospect": 11616,
    "indebted": 26159,
    "Ġincomplete": 17211,
    "Ġextraordinary": 5414,
    "hercules": 22208,
    "heav": 5694,
    "ot": 346,
    "Ġflo": 2586,
    "ikes": 8086,
    "Ġcontr": 1916,
    "Ġqu": 605,
    "Ġlearn": 362,
    "Ġreel": 9216,
    "Ġsame": 1345,
    "Ġgipsies": 12412,
    "Ġacceded": 22382,
    "Ġslop": 23168,
    "inferior": 12398,
    "credit": 12453,
    "Ġsuperl": 16446,
    "Ġboys": 5194,
    "province": 26073,
    "iceland": 21569,
    "Ġox": 7154,
    "pacing": 21023,
    "Ġsaying": 3241,
    "Ġcanes": 22167,
    "ify": 1479,
    "§": 105,
    "stains": 11641,
    "unction": 10237,
    "Ġp": 288,
    "Ġclimb": 15084,
    "hateful": 20911,
    "Ġprogno": 14043,
    "Ġdeclaring": 19423,
    "Ġrefres": 14347,
    "itiously": 13874,
    "fem": 17539,
    "your": 1984,
    "whose": 6852,
    "Ġgretna": 26470,
    "inations": 7568,
    "hastening": 24449,
    "Ġleeward": 6212,
    "Ġsynthe": 26008,
    "Ġattracted": 8908,
    "Ġenchant": 7185,
    "ches": 2148,
    "Ġhide": 4589,
    "Ġpoured": 8805,
    "ars": 906,
    "Ġprotruding": 16661,
    "Ġgot": 2278,
    "Ġtierce": 15481,
    "ignomin": 23272,
    "he": 264,
    "as": 302,
    "wicked": 24450,
    "noise": 14330,
    "Ġodor": 12154,
    "ony": 3024,
    "Ġdevious": 22721,
    "Ġoverthrown": 18431,
    "Ġeludes": 26556,
    "Ġresounded": 22548,
    "back": 2017,
    "coronet": 16865,
    "discernible": 20553,
    "richard": 17289,
    "Ġfatal": 5873,
    "acknowledging": 25477,
    "redit": 3874,
    "Ġrestless": 10414,
    "Ġoffend": 16149,
    "hatherley": 17570,
    "disappo": 8987,
    "Ġplantation": 11426,
    "Ġkeels": 11063,
    "wreck": 21139,
    "Ġsuffusing": 23035,
    "Ġdramat": 23223,
    "Ġenthus": 7232,
    "Ġdisgu": 8205,
    "Ġhamper": 19392,
    "Ġchristianity": 19861,
    "iscient": 17854,
    "Ġsinks": 19550,
    "Ġhollow": 5648,
    "critters": 14779,
    "ble": 542,
    "Ġportents": 14681,
    "unwho": 21882,
    "athed": 7827,
    "Ġgu": 1329,
    "Ġlance": 4879,
    "fancy": 7337,
    "Ġmors": 17804,
    "Ġresnet": 5473,
    "Ġus": 494,
    "Ġgaff": 17997,
    "abominable": 20597,
    "Ġsympathies": 14864,
    "ophisticated": 22482,
    "recollection": 25349,
    "Ġstur": 15724,
    "divers": 15346,
    "Ġbott": 3147,
    "Ġuttered": 7280,
    "aver": 6786,
    "Ġgrew": 5182,
    "atiable": 17777,
    "rel": 3752,
    "Ġgame": 3625,
    "Ġstepped": 7052,
    "Ġcountryside": 23599,
    "Ġsummits": 14685,
    "Ġpray": 3896,
    "Ġsunshine": 14499,
    "urmountable": 15283,
    "Ġgourmand": 26468,
    "Ġresidence": 8206,
    "Ġintend": 12769,
    "enchant": 21286,
    "straw": 24099,
    "atching": 8201,
    "Ġaccord": 4024,
    "Ġtrample": 20329,
    "Ġalex": 15138,
    "54": 15303,
    "ide": 722,
    "stately": 18025,
    "umbria": 23899,
    "ivation": 3109,
    "Ġmusk": 7495,
    "orum": 12595,
    "lleg": 20953,
    "Ġgospel": 18004,
    "Ġovertake": 15977,
    "isson": 23464,
    "Ġicy": 10749,
    "ruction": 4356,
    "Ġdata": 515,
    "extra": 8218,
    "Ġscot": 5643,
    "Ġgest": 8133,
    "Ġflavor": 16254,
    "Ġhumanity": 6733,
    "rie": 2784,
    "Ġconfronted": 23312,
    "poss": 4778,
    "ni": 1612,
    "Ġrailway": 15024,
    "Ġtrim": 15966,
    "Ġsplinters": 15107,
    "Ġep": 7384,
    "Ġsmell": 7216,
    "Ġugliness": 20429,
    "Ġcoward": 7156,
    "entary": 21570,
    "stud": 8824,
    "Ġcolonnades": 26277,
    "Ġinclusive": 24166,
    "Ġworship": 10369,
    "Ġaround": 3608,
    "#": 7,
    "Ġheaved": 9386,
    "Ġchildren": 3765,
    "darted": 20834,
    "Ġsociety": 3975,
    "Ġeditions": 19154,
    "Ġzone": 14365,
    "Ġimbib": 22179,
    "Ġmask": 1867,
    "Ġsovereign": 10065,
    "Ġgenerate": 1487,
    "aciousness": 18607,
    "jep": 20928,
    "Ġcriminals": 19923,
    "Ġtop": 2467,
    "med": 1914,
    "awing": 18917,
    "vess": 7354,
    "idol": 21770,
    "icking": 8914,
    "Ġpatagon": 14493,
    "Ġlivid": 14993,
    "shells": 26057,
    "Ġdev": 885,
    "Ġdarted": 4758,
    "Ġencounter": 6630,
    "happy": 4425,
    "Ġcrow": 3804,
    "Ġcolonial": 22864,
    "Ġnephews": 24712,
    "Ġrefused": 6717,
    "wandered": 20287,
    "Ġvoyage": 3050,
    "ĠâĢĶâĢĶ": 25758,
    "elope": 14464,
    "Ġeffects": 7236,
    "impregnable": 26483,
    "Ġheedless": 14906,
    "Ġ104": 24413,
    "Ġpromised": 5181,
    "based": 2956,
    "beware": 16042,
    "hic": 3245,
    "Ġobe": 5801,
    "thing": 1482,
    "stock": 13227,
    "Ġfoes": 11955,
    "Ġsegment": 12762,
    "._)": 10483,
    "calm": 8937,
    "Ġlungless": 24864,
    "distrust": 19572,
    "Ġ114": 24439,
    "Ġparacelsus": 15270,
    "Ġwander": 9034,
    "_âĢĿ": 20763,
    "Ġheartfelt": 18969,
    "Ġtwisted": 7228,
    "isc": 6241,
    "Ġsultan": 15189,
    "Ġfeebly": 24878,
    "Ġfriends": 2652,
    "ws": 7355,
    "Ġurging": 24506,
    "Ġreplying": 19583,
    "Ġ28": 19296,
    "Ġcounterpart": 24719,
    "Ġjunk": 15957,
    "Ġmystical": 12137,
    "Ġdegener": 14051,
    "gre": 5788,
    "Ġshallow": 14399,
    "Ġboston": 22642,
    "Ġacqu": 1419,
    "moby": 8538,
    "Ġruled": 22787,
    "Ġvanity": 7046,
    "Ġperv": 15994,
    "noted": 22754,
    "Ġmisunderstood": 18706,
    "Ġknitting": 24222,
    "Ġunrolled": 22042,
    "Ġsilver": 7464,
    "Ġlost": 2634,
    "Ġforcibly": 10064,
    "Ġchis": 11755,
    "Ġdictated": 25219,
    "Ġmomentous": 16173,
    "Ġdisposed": 7084,
    "Ġschol": 17380,
    "gress": 2211,
    "matical": 13133,
    "Ġspokes": 18314,
    "tland": 21076,
    "Ġjoosy": 23634,
    "Ġrising": 4354,
    "Ġinfallible": 15075,
    "deed": 1520,
    "aker": 3661,
    "Ġidler": 16408,
    "Ġrevolutionized": 3366,
    "lung": 17593,
    "Ġgouldings": 26189,
    "Ġspecksnyder": 17406,
    "naught": 20996,
    "analysis": 26174,
    "receiving": 12548,
    "Ġdelusion": 18976,
    "attempted": 20176,
    "Ġiteratively": 3053,
    "Ġtogether": 1880,
    "leap": 21370,
    "tree": 11537,
    "yder": 10141,
    "Ġshiny": 14109,
    "Ġhal": 1367,
    "Ġkrempe": 10672,
    "Ġwedding": 4816,
    "Ġundeviating": 15222,
    "Ġvicissitudes": 12423,
    "faces": 13723,
    "Ġlounged": 19956,
    "Ġscrews": 25178,
    "Ġhellaswag": 24344,
    "steaks": 23965,
    "Ġwarped": 25038,
    "Ġfrozen": 9016,
    "Ġlandlessness": 23384,
    "Ġpope": 11605,
    "Ġbarn": 11591,
    "Ġcasks": 7522,
    "party": 8995,
    "Ġcherub": 23291,
    "Ġhelmsman": 10507,
    "Ġpredicts": 2593,
    "Ġschoolmasters": 19722,
    "Ġsucceeded": 6107,
    "arness": 11675,
    "emone": 21932,
    "Ġentrapped": 26264,
    "Ġstraightway": 9020,
    "cri": 17508,
    "Ġneck": 4885,
    "Ġinstruct": 2860,
    "Ġattic": 16099,
    "Ġrecollections": 10515,
    "Ġregained": 18597,
    "too": 4508,
    "leep": 4634,
    "Ġsugg": 4500,
    "Ġobtaining": 16137,
    "admire": 24946,
    "Ġarabic": 24981,
    "Ġheadway": 18795,
    "Ġsomewhat": 4897,
    "Ġbeginning": 4241,
    "Ġ70": 11279,
    "pher": 11515,
    "Ġtension": 13827,
    "Ġglistened": 20174,
    "abb": 15743,
    "Ġfors": 21775,
    "Ġmaterially": 12196,
    "Ġfirmest": 16667,
    "Ġbottomless": 12111,
    "ared": 769,
    "hmael": 7342,
    "Ġtemptation": 8681,
    "Ġnamed": 6141,
    "Ġassume": 10518,
    "removing": 17767,
    "Ġtwilight": 16125,
    "violets": 23547,
    "Ġentrance": 7233,
    "Ġabridged": 26542,
    "Ġgaiters": 20463,
    "1": 21,
    "speechless": 25396,
    "irement": 18356,
    "Ġaugust": 10600,
    "door": 6195,
    "Ġdang": 9177,
    "arranging": 19319,
    "Ġraise": 6168,
    "nature": 5360,
    "Ġcables": 15562,
    "Ġtemperate": 16164,
    "Ġvesu": 21954,
    "Ġclapham": 17268,
    "uted": 7594,
    "squeezing": 25914,
    "Ġsoc": 3523,
    "Ġnose": 4402,
    "footsteps": 25200,
    "Ġbald": 16210,
    "Ġalbino": 20505,
    "Ġidentical": 10436,
    "customary": 25896,
    "Ġplausible": 26555,
    "pede": 19931,
    "Ġwrench": 12562,
    "musical": 25341,
    "Ġhadn": 9722,
    "enormous": 26167,
    "henomen": 10497,
    "unmistakable": 21900,
    "icial": 12660,
    "Ġsorrow": 4628,
    "Ġshoulder": 5849,
    "Ġcared": 8787,
    "Ġprobable": 5570,
    "Ġgerm": 13967,
    "Ġstowed": 21743,
    "hus": 5072,
    "Ġenjoy": 3758,
    "Ġdrow": 21429,
    "Ġeternal": 5976,
    "ferent": 4192,
    "Ġdoubling": 23322,
    "tried": 13797,
    "erpillar": 5798,
    "Ġhelm": 5276,
    "concent": 19483,
    "Ġhowl": 12858,
    "Ġcleaving": 23187,
    "Ġextremely": 2667,
    "Ġlesson": 7276,
    "rinted": 21046,
    "Ġrom": 4525,
    "Ġtrump": 8194,
    "Ġissues": 9544,
    "Ġmissing": 6177,
    "ropout": 1322,
    "unvarying": 21892,
    "Ġchained": 16389,
    "clergy": 18936,
    "mell": 20966,
    "Ġvalid": 1769,
    "Ġaf": 780,
    "con": 654,
    "Ġsensibility": 14515,
    "Ġadviser": 25313,
    "jah": 17583,
    "Ġdisputing": 25825,
    "Ġconfide": 13102,
    "Ġbuffalo": 11432,
    "Ġopposite": 5120,
    "rennial": 22345,
    "Ġshelves": 15001,
    "sec": 6154,
    "Ġcrouching": 23444,
    "Ġpaintings": 15059,
    "Ġchocks": 13350,
    "Ġenjoined": 18193,
    "security": 26208,
    "Ġdusting": 24598,
    "sli": 11526,
    "Ġpoland": 23620,
    "Ġanticipating": 17060,
    "utch": 21589,
    "sleeves": 26110,
    "Ġplanets": 24060,
    "Ġdish": 6138,
    "cooks": 25070,
    "Ġheightened": 8652,
    "Ġellenborough": 26155,
    "Ġdepth": 2435,
    "borrowed": 20794,
    "ved": 868,
    "Ġconjunction": 25103,
    "Ġcomparative": 10545,
    "industrious": 26241,
    "Ġthrone": 12218,
    "Ġunp": 12777,
    "verdict": 21733,
    "Ġtatters": 21180,
    "nephew": 26399,
    "ooping": 21009,
    "resist": 8275,
    "Ġ96": 24594,
    "gh": 3800,
    "Ġbanished": 10619,
    "angs": 5834,
    "valuable": 8246,
    "il": 329,
    "les": 1015,
    "Ġoutdone": 22322,
    "oc": 2830,
    "maintained": 25023,
    "Ġaqu": 17745,
    "Ġcrowd": 6337,
    "Ġgifts": 21615,
    "Ġgrotes": 19564,
    "Ġott": 13869,
    "Ġgloomy": 7505,
    "corrupt": 14898,
    "Ġfedallah": 6110,
    "chery": 24552,
    "Ġcorporeally": 25729,
    "melancholy": 12357,
    "deficient": 23122,
    "Ġaver": 1289,
    "intellect": 18824,
    "Ġindestruct": 22962,
    "Ġdella": 21442,
    "Ġchron": 19441,
    "Ġram": 11015,
    "Ġravines": 25833,
    "surprise": 9532,
    "Ġcomical": 11684,
    "notches": 22755,
    "ned": 3490,
    "Ġrallied": 14098,
    "deserted": 19344,
    "Ġvinegar": 20102,
    "pig": 8756,
    "ondon": 2705,
    "remarks": 23194,
    "Ġpages": 15612,
    "endar": 18365,
    "ulating": 10889,
    "Ġvariance": 1169,
    "Ġcircumspection": 25885,
    "Ġsignal": 5945,
    "Ġflap": 14426,
    "Ġparametric": 2392,
    "Ġsettles": 22923,
    "chop": 21691,
    "motion": 17608,
    "determ": 7106,
    "Ġwoe": 4793,
    "Ġsuffice": 18871,
    "Ġorbs": 22096,
    "Ġpeculiar": 3151,
    "Ġsubsisting": 23438,
    "Ġsqueaking": 26276,
    "Ġstarboard": 7609,
    "Ġabaft": 22278,
    "Ġadaptation": 3154,
    "Ġvictim": 6099,
    "deception": 22149,
    "z": 94,
    "Ġdavy": 25952,
    "Ġundeserving": 18269,
    "Ġmelting": 24291,
    "Ġsoftly": 7947,
    "Ġundertaking": 8576,
    "Ġdistinctions": 18530,
    "spring": 7231,
    "Ġhoofs": 14529,
    "Ġbye": 12743,
    "Ġforbidden": 17079,
    "Ġmortals": 9919,
    "manner": 6172,
    "affect": 13216,
    "pract": 10122,
    "Ġchoosing": 19592,
    "¦": 104,
    "poling": 12224,
    "sorting": 17006,
    "Ġwithal": 18117,
    "considering": 12179,
    "ized": 1531,
    "indul": 22374,
    "Ġregression": 4410,
    "Ġespecial": 26412,
    "Ġdepicting": 22610,
    "image": 9689,
    "Ġbreast": 8971,
    "Ġuseful": 3555,
    "Ġindefatigable": 17180,
    "Ġrelated": 3714,
    "Ġdishon": 12235,
    "among": 6258,
    "quarter": 11391,
    "Ġlunatic": 24993,
    "Ġfurnish": 9022,
    "Ġmungo": 25632,
    "Ġacutely": 14318,
    "brown": 15321,
    "Ġsquires": 16184,
    "Ġmanufactured": 22334,
    "effort": 19216,
    "Ġepidemic": 20698,
    "Ġhail": 7400,
    "mild": 15395,
    "Ġinterest": 2245,
    "Ġjing": 15953,
    "disappearing": 23505,
    "Ġsavannah": 17419,
    "Ġknock": 9976,
    "Ġchimney": 6496,
    "obedience": 17413,
    "Ġreject": 7386,
    "console": 22477,
    "catherine": 7128,
    "amples": 1822,
    "mbles": 23093,
    "Ġhag": 12630,
    "Ġgarn": 13966,
    "Ġscound": 12837,
    "Ġreadily": 5254,
    "Ġbreathe": 9015,
    "go": 2063,
    "Ġecon": 9680,
    "Ġproportionably": 19973,
    "Ġridges": 16733,
    "common": 4125,
    "Ġdardanelles": 26445,
    "ishment": 3503,
    "move": 11862,
    "Ġpickle": 16724,
    "estone": 18361,
    "Ġhenceforth": 19644,
    "dish": 12457,
    "Ġerected": 12238,
    "follows": 24529,
    "vain": 15450,
    "servants": 15041,
    "Ġache": 18664,
    "determined": 9082,
    "Ġreminds": 13435,
    "Ġruskin": 25809,
    "Ġthereupon": 18435,
    "tis": 4103,
    "Ġlodges": 19503,
    "Ġtough": 13818,
    "Ġhuzza": 12638,
    "Ġattends": 19652,
    "tackle": 17324,
    "Ġyoungest": 7953,
    "Ġencourage": 10383,
    "Ġvital": 9246,
    "ain": 343,
    "perplex": 18339,
    "otam": 21802,
    "Ġ20": 8617,
    "Ġmagical": 23104,
    ".": 18,
    "Ġbalanced": 12996,
    "Ġtumultuous": 10618,
    "Ġvulgar": 13608,
    "Ġwishing": 7829,
    "Ġadd": 630,
    "Ġdrawing": 3915,
    "im": 327,
    "kne": 20937,
    "Ġreveren": 13199,
    "Ġshade": 6551,
    "eze": 20849,
    "Ġwight": 12558,
    "an": 278,
    "Ġtech": 1637,
    "airs": 2218,
    "invisible": 17743,
    "iding": 3845,
    "Ġcontract": 18476,
    "Ġwad": 13854,
    "Ġcontent": 5033,
    "Ġrelations": 5854,
    "Ġreference": 2563,
    "Ġvertical": 16606,
    "Ġfol": 1291,
    "frisco": 16789,
    "vi": 2371,
    "Ġfull": 2177,
    "incing": 15488,
    "meas": 7432,
    "counters": 25398,
    "Ġmeditate": 16709,
    "Ġforts": 21776,
    "Ġfat": 3459,
    "Ġbleached": 24397,
    "inforcement": 3288,
    "Ġsparks": 22136,
    "bar": 7542,
    "Ġendeavor": 16547,
    "Ġcandelabra": 26604,
    "icacy": 15662,
    "Ġaffl": 14390,
    "Ġprodu": 1206,
    "Ġpall": 7584,
    "Ġcould": 703,
    "Ġadversarial": 5607,
    "determination": 19947,
    "Ġsoutherly": 23338,
    "Ġclenched": 14208,
    "Ġpause": 5707,
    "particularly": 8339,
    "fer": 1744,
    "compl": 6873,
    "Ġperched": 10302,
    "good": 2897,
    "peril": 18338,
    "conquerable": 17402,
    "Ġarter": 22187,
    "improve": 15716,
    "Ġdemon": 7868,
    "Ġstove": 6735,
    "strong": 6323,
    "Ġdism": 9770,
    "correspond": 13402,
    "Ġproced": 2578,
    "Ġvort": 18195,
    "Ġtold": 2184,
    "ienced": 5685,
    "Ġem": 1924,
    "Ġleave": 2453,
    "Ġdistraction": 22509,
    "Ġcarved": 7946,
    "Ġreserves": 19672,
    "mming": 1173,
    "ient": 394,
    "Ġcripple": 11443,
    "Ġpick": 4255,
    "desponding": 26343,
    "Ġforeign": 9875,
    "boom": 19003,
    "Ġampl": 22484,
    "Ġclutches": 20020,
    "Ġmccauley": 26429,
    "Ġbeen": 627,
    "until": 6598,
    "Ġstrictly": 12289,
    "ler": 3489,
    "ckets": 6843,
    "Ġlike": 666,
    "Ġaffections": 10387,
    "Ġcha": 6853,
    "Ġdownward": 10334,
    "Ġpride": 3822,
    "Ġreligious": 25124,
    "Ġperceive": 6701,
    "Ġlump": 21555,
    "Ġrep": 1936,
    "Ġgroom": 13969,
    "men": 1488,
    "Ø": 153,
    "belong": 12127,
    "teringly": 21827,
    "ciousness": 20819,
    "Ġbefall": 8833,
    "Ġblacksmith": 6597,
    "piling": 15418,
    "Ġsprain": 18306,
    "Ġtechnically": 12370,
    "bride": 19202,
    "sequence": 2852,
    "Ġdecency": 18492,
    "Ġchill": 11757,
    "Ġmouldy": 14976,
    "Ġcontact": 9284,
    "Ġending": 18924,
    "Ġkiller": 19570,
    "boards": 23259,
    "Ġattractions": 12921,
    "accountable": 7110,
    "Ġful": 4296,
    "Ġsanctified": 25883,
    "penetrating": 25491,
    "pinn": 21028,
    "herds": 22207,
    "romising": 18235,
    "Ġanchors": 12618,
    "Ġcure": 21343,
    "ipt": 12483,
    "nose": 17612,
    "Ġseason": 5238,
    "noo": 9790,
    "Ġdressed": 5081,
    "Ġlocking": 18299,
    "Ġembra": 6580,
    "thar": 18219,
    "Ġscaling": 3628,
    "mond": 20976,
    "per": 479,
    "Ġmule": 13865,
    "Ġagainst": 1696,
    "Ġcrop": 10165,
    "Ġcups": 16884,
    "uncle": 8158,
    "Ġcattle": 12577,
    "Ġgidd": 25784,
    "power": 7137,
    "asant": 17962,
    "Ġflatter": 9351,
    "Ġdents": 13914,
    "irty": 4048,
    "Ġtill": 1824,
    "Ġpriv": 4181,
    "Ġgriff": 22809,
    "Ġpencil": 11947,
    "Ġkith": 22191,
    "travellers": 24340,
    "iferous": 17294,
    "Ġintrospect": 15832,
    "Ġfainting": 16899,
    "Ġblunt": 11899,
    "Ġcuriosities": 26291,
    "impud": 23763,
    "atically": 2694,
    "Ġarrested": 9562,
    "Ġassert": 7121,
    "Ġsecurity": 8980,
    "Ġproceeds": 12082,
    "Ġcommissioned": 19896,
    "Ġdives": 17893,
    "Ġharness": 17931,
    "Ġpatient": 6892,
    "Ġwonderfully": 10432,
    "Ġbillows": 7503,
    "drew": 7334,
    "iber": 6505,
    "Ġgodlike": 23361,
    "bitts": 26123,
    "Ġbizarre": 17874,
    "ldog": 21922,
    "Ġvapory": 17008,
    "Ġbunger": 9999,
    "igations": 18047,
    "Ġsagaciously": 24729,
    "Ġweapon": 7775,
    "Ġdefendants": 15145,
    "Ġstings": 21741,
    "Ġentreating": 24211,
    "Ġdismember": 20217,
    "Ġended": 7949,
    "Ġwilliam": 3480,
    "Ġeaves": 15680,
    "other": 1317,
    "Ġhappiness": 2942,
    "Z": 62,
    "Ġhanging": 5447,
    "owal": 13996,
    "Ġpon": 10178,
    "Ġhval": 21491,
    "avers": 17483,
    "Ġnewcomer": 26041,
    "Ġwhel": 15870,
    "Ġbowing": 10477,
    "pped": 1998,
    "Ġunc": 2126,
    "Ġkiss": 8182,
    "_).": 5888,
    "vishnoo": 21122,
    "Ġdecoyed": 18495,
    "sed": 4174,
    "Ġproposition": 23254,
    "Ġterrier": 23403,
    "Ġreality": 7059,
    "aits": 20768,
    "needle": 20315,
    "Ġincl": 4269,
    "iple": 4806,
    "urs": 6990,
    "tish": 17679,
    "Ġviol": 2072,
    "gn": 8081,
    "Ġtravelling": 11310,
    "iters": 21332,
    "Ġsalutations": 25383,
    "orous": 5294,
    "Ġcontentment": 14873,
    "minds": 24236,
    "Ġperseverance": 13601,
    "reception": 15517,
    "Ġgardens": 16454,
    "stick": 15689,
    "oken": 4306,
    "Ġsiber": 17758,
    "prot": 6899,
    "Ġgoing": 2066,
    "Ġdiscoverers": 26037,
    "mical": 9131,
    "Ġbowsman": 11256,
    "Ġdeaf": 12726,
    "comprehens": 16177,
    "Ġdot": 4821,
    "osely": 9268,
    "ption": 7398,
    "fere": 10990,
    "gee": 15981,
    "ians": 2355,
    "precious": 12077,
    "complacency": 19915,
    "Ġhastily": 5763,
    "Ġsympt": 7014,
    "Ġtruthful": 23871,
    "ard": 465,
    "roqu": 21537,
    "bolts": 11423,
    "Ġflee": 7080,
    "bury": 9110,
    "butter": 11790,
    "Ġconducting": 16652,
    "Ġneighbouring": 12123,
    "painting": 17047,
    "Ġgrip": 11631,
    "Ġlibr": 16004,
    "charles": 14702,
    "mere": 11858,
    "pping": 1426,
    "_âĢĶ": 11470,
    "Ġportcullis": 26605,
    "strangely": 17279,
    "iar": 2375,
    "Ġhemp": 9218,
    "Ġunlocking": 20708,
    "Ġboards": 14305,
    "Ġobed": 8537,
    "Ġline": 1852,
    "Ġflatt": 16249,
    "ons": 708,
    "Ġexpatiate": 18626,
    "Ġconveying": 19716,
    "ferred": 16366,
    "Ġscalable": 1592,
    "Ġunderneath": 16342,
    "oided": 11512,
    "Ġidentify": 12018,
    "Ġrounded": 14442,
    "asible": 21545,
    "Ġnecess": 3474,
    "Ġamiable": 4268,
    "Ġloss": 825,
    "Ġdissembling": 26256,
    "sheep": 23091,
    "decor": 23784,
    "Ġyale": 21783,
    "Ġjohn": 5031,
    "Ġ-": 1945,
    "Ġcaptured": 7245,
    "ctu": 5088,
    "Ġclams": 19991,
    "isure": 6242,
    "Ġunspeak": 8854,
    "Ġhardy": 8568,
    "Ġromans": 16761,
    "Ġtapped": 11557,
    "Ġbronze": 22873,
    "Ġlaughing": 5339,
    "Ġtropical": 17067,
    "igate": 8827,
    "Ġsignificant": 8637,
    "spr": 7436,
    "Ġcuts": 14609,
    "Ġbackward": 7656,
    "pron": 9009,
    "Ġmagician": 25061,
    "ctions": 950,
    "Ġsneezes": 24696,
    "hated": 17563,
    "Ġstem": 15726,
    "avoiding": 25237,
    "Ġactuated": 18545,
    "Ġunhallowed": 17183,
    "Ġbehind": 2805,
    "Ġ102": 24411,
    "Ġscrew": 8871,
    "Ġdiminish": 14748,
    "Ġaccents": 14214,
    "Ġtheore": 1831,
    "Ġbamboo": 17440,
    "tend": 17676,
    "Ġcreativity": 2886,
    "Ġabreast": 18395,
    "Ġcharming": 6631,
    "Ġstaving": 21744,
    "imprisonment": 23765,
    "thumb": 18220,
    "Ġwho": 612,
    "Ġsalisbury": 24068,
    "Ġcompromised": 22575,
    "all": 485,
    "Ġoftener": 13569,
    "Ġdynamically": 4383,
    "Ġensue": 18192,
    "Ġsquare": 2394,
    "Ġpreparation": 13532,
    "shows": 22450,
    "Ġrequirements": 9792,
    "Ġponderous": 8355,
    "Ġmarriage": 3186,
    "spirits": 8054,
    "fered": 5560,
    "Ġwooing": 19437,
    "Ġemble": 13974,
    "Ġdecidedly": 9511,
    "Ġgentleman": 3035,
    "Ġretort": 23075,
    "Ġdistinctly": 7311,
    "alike": 17946,
    "introduced": 15129,
    "asy": 5296,
    "Ġaback": 22270,
    "Ġhire": 21488,
    "Ġfrequented": 16588,
    "uture": 1100,
    "oward": 6021,
    "Ġgrowth": 14631,
    "Ġcens": 8413,
    "Ġembraces": 19873,
    "Ġvon": 14084,
    "Ġhorizont": 6937,
    "Ġpoem": 22592,
    "Ġottoman": 17381,
    "arest": 4002,
    "Ġpertaining": 18452,
    "Ġinjury": 10543,
    "Ġconverted": 16115,
    "Ġvia": 2379,
    "Ġasc": 4765,
    "Ġpuff": 6525,
    "Ġtut": 8774,
    "Ġargemone": 24278,
    "Ġpatches": 4235,
    "Ġwave": 7577,
    "Ġwarp": 8112,
    "Ġlatter": 3987,
    "weeks": 14320,
    "Ġrats": 21978,
    "Ġgrievances": 20650,
    "Ġlabourers": 23335,
    "were": 2555,
    "Ġsuperstitions": 17073,
    "rained": 5162,
    "pursu": 11395,
    "promised": 12256,
    "Ġenticements": 26035,
    "Ġtrowsers": 9630,
    "Ġfavourite": 5271,
    "fooled": 24420,
    "Ġstarting": 7728,
    "Ġtissu": 25921,
    "Ġamusements": 16914,
    "Ġlab": 1872,
    "Ġapproving": 18523,
    "Ġgamy": 18002,
    "Ġgradient": 449,
    "Ġfullest": 14816,
    "distance": 12157,
    "orate": 10802,
    "Ġflashes": 11921,
    "Ġseparating": 16684,
    "ishly": 14203,
    "betrayed": 24642,
    "Ġbales": 21392,
    "ipped": 5790,
    "amid": 12729,
    "dl": 20825,
    "Ġneg": 1333,
    "yes": 985,
    "Ġtarpaulin": 26158,
    "Ġnewfound": 22936,
    "chester": 23810,
    "Ġclustered": 25234,
    "sake": 13786,
    "Ġinflexibly": 26372,
    "Ġveritable": 19384,
    "carbuncle": 26384,
    "Ġmuster": 16126,
    "Ġpouring": 12629,
    "Ġbulkhead": 24512,
    "works": 6589,
    "Ġmeagre": 21817,
    "measured": 19992,
    "cost": 19189,
    "wers": 12524,
    "Ġimpelled": 11787,
    "Ġfavourable": 7958,
    "Ġsoothe": 7405,
    "Ġforetold": 23453,
    "Ġneedles": 11187,
    "Ġstatistics": 1681,
    "Ġpalp": 11252,
    "-------": 20391,
    "Ġportent": 12086,
    "meeting": 11019,
    "mill": 13757,
    "Ġresearches": 13132,
    "Ġaberde": 22281,
    "ĠĠĠĠĠĠĠĠĠĠĠĠĠĠĠĠĠĠĠĠĠĠĠĠĠĠĠĠĠĠĠĠĠĠĠĠ": 23669,
    "Ġced": 10786,
    "Ġdumbly": 24988,
    "Ġr": 405,
    "ildad": 3529,
    "germ": 15360,
    "clean": 14764,
    "aited": 12439,
    "took": 6166,
    "harpooneers": 8693,
    "pshaw": 21030,
    "Ġmarch": 4080,
    "Ġconjure": 17126,
    "Ġportable": 19373,
    "dipped": 20839,
    "Ġdinnertime": 16721,
    "Ġcollar": 11884,
    "sav": 8096,
    "Ġcoats": 16078,
    "Ġvapor": 8703,
    "revol": 12545,
    "particulars": 11318,
    "Ġintersect": 22579,
    "Ġglobular": 19018,
    "Ġwon": 1663,
    "dr": 6223,
    "Ġintention": 5638,
    "Ġener": 10898,
    "uge": 4015,
    "Ġlids": 12280,
    "romised": 14115,
    "ignorant": 13567,
    "Ġunabated": 15856,
    "twas": 15440,
    "lydon": 13992,
    "Ġloaded": 8492,
    "Ġpanther": 16821,
    "permitted": 18341,
    "Ġprompt": 3187,
    "imate": 4219,
    "halloa": 17091,
    "Ġparagra": 15883,
    "Ġfretfully": 25448,
    "Ġgle": 7858,
    "Ġspoil": 17009,
    "Ġoutrages": 18416,
    "Ġreports": 19084,
    "Ġtick": 8108,
    "several": 5544,
    "Ġsuccess": 3607,
    "Ġthrusts": 24351,
    "Ġspectacle": 10499,
    "pointed": 9813,
    "declare": 25174,
    "Ġcompletely": 4860,
    "Ġpleasures": 11144,
    "Ġpupp": 10822,
    "uccas": 21109,
    "town": 7143,
    "Ġadie": 8490,
    "rant": 11520,
    "Ġmuteness": 19420,
    "gazing": 12476,
    "tack": 12517,
    "Ġcharing": 14184,
    "pon": 17627,
    "perquis": 22185,
    "Ġdrama": 16333,
    "cary": 10693,
    "Ġneville": 7399,
    "itty": 3551,
    "+": 15,
    "Ġlamentations": 17077,
    "Ġorganizations": 12318,
    "worn": 13809,
    "Ġclever": 7055,
    "serv": 7451,
    "Ġostr": 21328,
    "sixty": 24853,
    "Ġaright": 11745,
    "Ġlegend": 14577,
    "Ġannals": 17901,
    "Ġshun": 11714,
    "Ġchilled": 18383,
    "Ġadvers": 4887,
    "eaten": 20346,
    ";": 31,
    "innacle": 7520,
    "started": 10847,
    "Ġfrayed": 23251,
    "Ġdirt": 15598,
    "snatched": 24851,
    "obliv": 23102,
    "_.)": 7278,
    "diligence": 26111,
    "ssing": 3808,
    "Ġcontinent": 14891,
    "Ġcrusad": 23709,
    "condesc": 18506,
    "ither": 1550,
    "lesome": 12970,
    "begging": 22501,
    "Ġhedges": 19987,
    "Ľ": 254,
    "Ġ25": 13196,
    "Ġgen": 5298,
    "wel": 6119,
    "complied": 19914,
    "mong": 15393,
    "again": 3397,
    "hammer": 14494,
    "Ġrefreshing": 20266,
    "raise": 18015,
    "droppers": 24758,
    "Ġterrific": 6756,
    "tar": 8097,
    "creator": 26383,
    "Ġstructure": 935,
    "Ġcurios": 18860,
    "Ġapparition": 8066,
    "Ġsouthern": 7689,
    "tram": 19645,
    "ports": 13777,
    "Ġgales": 12670,
    "hound": 20897,
    "Ġoftentimes": 20157,
    "Ġintellig": 525,
    "Ġstab": 10864,
    "Ġdelight": 2545,
    "ĭ": 238,
    "keen": 12787,
    "Ġwives": 12560,
    "Ġate": 8844,
    "Ġlives": 4827,
    "Ġmonogra": 22981,
    "engthen": 14461,
    "commanders": 16991,
    "Ġweighty": 16036,
    "Ġsuppression": 23000,
    "reluct": 26164,
    "Ġstrengthen": 20703,
    "Ġah": 5075,
    "Ġengagements": 9981,
    "Ġimproves": 22758,
    "suddenly": 6492,
    "sun": 7140,
    "Ġprizes": 13078,
    "Ġphyset": 23207,
    "Ġimpo": 3439,
    "Ġgroup": 2037,
    "Ġfreighted": 16328,
    "Ġincor": 2609,
    "walked": 10573,
    "avo": 8519,
    "invest": 11563,
    "Ġtreatise": 19348,
    "beheaded": 22497,
    "ever": 1075,
    "rendered": 22343,
    "Ġpalaces": 24095,
    "Ġtables": 9881,
    "Ġunshored": 25814,
    "Ġquadr": 8199,
    "inguish": 9399,
    "Ġhemis": 21687,
    "Ġrevisit": 21673,
    "Ġintroduces": 3267,
    "unpardonable": 21895,
    "pendicular": 6498,
    "suspect": 9542,
    "Ġb": 281,
    "Ġmarching": 16698,
    "Ġtorrid": 25035,
    "perfectly": 9089,
    "Ġundet": 16703,
    "tenham": 16324,
    "Ġforfeit": 21779,
    "Ġchinese": 14187,
    "Ġwo": 3649,
    "Ġlumps": 21559,
    "Ġdetected": 18812,
    "electricity": 26387,
    "Ġilleg": 21626,
    "Ġrequiring": 2919,
    "Ġtattoo": 7359,
    "Ġcensure": 15100,
    "flitted": 23973,
    "Ġdarting": 7756,
    "Ġsubstit": 19543,
    "<": 32,
    "Ġdetail": 636,
    "Ġwildest": 16512,
    "shabb": 18491,
    "Ġgrasshopper": 24381,
    "me": 856,
    "tra": 5001,
    "Ġbanqu": 12593,
    "admiration": 11390,
    "ps": 4574,
    "purposes": 25024,
    "Ġimpress": 6862,
    "Ġwhalers": 8047,
    "Ġafresh": 18627,
    "Ġbusy": 6191,
    "Ġtraits": 23080,
    "Ġbloss": 19258,
    "Ġtrustworthy": 24108,
    "Ġmatch": 4529,
    "ittarius": 22381,
    "Ġdry": 5624,
    "convers": 6568,
    "Ġyears": 1894,
    "Ġshrouded": 14971,
    "draul": 9445,
    "Ġdestroying": 14732,
    "aning": 2250,
    "Ġbass": 17858,
    "Ġgoring": 21607,
    "Ġproofs": 19816,
    "Ġeuroc": 14961,
    "irc": 1730,
    "cannibal": 15229,
    "Ġaccompanying": 11307,
    "lur": 13750,
    "osite": 4893,
    "Ġchestnut": 19674,
    "informed": 17739,
    "Ġdut": 2983,
    "Ġhorseman": 19609,
    "Ġancles": 21449,
    "oran": 8793,
    "awe": 20767,
    "Ġloc": 10916,
    "Ġpreser": 6041,
    "Ġwriters": 13546,
    "collinses": 19924,
    "Ġloitered": 26527,
    "bber": 4568,
    "wont": 21135,
    "room": 2178,
    "Ġpersevering": 20235,
    "Ġdeployment": 11207,
    "prior": 21035,
    "reinforcement": 7825,
    "Ġmechanisms": 1578,
    "Ġunsocial": 18258,
    "sho": 6424,
    "Ġstain": 18071,
    "cloudless": 20334,
    "Ġspake": 18309,
    "Ġoutsk": 15960,
    "Ġ80": 24457,
    "everything": 6325,
    "Ġquestionable": 19268,
    "iluvian": 18064,
    "Ġceleb": 20227,
    "liked": 10511,
    "laying": 19774,
    "Ġhove": 17926,
    "Ġdum": 10813,
    "Ġvesuvius": 26503,
    "stories": 18027,
    "Ġshortly": 6198,
    "iable": 3334,
    "Ġsurpassing": 20470,
    "Ġhumming": 12991,
    "wit": 7816,
    "divided": 25021,
    "Ġteach": 8554,
    "steak": 14711,
    "Ġpair": 5706,
    "Ġperdition": 15996,
    "Ġengraved": 17082,
    "Ġspaulding": 11736,
    "leton": 5148,
    "Ġpapa": 10659,
    "Ġorange": 8488,
    "imprudent": 14653,
    "cannibals": 25585,
    "whole": 6086,
    "Ġam": 659,
    "Ġmorcar": 13016,
    "Ġchallenges": 13634,
    "Ġincreasing": 8247,
    "Ġhospitals": 24924,
    "Ġcot": 13880,
    "specim": 23948,
    "Ġconfinement": 19040,
    "Ġregarding": 13214,
    "chiefly": 14849,
    "Ġrejoicing": 13425,
    "Ġbehaves": 23304,
    "Ġheightens": 24157,
    "leather": 13893,
    "Ġlimited": 23548,
    "Ġpond": 13919,
    "Ġstreet": 2954,
    "Ġoutright": 18414,
    "Ġclamorous": 24910,
    "Ġmilliner": 19885,
    "omnipotent": 25965,
    "hair": 9125,
    "Ġdying": 2137,
    "Ġaccident": 5380,
    "Ġparasol": 22125,
    "Ġdecomp": 3810,
    "Ġglen": 18848,
    "iffe": 21907,
    "Ġtr": 551,
    "introduce": 25187,
    "Ġgaz": 4042,
    "rating": 7807,
    "Ġdesponding": 25869,
    "Ġobjects": 5578,
    "Ġwint": 15536,
    "Ġdrawled": 23993,
    "Ġcaul": 10789,
    "Ġglare": 13018,
    "na": 13763,
    "kept": 11722,
    "rab": 7598,
    "Ġsecretary": 19445,
    "iety": 2815,
    "zealand": 26051,
    "Ġlisten": 4673,
    "ibid": 18843,
    "now": 547,
    "actually": 14299,
    "Ġoffence": 12950,
    "contr": 12061,
    "week": 12936,
    "Ġports": 10820,
    "Ġsweatings": 25709,
    "ram": 13975,
    "whispering": 26104,
    "Ġkitchen": 8497,
    "Ġunwarrantable": 26346,
    "Ġbennets": 9809,
    "capital": 15093,
    "Ġaunts": 21203,
    "stained": 21658,
    "column": 19331,
    "kine": 15379,
    "shrouded": 26363,
    "Ġfowls": 8694,
    "Ġticking": 25036,
    "Ġso": 434,
    "Ġacquiescence": 20332,
    "Ġinexpress": 12640,
    "result": 12048,
    "Ġcou": 5288,
    "Ġinference": 9674,
    "barbaric": 26360,
    "ching": 5156,
    "Ġfanc": 6745,
    "ĠâĢĶâĢľ_": 17720,
    "Ġfragmentary": 25856,
    "Ġrout": 7402,
    "Ġconquered": 14029,
    "Ġgrammars": 11405,
    "who": 2442,
    "assment": 9743,
    "wards": 1278,
    "relics": 24019,
    "cles": 8729,
    "Ġglowed": 24865,
    "Ġturning": 3326,
    "Ġends": 8237,
    "Ġimpenit": 22394,
    "Ġgover": 2457,
    "Ġcommon": 1416,
    "Ġearnest": 3927,
    "Ġadapts": 3815,
    "Ġoakum": 16936,
    "Ġhipp": 21495,
    "introduction": 15128,
    "Ġ41": 24083,
    "inks": 6869,
    "Ġindistinctly": 26118,
    "surf": 24216,
    "Ġtendons": 19810,
    "oga": 22698,
    "indifferent": 14212,
    "Ġanticipatingly": 26103,
    "inside": 23069,
    "gir": 8082,
    "seventh": 12719,
    "Ġunfrequ": 19511,
    "Ġantiquity": 15234,
    "cooee": 12422,
    "Ġhelps": 9371,
    "Ġnerve": 16344,
    "Ġbeck": 14012,
    "Ġduplicity": 25332,
    "ethe": 9679,
    "widely": 25344,
    "library": 13004,
    "Ġsold": 6003,
    "Ġowner": 8925,
    "ties": 2758,
    "respectively": 24698,
    "miss": 3172,
    "Ġmarchant": 14789,
    "rud": 4188,
    "accur": 14595,
    "cial": 2646,
    "jump": 10106,
    "elfth": 22373,
    "Ġtack": 5621,
    "Ġevent": 2947,
    "Ġflounders": 23018,
    "Ġpractised": 23340,
    "Ġinsince": 23682,
    "hither": 11496,
    "ditch": 17530,
    "Ġboxes": 13378,
    "Ġowing": 6005,
    "Ġsolved": 8934,
    "Ġjustinian": 22973,
    "Ġsupplement": 23002,
    "Ġchin": 4891,
    "Ġresumed": 11817,
    "breathing": 25336,
    "Ġcommonplaces": 16292,
    "Ġantichron": 24184,
    "Ġdetermine": 3242,
    "Ġprojected": 16873,
    "Ġseas": 3076,
    "ari": 670,
    "Ġporing": 21469,
    "masters": 16836,
    "ashion": 3857,
    "haustible": 16893,
    "indust": 18436,
    "orters": 21404,
    "Ġcrawford": 24894,
    "Ġhook": 6452,
    ",": 16,
    "Ġbony": 12592,
    "Ġhertfordshire": 5377,
    "Ġmeta": 3671,
    "fireside": 24692,
    "Ġheavily": 6742,
    "Ġseal": 10257,
    "iline": 21724,
    "idean": 14266,
    "trivial": 21095,
    "Ġmarvellous": 7539,
    "Ġresearch": 3191,
    "Ġadvertisement": 6941,
    "Ġquar": 3112,
    "Ġoverhung": 15979,
    "ipelagoes": 13675,
    "Ġcolle": 8927,
    "Ġascertain": 9709,
    "Ġhissing": 15794,
    "neighb": 16031,
    "ump": 2282,
    "freighted": 14895,
    "Ġexposure": 16103,
    "Ġcomplimented": 14907,
    "igms": 3040,
    "Ġprofund": 13157,
    "Ġhammers": 13245,
    "grinder": 23418,
    "oices": 7348,
    "Ġhurried": 4031,
    "Ġsublim": 19969,
    "Ġmingling": 20199,
    "prise": 7726,
    "Ġhence": 4988,
    "Ġdeed": 7867,
    "happily": 14659,
    "Ġshocked": 9403,
    "Ġconversed": 13190,
    "Ġripples": 25506,
    "Ġsuperst": 7703,
    "begins": 18522,
    "Ġcollectively": 19970,
    "Ġabutted": 22279,
    "suspicions": 25392,
    "priv": 9622,
    "oth": 1186,
    "Ġteeth": 4164,
    "Ġembod": 14415,
    "ice": 591,
    "Ġprey": 6414,
    "child": 5538,
    "Ġaugmentation": 20118,
    "edding": 4366,
    "ilege": 22260,
    "Ġenergies": 25460,
    "Ġcommunion": 19015,
    "situ": 9624,
    "erate": 7150,
    "Ġrestraint": 15132,
    "german": 11495,
    "Ġprem": 3424,
    "Ġmagnetic": 17243,
    "Ġvine": 8473,
    "tales": 17688,
    "transp": 24513,
    "Ġdatasets": 2386,
    "Ġsatirical": 26281,
    "Ġheinous": 18042,
    "rises": 17657,
    "Ġmob": 16021,
    "Ġstaying": 8283,
    "Ġsweetly": 23923,
    "Ġprec": 2917,
    "meaning": 2905,
    "Ġveiled": 16204,
    "Ġfreckled": 18961,
    "arpaul": 14538,
    "Ġprecipitate": 19944,
    "rich": 11521,
    "Ġoverwrites": 5032,
    "Ġcircumference": 13548,
    "Ġexperiment": 11916,
    "Ġsledge": 8110,
    "Ġstranded": 9778,
    "Ġautumn": 14507,
    "Ġxviii": 23413,
    "Ġinterpre": 1590,
    "laugh": 10111,
    "Ġsupers": 18279,
    "Ġincidents": 9302,
    "Ġgent": 7383,
    "Ġrespectfully": 18999,
    "disreputable": 23506,
    "Ġyields": 19658,
    "Ġdraught": 9848,
    "Ġassociate": 13454,
    "Ġindel": 13009,
    "Ġremoter": 20108,
    "Ġlead": 3520,
    "ors": 853,
    "Ġbermud": 26441,
    "þ": 191,
    "Ġbehav": 3537,
    "Ġdispose": 23883,
    "Ġequator": 7462,
    "Ġvanished": 6874,
    "Ġdisliked": 12896,
    "Ġtrod": 15030,
    "iage": 17575,
    "Ġcontextual": 3741,
    "Ġendwise": 23142,
    "Ġpoultry": 17444,
    "inople": 13832,
    "orders": 12878,
    "oked": 4307,
    "union": 15774,
    "Ġvoyager": 16514,
    "Ġlays": 15993,
    "Ġhearers": 15707,
    "scale": 3532,
    "Ġocc": 887,
    "Ġgentlemen": 3640,
    "Ġcomponents": 8896,
    "Ġthrob": 21521,
    "Ġpromise": 4196,
    "Ġthence": 8885,
    "Ġdestroyed": 5272,
    "Ġcem": 17826,
    "erect": 20850,
    "solemn": 19819,
    "Ġwalker": 23307,
    "latitude": 25260,
    "Ġwhalemen": 3909,
    "Ġpreced": 6040,
    "ounding": 22397,
    "set": 3863,
    "sized": 15431,
    "Ġskeletons": 16793,
    "Ġaffright": 9335,
    "armed": 7251,
    "shoulders": 16587,
    "Ġassigned": 16314,
    "Ġapparatus": 24909,
    "Ġroof": 6565,
    "button": 10968,
    "ried": 926,
    "propagation": 1251,
    "known": 3565,
    "Ġfugitive": 17330,
    "Ġchemist": 11136,
    "Ġscruple": 25051,
    "try": 7811,
    "Ġblow": 3373,
    "Ġbones": 4583,
    "becoming": 18516,
    "Ġlain": 17965,
    "Ġseizure": 21962,
    "Ġpatter": 810,
    "suspected": 12376,
    "attent": 9362,
    "Ġconge": 15750,
    "satisfactory": 16895,
    "Ġsuddenly": 2644,
    "Ġexceeded": 14437,
    "Ġtinge": 25090,
    "urpr": 2285,
    "cream": 15334,
    "Ġfeet": 2254,
    "Ġindirect": 18837,
    "apothecary": 26547,
    "Ġassuming": 16694,
    ".--": 20748,
    "ober": 15409,
    "seized": 14038,
    "omp": 2468,
    "Ġgag": 21596,
    "Ġdistrustful": 25057,
    "Ġassu": 21902,
    "ater": 3369,
    "Ġquenched": 22421,
    "Ġlabyrin": 13108,
    "Ġlxi": 21564,
    "Ġresembled": 18037,
    "Ġconfid": 7687,
    "Ġunwonted": 15011,
    "Ġbranch": 8331,
    "Ġinput": 610,
    "Ġgratifying": 13310,
    "Ġdad": 12605,
    "Ġconsideration": 5191,
    "Ġdisappointment": 6629,
    "Ġbuckle": 17034,
    "Ġbale": 7837,
    "qualified": 17099,
    "Ġstartling": 14673,
    "Ġcaucus": 17383,
    "Ġjenny": 20164,
    "Ġdismast": 12893,
    "Ġprodigiously": 14935,
    "Ġstages": 14008,
    "Ġabased": 22272,
    "Ġexploring": 4304,
    "Ġpaddles": 15152,
    "Ġbury": 12046,
    "Ġineffectual": 17387,
    "Ġsteal": 16287,
    "icher": 9205,
    "Ġblush": 14406,
    "Ġprocedures": 9414,
    "Ġbequeathed": 20704,
    "Ġsought": 5009,
    "Ġexecution": 6927,
    ")âĢĶâĢľ": 20745,
    "Ġintended": 5548,
    "Ġ83": 24460,
    "Ġsubjected": 23574,
    "tahit": 17694,
    "Ġshutters": 9940,
    "Ġnumerous": 6920,
    "Ġhelmet": 19689,
    "Ġsitting": 3601,
    "Ġorganization": 7983,
    "Ġfantastic": 10062,
    "menced": 23151,
    "wing": 2514,
    "Ġlifts": 25359,
    "Ġlanguid": 14217,
    "mant": 20967,
    "news": 23139,
    "Ġevermore": 18813,
    "Ġsends": 14794,
    "Ġgleaming": 24996,
    "indulged": 22379,
    "placidity": 25989,
    "jeroboam": 25620,
    "Ġwiser": 14733,
    "Ġharb": 7370,
    "occur": 19577,
    "assumed": 22312,
    "Ġcritical": 7475,
    "albatross": 15634,
    "inois": 17741,
    "Ġpurposes": 11171,
    "Ġplainly": 4380,
    "eray": 21269,
    "Ġourselves": 5127,
    "Ġcorrected": 10450,
    "Ġhigh": 932,
    "Ġlongest": 18631,
    "darcy": 5208,
    "Ġpondered": 15171,
    "mutually": 26137,
    "remarkable": 13501,
    "granting": 23417,
    "Ġcast": 3602,
    "Ġavenues": 25430,
    "Ġannoy": 17201,
    "Ġgoat": 16010,
    "Ġprincipally": 11312,
    "|": 96,
    "binnacle": 20789,
    "ulate": 5233,
    "Ġworried": 22930,
    "umns": 14151,
    "Ġoxford": 11374,
    "Ġpersuaded": 5769,
    "E": 41,
    "Ġadded": 2715,
    "Ġwink": 11573,
    "Ġrepel": 23363,
    "ercely": 12555,
    "Ġsire": 15504,
    "Ġarthur": 7196,
    "Ġunmingled": 18265,
    "Ġunhappily": 18264,
    "inburgh": 15493,
    "stoke": 18026,
    "Ġbehoo": 19037,
    "Ġeyford": 10644,
    "gle": 20871,
    "stiff": 12680,
    "list": 7552,
    "ishop": 9745,
    "sp": 895,
    "Ġcelest": 9904,
    "writhed": 26081,
    "Ġcracking": 14576,
    "Ġceremony": 8361,
    "Ġprior": 11321,
    "Ġiceland": 15151,
    "ortment": 22261,
    "anged": 3584,
    "Ġsculpt": 15950,
    "Ġbob": 22640,
    "Ġamaz": 5385,
    "!_âĢĿ": 11379,
    "aust": 15313,
    "Ġsheeted": 19833,
    "Ġtipt": 21176,
    "xic": 9148,
    "desire": 14664,
    "thunder": 10265,
    "Ġrock": 5311,
    "Ġshipw": 12984,
    "bring": 9108,
    "beh": 5472,
    "Ġcrescentic": 20624,
    "Ġ$": 21153,
    "Ġrobustness": 18885,
    "Ġstraighten": 24008,
    "ens": 701,
    "Ġplu": 8803,
    "Ġfact": 1728,
    "Ġaugmented": 15110,
    "Ġfut": 15579,
    "ished": 1428,
    "Ġgases": 21605,
    "Ġintegration": 9871,
    "Ġscorched": 17102,
    "evidently": 20347,
    "istics": 1631,
    "esley": 17923,
    "Ġcircumnavigation": 20402,
    "Ġpicturesqueness": 24481,
    "Ġegress": 21624,
    "Ġfloundered": 18864,
    "Ġuneasiness": 9486,
    "Ġwhat": 598,
    "big": 13689,
    "Ġspermaceti": 8969,
    "Ġlip": 6533,
    "Ġwinds": 5746,
    "Ġarrowy": 25470,
    "Ġ(âĢľ": 15999,
    "neighbours": 24882,
    "gained": 20883,
    "Ġsolutions": 1947,
    "Ġhen": 3500,
    "Ġturnkeys": 23034,
    "Ġsenate": 25215,
    "mile": 17599,
    "opening": 10315,
    "Ġinclud": 1513,
    "ell": 397,
    "absolutely": 10648,
    "puff": 21024,
    "atter": 638,
    "Ġdeceitfulness": 25734,
    "Ġeleventh": 23373,
    "utmost": 21591,
    "Ġopulent": 23631,
    "asters": 8434,
    "ographical": 16788,
    "severe": 21823,
    "diver": 20833,
    "Ġdance": 4443,
    "Ġbeaut": 2390,
    "generous": 16571,
    "Ġcold": 3027,
    "Ġprotracted": 19472,
    "Ġleagues": 9224,
    "Ġsolemnisation": 24115,
    "anke": 15565,
    "Ġparl": 8177,
    "Ġcrisis": 13130,
    "madam": 24422,
    "Ġunconcerned": 20513,
    "tps": 11538,
    "consideration": 14957,
    "Ġglad": 3325,
    "sto": 3197,
    "Ġdistance": 3481,
    "cowardly": 25750,
    "Ġunparalleled": 15857,
    "Ġborders": 15576,
    "iences": 6957,
    "Ġsakes": 18327,
    "featured": 24063,
    "heartedness": 24825,
    "Ġstories": 10867,
    "Ġpret": 3030,
    "Ġestates": 16462,
    "Ġfates": 15582,
    "Ġded": 2670,
    "oft": 3587,
    "Ġqueequeg": 2013,
    "Ġappl": 1709,
    "Ġwantonly": 22899,
    "!âĢĻ": 3332,
    "Ġfundament": 2924,
    "Ġvancou": 22881,
    "Ġcareer": 11120,
    "Ġhabitations": 24788,
    "horn": 8085,
    "Ġlondon": 2835,
    "Ġpermanently": 25474,
    "Ġgemini": 26471,
    "write": 14649,
    "Ġslapped": 23177,
    "bringing": 17169,
    "ix": 1803,
    "Ġkindred": 16379,
    "Ġrevered": 23737,
    "Ġaft": 5737,
    "Ġshyness": 20308,
    "Ġundulated": 19519,
    "Ġclad": 12845,
    "ound": 587,
    "Ġhailing": 11698,
    "Ġintimately": 24801,
    "ā": 194,
    "invite": 25091,
    "Ġpipes": 9855,
    "anel": 21360,
    "Ġassumpt": 5415,
    "levi": 7048,
    "Ġhorseback": 14853,
    "Ġcobb": 14276,
    "Ġswiftness": 9930,
    "saddest": 25528,
    "Ġfalsely": 20585,
    "Ġheh": 21683,
    "Ġstrang": 4158,
    "Ġdisregarded": 22534,
    "cer": 6645,
    "Ġdemocracy": 25459,
    "Ġnigh": 4878,
    "obscure": 23103,
    "Ġthrows": 14740,
    "ories": 4753,
    "p": 84,
    "duck": 22416,
    "Ġopinions": 9417,
    "afer": 17484,
    "Ġnasty": 17446,
    "Ġembodied": 25848,
    "Ġunion": 6839,
    "8": 28,
    "Ġ92": 24592,
    "expanded": 23668,
    "Ġposter": 14279,
    "Ġabrupt": 9739,
    "distinctive": 25726,
    "Ġblasphe": 17410,
    "uttle": 6249,
    "itics": 13875,
    "Ġresources": 2934,
    "Ġbusks": 23344,
    "Ġbackground": 18651,
    "mountain": 10715,
    "trip": 21094,
    "Ġpilgrim": 25600,
    "ĠĠĠĠĠĠĠĠĠĠĠĠĠ": 22566,
    "verest": 13994,
    "clair": 18935,
    "Ġsyrian": 18354,
    "Ġstaggered": 9541,
    "Ġnamely": 20692,
    "Ġreciprocating": 26371,
    "Ġminimizes": 2046,
    "Ġmade": 1049,
    "Ġinvoluntary": 18768,
    "blubber": 15240,
    "ositories": 22268,
    "Ġapprove": 12883,
    "talked": 14989,
    "Ġfountains": 13506,
    "Ġconventional": 25548,
    "Ġhalf": 1669,
    "Ġsilk": 11965,
    "disappeared": 14571,
    "fanc": 20866,
    "time": 3145,
    "iated": 5891,
    "relieved": 13281,
    "Ġprodigious": 8056,
    "glasses": 11218,
    "Ġshoulders": 5566,
    "contrivance": 26317,
    "Ġstriking": 6089,
    "pistol": 17644,
    "rice": 13780,
    "Ġtroubled": 6618,
    "Ġcavity": 20490,
    "religion": 20578,
    "Ġunreasoning": 15849,
    "pleasing": 14745,
    "accomplishment": 20225,
    "indisc": 22377,
    "Ġgurg": 15677,
    "lotte": 3331,
    "¨": 106,
    "voyages": 24856,
    "Ġredden": 15698,
    "recover": 24620,
    "arbuck": 2025,
    "Ġrascal": 11706,
    "Ġscornful": 24999,
    "Ġoverl": 18428,
    "Ġimmensely": 13599,
    "ont": 2621,
    "Ġdamp": 8263,
    "Ġcorporeal": 17363,
    "Ġleaf": 15721,
    "Ġchim": 5934,
    "gentlemanlike": 20004,
    "sively": 13789,
    "Ġbowl": 11206,
    "la": 10707,
    "securing": 19815,
    "Ġawkwardness": 13491,
    "Ġclum": 8876,
    "Ġdragg": 23222,
    "Ġstrip": 9423,
    "Ġwelfare": 12564,
    "Ġneighb": 14077,
    "Ġrevolved": 9987,
    "embra": 14079,
    "Ġbed": 2151,
    "Ġarc": 14164,
    "Ġluckless": 16799,
    "Ġwails": 21299,
    "amused": 21850,
    "Ġrefers": 1569,
    "Ġaided": 17748,
    "consist": 14818,
    "results": 20389,
    "Ġsons": 10768,
    "dissemble": 23495,
    "Ġpat": 1698,
    "istically": 14147,
    "âĢĻ": 379,
    "enth": 6682,
    "Ġfields": 2143,
    "rubber": 12818,
    "announcement": 24564,
    "Ġuniversal": 2230,
    "Ġwarmth": 6905,
    "Ġunreasonable": 12782,
    "Ġgrammar": 1060,
    "Ġpott": 21470,
    "Ġimplicate": 24877,
    "powerful": 24848,
    "shrugged": 22454,
    "pitching": 24079,
    "bpp": 20774,
    "ĝ": 222,
    "Ġuncivil": 11157,
    "Ġinevitable": 15172,
    "Ġdistorted": 14253,
    "Ġfonder": 17883,
    "Ġsaving": 15891,
    "Ġisland": 4047,
    "Ġunforeseen": 22057,
    "het": 5435,
    "Ġstunsail": 25544,
    "professor": 17252,
    "Ġglac": 9348,
    "Ġhears": 8138,
    "pine": 13772,
    "spersed": 22739,
    "Ġjig": 15955,
    "Ġamount": 8513,
    "ric": 1380,
    "Ġtremor": 24767,
    "Ġpap": 8802,
    "Ġimmemorially": 25384,
    "Ġsuspense": 9420,
    "raising": 21635,
    "Ġinjuring": 24272,
    "utted": 15665,
    "Ġinsists": 23681,
    "iled": 1764,
    "wl": 17704,
    "welt": 12525,
    "Ġbolivia": 24669,
    "rrh": 26145,
    "Ġsimpl": 1582,
    "Ġcough": 11585,
    "undertaking": 23791,
    "Ġperu": 14226,
    "Ġfin": 1461,
    "pshire": 21026,
    "Ġhereditarily": 25225,
    "Ġinarticulate": 21503,
    "Ġcove": 22583,
    "Ġcanoe": 9726,
    "Ġchurning": 15941,
    "Ġvain": 3626,
    "Ġmasked": 3694,
    "Ġunfor": 15843,
    "Ġjury": 5378,
    "Ġinno": 1359,
    "Ġgroan": 13328,
    "fier": 9596,
    "Ġheire": 18040,
    "infernal": 24664,
    "bowed": 10687,
    "ascertain": 21546,
    "Ġsched": 2333,
    "Ġcosy": 13135,
    "Ġtask": 1313,
    "Ġdaboll": 25951,
    "Ġeducation": 5128,
    "threshold": 21992,
    "Ġsworn": 14439,
    "Ġdeposed": 16091,
    "Ġforgetfulness": 14608,
    "laughing": 15184,
    "growing": 13736,
    "vices": 21119,
    "Ġwhistle": 9068,
    "Ġbreezes": 14872,
    "hooked": 23718,
    "Ġunt": 2291,
    "Ġrises": 9716,
    "Ġkilling": 13337,
    "lorn": 12492,
    "Ġemblematical": 25789,
    "Ġinvited": 6903,
    "Ġstreamed": 14547,
    "increase": 20270,
    "ceiling": 21630,
    "problems": 11437,
    "Ġpillows": 24989,
    "striving": 24671,
    "Ġgraves": 11713,
    "Ġanonymous": 26179,
    "occasionally": 13524,
    "depth": 12805,
    "Ġsailed": 4889,
    "supervised": 2002,
    "Ġwhirlpool": 20657,
    "eties": 10839,
    "Ġanalogical": 25641,
    "Ġbounce": 21396,
    "Ġforgo": 21777,
    "servant": 15039,
    "Ġsnatching": 10474,
    "Ġpersuas": 23951,
    "Ġexempl": 21834,
    "Ġveins": 8935,
    "sounding": 24795,
    "Ġ108": 19686,
    "intense": 22940,
    "bod": 12441,
    "Ġbitterness": 8023,
    "Ġadoration": 18291,
    "Ġexec": 19495,
    "Ġbecalmed": 18090,
    "Ġ>": 21154,
    "Ġpersever": 10006,
    "cases": 12452,
    "urable": 8926,
    "ader": 14015,
    "Ġmutinous": 23962,
    "Ġreception": 9842,
    "semicirc": 26493,
    "enged": 23152,
    "pondicherry": 26402,
    "Ġtimber": 13354,
    "Ġquality": 3525,
    "Ġlunacy": 20030,
    "Ġdeserving": 14756,
    "Ġdisco": 3426,
    "Ġmatrices": 4968,
    "Ġagricultural": 26552,
    "binder": 17502,
    "sentimental": 25682,
    "Ġdragged": 6889,
    "Ġscents": 22286,
    "glorious": 19370,
    "Ġscare": 18398,
    "Ġcompliments": 8636,
    "urried": 21707,
    "Ġvestige": 20065,
    "apsed": 6296,
    "Ġaffliction": 25846,
    "hatchet": 24819,
    "europe": 20668,
    "Ġherring": 14130,
    "Ġsepulchral": 25893,
    "Ġfaire": 13369,
    "Ġlicence": 25099,
    "lets": 7835,
    "Ġvigilant": 20186,
    "Ġillinois": 19138,
    "Ġprevent": 756,
    "interrupt": 8619,
    "pus": 3413,
    "heaven": 8052,
    "ww": 10739,
    "french": 9122,
    "mr": 1903,
    "Ġsubaltern": 22792,
    "tossing": 18581,
    "Ġwrist": 8242,
    "Ġsorting": 3232,
    "aiian": 23595,
    "Ġinterpreted": 1713,
    "Ġsouthwards": 19635,
    "spell": 22736,
    "borough": 20787,
    "cain": 15329,
    "reserve": 17768,
    "real": 10152,
    "Ġhay": 11609,
    "Ġmedit": 8024,
    "Ġsuspending": 19245,
    "Ġcompanies": 14559,
    "Ġencodings": 4775,
    "athy": 14327,
    "Ġentities": 11869,
    "Ġflashed": 11919,
    "Ġpistol": 7846,
    "saf": 11528,
    "settled": 10509,
    "Ġcogent": 14277,
    "Ġcasked": 24498,
    "Ġcup": 5697,
    "Ġramadans": 25122,
    "decided": 13219,
    "Ġmarlingspike": 26581,
    "horror": 13163,
    "Ġleisurely": 24744,
    "nowled": 5470,
    "leaning": 10792,
    "Ġsufficient": 2004,
    "bo": 1689,
    "lue": 8510,
    "Ġambitious": 18514,
    "Ġpleasant": 4167,
    "fired": 20862,
    "Ġseverity": 15821,
    "Ġgeneralization": 984,
    "Ġdead": 2171,
    "Ġbuilded": 24717,
    ".âĢĻ": 1720,
    "Ġfict": 21408,
    "Ġjetted": 24432,
    "Ġceiling": 7996,
    "Ġstomach": 11657,
    "Ġtranspointed": 22444,
    "Ġbrill": 8551,
    "ag": 377,
    "Ġunsolved": 22037,
    "Ġbrain": 2089,
    "Ġgrat": 4055,
    "Ġparlor": 13543,
    "Ġwhither": 10217,
    "Ġghostliness": 24653,
    "Ġhushed": 13928,
    "Ġmakest": 25436,
    "communication": 25881,
    "ariously": 18525,
    "Ġclient": 5556,
    "want": 8770,
    "miserable": 8660,
    "farm": 15355,
    "eteenth": 20159,
    "Ġhitting": 21490,
    "Ġferule": 24500,
    "Ġobjections": 8567,
    "deserts": 25382,
    "Ġwheels": 10914,
    "Ġforever": 14554,
    "Ġdoxology": 22248,
    "Ġsmite": 22561,
    "ured": 1360,
    "listened": 15047,
    "ouched": 4636,
    "ghost": 20889,
    "Ġeyebrows": 23518,
    "brace": 16944,
    "Ġconstrained": 19241,
    "out": 467,
    ");": 7330,
    "Ġzoology": 22825,
    "grie": 12475,
    "Ġcontradictory": 20399,
    "icide": 11622,
    "Ġdisdain": 8360,
    "joke": 20932,
    "benevolently": 25601,
    "Ġspaniards": 25556,
    "Ġfries": 21418,
    "Ġblasts": 19998,
    "Ġchinks": 22255,
    "architect": 22896,
    "Ġgazes": 24098,
    "Ġmoored": 11797,
    "Ġunfailing": 24113,
    "Ġperfection": 19220,
    "contrasted": 17309,
    "Ġhumiliation": 16202,
    "Ġwee": 21924,
    "tossed": 10998,
    "Ġkin": 15903,
    "ľ": 255,
    "Ġmomentum": 1603,
    "expectant": 24279,
    "welcomed": 24646,
    "Ġoverpow": 14211,
    "asmuch": 10197,
    "Ġunperceived": 22041,
    "Ġmerit": 9429,
    "Ġsli": 4748,
    "Ġbelieved": 4367,
    "Ġtransient": 18482,
    "ipotence": 22369,
    "Ġaff": 1119,
    "lour": 15384,
    "Ġcetacea": 20556,
    "Ġsustained": 13486,
    "nineteenth": 26139,
    "ibilities": 13013,
    "Ġquito": 24409,
    "Ġvelvet": 12402,
    "Ġdemands": 19640,
    "Ġrewarding": 13441,
    "Ġnails": 12653,
    "Ġleaking": 21734,
    "Ġanom": 12616,
    "Ġtingling": 15097,
    "Ġiron": 3233,
    "Ġamelia": 26252,
    "Ġdoted": 21436,
    "erne": 21272,
    "Ġsplashing": 16552,
    "haven": 20914,
    "Ġconjured": 25102,
    "Ġvult": 12757,
    "consum": 12875,
    "father": 3774,
    "Ġcobbling": 20526,
    "Ġcabin": 3302,
    "Ġbeware": 8832,
    "Ġwondering": 7970,
    "Ġlass": 15652,
    "north": 14618,
    "Ġca": 21342,
    "Ġ128": 24474,
    "symp": 14610,
    "Ġdepartment": 24245,
    "hence": 16627,
    "Ġmid": 2614,
    "Ġhard": 1445,
    "Ġpanelled": 19656,
    "bots": 10085,
    "Ġarrange": 3119,
    "gammon": 20245,
    "Ġratt": 7880,
    "cils": 20816,
    "Ġaffability": 14391,
    "vely": 3864,
    "Ġcircus": 19093,
    "Ġfoam": 6891,
    "Ġthickening": 24028,
    "ribution": 14311,
    "Ġcircular": 13115,
    "Ġboughs": 20491,
    "circumspect": 26087,
    "Ġheadsman": 13279,
    "Ġcrimson": 16440,
    "Ġharbors": 24902,
    "ortion": 11762,
    "Ġanticipated": 13514,
    "gunwale": 20665,
    "Ġunlimited": 26224,
    "Ġenlarge": 21940,
    "Ġhardware": 4904,
    "Ġquarrel": 7292,
    "Ġshouting": 10525,
    "flex": 24844,
    "Ġdeserved": 7736,
    "Ġimpious": 15990,
    "Ġmighty": 4228,
    "Ġnourishment": 15197,
    "dramatic": 19388,
    "Ġportcull": 23867,
    "Ġarticulated": 24434,
    "Ġlandlord": 5581,
    "Ġinsurg": 23684,
    "Ġfuriously": 9805,
    "Ġsultry": 20290,
    "Ġdeduced": 12212,
    "Ġcare": 1639,
    "isturbed": 18298,
    "ituted": 13876,
    "jure": 20926,
    "Ġcomplied": 14737,
    "Ġsoftware": 18920,
    "Ġreco": 9793,
    ")(": 2976,
    "Ġexcuses": 19043,
    "î": 175,
    "Ġcracks": 12024,
    "Ġshuddered": 11303,
    "ines": 671,
    "Ġstring": 11832,
    "Ġcompre": 4450,
    "Ġbart": 17859,
    "icated": 7592,
    "Ġaudibly": 24770,
    "Ġhatch": 7847,
    "Ġknow": 632,
    "socket": 22729,
    "Ġdecline": 9291,
    "underneath": 23792,
    "Ġdown": 832,
    "money": 8753,
    "Ġmaps": 2959,
    "caps": 20809,
    "Ġsur": 2182,
    "Ġreckon": 19870,
    "something": 4284,
    "Ġnotes": 7189,
    "yond": 2326,
    "Ġswallow": 8953,
    "urity": 8142,
    "T": 56,
    "exper": 8882,
    "Ġcorrespondent": 19824,
    "rougham": 15997,
    "Ġdeveloped": 16339,
    "Ġquantity": 6948,
    "Ġhuff": 21493,
    "strangers": 20338,
    "ignity": 4373,
    "flying": 13724,
    "Ġhindrance": 25221,
    "Ġcharge": 5325,
    "pips": 21022,
    "Ġtum": 5692,
    "Ġpeering": 8536,
    "Ġridiculous": 10632,
    "Ġquarto": 17299,
    "idy": 21768,
    "Ġfeminine": 15267,
    "examine": 25478,
    "Ġcoast": 4655,
    "Ġcommunicate": 10580,
    "Ġfearing": 12820,
    "unwillingness": 25803,
    "Ġpeculiarities": 12075,
    "Ġplead": 14459,
    "Ġearls": 18905,
    "Ġlull": 15655,
    "Ġwild": 2601,
    "Ġsmiled": 5941,
    "Ġvane": 22880,
    "Ġdumplings": 15195,
    "wise": 2573,
    "boiling": 19005,
    "ĠĠĠĠĠĠĠĠĠĠĠĠĠĠĠĠĠĠĠĠĠĠĠĠĠĠĠĠĠĠĠĠĠĠ": 14616,
    "ipper": 13743,
    "Ġinfinitely": 8970,
    "âĢĶâĢĻ": 8187,
    "Ġiroqu": 21627,
    "Ġmagn": 1558,
    "intending": 22939,
    "centre": 17088,
    "Ġtrousers": 12419,
    "Ġitself": 2518,
    "acceler": 23601,
    "skeleton": 17379,
    "Ġdipped": 15599,
    "plendent": 21969,
    "Ġaustrian": 24303,
    "need": 10985,
    "Ġsmelling": 16070,
    "Ġundecided": 22052,
    "Ġmann": 18417,
    "Ġgeor": 3386,
    "Ġbub": 8117,
    "¾": 127,
    "aneously": 4058,
    "occurrences": 26333,
    "Ġpenn": 11114,
    "Ġvolcano": 24149,
    "Ġunexpectedly": 19910,
    "Ġhooks": 14970,
    "notwithstanding": 22756,
    "Ġdel": 1616,
    "Ġdemoniacal": 20559,
    "Ġunexplored": 26520,
    "Ġelder": 7224,
    "Ġconsolation": 6210,
    "christ": 10213,
    "asted": 4649,
    "Ġcompliment": 5673,
    "iver": 2049,
    "asol": 21543,
    "cul": 1902,
    "outon": 12808,
    "Ġphrenolog": 12338,
    "Ġchanged": 5243,
    "Ġelevation": 14902,
    "Ġyelled": 9697,
    "Ġab": 528,
    "Ġobstinacy": 17424,
    "incident": 14593,
    "Ġinvincible": 23482,
    "ample": 1369,
    "Ġwhal": 5454,
    "Ġconscience": 6929,
    "Ġsince": 1798,
    "Ġmassacre": 20550,
    "onder": 3777,
    "arched": 10817,
    "Ġsquint": 22840,
    "howling": 18992,
    "bus": 5355,
    "Ġlegible": 23537,
    "Ġboarders": 16602,
    "Ġdub": 13912,
    "Ġbent": 5149,
    "Ġbeam": 2876,
    "Ġsimple": 1622,
    "Ġconflag": 20337,
    "inent": 9631,
    "nav": 17614,
    "remem": 13072,
    "uv": 6231,
    "sticks": 25966,
    "Ġfooted": 23800,
    "Ġrainy": 24342,
    "Ġriddle": 14822,
    "unknown": 10892,
    "Ġoar": 6238,
    "Ġenveloping": 19736,
    "Ġexpost": 18625,
    "regard": 7972,
    "arrived": 12614,
    "Ġchewed": 16374,
    "Ġlively": 5449,
    "Ġdrawings": 14725,
    "Ġvindictive": 20472,
    "Ġfarthest": 23121,
    "Ġmaddening": 17245,
    "Ġtown": 2451,
    "Ġevol": 2812,
    "L": 48,
    "Ġunwritten": 22038,
    "Ġscent": 10287,
    "legged": 10468,
    "Ġdisenc": 22530,
    "Ġincredible": 9517,
    "Ġreproach": 9558,
    "Ġpeev": 22696,
    "vint": 21117,
    "ek": 1909,
    "Ġhav": 12759,
    "Ġprone": 18970,
    "iet": 1776,
    "Ġkra": 18347,
    "Ġrecogn": 2595,
    "Ġages": 7029,
    "kindly": 14747,
    "Ġchopping": 24223,
    "Ġtable": 2495,
    "Ġintruder": 25992,
    "Ġimpulse": 10027,
    "circumstantial": 24445,
    "Ġjer": 6268,
    "Ġdost": 7638,
    "stamp": 21657,
    "cherish": 24553,
    "emy": 14078,
    "=": 33,
    "alliance": 22199,
    "Ġlur": 5226,
    "bbings": 19278,
    "Ġhabit": 6772,
    "Ġringed": 16752,
    "Ġphrases": 2795,
    "sam": 21054,
    "Ġascertained": 25297,
    "Ġphantom": 8710,
    "Ġsnar": 13202,
    "Ġfootmen": 23801,
    "Ď": 207,
    "Ġreasons": 6020,
    "sleeping": 13458,
    "Ġpounds": 5368,
    "seemingly": 25363,
    "Ġaccur": 3631,
    "Ġfeels": 6882,
    "Ġobeisance": 19760,
    "Ġheathenish": 13620,
    "Ġmines": 21311,
    "kin": 7132,
    "Ġprejudices": 13473,
    "ensical": 18568,
    "igh": 2029,
    "Ġwaved": 9647,
    "Ġmarks": 6748,
    "Ġ98": 24595,
    "landed": 18957,
    "Ġqueen": 3210,
    "stee": 21654,
    "Ġindiscriminately": 20630,
    "Ġexploration": 2332,
    "Ġforeseen": 16443,
    "Ġerrors": 2596,
    "Ġmildness": 9947,
    "qual": 8156,
    "suspicious": 25391,
    "native": 17613,
    "Ġnobly": 22245,
    "Ġmonstr": 7668,
    "rael": 21632,
    "groom": 8743,
    "Ġsciences": 15948,
    "Ġloop": 14150,
    "goes": 10428,
    "Ġbumps": 21395,
    "Ġbraw": 23839,
    "Ġsalmon": 24066,
    "goin": 23407,
    "Ġcomplement": 23712,
    "august": 11073,
    "Ġattributed": 11838,
    "smallest": 23916,
    "Ġlucas": 3831,
    "Ġskul": 22797,
    "angled": 6844,
    "Ġbegged": 8230,
    "Ġbellies": 13360,
    "Ġincluding": 2846,
    "relations": 14736,
    "remembered": 17354,
    "Ġrepulsive": 14532,
    "Ġacquainted": 5179,
    "Ġuttermost": 19491,
    "Ġread": 1449,
    "Ġalmighty": 18108,
    "Ġlacepede": 20497,
    "away": 4625,
    "Ġintuitions": 17344,
    "Ġegotistical": 26193,
    "fleet": 15017,
    "Ġromish": 19586,
    "Ġcorrect": 2429,
    "Ġdisp": 3358,
    "Ġjobs": 24833,
    "Ġslippers": 19617,
    "Ġstra": 2987,
    "Ġoutriders": 26545,
    "really": 6972,
    "Ġhost": 7069,
    "Ġindignity": 18835,
    "ogene": 18672,
    "Ġsympathy": 6347,
    "unable": 14062,
    "Ġpraise": 6485,
    "cats": 17514,
    "Ġconvulsive": 19308,
    "fifty": 12356,
    "eyeing": 14949,
    "Ġhyp": 3870,
    ",*": 17474,
    "oysius": 14370,
    "Ġtorn": 6000,
    "Ġsurprised": 3829,
    "Ġcomputer": 1201,
    "Ġscience": 1598,
    "Ġfifty": 4623,
    "Ġsteering": 10390,
    "Ġey": 8134,
    "Ġlurid": 19683,
    "irwin": 8470,
    "Ġhare": 5157,
    "crimes": 16686,
    "Ġinherited": 25354,
    "Ġbran": 5252,
    "ember": 1956,
    "Ġhooded": 12410,
    "Ġauthor": 4374,
    "Ġbuild": 6473,
    "telling": 14443,
    "Ġbreaks": 13187,
    "organ": 15578,
    "throw": 14101,
    "Ġdevotees": 25377,
    "Ġnarwhales": 24903,
    "easy": 9595,
    "ores": 2411,
    "accomp": 10457,
    "greenland": 10024,
    "Ġsettled": 3740,
    "Ġremembered": 5277,
    "empl": 5724,
    "Ġlivelong": 25512,
    "Ġrepaid": 19082,
    "ipp": 10105,
    "reflect": 19865,
    "live": 7551,
    "owners": 16090,
    "Ġpathways": 11155,
    "se": 358,
    "parted": 21018,
    "Ġhuman": 1320,
    "Ġchest": 5185,
    "icates": 11621,
    "Ġstoke": 10398,
    "rily": 7623,
    "Ġsprang": 5064,
    "ught": 2750,
    "fro": 8736,
    "Ġdisturbing": 19948,
    "Ġcoronet": 6345,
    "Ġvaliantly": 22812,
    "Ġgreenness": 23770,
    "Ġhed": 7387,
    "Ġfebruary": 15917,
    "Ġwearily": 18181,
    "Ġvigilance": 12375,
    "just": 1697,
    "Ġgod": 1935,
    "Ġpantaloons": 20298,
    "asional": 17963,
    "Ġpistols": 17332,
    "Ġretrie": 10385,
    "Ġanonym": 17900,
    "Ġkeel": 6443,
    "Ý": 158,
    "Ġtypewriter": 19099,
    "dozen": 23382,
    "sacred": 17030,
    "Ġstooped": 14468,
    "Ġpewter": 17188,
    "Ġcolleg": 22861,
    "ccess": 3181,
    "tling": 9145,
    "Ġ45": 14774,
    "Ġturban": 23616,
    "Ġcoarse": 14278,
    "leagued": 26437,
    "curiosity": 8627,
    "Ġbuffaloes": 25218,
    "code": 15332,
    "Ġpuffing": 12259,
    "Ġi": 312,
    "fat": 8078,
    "Ġfri": 17881,
    "Ġstrainings": 24625,
    "Ġnortheast": 23209,
    "darkened": 24518,
    "ravelled": 18018,
    "Ġdrowned": 9554,
    "osy": 11763,
    "Ġpig": 5705,
    "Ġobject": 1398,
    "wet": 15455,
    "scrape": 25699,
    "setting": 13290,
    "ping": 9618,
    "Ġhonoured": 9884,
    "Ġlogic": 13083,
    "Ġpacked": 9983,
    "ruin": 22201,
    "Ġreappearance": 21670,
    "Ġdividing": 12116,
    "Ġprimary": 25063,
    "Ġmates": 4872,
    "stop": 11639,
    "Ġprow": 6686,
    "Ġjackets": 19604,
    "Ġvaliant": 9803,
    "Ġstudent": 14474,
    "Ġlaborious": 13107,
    "Ġcontemptuous": 24678,
    "each": 7335,
    "ously": 2487,
    "swell": 17665,
    "ist": 450,
    "Ġent": 904,
    "Ġcreate": 2092,
    "Ġslate": 11942,
    "Ġling": 7377,
    "visit": 7754,
    "Ġrope": 4337,
    "Ġloite": 22115,
    "Ġgrate": 12969,
    "Ġguards": 16272,
    "Ġrecital": 16144,
    "uning": 1315,
    "long": 2910,
    "Ġtoe": 13939,
    "roll": 9199,
    "Ġexpose": 10330,
    "Ġcorps": 13038,
    "Ġtease": 18802,
    "ultural": 22572,
    "Ġship": 1091,
    "althily": 19362,
    "Ġmeasureless": 14713,
    "olets": 21010,
    "ver": 331,
    "li": 1189,
    "Ġtells": 9364,
    "opic": 22480,
    "Ġimposing": 11786,
    "Ġshivering": 10268,
    "separated": 20161,
    "ma": 1151,
    "Ġbaleful": 24985,
    "Ġartificial": 802,
    "Ġfatig": 6758,
    "rear": 21235,
    "ilingly": 21727,
    "completed": 19996,
    "Ġcrows": 24035,
    "Ġuncork": 23433,
    "Ġinward": 11611,
    "visits": 24227,
    "considered": 9583,
    "Ġintelligent": 1441,
    "fitters": 24760,
    "wharf": 20609,
    "Ġjavelins": 26106,
    "Ġhelping": 3265,
    "Ġmanhat": 22331,
    "Ġtumult": 7115,
    "Ġandromeda": 21511,
    "Ġadmirably": 16483,
    "Ġmeanest": 12915,
    "Ġyear": 3283,
    "Ġyesterday": 5333,
    "hairs": 20906,
    "langu": 4807,
    "Ġcarn": 17824,
    "Ġdisposal": 19379,
    "Ġexecutioner": 12276,
    "Ġpleases": 16301,
    "Ġdivine": 6921,
    "Ġinnocently": 24032,
    "Ġbeheaded": 11660,
    "âĢĿ;": 11674,
    "Ġleaks": 16448,
    "Ġhieroglyphic": 25588,
    "arris": 13211,
    "Ġgrammatical": 13542,
    "Ġinhuman": 13932,
    "similar": 13457,
    "Ġardent": 9973,
    "Ġlaugh": 4111,
    "hotel": 20052,
    "ositions": 10286,
    "Ġmenacing": 23113,
    "Ġmorass": 22975,
    "Ġcherish": 10592,
    "Ġchaff": 18384,
    "Ġconcept": 675,
    "companion": 9559,
    "Ġnearing": 15800,
    "Ġcolour": 4462,
    "Ġvault": 8845,
    "qu": 368,
    "Ġwashington": 17205,
    "Ġsummons": 13236,
    "Ġdispositions": 13237,
    "simultaneously": 19864,
    "utional": 17987,
    "virt": 15454,
    "Ġyork": 11669,
    "Ġow": 8408,
    "Ġgravel": 14105,
    "slouched": 24558,
    "iftings": 23230,
    "obliged": 20634,
    "------": 12138,
    "Ġunfrequently": 20741,
    "Ġsed": 10763,
    "Ġfilm": 23930,
    "Ġadm": 2400,
    "brandy": 19203,
    "Ġholland": 10368,
    "Ġscheming": 23276,
    "Ġmorose": 18845,
    "Ġspiracle": 14153,
    "Ġwhitened": 24868,
    "Ġbaltic": 18797,
    "Ġdri": 2359,
    "eches": 8077,
    "iterranean": 15554,
    "Ġdynamic": 5124,
    "ermost": 7430,
    "Ġfreezing": 23887,
    "Ġsignificantly": 4519,
    "imprudence": 16560,
    "Ġput": 1801,
    "Ġshoal": 12020,
    "Ġimbedded": 18333,
    "cent": 8072,
    "eted": 7593,
    "cating": 20804,
    "Ġmuch": 924,
    "coarse": 16489,
    "Ġbernard": 20687,
    "Ġmoisture": 12363,
    "bestow": 16931,
    "Ġplank": 7034,
    "Ġgrateful": 7661,
    "Ġsubproblems": 12962,
    "dying": 15344,
    "Ġw": 272,
    "irene": 15918,
    "Ġconsume": 12963,
    "iquet": 17577,
    "Ġeastern": 11633,
    "Ġgrotesque": 26330,
    "Ġpresentiment": 18991,
    "Ġsilence": 3266,
    "Ġimpressed": 8198,
    "stige": 21664,
    "whaler": 20311,
    "Ġdiscomp": 11871,
    "absurd": 21799,
    "ened": 1391,
    "Ġwept": 7184,
    "Ġprofundities": 20455,
    "esy": 9188,
    "ring": 1753,
    "Ġscholars": 26113,
    "Ġalterations": 19871,
    "Ġexisting": 12723,
    "Ġcausing": 16364,
    "Ġpersecut": 16954,
    "Ġstyle": 6946,
    "Ġhistorical": 3643,
    "itheat": 21341,
    "Ġpreferred": 14968,
    "Ġsickly": 16776,
    "necessarily": 19633,
    "def": 1453,
    "paused": 17377,
    "Ġorlop": 22097,
    "18": 20753,
    "Ġunf": 4088,
    "Ġtapers": 11555,
    "Ġkn": 4546,
    "Ġelud": 22645,
    "Ġcontrasting": 11156,
    "Ġraved": 22654,
    "Ġtyph": 10011,
    "histor": 13495,
    "Ġindirectly": 8942,
    "Ġreaped": 18033,
    "contempl": 13193,
    "anxiously": 15115,
    "ses": 3022,
    "Ġmitt": 21310,
    "supplemental": 25875,
    "Ġrepe": 3278,
    "Ġstingy": 25456,
    "elect": 20848,
    "Ġevanesc": 24297,
    "fitted": 17546,
    "Ġendeavors": 16548,
    "buck": 17493,
    "turned": 7306,
    "Ġbower": 15571,
    "mission": 5970,
    "Ġmr": 660,
    "Ġselfishness": 12293,
    "alt": 12643,
    "Ġslept": 8258,
    "Ġrich": 2989,
    "Ġlandsman": 11353,
    "ung": 2745,
    "Ġterminating": 23513,
    "Ġsqueezing": 25009,
    "Ġwithdraw": 16965,
    "Ġvalue": 2085,
    "Ġshalt": 18232,
    "mechan": 11860,
    "acceptance": 25186,
    "inger": 6813,
    "Ġbriony": 9332,
    "Ġknotted": 17021,
    "Ġprime": 10406,
    "Ġpoetical": 25059,
    "Ġanchor": 7368,
    "Ġgur": 21595,
    "Ġscreaming": 13427,
    "Ġentr": 14342,
    "unguarded": 23672,
    "Ġstre": 2109,
    "conjecture": 15127,
    "Ġsagittarius": 24730,
    "Ġfrost": 6097,
    ")": 13,
    "uish": 5431,
    "Ġmichael": 20682,
    "Ġfrock": 10492,
    "Ġautomatically": 3644,
    ").": 1274,
    "Ġbeating": 8144,
    "Ġhandle": 3135,
    "Ġrandom": 1589,
    "vib": 21118,
    "Ġdropt": 23679,
    "slee": 17171,
    "not": 909,
    "Ġbosom": 6939,
    "B": 38,
    "Ġconnivance": 25226,
    "Ġdecreases": 3408,
    "throwing": 11708,
    "ppo": 18179,
    "Ġintrepidity": 25551,
    "recol": 10153,
    "Ġstock": 7455,
    "Ġbestowed": 6595,
    "posterity": 25489,
    "befriend": 22496,
    "Ġscramble": 24580,
    "quickly": 14964,
    "Ġchips": 14185,
    "iriously": 18176,
    "Ġthursday": 12649,
    "Ġgrieve": 14710,
    "Ġwakeful": 24270,
    "Ġofficers": 4426,
    "Ġgirdle": 19160,
    "highly": 24763,
    "Ġcontrary": 5261,
    "Ġplayfully": 19240,
    "Ġimplicit": 19960,
    "Ġdeser": 3884,
    "Ġclaim": 5106,
    "Ġswelling": 11930,
    "itying": 21999,
    "Ġavalanche": 17436,
    "Ġcister": 13885,
    "Ġmut": 3579,
    "viii": 12025,
    "Ġmice": 13862,
    "algorith": 3780,
    "uble": 21105,
    "Ġwonderland": 23428,
    "Ġmalays": 19679,
    "Ġburnished": 24002,
    "situation": 11440,
    "Ġdissimilar": 22535,
    "Ġpuzz": 5533,
    "sin": 21051,
    "Ġtu": 6969,
    "Ġprominence": 18956,
    "Ġbound": 3516,
    "lucifer": 25302,
    "Ġreversed": 15701,
    "13": 20752,
    "varieties": 23192,
    "bast": 10080,
    "Ġseated": 4541,
    "Ġworms": 25217,
    "Ġsherry": 19454,
    "Ġemail": 19074,
    "Ġchaplain": 19913,
    "Ġinfl": 6895,
    "Ġstiffest": 24827,
    "Ġconstruct": 8587,
    "Ġbutler": 18271,
    "expectation": 14859,
    "prehens": 9292,
    "Ġdraughts": 20223,
    "Ġneeds": 6607,
    "Ġmodels": 757,
    "Ġcivility": 4788,
    "Ġgaunt": 11271,
    "Ġmounts": 17809,
    "Ġunsub": 22027,
    "Ġstudious": 23203,
    "nep": 20988,
    "Ġvessel": 3798,
    "Ġbetter": 1175,
    "Ġcorpulence": 24510,
    "washed": 13051,
    "Ġcedar": 15193,
    "angible": 22108,
    "Ġknowledge": 1448,
    "Ġgulf": 10638,
    "Ġcanal": 8181,
    "Ġaggregate": 25678,
    "Ġcoach": 6867,
    "icating": 15659,
    "acquired": 24299,
    "Ġimprudence": 10300,
    "ffic": 22155,
    "Ġopt": 788,
    "Ġaccurate": 13267,
    "Ġfrocks": 23927,
    "×": 152,
    "ocation": 14628,
    "Ġkidn": 20207,
    "phil": 7925,
    "dling": 15343,
    "Ġshipmate": 8932,
    "Ġruins": 16160,
    "Ġsigning": 22714,
    "Ġfrogs": 23928,
    "Ġfur": 990,
    "Ġglobal": 2366,
    "ceptibly": 22361,
    "Ġimminent": 11247,
    "Ġmeridian": 25713,
    "Ġverdure": 10615,
    "Ġrenegades": 26478,
    "Ġspices": 22134,
    "Ġpostscript": 14811,
    "suffered": 24331,
    "Ġpublisher": 24070,
    "Ġno": 510,
    "Ġinconstant": 21499,
    "Ġreigning": 15705,
    "Ġdoleful": 18378,
    "Ġbarrow": 12074,
    "wherein": 19109,
    "Ġbetake": 22911,
    "Ġsagacious": 14973,
    "Ġetext": 23954,
    "tackles": 25625,
    "Ġimpertinent": 9080,
    "Ġunceasingly": 20361,
    "Ġdreaminess": 23944,
    "Ġcompact": 2259,
    "mits": 13759,
    "bu": 5132,
    "there": 1425,
    "Ġdictionary": 15117,
    "Ġhandspikes": 12944,
    "bergen": 14343,
    "q": 85,
    "Ġresided": 11816,
    "Ġbloodshot": 23803,
    "algorithms": 8300,
    "Ġcruising": 6913,
    "Ġspoke": 2747,
    "best": 6113,
    "jackets": 24896,
    "istical": 8491,
    "Ġrobins": 16259,
    "represent": 9640,
    "Ġdoubloons": 13438,
    "Ġvoice": 2190,
    "Ġskulls": 12964,
    "lips": 13753,
    "Ġdepl": 14047,
    "Ġlurks": 11293,
    "classification": 4387,
    "preference": 22471,
    "Ġfeared": 5932,
    "Ġgloss": 11964,
    "finish": 24385,
    "Ġverge": 23891,
    "Ġhorrors": 10482,
    "jo": 3749,
    "Ġwaifing": 25244,
    "ondency": 15273,
    "Ġclearly": 6897,
    "Ġstirs": 14920,
    "ro": 301,
    "Ġgi": 15670,
    "Ġdeity": 18138,
    "Ġanger": 5442,
    "humanity": 24840,
    "Ġlanguages": 1571,
    "Ġportly": 14680,
    "pots": 11517,
    "ribbed": 16415,
    "seat": 18129,
    "rious": 11693,
    "Ġfewer": 16219,
    "Ġentreat": 4510,
    "Ġdoings": 18377,
    "Ġfashionable": 19545,
    "Ġinflict": 15004,
    "Ġgirl": 3084,
    "years": 6883,
    "tarpaul": 21100,
    "Ġoutset": 15959,
    "ortations": 22262,
    "Ġoperated": 14548,
    "Ġobscure": 9556,
    "Ġdiscourage": 3115,
    "Ġledge": 19404,
    "Ġphysi": 9991,
    "Ġstanzas": 21751,
    "Ġwithdrawing": 11342,
    "whe": 1072,
    "Ġoffensive": 18693,
    "Ġtranquilly": 12294,
    "Ġflat": 8227,
    "Ĺ": 250,
    "!_": 7329,
    "Ġcountenances": 11967,
    "Ġpresumption": 10548,
    "Ġstone": 4645,
    "Ġfossil": 12391,
    "Ġshad": 3848,
    "Ġattended": 5391,
    "ayed": 12717,
    "Ġhabits": 6926,
    "Ġlend": 17966,
    "ouncing": 8496,
    "Ġparents": 6754,
    "Ġindolence": 16232,
    "Ġstudying": 9845,
    "Ġtunes": 24617,
    "akes": 2216,
    "Ġsupreme": 13611,
    "vital": 17702,
    "Ġoverwhelm": 25055,
    "aked": 2016,
    "Ġpocket": 4898,
    "Ġforeseeing": 23452,
    "```": 25894,
    "Ġst": 333,
    "ague": 3903,
    "Ġsole": 3296,
    "Ġcard": 7363,
    "),": 1350,
    "Ġhorsey": 24253,
    "umed": 6555,
    "signed": 21064,
    "Ġburtons": 19255,
    "Ġrecip": 16143,
    "twelvemonth": 25863,
    "Ġseek": 4509,
    "Ġbutterfly": 19911,
    "Ġamidst": 9496,
    "Ġconsp": 10227,
    "et": 307,
    "Ġeng": 1163,
    "childhood": 16870,
    "oubled": 23648,
    "Ġinflicted": 11368,
    "rell": 11567,
    "Ġtiles": 17728,
    "Ġaddress": 2269,
    "Ł": 258,
    "Ġemptied": 24348,
    "Ġfitly": 24003,
    "asht": 4082,
    "Ġay": 15494,
    "smo": 10128,
    "Ġdaugh": 2290,
    "Ġbully": 23860,
    "Ġwhoa": 22424,
    "nearer": 22468,
    "ellig": 524,
    "Ġunprovided": 18262,
    "Ġcompanion": 3641,
    "Ġserm": 9636,
    "izon": 18145,
    "elter": 21574,
    "Ġfloating": 6606,
    "Ġstate": 1812,
    "offic": 7466,
    "Ġsupposition": 9820,
    "Ġropes": 10750,
    "reg": 2183,
    "Ġsang": 12540,
    "Ġcrabs": 19176,
    "Ġ94": 17719,
    "Ġappal": 18362,
    "oat": 13767,
    "Ġinsect": 12641,
    "makes": 10713,
    "quod": 2165,
    "Ġmeek": 21816,
    "impatience": 25501,
    "ius": 5789,
    "evident": 25521,
    "Ġdeb": 4764,
    "Ġmaz": 15546,
    "exact": 7909,
    "Ġtore": 6531,
    "Ġspermacetti": 19050,
    "Ġsequ": 983,
    "rod": 10833,
    "parts": 14603,
    "utterly": 20014,
    "aded": 3546,
    "thrown": 8482,
    "gabriel": 15364,
    "thou": 4708,
    "whosoever": 22244,
    "Ġfl": 1282,
    "Ġsofa": 10273,
    "Ġbreadth": 10566,
    "Ġextensive": 12949,
    "Ġnecessarily": 13254,
    "Ġhateful": 19715,
    "ensity": 11818,
    "Ġart": 751,
    "ubbub": 23247,
    "Ġsixpence": 19318,
    "Ġchall": 10946,
    "rim": 7138,
    "lested": 14886,
    "Ġpar": 456,
    "countenance": 6925,
    "Ġconstable": 19068,
    "Ġstiff": 6993,
    "Ġyojo": 7612,
    "Ġfeel": 1260,
    "Ġutter": 3972,
    "Ġfever": 6559,
    "Ġtaking": 3246,
    "Ġcounsel": 13619,
    "Ġran": 3343,
    "oughed": 22087,
    "limping": 26395,
    "Ġsouthampton": 24310,
    "Ġinnumerable": 13356,
    "fed": 11491,
    "etian": 13962,
    "aper": 4998,
    "scar": 9819,
    "Ġreplete": 15702,
    "Ġbuttons": 12786,
    "uated": 10134,
    "consuming": 25675,
    "orton": 11761,
    "Ġvanish": 8931,
    "Ġterror": 5123,
    "Ġlucifers": 16590,
    "inging": 5908,
    "Ġdist": 678,
    "Ġinstructions": 11198,
    "Ġgiven": 1628,
    "Ġtire": 17722,
    "?--": 15307,
    "Ġstrategy": 2397,
    "omuch": 21643,
    "ference": 1884,
    "anite": 17840,
    "Ġunex": 11718,
    "Ġzig": 18745,
    "bare": 12445,
    "Ġstricken": 9779,
    "Ġremoving": 12121,
    "coffin": 10665,
    "Ġbuying": 24000,
    "grow": 10101,
    "gall": 6360,
    "Ġaccounting": 14575,
    "arned": 21821,
    "robber": 21540,
    "beauty": 20106,
    "Ġscaled": 2107,
    "Ġvary": 15811,
    "Ġshovel": 23494,
    "Ġwait": 4907,
    "ifle": 10893,
    "Ġcultivation": 17148,
    "steering": 16638,
    "Ġglide": 22985,
    "salesman": 20674,
    "Ġcut": 2640,
    "Ġpersecutor": 26097,
    "Ġunremitting": 26219,
    "Ġthrust": 5084,
    "Ġtwenty": 3947,
    "Ġobsequious": 17407,
    "Ġtranslates": 12055,
    "Ġchased": 8865,
    "Ġsleepers": 13153,
    "Ġcocaine": 20723,
    "Ġburnt": 9931,
    "Ġlistener": 16477,
    "Ġet": 3577,
    "Ġundoubtedly": 8312,
    "Ġunchanged": 22035,
    "Ġhamp": 12635,
    "devil": 7894,
    "le": 279,
    "Ġcompared": 2225,
    "Ġpreyed": 18367,
    "Ġerecting": 24654,
    "Ġfaint": 5812,
    "lotts": 23830,
    "Ġrelig": 8552,
    "Ġdeclared": 5595,
    "oars": 9617,
    "'s": 2466,
    "Ġmeets": 7396,
    "Ġbrigandish": 25488,
    "ave": 980,
    "Ġtickets": 17095,
    "Ġaskance": 23155,
    "Ġsymmetry": 20368,
    "itives": 17822,
    "Ġpreaching": 15930,
    "Ġrules": 1918,
    "due": 22414,
    "produce": 20284,
    "station": 10846,
    "Ġinform": 997,
    "Ġproperty": 6449,
    "interview": 19300,
    "nson": 16092,
    "Ġconsulted": 13434,
    "Ġelbows": 18635,
    "Ġbakers": 17869,
    "Ġsocietal": 11439,
    "Ġgrope": 17998,
    "Ġsweetest": 13252,
    "Ġultimate": 12353,
    "bits": 17491,
    "nder": 20989,
    "Ġphase": 14476,
    "anxious": 15114,
    "odox": 21815,
    "ho": 2854,
    "superstitious": 17283,
    "Ġwhittling": 20702,
    "Ġphysiognomical": 25612,
    "Ġdiscriminative": 4326,
    "Ġlined": 15654,
    "Ġplucked": 15118,
    "Ġguide": 3214,
    "Ġcommercial": 22677,
    "Ġseren": 7401,
    "Ġturks": 14600,
    "swallowed": 14856,
    "Ġfrightens": 24034,
    "quired": 21853,
    "Ġconfound": 23308,
    "Ġtightly": 13537,
    "Ġhit": 7164,
    "Ġneglected": 10380,
    "Ġungodly": 26515,
    "Ġmun": 12567,
    "Ġenter": 4028,
    "withstanding": 8948,
    "Ġalcoves": 26488,
    "Ġpassions": 7929,
    "others": 7671,
    "agreeable": 5830,
    "americans": 25045,
    "tallow": 21088,
    "articulate": 17398,
    "Ġstrat": 16096,
    "Ġliberal": 12195,
    "Ġperformed": 8548,
    "relig": 15515,
    "bless": 22316,
    "destruction": 11257,
    "Ġfeed": 2129,
    "asion": 5714,
    "summon": 23419,
    "Ġloading": 15878,
    "despicable": 24639,
    "Ġhazard": 20434,
    "Ġwound": 4528,
    "Ġjourneying": 25566,
    "Ġchil": 11756,
    "stalls": 26475,
    "lacing": 17592,
    "Ġspreading": 13382,
    "Ġjonas": 20612,
    "Ġdialogue": 12408,
    "Ġke": 1155,
    "Ġ74": 24265,
    "aware": 16298,
    "smug": 23912,
    "manners": 16188,
    "Ġacknowledged": 7535,
    "Ġblowing": 10487,
    "tribute": 21091,
    "Ġaccumulation": 2691,
    "Ġarrival": 4730,
    "Ġ132": 19897,
    "Ġmechanism": 2472,
    "04": 10682,
    "Ġpunctual": 17140,
    "ester": 11607,
    "instead": 14832,
    "wore": 21127,
    "jumping": 20247,
    "walls": 25346,
    "Ġfaulty": 14910,
    "whiskers": 12315,
    "conscience": 14863,
    "Ġsavagely": 26325,
    "Ġelijah": 9103,
    "Ġsweep": 8265,
    "dev": 7633,
    "Ġmillion": 14991,
    "rimsh": 17029,
    "Ġintrude": 25991,
    "Ġflowery": 16237,
    "Ġsnoo": 21231,
    "Ġaversion": 18868,
    "Ġcruelly": 13379,
    "proceeding": 20143,
    "fins": 13722,
    "aders": 21762,
    "ashions": 16421,
    "scent": 13022,
    "Ġbefitting": 15730,
    "Ġrestrained": 16377,
    "Ġvexations": 24607,
    "for": 971,
    "Ġmorrow": 9345,
    "sharks": 14242,
    "accounted": 16503,
    "msprop": 2624,
    "Ġfavourites": 16647,
    "Ġexagger": 12724,
    "ives": 1412,
    "tered": 2227,
    "Ġattack": 5478,
    "Ġjournal": 15223,
    "Ġmaze": 23835,
    "zeal": 16262,
    "Ġeternity": 12283,
    "trade": 19646,
    "Ġperfections": 23611,
    "Ġrevers": 21667,
    "Ġsolitudes": 22891,
    "Ġbreat": 3458,
    "generally": 9437,
    "Ġsolicited": 20039,
    "Ġsink": 4339,
    "Ġchristians": 13313,
    "admirably": 24947,
    "Ġwrote": 5010,
    "ie": 728,
    "Ġ91": 24591,
    "Ġapprehensions": 13408,
    "Ġeaster": 15679,
    "spect": 3230,
    "umerable": 11730,
    "Ġiv": 4043,
    "both": 5785,
    "robotics": 11309,
    "Ġsurpasses": 25269,
    "Ġcottage": 4733,
    "Ġtinged": 20085,
    "itional": 22472,
    "Ġchast": 18381,
    "occupied": 12308,
    "clear": 9027,
    "rent": 1172,
    "fe": 673,
    "Ġforests": 13596,
    "Ġsilken": 16383,
    "Ġhos": 4941,
    "Ġseams": 12129,
    "resting": 23240,
    "Ġsleeper": 8603,
    "Ġtemples": 18637,
    "nowhere": 18419,
    "instrument": 15242,
    "Ġsuffers": 2969,
    "plainly": 11092,
    "Ġnuts": 17955,
    "elstrom": 17985,
    "Ġdiscussed": 19560,
    "Ġalt": 18102,
    "Ġtending": 17726,
    "heredit": 21212,
    "arabian": 26448,
    "Ġpossessions": 23829,
    "Ġhelped": 7459,
    "ous": 477,
    "Ġunflinching": 26514,
    "inder": 9155,
    "Ġsummar": 3522,
    "Ġrang": 9248,
    "inlaid": 21193,
    "hester": 9634,
    "Ġladder": 8601,
    "Ġnations": 8814,
    "Ġreprehensible": 15703,
    "Ġdaunt": 19666,
    "Ġbudge": 15169,
    "possibility": 13366,
    "Ġspend": 5306,
    "allingly": 22198,
    "Ġoccupy": 14734,
    "Ġcontradicted": 20213,
    "Ġvastly": 23864,
    "Ġtap": 12531,
    "noon": 5036,
    "Ġconversation": 3330,
    "Ġgreenland": 5761,
    "aculate": 16086,
    "impulse": 20647,
    "engines": 18930,
    "Ġtorments": 13398,
    "Ġdong": 17890,
    "Ġupbra": 22158,
    "mou": 10710,
    "whims": 22243,
    "Ġflail": 23012,
    "Ġfled": 6673,
    "Ġagon": 10323,
    "anced": 1287,
    "Ġgenerously": 22399,
    "Ġyarns": 15200,
    "loath": 22512,
    "Ġvexatious": 19782,
    "furthermore": 20006,
    "Ġcordiality": 24396,
    "Ġimag": 2674,
    "Ġgermany": 25786,
    "alcul": 15632,
    "Ġindividuality": 14912,
    "Ġsaved": 6692,
    "Ġecc": 11632,
    "Ġsnap": 11203,
    "Ġcapst": 8599,
    "itating": 9653,
    "coiled": 16488,
    "Ġprepared": 5878,
    "Ġstepping": 9357,
    "Ġaberdeen": 26543,
    "Ġcath": 17829,
    "racts": 14366,
    "Ġz": 998,
    "Ġfuneral": 10285,
    "mas": 5212,
    "Ġsquared": 1386,
    "Ġrouted": 24908,
    "Ġwiping": 25766,
    "Ġcaught": 3729,
    "Ġhasten": 10480,
    "Ġfilters": 3925,
    "Ġcaps": 8415,
    "Ġrum": 5925,
    "weaving": 18667,
    "Ġmuse": 13863,
    "lled": 10110,
    "ifer": 11689,
    "Ġconstantly": 11977,
    "Ġinvariable": 13460,
    "posted": 24637,
    "Ġperry": 22401,
    "cleanliness": 25872,
    "Ġclap": 10959,
    "Ġidol": 7467,
    "sicilian": 21066,
    "infant": 19829,
    "whip": 22241,
    "Ġbears": 6829,
    "nament": 11510,
    "Ġvote": 21952,
    "b": 70,
    "Ġgour": 21601,
    "Ġexamine": 7734,
    "girls": 12323,
    "Ġescorted": 23509,
    "saved": 15434,
    "Ġprotesting": 14744,
    "Ġovertook": 18429,
    "Ġfrancis": 26064,
    "Ġassisted": 11112,
    "Ġimplies": 24874,
    "Ġsolemnly": 8022,
    "Ġattendance": 12186,
    "Ġsnorting": 23744,
    "Ġsir": 1572,
    "giv": 13725,
    "neat": 22466,
    "Ġconference": 15751,
    "inctions": 17734,
    "condemned": 26061,
    "30": 20756,
    "dri": 5889,
    "Ġtelegraph": 25584,
    "gans": 11493,
    "Ġcareless": 11121,
    "Ġaw": 2505,
    "Ġobli": 9319,
    "Ġcontro": 1685,
    "inished": 17736,
    "Ġiterate": 13203,
    "Ġenig": 15803,
    "learning": 2739,
    "superior": 9527,
    "Ġgrind": 18736,
    "races": 21633,
    "opposition": 24820,
    "Ġunbelief": 22053,
    "Ġbloody": 9892,
    "Ġalso": 1347,
    "Ġcompliance": 12119,
    "Ġcommonly": 3261,
    "looking": 4032,
    "Ġterminated": 23512,
    "melted": 25207,
    "Ġfootfalls": 25867,
    "Ġtwelfth": 22681,
    "Ġcannot": 1666,
    "Ġtexel": 25924,
    "adequate": 15208,
    "ography": 13367,
    "Ġinviting": 19145,
    "lyph": 10854,
    "Ġmatrix": 1607,
    "Ġvocation": 10528,
    "Ġbowled": 23772,
    "argue": 21447,
    "rence": 5555,
    "Ġquest": 2001,
    "recogn": 13429,
    "Ġapology": 8327,
    "neck": 14245,
    "Ġparr": 22123,
    "Ġjoke": 8872,
    "hamed": 6306,
    "Ġcircumstantial": 14645,
    "reel": 21236,
    "Ġleviathan": 3287,
    "Ġpromote": 23198,
    "aking": 976,
    "Ġtuileries": 24824,
    "Ġstar": 6023,
    "Ġploughed": 22608,
    "´": 117,
    "Ġfestoon": 20296,
    "Ġsh": 419,
    "troubled": 17113,
    "pockets": 16214,
    "miserably": 24214,
    "Ġinquir": 4240,
    "Ġears": 4491,
    "problem": 25245,
    "Ġafore": 10760,
    "Ġcloudy": 19480,
    "Ġfits": 8795,
    "Ġdistressed": 8516,
    "Ġsigh": 10339,
    "ĠĠĠĠĠĠĠĠĠĠĠĠĠĠĠĠĠĠĠĠĠĠĠĠĠĠĠĠĠĠĠĠĠĠĠĠĠĠĠĠĠĠĠĠĠĠ": 9956,
    "x": 92,
    "Ġpirates": 9076,
    "culous": 11142,
    "earthly": 24722,
    "Ġcuff": 17832,
    "Ġpurp": 2389,
    "Ġdeprived": 8209,
    "Ġvehic": 8936,
    "Ġcorpse": 6641,
    "Ġcarelessness": 13080,
    "Ġsoapstone": 20514,
    "envelope": 17785,
    "omist": 21641,
    "Ġstation": 5299,
    "Ġassailed": 23183,
    "putation": 7626,
    "Ġsympathetic": 17362,
    "ourers": 21452,
    "Ġtrace": 6183,
    "quis": 7869,
    "Ġpersuasion": 10501,
    "ushed": 2967,
    "ocr": 10470,
    "Ġtrumpet": 9575,
    "figure": 13559,
    "nns": 1895,
    "conduct": 11802,
    "Ġ126": 24472,
    "ham": 1701,
    "itia": 11583,
    "Ġgloom": 4199,
    "liable": 3817,
    "scarcely": 12390,
    "Ġhumble": 8553,
    "Ġunimpe": 22076,
    "Ġmystic": 7504,
    "Ġcoils": 9306,
    "Ġhappy": 2461,
    "half": 4931,
    "yard": 5901,
    "¤": 102,
    "stir": 12678,
    "bourne": 19104,
    "Ġhelp": 1641,
    "fallen": 19661,
    "chari": 21692,
    "cut": 3122,
    "Ġastonishment": 4794,
    "Ġfrivolous": 26177,
    "Ġsteelkilt": 5675,
    "Ġfav": 1755,
    "Ġplanned": 14755,
    "course": 6106,
    "Ġdromedary": 17442,
    "hol": 3837,
    "canonical": 22969,
    "ivering": 7698,
    "Ġindiam": 22957,
    "Ġdro": 2770,
    "Ġroses": 11791,
    "absolute": 17125,
    "Ġerie": 20056,
    "tim": 13794,
    "origin": 7583,
    "Ġscandinav": 19963,
    "Ġstaff": 14010,
    "fow": 20855,
    "Ġargu": 10936,
    "Ġbethink": 12383,
    "Ġled": 3519,
    "Ġequin": 14500,
    "unworthy": 18165,
    "Ġagonies": 14255,
    "Ġvind": 10252,
    "Ġunsettled": 14127,
    "Ġreplen": 11117,
    "Ġawkward": 7074,
    "Ġexhausted": 8697,
    "compared": 24037,
    "Ġfetch": 7769,
    "Ġrepl": 1594,
    "blister": 24129,
    "Ġdream": 3535,
    "Ġmethod": 1454,
    "Ġpittance": 15621,
    "io": 3801,
    "Ġimport": 1045,
    "Ġhermits": 22078,
    "transform": 8049,
    "Ġpositional": 2597,
    "Ġcasting": 12105,
    "Ġjets": 10290,
    "perform": 15898,
    "Ġdes": 1250,
    "Ġbequest": 21757,
    "Ġenviron": 4204,
    "Ġfrederick": 15591,
    "Ġconvalescence": 23749,
    "ructive": 18567,
    "Ġche": 1762,
    "continuing": 24480,
    "Ġfanned": 19101,
    "walk": 5523,
    "Ġoccurring": 2790,
    "uttering": 12667,
    "Ġwreck": 7314,
    "Ġpresent": 1643,
    "Ġacquire": 2722,
    "fort": 1750,
    "tallied": 21092,
    "forward": 2186,
    "Ġglit": 8562,
    "Ġblast": 7445,
    "Ġillustrations": 17109,
    "prim": 23815,
    "Ġexcluded": 16386,
    "softened": 20412,
    "Ġmustard": 12935,
    "Ġgrowled": 19285,
    "Ġshutter": 16673,
    "Ġupstairs": 5837,
    "cies": 1815,
    "rages": 15685,
    "_)": 9105,
    "Ġadagrad": 2901,
    "Ġdescending": 8906,
    "Ġadvantage": 4315,
    "enemy": 15530,
    "Ġamused": 11804,
    "Ġdigress": 24650,
    "Ġoverfitting": 1545,
    "Ġbelfry": 26440,
    "Ġfolk": 10378,
    "itering": 17821,
    "udg": 22743,
    "pulling": 25149,
    "Ġcirculating": 23377,
    "izer": 2030,
    "truck": 15444,
    "modesty": 22853,
    "Ġcruelty": 9972,
    "Ġdebt": 12172,
    "Ġsty": 6253,
    "Ġnevertheless": 5039,
    "Ġgros": 14825,
    "Ġchildish": 13141,
    "Ġinequal": 21500,
    "Ġjacket": 6488,
    "Ġtutored": 20130,
    "ins": 1381,
    "Ġenraptured": 26502,
    "arious": 10319,
    "Ġcruisings": 25865,
    "Ġbarque": 23794,
    "Ġchooses": 13351,
    "difficult": 10061,
    "Ġimmortal": 8017,
    "Ġpaling": 21464,
    "adru": 15735,
    "brance": 7284,
    "intments": 18823,
    "Ġmisfortunes": 7042,
    "ene": 2169,
    "Ġdownstairs": 11227,
    "Ġconsented": 11298,
    "mate": 5359,
    "Ġharbor": 10030,
    "Ġgravity": 9251,
    "braid": 17497,
    "Ġmay": 925,
    "Ġmovement": 9971,
    "Ġsurviv": 13439,
    "aret": 7418,
    "Ġimpelling": 22391,
    "reflection": 13459,
    "oud": 1941,
    "Ġcoffin": 4429,
    "windibank": 24164,
    "fits": 13721,
    "Ġprev": 6266,
    "Ġdiscussing": 5202,
    "ky": 4520,
    "Ġinco": 14263,
    "Ġjoined": 4564,
    "Ġreasonably": 11093,
    "admon": 21764,
    "kovoko": 20672,
    "Ġvul": 10250,
    "Ġdestination": 19151,
    "Ġease": 5629,
    "jee": 17581,
    "Ġadaptively": 3948,
    "Ġhills": 6526,
    "mine": 5618,
    "Ġfreshet": 25704,
    "Ġcamp": 9167,
    "iform": 2199,
    "fulfilment": 26026,
    "Ġdestro": 3721,
    "Ġunbecoming": 22068,
    "acetti": 13400,
    "riety": 12748,
    "gu": 3955,
    "Ġcharging": 23273,
    "Ġpavement": 9580,
    "ament": 2436,
    "dut": 10090,
    "omeness": 18019,
    "Ġhandling": 8916,
    "Ġcliffs": 15974,
    "Ġflannel": 26579,
    "garious": 17560,
    "atics": 15526,
    "feelings": 5674,
    "Ġproperties": 3117,
    "taffrail": 15445,
    "Ġshrubbery": 18234,
    "Ġchronic": 9932,
    "Ġdeact": 18139,
    "Ġpaints": 23526,
    "pol": 5894,
    "gigantic": 15363,
    "Ġmalay": 24392,
    "ered": 1682,
    "Ġfamilies": 8026,
    "Ġarriving": 19219,
    "Ġfeedback": 23436,
    "ree": 873,
    "Ġdetestable": 15103,
    "Ġgodson": 23362,
    "Ġpositions": 2057,
    "Ġstudies": 7954,
    "Ġintroducing": 11980,
    "importance": 9992,
    "idelburgh": 10564,
    "inders": 15985,
    "Ġimpunity": 14222,
    "regiment": 16453,
    "Ġver": 3392,
    "ouses": 5163,
    "spears": 23946,
    "imately": 12693,
    "Ġthr": 5709,
    "Ġpast": 2099,
    "luckily": 19754,
    "Ġforth": 3460,
    "Ġcumulative": 4209,
    "Ġconsent": 5372,
    "vering": 15720,
    "ression": 3404,
    "ref": 6514,
    "Ġasse": 8159,
    "Ġaffirmative": 15227,
    "Ġranges": 2879,
    "draughts": 20390,
    "locked": 7679,
    "circumstances": 8046,
    "Ġunreasonably": 17454,
    "doubtful": 24790,
    "sudden": 5316,
    "collect": 16566,
    "Ġwrest": 11575,
    "Ġsplendidly": 25328,
    "Ġsmoking": 6428,
    "Ġcharged": 9857,
    "Ġremonstrate": 22795,
    "Ġgrap": 11712,
    "Ġres": 695,
    "Ġlogs": 16350,
    "Ġearly": 2079,
    "mel": 9130,
    "pered": 4195,
    "eldest": 22796,
    "ouching": 13181,
    "Ġ61": 24365,
    "Ġemph": 14527,
    "Ġbristles": 25845,
    "Ġspind": 18308,
    "Ġbids": 24647,
    "\":": 9584,
    "đ": 210,
    "Ġadvocate": 13680,
    "ums": 10275,
    "epilogue": 22110,
    "Ġimmortality": 26327,
    "Ġenduring": 16305,
    "Ġshark": 5550,
    "Ġraised": 4660,
    "Ġnarrow": 5086,
    "supplement": 14800,
    "neath": 12871,
    "Ġbou": 17855,
    "Ġpulled": 5660,
    "Ġadversary": 12178,
    "Ġredoubled": 23756,
    "Ġrefresh": 10348,
    "itary": 4751,
    "Ġmoth": 17805,
    "duchess": 18464,
    "queen": 12732,
    "Ġpeddling": 21484,
    "Ġdescried": 7918,
    "Ġdrugg": 17122,
    "john": 11501,
    "Ġeighteenth": 14757,
    "Ġrig": 4223,
    "Ġmarvell": 7248,
    "iply": 22368,
    "mud": 20973,
    "Ġdines": 21426,
    "orus": 10803,
    "Ġsnatch": 14641,
    "achus": 18284,
    "rate": 2420,
    "Ġbachel": 7159,
    "Ġirre": 7468,
    "explained": 23150,
    "Ġhaunt": 18199,
    "asburgh": 15651,
    "Ġvertebra": 20183,
    "fool": 9050,
    "Ġswallowed": 7943,
    "Ġinexplicable": 12261,
    "Ġissu": 6255,
    "shudder": 26247,
    "crippled": 26386,
    "enc": 7575,
    "Ġproportional": 2522,
    "Ġgrimes": 11037,
    "rebellum": 26166,
    "Ġtwist": 11856,
    "cocks": 23563,
    "Ġreclining": 26034,
    "Ġfinite": 2321,
    "family": 7324,
    "Ġgothic": 18003,
    "Ġfreshness": 23992,
    "Ġmince": 22835,
    "ole": 9616,
    "Ġcoiled": 11825,
    "Ġhoneymoon": 25646,
    "attracted": 13056,
    "deacon": 22151,
    "Ġaccomplished": 7105,
    "Ġindies": 22955,
    "inioned": 19288,
    "nosed": 20994,
    "umb": 3401,
    "Ġess": 5691,
    "Ġrattle": 10901,
    "moran": 24155,
    "Ġdarkened": 16436,
    "specul": 23947,
    "Ġannoyance": 20664,
    "Ġkeys": 12001,
    "disapprobation": 19159,
    "Ġpulverize": 23397,
    "Ġquickly": 4239,
    "Ġedition": 16458,
    "irium": 8161,
    "wealth": 22691,
    "antingly": 22102,
    "december": 25559,
    "myster": 16267,
    "{": 95,
    "turner": 19544,
    "Ġvishnoo": 12758,
    "Ġpaddling": 25286,
    "Ġprecision": 13191,
    "Ġside": 1390,
    "Ġunrem": 18246,
    "cruise": 24842,
    "know": 2314,
    "crews": 15046,
    "oman": 2018,
    "Ġrepining": 23364,
    "Ġloses": 15877,
    "Ġul": 6828,
    "heeded": 13837,
    "Ġpropontis": 17468,
    "Ġdeliberately": 10627,
    "cons": 4308,
    "mouthful": 25209,
    "Ġsteep": 2885,
    "Ġspleen": 26423,
    "bottom": 11429,
    "Ġticklish": 25037,
    "Ġgallons": 14820,
    "Ġencapsulate": 13678,
    "charge": 9450,
    "mble": 1410,
    "factories": 19844,
    "vered": 4830,
    "presbyterian": 26370,
    "Ġshrew": 22005,
    "Ġequivalent": 4802,
    "Ġberths": 20117,
    "Ġcreamy": 14333,
    "Ġaccount": 2317,
    "like": 1887,
    "Ġgayer": 24502,
    "Ġwarehouses": 20420,
    "Ġinfrequent": 3823,
    "Ġperpetually": 17072,
    "Ġstoutly": 16925,
    "Ġyou": 366,
    "Ġdeceitful": 25733,
    "bright": 8992,
    "Ġcommander": 8628,
    "Ġtransferred": 16435,
    "orney": 17876,
    "wond": 8772,
    "Ġeagerness": 6610,
    "Ġcontemplate": 19893,
    "Ġgurglings": 26467,
    "Ġguiltless": 16942,
    "prom": 6508,
    "Ġcannon": 14157,
    "Ġturner": 7050,
    "opposing": 24822,
    "Ġsparing": 22133,
    "arrange": 23769,
    "Ġnumerical": 4243,
    "atre": 17773,
    "archbishop": 22897,
    "Ġinterrupting": 19558,
    "Ġwoof": 14724,
    "maid": 8555,
    "Ġembraced": 10009,
    "context": 3403,
    "landlord": 9843,
    "whalers": 17266,
    "Ġsleet": 8978,
    "Ġfragrant": 13081,
    "Ġoverpower": 12847,
    "done": 6499,
    "Ġtransparency": 10679,
    "did": 3194,
    "Ġpassengers": 13679,
    "olic": 14045,
    "artificial": 962,
    "honey": 20907,
    "ĠĠĠĠĠĠĠĠĠĠĠĠĠĠĠĠĠĠĠĠĠĠĠĠĠĠĠĠĠĠĠĠĠĠĠĠĠĠĠĠĠĠĠĠĠĠĠĠĠĠĠĠĠ": 20042,
    "12": 20751,
    "Ġobserved": 3538,
    "flood": 19808,
    "Ġfear": 2274,
    "Ġapprised": 18364,
    "Ġelev": 5536,
    "hardly": 6490,
    "je": 11499,
    "Ġaway": 1244,
    "garden": 15029,
    "Ġmonotonically": 3832,
    "Ġrepentance": 15165,
    "Ġarrows": 18342,
    "Ġfig": 3621,
    "Ġsanct": 15066,
    "ç": 168,
    "Ġheeded": 13407,
    "shake": 22449,
    "Ġinnermost": 12165,
    "ica": 10201,
    "Ġresume": 18565,
    "hit": 20891,
    "bres": 11474,
    "peculiar": 6886,
    "ounced": 4953,
    "housekeeping": 24104,
    "affectionate": 24922,
    "Ġcrucial": 9895,
    "Ġcocks": 18592,
    "Ġcryst": 9920,
    "Ġvial": 10251,
    "Ġmidnight": 5266,
    "Ġconn": 9232,
    "Ġyards": 5371,
    "Ġcalculus": 23987,
    "slave": 16897,
    "ici": 8440,
    "abated": 14023,
    "ind": 568,
    "ease": 12462,
    "Ġunwinding": 22064,
    "Ġattitude": 8907,
    "Ġbackbone": 22662,
    "Ġage": 3893,
    "Ġundertone": 23244,
    "Ġindulge": 10585,
    "Ġtries": 9153,
    "horse": 8609,
    "Ġ117": 19699,
    "Ġtongue": 6348,
    "Ġswimmer": 19462,
    "circuit": 24191,
    "Ġentry": 11028,
    "Ġloves": 10917,
    "Ġconsid": 1814,
    "Ġmedic": 11259,
    "Ġquiescent": 26244,
    "Ġomniscient": 20088,
    "ult": 723,
    "irm": 3107,
    "Ġtear": 6724,
    "enstein": 5800,
    "whatsoever": 18496,
    "Ġgushed": 21610,
    "agitation": 14071,
    "âĢľâĢĺ": 1486,
    "iability": 20922,
    "Ġnail": 9198,
    "Ġcovari": 2334,
    "Ġunquestionable": 26223,
    "Ġextras": 22742,
    "courageous": 26128,
    "eg": 17531,
    "mortal": 10115,
    "Ġxxx": 7766,
    "Ġencl": 16168,
    "itive": 6671,
    "Ġenergy": 2549,
    "fishermen": 17063,
    "ening": 3104,
    "Ġgraze": 18228,
    "paper": 9139,
    "Ġstarts": 16585,
    "aven": 8208,
    "igen": 4831,
    "pitchpoling": 25725,
    "enderby": 25216,
    "Ġelapsed": 7654,
    "ĠâĢľâĢĶ": 9737,
    "Ġsprout": 24092,
    "disposed": 25013,
    "Ġtattooed": 11381,
    "Ġtigris": 25760,
    "Ġsmoke": 4714,
    "commend": 19995,
    "Ġph": 1551,
    "gence": 876,
    "Ġcynicism": 25772,
    "Ġmundane": 26431,
    "aloft": 8811,
    "Ġbow": 3057,
    "anqu": 4108,
    "Ġcous": 3434,
    "Ġhump": 5855,
    "Ġcust": 11586,
    "Ġdrawers": 12110,
    "Ġre": 317,
    "Ġgodly": 19080,
    "ancial": 21365,
    "tiness": 21074,
    "affrail": 11208,
    "Ġrepetition": 8975,
    "carte": 25401,
    "Ġfurious": 10356,
    "Ġrect": 18029,
    "Ġadding": 2401,
    "Ġdistinct": 4609,
    "Ġrent": 11643,
    "Ġseptember": 18207,
    "Ġbarmaid": 19337,
    "Ġstrangers": 8313,
    "Ġpausing": 8655,
    "Ġrand": 1586,
    "Ġcandidates": 4332,
    "Ġdepths": 4325,
    "Ġsubdiv": 16161,
    "overfitting": 13104,
    "Ġaband": 6562,
    "Ġvillains": 14752,
    "Ġfeasible": 22215,
    "frequent": 15357,
    "safety": 20351,
    "Ġnorris": 23208,
    "keel": 14132,
    "Ġmonths": 3453,
    "Ġflourished": 15130,
    "entieth": 17982,
    "Ġtimbers": 14842,
    "Ġsore": 10766,
    "invincible": 25092,
    "looked": 6084,
    "Ġpagans": 16923,
    "Ġamph": 18511,
    "Ġmeal": 9700,
    "ignific": 11960,
    "cousins": 20120,
    "acey": 7651,
    "attentions": 13578,
    "Ġdiscompose": 25580,
    "Ġcomplacency": 19451,
    "Ġglitter": 25126,
    "Ġhelter": 24029,
    "Ġmurder": 4280,
    "pth": 2378,
    "Ġcircles": 7966,
    "Ġvengeful": 14893,
    "rist": 10125,
    "parsee": 14518,
    "Ġest": 2263,
    "yourself": 6744,
    "Ġhistorically": 19381,
    "Ġhysterical": 26093,
    "hig": 12479,
    "Ġlivel": 11358,
    "Ġdragging": 14480,
    "vial": 17699,
    "treacle": 25151,
    "Ġargosy": 24277,
    "Ġcontain": 1555,
    "piled": 21017,
    "cannib": 11908,
    "Ġanalyzing": 18793,
    "Ġdeliberate": 15026,
    "pile": 17631,
    "length": 7135,
    "Ġbird": 3754,
    "Ġriotous": 20547,
    "progra": 9397,
    "Ġrosings": 4607,
    "fortunately": 9452,
    "ises": 3652,
    "explanation": 12362,
    "sugg": 11849,
    "Ġcalifornia": 20533,
    "Ġnobleman": 19395,
    "Ġfidelity": 15245,
    "luyt": 18455,
    "Ġvit": 10248,
    "Ġshrinking": 14808,
    "Ġcheshire": 13094,
    "Ġalthough": 4148,
    "usions": 6161,
    "chooses": 23677,
    "Ġmoderately": 22221,
    "Ġpract": 1898,
    "draught": 12095,
    "bye": 5950,
    "Ġasking": 5651,
    "ansion": 10927,
    "Ġoverlapping": 26240,
    "Ġominous": 12428,
    "Ġholmes": 1311,
    "Ġtahitian": 25428,
    "flow": 2262,
    "Ġtemporary": 7980,
    "Ġdisapprobation": 16061,
    "Ġopine": 19229,
    "Ġsell": 7824,
    "Ġmappings": 2147,
    "Ġdevelop": 1630,
    "Ġsky": 3967,
    "shri": 14238,
    "glo": 8741,
    "Ġbuck": 7158,
    "Ġfashioned": 13324,
    "Ġpregnant": 26537,
    "Ġslates": 11108,
    "Ġsafer": 22174,
    "Ġrheumatic": 20707,
    "ault": 2303,
    "Ġmerely": 3768,
    "Ġsomnam": 23010,
    "Ġ56": 24321,
    "Ġpanegyric": 26451,
    "covered": 11480,
    "velope": 17703,
    "etics": 21584,
    "Ġstrenuously": 17451,
    "Ġdevotion": 22723,
    "ounted": 5029,
    "Ġenjoyed": 8007,
    "Ġjo": 2608,
    "Ġconstraint": 16515,
    "Ġsof": 18282,
    "Ġsubdivisions": 26038,
    "persuaded": 15078,
    "Ġdeactivates": 20706,
    "Ġhulls": 13929,
    "Ġfunny": 7639,
    "oting": 2744,
    "maged": 15397,
    "Ġreasoned": 23074,
    "itudes": 3009,
    "Ġgallows": 12150,
    "goodbye": 12060,
    "Ġunhe": 22015,
    "Ġflag": 7242,
    "iff": 3902,
    "Ġleaning": 5228,
    "northern": 23670,
    "Ġvoc": 4452,
    "s": 87,
    "Ġtastes": 15480,
    "Ġnotwithstanding": 9717,
    "Ġtowns": 11176,
    "Ġgrudge": 20696,
    "Ġproclaim": 18134,
    "Ġits": 706,
    "rabbit": 20594,
    "entiful": 10838,
    "lement": 10169,
    "Ġchimer": 24604,
    "Ġdisinclination": 22540,
    "attacked": 23128,
    "whis": 7897,
    "arson": 22753,
    "hamlet": 23268,
    "ze": 1297,
    "able": 452,
    "Ġwallowed": 24046,
    "narwhale": 17321,
    "Ġglut": 18849,
    "Ġdrifted": 14627,
    "upon": 2720,
    "Ġtorpor": 25034,
    "Ġracket": 22657,
    "help": 1480,
    "biscuit": 17503,
    "handed": 7483,
    "Ġextraction": 11254,
    "Ġlate": 3376,
    "Ġwandered": 6930,
    "vy": 21110,
    "Ġinspirited": 23424,
    "iating": 3204,
    "Ġequatorial": 13513,
    "Ġmicha": 17814,
    "Ġphys": 5653,
    "Ġunderstand": 835,
    "Ġsoftness": 18919,
    "Ġdetailed": 12829,
    "Ġpinched": 17036,
    "Ġheathen": 10568,
    "Ġbits": 11592,
    "Ġparamet": 607,
    "Ġblows": 5973,
    "Ġglimmering": 25241,
    "Ġinestim": 15628,
    "Ġseclusion": 18208,
    "Ġathe": 17744,
    "Ġgiddy": 20499,
    "Ġdre": 1743,
    "Ġinjuries": 11280,
    "Ġshell": 11741,
    "Ġshield": 22004,
    "Ġedinburgh": 16459,
    "Ġcrumbs": 19124,
    "varying": 13807,
    "Ġnursing": 12219,
    "wrath": 23759,
    "fearing": 18527,
    "Ġwhereon": 16105,
    "Ġvultures": 25654,
    "Ġsuits": 22086,
    "weary": 22689,
    "Ġsummarization": 3645,
    "Ġdoub": 1837,
    "ulent": 21866,
    "Ġointment": 21329,
    "pregn": 18501,
    "Ġmanx": 7904,
    "Ġweaving": 12745,
    "Ġpo": 737,
    "Ġcharacters": 9375,
    "Ġerr": 1323,
    "Ġmaritime": 23042,
    "Ġbusily": 9387,
    "Ġinconveniences": 24942,
    "Ġstark": 7390,
    "accompl": 9883,
    "adie": 18092,
    "Ġfrankness": 16748,
    "Ġinnoc": 3794,
    "Ġbreak": 2864,
    "thodox": 21993,
    "Ġrespectively": 23253,
    "scratch": 26044,
    "flo": 6116,
    "Ġendeavouring": 8034,
    "heedful": 20576,
    "itancy": 21336,
    "thirty": 12767,
    "Ġsuch": 795,
    "Ġrichness": 19312,
    "cence": 9591,
    "Ġnarratives": 24354,
    "Ġfritters": 23261,
    "Ġleak": 2160,
    "sprang": 19993,
    "Ġpeeping": 16131,
    "Ġgrown": 5628,
    "contrary": 23732,
    "till": 6966,
    "Ġsummary": 19406,
    "awed": 10394,
    "Ġout": 543,
    "Ġfleece": 10617,
    "resp": 13842,
    "Ġnervousness": 23559,
    "Ġswam": 6447,
    "oin": 17619,
    "expl": 9286,
    "endering": 21287,
    "scornful": 26577,
    "Ġfixed": 2684,
    "oline": 6834,
    "arctic": 12615,
    "Ġlashings": 25100,
    "Ġwalled": 15538,
    "Ġunidirectional": 3423,
    "Ġdescription": 7429,
    "ts": 958,
    "Ġwayward": 22877,
    "Ġcatastrophe": 10486,
    "Ġwrenched": 12563,
    "Ġcoleman": 22588,
    "Ġdangers": 12358,
    "Ġsteady": 4848,
    "Ġgasps": 24866,
    "request": 21244,
    "itting": 1152,
    "Ġtotally": 9473,
    "Ġtrained": 8504,
    "Ġstudy": 1706,
    "Ġdecorum": 16029,
    "facts": 19843,
    "Ġopal": 23628,
    "Ġpipeline": 2529,
    "okened": 15988,
    "Ġmajesty": 5201,
    "Ġagitated": 7649,
    "Ġdestitute": 14567,
    "Ġunduly": 25995,
    "Ġclosing": 11777,
    "Ġcaroline": 7255,
    "Ġdivin": 13278,
    "Ġsinusoidal": 4801,
    "the": 334,
    "Ġdavis": 25953,
    "ackinaw": 22426,
    "level": 2651,
    "Ġcollecting": 12290,
    "Ġtout": 17721,
    "Ġdiscuss": 9476,
    "rived": 5373,
    "Ġrelating": 2704,
    "Ġafghan": 22632,
    "confess": 12180,
    "Ġpreside": 18366,
    "Ġwine": 6811,
    "Ġabout": 634,
    "izzy": 3093,
    "Ġrevenge": 5452,
    "Ġbelief": 5857,
    "receive": 12547,
    "Ġdegraded": 19228,
    "inordinate": 21197,
    "ength": 2309,
    "necessity": 13372,
    "Ġcult": 8786,
    "Ġlick": 21553,
    "Ġindispensable": 11906,
    "Ġengra": 7873,
    "Ġintentions": 10610,
    "Ġdissatisfied": 14260,
    "chers": 11320,
    "merry": 16538,
    "Ġarrive": 6907,
    "Ġemergencies": 17365,
    "Ġpunchbowl": 20233,
    "Ġperiodical": 14776,
    "Ġagatha": 6866,
    "antage": 3876,
    "Ġthinking": 4029,
    "Ġparish": 8858,
    "Ġforgiven": 24031,
    "sum": 2088,
    "endured": 22231,
    "Ġstuck": 9225,
    "utored": 15667,
    "Ġmarbles": 18874,
    "Ġtemperature": 1004,
    "Ġimpenet": 14225,
    "Ġrates": 1408,
    "isting": 5551,
    "bolt": 25138,
    "Ġstray": 18076,
    "Ġmodel": 513,
    "Ġcumul": 4177,
    "ok": 573,
    "Ġtread": 9411,
    "_âĢĶâĢĻ": 13686,
    "Ġplied": 22600,
    "convolutional": 4957,
    "Ġsituated": 9449,
    "Ġsoda": 25535,
    "Ġrazors": 22660,
    "ĩ": 234,
    "Ġcrush": 9424,
    "Ġinsincere": 26601,
    "Ġtints": 17729,
    "Ġnobler": 14179,
    "enet": 10155,
    "hens": 3935,
    "oured": 2671,
    "Ġnour": 10832,
    "cock": 12030,
    "Ġcaged": 21355,
    "rope": 3183,
    "mushroom": 26397,
    "swiss": 24259,
    "activity": 22634,
    "service": 15040,
    "Ġcreates": 2010,
    "murderer": 13397,
    "Ġross": 2764,
    "Ġscared": 14193,
    "Ġexpedition": 10637,
    "Ġindisp": 18836,
    "Ġcareful": 2611,
    "Ġdefile": 18826,
    "approaching": 15015,
    "Ġblindly": 12114,
    "Ġrecounted": 22732,
    "lob": 22510,
    "Ġcupboard": 16885,
    "Ġunexpl": 22043,
    "stay": 9684,
    "imen": 12691,
    "Ġdireful": 11021,
    "Ġlistened": 4470,
    "Ġgeneral": 1863,
    "Ġwilled": 21294,
    "Ġaccounted": 10297,
    "Ġawa": 7713,
    "Ġdotted": 16794,
    "Ġdominant": 12400,
    "tumult": 12427,
    "nant": 17611,
    "Ġskies": 8924,
    "elev": 12463,
    "Ġasser": 6259,
    "Ġattendant": 11288,
    "obser": 11101,
    "Ġseries": 7061,
    "Ġshaping": 22008,
    "Ġsmart": 11820,
    "bounded": 13443,
    "formed": 2551,
    "Ġbohem": 8528,
    "Ġharpooning": 23983,
    "ompl": 4536,
    "Ġcontributes": 15254,
    "Ġmounted": 7831,
    "hed": 669,
    "itors": 2912,
    "attended": 8955,
    "Ġinterpret": 5490,
    "Ġupbraided": 26530,
    "Ġlod": 4041,
    "por": 2149,
    "ex": 623,
    "encounter": 20394,
    "Ġdespise": 14668,
    "Ġcocksure": 26260,
    "Ġunguarded": 15854,
    "including": 23592,
    "arken": 18668,
    "hack": 20898,
    "Ġappertaining": 26535,
    "idually": 21773,
    "ib": 1234,
    "protruding": 24813,
    "Ġappet": 9734,
    "Ġcreeping": 18683,
    "whiteness": 18372,
    "chambers": 25455,
    "instant": 8659,
    "imely": 14001,
    "Ġself": 1781,
    "philosophy": 13584,
    "Ġcommenting": 25229,
    "prow": 15414,
    "Ġlogger": 11957,
    "Ġwrenching": 17326,
    "ah": 1834,
    "Ġhugest": 17017,
    "Ġinvaluable": 10185,
    "Ġwednesday": 9087,
    "Ġregard": 3065,
    "Ġjuicy": 25371,
    "inite": 6002,
    "ensibility": 22551,
    "tips": 13799,
    "ause": 1316,
    "Ġfleets": 23777,
    "Ġwhirlwinds": 20467,
    "Ġbeliefs": 24584,
    "Ġtheatre": 21281,
    "Ġbam": 15570,
    "Ġstilly": 25975,
    "ognit": 19185,
    "Ġphiladelphia": 26606,
    "narrated": 25622,
    "respectable": 19847,
    "aggo": 5097,
    "Ġloath": 7890,
    "seemed": 4303,
    "expense": 22433,
    "Ġdoubt": 2220,
    "Ġsket": 18727,
    "Ġa": 263,
    "Ġcondu": 18113,
    "amplified": 26496,
    "Ġattentive": 9036,
    "Ġdiverse": 19211,
    "ror": 7351,
    "neys": 23584,
    "Ġprovoking": 16745,
    "Ġan": 286,
    "Ġshudderings": 25201,
    "Ġuncounted": 19118,
    "Ġsuspicious": 9482,
    "difference": 13711,
    "Ġpaid": 5014,
    "800": 17479,
    "Ġinaudible": 21502,
    "Ġbeech": 18086,
    "itated": 4441,
    "plex": 712,
    "Ġinsepar": 17937,
    "Ġemerging": 24610,
    "Ġpays": 13301,
    "aurs": 20771,
    "Ġwindibank": 7257,
    "fierce": 25256,
    "Ġantagonist": 26329,
    "nights": 16450,
    "Ġinconsist": 17939,
    "Ġturtle": 4201,
    "Ġunmanufactured": 20436,
    "kington": 11205,
    "Ġ1894": 5196,
    "Ġwhether": 2000,
    "Ġdol": 9667,
    "tracks": 19648,
    "Ġvomit": 21953,
    "Ġbrimstone": 25687,
    "Ġspitz": 14152,
    "Ġme": 353,
    "Ġlieu": 19565,
    "Ġsgd": 3128,
    "Ġplatonian": 25121,
    "Ġmodified": 14171,
    "Ġshe": 466,
    "equally": 19900,
    "Ġmister": 22759,
    "Ġchronicler": 20231,
    "Ġdiscovery": 5412,
    "Ġcable": 11584,
    "ı": 242,
    "Ġcooper": 16079,
    "crier": 20822,
    "Ġenrolled": 21942,
    "Ġtranslations": 12056,
    "Ġexceed": 1348,
    "Ġinterference": 8897,
    "Ġmore": 676,
    "Ġunctuous": 10269,
    "plexion": 14265,
    "plish": 18210,
    "Ġtrusted": 10520,
    "Ġrug": 16159,
    "Ġprocessions": 18434,
    "Ġnote": 4262,
    "Ġvibrated": 25048,
    "Ġcorrupt": 11928,
    "deaux": 22152,
    "Ġcontraction": 16012,
    "Ġahead": 6665,
    "Ġapprehension": 7114,
    "Ġdisappoint": 24209,
    "declaration": 25176,
    "Ġsheepfold": 25467,
    "Ġdifficulties": 11228,
    "Ġatom": 18194,
    "Ġtransp": 4770,
    "Ġcalhoun": 23047,
    "year": 11097,
    "ased": 1269,
    "Ġnapole": 15120,
    "Ġarsac": 11747,
    "Ġquery": 2476,
    "desperate": 17360,
    "Ġspin": 7631,
    "Ġattached": 5392,
    "Ġdiscol": 12958,
    "adv": 4537,
    "let": 2731,
    "aston": 7408,
    "tawny": 26406,
    "Ġpartiality": 9400,
    "Ġbrotherly": 16530,
    "Ġmour": 6974,
    "Ġknelt": 12163,
    "Ġcapt": 1295,
    "overspreading": 26140,
    "Ġobsc": 7040,
    "Ġlangu": 574,
    "Ġadieus": 25113,
    "reach": 17760,
    "Ġarr": 1802,
    "Ġhandwriting": 14323,
    "Ġ{": 21155,
    "speak": 5504,
    "Ġvagueness": 25738,
    "Ġassault": 9840,
    "izz": 7616,
    "hopeless": 16918,
    "Ġcomprises": 22576,
    "Ġterrible": 5328,
    "resolution": 17769,
    "Ġswayed": 15051,
    "Ġinvitation": 5188,
    "ouraged": 22865,
    "Ġexpressions": 7705,
    "eleg": 20851,
[...]
