{
  "metadata": {
    "vocab_size": 26616,
    "algorithm": "BPE",
    "created_at": "2026-07-06 06:26:33",
    "special_tokens": [
      "<PAD>",
      "<SOS>",
      "<EOS>",
      "<UNK>",
      "<MASK>"
    ]
  },
  "vocab": {
    "Ġmothers": 14542,
    "Ġunwound": 24829,
    "Ġveiled": 16204,
    "diligence": 26111,
    "quaker": 15767,
    "Ġconsistent": 14530,
    "Ġdare": 3546,
    "Ġtopmost": 14589,
    "shiver": 16025,
    "Ġheartfelt": 18968,
    "Ġceleb": 20228,
    "Ġparsonage": 7125,
    "Ġboone": 11844,
    "Ġof": 298,
    "obli": 23097,
    "oso": 12836,
    "Ġhaz": 12760,
    "Ġbl": 1191,
    "fic": 20854,
    "Ġsple": 21218,
    "Ġkiss": 8183,
    "Ġturning": 3327,
    "Ġcryst": 9920,
    "Ġlam": 21552,
    "Ġpale": 4533,
    "Ġsemi": 11973,
    "thrusting": 20262,
    "ember": 1958,
    "Ġsoliloqu": 11889,
    "unearthly": 19275,
    "Ġcringing": 25942,
    "Ġequinox": 25857,
    "himself": 3971,
    "ocation": 14628,
    "castles": 14638,
    "Ġrescue": 13347,
    "modesty": 22853,
    "trowsers": 17693,
    "Ġsuavely": 26525,
    "Ġstole": 7953,
    "Ġarmitage": 23582,
    "Ġwashed": 15769,
    "sleeping": 13458,
    "gracechurch": 24582,
    "Ġosc": 2838,
    "Ġwreath": 25937,
    "consist": 14819,
    "open": 7027,
    "Ġventured": 7501,
    "benevol": 12231,
    "Ġnautical": 17389,
    "encing": 21285,
    "Ġdeck": 2138,
    "impe": 21711,
    "Ġprogno": 14043,
    "Ġguilty": 7250,
    "Ġclaw": 22354,
    "Ġiii": 7861,
    "Ġbewitched": 25976,
    "Ġattendant": 11287,
    "inated": 6805,
    "Ġirretrie": 23377,
    "Ġtons": 11552,
    "ittingly": 18806,
    "urring": 21708,
    "Ġthrilling": 19751,
    "Ġmeets": 7396,
    "rapt": 13976,
    "Ġpertur": 12856,
    "Ġsurprising": 14599,
    "ientious": 11695,
    "Ġderivatives": 2368,
    "greeting": 24554,
    "Ġrecognise": 12047,
    "Ġloss": 822,
    "height": 21208,
    "Ġvirtue": 4923,
    "Ġburg": 23653,
    "x": 92,
    "Ġ62": 24365,
    "Ġfleece": 10617,
    "source": 11528,
    "Ġcleat": 18949,
    "Ġfashionable": 19547,
    "Ġsorry": 4211,
    "apt": 734,
    "Ġmaze": 23834,
    "Ġshine": 12771,
    "Ġanalytical": 22909,
    "affect": 13216,
    "aurs": 20771,
    "raising": 21635,
    "Ġsickening": 19607,
    "Ġgracechurch": 12203,
    "Ġforgiven": 24031,
    "Ġsurpasses": 25269,
    "measureless": 20238,
    "Ġbeam": 2884,
    "Ġtangles": 25762,
    "ases": 1522,
    "stay": 9684,
    "Ġcried": 1488,
    "Ġwhere": 782,
    "ille": 9222,
    "boots": 11128,
    "Ġheron": 22077,
    "Ġoaths": 13527,
    "ondescript": 22918,
    "soft": 12514,
    "Ġbask": 8117,
    "Ġstrongly": 5657,
    "Ġhoops": 9391,
    "Ġbluff": 16520,
    "Ġproceeding": 9909,
    "Ġveil": 7934,
    "Ġalexander": 17427,
    "ware": 3935,
    "Ġwidest": 24237,
    "jump": 10106,
    "Ġplatonian": 25121,
    "Ġmorrow": 9346,
    "Ġpunctual": 17140,
    "fare": 7799,
    "batt": 20780,
    "Ġcorner": 4370,
    "Ġunexpectedly": 19911,
    "Ġtumbled": 13410,
    "Ġwarmest": 16486,
    "Ġunravel": 26216,
    "Ļ": 252,
    "Ġcardboard": 19982,
    "Ġscre": 9740,
    "Ġindulged": 13421,
    "Ġtrop": 7565,
    "Ġanvil": 11600,
    "ibbald": 18849,
    "asse": 15649,
    "hroom": 12481,
    "information": 12397,
    "Ġru": 948,
    "Ġlig": 21551,
    "Ġapproaching": 6285,
    "Ġeddystone": 25736,
    "Ġapart": 4747,
    "Ġproperties": 3121,
    "Ġtaking": 3250,
    "Ġconclude": 8584,
    "Ġnovel": 6697,
    "Ġgirth": 13140,
    "cords": 25139,
    "Ġgroans": 14827,
    "Ġshocking": 10437,
    "Ġprendergast": 26539,
    "Ġswept": 7978,
    "Ġreasonable": 7253,
    "Ġwealth": 7621,
    "reck": 9639,
    "Ġcarrying": 6073,
    "verest": 13994,
    "Ġtet": 21160,
    "Ġergo": 25032,
    "Ġpursu": 3241,
    "Ġirritation": 20269,
    "ited": 1752,
    "Ġcomparatively": 9493,
    "iliation": 10862,
    "Ġdoctrine": 24200,
    "Ġcommunicated": 9064,
    "Ġplayed": 9419,
    "agre": 18167,
    "earthly": 24723,
    "Ġwatchman": 23667,
    "aught": 2678,
    "Ġproving": 15756,
    "Ġdoubly": 16392,
    "Ġhomeless": 23390,
    "Ġsilence": 3268,
    "Ġsatire": 22903,
    "Ġevil": 3806,
    "hunter": 10558,
    "Ġwont": 9854,
    "consequential": 26251,
    "Ġluxuries": 25167,
    "imens": 1749,
    "forbearance": 22799,
    "ardy": 22160,
    "why": 2832,
    "Ġobst": 6286,
    "Ġprudential": 17922,
    "Ġforeign": 9875,
    "Ġbran": 5251,
    "û": 188,
    "glue": 17558,
    "au": 777,
    "Ġ1778": 25730,
    "curiosity": 8627,
    "doubt": 6783,
    "Ġsine": 10765,
    "unreasonable": 18165,
    "Ġdeliberately": 10627,
    "Ġconcentration": 25065,
    "ancies": 11587,
    "Ġunimpeachable": 26524,
    "familiar": 19786,
    "unwholesome": 26499,
    "ige": 12684,
    "Ġtown": 2452,
    "Ġbells": 19604,
    "excuse": 13385,
    "esty": 4306,
    "Ġag": 683,
    "Ġencl": 16171,
    "treat": 12518,
    "programming": 10066,
    "Ġ97": 19777,
    "Ġcrawled": 17045,
    "Ġslashing": 23173,
    "lucifer": 25302,
    "Ġjewelled": 20186,
    "jee": 17581,
    "lege": 17843,
    "manif": 14376,
    "Ġconsidering": 4617,
    "Ġgigantic": 5916,
    "Ġmeeting": 5193,
    "ģ": 228,
    "alarmed": 21506,
    "incing": 15488,
    "Ġdoublo": 6079,
    "Ġcheese": 9380,
    "_.âĢĶ": 23474,
    "Ġdeparture": 6491,
    "Ġpurchased": 12265,
    "disputed": 23502,
    "Ġweeps": 24950,
    "uries": 6149,
    "Ġkicked": 10584,
    "Ġawaiting": 11392,
    "powerful": 24848,
    "rians": 21929,
    "heum": 17749,
    "Ġwonder": 2116,
    "odings": 4399,
    "eter": 11624,
    "Ġrejected": 12298,
    "Ġphaeton": 17467,
    "Ġpreach": 14175,
    "nment": 20992,
    "allingly": 22203,
    "Ġguests": 12291,
    "breathing": 25336,
    "operations": 19978,
    "racing": 21634,
    "Ġsternly": 16717,
    "Ġsway": 7571,
    "urrection": 12413,
    "Ġexplanatory": 22206,
    "Ġdivers": 9668,
    "Ġreappearance": 21670,
    "Ġans": 1646,
    "Ġkind": 1786,
    "Ġlashings": 25100,
    "Ġdraught": 9848,
    "Ġfren": 10807,
    "Ġfour": 2215,
    "Ġreal": 1635,
    "abling": 1077,
    "Ġunderwent": 23240,
    "¾": 127,
    "Ġmatch": 4530,
    "Ġpleasing": 6192,
    "Ġspermaceti": 8970,
    "Ġabandonment": 25604,
    "Ġshoulder": 5849,
    "Ġdair": 17891,
    "Ġroused": 7624,
    "omas": 12676,
    "mospheric": 17092,
    "Ġclaims": 13377,
    "questioning": 16852,
    "Ġdeceased": 15008,
    "ren": 549,
    "riety": 12749,
    "Ġmaddening": 17245,
    "Ġcalls": 6746,
    "Ġshillings": 15839,
    "Ġexact": 2542,
    "pitch": 13303,
    "Ġinquiry": 6485,
    "ow": 325,
    "cies": 1816,
    "Ġmotives": 7486,
    "utions": 1891,
    "hung": 8381,
    "Ġabroad": 8869,
    "azz": 8262,
    "Ġaustral": 12177,
    "Ġcommissioned": 19897,
    "Ġskewer": 19623,
    "Ġwhelmed": 26000,
    "Ġcelebrated": 13598,
    "Ġconjoined": 21810,
    "Ġtortured": 14927,
    "Ġconfeder": 25708,
    "Ġphotography": 24684,
    "ived": 1532,
    "Ġbun": 6008,
    "welcomed": 24645,
    "Ġbuttoned": 25369,
    "Ġyarn": 10870,
    "engine": 18929,
    "Ġsingle": 1693,
    "Ġassailants": 20452,
    "Ġdays": 2077,
    "rained": 5162,
    "Ġbra": 3255,
    "Ġoverspread": 14209,
    "anything": 5518,
    "Ġdiagon": 24739,
    "Ġexped": 7651,
    "isance": 17849,
    "ios": 2158,
    "dark": 5614,
    "cottage": 9572,
    "Ġpore": 21461,
    "inite": 6003,
    "Ġcholera": 22257,
    "Ġactivation": 920,
    "gris": 8260,
    "Ġblankness": 24611,
    "leton": 5148,
    "ulgent": 18152,
    "Ġfollowed": 1795,
    "Ġouter": 6859,
    "kind": 3865,
    "Ġminority": 18754,
    "iastic": 12484,
    "Ġbund": 17865,
    "pans": 13773,
    "Ġrotation": 25475,
    "pray": 5429,
    "quake": 11684,
    "Ġaccompl": 5167,
    "hastily": 19705,
    "Ġliquid": 22413,
    "Ġwallowing": 24048,
    "Ġunwarrantable": 26346,
    "Ġlux": 8818,
    "Ġtastes": 15480,
    "sc": 1257,
    "Ġrachel": 11851,
    "cil": 8724,
    "Ġflag": 7242,
    "steak": 14711,
    "Ġhare": 5157,
    "Ġwanderings": 20146,
    "Ġmajest": 24065,
    "ina": 21182,
    "Ġinterrupted": 6345,
    "tacit": 21101,
    "Ġprofessors": 14728,
    "Ġindisc": 16231,
    "shaven": 18488,
    "Ġwashing": 9708,
    "detained": 24382,
    "Ġhemis": 21687,
    "Ġprofoundest": 16862,
    "talk": 6659,
    "Ġcar": 1419,
    "Ġuncle": 3195,
    "murderers": 25728,
    "Ġrequisite": 18628,
    "ai": 2525,
    "Ġsongs": 13424,
    "Ġse": 401,
    "Ġnar": 7375,
    "Ġsuicide": 12794,
    "icilian": 20694,
    "uy": 21102,
    "Ġdimens": 3152,
    "Ġamazed": 14892,
    "Ġhedgehogs": 25395,
    "terns": 21826,
    "Ġpam": 21457,
    "Ġportions": 19372,
    "Ġbowditch": 19325,
    "Ġwarden": 17227,
    "Ġdanes": 25160,
    "Ġdisturbing": 19949,
    "Ġrelative": 11887,
    "umns": 14150,
    "Ġcandidates": 4333,
    "rict": 8093,
    "Ġranges": 2887,
    "Ġhereditarily": 25225,
    "Ġbrowne": 13306,
    "Ġexultation": 15175,
    "Ġload": 14148,
    "diminished": 20841,
    "Ġangry": 5498,
    "hearty": 14837,
    "Ġwan": 15531,
    "signs": 16542,
    "Ġwides": 17790,
    "Ġvortex": 26210,
    "Ġimitate": 14160,
    "striking": 13444,
    "Ġought": 3418,
    "Ġvelocity": 10623,
    "Ġbarrens": 25502,
    "Ġjoyous": 14666,
    "Ġunnearable": 26518,
    "Ġintu": 12768,
    "tray": 21080,
    "Ġadapt": 1048,
    "Ġwatson": 3597,
    "commanders": 16991,
    "Ġloos": 15875,
    "pad": 13771,
    "skeleton": 17379,
    "Ġhebrew": 13991,
    "Ġconscience": 6929,
    "Ġsprung": 11249,
    "Ġapril": 13666,
    "atigable": 15274,
    "Ġsnarl": 25714,
    "Ġgourmand": 26468,
    "Ġraiment": 22655,
    "Ġdirection": 1794,
    "Ġinstinctively": 13463,
    "nour": 20990,
    "Ġoperation": 12003,
    "Ġmax": 2005,
    "Ġsingularly": 12153,
    "sively": 13789,
    "apprec": 22845,
    "winding": 16722,
    "Ġvillage": 5774,
    "Ġnavies": 16902,
    "Ġimplicate": 24877,
    "Ġreasoning": 2039,
    "Ġnightgown": 23134,
    "Ġneedles": 11186,
    "Ġbackground": 18650,
    "Ġregain": 22582,
    "Ġvill": 3879,
    "Ġorbs": 22096,
    "Ġconfining": 23309,
    "ely": 623,
    "Ġvincent": 15287,
    "efficient": 2875,
    "Ġcosy": 13135,
    "Ġthrob": 21521,
    "Ġsincerely": 7963,
    "unmistakable": 21899,
    "Ġredeem": 20503,
    "Ġtertiary": 15298,
    "Ġnumber": 1981,
    "Ġwear": 6032,
    "cular": 15331,
    "Ġstately": 9837,
    "Ġjewell": 19523,
    "Ġdoct": 4456,
    "Ġtwelve": 4963,
    "Ġboil": 16108,
    "Ġoverflowing": 17240,
    "Ġbugs": 13652,
    "Ġtech": 1712,
    "bit": 3932,
    "Ġagencies": 18542,
    "âĢĶ": 517,
    "Ġnarr": 5085,
    "Ġve": 1107,
    "Ġcircumvent": 25067,
    "Ġfade": 21410,
    "Ġsplitting": 4383,
    "tried": 13797,
    "bing": 7792,
    "Ġslumbering": 25702,
    "lev": 1236,
    "alvan": 21507,
    "itute": 9654,
    "Ġiron": 3237,
    "conven": 6164,
    "Ġgirdled": 19161,
    "Ġduly": 13355,
    "concluding": 19484,
    "prepare": 20215,
    "reported": 24493,
    "Ġ": 225,
    "enborough": 21288,
    "ided": 2785,
    "Ġcistern": 17384,
    "Ġwhaleman": 4656,
    "Ġwoody": 23520,
    "window": 7743,
    "Ġpos": 1012,
    "Ġmetropolis": 17277,
    "asses": 7018,
    "Ġinfatuated": 20536,
    "Ġmister": 22763,
    "Ġnovelties": 24777,
    "foot": 9049,
    "alarm": 15631,
    "Ġbeams": 14633,
    "cont": 2924,
    "Ġchamp": 18381,
    "Ġsubterraneous": 20268,
    "ooping": 21009,
    "Ġcanopy": 18323,
    "Ġsettle": 6295,
    "Ġsickbed": 24249,
    "Ġinvoked": 19146,
    "it": 276,
    "Ġspaniards": 25556,
    "angible": 22106,
    "needle": 20316,
    "furn": 10094,
    "Ġshan": 9252,
    "cutting": 23787,
    "Ġexpanding": 25239,
    "Ġprobable": 5570,
    "hole": 5587,
    "Ġunconscious": 9550,
    "âĢĻ": 379,
    "example": 16017,
    "ique": 8746,
    "conclude": 24071,
    "gree": 10703,
    "gia": 20878,
    "Ġbear": 3659,
    "displayed": 20738,
    "swe": 5997,
    "Ġdriver": 16476,
    "Ġbachelor": 7787,
    "iration": 4541,
    "Ġdependent": 14304,
    "stad": 7598,
    "national": 21000,
    "Ġrelinqu": 12988,
    "probably": 10023,
    "Ġhudson": 15195,
    "Ġrubbed": 12960,
    "barbar": 20241,
    "pump": 21019,
    "Ġstaggering": 20276,
    "depths": 25664,
    "tears": 11038,
    "Ġinexperience": 26100,
    "shed": 8095,
    "Ġresolved": 3798,
    "still": 4220,
    "spring": 7231,
    "aration": 12612,
    "Ġmerc": 9429,
    "captain": 3953,
    "ude": 7562,
    "ĠcÃ¦sar": 20583,
    "stuff": 15692,
    "creator": 26383,
    "Ġportly": 14680,
    "oury": 22308,
    "sartain": 25623,
    "Ġbutts": 15859,
    "Ġrap": 14308,
    "alone": 10186,
    "Ġevident": 6614,
    "hotel": 20053,
    "binary": 20786,
    "ached": 2320,
    "ie": 729,
    "Ġsucc": 12791,
    "wide": 10140,
    "destroyed": 15264,
    "thread": 15830,
    "Ġhorses": 6386,
    "aciousness": 18607,
    "large": 6628,
    "Ġjurymen": 16849,
    "Ġstable": 2697,
    "Ġreproached": 24892,
    "Ġinfluenced": 19635,
    "Ġincorrect": 2728,
    "Ġflap": 14425,
    "isive": 10795,
    "avoiding": 25237,
    "Ġstep": 751,
    "Ġoverflowed": 20265,
    "Ġmoth": 17804,
    "urches": 12690,
    "Ġtowing": 9196,
    "Ġjoin": 4855,
    "Ġalgorith": 566,
    "Ġjav": 7901,
    "Ġexcite": 11970,
    "Ġversion": 10632,
    "rences": 9275,
    "Ġgi": 15670,
    "Ġformality": 22831,
    "Ġtrousers": 12419,
    "Ġbreezes": 14872,
    "Ġextent": 7656,
    "Ġmuff": 8114,
    "Ġis": 347,
    "Ġtiller": 8968,
    "Ġmac": 15542,
    "comparatively": 25841,
    "Ġcharmingly": 24224,
    "Ġcreaking": 14330,
    "glimmer": 26323,
    "Ġthreading": 23405,
    "purse": 20028,
    "feet": 6570,
    "Ġsing": 3077,
    "Ġplush": 18610,
    "Ġasc": 4766,
    "ix": 1802,
    "estion": 18363,
    "Ġdiverted": 14594,
    "uction": 15446,
    "actory": 8911,
    "eneva": 5118,
    "Ġparm": 15881,
    "ners": 3271,
    "Ġdevotedly": 24749,
    "fashioned": 9573,
    "dawson": 26129,
    "Ġsetbacks": 11065,
    "Ġviewed": 10464,
    "corn": 13703,
    "despicable": 24638,
    "Ġtexas": 25923,
    "char": 3504,
    "Ġpurpose": 2706,
    "Ġintelligence": 560,
    "Ġsuspense": 9421,
    "Ġsour": 21219,
    "unctions": 18158,
    "ingley": 1544,
    "honor": 19902,
    "Ġspir": 2426,
    "ohn": 4562,
    "Ġvirtuous": 14758,
    "opol": 12877,
    "ernity": 18616,
    "Ġnought": 21525,
    "Ġvinegar": 20103,
    "fat": 8079,
    "stalls": 26475,
    "back": 2015,
    "nesday": 8706,
    "lop": 20950,
    "Ġconstitutes": 13556,
    "Ġproportional": 2524,
    "Ġcreeping": 18683,
    "racting": 10355,
    "Ġbowels": 9433,
    "Ġcontemporary": 16016,
    "Ġannihilation": 15169,
    "Ġbrief": 6977,
    "Ġvillas": 24058,
    "Ġinteraction": 7424,
    "Ġwomen": 4751,
    "Ġart": 747,
    "Ġdifficulty": 5770,
    "Ġbottles": 16573,
    "vember": 10857,
    "venor": 16104,
    "Ġcompan": 2175,
    "ivable": 10912,
    "Ġaffront": 18790,
    "ousings": 18336,
    "I": 45,
    "Ġpossession": 5589,
    "Ġcommodore": 12399,
    "seated": 11674,
    "Ġengland": 3858,
    "semicirc": 26493,
    "Ġtusk": 25426,
    "crooked": 25747,
    "kindled": 16663,
    "Ġdante": 21441,
    "derer": 4602,
    "extric": 22759,
    "wound": 21129,
    "Ġtones": 8401,
    "Ġproportion": 7281,
    "Ġsmut": 22560,
    "unusual": 21883,
    "Ġeluded": 12927,
    "Ġmortals": 9919,
    "strong": 6324,
    "Ġredness": 19314,
    "Ġdraughts": 20224,
    "cake": 20806,
    "Ġmice": 13862,
    "ety": 3521,
    "secret": 12241,
    "resnet": 4069,
    "hend": 13257,
    "Ġporpoises": 13386,
    "Ġremains": 4911,
    "Ġdist": 679,
    "ostentatious": 20654,
    "Ġsuav": 22091,
    "Ġme": 352,
    "Ġspan": 11732,
    "Ġhoisted": 5961,
    "itations": 17819,
    "elze": 21576,
    "Ġcrisis": 13131,
    "Ġsequential": 2132,
    "Ġcorpora": 26582,
    "Ġplayfully": 19241,
    "Ġanticipatingly": 26103,
    "Ġupdate": 2460,
    "geon": 6272,
    "cheap": 23807,
    "Ĺ": 250,
    "Ġpanelled": 19657,
    "pute": 8849,
    "effectually": 25131,
    "corrupt": 14898,
    "Ġflit": 23011,
    "Ġherring": 14129,
    "Ġjacob": 1900,
    "de": 460,
    "Ġtender": 5753,
    "Ġ98": 24594,
    "Ġterm": 2265,
    "Ġceiling": 7997,
    "constant": 11326,
    "Ġstraw": 9432,
    "Ġanticip": 7507,
    "Ġdrank": 16539,
    "wanderer": 25424,
    "?âĢĻ": 2640,
    "Ġsprain": 18306,
    "Ġneither": 3687,
    "Ġminded": 23232,
    "Ġhumans": 8933,
    "Ġjam": 10951,
    "Ġjagged": 18403,
    "Ġcomplicated": 14738,
    "kindness": 10508,
    "erable": 1916,
    "hap": 17561,
    "Ġ60": 14878,
    "Ġasked": 2276,
    "Ġinsights": 13183,
    "Ġattain": 12752,
    "remed": 18955,
    "grass": 23415,
    ",": 16,
    "Ġemph": 14527,
    "Ġstr": 759,
    "sisters": 13380,
    "indef": 17737,
    "Ġdisown": 22528,
    "Ġproximity": 3221,
    "maltese": 24794,
    "Ġprophet": 7681,
    "rugged": 6849,
    "Ġenumer": 12750,
    "Ġstrove": 9960,
    "Ġbriony": 9332,
    "Ġsim": 733,
    "Ġencouraged": 9358,
    "Ġswift": 3670,
    "north": 14617,
    "Ġbrand": 16190,
    "foreign": 18544,
    "Ġalbino": 20506,
    "mounting": 25208,
    "Ġreceipt": 20358,
    "employed": 17264,
    "Ġsandwiched": 26612,
    "Ġfishing": 9665,
    "Ġacceded": 22383,
    "Ġimagenet": 19248,
    "negro": 18496,
    "Ġspout": 3282,
    "Ġgratitude": 5599,
    "Ġredundant": 16554,
    "Ġthoughtfulness": 18775,
    "sir": 5001,
    "Ġsignifies": 19205,
    "desolate": 25717,
    "Ġglaring": 11912,
    "Ġbri": 21381,
    "Ġbenediction": 18787,
    "Ġantichron": 24184,
    "Ġflashed": 11918,
    "destroy": 19513,
    "Ġscruples": 15082,
    "es": 288,
    "Ġbanished": 10619,
    "Ġappal": 18357,
    "Ġugl": 12687,
    "guinea": 16675,
    "Ġloggerhead": 13661,
    "Ġflickering": 23019,
    "blood": 7780,
    "scotland": 20532,
    "wrath": 23759,
    "Ġoat": 21326,
    "Ġchallenges": 13634,
    "Ġperilously": 24507,
    "Ġconstables": 19070,
    "Ġspeakest": 23487,
    "Ė": 215,
    "µ": 118,
    "rie": 2787,
    "Ġsabbee": 17258,
    "island": 10796,
    "Ġpunctually": 17141,
    "bol": 8721,
    "Ġimperial": 9484,
    "Ġbagging": 24539,
    "bows": 10084,
    "Ġassumed": 9468,
    "Ġswam": 6449,
    "Ġsighed": 10340,
    "Ġsweat": 13144,
    "Ġbulge": 23860,
    "rods": 21541,
    "knowledge": 7478,
    "sprit": 11384,
    "Ġdrink": 4788,
    "osp": 6854,
    "Ġviewing": 19266,
    "zz": 4293,
    "Ġspitzbergen": 15291,
    "Ġhomeward": 9395,
    "msman": 9273,
    "fl": 3600,
    "ols": 2411,
    "Ġdelight": 2548,
    "Ġcath": 17828,
    "[": 63,
    "orough": 5700,
    "Ġhealed": 21686,
    "Ġindividuals": 24546,
    "Ġignominy": 15089,
    "Ġcoars": 14274,
    "Ġknees": 6928,
    "unwillingness": 25803,
    "Ġprofessor": 11232,
    "nib": 5214,
    "unicorn": 21893,
    "Ġsuitable": 18283,
    "Ġimportance": 4901,
    "indulged": 22379,
    "ipotent": 10963,
    "wh": 508,
    "Ġcarriage": 3950,
    "Ġrepairing": 25590,
    "Ġdispleased": 18556,
    "Ġtrance": 12844,
    "Ġtantalizing": 20417,
    "Ġoblivious": 26033,
    "rudently": 16712,
    "desolation": 20462,
    "Ġsatur": 1929,
    "Ġimmutable": 17361,
    "Ġdied": 4111,
    "Ġperformance": 1307,
    "Ġunfathomable": 20551,
    "Ġthroat": 7771,
    "Ġpal": 4041,
    "Ġviolence": 5964,
    "Ġhauling": 14090,
    "scru": 16246,
    "Ġscenery": 11458,
    "Ġreg": 730,
    "Ġinvisible": 7327,
    "dropout": 3199,
    "unity": 4154,
    "flame": 16640,
    "Ġsit": 4217,
    "Ġdropout": 1558,
    "Ġadaptive": 1395,
    "Ġangular": 19208,
    "opotam": 22483,
    "ĠĠĠĠĠĠĠĠĠĠĠĠĠĠĠĠĠĠĠĠĠĠĠĠĠ": 24442,
    "gover": 10704,
    "green": 7117,
    "Ġquestioned": 14621,
    "ssing": 3809,
    "description": 11096,
    "Ġquakers": 22420,
    "Ġseated": 4542,
    "aired": 8369,
    "Ġsewing": 21958,
    "cence": 9591,
    "Ġtower": 8319,
    "urpation": 16304,
    "Ġsunny": 13091,
    "oun": 483,
    "Ġpetty": 19598,
    "down": 3470,
    "Ġscr": 11770,
    "Ġcounterpart": 24720,
    "alarms": 21508,
    "Ġlichen": 20095,
    "estations": 22228,
    "problems": 11436,
    "tland": 21076,
    "irting": 11689,
    "Ġfaded": 10811,
    "persu": 8028,
    "odox": 21820,
    "useful": 16505,
    "flu": 9120,
    "Ġoutcast": 18415,
    "Ġcombing": 22861,
    "extracts": 22762,
    "Ġsharp": 2413,
    "Ġexponentially": 1444,
    "Ġcallest": 17834,
    "iards": 17576,
    "Ġhellaswag": 24343,
    "ackinaw": 22429,
    "Ġscud": 14195,
    "Ġmetal": 9392,
    "Ġtidy": 17094,
    "Ġinclusive": 24166,
    "Ġtid": 8107,
    "heartily": 24218,
    "Ġcaress": 16342,
    "Ġartistic": 18612,
    "Ġtom": 15637,
    "ased": 1267,
    "Ġshrink": 14807,
    "iven": 1237,
    "supp": 4164,
    "entreat": 17978,
    "hideous": 25408,
    "astrous": 15889,
    "Ġxxv": 19720,
    "murdered": 12207,
    "situ": 9624,
    "sal": 8761,
    "Ġweeks": 4566,
    "Ġhardy": 8569,
    "eed": 20843,
    "solid": 16381,
    "Ġdepended": 9780,
    "izers": 18137,
    "Ġspark": 6691,
    "ender": 9163,
    "Ġspending": 10925,
    "monsters": 19173,
    "Ġthieves": 15640,
    "Ġrate": 1062,
    "Ġlearnt": 7613,
    "Ġenlivened": 26209,
    "parlour": 16391,
    "Ġunforgiving": 25996,
    "Ġheroism": 24544,
    "arched": 10817,
    "Ġtake": 1577,
    "Ġseizure": 21961,
    "anybody": 12087,
    "Ġaerial": 21201,
    "hatherley": 17570,
    "seventy": 10878,
    "Ġexchanged": 10880,
    "hement": 13835,
    "Ġlongitude": 11013,
    "Ġforswe": 21778,
    "Ġtalent": 12301,
    "emb": 11693,
    "wished": 13808,
    "Ġinvention": 19956,
    "Ġemble": 13974,
    "ldog": 21921,
    "Ġop": 2602,
    "Ġbutler": 18271,
    "smiled": 16616,
    "Ġturkey": 19221,
    "Ġmotionless": 8324,
    "Ġkilburn": 18352,
    "imming": 9690,
    "droppers": 24758,
    "feather": 16046,
    "ertion": 12043,
    "yl": 7818,
    "**:": 4738,
    "Ġsweatings": 25709,
    "horr": 14601,
    "shapes": 22456,
    "Ġlodged": 11253,
    "Ġsole": 3297,
    "Ġideas": 5494,
    "hush": 20908,
    "Ġpurch": 6601,
    "Ġpads": 21477,
    "Ġparcels": 25466,
    "walls": 25346,
    "ifying": 5252,
    "Ġcreep": 22723,
    "dining": 13709,
    "Ġunited": 6840,
    "lucas": 15155,
    "Ġalready": 2711,
    "Ġinvulnerable": 19148,
    "Ġcon": 348,
    "bunger": 20405,
    "Ġstark": 7390,
    "Ġmaybe": 12954,
    "Ġbamboo": 17440,
    "Ġdefence": 11069,
    "Ġdoor": 1742,
    "Ġgermany": 25786,
    "Ġporthole": 24399,
    "Ġbitterly": 8315,
    "Ġinsects": 25647,
    "overed": 2858,
    "Ġdominion": 16531,
    "sound": 6800,
    "Ġinferiority": 17116,
    "keenest": 25662,
    "too": 4509,
    "worm": 15456,
    "Ġequinoctial": 20535,
    "Ġelements": 2665,
    "Ġdislike": 6049,
    "dog": 10696,
    "grad": 2567,
    "azing": 7705,
    "Ġable": 3084,
    "Ġdisposing": 19378,
    "Ġsombre": 18861,
    "life": 4933,
    "eat": 11485,
    "Ġlakes": 8131,
    "Ľ": 254,
    "Ġjumped": 7098,
    "Ġcorroborated": 26055,
    "Ġdecanting": 22461,
    "<SOS>": 1,
    "Ġinno": 1420,
    "Ġknocking": 10562,
    "fulfil": 16038,
    "Ġreceptive": 1563,
    "running": 6798,
    "Ġstoven": 23178,
    "Ġwer": 12557,
    "arling": 10816,
    "Ġoutriders": 26545,
    "clifford": 23160,
    "daw": 17524,
    "majesty": 26282,
    "irons": 10241,
    "appearing": 14639,
    "ä": 165,
    "Ġsolve": 4198,
    "sentimental": 25682,
    "Ġlunging": 24992,
    "garious": 17560,
    "draul": 9446,
    "Ġbless": 4342,
    "Ġmazes": 25941,
    "Ġsuggested": 8321,
    "Ġglit": 8563,
    "jaw": 13746,
    "Ġinn": 4592,
    "Ġpave": 8804,
    "rice": 13780,
    "Ġunanswerable": 26523,
    "Ġpassionate": 11275,
    "merit": 19284,
    "ptember": 10896,
    "Ġinscriptions": 20012,
    "Ġhonestly": 19975,
    "sch": 21053,
    "Ġoutrages": 18416,
    "beside": 19879,
    "Ġprolonged": 8358,
    "admire": 24946,
    "Ġchilled": 18382,
    "Ġcomposed": 8895,
    "Ġreview": 18033,
    "dinner": 11408,
    "Ġjourney": 3881,
    "Ġabstract": 17184,
    "sperm": 5203,
    "Ġemblazonings": 26043,
    "peleg": 16297,
    "avenza": 17105,
    "Ġcaterpillar": 5866,
    "Ġstarboard": 7605,
    "Ġdiggings": 24650,
    "twist": 23704,
    "evenings": 19466,
    "Ġmacro": 25940,
    "scattered": 22998,
    "urday": 13998,
    "better": 7121,
    "ĠâĢľâĢĺ_": 25114,
    "Ġvoyager": 16514,
    "ture": 7558,
    "Ġencircling": 26273,
    "Ġrusty": 14967,
    "deprived": 19900,
    "Ġxli": 14543,
    "Ġannoy": 17201,
    "wondering": 19847,
    "set": 3867,
    "Ġflame": 7448,
    "grammar": 6436,
    "rocket": 13947,
    "Ġsepar": 3998,
    "Ġoverbearing": 12848,
    "Ġprognostics": 20561,
    "Ġsullen": 9160,
    "Ġaxis": 12311,
    "Ġunheard": 22029,
    "alloyed": 22205,
    "Ġslopes": 18943,
    "osop": 4404,
    "Ġportra": 9012,
    "Ġtime": 690,
    "Ġrudeness": 17127,
    "Ġrevenge": 5452,
    "george": 26020,
    "Ġimperson": 14222,
    "springing": 24890,
    "ateness": 15523,
    "Ġdecl": 3590,
    "Ġmachinery": 20488,
    "Ġalert": 18104,
    "Ġenderby": 13655,
    "Ġlieutenant": 15265,
    "ugn": 9381,
    "oon": 6366,
    "Ġchancery": 20718,
    "Ġreligions": 20111,
    "Ġdoubtful": 19143,
    "Ġkrusenstern": 26379,
    "Ġjames": 6420,
    "hyena": 24255,
    "Ġsitt": 21220,
    "Ġfairly": 6327,
    "ggling": 19098,
    "Ġangrily": 9410,
    "both": 5785,
    "Ġtrans": 632,
    "pra": 15410,
    "Ġrobert": 10972,
    "Ġadvantages": 9814,
    "Ġspilling": 22141,
    "Ġsoftly": 7948,
    "etymology": 14704,
    "adventurous": 25362,
    "ortations": 22262,
    "Ġplanets": 24061,
    "Ġtasks": 1789,
    "Ġuseless": 7039,
    "cheeks": 23810,
    "Ġpoint": 2057,
    "Ġhowling": 8512,
    "washed": 13051,
    "hatches": 19930,
    "allied": 7410,
    "ulpt": 10887,
    "Ġexploded": 15913,
    "urmountable": 15283,
    "Ġhers": 7889,
    "haw": 6363,
    "Ġrattler": 24998,
    "Ġnantucketers": 9898,
    "Ġimmensity": 25330,
    "Ġincomplete": 17211,
    "Ġladen": 19179,
    "Ġenslaved": 26315,
    "Ġlounged": 19957,
    "lighter": 20961,
    "Ġsolving": 2480,
    "innacle": 7519,
    "nay": 7137,
    "Ġweb": 9243,
    "Ġpaying": 9941,
    "Ġelementary": 24811,
    "bruary": 15239,
    "Ġ179": 19757,
    "Ġfills": 12599,
    "bles": 7019,
    "aken": 1870,
    "aux": 14292,
    "Ġdegraded": 19229,
    "uble": 21105,
    "Ġhappening": 14386,
    "gled": 10701,
    "Ġtoast": 21515,
    "Ġweather": 3995,
    "Ġcracked": 8597,
    "Ġanticipating": 17059,
    "Ġlonely": 6823,
    "Ġlistener": 16477,
    "male": 15392,
    "ĠĠĠĠĠĠĠĠĠĠĠĠĠĠĠĠĠĠĠĠĠĠĠĠĠĠĠĠĠĠĠĠĠĠĠĠĠĠĠĠĠĠĠĠĠĠĠĠĠĠĠĠĠĠĠĠĠĠĠĠ": 19262,
    "dig": 4930,
    "âĢĻâĢĶ": 12742,
    "unching": 18161,
    "mightily": 24106,
    "lier": 20951,
    "Ġpast": 2098,
    "axing": 18548,
    "Ġcommunity": 19014,
    "ended": 1837,
    "mod": 1054,
    "pane": 10123,
    "Ġfluke": 14676,
    "Ġbright": 3215,
    "irable": 5776,
    "Ġph": 1547,
    "Ġcranes": 20386,
    "Ġglimpses": 13436,
    "Ġplunged": 8696,
    "distrust": 19573,
    "Ġscepticism": 25928,
    "Ġlicensing": 20096,
    "Ġgriefs": 16773,
    "cc": 474,
    "gg": 1995,
    "ma": 1150,
    "soul": 9143,
    "given": 8377,
    "iver": 2050,
    "Ġ93": 24592,
    "Ġmurderers": 16813,
    "Ġemptied": 24347,
    "athom": 12944,
    "Ġnest": 10191,
    "Ġsmokes": 22563,
    "Ġschedule": 2369,
    "Ġsur": 2184,
    "haz": 17566,
    "early": 20122,
    "Ġhooked": 19079,
    "Ġmankind": 6700,
    "luxur": 25823,
    "upright": 23021,
    "appeared": 4282,
    "Ġlightnings": 16356,
    "Ġvon": 14084,
    "Ġfinally": 4668,
    "ons": 709,
    "step": 2453,
    "isions": 6132,
    "Ġwrote": 5011,
    "Ġantip": 24180,
    "broad": 8646,
    "arse": 7161,
    "Ġdiscre": 2415,
    "50": 6785,
    "ć": 200,
    "succeeded": 15179,
    "Ġcommanders": 23871,
    "Ġnecks": 18182,
    "Ġbequest": 21757,
    "Ġcarpenters": 16754,
    "march": 13758,
    "Ġasser": 6259,
    "Ġreliable": 18778,
    "Ġconsidered": 4613,
    "Ġnick": 21526,
    "Ġgild": 15673,
    "Ġnomine": 26458,
    "rove": 21536,
    "Ġlab": 1872,
    "Ġpur": 2217,
    "Ġsketch": 16170,
    "Ġbetokened": 18798,
    "Ġwearied": 15797,
    "Ġbarbary": 24219,
    "germ": 15360,
    "Ġkno": 5241,
    "Ġunwe": 15842,
    "Ġadoration": 18293,
    "Ġsaddest": 16665,
    "Ġphysiognomical": 25612,
    "Ġout": 543,
    "resc": 21241,
    "lad": 5993,
    "bonnet": 25743,
    "Ġunthink": 18248,
    "bird": 9588,
    "Ġhimself": 1352,
    "craft": 12251,
    "blocks": 25518,
    "Ġdundee": 16999,
    "Ġniagara": 26460,
    "--------": 14786,
    "Ġchain": 1846,
    "world": 5058,
    "rey": 12543,
    "Ġunluck": 8487,
    "words": 7983,
    "Ġtypewriting": 16424,
    "umbers": 10920,
    "Ġquiescent": 26244,
    "Ġpublisher": 24070,
    "Ġraging": 14310,
    "icacy": 15662,
    "Ġdarkened": 16435,
    "Ġloses": 15877,
    "Ġenvironments": 24023,
    "Ġsquire": 16183,
    "Ġstrangled": 24136,
    "this": 1439,
    "Ġobeyed": 12221,
    "Ġthom": 21519,
    "Ġcrocod": 19631,
    "Ġprair": 7747,
    "assure": 9272,
    "Ġharpo": 1941,
    "Ġsoftened": 11104,
    "Ġhast": 3153,
    "loss": 22512,
    "acup": 14281,
    "Ġskil": 14356,
    "Ġest": 2264,
    "Ġevenness": 22836,
    "eers": 20845,
    "Ġtendency": 11331,
    "Ġformal": 2946,
    "solic": 16380,
    "mad": 5281,
    "Ġvisions": 12981,
    "performed": 18346,
    "Ġungod": 22028,
    "Ġpump": 12626,
    "Ġtobacc": 7853,
    "ik": 17573,
    "Ġlanguages": 1568,
    "bun": 12442,
    "sur": 4524,
    "united": 14063,
    "Ġdismember": 20218,
    "Ġsob": 12789,
    "Ġassault": 9840,
    "Ġjinglers": 26016,
    "faith": 15027,
    "Ġholds": 7976,
    "Ġdefection": 22945,
    "Ġmeagre": 21814,
    "Ġequally": 5258,
    "justine": 7683,
    "Ġcondescend": 19958,
    "Ġplan": 3883,
    "done": 6501,
    "Ġdanced": 7842,
    "Ġbitter": 4175,
    "rodden": 21538,
    "tired": 21075,
    "clopÃ¦dia": 15260,
    "aves": 3599,
    "Ġintru": 15831,
    "Ġdum": 10813,
    "dz": 4740,
    "Ġmug": 21315,
    "Ġprivileges": 25135,
    "Ġcamberwell": 25351,
    "Ġentropy": 2030,
    "unch": 14061,
    "painter": 24897,
    "uous": 4147,
    "Ġpir": 6818,
    "Ġtedious": 15271,
    "giving": 8742,
    "chel": 11208,
    "said": 4104,
    "Ġt": 261,
    "Ġfrog": 23925,
    "vast": 10738,
    "Ġaquiline": 26160,
    "Ġmoses": 21318,
    "Ġburied": 7719,
    "Ġconvolutional": 2164,
    "cadence": 26126,
    "kins": 7345,
    "Ġderivative": 3004,
    "frame": 17117,
    "urged": 18051,
    "Ġconstantinople": 19840,
    "Ġdistrustful": 25057,
    "ð": 177,
    "omen": 4085,
    "Ġprodigy": 19795,
    "Ġgrudge": 20696,
    "Ġstiffest": 24827,
    "bl": 4144,
    "sent": 758,
    "repeating": 20132,
    "Ġrails": 22656,
    "----âĢĻ": 24102,
    "Ġconcoct": 19049,
    "Ġgene": 15676,
    "nest": 10116,
    "Ġpillar": 21476,
    ".âĢĶâĢľ": 20749,
    "liament": 16222,
    "Ġphysiognomy": 25611,
    "Ġsadly": 7302,
    "Ġmariners": 6069,
    "run": 10723,
    "Ġneighbor": 25804,
    "smug": 23911,
    "Ġdescrying": 18619,
    "heredit": 21212,
    "icher": 9205,
    "Ġtrick": 7020,
    "jointed": 24013,
    "Ġpaved": 17915,
    "Ġlinks": 13958,
    "Ġfierc": 18713,
    "naturalists": 23546,
    "Ġabiding": 22274,
    "J": 46,
    "rate": 2420,
    "Ġfamiliarity": 16731,
    "esc": 617,
    "Ġspread": 5161,
    "erer": 8735,
    "domestic": 19828,
    "Ġfrogs": 23927,
    "wreck": 21139,
    "gyric": 19111,
    "Ġpleasant": 4172,
    "Ġcy": 13877,
    "Ġyea": 8919,
    "oldened": 22643,
    "Ġuncounted": 19118,
    "northern": 23666,
    "sweeping": 24619,
    "ius": 5789,
    "Ġmethinks": 10393,
    "ple": 455,
    "Ġenvirons": 13188,
    "Ġrecorded": 11295,
    "laughed": 20284,
    "Ġoperated": 14548,
    "Ġcommercial": 22677,
    "_.)": 7278,
    "retreat": 23142,
    "ato": 17771,
    "scorn": 22994,
    "Ġshriek": 6640,
    "Ġheave": 7600,
    "è": 169,
    "Ġnails": 12653,
    "Ġspont": 22135,
    "Ġgin": 13964,
    "ĠĠĠĠĠĠĠĠĠĠĠĠĠĠĠĠĠĠĠĠĠĠĠĠĠĠĠĠĠĠĠĠĠĠĠĠĠĠĠĠĠ": 19585,
    "opes": 10313,
    "Ġunmannerly": 26519,
    "way": 764,
    "Ġdiffered": 22716,
    "progression": 20385,
    "Ġunfolded": 10641,
    "Ġrobust": 1341,
    "Ġjumbled": 22291,
    "Ġfanny": 23394,
    "Ġbackpropagation": 1270,
    "Ġbowsman": 11256,
    "Ġmottled": 20681,
    "Ġfireplace": 13149,
    "enary": 12556,
    "ortunity": 4403,
    "iece": 3231,
    "Ġimposs": 16618,
    "Ġvaguely": 17369,
    "porary": 14553,
    "Ġlo": 453,
    "persuaded": 15077,
    "befriend": 22496,
    "Ġinvestigation": 9045,
    "Ġbubb": 12589,
    "Ġcircumstance": 4987,
    "necessity": 13372,
    "Ġregularity": 22781,
    "acity": 5735,
    "Ġpumps": 8428,
    "ining": 3223,
    "Ġtou": 15469,
    "Ġgreenness": 23770,
    "ê": 171,
    "Ġpressure": 13426,
    "Ġhawaiian": 25367,
    "bons": 17489,
    "ul": 371,
    "Ġworks": 5859,
    "Ġmagnet": 10392,
    "Ġwant": 1119,
    "Ġcomplex": 746,
    "Ġhanded": 8217,
    "circum": 16739,
    "ency": 3870,
    "iltrated": 19308,
    "Ġindisp": 18835,
    "Ġdistribution": 2017,
    "odious": 21819,
    "Ġinfidel": 13093,
    "Ġunstructured": 3008,
    "Ġparlor": 13543,
    "Ġfabulous": 25949,
    "pers": 4336,
    "inople": 13832,
    "likes": 18816,
    "knight": 20942,
    "gentlemen": 9507,
    "emotion": 21934,
    "greatest": 10496,
    "whal": 10942,
    "ideas": 18582,
    "Ġdisclose": 16160,
    "swiftly": 20554,
    "Ġsuckling": 25998,
    "Ġavast": 9923,
    "abominable": 20597,
    "Ġamel": 18511,
    "Ġboom": 9313,
    "Ġsearch": 2590,
    "Ġdisappointing": 19582,
    "Ġcritically": 23445,
    "modern": 1169,
    "Ġrotterdam": 25476,
    "Ġsacrifice": 9558,
    "Ġmortifying": 13250,
    "Ġspouts": 7730,
    "Ġnarrowly": 16822,
    "Ġrequisition": 22636,
    "Ġdesol": 6881,
    "Ġconcentrated": 15087,
    "Ġcousin": 3705,
    "intosh": 22943,
    "Ġquarto": 17299,
    "repent": 15516,
    "Ġpatagonian": 20537,
    "Ġauthors": 10418,
    "illum": 15873,
    "riers": 18185,
    "Ġimpersonal": 17399,
    "Ġadjusting": 3412,
    "Ġinsignificant": 20459,
    "Ġmaster": 3682,
    "ł": 259,
    "Ġdecanter": 22462,
    "canonical": 22973,
    "Ġfactory": 23280,
    "Ġdescribing": 19256,
    "Ġdramatic": 4852,
    "aneous": 7240,
    "Ġexerted": 15761,
    "dil": 11480,
    "professor": 17252,
    "Ġsalted": 14759,
    "eyed": 11489,
    "Ġholiest": 18813,
    "Ġxerxes": 23413,
    "Ġunknown": 4454,
    "Ġconsist": 1932,
    "Ġrepresentations": 1876,
    "Ġnavigators": 19766,
    "Ġaccomp": 4714,
    "Ġtraces": 7946,
    "advantages": 11273,
    "carefully": 13373,
    "etieth": 21587,
    "indirectly": 18438,
    "Ġsolar": 22888,
    "fish": 3516,
    "dipped": 20839,
    "Ġpromoting": 3163,
    "etent": 10202,
    "Ġarchy": 14350,
    "Ġmar": 1311,
    "Ġspinal": 12306,
    "Ġencouragement": 13048,
    "Ġtransform": 738,
    "Ġcart": 11586,
    "Ġoffices": 14340,
    "Ġreporting": 24658,
    "Ġattacking": 24465,
    "Ġdaresay": 14707,
    "Ġwhalebone": 10979,
    "backward": 2681,
    "staff": 21659,
    "Ġclaps": 22353,
    "Ġtea": 5041,
    "ake": 748,
    "girdling": 26391,
    "mering": 12495,
    "resol": 17762,
    "Ġrel": 1095,
    "Ġthankful": 14741,
    "Ġspokes": 18314,
    "Ġpeeled": 14321,
    "Ġretirement": 25379,
    "ause": 1313,
    "fthand": 26388,
    "Ġvivid": 8058,
    "Ġslate": 11942,
    "Ġgarnery": 17390,
    "Ġann": 4491,
    "Ġbatt": 13902,
    "Ġsuggestive": 11299,
    "Ġfailure": 13319,
    "Z": 62,
    "flakes": 23971,
    "Ġmouldy": 14977,
    "Ġdismantled": 20219,
    "lean": 21368,
    "Ġswung": 6450,
    "Ġenthus": 7232,
    "willingly": 11987,
    "Ġbits": 11591,
    "Ġamphitheat": 26254,
    "Ġslewed": 23388,
    "ackled": 22428,
    "Ġshortly": 6198,
    "Ġrabb": 4166,
    "trap": 24334,
    "ously": 2489,
    "Ġsteeply": 23726,
    "Ġglimpse": 6944,
    "Ġsne": 6373,
    "bra": 6221,
    "Ġreserve": 9974,
    "Ġdestination": 19151,
    "Ġdeposit": 17271,
    "Ġregimentals": 19860,
    "prevent": 11799,
    "Ġsnake": 12065,
    "Ġcultiv": 13560,
    "Ġshave": 22000,
    "pendicular": 6500,
    "Ġintim": 6838,
    "Ġdisreputable": 22538,
    "footsteps": 25200,
    "Ġmanoir": 22335,
    "Ġeyes": 1333,
    "Ġdisagreeable": 9301,
    "Ġwatch": 2742,
    "Ġgore": 17991,
    "Ġbel": 1217,
    "Ġwitnessed": 14847,
    "¤": 102,
    "Ġstrateg": 1379,
    "Ġ180": 16608,
    "Ġunmethodically": 22074,
    "Ġinconsistency": 26184,
    "Ġcourage": 4635,
    "Ġunseason": 22056,
    "Ġdefilements": 26286,
    "Ġgrammatical": 13542,
    "Ġabominate": 20068,
    "oot": 13768,
    "Ġsteel": 3890,
    "although": 8810,
    "Ġhus": 3095,
    "Ġblocks": 6323,
    "anelles": 26436,
    "Ġwanting": 6723,
    "icant": 21565,
    "Ġrecurring": 23233,
    "Ġreced": 15696,
    "Ġslung": 23171,
    "Ġmet": 1956,
    "÷": 184,
    "Ġfurnace": 19443,
    "Ġhardship": 18915,
    "failed": 20865,
    "Ġindistinctly": 26118,
    "urbed": 15713,
    "Ġname": 2083,
    "Ġperpetually": 17071,
    "whip": 22241,
    "Ġpregnant": 26537,
    "Ġmature": 17801,
    "sander": 11529,
    "Ġglut": 18854,
    "Ġmounting": 19980,
    "Ġunconcerned": 20513,
    "ass": 536,
    "Ġtaste": 5524,
    "Ġmuseum": 15275,
    "waving": 21134,
    "Ġfew": 1182,
    "ft": 911,
    "Ġbadge": 16682,
    "Ġrever": 6538,
    "mons": 17602,
    "Ġdistended": 16047,
    "Ġexcited": 5580,
    "Ġemerg": 13428,
    "mindful": 19602,
    "Ġsurvey": 13597,
    "Ġmagg": 18907,
    "Ġtranslations": 12056,
    "Ġagree": 7647,
    "Ġdisaster": 12892,
    "Ġexord": 21832,
    "Ġful": 4297,
    "iations": 11497,
    "moid": 2447,
    "mass": 12494,
    "draught": 12095,
    "Ġcrying": 10788,
    "imson": 12694,
    "Ġsuperst": 7704,
    "throwing": 11707,
    "Ġclergyman": 8715,
    "Ġpigeon": 9519,
    "thern": 4953,
    "Ġfoliage": 18868,
    "Ġxxxii": 24973,
    "Ġdirections": 1971,
    "Ġpenetrate": 12274,
    "avern": 24791,
    "Ġkin": 15908,
    "Ġgraves": 11712,
    "Ġkicking": 16903,
    "Ġannouncement": 14836,
    "Ġscent": 10291,
    "Ġrec": 901,
    "Ġdarting": 7757,
    "Ġfollies": 16259,
    "Ġexciting": 23315,
    "tumult": 12427,
    "finger": 10096,
    "inarticulate": 21198,
    "Ġlace": 13952,
    "Ġloadstone": 25817,
    "Ġ2": 2933,
    "atches": 13849,
    "Ġdines": 21426,
    "Ġprophes": 16352,
    "Ġnomin": 10193,
    "Ġanguish": 5583,
    "clothes": 9060,
    "Ġemployed": 5200,
    "pleas": 3852,
    "Ġnurtured": 19752,
    "Ġjud": 3358,
    "Ġattends": 19653,
    "Ġshrunk": 16720,
    "Ġindignity": 18834,
    "agra": 14069,
    "Ġdey": 11678,
    "hastening": 24448,
    "regarded": 12012,
    "Ġerudite": 26353,
    "Ġcomplimented": 14907,
    "Ġrecommending": 24333,
    "Ġanimals": 8981,
    "Ġstrugg": 3218,
    "constantly": 24607,
    "Ġsque": 18759,
    "----âĢĿ": 13311,
    "Ġapparel": 20439,
    "oing": 15404,
    "Ġwhalers": 8048,
    "transformer": 25018,
    "neither": 9761,
    "ratches": 20128,
    "teness": 23207,
    "aby": 18109,
    "Ġstudents": 23210,
    "ĠĠ": 351,
    "oblig": 16294,
    "Ġwarmer": 19187,
    "onym": 14651,
    "abs": 11670,
    "Ġrake": 18644,
    "\"]": 17473,
    "Ġsluggish": 25891,
    "Ġpush": 9187,
    "becomes": 22500,
    "encounter": 20395,
    "Ġwr": 1542,
    "Ġheap": 12683,
    "zealand": 26051,
    "Ġhug": 6980,
    "Ġharriet": 24573,
    "Ġfavourites": 16647,
    "Ġmood": 6278,
    "Ġmanners": 3791,
    "Ġsphere": 15886,
    "Ġtot": 4188,
    "Ġbudge": 15168,
    "Ġjoker": 22292,
    "aster": 1868,
    "Ġprincipally": 11311,
    "mighty": 9469,
    "Ġsoothing": 8173,
    "Ġinvariable": 13460,
    "Ġencourages": 2062,
    "irect": 5553,
    "Ġfresher": 23212,
    "timidity": 25754,
    "erately": 21276,
    "Ġresolutely": 14611,
    "Ġsanity": 24982,
    "Ġslain": 8956,
    "cousin": 10655,
    "escript": 18472,
    "narrow": 11510,
    "Ġbehav": 3540,
    "Ġshuddering": 9054,
    "ceased": 21629,
    "etrics": 21588,
    "Ġfidget": 15193,
    "Ġminimizing": 3466,
    "Ġinj": 4761,
    "wal": 10136,
    "Ġsmile": 4272,
    "Ġhundred": 2692,
    "Ġbasics": 13452,
    "Ġcombat": 16189,
    "mock": 5174,
    "peddling": 21034,
    "Ġpassion": 4558,
    "Ġren": 3846,
    "Ġbulky": 13233,
    "Ġaffirmative": 15226,
    "itarian": 21340,
    "urn": 776,
    "Ġeuropean": 20049,
    "forest": 22522,
    "floated": 24644,
    "Ġbowls": 23773,
    "Ġgould": 17992,
    "Ġearned": 19408,
    "Ġglow": 7171,
    "Ġintegral": 25011,
    "moments": 19415,
    "strangely": 17279,
    "unguarded": 23668,
    "Ġhandy": 12941,
    "impotence": 23764,
    "such": 3086,
    "Ġending": 18924,
    "Ġlexicon": 25975,
    "these": 3243,
    "Ġdamning": 19141,
    "Ġhunted": 7453,
    "Ġidentity": 2523,
    "Ġpaths": 2569,
    "Ġdomestic": 6910,
    "Ġinjuries": 11279,
    "Ġthump": 11614,
    "Ġmidway": 14606,
    "Ġtreble": 16506,
    "Ġadmirers": 19689,
    "Ġsimpler": 2048,
    "aled": 3944,
    "iminished": 19026,
    "Ġrecumbent": 22741,
    "Ġimprove": 1851,
    "possession": 12226,
    "Ġintegr": 7969,
    "Ġgrope": 17997,
    "Ġdifferent": 1428,
    "Ġweal": 21923,
    "Ġgaze": 6932,
    "Ġpiece": 5367,
    "Ġgentle": 1892,
    "Ġgrapp": 14104,
    "inating": 9156,
    "gir": 8083,
    "Ġlatest": 16824,
    "<EOS>": 2,
    "Ġbeating": 8145,
    "apolog": 22336,
    "Ġundeniable": 26512,
    "Ġloafer": 18300,
    "Ġunrem": 18245,
    "Ġdod": 6675,
    "Ġinflexibly": 26372,
    "Ġfaculties": 14961,
    "Ġfraud": 19007,
    "Ġprospects": 9962,
    "Ġflowed": 10374,
    "Ġcountess": 11968,
    "breckinridge": 24079,
    "thrasher": 25659,
    "ositions": 10286,
    "Ġvelvets": 25394,
    "ciousness": 20819,
    "accompan": 11454,
    "Ġaper": 17745,
    "Ġarabic": 24981,
    "forgotten": 12420,
    "low": 653,
    "Ġbenefits": 4287,
    "boiling": 19002,
    "igen": 4831,
    "semble": 1524,
    "Ġsend": 4107,
    "plunging": 25988,
    "usages": 22284,
    "Ġsporting": 17001,
    "Ġno": 509,
    "ods": 8840,
    "gor": 548,
    "Ġinadequate": 17939,
    "Ġfamiliar": 5511,
    "lever": 2936,
    "landsmen": 25062,
    "loud": 11503,
    "handkerchief": 14619,
    "justified": 19005,
    "Ġstrangely": 5677,
    "Ġdescription": 7429,
    "Ġcyp": 21348,
    "1775": 26380,
    "depend": 9115,
    "Ġassumpt": 5415,
    "Ġisland": 4048,
    "ught": 2750,
    "Ġfulfil": 9554,
    "Ġscrib": 22302,
    "Ġcontentment": 14873,
    "Ġtinged": 20086,
    "Ġminutely": 14563,
    "rever": 21238,
    "Ġtraining": 528,
    "Ġpalms": 8647,
    "Ġbroken": 3448,
    "Ġhunsford": 6303,
    "believe": 8304,
    "Ġprosecution": 12385,
    "Ġweep": 7620,
    "Ġprecisely": 6467,
    "Ġinwards": 15625,
    "Ġu": 324,
    "Ġsucceed": 4546,
    "Ġprejudiced": 24806,
    "utarch": 15666,
    "oko": 18441,
    "obst": 11936,
    "Ġdestroyed": 5272,
    "Ġhieroglyph": 11975,
    "noticed": 14346,
    "heart": 4527,
    "Ġbeef": 6830,
    "aited": 12439,
    "trimmed": 23952,
    "Ġpredicted": 2045,
    "sharpening": 22458,
    "Ġopposition": 16523,
    "Ġsus": 18280,
    "Ġcondescension": 10621,
    "egyptians": 25899,
    "ault": 2305,
    "Ġanx": 3183,
    "Ġfaltering": 17886,
    "but": 592,
    "18": 20753,
    "hundreds": 25076,
    "pence": 15412,
    "forth": 9325,
    "Ġverte": 9444,
    "ara": 12611,
    "Ġblock": 2575,
    "reated": 10305,
    "Ġlighten": 23262,
    "ortal": 6267,
    "Ġinject": 2710,
    "Ġinfluences": 14868,
    "ast": 472,
    "shells": 26057,
    "conveyed": 20524,
    "Ġcrad": 21352,
    "cruet": 17028,
    "cannibals": 25585,
    "Ġporch": 19683,
    "perquisites": 26533,
    "binnacle": 20789,
    "Ġstatistics": 1684,
    "Ġpunchbowl": 20234,
    "Ġaccompanied": 6781,
    "continuing": 24479,
    "pool": 16212,
    "rol": 5713,
    "snowy": 20286,
    "Ġuntidy": 23524,
    "Ġhowever": 1305,
    "Ġwhistle": 9068,
    "isure": 6242,
    "Ġincess": 8432,
    "Ġtoad": 21513,
    "Ġuprising": 12807,
    "Ġblend": 14401,
    "belonged": 25598,
    "Ġgovernor": 16492,
    "ured": 1655,
    "allic": 12818,
    "|": 96,
    "count": 4214,
    "Ġfugitive": 17330,
    "Ġ23": 13196,
    "ail": 565,
    "Ġknot": 7013,
    "securing": 19816,
    "Ġexter": 7397,
    "Ġforbidden": 17079,
    "Ġutter": 3974,
    "Ġresist": 7916,
    "Ġcomo": 21846,
    "Ġlandsman": 11352,
    "Ġdrama": 16331,
    "?âĢĿâĢĶ": 12900,
    "Ġbrightness": 16579,
    "Ġinmates": 15627,
    "Ġexper": 1304,
    "Ġfr": 1697,
    "those": 4497,
    "ceremony": 20593,
    "Ġhither": 4760,
    "Ġaveraging": 2417,
    "ention": 854,
    "velope": 17703,
    "generative": 4330,
    "Ġrejoinder": 24598,
    "Ġauthor": 4375,
    "Ġgentleness": 8713,
    "Ġenvy": 13187,
    "Ġcolon": 18766,
    "Ġsulphur": 24934,
    "alleging": 23027,
    "Ġkneeling": 12147,
    "Ġbluish": 23651,
    "Ġcosmopol": 16455,
    "bee": 16041,
    "İ": 241,
    "Ġshr": 4227,
    "Ġreigns": 21674,
    "enderby": 25216,
    "Ġdire": 867,
    "archangel": 18782,
    "five": 6358,
    "Ġrambles": 17187,
    "wretched": 10743,
    "Ġextremities": 19197,
    "Ġpaul": 12066,
    "Ġrev": 6989,
    "Ġintervene": 25481,
    "Ġemper": 9864,
    "heavy": 10577,
    "zors": 21150,
    "condem": 16347,
    "death": 6263,
    "ment": 686,
    "Ġcensured": 25097,
    "Ġdisgusted": 14993,
    "Ġcircus": 19093,
    "Ġconquest": 15752,
    "Ġexordium": 26494,
    "Ġinjuring": 24271,
    "Ġlighting": 13087,
    "Ġriddle": 14823,
    "Ġscholars": 26113,
    "Ġattic": 16099,
    "Ġmomentum": 1600,
    "Ġepic": 15032,
    "cannon": 22972,
    "Ġjer": 6268,
    "ructive": 18545,
    "future": 13720,
    "middle": 11312,
    "Ġthackeray": 26457,
    "Ġgre": 1582,
    "¦": 104,
    "beg": 22491,
    "render": 10293,
    "Ġsubjects": 7074,
    "Ġstripping": 23699,
    "provided": 13641,
    "riot": 18184,
    "Ġ26": 10472,
    "Ġwreat": 15534,
    "unts": 12736,
    "Ġwebster": 20164,
    "herent": 2528,
    "dening": 22784,
    "englishman": 23679,
    "Ġfielding": 16234,
    "Ġw": 272,
    "Ġstocks": 23179,
    "neighbouring": 19967,
    "wantonly": 25153,
    "Ġdragg": 23217,
    "search": 8467,
    "Ġweaken": 21925,
    "Ġnecessity": 7296,
    "Ġsentence": 6189,
    "Ġassociations": 14966,
    "Ġcomprise": 18586,
    "humor": 19455,
    "Ġnursed": 16887,
    "Ġmidnight": 5266,
    "crossed": 16635,
    "reflections": 24734,
    "ouring": 6421,
    "Ġsizes": 1520,
    "Ġtranquillity": 7536,
    "aguy": 21914,
    "Ġcolonel": 3407,
    "Ġfrayed": 23268,
    "Ġcapacity": 10442,
    "Ġshaggy": 13574,
    "arcy": 1275,
    "Ġexplaining": 15964,
    "Ġqueerest": 16418,
    "Ġtrembling": 7481,
    "cast": 2932,
    "sim": 6511,
    "solitary": 14507,
    "Ġforging": 18096,
    "coal": 12029,
    "Ġfull": 2179,
    "joined": 13279,
    "tim": 13794,
    "Ġcompetition": 14269,
    "Ġretreating": 19802,
    "bast": 10080,
    "Ġidleness": 11145,
    "fixedly": 24930,
    "sudden": 5316,
    "Ġsober": 10913,
    "band": 3063,
    "Ġincommunicable": 26613,
    "æ": 167,
    "ado": 11661,
    "Ġrage": 5110,
    "easily": 17536,
    "Ġwarb": 17789,
    "Ġcomplet": 4424,
    "byter": 16217,
    "ounders": 22398,
    "tisement": 6768,
    "rr": 17652,
    "Ġsk": 963,
    "Ġsummits": 14685,
    "Ġtame": 17724,
    "Ġrank": 6260,
    "Ġmarshy": 20221,
    "society": 9975,
    "Ġconstant": 6311,
    "yden": 21146,
    "X": 60,
    "Ġpaused": 5416,
    "Ġoscillations": 2902,
    "Ġclothing": 18425,
    "Ġaudits": 24769,
    "Ġparts": 4167,
    "Ġcasks": 7521,
    "Ġhelm": 5276,
    "Ġharshly": 25250,
    "warm": 8102,
    "Ġabound": 8867,
    "Ġfang": 21406,
    "including": 23592,
    "Ġmichaelmas": 26376,
    "Ġwallet": 21301,
    "scar": 9819,
    "Ġcheers": 16369,
    "Ġdemean": 12728,
    "Ġamounts": 6706,
    "arrow": 4182,
    "Ġbefell": 14013,
    "Ġlightened": 23264,
    "Ġrim": 21972,
    "ithmetic": 18064,
    "Ġsalad": 19482,
    "Ġdl": 3376,
    "ex": 622,
    "urned": 9309,
    "resembling": 25933,
    "tallied": 21092,
    "Ġmaggie": 26293,
    "Ġmight": 965,
    "rough": 590,
    "Ġhoard": 23355,
    "magnificent": 20277,
    "Ġsurrounded": 5880,
    "acknowledged": 15206,
    "Ġ84": 19712,
    "anous": 21362,
    "Ġcrossing": 7252,
    "Ġprouder": 18973,
    "Ġinfat": 14502,
    "Ġarthur": 7196,
    "elfare": 11781,
    "angels": 22107,
    "Ġmoved": 4841,
    "terbury": 21828,
    "Ġnumberless": 16419,
    "Ġardu": 22182,
    "Ġinattention": 17934,
    "Ġshowed": 4498,
    "Ġlucy": 17972,
    "Ġsmoothed": 23658,
    "Ġregularizer": 2337,
    "Ġskeletons": 16793,
    "Ġdrawled": 23992,
    "tornadoes": 26154,
    "onsense": 6432,
    "Ġinsip": 19269,
    "hemat": 3132,
    "Ġindiscreet": 22959,
    "nur": 11508,
    "iag": 20918,
    "included": 19209,
    "Ġezek": 18012,
    "atered": 22011,
    "Ġtwilight": 16125,
    "Ġmach": 13860,
    "Ġamendment": 26026,
    "Ġrooms": 5180,
    "carb": 20812,
    "Ġreadiness": 13055,
    "--âĢĺ": 22849,
    "Ġhut": 15623,
    "Ġbrack": 23839,
    "Ġrevelations": 25224,
    "Ġstagger": 10594,
    "mm": 673,
    "races": 21633,
    "Ġoverpowering": 15253,
    "elson": 16374,
    "atiable": 17776,
    "Ġbrix": 12588,
    "Ġoutright": 18414,
    "Ġklan": 23661,
    "preservation": 25306,
    "Ġconstrain": 2627,
    "fear": 8516,
    "Ġarbitrary": 4737,
    "hon": 6794,
    "Ġwhisker": 23938,
    "hip": 8744,
    "Ġabhor": 5467,
    "Ġhearse": 10422,
    "Ġblushed": 13007,
    "circ": 4388,
    "Ġfingers": 5672,
    "Ġmustering": 18663,
    "arance": 4699,
    "ryphon": 4165,
    "Ġunwonted": 15010,
    "cu": 10086,
    "Ġhorr": 3193,
    "Ġindefinite": 17179,
    "Ġhatherley": 7849,
    "Ġfriendly": 9823,
    "forbidding": 25838,
    "Ġwow": 15532,
    "americ": 8156,
    "Ġquestions": 3972,
    "ual": 946,
    "Ġwapping": 21297,
    "Ġadvisable": 11444,
    "lock": 1472,
    "Ġstraggling": 23754,
    "deduction": 23670,
    "ches": 2147,
    "cription": 20820,
    "irene": 15918,
    "Ġsprings": 16688,
    "Ġiteratively": 3062,
    "Ġencoun": 4513,
    "Ġvertically": 19383,
    "Ġberkshire": 16886,
    "Ġlinen": 12411,
    "occup": 7753,
    "keel": 14131,
    "Ġvibrated": 25048,
    "rix": 1573,
    "Ġcott": 3709,
    "ered": 1685,
    "Ġpipe": 4321,
    "Ġopportunities": 19251,
    "Ġapply": 1779,
    "ppa": 10242,
    "Ġdisput": 14258,
    "Ġparacelsus": 15270,
    "cess": 539,
    "beheaded": 22497,
    "Ġcler": 11774,
    "rown": 2193,
    "Ġinvented": 17038,
    "Ġhorrify": 23822,
    "entimes": 12661,
    "inclined": 10642,
    "weep": 22687,
    "Ġgenerative": 5644,
    "assemblies": 25957,
    "Ġshot": 4545,
    "Ġstoper": 14465,
    "purposes": 25024,
    "heidelburgh": 21214,
    "Ġelated": 18635,
    "ĠĠĠĠĠĠĠĠĠĠĠĠĠĠĠĠĠĠĠĠĠĠ": 16230,
    "anger": 2174,
    "pede": 19932,
    "Ġinsular": 19270,
    "Ġmanagement": 8193,
    "Ġchann": 15939,
    "Ġprofane": 13156,
    "Ġcommotion": 9783,
    "Ġagainst": 1700,
    "Ġwealthy": 18181,
    "brevi": 24078,
    "vill": 10737,
    "Ġcelerity": 17439,
    "oda": 15753,
    "Ġbrig": 11049,
    "Ġmomentarily": 22814,
    "Ġmainten": 16116,
    "swallowed": 14856,
    "usive": 8190,
    "Ġdescended": 7428,
    "Ġcorpusants": 13681,
    "are": 640,
    "mingled": 14716,
    "Ġbigot": 24566,
    "Ġliked": 5265,
    "Ġdine": 7366,
    "Ġstern": 4223,
    "Ġinspector": 6499,
    "Ġsailed": 4889,
    "Ġenigmatical": 20600,
    "Ġmonotonically": 3833,
    "ceive": 3068,
    "itives": 17821,
    "haust": 5777,
    "Ġdeer": 12725,
    "speptic": 23949,
    "athans": 7434,
    "ivot": 11722,
    "burgh": 6774,
    "Ġmurmuring": 23580,
    "Ġcorpulence": 24509,
    "Ġbales": 21392,
    "Ġupheld": 22156,
    "bbed": 6911,
    "Ġlooks": 4168,
    "Ġduring": 873,
    "Ġresurrection": 12899,
    "Ġrelieve": 8224,
    "Ġpostp": 12148,
    "Ġtail": 3092,
    "Ġmarbles": 18874,
    "ified": 3228,
    "clu": 20801,
    "Ġjustified": 11909,
    "Ġbackwards": 12932,
    "Ġoct": 10161,
    "Ġsaturn": 22904,
    "Ġelect": 10844,
    "profess": 10637,
    "icism": 13959,
    "idation": 5022,
    "Ġdu": 4586,
    "ecess": 17534,
    "haired": 14770,
    "figure": 13559,
    "Ġdisquis": 22531,
    "stays": 15693,
    "Ġvastly": 23863,
    "Ġsaw": 1351,
    "Ġagreeing": 20022,
    "cient": 4571,
    "Ġkeels": 11063,
    "turtle": 12216,
    "Ġconfed": 13102,
    "yp": 1044,
    "commend": 19996,
    "Ġverdant": 15004,
    "Ġgum": 21598,
    "Ġpunishment": 9959,
    "conv": 7213,
    "Ġloite": 22115,
    "Ġclients": 19735,
    "Ġdinnertime": 16721,
    "being": 3914,
    "Ġneeds": 6607,
    "Ġhumiliation": 16202,
    "======================================================================": 10071,
    "Ġ21": 11200,
    "Ġsuppose": 2871,
    "Ġpooh": 18604,
    "Ġinheriting": 25355,
    "Ġsweetest": 13252,
    "Ġveter": 15815,
    "Ġdestabilizing": 5053,
    "Ġmott": 17805,
    "ials": 11710,
    "occasionally": 13524,
    "Ġfeasts": 25370,
    "Ġbale": 7838,
    "hark": 15369,
    "Ġcalculus": 23986,
    "Ġtermination": 16462,
    "Ġceased": 6469,
    "Ġunintelligible": 26516,
    "Ġexpanse": 14294,
    "Ġgripping": 26188,
    "Ġprosperity": 20260,
    "Ġmahogany": 20581,
    "Ġaccepted": 7751,
    "y": 93,
    "Ġteacher": 22919,
    "oted": 4599,
    "Ġdepressions": 25799,
    "phants": 9322,
    "Ġpraying": 19557,
    "Ġdepressed": 10885,
    "đ": 210,
    "Ġadmired": 7982,
    "Ġplanted": 9777,
    "uzz": 4525,
    "Ġaromatic": 25926,
    "ropes": 7903,
    "inted": 2648,
    "ues": 2080,
    "thumb": 18219,
    "ryder": 18640,
    "Ġawaited": 17075,
    "forgot": 11035,
    "Ġlapse": 17123,
    "Ġremedy": 18725,
    "Ġcalamity": 17352,
    "Ġnot": 413,
    "icide": 11621,
    "Ġunconcern": 14120,
    "Ġpan": 5082,
    "inguished": 6600,
    "germans": 20568,
    "reast": 17760,
    "excited": 13384,
    "Ġmonument": 16243,
    "Ġvestibule": 13540,
    "Ġfitzwilliam": 5771,
    "Ġtuileries": 24824,
    "ization": 486,
    "Ġletter": 2198,
    "Ġunsolved": 22037,
    "eches": 8078,
    "Ġdeigned": 18144,
    "Ġfashion": 4298,
    "baron": 24926,
    "tra": 5002,
    "Ġpeeping": 16131,
    "Ġfury": 7661,
    "moil": 22708,
    "Ġconge": 15750,
    "Ġperceptibly": 25822,
    "Ġdotted": 16794,
    "nose": 17612,
    "Ġopenly": 8576,
    "Ġimprecate": 20521,
    "recursion": 13333,
    "Ġbrink": 18772,
    "Ġdoubloons": 13438,
    "Ġappointment": 10649,
    "Ġphenomenon": 17919,
    "rowed": 22865,
    "Ġoscill": 2861,
    "doesn": 19823,
    "Ġunmanufactured": 20437,
    "baboon": 25517,
    "Ġdistinction": 8889,
    "Ġandrew": 21510,
    "Ġtor": 8106,
    "eldom": 4413,
    "Ġpretending": 19317,
    "Ġchanging": 11757,
    "ordinary": 4407,
    "Ġservant": 5764,
    "invariably": 26418,
    "Ġextensive": 12947,
    "Ġmut": 3583,
    "Ġdec": 642,
    "Ġuncl": 22020,
    "dict": 15341,
    "dance": 17521,
    "Ġpry": 11603,
    "Ġwarm": 2423,
    "utterly": 20015,
    "empl": 5724,
    "ifts": 12740,
    "Ġidle": 8253,
    "Ġswandam": 11091,
    "Ġsquint": 22839,
    "zed": 8104,
    "Ġmarlingspike": 26581,
    "Ġdiscovers": 4429,
    "ourse": 8873,
    "Ġtorment": 8677,
    "rior": 12747,
    "Ġsu": 433,
    "Ġmiller": 19885,
    "Ġbrains": 2629,
    "Ġscalding": 16334,
    "mistake": 24529,
    "Ġdigest": 24648,
    "Ġsimplest": 16337,
    "brown": 15321,
    "Ġfinancial": 23131,
    "izar": 14046,
    "otent": 8836,
    "deception": 22149,
    "Ġkindly": 6078,
    "Ġsa": 473,
    "gale": 13727,
    "congratulations": 20282,
    "Ġofficers": 4427,
    "itious": 8784,
    "progra": 9398,
    "Ġconceit": 7295,
    "Ġeveryday": 22776,
    "Ġlin": 10835,
    "Ġstupidity": 15052,
    "Ġcrabs": 19176,
    "frozen": 25142,
    "starbuck": 6020,
    "Ġmutable": 23958,
    "Ġnorris": 23204,
    "Ġsav": 3357,
    "Ġrejoined": 14930,
    "Ġnasty": 17446,
    "Ġcoherent": 3263,
    "Ġdischarged": 15224,
    "proceeded": 25191,
    "whel": 7665,
    "Ġridges": 16733,
    "Ġhoped": 5488,
    "rs": 7807,
    "philosophers": 25253,
    "pul": 8757,
    "Ġspouting": 9442,
    "Ġcanst": 8861,
    "private": 13586,
    "Ġoverjoyed": 17461,
    "Ġstrenuously": 17451,
    "Ġdiversity": 25285,
    "overhearing": 19056,
    "Ġineffable": 17335,
    "Ġunwillingness": 20035,
    "Ġfordham": 21780,
    "cabin": 8363,
    "arth": 4444,
    "Ġroofs": 16987,
    "Ġstorms": 11264,
    "declaration": 25176,
    "Ġice": 3604,
    "Ġsho": 2245,
    "Ġcitadel": 25439,
    "imagination": 13484,
    "Ġlikewise": 5386,
    "Ġrecede": 25969,
    "Ġperceiving": 8879,
    "hilar": 25084,
    "hog": 8380,
    "Ġtwisted": 7228,
    "Ġroughs": 19960,
    "Ġsummons": 13236,
    "father": 3777,
    "Ġsavory": 23879,
    "geneva": 13733,
    "Ġ24": 13197,
    "pleasantness": 19773,
    "adequ": 11022,
    "Ġdeal": 3608,
    "sailed": 17668,
    "mat": 2200,
    "Ġwalls": 6763,
    "Ġhunter": 5401,
    "Ġilluminated": 20178,
    "cceed": 4145,
    "moment": 3579,
    "Ġaddressing": 11166,
    "ife": 1024,
    "berish": 22747,
    "Ġanswerable": 23472,
    "Ġsex": 8846,
    "Ġabsent": 7016,
    "ild": 1153,
    "Ġascendency": 20235,
    "Ġworthless": 19568,
    "Ġbradstreet": 9579,
    "Ġforfeit": 21779,
    "Ġglittering": 10056,
    "Ġate": 8844,
    "Ġundeserving": 18269,
    "terrible": 8468,
    "evidence": 25522,
    "Ġsexes": 25172,
    "carrying": 16714,
    "zwilliam": 5074,
    "Ġmagnitudes": 3822,
    "Ġwonderful": 4564,
    "Ġexclaimed": 4684,
    "Ġinner": 9673,
    "Ġsilver": 7464,
    "company": 9463,
    "Ġcape": 5146,
    "Ĵ": 245,
    "Ġju": 10288,
    "Ġflog": 23624,
    "english": 2774,
    "Ġindicated": 10471,
    "Ġlevel": 5020,
    "Ġslabs": 13066,
    "Ġeclipsed": 26378,
    "bey": 10316,
    "Ġhowled": 12860,
    "Ġextremest": 19196,
    "ckles": 22093,
    "Ġoughts": 23904,
    "Ġ5": 4935,
    "Ġhundredth": 16521,
    "chemical": 23811,
    "Ġbegan": 2020,
    "u": 89,
    "harpooneer": 8692,
    "Ġbatch": 888,
    "withdrawn": 23030,
    "Ġspices": 22134,
    "Ġconf": 1821,
    "Ġwishes": 4796,
    "Ġwonderfully": 10432,
    "comfortably": 16877,
    "Ġsickness": 10541,
    "Ġinclinations": 19542,
    "occ": 4486,
    "branch": 23579,
    "Ġsolutions": 1947,
    "using": 5468,
    "ong": 537,
    "Ġintervened": 25482,
    "Ġfearfully": 23513,
    "Ġmaterially": 12196,
    "Ġtener": 21166,
    "Ġlust": 9200,
    "ourselves": 9014,
    "Ġprompt": 3192,
    "romised": 14115,
    "structure": 2379,
    "Ġpaddles": 15151,
    "chair": 5918,
    "Ġmundane": 26431,
    "Ġtattooed": 11380,
    "Ġrnns": 2392,
    "Ġguardianship": 17423,
    "Ġremnants": 22796,
    "ivory": 10271,
    "liness": 8750,
    "Ġroared": 7025,
    "admiration": 11389,
    "Ġdelightfully": 13162,
    "Ġbod": 4583,
    "madly": 24420,
    "Ġchambers": 16801,
    "Ġseaward": 22950,
    "Ĩ": 233,
    "gener": 3129,
    "measure": 10034,
    "ither": 1546,
    "Ġadvised": 16216,
    "Ġsummit": 7731,
    "gallant": 7781,
    "Ġinsists": 23681,
    "Ġbravery": 23840,
    "walked": 10573,
    "spass": 18688,
    "Ġdeaf": 12726,
    "ricted": 15423,
    "Ġproposals": 10616,
    "end": 504,
    "solute": 16600,
    "urable": 8928,
    "Ġdiscompose": 25580,
    "enty": 2919,
    "inery": 17735,
    "iant": 5427,
    "Ġfad": 17878,
    "Ġlying": 4828,
    "Ġground": 2849,
    "Ġdevoid": 18681,
    "Ġcouples": 16854,
    "Ġexult": 10233,
    "Ġtreasure": 9561,
    "crowning": 25749,
    "wig": 17706,
    "Ġvessels": 6757,
    "Ġclinging": 10294,
    "Ġanxious": 4519,
    "shr": 10980,
    "Ġparson": 6689,
    "Ġgowns": 25360,
    "Ġchapters": 10475,
    "uncont": 15778,
    "library": 13004,
    "Ġunsatisfied": 22048,
    "liter": 11504,
    "Ġwearily": 18180,
    "induce": 22378,
    "Ġmay": 925,
    "Ġhemisphere": 26480,
    "atics": 15526,
    "Ġwat": 1286,
    "inch": 10757,
    "satisf": 5781,
    "Ġconsisted": 10421,
    "Ġfrenz": 25447,
    "Ġearliest": 9834,
    "acious": 5562,
    "Ġado": 7627,
    "Ġsuspected": 9065,
    "Ġsaving": 15890,
    "Ġweak": 5098,
    "Ġdesmarest": 22984,
    "purpose": 10047,
    "refuge": 24733,
    "Ġabsorbed": 12335,
    "Ġgrasshopper": 24380,
    "oniously": 21260,
    "Ġlids": 12280,
    "Ġchallenge": 25472,
    "Ġ125": 24470,
    "limping": 26395,
    "Ġinferences": 17937,
    "Ġpadded": 25039,
    "mistress": 14908,
    "insensibility": 23071,
    "aths": 22704,
    "Ġreasoned": 23072,
    "Ġspite": 4158,
    "icuous": 10837,
    "Ġenrolled": 21941,
    "Ġmajesty": 5201,
    "Ġprey": 6416,
    "project": 16428,
    "Ġpacing": 8427,
    "Ġfootfall": 14663,
    "bare": 12445,
    "ceiling": 21630,
    "Ġchristmas": 6924,
    "lifeless": 24314,
    "Ġsupers": 18282,
    "Ġtuck": 10143,
    "regulated": 23469,
    "(_": 7540,
    "shazzar": 15293,
    "pedest": 24823,
    "transom": 19738,
    "Ġwint": 15536,
    "Ġindividually": 22960,
    "Ġinfamous": 16368,
    "Ġworaciousness": 22932,
    "Ġdusty": 14928,
    "traversed": 19650,
    "Ġabusing": 18394,
    "Ġorganization": 7984,
    "Ġasia": 11686,
    "Ĕ": 213,
    "Ġprominence": 18956,
    "Ġjago": 22293,
    "Ġcrush": 9425,
    "Ġpinioned": 21486,
    "sensible": 20055,
    "grandfather": 25012,
    "Ġengineer": 11979,
    "itten": 3441,
    "misrepresented": 24214,
    "Ġsuccessfully": 19432,
    "Ġdynam": 3219,
    "Ġinformed": 6719,
    "Ġploughing": 26261,
    "astonishment": 10033,
    "Ġundivided": 24123,
    "seven": 8466,
    "Ġofficial": 7083,
    "Ġvigorous": 10569,
    "Ġsiberia": 26162,
    "Ġhedgehog": 10647,
    "Ġwitty": 21295,
    "Ġmonsters": 11076,
    "Ġodorous": 19569,
    "according": 12032,
    "Ġbushy": 16404,
    "interesting": 12206,
    "Ġample": 11802,
    "Ġwel": 4528,
    "meanwhile": 10612,
    "Ð": 145,
    "Ġmonica": 22988,
    "rock": 15645,
    "phantoms": 24680,
    "Ġemig": 14526,
    "ashion": 3861,
    "Ġrick": 21977,
    "Ġdignity": 5704,
    "emed": 3380,
    "Ġcomposition": 1689,
    "!âĢĻâĢĿ": 16594,
    "bolt": 25138,
    "Ġresiding": 16065,
    "suspicious": 25391,
    "Ġloaf": 15876,
    "Ġdisorder": 16055,
    "Ġplaid": 22604,
    "/*": 10074,
    "Ġloathing": 15071,
    "level": 2652,
    "topp": 22569,
    "Ġenveloped": 12213,
    "turning": 8317,
    "gypt": 8261,
    "anque": 13891,
    "arle": 21443,
    "Ġsunrise": 9376,
    "Ġimpossibility": 20649,
    "Ġmakest": 25436,
    "batim": 25019,
    "umps": 6319,
    "Ġrus": 14096,
    "comple": 7441,
    "Ġdau": 21428,
    "icking": 8914,
    "bergen": 14342,
    "usion": 3300,
    "ish": 550,
    "Ġpatter": 829,
    "danish": 20835,
    "Ġwhitish": 24867,
    "Ġchooses": 13351,
    "Ġbias": 1192,
    "loa": 18537,
    "Ġcorridor": 10674,
    "ments": 1403,
    "dimens": 2316,
    "Ġincarn": 11818,
    "Ġfall": 2992,
    "Ġfluffy": 19367,
    "origin": 7582,
    "Ġfailed": 6674,
    "grateful": 10430,
    "poises": 11893,
    "Ġhilarious": 20301,
    "compass": 9462,
    "Ġconnected": 5393,
    "Ġborder": 10172,
    "apse": 14201,
    "ructed": 7031,
    "idean": 14265,
    "Ġanno": 9670,
    "hast": 5358,
    "Ġpotent": 12068,
    "Ġimprisonment": 22392,
    "Ġboun": 21383,
    "bewil": 22502,
    "================": 3724,
    "Ġsnoo": 21231,
    "Ġinherit": 25353,
    "Ġselecting": 16683,
    "ales": 3317,
    "Ġtwins": 16124,
    "Ġsolid": 6444,
    "Ġescaped": 6460,
    "Ġoccupations": 9460,
    "Ġtranquilly": 12294,
    "Ġvarying": 15814,
    "Ġhelmet": 19690,
    "Ġconstrained": 19242,
    "Ġthickest": 16657,
    "Ġdost": 7637,
    "Ġelapsed": 7653,
    "Ġruthless": 15289,
    "verity": 14004,
    "derick": 22166,
    "really": 6972,
    "Ġsultanism": 25889,
    "itself": 7834,
    "Ġrefuse": 5739,
    "Ġheeded": 13407,
    "Ġprecaution": 11198,
    "Ġvisible": 4778,
    "Ġmetaphys": 16417,
    "shoe": 14970,
    "Ġassertions": 19950,
    "Ġlads": 8600,
    "Ġcleans": 18950,
    "conjectures": 25181,
    "Ġconcealed": 7495,
    "Ġundue": 25994,
    "Ġsc": 533,
    "ee": 1660,
    "Ġforbidding": 17080,
    "Ġworried": 22929,
    "Ġunaffected": 14125,
    "Ġsuppl": 11080,
    "Ġstall": 12701,
    "Ġfem": 6136,
    "Ġterror": 5124,
    "Ġrepl": 1591,
    "Ġencourage": 10383,
    "Ġerror": 1768,
    "Ġsmack": 9303,
    "izarre": 17392,
    "Ġbye": 12743,
    "silver": 19693,
    "copper": 19190,
    "thence": 23403,
    "Ġcentaurs": 23836,
    "Ġimbued": 17458,
    "thirst": 15829,
    "ule": 6801,
    "Ġiroquois": 26474,
    "prec": 3204,
    "vener": 21114,
    "Ġscaramouch": 23831,
    "iff": 3906,
    "isticated": 1543,
    "Ġlined": 15654,
    "Ġdemanding": 16807,
    "Ġinfirm": 19022,
    "later": 20955,
    "av": 739,
    "Ġunre": 3479,
    "queens": 22913,
    "Ġsable": 15503,
    "att": 1458,
    "Ġuppermost": 15282,
    "lydon": 13992,
    "fain": 13718,
    "Ġcoat": 4555,
    "accessible": 13643,
    "Ġrelevance": 5184,
    "Ġblacksmiths": 19875,
    "returning": 12210,
    "Ġparagra": 15883,
    "Ġanticipation": 17058,
    "Ġquadruped": 20618,
    "Ġtubs": 11372,
    "leaving": 10793,
    "Ġcreated": 2705,
    "Ġdang": 9177,
    "ans": 458,
    "Ġforb": 11666,
    "usions": 6161,
    "Ġbaptized": 25775,
    "ripp": 6406,
    "market": 16841,
    "Ġsisterly": 16307,
    "Ġlocking": 18299,
    "Ġleviathanic": 12085,
    "Ġengineering": 3029,
    "Ġmediocr": 24142,
    "Ġif": 697,
    "Ġliter": 8816,
    "onent": 21251,
    "Ġ12": 5483,
    "Ġtransported": 11281,
    "blubber": 15240,
    "Ġunicorn": 22061,
    "foundered": 20869,
    "Ġetern": 7087,
    "Ġserenity": 10031,
    "Ġislets": 21805,
    "inform": 10146,
    "Ġcyl": 15561,
    "ñ": 178,
    "Ġancestors": 25643,
    "Ġpatched": 16383,
    "Ġshield": 22003,
    "Ġcows": 15557,
    "meditation": 19071,
    "sect": 8153,
    "wonder": 6372,
    "Ġlists": 11168,
    "Ġstaves": 21744,
    "Ġfert": 15586,
    "Ġanimal": 2497,
    "insurance": 18890,
    "police": 10586,
    "Ġpreliminaries": 25177,
    "Ġdrag": 6186,
    "Ġheartily": 6890,
    "ak": 538,
    "oquent": 12504,
    "Ġyale": 21783,
    "Ġgentlemanlike": 12071,
    "Ġflee": 7081,
    "Ġperpetual": 12307,
    "Ġmontan": 22986,
    "Ġmeaning": 1416,
    "Ġdivinest": 25722,
    "odecimo": 11446,
    "Ġnap": 8813,
    "Ġpacked": 9983,
    "Ġlearning": 386,
    "Ġembodiment": 20531,
    "Ġthings": 1963,
    "kill": 13747,
    "ilations": 21725,
    "stat": 21647,
    "Ġraises": 11849,
    "Ġregardless": 19326,
    "princip": 17139,
    "Ġseals": 11699,
    "Ġestimates": 3748,
    "Ġrecommence": 16814,
    "Ġmule": 13865,
    "Ġbrine": 18771,
    "cannot": 5745,
    "sustained": 20571,
    "Ġannoyed": 17202,
    "Ġsurviv": 13439,
    "Ġchag": 15935,
    "Ġtreachery": 15105,
    "Ġfathoms": 9086,
    "Į": 239,
    "Ġfir": 17879,
    "als": 2042,
    "Ġprosecut": 9701,
    "una": 21873,
    "Ġavenue": 13625,
    "humoured": 11238,
    "Ġtimber": 13354,
    "Ġ124": 24469,
    "Ġcopied": 20011,
    "Ġtar": 2563,
    "ituted": 13876,
    "Åĵ": 10746,
    "Ġcrown": 5289,
    "Ġyours": 4124,
    "Ġposture": 24167,
    "Ġbricks": 13566,
    "gird": 20881,
    "velled": 9879,
    "Ġreclining": 26034,
    "Ġdismissed": 12897,
    "abhor": 12712,
    "Ġmeridians": 17358,
    "tor": 15435,
    "Ġslips": 23169,
    "Ġimpatiently": 8338,
    "illuminated": 17456,
    "Ġgods": 6455,
    "da": 17516,
    "Ć": 199,
    "olic": 14044,
    "itaries": 21339,
    "inable": 11558,
    "Ġspatial": 2729,
    "easy": 9595,
    "Ġcontracting": 16015,
    "Ġcirculating": 23376,
    "Ġresponsible": 9889,
    "xes": 21143,
    "Ġsucceeded": 6107,
    "attention": 2109,
    "Ġbarricade": 14662,
    "Ġprecipitate": 19945,
    "Ġstepdaughter": 22615,
    "ouble": 2660,
    "Ġswim": 3820,
    "Ġprev": 6266,
    "Ġlandowner": 23384,
    "Ġdelicious": 14796,
    "ruit": 22185,
    "Ġdan": 8797,
    "mon": 2307,
    "Ġcreases": 22724,
    "Ġpropri": 6740,
    "epend": 3315,
    "cure": 11476,
    "Ġnursery": 19753,
    "Ġveteran": 17453,
    "sheep": 23089,
    "hereditary": 26421,
    "term": 3758,
    "Ġplaying": 6909,
    "Ġconstantly": 11977,
    "Ġcurving": 16236,
    "Ġtraveller": 8049,
    "Ġdish": 6138,
    "Â£": 4813,
    "Ġlies": 5297,
    "Ġhertfordshire": 5377,
    "Ġestates": 16461,
    "Ġpace": 9186,
    "itching": 21338,
    "Ġproceeds": 12082,
    "Ġworker": 23034,
    "Ġredoubled": 23756,
    "conject": 8884,
    "Ġvomit": 21952,
    "Ġbreathlessly": 24283,
    "Ġmirror": 12382,
    "Ġbanking": 19633,
    "arest": 4003,
    "é": 170,
    "injustice": 17739,
    "ckinridge": 11723,
    "Ġsatisfying": 23700,
    "Ġimpud": 18446,
    "Ġdead": 2173,
    "li": 1189,
    "sweet": 8689,
    "Ġgibe": 25960,
    "ascending": 24706,
    "ezes": 9994,
    "Ġspar": 10923,
    "pract": 10122,
    "Ġcosmopolitan": 20643,
    "ivering": 7698,
    "Ġbleak": 10561,
    "bpp": 20774,
    "Ġprairie": 8716,
    "accepting": 20138,
    "Ġlandlady": 10424,
    "Ġparent": 14647,
    "Ġplot": 14283,
    "Ġsold": 6004,
    "ssip": 14082,
    "Ġringle": 18211,
    "Ġinstructing": 3126,
    "Ġdecreed": 18491,
    "les": 1017,
    "tawny": 26406,
    "Ġfeatures": 1432,
    "Ġexe": 3993,
    "opinion": 10987,
    "Ġfiled": 15584,
    "Ġimport": 1039,
    "Ġpadd": 9672,
    "thy": 2938,
    "Ġreplace": 14479,
    "Ġpoultry": 17444,
    "Ġdistinctly": 7311,
    "Ġparties": 7040,
    "palms": 25263,
    "Ġcontemptuously": 19836,
    "Ġjenny": 20165,
    "Ġgro": 4396,
    "Ġcautious": 12258,
    "Ġminds": 6305,
    "ze": 1315,
    "Ġtis": 15468,
    "steelkilt": 10050,
    "Ġblotches": 25315,
    "sincerely": 24585,
    "Ġendeavors": 16549,
    "objection": 19917,
    "must": 3578,
    "Ġrelations": 5854,
    "Ġcoachman": 15002,
    "Ġtennes": 23551,
    "Ġimmensities": 25331,
    "successfully": 14994,
    "Ġnobly": 22245,
    "Ġhair": 3314,
    "eline": 2409,
    "Ġhum": 1097,
    "Ġhours": 2822,
    "directed": 20408,
    "Ġdistur": 5313,
    "Ġcontrived": 10306,
    "introdu": 8940,
    "iah": 14419,
    "Ġremembr": 24173,
    "Ġdeact": 18141,
    "Ġhired": 10180,
    "Ġencountered": 8322,
    "Ġfurnished": 6476,
    "eu": 17532,
    "ordered": 8794,
    "Ġpant": 10819,
    "Ġestimate": 19376,
    "Ġvertebra": 20184,
    "ogra": 4575,
    "classes": 12140,
    "Ġbaleen": 10040,
    "Ġxl": 11994,
    "tem": 6370,
    "descending": 16288,
    "Ġartic": 5315,
    "Ġfading": 15588,
    "deceit": 25557,
    "Ġinsens": 8277,
    "Ġunfulfilled": 26511,
    "Ġflorida": 20661,
    "hollow": 24045,
    "Ġpap": 8802,
    "trivial": 21095,
    "nns": 1894,
    "Ġnearly": 3363,
    "hering": 12819,
    "Ġstiffness": 24828,
    "proved": 11991,
    "listen": 13517,
    "Ġped": 7845,
    "ierce": 14394,
    "Ġbattle": 5909,
    "invincible": 25092,
    "Ġhumiliating": 22887,
    "Ġadie": 8491,
    "Ġtechnically": 12370,
    "Ġeste": 6085,
    "sideways": 14573,
    "precision": 4331,
    "Ġsleepers": 13153,
    "considering": 12179,
    "onely": 6517,
    "Ġsacr": 7194,
    "Ġ86": 24461,
    "Ġgale": 5823,
    "ienced": 5685,
    "stretching": 20502,
    "Ġshores": 8852,
    "baden": 25616,
    "ici": 8441,
    "Ġbounding": 19403,
    "Ġmadden": 10449,
    "Ġpreposter": 12827,
    "Ġexpose": 10330,
    "Ġleaning": 5228,
    "Ġpictured": 16625,
    "Ġsteep": 2893,
    "bitious": 16672,
    "Ġfrolic": 23928,
    "anche": 10790,
    "confirm": 16809,
    "Ġblanket": 8343,
    "Ġdim": 4758,
    "Ġelse": 2477,
    "Ġriver": 5411,
    "Ġsli": 4749,
    "otherwise": 7671,
    "Ġvelvet": 12402,
    "Ġfretfully": 25448,
    "Ġpedro": 15066,
    "relate": 24014,
    "Ġchronic": 9932,
    "Ġdoubted": 7965,
    "iting": 2159,
    "patient": 25343,
    "Ġstarve": 24626,
    "Ġmartyr": 26362,
    "position": 15416,
    "Ġhandspike": 22699,
    "ĠĠĠĠĠĠĠĠĠĠĠĠĠĠĠĠĠĠĠĠĠĠĠĠĠĠĠĠĠĠĠĠĠĠĠĠĠĠĠĠĠĠ": 24212,
    "Ġsoap": 14133,
    "Ġoutsk": 15960,
    "Ġtwos": 18658,
    "generally": 9438,
    "shaw": 6864,
    "Ġpouch": 21472,
    "Ġstates": 1854,
    "Ġcreditor": 24292,
    "receiving": 12548,
    "Ġgained": 4536,
    "becoming": 18517,
    "chorus": 19814,
    "Ġlascar": 9202,
    "Ġoverhear": 15980,
    "Ġpersecut": 16954,
    "'re": 12432,
    "stars": 18022,
    "evid": 11487,
    "Ġsled": 21221,
    "resolutions": 26165,
    "ctuous": 9208,
    "robust": 19731,
    "Ġrestrained": 16376,
    "athy": 14326,
    "antucket": 2643,
    "Ġadmeasure": 18296,
    "Ġabused": 22273,
    "Ġprime": 10406,
    "blame": 14797,
    "games": 20882,
    "Ġscramble": 24579,
    "Ġdarted": 4759,
    "wives": 15458,
    "Ġwo": 3652,
    "mency": 18928,
    "Ġaverage": 3142,
    "Ġhart": 17924,
    "Ġflounders": 23018,
    "ishment": 3506,
    "Ġfiner": 13058,
    "ses": 3031,
    "Ġmutual": 8296,
    "Ġmont": 8562,
    "attentions": 13578,
    "Ġoffing": 16147,
    "Ġmiscell": 16154,
    "their": 2540,
    "Ġfeet": 2257,
    "Ġtype": 2018,
    "twinkle": 23706,
    "allowance": 16826,
    "Ġcreation": 6440,
    "lightning": 16555,
    "Ġprovincial": 20652,
    "Ġcravat": 26308,
    "ķ": 248,
    "herfield": 3631,
    "fig": 8738,
    "Ġgasp": 7173,
    "pierced": 26142,
    "Ġquill": 12862,
    "Ġgrecian": 26297,
    "Ġfelony": 18954,
    "ouching": 13181,
    "Ġbell": 4637,
    "urean": 18125,
    "geons": 15983,
    "Ġrumpled": 24601,
    "rowsers": 8698,
    "elastic": 17983,
    "Ġrickety": 26508,
    "parm": 21016,
    "orers": 14106,
    "Ġbeats": 21756,
    "Ġassist": 3565,
    "Ġquant": 6425,
    "Ġeternity": 12283,
    "Ġcasual": 11411,
    "Ġrail": 7226,
    "Ġohio": 19130,
    "bran": 23575,
    "opÃ¦": 12878,
    "Ġcasement": 25095,
    "Ġwhirlwinds": 20468,
    "Ġrashness": 25461,
    "Ġexpansion": 22630,
    "Ġcomputational": 1627,
    "quakes": 21860,
    "Ġflapp": 23013,
    "Ġnonsensical": 21532,
    "lass": 5994,
    "Ġaffirm": 11891,
    "Ġvag": 9711,
    "Ġashes": 7617,
    "Ġunhappiness": 14121,
    "brow": 15319,
    "Ġenorm": 5304,
    "roused": 16655,
    "mend": 20968,
    "consequ": 18507,
    "charge": 9451,
    "jac": 8382,
    "imaux": 21715,
    "Ġfinger": 5274,
    "Ġstings": 21738,
    "execut": 13659,
    "sec": 6154,
    "verize": 21732,
    "enge": 21283,
    "quely": 10234,
    "Ġimparts": 18447,
    "ampl": 21852,
    "Ġcheering": 11135,
    "=": 33,
    "stretch": 13984,
    "versed": 9828,
    "Ġjoyfully": 19349,
    "icherry": 15139,
    "atically": 2614,
    "hy": 4741,
    "swim": 16781,
    "Ġexhilar": 19686,
    "Ġways": 5396,
    "Ġapprove": 12876,
    "Ġstoried": 18075,
    "aswag": 21549,
    "Ġlead": 3523,
    "contrivance": 26317,
    "Ġpermit": 9752,
    "Ġsecurely": 16804,
    "Ġfiss": 21415,
    "Ġdefault": 3042,
    "Ġprudent": 9188,
    "oline": 6833,
    "fairly": 17222,
    "Ġmunro": 25631,
    "volut": 1560,
    "Ġfel": 1518,
    "helmsman": 24289,
    "Ġcrash": 12006,
    "Ġsupreme": 13611,
    "thin": 14100,
    "Ġdot": 4822,
    "quite": 4648,
    "sculpt": 16248,
    "Ġexpert": 18872,
    "Ġilliterate": 26596,
    "Ġtruth": 3320,
    "unalterable": 21890,
    "Ġoblique": 20172,
    "Ġscreen": 17208,
    "teringly": 21827,
    "Ġseamen": 5063,
    "tur": 5688,
    "anced": 1336,
    "Ġenticements": 26035,
    "happen": 19333,
    "circumspect": 26087,
    "Ġcombinations": 22864,
    "Ġdreadful": 4921,
    "renched": 7907,
    "Ġvulture": 17342,
    "Ġfusion": 21417,
    "Ġremaining": 6190,
    "shape": 10983,
    "Ġletters": 3793,
    "utter": 7594,
    "Ġpassenger": 14372,
    "Ġdiffer": 18680,
    "Ġencodings": 4776,
    "ened": 1386,
    "buffalo": 20566,
    "writhed": 26081,
    "Ġmarching": 16698,
    "Ġdrops": 9035,
    "Ġagonized": 25373,
    "surd": 6934,
    "Ġunflinching": 26514,
    "Ġdoubtless": 6197,
    "Ġwatches": 11084,
    "Ġinsol": 10183,
    "Ġseek": 4510,
    "Ġbandaged": 16844,
    "Ġtone": 4039,
    "Ġheedfully": 24521,
    "Ġitem": 12706,
    "Ġagreeably": 24955,
    "cific": 10088,
    "Ġcounties": 23306,
    "fashion": 8081,
    "spirited": 19756,
    "Ġcontest": 18474,
    "jah": 17583,
    "Ġfaintest": 24570,
    "Ġstrain": 6025,
    "hist": 7132,
    "told": 7811,
    "Ġuncork": 23432,
    "Ġvalleys": 14922,
    "Ġinclude": 1875,
    "Ġevince": 24295,
    "explanations": 25235,
    "Ġauthorized": 16737,
    "Ġunconsciously": 10008,
    "Ġgable": 15671,
    "Ġstories": 10867,
    "Ġhis": 380,
    "perpet": 14164,
    "Ġexcessive": 3893,
    "edged": 15635,
    "Ġappet": 9733,
    "ost": 5361,
    "Ġwisest": 11234,
    "akes": 2219,
    "fight": 17540,
    "ommod": 13980,
    "wil": 8769,
    "Ġuneasy": 8665,
    "fur": 6357,
    "Ġenjoy": 3760,
    "arious": 10319,
    "inforcement": 3047,
    "Ġpatches": 4238,
    "onse": 21252,
    "Ġfastidious": 14495,
    "cept": 553,
    "hold": 3981,
    "Ġ34": 16679,
    "away": 4627,
    "Ġpastures": 23422,
    "Ġpretensions": 16561,
    "Ġshaken": 10267,
    "Ġshadowed": 24050,
    "abern": 21794,
    "Ġmuskets": 17057,
    "Ġsuperseded": 26226,
    "Ġlurch": 21558,
    "Ġagrippa": 11811,
    "Ġmoustache": 20487,
    "Ġdy": 2520,
    "Ġcourse": 2130,
    "Ġascribe": 16784,
    "Ġprocedure": 2810,
    "Ġgibberish": 25787,
    "Ġcoin": 9774,
    "Ġfair": 2840,
    "Ġamply": 22487,
    "Ġembedding": 2103,
    "flying": 13724,
    "Ġnotice": 4544,
    "possibly": 10546,
    "Ġdisplays": 19859,
    "Ġdispleasure": 16056,
    "Ġfresh": 3671,
    "ates": 518,
    "Ġlookest": 22718,
    "cost": 19188,
    "Ġmaddened": 17246,
    "Ġhammers": 13245,
    "Ġcommenting": 25229,
    "Ġinconvenient": 20013,
    "Ġlegisl": 23535,
    "ster": 1952,
    "Ġ235": 25712,
    "Ġcouple": 5423,
    "Ġcomputers": 2644,
    "Ġbay": 9171,
    "shock": 19857,
    "Ġmaintaining": 1508,
    "oard": 4810,
    "istrate": 7406,
    "skelter": 24490,
    "Ġemerge": 14931,
    "pilot": 25909,
    "Ġfabric": 25948,
    "Ġslily": 23167,
    "proposal": 18764,
    "Ġbrightly": 13229,
    "Ġidentifies": 12019,
    "Ġbuoyancy": 20045,
    "Ġgrapnels": 25552,
    "proportions": 22850,
    "ifully": 13190,
    "Ġplaced": 3444,
    "Ġlar": 765,
    "Ġmagic": 8233,
    "Ġbucket": 8792,
    "vering": 15720,
    "Ġdumbly": 24988,
    "Ġcrowd": 6338,
    "Ġcharge": 5325,
    "Ġmig": 13859,
    "heed": 15501,
    "lung": 17593,
    "friend": 3864,
    "osen": 6855,
    "Ġheightened": 8652,
    "Ġcrack": 7710,
    "Ġraise": 6168,
    "Ġfedallah": 6110,
    "getic": 12971,
    "hur": 6651,
    "ature": 521,
    "Ġsentences": 2680,
    "Ġlanding": 11989,
    "uously": 7353,
    "Ġdated": 10941,
    "Ġhud": 10824,
    "Ġregained": 18593,
    "Ġhval": 21490,
    "Ġdragged": 6889,
    "ickering": 22673,
    "Ġtoss": 10187,
    "Ġselected": 9713,
    "rints": 12507,
    "susceptible": 24662,
    "Ġdaughter": 2874,
    "streamed": 25967,
    "Ġclasses": 4054,
    "Ġvivacity": 14944,
    "atre": 17772,
    "Ġloudly": 7312,
    "hopper": 23717,
    "Ġexpense": 7652,
    "spersed": 22736,
    "Ġindependent": 9019,
    "Ġscraggy": 24580,
    "Ġpreluding": 18369,
    "Ġseat": 4949,
    "Ġlively": 5449,
    "Ġslaught": 23170,
    "Ġflourish": 17163,
    "degree": 12806,
    "Ġcreat": 1393,
    ".}": 20747,
    "Ġexercised": 24800,
    "ames": 2958,
    "Ġrobberies": 23009,
    "beyond": 8886,
    "Ġmetropolitan": 17278,
    "Ġsovereign": 10065,
    "Ġsins": 13840,
    "Ġeigenvalues": 4998,
    "Ġtravellers": 11310,
    "bedded": 12447,
    "Ġbestirred": 20454,
    "taller": 26151,
    "Ġscreaming": 13427,
    "tier": 12519,
    "Ġluckless": 16799,
    "Ġcastle": 14720,
    "cele": 21628,
    "rougham": 15997,
    "Ġhip": 17923,
    "Ġmanned": 9274,
    "Ġguard": 6180,
    "dling": 15343,
    "Ġdistributed": 18662,
    "Ġfoul": 7160,
    "Ġascending": 14857,
    "Ġmeanly": 12914,
    "Ġgreenland": 5761,
    "Ġplank": 7035,
    "Ġexpiring": 16102,
    "Ġbeggars": 20632,
    "inal": 15483,
    "Ġsave": 4051,
    "Ġminute": 4279,
    "sof": 17659,
    "Ġhurling": 19112,
    "Ġtooks": 23330,
    "odecimoes": 25319,
    "jer": 12485,
    "cordiality": 25140,
    "Ġyear": 3285,
    "irc": 1730,
    "Ġcongregational": 25105,
    "teenth": 11878,
    "Ġembrace": 16992,
    "prodigious": 17469,
    "ü": 189,
    "Ġshrugged": 12774,
    "Ġhaggard": 17333,
    "weaving": 18667,
    "Ġgoest": 22425,
    "Ġtrappers": 23084,
    "Ġcologne": 12980,
    "deeply": 16182,
    "Ġtoo": 1164,
    "Ġweap": 6157,
    "Ġdented": 17893,
    "lins": 2024,
    "ward": 705,
    "mates": 5073,
    "disgust": 23498,
    "Ġhampshire": 15246,
    "Ġapprehensiveness": 16879,
    "Ġmasses": 10506,
    "ensity": 11817,
    "shop": 14239,
    "arpo": 1757,
    "Ġgout": 21599,
    "Ġsuggestions": 24453,
    "Ġupbraiding": 26228,
    "Ġhedge": 8364,
    "Ġshakespeare": 20310,
    "Ġwaiting": 4323,
    "forced": 11033,
    "Ġdrew": 3537,
    "Ġdenominated": 15232,
    "dissatisfied": 26614,
    "Ġdisenc": 22530,
    "Ġanchors": 12618,
    "Ġspect": 3553,
    "Ġhostile": 19943,
    "Ġpassers": 18760,
    "bering": 18695,
    "neck": 14244,
    "Ġtimbers": 14842,
    "Ġdesc": 771,
    "Ġstrangers": 8314,
    "Ġducks": 25161,
    "Ġterrors": 6918,
    "alo": 7588,
    "oled": 17621,
    "Ġmort": 3460,
    "Ġnathan": 21529,
    "03": 20750,
    "ared": 770,
    "onings": 21255,
    "Ġcraven": 16472,
    "Ġconsult": 6058,
    "Ġparacels": 13671,
    "Ġdreaminess": 23943,
    "delights": 19704,
    "Ġpulpit": 7470,
    "Ġcordially": 16838,
    "Ġlovel": 10274,
    "retired": 11940,
    "ope": 4125,
    "Ġbutterfly": 19912,
    "ctive": 11626,
    "etical": 13961,
    "Ġtig": 13816,
    "Ġnarrowed": 24355,
    "Ġdrenched": 12608,
    "Ġremarkable": 4916,
    "Ġknow": 633,
    "Ġvows": 15812,
    "Ġexpectation": 6904,
    "Ġnurse": 9520,
    "Ġbloodshed": 23803,
    "Ġexasper": 8469,
    "Ġaval": 15496,
    "edily": 17946,
    "adventures": 20259,
    "elstrom": 17984,
    "afternoon": 13191,
    "mountain": 10715,
    "Ġconvergence": 974,
    "atement": 17775,
    "Ġwaterproof": 19088,
    "levelled": 23645,
    "erns": 8782,
    "Ġminister": 18753,
    "Ġfind": 1459,
    "Ġslammed": 20451,
    "Ġfact": 1728,
    "caut": 20814,
    "senses": 25025,
    "Ġwidely": 8033,
    "Ġdaughters": 4422,
    "ĠâĢľâĢĺ": 8506,
    "Ġbracing": 16583,
    "lic": 17589,
    "Ġclutched": 13522,
    "sav": 8097,
    "Ġreversed": 15701,
    "Ġfearless": 9878,
    "Ġinferior": 8366,
    "leather": 13893,
    "Ġarray": 12814,
    "teen": 6371,
    "arius": 14251,
    "Ġmincing": 18752,
    "ets": 1159,
    "Ġfright": 3797,
    "Ġcheerfully": 12139,
    "risonment": 17378,
    "Ġenglishman": 11231,
    "Ġquadr": 8200,
    "causes": 20346,
    "Ġdictionaries": 12344,
    "Ġremem": 4313,
    "scure": 22991,
    "ulity": 10888,
    "Ġswears": 16465,
    "Ġheated": 21685,
    "missing": 13224,
    "Ġuncomp": 15845,
    "ergy": 2359,
    "Ġpure": 6139,
    "Ġpig": 5705,
    "icious": 7380,
    "yd": 21145,
    "immedi": 8452,
    "Ġlasted": 11055,
    "Ġlongest": 18629,
    "usually": 10287,
    "Ġfun": 524,
    "Ġaberdeen": 26543,
    "supper": 12925,
    "Ġalice": 1485,
    "databases": 3028,
    "doc": 23379,
    "Ġmutters": 23959,
    "une": 2786,
    "sorting": 17006,
    "paused": 17377,
    "Ġretention": 23074,
    "monster": 8595,
    "Ġpreser": 6042,
    "Ġaverages": 2396,
    "mouthful": 25209,
    "bulwarks": 12277,
    "ductive": 23939,
    "entle": 1740,
    "Ġparac": 12800,
    "Ġcataract": 23430,
    "Ġharpooned": 13266,
    "Ġimbecile": 17395,
    "Ġopulent": 23630,
    "Ġvisitors": 7985,
    "irregular": 21915,
    "Ġniag": 21533,
    "vable": 10135,
    "Ġprehensile": 26536,
    "Ġrecursive": 4783,
    "Ġdiminishing": 4210,
    "Ġhideous": 5984,
    "Ġnightmare": 18921,
    "Ġcottages": 14730,
    "Ġinsult": 6749,
    "Ġflourished": 15129,
    "Ġconsists": 11982,
    "Ġdiff": 3118,
    "Ġsnorting": 23743,
    "Ġinaudible": 21502,
    "vain": 15450,
    "Ġwhereof": 16106,
    "Ġchaise": 9079,
    "Ġoffered": 5817,
    "Ġspare": 5102,
    "Ġmarvell": 7248,
    "Ġmournfully": 20120,
    "Ġbelieving": 8225,
    "dances": 17523,
    "swam": 24257,
    "Ġmonsie": 11449,
    "sip": 10727,
    "assment": 9742,
    "Ġfloundering": 16255,
    "Ġsharpen": 13573,
    "Ġelectric": 15198,
    "dare": 12458,
    "peare": 18913,
    "shroud": 20313,
    "Ġgallon": 24187,
    "Ġmagnific": 16322,
    "Ġprovid": 1009,
    "Ġsloop": 25931,
    "bil": 20773,
    "Ġdiscover": 4719,
    "scra": 13027,
    "Ġdeficient": 18826,
    "excepting": 19709,
    "Ġchivalrous": 20518,
    "Ġphilipp": 23887,
    "itor": 12571,
    "Ġinquirers": 24965,
    "Ġkilling": 13337,
    "Ġfrightful": 7736,
    "Ġcarefully": 6306,
    "Ġtemper": 956,
    "Ġlouder": 13472,
    "jets": 20930,
    "Ġlarboard": 11011,
    "arranging": 19320,
    "Ġbrick": 8929,
    "upwards": 18865,
    "Ġga": 4447,
    "Ġremorselessly": 16969,
    "ver": 331,
    "Ġrepelled": 19085,
    "gy": 2096,
    "Ĉ": 201,
    "its": 1149,
    "mut": 17597,
    "ispens": 8336,
    "iscient": 17853,
    "Ġnatures": 16508,
    "pudding": 17649,
    "Ġfixedly": 19250,
    "Ġnam": 17951,
    "Ġimplac": 24875,
    "Ġsince": 1797,
    "concealed": 25118,
    "Ġcomposure": 7217,
    "Ġincrease": 9372,
    "Ġtwinkled": 14315,
    "australian": 20564,
    "represented": 20198,
    "Ġdropped": 4472,
    "uts": 8820,
    "contained": 22474,
    "Ġaddition": 1146,
    "Ġperturbation": 20444,
    "Ġbust": 10170,
    "Ġtelegra": 11896,
    "Ġprize": 11952,
    "part": 2573,
    "Ġpossess": 3206,
    "tiger": 13800,
    "orously": 8420,
    "Ġopp": 2695,
    "Ġconcre": 16393,
    "objections": 19918,
    "Ġsublim": 19970,
    "Ġensigns": 23692,
    "Ġesq": 15112,
    "Ġappearance": 3700,
    "ophisticated": 22482,
    "aze": 10078,
    "medi": 2628,
    "rain": 461,
    "ignorantly": 25190,
    "Ġouthouse": 22318,
    "aders": 21762,
    "Ġresentful": 24632,
    "rimsh": 17029,
    "rawling": 21639,
    "Ġcore": 13881,
    "Ġunsur": 22026,
    "Ġ----": 7146,
    "touch": 8392,
    "importance": 9992,
    "Ġarrive": 6907,
    "castle": 3350,
    "colonel": 8285,
    "scoured": 22996,
    "Ġovertake": 15977,
    "naturalist": 23545,
    "erate": 7150,
    "delirium": 14788,
    "Ġreassure": 21675,
    "dron": 17527,
    "$": 8,
    "housekeeper": 24104,
    "Ġfevers": 22211,
    "Ġstray": 18072,
    "Ġrise": 5637,
    "Ġago": 3139,
    "centred": 25020,
    "living": 7135,
    "Ġthrusting": 10555,
    "Ġseized": 4835,
    "sleet": 20152,
    "Ġmorocc": 22982,
    "Ġexperienced": 6585,
    "Ġshortened": 23484,
    "Ġhol": 1183,
    "Ġprying": 15613,
    "uced": 13803,
    "Ġhessian": 3549,
    "Ġassent": 12738,
    "Ġsolemnly": 8023,
    "Ġredden": 15698,
    "though": 2115,
    "Ġ71": 24262,
    "Ġunprotected": 22071,
    "Ġstash": 18070,
    "exclaimed": 11794,
    "prov": 16426,
    "erve": 12554,
    "Ġnoisy": 13323,
    "visit": 7755,
    "Ġshoes": 7073,
    "mph": 20974,
    "Ġglue": 15678,
    "rip": 9244,
    "Ġrocking": 10971,
    "held": 3841,
    "Ġdimension": 3242,
    "Ġkindred": 16378,
    "thest": 11657,
    "shook": 19858,
    "Ġprofit": 14587,
    "Ġfestival": 25446,
    "Ġlistless": 16478,
    "Ġrobustness": 18880,
    "prospect": 23399,
    "Ġonset": 12715,
    "machines": 8385,
    "function": 4569,
    "Ġcope": 17832,
    "expression": 10550,
    "Ġplowdon": 26449,
    "Ġsling": 21223,
    "bourgh": 19105,
    "Ġhearts": 4972,
    "amped": 12037,
    "intern": 23738,
    "arising": 17897,
    "Ġsituated": 9450,
    "S": 55,
    "Ġhoneymoon": 25646,
    "Ġtrivial": 10145,
    "Ġclever": 7056,
    "Ġtattoo": 7359,
    "enough": 6810,
    "Ġcitizens": 25440,
    "Ġalmost": 1657,
    "inde": 17733,
    "Ġhydraul": 9517,
    "Ġinclination": 6626,
    "ust": 495,
    "Ġirreproachable": 24918,
    "Ġthirst": 7590,
    "Ġwor": 1190,
    "ud": 912,
    "Ġmate": 3708,
    "Ġquart": 11791,
    "Ġ182": 13241,
    "achment": 5464,
    "whilst": 18372,
    "valley": 16209,
    "Ġechoed": 20427,
    "Ġwhitney": 11375,
    "eminent": 25107,
    "ocean": 12405,
    "Ġarm": 2490,
    "Ġsplashing": 16553,
    "impenet": 18056,
    "valued": 2856,
    "Ġmanhood": 22330,
    "bones": 8372,
    "uning": 1312,
    "Ġgiant": 13971,
    "Ġcorresponding": 13442,
    "americans": 25045,
    "Ġfacing": 10174,
    "Ġrecovery": 11443,
    "ident": 3379,
    "Ġcovari": 2336,
    "ativeness": 15524,
    "Ġgait": 13335,
    "Ġdeified": 18143,
    "Ġjealousy": 13580,
    "Ġaut": 1798,
    "Ġsensibility": 14517,
    "Ġsuspending": 19246,
    "subject": 6634,
    "rence": 5555,
    "Ġcomply": 8894,
    "Ġaccounting": 14574,
    "locked": 7678,
    "Ġgaz": 4043,
    "Ġsurm": 7476,
    "Ġcondensed": 24057,
    "Ġrecol": 4027,
    "uck": 1234,
    "Ġcalhoun": 23048,
    "Ġalgorithm": 773,
    "Ġthro": 5818,
    "Ġscorched": 17102,
    "Ġbags": 24537,
    "otently": 21804,
    "Ġlengthen": 15658,
    "itoring": 21335,
    "Ġenthusiastic": 19969,
    "opportunity": 12279,
    "Ġstrewed": 23424,
    "forty": 9377,
    "canallers": 22974,
    "Ġknives": 14840,
    "Ġchaplain": 19914,
    "Ġtents": 13821,
    "honest": 17005,
    "Ġpewter": 17188,
    "Ġhilarity": 20300,
    "Ġpermission": 9282,
    "spread": 8389,
    "ded": 2756,
    "acing": 2716,
    "Ġnonce": 23235,
    "Ġfumbling": 21420,
    "Ġreptile": 15281,
    "oked": 4308,
    "ignantly": 23269,
    "operation": 13504,
    "commanding": 24751,
    "Ġpassed": 2009,
    "Ġshows": 8485,
    "personal": 24966,
    "entire": 6824,
    "Ġharmless": 9968,
    "tain": 558,
    "irm": 3111,
    "Ġborn": 5224,
    "Ġmist": 2881,
    "ratulations": 20129,
    "Ġult": 9077,
    "share": 14238,
    "Ġwilds": 16511,
    "combe": 7663,
    "destro": 13314,
    "experienced": 15125,
    "force": 12964,
    "aples": 20770,
    "bro": 4032,
    "feature": 3968,
    "Ġpipes": 9852,
    "Ġfaultless": 24540,
    "Ġconvinced": 4207,
    "Ġsounds": 5190,
    "Ġbrown": 6300,
    "Ġtomorrow": 21516,
    "Ġguide": 3217,
    "Ġshudder": 9053,
    "Ġsomewhere": 5384,
    "Ġciv": 3309,
    "Ġbam": 15570,
    "Ġalbert": 12711,
    "forgetting": 25486,
    "Ġshipped": 9718,
    "Ġattach": 14291,
    "Ġphilosophers": 10554,
    "Ġoozy": 21330,
    "Ġrobinson": 17466,
    "Ġupward": 9724,
    "Ġadversarial": 5607,
    "Ġterms": 2562,
    "ech": 4389,
    "Ġpasseng": 12976,
    "among": 6258,
    "abriel": 6950,
    "Ġmythologies": 26215,
    "Ġbuzz": 24000,
    "Ġlustrous": 20159,
    "merged": 11195,
    "Ġsquaw": 22840,
    "order": 1961,
    "omit": 13977,
    "endering": 21287,
    "aven": 8209,
    "Ġreveren": 13201,
    "Ġfurniture": 6477,
    "Ġgemin": 21613,
    "hill": 15366,
    "Ġlye": 21554,
    "gans": 11492,
    "Ġwhine": 21718,
    "Ġevid": 3501,
    "Ġrowing": 10303,
    "Ġhawsers": 26504,
    "Ġform": 1023,
    "Ġanalysis": 1942,
    "comed": 8548,
    "Ġphase": 14474,
    "Ġlambton": 10660,
    "Ġunwell": 22021,
    "till": 6966,
    "Ġunhappily": 18263,
    "orate": 10802,
    "Ġkeeled": 18807,
    "ashing": 4826,
    "folio": 10549,
    "sign": 8388,
    "94": 4804,
    "Ġsemblance": 20736,
    "certain": 3677,
    "Ġfleetness": 20182,
    "Ġes": 8773,
    "Ġattent": 4360,
    "Ġimaginative": 19249,
    "Ġtroubling": 26548,
    "Ġbowed": 6244,
    "Ġtakings": 20575,
    "Ġrags": 18646,
    "th": 408,
    "¹": 122,
    "sou": 12510,
    "in": 262,
    "Ġwantonly": 22897,
    "âĢľâĢĺ": 1486,
    "Ġhides": 16269,
    "ela": 21572,
    "ear": 8734,
    "vine": 10736,
    "Ġpeleg": 3739,
    "Ġbarn": 11590,
    "ě": 220,
    "ilar": 10218,
    "Ġrelationship": 2314,
    "ented": 4348,
    "beef": 18521,
    "Ġlot": 6680,
    "Ġworm": 9165,
    "Ġexchange": 15760,
    "Ġsacred": 10932,
    "abated": 14023,
    "Ġmassa": 19457,
    "Ġfe": 490,
    "Ġpudding": 17918,
    "disappointed": 25192,
    "Ġapproximates": 2416,
    "Ġblew": 9048,
    "Ġlay": 585,
    "Ġstabbed": 25457,
    "Ġachieved": 13170,
    "lux": 14228,
    "by": 1157,
    "intercourse": 14640,
    "Ġacquaint": 13050,
    "Ġfig": 3625,
    "narr": 12501,
    "sequence": 2860,
    "buoy": 7761,
    "engagement": 14461,
    "Ġuproar": 22159,
    "ort": 523,
    "Ġpoliteness": 8274,
    "Ġescorted": 23508,
    "dimly": 15350,
    "Ġyelling": 18099,
    "ady": 998,
    "tains": 10964,
    "Ġbeloved": 5572,
    "iries": 18170,
    "Ġpeas": 8536,
    "Ġrecompense": 14841,
    "Ġwol": 15533,
    "abez": 10225,
    "Ġhome": 2026,
    "Ġfiftieth": 24702,
    "Ġpopular": 6218,
    "aspect": 10196,
    "Ġnon": 1626,
    "Ġaffrighted": 13576,
    "Ġoccupies": 24011,
    "enthus": 17980,
    "Ġwhisper": 6207,
    "urning": 12922,
    "Ġlivelihood": 24773,
    "rob": 5534,
    "Ġduplicate": 17218,
    "Ġungracious": 18259,
    "feren": 766,
    "ilies": 18059,
    "Ġtrampling": 25493,
    "Ġguitar": 16274,
    "Ġsaws": 23052,
    "Ġwards": 17791,
    "Ġpartial": 2127,
    "Ġreckoned": 24743,
    "Ġmalicious": 10560,
    "Ġmind": 1620,
    "pleasures": 24051,
    "Ġtrained": 8505,
    "bbs": 23695,
    "Ġrefers": 1565,
    "hatchway": 25905,
    "Ġorph": 9720,
    "iscreet": 20685,
    "Ġdeclaring": 19423,
    "Ġmes": 17798,
    "Ġnative": 4642,
    "Ġcre": 887,
    "cleanliness": 25872,
    "Ġfantastic": 10062,
    "Ġcod": 8413,
    "Ġdif": 872,
    "photograph": 16156,
    "planted": 11702,
    "Ġoppressive": 20458,
    "Ġeuroc": 14962,
    "Ġviolet": 19090,
    "Ġcolt": 11046,
    "arity": 1301,
    "Ġpriest": 7526,
    "copyright": 5278,
    "Ġunfortunately": 10911,
    "Ġadieus": 25113,
    "Ġsales": 12812,
    "Ġcapture": 3384,
    "Ġdepose": 22612,
    "Ġoldest": 12978,
    "lengths": 24847,
    "Ġshouting": 10525,
    "Ġtradeoff": 2657,
    "Ġbeaks": 21759,
    "swed": 24256,
    "utility": 21590,
    "Ġacutely": 14317,
    "Ġalternative": 19990,
    "Ġquench": 22423,
    "Ġparagraph": 17457,
    "Ġnois": 4268,
    "animal": 16980,
    "Ġendless": 7055,
    "Ġafrica": 12349,
    "riv": 3112,
    "Ġhearers": 15707,
    "greatly": 16626,
    "somehow": 12016,
    "70": 17478,
    "inridge": 11563,
    "cked": 2762,
    "unct": 18157,
    "Ġ44": 16681,
    "collecting": 26082,
    "Ġcap": 2360,
    "Ġthen": 665,
    "Ġuniformly": 19149,
    "marks": 7346,
    "Ġtick": 8109,
    "form": 493,
    "itical": 5802,
    "Ġprecise": 7077,
    "Ġindians": 14412,
    "Ġpractically": 13104,
    "Ġrecourse": 22740,
    "Ġsweet": 3467,
    "Ġsoot": 14132,
    "soundest": 24796,
    "ornamented": 26597,
    "Ġcross": 1370,
    "Ġcomp": 725,
    "Ġassemblage": 26354,
    "mered": 8218,
    "awful": 23117,
    "verse": 9691,
    "evidently": 20348,
    "Ġrecently": 11865,
    "iot": 9603,
    "judge": 13341,
    "elt": 4115,
    "houses": 9602,
    "Ġtelegraph": 25584,
    "Ġaccess": 9750,
    "vineyard": 25422,
    "Ġproducts": 5198,
    "Ġflight": 6582,
    "Ġcapital": 7980,
    "Ġwane": 21291,
    "faint": 17547,
    "Ġstore": 8455,
    "sloop": 26146,
    "quick": 6401,
    "Ġacquiesced": 25494,
    "Ġpropagating": 20636,
    "itchen": 7788,
    "Ġswings": 11089,
    "disgu": 19157,
    "icts": 22411,
    "Ġtask": 1310,
    "ingu": 2118,
    "Ġprophetic": 20023,
    "Ġserpent": 6739,
    "\"": 6,
    "Ġbest": 1975,
    "Ġkilled": 4955,
    "having": 5211,
    "glorious": 19370,
    "abiding": 21797,
    "Ġspears": 12929,
    "Ġforeboding": 20387,
    "Ġwednesday": 9087,
    "Ġlingering": 11381,
    "Ġtoward": 17949,
    "otics": 10226,
    "Ġcreations": 18682,
    "affording": 23780,
    "Ġpraise": 6487,
    "Ġwaldman": 11347,
    "Ġmotions": 8281,
    "sorrow": 12513,
    "Ġfearful": 6199,
    "sides": 12512,
    "Ġsending": 8779,
    "Ġpoorly": 9858,
    "Ġobliter": 14325,
    "Ġattics": 22624,
    "Ġharpoone": 2914,
    "Ġschoolmaster": 16864,
    "body": 2306,
    "Ġlegend": 14576,
    "rene": 5379,
    "}": 97,
    "Ï": 144,
    "Ġaffect": 1384,
    "Ġguiding": 19243,
    "Ġblanche": 18821,
    "oused": 6558,
    "nowled": 5470,
    "Ġphant": 7057,
    "friends": 8306,
    "Ġenchanting": 17040,
    "oblivious": 26584,
    "Ġadventurous": 16735,
    "Ġpittance": 15621,
    "Ġproceeded": 5336,
    "own": 745,
    ".,": 5989,
    "ug": 1769,
    "Ġsche": 1707,
    "ilege": 22260,
    "Ġtrad": 9831,
    "Ġtenderness": 12220,
    "Ġaccommod": 14215,
    "Ġgeorge": 3749,
    "Ġhymn": 24518,
    "Ġremorseless": 13455,
    "Ġrefusing": 11030,
    "Ġinhabitant": 19758,
    "icil": 17974,
    "Ġcreating": 3001,
    "Ġpit": 3419,
    "Ġstriding": 16097,
    "fly": 13717,
    "Ġunbending": 25465,
    "nostril": 26561,
    "Ġolder": 9330,
    "Ġbranded": 14382,
    "rippa": 11343,
    "Ġcontrivance": 17186,
    "eternal": 17985,
    "Ġfree": 3375,
    "Ġrode": 16002,
    "Ġdesponding": 25869,
    "Ġrecital": 16146,
    "Ġreliability": 22884,
    "Ġstow": 21734,
    "ishmael": 18421,
    "Ġamiable": 4270,
    "Ġmariner": 7247,
    "Ġchildren": 3767,
    "etw": 406,
    "Ġstarlight": 24627,
    "Ġdecoyed": 18493,
    "daughter": 8354,
    "Ġthundering": 24293,
    "awn": 3835,
    "Ġsails": 5257,
    "Ġbehaves": 23304,
    "wrong": 13210,
    "estic": 4956,
    "Ġdest": 2237,
    "Ġconsented": 11297,
    "osely": 9268,
    "Ġculprit": 26173,
    "Ġwondering": 7971,
    "iteness": 4392,
    "Ġinmost": 17933,
    "Ġexternal": 8365,
    "scrape": 25699,
    "ufact": 10735,
    "urious": 21706,
    "Ġburn": 3684,
    "Ġbed": 2151,
    "Ġfinish": 7949,
    "Ġdreaded": 8289,
    "Ġsentimental": 24753,
    "Ġderision": 16312,
    "Ġtransc": 12868,
    "Ġaccumulates": 2894,
    "Ġserene": 8167,
    "Ġices": 21157,
    "Ġmaw": 15544,
    "Ġkeep": 2354,
    "Ġplanisphere": 26609,
    "Ġfringed": 17275,
    "Ġunceasing": 20361,
    "ose": 717,
    "Ġhull": 5446,
    "brew": 11475,
    "Ġhitting": 21491,
    "Ġstowing": 18074,
    "Ġbaff": 10801,
    "utherland": 9581,
    "ulia": 18151,
    "consid": 4925,
    "cano": 18847,
    "Ġvis": 1069,
    "advantage": 8662,
    "Ġappre": 5165,
    "Ġpol": 2577,
    "Ġacres": 14316,
    "eli": 3875,
    "Ġshaved": 22006,
    "Ġcr": 2150,
    "furniture": 20245,
    "berries": 22750,
    "cloudless": 20335,
    "Ġunallied": 22036,
    "Ġcaut": 6522,
    "Ġconsec": 21809,
    "Ġcheshire": 13095,
    "Ġardour": 8043,
    "Ġawkward": 7075,
    "Ġarguing": 25471,
    "Ġjoke": 8871,
    "Ġpistol": 7847,
    "impatience": 25501,
    "Ġrelu": 1045,
    "opement": 10314,
    "Ġbarbs": 10534,
    "Ġelab": 22646,
    "cet": 15328,
    "Ġsevent": 18201,
    "Ġgospel": 18003,
    "Ġrob": 1274,
    "Ġeliminating": 20623,
    "ouses": 5163,
    "Ġleaking": 21749,
    "Ġisinglass": 21806,
    "Ġreally": 2161,
    "Ġloose": 4650,
    "Ġlatitudes": 9499,
    "Ġsord": 21222,
    "Ġhumour": 7932,
    "Ġextracting": 11113,
    "Ġnarwhales": 24903,
    "inquire": 16934,
    "Ġferule": 24499,
    "Ġstab": 10864,
    "ored": 3896,
    "ipping": 2207,
    "westward": 25425,
    "Ġglistening": 12369,
    "Ġ110": 24435,
    "Ġsignific": 3828,
    "december": 25559,
    "Ġthrill": 24541,
    "ley": 1818,
    "range": 3495,
    "Ġdesertion": 24786,
    "Ġinspired": 2517,
    "Ġimpunity": 14220,
    "Ġmountain": 3372,
    "Ġdeliciousness": 24129,
    "ĠâĢĶâĢľ_": 17720,
    "exceed": 7911,
    "Ġuntamed": 19166,
    "Ġducking": 17149,
    "rals": 21045,
    "towards": 5003,
    "Ġbordered": 24564,
    "educ": 10830,
    "Ġhaze": 18197,
    "ank": 1364,
    "Ġforebodings": 17307,
    "Ġastir": 14642,
    "Ġsecre": 5493,
    "Ġspecimens": 18859,
    "Ġgraze": 18227,
    "romang": 22009,
    "alling": 6038,
    "Ġhumorousness": 25378,
    "ts": 961,
    "Ġmerryweather": 9525,
    "Ġornaments": 17455,
    "otions": 7181,
    "cou": 13699,
    "Ġcoun": 4180,
    "Ġsteeple": 19290,
    "utored": 15667,
    "Ġemblaz": 16233,
    "Ġdiabol": 11455,
    "Ġcrippled": 25279,
    "Ġaccomplishment": 19668,
    "Ġpunctil": 20117,
    "Ġmyster": 5927,
    "Ġimp": 581,
    "morning": 4860,
    "Ġdispirited": 23885,
    "off": 1887,
    "plings": 11701,
    "osures": 22265,
    "ti": 8390,
    "Ġaffectionate": 5585,
    "aulets": 18622,
    "Ġfut": 15579,
    "Ġventing": 19496,
    "Ġblotted": 20220,
    "contempl": 13195,
    "roy": 7854,
    "deemed": 18316,
    "Ġmoluccas": 25630,
    "consc": 4842,
    "peculiar": 6886,
    "Ġinterven": 10999,
    "Ġmain": 808,
    "Ġusefulness": 19411,
    "Ġsymphony": 26534,
    "atter": 651,
    "Ġsoothingly": 25050,
    "Ġburgled": 23655,
    "Ġsurest": 19058,
    "Ġwipe": 25765,
    "Ġstruct": 2784,
    "utting": 17987,
    "truth": 9922,
    "Ġgasping": 17039,
    "Ġpacific": 5153,
    "undant": 14795,
    "Ġmurmured": 7480,
    "Ġmud": 11576,
    "Ġsult": 10769,
    "hooked": 23718,
    "Ġpoetic": 17104,
    "Ġhardware": 4905,
    "Ġgrop": 12669,
    "Ġnaval": 16901,
    "Ġdons": 17890,
    "Ġdraws": 19439,
    "Ġalternately": 15034,
    "Ġslee": 8977,
    "Ġscornful": 25000,
    "rings": 10724,
    "retrie": 18926,
    "Ġgrandeur": 8631,
    "conditional": 9081,
    "asked": 8915,
    "L": 48,
    "Ġinconven": 7587,
    "Ġimprecations": 25821,
    "itying": 21998,
    "Ġheadlong": 11892,
    "Ġtriumphal": 24371,
    "towing": 17691,
    "Ġcour": 1770,
    "Ġvernal": 23891,
    "Ġhelplessly": 20081,
    "ictions": 14229,
    "arers": 12134,
    "ired": 1446,
    "ibilities": 13017,
    "dropping": 14985,
    "guessed": 25873,
    "Ġtrooped": 24900,
    "Ġpolynes": 16083,
    "heavenly": 20048,
    "Ġjoy": 3187,
    "Ġtheoretically": 3567,
    "noo": 9792,
    "Ġcharitable": 23273,
    "Ġserpents": 13081,
    "Ġrods": 9757,
    "Ġholder": 6726,
    "non": 9614,
    "Ġgardens": 16453,
    "Ġastonishing": 10504,
    "Ġpet": 4588,
    "Ġseren": 7401,
    "Ġobsolete": 26560,
    "Ġflowing": 14416,
    "gee": 15981,
    "Ġ109": 24416,
    "Ġforcing": 3226,
    "Ġinstrum": 6056,
    "Ġwrench": 12562,
    "tea": 18741,
    "cares": 24311,
    "Ġmiraculous": 13551,
    "anter": 9169,
    "Ġstingy": 25456,
    "Ġdecaying": 2247,
    "Ġdive": 10175,
    "restraint": 18980,
    "Ġmoods": 14954,
    "Ġneedn": 19231,
    "Ġasylum": 13670,
    "Ġdrawback": 23993,
    "Ġembatt": 18839,
    "Ġartfully": 22611,
    "Ġadmiration": 5329,
    "Ġpersuade": 5874,
    "Ġkrus": 18350,
    "Ġsmelling": 16070,
    "Ġrunning": 3951,
    "Ġshipping": 14107,
    "Ġmastiff": 23727,
    "Ġtwenty": 3949,
    "Ġprofound": 5497,
    "zers": 21149,
    "Ġbodiless": 24229,
    "verbally": 25361,
    "Ġblameless": 19861,
    "lances": 15387,
    "inferences": 17741,
    "Ġsol": 1102,
    "Ġconventional": 25548,
    "Ġeloped": 22649,
    "Ġfri": 17880,
    "Ġdialogue": 12408,
    "Ġsailors": 4277,
    "superst": 11327,
    "Ġimpact": 10299,
    "impul": 16559,
    "Ġsympathised": 14865,
    "iors": 9128,
    "Ġplays": 12041,
    "Ġpsalmody": 20588,
    "Ġobstacles": 19838,
    "top": 4487,
    "Ġwave": 7576,
    "Ġgang": 9210,
    "Ġmaintainable": 12940,
    "gunw": 17223,
    "Ġpalmed": 24095,
    "Ġecon": 9680,
    "Ġdisco": 3427,
    "alescence": 15928,
    "mar": 4335,
    "Ġrept": 13986,
    "everlasting": 18773,
    "Ġimmort": 19487,
    "Ġtransformations": 3485,
    "entials": 22662,
    "spot": 9793,
    "Ġconsternation": 9862,
    "Ġbaker": 4697,
    "oftentimes": 19424,
    "pigs": 17143,
    "Ġpreservation": 24631,
    "Ġdiamond": 15603,
    "Ġroy": 4230,
    "Ġbestow": 6456,
    "Ġbroods": 23105,
    "ering": 1266,
    "ishes": 6524,
    "Ġcorroded": 18877,
    "Ġhorrors": 10482,
    "Ġrainbows": 19651,
    "strongly": 24685,
    "loo": 10322,
    "Ġane": 9184,
    "Ġant": 4345,
    "Ġpugnacious": 26453,
    "Ġstretch": 6994,
    "Ġecc": 11631,
    "itance": 13871,
    "Ġaberde": 22281,
    "ilt": 2972,
    "umblings": 23897,
    "Ġter": 2052,
    "_.âĢĿ": 5887,
    "Ġinstruction": 14347,
    "Ġowes": 20088,
    "Ġsublime": 8066,
    "Ġprocess": 562,
    "Ġexam": 3712,
    "Ġbloodthirsty": 26603,
    "Ġagreed": 7030,
    "Ġwade": 17786,
    "Ġignorant": 5344,
    "Ġelephants": 9867,
    "Ġneedle": 8275,
    "instinctively": 26329,
    "Ġshun": 11713,
    "Ġancestry": 25642,
    "Ġcoloss": 11048,
    "Ġinvestigated": 25387,
    "Ġdelicate": 6481,
    "whims": 22243,
    "cas": 20796,
    "Ġjackal": 24242,
    "Ġfatt": 15583,
    "Ġtist": 21165,
    "revol": 12545,
    "suddenly": 6494,
    "Ġcasts": 19429,
    "Ġforming": 7044,
    "Ġdirest": 22712,
    "Ġdisconsolate": 20721,
    "Ġmediterranean": 12319,
    "Ġblended": 16223,
    "Ġinhabitants": 7524,
    "Ġstructural": 2798,
    "ouch": 2780,
    "agony": 14072,
    "Ġsevere": 6033,
    "Ġli": 602,
    "iment": 2817,
    "poison": 14395,
    "Ġeels": 21623,
    "Ġledger": 19405,
    "dressing": 11484,
    "Ġunfrequent": 24112,
    "Ġunimpe": 22076,
    "wharf": 20609,
    "Ġchart": 10947,
    "Ġconsciousness": 9951,
    "Ġweights": 897,
    "Ġzone": 14361,
    "Ġresource": 10995,
    "Ġportraits": 20145,
    "illating": 22111,
    "beware": 16043,
    "Ġwayward": 22877,
    "forks": 26389,
    "Ġinfer": 7684,
    "Ġreneg": 21678,
    "Ġhuge": 4701,
    "tracks": 19649,
    "cooper": 19191,
    "Ġvac": 5025,
    "Ġgrass": 5177,
    "ra": 314,
    "mantel": 26396,
    "Ġcrossed": 6070,
    "Ġwidespread": 20678,
    "Ġturns": 4981,
    "Ġprocesses": 3634,
    "Ġprovided": 6578,
    "ful": 660,
    "Ġjoining": 13168,
    "distinguish": 19575,
    "_).âĢĶ": 8685,
    "Ġdeterminate": 23007,
    "Ġreusable": 13561,
    "Ġsingular": 4425,
    "acknowled": 10977,
    "Ġembellished": 25850,
    "Ġcoll": 8221,
    "Ġsallied": 12542,
    "Ġelig": 9781,
    "Ġchowders": 18386,
    "voices": 21120,
    "Ġsquared": 1381,
    "rudent": 6483,
    "opy": 4459,
    "cheerfulness": 20183,
    "history": 15017,
    "ezing": 10576,
    "Ġdevoting": 22720,
    "Ġunlucky": 10053,
    "Ġhun": 1496,
    "water": 4869,
    "Ġsideways": 6184,
    "Ġtarshish": 12033,
    "Ġtransient": 18481,
    "Ġhanging": 5447,
    "Ġindeed": 1682,
    "Ġbulwarks": 5592,
    "talked": 14988,
    "Ġunspeakably": 25173,
    "Ġquarrels": 16569,
    "Ġ69": 19664,
    "Ġrepugnant": 26592,
    "izes": 883,
    "bag": 7542,
    "smile": 23909,
    "pur": 7806,
    "Ġitself": 2521,
    "Ġconsum": 9802,
    "Ġpersonages": 23541,
    "Ġtension": 13827,
    "Ġroof": 6566,
    "Ġpermanent": 13635,
    "Ġpassing": 4315,
    "pshaw": 21030,
    "izer": 2028,
    "Ġruffled": 25837,
    "Ġbulkington": 14679,
    "church": 8140,
    "Ġbo": 795,
    "Ġrecollections": 10515,
    "Ġoper": 2119,
    "Ġphilips": 5410,
    "ess": 411,
    "Ġsums": 2906,
    "Ġregions": 10326,
    "offic": 7466,
    "Ġpaces": 13922,
    "Ġrepaid": 19082,
    "Ġconverse": 11848,
    "Ġgreeted": 23214,
    "Ġnetherfield": 3931,
    "Ġimpatient": 5603,
    "Ġnapole": 15119,
    "gam": 10098,
    "marked": 9051,
    "Ġanalogy": 25640,
    "Ġrattling": 11397,
    "Ġbath": 9661,
    "introduction": 15127,
    "minded": 9040,
    "arial": 5532,
    "Ġsurround": 4619,
    "Ġfable": 15581,
    "inu": 1116,
    "Ġ275": 20114,
    "Ġaimed": 20253,
    "Ġspiral": 14586,
    "Ġdefer": 18824,
    "Ġpestilent": 25778,
    "tick": 17680,
    "Ġdizzy": 21435,
    "Ġtandem": 26413,
    "Ġstriving": 8999,
    "Ġhugh": 15006,
    "Ġdub": 13912,
    "Ġgive": 1715,
    "Ġthereupon": 18435,
    "Ġsupplies": 20329,
    "Ġconcent": 8250,
    "prophet": 16185,
    "Ġadam": 2125,
    "Ġsibbald": 21233,
    "Ġschemes": 11133,
    "ashtego": 4102,
    "Ġfangs": 12602,
    "inition": 11559,
    "Ġstun": 11653,
    "law": 6117,
    "Ġemployment": 8632,
    "Ġdining": 6978,
    "rets": 12546,
    "Ġglove": 14494,
    "uteness": 17988,
    "conspicuous": 26249,
    "Ġepistle": 24905,
    "Ġqueens": 16705,
    "Ġfronted": 23260,
    "star": 12677,
    "Ġprovinc": 16744,
    "Ġcetacea": 20556,
    "Ġmelancholy": 5606,
    "Ġfatigued": 13469,
    "Ġdiscreet": 16484,
    "Ġcompiled": 22574,
    "Ġshrieking": 24757,
    "Ġpound": 12621,
    "Ġhing": 11607,
    "Ġbarmaid": 19337,
    "mark": 5282,
    "susp": 10599,
    "Ġadvancement": 24475,
    "Ġrepast": 16413,
    "Ġsmooth": 2778,
    "ichron": 22172,
    "omination": 21645,
    "Ġdisasters": 16058,
    "Ġtrack": 7450,
    "vial": 17699,
    "Ġtorn": 6001,
    "Ġdeployment": 11212,
    "Ġadult": 18292,
    "soles": 18685,
    "Ġeth": 17718,
    "Ġmysteriously": 24602,
    "Ġcrane": 23439,
    "reliable": 21243,
    "ĠĠĠĠĠĠĠĠĠĠĠĠĠĠĠĠ": 1220,
    "Ġprep": 4193,
    "Ġexaggerate": 25650,
    "Ġreplaced": 13076,
    "Ġstandpoint": 23281,
    "perquis": 22194,
    "Ġaccursed": 9466,
    "wind": 4253,
    "Ġplanned": 14755,
    "Ġbread": 5404,
    "Ġinconsiderable": 21498,
    "Ġappeared": 2775,
    "ariously": 18525,
    "cturn": 17989,
    "frantic": 24285,
    "subs": 14305,
    "Ġcetacean": 25879,
    "Ġtrapped": 23079,
    "Ġperuvian": 18454,
    "Ġding": 12604,
    "Ġjerked": 19835,
    "Ġindustry": 18838,
    "Ġlandlord": 5581,
    "Ġargued": 13633,
    "alization": 732,
    "Ġforced": 4352,
    "Ġunfair": 19510,
    "generations": 23788,
    "erranean": 9337,
    "Ġpasses": 2677,
    "Ġlightly": 13088,
    "âĢ": 294,
    "Ġvindication": 25365,
    "Ġexpatiate": 18626,
    "waters": 11335,
    "Ġdisregard": 22532,
    "Ġsimultaneous": 22591,
    "lished": 8383,
    "Ġdirect": 1473,
    "Ġspectators": 19410,
    "Ġrashly": 20308,
    "hecy": 21209,
    "Ġenquired": 21944,
    "Ġsituations": 10494,
    "requirements": 24858,
    "front": 12175,
    "scent": 13026,
    "Ġstolen": 14010,
    "Ġmoul": 15548,
    "condescended": 26250,
    "lat": 9607,
    "Ġswish": 23056,
    "Ġdemig": 20359,
    "Ġbreaches": 14523,
    "Ġmarshalled": 25316,
    "bad": 12440,
    "ilogue": 21728,
    "Ġpink": 12623,
    "ately": 1738,
    "Ġbriskly": 25312,
    "Ġlengthwise": 10454,
    "Ġcaptains": 7457,
    "Ġdirt": 15598,
    "itche": 7579,
    "Ġforbade": 15218,
    "ĠâĢĻ": 3048,
    "Ġcol": 1058,
    "Ġscanning": 18409,
    "boat": 3362,
    "Ġ550": 19639,
    "Ġfinest": 10395,
    "Ġmother": 2068,
    "Ġapprised": 18359,
    "Ġprecipices": 12282,
    "Ġoun": 13866,
    "Ġtrampled": 20331,
    "Ġcapst": 8599,
    "circled": 24190,
    "record": 16923,
    "wonders": 17146,
    "Ġsleep": 2398,
    "Ġhorizon": 6635,
    "oriously": 17876,
    "Ġserv": 3329,
    "application": 12367,
    "hopeless": 16919,
    "Ġjurors": 17347,
    "fiercely": 25257,
    "supposed": 13320,
    "Ġfoundations": 11075,
    "started": 10847,
    "v": 90,
    "Ġsentiments": 7961,
    "either": 6792,
    "fil": 12467,
    "Ġcaved": 21356,
    "Ġyellowish": 24430,
    "Ġscream": 5936,
    "Ġresidence": 8207,
    "encyclopÃ¦dia": 16666,
    "Ġwollstonecraft": 26427,
    "reclining": 20577,
    "Ġxliv": 23411,
    "_âĢĿ": 20763,
    "ermost": 7430,
    "aries": 6246,
    "Ġbrilliant": 11416,
    "Ġstowed": 21740,
    "several": 5544,
    "Ġinc": 702,
    "Ġresembled": 18036,
    "Ġquivered": 18468,
    "seen": 2885,
    "Ġdraw": 3672,
    "Ġswallowed": 7944,
    "distressed": 24202,
    "vigorous": 25918,
    "Ġhappily": 9334,
    "baked": 20781,
    "Ġreflect": 6576,
    "Ġadhering": 14143,
    "Ġannounce": 13343,
    "bation": 9106,
    "Ġpurporting": 19184,
    "reas": 990,
    "Ġsuccour": 20438,
    "Ġstubbornness": 25380,
    "Ġliberty": 7762,
    "Ġwaifing": 25244,
    "Ġneuron": 1809,
    "Ġbewil": 11660,
    "Ġimpro": 913,
    "Ġfacet": 15589,
    "Ġdoran": 9182,
    "heat": 15500,
    "Ġslipper": 24268,
    "Ġrural": 21974,
    "Ġoccur": 1081,
    "appear": 13202,
    "liked": 10511,
    "Ġrenewing": 19813,
    "Ġsemicirc": 16396,
    "queness": 18150,
    "Ġcigar": 9548,
    "Ġvaults": 17156,
    "woods": 13423,
    "Ġener": 10898,
    "erably": 7573,
    "Ġsaxe": 13632,
    "maker": 12497,
    "Ġconfounded": 16387,
    "Ġjeopardy": 13600,
    "kingly": 20941,
    "Ġsacrific": 15020,
    "Ġcruis": 14626,
    "Ġ80": 24456,
    "Ġseen": 1366,
    "softened": 20413,
    "Ġsinned": 18953,
    "](": 11468,
    "Ġmonoman": 7939,
    "Ġheadache": 22902,
    "Ġrespectfully": 18995,
    "Ġboarders": 16602,
    "Ġbrain": 2088,
    "Ġeasiest": 23538,
    "Ġcrushed": 9426,
    "Ġprejudice": 9078,
    "owers": 12689,
    "ancient": 9658,
    "advise": 24220,
    "caus": 11478,
    "dor": 12456,
    "Ġcounting": 13100,
    "Ġapparelled": 20440,
    "opp": 6963,
    "Ġfervently": 25878,
    "Ġpractises": 23321,
    "Ġloft": 5642,
    "Ġmortal": 4683,
    "Ġexcuses": 19044,
    "transition": 24513,
    "Ġdogs": 7742,
    "Ġglance": 4234,
    "om": 315,
    "Ġmatrim": 11062,
    "pleasure": 5979,
    "Ġ115": 24439,
    "Ġsuffice": 18870,
    "ĠĠĠĠĠĠĠĠĠĠĠĠĠĠĠĠĠĠĠĠĠĠĠĠĠĠĠĠĠĠĠĠĠĠĠĠĠĠĠĠĠĠĠĠ": 12158,
    "Ġireland": 17338,
    "ositories": 22268,
    "actually": 14298,
    "deadly": 17101,
    "lott": 6653,
    "Ġresulting": 24201,
    "devils": 20036,
    "Ġconflag": 20338,
    "Ġar": 479,
    "Ġslope": 14463,
    "Ġheaded": 11056,
    "Ġemac": 16409,
    "Ġinterrupt": 4359,
    "aff": 3105,
    "Ġbuoyed": 20044,
    "magn": 10613,
    "hunting": 24385,
    "Ġmail": 17802,
    "Ġamerica": 6764,
    "fold": 7546,
    "Ġorganize": 8994,
    "agers": 5633,
    "Ġunsupplied": 22047,
    "Ġaunts": 21203,
    "Ġdeft": 21841,
    "Ġguardian": 14945,
    "stood": 4116,
    "apparently": 15208,
    "return": 5489,
    "Ġproceedings": 9910,
    "restoration": 23237,
    "Ġbeque": 18083,
    "companion": 9560,
    "Ġcontrary": 5261,
    "Ġwakeful": 24269,
    "Ġmadness": 6603,
    "Ġcanaller": 25468,
    "alley": 23026,
    "ls": 1290,
    "Ġtim": 4580,
    "Ġstomach": 11656,
    "pled": 7892,
    "]": 65,
    "isation": 13896,
    "Ġevaluation": 16517,
    "answers": 22144,
    "Ġpurchases": 24755,
    "Ġdress": 4019,
    "nable": 13765,
    "Ġarranging": 11176,
    "Ġcass": 13882,
    "flies": 19427,
    "necessary": 5883,
    "particularly": 8340,
    "asant": 17961,
    "Ġrespects": 7269,
    "Ġha": 400,
    "sheets": 14445,
    "Ġperilous": 7769,
    "Ġconfess": 3766,
    "desper": 13223,
    "Ġhandling": 8916,
    "Ġsebastian": 11700,
    "Ġjoppa": 12040,
    "Ġengaging": 9339,
    "Ġjot": 11766,
    "Ġendeavor": 16548,
    "Ġgreeting": 18964,
    "Ġvariety": 8533,
    "Ġaustralia": 15236,
    "Ġchurned": 18385,
    "era": 13850,
    "8": 28,
    "renew": 24450,
    "í": 174,
    "rad": 2153,
    "Ġincensed": 18572,
    "bable": 8722,
    "anely": 17838,
    "tru": 10731,
    "Ġdisregarded": 22534,
    "Ġrasc": 21981,
    "Ġegg": 8823,
    "Ġbabel": 24426,
    "Ġwafted": 14501,
    "Ġgid": 13965,
    "Ġtipt": 21176,
    "Ġsustenance": 19937,
    "painful": 13505,
    "ateur": 22010,
    "Ġcentrally": 23835,
    "onement": 21259,
    "thes": 7391,
    "stealthily": 23965,
    "Ġrueful": 25582,
    "pips": 21022,
    "months": 9074,
    "securer": 25603,
    "muring": 17603,
    "reporting": 24494,
    "Ġcoinc": 11003,
    "Ġhung": 4561,
    "Ġmarvels": 11086,
    "ces": 578,
    "simple": 13456,
    "ville": 6088,
    "Ġvariance": 1167,
    "retrospect": 23144,
    "Ġsymbol": 7717,
    "interchange": 23741,
    "gall": 6361,
    "lion": 20946,
    "quimaux": 21863,
    "Ġinfinity": 23285,
    "nineteenth": 26139,
    "Ġcontraction": 16012,
    "Ġpersons": 6182,
    "attempts": 17193,
    "Ġbeaches": 18087,
    "blacksmith": 17003,
    "Ġinfant": 11964,
    "courage": 17512,
    "Ġconflict": 17276,
    "Ġsynthe": 26008,
    "Ġtoilette": 20496,
    "Ġunh": 9256,
    "Ġostrich": 26432,
    "stolen": 13985,
    "lights": 13209,
    "Ġdives": 17892,
    "ĝ": 222,
    "reputation": 15518,
    "Ġexal": 10879,
    "Ġsnaky": 23744,
    "Ġreasons": 6021,
    "expound": 23662,
    "lynes": 15708,
    "Ġdisease": 14260,
    "bies": 15316,
    "Ġbedfellow": 16441,
    "moving": 11019,
    "imodal": 17450,
    "Ġstands": 5259,
    "Ġassuming": 16694,
    "orphans": 26442,
    "Ġcircum": 8258,
    "Ġspiteful": 19525,
    "outer": 9671,
    "Ġsurpr": 2550,
    "Ġstaid": 21739,
    "confused": 19642,
    "re": 266,
    "Ġholland": 10368,
    "Ġcheek": 8581,
    "Ġassented": 17341,
    "Ġbrotherly": 16530,
    "az": 2183,
    "Ġlook": 879,
    "Ġconsideration": 5191,
    "threaten": 25462,
    "people": 7677,
    "Ġexig": 21831,
    "accusations": 23601,
    "Ġlewis": 15729,
    "Ġsoft": 1460,
    "uttural": 21592,
    "Ġpossibly": 4515,
    "Ġassailed": 23180,
    "Ġverge": 23890,
    "Ġpartners": 11857,
    "Ġauger": 21206,
    "Ġfinished": 5044,
    "Ġexertions": 13414,
    "unting": 21878,
    "Ġdischar": 11812,
    "Ġsleeve": 20143,
    "inder": 9155,
    "Ġsubt": 11872,
    "attending": 18918,
    "Ġfixing": 13160,
    "Ġsister": 1476,
    "glanced": 19369,
    "```": 25894,
    "Ġfloor": 4378,
    "luded": 4229,
    "departure": 15238,
    "Ġostentatiously": 20472,
    "Ġcheap": 13094,
    "Ġwra": 5907,
    "Ġthoroughfare": 16946,
    "Ġflooded": 24962,
    "unaccountable": 15783,
    "Ġtroubles": 19442,
    "adding": 21765,
    "Ġtiger": 11557,
    "Ġexasperate": 20101,
    "thouse": 21986,
    "dead": 8180,
    "Ġburst": 4380,
    "elements": 25204,
    "gods": 13371,
    "Ġgrowl": 16541,
    "Ġeddies": 25089,
    "Ġblaming": 22933,
    "Ġan": 286,
    "Ġnoted": 15834,
    "Ġsigmoid": 2459,
    "Ġchinks": 22255,
    "Ġunique": 12783,
    "sea": 4764,
    "access": 11182,
    "Ġmayhew": 12955,
    "resting": 23236,
    "Ġquestioning": 10466,
    "twice": 14623,
    "tumultuous": 20402,
    "troubled": 17113,
    "chet": 13221,
    "Ġequals": 4728,
    "Ġnovelist": 24776,
    "Ġexchanging": 18135,
    "Ġrepositories": 23367,
    "Ġstoner": 7179,
    "Ġcaprice": 14578,
    "Ġclust": 9277,
    "sun": 7141,
    "Ġtwee": 22678,
    "Ġfleeting": 19329,
    "Ġcomfits": 21851,
    "Ġallegor": 25546,
    "Ġbaron": 19336,
    "Ġsakes": 18327,
    "bur": 4688,
    "etian": 13962,
    "Ġperiod": 4002,
    "Ġbridegroom": 10607,
    "Ġrhone": 25231,
    "Ġjackson": 24243,
    "sey": 5543,
    "isbury": 21380,
    "oll": 5456,
    "Ġapp": 494,
    "Ġassum": 4064,
    "Ġpublished": 11243,
    "Ġshell": 11740,
    "Ġsnugly": 17112,
    "Ġprove": 5231,
    "Ġswearing": 16466,
    "95": 17480,
    "Ġgossip": 18470,
    "Ġangles": 23590,
    "Ġxxxvi": 24972,
    "Ġimproving": 1210,
    "Ġaback": 22270,
    "âĢĶ(": 15942,
    "pinn": 21028,
    "Ġmerciless": 25247,
    "made": 4809,
    "Ġhopkins": 23132,
    "Ġdat": 499,
    "tables": 19760,
    "Ġgradually": 3400,
    "Ġtroops": 24899,
    "Ġelusive": 22650,
    "Ġholidays": 22924,
    "atious": 10154,
    "Ġproportions": 16470,
    "Ġscrewed": 15124,
    "Ġhumped": 19772,
    "Ġstoutly": 16926,
    "Ġcompass": 4408,
    "Ġbaked": 21389,
    "Ġtried": 3649,
    "Ġhappened": 3714,
    "Ġbespe": 19244,
    "Ġproc": 5545,
    "native": 17614,
    "Ġunjust": 8486,
    "chari": 21692,
    "assin": 22309,
    "Ġcalculates": 13269,
    "Ġaw": 2509,
    "ational": 5716,
    "gus": 13728,
    "rot": 21535,
    "Ġdemo": 10882,
    "Ġstreaming": 19676,
    "Ġrest": 1783,
    "Ġhandfuls": 17212,
    "Ġluxur": 12345,
    "Ġfit": 3685,
    "punctual": 26357,
    "Ġaudio": 24771,
    "Ġsheath": 14154,
    "Ġmagn": 1555,
    "ription": 5676,
    "cabinet": 25080,
    "Ġyoungest": 7954,
    "Ġgenerous": 6273,
    "dial": 20827,
    "disc": 4730,
    "centre": 17088,
    "recollected": 25348,
    "Ġsobs": 14135,
    "Ġwrites": 23201,
    "Ġpair": 5706,
    "hug": 17565,
    "Ġpreface": 18368,
    "leep": 4636,
    "Ġwerter": 15243,
    ":--âĢľ": 24550,
    "behaved": 24463,
    "Ġsoldier": 16922,
    "Ġpretended": 19316,
    "glass": 9912,
    "arnel": 18130,
    "Ġobservable": 25129,
    "well": 1692,
    "romed": 10907,
    "Ġprofited": 19193,
    "Ġodds": 13334,
    "Ġhumph": 22886,
    "Ġhalloa": 13321,
    "ringle": 21043,
    "Ġamateur": 22490,
    "Ġcommunic": 5751,
    "Ġcatastrop": 3348,
    "friendship": 24053,
    "Ġpropag": 16351,
    "arts": 6565,
    "Ġkeenest": 12166,
    "Ġoften": 1957,
    "chop": 21691,
    "oded": 11673,
    "Ġmemo": 18120,
    "Ġdisk": 22526,
    "laying": 19775,
    "Ġderived": 8239,
    "Ġburton": 23654,
    "Ġstretching": 10018,
    "Ġgregarious": 18965,
    "Ġcorre": 3889,
    "phere": 21021,
    "Ġhieroglyphic": 25588,
    "Ġjealous": 9471,
    "_.": 2213,
    "Ġstil": 15722,
    "ots": 3294,
    "amous": 15765,
    "uncontrollable": 20599,
    "Ġimmortal": 8018,
    "port": 10721,
    "wild": 8771,
    "Ġ120": 16860,
    "Ġmusky": 19385,
    "Ġtrappings": 23085,
    "Ġsigns": 2440,
    "Ġthat": 335,
    "Ġprepared": 5878,
    ".--": 20748,
    "Ġpon": 10178,
    "Ġmanly": 22328,
    "ific": 489,
    "Ġrehearsed": 25972,
    "overlooked": 23328,
    "Ġgree": 7595,
    "lies": 15385,
    "iguous": 18046,
    "bethink": 25745,
    "Ġphrenolog": 12338,
    "dred": 2526,
    "bec": 4052,
    "anoke": 21364,
    "Ġsteamer": 17191,
    "Ġdrab": 13075,
    "urance": 10859,
    "-------": 20392,
    "Ġlawless": 19438,
    "Ġbedrooms": 19973,
    "Ġvalu": 5038,
    "Ġsheltered": 19913,
    "Ġgossiping": 26245,
    "Ġdazzling": 15215,
    "partiality": 13164,
    "Ġcub": 8415,
    "erm": 784,
    "Ġsolemn": 4099,
    "airs": 2222,
    "Ġthinks": 6171,
    "Ġher": 426,
    "Ġatrocious": 21947,
    "Ġstanzas": 21748,
    "monkey": 19172,
    "Ġcrashes": 13130,
    "irous": 8843,
    "Ġdocument": 15021,
    "Ġexpressive": 8985,
    "Ġeternally": 11371,
    "adequate": 15207,
    "vig": 15449,
    "Ġ1828": 25720,
    "actor": 11842,
    ";--": 8069,
    "Ġdilatory": 24704,
    "Ġawfulness": 23589,
    "Ġrestlessness": 23295,
    "_": 67,
    "bearers": 18522,
    "together": 3557,
    "ensils": 22552,
    "Ġriding": 14098,
    "Ġmoderately": 22226,
    "Ġthw": 21518,
    "Ġtopsails": 19195,
    "Ġextend": 18687,
    "iding": 3847,
    "þ": 191,
    "Ġmusty": 22683,
    "izzy": 3098,
    "83": 13684,
    "utted": 15665,
    "itable": 5437,
    "Ġkindled": 19031,
    "Ġfar": 1452,
    "Ġeucl": 24708,
    "imper": 14000,
    "ing": 273,
    "journey": 8748,
    "Ġlonged": 6437,
    "protest": 24812,
    "Ġoffence": 12950,
    "Ġdevotees": 25377,
    "<UNK>": 3,
    "Ġsimpl": 1578,
    "earth": 6503,
    "Ġmeadows": 11424,
    "mming": 1172,
    "scale": 3535,
    "Ġclenched": 14207,
    "Ġdishon": 12235,
    "Ġspam": 7631,
    "Ġgrapple": 25812,
    "stochastic": 3774,
    "U": 57,
    "Ġabased": 22272,
    "Ġbarbarous": 13480,
    "Ġsoc": 3525,
    "Ġcountry": 2532,
    "Ġpointing": 5661,
    "regard": 7974,
    "Ġincompetent": 25680,
    "udding": 11869,
    "Ġchopping": 24222,
    "quee": 4131,
    "Ġanomaly": 25637,
    "Ġintrude": 25991,
    "persecut": 22193,
    "smart": 23910,
    "ek": 1908,
    "inglass": 21305,
    "Ġprogeny": 17391,
    "Ġmississ": 18840,
    "Ġfreighted": 16326,
    "Ġdownwards": 8532,
    "rimin": 2421,
    "Ġchord": 22249,
    "Ġglory": 6066,
    "ingly": 2135,
    "Ġbearded": 15731,
    "Ġprophesied": 26063,
    "ove": 1745,
    "Ġhatches": 12049,
    "pertaining": 22192,
    "strate": 12679,
    "Ġbambooz": 26120,
    "conditionally": 24835,
    "shrugged": 22454,
    "Ġastr": 15497,
    "rib": 1945,
    "stupid": 12681,
    "Ġprender": 22239,
    "footed": 19692,
    "Ġmatted": 22915,
    "Ġhurst": 5582,
    "sm": 3434,
    "Ġimprudent": 12853,
    "cab": 7333,
    "Ġlikened": 16502,
    "Ġfail": 4151,
    "Ġcaution": 11348,
    "royal": 11395,
    "Ġenjoined": 18192,
    "gent": 7131,
    "Ġbritish": 11339,
    "Ġcash": 9655,
    "akers": 9743,
    "meryton": 10114,
    "movement": 25579,
    "niest": 18997,
    "begin": 8887,
    "Ġcommunication": 1871,
    "entreaties": 26187,
    "compliments": 24807,
    "new": 1467,
    "Ġdivin": 13277,
    "key": 5462,
    "Ġrewarded": 14943,
    "Ġmarvel": 23040,
    "word": 2485,
    "birth": 15325,
    "ative": 741,
    "Ġconveyed": 8335,
    "Ġsoften": 23126,
    "Ġbefall": 8833,
    "kitchen": 17587,
    "ph": 919,
    "hun": 5210,
    "Ġlessons": 7692,
    "Ġwidow": 8666,
    "beth": 13692,
    "hangs": 15372,
    "Ġvi": 1953,
    "Ġjet": 5309,
    ")": 13,
    "Ġignor": 4010,
    "trying": 15441,
    "Ġflights": 24752,
    "particip": 23618,
    "Ġsubsisted": 19119,
    "sence": 3307,
    "Ġconspicuous": 13607,
    "Ġnarwhale": 12297,
    "Ġincredible": 9518,
    "inferior": 12398,
    "Ġwonderland": 23427,
    "ert": 2631,
    "Ġcord": 5222,
    "unavoidable": 17393,
    "Ġimproved": 7657,
    "didst": 19352,
    "Ġsight": 2110,
    "flesh": 13494,
    "Ġintellig": 525,
    "Ġbes": 2659,
    "Ġexempl": 21835,
    "sell": 13784,
    "Ġstarbuck": 2195,
    "elter": 21574,
    "Ġpia": 21467,
    "Ġcorpse": 6641,
    "Ġunobstructed": 18265,
    "connected": 1309,
    "Ġilluminate": 17195,
    "Ġinsomuch": 23686,
    "Ġintervening": 17270,
    ",âĢĿ": 579,
    "Ġengraving": 17081,
    "trial": 20353,
    "Ġsudden": 1998,
    "Ġclouds": 5775,
    "istic": 969,
    "Ġsplendid": 17216,
    "``": 15310,
    "Ġquohog": 10974,
    "_).": 5888,
    "Ġpredestinated": 18535,
    "Ġwithhold": 18118,
    "furthest": 19844,
    "Ġminor": 12973,
    "Ġimposing": 11785,
    "Ġonto": 14031,
    "Ġmantle": 25275,
    "consol": 9765,
    "Ġalas": 5923,
    "food": 12468,
    "advent": 10223,
    "inuating": 16206,
    "Ġcobb": 14275,
    "eyeing": 14949,
    "90": 12436,
    "Ġlays": 15993,
    "Ġtransparent": 9492,
    "Ġsuggest": 5417,
    "ained": 3069,
    "Ġbland": 11066,
    "Ġcontracted": 12865,
    "Ġevangelist": 20341,
    "thodox": 21992,
    "Ġcursed": 6728,
    "Ġplant": 8903,
    "Ġmultitude": 9328,
    "Ġocean": 3304,
    "Ġwolves": 25935,
    "round": 3368,
    "Ġandromeda": 21511,
    "Ġinteractions": 12908,
    "Ġensued": 11396,
    "Ġromans": 16761,
    "Ġcommands": 16591,
    "inspector": 13650,
    "died": 11482,
    "Ġglimmered": 20174,
    "cl": 1494,
    "ked": 5616,
    "Ġinaccessible": 13937,
    "even": 3838,
    "Ġcin": 13878,
    "calm": 8937,
    "Ġpreviously": 3920,
    "Ġche": 1765,
    "idered": 4554,
    "Ġseverity": 15821,
    "ubb": 1650,
    "+": 15,
    "nels": 12500,
    "Ġwhit": 7178,
    "appetite": 22848,
    "room": 2180,
    "Ġaries": 21200,
    "Ġmanifested": 17160,
    "Ġlocker": 16913,
    "disappeared": 14572,
    "uce": 11538,
    "Ġleaves": 5021,
    "asher": 15650,
    "Ġdiving": 12606,
    "sutherland": 21065,
    "west": 10741,
    "Ġcontinent": 14891,
    "Ġprosper": 10231,
    "Ġunqualified": 22065,
    "Ġlone": 11616,
    "Ġfing": 3757,
    "Ġalleviated": 26205,
    "ondency": 15273,
    "Ġrendering": 16660,
    "Ġnocturnal": 20717,
    "Ġrheumatic": 20707,
    "Ġsteersman": 13047,
    "Ġwelfare": 12564,
    "Ġbring": 3324,
    "Ġislanders": 19505,
    "Ġcontemplative": 19895,
    "Ġnext": 2139,
    "Ġmightiest": 12966,
    "chambers": 25455,
    "tut": 15437,
    "ailed": 3248,
    "Ġarrog": 18338,
    "john": 11500,
    "athies": 22705,
    "Ġmirth": 15549,
    "Ġaccording": 5508,
    "aned": 5147,
    "names": 16533,
    "irst": 878,
    "Ġhandles": 22698,
    "Ġdebated": 9043,
    "every": 2811,
    "Ġpraised": 19556,
    "Ġwhale": 628,
    "Ġspaulding": 11735,
    "Ġpreparations": 12314,
    "Ġstructure": 845,
    "Ġfears": 5729,
    "Ġinsepar": 17936,
    "Ġstamping": 20034,
    "withstanding": 8948,
    "prep": 9762,
    "Ġlees": 18078,
    "Ġindications": 14634,
    "tail": 8765,
    "fal": 17538,
    "Ġclosing": 11776,
    "aternity": 21268,
    "Ġflaming": 8567,
    "angered": 16181,
    "Ġmodels": 762,
    "Ġghastly": 10063,
    "Ġallies": 18235,
    "Ġn": 300,
    "many": 5250,
    "Ġvideos": 13610,
    "intelligence": 5884,
    "itively": 21334,
    "Ġmish": 15541,
    "Ġcitations": 25438,
    "Ġdouble": 4940,
    "Ġhurrying": 11999,
    "Ġwheel": 9721,
    "thankful": 16808,
    "bru": 12443,
    "electricity": 26387,
    "Ġwhatever": 3475,
    "mer": 2836,
    "Ġproced": 2580,
    "Ġvir": 7002,
    "iquet": 17577,
    "Ġcoins": 11823,
    "Ġtrouble": 3691,
    "pard": 9621,
    "ators": 7829,
    "Ġfatigue": 8701,
    "Ġfac": 6382,
    "Ġfowl": 11332,
    "Ġburnt": 9931,
    "Ġfighting": 12202,
    "Ġhypothe": 4073,
    "Ġnorms": 3667,
    "Ġgardiner": 3240,
    "belongs": 25597,
    "nep": 20988,
    "Ġpine": 8801,
    "Ġii": 7385,
    "Ġtawn": 13826,
    "quickly": 14965,
    "Ġbee": 21753,
    "Ġcausal": 3410,
    "ial": 410,
    "Ġperturbed": 20443,
    "coloured": 7291,
    "splash": 25210,
    "Ġsmelt": 16069,
    "Ġdaintiest": 25954,
    "/`)": 13664,
    "Ġtheore": 1831,
    "ousness": 10277,
    "Ġbasket": 9575,
    "reposed": 24492,
    "knot": 13748,
    "Ġchamois": 16802,
    "Ġsocietal": 11438,
    "Ġfrantic": 7957,
    "Ġshared": 10266,
    "Ġcordiality": 24395,
    "Ġbody": 2434,
    "Ġshelf": 12272,
    "etition": 7382,
    "vulgar": 25919,
    "Ġchrist": 4072,
    "william": 4563,
    "Ġacknowledges": 24689,
    "aste": 4603,
    "Ġobliv": 16137,
    "Ġpot": 2995,
    "Ġeighteenth": 14757,
    "Ġgracious": 8851,
    "Ġoverwhel": 8197,
    "Ġoverlooking": 22362,
    "lined": 12488,
    "eked": 16405,
    "spark": 18689,
    "Ġnobler": 14176,
    "deal": 12804,
    "Ġcathed": 14549,
    "isp": 5528,
    "engineer": 23151,
    "incom": 21184,
    "Ġchisel": 20371,
    "Ġready": 3397,
    "aid": 1921,
    "Ġjabbering": 22297,
    "Ġgrinning": 9056,
    "Ġimpropriety": 17398,
    "Ġinnumerable": 13356,
    "Ġdependency": 3488,
    "sul": 15424,
    "Ġviolent": 5117,
    "prince": 23818,
    "spir": 5738,
    "Ġreus": 8826,
    "home": 7341,
    "Ġget": 1624,
    "Ġrepresenting": 4060,
    "Ġ116": 24440,
    "Ġexploration": 2334,
    "Ġsteward": 6586,
    "Ġgrowth": 14631,
    "Ġexceed": 1345,
    "Ġbecoming": 4397,
    "lost": 8891,
    "Ġeyel": 17097,
    "tch": 9144,
    "any": 3338,
    "Ġclerical": 25569,
    "akin": 11772,
    "Ġconducting": 16652,
    "red": 398,
    "deploy": 22146,
    "oe": 7552,
    "Ġdry": 5624,
    "Ġwatchful": 16529,
    "Ġpreaching": 15930,
    "âĢĶâĢľ": 2974,
    "Ġputting": 5327,
    "Ġoptimizer": 5036,
    "Ġdecember": 15009,
    "vac": 15453,
    "Ġhealthy": 10853,
    "Ġdev": 885,
    "Ġsurpass": 13587,
    "nar": 12498,
    "onde": 21254,
    "Ġthack": 21520,
    "Ġadoption": 24951,
    "Ġhysterics": 26094,
    "Ġferguson": 17472,
    "Ġ61": 24364,
    "Ġpron": 6452,
    "Ġplanisp": 24062,
    "Ġappertaining": 26535,
    "Ġsepulchral": 25893,
    "shoulder": 16586,
    "culous": 11142,
    "inaw": 21186,
    "verb": 10219,
    "vol": 723,
    "Ġaught": 8777,
    "Ġgasfitters": 25041,
    "falling": 24361,
    "spoutings": 25004,
    "ind": 567,
    "struck": 7862,
    "Ġdivined": 19446,
    "trick": 19416,
    "Ġhairs": 13235,
    "Ġtormenting": 15108,
    "Ġorlop": 22097,
    "Ġtreatise": 19348,
    "Ġjoints": 12039,
    "Ġpennies": 17273,
    "othic": 16220,
    "backpropagation": 11990,
    "breat": 10081,
    "Ġchron": 19441,
    "Ġnarrated": 14874,
    "Ġmir": 9649,
    "ook": 21006,
    "unforeseen": 21892,
    "Ġegress": 21624,
    "stains": 11640,
    "Ġwickedness": 9529,
    "raint": 18317,
    "pieces": 8758,
    "Ġtempestuous": 20074,
    "prairies": 20569,
    "ª": 108,
    "pro": 2051,
    "ite": 712,
    "Ġwalks": 8969,
    "itics": 13875,
    "Ġcountrymen": 23597,
    "Ġincurable": 22556,
    "bub": 15320,
    "condition": 7061,
    "uger": 21106,
    "Ġrepented": 23365,
    "clut": 23154,
    "Ġdinah": 9456,
    "qual": 8157,
    "Ġincoherent": 17403,
    "br": 2475,
    "leo": 21367,
    "retaining": 21248,
    "flatter": 23970,
    "Ġlaid": 3941,
    "Ġprecipitous": 24836,
    "etch": 9207,
    "ildad": 3532,
    "rally": 17653,
    "Ġsank": 5076,
    "reg": 2185,
    "Ġsupp": 1264,
    "Ġboots": 5944,
    "lead": 10168,
    "rosc": 17957,
    "Ġactiv": 832,
    "suspended": 15181,
    "Ġagonising": 25374,
    "transformers": 8718,
    "Ġmaimed": 21319,
    "Ġgranted": 22810,
    "doubtless": 17004,
    "Ġdaring": 8121,
    "Ġenclosure": 20627,
    "verty": 8454,
    "Ġabed": 22269,
    "presumption": 20445,
    "Ġdolphin": 17315,
    "Ġalchemists": 26489,
    "common": 4128,
    "score": 18857,
    "Ġpoison": 7219,
    "Ġundiscernible": 22072,
    "Ġsources": 10150,
    "asets": 2308,
    "thyself": 19300,
    "comprehend": 14364,
    "eland": 11623,
    "Ġdrunk": 9427,
    "final": 19679,
    "vicinity": 20483,
    "Ġxlvi": 25591,
    "ellig": 522,
    "Ġherb": 15860,
    "esteemed": 26010,
    "uncommonly": 25550,
    "Ġpromise": 4200,
    "Ġ1894": 5196,
    "oforte": 14289,
    "steam": 23963,
    "Ġglades": 19375,
    "Ġexpressions": 7706,
    "ib": 1235,
    "Ġuninhabited": 22055,
    "Ġarmchair": 8271,
    "Ġthames": 13941,
    "Ġshoal": 12020,
    "Ġoutrageous": 20613,
    "Ġdegenerating": 25800,
    "Ġhimmalehs": 26232,
    "Ġcontaining": 2232,
    "tied": 21073,
    "Ġcobweb": 22589,
    "Ġunch": 18240,
    "iable": 3334,
    "Ġboundary": 11224,
    "Ġfaster": 3200,
    "ospit": 22267,
    "Ġpor": 5225,
    "Ġviews": 7290,
    "ivation": 3113,
    "Ġet": 3581,
    "Ġauthority": 7749,
    "pursued": 17284,
    "despair": 8344,
    "enari": 21284,
    "instead": 14816,
    "remem": 13072,
    "pires": 13778,
    "fow": 20855,
    "Ġnose": 4402,
    "Ġoverpowered": 15292,
    "Ġtreats": 19347,
    "Ġghostly": 24651,
    "Ġreceptacle": 23195,
    "Ġmanufactured": 22334,
    "Ġdirty": 9181,
    "Ġclearing": 8240,
    "Ġfishers": 19357,
    "Ġcroquet": 9965,
    "Ġhanged": 17927,
    "Ġdisappointment": 6629,
    "Ġpecks": 18670,
    "amp": 2605,
    "unched": 10238,
    "Ġpinched": 17036,
    "err": 1142,
    "Ġweave": 21924,
    "Ġprepar": 7897,
    "Ġpushed": 5911,
    "fav": 6649,
    "Ġtout": 17721,
    "Ġstaving": 21741,
    "mor": 4216,
    "Ġwrecks": 16820,
    "Ġpanel": 13376,
    "aks": 8509,
    "Ġbennett": 16327,
    "Ġloading": 15878,
    "Ġottoman": 17381,
    "Ġmouse": 4695,
    "Ġwaggish": 25435,
    "Ġbachel": 7159,
    "Ġgathering": 14981,
    "surely": 10572,
    "Ġdiab": 10614,
    "plate": 18208,
    "Ġgreeks": 20016,
    "Ġabuse": 18393,
    "enges": 13059,
    "Ġboasting": 19939,
    "Ġfidelity": 15245,
    "stalk": 21653,
    "blue": 13697,
    "remain": 9841,
    "Ġhealthcare": 8016,
    "fitting": 1509,
    "slightest": 25417,
    "Ġsimilarly": 24310,
    "Ġassure": 4419,
    "Ġoath": 7833,
    "Ġtens": 17725,
    "Ġbeheading": 21758,
    "Ġdissipate": 13637,
    "learning": 2707,
    "Ġutensils": 23516,
    "Ġspurn": 18310,
    "hercules": 22208,
    "Ġswimmer": 19462,
    "Ġlofty": 6219,
    "eng": 1489,
    "Ġtorch": 25033,
    "Ġmantelpiece": 15211,
    "folly": 20864,
    "Ġcontinuing": 14400,
    "rage": 10845,
    "iom": 20917,
    "audible": 17135,
    "leaned": 21372,
    "Ġincessant": 15101,
    "Ġlegendary": 20540,
    "perceived": 8862,
    "Ġemma": 20697,
    "Ġparticular": 2446,
    "Ġpirates": 9076,
    "Ġmen": 1434,
    "attempt": 9363,
    "Ġclatter": 22351,
    "Ġcolle": 8927,
    "Ġcolouring": 16753,
    "Ġblue": 3455,
    "Ġreproach": 9559,
    "Ġrange": 9715,
    "Ġrefrain": 12952,
    "rical": 11521,
    "complained": 25840,
    "Ġgraces": 18226,
    "Ġrod": 9283,
    "Ġpracticable": 19046,
    "Ġaudible": 19883,
    "disappointment": 11427,
    "edd": 1212,
    "Ġperformed": 8550,
    "reproof": 25433,
    "Ġante": 17898,
    "Ġdoze": 14177,
    "Ġsinister": 8572,
    "accomplishments": 25327,
    "Ġillustration": 19137,
    "ihood": 20924,
    "Ġdistricts": 20266,
    "Ġdesires": 9459,
    "Ġliberal": 12195,
    "needles": 20317,
    "Ġreaped": 18032,
    "Ġcrows": 24035,
    "Ġring": 4453,
    "Ġplanks": 5563,
    "Ġany": 688,
    "Ġpemberley": 4590,
    "Ġcrucifix": 26080,
    "oke": 1861,
    "Ġmetallic": 19091,
    "antique": 18288,
    "uer": 21103,
    "days": 7688,
    "Ġquietude": 19363,
    "Ġmetropol": 11147,
    "Ġdisdained": 15012,
    "Ġministers": 22835,
    "Ġdef": 1201,
    "inement": 11560,
    "stead": 10848,
    "Ġloops": 8856,
    "Ġpea": 14320,
    "Ġpagan": 7119,
    "Ġbeast": 7180,
    "Ġflour": 8947,
    "Ġminima": 3465,
    "Ġ67": 19663,
    "Ġsummers": 23876,
    "Ġsitu": 3496,
    "peasant": 23113,
    "Ġinterior": 8898,
    "addition": 13388,
    "Ġprodu": 1205,
    "decan": 22145,
    "stained": 21658,
    "Ġnewspaper": 12368,
    "squ": 7809,
    "deficient": 23120,
    "Ġting": 8399,
    "Ġaverred": 18866,
    "owe": 15712,
    "encountered": 20396,
    "Ġbuying": 23999,
    "Ġvisual": 5741,
    "Ġstroke": 6936,
    "Ġacquies": 11099,
    "Ġunreasoning": 15849,
    "Ġcoop": 14273,
    "Ġnieces": 8434,
    "iem": 20919,
    "immediate": 20097,
    "idled": 21772,
    "ov": 15403,
    "orse": 5807,
    "pulous": 15419,
    "Ġyoke": 18098,
    "Ġwool": 19436,
    "Ġcheerily": 13312,
    "Ġadjusts": 8983,
    "Ġbass": 17857,
    "rack": 18013,
    "possible": 5743,
    "brace": 16944,
    "Ġpollard": 20389,
    "uten": 11625,
    "Ġploughed": 22609,
    "Ġjeroboam": 10603,
    "Ġsimplicity": 2927,
    "ult": 724,
    "screen": 22999,
    "Ġnailed": 10192,
    "ray": 2435,
    "Ġmagnified": 23206,
    "iously": 2675,
    "Ġclergy": 7643,
    "thrown": 8483,
    "Ġcountenances": 11969,
    "Ġlondon": 2842,
    "Ġpro": 360,
    "Ġunattended": 15847,
    "!âĢĶ": 2451,
    "Ġhandsom": 11126,
    "Ġsenior": 17174,
    "Ġargosy": 24276,
    "whatever": 6696,
    "unte": 21877,
    "violets": 23544,
    "Ġhatchway": 13528,
    "featured": 24076,
    "Ġref": 907,
    "lp": 899,
    "omical": 9683,
    "Ġprincely": 24151,
    "),": 1347,
    "portuguese": 25414,
    "Ġswitching": 23060,
    "Ġesc": 2252,
    "Ġfellows": 8257,
    "Ġdup": 21430,
    "delirious": 19508,
    "bench": 16805,
    "×": 152,
    "ister": 1294,
    "Ġpassions": 7930,
    "Ġbankrupt": 16798,
    "prove": 11149,
    "Ġrocky": 13391,
    "proceeding": 20144,
    "hammer": 14491,
    "my": 1316,
    "Ġcongreg": 8464,
    "overing": 6308,
    "isf": 2433,
    "bourn": 3302,
    "Ġleap": 5825,
    "Ġbrushed": 15575,
    "estone": 18364,
    "augment": 18830,
    "ores": 2412,
    "Ġenough": 1764,
    "revival": 26163,
    "Ġhissing": 15794,
    "sold": 15429,
    "phren": 22770,
    "Ġswelling": 11929,
    "Ġfever": 6560,
    "liable": 3818,
    "Ġbalance": 2019,
    "Ġturks": 14600,
    "Ġinsertion": 26345,
    "nearer": 22468,
    "Ġinsect": 12641,
    "onze": 21258,
    "Ġgoble": 14232,
    "Ġimm": 3964,
    "ubbub": 23244,
    "Ġextant": 18686,
    "usage": 12837,
    "Ġportcull": 23866,
    "Ġelev": 5536,
    "Ġwhal": 5454,
    "Ġhump": 5855,
    "infor": 3021,
    "urmount": 13999,
    "Ġjenkinson": 11433,
    "Ġpolluted": 25594,
    "Ġgain": 4829,
    "Ġdownstairs": 11226,
    "Ġaft": 5737,
    "Ġhig": 754,
    "pper": 3211,
    "Ġdolphins": 20399,
    "rated": 6229,
    "84": 15305,
    "Ġunnaturally": 24871,
    "onder": 3780,
    "Ġfring": 11129,
    "Ġpaint": 7708,
    "shuff": 18485,
    "Ġunhing": 18242,
    "influences": 25251,
    "Ġanim": 2112,
    "Ġreco": 9794,
    "Ġintegrated": 13534,
    "Ġsermons": 20197,
    ":âĢĶ": 4433,
    "hated": 17563,
    "Ġhurricane": 16434,
    "Ġsw": 1355,
    "Ġlee": 4224,
    "Ġoccupation": 9934,
    "Ġlamented": 24994,
    "Ġauthent": 14510,
    "Ġrokovoko": 22409,
    "forward": 2189,
    "Ġdemoniacal": 20559,
    "ference": 1883,
    "fleece": 19951,
    "Ġlimb": 9405,
    "weave": 22688,
    "asper": 7855,
    "cious": 6646,
    "hib": 15371,
    "definition": 23121,
    "rug": 18340,
    "Ġgrimes": 11036,
    "Ġunresting": 25554,
    "Ġupbraid": 18319,
    "mbly": 9790,
    "hateful": 20911,
    "Ġshrine": 19534,
    "Ġgenerate": 1482,
    "Ġbeer": 10222,
    "Ġminimum": 23045,
    "gest": 5426,
    "Ġaspects": 4176,
    "Ġshrieks": 12204,
    "Ġparsee": 6414,
    "dischar": 19155,
    "Ġsought": 5010,
    "Ġgrotes": 19566,
    "idious": 11665,
    "Ġhabits": 6926,
    "turbable": 24531,
    "Ġlombardy": 26465,
    "Ġfreshly": 23990,
    "Ġrolls": 8334,
    "affected": 10478,
    "Ġobjections": 8568,
    "Ġprinciple": 6771,
    "Ġmoodily": 19837,
    "Ġcondense": 21812,
    "beholding": 16044,
    "Ġadvertised": 17250,
    "Ġstead": 5650,
    "riptions": 14798,
    "Ġtall": 4038,
    "ording": 9767,
    "Ġsurely": 6309,
    "ichever": 13960,
    "pl": 403,
    "Ġcrystal": 17217,
    "idual": 1559,
    "nelson": 25621,
    "Ġbold": 5293,
    "Ġcrowned": 16843,
    "Ġuse": 827,
    "Ġimitated": 18330,
    "Ġrushes": 20511,
    "completed": 19997,
    "asional": 17962,
    "Ġresemble": 15697,
    "Ġtomahawk": 7539,
    "gue": 12472,
    "Ġconstrued": 26302,
    "Ġhappiness": 2949,
    "Ġhover": 15624,
    "deepest": 22837,
    "ester": 11601,
    "solution": 14688,
    "Ġsumm": 3356,
    "Ġpaddington": 17096,
    "icated": 7591,
    "Ġerad": 25031,
    "Ġtempted": 9059,
    "vely": 3868,
    "Ġpreferred": 14969,
    "Ġresign": 18565,
    "elephant": 12355,
    "Ġdelineate": 26058,
    "scenes": 16247,
    "ding": 3030,
    "Ġoffensive": 18693,
    "Ġid": 1909,
    "ork": 414,
    "Ġradiating": 24331,
    "Ġdiscovering": 13362,
    "Ġunansw": 22062,
    "linen": 25258,
    "Ġbarbarians": 19590,
    "jar": 17579,
    "Ġtrusting": 24108,
    "Ġinspecting": 24614,
    "illa": 12798,
    "Ġendeavoured": 4919,
    "ĕ": 214,
    "Ġmid": 2615,
    "adv": 4538,
    "Ġclin": 14204,
    "obedience": 17413,
    "Ġexcursion": 26591,
    "Ġattempt": 3487,
    "Ġbegging": 11082,
    "Ġmisgiv": 14348,
    "Ġdiscern": 7926,
    "killing": 20944,
    "Ġquadrant": 11406,
    "Ġflows": 13019,
    "du": 604,
    "waiter": 24587,
    "Ġhaught": 10255,
    "Ġraved": 22654,
    "Ġcompassion": 6488,
    "Ġconver": 805,
    "Ġforemost": 12009,
    "ghan": 19458,
    "Ġcontrasting": 11156,
    "asily": 13949,
    "coat": 5407,
    "parts": 14603,
    "ifications": 9731,
    "Ġforgetfulness": 14608,
    "twas": 15440,
    "Ġphys": 5653,
    "Ġtasted": 12534,
    "separately": 25228,
    "Ġsubmitted": 11875,
    "Ġstand": 1736,
    "sculptured": 26047,
    "barbs": 20240,
    "Ġexcepting": 14682,
    "Ġproject": 5546,
    "surprised": 9534,
    "tenham": 16324,
    "Ġeyelids": 26108,
    "Ġadventure": 5982,
    "Ġsavag": 19377,
    "Ġdoesn": 7438,
    "Ġstaggered": 9542,
    "rived": 5373,
    "enit": 17781,
    "iii": 14780,
    "Ġheedfulness": 24522,
    "Ġgeneric": 18449,
    "clock": 3933,
    "Ġug": 8141,
    "slee": 17171,
    "bear": 10317,
    "nered": 18495,
    "Ġfinding": 3265,
    "Ġazores": 20196,
    "Ġmysticetus": 24923,
    "Ġbelonging": 8308,
    "Ġunder": 1636,
    "Ġmanipulation": 10661,
    "fowl": 17551,
    "Ġwho": 611,
    "ications": 4446,
    "Ġthrown": 4641,
    "Ġgrievous": 13265,
    "factories": 19846,
    "Ġsure": 1866,
    "ascertaining": 26462,
    "Ġcaused": 5048,
    "Ġsuperl": 16445,
    "Ġthreads": 13122,
    "Ġtailed": 21171,
    "Ġdood": 22246,
    "Ġloathsome": 13531,
    "rodu": 1820,
    "lesc": 11040,
    "Ġsuffer": 4723,
    "civilized": 17076,
    "Ġsuited": 12792,
    "ladder": 19787,
    "persuasion": 20047,
    "Ġintroduce": 3207,
    "Ġexhibiting": 19841,
    "Ġinflict": 15003,
    "Ġbit": 2968,
    "became": 10517,
    "~": 98,
    "Ġachieves": 4379,
    "Ġcomfor": 14055,
    "brill": 16493,
    "anks": 3917,
    "Ġowed": 10782,
    "cher": 5786,
    "Ġtrading": 23081,
    "imly": 12692,
    "Ġaff": 1117,
    "Ġexplore": 15912,
    "rect": 1596,
    "Ġexactly": 2767,
    "Ġgodlike": 23360,
    "dering": 5307,
    "Ġingrat": 16842,
    "Ġevap": 19626,
    "whatsoever": 18494,
    "Ġdisciple": 22787,
    "lessness": 5318,
    "Ġmust": 844,
    "Ġwires": 21298,
    "Ġkitchen": 8498,
    "Ġsage": 17754,
    "quet": 6835,
    "77": 15304,
    "ishments": 9276,
    "Ġsurv": 6082,
    "Ġconcerning": 4068,
    "education": 20304,
    "Ġev": 4830,
    "Ġjump": 4505,
    "Ġham": 3420,
    "crane": 24090,
    "Ġtoils": 10188,
    "Ġdevelop": 1654,
    "Ġfrank": 4420,
    "Ġtoe": 13939,
    "portent": 25413,
    "steady": 14712,
    "Ġeagle": 13206,
    "Ġobjectionable": 16993,
    "light": 3020,
    "Ġrounding": 16279,
    "Ġglared": 13023,
    "german": 11494,
    "Ġlizard": 12659,
    "Ġheiress": 20700,
    "Ġexpl": 487,
    "Ġknows": 4162,
    "Ġconcussion": 26301,
    "treatment": 20415,
    "Ġgrowled": 19286,
    "Ġrelentless": 26279,
    "Ġshining": 8172,
    "Ġele": 1964,
    "Ġconclusions": 10556,
    "fearfully": 25119,
    "drovand": 24759,
    "Ġphilosop": 5057,
    "?âĢĶ": 3469,
    "Ġsoo": 15864,
    "Ġmills": 21314,
    "Ġsoftmax": 1690,
    "Ġexcept": 3313,
    "Ġfranc": 16355,
    "Ġinterrupting": 19560,
    "Ġbraz": 19361,
    "remes": 21240,
    "Ġtacit": 21177,
    "Ġaperture": 26161,
    "Ġplates": 11008,
    "Ġq": 1083,
    "]]": 5205,
    "fishery": 10035,
    "Ġcaps": 8416,
    "Ġconjured": 25102,
    "lonely": 20959,
    "Ġret": 1380,
    "Ġnavy": 14919,
    "Ġcalculated": 4476,
    "Ġscales": 4851,
    "ird": 2425,
    "Ġtattooings": 24901,
    "Ġportent": 12086,
    "shows": 22450,
    "Ġdiction": 8799,
    "Ġdistrict": 10321,
    "Ġcontradicted": 20214,
    "Ġeaglet": 19307,
    "ushing": 5730,
    "Ġstate": 1813,
    "ize": 772,
    "_?âĢĿ": 15309,
    "lakeman": 13754,
    "Ġmoran": 9345,
    "Ġprelimin": 8864,
    "Ġcrammed": 16473,
    "returned": 7766,
    "ape": 1906,
    "Ġdevoured": 16139,
    "ro": 301,
    "Ġcaptioning": 23025,
    "bitter": 11242,
    "Ġtrustees": 24110,
    "Ġupstairs": 5837,
    "gd": 3128,
    "Ġdependen": 1830,
    "Ġcarried": 3694,
    "Ġbraved": 23841,
    "Ġpow": 4639,
    "Ġteeth": 4169,
    "Ġobvious": 4964,
    "computer": 2049,
    "Ġuttermost": 19491,
    "Ġsoph": 1548,
    "Ġtufted": 17016,
    "Ġgul": 7860,
    "ditch": 17530,
    "pounds": 21027,
    "dropped": 12267,
    "ux": 7813,
    "tackle": 17324,
    "ote": 4598,
    "Ġshutting": 14762,
    "Ġcountless": 16386,
    "Ġborne": 6353,
    "Ġchiswick": 25561,
    "Ġmerry": 5870,
    "Ġpratt": 23220,
    "inisc": 15491,
    "ory": 1080,
    "Ġwaterloo": 11985,
    "Ġoffspring": 16149,
    "Ġvalid": 1696,
    "Ġgurglings": 26467,
    "opposing": 24822,
    "Ġmasterly": 23997,
    "allet": 11085,
    "Ġcalifornia": 20533,
    "uled": 11539,
    "Ġampl": 22485,
    "Ġoxford": 11373,
    "Ġhence": 4989,
    "destined": 24117,
    "Ġsidelong": 11440,
    "Ġherein": 16194,
    "cheerful": 13579,
    "Ġdeportment": 22614,
    "Ġpulverize": 23396,
    "inions": 8403,
    "athered": 6973,
    "č": 206,
    "Ġcables": 15562,
    "Ġproduced": 2449,
    "phew": 6369,
    "Ġpenet": 6888,
    "Ġburtons": 19255,
    "ental": 7169,
    "suspect": 9543,
    "Ġtub": 7147,
    "Ġowen": 15098,
    "visual": 24225,
    "Ġcover": 3558,
    "stone": 5089,
    "iscre": 17852,
    "Ġheaths": 25973,
    "Ġexpiration": 22629,
    "leviathans": 19941,
    "Ġimperilled": 19581,
    "Ġadorn": 12797,
    "grie": 12475,
    "Ġstigma": 25792,
    "Ġboon": 22641,
    "Ġpettic": 14844,
    "asingly": 17963,
    "Ġheroic": 14911,
    "Ġed": 2241,
    "Ġtelescope": 17351,
    "Ġchance": 3318,
    "mir": 20965,
    "Ġcomplaint": 24775,
    "Ġeasy": 3453,
    "fth": 20858,
    "Ġ\"": 6121,
    "committed": 18746,
    "Ġbliss": 13006,
    "atmospheric": 17778,
    "cond": 1665,
    "Ġrecurred": 18978,
    "Ġfails": 13318,
    "buttons": 22405,
    "Ġaccompany": 9490,
    "warning": 25532,
    "onist": 21253,
    "Ġerrors": 2596,
    "pile": 17631,
    "bildad": 9589,
    "Ġofficio": 23819,
    "Ġcomplete": 4382,
    "Ġrecognised": 8998,
    "Ġwilfully": 16768,
    "Ġinputs": 843,
    "Ġdependencies": 2313,
    "Ġvillages": 14751,
    "adier": 18092,
    "Ġscreening": 25301,
    "accursed": 20543,
    "Ġfervent": 14899,
    "virt": 15454,
    "interested": 9509,
    "Ġwindward": 6885,
    "resolved": 9642,
    "asc": 6387,
    "Ġmill": 6669,
    "Ġbulb": 23858,
    "Ġloop": 14149,
    "Ġdepression": 21845,
    "lanterns": 17432,
    "Ġhang": 9190,
    "Ġdissembling": 26256,
    "obscure": 23100,
    "Ġproved": 4885,
    "irably": 13300,
    "dev": 7633,
    "ingale": 21302,
    "health": 13836,
    "spouting": 25003,
    "pleasant": 5876,
    "ils": 3184,
    "mediterranean": 16408,
    "Ġclub": 8877,
    "Ġcrowds": 14742,
    "urements": 18126,
    "Ġstop": 2501,
    "stri": 6251,
    "Ġtheorem": 2324,
    "putting": 14103,
    "iosity": 2212,
    "attentive": 17192,
    "helpless": 16792,
    "crat": 24089,
    "Ġswerve": 14440,
    "Ġscott": 22300,
    "alogue": 25163,
    "wife": 8101,
    "Ġweapon": 7776,
    "Ġinstincts": 16988,
    "Ġcommons": 22675,
    "proportion": 16186,
    "osity": 14188,
    "Ġyoungster": 23182,
    "Ġgardiners": 11159,
    "Ġilluminating": 25246,
    "ub": 1227,
    "Ġfisher": 3224,
    "Ġbountiful": 25945,
    "Ġspurned": 12802,
    "Ġfulfilment": 20190,
    "Ġarrangement": 2656,
    "Ġrot": 10969,
    "uneasiness": 23690,
    "Ġspace": 1525,
    "Ġmalays": 19680,
    "Ġbegun": 7243,
    "Ġsect": 17753,
    "Ġundersampling": 19521,
    "Ġfogs": 25283,
    "Ġworking": 5574,
    "Ġtwig": 11854,
    "Ġwithdrawn": 10609,
    "Ġcomputing": 2221,
    "Ġbroad": 3640,
    "7": 27,
    "ush": 3632,
    "Ġtennessee": 26598,
    "acted": 11012,
    "Ġassur": 6075,
    "Ġprinciples": 10014,
    "summit": 23419,
    "Ġlordly": 23746,
    "Ġshapeless": 24524,
    "frau": 15093,
    "Ġoverlooked": 15978,
    "ise": 707,
    "Ġowners": 7662,
    "Ġcloth": 9746,
    "Ġterminating": 23512,
    "Ġcontrivances": 12361,
    "Ġdepending": 14303,
    "Ġmastery": 23996,
    "Ġoverdone": 22364,
    "Ġplead": 14458,
    "Ġslacked": 25189,
    "Ġtasselled": 25922,
    "Ġrides": 21978,
    "Ġspouter": 12803,
    "Ġchaos": 17011,
    "Ġple": 1471,
    "Ġasserted": 16951,
    "Ġunsupp": 22025,
    "iates": 13740,
    "steel": 8298,
    "walton": 20252,
    "usoid": 4768,
    "Ġbegins": 7244,
    "te": 997,
    "Ġmounted": 7832,
    "Ġmiserable": 3635,
    "Ġum": 10214,
    "bore": 13690,
    "Ġcontr": 1915,
    "Ġbelongs": 8015,
    "Ġmultiplicity": 19277,
    "achus": 18284,
    "Ġreciprocating": 26371,
    "slow": 7810,
    "formity": 10281,
    "Ġinstruments": 12228,
    "Ġmetaphysical": 26071,
    "Ġinstrument": 7120,
    "Ġtoil": 6533,
    "heartedness": 24825,
    "authority": 13595,
    "vous": 2251,
    "Ġtrain": 515,
    "Ġprofile": 16490,
    "Ġrainy": 24341,
    "Ġcarpent": 4466,
    "Ġsteals": 23087,
    "ulance": 15771,
    "comfortable": 7320,
    "Ġwore": 6378,
    "Ġbecalmed": 18089,
    "Ġintimidated": 24802,
    "Ġclutches": 20021,
    "pression": 10409,
    "Ġunacquainted": 12781,
    "mistak": 16880,
    "Ġjobs": 24833,
    "Ġjelly": 22294,
    "Ġble": 5223,
    "Ġquarters": 8623,
    "Ġtalents": 15047,
    "Ġejaculated": 15173,
    "iance": 5280,
    "dock": 16422,
    "Ġvolume": 6770,
    "Ġy": 341,
    "Ġreproachfully": 25252,
    "Ġresearches": 13128,
    "Ġgardeners": 12125,
    "Ġmeans": 699,
    "Ġsle": 2012,
    "slouched": 24557,
    "Ġwester": 25156,
    "Ġfolly": 7941,
    "poles": 16213,
    "Ġstratag": 26029,
    "wand": 10740,
    "probable": 17023,
    "bres": 11473,
    "principal": 20662,
    "girls": 12323,
    "myself": 5113,
    "Ġjaw": 3319,
    "ke": 429,
    "poured": 17639,
    "Ġwooded": 23521,
    "ensions": 14261,
    "empt": 2618,
    "Ġrecovered": 5481,
    "Ġhelen": 16658,
    "putation": 7625,
    "decor": 23783,
    "Ġconvenient": 8346,
    "Ġmusical": 23896,
    "icha": 11742,
    "Ġsucceeding": 16763,
    "Ġless": 1936,
    "Ġplayful": 19239,
    "hardly": 6492,
    "Ġfold": 5531,
    "Ġgle": 7859,
    "fears": 18526,
    "Ġsubterr": 10351,
    "Ġmelted": 19624,
    "oin": 17619,
    "ignorance": 17164,
    "Î": 143,
    "creation": 14809,
    "transform": 8050,
    "Ġcannon": 14156,
    "Ġlocal": 1200,
    "Ġmarty": 20293,
    "Ġthread": 14541,
    "Ġdiffused": 12073,
    "Ġconfine": 14512,
    "Ġsympathise": 16796,
    "Ġtumultuous": 10618,
    "Ġproblems": 2850,
    "queg": 1772,
    "erman": 5108,
    "Ġeffects": 7236,
    "Ġswitzerland": 10382,
    "Ġinstinct": 6577,
    "Ġrom": 4526,
    "Ġgladness": 16593,
    "umbling": 6613,
    "Ġsmo": 2699,
    "Ġsinners": 18952,
    "Ġmisfortunes": 7043,
    "Ġforked": 11667,
    "Ġassures": 14468,
    "illing": 8175,
    "'d": 12431,
    "tails": 21089,
    "Ġahoy": 12189,
    "Ġcringed": 25943,
    "bowsprit": 16855,
    "Ġtinted": 13825,
    "itted": 2439,
    "Ġtaken": 2527,
    "Ġapprovingly": 26252,
    "Ġraised": 4662,
    "distant": 13339,
    "Ġfed": 5530,
    "Ġshoots": 14570,
    "lied": 6508,
    "Ġequalled": 13317,
    "doctor": 19097,
    "Ġaccumulation": 2691,
    "hot": 8084,
    "Ġaltar": 9231,
    "isher": 2882,
    "posture": 16929,
    "larger": 24205,
    "Ġsqu": 1036,
    "content": 11199,
    "placidity": 25989,
    "nder": 20989,
    "Ġprevented": 5943,
    "Ġimpulse": 10027,
    "Ġrenegades": 26478,
    "sets": 17662,
    "thither": 21987,
    "buncle": 13696,
    "ms": 542,
    "Ġheightens": 24157,
    "col": 3106,
    "moran": 24155,
    "Ġaboard": 6699,
    "atching": 8202,
    "Ġbuild": 6475,
    "Ġexcel": 3568,
    "Ġfolio": 11922,
    "shoulders": 16587,
    "mus": 10113,
    "Ġeight": 3902,
    "iony": 9194,
    "itate": 6670,
    "unw": 14060,
    "tone": 8766,
    "Ġapparently": 6779,
    "Ġdesolation": 12273,
    "misfortunes": 16758,
    "Ġdictated": 25219,
    "Ġparting": 9786,
    "Ġwhir": 6394,
    "Ġne": 389,
    "Ġberyls": 25776,
    "Ġmilk": 6486,
    "Þ": 159,
    "answering": 26005,
    "ough": 471,
    "Ġcats": 8982,
    "ines": 675,
    "intu": 22936,
    "ression": 3405,
    "slack": 16896,
    "gl": 3289,
    "plexion": 14263,
    "theirs": 23604,
    "Ġmolasses": 25629,
    "Ġdeaths": 14539,
    "etency": 21585,
    "doom": 23380,
    "Ġoverl": 18428,
    "Ġbursting": 8659,
    "ispiece": 19728,
    "contact": 23730,
    "aus": 1500,
    "Ġgans": 5822,
    "priv": 9622,
    "elder": 21575,
    "Ġreduces": 2342,
    "have": 2059,
    "chronicle": 26482,
    "Ġhor": 1662,
    "civil": 7797,
    "rose": 6015,
    "nne": 20991,
    "Ġpenny": 16317,
    "Ġsaved": 6692,
    "Ġobserver": 11993,
    "Ġsperma": 19052,
    "Ġdepl": 14049,
    "rest": 1632,
    "Ġturing": 7566,
    "asing": 5913,
    "Ġblinds": 8007,
    "client": 18934,
    "Ġtriumphant": 12194,
    "Ġstanders": 19019,
    "Ġillustrations": 17109,
    "rons": 21042,
    "Ġdock": 15934,
    "Ġvital": 9246,
    "Ġprot": 3848,
    "Ġmaty": 22914,
    "Ġpyramid": 8806,
    "wants": 21133,
    "Ġrenew": 6147,
    "Ġpowers": 5419,
    "Ġbomb": 17869,
    "lish": 1951,
    "Ġexcuse": 5863,
    "Ġbehold": 5049,
    "ilted": 21726,
    "Ġdearer": 14054,
    "rief": 6204,
    "hyp": 15370,
    "ĠÂ£": 5006,
    "Ġkent": 6693,
    "Ġcrunched": 19122,
    "Ġimmediately": 3366,
    "Ġlearns": 2642,
    "Ġmonth": 2851,
    "knows": 19174,
    "Ġplough": 18609,
    "kept": 11721,
    "Ġsubsequently": 16164,
    "Ġbald": 16210,
    "wood": 5899,
    "Ġconfirmation": 17213,
    "recover": 24623,
    "Ġratt": 7881,
    "dreaded": 25141,
    "##": 2315,
    "Ġuniversity": 13126,
    "Ġpreliminary": 10060,
    "county": 25397,
    "Ġgettest": 23234,
    "Ġstubborn": 10416,
    "Ġintruding": 21995,
    "descend": 23088,
    "Ġforthwith": 16620,
    "Ġthroes": 24575,
    "commencement": 26350,
    "dl": 20825,
    "Ġbeads": 18086,
    "twenty": 6609,
    "Ġcadiz": 17328,
    "hawks": 24695,
    "ahit": 9385,
    "preading": 18498,
    "unhes": 21879,
    "Ġfitting": 21411,
    "Ġsmilingly": 22564,
    "Ġcompanies": 14560,
    "erial": 4633,
    "hued": 20913,
    "Ġrains": 24340,
    "Ġillustrative": 25069,
    "Ġsax": 10931,
    "Ġclapping": 14206,
    "Ġslyness": 25267,
    "Ġkate": 15909,
    "abil": 2006,
    "ends": 6040,
    "under": 3135,
    "langu": 4808,
    "consolation": 15156,
    "Ġtartar": 17325,
    "Ġabruptness": 25300,
    "chased": 18044,
    "Ġpatterns": 1215,
    "ropout": 1320,
    "Ġpetersburgh": 24231,
    "Ġtrepidation": 19217,
    "Ġmat": 1148,
    "Ġhosea": 17334,
    "Ġforever": 14555,
    "À": 129,
    "peculiarity": 23112,
    "ortion": 11761,
    "Ġcurb": 16235,
    "Ġsacri": 18329,
    "Ġstagnant": 24655,
    "Ġrevers": 21667,
    "Ġsolicited": 20040,
    "Ġmeekly": 26492,
    "Ġweighted": 2090,
    "Ġstudious": 23209,
    "Ġdodging": 19889,
    "Ġhab": 4219,
    "contrad": 19294,
    "architect": 22891,
    "Ġowing": 6006,
    "Ġconfidential": 9091,
    "Ġpolicy": 10459,
    "Ġabandoned": 8352,
    "Ġregrets": 18595,
    "ileries": 18061,
    "Ġsteadfast": 8682,
    "Ġdivulged": 16651,
    "Ġgoverness": 8604,
    "Ġexp": 779,
    "Ġdifferences": 18716,
    "Ġphyseter": 26588,
    "Ġtrait": 23077,
    "Ġdigging": 14941,
    "Ġlament": 7857,
    "Ġtradesman": 20076,
    "Ġfrenchman": 11285,
    "Ġcobbler": 25831,
    "Ġcompliments": 8636,
    "Ġhaws": 21955,
    "Ġcoil": 11822,
    "Ġhove": 17925,
    "Ġlunacy": 20031,
    "impression": 15715,
    "Ġappellation": 22223,
    "ps": 4576,
    "Ġcompl": 3759,
    "esting": 7412,
    "beautiful": 10651,
    "swear": 16920,
    "Ġcommission": 6714,
    "salis": 25150,
    "Ġestim": 3349,
    "._": 3222,
    "Ġengage": 9338,
    "¸": 121,
    "Ġalex": 15137,
    "Ġdial": 10812,
    "Ġbillows": 7502,
    "Ġperches": 18450,
    "Ġbeen": 627,
    "pleasing": 14745,
    "skin": 10571,
    "fort": 1751,
    "Ġmostly": 7664,
    "Ġescape": 2646,
    "Ġshore": 4836,
    "Ġext": 892,
    "co": 2432,
    "erative": 21275,
    "Ġagric": 22519,
    "Ġsog": 22085,
    "Ġ118": 19701,
    "Ġheavenly": 12089,
    "_âĢĶâĢĻâĢĿ": 25742,
    "Ġishmael": 7395,
    "import": 5668,
    "Ġsuperficial": 23457,
    "Ġhydraulic": 10067,
    "inquiry": 15146,
    "Ġunheeded": 18262,
    "Ġbubble": 13538,
    "vapor": 25756,
    "wont": 21135,
    "Ġharb": 7370,
    "covered": 11479,
    "viating": 14580,
    "Ġcontempt": 6277,
    "Ġwrinkles": 8574,
    "drugg": 20840,
    "Ġprints": 16333,
    "acters": 9312,
    "Í": 142,
    "Ġhook": 6454,
    "fts": 18701,
    "Ġinjection": 3468,
    "Ġseriously": 7063,
    "Ġattacks": 12209,
    "piled": 21017,
    "Ġqueer": 4480,
    "trem": 17683,
    "Ġsulk": 15048,
    "Ġinclined": 6625,
    "Ġpole": 6434,
    "Ġsubmit": 11874,
    "philosop": 9570,
    "holder": 13286,
    "Ġernest": 8720,
    "fallen": 19662,
    "anim": 6523,
    "Õ": 150,
    "Ġhearties": 18967,
    "Ġphilistines": 26083,
    "Ġmisanthrop": 22767,
    "Ġdeparted": 5564,
    "Ġsecrecy": 7316,
    "rity": 13779,
    "Ġbitterness": 8024,
    "Ġclusters": 25233,
    "Ġbeech": 18085,
    "uel": 6967,
    "adieu": 26202,
    "Ġsad": 3869,
    "Ġcurrents": 13015,
    "Ġproxim": 3202,
    "Ġprovinces": 24193,
    "swallow": 24260,
    "Ġindefatigable": 17180,
    "Ġproductions": 22949,
    "Ġfowls": 8694,
    "Ġsundial": 15086,
    "Ġintended": 5548,
    "unted": 6999,
    "rely": 6125,
    "yea": 23090,
    "Ġfest": 10806,
    "Ġgentleman": 3044,
    "beds": 16624,
    "Ġboards": 14302,
    "Ġberyl": 20493,
    "Ġgrating": 14358,
    "Ġtwin": 12933,
    "uine": 13802,
    "Ġlurk": 13387,
    "apply": 18762,
    "rigging": 20009,
    "Ġsignal": 5946,
    "mp": 3728,
    "preser": 9763,
    "bearings": 25372,
    "Ġabandon": 12262,
    "ac": 742,
    "Ġwhis": 3505,
    "Ġgreatest": 4092,
    "netherfield": 9816,
    "K": 47,
    "Ġmeantime": 6208,
    "Ġhooks": 14971,
    "Ġmargaret": 10379,
    "pointing": 12229,
    "Ġgeorgiana": 8629,
    "Ġidentified": 19152,
    "relu": 17761,
    "mel": 9130,
    "Ġshiver": 12772,
    "Ġabhorred": 9511,
    "Ġcalling": 5662,
    "flag": 14714,
    "Ġpilot": 5986,
    "Ġlif": 10198,
    "Ġsallies": 21232,
    "Ġgallons": 14821,
    "Ġaghast": 16051,
    "Ġbase": 5013,
    "Ġlulled": 17971,
    "bull": 13694,
    "seeing": 7080,
    "separ": 9233,
    "Ġneutral": 12746,
    "itty": 3555,
    "oop": 10717,
    "Ġhearty": 9849,
    "encies": 4079,
    "nnight": 20995,
    "ompl": 4537,
    "Ġmornings": 16241,
    "spade": 10343,
    "Ġlanterns": 24578,
    "Ġdestructive": 23488,
    "Ġwherefore": 8527,
    "Ġfought": 12598,
    "blows": 17168,
    "dwell": 15345,
    "Ġoptimization": 1442,
    "Ġreproof": 24891,
    "Ġincompatible": 25681,
    "warmest": 25030,
    "inese": 12885,
    "namely": 23680,
    "Ġflowery": 16239,
    "cim": 8723,
    "Ġmo": 629,
    "Ġceremony": 8361,
    "conce": 8513,
    "narrowly": 20350,
    "Ġsofa": 10272,
    "Ġepidemic": 20698,
    "lacing": 17592,
    "Ġpursuit": 4734,
    "Ġlucases": 9013,
    "riving": 21930,
    "million": 25752,
    "Ġvent": 3996,
    "Ġalph": 9698,
    "Ġbedroom": 7277,
    "hump": 12482,
    "Ġeulogy": 26472,
    "Ġwardrobe": 17228,
    "Ġber": 5698,
    "brimmed": 14590,
    "Ġcaus": 1725,
    "coward": 13704,
    "Ġlights": 8963,
    "ishing": 1144,
    "Ġcalculate": 13268,
    "Ġimped": 18444,
    "Ġmargin": 11925,
    "name": 6796,
    "sympathy": 20545,
    "Ġmislead": 22765,
    "Ġprofoundly": 16861,
    "who": 2443,
    "deliber": 17429,
    "Ġentrance": 7233,
    "Ġbeauties": 10447,
    "ensing": 12901,
    "Ġshameful": 19854,
    "stein": 5505,
    "Ġjustify": 11074,
    "Ġdined": 9179,
    "Ġspe": 820,
    "Ġabide": 14190,
    "beards": 22495,
    "Ġhospitals": 24924,
    "Ġtrip": 16790,
    "atched": 6376,
    "idirectional": 2419,
    "pt": 388,
    "Ġtempered": 12928,
    "Ġbert": 4584,
    "Ġenvied": 19279,
    "instantly": 7506,
    "erringly": 16215,
    "Ġcrawl": 11377,
    "Ġrifle": 18213,
    "obliv": 23099,
    "metallic": 19882,
    "finish": 24384,
    "Ġunite": 9257,
    "Ġelud": 22647,
    "Ġspecific": 2001,
    "wilful": 25152,
    "Ġcommunications": 16358,
    "Ġunprofitable": 18268,
    "happiness": 6470,
    "warmth": 20056,
    "Ġsharing": 3478,
    "sigma": 3007,
    "morn": 20978,
    "Ġdragon": 14947,
    "until": 6598,
    "Ġschol": 17380,
    "Ġgrated": 22807,
    "fates": 20860,
    "Ġdocks": 14178,
    "Ġpin": 7162,
    "surround": 16760,
    "begged": 18518,
    "Ġridiculous": 10631,
    "Ġinfiltrated": 23286,
    "understood": 13220,
    "Ġmagnifying": 16323,
    "Ġlucky": 7759,
    "Ġtiny": 11555,
    "imperturbable": 25791,
    "tackles": 25625,
    "Ġconversation": 3330,
    "Ġfrenzy": 13626,
    "Ġpod": 15608,
    "Ġunwilling": 7886,
    "Ġconstitutional": 25128,
    "ĠâĢľâĢĶ": 9737,
    "Ġgown": 10204,
    "Ġmeadow": 17154,
    "Ġexploring": 4305,
    "Ġdiscoverer": 26036,
    "Ġchatbots": 11351,
    "Ġserving": 14488,
    "Ġhushed": 13928,
    "Ġcaught": 3731,
    "gallery": 24694,
    "Ġconscientious": 16729,
    "Ġfamil": 4320,
    "Ġcourtship": 24138,
    "itional": 22478,
    "Ġdarcy": 1343,
    "Ġpeter": 10538,
    "Ġschedu": 1825,
    "leness": 4692,
    "supplied": 10522,
    "Ġbehavior": 8002,
    "Ġfrivolous": 26177,
    "haven": 20914,
    "ainty": 21791,
    "Ġamidst": 9497,
    "Ġcaval": 25770,
    "Ġcellar": 8059,
    "reflect": 19867,
    "dreadful": 11423,
    "Ġpiqu": 21480,
    "nature": 5360,
    "sticking": 21663,
    "itz": 6007,
    "Ġreaches": 18034,
    "nights": 16449,
    "Ġsaturday": 6453,
    "verted": 10220,
    "conducted": 25573,
    "Ġthoughtless": 16196,
    "chain": 18042,
    "Ġexplored": 23519,
    "Ġcrystals": 20230,
    "Ġutilize": 4799,
    "Ġdamned": 13136,
    "ile": 520,
    "text": 1974,
    "leads": 21373,
    "Ġfoaming": 18992,
    "Ġcough": 11584,
    "urous": 10215,
    "Ġintroduction": 8973,
    "multiple": 15111,
    "raham": 18016,
    "Ġpince": 21474,
    "mont": 19171,
    "heavens": 19748,
    "Ġlanguid": 14216,
    "vously": 23506,
    "Ġpage": 6979,
    "Ġbelike": 18831,
    "garnished": 26390,
    "Ġ101": 24409,
    "Ġuseful": 3559,
    "Ġwander": 9034,
    "Ġsmallest": 6431,
    "rule": 15900,
    "Ġenraptured": 26502,
    "Ġven": 4649,
    "kee": 18274,
    "Ġactuated": 18546,
    "imp": 3037,
    "ĠâĢĶ_": 3459,
    "Ġweaver": 11691,
    "Ġhorror": 3773,
    "Ġusing": 719,
    "Ġpropensity": 18998,
    "Ġreckless": 13462,
    "Ġcheered": 16372,
    "Ġsorrowful": 10539,
    "Ġjuggl": 20441,
    "Ġang": 2510,
    "Ġacceptance": 14830,
    "Ġdiffident": 23786,
    "Ġrag": 18642,
    "Ġscheduling": 2348,
    "ouse": 1193,
    "beam": 16042,
    "Ġcircles": 7967,
    "events": 12321,
    "killer": 20479,
    "Ġgoverned": 23572,
    "Ġunholy": 26220,
    "Ġcushion": 17835,
    "Ġheroines": 19754,
    "Ġconvenience": 11333,
    "Ġestablished": 9072,
    "choice": 21694,
    "awing": 18917,
    "Ġenvelopes": 24510,
    "Ġgentlemanly": 19318,
    "Ġfumes": 21421,
    "che": 3173,
    "Ġdozen": 8186,
    "Ġdigesting": 19812,
    "Ġbanks": 6815,
    "thur": 7188,
    "det": 5207,
    "asons": 6016,
    "dwelling": 20567,
    "emotions": 15801,
    "beryls": 25310,
    "Ġimmured": 24075,
    "Ġparticulars": 5754,
    "chard": 21690,
    "umst": 2503,
    "Ġearlier": 9090,
    "Ġinterpret": 5490,
    "bohem": 19003,
    "impatiently": 20474,
    "Ġoffice": 4965,
    "Ġorders": 5341,
    "Ġpainted": 7979,
    "Ġmasonry": 13603,
    "Ġaccount": 2319,
    "ince": 4339,
    "tan": 4743,
    "him": 1937,
    "apable": 6423,
    "Ġslipping": 13365,
    "Ġhulls": 13929,
    "sailors": 9925,
    "Ġtrue": 1339,
    "Ġcongeal": 25981,
    "ittered": 18440,
    "Ġempty": 5354,
    "Ġsaluted": 14761,
    "unquiet": 21885,
    "slowly": 9092,
    "C": 39,
    "Ġexercising": 19909,
    "ships": 5486,
    "Ġtraged": 9355,
    "Ġpronounced": 8351,
    "Ġdiscount": 22785,
    "Ġdoubting": 13105,
    "original": 9088,
    "osition": 1371,
    "ract": 983,
    "Ġvicious": 24403,
    "Ġ18": 3406,
    "mistakable": 20655,
    "erde": 21271,
    "ance": 478,
    "Ġhear": 1966,
    "Ġeffect": 955,
    "Ġface": 1723,
    "Ġboasted": 16110,
    "Ġvocabulary": 4995,
    "Ġwinged": 16997,
    "Ġpell": 21459,
    "lan": 15381,
    "oriental": 23723,
    "Ġconsumm": 15158,
    "Ġwatery": 6298,
    "Ġvener": 8164,
    "Ġwretchedly": 19509,
    "Ġobliterated": 17408,
    "ĠcÃ¦": 15559,
    "worthy": 7733,
    "howling": 18990,
    "ques": 2844,
    "agged": 9240,
    "Ġfavourite": 5271,
    "Ġconciliating": 19051,
    "mutually": 26137,
    "Ġfatality": 12100,
    "Ġinflamed": 13477,
    "Ġpicturesque": 14897,
    "Ġrecur": 1622,
    "Ġfeather": 8863,
    "Ġpond": 13919,
    "rival": 12748,
    "artificial": 971,
    "ped": 6964,
    "Ġbrougham": 17872,
    "Ġreturning": 5326,
    "irra": 15789,
    "ugnance": 12371,
    "say": 3983,
    "arent": 4250,
    "Ġkins": 22198,
    "daring": 20831,
    "Ġenormous": 5609,
    "our": 534,
    "valuable": 8245,
    "Ġhearses": 20063,
    "\",": 10681,
    "Ġvibration": 17100,
    "elius": 13292,
    "els": 1766,
    "goodness": 19291,
    "Ġinstance": 2544,
    "Ġbrit": 6291,
    "Ġperforming": 7928,
    "Ġserm": 9636,
    "Ġcuriosity": 2341,
    "Ġsomeone": 6705,
    "capitals": 25083,
    "omuch": 21643,
    "Ġshoot": 11163,
    "Ġrepentance": 15164,
    "gle": 20871,
    "Ġchaldee": 26236,
    "Ġtranquill": 6633,
    "Ġungovernable": 20711,
    "Ġmoody": 8201,
    "Ġbrad": 8791,
    "Ġlatent": 19658,
    "otion": 4946,
    "Ġsail": 1675,
    "cav": 17510,
    "Ġmatrimonial": 25490,
    "Ġpang": 15609,
    "Ġimaginary": 11188,
    "Ġedinburgh": 16458,
    "Ġcorrectly": 9407,
    "Ġunho": 18246,
    "precip": 14667,
    "Ġtong": 4871,
    "granting": 23416,
    "Ġcontent": 5034,
    "min": 4573,
    "convers": 6569,
    "Ġrio": 23894,
    "tack": 12517,
    "tained": 4405,
    "Ġpatentee": 25587,
    "eastward": 15133,
    "Ġviolates": 3167,
    "Ġclerval": 4655,
    "Ġramsgate": 18649,
    "Ġcentral": 7728,
    "loose": 11809,
    "Ġticklish": 25037,
    "Ġdeliberate": 15025,
    "Ġsimilitude": 19211,
    "unctuous": 21886,
    "Ġinv": 2225,
    "itioned": 22479,
    "Ġconsulted": 13434,
    "discern": 14854,
    "alot": 15630,
    "uther": 8821,
    "Ġspring": 4121,
    "mild": 15395,
    "rices": 4560,
    "Ġvines": 12756,
    "Ġgar": 10840,
    "snapping": 24850,
    "Ġdipping": 15596,
    "Ġer": 8105,
    "Ġpand": 21458,
    "functions": 11251,
    "Ġtheoretic": 23314,
    "Ġregulate": 22583,
    "learn": 2499,
    "Ġhatchways": 24990,
    "Ġdownstream": 3775,
    "Ġdedu": 5584,
    "oura": 1059,
    "Ġshipw": 12984,
    "page": 13774,
    "Ġjoyously": 19350,
    "Ġthan": 736,
    "Ġwestmorland": 24390,
    "Ġnum": 1349,
    "Ġlim": 2378,
    "ancholy": 5070,
    "imagine": 19934,
    "Ġtranquillize": 24756,
    "pread": 7418,
    "Ġrays": 10333,
    "Ġapothe": 12379,
    "Ġbrighter": 16191,
    "Ġvolley": 24148,
    "Ġappear": 2482,
    "brary": 5755,
    "addressing": 24401,
    "Ġkiller": 19571,
    "Ġthinner": 24185,
    "ran": 11518,
    "entric": 11622,
    "perpetually": 20516,
    "Ġadditional": 7935,
    "Ġdissolved": 18555,
    "tery": 14040,
    "Ġapproved": 16036,
    "Ġknots": 15011,
    "uracy": 1100,
    "ribs": 23368,
    "icit": 3378,
    "Ġsubsiding": 23436,
    "bone": 5612,
    "Ġdelic": 4135,
    "knowing": 10439,
    "deep": 1035,
    "Ġmatches": 14398,
    "move": 11861,
    "ean": 20842,
    "uture": 1118,
    "Ġunlocked": 14123,
    "Ġsmoking": 6430,
    "Ġoh": 2177,
    "repressed": 21246,
    "Ġfrequencies": 4790,
    "Ġdissuade": 26258,
    "Ġhempen": 13554,
    "attent": 9362,
    "Ġbegged": 8231,
    "Ġgraphs": 25464,
    "Ġsteadily": 8052,
    "Ġemblematical": 25789,
    "wed": 5796,
    "Ġcoron": 4465,
    "ays": 6685,
    "¨": 106,
    "Ġstru": 2172,
    "Ġrecollected": 8311,
    "ssed": 3735,
    "Ġlacepede": 20498,
    "Ġcontextually": 11956,
    "cheered": 23808,
    "Ġalone": 2566,
    "Ġinferred": 14503,
    "oir": 21004,
    "Ġrefreshing": 20267,
    "Ġcrest": 12946,
    "lorn": 12492,
    "Ġincorrupt": 19237,
    "Ġfloat": 12036,
    "Ġbrought": 2515,
    "Ġformidable": 8220,
    "Ġcleansed": 26295,
    "Ġdefe": 21840,
    "Ġmoles": 22438,
    "Ġreck": 6539,
    "Ġinequalities": 26455,
    "saw": 5895,
    "Ġwaterward": 23370,
    "Ġ13": 6720,
    "Ġconsiderably": 7715,
    "ees": 13714,
    "Ġstrengthen": 20703,
    "Ġricher": 12764,
    "representativeness": 25273,
    "Ġpalace": 16691,
    "Ġpaling": 21465,
    "distance": 12157,
    "mmet": 10990,
    "Ġcertainty": 6736,
    "Ġincome": 7917,
    "bel": 3836,
    "Ġsain": 17752,
    "Ġwilson": 6632,
    "Ġcustomary": 8673,
    "Ġswayed": 15050,
    "Ġunmingled": 18264,
    "influ": 9544,
    "relieved": 13280,
    "homage": 25617,
    "Ġexperience": 1400,
    "ceived": 1965,
    "ilingly": 21727,
    "come": 2374,
    "Ġro": 597,
    "Ġdies": 11596,
    "Ġbeg": 1282,
    "comes": 5394,
    "Ġcogent": 14276,
    "Ġhurled": 10431,
    "Ġconjectures": 16927,
    "itatingly": 25278,
    "rics": 13043,
    "Ġwarring": 16867,
    "esy": 9185,
    "ally": 530,
    "Ġsooty": 25816,
    "Ġsemicircle": 26068,
    "week": 12936,
    "Ġpil": 5014,
    "ated": 720,
    "ay": 355,
    "Ġunt": 2291,
    "twig": 23702,
    "Ġvacancies": 24345,
    "Ġcran": 12005,
    "Ġcharger": 19010,
    "Ġfrequent": 3286,
    "Ġrazor": 22658,
    "matic": 4620,
    "antled": 18287,
    "astic": 1869,
    "ent": 305,
    "Ġshoe": 14569,
    "Ġbridal": 14957,
    "Ġphyset": 23203,
    "Ġgrenadier": 21619,
    "Ġresounded": 22548,
    "Ġshifting": 12773,
    "¶": 119,
    "Ġrepose": 6743,
    "Ġimpat": 4457,
    "Ġfoiled": 23245,
    "compose": 24036,
    "utch": 21589,
    "Ġbroadened": 23988,
    "Ġvest": 8163,
    "Ġhiss": 15792,
    "Ġheaped": 18040,
    "quadr": 15768,
    "Ç": 136,
    "Ġthickly": 12120,
    "solut": 3364,
    "interrupt": 8619,
    "toss": 22570,
    "impropriety": 21716,
    "Ġtrembled": 8705,
    "mpt": 6656,
    "Ġisles": 8461,
    "deliver": 19507,
    "Ġharmony": 16816,
    "bourne": 19104,
    "Ġinterp": 16073,
    "inclination": 20061,
    "Ġinhospit": 25453,
    "Ġbrazen": 23843,
    "Ġinnocence": 6478,
    "dire": 15339,
    "ulent": 21866,
    "usiveness": 22287,
    "iability": 20922,
    "headed": 4318,
    "Ġsymptoms": 8708,
    "Ġchestnut": 19675,
    "Ġmaled": 21317,
    "Ġseating": 18200,
    "pense": 10371,
    "yourselves": 24959,
    "constellation": 24608,
    "ails": 6162,
    "Ġtashtego": 4488,
    "Ġattention": 1166,
    "Ġraft": 16120,
    "Ġsmite": 22561,
    "digger": 24312,
    "Ġpedd": 17912,
    "camp": 15333,
    "Ġentailed": 11029,
    "Ġsequence": 1976,
    "Ġmichigan": 26428,
    "Ġoccasioned": 13232,
    "beheld": 11805,
    "appearance": 5334,
    "Ġwithout": 1122,
    "sunlight": 24852,
    "Ġfearing": 12820,
    "okingly": 22382,
    "quest": 4539,
    "Ġvillanous": 24059,
    "Ġequivalent": 4803,
    "Ġfigured": 16646,
    "Ġroyalty": 19739,
    "Ġcan": 469,
    "Ġpraises": 16732,
    "thinks": 16644,
    "Ġvagueness": 25738,
    "Ġgenerates": 3665,
    "Ġmalady": 24392,
    "indust": 18436,
    "Ġsurgeons": 23466,
    "keepers": 16662,
    "Ġneskyeuna": 26461,
    "Ġseason": 5237,
    "Ġsubset": 9873,
    "secut": 7867,
    "baggage": 24927,
    "ino": 15482,
    "Ġquaker": 10973,
    "Ġchoking": 15938,
    "garet": 9600,
    "once": 5905,
    "Ù": 154,
    "Ġhastened": 9007,
    "cent": 8073,
    "Ġwildly": 9417,
    "ounding": 22397,
    "which": 1710,
    "Ġruined": 12959,
    "Ġluxuriant": 20398,
    "Ġturnkeys": 23032,
    "Ġtumb": 21172,
    "Ġdestroying": 14732,
    "Ġhermit": 15861,
    "boys": 13364,
    "appalled": 18763,
    "rospect": 11615,
    "Ġsummar": 3526,
    "Ġembark": 8559,
    "Ġtroubled": 6618,
    "Ġgazing": 5877,
    "Ġinnovative": 1613,
    "ouncement": 11749,
    "Ġdoubtfully": 23479,
    "blasted": 20192,
    "sheltered": 25586,
    "Ġappertain": 22220,
    "ken": 2801,
    "het": 5435,
    "sixteen": 24854,
    "Ġitaly": 10869,
    "Ġpaints": 23525,
    "chie": 21693,
    "Ġrivals": 20274,
    "antee": 22101,
    "Ġere": 3686,
    "Ġdavis": 25953,
    "Ġblast": 7445,
    "Ġisolated": 13563,
    "Ġsympath": 4862,
    "inction": 6663,
    "Ġcongealed": 25982,
    "Ġhated": 7585,
    "Ġdetails": 6567,
    "carbuncle": 26384,
    "Ġtapped": 11556,
    "Ġdata": 519,
    "ify": 1363,
    "Ġdifferen": 937,
    "Ġplaster": 16087,
    "distinctive": 25726,
    "Ġdivineness": 25724,
    "oided": 11511,
    "Ġmoderation": 12824,
    "Ġreality": 7059,
    "[_": 5131,
    "½": 126,
    "Ġviol": 2071,
    "stave": 21652,
    "Ġparticularly": 5056,
    "Ġships": 3715,
    "atha": 6574,
    "Ġwhom": 1832,
    "concern": 6101,
    "king": 3064,
    "kes": 3679,
    "rim": 7139,
    "illes": 12699,
    "dismal": 23499,
    "Ġweld": 8112,
    "penn": 18828,
    "Ġoverpow": 14210,
    "itically": 21333,
    "Ġpeterson": 9486,
    "Ġexceeding": 1580,
    "Ġconvince": 14644,
    "Ġselects": 4385,
    "accents": 19213,
    "Ġroughly": 17041,
    "Ġopening": 5045,
    "Ġexamine": 7735,
    "intellig": 5321,
    "Ġvehic": 8936,
    "Ġbirds": 5875,
    "ening": 3108,
    "varieties": 23190,
    "Ġfur": 992,
    "Ġmoist": 9288,
    "Ġtook": 1857,
    "Ġflann": 23017,
    "Ġfil": 3474,
    "oping": 5559,
    "Ġlaugh": 4113,
    ":": 30,
    "Ġitalian": 12414,
    "Ġexecuted": 9475,
    "Ġchest": 5185,
    "Ġmagistrate": 8234,
    "Ġ1890": 23900,
    "Ġdough": 8422,
    "Ġape": 21199,
    "Ġhermits": 22078,
    "hit": 20891,
    "Ġax": 7822,
    "fif": 9119,
    "sub": 4661,
    "Ġbravely": 23842,
    "ints": 3416,
    "Ġbristles": 25845,
    "Ġchilly": 25563,
    "net": 1195,
    "Ġincul": 22553,
    "kilt": 4867,
    "Ġprofusion": 23569,
    "Ġtre": 2536,
    "Ġretarded": 23075,
    "Ġfamine": 16330,
    "ensive": 6281,
    "penetrating": 25491,
    "iac": 6227,
    "Ġremote": 8923,
    "Ġretrogression": 26583,
    "Ġmasked": 3695,
    "igned": 5656,
    "ung": 2744,
    "Ġdelighted": 5499,
    "Ġfishy": 16526,
    "Ġslam": 13063,
    "Ġemployments": 12107,
    "Ġconvict": 23747,
    "Ġpractised": 23320,
    "Ġfancies": 10426,
    "Ġreligious": 25124,
    "Ġcabaco": 13171,
    "blooded": 20026,
    "Ġaccommodate": 20520,
    "ially": 9250,
    "Ġstock": 7455,
    "Ġprotectors": 9073,
    "Ġjeopard": 9946,
    "unhesitatingly": 26498,
    "onts": 15522,
    "Ġeffusion": 22507,
    "semic": 21824,
    "Ġtradesmen": 17106,
    "î": 175,
    "Ġvice": 6550,
    "osc": 18388,
    "Ġresting": 7962,
    "saved": 15434,
    "Ġbore": 5079,
    "Ġbaby": 6639,
    "Ġsigh": 10339,
    "start": 7599,
    "canoes": 16237,
    "Ġclutching": 24954,
    "visitor": 15060,
    "crowd": 25255,
    "Ġspiced": 22137,
    "Ġmagnificence": 20635,
    "advanced": 19591,
    "Ġantichronical": 26611,
    "Ġfreshness": 23991,
    "threadbare": 25990,
    "Ġclerks": 17298,
    "Ġ27": 8618,
    "invite": 25091,
    "Ġenthusiasm": 8065,
    "Ġunwinding": 22064,
    "chancing": 22925,
    "Ġscuff": 15953,
    "Ġdescending": 8906,
    "oles": 21007,
    "Ġrucastles": 18722,
    "Ġnever": 1019,
    "Ġreveal": 11201,
    "awed": 10394,
    "Ġearth": 2854,
    "Ġhardest": 18914,
    "Ġrichness": 19313,
    "ore": 418,
    "--": 1041,
    "whis": 7898,
    "Ġwired": 17788,
    "Ġaway": 1243,
    "Ġdeliver": 9850,
    "Ġwill": 678,
    "Ġtimely": 19597,
    "Ġetc": 7086,
    "Ġtwist": 11855,
    "osy": 11762,
    "Ġdemonstrate": 24997,
    "armed": 7251,
    "Ġfoster": 18991,
    "nobody": 16141,
    "Ġtired": 9152,
    "Ġtaurus": 21181,
    "oking": 4608,
    "Ġinterference": 8897,
    "Ġdairy": 20689,
    "Ġdiscourage": 3119,
    "Ġincreasingly": 9373,
    "Ġhelmsman": 10507,
    "Ġenergetic": 15201,
    "imet": 21709,
    "Ġphenomena": 21487,
    "Ġlearned": 2022,
    "Ġlight": 1702,
    "Ġeverywhere": 9799,
    "Ġhardships": 14454,
    "Ġincisive": 18571,
    "Ġintrusted": 21996,
    "Ġusurpation": 18362,
    "ø": 185,
    ",âĢĻâĢĶ": 23528,
    "Ġvial": 10251,
    "yourself": 6744,
    "Ġmorocco": 26575,
    "Ġclassify": 1579,
    "ome": 535,
    "fatigue": 20660,
    "Ġdeeps": 16117,
    "Ġsweep": 8266,
    "Ġfrozen": 9016,
    "Ġplans": 7918,
    "Ġdilig": 8350,
    "Ġunw": 7005,
    "Ġbarrels": 9439,
    "linearity": 1651,
    "sailing": 14717,
    "feared": 11806,
    "od": 354,
    "Ġbrill": 8552,
    "kne": 20937,
    "Ġey": 8135,
    "Ġsanctified": 25883,
    "vand": 21111,
    "Ġoverall": 4358,
    "Ġchinese": 14184,
    "inous": 8776,
    "achusetts": 20712,
    "Ġwithheld": 18117,
    "extraordinary": 9098,
    "Ġst": 332,
    "isite": 15567,
    "Ġgrace": 5374,
    "beaut": 8515,
    "Ġcomb": 1060,
    "Ġscenarios": 26544,
    "Ġther": 17780,
    "Ġshutter": 16673,
    "Ġfam": 1584,
    "Ġrule": 1533,
    "Ġwashington": 17205,
    "Ġoutset": 15959,
    "Ġsaves": 18325,
    "Ġ[_": 15464,
    "Ġlime": 13951,
    "Ġbecher": 18882,
    "Ġpolitical": 19226,
    "useless": 14596,
    "Ġbeh": 1803,
    "Ġinvesting": 19644,
    "Ġpeculiar": 3155,
    "Ġpainful": 6463,
    "passenger": 24169,
    "Ġjour": 11767,
    "Ġpilgr": 12185,
    "year": 11097,
    "Ġevol": 2816,
    "Ġperfection": 19220,
    "Ġcrackling": 24961,
    "Ġply": 21456,
    "uling": 2256,
    "event": 8077,
    "Ġembedd": 1391,
    "Ġoverheard": 11778,
    "Ġagency": 11810,
    "Ġminimizes": 2047,
    "Ġattraction": 18620,
    "Ġ53": 19638,
    "Ġreprehensible": 15703,
    "Ġattentions": 5879,
    "Ġbolts": 16945,
    "Ġswarm": 23057,
    "Ġprognost": 15285,
    "speaking": 12103,
    "Ġcareer": 11120,
    "Ġfowler": 16939,
    "bacc": 7795,
    "Ġslid": 7952,
    "Ġwhitt": 18057,
    "pip": 6657,
    "uberance": 25917,
    "Ġsqualid": 14371,
    "Ġdimensions": 16574,
    "Ġmoccas": 22440,
    "G": 43,
    "Ġacross": 1329,
    "ipper": 13743,
    "wail": 21128,
    "Ġglued": 20592,
    "rudential": 16711,
    "Ġcommonly": 3264,
    "Ġenh": 2921,
    "bordered": 17501,
    "Ġconfinement": 19041,
    "Ġkramm": 26235,
    "Ġanimating": 23426,
    "Ġturner": 7051,
    "danced": 20830,
    "Ġleading": 7297,
    "Ġbrows": 13305,
    "Ġ99": 10747,
    "mystery": 15159,
    "Ġimpressive": 15001,
    "thar": 18218,
    "Ġlabor": 10420,
    "Ġgesture": 11401,
    "ront": 15421,
    "V": 58,
    "Ġhurried": 4030,
    "devoted": 20020,
    "Ġacquit": 18899,
    "Ġpostmark": 16727,
    "Ġcomes": 3422,
    "Ġeldest": 6573,
    "Ġdit": 21423,
    "rane": 17655,
    "bots": 10085,
    "ignorant": 13567,
    "appropri": 22844,
    "Ġexception": 11218,
    "Ġcaresses": 26060,
    "Ġla": 5914,
    "windlass": 16723,
    "Ġcanal": 8182,
    "individual": 18437,
    "Ġweighing": 20019,
    "Ġoverladen": 22367,
    "Ġeuroclydon": 15300,
    "shudder": 26247,
    "acetty": 24464,
    "Ġexisting": 12723,
    "Ġfurled": 22815,
    "Ġaltern": 7394,
    "Ġdazed": 15600,
    "anch": 15564,
    "Ń": 260,
    "Ġsolicit": 22890,
    "Ġrelapses": 26280,
    "incess": 15485,
    "intim": 22937,
    "Ġindelible": 25695,
    "ractions": 11636,
    "Ġmining": 22832,
    "Ġscores": 2713,
    "Ġimpossible": 3544,
    "Ġsacrilege": 26230,
    "Ġcategor": 4142,
    "Ġident": 2240,
    "Ġlucerne": 23867,
    "Ġpervading": 20616,
    "laugh": 10111,
    "Ġdenny": 9004,
    "Ġflying": 5413,
    "Ġargument": 7100,
    "Ġruled": 22789,
    "Ġcased": 21349,
    "Ġrisk": 8039,
    "recklessly": 25270,
    "Ġfavoured": 16364,
    "Ġ81": 24457,
    "cellar": 20280,
    "boil": 19001,
    "Ġtestament": 23229,
    "Ġjamming": 17267,
    "Ġbead": 21754,
    "Ġshirr": 18232,
    "Ġyelled": 9697,
    "Ġdeuteronomy": 15764,
    "ount": 1111,
    "Ġsnatched": 10473,
    "without": 4848,
    "dles": 11483,
    "Ġaccurate": 13288,
    "Ġdissu": 18551,
    "Ġcolonies": 14378,
    "throughout": 24092,
    "Ġcultivated": 17367,
    "Ġexhale": 24402,
    "frost": 15110,
    "training": 2516,
    "outon": 12808,
    "vedale": 22715,
    "peace": 13054,
    "finding": 17015,
    "ep": 444,
    "Ġconvent": 11671,
    "Ġrambling": 18645,
    "atters": 18500,
    "writer": 14650,
    "grown": 10102,
    "generous": 16571,
    "Ġsacrificed": 17425,
    "Ġcontribut": 12864,
    "heeded": 13837,
    "Ġbordering": 17231,
    "Ġcured": 21350,
    "Ġtransplanted": 22445,
    "tiest": 21084,
    "Ġvoids": 25808,
    "Ġnaturally": 2463,
    "soever": 11863,
    "ë": 172,
    "Ġgallied": 19559,
    "Ġescort": 23507,
    "ket": 17584,
    "Ġsuck": 15866,
    "Ġattribute": 16101,
    "ceed": 1074,
    "Ġramadan": 9578,
    "weather": 7229,
    "Ġaug": 6236,
    "Ġjoosy": 23633,
    "Ġcomparing": 14267,
    "Ġconsequent": 18113,
    "Ġhurriedly": 11250,
    "standing": 5558,
    "heavily": 24534,
    "eze": 20849,
    "Ġimpotent": 18448,
    "Ġauthoritative": 19564,
    "Ġtruce": 24118,
    "Ġfluttered": 16253,
    "Ġalluding": 18237,
    "Ġdestro": 3723,
    "Ġextending": 11025,
    "A": 37,
    "Ġposterity": 17405,
    "ulgences": 21869,
    "Ġ**": 4722,
    "Ġboister": 12924,
    "prob": 7071,
    "Ġghosts": 12237,
    "everything": 6326,
    "cho": 2760,
    "Ġstuffed": 13413,
    "queequeg": 4334,
    "cheeked": 19342,
    "Ġtars": 21167,
    "gn": 8082,
    "Ġvales": 21950,
    "Ġevaluate": 2684,
    "Ġunassuming": 20512,
    "Ġspl": 2989,
    "Ġrele": 2920,
    "Ġmicrosc": 20679,
    "Ġincommun": 25309,
    "halloa": 17091,
    "Ġconsummation": 17428,
    "Ġhanding": 16134,
    "Ġlazy": 17051,
    "Ġunlabeled": 3800,
    "Ġthanked": 9461,
    "past": 8090,
    "Ġpretension": 23767,
    "requiem": 24857,
    "Ġfavours": 23284,
    "Ġfluctuations": 5516,
    "Ġbred": 9172,
    "Ġcomprehended": 11296,
    "Ġproficiency": 19194,
    "Ġwinc": 9645,
    "Ġbutton": 10270,
    "Ġdeaden": 23462,
    "confined": 24328,
    "sue": 2076,
    "dignity": 15349,
    "Ġrestless": 10415,
    "Ġsnatching": 10474,
    "go": 2064,
    "soo": 18684,
    "Ġfrowning": 13627,
    "Ġsalut": 10512,
    "Ġnormalizes": 1864,
    "Ġbetake": 22908,
    "had": 1950,
    "Ġslighter": 18942,
    "Ġadmit": 7711,
    "Ġclos": 4550,
    "Ġwithered": 19468,
    "Ġrebellion": 26477,
    "Ġsufficient": 2002,
    "Ġcolumb": 22857,
    "Ġpromptly": 23821,
    "Ġain": 6970,
    "Ġsuccor": 25663,
    "Ġshare": 1658,
    "Ġdirectors": 18923,
    "stool": 23823,
    "Ġfrontispiece": 23917,
    "Ġbanqu": 12593,
    "Ġarchly": 22782,
    "affectionate": 24922,
    "Ġswinging": 7449,
    "Ġneg": 1331,
    "crews": 15045,
    "witness": 10038,
    "Ġpalsy": 25779,
    "Ġshiny": 14109,
    "Ġvarious": 3510,
    "Ġceasing": 23760,
    "gin": 4931,
    "Ġopinion": 3145,
    "Ġassign": 11111,
    "last": 3803,
    "Ġseptember": 18206,
    "drowned": 17372,
    "Ġdisagree": 22536,
    "listened": 15046,
    "Ġamuse": 5941,
    "Ġreverse": 16984,
    "Åĵuv": 15186,
    "Ġcher": 6131,
    "Ġoccasionally": 5590,
    "Ġinvoluntarily": 8549,
    "Ġendeav": 2959,
    "Ġmark": 2329,
    "Ġforlorn": 14018,
    "lovel": 22515,
    "Ġheidelburgh": 11646,
    "Ġawait": 17074,
    "Ġpoem": 22592,
    "effort": 19216,
    "Ġsmiled": 5942,
    "ĠĠĠĠĠĠĠĠĠĠĠĠĠĠ": 22567,
    "Ġdepend": 796,
    "71": 20758,
    "Ġconfessor": 24022,
    "Ġincites": 22555,
    "stun": 18021,
    "Ġfoundering": 21422,
    "Ġgrunted": 16172,
    "always": 5708,
    "Ġcastles": 16642,
    "Ġalbatross": 10873,
    "Ġundeviating": 15221,
    "Ģ": 227,
    "Ġplanet": 14753,
    "rarely": 21637,
    "Ġkey": 2101,
    "Ġpeak": 16130,
    "Ġbreathed": 11222,
    "Ġparameter": 898,
    "expl": 9286,
    "Ġdeplored": 20508,
    "acknowledging": 25477,
    "Ġseething": 18202,
    "Ġridicule": 13515,
    "Ġvolumes": 14803,
    "between": 5071,
    "ars": 906,
    "comrade": 18747,
    "Ġcruises": 23708,
    "iferous": 17294,
    "Ġexercise": 8359,
    "Ġrifts": 21982,
    "Ġperished": 11788,
    "Ġwars": 17787,
    "Ġcomputes": 4769,
    "prejudice": 25572,
    "crow": 9593,
    "Ġtherein": 11780,
    "Ġscore": 9741,
    "Ġwhaler": 7520,
    "iation": 7343,
    "Ġbrush": 17866,
    "Ġflashes": 11920,
    "Ġaffidavit": 20726,
    "Ġcou": 5288,
    "uated": 10134,
    "removed": 15519,
    "Ġunsc": 22018,
    "jep": 20928,
    "ary": 988,
    "colour": 9906,
    "clay": 18933,
    "Ġdeclares": 16994,
    "throw": 14101,
    "Ġ*/": 10376,
    "Ġphotograph": 6304,
    "airing": 16178,
    "suffered": 24330,
    "following": 10575,
    "Ġhummed": 18779,
    "Ġinspection": 14545,
    "Ġbrutality": 26278,
    "Ġshe": 466,
    "Ġthousands": 6750,
    "jected": 22717,
    "id": 338,
    "Ġrighteous": 18948,
    "Ġapex": 24342,
    "Ġterminated": 23511,
    "oof": 15408,
    "Ġwhistled": 24624,
    "various": 10400,
    "Ġpen": 1531,
    "Ġtying": 15476,
    "Ġthither": 6821,
    "conjecturing": 20137,
    "Ġharder": 14452,
    "Ġrobins": 16250,
    "olen": 9702,
    "getting": 12972,
    "batch": 1982,
    "Ġmediocrity": 26610,
    "Ġbu": 3683,
    "Ġforest": 9874,
    "Ġbenef": 3489,
    "chase": 11648,
    "hever": 13834,
    "figures": 20125,
    "Ġpresent": 1643,
    "Ġplantation": 11425,
    "Ġsummoning": 23877,
    "Ġenthr": 22746,
    "adagrad": 9694,
    "Ġcha": 6853,
    "Ġxxi": 24476,
    "Ġgraceful": 11298,
    "lucases": 20213,
    "fortun": 3539,
    "Ġsullenly": 17175,
    "Ġparchment": 13656,
    "neg": 12870,
    "customary": 25896,
    "Ġunwearied": 20605,
    "Ġprior": 11320,
    "Ġfifteen": 6947,
    "guilty": 19486,
    "Ġnormal": 1203,
    "Ġnodes": 1968,
    "ner": 1369,
    "Ġrestoration": 19029,
    "ium": 4865,
    "lar": 4485,
    "osite": 4894,
    "Ġeffected": 14354,
    "Ġshyness": 20309,
    "Ġabundantly": 17159,
    "augmented": 26288,
    "umed": 6556,
    "Ġboomer": 20170,
    "tle": 2407,
    "oes": 4435,
    "smallest": 23915,
    "Ġcaulk": 25441,
    "Ġrelied": 16198,
    "Ġrooted": 13173,
    "Ġoblivion": 26032,
    "oam": 8755,
    "Ġhesitate": 16948,
    "Ġconsequently": 8060,
    "Ġshol": 21999,
    "Ġke": 1155,
    "axen": 22525,
    "Ġdisgust": 6707,
    "angles": 18291,
    "ĠĠĠĠ": 459,
    "ĠĠĠĠĠ": 3527,
    "Ġextended": 7923,
    "satisfaction": 9995,
    "Ġdisturbed": 8675,
    "Ġespecial": 26412,
    "iger": 8448,
    "ings": 631,
    "ĠĠĠĠĠĠĠĠĠĠĠĠĠĠĠĠĠĠĠĠĠĠĠĠĠĠĠĠĠĠĠĠĠĠĠĠĠĠĠĠ": 4518,
    "jewell": 25524,
    "bearance": 22498,
    "zek": 16266,
    "Ġincline": 18570,
    "Ġpriv": 4185,
    "Ġrevered": 23736,
    "Ġmarsh": 9824,
    "Ġbended": 21388,
    "Ġdeceit": 13485,
    "figured": 20126,
    "Ġsaturation": 2063,
    "aps": 1230,
    "Ġpower": 1196,
    "Ġchival": 14183,
    "gish": 20875,
    "Ġaided": 17747,
    "nants": 17615,
    "Ġscot": 5643,
    "Ġcompress": 21848,
    "ĠĠĠĠĠĠĠĠĠĠĠĠĠĠĠĠĠĠĠĠĠĠĠĠĠĠĠ": 14889,
    "Ġink": 8807,
    "Ġrelease": 19293,
    "_)âĢĶ": 20147,
    "Ġcoronation": 13338,
    "Ġbrute": 8930,
    "Ġcheerful": 6624,
    "evident": 25521,
    "Ġextrem": 2471,
    "Ġmeanwhile": 5736,
    "Ġdisappoint": 24208,
    "leader": 25352,
    "Ġalacrity": 15741,
    "anning": 10167,
    "Ġtrample": 20330,
    "orand": 21400,
    "Ġsighs": 22714,
    "Ġtiar": 21170,
    "Ġcontinental": 19708,
    "Ġbull": 7839,
    "darkened": 24517,
    "puzzling": 26144,
    "ante": 11725,
    "Ġremind": 6059,
    "Ġtreatment": 12076,
    "Ġliberally": 16832,
    "culiarity": 11143,
    "Ġserviceable": 24717,
    "aiian": 23594,
    "Ġfry": 17881,
    "Ġcoldness": 23762,
    "Ġdash": 8122,
    "instinct": 19546,
    "Ġpresents": 8246,
    "mmed": 7914,
    "Ġaccent": 10296,
    "ghost": 20889,
    "Ġwoollen": 12108,
    "animated": 14978,
    "Ġfitly": 24002,
    "persecutor": 26532,
    "Ġvexation": 10589,
    "apart": 15965,
    "Ġperforms": 11881,
    "Ġphara": 23202,
    "Ġoutskirts": 17460,
    "illation": 14144,
    "Ġfriendless": 23028,
    "cousins": 20121,
    "Ġtougher": 21179,
    "Ġstays": 16564,
    "ker": 5792,
    "Ġconceivable": 16615,
    "spouter": 22735,
    "Ġfive": 2839,
    "w": 91,
    "Ġfragrant": 13089,
    "Ġorthodox": 22099,
    "Ġdemi": 25549,
    "Ġhosmer": 6775,
    "Ħ": 231,
    "Ġstuff": 5717,
    "Ġevermore": 18812,
    "okers": 18442,
    "landed": 18957,
    "vings": 9754,
    "obviously": 25243,
    "Ġwalked": 3143,
    "Ġindelicacy": 25696,
    "smitten": 23912,
    "Ġumbrella": 15269,
    "Ġremembering": 14612,
    "Ġassembled": 9239,
    "Ġuniform": 2227,
    "umbered": 22121,
    "begone": 12883,
    "Ġleaned": 7608,
    "Ġqu": 605,
    "Ġstated": 9692,
    "Ġbi": 921,
    "º": 123,
    "endurable": 22232,
    "gates": 20874,
    "Ġwhimsical": 20431,
    "Ġvanquished": 22881,
    "rically": 15420,
    "Ġmultipl": 2791,
    "cest": 12449,
    "Ġcourting": 23294,
    "biting": 20783,
    "Ġwarbling": 26169,
    "iasm": 8061,
    "Ġmemorable": 16448,
    "aking": 976,
    "ir": 378,
    "mist": 5686,
    "verdict": 21733,
    "ather": 740,
    "Ġpremium": 23908,
    "Ġbern": 17860,
    "whales": 5187,
    "Ġsubstantial": 14813,
    "Ġsigma": 1539,
    "Ġvexatious": 19784,
    "Ġwrong": 4725,
    "Ġsultan": 15188,
    "Ġclapped": 9748,
    "Ġparty": 3511,
    "Ġimbalanced": 18334,
    "Ġtears": 4232,
    "ittarius": 22381,
    "science": 11913,
    "Ġhospitality": 13516,
    "caterpillar": 26385,
    "Ġblindly": 12114,
    "belated": 24042,
    "Ġb": 281,
    "Ġsanguine": 25929,
    "endar": 18365,
    "Ġpersecutor": 26097,
    "intend": 16228,
    "cushion": 20823,
    "Ġoutweigh": 22326,
    "Ġcommonplace": 11098,
    "Ġsufferable": 16261,
    "Ġweighty": 16037,
    "loved": 14253,
    "countless": 24153,
    "Ġbosoms": 16797,
    "favourite": 15147,
    "Ġgarden": 3825,
    "een": 727,
    "Ġhooped": 23358,
    "Ġpavement": 9580,
    "Ġvaluable": 5608,
    "dest": 4103,
    "Ġsmothe": 18574,
    "Ġavowal": 19418,
    "assist": 11771,
    "atives": 2236,
    "lives": 12490,
    "Ġunsupervised": 2488,
    "Ġtwelfth": 22681,
    "Ġcombine": 4416,
    "Ġharpooneers": 4733,
    "ible": 1114,
    "long": 2915,
    "Ġoverboard": 6046,
    "Ġrepro": 7275,
    "Ġwidows": 24239,
    "Ġapplies": 11963,
    "Ġamerican": 5061,
    "ich": 470,
    "Ġwarning": 9061,
    "Ġunderneath": 16341,
    "Ġseemed": 1279,
    "Ġunche": 23431,
    "itting": 1151,
    "Ġsixty": 7723,
    "Ġgarn": 13966,
    "Ġanonymous": 26179,
    "Ġtropical": 17066,
    "Ġpupp": 10822,
    "Ġmomentary": 11037,
    "ility": 625,
    "Ġpoltroon": 26600,
    "Ġpenalties": 10414,
    "Ġleviathan": 3288,
    "Ġperverseness": 13658,
    "isition": 11589,
    "desirable": 23813,
    "Ġimpressions": 9556,
    "Ġagricultural": 26552,
    "Ġfleets": 23777,
    "Ġappare": 12821,
    "Ġtit": 8400,
    "Ġgrasped": 8034,
    "asable": 21544,
    "Ġliveliest": 24774,
    "Ġgeorgia": 23889,
    "nephew": 26399,
    "rier": 9245,
    "lipped": 16221,
    "precious": 12077,
    "Ġexists": 14045,
    "Ġdetain": 14185,
    "Ġadvise": 7936,
    "Ġinflicted": 11367,
    "Ġzeros": 3325,
    "Ġcommerce": 11017,
    "impat": 11203,
    "Ġpreserving": 19799,
    "sensibility": 25026,
    "Ġpasture": 14544,
    "princ": 8624,
    "ura": 1066,
    "feed": 9296,
    "Ġmassac": 14739,
    "consternation": 16914,
    "Ġresolute": 19247,
    "Ġconfid": 7687,
    "species": 13261,
    "itig": 1330,
    "Ġanxiously": 8290,
    "R": 54,
    "Ġpanic": 11288,
    "Ġcigarette": 20658,
    "Ġbids": 24646,
    "Ġtrifling": 10605,
    "islands": 21379,
    "Ġskul": 22801,
    "Ġreser": 5170,
    "mathemat": 19139,
    "Ġincarnate": 20378,
    "Ġtrifled": 24675,
    "Ġposition": 1954,
    "Ġlungs": 8362,
    "prior": 21035,
    "Ġsucked": 14139,
    "Ġfeasible": 22213,
    "fect": 2299,
    "remained": 8573,
    "Ġprometheus": 15296,
    "Ġcharming": 6631,
    "two": 3862,
    "Ġforger": 15737,
    "similar": 13457,
    "Ġproceed": 3244,
    "billiard": 25335,
    "M": 49,
    "abby": 14024,
    "Ġreflection": 6441,
    "<PAD>": 0,
    "Ġquit": 5246,
    "Ġarms": 3965,
    "Ġstamped": 13530,
    "Ġwaves": 3919,
    "isms": 12585,
    "Ġhookah": 16972,
    "Ġinfancy": 10411,
    "pictures": 15094,
    "Ġchild": 2259,
    "answered": 10276,
    "Ġentic": 16150,
    "Ġinvisibly": 24814,
    "icions": 21566,
    "Ġadvanced": 1541,
    "eye": 6226,
    "iarity": 8747,
    "Ġoily": 13867,
    "Ġlawyers": 25249,
    "Ġtherefore": 2239,
    "ercial": 21277,
    "aet": 15311,
    "magnitude": 17251,
    "Ġthunders": 15642,
    "umphed": 23518,
    "Ġrespite": 13158,
    "gro": 10097,
    "Ġclubb": 22355,
    "Ġthimble": 15641,
    "Ġribbons": 24325,
    "questions": 16762,
    "lorious": 17594,
    "Ġwraps": 19779,
    "Ġglacier": 11435,
    "Ġallowance": 14392,
    "Ġjogged": 26237,
    "used": 3260,
    "Ġvitality": 15176,
    "jour": 20929,
    "terdam": 18132,
    "gaining": 20127,
    "Ġmute": 19419,
    "Ġoakshott": 12234,
    "Ġcommunicative": 24548,
    "Ġpreservative": 24630,
    "judged": 14834,
    "collinses": 19925,
    "Ġtool": 21514,
    "Ġhanover": 20589,
    "Ġpurse": 12015,
    "Ġanybody": 5314,
    "whosoever": 22244,
    "Ġslide": 10396,
    "Ġbrim": 12982,
    "mou": 10710,
    "Ġrecomm": 4996,
    "Ġindul": 5858,
    "Ġmoisture": 12363,
    "clearer": 24073,
    "Ġindividual": 5744,
    "Ġuntutored": 19168,
    "lingering": 18602,
    "Ġwantest": 18792,
    "irement": 18356,
    "send": 15426,
    "Ġrep": 1935,
    "Ġquadru": 16008,
    "Ġparcel": 15203,
    "Ġtrace": 6183,
    "beries": 22748,
    "vitiated": 25755,
    "itors": 2917,
    "ested": 3480,
    "ww": 10739,
    "Ġsphy": 18312,
    "Ġslaughter": 20732,
    "Ġhardly": 2430,
    "Ġrelief": 6061,
    "Ġweaving": 12745,
    "arab": 21444,
    "rapidly": 15247,
    "decided": 13219,
    "Ġsufferings": 7513,
    "Ġgothic": 18002,
    "tling": 9145,
    "ounts": 4653,
    "infant": 19830,
    "Ġcoleridge": 18768,
    "fire": 6359,
    "ineering": 21971,
    "Ġhereford": 22882,
    "Ġaffection": 2639,
    "entiating": 3436,
    "Ġemblem": 20501,
    "Ġconveniently": 20082,
    "Ġbonnet": 10658,
    "Ġintrig": 21994,
    "Ġsafie": 6620,
    "Ġdrought": 19281,
    "Ġ46": 19494,
    "Ġkings": 7197,
    "Ġclump": 15972,
    "Ġreconciliation": 25293,
    "l": 80,
    "Ġpath": 2113,
    "Ġfertile": 20586,
    "eag": 20844,
    "Ġmayhap": 18712,
    "Ġcapable": 5054,
    "Ġscor": 8191,
    "kinson": 10029,
    "Ġsembl": 19061,
    "Ġdungeon": 16998,
    "Ġinviting": 19145,
    "stories": 18026,
    "Ġimmemorial": 10513,
    "Ġstrangest": 14799,
    "innocence": 15187,
    "anxiously": 15114,
    "Ġfondness": 16782,
    "Ġgrease": 26191,
    "Ġreturned": 2895,
    "Ġsurmises": 17056,
    "clerval": 7951,
    "Ġbetrayed": 9564,
    "Ġblubber": 5666,
    "Ġinestimable": 17445,
    "Ġballasted": 23983,
    "alike": 17945,
    "difficult": 10061,
    "Ġfishermen": 5972,
    "stolidity": 21666,
    "Ġnile": 21524,
    "Ġbush": 23340,
    "Ġcor": 1322,
    "Ġmoreover": 6165,
    "Ġaccident": 5380,
    "ivers": 1983,
    "Ġmedium": 16708,
    "aculate": 16086,
    "Ġcream": 22722,
    "Ġprovoke": 14829,
    "Ġbites": 23745,
    "Ġsaints": 20677,
    "Ġdripping": 13151,
    "Ġfug": 12600,
    "Ġsumatra": 15290,
    "Ġprotesting": 14744,
    "Ġgeneralization": 985,
    "Ġdisinterested": 16061,
    "Ġ90": 24589,
    "ppings": 18179,
    "enjoyments": 25434,
    "Ġput": 1800,
    "def": 1454,
    "Ġirrevoc": 15041,
    "Ġpaid": 5015,
    "vis": 4579,
    "anation": 5804,
    "elly": 17982,
    "report": 13403,
    "21": 10075,
    "Ġannoyance": 20664,
    "Ġcloudy": 19480,
    "Ġunworthy": 11719,
    "Ġcus": 21346,
    "Ġparched": 11731,
    "Ġconstru": 19069,
    "Ġventilator": 8717,
    "Ġpleasantness": 24141,
    "etween": 774,
    "Ġpian": 13920,
    "Ġalive": 4398,
    "Ġgratify": 19506,
    "warrior": 24797,
    "hairs": 20906,
    "ĠâĢĺ_": 11119,
    "ellect": 7381,
    "dient": 441,
    "Ġdegrad": 2589,
    "Ġwished": 3730,
    "ana": 15563,
    "Ġpatted": 16382,
    "onom": 9161,
    "Ġmaterial": 5178,
    "Ġcompose": 12907,
    "Ġpursuits": 12081,
    "Ġacquitted": 18900,
    "Ġtie": 10752,
    "burnt": 20083,
    "misery": 13348,
    "Ġobligations": 12097,
    "Ġclamped": 18427,
    "eliest": 14749,
    "Ġsqueezed": 20039,
    "Ġdeformed": 14052,
    "oud": 1940,
    "wear": 22686,
    "setting": 13290,
    "Ġuncont": 14119,
    "histicated": 20903,
    "Ġscarce": 8625,
    "?": 35,
    "Ġcautiously": 16979,
    "ground": 4673,
    "commander": 16989,
    "hertfordshire": 10938,
    "mselves": 2866,
    "Ġpretty": 3863,
    "Y": 61,
    "Ġirrad": 19095,
    "Ġquantization": 19856,
    "poverty": 22911,
    "Ġsimpleton": 16338,
    "Ġcondu": 18112,
    "Ġseldom": 4631,
    "Ġeleven": 9393,
    "aving": 2404,
    "Ġlens": 8439,
    "empty": 23636,
    "Ġbetray": 7442,
    "rels": 6667,
    "ppered": 15795,
    "Ġbough": 13897,
    "Ġleatherhead": 20017,
    "pure": 17628,
    "Ġcurling": 9344,
    "amplified": 26496,
    "Ġseaman": 8642,
    "Ġties": 12533,
    "chief": 4646,
    "fanning": 20868,
    "Ġnations": 8814,
    "Ġlate": 3377,
    "¥": 103,
    "ouched": 4638,
    "Ġinflex": 20637,
    "drawing": 10489,
    "ĠĠĠĠĠĠĠĠĠĠĠĠĠĠĠĠĠĠĠ": 22953,
    "expect": 4770,
    "Ġsusp": 2662,
    "Ġguar": 23049,
    "Ġseventy": 7878,
    "oning": 7572,
    "tin": 6118,
    "Ġgiving": 4084,
    "Ġspoilt": 24804,
    "Ġdisadvantages": 18559,
    "Ġcumberland": 21358,
    "Ġpallid": 12303,
    "sam": 21054,
    "d": 72,
    "Ġjoes": 19233,
    "Ġarrested": 9563,
    "Ġscraping": 13420,
    "Ġdol": 9667,
    "pooh": 18802,
    "Ġbol": 6243,
    "Ġyour": 635,
    "sitting": 8387,
    "mentioned": 10626,
    "Ġgroup": 2036,
    "Ġwidth": 16774,
    "jumped": 20249,
    "beaten": 20318,
    "Ġsoar": 18278,
    "Ġreducing": 1959,
    "Ġcharacter": 2794,
    "Ġentertain": 6055,
    "Ġarchitecture": 1115,
    "ower": 1000,
    "Ġcruising": 6913,
    "Ġinstead": 2790,
    "phur": 16155,
    "Ġdesist": 16242,
    "Ġfrequented": 16588,
    "ĠĠĠĠĠĠĠĠĠĠĠĠĠĠĠĠĠĠĠĠĠĠĠĠĠĠ": 13392,
    "Ġexecute": 7505,
    "Ġdesign": 4133,
    "ims": 7177,
    "scissors": 20729,
    "Ġplaus": 22603,
    "Ġyell": 21781,
    "Ġrheum": 18215,
    "slept": 17172,
    "Ġscene": 3100,
    "Ġsagacious": 14974,
    "charming": 15710,
    "Ġgiver": 21608,
    "Ġnarrative": 6217,
    "Ġliberties": 19670,
    "Ġdecreas": 1649,
    "Ġdiffers": 23784,
    "Ġelizabeth": 1131,
    "tons": 7559,
    "Ġbecause": 2210,
    "Ġlooking": 2470,
    "Ġsentin": 16375,
    "Ġhelper": 24030,
    "historical": 20469,
    "Ġintentionally": 24523,
    "independent": 26022,
    "Ġturned": 2133,
    "Ġopposed": 11190,
    "Ġstrikes": 13185,
    "Ġhandkerchief": 8917,
    "Ġdistinguished": 8273,
    "Ġfare": 5810,
    "Ġeither": 2603,
    "Ġimprec": 14221,
    "Ġrecklessness": 24744,
    "Ġunspeakable": 10059,
    "latter": 15386,
    "favouring": 24761,
    "Ġhomely": 25220,
    "accurately": 25862,
    "Ġsuppression": 23003,
    "Ġoccurred": 4463,
    "Ġcontinents": 16851,
    "Ġclipping": 2438,
    "neighbours": 24882,
    "inting": 9817,
    "ament": 2437,
    "Ġrally": 21975,
    "Ġbiscuit": 12594,
    "Ġplace": 1653,
    "joice": 9605,
    "truck": 15444,
    "Ġtools": 11612,
    "Ġrepublican": 17415,
    "renewed": 19707,
    "upset": 23022,
    "Ġmentioned": 4329,
    "preserve": 25304,
    "bern": 20777,
    "Ġbeach": 6543,
    "whale": 2140,
    "Ġsons": 10768,
    "fright": 9598,
    "Ġfoam": 6891,
    "vative": 1606,
    "ii": 4013,
    "Ġpool": 5173,
    "Ġeve": 13973,
    "ancho": 4938,
    "Ġabode": 7900,
    "professional": 20278,
    "sive": 4146,
    "Ġvisited": 5949,
    "irectly": 6940,
    "Ġforeseen": 16442,
    "racted": 4777,
    "Ġhonorable": 16878,
    "vi": 2372,
    "Ġdictionary": 15116,
    "lowering": 16033,
    "Ġlur": 5226,
    "Ġwould": 652,
    "henomena": 20275,
    "ouement": 21451,
    "Ġspoiled": 11365,
    "Ġbidding": 9540,
    "Ġsuffering": 8949,
    "Ġnecessarily": 13254,
    "Ġbefore": 809,
    "Ġquito": 24408,
    "Ġepicurean": 20558,
    "grained": 20885,
    "Ġobsole": 22701,
    "Ġcompasses": 11269,
    "Ġunc": 2123,
    "Ġcumul": 4181,
    "Ġstores": 18071,
    "Ġstunsail": 25544,
    "Ġimagination": 5759,
    "Ġtranced": 18422,
    "Ġmoot": 22436,
    "Ġdisobedience": 22539,
    "Ġsubaltern": 22794,
    "ureau": 10229,
    "ppo": 18178,
    "Ġmart": 10781,
    "Ġuntrodden": 23523,
    "Ġclue": 7022,
    "bearing": 9768,
    "rece": 21237,
    "Ġenriched": 26501,
    "surpr": 5998,
    "Ġgratified": 8021,
    "Ġfrost": 6097,
    "sullen": 17671,
    "Ġwriters": 13546,
    "idity": 8835,
    "Ġreservoir": 20653,
    "Ġbrook": 13053,
    "Ġworn": 6446,
    "iriously": 18172,
    "Ġcrotch": 9966,
    "Ġbilliard": 16690,
    "Ġvengeance": 5886,
    "Ġconcl": 5095,
    "Ġbridge": 8349,
    "Ġorgies": 18286,
    "thrill": 25657,
    "Ġstay": 3097,
    "ounced": 4954,
    "Ġtreacherous": 13558,
    "machine": 977,
    "itzerland": 9998,
    "Ġcubic": 20091,
    "Ġknock": 9976,
    "Ġfrancisco": 26065,
    "ighter": 7968,
    "Ġterra": 13121,
    "!": 5,
    "Ġfarthest": 23119,
    "Ġdece": 6997,
    "complied": 19915,
    "Ġenumerating": 15248,
    "ound": 586,
    "ricane": 16282,
    "Ġreceive": 4705,
    "achalot": 15867,
    "Ġlaws": 8003,
    "Ġ130": 24780,
    "pton": 15798,
    "ocations": 23710,
    "Ġbristling": 20530,
    "Á": 130,
    "Ġsung": 23276,
    "Ġlimited": 23547,
    "Ġcounterbalance": 24721,
    "Ġsuspicions": 9482,
    "Ġreturns": 11930,
    "encoura": 15051,
    "Ġkitty": 3910,
    "oub": 1633,
    "coiled": 16488,
    "Ġbeacon": 21760,
[...]
