{
  "metadata": {
    "vocab_size": 26614,
    "algorithm": "BPE",
    "created_at": "2026-09-24 07:08:07",
    "special_tokens": [
      "<PAD>",
      "<SOS>",
      "<EOS>",
      "<UNK>",
      "<MASK>"
    ]
  },
  "vocab": {
    "ject": 875,
    "kye": 20937,
    "surrounded": 26088,
    "Ġhook": 6453,
    "Ġtwinkle": 12321,
    "berish": 22717,
    "Ġsex": 8841,
    "Ġrow": 5309,
    "Ġwoke": 21288,
    "Ġobjective": 3766,
    "Ġhaunt": 18197,
    "Ġplaguy": 22601,
    "Ġconclude": 8580,
    "wont": 21131,
    "Ġsummarization": 3645,
    "Ġbusily": 9383,
    "Ġtarts": 10753,
    "tie": 21067,
    "Ġicicles": 25264,
    "Ġcanaan": 22163,
    "Ġinducement": 16843,
    "Ġliv": 6679,
    "arily": 4126,
    "wet": 15452,
    "Ġrecounted": 22727,
    "Ġblurred": 22928,
    "Ġviolates": 3167,
    "Ġhypothesis": 14780,
    "Ġginger": 9210,
    "inferior": 12392,
    "ind": 568,
    "irresistible": 18173,
    "published": 26142,
    "proportion": 16182,
    "Ġwalks": 8966,
    "brace": 16942,
    "Ġdeeds": 15757,
    "Ġelevating": 19728,
    "Ġfrost": 6095,
    "Ġunwound": 25169,
    "Ġseparately": 13301,
    "Ġconcentration": 25062,
    "Ġdit": 21418,
    "Ġinte": 2066,
    "Ġbracelets": 25502,
    "Ġparalle": 1409,
    "ol": 361,
    "whereby": 23416,
    "Ġdebated": 9040,
    "allions": 22195,
    "urous": 10212,
    "Ġfle": 3091,
    "ically": 849,
    "Ġdistinctions": 18530,
    "irms": 18168,
    "Ġcarry": 4779,
    "Ġaudits": 24770,
    "Ġdissimilar": 22528,
    "âĢĿ)": 21811,
    "Ġdomain": 3723,
    "Ġglimmered": 20170,
    "Ò": 147,
    "footed": 19688,
    "Ġrevel": 9214,
    "Ġirrevocably": 15296,
    "Ġoutput": 930,
    "Ġpet": 4586,
    "Ġfem": 6134,
    "Ġmountain": 3373,
    "Ġillum": 9399,
    "Ġrecumbent": 22729,
    "judging": 24201,
    "embow": 21928,
    "Ġrefers": 1571,
    "Ġlast": 1125,
    "Ġperformed": 8547,
    "Ġpreventing": 884,
    "lion": 20943,
    "Ġerrone": 14429,
    "conquerable": 17398,
    "eck": 20843,
    "Ġchambermaid": 24304,
    "further": 7535,
    "Ġindoors": 18835,
    "Ġprejud": 6851,
    "Ġmost": 1021,
    "Ġcomplete": 4383,
    "Ġignorantly": 19494,
    ":--": 5784,
    "formity": 10278,
    "Ġinferior": 8365,
    "americans": 25042,
    "Ġperennial": 22691,
    "ower": 1048,
    "lotte": 3331,
    "Ġalmanac": 26485,
    "tis": 4105,
    "Ġsavoury": 23875,
    "neying": 22460,
    "Ġbrittle": 22859,
    "Ġjun": 8505,
    "Ġinviting": 19143,
    "Ġdetect": 1240,
    "Ġtravellers": 11308,
    "Ġawaiting": 11390,
    "Ġcommissioned": 19894,
    "urously": 18049,
    "Ġhampshire": 15241,
    "Ġmerchant": 6467,
    "berg": 11857,
    "Ġimmemorially": 25383,
    "pshaw": 21027,
    "uy": 21098,
    "umbling": 6758,
    "had": 1950,
    "elements": 25203,
    "Ġweapon": 7775,
    "Ġacts": 2292,
    "Ġumbrella": 15264,
    "ians": 2356,
    "Ġoffence": 12941,
    "Ġburke": 19250,
    "ateness": 15519,
    "Ġhomely": 25219,
    "Ġobeisance": 19757,
    "Ġjuly": 17236,
    "embra": 14075,
    "Ġtranquilly": 12288,
    "Ġfabric": 25947,
    "Ġaccording": 5508,
    "Ġstout": 6024,
    "Ġaccent": 10293,
    "Ġsickening": 19603,
    "antarctic": 22096,
    "Ġargued": 13628,
    "Ġmoby": 3663,
    "mical": 9128,
    "Ġannum": 24203,
    "Ġtossed": 5815,
    "Ġfilled": 4395,
    "Ġjiff": 22293,
    "Ġcrevice": 22725,
    "rict": 8092,
    "Ġpleaded": 16298,
    "intentions": 22936,
    "enterprise": 24992,
    "Ġimpending": 22381,
    "atious": 10151,
    "speaking": 12096,
    "Ġenveloped": 12206,
    "Ġmagnifying": 16320,
    "Ġdisappointed": 7097,
    "Ă": 195,
    "Ġclamped": 18425,
    "Ġmonument": 16238,
    "Ġsteeply": 23722,
    "Ġeluc": 16108,
    "Ġenables": 726,
    "hammock": 16353,
    "Ġtake": 1585,
    "trouble": 8295,
    "ignorance": 17161,
    "word": 2489,
    "ryder": 18639,
    "Ġessentials": 20001,
    "Ġintelligently": 4032,
    "ackled": 22421,
    "Ġneglect": 7941,
    "Ġunob": 22012,
    "Ġtreat": 3178,
    "Ġtremendous": 8352,
    "Ġ177": 13411,
    "shunned": 22452,
    "Ġhurry": 4913,
    "sick": 13783,
    "lydon": 13988,
    "sprinkling": 24912,
    "Ġsk": 960,
    "gover": 10702,
    "omist": 21635,
    "plied": 10254,
    "hun": 5210,
    "touched": 15439,
    "Ġflush": 14423,
    "osal": 11757,
    "Ġwasted": 9703,
    "Ġuneasily": 24230,
    "Ġflourished": 15124,
    "exactly": 10636,
    "attery": 18501,
    "Ġexasperated": 11412,
    "Ġboister": 12916,
    "representing": 25271,
    "Ġfac": 6381,
    "Ġsave": 4052,
    "appalled": 18761,
    "icult": 3341,
    "thirst": 15824,
    "ĝ": 222,
    "Ġplant": 8899,
    "ony": 3029,
    "Ġunrest": 11712,
    "unhesitatingly": 26496,
    "still": 4217,
    "Ġpilgr": 12178,
    "deserts": 25379,
    "ible": 1118,
    "Ġmartial": 20290,
    "Ġswash": 23050,
    "Ġtolland": 24988,
    "Ġdoctrine": 24197,
    "Ġperception": 9749,
    "dense": 18716,
    "Ġpointed": 4773,
    "Ġeclipsed": 26376,
    "Ġinterval": 4055,
    "Ġbasis": 16961,
    "persu": 8027,
    "lasting": 8010,
    "def": 1453,
    "gether": 1600,
    "Ġexclusiveness": 23924,
    "Ġduplicate": 17215,
    "com": 980,
    "Ġtearing": 14395,
    "Ġneskyeuna": 26459,
    "pointed": 9807,
    "Ġrecollect": 8309,
    "Ġsallow": 12533,
    "Ġsorting": 3236,
    "Ġautom": 3218,
    "Ġdestination": 19149,
    "Ġinvest": 4978,
    "Ġcumberland": 21353,
    "fever": 22501,
    "Ġtranquill": 6630,
    "rub": 15892,
    "Ġstoried": 18072,
    "variance": 2656,
    "Ġcontrari": 23347,
    "beheld": 11799,
    "Ġrag": 18641,
    "Ġantichronical": 26609,
    "received": 9638,
    "Ġphysiognomical": 25611,
    "Ġeludes": 26554,
    "Ġmanifested": 17157,
    "^": 66,
    "Ġregularization": 1192,
    "Ġcuriosities": 26288,
    "Ġwounding": 19585,
    "Á": 130,
    "Ġviolently": 6456,
    "Ġlabour": 7274,
    "Ġsperma": 19048,
    "_âĢĿ": 20760,
    "Ġattain": 12744,
    "Ġindiscreet": 22953,
    "Ġinsurance": 23678,
    "Ġgreedily": 18966,
    "Ġthirdly": 24142,
    "reshold": 21238,
    "kick": 20935,
    "Ġmum": 13857,
    "Ġstair": 8455,
    "Ġsensibly": 14514,
    "Ġshrieked": 9547,
    "suff": 4961,
    "recollected": 25347,
    "Ġbankers": 24302,
    "oquence": 11386,
    "Ġpublisher": 24064,
    "Ġcrucifix": 26079,
    "Ġcandidate": 16701,
    "Ġpond": 13915,
    "Ġcond": 3874,
    "Ġporpoises": 13381,
    "practised": 20246,
    "Ġpervading": 20612,
    "F": 42,
    "©": 107,
    "longer": 8612,
    "Ġtow": 4396,
    "dorff": 15236,
    "Ġglac": 9345,
    "Ġoverthrow": 18432,
    "considering": 12172,
    "Ġslink": 23161,
    "pretending": 17041,
    "itud": 2935,
    "Ġtreatise": 19343,
    "Ġpainted": 7978,
    "inions": 8401,
    "Ġbreach": 11972,
    "Ġhoard": 23350,
    "Ġparis": 8178,
    "consol": 9761,
    "Ġborn": 5224,
    "Ġinexper": 16980,
    "Ġdearly": 10401,
    "Ġtheoretically": 3566,
    "Ġresemblance": 7976,
    "Ġdivine": 6921,
    "Ġcoopers": 20520,
    "Ġgnawed": 25164,
    "Ġspiteful": 19521,
    "Ġalluding": 18236,
    "set": 3865,
    "gged": 3777,
    "discredit": 24250,
    "Ġlate": 3378,
    "Ġmodes": 22217,
    "Ġexplicit": 3588,
    "Ġinfirm": 19021,
    "sleeves": 26109,
    "Ġhop": 1462,
    "supervised": 1958,
    "sherlock": 5422,
    "ow": 326,
    "Ġcostume": 16495,
    "bular": 15312,
    "Ġbrimming": 22861,
    "melancholy": 12351,
    "Ġupon": 719,
    "Ġwhims": 12689,
    "Ġfour": 2213,
    "Ġstamped": 13526,
    "Ġ150": 22823,
    "outon": 12800,
    "Ġsail": 1674,
    "forgetting": 25485,
    "Ġide": 2123,
    "Ġjane": 1760,
    "rifice": 12501,
    "schoolmaster": 15160,
    "wag": 21122,
    "Ġalien": 14017,
    "94": 4803,
    "Ġwapping": 21293,
    "empty": 23633,
    "uberance": 25916,
    "Ġrejecting": 17051,
    "fem": 17537,
    "Ġrepay": 19079,
    "Ġclutching": 24951,
    "Ġaccount": 2319,
    "Ġfatally": 19392,
    "Ġ1883": 23894,
    "Ġinsolent": 13599,
    "Ġresolves": 23646,
    "precious": 12070,
    "simple": 13451,
    "Ġfrantically": 23256,
    "Ġstanzas": 21741,
    "cannib": 11900,
    "acknowledging": 25476,
    "Ġvane": 22872,
    "Ġ1671": 25005,
    "Ġringle": 18210,
    "doms": 20834,
    "protection": 19919,
    "Ġuprising": 12799,
    "walking": 9981,
    "trap": 24313,
    "Ġilliter": 23467,
    "Ġtag": 15468,
    "useless": 14594,
    "expectant": 24275,
    "Ġphilosoph": 19650,
    "Ġanonymous": 26178,
    "Ġhinge": 25541,
    "company": 9460,
    "orrowed": 19289,
    "Ġhorrible": 4905,
    "Ġelixir": 26555,
    "ue": 1177,
    "Ġmach": 13856,
    "queness": 18146,
    "calmly": 20138,
    "Ġprinciple": 6770,
    "Ġlaborious": 13102,
    "Ġaffidav": 18789,
    "Ġsulk": 15045,
    "Ġthought": 1093,
    "Ġretrogress": 23070,
    "Ġinvol": 983,
    "Ġrueful": 25581,
    "eridge": 15525,
    "Ġrefreshed": 15289,
    "_.,": 14561,
    "Ġadhering": 14140,
    "Ġsmaller": 1883,
    "enched": 10154,
    "kered": 18274,
    "Ġunaccountable": 7886,
    "ames": 2884,
    "alions": 21498,
    "Ġshared": 10263,
    "assuming": 22307,
    "biscuit": 17500,
    "Ġintegrated": 13530,
    "etical": 13957,
    "Ġdisciple": 22780,
    "Ġbeef": 6830,
    "Ġoftentimes": 20154,
    "Ġtit": 8398,
    "Ġwages": 13853,
    "Ġvoyager": 16511,
    "Ġrecurred": 18977,
    "Ġfuture": 1111,
    "Ġmonstr": 7667,
    "Ġsouls": 6308,
    "unctions": 18155,
    "Ġmorose": 18848,
    "ĩ": 234,
    "Ġvideos": 13605,
    "rium": 3135,
    "Ġacknowledged": 7534,
    "Ġflew": 5588,
    "abled": 12791,
    "Ġthere": 564,
    "politeness": 16906,
    "Ġbishop": 13901,
    "alization": 732,
    "Ġcries": 7154,
    "ě": 220,
    "spikes": 10340,
    "huzza": 20912,
    "Ġrogue": 22402,
    "Ġawhile": 13829,
    "feet": 6568,
    "ķ": 248,
    "Ġsite": 17753,
    "Ġexpedition": 10633,
    "Ġdefects": 12331,
    "Ġunrivalled": 26519,
    "Ġloath": 7890,
    "dashed": 12453,
    "Ġread": 1448,
    "anous": 21357,
    "probability": 17022,
    "hound": 20894,
    "kindly": 14743,
    "nurs": 20998,
    "Ġenchanting": 17039,
    "Ġfelicity": 7260,
    "Ġcharts": 12824,
    "Ġskull": 6288,
    "Ġfrivolous": 26176,
    "Ġkeel": 6444,
    "ineffectual": 26507,
    "Ġcelest": 9899,
    "icket": 22665,
    "Ġpitiable": 9913,
    "Ġcondense": 21805,
    "higher": 20405,
    "Ġcaul": 10787,
    "Ġruined": 12951,
    "iac": 6225,
    "Ġgranting": 18737,
    "Ġdoctors": 12149,
    "Ġunche": 23427,
    "Ġrefusing": 11028,
    "Ġwarned": 16880,
    "Ġextravagant": 17278,
    "heavy": 10574,
    "happiness": 6469,
    "returned": 7765,
    "Ġgripping": 26186,
    "Ġtinted": 13821,
    "dared": 13701,
    "warmest": 25027,
    "Ġnautical": 17385,
    "Ġrec": 891,
    "aching": 5831,
    "Ġabundantly": 17156,
    "Ġposted": 16724,
    "Ġpromises": 10400,
    "Ġhours": 2818,
    "tick": 17678,
    "tete": 10732,
    "ceremony": 20588,
    "Ġkilled": 4955,
    "ampling": 12723,
    "Ġpau": 17908,
    "corners": 17367,
    "Ġunful": 22008,
    "Ġhe": 318,
    "Ġnarrations": 24352,
    "Ġmounting": 19975,
    "Ġshaster": 21995,
    "Ġbubblingly": 25632,
    "Ġgradients": 611,
    "ursday": 12274,
    "tubes": 25211,
    "treatment": 20410,
    "Ġfacet": 15583,
    "gment": 4391,
    "evident": 25520,
    "Ġperemptorily": 17366,
    "remark": 7261,
    "Ġunfit": 14785,
    "Ġtea": 5041,
    "Ġacquit": 18897,
    "ontory": 10459,
    "Ġmoored": 11790,
    "Ġbids": 24645,
    "Ġparent": 14645,
    "Ġfeasts": 25369,
    "Ġdromed": 15595,
    "Ġassembled": 9235,
    "Ġaver": 1287,
    "so": 892,
    "Ġsurpl": 19132,
    "reclining": 20573,
    "Ġbestowed": 6593,
    "Ġdegradation": 2631,
    "Ġforgot": 4684,
    "Ġdirecting": 16299,
    "Ġexecut": 4248,
    "Ġhigher": 1820,
    "Ġsuperstitions": 17072,
    "Ġhumbly": 16197,
    "hog": 8379,
    "ounders": 22391,
    "ckled": 9256,
    "direct": 12454,
    "Ġha": 400,
    "Ġinmost": 17930,
    "Ġestates": 16459,
    "Ġadmirer": 16838,
    "madness": 14881,
    "Ġoriginate": 24121,
    "Ġpillar": 21471,
    "ver": 331,
    "Ġstagger": 10591,
    "Ġmishap": 20575,
    "Ġstrung": 22615,
    "singular": 12186,
    "Ġhovered": 12628,
    "Ġovercome": 6043,
    "Ġprophesy": 26061,
    "fact": 6358,
    "Ġconjectured": 9996,
    "sur": 4523,
    "Ġappetites": 20205,
    "Ġwrit": 8241,
    "bots": 10082,
    "Ġsons": 10766,
    "Ġrobbed": 22985,
    "yt": 17711,
    "lanterns": 17428,
    "Ġopulent": 23627,
    "bulk": 19923,
    "Ġ86": 24461,
    "waiting": 12218,
    "formed": 2554,
    "Ġlux": 8813,
    "Ġsummons": 13231,
    "thousands": 16872,
    "Ġseating": 18201,
    "Ġrags": 18645,
    "Ġcasement": 25092,
    "neurons": 3137,
    "Ġbreaths": 14856,
    "Ġconnivance": 25225,
    "Ġholes": 16406,
    "Ġhealth": 3903,
    "Ġslugg": 15267,
    "end": 505,
    "Ġwebster": 20160,
    "Ġgrasshopper": 24380,
    "admiration": 11387,
    "late": 11498,
    "Ġlanyard": 26461,
    "comrade": 20623,
    "edged": 15629,
    "meet": 11854,
    "ceptive": 15967,
    "Ġcenturies": 8622,
    "Ġwheels": 10912,
    "Ġsad": 3867,
    "peter": 24298,
    "Ġminutely": 14560,
    "unconquerable": 21888,
    "Ġviews": 7290,
    "phia": 22754,
    "Ġbake": 21380,
    "Ġnameless": 7699,
    "hmael": 7342,
    "wis": 12516,
    "Ġbitt": 10796,
    "Ġamel": 18510,
    "erns": 8777,
    "reply": 19721,
    "Ġtone": 4040,
    "ual": 945,
    "Ġcorrob": 16265,
    "Ġdetain": 14176,
    "having": 5211,
    "ently": 1618,
    "Ġhisself": 21911,
    "Ġforbearing": 25098,
    "2": 22,
    "Ġstandpoint": 23275,
    "Ġsinew": 25431,
    "Ġexcavating": 23313,
    "murder": 10564,
    "inal": 15480,
    "Ġserenity": 10027,
    "arboard": 7266,
    "Ġlimp": 19179,
    "Ġparch": 11724,
    "Ġemblazonings": 26043,
    "itors": 2917,
    "Ġagon": 10320,
    "thesize": 24906,
    "ter": 359,
    "Ġw": 272,
    "Ġmayhew": 12947,
    "carbuncle": 26382,
    "dro": 6644,
    "Ġpoisoned": 24886,
    "rayed": 23561,
    "Ġadam": 2127,
    "Ġrhine": 12354,
    "aneously": 4061,
    "cut": 3125,
    "aps": 1226,
    "standing": 5558,
    "tottenham": 25418,
    "Ġlaugh": 4113,
    "Ġpossible": 2585,
    "Ġsphy": 18311,
    "iless": 10281,
    "Ġzer": 1094,
    "winds": 10521,
    "grave": 16093,
    "Ġquaff": 22411,
    "Ġembark": 8558,
    "Ġgu": 1328,
    "Ġneither": 3684,
    "Ġdrugg": 17119,
    "Ġinsepar": 17933,
    "Ġexpressly": 16454,
    "Ġodorous": 19565,
    "igators": 18045,
    "Ġsnail": 19299,
    "column": 19328,
    "told": 7811,
    "Ġpredicted": 2046,
    "oir": 21001,
    "Ġsurging": 19133,
    "Ġpalms": 8643,
    "Ġevince": 24293,
    "ulatory": 15766,
    "axing": 18547,
    "Ġain": 6969,
    "Ġwarehouses": 20416,
    "Ġunwonted": 14125,
    "ahab": 4290,
    "aways": 15309,
    "unimportant": 18159,
    "confirmed": 19644,
    "Ġmaintenance": 17461,
    "Ġanguish": 5584,
    "Ġprojects": 9510,
    "Ġrequirements": 9791,
    "wards": 1276,
    "Ġtoilet": 13936,
    "urn": 776,
    "Ġmuch": 925,
    "Ġpork": 21455,
    "dish": 12450,
    "Ġpasseng": 12968,
    "Ġv": 399,
    "Ġdisposed": 7083,
    "Ġranged": 10257,
    "Ġabsurd": 7202,
    "Ġalle": 11665,
    "Ġtroops": 24898,
    "Ġpitching": 16611,
    "Ġinitialized": 3947,
    "Ġser": 1673,
    "Ġmankind": 6698,
    "iah": 14416,
    "Ġscrews": 25177,
    "topp": 22562,
    "comparatively": 25839,
    "Ġexpect": 2304,
    "Ġfrancis": 26063,
    "vius": 23540,
    "Ġchaise": 9076,
    "asc": 6386,
    "comed": 8544,
    "Ġarrive": 6907,
    "hom": 12471,
    "ý": 190,
    "greenland": 10020,
    "Ġunlucky": 10049,
    "Ġdepose": 22604,
    "Ġfergus": 16867,
    "Ġexploding": 2109,
    "Ġutmost": 5496,
    "idirectional": 2421,
    "Ġdocumentation": 20553,
    "Ġcyn": 13885,
    "Ġdwelt": 12602,
    "hic": 3250,
    "Ġindelicacy": 25695,
    "Ġdoubled": 19641,
    "igate": 8822,
    "Ġandes": 12638,
    "rights": 23670,
    "Ġplayfulness": 23635,
    "Ġbranch": 8331,
    "Ġemerg": 13423,
    "Ġtrust": 4080,
    "Ġrepeated": 3831,
    "ixed": 4851,
    "carb": 20809,
    "makes": 10711,
    "Ġexposed": 8522,
    "Ġmatrices": 4969,
    "Ġasks": 5115,
    "Ġsus": 18277,
    "Ġinwards": 15619,
    "Ġgoethe": 22419,
    "Ġcampaign": 20660,
    "friend": 3862,
    "https": 11682,
    "Ġpatroness": 13509,
    "Ġoarsman": 8637,
    "Ġpages": 15606,
    "held": 3840,
    "aborate": 14021,
    "Ġblazing": 11894,
    "Ġword": 1052,
    "moving": 11017,
    "Ġshunned": 17292,
    "Ġshoot": 11161,
    "Ġburglar": 17354,
    "buoy": 7760,
    "Ġnimble": 21525,
    "Ġinto": 648,
    "aust": 15308,
    "ogue": 9781,
    "tasted": 17687,
    "Ġterrified": 14671,
    "Ġconsume": 12955,
    "inv": 8400,
    "Ġdenominated": 15227,
    "reel": 21232,
    "Ġargument": 7098,
    "Ġdamn": 11158,
    "Ġscratching": 20367,
    "teen": 6370,
    "farmer": 25899,
    "Ġbouton": 17868,
    "sis": 1863,
    "Ġposit": 1306,
    "akeman": 6267,
    "Ġgrate": 12961,
    "wic": 21119,
    "Ġquaker": 10971,
    "¸": 121,
    "Ġsouth": 4911,
    "Ġslumber": 13057,
    "Ġdeline": 16332,
    "Ġesteemed": 10588,
    "Ġdouble": 4940,
    "Ġstarry": 16923,
    "adie": 18088,
    "stat": 21641,
    "Ġreappeared": 21662,
    "Ġdefilements": 26284,
    "Ġpasses": 2679,
    "what": 644,
    "witted": 17707,
    "compliment": 11364,
    "viv": 17698,
    "Ġsudden": 2000,
    "Ġportraits": 20141,
    "Ġslippers": 19614,
    "Ġobstacle": 16955,
    "Ġundulated": 19515,
    "Ġposter": 14274,
    "buttons": 22398,
    "Ġarsac": 11740,
    "bery": 9787,
    "Ġexerted": 15755,
    "itioned": 22466,
    "Ġgpt": 4351,
    "Ġruefully": 17300,
    "ource": 5243,
    "Ġrele": 2921,
    "Ġcopied": 20006,
    "like": 1885,
    "Ġemails": 13105,
    "Ġlarboard": 11009,
    "Ġabound": 8863,
    "Ġrav": 14304,
    "devils": 20031,
    "Ġmanxman": 9565,
    "urean": 18122,
    "Ġhalting": 16272,
    "Ġtubs": 11370,
    "Ġcommenced": 8531,
    "Ġpurch": 6599,
    "Ġsupre": 10269,
    "Ġquaint": 18465,
    "Ġinaudible": 21496,
    "Ġspout": 3283,
    "bringing": 17166,
    "Ġefficient": 1068,
    "Ġvisit": 2584,
    "Ġdrawled": 23986,
    "marry": 13322,
    "Ġmainten": 16115,
    "Ġleast": 2065,
    "Ġblasphe": 17406,
    "ress": 931,
    "numer": 15399,
    "har": 20889,
    "record": 16921,
    "estruct": 22219,
    "Ġendangered": 16303,
    "Ġgave": 2216,
    "Ġnegative": 1465,
    "glim": 19363,
    "Ġintens": 7003,
    "Ġunrolled": 22035,
    "ignific": 11954,
    "Ġvol": 4187,
    "Ġvelvet": 12396,
    "shortly": 12256,
    "Ġreynolds": 10209,
    "xes": 21139,
    "breaking": 14763,
    "Ġtack": 5621,
    "apped": 5395,
    "precise": 19349,
    "Ġcalmed": 16267,
    "mon": 2307,
    "not": 909,
    "Ġenable": 687,
    "Ġdisadvantages": 18558,
    "inously": 21185,
    "õ": 182,
    "Ġcontrols": 1735,
    "Ġhemp": 9215,
    "Ġaccidental": 16848,
    "Ġdragg": 23216,
    "desolate": 25703,
    "Ġheaps": 11641,
    "Ġincul": 22546,
    "Ġfirm": 3870,
    "pent": 3494,
    "Ġsucceeding": 16761,
    "Ġisrael": 21800,
    "osop": 4405,
    "Ġfinite": 2323,
    "mble": 1406,
    "Ġstim": 18063,
    "Ġ1836": 25721,
    "âĢĻ": 378,
    "pans": 13769,
    "Ġspokes": 18313,
    "Ġattentively": 9949,
    "possibility": 13360,
    "Ġpiping": 23230,
    "heart": 4526,
    "Ġlady": 1593,
    "..": 5783,
    "Ġfrantic": 7956,
    "hour": 7340,
    "around": 12605,
    "Ġholding": 4979,
    "omics": 21640,
    "Ġthine": 7374,
    "money": 8749,
    "Ġdaboll": 25950,
    "Ġgenerating": 12846,
    "Ġpudding": 17915,
    "humored": 19451,
    "Ġcountenance": 3970,
    "Ġwed": 3960,
    "Ġheading": 8935,
    "Ġinquir": 4242,
    "crow": 9590,
    "Ġtug": 11550,
    "Ġimplicated": 24875,
    "Ġexhausted": 8693,
    "Ġunattended": 15843,
    "superiority": 20184,
    "Ġstrait": 23748,
    "promote": 24727,
    "itted": 2444,
    "Ġextinguished": 10343,
    "sword": 10726,
    "norm": 20984,
    "Ġdecisions": 6702,
    "Ġvery": 636,
    "Ġsimul": 1808,
    "Ġdarkened": 16432,
    "Ġmarching": 16699,
    "Ġsom": 1275,
    "augment": 18828,
    "Ġtandem": 26411,
    "gans": 11489,
    "Ġhud": 10822,
    "ink": 755,
    "Ġunlabeled": 3799,
    "Ġparamore": 22119,
    "Ġshrink": 14802,
    "detached": 19673,
    "oat": 13763,
    "between": 5071,
    "Ġhogarth": 25780,
    "Ġfinally": 4666,
    "Ġships": 3712,
    "Ġheroic": 14907,
    "Ġwelcomed": 9481,
    "ding": 1229,
    "Ġtragic": 15254,
    "Ġdead": 2170,
    "Ġdrops": 9032,
    "ie": 729,
    "cano": 18838,
    "Ġentreaties": 9035,
    "consist": 14814,
    "Ġaccuracy": 1117,
    "uten": 11621,
    "Ġ33": 16676,
    "Ġare": 526,
    "lat": 9604,
    "pton": 15790,
    "Ġtingling": 15091,
    "tumultuous": 20397,
    "Ġlift": 8810,
    "remained": 8569,
    "Ġbeautiful": 3670,
    "xology": 21140,
    "smitten": 23906,
    "Ġhence": 4989,
    "painter": 24896,
    "Ġwin": 9641,
    "Ġfeatureless": 22612,
    "Ġfancies": 10424,
    "Ġ78": 19612,
    "Ġmatted": 22909,
    "real": 10149,
    "Ġsuspense": 9417,
    "Ġsettle": 6293,
    "Ġepidemic": 20694,
    "trained": 4238,
    "Ġinsinuating": 19270,
    "Ġpresc": 15924,
    "retch": 4372,
    "Ġnumber": 1983,
    "Ġtakings": 20571,
    "epilogue": 22097,
    "Ġstiffest": 24829,
    "Ġstarted": 4149,
    "Ġcounterpart": 24721,
    "phren": 22753,
    "Ġprometheus": 15291,
    "total": 17250,
    "verd": 21724,
    "Ġclosing": 11770,
    "Ġapr": 12529,
    "Ġrolls": 8333,
    "Ġignorance": 6618,
    "Ġdespise": 14665,
    "Ġexcursion": 26589,
    "university": 25983,
    "luent": 15997,
    "Ġgrimes": 11034,
    "dried": 20826,
    "bweb": 20790,
    "Ġhorseman": 19606,
    "Ġgoest": 22418,
    "Ġantelope": 24179,
    "experienced": 15120,
    "Ġcauldron": 25441,
    "Ġinjunctions": 24269,
    "situ": 9621,
    "trembling": 17142,
    "Ġnecks": 18179,
    "elopement": 23144,
    "Ġrepine": 16408,
    "Ġloom": 7628,
    "Ġwondered": 11125,
    "Ġacquies": 11097,
    "Ġpreserving": 19795,
    "Ġfatigued": 13464,
    "Ġmissed": 8555,
    "have": 2059,
    "Ġunlim": 18256,
    "ography": 13361,
    "Ġmarshal": 20218,
    "existence": 16013,
    "Ġgulp": 20027,
    "Ġliar": 22405,
    "oug": 432,
    "Ġtren": 17721,
    "giana": 7800,
    "Ġenvy": 13182,
    "Ġthom": 21513,
    "bib": 17491,
    "Ġderiv": 1739,
    "scarcely": 12384,
    "sec": 6152,
    "alley": 23021,
    "Ġdisconcerted": 18562,
    "Ġengage": 9334,
    "Ġwitt": 17783,
    "eldest": 22797,
    "Q": 53,
    "Ġloc": 10914,
    "Ġadopted": 15177,
    "Ġrans": 21963,
    "Ġturkey": 19219,
    "Ġviolet": 19088,
    "olent": 8154,
    "Ā": 193,
    "atical": 10771,
    "tale": 10127,
    "Ġdiversity": 25284,
    "wherefore": 19108,
    "Ġtied": 7357,
    "Ġwhereby": 11835,
    "Ġvineyards": 25106,
    "Ġcarpenter": 4685,
    "Ġsmart": 11813,
    "Ġstowed": 21733,
    "Ġers": 15460,
    "Ġhump": 5853,
    "Ġmarried": 3409,
    "inct": 3293,
    "Ġowest": 25091,
    "Ġheaded": 11054,
    "urches": 12680,
    "mouthed": 12398,
    "bus": 5354,
    "ening": 3104,
    "Ġwindow": 2998,
    "ifling": 15781,
    "Ġungover": 18258,
    "twelvemonth": 25862,
    "flung": 16638,
    "communication": 25881,
    "Ġfun": 523,
    "Ġinterlude": 16069,
    "allow": 5104,
    "happy": 4425,
    "Ġoceans": 7995,
    "please": 8176,
    "Ġhabitations": 24789,
    "Ġcomp": 725,
    "Ġrattle": 10899,
    "Ġreadiness": 13047,
    "Ġedged": 23435,
    "parted": 21015,
    "Ġbade": 9171,
    "Ġintolerably": 15828,
    "Ġexcept": 3312,
    "Ġculprit": 26172,
    "attention": 2111,
    "Ġalan": 10869,
    "Ġharvard": 24573,
    "ances": 1337,
    "zealand": 26049,
    "Ġbacks": 8528,
    "advance": 12154,
    "Ġhandle": 3139,
    "Ġimpetus": 25569,
    "Ġevidence": 5269,
    "etieth": 21581,
    "from": 1992,
    "Ġarose": 7360,
    "Ġmodified": 14168,
    "ichron": 22165,
    "written": 7994,
    "absolut": 8458,
    "Ġwalk": 1825,
    "Ġcomposing": 16066,
    "Ġamiss": 18512,
    "Ġscholars": 26112,
    "Ġlam": 21546,
    "Ġlavenza": 17970,
    "Ġalert": 18101,
    "Ġcommunications": 16354,
    "imble": 10858,
    "relatively": 24011,
    "Ġacceded": 22376,
    "ccas": 15885,
    "Ġglobu": 23269,
    "bestow": 16929,
    "matlock": 23468,
    "Ġflor": 8561,
    "Ġring": 4452,
    "tub": 9143,
    "Ġprodigiously": 14931,
    "Ġincrease": 9369,
    "Ġwaved": 9644,
    "needles": 20313,
    "Ġmeasureless": 14709,
    "Ġlustrous": 20155,
    "isk": 9167,
    "evil": 11485,
    "Ġsporty": 19889,
    "gus": 13724,
    "insist": 23061,
    "Ġroar": 9751,
    "asked": 8911,
    "Ġrecorded": 11293,
    "Ġcrimin": 6901,
    "Ġhearth": 11980,
    "land": 1533,
    "Ġ75": 19611,
    "jected": 22711,
    "Ġcitadel": 25438,
    "Ġell": 17715,
    "ivance": 22080,
    "č": 206,
    "Ġcame": 1300,
    "amuse": 14051,
    "entirely": 7781,
    "bourgh": 19103,
    "Ġreposing": 23359,
    "perch": 18338,
    "sings": 4252,
    "Ġsoup": 7067,
    "Ġhint": 5016,
    "otograph": 5826,
    "amid": 12721,
    "Ġbreathlessly": 24280,
    "Ġclumsy": 9579,
    "bation": 9102,
    "erde": 21267,
    "Ġsolving": 2484,
    "conspicuous": 26248,
    "Ġcautiously": 16977,
    "Ġjerked": 19831,
    "Ġinterior": 8894,
    "Ġcountry": 2532,
    "Ġdiscontented": 16058,
    "Ġcronies": 23441,
    "Ġcousin": 3702,
    "Ġgazing": 5875,
    "Ġscorching": 20066,
    "âĢĶ": 517,
    "Ġflann": 23012,
    "Ġbrag": 23831,
    "ensical": 18567,
    "Ġgemini": 26469,
    "oology": 21005,
    "Ġphantom": 8706,
    "stepfather": 19191,
    "crowded": 20189,
    "Ġvehemently": 26039,
    "Ġbritannica": 24680,
    "Ġneur": 813,
    "Ġwalking": 4325,
    "gentleman": 7518,
    "Ã¦st": 24174,
    "Ġchocks": 13344,
    "Ġwidest": 24234,
    "Ġcloth": 9742,
    "parsee": 14518,
    "Ġutilize": 4798,
    "Ġmultitud": 18748,
    "Ġstraggling": 23749,
    "Ġsuite": 18278,
    "azine": 19130,
    "beholding": 16039,
    "chery": 24551,
    "Ġframework": 1955,
    "Ġscenarios": 26542,
    "speckled": 23942,
    "Å": 134,
    "utility": 21584,
    "Ġfix": 2508,
    "Ġbestir": 13108,
    "Ġlaughter": 9027,
    "Ġanimal": 2499,
    "alous": 7372,
    "Ġfet": 5807,
    "Ġcrust": 21349,
    "han": 12470,
    "Ġtyp": 1132,
    "Ġequality": 16358,
    "iful": 2885,
    "west": 10739,
    "Ġimpious": 15985,
    "officers": 10627,
    "ostentatious": 20651,
    "armon": 23054,
    "Ġfoliage": 18867,
    "Ġjogged": 26236,
    "rously": 17654,
    "Ġsaintsbury": 26372,
    "ascal": 10192,
    "Ġwharves": 13505,
    "Ġsquint": 22832,
    "Ġinvented": 17037,
    "Ġgid": 13961,
    "hard": 4690,
    "lines": 6959,
    "vishnoo": 21118,
    "Ç": 136,
    "fa": 7336,
    "Ġbath": 9658,
    "Ġflat": 8227,
    "Ġdisinterested": 16056,
    "Ġpreparing": 8647,
    "ograph": 4797,
    "Ġoutrage": 15957,
    "Ġtig": 13812,
    "Ġnuptials": 20492,
    "Ġpracticable": 19056,
    "spe": 3560,
    "extric": 22762,
    "Ġmeant": 3550,
    "ĠĠĠĠĠĠĠ": 7631,
    "haut": 20901,
    "Ġsuperlatively": 26075,
    "Ġpopularly": 12239,
    "Ä": 133,
    "Ġunjustifiable": 25109,
    "Ġwing": 6665,
    "Ġinclude": 1875,
    "Ġpretension": 23762,
    "Ġvilest": 20099,
    "hest": 3370,
    "pract": 10119,
    "hitherto": 17283,
    "chamber": 13624,
    "Ġdisse": 18548,
    "Ġcover": 3557,
    "Ġegress": 21620,
    "Ġfishes": 11590,
    "walk": 5523,
    "Ġpursuit": 4733,
    "Ġsun": 1724,
    "Ġtass": 15469,
    "Ġundertaken": 18986,
    "uated": 10131,
    "Ġbarren": 11206,
    "shish": 11791,
    "Ġclung": 10957,
    "figured": 20121,
    "tin": 6116,
    "cular": 15327,
    "cocks": 23559,
    "Ġtraitors": 23075,
    "Ġinstance": 2544,
    "Ġastonishment": 4794,
    "enances": 10153,
    "pronounced": 12344,
    "Ġdespatched": 23827,
    "Ġexh": 5232,
    "Ġpushed": 5909,
    "Ġminister": 18753,
    "europe": 20664,
    "Ġfrance": 7681,
    "Ġsphynx": 20711,
    "Ġsegmentation": 17339,
    "Ġdiscoloured": 15251,
    "Ġcoloured": 11045,
    "Ġwooden": 4730,
    "ensions": 14258,
    "Ġwharf": 9559,
    "emone": 21924,
    "Ġchas": 18379,
    "strip": 19829,
    "Ġ181": 23892,
    "Ġspectrum": 4474,
    "Ġheedfully": 24521,
    "Ġstick": 6025,
    "Ġfobbing": 26441,
    "Ġalexander": 17423,
    "Ġdirection": 1795,
    "Ġformality": 22825,
    "vous": 2250,
    "uning": 1313,
    "C": 39,
    "Ġschools": 9476,
    "ultaneous": 18584,
    "Ġoverlapping": 26238,
    "hos": 15362,
    "Ġunsupp": 22018,
    "iters": 21327,
    "pol": 5892,
    "``": 15305,
    "compliments": 24810,
    "Ġfailing": 12135,
    "Ġarctic": 12809,
    "Ġconflagration": 26364,
    "Ġheedful": 19739,
    "Ġwaning": 15533,
    "thick": 10260,
    "Ġsket": 18727,
    "solute": 16598,
    "orn": 2241,
    "Ġbodings": 21389,
    "Ġ125": 24470,
    "zor": 15458,
    "iary": 15369,
    "successively": 24779,
    "Ġsal": 3937,
    "Ġcrowding": 13278,
    "Ġkentuck": 19890,
    "avating": 18605,
    "v": 90,
    "Ġinhabitant": 19754,
    "Ġworthy": 7241,
    "Ġcontinuing": 14396,
    "Ġunhappily": 18265,
    "solut": 3364,
    "mastod": 23971,
    "Ġstarboard": 7604,
    "Ġerroneous": 17408,
    "Ġmutter": 23951,
    "Ġlandless": 23377,
    "Ġdefinition": 14403,
    "inger": 6812,
    "Ġupright": 8493,
    "Ġdecipher": 22457,
    "Ġlarge": 1061,
    "Ġfry": 17879,
    "Ġfierce": 7437,
    "pret": 7212,
    "foreign": 18544,
    "Ġxxxi": 24966,
    "Ġd": 284,
    "Ġbarriers": 23793,
    "Ġapart": 4746,
    "erne": 21268,
    "always": 5708,
    "Ġyer": 15732,
    "whalebone": 19118,
    "Ġapplication": 2080,
    "grammar": 6435,
    "Ġsenior": 17171,
    "/": 19,
    "Ġpointing": 5661,
    "Ġunlocking": 20705,
    "establish": 17392,
    "Ġplants": 22595,
    "nett": 16220,
    "augh": 1786,
    "Ġbol": 6241,
    "irements": 22214,
    "Ġreversed": 15695,
    "Ġmaty": 22908,
    "indust": 18435,
    "Ġrabbit": 4289,
    "Ġconfed": 13096,
    "rises": 17655,
    "Ġeuroc": 14958,
    "table": 5795,
    "Ġquestioning": 10463,
    "Ġsituations": 10491,
    "estations": 22220,
    "Ġspasmod": 12412,
    "Ġgorge": 13565,
    "Ġdistillation": 16042,
    "Ġinvestigations": 17246,
    "Ġband": 5290,
    "Ġaccommod": 14213,
    "Ġcav": 13879,
    "appear": 13197,
    "Ġbeadle": 26484,
    "Ġreve": 2937,
    "###": 3826,
    "ove": 1745,
    "Ġtip": 15471,
    "Ġtoilette": 20491,
    "Ġquant": 6424,
    "Ġexcurs": 23312,
    "ection": 4948,
    "Ġimposing": 11779,
    "ness": 853,
    "bruary": 15234,
    "Ġcru": 2823,
    "Ġham": 3422,
    "uiperai": 10663,
    "itement": 7835,
    "Ġoverwhelming": 17102,
    "lin": 9603,
    "Ġdevoted": 6573,
    "gammon": 20242,
    "cell": 10685,
    "Ġsoftness": 18917,
    "Ġabandonment": 25603,
    "motives": 26137,
    "Ġdart": 4585,
    "Ġfootman": 8287,
    "announce": 24560,
    "Ġtimorous": 24225,
    "cher": 5786,
    "!)": 10068,
    "atches": 13845,
    "ifers": 15780,
    "Ġperceptibly": 25821,
    "rely": 6123,
    "crimes": 16697,
    "erity": 21266,
    "Ġpretensions": 16558,
    "Ġimpotently": 22387,
    "Ġempire": 11144,
    "Ġretire": 10381,
    "allowance": 16824,
    "Ġrehears": 15698,
    "Ġexcite": 11964,
    "Ġplains": 14623,
    "Ġserenely": 13506,
    "Ġsoutherly": 23332,
    "Ġunbending": 25464,
    "Ġsmitten": 12896,
    "meat": 18677,
    "spears": 23939,
    "Ġlamp": 4114,
    "Ġcleaning": 23181,
    "itable": 5437,
    "Ġunexpl": 22036,
    "american": 11400,
    "attend": 11101,
    "Ġheavenly": 12082,
    "A": 37,
    "Ġrambling": 18644,
    "Ġleeward": 6210,
    "adventurous": 25361,
    "Ġstruck": 3390,
    "elfth": 22366,
    "Ġthankful": 14737,
    "Ġrainbows": 19647,
    "Ġpush": 9184,
    "Ġimprecate": 20516,
    "Ġsustain": 10016,
    "Ġthieves": 15634,
    "six": 7141,
    "Ġput": 1800,
    "Ġclubbed": 26546,
    "critical": 19502,
    "Ġtrembled": 8701,
    "Ġcharacteristics": 8609,
    "building": 17308,
    "Ġsnake": 12059,
    "Ġsinks": 19548,
    "Ġtuileries": 24826,
    "Ġdarting": 7756,
    "Ġovertaken": 18430,
    "Ġdespaired": 14668,
    "Ġvulgarity": 25363,
    "lished": 8382,
    "warning": 25531,
    "ineas": 15821,
    "Ġexactly": 2767,
    "ñ": 178,
    "Ġgener": 583,
    "shoes": 14239,
    "Ġspaniard": 20361,
    "illuminated": 17452,
    "Ġgranite": 22805,
    "Ġgodfre": 14529,
    "tremendous": 20672,
    "hab": 1078,
    "Ġvisible": 4777,
    "Ġsouthampton": 24307,
    "Ġcounters": 24139,
    "Ġstreet": 2961,
    "Ġtolerable": 6949,
    "Ġgalvan": 21614,
    "Ġenjoyments": 24015,
    "Ĩ": 233,
    "Ġbrute": 8926,
    "Ġunsuccessful": 18260,
    "Ġimmemorial": 10510,
    "Ġcongregation": 12327,
    "Ġdejection": 15195,
    "Ġcrib": 21346,
    "many": 5249,
    "cet": 15324,
    "fort": 1752,
    "journey": 8744,
    "Ġbloodshed": 23799,
    "Ġobsc": 7039,
    "lilies": 20960,
    "thest": 11653,
    "Ġsecluded": 11991,
    "Ġaround": 3610,
    "Ġinsulted": 14991,
    "Ġapproximation": 2339,
    "harpooned": 24286,
    "lik": 3915,
    "Ġhilariously": 25450,
    "Ġpredecess": 18518,
    "kings": 17583,
    "Ġwarmest": 16484,
    "Ġabsolut": 3910,
    "Ġjoyfully": 19344,
    "ĺ": 251,
    "Ġcrests": 25685,
    "Ġunite": 9253,
    "mic": 12486,
    "Ġwondrously": 24063,
    "wants": 21129,
    "Ġcanoes": 12802,
    "Ġinflicted": 11365,
    "Ġpods": 17914,
    "Ġbrutality": 26276,
    "Ġmac": 15537,
    "Ġsimultaneously": 4311,
    "ellest": 21571,
    "Ġspoke": 2747,
    "Ġdimmed": 24267,
    "Ġenvironments": 24032,
    "Ġwestmorland": 24390,
    "Ġfamous": 5255,
    "Ġburg": 23650,
    "Ġuplifted": 11646,
    "Ġqueer": 4479,
    "Ġwandering": 8653,
    "Ġgrecian": 26296,
    "izers": 18142,
    "Ġrapturously": 24888,
    "Ġcombat": 16188,
    "Ġprecise": 7075,
    "phur": 16148,
    "named": 9900,
    "Ġagric": 22511,
    "Ġrashly": 20304,
    "ē": 212,
    "fle": 7128,
    "okingly": 22375,
    "tar": 8097,
    "Ġostrich": 26430,
    "Ġmagnificent": 9842,
    "multiple": 15106,
    "Ġsegment": 12754,
    "Ġcocksure": 26258,
    "ę": 218,
    "Ġdrooping": 9419,
    "lestrade": 9656,
    "Ġbigger": 19760,
    "coming": 3562,
    "Ġimprove": 1847,
    "Ġgrowing": 6750,
    "Ġforeign": 9871,
    "cool": 19188,
    "lungs": 26135,
    "Ġspirit": 3722,
    "Ġdubious": 17382,
    "aution": 9386,
    "Ġimprinted": 22386,
    "Ġconcerned": 5331,
    "Ġimpetuously": 20370,
    "Ġneville": 7399,
    "Ġwiser": 14729,
    "ð": 177,
    "Ġsomebody": 7911,
    "amb": 5723,
    "Ġunfrequently": 20738,
    "Ġconcussion": 26300,
    "Ġmanhat": 22324,
    "Ġcolumbus": 26564,
    "ival": 4225,
    "Ġitaly": 10867,
    "Ġindic": 2890,
    "tarpaul": 21096,
    "Ġluck": 4880,
    "deficient": 23114,
    "Ğ": 223,
    "Ġcontrolled": 23249,
    "Ġembeddings": 2196,
    "Ġperform": 1036,
    "Ġdemanding": 16805,
    "sympathy": 20541,
    "awful": 23111,
    "Ġdrinking": 12166,
    "Ġenriched": 26499,
    "tish": 17677,
    "Ġpawnbroker": 13657,
    "Ġgra": 415,
    "Ġchewed": 16369,
    "Ġwager": 17792,
    "abash": 18107,
    "Ġgifts": 21609,
    "Ġinference": 9671,
    "Ġpounds": 5368,
    "Ġeffectual": 18732,
    "Ġsurprising": 14597,
    "Ġtwenty": 3948,
    "Ġ130": 24781,
    "Ġstash": 18067,
    "Ġsust": 7007,
    "numbers": 17616,
    "guessed": 25872,
    "isc": 6239,
    "crew": 7544,
    "ime": 625,
    "often": 6165,
    "Ġbroad": 3638,
    "butter": 11783,
    "Ġsprout": 24087,
    "alog": 8804,
    "fedallah": 25522,
    "Ġsleeves": 10660,
    "uteness": 17985,
    "handle": 11190,
    "Ġsmoking": 6429,
    "Ġcannon": 14153,
    "strate": 12671,
    "Ġplush": 18609,
    "Ġ93": 24591,
    "Ġbanks": 6814,
    "Ġpert": 22393,
    "Ġbeyond": 2460,
    "Ġdisturb": 7107,
    "Ġcuriously": 13009,
    "holder": 13281,
    "Ġsinister": 8568,
    "crack": 19839,
    "Ġphrenologists": 25608,
    "reception": 15514,
    "Ġdata": 518,
    "Ġdreaminess": 23937,
    "Ġmayhap": 18711,
    "namely": 23764,
    "Ġwinter": 5220,
    "accur": 14593,
    "Ġmeaning": 1414,
    "Ġmortally": 23914,
    "fishermen": 17061,
    "feed": 9292,
    "Ġdistended": 16041,
    "shapes": 22449,
    "Ġjapan": 7639,
    "find": 6954,
    "Ġfiver": 22774,
    "Ġdodo": 9072,
    "Ġerskine": 17431,
    "Ġfalling": 6915,
    "pro": 2051,
    "Ġpleasing": 6190,
    "rent": 1169,
    "Ġvirgin": 7328,
    "Ġency": 21930,
    "stir": 12670,
    "ette": 15657,
    "odd": 21808,
    "Ġvariance": 1167,
    "Ġunrelieved": 20544,
    "cadence": 26125,
    "Ġbible": 9319,
    "hyp": 15365,
    "Ġpathways": 11153,
    "Ġcreeping": 18684,
    "flagged": 23969,
    "wall": 10136,
    "binder": 17499,
    "âĢĻâĢĶ": 12733,
    "ationally": 15703,
    "acity": 5735,
    "Ġwield": 21289,
    "Ġkramm": 26233,
    "Ġdivergence": 2727,
    "wear": 22680,
    "haustible": 16891,
    "Ġwithdra": 6398,
    "hoping": 17566,
    "Ġstreaked": 19113,
    "using": 5468,
    "ades": 5631,
    "Ġbrace": 11211,
    "antage": 3878,
    "Ġassembl": 20059,
    "jol": 20924,
    "sustained": 20567,
    "designated": 26295,
    "Ġheightened": 8648,
    "Ġcurbstone": 26042,
    "cus": 3979,
    "Ġsobbing": 14133,
    "Ġjamming": 17264,
    "Ġpaling": 21460,
    "Ġhydraulic": 10063,
    "cursed": 23841,
    "alarm": 15625,
    "Ġreceiving": 4882,
    "Ġher": 427,
    "Ġdarts": 16768,
    "Ġsurvived": 14933,
    "americ": 8155,
    "ake": 747,
    "Ġanomaly": 25636,
    "Ġoce": 3030,
    "Ġpersisting": 18885,
    "Ġcontempt": 6275,
    "Ġlifetime": 13601,
    "handedness": 24920,
    "Ġsorrow": 4628,
    "extraordinary": 9094,
    "Ġunworthy": 11713,
    "ounce": 6557,
    "Ġluc": 3310,
    "Ġspiracle": 14149,
    "endous": 6850,
    "oko": 18440,
    "Ġpulley": 2978,
    "Ġcoefficient": 2887,
    "Ġtalking": 3857,
    "Ė": 215,
    "Ġ]": 15459,
    "Ġweary": 5635,
    "lan": 15376,
    "Ġcontentment": 14869,
    "belled": 24034,
    "hung": 8380,
    "Ġlearnable": 3996,
    "Ġsplit": 7992,
    "Ġturbid": 23610,
    "ician": 21562,
    "whispered": 20032,
    "Ġmeals": 12708,
    "Ġmuchness": 18710,
    "expose": 23660,
    "Ġwhisky": 23931,
    "majesty": 26280,
    "Ġmovable": 22430,
    "Ġinseparable": 20687,
    "Ġnormalizes": 1860,
    "straight": 9939,
    "Ġhermit": 15856,
    "stand": 630,
    "Ġlabours": 8582,
    "Ġit": 339,
    "drew": 7334,
    "Ġchili": 25561,
    "run": 10721,
    "information": 12391,
    "Ġsubdiv": 16158,
    "barbar": 20237,
    "serious": 14447,
    "Ġchase": 3944,
    "Ġcollinses": 19129,
    "Ġtranquil": 7310,
    "supplied": 10519,
    "Ġunlock": 18246,
    "pursuit": 20339,
    "Ġmanoir": 22328,
    "comp": 3815,
    "Ġvenom": 24238,
    "Ġtrials": 16789,
    "ulent": 21859,
    "Ġcomprehending": 24445,
    "Ġlexicon": 25974,
    "Ġflames": 7939,
    "subst": 12162,
    "iny": 4294,
    "Ġsetting": 7046,
    "artic": 14221,
    "Ġengine": 1918,
    "Ġmourn": 8703,
    "Ġmal": 5221,
    "regular": 3041,
    "Ġseizure": 21961,
    "erman": 5108,
    "Ġhulls": 13925,
    "Ġcynical": 25770,
    "ester": 11597,
    "Ġinspire": 11994,
    "Ġav": 3581,
    "Ġdearer": 14048,
    "Ġtemper": 956,
    "Ġparc": 10920,
    "nursery": 26399,
    "Ġtreacle": 14595,
    "tically": 3393,
    "adv": 4537,
    "pick": 17634,
    "Ġlurking": 11289,
    "Ġachieves": 4380,
    "ities": 1826,
    "Ġsoph": 1519,
    "ifully": 13185,
    "Ġinward": 11606,
    "rapidly": 15242,
    "Ġhurst": 5582,
    "abriel": 6950,
    "Ġfree": 3376,
    "Ġjeopardized": 20229,
    "Ġjewels": 12367,
    "Ġconc": 1840,
    "Ġepis": 19980,
    "Ġforced": 4353,
    "Ġresemble": 15691,
    "Ġobliging": 13242,
    "Ġlies": 5295,
    "Ġdivers": 9665,
    "Ġstalls": 25647,
    "fourth": 11328,
    "Ġmurmuring": 23577,
    "Ġscotland": 6639,
    "sounded": 12264,
    "/`": 12427,
    "Ġsometimes": 2166,
    "brary": 5755,
    "Ġpsal": 15614,
    "cannon": 22959,
    "anning": 10164,
    "ripp": 6405,
    "Ġpeeping": 16126,
    "shore": 10305,
    "Ġcheapside": 23287,
    "unts": 12728,
    "eness": 2288,
    "Ġprompted": 23814,
    "jour": 20926,
    "sterns": 23366,
    "Ġstaple": 26198,
    "Ġswords": 19896,
    "Ġrepeating": 11213,
    "Ġworkmen": 23057,
    "Ġheaving": 7600,
    "uss": 8763,
    "Ġuncles": 23429,
    "Ġgoring": 21601,
    "Ġmagnific": 16319,
    "Ġcoin": 9770,
    "Ġarmitage": 23579,
    "Ġwrapped": 8341,
    "Ġlocket": 22110,
    "ploy": 2032,
    "ousness": 10274,
    "Ġhopkins": 23128,
    "mediate": 16512,
    "ls": 1291,
    "maid": 8553,
    "Ġcomprehen": 5349,
    "Ġevap": 19622,
    "Ġrecompense": 14837,
    "Ġtrib": 13818,
    "Ġdefe": 21832,
    "Ġterrier": 23397,
    "Ġguns": 16776,
    "battering": 20785,
    "damp": 15342,
    "Ġrender": 8304,
    "rinted": 21042,
    "ifford": 15782,
    "Ġder": 1498,
    "finish": 24384,
    "Ġclosely": 6488,
    "whaling": 7898,
    "Ġhackluyt": 25655,
    "vict": 11540,
    "Ġtweed": 22674,
    "others": 7669,
    "Ġplank": 7033,
    "Ġinfer": 7683,
    "Ġhanded": 8216,
    "dman": 10088,
    "Ġpoetry": 15079,
    "Ġdespairing": 14772,
    "Ġgot": 2278,
    "rods": 21535,
    "Ġdistinguished": 8272,
    "Ġaustralia": 15231,
    "Ġunicorn": 22054,
    "Ġturtles": 19220,
    "Ġfallen": 5967,
    "Ġvesu": 21946,
    "Ġunit": 1846,
    "wor": 3417,
    "Ġblend": 14397,
    "Ġut": 2277,
    "her": 487,
    "Ġcouple": 5423,
    "influ": 9540,
    "Ġ1839": 20458,
    "Ġ1890": 23893,
    "Ġroyal": 5602,
    "Ġjune": 10288,
    "allies": 14165,
    "Ġcapric": 14575,
    "Ġpon": 10175,
    "esteemed": 26009,
    "Ġlengthwise": 10452,
    "Ġfestoon": 20293,
    "Ġawaken": 23584,
    "Ġfurther": 1054,
    "metal": 24765,
    "Ġcheerily": 13306,
    "Ġdeceitfulness": 25734,
    "Ġsubfield": 11867,
    "gratification": 24348,
    "Ġmassa": 19452,
    "ips": 2592,
    "Ġneighbour": 3807,
    "Ġcap": 2359,
    "arson": 22746,
    "Ġdeformed": 14046,
    "great": 3517,
    "alterable": 13623,
    "portent": 25412,
    "methodically": 20663,
    "âĢĶâĢĿ": 3300,
    "Ġstraightened": 12106,
    "Ġblacksmith": 6595,
    "astrop": 3315,
    "Ġadroop": 26001,
    "Ġspong": 15880,
    "Ġaffecting": 2322,
    "Ġhelen": 16655,
    "Ġchance": 3317,
    "Ġdistinction": 8885,
    "Ġtreacher": 8603,
    "Ġfreshet": 25704,
    "alone": 10183,
    "Ġpull": 5152,
    "ľ": 255,
    "Ġlabor": 10418,
    "Ġresidence": 8206,
    "n": 82,
    "Ġcomforted": 19389,
    "arrant": 10474,
    "ready": 2357,
    "Ġgramm": 8170,
    "Ġprinciples": 10010,
    "nantucket": 7804,
    "Ġjourneys": 19473,
    "Ġthereupon": 18434,
    "Ġneighbouring": 12116,
    "Ġcapting": 23019,
    "âĢĶâĢľ": 2973,
    "benefact": 24641,
    "Ġnoise": 1066,
    "Ġwatch": 2743,
    "sum": 2088,
    "gentle": 5356,
    "Ġinnocence": 6477,
    "Ġdiscourage": 3116,
    "Ġseverest": 14090,
    "byter": 16214,
    "heavenly": 20043,
    "Ġbarrel": 23790,
    "Ġantichron": 24180,
    "Ġwash": 9702,
    "orter": 4256,
    "Ġviolent": 5117,
    "Ġembal": 11905,
    "kitchen": 17585,
    "Ġexternal": 8364,
    "iature": 8741,
    "geon": 6270,
    "Ġtoilings": 24742,
    "Ġimpressive": 14999,
    "Ġcorrectly": 9403,
    "affected": 10476,
    "divers": 15341,
    "Ġinteractions": 12900,
    "Ġdivinest": 25722,
    "Ġsignific": 3827,
    "Ġxvi": 19104,
    "Ġwad": 13850,
    "Ġcloud": 3911,
    "Ġbuttoning": 17234,
    "Ġunstructure": 2996,
    "accident": 11181,
    "Ġsimulation": 2751,
    "ß": 160,
    "Ġcolonial": 22851,
    "acting": 22628,
    "Ġamerican": 5061,
    "Ġexquisitely": 20201,
    "Ġfeels": 6882,
    "ellow": 3876,
    "eng": 1489,
    "general": 7489,
    "Ġeternities": 19941,
    "Ġwhatsoever": 18460,
    "subsided": 25830,
    "nants": 17613,
    "wail": 21124,
    "Ġirreduc": 5491,
    "Ġsensitiveness": 23733,
    "Ġpall": 7582,
    "Ġsuperb": 16445,
    "Ġaddressing": 11164,
    "lemency": 21372,
    "Ġmanx": 7904,
    "congenial": 25399,
    "Ġweig": 7618,
    "despatched": 19800,
    "Ġomit": 17815,
    "Ġunequal": 14841,
    "Ġcheshire": 13089,
    "zers": 21145,
    "ivable": 10911,
    "Ġfortunes": 12176,
    "Ġstake": 14002,
    "Ġtrapped": 23074,
    "Ġquarter": 3976,
    "Ġcoachman": 15000,
    "Ġpassage": 3884,
    "iop": 20918,
    "pits": 15412,
    "goodness": 19288,
    "themselves": 6540,
    "rab": 7596,
    "Ġreckless": 13457,
    "Ġexpl": 486,
    "ices": 2137,
    "Ġcoleridge": 18766,
    "Ġswears": 16463,
    "Ġspinning": 15052,
    "Ġxliv": 23407,
    "Ġapproached": 5842,
    "ins": 1378,
    "ulls": 8837,
    "Ġdelightfully": 13157,
    "salesman": 20670,
    "Ġrationally": 18213,
    "joke": 20929,
    "Ġriverside": 25247,
    "Ġreported": 11978,
    "imin": 1773,
    "after": 2899,
    "aur": 15307,
    "heaven": 8052,
    "Ġfors": 21768,
    "riumph": 4919,
    "serpent": 16291,
    "belated": 24035,
    "Ġhandsomest": 20333,
    "Ġbuoyant": 13531,
    "Ġsummits": 14683,
    "ò": 179,
    "Ġbuckler": 24859,
    "Ġexpiring": 16097,
    "Ġsink": 4341,
    "Ġseer": 21956,
    "ortunities": 15939,
    "Ġmunro": 25630,
    "Ġwerter": 15238,
    "Ġborrow": 10170,
    "Ġprofane": 13151,
    "Ġcolt": 11044,
    "crews": 15042,
    "Ġcanallers": 13626,
    "advent": 10220,
    "iocr": 20922,
    "Ġintolerable": 8481,
    "countless": 24149,
    "Ġ100": 14364,
    "Ġdec": 642,
    "orified": 21400,
    "Ġbee": 21746,
    "Ġvictor": 5125,
    "Ġswaying": 15046,
    "Ġinstructing": 3124,
    "Ġadie": 8488,
    "Ġcoinc": 11001,
    "Ġpropos": 7062,
    "cing": 1012,
    "Ġcoil": 11816,
    "derbyshire": 18321,
    "Ġroofs": 16985,
    "ments": 1400,
    "bing": 7791,
    "Ġnat": 12642,
    "Ġyounge": 16287,
    "mai": 22911,
    "Ġattent": 4362,
    "Ġterrible": 5327,
    "Ġregarding": 13209,
    "Ġpassers": 18758,
    "omnipotent": 25964,
    "Ġentries": 22741,
    "crime": 14781,
    "grateful": 10428,
    "Ġexclaimed": 4683,
    "dancing": 12452,
    "Ġexercised": 24803,
    "ometer": 19325,
    "Ġbegins": 7244,
    "Ġtr": 554,
    "through": 4024,
    "Ġcontains": 2793,
    "Ġprevented": 5941,
    "Ġwaters": 3595,
    "Ġsax": 10929,
    "Ġsundering": 23272,
    "Ġprevail": 13441,
    "Ġbutt": 14113,
    "Ġreusable": 13556,
    "character": 6331,
    "Ġprediction": 2227,
    "Ġchambers": 16799,
    "Ġarriving": 19217,
    "Ġrecognise": 12028,
    "Ġbutton": 10266,
    "Ġgoin": 18468,
    "magn": 10610,
    "inaw": 21182,
    "adventures": 20255,
    "Ġhams": 16612,
    "overed": 2854,
    "slide": 24556,
    "Ġmusic": 5268,
    "Ġimag": 2675,
    "Ġlightning": 5750,
    "://": 11465,
    "Ġlot": 6678,
    "into": 3678,
    "Ġwill": 677,
    "Ġblan": 18816,
    "omely": 21636,
    "Ġsubset": 9869,
    "Ġepsom": 19981,
    "olen": 9698,
    "conven": 6162,
    "Ġregulations": 18599,
    "Ġtransferred": 16468,
    "concluded": 11242,
    "Ġmichael": 20678,
    "ĠĠĠĠĠĠĠĠĠĠĠĠĠ": 22559,
    "furn": 10091,
    "Ġgarments": 15192,
    "Ġmate": 3705,
    "Ġparsonage": 7123,
    "Ġpurely": 12229,
    "Ġcommenting": 25228,
    "pt": 386,
    "presently": 9806,
    "uing": 17693,
    "breeze": 20561,
    "actorily": 25576,
    "Ġfrank": 4420,
    "Ġhinges": 15211,
    "left": 6975,
    "Ġdoran": 9179,
    "ially": 9245,
    "Ġgenerous": 6271,
    "nameless": 19902,
    "Ġenviron": 3830,
    "Ġabandoned": 8351,
    "leader": 25351,
    "Ġdum": 10811,
    "herself": 4890,
    "Ġflood": 7715,
    "figure": 13554,
    "Ġwept": 7184,
    "Ġpolitical": 19223,
    "introduced": 15123,
    "ident": 3380,
    "Ġbenevolence": 9526,
    "ian": 1236,
    "justified": 19002,
    "Ġstarve": 24625,
    "plete": 10919,
    "icil": 17971,
    "irous": 8838,
    "then": 2054,
    "ively": 1304,
    "Ġwaking": 11569,
    "machine": 1007,
    "Ġarr": 1801,
    "Ġpatronage": 17053,
    "vate": 21108,
    "Ġobtruded": 20721,
    "Ġangel": 4852,
    "knows": 19171,
    "Ġeurope": 8061,
    "oses": 3945,
    "Ġtightly": 13533,
    "travellers": 24318,
    "Ġrespecting": 14483,
    "Ġmiseries": 10346,
    "Ġvector": 1973,
    "thr": 12757,
    "falsehood": 25901,
    "prints": 23810,
    "greeting": 24554,
    "lucases": 20209,
    "Ġreverse": 16982,
    "boil": 18999,
    "opius": 18509,
    "+": 15,
    "separated": 20158,
    "Ġcomplexity": 1695,
    "granting": 23412,
    "Ġcentral": 7727,
    "sacrifice": 13491,
    "Ġcolumn": 9327,
    "Ġperforms": 11875,
    "Ġwipe": 25764,
    "urred": 8448,
    "esu": 17900,
    "Ġchildhood": 13137,
    "ceiling": 21624,
    "Ě": 219,
    "dawson": 26128,
    "battle": 12440,
    "brown": 15316,
    "road": 6677,
    "illes": 12691,
    "Ġtang": 13813,
    "Ġsuccor": 25662,
    "ref": 6515,
    "Ġleviathanic": 12078,
    "ir": 379,
    "Ġevanesc": 24294,
    "Ġicelandic": 25886,
    "could": 2874,
    "Ġrevenue": 26194,
    "poster": 11056,
    "Ġdiabol": 11453,
    "Ġsturgeon": 20590,
    "Ġmel": 4816,
    "Ġlurked": 11291,
    "dishon": 20402,
    "unavoid": 14061,
    "Ġrobinson": 17463,
    "Ġjoker": 22295,
    "Ġafric": 8905,
    "Ġfur": 992,
    "outre": 18320,
    "Ġnotions": 14098,
    "ato": 17769,
    "Ġanvil": 11596,
    "Ġcontraction": 16007,
    "rapt": 13972,
    "sk": 5521,
    "Ġvex": 5948,
    "mount": 9129,
    "Ġpraised": 19552,
    "pleasure": 5977,
    "Ġallegor": 25545,
    "Ġbutter": 6839,
    "foot": 9046,
    "Ġsinusoidal": 4801,
    "iards": 17574,
    "Ġtapping": 10752,
    "epend": 3314,
    "Ġelbows": 18636,
    "ops": 5246,
    "Ġcounterbalance": 24722,
    "Ġ132": 19895,
    "Ġrearing": 12674,
    "ingale": 21298,
    "Ġwar": 5526,
    "Ġthirds": 16708,
    "Ġprofession": 6207,
    "Ġgames": 11625,
    "Ġexposes": 22622,
    "anxiety": 25155,
    "Ġtasted": 12526,
    "Ġcour": 1772,
    "Ġazure": 12372,
    "Ġallen": 5160,
    "perfectly": 9085,
    "Ġunnecessary": 8851,
    "Ġseizing": 7878,
    "Ġcorpusants": 13676,
    "igantic": 5539,
    "Ġoverpow": 14207,
    "Ġconvent": 11667,
    "entieth": 17978,
    "Ġdestroyed": 5271,
    "Ġsalesman": 13667,
    "earnest": 12397,
    "Ġstrained": 10218,
    "Ġignominy": 15084,
    "althy": 8431,
    "Ġbadly": 12129,
    "Ġpursue": 6314,
    "soup": 21057,
    "aphys": 15200,
    "concluding": 19479,
    "injustice": 17737,
    "allows": 15906,
    "Ġblocked": 19222,
    "Ġpleasure": 2694,
    "Ġwrist": 8242,
    "Ġhardihood": 23108,
    "Ġsav": 3357,
    "Ġswish": 23048,
    "Ġparm": 15876,
    "olently": 15752,
    "Ġ(`": 12850,
    "Ġpretended": 19313,
    "Ġoily": 13863,
    "Ġig": 3501,
    "private": 13581,
    "Ġlungs": 8361,
    "subtle": 24243,
    "Ġvacancy": 9044,
    "Ġinsp": 2101,
    "itancy": 21331,
    "Ġforeheads": 23447,
    "threshold": 21984,
    "Ġpaint": 7707,
    "wretched": 10741,
    "Ġoft": 9194,
    "orne": 17872,
    "Ġtwos": 18657,
    "177": 20751,
    "Ġunheard": 22022,
    "Ġprophetic": 20018,
    "Ġrange": 9711,
    "gainst": 25141,
    "three": 5238,
    "Ġodd": 6624,
    "germans": 20564,
    "Ġasiatics": 20429,
    "Ġp": 289,
    "Ġcopies": 24935,
    "Ġslew": 23381,
    "Ġjewelled": 20182,
    "Ġcourses": 10413,
    "Ġevangelical": 25506,
    "Ġwraps": 19775,
    "descend": 23082,
    "Ġmillar": 13860,
    "disappeared": 14569,
    "Ġtragedy": 10667,
    "Ġhabitual": 24790,
    "relu": 17759,
    "Ġnumbers": 2891,
    "Ġfixedly": 19247,
    "Ġsmall": 894,
    "magnificent": 20273,
    "Ġuppermost": 15277,
    "germ": 15355,
    "Ġdecoyed": 18492,
    "Ġhoops": 9387,
    "Ġstupid": 7603,
    "Ġrail": 7225,
    "ves": 682,
    "shadows": 25479,
    "Ġjohn": 5032,
    "centre": 17087,
    "Ġclam": 7416,
    "Ġcow": 13875,
    "Ġgilt": 21603,
    "Ġhumble": 8551,
    "courageous": 26127,
    "Ġcoopman": 25827,
    "athan": 2960,
    "Ġinquired": 7485,
    "Ġcomplained": 16998,
    "ions": 449,
    "Ġobsequious": 17403,
    "Ġmovement": 9967,
    "Ġreveal": 11200,
    "Ġcy": 13873,
    "ior": 2041,
    "itor": 12563,
    "Ġpretty": 3860,
    "darker": 24516,
    "Ġcrony": 23439,
    "oriented": 2951,
    "Ġrepulses": 26069,
    "ouched": 4636,
    "Ġabsolute": 6765,
    "Ġcowardice": 17032,
    "Ġhauling": 14086,
    "pursu": 11392,
    "arks": 2845,
    "Ġdis": 695,
    "ensive": 6279,
    "deceit": 25556,
    "okes": 9276,
    "Ġperfection": 19218,
    "Ġgrammatical": 13538,
    "Ġmasks": 23324,
    "vanished": 15060,
    "Ġwheel": 9717,
    "Ġstigma": 25791,
    "Ġkrusen": 20713,
    "Ġconsid": 1813,
    "Ġdiabolism": 25514,
    "impossible": 8823,
    "Ġgardens": 16453,
    "acious": 5562,
    "Ġbewit": 15726,
    "Ġinquire": 7719,
    "Ġbiography": 22767,
    "Ġscrolled": 22286,
    "Ġdoubt": 2221,
    "hilar": 25081,
    "Ġmyster": 5925,
    "mph": 20971,
    "Ġskip": 1843,
    "Ġcalm": 3448,
    "archical": 1925,
    "Ġeffects": 7236,
    "town": 7142,
    "Ġhanover": 20584,
    "Ġdoleful": 18376,
    "ulating": 10887,
    "Ġexc": 1831,
    "Ġgazed": 6478,
    "Ġsoaked": 15859,
    "Ġbrewed": 23344,
    "Ġbildad": 3781,
    "Ġwhole": 1663,
    "Ġoccas": 2702,
    "Ġbronze": 22862,
    "Ġeyelids": 26107,
    "Ġdong": 17887,
    "Ġdespondency": 16577,
    "y": 93,
    "Ġprotectors": 9070,
    "Ġpaced": 7583,
    "Ġsurrounded": 5878,
    "Ġnewfound": 22929,
    "Ġsong": 5902,
    "Ġknee": 7093,
    "Ġflapped": 23011,
    "Ġaccorded": 24088,
    "tormented": 13644,
    "Ġfireboard": 23531,
    "Ġgilder": 21610,
    "Ġdecay": 1011,
    "Ġschoolmasters": 19719,
    "Ġspaulding": 11729,
    "appearance": 5333,
    "now": 548,
    "Ġdeclined": 9920,
    "Ġfirmness": 11237,
    "disappearing": 23500,
    "stall": 21643,
    "Ġbravest": 23838,
    "Ġfir": 17877,
    "Ġfly": 3869,
    "Ġcoco": 11000,
    "enes": 5218,
    "abulary": 4800,
    "fireside": 24692,
    "uth": 3019,
    "chet": 13216,
    "Ġenigmatical": 20596,
    "Ġdexter": 9700,
    "reposed": 24492,
    "Ġwhichever": 13999,
    "hump": 12475,
    "Ġwrithed": 17106,
    "Ġroarings": 25301,
    "plifted": 9709,
    "Ġrevers": 21661,
    "Ġdiligent": 25075,
    "Ġkeepers": 23537,
    "Ġsque": 18757,
    "silent": 9973,
    "Ġposture": 24163,
    "Ġplus": 3882,
    "cape": 13696,
    "Ġsummoning": 23872,
    "Ď": 207,
    "forever": 22516,
    "invite": 25088,
    "Ġbaltic": 18795,
    "Ġtrail": 16282,
    "Ġmaze": 23828,
    "anity": 9654,
    "arch": 1127,
    "Ġstave": 11650,
    "Ġforget": 2634,
    "Ġformed": 3883,
    "tone": 8762,
    "paused": 17373,
    "Ġproport": 2295,
    "Ġlord": 2969,
    "Ġhumorousness": 25377,
    ".": 18,
    "Ġcontaining": 2231,
    "subs": 14301,
    "aswag": 21543,
    "Ġxlvi": 25590,
    "Ġcalling": 5662,
    "Ġpersonally": 8598,
    "Ġunanswerable": 26521,
    "affections": 17356,
    "Ġessentially": 24924,
    "Ġpagans": 16922,
    "poky": 17644,
    "Ġinnermost": 12158,
    "renadier": 18419,
    "Ġtides": 13820,
    "lost": 8887,
    "Ġplanks": 5563,
    "Ġindustry": 18836,
    "meaning": 2911,
    "Ġdrowsiness": 26445,
    "Ġspikes": 22133,
    "Ġtam": 7821,
    "Ġjagged": 18407,
    "steak": 14707,
    "ounder": 11742,
    "Ġshrunk": 16718,
    "Ġmitigates": 3051,
    "Ġdreary": 10408,
    "Ġire": 12664,
    "Ġfished": 21408,
    "Ġengraving": 17080,
    "Ġdiscrete": 2478,
    "Ġwhirl": 13448,
    "Ġindomitableness": 26571,
    "æ": 167,
    "lashed": 20953,
    "enthus": 17977,
    "abil": 2008,
    "Ġdella": 21437,
    "Ġdying": 2136,
    "sh": 641,
    "Ġperse": 6272,
    "alling": 6036,
    "tan": 4742,
    "Ġblunder": 18818,
    "Ġashes": 7616,
    "Ġramble": 9312,
    "Ġcream": 22721,
    "sher": 5217,
    "Ġcheating": 16366,
    "greater": 13250,
    "Ġordained": 19443,
    "Ġinfle": 16362,
    "[_": 5131,
    "Ġblo": 2733,
    "Ġmaintaining": 1508,
    "Ġdashed": 6009,
    "Ġtor": 8105,
    "Ġprofessions": 11231,
    "mort": 10710,
    "entimes": 12653,
    "Ġsworn": 14434,
    "Ġmembrane": 20502,
    "Ġtumbling": 13825,
    "crossed": 16632,
    "Ġvaulted": 25167,
    "maker": 12490,
    "doc": 23374,
    "Ġflag": 7242,
    "Ġwalled": 15534,
    "calm": 8934,
    "Ġgradual": 20600,
    "admitted": 18091,
    "dings": 2187,
    "Ġimmensely": 13594,
    "Ġdistension": 22499,
    "Ġribbons": 24329,
    "Ġintertw": 18588,
    "Ġmitt": 21306,
    "Ġladyship": 5046,
    "Ġwarming": 23556,
    "solved": 7684,
    "Ġbough": 13893,
    "lic": 17587,
    "oky": 8197,
    "rift": 11519,
    "Ġspared": 7892,
    "Ġcoburg": 18595,
    "Ġstockings": 19995,
    "Ġcircumnav": 12424,
    "ager": 6546,
    "pedest": 24695,
    "iliating": 12692,
    "Ġneed": 2607,
    "Ġtraps": 23077,
    "morn": 20975,
    "Ġblown": 12083,
    "Ġspending": 10923,
    "Ġsticking": 13426,
    "Ġpast": 2099,
    "Ġcall": 2075,
    "Ġjustified": 11902,
    "leading": 15560,
    "characteristic": 24685,
    "musical": 25340,
    "Ġloitering": 22113,
    "Ġpursued": 6328,
    "Ġvoyages": 6908,
    "bb": 2800,
    "charming": 15704,
    "ĠĠĠĠĠĠĠĠĠĠĠĠĠĠĠĠĠĠĠĠĠĠĠĠĠ": 24442,
    "Ġnoteworthy": 24161,
    "velled": 9875,
    "back": 2018,
    "Ġsect": 17751,
    "embraced": 25806,
    "stamp": 21651,
    "orse": 5806,
    "Ġarising": 10933,
    "Ġimplement": 2928,
    "Ġinsular": 19267,
    "eu": 17530,
    "Ġignorant": 5343,
    "support": 9469,
    "Ġcastors": 23973,
    "Ġdair": 17889,
    "Ġarrived": 3746,
    "Ġpropriet": 9549,
    "Ġsmelt": 16064,
    "Ķ": 247,
    "aned": 5147,
    "89": 20758,
    "genteel": 19947,
    "Ġpartiality": 9397,
    "swift": 14851,
    "Ġpermitting": 22397,
    "Ġnerves": 2627,
    "under": 3134,
    "elling": 5830,
    "Ġagent": 6277,
    "Ġhot": 4258,
    "dep": 6786,
    "hammad": 23261,
    "coast": 10449,
    "resentment": 15184,
    "secured": 16938,
    "Ġintrepidity": 25550,
    "Ġmighty": 4228,
    "tackle": 17320,
    "Ġeliminating": 20618,
    "fi": 12459,
    "Ġsurmisings": 26593,
    "Ġshouldn": 14324,
    "enhall": 13849,
    "vac": 15450,
    "hello": 13362,
    "Ġcompose": 12899,
    "Ġgateway": 24802,
    "Ġconstruction": 9384,
    "odings": 4400,
    "Ġnoiseless": 10356,
    "Ġgaol": 19566,
    "Ġprocession": 11773,
    "Ġkentuckian": 26342,
    "exp": 2737,
    "suitableness": 26260,
    "rs": 7807,
    "Ġrio": 23889,
    "Ġii": 7384,
    "assure": 9268,
    "Ġdiscol": 12950,
    "ensity": 11811,
    "Ġarticulate": 24432,
    "Ġreigning": 15699,
    "wrong": 13205,
    "Ġmabel": 17323,
    "Ġfaire": 13363,
    "knew": 9126,
    "Ġlighter": 12650,
    "Ġflu": 3278,
    "Ġtail": 3089,
    "Ġacquiesce": 20328,
    "Ġram": 11013,
    "Ġcoffins": 13249,
    "Ġfron": 14487,
    "Ġrifled": 21973,
    "Ġwonders": 7500,
    "Ġgin": 13960,
    "harbors": 20147,
    "Ġcarries": 7673,
    "Ġliking": 23589,
    "scream": 11077,
    "Ġrevelation": 25222,
    "Ġexterm": 21827,
    "**:": 4737,
    "Ġlace": 13948,
    "oried": 10802,
    "Ġwillingness": 24910,
    "Ġreservo": 16831,
    "pertaining": 22181,
    "Ġinclement": 22550,
    "Ġmoonlight": 9957,
    "willingness": 24755,
    "erxes": 21274,
    "follow": 5680,
    "child": 5538,
    "Ġdented": 17891,
    "Ġ51": 24320,
    "Ġtrif": 6269,
    "Ġagreed": 7028,
    "Ġunwritten": 22031,
    "stains": 11636,
    "last": 3802,
    "Ġamid": 4959,
    "Ġsquaring": 22834,
    "Ġ1828": 25720,
    "Ġweariness": 19793,
    "found": 4212,
    "proof": 16423,
    "Ġreliance": 14384,
    "Ġnasty": 17442,
    "ooping": 21006,
    "Ġpresentiment": 18989,
    "Ġhovers": 19076,
    "tomorrow": 25914,
    "Ġannotations": 25954,
    "tim": 13790,
    "Ġwarbling": 26168,
    "blown": 25201,
    "ution": 4350,
    "Ġfolded": 7767,
    "Ġdiscipline": 26561,
    "icted": 5936,
    "orious": 6007,
    "Ġknocking": 10559,
    "drawn": 9912,
    "Ġcongregational": 25102,
    "mentioning": 24885,
    "blow": 9103,
    "ommod": 13976,
    "mies": 20967,
    "Ġeasiness": 23535,
    "ache": 8518,
    "lucifer": 25302,
    "Ġsteersman": 13039,
    "Ġxxxvi": 24969,
    "Ġtrait": 23071,
    "Ġbreath": 4791,
    "Ġpupella": 20420,
    "sens": 8095,
    "ife": 1025,
    "Ġdepression": 21837,
    "continuing": 24479,
    "daggoo": 13706,
    "owe": 15707,
    "Ġoaken": 13864,
    "soles": 18687,
    "increased": 20269,
    "bbing": 6323,
    "will": 1970,
    "Ġtrifle": 10601,
    "Ġengra": 7873,
    "turbaned": 24532,
    "shipped": 18486,
    "dropping": 14981,
    "Ġcommotion": 9779,
    "Ġsewing": 21958,
    "Ġfishers": 19352,
    "cavity": 26126,
    "Ġtruthful": 23865,
    "dashing": 20835,
    "Ġ99": 10745,
    "conclusive": 25673,
    "pus": 3415,
    "uttural": 21586,
    "Ġruminated": 24599,
    "Ġmanipulated": 25178,
    "fth": 20855,
    "trick": 19411,
    "Ġboasted": 16106,
    "Ġfavourites": 16644,
    "_,âĢĻâĢĿ": 20399,
    "Ġconstantinople": 19836,
    "Ġbehaviors": 13253,
    "enter": 7857,
    "Ġlane": 5627,
    "Ġunspeakably": 25172,
    "Ġspiced": 22130,
    "Ġchag": 15930,
    "atre": 17770,
    "Ġexpressed": 4467,
    "flatter": 23964,
    "hued": 20910,
    "Ġslewed": 23383,
    "Ġcategories": 4478,
    "drown": 13703,
    "Ġ40": 14767,
    "Ġdash": 8121,
    "Ġcaptivating": 26050,
    "Ġgleamed": 17077,
    ":": 30,
    "Ġchamois": 16800,
    "sailed": 17666,
    "Ġfrontispiece": 23911,
    "Ġunpleasing": 22052,
    "previous": 9760,
    "attending": 18916,
    "Ġsubmit": 11868,
    "Ġburgl": 13172,
    "Ġwhine": 21712,
    "flag": 14710,
    "Ġluckless": 16797,
    "Ġshoreless": 24295,
    "Ġpompous": 20421,
    "Ġastonishing": 10501,
    "Ġcreamy": 14329,
    "Ġtorm": 5434,
    "mouth": 9130,
    "Ġfinger": 5273,
    "different": 6501,
    "_),": 7125,
    "Ġbulldog": 23857,
    "Ġthoughts": 3141,
    "ĠlinnÃ¦us": 15274,
    "Ġtub": 7146,
    "Ġfalsehood": 10523,
    "bons": 17486,
    "Ġcampa": 17173,
    "Ġde": 363,
    "Ġpanic": 11286,
    "Ġtrough": 15969,
    "Ġmorbid": 16235,
    "Ġnorthumbria": 24170,
    "Ġcrags": 23527,
    "boards": 23253,
    "recollection": 25348,
    "ained": 3065,
    "Ġfasting": 16355,
    "Ġepoch": 26472,
    "Ġjewell": 19519,
    "Ġbraided": 16581,
    "Ġtree": 5284,
    "pleasing": 14741,
    "boat": 3362,
    "penn": 18826,
    "Ġpositions": 2058,
    "Ġadded": 2715,
    "Ġpratt": 23219,
    "Ġfanciful": 24788,
    "paws": 21028,
    "Ġsucc": 12782,
    "Ġfacts": 2286,
    "irm": 3107,
    "Ġsimpler": 2049,
    "Ġimperial": 9480,
    "Ġb": 281,
    "Ġredeem": 20498,
    "Ġshr": 4224,
    "rupt": 3211,
    "Ġelastic": 4363,
    "¢": 100,
    "postp": 24634,
    "Ġwearily": 18177,
    "Ġdefend": 9339,
    "Ġ104": 24412,
    "een": 727,
    "striking": 13439,
    "ri": 390,
    "avier": 2830,
    "izar": 14049,
    "Ġperished": 11782,
    "Ġsalutation": 12395,
    "Ġorph": 9716,
    "Ġreclining": 26033,
    "Ġtumbled": 13405,
    "begged": 18520,
    "Ġcommanding": 16590,
    "Ġpriests": 15040,
    "kempt": 20940,
    "Ġatom": 18192,
    "Ġtrains": 10947,
    "Ġexisting": 12715,
    "Ġgrop": 12661,
    "pips": 21019,
    "enesis": 24388,
    "Ġanticipatingly": 26102,
    "piling": 15415,
    "Ġoutlines": 15956,
    "Ġany": 689,
    "conscientious": 19625,
    "Ġobstetrics": 24678,
    "Ġcabinets": 23860,
    "Ġaffability": 14386,
    "tuning": 1588,
    "culiarity": 11141,
    "Ġgrasped": 8033,
    "inside": 23062,
    "mosphere": 10042,
    "springing": 24889,
    "Ġedinburgh": 16436,
    "igger": 21698,
    "Ġsomnam": 23004,
    "Ġaltered": 7393,
    "Ġbour": 4876,
    "Ġscents": 22284,
    "Ġdenomin": 12065,
    "nesday": 8702,
    "Ġexceeding": 1587,
    "Ġaccomp": 4713,
    "Ġjustly": 11901,
    "Ġcobbler": 25829,
    "Ġchuck": 8501,
    "Ġwander": 9031,
    "Ġballasted": 23977,
    "Ġpersuading": 19408,
    "ieth": 10704,
    "tube": 20409,
    "Ġadmiral": 17304,
    "romang": 22002,
    "Ġdevices": 2945,
    "Ġaside": 5234,
    "glory": 23850,
    "Ġruddy": 17125,
    "believe": 8303,
    "Ġ117": 19696,
    "ellations": 21941,
    "mr": 1901,
    "Ġforefinger": 16444,
    "tom": 15435,
    "Ġgour": 21595,
    "Ġseat": 4949,
    "Ġshifting": 12765,
    "Ġprincipal": 6496,
    "Ġharvest": 13414,
    "Ġcommodore": 12393,
    "Ġpuzzling": 14897,
    "Ġspain": 15879,
    "Ġpads": 21472,
    "Ġwronged": 24247,
    "Ġdown": 830,
    "icable": 6388,
    "Ġconj": 8460,
    "Ġreads": 23109,
    "Ġhiss": 15786,
    "ondency": 15268,
    "things": 6032,
    "anzas": 17840,
    "Ġcup": 5697,
    "Ġeste": 6084,
    "voices": 21116,
    "ishmael": 18420,
    "amet": 591,
    "Ġdavy": 25951,
    "roused": 16652,
    "Ġbalmoral": 16206,
    "Ġparcel": 15198,
    "Ġdiversion": 17197,
    "Ġconsecutive": 20701,
    "Ġsufficient": 2004,
    "give": 4689,
    "Ġwrung": 14471,
    "Ġgoverned": 23569,
    "Ġtyro": 16994,
    "oth": 1183,
    "tempered": 13445,
    "soever": 11860,
    "Ġhaul": 11690,
    "Ġdetected": 18841,
    "expectations": 24276,
    "Ġscarcely": 4009,
    "Ġvillas": 24051,
    "Ġcertain": 1564,
    "Ġleviathans": 8281,
    "Ġaccomplishments": 13378,
    "Ġprepare": 8646,
    "provoke": 26071,
    "lad": 5991,
    "Ġendow": 23140,
    "Ġlivery": 15998,
    "O": 51,
    "thur": 7188,
    "Ġaspect": 3096,
    "uled": 11536,
    "towing": 17689,
    "Ġconsistence": 23354,
    "goin": 23401,
    "Ġwish": 2098,
    "Ġdeserves": 13288,
    "Ġwallowing": 24041,
    "imp": 3033,
    "Ġproudly": 19741,
    "adow": 18087,
    "side": 2300,
    "ozy": 17622,
    "Ġunrival": 22044,
    "ved": 870,
    "Ġgravel": 14101,
    "trivial": 21091,
    "Ġushered": 18362,
    "Ġoccupation": 9930,
    "Ġassociation": 24711,
    "princip": 17136,
    "inhabited": 13619,
    "mile": 17597,
    "Ġasi": 12729,
    "foundation": 16714,
    "Ġstolen": 14006,
    "Ġet": 3580,
    "Ġhum": 1098,
    "Ġharpo": 1943,
    "dread": 8728,
    "Ġgr": 979,
    "Ġ90": 24588,
    "interested": 9505,
    "sharp": 10306,
    "Ġambitious": 18514,
    "Ġcommis": 22668,
    "vint": 21113,
    "swimming": 24258,
    "aled": 3943,
    "Ġhunting": 7259,
    "Ġoblivious": 26032,
    "Ġpyramid": 8801,
    "Ġincompetent": 25679,
    "Ġprefers": 20512,
    "inite": 6001,
    "Ġmitig": 1336,
    "Ġoverhead": 11771,
    "Ġblock": 2576,
    "Ġresignation": 18566,
    "Ġpeaks": 16127,
    "Ġgaiety": 16749,
    "Ġthoughtfully": 12977,
    "unk": 4539,
    "Ġstrength": 4260,
    "almost": 4943,
    "Ġcompact": 2262,
    "Ġprocuring": 16870,
    "Ġcoiling": 12902,
    "wond": 8767,
    "artificial": 994,
    "Ġmult": 1023,
    "allah": 5838,
    "truck": 15441,
    "abominable": 20592,
    "Ġgemin": 21607,
    "Ġlive": 2734,
    "Ġexpensive": 12915,
    "Ġconsequence": 5542,
    "Ġsevered": 18205,
    "Ġraptures": 13496,
    "Ġelab": 22640,
    "Ġbohem": 8526,
    "volous": 18577,
    "perceived": 8858,
    "Ġpup": 12616,
    "Ġverbal": 19377,
    "Ġencomp": 12960,
    "iriously": 18171,
    "Ġseams": 12122,
    "Ġrather": 1495,
    "Ġsuspecting": 14909,
    "Ġillustrious": 17109,
    "Ġscenery": 11456,
    "·": 120,
    "travel": 24316,
    "convers": 6567,
    "Ġdrinks": 24279,
    "Ġobstructed": 24677,
    "Ġaghast": 16046,
    "Ġastr": 15494,
    "Ġrefrained": 14343,
    "ived": 1535,
    "Ġtropic": 17064,
    "Ġcloudless": 16668,
    "Ġseparated": 9464,
    "Ġreddening": 25970,
    "Ġhang": 9187,
    "Ġkindred": 16377,
    "Ġwo": 3649,
    "Ġpike": 12620,
    "Ġsecret": 3718,
    "gs": 7338,
    "invariably": 26416,
    "attendants": 25495,
    "precedented": 15173,
    "Ġinsatiable": 19271,
    "Ġornament": 11718,
    "oo": 7553,
    "stone": 5089,
    "free": 8735,
    "sheets": 14441,
    "sculptured": 26046,
    "Ġhangs": 11605,
    "ice": 590,
    "coronet": 16863,
    "waste": 21133,
    "Ġassiduous": 26292,
    "wling": 11544,
    "Ġnorris": 23203,
    "Ġarmchair": 8270,
    "ena": 11567,
    "Ġdrove": 4984,
    "quely": 10231,
    "iloquent": 21722,
    "neath": 12864,
    "Ġpathetic": 19024,
    "note": 14339,
    "Ġcor": 1323,
    "aments": 12722,
    "ack": 617,
    "Ġunf": 4090,
    "mud": 20970,
    "Ł": 258,
    "Ġuntrodden": 23519,
    "Ġgather": 6534,
    "Ġrol": 3555,
    "cott": 8073,
    "Ġstructural": 2798,
    "Ġroof": 6564,
    "Ġclothes": 4997,
    "Ġbackwoods": 22659,
    "solving": 3099,
    "Ġr": 404,
    "Ġacquiring": 2766,
    "Ġlikeness": 11179,
    "Ġanon": 9666,
    "overcome": 19050,
    "ens": 701,
    "sir": 5001,
    "Ġconnecting": 18630,
    "Ġj": 533,
    "arcy": 1274,
    "contempt": 13189,
    "Ġparticular": 2451,
    "Ġplane": 11821,
    "touch": 8391,
    "Ġspeaks": 11159,
    "feelings": 5674,
    "Ġpaused": 5416,
    "Ġtahit": 10754,
    "Ġshattered": 7883,
    "Ġpresentation": 14480,
    "paid": 15414,
    "represent": 9637,
    "Ġdishes": 16049,
    "Ġintruding": 21988,
    "Ġtongue": 6347,
    "Ġsquid": 11876,
    "dred": 2527,
    "discover": 10539,
    "Ġhemis": 21681,
    "befall": 22491,
    "Ġswarming": 16271,
    "Ġdiabolical": 20341,
    "Ġbowlines": 19321,
    "Ġcompos": 22566,
    "he": 264,
    "windows": 19533,
    "Ġlull": 15649,
    "Ġbanqu": 12585,
    "Ġrecol": 4028,
    "Ġfusion": 21412,
    "Ġsmiles": 6706,
    "Ġoysters": 20577,
    "/*": 10070,
    "Ġreal": 1637,
    "Ġdelicacy": 6340,
    "partner": 19221,
    "yard": 5899,
    "Ġencoura": 1367,
    "Ġvisitors": 7984,
    "Ġannihilated": 20251,
    "Ġslipper": 24265,
    "Ġazores": 20192,
    "compl": 6873,
    "Ġsuppl": 11079,
    "Ġende": 21929,
    "Ġtangled": 13826,
    "hens": 3936,
    "mercenary": 26315,
    "months": 9071,
    "Ġprofounder": 23567,
    "irwin": 8468,
    "frost": 15105,
    "Ġgre": 1589,
    "Ġjoining": 13163,
    "Ġspec": 1261,
    "Ġremorseless": 13450,
    "Ġpiqu": 21475,
    "broker": 13303,
    "Ġpuzzle": 11305,
    "marriage": 7744,
    "ely": 623,
    "ene": 2168,
    "Ġconcentric": 20073,
    "Ġlakeman": 6986,
    "Ġgladness": 16591,
    "Ġexcl": 3475,
    "Ġroughly": 17040,
    "faith": 15024,
    "Ġhav": 12751,
    "Ġlodged": 11252,
    "83": 13679,
    "Ġmaybe": 12946,
    "Ġplug": 17147,
    "Ġrelation": 2141,
    "Ġaloof": 21782,
    "Ġgreatest": 4093,
    "Ġrealities": 18981,
    "Ġus": 499,
    "Ġvaguely": 17365,
    "Ġfreighted": 16323,
    "Ġruggedness": 26268,
    "impart": 21706,
    "Ġmeta": 3744,
    "fatal": 17088,
    "anct": 21356,
    "iage": 17573,
    "Ġwatchful": 16526,
    "Ġdrug": 11410,
    "sequ": 2400,
    "Ġaffectionately": 13167,
    "Ġcoats": 16073,
    "masters": 16834,
    "Ġrain": 5005,
    "oration": 2207,
    "Ġoutline": 15953,
    "shot": 2110,
    "beyond": 8882,
    "Ġminers": 22828,
    "machines": 8384,
    "Ġmuscle": 14689,
    "comput": 1928,
    "Ġdemands": 19642,
    "Ġpatted": 16370,
    "agrad": 2746,
    "retirement": 23136,
    "stiff": 12672,
    "indifferent": 14208,
    "expressing": 16801,
    "Ġintim": 6838,
    "Ġspilled": 10924,
    "silver": 19689,
    "{": 95,
    "Ġsurvey": 13592,
    "Ġhissed": 15787,
    "Ġlamb": 8812,
    "darted": 20831,
    "Ġstretching": 10014,
    "carried": 16711,
    "Ġshrubbery": 18232,
    "Ġpreparations": 12308,
    "Ġfell": 1979,
    "Ġsee": 803,
    "Ġseventeen": 26210,
    "m": 81,
    "Ġpreprocess": 22230,
    "Ġadding": 2402,
    "Ġnumer": 3637,
    "Ġrev": 6988,
    "Ġtrade": 2546,
    "stochastic": 3774,
    "Ġrocks": 6863,
    "Ġprophesied": 26062,
    "Ġsins": 13836,
    "Ġdefection": 22939,
    "othed": 16510,
    "Ġinexpress": 12632,
    "Ġpredict": 675,
    "¦": 104,
    "pockets": 16209,
    "Ġconsecrated": 26488,
    "Ġrewarding": 13436,
    "Ġthre": 2060,
    "Ġmccarthy": 5145,
    "Ġprevailed": 7777,
    "aside": 10191,
    "coo": 11170,
    "inary": 3275,
    "poor": 6060,
    "Ġme": 351,
    "conda": 18993,
    "Ġselected": 9710,
    "shazz": 14240,
    "satisf": 5781,
    "Ġdupl": 9953,
    "Ġelimin": 16107,
    "Ġsubdued": 11030,
    "Ġdens": 21422,
    "onely": 6516,
    "axed": 8888,
    "Ġrighted": 23176,
    "Ġcorporeal": 17359,
    "quakes": 21847,
    "Ġcommonly": 3265,
    "//": 11463,
    "Ġparson": 6687,
    "Ġyon": 9692,
    "Ġrespective": 16344,
    "Ġfall": 2989,
    "driven": 19770,
    "advantage": 8658,
    "Ġfortresses": 23620,
    "Ġorthodox": 22092,
    "Ġcler": 11768,
    "Ġsulky": 13514,
    "Ġscraped": 16903,
    "Ġbricks": 13561,
    "Ġturns": 4981,
    "Ġunlocked": 14120,
    "Ġriveted": 13617,
    "Ġdreamed": 16629,
    "Ġpromontory": 11939,
    "sway": 15425,
    "Ġparacelsus": 15265,
    "quality": 10232,
    "Ġmonuments": 22979,
    "Ġbuying": 23993,
    "Ġbedroom": 7277,
    "usage": 12829,
    "bel": 3835,
    "oid": 3128,
    "therly": 18346,
    "magnet": 14969,
    "Ġpurporting": 19182,
    "steam": 23957,
    "Ġparading": 23706,
    "Ġowe": 8114,
    "Ġgilded": 17444,
    "Ġlullaby": 20586,
    "self": 616,
    "biqu": 17497,
    "Ġhummed": 18778,
    "asol": 21537,
    "engines": 18927,
    "Ġdashes": 21432,
    "Ġhardship": 18913,
    "spass": 18688,
    "Ġtents": 13817,
    "Ġwilds": 16508,
    "Ġbuttoned": 25368,
    "Ġbeheaded": 11655,
    "photograph": 16149,
    "Ġinsert": 19904,
    "Ġcorp": 5574,
    "which": 1711,
    "Ġterminating": 23508,
    "Ġport": 3309,
    "mish": 17598,
    "itely": 5365,
    "Ġwire": 13851,
    "shott": 11792,
    "Ġextract": 1561,
    "classification": 4388,
    "oin": 17617,
    "Ġwail": 21285,
    "recursion": 13327,
    "Ġaugment": 8691,
    "Ġ128": 24473,
    "Ġarcher": 22187,
    "hopes": 15368,
    "Ġmoral": 6578,
    "Ġpage": 6978,
    "alleging": 23022,
    "offic": 7466,
    "Ġblack": 2035,
    "Ġchronicle": 20227,
    "Ġvor": 15805,
    "stump": 21650,
    "Ġpleated": 16296,
    "Ġhieroglyphic": 25587,
    "hertfordshire": 10936,
    "Ġpat": 1766,
    "party": 8993,
    "une": 2786,
    "Ġsixteen": 8282,
    "Ġpoetical": 25056,
    "ender": 9160,
    "Ġdepart": 4656,
    "Ġdiligently": 11405,
    "instances": 13318,
    "Ġdreamt": 23936,
    "fancy": 7337,
    "Ġdecks": 6900,
    "Ġarea": 14186,
    "Ġfrig": 13079,
    "Ġplu": 8798,
    "despairing": 25074,
    "Ġcorner": 4371,
    "common": 4128,
    "Ġsafe": 5103,
    "uine": 13798,
    "Ġcorps": 13030,
    "Ġeveryone": 8917,
    "tha": 15822,
    "Ġdiab": 10611,
    "ibility": 2389,
    "Ġwooded": 23517,
    "ban": 9584,
    "Ġrustic": 14964,
    "Ġver": 3394,
    "Ġreluct": 14370,
    "Ġmanual": 14197,
    "den": 939,
    "Ġwight": 12550,
    "Ġmistifying": 23715,
    "Ġunderstand": 854,
    "Ġnone": 3225,
    "izard": 10883,
    "Ġexamination": 8004,
    "Ġqualities": 7533,
    "Ġobser": 2071,
    "Ġsickened": 16775,
    "Ġridge": 14817,
    "Ġimitate": 14157,
    "Ġresource": 10993,
    "excepting": 19705,
    "Ġimplore": 24872,
    "Ġcontracting": 16010,
    "Ġoppose": 16519,
    "ileries": 18058,
    "sets": 17660,
    "Ġresolved": 3797,
    "Ġencounters": 19579,
    "Ġincreas": 1694,
    "Ġattorney": 18620,
    "Ġentertaining": 16926,
    "Ġhuddled": 20298,
    "Ġdraughts": 20220,
    "Ġendowed": 18924,
    "Ġswain": 18880,
    "Ġrats": 21970,
    "Ġstamping": 20029,
    "waves": 10742,
    "narr": 12494,
    "Ġapply": 1781,
    "Ġbitterest": 12400,
    "Ġprotested": 9933,
    "Åĵuv": 15181,
    "Ġschoolmaster": 16862,
    "Ġconvolutions": 21804,
    "ington": 21300,
    "Ġunwillingness": 20030,
    "Ġflukes": 5266,
    "Ġindicates": 3196,
    "degra": 22138,
    "Ġbier": 22766,
    "03": 20747,
    "gr": 2087,
    "studies": 25166,
    "guinea": 16672,
    "Ġfulf": 6772,
    "enderby": 25215,
    "disappointment": 11425,
    "express": 4895,
    "woe": 21134,
    "gradient": 2273,
    "other": 1315,
    "Ġitalian": 12408,
    "Ġcomplimented": 14903,
    "lacing": 17590,
    "Ġearlier": 9086,
    "ornamented": 26595,
    "Ġcomplet": 4423,
    "Ġthreshold": 2808,
    "ashtego": 4102,
    "Ġ101": 24409,
    "Ġbashaw": 25633,
    "bowl": 14890,
    "belt": 24033,
    "Ġrefill": 18702,
    "Ġedges": 3824,
    "Ġadoption": 24948,
    "matters": 14873,
    "Ġeight": 3901,
    "Ġaugust": 10597,
    "Ġpoll": 12029,
    "txt": 12513,
    "recur": 4437,
    "Ġpeninsula": 23196,
    "Ġquest": 2002,
    "Ġverses": 17063,
    "sorts": 21059,
    "Ġcollins": 2179,
    "Ą": 197,
    "!_âĢĶ": 19971,
    "Ġoutside": 5554,
    "endar": 18364,
    "Ġrigger": 19529,
    "east": 9115,
    "Ġassumed": 9465,
    "return": 5489,
    "relate": 24008,
    "Ġel": 802,
    "Ġdews": 21835,
    "Ġornam": 15863,
    "Ġhumbug": 18780,
    "royal": 11393,
    "Ġcomfortably": 16615,
    "derick": 22159,
    "Ġstoven": 23173,
    "adm": 7608,
    "Ġlately": 6387,
    "Ġadaptive": 1360,
    "Ġhas": 825,
    "Ġchemical": 10412,
    "clearly": 25195,
    "bted": 7793,
    "¯": 112,
    "Ġgreeks": 20011,
    "Ġsag": 6514,
    ".âĢĻâĢĿ": 6739,
    "Ġkiss": 8182,
    "Ġanticip": 7507,
    "Ġtatters": 21176,
    "Ġmediocr": 24083,
    "Ġlumber": 13951,
    "urried": 21701,
    "Ġparamet": 609,
    "âĢĶâĢĻ": 8187,
    "Ġconst": 1910,
    "Ġheathenish": 13615,
    "ce": 313,
    "art": 587,
    "ards": 2505,
    "furnish": 25338,
    "Ġcapital": 7979,
    "Ġmorrow": 9342,
    "Ġglit": 8559,
    "Ġbrim": 12973,
    "Ġimposed": 14214,
    "thank": 4950,
    "Ġdeser": 3886,
    "Ġwaggish": 25434,
    "Ġrecip": 16138,
    "honorable": 19900,
    "pr": 3177,
    "Ġ44": 16679,
    "Ġbelike": 18829,
    "lins": 2027,
    "burgh": 6773,
    "twist": 23697,
    "Ġbeer": 10219,
    "leman": 21366,
    "Ġvertu": 23888,
    "Ġcongratulatory": 19766,
    "Ġadmeasure": 18295,
    "Ġecstasy": 11629,
    "Ġconcisely": 19044,
    "Ġclimbing": 20068,
    "phon": 4127,
    "aneous": 7240,
    "Ġundet": 16704,
    "mock": 5174,
    "Ġslips": 23164,
    "Ġtranquo": 14842,
    "gd": 3126,
    "conjecturing": 20133,
    "Ġarched": 10932,
    "Ë": 140,
    "mounting": 25207,
    "Ġrussian": 14349,
    "control": 16543,
    "Ġinsensible": 12323,
    "etian": 13958,
    "brow": 15314,
    "Ġchivalrous": 20513,
    "itarian": 21335,
    "Ġintegration": 9867,
    "Ġwoof": 14720,
    "Ġresented": 22540,
    "Ġtimidly": 11338,
    "helpless": 16790,
    "Ġspat": 2665,
    "Ġantip": 24176,
    "Ġconducted": 10502,
    "prospect": 23394,
    "Ġdisinclination": 22533,
    "Ġenhancement": 23673,
    "exceedingly": 9566,
    "Ġinter": 728,
    "Ġtepid": 26412,
    "Ġstrange": 2272,
    "Ġneighbor": 25803,
    "Ġdiff": 3115,
    "Ġarve": 15901,
    "Ġsisters": 3639,
    "Ġcrusad": 23702,
    "Ġstress": 18066,
    "Ġsweat": 13139,
    "Ġinscrut": 10033,
    "Ġdecent": 10982,
    "Ġinspector": 6498,
    "Ġforgive": 8009,
    "Ġstreatham": 17448,
    "ric": 1377,
    "Ġcou": 5286,
    "torture": 26151,
    "Ġdictating": 20151,
    "Ġguiding": 19240,
    "Ġcreep": 22722,
    "happened": 9432,
    "Ġundertaking": 8573,
    "Ġdisliked": 12888,
    "itled": 7577,
    "Ġincomplete": 17208,
    "Ġinsurgents": 26600,
    "Ġtet": 21156,
    "Ġbeamed": 23720,
    "Ġnoisy": 13317,
    "Ġsublim": 19965,
    "Ġquart": 11785,
    "fulfilment": 26025,
    "Ġperfidious": 25666,
    "guard": 12126,
    "Ġsplice": 19308,
    "Ġopenly": 8572,
    "atlantic": 15523,
    "Ġpainter": 19167,
    "Ġinsane": 19268,
    "shark": 14237,
    "Ġprincip": 5600,
    "Ġsoot": 14129,
    "Ġtherein": 11774,
    "ollen": 11298,
    "Ġentity": 10341,
    "Ġdictator": 20152,
    "Ġrains": 24340,
    "Ġperturbation": 20439,
    "beloved": 19459,
    "Ġgraze": 18226,
    "Ġplead": 14454,
    "occupations": 24964,
    "Ġcapering": 21352,
    "Ġaristotle": 25817,
    "Ġclatter": 22341,
    "scot": 14417,
    "Ġrobots": 11076,
    "Ġordin": 16650,
    "neglected": 25669,
    "Ġremedy": 18724,
    "stein": 5505,
    "Ġagree": 7646,
    "eyed": 11486,
    "nowadays": 22335,
    "entreat": 17975,
    "Ġbrides": 22860,
    "axen": 22518,
    "Ġhogshead": 26367,
    "Ġlandowner": 23379,
    "daw": 17522,
    "gaffman": 26390,
    "Ġdrunkard": 20176,
    "atch": 673,
    "Ġlongest": 18629,
    "Ġarthur": 7196,
    "Ġcrushed": 9422,
    "usion": 3301,
    "Ġfavoured": 16360,
    "ulity": 10886,
    "Ġdab": 15586,
    "Ġirresolute": 24916,
    "Ġearliest": 9829,
    "Ġyellow": 5300,
    "cl": 1494,
    "Ġaristocratic": 20511,
    "print": 23809,
    "Ġimmediately": 3366,
    "Ġbrixton": 13662,
    "aton": 21257,
    "Ġcathedral": 17412,
    "Ġundue": 25993,
    "irksome": 18172,
    "executed": 25739,
    "Ġson": 2985,
    "course": 6104,
    "actor": 11836,
    "Ġmeditate": 16682,
    "know": 2317,
    "Ġboarding": 12084,
    "Ġamph": 18511,
    "asy": 5294,
    "Ġsuicide": 12785,
    "Ġmatch": 4529,
    "Ġunderground": 18984,
    "Ġauthor": 4376,
    "Ġhackney": 20431,
    "bits": 17488,
    "Ġoptim": 782,
    "Ġwhom": 1830,
    "este": 15916,
    "Ġoftener": 13564,
    "Ġboa": 22632,
    "Ġobeying": 13413,
    "Ġcrying": 10786,
    "Ġregal": 16075,
    "Ġpains": 5964,
    "Ġcrystall": 20225,
    "Ġlazarus": 15028,
    "youn": 5690,
    "Ġabstraction": 26539,
    "Ġladder": 8597,
    "Ġanecd": 20153,
    "Ġimpose": 22379,
    "Ġillustrations": 17108,
    "Ġtid": 8106,
    "Ġassoc": 6402,
    "amusement": 15281,
    "Ġdraws": 19434,
    "collinses": 19922,
    "affording": 23776,
    "apable": 6422,
    "ulence": 15764,
    "Ġcatholic": 20680,
    "furthest": 19840,
    "Ġpoured": 8800,
    "eric": 3471,
    "Ġslumbers": 18941,
    "Ġpal": 4042,
    "Ġamidst": 9493,
    "wild": 8766,
    "pleasant": 5874,
    "Ġfitzwilliam": 5771,
    "Ġsubterraneous": 20264,
    "Ġcontemptuously": 19832,
    "natured": 7110,
    "Ġuser": 15919,
    "Ġintervene": 25480,
    "Ġbeauty": 3770,
    "Ġprimary": 25060,
    "bbings": 19275,
    "geons": 15978,
    "Ġwhipcord": 20093,
    "made": 4808,
    "Ġtried": 3646,
    "Ġvoluntary": 14797,
    "Ġmisfortunes": 7041,
    "Ġearl": 7675,
    "consolation": 15151,
    "Ġparticle": 18674,
    "Ġsymbolize": 24960,
    "eneva": 5118,
    "protested": 13473,
    "robe": 15640,
    "Ġmediocrity": 26608,
    "Ġevalu": 2920,
    "Ġexal": 10877,
    "Ġunluckily": 20100,
    "Ġlurch": 21552,
    "cream": 15330,
    "Ġshipping": 14103,
    "torn": 17682,
    "nam": 3042,
    "cushion": 20820,
    "ledyard": 22388,
    "Ġprev": 6264,
    "Ġdrawing": 3917,
    "unquiet": 21878,
    "unwittingly": 25801,
    "Ġspend": 5304,
    "igan": 21696,
    "bird": 9585,
    "nal": 1902,
    "Ġunbroken": 18253,
    "stricken": 9883,
    "Ġanchors": 12610,
    "isition": 11585,
    "Ġstrolled": 16770,
    "ingly": 2135,
    "Ġsovere": 9255,
    "Ġcasc": 15554,
    "Ġbrighter": 16186,
    "barr": 15319,
    "Ġjungfrau": 15247,
    "Ġaffection": 2640,
    "Ġmassive": 9931,
    "Ġwell": 902,
    "monograph": 23525,
    "Ġresult": 4460,
    "Ġclassify": 1527,
    "Ġdictated": 25218,
    "Ġthrow": 3783,
    "Ġfancying": 12110,
    "boast": 23251,
    "Ġcanterbury": 22164,
    "more": 1033,
    "Ġensures": 3056,
    "stool": 23817,
    "Ġviv": 6156,
    "living": 7133,
    "cient": 4569,
    "bottle": 20144,
    "Ġkuiperai": 10935,
    "lue": 8508,
    "Ġevident": 6611,
    "Ġph": 1553,
    "permission": 15900,
    "stayed": 25290,
    "Ġpout": 17906,
    "prehensible": 12358,
    "mou": 10708,
    "Ġdined": 9176,
    "stay": 9680,
    "Ġtechni": 1719,
    "dream": 8727,
    "eur": 7545,
    "ckets": 6843,
    "moil": 22702,
    "wing": 2520,
    "Ġgen": 5296,
    "Ġonly": 787,
    "Ġmethodically": 23117,
    "Ġkindled": 19032,
    "aches": 6570,
    "Ġagencies": 18538,
    "Ġsneering": 24697,
    "oker": 10963,
    "Ġsupercil": 23453,
    "Ġprodu": 1204,
    "Ġconfide": 13097,
    "arched": 10815,
    "Ġlambton": 10657,
    "Ġtelescopes": 25690,
    "horizon": 23614,
    "Ġlulled": 17968,
    "flight": 15351,
    "Ġexhibit": 14955,
    "Ġsurplus": 26303,
    "Ġangelic": 19626,
    "Ġ10": 5248,
    "Ġcocoan": 20315,
    "Ġheadstrong": 14387,
    "Ġexceptionable": 25503,
    "Ġconfessed": 8008,
    "your": 1986,
    "tort": 17675,
    "Ġsoaring": 22074,
    "Ġbask": 8116,
    "Ġquarto": 17295,
    "Ġguarded": 9825,
    "fab": 13715,
    "hers": 7635,
    "Ġclaps": 22343,
    "uzza": 11270,
    "awned": 19458,
    "wrath": 23754,
    "rop": 540,
    "advise": 24217,
    "skeleton": 17375,
    "drugg": 20837,
    "6": 26,
    "Ġvide": 10250,
    "Ġattempted": 8000,
    "Ġtong": 4870,
    "Ġovercame": 9745,
    "vity": 7815,
    "pher": 11511,
    "igh": 2030,
    "Ġforwards": 12700,
    "Ġstrives": 23691,
    "Ġmeditative": 25014,
    "Ġtendinous": 16931,
    "Ġbrick": 8925,
    "Ġtools": 11608,
    "Ġsurrender": 16450,
    "etah": 12658,
    "Ġadmit": 7710,
    "remarks": 23189,
    "Ġmen": 1431,
    "alluring": 18352,
    "Ġcrowder": 19454,
    "Ġnewcomer": 26040,
    "urance": 10857,
    "Ġkettle": 26232,
    "Ġpallidness": 25604,
    "Ġhotels": 19535,
    "Ġprofound": 5497,
    "Ġhysterical": 26092,
    "heeded": 13833,
    "Ġpeasant": 13550,
    "meant": 7920,
    "Ġemploy": 3614,
    "Ġseasoned": 24405,
    "Ġahab": 1213,
    "Ġdeploy": 2839,
    "Ġsteering": 10387,
    "Ġobjection": 6585,
    "osite": 4893,
    "Ġcontented": 9755,
    "rant": 11516,
    "Ġexquisite": 12380,
    "Ġrelentless": 26277,
    "Ġstraighten": 24001,
    "Ġjaw": 3318,
    "tic": 8390,
    "Ġfre": 1578,
    "bre": 3978,
    "Ġrage": 5110,
    "Ġencoun": 4512,
    "Ġdeplored": 20503,
    "ippers": 17576,
    "Ġinoffensive": 21495,
    "Ġdeportment": 22606,
    "á": 162,
    "Ġparlor": 13539,
    "Ġaware": 5756,
    "Ġfairest": 20461,
    "Ġparadise": 11195,
    "Ġgamming": 25542,
    "Ġmagnitudes": 3821,
    "Ġinsincere": 26599,
    "mat": 2198,
    "Ġhideous": 5982,
    "wra": 11541,
    "Ġsounded": 8590,
    "Ġflamingo": 15099,
    "Ġclum": 8872,
    "opportunity": 12272,
    "wearing": 22684,
    "Ġunfair": 19506,
    "Ġherself": 1574,
    "Ġblemish": 19678,
    "unbounded": 21882,
    "Ġgrandfather": 19420,
    "Ġbore": 5079,
    "Ġprognostics": 20557,
    "ravity": 21632,
    "Ġtarpaulin": 26157,
    "Ġtugged": 17288,
    "Ġsales": 12804,
    "visits": 24223,
    "better": 7119,
    "jam": 15370,
    "confirm": 16807,
    "Ġimpregnable": 26023,
    "Ġcrisis": 13125,
    "Ġed": 2143,
    "worth": 8626,
    "sample": 12504,
    "Ġmerit": 9426,
    "Ġpel": 17904,
    "fortunes": 6332,
    "Ġsavagely": 26323,
    "Ġmagic": 8232,
    "ign": 1706,
    "Ġimpress": 6862,
    "mediterranean": 16402,
    "Ġstacks": 18074,
    "erative": 21271,
    "Ġliterally": 15115,
    "Ġ1869": 19382,
    "Ġtant": 12522,
    "notice": 16147,
    "Ġnap": 8808,
    "chess": 16573,
    "Ġterrors": 6918,
    "coll": 23778,
    "Ġaddison": 14232,
    "Ġtrout": 22352,
    "Ġsanguinary": 25929,
    "Ġnecessitated": 23925,
    "missed": 11209,
    "Ġfreedom": 9082,
    "Ġfiftieth": 24703,
    "lean": 21363,
    "Ġclipping": 2443,
    "waiter": 24586,
    "Ġpresented": 5183,
    "Ġjabbering": 22300,
    "ied": 941,
    "Ġhaggard": 17329,
    "Ġ1991": 3017,
    "Ġfoiled": 23243,
    "untary": 9866,
    "Ġadvertise": 25388,
    "person": 7745,
    "Ġgazette": 19499,
    "ashing": 4824,
    "Ġtastes": 15477,
    "Ġ25": 13193,
    "absolutely": 10645,
    "Ġadvances": 12988,
    "creator": 26381,
    "Ġinquisitive": 26317,
    "Ġsubsiding": 23432,
    "acies": 14276,
    "ump": 2282,
    "programming": 10062,
    "Ġsubsequently": 16159,
    "exagger": 22425,
    "hist": 7130,
    "Ġpines": 12614,
    "Ġmaggie": 26291,
    "nine": 13760,
    "Ġdesolated": 24812,
    "adjust": 21757,
    "impressions": 20697,
    "Ġbranches": 6776,
    "B": 38,
    "Ġchemist": 11134,
    "arding": 22154,
    "N": 50,
    "Ġwake": 4749,
    "determination": 19943,
    "Ġlump": 21549,
    "Ġmccauley": 26427,
    "Ġconsoled": 18112,
    "engineer": 23146,
    "Ġpenalizing": 13090,
    "Ġand": 295,
    "fat": 8078,
    "Ġautumnal": 19017,
    "per": 480,
    "gave": 7799,
    "quid": 18145,
    "Ġinsipid": 26313,
    "Ġfeeding": 7971,
    "Ġvivacious": 19814,
    "Ġlocked": 6034,
    "frank": 7757,
    "Ġgaiters": 20459,
    "Ġhercules": 14127,
    "especially": 3572,
    "ssian": 3401,
    "Ġsuit": 5725,
    "Ġsensations": 5259,
    "Ġsalt": 8016,
    "distinguished": 10526,
    "Ġslapped": 23169,
    "distance": 12150,
    "Ġindependently": 4246,
    "\"]": 17470,
    "north": 14615,
    "Ġopium": 8995,
    "Ġauto": 23276,
    "Ġwhispers": 14699,
    "Ġungenerous": 18269,
    "Ġcompanies": 14557,
    "imaux": 21709,
    "Ġcomple": 2841,
    "stopping": 19348,
    "perv": 1549,
    "Ġanalyzing": 18785,
    "Ġnetwork": 451,
    "Ġblinding": 14727,
    "Ġmentioning": 9897,
    "zwilliam": 5074,
    "Ġshud": 5461,
    "Ġident": 2239,
    "etence": 21574,
    "Ġsquall": 7043,
    "Ġserene": 8166,
    "absent": 21786,
    "Ġanomalous": 25637,
    "Ġpromised": 5181,
    "Ġheroism": 24544,
    "Ġsly": 9632,
    "wers": 12517,
    "Ġcensus": 15095,
    "Ġcass": 13878,
    "osh": 18388,
    "tender": 14474,
    "iar": 2375,
    "Ġcushion": 17833,
    "food": 12461,
    "Ġpostpone": 17306,
    "Ġorder": 1687,
    "ascending": 24707,
    "rabb": 15678,
    "Ġfeed": 2128,
    "Ġmacey": 12560,
    "Ġtanning": 17729,
    "code": 15328,
    "backs": 9390,
    "inished": 17734,
    "beth": 13687,
    "Ġflow": 1237,
    "elev": 12456,
    "Ġhope": 1792,
    "sol": 1793,
    "Ġhails": 21947,
    "Ġvalidate": 2868,
    "did": 3197,
    "Ġgraces": 18225,
    "ai": 2526,
    "arus": 13911,
    "Ġdang": 9174,
    "eler": 1579,
    "Ġdarkly": 19114,
    "rived": 5373,
    "Ġlent": 21544,
    "rible": 3229,
    "Ġvirtues": 9935,
    "accepting": 20134,
    "Ġcounted": 12137,
    "englishman": 23672,
    "Ġquote": 18466,
    "Ġdome": 15587,
    "Ġfriend": 1296,
    "accuracy": 9878,
    "fleet": 15013,
    "Ġunrestrained": 25554,
    "Ġflit": 23006,
    "create": 24158,
    "Ġengravings": 15064,
    "Ġchain": 1842,
    "chop": 21685,
    "Ġlightened": 23259,
    "Ġadmirable": 8268,
    "racting": 10355,
    "Ġburial": 16521,
    "Ġgrampus": 21990,
    "islands": 21374,
    "Ġphrensy": 25124,
    "Ġtort": 5901,
    "ugnance": 12365,
    "Ġoccurring": 2792,
    "Ġnibbling": 17384,
    "shud": 18483,
    "Ġum": 10211,
    "Ġmisanthrop": 22759,
    "Ġbridegroom": 10604,
    "Ġquestion": 2776,
    "Ġcircles": 7966,
    "Ġspecial": 2103,
    "acqu": 4842,
    "Ġshan": 9248,
    "Ġpatient": 6894,
    "scattered": 22994,
    "Ġattendance": 12179,
    "whispering": 26103,
    "Ġrevolt": 24504,
    "structure": 2208,
    "Ġhurling": 19110,
    "Ġoverflowed": 20261,
    "9": 29,
    "Ġspiral": 14584,
    "Ġdampening": 2898,
    "ctive": 11622,
    "contrad": 19291,
    "Ġflushed": 13025,
    "Ġmild": 4146,
    "Ġinqu": 2968,
    "icked": 10332,
    "Ġexponentially": 1445,
    "Ġfluke": 14673,
    "Ġride": 12755,
    "Ġliter": 8811,
    "Ġdundee": 16997,
    "despair": 8343,
    "uity": 12515,
    "Ġexhilarating": 26337,
    "housekeeper": 24101,
    "vengeance": 13355,
    "pshire": 21023,
    "gate": 12464,
    "Ġscruples": 15077,
    "humanity": 24839,
    "achable": 14137,
    "rug": 18336,
    "Ġdisrespect": 18553,
    "Ġutterance": 14762,
    "Ġoffered": 5816,
    "arking": 16124,
    "Ġtowards": 1732,
    "Ġdivineness": 25724,
    "opolising": 25676,
    "Ġjoy": 3186,
    "ez": 5683,
    "itan": 10159,
    "Ġshut": 3941,
    "Ġindefinitely": 25221,
    "forced": 11031,
    "Ġfaintest": 24569,
    "Ġfruit": 12324,
    "Ġfossiliferous": 25609,
    "Ġremains": 4910,
    "))": 1516,
    "even": 3837,
    "Ġhurried": 4033,
    "Ġlamented": 24991,
    "Ġdep": 746,
    "Ġcharmingly": 24221,
    "Ġflattened": 26047,
    "Ġoffice": 4965,
    "Ġfancied": 7326,
    "Ġinde": 7371,
    "Ġ131": 24782,
    "Ġpremeditated": 22231,
    "magnitude": 17248,
    "Ġspermacetti": 19049,
    "regiment": 16452,
    "keys": 15857,
    "Ġyielded": 14871,
    "conceive": 16029,
    "Ġdemand": 4947,
    "actually": 14294,
    "opic": 22473,
    "Ġeffemin": 18543,
    "Ġconver": 806,
    "Ġmale": 9648,
    "Ġsidelong": 11438,
    "Ġcollected": 2611,
    "Ġoverlooked": 15973,
    "Ġbonnet": 10655,
    "future": 13716,
    "Ġostlers": 25276,
    "family": 7324,
    "Ġmanaged": 7905,
    "andromeda": 21865,
    "frequented": 25900,
    "Ġmilk": 6485,
    "quar": 7615,
    "Ġfrankenstein": 7095,
    "Ġethics": 15462,
    "probable": 17021,
    "Ġcandour": 14672,
    "Ġnoticing": 18224,
    "cated": 20802,
    "Ġaccurate": 13267,
    "Ġaccordance": 19496,
    "Ġgeese": 7693,
    "Ġconceals": 23901,
    "chie": 21687,
    "lodged": 25907,
    "Ġjerking": 12243,
    "Ġnecessitates": 23926,
    "rative": 17652,
    "âĢĶâĢĺ_": 24831,
    "Ġnorton": 12646,
    "Ġsnugness": 20075,
    "awed": 10391,
    "izz": 7613,
    "blows": 17165,
    "Ġbelonged": 6922,
    "Ġmaj": 3926,
    "Ġlamentations": 17076,
    "Ġsubsisting": 23433,
    "Ġtreasures": 17047,
    "curiosity": 8623,
    "antee": 22094,
    "vag": 8764,
    "reference": 13839,
    "complet": 11383,
    "Ġundisturbed": 19518,
    "persuaded": 15072,
    "Ġillustrative": 25066,
    "Ġrhone": 25230,
    "Ġshoots": 14567,
    "Ġwondrous": 4735,
    "helm": 12169,
    "spark": 18689,
    "gue": 12465,
    "Ġdetail": 634,
    "Ġsorrowful": 10536,
    "idirection": 2411,
    "Ġcontract": 18475,
    "Ġchronicler": 20228,
    "repressed": 21242,
    "Ġverdant": 15002,
    "wedged": 24338,
    "Ġtranquillity": 7536,
    "Ġentertain": 6053,
    "ears": 20844,
    "Ġskirts": 14351,
    "Ġbetokened": 18796,
    "varieties": 23187,
    "sullen": 17669,
    "Ġthunders": 15636,
    "inery": 17733,
    "Ġmotive": 6091,
    "Ġ64": 24367,
    "Ġattics": 22618,
    "Ġobserve": 4670,
    "seamen": 13625,
    "Ġwars": 17785,
    "Ġrejection": 19982,
    "active": 16102,
    "imately": 12685,
    "Ġburly": 19249,
    "ring": 1755,
    "Ġopinions": 9414,
    "remarkable": 13497,
    "behaviour": 11301,
    "Ġconstit": 8583,
    "Ġgenerously": 22389,
    "hereditary": 26419,
    "sen": 21048,
    "Ġtarshish": 12027,
    "Ġdel": 1617,
    "amplified": 26494,
    "floating": 12225,
    "aulding": 11339,
    "Ġfamily": 1968,
    "Ġsurest": 19054,
    "Ġoversampling": 20514,
    "says": 13298,
    "Ġwished": 3728,
    "Ġpark": 5465,
    "Ġaimed": 20249,
    "umul": 1290,
    "ohnson": 16325,
    "Z": 62,
    "Ġsupplying": 19797,
    "Ġboxed": 24360,
    "Ġbellies": 13354,
    "Ġmasses": 10503,
    "chers": 11317,
    "gments": 12467,
    "ands": 21863,
    "obscure": 23094,
    "here": 2548,
    "Ġexcessively": 9439,
    "Ġcheat": 19022,
    "_âĢĶâĢĿ": 20762,
    "Ġanchored": 17439,
    "cabin": 8362,
    "Ġconsistent": 14528,
    "Ġtunnel": 14929,
    "Ġharem": 9708,
    "collar": 19327,
    "obli": 23091,
    "conce": 8510,
    "Ġcom": 369,
    "Ġamongst": 8959,
    "Ġforthwith": 16618,
    "names": 15397,
    "Ġacknowledges": 24688,
    "Ġmountains": 4427,
    "attentions": 13573,
    "ä": 165,
    "Ġwork": 1368,
    "apsed": 6295,
    "Ġacres": 14312,
    "Ġinch": 7849,
    "fixedly": 24929,
    "Ġglories": 16240,
    "Ġsoil": 9254,
    "Ġbachelors": 24860,
    "sw": 4741,
    ",": 16,
    "Ġlookest": 22712,
    "Ġjackson": 24240,
    "Ġstow": 21727,
    "vedale": 22709,
    "Ġpunctually": 17138,
    "Ġ184": 16607,
    "distrustful": 26330,
    "ush": 3630,
    "crown": 13697,
    "Ġineffect": 13929,
    "scept": 21052,
    "hark": 15364,
    "Ġcoins": 11817,
    "liber": 18813,
    "sought": 15427,
    "resent": 10769,
    "Ġdiscrimination": 23603,
    "onah": 3337,
    "Ġsurv": 6081,
    "Ġmr": 661,
    "Ġpolar": 9410,
    "Ġideas": 5494,
    "Ġcourt": 4168,
    "Ġlizz": 21554,
    "Ġsang": 12532,
    "xi": 17710,
    "Ġcalls": 6744,
    "angel": 5726,
    "ribution": 14306,
    "stocks": 23818,
    "Ġmaketh": 15186,
    "aired": 8368,
    "Ġstove": 6733,
    "Ġterti": 14538,
    "Ġexplored": 23515,
    "Ġcomm": 839,
    "Ġqueens": 16706,
    "Ġmiscell": 16150,
    "Ġsteak": 9828,
    "Ġdagger": 21435,
    "Ġdomineer": 23718,
    "instinctively": 26327,
    "thousand": 5547,
    "Ġsupply": 6066,
    "expected": 5780,
    "Ġraw": 3320,
    "Ġcompletely": 4860,
    "Ġfatality": 12092,
    "Ġaper": 17743,
    "Ġcargo": 16289,
    "Ġgeorge": 3748,
    "appearing": 14637,
    "retired": 11934,
    "onic": 7827,
    "Ġarrangements": 16515,
    "Ġalleviated": 26203,
    "wheeling": 22865,
    "Ġcocain": 18594,
    "Ġbehaves": 23299,
    "unaccountable": 15777,
    "Ġendeavoured": 4918,
    "Ġey": 8134,
    "ud": 901,
    "Ġclergyman": 8711,
    "obtained": 23092,
    "Ġhalloa": 13315,
    "Ġseek": 4509,
    "retion": 9361,
    "irably": 13294,
    "tahit": 17692,
    "ubines": 22956,
    "burned": 25079,
    "Ġsabbath": 17254,
    "Ġjurymen": 16847,
    "Ġcondescended": 19954,
    "ĠĠĠĠĠĠĠĠĠĠĠĠĠĠĠĠĠĠĠĠĠĠĠĠĠĠĠĠĠĠĠĠĠ": 12041,
    "irect": 5553,
    "Ġgroan": 13323,
    "Ġinvolving": 18739,
    "obliged": 20630,
    "metallic": 19879,
    "Ġcoupled": 16851,
    "Ġclap": 10956,
    "Æ": 135,
    "Ġ22": 8278,
    "Ġheredit": 9216,
    "Ġcapsizing": 20087,
    "Ġspectacle": 10496,
    "Ġfreckled": 18961,
    "Ġsulkily": 25882,
    "Ġrestrictions": 20634,
    "Ġilluminating": 25245,
    "Ġalarmed": 6923,
    "Ġsho": 2243,
    "ĠĠĠĠĠĠĠĠĠĠĠĠĠĠĠĠĠĠĠĠĠĠĠĠĠĠĠĠĠĠĠĠĠĠ": 14613,
    "Ġinstantaneously": 23656,
    "Ġfully": 6342,
    "Ġegyptian": 13585,
    "Ġejaculation": 20253,
    "omically": 13975,
    "main": 8087,
    "Ġmiller": 19882,
    "Ġjobs": 24832,
    "Ġdepends": 1110,
    "Ġwardrobe": 17225,
    "Ġfid": 10803,
    "Ġsupervised": 3109,
    "Ġconsumed": 10349,
    "Ġscholar": 26111,
    "ı": 242,
    "official": 24914,
    "jane": 4483,
    "Ġporpoise": 7106,
    "Ġowner": 8922,
    "comfortably": 16875,
    "Ġpreluding": 18368,
    "Ġapex": 24342,
    "Ġarranged": 9876,
    "vulgar": 25918,
    "Ġcreditors": 20128,
    "Ġbarmaid": 19334,
    "uary": 11537,
    "oundering": 11744,
    "Ġbreat": 3462,
    "Ġdiving": 12598,
    "wood": 5897,
    "Ġbended": 21383,
    "Ġofficer": 6753,
    "ints": 3418,
    "foundered": 20866,
    "Ġsorely": 17256,
    "blo": 6353,
    "Ġshoved": 23488,
    "Ġshroud": 6483,
    "Ġdejected": 20303,
    "Ġbelieve": 2147,
    "Ġexam": 3708,
    "less": 929,
    "Ġpresto": 22227,
    "Ġo": 275,
    "Ġgild": 15667,
    "Ġberg": 24536,
    "garden": 15025,
    "uture": 1104,
    "pped": 1999,
    "stolidity": 21660,
    "Ġinteresting": 4326,
    "Ġfame": 21404,
    "Ġhorizontal": 7782,
    "Ġmortification": 12091,
    "da": 17514,
    "Ġpetticoat": 15294,
    "Ġthrusts": 24350,
    "Ġknob": 24407,
    "--": 1041,
    "Ġopportunity": 4786,
    "Ġsympathetic": 17358,
    "Ġwhaling": 2783,
    "gained": 20880,
    "Ġgoverning": 2795,
    "urs": 6989,
    "etics": 21578,
    "Ġthames": 13937,
    "appo": 3914,
    "each": 7335,
    "mansion": 20982,
    "Ġspence": 22123,
    "Ġsheath": 14151,
    "Ġafter": 871,
    "consum": 12868,
    "Ġlatter": 3990,
    "Ġadapt": 1031,
    "uded": 6285,
    "Ġdictate": 20150,
    "Ġhusbands": 16642,
    "favouring": 24762,
    "cious": 6643,
    "Ġshrieking": 24758,
    "Ġunwarrant": 20132,
    "uzz": 4524,
    "Ġnest": 10188,
    "rack": 18010,
    "Ġantagonist": 26328,
    ".âĢĶâĢľ": 20746,
    "walked": 10570,
    "bag": 7542,
    "Ġevaluate": 3005,
    "Ġsteepest": 3088,
    "birth": 15321,
    "Ġtarget": 2821,
    "garn": 20869,
    "Ġclaret": 22347,
    "digger": 24310,
    "tails": 21085,
    "Ġtranscend": 25667,
    "Ġgiving": 4086,
    "Ġhelmsman": 10504,
    "Ġsongs": 13419,
    "icken": 6711,
    "origin": 7581,
    "Ġpolluted": 25593,
    "Ġend": 1485,
    "reas": 990,
    "Ġgnarled": 25165,
    "Ġapproved": 16025,
    "needle": 20312,
    "Ġcin": 13874,
    "Ġgodson": 23356,
    "dom": 6222,
    "Ġembodied": 25847,
    "Ġtexas": 25922,
    "Ġpiratical": 24801,
    "ancy": 4394,
    "killed": 15375,
    "gives": 15356,
    "Ġbill": 4041,
    "Ġastronomy": 25926,
    "john": 11497,
    "Ġtopsails": 19194,
    "Ġloops": 8852,
    "Ġting": 8397,
    "Ġduring": 873,
    "queens": 22903,
    "pass": 4291,
    "Ġresponses": 23647,
    "dum": 17518,
    "Ġsincer": 13063,
    "Ġliable": 14228,
    "Ġcomplaisance": 19447,
    "Ġdes": 1248,
    "expressive": 24305,
    "erval": 4020,
    "crowd": 25254,
    "much": 3703,
    "Ġumbrell": 13649,
    "ems": 5235,
    "Ġcostly": 23582,
    "Ġwilled": 21290,
    "Ġlxi": 21558,
    "Ġwoollen": 12101,
    "À": 129,
    "Ġheated": 21679,
    "Ġperilously": 24507,
    "ercial": 21273,
    "Ġhyperborean": 26339,
    "Ġgrotes": 19562,
    "Ġsociet": 9448,
    "itute": 9651,
    "Ġthr": 5709,
    "Ġjura": 14192,
    "Ġtailed": 21167,
    "prejudice": 25571,
    "ermaid": 14295,
    "Ġenormousness": 24515,
    "Ġchr": 3686,
    "Ġtheories": 13848,
    "Ġmeasuring": 22880,
    "Ġlocking": 18298,
    "Ġinfat": 14502,
    "admit": 18090,
    "rossing": 18640,
    "Ġjumbled": 22294,
    "Ġtroubling": 26547,
    "Ġtradesmen": 17105,
    "Ġcontextual": 3741,
    "Ġmuzzle": 21319,
    "Ġfragment": 14500,
    "Ġconflict": 17273,
    "netherfield": 9812,
    "Ġcrows": 24028,
    "Ġseeth": 21957,
    "Ġsullen": 9157,
    "Ġgive": 1715,
    "ult": 724,
    "rained": 5162,
    "whaler": 20308,
    "Ġregrets": 18600,
    "Ġmeddle": 19490,
    "ork": 416,
    "murderer": 13392,
    "Ġhumorous": 10361,
    "help": 1478,
    "Ġretired": 6070,
    "Ġbattle": 5907,
    "anybody": 12080,
    "Ġaffronted": 22890,
    "aped": 3765,
    "cially": 3491,
    "pit": 3983,
    "langu": 4807,
    "terrific": 25040,
    "Ġreadily": 5253,
    "piece": 6655,
    "Ġunhing": 18244,
    "Ġmer": 2934,
    "Ġmechanis": 1228,
    "bling": 10078,
    "eed": 20840,
    "acles": 8519,
    "application": 12361,
    "ceptibly": 22351,
    "Ġbeaver": 18085,
    "Ġintersect": 22572,
    "irst": 878,
    "Ġsprain": 18305,
    "Ġstrangely": 5677,
    "Ġemotions": 8969,
    "orts": 2555,
    "Ġsaintly": 25931,
    "Ġupdates": 1299,
    "sky": 12508,
    "Ġcharitable": 23267,
    "Ġfalls": 14644,
    "Ġdive": 10172,
    "perquis": 22183,
    "esy": 9182,
    "Ġrecommend": 7102,
    "Ġbagging": 24539,
    "Ġcurds": 22969,
    "Ġghost": 6142,
    "Ġassid": 18944,
    "Ġtrusty": 24104,
    "Ġbrings": 11878,
    "Ġconceit": 7295,
    "Ġenglish": 3613,
    "Ġweap": 6155,
    "content": 11198,
    "ĠĠĠĠĠĠĠĠĠĠĠĠĠĠĠĠĠĠĠĠĠĠĠĠĠĠĠĠĠĠĠĠĠĠĠĠĠĠĠĠĠĠĠĠĠĠĠĠĠ": 20036,
    "Ġincisive": 18570,
    "Ġbunch": 11326,
    "Ġcognitive": 13633,
    "pyramid": 21029,
    "Ġbeth": 9657,
    "Ġinsult": 6747,
    "Ġequilib": 4136,
    "pier": 17635,
    "ff": 463,
    "swing": 15429,
    "Ġapproaching": 6283,
    "$": 8,
    "Ġworkman": 16273,
    "Ġhighness": 22771,
    "iline": 21718,
    "miniature": 16765,
    "Ĳ": 243,
    "Ġworst": 7444,
    "Ġcorrection": 5062,
    "Ġappropriated": 23483,
    "Ġshave": 21993,
    "Ġoverpowered": 15287,
    "started": 10845,
    "rope": 3187,
    "Ġarticles": 7108,
    "Ġevangelists": 20338,
    "Ġfrenzy": 13621,
    "Ġwink": 11568,
    "ia": 1256,
    "engine": 18926,
    "Ġstructures": 2719,
    "list": 7551,
    "Ġoscill": 2858,
    "Ġpreviously": 3919,
    "angu": 567,
    "Ġreceive": 4704,
    "Ġencourage": 10380,
    "Ġgeneration": 2155,
    "Ġlangu": 573,
    "Ġpolynesian": 26026,
    "Ġpul": 2042,
    "invest": 11559,
    "Ġpanther": 16819,
    "Ġpositive": 2294,
    "Ġoust": 21322,
    "Ġmont": 8557,
    "Ġsched": 2335,
    "Ġtrowsers": 9627,
    "Ġaband": 6561,
    "adoes": 11659,
    "recol": 10150,
    "nobody": 16134,
    "Ġcomposition": 1689,
    "Ġletting": 10362,
    "Ġworship": 10366,
    "although": 8805,
    "Ġwedged": 24070,
    "Ġgrind": 18735,
    "Ġreckoned": 24744,
    "Ġchoicest": 24220,
    "heredit": 21208,
    "Ġprovidence": 18747,
    "Ġinstinctively": 13458,
    "Ġshaved": 21999,
    "Ġcod": 8411,
    "bring": 9104,
    "tiness": 21070,
    "Ġyarn": 10868,
    "shudder": 26245,
    "dripping": 16905,
    "Ġceremonious": 24837,
    "Ġwired": 17786,
    "soon": 4029,
    "Ġrascally": 26506,
    "unaffected": 21880,
    "crier": 20819,
    "folio": 10546,
    "knight": 20939,
    "Ġne": 389,
    "Ġkitty": 3909,
    "cong": 10687,
    "Ġsquat": 14366,
    "vigorous": 25917,
    "mpus": 13756,
    "Ġenters": 11024,
    "itance": 13867,
    "ada": 14010,
    "Ġhammers": 13240,
    "Ġmuffled": 10640,
    "Ġendeared": 26498,
    "Ġclimes": 12837,
    "Ġtrespass": 23598,
    "foolish": 12345,
    "Ġaccomplice": 24376,
    "Ġfrozen": 9012,
    "peril": 18339,
    "Ġsalted": 14755,
    "Ġcivilised": 24244,
    "Ġnorthern": 7265,
    "Ġlanguage": 638,
    "Ġrubbed": 12952,
    "Ġjuggler": 26366,
    "Ġblow": 3375,
    "visual": 24222,
    "un": 373,
    "Ġlegisl": 23533,
    "scorn": 22990,
    "tack": 12510,
    "Ġ122": 24467,
    "Ġmicroscopic": 26373,
    "err": 1143,
    "chains": 9684,
    "Ġmodels": 764,
    "Ġflattered": 10374,
    "Ġfastened": 7065,
    "innocent": 20285,
    "Ġhardly": 2436,
    "points": 14392,
    "aint": 2541,
    "vember": 10855,
    "Ġisle": 8832,
    "Ġfetch": 7769,
    "Ġgallantry": 15102,
    "iment": 2815,
    "Ġcautiousness": 19865,
    "Ġnapoleons": 25885,
    "Ġpleasurable": 23338,
    "Ġshoulder": 5848,
    "ceive": 3064,
    "marked": 9048,
    "supper": 12917,
    "Ġkid": 9724,
    "fal": 17536,
    "offended": 16392,
    "Ġsteamer": 17188,
    "Ġdeveloped": 16335,
    "Ġgolden": 5336,
    "Ġhove": 17922,
    "ppings": 18176,
    "Ġhumans": 8929,
    "histicated": 20900,
    "immortal": 21707,
    "Ö": 151,
    "Ġreusability": 13557,
    "alliance": 22197,
    "Ġincident": 6280,
    "Ġworaciousness": 22926,
    "Ġhere": 1088,
    "mas": 5212,
    "Ġworm": 9162,
    "Ġbetray": 7442,
    "Ġowen": 15093,
    "Ġrazors": 22651,
    "Ġlevelled": 11284,
    "Ġunfathomable": 20547,
    "Ġoctavo": 15162,
    "Ġhog": 13923,
    "conced": 22467,
    "Ġgeological": 14533,
    "Ġvision": 1625,
    "ĠâĢľ_": 6696,
    "Ġaboriginal": 14188,
    "!âĢĻ": 3332,
    "Ġten": 2385,
    "dimens": 2316,
    "Ġskills": 1837,
    "Ġleaping": 8340,
    "lings": 8745,
    "Ġforeboding": 20382,
    "Ġpatagon": 14506,
    "Ġhover": 15618,
    "Ġyard": 5920,
    "Ġmarshy": 20217,
    "hoist": 23709,
    "vative": 1531,
    "Ġspear": 9313,
    "cousins": 20116,
    "Ġchoked": 9263,
    "Ġmasked": 3692,
    "Ġmilitary": 11258,
    "lets": 7836,
    "Ġsaturation": 2063,
    "opposition": 24823,
    "es": 287,
    "aste": 4601,
    "sprang": 19989,
    "accompanied": 12420,
    "Ġdistorted": 14249,
    "with": 1297,
    "wanderer": 25423,
    "Ġplayed": 9415,
    "Ġschedule": 2368,
    "jaw": 13742,
    "mo": 863,
    "de": 460,
    "Ġpulpit": 7470,
    "afflicted": 23777,
    "Ġunreasonably": 17450,
    "Ġfrogs": 23920,
    "Ġduke": 7755,
    "Ġrattler": 24995,
    "dead": 8179,
    "ivil": 6411,
    "boilers": 26297,
    "Ġquicker": 16507,
    "Ġfeigned": 22205,
    "Ġattract": 11830,
    "Ġverse": 16602,
    "fortunate": 4792,
    "ĠĠĠĠ": 459,
    "africa": 26308,
    "bearers": 18524,
    "ification": 1020,
    "Ġczar": 12571,
    "eld": 964,
    "Ġsoo": 15858,
    "pleasanter": 24045,
    "Ġready": 3399,
    "Ġteaches": 18803,
    "clever": 20812,
    "board": 3565,
    "data": 2246,
    "ignomin": 23264,
    "Ġcommunication": 1870,
    "mody": 16184,
    "notches": 22748,
    "raham": 18013,
    "Ġsing": 3074,
    "Ġweaving": 12737,
    "bon": 13683,
    "owl": 12681,
    "Ġtul": 21158,
    "lar": 4484,
    "pen": 1203,
    "Ġfretfully": 25447,
    "Ġgases": 21599,
    "Ġisolated": 13558,
    "Ġuninter": 18249,
    "ĠcÃ¦": 15553,
    "mates": 5073,
    "Ġperusal": 14224,
    "temper": 10003,
    "Ġmethodic": 23116,
    "Ġattended": 5391,
    "Ġdot": 4820,
    "Ġutensils": 23512,
    "ceptible": 10958,
    "ple": 455,
    "Ġinhospit": 25452,
    "Ġcountrymen": 23593,
    "Ġisles": 8459,
    "?": 35,
    "Ġbackward": 7654,
    "Ġbeheld": 4493,
    "ompl": 4536,
    "Ġimpo": 3443,
    "Ġwanting": 6721,
    "Ġplentiful": 12908,
    "Ġplat": 8520,
    "Ġcracks": 12018,
    "Ġsucking": 12784,
    "Ġtranquillize": 24757,
    "Ġscreening": 25300,
    "Ġglo": 1717,
    "resistible": 10643,
    "Ġlanded": 7469,
    "pair": 21011,
    "story": 9212,
    "Ġsuspicious": 9479,
    "Ġchil": 11749,
    "Ġcra": 2330,
    "pious": 17633,
    "wretchedness": 17252,
    "Ġsobs": 14132,
    "Ġappal": 18355,
    "!âĢĻâĢĿ": 16592,
    "upper": 11538,
    "Ġanswered": 2852,
    "irium": 8161,
    "Ġul": 6828,
    "ore": 418,
    "Ġbatch": 890,
    "Ġpresuming": 16793,
    "earthly": 24724,
    "miraculous": 26396,
    "Ġkills": 15905,
    "Ġvigilant": 20183,
    "erred": 6376,
    "Ġeleg": 6192,
    "Ġdeclining": 23961,
    "Ġrevelations": 25223,
    "Ġdoctor": 5067,
    "Ġglistening": 12363,
    "Ġmeasurement": 19421,
    "Ġstreaming": 19672,
    "shut": 10979,
    "Ġhaw": 10251,
    "Ġ183": 13237,
    "Ġaf": 783,
    "exam": 10976,
    "oons": 12496,
    "explanation": 12356,
    "atig": 13844,
    "Ġreferences": 21671,
    "Ġmonoton": 3635,
    "Ġaction": 5796,
    "Ġcomprising": 16067,
    "Ġumb": 11645,
    "dor": 12449,
    "iftings": 23224,
    "Ġmarlings": 23033,
    "Ġspent": 3964,
    "ix": 1802,
    "traces": 24315,
    "Ġtempor": 2363,
    "Ġplanning": 14750,
    "semic": 21817,
    "Ġholder": 6724,
    "air": 1002,
    "fl": 3599,
    "ads": 5718,
    "Ġconfidential": 9087,
    "repeating": 20127,
    "Ġtemptations": 24508,
    "Ġprettier": 23763,
    "Ġworlds": 11945,
    "supernatural": 19778,
    "Ġassembly": 10642,
    "Ġbuoyancy": 20040,
    "Ġbristles": 25843,
    "Ġgroves": 16740,
    "Ġcoldness": 23757,
    "landsmen": 25059,
    "Ġhealthful": 24057,
    "aced": 2407,
    "ond": 1161,
    "Ġchinks": 22248,
    "Ġdiffer": 18679,
    "Ġ2": 2933,
    "Ġswore": 10378,
    "Ġthickets": 24020,
    "ernal": 4312,
    "Ġice": 3603,
    "Ġrooted": 13168,
    "visited": 13346,
    "Ġdorm": 4821,
    "Ġay": 15491,
    "Ġhor": 1661,
    "Ġfeathers": 15118,
    "Ġadversary": 12171,
    "spee": 9316,
    "Ġdebility": 24272,
    "meas": 7434,
    "tling": 9142,
    "Ġbathe": 25443,
    "best": 6111,
    "squeezing": 25913,
    "Ġadjusts": 8980,
    "Ġvess": 3296,
    "sofa": 26146,
    "Ġchimneys": 16972,
    "Ġstoner": 7178,
    "Ġhoarsely": 26302,
    "Ġfavour": 3640,
    "do": 1996,
    "Ġfossil": 12385,
    "Ġpaper": 4283,
    "Ġdemo": 10879,
    "uneven": 23681,
    "Ġdau": 21423,
    "whilst": 18371,
    "Ġunwe": 15838,
    "supportable": 12368,
    "track": 24314,
    "Ġwillingly": 8884,
    "Ġpilgrimage": 17307,
    "Ġdarkness": 4278,
    "Ġforbearance": 12326,
    "earnestly": 17312,
    "pushed": 21022,
    "Ġsympathy": 6346,
    "inations": 7567,
    "ivity": 1697,
    "othe": 2615,
    "erately": 21272,
    "Ġcoils": 9302,
    "accidents": 19212,
    "Ġbachel": 7158,
    "Ġhuman": 1318,
    "imodal": 17446,
    "Ġcruc": 16533,
    "bulwarks": 12270,
    "Ġevermore": 18811,
    "Ġderivatives": 2367,
    "nur": 11505,
    "Ġhollow": 5648,
    "Ġanecdote": 26354,
    "Ġarrow": 10931,
    "Ġcetology": 10008,
    "oftentimes": 19419,
    "Ġseamen": 5063,
    "Ġeng": 1162,
    "Ġsample": 3180,
    "Ġprot": 3847,
    "Ġdefici": 22940,
    "antial": 8487,
    "nson": 16087,
    "Ļ": 252,
    "baden": 25615,
    "acency": 12905,
    "aky": 18411,
    "Ġundergone": 18985,
    "Ġflint": 23009,
    "Ġinvoluntary": 18740,
    "confid": 14866,
    "Ġslippery": 12164,
    "pitch": 13297,
    "Ġdonkey": 23226,
    "igated": 15705,
    "ersburgh": 18215,
    "ient": 394,
    "inuating": 16202,
    "Ġcanes": 22160,
    "Ġbenjamin": 26567,
    "athed": 7828,
    "Ġsaws": 23044,
    "Ġdeliriously": 23227,
    "Ġpreceded": 13427,
    "Ġconfided": 19037,
    "Ġebony": 18008,
    "Ġrepul": 16407,
    "Ġeulogy": 26471,
    ".âĢĿ": 464,
    "Ġlo": 453,
    "Ġgas": 8132,
    "Ġminded": 23228,
    "repe": 8775,
    "Ġhoisted": 5959,
    "Ġmasking": 2420,
    "Ġsixty": 7722,
    "owers": 12682,
    "bec": 4054,
    "Ġobserved": 3541,
    "Ġhotel": 8650,
    "desc": 1393,
    "Ġconsequent": 18110,
    "Ġnoses": 18372,
    "Ġwits": 15531,
    "justine": 7682,
    "....": 11316,
    "Ġsam": 7569,
    "placed": 7877,
    "ifted": 4495,
    "Ġameric": 3853,
    "Ġheaths": 25972,
    "Ġancestry": 25641,
    "Ġratt": 7880,
    "ailing": 7021,
    "Ġcontinues": 18809,
    "Ġscra": 5841,
    "Ġgovern": 10450,
    "Ġ126": 24471,
    "Ġinterposed": 20617,
    "Ġnowadays": 18546,
    "ahawk": 23314,
    "Ġashen": 21896,
    "comfortable": 7320,
    "Ġpersuaded": 5769,
    "intended": 11066,
    "Ġelderly": 13494,
    "tures": 21068,
    "onze": 21254,
    "Ġdrugged": 12599,
    "Ġsmoothe": 23654,
    "speaks": 19718,
    "Ġabed": 22262,
    "Ġextremest": 19195,
    "Ġhumiliating": 22882,
    "Ġpink": 12615,
    "Ġtest": 1510,
    "Ġcobweb": 22581,
    "telling": 14439,
    "decided": 13214,
    "Ġapparel": 20434,
    "toes": 22561,
    "consent": 18504,
    "Ġyounger": 5252,
    "p": 84,
    "ars": 906,
    "Ġcomplying": 18586,
    "Ġvegetables": 15220,
    "Ġconsum": 9798,
    "ray": 2440,
    "Ġemotion": 7689,
    "Ġperemptory": 25740,
    "Ġbarbara": 24818,
    "Ġoperation": 11997,
    "Ġtrip": 16788,
    "icts": 22399,
    "ate": 421,
    "Ġpencil": 11941,
    "Ġdissect": 16052,
    "Ġthread": 14539,
    "Ġboasting": 19934,
    "condem": 16343,
    "aths": 22698,
    "Ġvoice": 2189,
    "Ġbacked": 12923,
    "Ġtelegra": 11889,
    "Ġhelplessly": 20076,
    "Ġfoes": 11949,
    "Ġabominably": 20064,
    "Ġgrief": 4620,
    "Ġgarn": 13962,
    "Ġcaution": 11346,
    "queer": 10363,
    "pens": 17632,
    "Ġfugitives": 25634,
    "Ġsolely": 9909,
    "Ġthigh": 10186,
    "bra": 6219,
    "Ġreel": 9213,
    "Ġtitle": 11408,
    "verty": 8452,
    "responsible": 25763,
    "Ġsupp": 1263,
    "Ġcoarsely": 25828,
    "ackinaw": 22422,
    "Ġdiscovery": 5412,
    "Ġcoherent": 3264,
    "destro": 13308,
    "Ġbeech": 18082,
    "Ġrare": 7036,
    "Ġrelaxed": 12981,
    "Ġmomentum": 1606,
    "jack": 7344,
    "latin": 25258,
    "pul": 8753,
    "Ġstudious": 23197,
    "wrinkled": 16554,
    "terogene": 21822,
    "Ġway": 1086,
    "Ġhoist": 11975,
    "Ġvap": 6837,
    "Ġpaintings": 15055,
    "Ġcountries": 13095,
    "Ġvigorously": 11299,
    "wondered": 17029,
    "Ġreproof": 24890,
    "icial": 12652,
    "Ġpret": 3035,
    "Ġfervent": 14895,
    "informed": 17736,
    "lop": 20947,
    "courage": 17509,
    "Ġguardsmen": 20629,
    "dismay": 19152,
    "cap": 8372,
    "Ġnegatived": 23043,
    "blending": 24128,
    "Ġyou": 366,
    "Ġ124": 24469,
    "Ġcaresses": 26059,
    "Ġegg": 8818,
    "directed": 20403,
    "Ġundeviating": 15216,
    "urch": 3994,
    "Ġremind": 6057,
    "Ġdecently": 22453,
    "Ġmaintained": 12932,
    "Ġwretchedness": 9026,
    "Ġforgery": 25977,
    "Ġmadness": 6601,
    "Ġdug": 21428,
    "Ġplumber": 16083,
    "Ġbec": 1349,
    "perhaps": 4122,
    "Ġpianoforte": 15272,
    "Ġbehold": 5049,
    "quent": 2095,
    "ogene": 18671,
    "uv": 6229,
    "Ġbid": 6131,
    "Ġaffectionate": 5585,
    "secre": 18126,
    "Ġbashful": 20418,
    "Ġopens": 23625,
    "Ġ**": 4721,
    "heat": 15497,
    "Ġtester": 21171,
    "Ġdanes": 25156,
    "plendent": 21955,
    "riages": 10242,
    "Ġforts": 21769,
    "Ġcruelty": 9968,
    "Ġconviction": 6326,
    "sheep": 23083,
    "Ġminiatures": 20320,
    "oup": 2015,
    "protest": 24815,
    "Ġmathematics": 12071,
    "Ġices": 21153,
    "Ġshame": 6410,
    "ired": 1446,
    "iteness": 4393,
    "ats": 4254,
    "isome": 17848,
    "Ġmcc": 21305,
    "ends": 6038,
    "Ġfellow": 2775,
    "Ġ6": 5141,
    "fitters": 24761,
    "related": 24009,
    "Ġtells": 9360,
    "study": 15116,
    "Ġlewis": 15723,
    "Ġthinkings": 22809,
    "Ġbreed": 19071,
    "Ġshrieks": 12197,
    "rudently": 16710,
    "Ġunprinciple": 18257,
    "Ġshot": 4544,
    "Ġchinese": 14183,
    "charles": 14698,
    "Ġhaze": 18196,
    "Ġinitial": 823,
    "sham": 9756,
    "hears": 12530,
    "Ġcrouched": 23440,
    "powerful": 24847,
    "degree": 12798,
    "Ġcounties": 23301,
    "reluct": 26163,
    "vii": 13147,
    "Ġev": 4828,
    "Ġdifficulty": 5770,
    "abst": 21785,
    "Ġassuring": 13061,
    "Ġpeevish": 26557,
    "mingled": 14712,
    "lucas": 15150,
    "Ġunexampled": 20358,
    "gather": 20874,
    "oton": 3606,
    "sheet": 16285,
    "failed": 20862,
    "Ġhedgehogs": 25394,
    "Ġpepper": 9780,
    "Ġsuck": 15860,
    "Ġtrunks": 15970,
    "Ġcardboard": 19977,
    "iles": 2862,
    "Ġgasped": 11372,
    "Ġhowling": 8509,
    "treat": 12511,
    "Ġintroduces": 3270,
    "Ġrippling": 17277,
    "Ġglimpse": 6944,
    "across": 10324,
    "Ġbarbs": 10531,
    "Ġkindness": 4097,
    "sailing": 14713,
    "several": 5544,
    "resolutions": 26164,
    "cad": 17504,
    "Ġjaws": 5593,
    "progra": 9394,
    "Ġinvariably": 8063,
    "drunk": 24659,
    "Ġperishing": 22395,
    "Ġdarted": 4758,
    "Ġshell": 11734,
    "Ġpanel": 13371,
    "Ġbenef": 3490,
    "Ġblackness": 9392,
    "Ġhyena": 24519,
    "Ġperfections": 23607,
    "Ġdream": 3538,
    "oforte": 14285,
    "morning": 4859,
    "wal": 10133,
    "Ġreadability": 2723,
    "Ġandromeda": 21505,
    "aved": 5475,
    "ilight": 12690,
    "estinated": 15918,
    "elope": 14456,
    "Ġbernard": 20683,
    "Ġmortar": 19391,
    "clock": 3932,
    "turner": 19540,
    "Ġflashes": 11915,
    "Ġpardon": 5727,
    "everlasting": 18771,
    "remembrance": 25702,
    "Ġirreproachable": 24917,
    "Ġblind": 3714,
    "ort": 521,
    "dipped": 20836,
    "promontory": 24728,
    "Ġprogeny": 17387,
    "Ġexacted": 23601,
    "Ġchry": 22243,
    "Ġnightgown": 23130,
    "Ġcompacted": 23506,
    "Ġexeget": 24085,
    "ubbub": 23242,
    "Ġindignation": 8346,
    "indul": 22367,
    "Ġrelief": 6059,
    "Ġinterpre": 1595,
    "ened": 1388,
    "ithmetic": 18061,
    "Ġtrooped": 24899,
    "ages": 827,
    "hush": 20905,
    "Ġmargin": 11919,
    "Ġdisquiet": 18552,
    "Ġmortals": 9915,
    "were": 2558,
    "Ġnapkins": 25161,
    "lod": 15377,
    "ster": 1952,
    "Ġgloomily": 14799,
    "Ġlbs": 11614,
    "Ġhandsomer": 20332,
    "Ġvales": 21943,
    "Ġlinear": 3433,
    "Ġwhirlp": 16963,
    "Ġowning": 18746,
    "Ġskilful": 25836,
    "present": 1138,
    "recollect": 17223,
    "Ġfastidious": 14492,
    "amped": 12032,
    "olds": 9310,
    "bene": 6112,
    "Ġal": 342,
    "Ġconfident": 11138,
    "Ġseconds": 16394,
    "Ġhailed": 6407,
    "stolen": 13981,
    "amp": 2605,
    "Ġdisenc": 22523,
    "Ġdamp": 8263,
    "Ġnormalizing": 1821,
    "Ġsuitable": 18280,
    "Ġspears": 12921,
    "Ġwhitened": 24867,
    "Ġgets": 10839,
    "adem": 21754,
    "jar": 17577,
    "paddington": 20476,
    "Ġberth": 8679,
    "crane": 24098,
    "hinting": 17569,
    "Ġofficial": 7081,
    "Ġchoking": 15933,
    "sac": 7140,
    "Ġinscriptions": 20007,
    "this": 1441,
    "g": 75,
    "Ġprairie": 8712,
    "Ġattempts": 10490,
    "Ġescaping": 13133,
    "Ġarguing": 25470,
    "impressed": 12688,
    "Ġmachine": 791,
    "Ġfeature": 757,
    "_.âĢĶ": 23471,
    "seemed": 4304,
    "Ġimmediate": 6089,
    "ameter": 3066,
    "Ġintact": 21986,
    "Ġlids": 12273,
    "Ġrural": 21964,
    "eted": 7591,
    "intellect": 18821,
    "Ġaromatic": 25925,
    "mir": 20962,
    "Ġfloat": 12031,
    "thankful": 16806,
    "chased": 18041,
    "Ġgidd": 25783,
    "Ġnocturnal": 20714,
    "Ġdirect": 1472,
    "osely": 9264,
    "blister": 24127,
    "sn": 7138,
    "Ġperhaps": 1911,
    "othic": 16215,
    "Ġasse": 8159,
    "geor": 15977,
    "ension": 6569,
    "embraces": 25805,
    "Ġexord": 21825,
    "Ġ0": 1903,
    "inc": 2521,
    "professional": 20274,
    "prior": 21031,
    "Ġsleeps": 10446,
    "Ġbil": 15563,
    "uding": 16142,
    "Ġfinding": 3266,
    "convolutional": 4958,
    "Ġberm": 21381,
    "hel": 4814,
    "Ġprecaution": 11197,
    "alled": 5910,
    "Ġclaimed": 14201,
    "Ġincarn": 11812,
    "Ġstrongly": 5657,
    "Ġoutermost": 22316,
    "Ġdisappears": 18560,
    "cils": 20813,
    "Ġsixpence": 19316,
    "affair": 14655,
    "Ġty": 6657,
    "Ġdomin": 10468,
    "Ġalcoves": 26486,
    "Ġdespond": 14667,
    "Ġexecution": 6927,
    "Ġdest": 2236,
    "Ġmacro": 25939,
    "Ġtottenham": 24141,
    "ern": 765,
    "Ġdeliciousness": 24126,
    "zek": 16254,
    "thirds": 25046,
    "Ġapparent": 5466,
    "Ġpronounce": 16968,
    "Ġgenerative": 5644,
    "isis": 12576,
    "iant": 5427,
    "Ġselects": 4386,
    "Ú": 155,
    "ority": 8417,
    "Ġremo": 3785,
    "Ġclapping": 14202,
    "Ġpowdered": 24237,
    "Ġhopes": 4233,
    "evidence": 25521,
    "Ġsailing": 5323,
    "Ġstately": 9833,
    "Ġconcealing": 23900,
    "Ġlargely": 14284,
    "Ġpreparation": 13528,
    "Ġsympathies": 14860,
    "abounding": 25979,
    "Ġinvective": 26181,
    "yarn": 15457,
    "Ġaltitude": 26202,
    "Ġdra": 1597,
    "Ġvulgar": 13603,
    "imag": 6990,
    "judgment": 16753,
    "personal": 24963,
    "daring": 20828,
    "unless": 9234,
    "Ġredu": 1353,
    "dignity": 15344,
    "Ġproxim": 3201,
    "Ġemploys": 19429,
    "Ġdaily": 5986,
    "cutting": 23783,
    "orm": 425,
    "whips": 22235,
    "Ġhospitality": 13512,
    "transom": 19734,
    "Ġheartfelt": 18968,
    "oarsman": 25261,
    "Ġfavoring": 2342,
    "Ġhighlands": 22772,
    "instrument": 15237,
    "conscience": 14859,
    "Ġseveral": 2673,
    "Ġsubtile": 20378,
    "Ġeavesdroppers": 25963,
    "Ġslowly": 3617,
    "Ġenabled": 9295,
    "mn": 3576,
    "determ": 7105,
    "Ġfervently": 25877,
    "Ġarab": 7823,
    "intosh": 22937,
    "Ġrose": 3444,
    "ĠĠĠĠĠĠĠĠĠĠĠĠĠĠĠĠĠĠĠĠĠĠĠĠĠĠĠ": 14885,
    "Ġgeor": 3388,
    "houses": 9599,
    "Ġsuperiority": 14616,
    "alse": 4183,
    "Ġcompetent": 11814,
    "Ġaug": 6234,
    "Ġemployment": 8628,
    "Ġnois": 4268,
    "cures": 20804,
    "anoke": 21359,
    "Ġpanting": 11602,
    "ob": 1418,
    "ability": 716,
    "tooth": 18580,
    "mentioned": 10623,
    "Ġdeep": 792,
    "muttered": 13758,
    "Ġanonym": 17897,
    "ified": 3228,
    "Ġfeast": 10277,
    "Ġsweep": 8265,
    "deser": 10402,
    "tarpaulins": 26405,
    "Ġprecipices": 12275,
    "recked": 17762,
    "perpetually": 20510,
    "Ġsangu": 15504,
    "Ġsuffice": 18869,
    "Ġprized": 23220,
    "Ġjavelin": 26104,
    "comb": 11035,
    "cturn": 17986,
    "Ġcemet": 20679,
    "Ġduodecimo": 16767,
    "Ġbaron": 19333,
    "Ġmermaids": 26170,
    "Ġolder": 9326,
    "reflected": 24733,
    "Ġlucerne": 23862,
    "Ġadmirers": 19685,
    "Ġrelics": 16195,
    "Ġconvenient": 8345,
    "Ġincommunicable": 26611,
    "Ġaggregated": 25678,
    "Ġpequod": 2321,
    "behind": 6779,
    "Ġlordly": 23742,
    "Ġdeclare": 6613,
    "Ġdiscoursing": 26266,
    "Ġboard": 3384,
    "Ġart": 749,
    "ition": 651,
    "surprise": 9529,
    "Ġfrederick": 15585,
    "Ġdeem": 18133,
    "oned": 4630,
    "Ĭ": 237,
    "Ġdilatory": 24705,
    "arance": 4698,
    "footsteps": 25199,
    "Ġaccounts": 7207,
    "Ġsolution": 9804,
    "Ġwrench": 12554,
    "Ġforehead": 5261,
    "Ġrandom": 1594,
    "ores": 2413,
    "Ġdogs": 7741,
    "caroline": 24148,
    "Ġtemperature": 1003,
    "aft": 9583,
    "Ġcommissionaire": 17000,
    "Ġharmony": 16814,
    "Ġfra": 1749,
    "landed": 18954,
    "Ġconveniences": 19811,
    "Ġ}": 21152,
    "Ġinconceivable": 17937,
    "uttered": 8440,
    "Ġfog": 9661,
    "luc": 9753,
    "Ġmarchant": 14784,
    "Ġcondu": 18109,
    "Ġchagrin": 20606,
    "Ġtreats": 19342,
    "Ġlanguages": 1575,
    "Ġyellowish": 24430,
    "Ġflorida": 20658,
    "accusations": 23597,
    "Ġ118": 19697,
    "Ġdissatisfied": 14256,
    "by": 1158,
    "possession": 12219,
    "Ġblended": 16218,
    "easy": 9592,
    "bony": 15318,
    "Ġcanst": 8857,
    "Ġcheap": 13088,
    "pad": 13767,
    "Ġvalues": 2652,
    "Ġtrophy": 20005,
    "Ġamount": 8511,
    "Ġsleepless": 14581,
    "Ġyielding": 12184,
    "Ġassures": 14465,
    "reputation": 15515,
    "Ġrestrain": 8964,
    "Ġadler": 8173,
    "fee": 12876,
    "Ġsuperflu": 14554,
    "Ġmoulton": 17434,
    "apply": 18760,
    "beauty": 20102,
    "Ġpry": 11599,
    "expect": 4769,
    "charmed": 21693,
    "Ġarchitects": 18734,
    "theirs": 23600,
    "Ġfren": 10805,
    "enjoy": 10774,
    "15": 12428,
    "went": 6512,
    "<SOS>": 1,
    "buckets": 26123,
    "Ġline": 1848,
    "turbable": 24531,
    "Ġtens": 17723,
    "Ġwatson": 3596,
    "clim": 18929,
    "onstrate": 17768,
    "Ġoverwhel": 8196,
    "Ġdoc": 7200,
    "poured": 17637,
    "Ġwants": 5742,
    "Ġassistants": 9450,
    "Ġunprovided": 18263,
    "Ġactuated": 18545,
    "entrance": 12654,
    "Ġrepel": 23357,
    "Ġpillow": 10037,
    "Ġoffic": 3189,
    "Ġmuse": 13859,
    "Ġfists": 15581,
    "lot": 3208,
    "pigs": 17140,
    "Ġmates": 4872,
    ";--": 8068,
    "H": 44,
    "Ġbeauties": 10445,
    "Ġscalable": 1613,
    "gn": 8081,
    "Ġmorbidness": 20627,
    "Ġknives": 14836,
    "Ġniagara": 26458,
    "stige": 21658,
    "ak": 539,
    "Ġpail": 15605,
    "ots": 3295,
    "Ġheaven": 3365,
    "Ġsecretary": 19440,
    "Ġarter": 22185,
    "Ġswashing": 23051,
    "Ġemb": 1250,
    "Ġcracking": 14573,
    "teous": 16173,
    "Ġduplicity": 25331,
    "project": 16424,
    "Ġtennessee": 26596,
    "Ġcontinually": 5042,
    "Ĉ": 201,
    "Ġpencils": 23195,
    "Ġoverfitting": 1547,
    "fast": 3071,
    "Ġunhappiness": 14118,
    "Ġestimation": 11218,
    "Ġturn": 1298,
    "tisement": 6767,
    "hearth": 15499,
    "Ġpropensity": 18996,
    "Ġabased": 22265,
    "narrow": 11507,
    "ives": 1408,
    "teness": 23206,
    "umn": 5835,
    "description": 11094,
    "moran": 24151,
    "Ġthis": 382,
    "Ġloitered": 26525,
    "Ġbrothers": 13174,
    "Ġconveying": 19713,
    "Ġgard": 2188,
    "ishments": 9272,
    "tumbled": 21089,
    "Ġcrab": 13143,
    "Ġhouses": 6138,
    "leisure": 21369,
    "Ġreus": 8821,
    "Ġregions": 10323,
    "Ġbland": 11064,
    "Ġ1000": 3117,
    "roofed": 26183,
    "Ġauthorized": 16735,
    "rank": 21040,
    "Ġintervening": 17267,
    "encouragement": 17422,
    "falling": 24361,
    "Ġobscured": 15010,
    "quit": 15760,
    "Ġbehavioral": 11396,
    "dham": 20829,
    "Ġomniscient": 20084,
    "Ġideal": 13119,
    "Ġdevils": 7230,
    "Ġcalhoun": 23040,
    "Ġ1778": 25730,
    "Ġsarat": 21226,
    "Ġspermaceti": 8967,
    "hooked": 23711,
    "Ġshank": 21994,
    "Ġhorror": 3773,
    "Ġsc": 532,
    "Ġsakes": 18326,
    "akers": 9739,
    ");": 7330,
    "Ġantilles": 24178,
    "Ġmedit": 8018,
    "rubber": 12806,
    "Ġencouraged": 9354,
    "Ġwer": 12549,
    "Ġgrass": 5177,
    "Ġunresting": 25553,
    "ortations": 22255,
    "beryls": 25309,
    "Ġtable": 2500,
    "Ġpedestrian": 25879,
    "Ġtwentieth": 18659,
    "Ġheave": 7599,
    "bles": 7017,
    "fect": 2298,
    "Ġdisorder": 16050,
    "Ġinjurious": 24270,
    "Ġbusks": 23337,
    "rist": 10122,
    "arranted": 19319,
    "interest": 5421,
    "Ġreceptacle": 23192,
    "Ġadmir": 12020,
    "Ġsledge": 8110,
    "Ġfort": 2579,
    "Ġlethar": 21743,
    "gradu": 18616,
    "Ġdetermines": 2364,
    "ringle": 21039,
    "venth": 9294,
    "antediluvian": 24346,
    "Ġbrilliancy": 20105,
    "Ġindulged": 13416,
    "Ġwhilst": 9218,
    "Ġegotistical": 26191,
    "Ġbringing": 5869,
    "je": 11495,
    "Ġind": 1218,
    "Ġoversight": 22359,
    "Ġcity": 4530,
    "judge": 13335,
    "corrid": 24484,
    "ocris": 23704,
    "seated": 11670,
    "perishing": 22179,
    "credit": 12446,
    "mology": 12489,
    "Ġrevolving": 9982,
    "ldog": 21914,
    "preservation": 25305,
    "sphere": 22734,
    "Ġunsupervised": 2514,
    "retreat": 23133,
    "treated": 21093,
    "Ġthirst": 7589,
    "odhead": 18120,
    "yder": 10138,
    "impul": 16556,
    "Ġphaet": 16317,
    "Ġopt": 781,
    "Ġsmith": 16063,
    "Ġabsor": 8504,
    "Ġsocial": 7006,
    "Ġvague": 6406,
    "Ġhawk": 15172,
    "Ġprick": 14478,
    "oking": 4606,
    "Ġsteals": 23081,
    "has": 4014,
    "Ġwarn": 5695,
    "disposition": 10041,
    "Ġsauc": 15887,
    "Ġpassionately": 16764,
    "iability": 20919,
    "geneva": 13729,
    "cruet": 17026,
    "Ġalluded": 7884,
    "wherein": 19107,
    "hawks": 24694,
    "Ġdaughter": 2871,
    "Ġdoub": 1835,
    "Ġhated": 7584,
    "Ġgoodly": 22819,
    "manif": 14372,
    "Ġages": 7027,
    "superst": 11325,
    "abby": 14020,
    "elop": 1488,
    "avenue": 25057,
    "umbent": 12093,
    "Ġpatch": 4179,
    "Ġnlp": 3062,
    "Ġtangle": 25760,
    "wives": 15455,
    "ĠmanÅĵuv": 18417,
    "wh": 508,
    "Ġprosperity": 20256,
    "Ġblu": 2686,
    "appre": 14369,
    "Ġirene": 8443,
    "ĠĠĠĠĠĠĠĠĠĠĠĠĠĠĠĠĠĠĠĠĠĠĠĠĠĠĠĠĠĠĠĠĠĠĠĠĠĠĠĠĠĠ": 24209,
    "pleasures": 24044,
    "Ġtough": 13814,
    "restraint": 18979,
    "affold": 16562,
    "Ġconsternation": 9858,
    "ten": 1563,
    "charlotte": 6473,
    "Ġdebar": 24271,
    "ctors": 21587,
    "Ġsplinter": 23745,
    "Ġbruited": 25773,
    "strade": 5065,
    "walton": 20248,
    "Ġrequ": 799,
    "stubb": 6017,
    "Ġpolitely": 8994,
    "Ġeats": 15675,
    "discovered": 8324,
    "cceed": 4142,
    "Ġtrouble": 3688,
    "Ġsatisf": 2806,
    "Ġnineveh": 13388,
    "Ġlimping": 23544,
    "entary": 21564,
    "Ġcoral": 11920,
    "Ġmystic": 7503,
    "pard": 9618,
    "Ġmonogram": 26574,
    "Ġork": 18284,
    "Ġwrapping": 19774,
    "Ġpermanently": 25473,
    "both": 5785,
    "Ġhousings": 21490,
    "quarter": 11388,
    "icacy": 15656,
    "Ġconsolidation": 5060,
    "fiend": 13660,
    "Ġauthoritative": 19560,
    "Ġhem": 8445,
    "Ġimpertinence": 11366,
    "mary": 8748,
    "Ġrecurrent": 1805,
    "Ġindifference": 6725,
    "tumult": 12421,
    "Ġdeformity": 11675,
    "Ġhasten": 10478,
    "wishes": 13806,
    "Ġdeepest": 8212,
    "Ġprivileges": 25132,
    "sequent": 6831,
    "Ġdons": 17888,
    "Ġdistances": 22498,
    "Ġphilistines": 26082,
    "Ġprying": 15607,
    "Ġattractive": 25575,
    "Ġwitnesses": 9485,
    "Ġmississ": 18837,
    "Ġri": 3395,
    "Ġobli": 9315,
    "Ġtranced": 18426,
    "bun": 12436,
    "Ġhistory": 4008,
    "inea": 7623,
    "Ġcaw": 13882,
    "Ġheightens": 24153,
    "afterwards": 7484,
    "Ġbiases": 2397,
    "Ġcoer": 22576,
    "Ġwriting": 4667,
    "Ġdistrust": 8202,
    "Ġte": 1149,
    "suffer": 24333,
    "soc": 5175,
    "text": 1975,
    "ciousness": 20816,
    "Ġjournal": 15217,
    "eel": 11483,
    "ĠĠĠĠĠĠĠĠĠĠ": 18576,
    "Ġpreternatural": 12820,
    "enchanted": 26424,
    "Ġmerits": 13195,
    "Ġconcer": 23318,
    "Ġalliance": 18235,
    "Ġblessing": 11263,
    "teenth": 11872,
    "slee": 17168,
    "Ġhessian": 3548,
    "Ġportents": 14679,
    "ok": 571,
    "Ġhistories": 14687,
    "Ġmodeling": 2096,
    "kington": 11203,
    "Ġconversed": 13187,
    "pooh": 18799,
    "Ġadmitted": 8986,
    "Ġclearly": 6897,
    "Ġseedy": 21959,
    "Ġslang": 23157,
    "Ġballs": 9014,
    "Ġfurlong": 18742,
    "marching": 25752,
    "weave": 22682,
    "direful": 25896,
    "Ġpythag": 26448,
    "Ġungracious": 18261,
    "Ġeasiest": 23536,
    "Ġrevelry": 15135,
    "interred": 23735,
    "Ġtenement": 23546,
    "Ġjustification": 22963,
    "Ġsaints": 20673,
    "bath": 13688,
    "ternatural": 12712,
    "Ġheidelburgh": 11642,
    "Ġauthority": 7748,
    "ellig": 524,
    "Ġquitting": 7645,
    "Ġselfishness": 12287,
    "nuts": 15398,
    "Ġgreeted": 23213,
    "Ġdiscoveries": 13357,
    "mpt": 6653,
    "Ġembarrassment": 10626,
    "rugged": 6849,
    "ago": 14064,
    "Ġflinging": 13584,
    "hs": 8377,
    "Ġchest": 5185,
    "Ġwantest": 18790,
    "Ġaccomplishment": 19664,
    "tstone": 21083,
    "Ġcorrespondence": 10594,
    "Ġkindling": 19033,
    "torm": 11530,
    "Ġbachelor": 7786,
    "Ġblankets": 24611,
    "Ġmarvell": 7248,
    "Ġdenny": 9001,
    "how": 1646,
    "rucastle": 22175,
    "Ġjoking": 12834,
    "Ġerrand": 11085,
    "keenest": 25661,
    "bul": 6951,
    "Ġembarrassed": 11384,
    "ravelled": 18014,
    "uction": 15443,
    "splice": 17170,
    "Ġdespondence": 25869,
    "Ġproved": 4884,
    "cred": 9107,
    "py": 17624,
    "Ġvarying": 15809,
    "Ġcaus": 1728,
    "Ġfist": 21402,
    "Ġswearing": 16464,
    "Ġrivals": 20270,
    "shook": 19855,
    "Ġimputable": 22170,
    "Ġl": 303,
    "Ġvint": 18194,
    "onsensical": 18575,
    "Ġsurveying": 25325,
    "Ġwarden": 17224,
    "Ġdraught": 9844,
    "beating": 22485,
    "Ġloaded": 8490,
    "Ġnar": 7375,
    "Ġcovent": 16071,
    "Ġdowncast": 18651,
    "Ġgospel": 18000,
    "ilities": 6991,
    "Ġbefitting": 15724,
    "Ġquarrelling": 13498,
    "yea": 23084,
    "Ġstaves": 21737,
    "Ġlong": 794,
    "Ġeel": 18001,
    "skelter": 24490,
    "Ġscener": 10949,
    "block": 11470,
    "Ġforegoing": 23448,
    "Ġpalaces": 24090,
    "Ġthomson": 26454,
    "Ġmil": 4255,
    "Ġbutts": 15835,
    "Ġskylight": 24072,
    "expanded": 23661,
    "oct": 7554,
    "Ġhush": 13210,
    "Ġwestern": 10654,
    "Ġstole": 7952,
    "Ġheadsman": 13273,
    "Ġquestionable": 19265,
    "regarded": 12006,
    "conviction": 19963,
    "sides": 12505,
    "hunted": 16832,
    "ide": 723,
    "Ġ69": 19660,
    "Ġharbor": 10026,
    "soo": 18686,
    "Ġindu": 5293,
    "nurtured": 25524,
    "bill": 10075,
    "Ġpretence": 13206,
    "Ġguessed": 11282,
    "Ġleatherhead": 20012,
    "Ġtermination": 16460,
    "idays": 21767,
    "Ġcultured": 25154,
    "anean": 7443,
    "suffered": 24334,
    "ituted": 13872,
    "Ġdedication": 2900,
    "Ġhadn": 9718,
    "Ġabsurdly": 19958,
    "separ": 9230,
    "Ġdescrib": 2717,
    "lace": 13747,
    "Ġforging": 18093,
    "Ġadieus": 25110,
    "Ġitself": 2522,
    "ulations": 6028,
    "forget": 11032,
    "Ġpl": 743,
    "Ġpride": 3822,
    "Ġinfatuated": 20533,
    "Ġallev": 18100,
    "Ġentailed": 11026,
    "calcul": 12984,
    "Ġderision": 16308,
    "Ġloathing": 15066,
    "Ġhunt": 6183,
    "Ġsatur": 1931,
    "handsome": 13175,
    "Ġdropped": 4471,
    "Ġjot": 11761,
    "unction": 10234,
    "arrangement": 17414,
    "hing": 982,
    "Ġcha": 6853,
    "qual": 8156,
    "Ġveneration": 25044,
    "ilent": 21717,
    "Ġkeenest": 12159,
    "Ġpatagonian": 20534,
    "haul": 14764,
    "Ġupbraid": 18317,
    "Ġpictures": 5503,
    "Ġbr": 1071,
    "boy": 4738,
    "Ġdepend": 790,
    "Ġmuteness": 19415,
    "Ġrelevant": 1861,
    "narrative": 17318,
    "discoveries": 25385,
    "Ġsneeze": 24699,
    "standers": 18479,
    "Ġdinah": 9452,
    "clothes": 9057,
    "Ġmans": 15535,
    "dar": 20823,
    "ribs": 23363,
    "Ġdeserted": 8636,
    "contained": 22469,
    "Ġmummy": 25768,
    "69": 17474,
    "influence": 13577,
    "Ġeffectively": 2610,
    "increase": 20267,
    "Ġdoth": 13907,
    "duct": 3507,
    "Ġjago": 22296,
    "Ġprec": 2923,
    "medium": 23637,
    "Ġscrew": 8867,
    "Ġthrough": 602,
    "Ġprospect": 4706,
    "Ġfugitive": 17326,
    "ize": 760,
    "Ġphaeton": 17464,
    "Ġwarp": 8112,
    "Ġbottles": 16570,
    "Ġjoint": 12033,
    "Đ": 209,
    "society": 9971,
    "Ġtackle": 9512,
    "dan": 17515,
    "Ġaven": 10759,
    "Ġdecency": 18489,
    "Ġashore": 5351,
    "Ġattracted": 8904,
    "Ġpeels": 22688,
    "somewhere": 12011,
    "Ġreveries": 11347,
    "Ġinformation": 1046,
    "Ġseptember": 18207,
    "Ġarticle": 9501,
    "solic": 16379,
    "Ġwaterloo": 11979,
    "uses": 11758,
    "Ġgrowth": 14629,
    "silenced": 24423,
    "Ġindividuals": 24546,
    "Ġallowing": 2173,
    "rece": 21233,
    "fish": 3516,
    "Ġbubb": 12581,
    "impetuous": 23761,
    "creation": 14804,
    "Ġforgetting": 3435,
    "withstand": 23024,
    "iminished": 19027,
    "Ġliber": 5168,
    "thrust": 10261,
    "carries": 19526,
    "Ġsobbed": 14134,
    "Ġhappier": 10359,
    "arian": 10316,
    "Ġneck": 4885,
    "instruct": 19541,
    "Ġcarn": 17821,
    "Ġspam": 7630,
    "inordinate": 21193,
    "ĠĠĠĠĠĠĠĠĠĠĠĠĠĠĠĠĠĠĠĠĠĠĠĠĠĠĠĠĠĠĠĠĠĠĠĠĠĠĠĠ": 4517,
    "Ġglanced": 5951,
    "Ġsequ": 985,
    "Ġlosing": 10916,
    "Ġ37": 24077,
    "Ġzoology": 22818,
    "ording": 9763,
    "place": 4153,
    "Ġspecimens": 18858,
    "attachment": 13049,
    "scand": 18855,
    "Ġunwillingly": 15848,
    "distinct": 13334,
    "Ġgrizz": 10351,
    "Ġling": 7377,
    "Ġformidable": 8219,
    "Ġwidows": 24236,
    "Ġcomparison": 7099,
    "irons": 10238,
    "Ġslack": 8955,
    "Ġconn": 9229,
    "animation": 16979,
    "law": 6115,
    "Ġsoftened": 11102,
    "Ġwaned": 17791,
    "ock": 15402,
    "strugg": 21659,
    "rrh": 26144,
    "Ġfrightens": 24027,
    "Ġsagacity": 16974,
    "declared": 15117,
    "Ġelementary": 24814,
    "Ġfurnishes": 19439,
    "Ġwhereof": 16101,
    "alyards": 18772,
    "Ġshrugged": 12766,
    "widows": 25344,
    "Ġ12": 5483,
    "fights": 20864,
    "aunt": 8369,
    "Ġwidespread": 20674,
    "Ġwr": 1548,
    "repugnance": 16864,
    "abeth": 907,
    "incing": 15485,
    "odious": 21809,
    "Ġhath": 12625,
    "Ġkissed": 10044,
    "fearing": 18532,
    "Ġdriving": 3616,
    "burning": 25078,
    "Ġuncivil": 11155,
    "aus": 1500,
    "im": 327,
    "perse": 15897,
    "ustomed": 6098,
    "Ġ110": 24435,
    "Ġmadame": 13149,
    "Ġshoe": 14566,
    "mering": 12488,
    "retrospect": 23135,
    "queen": 12724,
    "Ġsuperfluous": 17413,
    "Ġyawning": 12298,
    "Ġholland": 10365,
    "Ġmessages": 24981,
    "Ġthrills": 24542,
    "ĠĠĠĠĠĠĠĠĠĠĠĠĠĠĠĠĠĠĠĠĠĠĠĠĠĠĠĠĠĠĠĠĠĠĠĠĠ": 14614,
    "rers": 14717,
    "ety": 3521,
    "Ġteased": 18802,
    "Ġrecesses": 17260,
    "Ġshifted": 14106,
    "ugal": 19025,
    "rep": 5525,
    "Ġoath": 7833,
    "Ġkinds": 14507,
    "Ġvoracity": 25986,
    "parlour": 16397,
    "Ġbefallen": 12341,
    "india": 22368,
    "Ġguise": 14431,
    "Ġsimple": 1623,
    "Ġcurse": 7666,
    "dering": 5305,
    "ights": 8475,
    "Ġspurn": 18309,
    "roy": 7853,
    "wer": 8394,
    "?_": 8069,
    "gloom": 17139,
    "Ġcus": 21341,
    "aggra": 21903,
    "Ġpoltroon": 26598,
    "aract": 17894,
    "inconsiderable": 21190,
    "Ġcathed": 14548,
    "Ġreceptive": 1569,
    "Ġmagg": 18905,
    "Ġscrutin": 26014,
    "Ġvapors": 19907,
    "startled": 24941,
    "Ġhumility": 12982,
    "Ġemir": 23348,
    "Ġcongealed": 25981,
    "izer": 2031,
    "Ġindispens": 22951,
    "Ġbrah": 19355,
    "Ġemperors": 15158,
    "Ġsunny": 13084,
    "Ġgoblet": 25823,
    "Ġimped": 18442,
    "Ġrolling": 5974,
    "Ġbarrow": 12067,
    "Ġ9": 5900,
    "Ġthief": 11609,
    "Ġbackwards": 12924,
    "Ġlet": 1113,
    "ay": 355,
    "iably": 13737,
    "Ġwel": 4527,
    "Ô": 149,
    "Ġbrilliantly": 25120,
    "direction": 17524,
    "Ġhindoo": 17175,
    "Ġfare": 5809,
    "ulance": 15765,
    "Ġallows": 3235,
    "Ġspark": 6689,
    "Ġquiescent": 26242,
    "Ġexamined": 6334,
    "hering": 12811,
    "Ġherring": 14126,
    "Ġwhim": 13998,
    "rendering": 22337,
    "Ġaccompl": 5167,
    "handled": 19260,
    "Ġquieted": 23840,
    "Ġproperties": 3118,
    "Ġincommun": 25308,
    "Ġinf": 1759,
    "Ġnowhere": 12883,
    "Ġeffectually": 16166,
    "Ġcerem": 7077,
    "Ġexpedite": 24953,
    "cerem": 15676,
    "Ġmight": 963,
    "reliable": 21239,
    "Ġsurviving": 24637,
    "Ġmartyr": 26360,
    "Ġalter": 6542,
    "Ġnarrating": 24351,
    "Ġbes": 2661,
    "Ġsufferer": 16260,
    "lay": 5890,
    "Ġexempl": 21828,
    "Ġcrackling": 24958,
    "Ġst": 332,
    "hur": 6648,
    "brous": 19199,
    "asons": 6014,
    "Ġdynamically": 4681,
    "Ġ60": 14874,
    "Ġstation": 5297,
    "Ġbennets": 9805,
    "tot": 10728,
    "mass": 12487,
    "Ġstrike": 4855,
    "Ġbennett": 16324,
    "Ġseasonable": 24406,
    "sip": 10725,
    "racts": 14361,
    "muring": 17601,
    "Ġsuffered": 5649,
    "display": 19154,
    "Ġdrought": 19277,
    "ston": 15681,
    "ifle": 10891,
    "Ġobserver": 11987,
    "Ġgrant": 11871,
    "inking": 6709,
    "ĠâĢľâĢĶ": 9733,
    "Ġhierarchical": 1926,
    "mot": 17596,
    "Ġfewer": 16223,
    "Ġsiamese": 20481,
    "beer": 22484,
    "Ġbarbaric": 10013,
    "Ġagain": 814,
    "Ġkrusenstern": 26377,
    "Ġahoy": 12182,
    "bastian": 10673,
    "Ġresol": 2666,
    "contact": 23726,
    "braces": 24658,
    "Ġslily": 23162,
    "Ġchristian": 6479,
    "Ġfrequencies": 4789,
    "Ġexpeditions": 24954,
    "8": 28,
    "chant": 4259,
    "Ġaback": 22263,
    "Ġdeeply": 4717,
    "ippi": 20243,
    "Ġfalse": 4344,
    "ishly": 14199,
    "Ġspeedy": 11172,
    "phys": 18698,
    "ise": 707,
    "care": 4928,
    "Ġinhabit": 5782,
    "Ġbats": 13899,
    "Ġconducting": 16649,
    "lorn": 12485,
    "Ġdynamic": 5124,
    "Ġsingle": 1693,
    "eaten": 20343,
    "untering": 15774,
    "stoke": 18022,
    "eye": 6224,
    "Ġcorpore": 13400,
    "Ġfaintly": 14914,
    "assistant": 25567,
    "plentiful": 21953,
    "Ġhelmet": 19686,
    "remind": 23188,
    "Ġfreer": 23210,
    "Ġfangs": 12594,
    "announced": 19758,
    "Ġscot": 5643,
    "Ġfreezing": 23881,
    "Ġpearl": 20375,
    "noo": 9786,
    "ipotence": 22356,
    "Ġinfrequent": 3823,
    "Ġsympat": 13339,
    "ships": 5486,
    "umberland": 16837,
    "ieties": 19028,
    "algorithms": 8292,
    "opening": 10312,
    "brevi": 24073,
    "Ġinterconnected": 1338,
    "Ġfail": 4148,
    "Ġdeputation": 21836,
    "Ġswells": 9826,
    "thee": 9689,
    "trad": 21075,
    "Ġvalleys": 14918,
    "Ġrapid": 1435,
    "Ġsits": 10768,
    "Ġstomach": 11652,
    "Ġfavourably": 16361,
    "Ġpeddler": 24800,
    "Ġful": 4297,
    "Ġtranqu": 4605,
    "Ġtoken": 2040,
    "added": 11658,
    "Ġweal": 21917,
    "Ġlest": 6395,
    "Ġstatistical": 11104,
    "proceeded": 25190,
    "ram": 13971,
    "Ġstraight": 3700,
    "Ġplaus": 22596,
    "Ġoutstanding": 22313,
    "elfare": 11775,
    "Ġrepetition": 8972,
    "withdrawn": 23025,
    "Ġthoughtless": 16192,
    "Ġpapered": 20129,
    "pretty": 10621,
    "Ġtufted": 17014,
    "Ġdrags": 16941,
    "Ġwisest": 11232,
    "Ġfeebly": 24877,
    "tied": 21069,
    "Ġintegral": 25008,
    "coun": 10686,
    "broke": 14775,
    "decoder": 3643,
    "Ġsepulchre": 20558,
    "urday": 13993,
    "Ġnervousness": 23554,
    "Ġnine": 5369,
    "Ġunwelcome": 12778,
    "Ġcraggy": 23528,
    "Ġsutherland": 10148,
    "quarrel": 20013,
    "Ġentry": 11025,
    "Ġeels": 21619,
    "Ġhyster": 16873,
    "gloomy": 25144,
    "Ġdanced": 7842,
    "iver": 2050,
    "Ġdil": 6383,
    "ck": 436,
    "breeding": 16675,
    "Ġcopper": 7425,
    "Ġmustering": 18662,
    "Ġjem": 18402,
    "indignation": 18438,
    "Ġgem": 21591,
    "Ġlistening": 6318,
    "Ġpillows": 24986,
    "grown": 10099,
    "Ġslouched": 13056,
    "Ġboisterously": 25682,
    "Ġflail": 23007,
    "Ġ49": 24081,
    "unable": 14058,
    "hatherley": 17568,
    "Ġmonsie": 11447,
    "ĠĠĠĠĠĠĠĠĠĠĠĠĠĠĠĠĠĠĠ": 22947,
    "Ġostentatiously": 20467,
    "Ġenlar": 15799,
    "watery": 19825,
    "Ġevolved": 9890,
    "robotics": 11306,
    "Ġbarnacled": 25536,
    "Ġhabit": 6771,
    "arter": 17893,
    "Ġfish": 2709,
    "Ġcomplicated": 14734,
    "Ġsitu": 3496,
    "Ġeverlasting": 9336,
    "Ġfertile": 20581,
    "ulpt": 10885,
    "Ġbitterness": 8024,
    "Ġbright": 3214,
    "Ġsustenance": 19932,
    "Ġequivalent": 4802,
    "Ġshoal": 12014,
    "pike": 11514,
    "brance": 7284,
    "Ġbushes": 16399,
    "Ġpressure": 13421,
    "laug": 10707,
    "Ġfringe": 17271,
    "Ġconstru": 19069,
    "Ġribs": 7101,
    "utting": 17984,
    "Ġscales": 4849,
    "21": 10071,
    "Ġcomprised": 14267,
    "Ġgeneral": 1859,
    "Ġimplac": 24874,
    "exper": 8878,
    "etency": 21579,
    "match": 15389,
    "Ġafterwards": 3531,
    "gy": 2097,
    "Ġfriendly": 9819,
    "Ġwhale": 627,
    "pronounce": 25192,
    "======================================================================": 10067,
    "Ġpossessing": 16575,
    "doing": 8584,
    "Ġhol": 1181,
    "Ġsuits": 22078,
    "Ġbuff": 9172,
    "Ġperish": 8874,
    "unusually": 15778,
    "tell": 1380,
    "Ġtawn": 13822,
    "Ġlion": 9675,
    "âĢĿ]": 21812,
    "evid": 11484,
    "Ġrespectability": 14484,
    "Ġinnoc": 3794,
    "Ġnonsense": 6982,
    "Ġupbraiding": 26226,
    "Ġgrat": 4058,
    "Ġdarker": 13118,
    "traversed": 19638,
    "Ġdepended": 9776,
    "Ġdiscovers": 4428,
    "Ġstoutly": 16924,
    "Ġducks": 25157,
    "Ġavoided": 13257,
    "Ġsolemnisation": 24113,
    "Ġboards": 14299,
    "Ġadduced": 26524,
    "Ġquit": 5245,
    "useness": 22279,
    "Ġdared": 5440,
    "ro": 301,
    "Ġresembled": 18033,
    "Ġdependencies": 2313,
    "Ġhunks": 18935,
    "Ġbreathing": 9444,
    "Ġsaid": 577,
    "Ġprospects": 9958,
    "darkness": 9511,
    "Ġdevoured": 16135,
    "brated": 12025,
    "Ġcomponents": 8892,
    "Ġunpitying": 25660,
    "Ġmead": 8834,
    "worshipping": 16610,
    "lock": 1471,
    "chance": 6827,
    "Ġyork": 11664,
    "Ġpenetrate": 12267,
    "Ġcurious": 3361,
    "Ġbrowne": 13300,
    "rably": 21630,
    "colnett": 19329,
    "Ġsolitudes": 22884,
    "Ġerrors": 2596,
    "Ġbonds": 17869,
    "ĠâĢĶâĢľ_": 17718,
    "Ġtantamount": 25625,
    "Ġcoat": 4554,
    "aim": 2755,
    "Ü": 157,
    "attended": 8952,
    "Ġweapons": 10593,
    "Ġblank": 5950,
    "cket": 3685,
    "Ġgrey": 4513,
    "Ġmagical": 23095,
    "Ġapparition": 8066,
    "Ġresearch": 3329,
    "Ġtroubled": 6614,
    "Ġat": 395,
    "Ġlower": 2663,
    "Ġslit": 13054,
    "noticed": 14340,
    "Ġcontemporary": 16011,
    "Ġmarvels": 11084,
    "Ġinfluences": 14864,
    "Ġlain": 17961,
    "Ġwithdrew": 9695,
    "Ġpyramids": 15113,
    "inion": 2877,
    "ntax": 936,
    "appears": 12058,
    "orough": 5700,
    "Ġincumbent": 16061,
    "tranquillity": 20545,
    "Ġtoiling": 15633,
    "rossed": 11012,
    "Ġthinnest": 24182,
    "aven": 8208,
    "Ġuninjured": 22053,
    "Ġsilent": 3412,
    "Ġswallow": 8950,
    "icions": 21560,
    "Ġmissionary": 25696,
    "Ġlife": 1352,
    "Ġimplicate": 24876,
    "Ġlandau": 16419,
    "assumed": 22305,
    "Ġvelocity": 10620,
    "Ġheartless": 13071,
    "Ġchaldee": 26234,
    "Ġcircumst": 2977,
    "Ġaccountability": 10438,
    "Ġjealous": 9468,
    "Ġrevealed": 6751,
    "Ġdu": 4584,
    "Ġ&": 6513,
    "Ġapprehens": 5682,
    "Ġunconditional": 15844,
    "despicable": 24636,
    "suspicious": 25390,
    "entitled": 21565,
    "Ġfaded": 10809,
    "mouse": 15391,
    "Ġsalut": 10509,
    "Ġfelony": 18951,
    "frisco": 16787,
    "Ġcomputes": 4768,
    "Ġramad": 8527,
    "Ġmarlingspike": 26579,
    "Ġsnugly": 17111,
    "Ġab": 528,
    "oes": 4434,
    "Ġflying": 5413,
    "¬": 110,
    "Ġwitty": 21291,
    "Ġuniversity": 13120,
    "Ġadversarial": 5607,
    "Ġunfav": 14786,
    "four": 6113,
    "branch": 23576,
    "Ġshops": 21998,
    "Ġmorass": 22971,
    "arrival": 15598,
    "glasses": 11215,
    "dark": 5614,
    "Ġfairy": 14627,
    "anted": 5027,
    "Ġsuperhuman": 23452,
    "Ġard": 5164,
    "Ġcode": 1725,
    "erson": 7002,
    "itering": 17818,
    "struck": 7861,
    "sell": 13780,
    "ignation": 11128,
    "sartain": 25622,
    "ultaneously": 4191,
    "Ġfortune": 4239,
    "Ġheight": 4218,
    "Ġadroit": 26000,
    "Ġelucidated": 26029,
    "Ġscepticism": 25927,
    "Ġbeale": 12696,
    "riving": 21923,
    "Ġafford": 4367,
    "occasional": 19575,
    "Ġpivot": 13922,
    "Ġbulk": 5591,
    "Ġcannibals": 10587,
    "ulous": 4450,
    "Ġdoors": 6418,
    "rated": 6227,
    "Ġgrapp": 14100,
    "Ġhimmalehs": 26230,
    "va": 4743,
    "Ġcommunicative": 24548,
    "Ġchiselled": 25559,
    "Ġnay": 5711,
    "antic": 1608,
    "achment": 5464,
    "mmar": 952,
    "Ġkins": 22191,
    "Ġcopy": 10163,
    "Ġbloodless": 19338,
    "prophecy": 22845,
    "shuff": 18484,
    "Ġtravels": 11925,
    "strained": 21655,
    "closed": 23152,
    "Ġsinews": 20286,
    "Ġcoarse": 14273,
    "Ġque": 4158,
    "|": 96,
    "cri": 17505,
    "Ġforwarded": 19043,
    "type": 16175,
    "cham": 10853,
    "frankly": 20020,
    "spouter": 22735,
    "cannibals": 25584,
    "Ġcalmer": 23039,
    "Ġfrom": 435,
    "llable": 6879,
    "Ġemer": 5958,
    "Ġadventurous": 16733,
    "Ġwhaler": 7520,
    "interests": 19707,
    "Ġrefusal": 10344,
    "century": 20045,
    "Ġrefreshment": 17239,
    "Ġmedic": 11247,
    "descending": 16284,
    "Ġbeaut": 2393,
    "Ġlatterly": 24084,
    "Ġstern": 4220,
    "osis": 18389,
    "Ġrace": 5847,
    "Ġlonger": 3360,
    "Ġrmsprop": 3355,
    "Ġrisen": 9492,
    "Ġlurks": 11290,
    "room": 2177,
    "Ġlocks": 11722,
    "dost": 14535,
    "igating": 21697,
    "Ġovertook": 18429,
    "acceler": 23596,
    "Ġsuff": 1303,
    "Ġmind": 1622,
    "Ġconjured": 25099,
    "Ġwords": 1325,
    "Ġcircle": 4977,
    "ites": 3898,
    "whe": 1072,
    "Ġfable": 15575,
    "Ġsensit": 2950,
    "Ġapo": 9630,
    "rown": 2190,
    "ug": 1771,
    "Ġluxur": 12339,
    "Ġinjury": 10540,
    "Ġlig": 21545,
    "vib": 21114,
    "representativeness": 25272,
    "day": 1856,
    "causing": 25518,
    "diff": 9113,
    "Ġlin": 10833,
    "interference": 23736,
    "Ġarrangement": 2658,
    "Ġhelmeted": 19687,
    "Ġrevived": 11368,
    "Ġgable": 15665,
    "sitting": 8386,
    "Ġfigure": 4205,
    "final": 19675,
    "Ġdismissed": 12889,
    "Ġjail": 22291,
    "ronted": 14876,
    "Ġquench": 22416,
    "Ġunusually": 15846,
    "Ġincome": 7916,
    "Ġdegenerating": 25799,
    "classes": 12133,
    "painted": 17639,
    "Ġscal": 1591,
    "Ġreap": 18026,
    "Ġhack": 12753,
    "Ġlearnt": 7614,
    "fed": 11487,
    "depth": 12797,
    "ather": 740,
    "Ġmomentous": 16171,
    "Ġbarrier": 16569,
    "Ġstudents": 23198,
    "Ġcrawl": 11375,
    "Ġseverely": 14932,
    "Ġdepresses": 25797,
    "Ġcal": 1326,
    "Ġfurniture": 6476,
    "Ġblasted": 7936,
    "Ġaffections": 10384,
    "uring": 819,
    "Ġsherry": 19449,
    "Ġbales": 21387,
    "Ġlengthen": 15652,
    "ricade": 13036,
    "Ġawed": 23583,
    "rederick": 14079,
    "regarding": 15070,
    "Ġeighteen": 11238,
    "Ġderivative": 3001,
    "Ġskiff": 16162,
    "puted": 8845,
    "Ġhull": 5446,
    "Ġurgent": 16869,
    "Ġshillings": 15834,
    "Ġsweetheart": 19393,
    "Ġdi": 6525,
    "Ġsusp": 2664,
    "tural": 21065,
    "Ġgouldings": 26187,
    "banked": 25337,
    "Ġdislike": 6047,
    "moment": 3578,
    "point": 6062,
    "anc": 6379,
    "Ġvolcano": 24146,
    "Ġlance": 4879,
    "adventure": 17233,
    "ishnoo": 10955,
    "kshire": 13745,
    "icles": 17972,
    "Ġmutual": 8296,
    "aimed": 3951,
    "sticks": 25965,
    "Ġcommand": 3321,
    "Ġvesture": 20060,
    "Ġseaman": 8638,
    "Ġemperor": 15157,
    "Ġreconc": 9682,
    "Ġstroll": 13351,
    "Ġsliding": 9362,
    "Ġdisappearing": 22530,
    "Ġinfant": 11958,
    "oc": 2833,
    "Ġhel": 3786,
    "Ġhorizon": 6632,
    "Ġcult": 8781,
    "Ġcoverage": 4288,
    "Ġlabyrin": 13103,
    "Ġstore": 8453,
    "iard": 9601,
    "Ġdestro": 3720,
    "Ġdire": 865,
    "deav": 2674,
    "sullenly": 26149,
    "Ġdisturbance": 15012,
    "Ġvindictive": 20468,
    "aren": 10073,
    "rim": 7137,
    "Ġtechnically": 12364,
    "Ġphiladel": 23883,
    "Ġvolumes": 14798,
    "wondrous": 12336,
    "Ġmannish": 26237,
    "Ġindestruct": 22955,
    "Ġdistrusting": 25053,
    "onym": 14649,
    "extensive": 18709,
    "Ġwoods": 5406,
    "Ġbased": 3339,
    "av": 739,
    "Ġisn": 7865,
    "Ġwhereon": 16100,
    "Ġpharaoh": 26585,
    ",âĢĻâĢĶ": 23526,
    "satisfactory": 16893,
    "Ġcry": 3497,
    "Ġsucceed": 4545,
    "hetic": 12201,
    "Ġmining": 22826,
    "Ġdepressions": 25798,
    "Ġoutdone": 22315,
    "ange": 1018,
    "Ġinvari": 6529,
    "88": 20757,
    "Ġthreatens": 24375,
    "Ġindignant": 12237,
    "ceived": 1966,
    "Ġfrightful": 7735,
    "os": 525,
    "Ġestab": 6315,
    "Ġtags": 20570,
    "Ġthyself": 6602,
    "Ġsequence": 1978,
    "Ġsoothed": 10028,
    "Ġmarrying": 6177,
    "Ġarri": 2553,
    "Ġabroad": 8865,
    "operations": 19973,
    "Ġsap": 18323,
    "sed": 4175,
    "Ġturk": 6603,
    "determined": 9079,
    "Ġstories": 10865,
    "Ġcharmed": 16762,
    "Ġbount": 15566,
    "Ġsubt": 11866,
    "Ġskirting": 22794,
    "engaged": 7452,
    "Ġendeavours": 8617,
    "Ġ46": 19489,
    "scent": 13018,
    "Ġguinea": 8947,
    "Ġtwo": 1042,
    "Ġlowermost": 23241,
    "glue": 17556,
    "ipt": 12476,
    "Ġdesperate": 7776,
    "Ġilluminated": 20174,
    "Ġscolded": 25472,
    "itic": 11577,
    "Ġnamely": 20688,
    "Ġequal": 4135,
    "succeed": 10328,
    "Ġimmedi": 2908,
    "Ġrepaid": 19080,
    "Ġstirs": 14916,
    "remes": 21236,
    "too": 4508,
    "nigh": 13762,
    "Ġsympathised": 14861,
    "Ġreiter": 21663,
    "Ġma": 3254,
    "Ġunspeakable": 10055,
    "Ġjost": 23629,
    "swaying": 25910,
    "Ġplausible": 26553,
    "connection": 18868,
    "socket": 22730,
    "Ġdependency": 3489,
    "Ġheat": 5453,
    "hood": 2660,
    "Ġloading": 15873,
    "Ġfinny": 23125,
    "Ġsash": 17754,
    "Ġfootfalls": 25866,
    "lled": 10107,
    "Ġleaves": 5021,
    "anum": 17835,
    "Ġscenari": 22289,
    "Ġchained": 16387,
    "Ġcable": 11579,
    "Ġcens": 8412,
    "Ġmasterless": 23992,
    "Ġvitality": 15171,
    "believed": 9932,
    "unities": 15769,
    "Ġinherent": 4591,
    "Ġdivulged": 16648,
    "Ġsocially": 22075,
    "Ġscroll": 14191,
    "Ġcase": 1941,
    "Ġthese": 820,
    "ses": 3027,
    "Ġblubber": 5666,
    "fold": 7546,
    "watches": 14946,
    "Ġordinarily": 20648,
    "mor": 4213,
    "Ġparaphrasing": 26526,
    "bye": 5949,
    "Ġinherited": 25353,
    "Ġaccordingly": 6619,
    "tains": 10962,
    "aware": 16294,
    "Ġunwaning": 25170,
    "Ġsport": 6688,
    "abri": 6682,
    "Ġspeaking": 4027,
    "ivided": 22083,
    "Ġmanor": 14196,
    "Ġsepulchral": 25892,
    "mathematics": 26304,
    "third": 8167,
    "Ġthomas": 17947,
    "Ġinclosed": 19537,
    "Ġchaps": 14179,
    "Ġbleeding": 14879,
    "Ġpres": 9731,
    "first": 3933,
    "combined": 20319,
    "Ġnocturn": 18374,
    "itt": 570,
    "Ġmedical": 9463,
    "Ġcrack": 7709,
    "Ġavalanche": 17432,
    "Ġindul": 5856,
    "perseus": 26005,
    "Ġengagements": 9977,
    "Ġvacancies": 24345,
    "isons": 17849,
    "Ġsensitivity": 3070,
    "Ġcalifornia": 20528,
    "dington": 11899,
    "Ġnavigation": 9992,
    "roses": 17956,
    "Ġtooks": 23323,
    "Ġdiscipl": 22781,
    "harpoone": 6107,
    "unknown": 10890,
    "Ġsimilitude": 19210,
    "gorge": 22334,
    "ated": 717,
    "Ġsickness": 10538,
    "verb": 10216,
    "Ġepit": 18006,
    "Ġoccurs": 1855,
    "Ġask": 1493,
    "thy": 2938,
    "reng": 4003,
    "Ġbeque": 18080,
    "Ġinstincts": 16986,
    "&": 10,
    "broad": 8642,
    "beaten": 20314,
    "Ġbunger": 9995,
    "everywhere": 23694,
    "Ġparade": 18301,
    "Ġimpulses": 19960,
    "consequence": 9762,
    "Ġphren": 8571,
    "Ġjenny": 20161,
    "Ġboun": 21378,
    "_;": 6640,
    "ade": 882,
    "bantering": 25253,
    "passage": 11261,
    "rench": 3967,
    "Ġyea": 8915,
    "Ġsalad": 19477,
    "Ġregained": 18598,
    "Ġpaved": 17912,
    "harbor": 13563,
    "Ġbaboon": 19692,
    "Ġbalance": 2022,
    "Ġlac": 17964,
    "Ġinspirited": 23419,
    "Ġmachinations": 25767,
    "Ġdatasets": 2388,
    "Ġplumage": 17297,
    "Ġresuming": 12890,
    "Ġtragedies": 25241,
    "Ġbud": 10168,
    "Ġpure": 6137,
    "aught": 2680,
    "urements": 18123,
    "Ġretreating": 19798,
    "Ġrenowned": 26193,
    "P": 52,
    "Ġpromptly": 23815,
    "clergyman": 20728,
    "Ġthinking": 4031,
    "condite": 23246,
    "Ġdiscount": 22778,
    "Ġsymph": 22208,
    "Ġrewards": 10848,
    "Ġdescended": 7428,
    "Ġpoorly": 9854,
    "Ġlonged": 6436,
    "Ġbesee": 19242,
    "Ġappalling": 8498,
    "ias": 6362,
    "gun": 10096,
    "Ġshin": 18227,
    "Ġdirectors": 18921,
    "Ġash": 4832,
    "hip": 8740,
    "Ġrelationships": 2930,
    "narrated": 25621,
    "Ġgallop": 19554,
    "Ġapparently": 6778,
    "Ġtossing": 8125,
    "Ġin": 291,
    "Ġrover": 18454,
    "Ġalgorithm": 762,
    "gies": 13725,
    "Ġsalisbury": 24062,
    "Ġsyllable": 9728,
    "Ġexamine": 7734,
    "Ġexchanged": 10878,
    "Ġhighest": 3529,
    "Ġwaves": 3918,
    "Ġdefy": 11895,
    "Ġdaunt": 19663,
    "Ġterm": 2266,
    "str": 2578,
    "saddest": 25527,
    "Ġprivile": 8645,
    "Ġassuming": 16693,
    "Ġpeak": 16125,
    "Ġcustody": 13646,
    "Ġdigest": 24647,
    "Ġassertion": 13488,
    "yes": 987,
    "Ġheadache": 22895,
    "inative": 15483,
    "rimin": 2425,
    "Ġrecollections": 10512,
    "window": 7742,
    "ophisticated": 22475,
    "Ġgovernor": 16490,
    "ipp": 10102,
    "putable": 10901,
    "Ġlend": 17962,
    "Ġrespectfully": 18994,
    "Ġfanc": 6743,
    "Ġsteer": 10386,
    "Ġhandy": 12934,
    "Ġretained": 7173,
    "Ġmutiny": 13258,
    "Ġpenet": 6888,
    "fabulous": 20472,
    "Ġcats": 8979,
    "Ġlimit": 10443,
    "otic": 15743,
    "sand": 21051,
    "Ġmis": 918,
    "Ġcyp": 21343,
    "Ġcrow": 3804,
    "wholly": 10941,
    "Ġregular": 948,
    "Ġlurk": 13382,
    "allingly": 22196,
    "Ġoutlast": 22310,
    "ord": 666,
    "Ġbureau": 11589,
    "Ġbrighton": 6470,
    "Ġlandlady": 10422,
    "Ġsandwich": 19827,
    "chase": 11644,
    "Ġfut": 15573,
    "Ġcatastrop": 3348,
    "heedful": 20572,
    "stock": 13220,
    "Ġaloft": 4303,
    "allied": 7410,
    "Ġinsulated": 23676,
    "Ġsibbald": 21229,
    "Ġpromise": 4197,
    "mistaken": 12208,
    "vine": 10734,
    "Ġmistakes": 16539,
    "tallow": 21084,
    "Ġdefect": 8554,
    "Ġexperience": 1358,
    "mortals": 25409,
    "Ġduc": 4697,
    "Ġsociety": 3977,
    "Ġincognita": 26551,
    "Ġag": 684,
    "Ġimpulsively": 24880,
    "Ġprograms": 7239,
    "deploy": 22140,
    "delirium": 14783,
    "Ġequatorial": 13508,
    "========": 2311,
    "Ġwhereupon": 14293,
    "Ġbird": 3757,
    "sebastian": 21816,
    "affection": 7487,
    "Ġodds": 13328,
    "car": 4210,
    "disagreeable": 11163,
    "Ġnatural": 1095,
    "!_âĢĿ": 11376,
    "Ġblotted": 20216,
    "Ġclean": 5652,
    "outh": 2687,
    "Ġweakness": 9966,
    "cottage": 9569,
    "Ġche": 1765,
    "Ġascribe": 16782,
    "Ġbar": 3150,
    "Ġterms": 2562,
    "nals": 16398,
    "steady": 14708,
    "ù": 186,
    "Ġcongreg": 8462,
    "Ġeduc": 4785,
    "immed": 9217,
    "Ġplenty": 6708,
    "Ġkindly": 6077,
    "Ġsmote": 18574,
    "Ġwherever": 8523,
    "Ġstra": 2993,
    "Ġscotch": 12207,
    "Ġbreakfast": 3975,
    "ics": 3258,
    "Ġwilderness": 14839,
    "Ġrally": 21965,
    "Ġdawned": 14993,
    "Ġshirt": 8848,
    "Ġpours": 17911,
    "ologies": 18767,
    "Ġdevice": 1927,
    "endeavoured": 12278,
    "Ġannouncing": 16754,
    "Ġexpression": 4516,
    "Ġhaven": 8473,
    "Ġmagazine": 23096,
    "formality": 22216,
    "Ġconvert": 11841,
    "Ġbeheading": 21751,
    "considerably": 13444,
    "Ġsummoned": 9910,
    "Ġirritation": 20265,
    "Ġinvolve": 11036,
    "stead": 10846,
    "Ġruinous": 24633,
    "Ġsurviv": 13434,
    "ĠâĢĶâĢĶ": 25757,
    "Åĵ": 10744,
    "Ġsembl": 19059,
    "Ġnapoleon": 20556,
    "Ġcele": 9898,
    "including": 23588,
    "olic": 14040,
    "Ġstray": 18069,
    "Ġwoe": 4793,
    "anders": 18152,
    "Ġenthusiastic": 19964,
    "Ġmonosyllable": 20725,
    "Ġrealising": 18982,
    "Ġstump": 7602,
    "Ġarrives": 23606,
    "Ġsepul": 14089,
    "alously": 15627,
    "illa": 12790,
    "Ġmislead": 22757,
    "lowering": 16032,
    "Ġlacey": 10197,
    "facts": 19841,
    "linen": 25257,
    "Ġhen": 3503,
    "Ġproving": 15750,
    "Ġblows": 5972,
    "urged": 18047,
    "time": 3149,
    "pole": 9332,
    "Ġunfaltering": 24112,
    "injury": 25213,
    "cherries": 19755,
    "gl": 3291,
    "ihood": 20921,
    "watch": 6118,
    "Ġmottled": 20677,
    "Ġglow": 7170,
    "Ġdeal": 3607,
    "Ġbedfellow": 16437,
    "thumb": 18218,
    "Ġgips": 10841,
    "Ġragged": 11844,
    "himself": 3971,
    "Ġcannibal": 7773,
    "Ġunsocial": 18259,
    "dle": 3249,
    "Ġdisgust": 6705,
    "Ġarchipelagoes": 14347,
    "Ġxxi": 24476,
    "omp": 2474,
    "Ġaxe": 15061,
    "ilty": 6394,
    "Ġprocesses": 3632,
    "Ġwarb": 17787,
    "insult": 16279,
    "ou": 288,
    "resembling": 25932,
    "Ġhoot": 19074,
    "Ġpract": 1866,
    "Ġconsists": 11976,
    "Ġminor": 12965,
    "shriek": 20518,
    "Ġbanking": 19629,
    "Ġenchanted": 9080,
    "user": 5105,
    "Ġindividual": 5744,
    "Ġembrace": 16990,
    "Ġmoot": 22427,
    "Ġothers": 2583,
    "Ġscare": 18397,
    "Ġsple": 21214,
    "re": 266,
    "Ġbingleys": 18995,
    "Ġstript": 23690,
    "Ġsurvivors": 25732,
    "Ġfirmly": 8013,
    "washed": 13043,
    "Ġsurrounds": 24231,
    "Ġbristling": 20525,
    "eronomy": 15524,
    "Ġchapter": 2959,
    "vapor": 25755,
    "Ġdelayed": 9517,
    "const": 5938,
    "Ġappearing": 9841,
    "gling": 10097,
    "Ġadvertising": 25389,
    "icit": 3379,
    "Ġmemo": 18117,
    "terdam": 18129,
    "Ġdescried": 7918,
    "Ġfrock": 10489,
    "ced": 696,
    "Ġfled": 6670,
    "Ġgallows": 12143,
    "consuming": 25674,
    "countryman": 24639,
    "boom": 18998,
    "immediately": 10048,
    "Ġhonoured": 9880,
    "Ġpatron": 7462,
    "unexpected": 15776,
    "caught": 8726,
    "me": 869,
    "Ġscriptures": 26235,
    "faces": 13719,
    "sculpt": 16246,
    "Ġskeletons": 16791,
    "Ġspeakest": 23484,
    "ienced": 5685,
    "Ġdoct": 4455,
    "Ġburst": 4381,
    "Ġcool": 5734,
    "Ġrucastles": 18721,
    "madam": 24421,
    "anse": 12572,
    "Ġmeditating": 20041,
    "Ġbetween": 789,
    "Ġoffices": 14334,
    "Ġpoising": 22588,
    "Ġmeasure": 3593,
    "Ġunaffected": 14122,
    "Ġbeliever": 25845,
    "Ġdetestable": 15097,
    "powers": 25410,
    "iffs": 9021,
    "comple": 7441,
    "Ġembodiment": 20526,
    "Ġunra": 18240,
    "Ġchurch": 4711,
    "Ġatrocious": 21940,
    "remental": 21246,
    "Ġphrases": 2797,
    "Ġspit": 22121,
    "partly": 14602,
    "Ġjoyous": 14663,
    "strange": 6086,
    "us": 531,
    "ough": 471,
    "Ġpetersburgh": 24228,
    "ister": 1295,
    "Ġsidel": 9635,
    "Ġassizes": 11108,
    "ella": 12746,
    "Ġhaunts": 18198,
    "Ġreverence": 12057,
    "Ġquadru": 16002,
    "yingly": 23112,
    "Ġunderneath": 16338,
    "ancho": 4938,
    "built": 16825,
    "liking": 22921,
    "yd": 21141,
    "retrie": 18922,
    "Ġsenses": 8251,
    "Ġspin": 7629,
    "Ġstall": 12693,
    "Ġflour": 8944,
    "Ġfull": 2176,
    "Ġsteel": 3888,
    "Ġacted": 7422,
    "Ġpossibility": 7458,
    "turtle": 12209,
    "grat": 5052,
    "Ġhapp": 1090,
    "Ġtender": 5753,
    "Ġapplicable": 19010,
    "eked": 16401,
    "Ġbarrens": 25501,
    "trunk": 23945,
    "ogn": 2381,
    "delay": 16698,
    "Ġswap": 23047,
    "Ġevent": 2954,
    "Ġprim": 8243,
    "lesome": 12962,
    "Ġiterate": 13200,
    "possessed": 9527,
    "oubled": 23644,
    "Ġmathemat": 3204,
    "convalescence": 24884,
    "utherland": 9578,
    "ĠĊ": 12520,
    "Ġunquestion": 18251,
    "Ġaffliction": 25844,
    "Ġsize": 1215,
    "Ġmyst": 4051,
    "mountains": 15179,
    "yra": 8102,
    "Ġlibr": 15999,
    "ordinate": 12872,
    "sli": 11522,
    "Ġglad": 3325,
    "impregn": 21711,
    "chariot": 26479,
    "rings": 10722,
    "Ġjig": 15950,
    "affectionate": 24921,
    "Ġriots": 23890,
    "leave": 7837,
    "mews": 22708,
    "Ġstructured": 2975,
    "Ġpartly": 6713,
    "sufficient": 6635,
    "dressing": 11481,
    "mblings": 19779,
    "itage": 17816,
    "onical": 21252,
    "Ġclenched": 14203,
    "Ġwishing": 7830,
    "Ġindividuality": 14908,
    "Ġvulture": 17338,
    "confl": 22468,
    "dam": 7797,
    "encountered": 20391,
    "angry": 18289,
    "recognised": 15261,
    "Ġpreacher": 18369,
    "electricity": 26385,
    "conversations": 24749,
    "Ġlanguid": 14210,
    "Ġvoids": 25807,
    "Ġhearse": 10420,
    "ann": 5802,
    "Ġhandwriting": 14318,
    "welt": 12518,
    "dri": 5887,
    "icking": 8910,
    "Ġoppressed": 11189,
    "Ġmainly": 22653,
    "Ġgourmand": 26466,
    "Ġwise": 6811,
    "Ġclassifies": 11832,
    "Ġdeceived": 6544,
    "Ġhilarious": 20297,
    "Ġslacked": 25188,
    "Ġportcullis": 26603,
    "Ġgirth": 13134,
    "Ġprovinces": 24190,
    "knowing": 10437,
    "Ġkitchen": 8495,
    "Ġact": 692,
    "Ġrecoil": 18685,
    "Ġperch": 10298,
    "quohog": 21849,
    "naturalists": 23522,
    "Ġunman": 12772,
    "Ġmystery": 5509,
    "Ġhorses": 6385,
    "Ġhourly": 23300,
    "eches": 8077,
    "Ġsparing": 22126,
    "Ġdisconsolate": 20718,
    "Ġgrain": 15830,
    "Ġlatin": 16821,
    "iance": 5279,
    "Ġaudibly": 24771,
    "otes": 15742,
    "Ġgrenadier": 21613,
    "furthermore": 20002,
    "dening": 22777,
    "brit": 19198,
    "Ġcommencement": 12236,
    "winding": 16720,
    "phantoms": 24679,
    "Ġbott": 3151,
    "Ġdesolation": 12266,
    "innacle": 7519,
    "Ġutter": 3974,
    "Ġinexplicable": 12254,
    "nineteenth": 26138,
    "Ġarrival": 4731,
    "Ġrelieve": 8223,
    "Ġaddu": 22102,
    "lording": 24048,
    "rese": 15508,
    "archangel": 18793,
    "omitted": 18016,
    "Ġfossils": 20221,
    "deduction": 23555,
    "Ġinvolved": 8921,
    "ulsive": 10233,
    "Ġxi": 16429,
    "Ġtogether": 1879,
    "ishe": 13890,
    "Ġsuper": 2153,
    "regard": 7972,
    "Ġpassages": 12967,
    "Ġfanatic": 23390,
    "Ġembracing": 14979,
    "laughing": 15178,
    "atching": 8201,
    "dat": 1662,
    "Ġdetestation": 17127,
    "Ġchin": 4891,
    "Ġcrimson": 16441,
    "um": 454,
    "Ġyankees": 26201,
    "Ġsituated": 9446,
    "Ġsadness": 13285,
    "unsuitable": 21890,
    "miss": 3176,
    "Ġdoubtful": 19141,
    "Ġphenomenon": 17916,
    "mathemat": 19137,
    "Ġrepresent": 1210,
    "nx": 17607,
    "Ġcreature": 2382,
    "Ġtransportation": 13641,
    "ire": 493,
    "Ġvial": 10248,
    "historian": 25735,
    "Ġshavings": 14109,
    "Ġjoined": 4564,
    "rap": 21625,
    "Ġunass": 14114,
    "inted": 2649,
    "practical": 17221,
    "Ġfury": 7661,
    "Ġflog": 23621,
    "mbling": 3345,
    "Ġentitled": 8538,
    "Ġclasses": 4056,
    "burg": 16773,
    "Ġadjusted": 23457,
    "Ġsees": 8842,
    "Ġsecured": 6745,
    "Ġdescent": 977,
    ",--": 2479,
    "fellows": 12271,
    "Ġleaving": 3904,
    "Ġpangs": 15613,
    "fins": 13718,
    "Ġreverber": 19868,
    "lun": 20945,
    "Ġyell": 21774,
    "Ġcinque": 20484,
    "Ġglancing": 5399,
    "creat": 20799,
    "²": 115,
    "trans": 5594,
    "Ġchat": 6560,
    "odecimoes": 25318,
    "angular": 11720,
    "Ġconsult": 6056,
    "apter": 1193,
    "Ġshol": 21992,
    "Ġadmin": 23551,
    "sensations": 20049,
    "Ġtheology": 21275,
    "egypt": 15348,
    "Ġpressed": 6041,
    "ï": 176,
    "oh": 1584,
    "Ġunde": 11710,
    "halfway": 24311,
    "Ġintensity": 10015,
    "?âĢĿâĢĶ": 12892,
    "ipher": 18427,
    "sombre": 23852,
    "proves": 23392,
    "Ġmoney": 3419,
    "Ġwan": 15527,
    "astrous": 15884,
    "Ġbrazier": 26320,
    "bildad": 9586,
    "rr": 17650,
    "exhibited": 18477,
    "Ġmantelpiece": 15206,
    "Ġconsist": 1934,
    "tenderly": 20529,
    "Ġantique": 19550,
    "contrasted": 17305,
    "fri": 20853,
    "Ġthrees": 23399,
    "Ġgrooves": 16741,
    "likeness": 19476,
    "ider": 21762,
    "among": 6256,
    "Ġletter": 2195,
    "urry": 13992,
    "longbourn": 9894,
    "ods": 8835,
    "Ġdusky": 13548,
    "Ġglorious": 11075,
    "ision": 1852,
    "Ġneighbourhood": 5126,
    "unhappy": 10237,
    "fig": 8734,
    "Ġconstraints": 2740,
    "Ġfemales": 14936,
    "aco": 12903,
    "Ġdeigned": 18138,
    "Ġstabbed": 25456,
    "Ĺ": 250,
    "Ġsneer": 13446,
    "Ġattends": 19649,
    "anx": 8783,
    "Ġwickedness": 9525,
    "Ġunsc": 22011,
    "Ġlust": 9197,
    "worm": 15453,
    "Ġtrading": 23073,
    "ned": 3493,
    "Ġgrievous": 13259,
    "erranean": 9333,
    "five": 6356,
    "Ġarm": 2493,
    "Ġdischarged": 15219,
    "Ġknave": 11272,
    "Ġidentify": 12012,
    "Ġenl": 18188,
    "correct": 24483,
    "buff": 15317,
    "Ġconvince": 14642,
    "âĢĶâĢĻâĢĿ": 20062,
    "isher": 2879,
    "Ġcynicism": 25771,
    "Ġsupposed": 4558,
    "Ġconcept": 664,
    "Ġunlikely": 10908,
    "rudential": 16709,
    "tit": 11527,
    "Ġsupper": 4665,
    "Ġcomrade": 12281,
    "Ġguide": 3216,
    "ortions": 10948,
    "anatory": 21361,
    "Ġsooty": 25815,
    "charge": 9447,
    "Ġdepress": 14045,
    "oted": 4597,
    "ispens": 8335,
    "Ġimpediments": 26240,
    "ination": 2916,
    "county": 25396,
    "Ġnet": 3625,
    "Í": 142,
    "Ġtomahawk": 7539,
    "Ġdigesting": 19808,
    "writ": 16553,
    "trem": 17681,
    "eldom": 4414,
    "Ġarduous": 26531,
    "Ġproflig": 23565,
    "ernation": 8211,
    "Ġorgans": 15864,
    "Ġ1894": 5196,
    "Ġsuavely": 26523,
    "sledge": 21056,
    "Ġsuited": 12783,
    "Ġsummar": 3526,
    "Ġpapers": 4022,
    "luded": 4227,
    "Ġunp": 12770,
    "inian": 21181,
    "ounced": 4954,
    "Ġrang": 9244,
    "Ġtight": 8107,
    "Ġsandwic": 24664,
    "Ġstretch": 6993,
    "Ġbrimstone": 25686,
    "Ġgrammar": 1059,
    "Ġinfl": 6893,
    "utions": 1889,
    "farm": 15350,
    "springs": 24911,
    "Ġtennes": 23547,
    "Ġrighteous": 18945,
    "clusion": 16304,
    "Ġextravagance": 17279,
    "Ġfif": 4215,
    "Ġordered": 5832,
    "malicious": 19901,
    "Ġplaying": 6909,
    "Ġmemory": 2274,
    "tranquil": 25870,
    "eff": 2534,
    "Ġbinding": 20417,
    "Ġhearses": 20058,
    "Ġenchantment": 24869,
    "ispiece": 19724,
    "gish": 20872,
    "Ġslaughter": 20729,
    "Ġjon": 15947,
    "Ġscar": 3212,
    "onness": 21253,
    "acknowledged": 15201,
    "Ġrestless": 10415,
    "Ġlegitimate": 20641,
    "Ġperpetual": 12301,
    "Ġbottled": 23794,
    "Ġrind": 21966,
    "avish": 22591,
    "salis": 25147,
    "Ġwhirled": 14959,
    "Ġtalents": 15044,
    "bab": 11468,
    "Ġdef": 1200,
    "elihood": 4622,
    "Ġopera": 23424,
    "speptic": 23943,
    "Ġstable": 2698,
    "Ġinhaled": 25451,
    "Ġunlo": 22009,
    "Ġimmured": 24071,
    "Ġinevitably": 17230,
    "sing": 5138,
    "Ġsternly": 16715,
    "Ġbug": 11588,
    "Ġcheer": 4068,
    "Ġwit": 3841,
    "Ġsnows": 14725,
    "Ġsigmoid": 2464,
    "inates": 21179,
    "Ġmend": 8405,
    "E": 41,
    "Ġranges": 2886,
    "amount": 10884,
    "Ġconjugal": 25101,
    "impress": 18051,
    "make": 5793,
    "flask": 12097,
    "rougham": 15992,
    "Ġrespect": 1669,
    "Ġwhoa": 22417,
    "barb": 10080,
    "Ġmagnanim": 14473,
    "Ġintervals": 5598,
    "Ġ17": 5740,
    "Ġcommunicates": 24547,
    "rine": 21036,
    "Ġinitials": 11014,
    "Ġunmo": 12771,
    "Ġchim": 5932,
    "Ġhoney": 12629,
    "Ġremem": 4313,
    "ichever": 13956,
    "ope": 4125,
    "Ġfanny": 23389,
    "whalemen": 10431,
    "ii": 4015,
    "Ġspouting": 9438,
    "Ġshield": 21996,
    "Ġtidings": 11397,
    "Ġsuccess": 3609,
    "Ġprevailing": 24673,
    "Ġexamining": 8005,
    "northern": 23663,
    "ssing": 3808,
    "Ġkindest": 23293,
    "Ġtoler": 7588,
    "Ġconvulsive": 19306,
    "Ġtrained": 8502,
    "susp": 10596,
    "Ġdishonor": 25601,
    "Ġmarriage": 3190,
    "Ġcough": 11580,
    "ief": 2047,
    "Ġshoes": 7071,
    "Ġdeserving": 14752,
    "Ġfriendship": 7246,
    "Ġsurprised": 3829,
    "estion": 18360,
    "fluttering": 23970,
    "mut": 17595,
    "philosophers": 25252,
    "Ġbond": 21382,
    "yond": 2328,
    "rally": 17651,
    "Ġrecogn": 2567,
    "ĠĠĠĠĠĠĠĠĠĠĠĠĠĠĠĠĠĠĠĠĠĠĠĠĠĠĠĠĠĠĠĠĠĠĠĠĠĠĠ": 19258,
    "Ġsoldiers": 8686,
    "Ġdoorway": 14497,
    "jet": 13741,
    "Ġurging": 24505,
    "Ġdangers": 12352,
    "Ġgash": 15669,
    "Ġtimber": 13348,
    "Ġresentment": 7530,
    "Ġmix": 7576,
    "Ġidly": 16403,
    "Ġdispatched": 23879,
    "Ġtemptation": 8677,
    "itty": 3554,
    "imming": 9686,
    "Ġwintry": 17433,
    "Ġsober": 10910,
    "Ġrevolutionized": 3368,
    "Ġunembarrassed": 22066,
    "Ġtempest": 8213,
    "ignorantly": 25189,
    "Ġbeh": 1803,
    "uted": 7592,
    "Ġsuppressed": 11910,
    "Ġinsol": 10180,
    "Ġleaf": 15721,
    "Ġallures": 22005,
    "Ġcamp": 9164,
    "Ġoccurrences": 11050,
    "Ġstrides": 22614,
    "enth": 6680,
    "Ġschemes": 11131,
    "tting": 17680,
    "Ġshocking": 10435,
    "blocks": 25517,
    "Ġcrawled": 17044,
    "Ġtombed": 25160,
    "Ġmy": 412,
    "Ġfundamentals": 14635,
    "Ġsubstitute": 16726,
    "Ġvag": 9707,
    "happily": 14657,
    "._]]": 5334,
    "Ġwhittingham": 26197,
    "Ġpurses": 23475,
    "Ġhears": 8138,
    "Ġsubtlety": 24780,
    "emporary": 15796,
    "Ġhither": 4759,
    "younger": 11312,
    "Ġinconvenient": 20008,
    "Ġsaturn": 22899,
    "break": 6101,
    "flinging": 20867,
    "difficult": 10057,
    "Ġbul": 3294,
    "colour": 9902,
    "Ġdeaths": 14537,
    "trial": 20349,
    "tempted": 26403,
    "steps": 9404,
    "otions": 7180,
    "Ġpoltro": 23618,
    "Ġanytime": 12882,
    "jeroboam": 25619,
    "Ġso": 430,
    "Ġwindigate": 18910,
    "Ġpurport": 14580,
    "Ġpassionate": 11273,
    "Ġdreadfully": 7725,
    "Ġropes": 10748,
    "Ġscud": 14190,
    "Ġecl": 18005,
    "Ġaided": 17745,
    "Ġsubsequent": 7658,
    "acc": 2533,
    "billows": 20235,
    "Ġexpand": 9306,
    "Ġstreets": 5863,
    "Ġindex": 17049,
    "Ġreplay": 5047,
    "Ġdisco": 3429,
    "ellect": 7381,
    "icest": 21561,
    "oundered": 14164,
    "Ġbrooks": 25700,
    "lude": 6161,
    "Ġsource": 6805,
    "Ġdisastrous": 16059,
    "gradually": 12912,
    "Ġassented": 17337,
    "Ġpubl": 3939,
    "Ġexclam": 6757,
    "Ġtows": 19561,
    "umphed": 23514,
    "Ġbuildings": 24720,
    "Ġhaz": 12752,
    "Ġchoosing": 19589,
    "Ġsog": 22072,
    "hroom": 12474,
    "Ġreciproc": 20620,
    "rowed": 22853,
    "Ġduck": 8793,
    "prodigious": 17466,
    "Ġresounds": 22539,
    "Ġhim": 476,
    "Ġfru": 8419,
    "irra": 15783,
    "rule": 15893,
    "Ġhelper": 24023,
    "ribe": 1220,
    "Ġgirdle": 19156,
    "Ġrede": 13983,
    "connected": 1309,
    "Ġcommod": 10333,
    "Ġhorrify": 23816,
    "Ġoscillations": 2902,
    "Ġemptied": 24347,
    "Ġcredulous": 17144,
    "Ġmenacing": 23104,
    "Ġillness": 8589,
    "immense": 18052,
    "Ġstruggling": 12072,
    "Ġarg": 4766,
    "Ġshe": 466,
    "»": 124,
    "wig": 17704,
    "conduct": 11795,
    "Ġtus": 10749,
    "Ġhypocr": 19470,
    "Ġans": 1647,
    "Ġgushed": 21604,
    "Ġreserve": 9970,
    "itzerland": 9994,
    "Ġmiraculous": 13546,
    "Ġoverseeing": 22361,
    "Ġsgd": 3132,
    "Ġsty": 6251,
    "Ġbrood": 23097,
    "Ġstepfather": 7221,
    "Ġqualified": 14949,
    "Ġspanish": 2827,
    "Ġwrinkled": 7264,
    "folding": 24927,
    "ant": 438,
    "Ġscope": 15943,
    "Ġhogshe": 20490,
    "Ġgreen": 3053,
    "Ġnewcastle": 16222,
    "Ġhaughty": 11449,
    "cd": 15322,
    "hib": 15366,
    "Ġshelves": 14998,
    "Ġmincer": 14365,
    "Ġlucifers": 16588,
    "Ġimpossibility": 20646,
    "Ġinheritance": 25355,
    "igned": 5656,
    "led": 580,
    "romising": 18233,
    "ons": 708,
    "whales": 5187,
    "sters": 6391,
    "Ġ116": 24440,
    "Ġcaptive": 14426,
    "sax": 21055,
    "Ġpipes": 9848,
    "Ġwashington": 17202,
    "Ġamours": 22478,
    "sister": 5139,
    "Ġpersevering": 20232,
    "appointment": 24058,
    "ojo": 7349,
    "Ġinterpretation": 19715,
    "Ġcapacious": 19175,
    "Ġbridal": 14953,
    "recover": 24622,
    "?âĢĿ": 700,
    "Ġbaker": 4696,
    "Ġaccommodate": 20515,
    "maybe": 23988,
    "Ġtouching": 4680,
    "Ġdifferently": 10388,
    "Ġchemistry": 11460,
    "Ġunrel": 14695,
    "cre": 4251,
    "oon": 6364,
    "enormous": 26166,
    "Ġmanhandle": 22326,
    "whar": 15926,
    "Ġprank": 23218,
    "Ġmeets": 7396,
    "liv": 9607,
    "wr": 3028,
    "Ġrout": 7402,
    "Ġcritics": 23443,
    "Ġhalts": 3161,
    "dles": 11480,
    "twain": 23696,
    "phew": 6368,
    "fleece": 19946,
    "Ġmute": 19414,
    "ited": 1753,
    "Ġmab": 12557,
    "alf": 4638,
    "Ġporthole": 24399,
    "tent": 21063,
    "Ġinfancy": 10411,
    "Ġcontemplated": 13463,
    "Ġdesiring": 14412,
    "Ġvalidation": 2354,
    "Ġvirtue": 4922,
    "vice": 15449,
    "Ġhovel": 8253,
    "plain": 1356,
    "Ġelder": 7224,
    "Ġfilial": 16620,
    "Ġhardest": 18912,
    "Ġcelestial": 10066,
    "Ġwillow": 18528,
    "Ġwane": 21287,
    "Ġunnear": 22025,
    "www": 17251,
    "eer": 15346,
    "Ġpeter": 10535,
    "Ġincredulous": 9986,
    "learn": 2550,
    "Ġinconven": 7586,
    "nar": 12491,
    "Ġwouldn": 6045,
    "ium": 4864,
    "val": 1154,
    "deaux": 22145,
    "Ġdo": 510,
    "owal": 13995,
    "ratulations": 20124,
    "Ġfurrow": 22812,
    "erness": 6434,
    "Ġnaut": 13940,
    "Ġcuvier": 9165,
    "Ġfixing": 13155,
    "Ġdeer": 12717,
    "ourse": 8869,
    "!âĢĿ": 846,
    "cstasy": 11445,
    "Ġpondered": 15165,
    "Ġreputed": 18035,
    "Ġentranced": 25833,
    "ezes": 9990,
    "boone": 23252,
    "Ġwitness": 4621,
    "Ġpallid": 12297,
    "apprec": 22838,
    "Ġhatty": 19264,
    "Ġbark": 10798,
    "Ġprobably": 4314,
    "Ġimpud": 18444,
    "Ġnonsensical": 21526,
    "returns": 23134,
    "Ġsatir": 18794,
    "Ġalche": 21780,
    "Ġclub": 8873,
    "Ġwithin": 2163,
    "Ġdodge": 19885,
    "judged": 14830,
    "Ġloving": 8175,
    "Ġbelshazzar": 16225,
    "**": 4686,
    "sincerely": 24584,
    "Ġcompunction": 18587,
    "gay": 11488,
    "menced": 23143,
    "Ġcruis": 14624,
    "Ġtherefore": 2238,
    "topic": 10527,
    "Ġskeleton": 5514,
    "Ġ67": 19659,
    "ertips": 23638,
    "Ġthroes": 24574,
    "Ġhostile": 19938,
    "Ġcust": 11581,
    "ft": 910,
    "duodecimo": 16000,
    "Ġmischief": 8541,
    "tallied": 21088,
    "Ġcensured": 25094,
    "Ġarmed": 9259,
    "Ġcharging": 23265,
    "Ġpluck": 15612,
    "nue": 15396,
    "Ġproverb": 12713,
    "Ġnodding": 23333,
    "Ġknock": 9972,
    "Ġserved": 8245,
    "Ġfranc": 16351,
    "oblivious": 26582,
    "Ġbuckle": 17033,
    "Ġxiii": 25591,
    "whosoever": 22237,
    "Ġconge": 15744,
    "Ġstairs": 5541,
    "Ġwelded": 9571,
    "Ġplay": 2626,
    "r": 86,
    "inkled": 5477,
    "ë": 172,
    "joint": 24006,
    "evidently": 20344,
    "Ġdollar": 25283,
    "Ġploughing": 26259,
    "Ġgangs": 21606,
    "spr": 7436,
    "mechan": 11855,
    "Ġsubur": 12953,
    "Ġgum": 21592,
    "Ġplantation": 11423,
    "Ġmeanly": 12906,
    "steel": 8298,
    "fare": 7798,
    "countenances": 24150,
    "pequod": 7052,
    "regularly": 13207,
    "Ġwhether": 2001,
    "Ġesc": 2251,
    "Ġult": 9074,
    "Ġapproxim": 1216,
    "ais": 8070,
    "Ġtoller": 9090,
    "Ġwide": 4108,
    "icient": 796,
    "othing": 6995,
    "Ġquivers": 22410,
    "Ġapprehended": 26091,
    "mixed": 15393,
    "Ġknowledge": 1447,
    "Ġpresumed": 10544,
    "Ġbrand": 16185,
    "Ġsubmerged": 11870,
    "Ġmother": 2068,
    "Ġneat": 6999,
    "÷": 184,
    "Ġmistake": 6203,
    "Ġsta": 18062,
    "overcoat": 19051,
    "Ġcomfortless": 23910,
    "Ġcharacteristically": 23687,
    "Ġsickbed": 24246,
    "ese": 4444,
    "Ġnarrowly": 16820,
    "ioning": 21506,
    "ampl": 21839,
    "Ġdexterously": 25295,
    "Ġcogn": 11002,
    "Ġnods": 19062,
    "Ġsharp": 2414,
    "Ġamounted": 18513,
    "ges": 2875,
    "originally": 24937,
    "Ġmetropol": 11145,
    "prairies": 20565,
    "arrived": 12606,
    "Ġappro": 643,
    "Ġlandlessness": 23378,
    "Ġknitting": 24218,
    "fate": 17539,
    "Ġrent": 11638,
    "Ġnook": 15927,
    "pening": 2831,
    "rogress": 21533,
    "pleased": 8853,
    "Ġnomine": 26456,
    "vessels": 10625,
    "wart": 17705,
    "bout": 20772,
    "Ġcomo": 21851,
    "Ġfulfilled": 11362,
    "Ġentic": 16146,
    "Ġembattled": 26289,
    "mospheric": 17091,
    "Ġsurround": 4617,
    "forming": 15914,
    "Ġdictionary": 15111,
    "Ġprize": 11946,
    "may": 3677,
    "Ġtigers": 25758,
    "Ġvenge": 5420,
    "senses": 25022,
    "Ġmonogra": 22977,
    "armed": 7251,
    "Ġconsole": 8150,
    "stranger": 9882,
    "Ġbaleful": 24982,
    "Ġtall": 4039,
    "Ġbind": 12579,
    "Ġresponsiveness": 2901,
    "Ġascertain": 9705,
    "Ġbasics": 13447,
    "Ġfootmarks": 19336,
    "Ġbaff": 10799,
    "ulged": 12727,
    "Ġdisgracing": 26255,
    "Ġcur": 1245,
    "Ġpian": 13916,
    "Ġcombinations": 22869,
    "Ġcomely": 21852,
    "erted": 7361,
    "obey": 11509,
    "Ġfads": 21414,
    "Ġjudged": 12081,
    "rising": 7557,
    "Ġungod": 22021,
    "Ġinnocent": 4921,
    "Ġinstigated": 18700,
    "Ġsplendour": 20223,
    "organ": 15572,
    "rarely": 21631,
    "Ġfills": 12591,
    "aggo": 5097,
    "Ġpledge": 11600,
    "precip": 14664,
    "Ġmice": 13858,
    "inclined": 10639,
    "poss": 4778,
    "Ġgallons": 14816,
    "Ġgasping": 17038,
    "Ġpurchas": 19873,
    "Ġunfelt": 24110,
    "riptions": 14793,
    "Ġdecomposition": 5342,
    "Ġfeel": 1260,
    "Ġcarter": 18900,
    "stating": 21644,
    "Ġhoof": 23351,
    "headed": 4319,
    "Ġbull": 7839,
    "congratulations": 20278,
    "contempl": 13190,
    "oped": 6046,
    "ease": 12455,
    "legra": 10789,
    "Ġsoul": 2725,
    "Ġhalf": 1671,
    "Ġtarpaul": 17730,
    "Ġdeftly": 26493,
    "Ġaries": 21196,
    "Ġhints": 8429,
    "corner": 13396,
    "Ġbarber": 23788,
    "ever": 1077,
    "etwork": 440,
    "Ġmanned": 9270,
    "Ġtower": 8318,
    "saving": 21058,
    "Ġwilling": 7421,
    "Ġhospitable": 17059,
    "Ġsumatra": 15285,
    "Ġveter": 15810,
    "Ġeating": 8135,
    "Ġbandaged": 16842,
    "Ġentreating": 24207,
    "Ġsigns": 2445,
    "Ġsuckling": 25997,
    "mate": 5358,
    "Ġdisinclined": 22526,
    "Ġspite": 4155,
    "Ġscream": 5934,
    "consciously": 19624,
    "flitted": 23966,
    "Ġsaith": 14155,
    "page": 13770,
    "mason": 17603,
    "Ġinfirmity": 26298,
    "imly": 12684,
    "sander": 11526,
    "Ġspl": 2986,
    "Ġliberty": 7761,
    "Ġquickly": 4240,
    "Ġsort": 1507,
    "stood": 4116,
    "undant": 14790,
    "returning": 12203,
    "uish": 5431,
    "urg": 8141,
    "Ġdeity": 18134,
    "Ġprint": 18970,
    "Ġarrog": 18344,
    "pocket": 9808,
    "Ġdirty": 9178,
    "understand": 1116,
    "Ġextinguish": 14338,
    "Ġplump": 14281,
    "Ġcarpenters": 16752,
    "Ġpractices": 19055,
    "Ġminim": 1324,
    "!âĢĶ": 2456,
    "Ġmole": 11789,
    "Ġstrainings": 24627,
    "Ġstature": 10863,
    "Ġstud": 1542,
    "heim": 17746,
    "Ġoptimizer": 5036,
    "clu": 20798,
    "Ġinvestigated": 25386,
    "Ġfortun": 4982,
    "Ġangrily": 9406,
    "Ġought": 3420,
    "violets": 23542,
    "wilful": 25086,
    "caus": 11476,
    "prov": 16422,
    "Ġunreasoning": 15845,
    "Ġeighteenth": 14753,
    "pause": 12498,
    "erial": 4631,
    "Ġsyn": 15912,
    "ivates": 18282,
    "growing": 13732,
    "idual": 1566,
    "Ġwithout": 1124,
    "hed": 670,
    "Ġledgers": 23935,
    "Ġ85": 24460,
    "elijah": 19471,
    "tribute": 21087,
    "Ġautumn": 14498,
    "nikin": 23239,
    "Ġplaited": 14282,
    "Ġburying": 19251,
    "Ġsub": 950,
    "apt": 731,
    "Ġspouter": 12795,
    "Ġeat": 4643,
    "didn": 9006,
    "Ġnervous": 2404,
    "Ġengineering": 3026,
    "Ġdiffusion": 23781,
    "Ġfought": 12590,
    ".]": 15297,
    "wherever": 13117,
    "Ġuntil": 2668,
    "Ġgentle": 1890,
    "scotland": 20527,
    "Ġhelplessness": 25071,
    "Ġbattalions": 25776,
    "Ġcetacea": 20552,
    "Ġingolstadt": 8332,
    "claims": 25319,
    "istry": 22106,
    "articulate": 17397,
    "Ġreaching": 7303,
    "Ġdepicting": 22605,
    "Ġ129": 24474,
    "arse": 7160,
    "tu": 12509,
    "Ġincorrect": 2728,
    "reputable": 15517,
    "Ġacre": 22678,
    "rudence": 7092,
    "exercise": 17459,
    "angling": 14139,
    "Ġneeded": 7717,
    "icate": 9201,
    "desire": 14475,
    "Ġgrievances": 20647,
    "ullo": 12726,
    "Ġtold": 2183,
    "Ġobviously": 16810,
    "Ġbleak": 10558,
    "Ġproceedings": 9906,
    "Ġconquer": 14026,
    "Ġgently": 7171,
    "Ġunerringly": 18268,
    "itating": 9650,
    "ras": 21035,
    "Ġneatness": 19931,
    "hope": 5989,
    "Ġseries": 7060,
    "ilt": 2971,
    "Ġindefinite": 17176,
    "Ġintrusion": 12762,
    "Ġdespised": 14666,
    "Ġefforts": 11805,
    "rals": 21041,
    "Ġhorner": 8958,
    "Ġindependence": 12102,
    "lest": 5288,
    "bitts": 26122,
    "metals": 24766,
    "Ġinformed": 6717,
    "Ġworld": 1601,
    "Ġglobules": 26588,
    "Ġcharcoal": 19007,
    "Ġramadan": 9575,
    "Ġcontrive": 16009,
    "Ġsplintered": 11418,
    "Ġthinker": 22808,
    "Ġmicrosc": 20675,
    "Ġactual": 3736,
    "itive": 6668,
    "imony": 12687,
    "insula": 23063,
    "idually": 21766,
    "arrow": 4178,
    "gard": 7339,
    "Ġbert": 4582,
    "Ġprudential": 17919,
    "certain": 3674,
    "term": 3759,
    "Ġdarcy": 1342,
    "Ġpince": 21469,
    "Ġriddles": 16732,
    "agra": 14065,
    "Ġjuicy": 25370,
    "Ġgentleman": 3040,
    "transformers": 8714,
    "Ġcontain": 1558,
    "Ġalps": 10870,
    "lovel": 22507,
    "handkerchief": 14617,
    "olstad": 7611,
    "Ġmisty": 16538,
    "cence": 9588,
    "some": 2234,
    "Ġomnipotent": 13547,
    "Ġloose": 4648,
    "handed": 7482,
    "attached": 11933,
    "but": 592,
    "ples": 6845,
    "Ġvectors": 1775,
    "Ġiii": 7860,
    "Ġsomething": 1797,
    "Ġburn": 3681,
    "pth": 2379,
    "secut": 7866,
    "Ġwoll": 21292,
    "over": 1844,
    "calculation": 25688,
    "Ġtowed": 11265,
    "Ġessex": 20125,
    "Ġopp": 2696,
    "Ġeloped": 22643,
    "Ġ87": 19709,
    "fre": 5425,
    "Ġhunter": 5401,
    "Ġworsted": 19993,
    "Ġbenediction": 18784,
    "Ġoutrageous": 20609,
    "Ġreplying": 19580,
    "ucy": 15444,
    "verest": 13990,
    "oars": 9614,
    "Ġcrumb": 16440,
    "quick": 6400,
    "Ġheavily": 6740,
    "Ġcir": 21339,
    "minded": 9037,
    "ula": 2825,
    "july": 20473,
    "Ġnothing": 1357,
    "Ġaccurately": 4247,
    "Ġpikes": 21476,
    "Ġgleaming": 24993,
    "cable": 20796,
    "Ġhumiliation": 16198,
    "Ġroads": 13287,
    "Ġinterrupted": 6343,
    "Ġsaturday": 6452,
    "rence": 5555,
    "yl": 7818,
    "Ġtoy": 15632,
    "diligence": 26110,
    "satisfied": 10578,
    "anges": 1676,
    "Ġequilibrium": 4140,
    "Ġplata": 25117,
    "Ġpunctures": 25133,
    "inkles": 7426,
    "solitary": 14508,
    "itively": 21329,
    "Ġmagician": 25058,
    "Ġstraw": 9428,
    "Ġgirdled": 19157,
    "Ġannesley": 19576,
    "Ġagreeably": 24952,
    "ocation": 14626,
    "odes": 18119,
    "Ġgathered": 8442,
    "tra": 4934,
    "Ġdetest": 8500,
    "aried": 10987,
    "Ġago": 3138,
    "Ġvoyage": 3055,
    "Ġrelinquish": 17346,
    "Ġstones": 9221,
    "Ġsilly": 7685,
    "Ġtraveller": 8048,
    "court": 7511,
    "Ġappearances": 10451,
    "Ġcustomary": 8669,
    "estic": 4956,
    "Ġtinge": 25087,
    "places": 7876,
    "Ġlistless": 16476,
    "Ġawful": 6199,
    "delight": 5344,
    "Ġbackpropagation": 1281,
    "Ġcastaways": 19426,
    "Ġpagan": 7117,
    "Ġremained": 3144,
    "illed": 2624,
    "Ġtattered": 21170,
    "Ġ39": 19488,
    "Ġridicule": 13511,
    "Ġrom": 4525,
    "principal": 20659,
    "100": 11464,
    "Ġerad": 25028,
    "Ġbarrels": 9435,
    "urpr": 2285,
    "Ġopine": 19227,
    "individual": 18436,
    "Ġspake": 18308,
    "Ġchiswick": 25560,
    "iastic": 12477,
    "Ġdreams": 7496,
    "ors": 855,
    "visitors": 13347,
    "Ġtriumph": 5143,
    "les": 1017,
    "Ġsnuff": 7991,
    "Ġthirty": 4944,
    "Ġstop": 2502,
    "Ġencounter": 6627,
    "Ġarom": 15492,
    "Ġbrass": 11048,
    "Ġfunction": 584,
    "avoid": 9304,
    "setting": 13284,
    "proceeding": 20140,
    "extrem": 18708,
    "Ġstared": 8454,
    "Ġannihilation": 15164,
    "Ġwheeled": 14138,
    "Ġconception": 10313,
    "Ġheld": 3585,
    "earth": 6502,
    "Ġhabits": 6926,
    "Ġsolar": 22883,
    "Ġunc": 2125,
    "Ġrack": 9311,
    "Ġaggreg": 12881,
    "Ġmanip": 8871,
    "rians": 21922,
    "Ġcandelabra": 26602,
    "knowledge": 7478,
    "Ġeconomy": 17200,
    "ually": 2769,
    "sal": 8757,
    "doubted": 17526,
    "Ġdissipate": 13632,
    "ootiful": 17372,
    "Ġtoe": 13935,
    "pless": 6260,
    "Ġfrowning": 13622,
    "Ġwithheld": 18114,
    "Ġindies": 22948,
    "Ġraft": 16114,
    "iverse": 13114,
    "bond": 17489,
    "Ġprocessing": 879,
    "59": 17473,
    "Ġonce": 1492,
    "Ġslanting": 23170,
    "Ġaversion": 18866,
    "Ġdrawers": 12103,
    "Ġoffending": 22739,
    "Ġgrunt": 18736,
    "Ġberries": 13406,
    "Ġimage": 3404,
    "swear": 16918,
    "oded": 11668,
    "Ġcoldly": 14650,
    "Ġstirred": 12215,
    "Ġtapped": 11553,
    "Ġdanish": 21429,
    "Ġsides": 4579,
    ".;": 20743,
    "Ġfast": 1721,
    "blubber": 15235,
    "Ġafresh": 18627,
    "Ġcensure": 15094,
    "Ġunivers": 2126,
    "surf": 24212,
    "Ġrelish": 14383,
    "Ġbakers": 17866,
    "Ġfrankness": 16746,
    "material": 13128,
    "tawn": 21079,
    "mangled": 20980,
    "Ġlitter": 19828,
    "Ġlicense": 20089,
    "Ġreminds": 13430,
    "ma": 1151,
    "circumspect": 26086,
    "Ġproof": 6153,
    "Ġdut": 2990,
    "Ġcurls": 22967,
    "Ġlasted": 11053,
    "xic": 9145,
    "Ġxlix": 25860,
    "Ġstream": 5186,
    "Ġfierc": 18713,
    "Ġmarshalled": 25315,
    "superstitious": 17280,
    "Ġduties": 6609,
    "Ġcalmness": 12090,
    "Ġinclination": 6623,
    "smote": 23907,
    "Ġsacri": 18328,
    "widely": 25343,
    "gallant": 7780,
    "Ġnantucket": 2837,
    "quod": 2164,
    "Ġdesponding": 25868,
    "Ġsir": 1577,
    "Ġcivilly": 19602,
    "Ġintensified": 17018,
    "Ġdoxology": 22241,
    "confined": 24332,
    "culine": 19063,
    "Ġhatch": 7847,
    ".*": 7331,
    "roar": 17952,
    "Ġcarav": 18901,
    "Ġcontrol": 13078,
    "Ġlouder": 13467,
    "iest": 4037,
    "rons": 21038,
    "het": 5435,
    "Ġimpelling": 22382,
    "Ġdetective": 14410,
    "Ġthe": 270,
    "Ġsally": 15502,
    "ements": 11107,
    "Ġtart": 12525,
    "Ġbenches": 18781,
    "tern": 4222,
    "Ġdetached": 10279,
    "Ġlysander": 13138,
    "Ġ=": 1073,
    "jointed": 24007,
    "wedding": 13370,
    "Ġfleeting": 19326,
    "dra": 3414,
    "Ġsmooth": 2778,
    "Ġapologizing": 25197,
    "likewise": 13104,
    "Ġstowing": 18071,
    "Ġsayest": 22773,
    "Ġfrayed": 23277,
    "rael": 21626,
    "izing": 1063,
    "Ġjar": 15949,
    "iety": 2817,
    "Ġinstant": 2703,
    "mistress": 14904,
    "Ġghostliness": 24651,
    "Ġassisted": 11110,
    "contin": 16542,
    "Ġdelay": 5748,
    "Ġsoapstone": 20509,
    "Ġdz": 4756,
    "oce": 10714,
    "Ġmethod": 1457,
    "Ġupward": 9720,
    "Ġyears": 1892,
    "Ġextant": 18694,
    "Ġoverjoyed": 17457,
    "Ġdenied": 9000,
    "Ġhonourable": 10456,
    "Ġtattoo": 7359,
    "Ġsparkled": 13461,
    "Ġchallenges": 13629,
    "Ġtransom": 22435,
    "Ġjudges": 14685,
    "pride": 11210,
    "Ġpredicting": 2416,
    "olence": 10229,
    "Ġnonce": 23233,
    "movable": 14323,
    "Ġtribes": 20479,
    "bies": 15311,
    "Ġoffer": 4843,
    "fer": 1963,
    "entire": 6824,
    "Ġunfold": 8022,
    "affrail": 11205,
    "Ġpunctual": 17137,
    "known": 3568,
    "Ġthreads": 13116,
    "Ġafraid": 3530,
    "Ġcreativity": 3119,
    "Ġequals": 4727,
    "Ġhemisphere": 26478,
    "Ġspitz": 14148,
    "riety": 12741,
    "Ġlizard": 12651,
    "scales": 22993,
    "Ġbedside": 19121,
    "Ġglimmer": 15140,
    "Ġdestabilizing": 5053,
    "Ġstay": 3094,
    "thickness": 25367,
    "Ġfuneral": 10282,
    "Ġfearful": 6197,
    "Ġmechanisms": 1583,
    "igin": 3654,
    "Ġtempered": 12920,
    "Ġfootfall": 14661,
    "surpr": 5996,
    "Ġjustify": 11072,
    "scoured": 22992,
    "apprehens": 17405,
    "Ġnightmare": 18919,
    "sembled": 7263,
    "Ġwhel": 15865,
    "Ġinsolence": 20252,
    "Ġlives": 4825,
    "Ġthence": 8881,
    "dataset": 23245,
    "enorm": 17781,
    "grampus": 18617,
    "Ġreiterating": 26474,
    "high": 6649,
    "opol": 12869,
    "unnatural": 15771,
    "Ġadjusting": 3413,
    "Ġworry": 18815,
    "Ġmaimed": 21315,
    "Ġprovoke": 14825,
    "Ġrecovered": 5481,
    "Ġfinest": 10392,
    "meanwhile": 10609,
    "Ġdomes": 23717,
    "Ġbend": 9170,
    "Ġtantalizing": 20412,
    "Ġcruisers": 25863,
    "arians": 18526,
    "Ġtaffrail": 15476,
    "Ġmillions": 11354,
    "olerable": 7182,
    "Ġretort": 23067,
    "Ġcirculating": 23371,
    "Ġparents": 6752,
    "Ġim": 475,
    "Ġreciprocating": 26369,
    "Ġnewcomers": 26041,
    "Ġstars": 6149,
    "Ġmisunderstood": 18707,
    "Ġfel": 1518,
    "sailor": 14714,
    "els": 1767,
    "grasping": 20638,
    "Ġrocky": 13386,
    "Ġwester": 25152,
    "Ġsolicited": 20035,
    "midnight": 14901,
    "Ġharshly": 25249,
    "rem": 1523,
    "Ġassailants": 20447,
    "½": 126,
    "ĠĠĠĠĠĠĠĠĠĠĠĠĠĠĠĠĠĠĠĠĠĠĠĠĠĠĠĠĠĠĠĠĠĠĠĠĠĠ": 16525,
    "Ġdirectly": 2105,
    "Ġalgorith": 563,
    "Ġpreface": 18367,
    "Ġtension": 13823,
    "una": 21866,
    "Ġencouragement": 13040,
    "guilty": 19481,
    "atus": 21259,
    "cle": 3954,
    "ĠĠĠĠĠĠĠĠĠĠĠĠĠĠĠĠĠĠĠĠĠĠĠĠĠĠĠĠĠ": 19698,
    "Ġmould": 6519,
    "Ġdon": 1616,
    "chemical": 23807,
    "furnished": 20240,
    "Ġwhistling": 19789,
    "boys": 13358,
    "Ġembatt": 18851,
    "Ġeverybody": 4511,
    "prove": 11147,
    "Ġlap": 8436,
    "Ġapparelled": 20435,
    "offer": 19060,
    "aver": 6785,
    "recurrent": 4994,
    "caut": 20811,
    "Ġelevation": 14898,
    "Ġalchemists": 26487,
    "Ġfrolic": 23921,
    "posted": 24635,
    "Ġgoney": 14545,
    "Ġdolph": 12378,
    "Ġabrid": 22269,
    "iza": 6255,
    "Ġmeanest": 12907,
    "ashions": 16417,
    "Ġpacifics": 24373,
    "Ġestablishment": 13578,
    "Ġ45": 14769,
    "veh": 12676,
    "Ġsuffers": 2976,
    "mult": 8747,
    "Ġcarted": 21347,
    "Ġsermon": 12374,
    "Ġknotted": 17019,
    "ognit": 19181,
    "ougher": 18281,
    "Ġmorcar": 13012,
    "Ġcovari": 2336,
    "Ġhail": 7400,
    "Ġ19": 6719,
    "iony": 9191,
    "Ġenjoined": 18191,
    "Ġmutable": 23952,
    "lege": 17841,
    "gabriel": 15359,
    "Ġpostp": 12141,
    "Ġkeels": 11061,
    "necessarily": 19630,
    "Ġlads": 8596,
    "Ġah": 5075,
    "Ġdy": 2650,
    "purposes": 25021,
    "books": 8663,
    "Ġflows": 13007,
    "Ġfleet": 9431,
    "Ġsunlight": 13083,
    "Ġhonest": 7287,
    "Ġplainpal": 19276,
    "bitter": 11240,
    "Ġjoll": 11763,
    "Ġdriver": 16474,
    "Ġmic": 17797,
    "min": 4571,
    "ercely": 12547,
    "provid": 11149,
    "Ġpregnant": 26535,
    "Ġhighly": 4844,
    "Ġhour": 1812,
    "Ġceiling": 7996,
    "onent": 21247,
    "murdered": 12200,
    "Ġfettered": 24568,
    "voc": 8393,
    "Ġcleaned": 23183,
    "supposing": 24134,
    "compassion": 12366,
    "Ġvoy": 2620,
    "fair": 10092,
    "Ġhit": 7163,
    "Ġplayful": 19236,
    "Ġpoisonous": 24887,
    "Ġpagoda": 19787,
    "Ġcompute": 2909,
    "Ġtoil": 6531,
    "Ġconcealment": 16914,
    "Ġacquainted": 5179,
    "toss": 22563,
    "Ġpicking": 11259,
    "Ġhowl": 12852,
    "op": 657,
    "omit": 13973,
    "Ġuncomfortable": 8485,
    "Ġhazard": 20430,
    "urities": 18048,
    "death": 6261,
    "ouring": 6420,
    "Ġloveliest": 20260,
    "Ġfurled": 22811,
    "Ġshivering": 10265,
    "Ġhabitation": 14801,
    "Ġundertone": 23238,
    "uniform": 18157,
    "Ġgordon": 26467,
    "Ġpregn": 22229,
    "Ġwidow": 8662,
    "Ġtracks": 18891,
    "pherd": 13643,
    "Ġmiracle": 15092,
    "crooked": 25746,
    "inforcement": 3172,
    "Ġinfants": 16363,
    "į": 240,
    "Ġhobbling": 25644,
    "Ġjoes": 19230,
    "nelson": 25620,
    "transp": 24512,
    "speechless": 25395,
    "Ġtwelfth": 22675,
    "Ġoverwrites": 5033,
    "Ġvalley": 5850,
    "Ġsoap": 14130,
    "barn": 17482,
    "Ġentreat": 4510,
    "read": 3276,
    "Ġcloset": 19590,
    "Ġtasselled": 25921,
    "spoken": 11861,
    "Ġpeering": 8534,
    "Ġserpent": 6737,
    "Ġstuck": 9220,
    "uncle": 8158,
    "Ġprofile": 16488,
    "december": 25558,
    "inkling": 16089,
    "reserved": 13842,
    "Ġcarbuncle": 14444,
    "hearse": 17748,
    "Ġscrupled": 25049,
    "Ġhonestly": 19970,
    "Ġnast": 15637,
    "Ġmuscles": 12086,
    "ĠâĢĻ": 3043,
    "matical": 13127,
    "Ġtiny": 11552,
    "eminently": 25105,
    "Ġsentences": 2682,
    "Ġreefed": 20301,
    "Ġhill": 5626,
    "Ġraging": 14305,
    "carte": 25400,
    "Ġinternal": 2244,
    "Ġanatomy": 12318,
    "Ġgreenwich": 19320,
    "Ġur": 5540,
    "ked": 5616,
    "ugues": 19026,
    "Ġrivers": 9441,
    "derment": 22158,
    "Ġemployer": 19430,
    "ones": 2742,
    "Ġcumulative": 4209,
    "Ġfisheries": 17437,
    "Ġworth": 4417,
    "Ġcarving": 14442,
    "Ġcompelled": 14265,
    "threaten": 25461,
    "Ġlearns": 2643,
    "Ġarrowy": 25469,
    "Ġimperfect": 13338,
    "Ġsuddenness": 23380,
    "dispute": 23497,
    "conclude": 24065,
    "Ġarchitect": 974,
    "nav": 17612,
    "Ġimproving": 1209,
    "wheeler": 16187,
    "particip": 23615,
    "upp": 10130,
    "Ġstr": 761,
    "cruise": 24841,
    "Ġ13": 6718,
    "Ġsilk": 11961,
    "Ġhaught": 10252,
    "Ġslain": 8953,
    "Ġsofas": 26223,
    "imod": 15708,
    "Ġbutterfly": 19908,
    "Ġindepend": 3666,
    "Ġfighting": 12195,
    "Ġ76": 24262,
    "ception": 6562,
    "particularly": 8339,
    "Ġslates": 11106,
    "Ġpersist": 16275,
    "Ġexploring": 4305,
    "enge": 21279,
    "strang": 11183,
    "Ġreduces": 2341,
    "apologizing": 26544,
    "90": 12430,
    "Ġinject": 2710,
    "seek": 8836,
    "Ġirregularly": 25323,
    "while": 2939,
    "Ġcruising": 6912,
    "Ġtissu": 25920,
    "Ġdepos": 11007,
    "tall": 17673,
    "relation": 19445,
    "Ġcreditor": 24290,
    "Ġduncan": 13460,
    "of": 769,
    "Ġspectre": 16630,
    "Ġwolves": 25934,
    "Ġlod": 4043,
    "Ġredden": 15692,
    "Ġupbraided": 26528,
    "imprudent": 14651,
    "Ġrefuse": 5739,
    "attempt": 9359,
    "Ġlivelihood": 24774,
    "Ġstark": 7390,
    "Ġorganizations": 12312,
    "Ġrubber": 22783,
    "Ġswelled": 11087,
    "Ġforty": 5719,
    "Ġdictionaries": 12338,
    "vell": 3958,
    "shows": 22443,
    "Ġlands": 6594,
    "induce": 22371,
    "Ġiteratively": 3058,
    "Ġpr": 1603,
    "Ġdl": 3377,
    "Ġbiscuit": 12586,
    "_.)": 7278,
    "Ġbanker": 8666,
    "Ġnominal": 15167,
    "ront": 15418,
    "Ġslop": 23160,
    "Ġwound": 4528,
    "idate": 21764,
    "aited": 12433,
    "cept": 553,
    "ite": 711,
    "Ġadequate": 20307,
    "Ġnoiselessly": 22854,
    "Ġchecking": 23285,
    "Ġoperations": 2296,
    "ĉ": 202,
    "gely": 10700,
    "rowsers": 8694,
    "isl": 21373,
    "Ġmiserably": 12945,
    "Ġpacific": 5153,
    "Ġappet": 9729,
    "Ġperches": 18449,
    "Ġsultry": 20287,
    "rote": 4592,
    "harpo": 4805,
    "Ġpaces": 13918,
    "Ġreward": 6144,
    "Ġpalace": 16690,
    "Ġmurderers": 16811,
    "frock": 20119,
    "Ġkn": 4546,
    "parameter": 3122,
    "ul": 371,
    "?âĢĶ": 3469,
    "gam": 10095,
    "Ġavert": 14424,
    "Ġtimid": 6345,
    "days": 7687,
    "Ġ94": 17717,
    "Ġexasperate": 20096,
    "cob": 10086,
    "onder": 3779,
    "Ġaffirmative": 15221,
    "mense": 4780,
    "solitude": 23296,
    "bonnet": 25742,
    "Ġproject": 5546,
    "Ġplucked": 15112,
    "Ġaustral": 12170,
    "Ġdescription": 7429,
    "Ġporing": 21465,
    "Ġaccounted": 10294,
    "Ġtuning": 3073,
    "haust": 5777,
    "imate": 4219,
    "Ġsymbol": 7716,
    "Ġperseverance": 13596,
    "Ġdealing": 14044,
    "Ġeucl": 24709,
    "iloqu": 11647,
    "Ġtask": 1310,
    "Ġwreath": 25936,
    "airing": 16176,
    "etting": 21577,
    "Ġsupplied": 8943,
    "Ġdimension": 3242,
    "Ġdelusion": 18974,
    "Ġblackstone": 23387,
    "Ġgrating": 14354,
    "curious": 10482,
    "Ġimputation": 22169,
    "faint": 17545,
    "Ġuniform": 2225,
    "Ġtrifles": 16951,
    "Ġretrogression": 26581,
    "Ġwreck": 7314,
    "Ġlofty": 6217,
    "tain": 558,
    "Ġdesk": 11904,
    "Ġrolled": 4430,
    "Ġcruellest": 19657,
    "Ġstifle": 18073,
    "Ġclinch": 18424,
    "Ġhos": 4942,
    "Ġsecrecy": 7316,
    "drop": 15336,
    "see": 3047,
    "deli": 15343,
    "Ġconfess": 3767,
    "rowing": 7930,
    "Ġneskye": 21528,
    "Ġspeaker": 19148,
    "sciss": 18857,
    "mitting": 17602,
    "remonstr": 23191,
    "Ġresume": 18565,
    "Ġimmut": 13296,
    "Ġgenteel": 19979,
    "Ġsatisfactory": 11192,
    "rix": 1581,
    "stairs": 5155,
    "Ġmocking": 24000,
    "Ġlawless": 19433,
    "Ġremark": 2146,
    "Ġimbedded": 18332,
    "descried": 11927,
    "onse": 21248,
    "dev": 7632,
    "Ġtract": 21164,
    "Ġsche": 1708,
    "convinced": 10622,
    "Ġpalm": 10513,
    "Ġcircumvent": 25064,
    "Ġontario": 26204,
    "Ġstamp": 7863,
    "Ġ91": 24589,
    "suddenly": 6493,
    "Ġrebell": 21666,
    "Ġcister": 13881,
    "nantucketer": 24972,
    "Ġsight": 2112,
    "laborers": 23913,
    "Ġmysteries": 11322,
    "season": 14033,
    "Ġswiss": 18881,
    "Ġbasket": 9572,
    "Ġforms": 6397,
    "cele": 21622,
    "Ġvancou": 22873,
    "haz": 17564,
    "plutarch": 21954,
    "Ġcreating": 2999,
    "thing": 1480,
    "Ġstubborn": 10416,
    "Ġclothed": 19605,
    "Ġmouldy": 14973,
    "Ġsauntering": 18327,
    "Ġlobsters": 13516,
    "Ġsuggestions": 24453,
    "Ġtransf": 22434,
    "Ġsublime": 8065,
    "Ġcalcul": 3636,
    "Ġalternately": 15031,
    "Ġwouldst": 18502,
    "su": 801,
    "Ġfamiliar": 5511,
    "Ġpalmy": 19497,
    "mistake": 24529,
    "Ġrecords": 12193,
    "Ġterrify": 19359,
    "Ġconcert": 11965,
    "atically": 2472,
    "Ġtorments": 13393,
    "Ġad": 445,
    ")âĢĶ": 20741,
    "pets": 17636,
    "Ġmort": 3461,
    "greg": 6647,
    "Ġconstrain": 2629,
    "Ġkingdom": 12017,
    "ured": 1655,
    "Ġdais": 24372,
    "united": 14059,
    "Ġfer": 5529,
    "Ġthey": 576,
    "Ġdegrees": 7294,
    "itation": 1784,
    "Ġlakes": 8130,
    "hideous": 25407,
    "Ġcrumpled": 16442,
    "hyena": 24252,
    "Ġhoars": 19075,
    "Ġexotic": 21829,
    "Ġtho": 21511,
    "Ġimprovements": 14512,
    "softened": 20408,
    "Ġsecre": 5493,
    "ruined": 18337,
    "Ġtorrents": 20054,
    "Ġintermission": 18589,
    "Ġbottle": 7490,
    "appin": 18759,
    "Ġretain": 7862,
    "Ġringleader": 26212,
    "Ġearn": 3547,
    "Ġchiefly": 5766,
    "Ġdent": 13905,
    "Ġtis": 15465,
    "wins": 21128,
    "custom": 15332,
    "corpse": 24486,
    "Ġloun": 7166,
    "atement": 17773,
    "eled": 2355,
    "rosings": 15642,
    "Ġcomprehensiveness": 25072,
    "ould": 428,
    "Ġmonth": 2850,
    "Ġunremitting": 26217,
    "Ġdisappearance": 9296,
    "report": 13398,
    "._": 3222,
    "Ġcleat": 18946,
    "Ġrequired": 7223,
    "Ġblessings": 24175,
    "simultaneously": 19863,
    "Ġ23": 13191,
    "unctuous": 21879,
    "icates": 11616,
    "Ġdemon": 7868,
    "thinking": 9013,
    "usually": 10284,
    "rences": 9271,
    "Ġelated": 18634,
    "oused": 6556,
    "Ġfab": 15574,
    "Ġarchangel": 8542,
    "Ġminima": 3465,
    "Ġexpatiate": 18625,
    "Ġsunrise": 9372,
    "numerous": 17430,
    "ieve": 1659,
    "Ġembell": 14415,
    "largely": 19573,
    "Ġcoars": 14270,
    "Ġblanched": 26282,
    "Ġavowed": 16633,
    "Ġapologize": 15127,
    "Ġtube": 15003,
[...]
