{
  "metadata": {
    "vocab_size": 26614,
    "algorithm": "BPE",
    "created_at": "2026-08-12 04:04:52",
    "special_tokens": [
      "<PAD>",
      "<SOS>",
      "<EOS>",
      "<UNK>",
      "<MASK>"
    ]
  },
  "vocab": {
    "ifix": 21900,
    "Ġlaboratory": 13610,
    "Ġdomestic": 6910,
    "©": 107,
    "Ġhelmeted": 19687,
    "³": 116,
    "Ġmaimed": 21315,
    "Ġneither": 3684,
    "cool": 19186,
    "Ġsav": 3357,
    "maul": 11888,
    "Ġpsalmody": 20583,
    "Ġjoint": 12032,
    "Ġfundamental": 3015,
    "ruit": 22174,
    "Ġbeget": 9225,
    "Ġrattle": 10899,
    "Ġclattering": 22361,
    "Ġessentially": 24924,
    "Ġfow": 6133,
    "Ġdistingu": 2518,
    "capitals": 25080,
    "thunder": 10262,
    "Ġlips": 3988,
    "Ġundue": 25993,
    "Ġreliable": 18776,
    "Ġrepentance": 15159,
    "Ġflukes": 5266,
    "precaution": 23820,
    "Ġpermit": 9748,
    "obser": 11099,
    "Ġvirt": 3903,
    "Ġunthinkingly": 26220,
    "Ġthoughts": 3136,
    "sect": 8152,
    "Ġyawning": 12298,
    "cross": 3574,
    "Ġcrawled": 17044,
    "Ġdetermine": 3241,
    "recurrent": 4994,
    "lege": 17841,
    "Ġstructural": 2801,
    "signs": 16539,
    "ina": 21178,
    "uments": 5552,
    "Ġsucceeded": 6105,
    "Ġcompiled": 22569,
    "Ġelij": 8908,
    "Ġprophet": 7680,
    "Ġlees": 18075,
    "Ġlimping": 23545,
    "Ġsome": 655,
    "Ġdeserve": 8308,
    "partiality": 13158,
    "Ġbordering": 17228,
    "Ġloos": 15869,
    "sombre": 23852,
    "talked": 14984,
    "Ġscheme": 7064,
    "ellig": 522,
    "pity": 17627,
    "Ġhighland": 18708,
    "Ġgod": 1938,
    "Ġflint": 23009,
    "tch": 9141,
    "Ġmeditative": 25014,
    "conve": 14243,
    "Ġwas": 370,
    "Ġstrove": 9956,
    "Ġcomprehensiveness": 25072,
    "embers": 21926,
    "Ġsmothe": 18573,
    "Ġability": 2766,
    "Ġbowlines": 19320,
    "Ġcrimson": 16440,
    "Ġtragic": 15254,
    "Ġoverseeing": 22350,
    "Ġdeceased": 15006,
    "Ġhailing": 11691,
    "sympathy": 20541,
    "Ġwarp": 8112,
    "acute": 22592,
    "Ġsuperglue": 23457,
    "Ġbaling": 17859,
    "Ġdozen": 8185,
    "Ġindividuality": 14908,
    "Ġattended": 5391,
    "Ġskirting": 22793,
    "Ġjew": 9467,
    "Ġ15": 9323,
    "touch": 8391,
    "Ġ2026": 12333,
    "Ġwreaths": 25937,
    "itzerland": 9994,
    "Ġalert": 18101,
    "extending": 22769,
    "Ġalt": 18098,
    "rudently": 16710,
    "Ġinsignificance": 20456,
    "Ġexcuse": 5861,
    "haps": 1671,
    "Ġdomes": 23658,
    "Ġtreacherous": 13552,
    "Ġjames": 6419,
    "pilot": 25908,
    "enorm": 17781,
    "Ġdirections": 1973,
    "Ġulster": 14997,
    "atmospheric": 17776,
    "Ġcircumspection": 25884,
    "Ġreach": 4044,
    "story": 9212,
    "Ġterribly": 10425,
    "whel": 7664,
    "icions": 21560,
    "Ġlamps": 14789,
    "Ġhealthy": 10851,
    "lowering": 16029,
    "ives": 1410,
    "Ġancestors": 25642,
    "Ġyoke": 18095,
    "Ġwest": 5219,
    "neighbouring": 19962,
    "Ġmile": 7151,
    "Ġsarat": 21226,
    "Ġcum": 21340,
    "activity": 22628,
    "Ġcarelessly": 11120,
    "brushing": 20787,
    "Ġjudge": 5502,
    "Ġunseasonable": 26520,
    "Ġfil": 3473,
    "Ġplunging": 14951,
    "Ġxerxes": 23409,
    "aculate": 16080,
    "gam": 10095,
    "Ġmeditation": 16680,
    "Ġuncomfortable": 8485,
    "Ġhyp": 3869,
    "Ġtradesman": 20071,
    "Ġblindly": 12107,
    "Ġpronounce": 16968,
    "hip": 8740,
    "cheon": 23802,
    "Ġridge": 14818,
    "Ġdecrease": 4196,
    "Ġrheum": 18214,
    "Ġseparately": 13300,
    "raltar": 24233,
    "dler": 13705,
    "Ġdeceive": 12720,
    "Ġshifted": 14106,
    "Ġwidower": 24235,
    "Ġbowing": 10475,
    "effect": 8603,
    "Ġconcisely": 19047,
    "commod": 16167,
    "Ġyouth": 4257,
    "Ġcrescent": 16135,
    "Ġtrod": 15026,
    "Ġpun": 4586,
    "Ġloitering": 22113,
    "Ġstarve": 24625,
    "scotland": 20527,
    "hosmer": 25902,
    "Ġstrand": 11826,
    "Ġchestnuts": 24381,
    "Ġrudimental": 25108,
    "Ġcontained": 7678,
    "Ġital": 10866,
    "retired": 11934,
    "mews": 22695,
    "Ġheedfully": 24521,
    "te": 994,
    "Ġenc": 965,
    "Ġapprehensiveness": 16877,
    "Ġdegenerating": 25799,
    "fel": 8733,
    "Ġprogressive": 5024,
    "Ġdozing": 22240,
    "Ġfates": 15575,
    "Ġsongs": 13418,
    "Ġostens": 25275,
    "wouldn": 23535,
    "-": 17,
    "Ġslang": 23157,
    "Ġvaried": 11846,
    "numbers": 17616,
    "Ġcontributed": 16007,
    "Ġsoapstone": 20509,
    "Ġop": 2604,
    "Ġmankind": 6698,
    "Ġfrog": 23918,
    "dy": 3858,
    "acc": 2537,
    "Ġconfirmation": 17210,
    "Ġmurderer": 4980,
    "ther": 483,
    "Ġfingers": 5672,
    "gracious": 11829,
    "Ġaspired": 25984,
    "Ġnominal": 15167,
    "uled": 11536,
    "publ": 17638,
    "Ġiteratively": 3057,
    "think": 3608,
    "erity": 21266,
    "Ġprendergast": 26537,
    "Ġlean": 7605,
    "yet": 3751,
    "though": 2116,
    "Ġinitialized": 3944,
    "Ġwaist": 6893,
    "Ġuniversally": 11998,
    "circled": 24187,
    "rate": 2424,
    "described": 18895,
    "Ġsentin": 16373,
    "resnet": 4067,
    "Ġ(`": 12851,
    "church": 8139,
    "Ġanx": 3177,
    "Ġtroubles": 19437,
    "confined": 24332,
    "enged": 23144,
    "viating": 14579,
    "Ġdarted": 4758,
    "Ġplanting": 16083,
    "Ġgeography": 23370,
    "Ġleech": 24152,
    "Ġvaluable": 5608,
    "tables": 19756,
    "told": 7811,
    "Ġeddy": 13121,
    "Ġadmin": 23552,
    "Ġfocuses": 8649,
    "Ġrascally": 26506,
    "arks": 2848,
    "pow": 10717,
    "Ġprivileges": 25132,
    "Ġoutrages": 18415,
    "Ġst": 332,
    "Ġlottery": 19887,
    "Ġspiritual": 9929,
    "Ġgrow": 2864,
    "Ġtough": 13814,
    "Ġimprudent": 12846,
    "Ġengage": 9334,
    "Ġdaw": 21427,
    "attempted": 20173,
    "Ġoutlast": 22310,
    "keep": 3847,
    "Ġdrab": 13068,
    "Ġslighted": 16567,
    "Ġmerit": 9426,
    "Ġtraitors": 23075,
    "Ġblotted": 20216,
    "raved": 18012,
    "Ġethere": 23948,
    "Ġspouting": 9438,
    "longing": 23725,
    "much": 3704,
    "hyme": 19608,
    "wonder": 6371,
    "eat": 11482,
    "glow": 20873,
    "forest": 22515,
    "Ġmysteriously": 24601,
    "Ġsmart": 11813,
    "turns": 14905,
    "quered": 11058,
    "hro": 20890,
    "Ġfelicity": 7260,
    "Ġparting": 9784,
    "Ġdefendants": 15139,
    "orter": 4251,
    "Ġinverted": 12635,
    "Ġshag": 9250,
    "Ġamiable": 4265,
    "Ġconcentric": 20073,
    "agues": 8160,
    "Ġcork": 12566,
    "Ġstubb": 1788,
    "Ġweb": 9239,
    "Ġyankees": 26201,
    "Ġcommitting": 22670,
    "Ġmodeling": 2095,
    "Ġsnuff": 7991,
    "Ġestimated": 16594,
    "Ġrighted": 23176,
    "Ġebony": 18008,
    "regulated": 23467,
    "Ġattraction": 18621,
    "Ġhappy": 2468,
    "Ġpaste": 23417,
    "foremost": 14252,
    "Ġscales": 4849,
    "fever": 22497,
    "Ġpassing": 4312,
    "Ġsometimes": 2168,
    "batross": 9092,
    "Ġoutstretched": 14195,
    "mped": 16647,
    "digger": 24310,
    "Ġeyel": 17096,
    "Ġreverber": 19868,
    "Ġsaint": 15506,
    "broker": 13302,
    "Ġhig": 754,
    "Ġstack": 21730,
    "¼": 125,
    "Ġscaling": 3630,
    "Ġgreater": 3037,
    "eneva": 5118,
    "practical": 17221,
    "oder": 2462,
    "bread": 10684,
    "Â": 131,
    "Ġinsult": 6747,
    "Ġwilson": 6629,
    "ridden": 24362,
    "Ġrigid": 16716,
    "Ġassoc": 6402,
    "Ġbaw": 15566,
    "Ġmove": 5107,
    "Ġdisplays": 19856,
    "oices": 7348,
    "izz": 7612,
    "Ġgidd": 25783,
    "Ġantip": 24176,
    "somerset": 26322,
    "probably": 10019,
    "Ġimmortality": 26325,
    "Ġprematurely": 24003,
    "Ġnobody": 6158,
    "lodged": 25907,
    "irement": 18355,
    "Ġeating": 8135,
    "Ġfonder": 17880,
    "Ġempires": 19075,
    "willing": 6592,
    "hereafter": 19216,
    "Ġpouch": 21467,
    "Ġdevil": 3612,
    "come": 2381,
    "Ġimpetuously": 20370,
    "Ġje": 4120,
    "Ġtend": 6120,
    "Ġmagn": 1553,
    "rously": 17654,
    "hopper": 23714,
    "Ġallev": 18100,
    "Ġdetermination": 9818,
    "hest": 3371,
    "Ġsleep": 2402,
    "perth": 22178,
    "Ġagitation": 6865,
    "Ġrampart": 20317,
    "Ġcivility": 4788,
    "Ġstriving": 8996,
    "Ġhue": 8428,
    "Ġbeckoning": 20500,
    "Ġobserving": 6080,
    "Ġen": 392,
    "Ġseparate": 5778,
    "ruff": 15893,
    "Ġwail": 21285,
    "Ġdeclines": 23960,
    "Ġabsurdly": 19958,
    "Ġshadowed": 24042,
    "Ġmince": 22827,
    "Ġquit": 5246,
    "Ġweather": 3993,
    "cules": 12389,
    "Ġportly": 14678,
    "Ġtide": 6658,
    "Ġelev": 5536,
    "Ġsauntering": 18327,
    "Ġord": 3733,
    "ath": 864,
    "Ġadjusting": 3413,
    "Ġdaniel": 15110,
    "Ġpulling": 5862,
    "Ġbreeze": 5681,
    "detained": 24382,
    "Ġiroquois": 26472,
    "metals": 24766,
    "incl": 8109,
    "Ġsmoke": 4715,
    ",âĢĶâĢľ": 10069,
    "Ġglobe": 6076,
    "Ġillum": 9399,
    "sworn": 24256,
    "belated": 24034,
    "Ġbreath": 4791,
    "Ġstraighten": 24001,
    "Ġjetted": 24431,
    "civility": 17513,
    "Ġstroke": 6936,
    "Ġmoonlight": 9957,
    "Ġclicked": 22362,
    "Ġambiguous": 20163,
    "Ġowen": 15093,
    "before": 3113,
    "hide": 10703,
    "Ġsheer": 14150,
    "handedness": 24920,
    "ĠĠĠĠĠĠĠĠĠĠĠĠĠĠĠĠĠĠĠĠĠĠĠĠ": 5321,
    "Ġr": 404,
    "Ġanatomical": 15075,
    "ino": 15478,
    "Ġcoach": 6867,
    "isle": 13891,
    "seem": 10227,
    "fourths": 25509,
    "Ġundersampling": 19517,
    "Ġcondescend": 19953,
    "Ġlifetime": 13600,
    "Ġemb": 1246,
    "Ġmartin": 25436,
    "Ġinexpressible": 17332,
    "Ġalche": 21780,
    "Ġpad": 8124,
    "Ġmaled": 21313,
    "latter": 15381,
    "Ġcha": 6853,
    "Ġshrieked": 9547,
    "Ġforeign": 9871,
    "infallibly": 26417,
    "Ġharvard": 24573,
    "Ġsong": 5902,
    "Ġdaft": 19662,
    "Ġdiscompose": 25579,
    "Ġbeckoned": 25793,
    "police": 10583,
    "Ġsunbeam": 23274,
    "Ġexpand": 9306,
    "ishnoo": 10955,
    "Ġgraze": 18226,
    "ville": 6087,
    "Ġwiser": 14729,
    "Ġbespeaking": 26310,
    "Ġindispensable": 11898,
    "Ġduchess": 4799,
    "aloft": 8806,
    "Ġmodest": 15913,
    "Ġmoluccas": 25629,
    "Ġunanswerable": 26521,
    "Ġknowest": 12861,
    "Ġuncouth": 14549,
    "Ġbackbone": 22656,
    "rise": 6226,
    "Ġslip": 8954,
    "pass": 4288,
    "visitor": 15057,
    "Ġdespondency": 16577,
    "Ġglades": 19370,
    "honest": 17003,
    "uc": 1878,
    "groom": 8739,
    "Ġdrug": 11410,
    "Ġgovernesses": 25127,
    "oglyph": 11016,
    "passage": 11261,
    "Ġripe": 13232,
    "Ġmoving": 1677,
    "prevailed": 17344,
    "Ġconcert": 11965,
    "deser": 10402,
    "itor": 12563,
    "Ġdepresses": 25797,
    "Ġgnawed": 25164,
    "Ġsupper": 4665,
    "?_": 8069,
    "turkish": 24533,
    "Ġwednesday": 9024,
    "aid": 1924,
    "wore": 21123,
    "Ġexhausted": 8693,
    "infidel": 24663,
    "impressed": 12689,
    "belt": 24032,
    "Ġsearch": 2592,
    "Ġdistributing": 22676,
    "Ġsupernatural": 9872,
    "Ġadmires": 19684,
    "Ġdialogue": 12402,
    "hampshire": 23263,
    "Ġtoiled": 12640,
    "ication": 966,
    "generous": 16568,
    "suspect": 9539,
    "Ġpost": 4269,
    "general": 7489,
    "imate": 4217,
    "Ġturkey": 19219,
    "Ġstanding": 3001,
    "eck": 20843,
    "ides": 2163,
    "Ġgallop": 19554,
    "rippa": 11341,
    "Ġencourag": 1394,
    "Ġfashioned": 13318,
    "Ġlitter": 19828,
    "Ġreclining": 26033,
    "Ġdespaired": 14668,
    "Ġtuesday": 9626,
    "Ġinflex": 20633,
    "long": 2917,
    "Ġspas": 10922,
    "inkling": 16088,
    "Ġcordon": 24394,
    "Ġwire": 13851,
    "ifies": 6686,
    "hereabouts": 23605,
    "Ġdodge": 19885,
    "Ġinterconnected": 1337,
    "Ġsakes": 18326,
    "Ġunconcerned": 20508,
    "tranquillity": 20545,
    "utored": 15660,
    "Ġbarbara": 24818,
    "Ġhorr": 3187,
    "rained": 5162,
    "bur": 4687,
    "tomahawk": 25915,
    "Ġcistern": 17380,
    "Ġbenediction": 18783,
    "Ġextremity": 8988,
    "Ġvapor": 8699,
    "Ġuncomp": 15839,
    "igin": 3654,
    "ouched": 4636,
    "dripping": 16905,
    "fully": 2203,
    "ruction": 4355,
    "Ġimprisonment": 22384,
    "Ġspeckled": 14308,
    "pad": 13767,
    "Ġduodecimo": 16767,
    "Ġfru": 8419,
    "distinctive": 25726,
    "erne": 21268,
    "Ġadroit": 26000,
    "ch": 321,
    "eous": 13711,
    "offensive": 16396,
    "Ġfo": 1652,
    "Ġdodo": 9072,
    "representativeness": 25272,
    "Ġfinishing": 23123,
    "Ġoverjoy": 15964,
    "Ġmushroom": 13233,
    "Ġparacels": 13666,
    "Ġgame": 3627,
    "securer": 25602,
    ":": 30,
    "Ġhighway": 14345,
    "majesty": 26280,
    "Ġspecimen": 13019,
    "Ġartist": 12910,
    "utes": 5913,
    "sk": 5521,
    "unders": 13308,
    "sebastian": 21817,
    "Ġcore": 13877,
    "odings": 4397,
    "Ġdraught": 9844,
    "Ġmermaids": 26170,
    "understood": 13214,
    "teenth": 11872,
    "Ġell": 17715,
    "absurd": 21792,
    "olets": 21007,
    "Ġso": 433,
    "Ġdownstream": 3772,
    "Ġ32": 19487,
    "ads": 5718,
    "hot": 8083,
    "pulled": 25145,
    "Ġbitter": 4169,
    "Ġlaure": 16909,
    "lascar": 20959,
    "Ġemma": 20693,
    "Ġcoincid": 20316,
    "Ġexamination": 8004,
    "Ġcruellest": 19657,
    "youngest": 19742,
    "posture": 16927,
    "scarcely": 12384,
    "urously": 18049,
    "Ġdashing": 8795,
    "Ġleviathanic": 12078,
    "flex": 24843,
    "Ġfry": 17879,
    "Ġsigma": 1538,
    "Ġbetter": 1173,
    "terrible": 8465,
    "Ġhosea": 17330,
    "Ġsilken": 16381,
    "Ġmisanthrop": 22756,
    "houn": 20892,
    "vil": 2734,
    "grampus": 18618,
    "visited": 13345,
    "Ġaccent": 10293,
    "Ġcraggy": 23529,
    "burnt": 20078,
    "Ġoft": 9194,
    "Ġmoles": 22431,
    "Ġtradesmen": 17105,
    "Ġduration": 20352,
    "macy": 18801,
    "guilty": 19481,
    "Ġembodied": 25846,
    "Ġbland": 11064,
    "Ġphiladelphia": 26604,
    "Ġdrought": 19277,
    "Ġdeclined": 9920,
    "Ġminded": 23229,
    "Ġwapping": 21293,
    "shaped": 10308,
    "Ġstuff": 5717,
    "Ġclear": 1951,
    "Ġspangled": 22132,
    "Ġcolouring": 16751,
    "omin": 4703,
    "dually": 3283,
    "fairly": 17219,
    "learn": 2143,
    "Ġsensible": 4976,
    "find": 6954,
    "Ġcapst": 8596,
    "too": 4504,
    "Ġabrupt": 9735,
    "Ġlizzie": 26462,
    "Ġclothe": 4712,
    "Ġesquimaux": 25150,
    "aimed": 3949,
    "Ġcreations": 18685,
    "darcy": 5208,
    "Ġdecide": 9285,
    "acetti": 13394,
    "Ġgro": 4394,
    "keys": 15856,
    "road": 6677,
    "Ġreported": 11978,
    "myself": 5113,
    "Ġsinned": 18950,
    "Ġbru": 13894,
    "Ġperseverance": 13595,
    "Ġquench": 22416,
    "Ġtells": 9360,
    "Ġigniting": 25070,
    "years": 6883,
    "Ġjewels": 12367,
    "cooee": 12416,
    "dashed": 12453,
    "berish": 22714,
    "Ġfielding": 16233,
    "unts": 12729,
    "Ġsmite": 22554,
    "orate": 10800,
    "rice": 13776,
    "Ġinsepar": 17933,
    "ocean": 12399,
    "practised": 20246,
    "harpoon": 9490,
    "separ": 9230,
    "Ġ1778": 25730,
    "Ġsafie": 6617,
    "Ġsinusoid": 4781,
    "receiving": 12540,
    "Ġasph": 21895,
    "mariners": 19547,
    "Ġpictured": 16622,
    "rapt": 13972,
    "Ġ116": 24440,
    "lower": 8880,
    "Ġservant": 5764,
    "herself": 4890,
    "kicked": 20942,
    "Ġelab": 22639,
    "Ġanonymous": 26178,
    "Ġcondesc": 7181,
    "Ġsm": 704,
    "Ġtomb": 8807,
    "rugg": 15894,
    "Ġcommentaries": 20159,
    "chant": 4254,
    "ne": 647,
    "Ġfunny": 7637,
    "Ġtwelvemonth": 12175,
    "does": 6194,
    "hunted": 16832,
    "Ġtwitch": 22673,
    "Ġtreated": 7080,
    "Ġfigure": 4202,
    "Ġdesignated": 19520,
    "rative": 17652,
    "Ġdir": 21419,
    "herent": 2533,
    "tail": 8761,
    "addressed": 13383,
    "Ġsoo": 15859,
    "Ġtormented": 8674,
    "Ġwanting": 6721,
    "aped": 3762,
    "Ġsimil": 2535,
    "mic": 12486,
    "roots": 15640,
    "Ġtucked": 12390,
    "Ġfisher": 3218,
    "Ġgallon": 24183,
    "Ġflashes": 11915,
    "Ġceremony": 8360,
    "Ġremnants": 22790,
    "upp": 10130,
    "Ġcandelab": 23846,
    "Ġcombinations": 22849,
    "hatherley": 17568,
    "Ġescaping": 13132,
    "Ġvicissitudes": 12417,
    "Ġsweetly": 23916,
    "ithing": 11648,
    "Ġsmoothe": 23654,
    "Ġpocket": 4898,
    "Ġerud": 20053,
    "seventy": 10876,
    "Ġmap": 2394,
    "Ġbizarre": 17871,
    "Ġrenders": 13279,
    "ĠĠĠĠĠĠĠĠĠĠĠĠĠĠĠĠĠĠĠĠĠĠĠĠĠĠĠĠĠĠĠĠĠĠĠĠĠĠĠĠĠĠĠĠ": 12151,
    "Ġunnearable": 26516,
    "Ġsway": 7571,
    "gree": 10701,
    "mature": 20966,
    "Ġgarnery": 17386,
    "Ġdizzy": 21430,
    "Ġeuroclydon": 15295,
    "harpooneers": 8689,
    "Ġproportional": 2529,
    "unity": 4148,
    "aces": 2069,
    "Ġtimor": 24224,
    "playful": 24357,
    "Ġappo": 8498,
    "za": 13809,
    "Ġinterference": 8893,
    "Ġbelieving": 8224,
    "Ġfinal": 5400,
    "armed": 7251,
    "Ġlikelihood": 16500,
    "Ġdust": 5908,
    "Ġsucked": 14130,
    "Ġsally": 15501,
    "crow": 9590,
    "bering": 18680,
    "nurtured": 25524,
    "Ġflowed": 10371,
    "Ġconfusing": 23306,
    "Ġindies": 22948,
    "gences": 20876,
    "Ġjoyously": 19345,
    "Ġquadru": 16001,
    "Ġla": 5912,
    "necessary": 5881,
    "athan": 2961,
    "Ġboisterous": 20441,
    "se": 358,
    "Ġpike": 12621,
    "generally": 9434,
    "Ġmedicine": 15204,
    "Ġphiladel": 23883,
    "Ġdelight": 2551,
    "Ġnortheast": 23199,
    "laden": 14928,
    "Ġfarther": 5954,
    "Ġdecorated": 22442,
    "pton": 15789,
    "Ġtelegram": 15222,
    "mushroom": 26395,
    "Ġabove": 2940,
    "Ġversion": 10629,
    "homage": 25616,
    "Ġlightly": 13082,
    "ĠĠĠĠĠĠĠĠĠĠĠĠĠĠĠĠĠĠĠĠĠĠĠĠĠĠĠĠĠĠĠĠĠĠĠĠ": 23665,
    "Ġscroll": 14191,
    "Ġadvers": 4887,
    "Ġcompares": 20165,
    "Ġfeed": 2127,
    "contracting": 19292,
    "utely": 8131,
    "uish": 5431,
    "Ġphantoms": 13484,
    "spouter": 22733,
    "Ġinequalities": 26453,
    "Ġpie": 13914,
    "Ġprivile": 8645,
    "zwilliam": 5074,
    "Ġarmy": 11739,
    "ique": 8742,
    "Ġsuperlatively": 26075,
    "Ġendeavours": 8617,
    "ernally": 22616,
    "Ġlangu": 574,
    "Ġtrepidation": 19215,
    "Ġexposed": 8522,
    "writ": 16553,
    "itud": 2935,
    "Ġmeanings": 18607,
    "Ġgown": 10201,
    "Ġengra": 7873,
    "##": 2320,
    "Ġcottages": 14726,
    "Ġdisclosed": 15152,
    "Ġsettee": 22916,
    "Ġvariously": 18653,
    "Ġgrowth": 14629,
    "barr": 15319,
    "pick": 17634,
    "=": 33,
    "Ġdre": 1742,
    "Ġregularity": 22758,
    "penny": 22941,
    "Ġfluttered": 16248,
    "work": 1645,
    "crippled": 26384,
    "Ġgrasshopper": 24380,
    "banish": 20781,
    "Ġupward": 9720,
    "ĠâĢľ": 516,
    "wes": 17703,
    "Ġwonderland": 23423,
    "Ġreveren": 13193,
    "Ġinterrupted": 6343,
    "Ġsafely": 9025,
    "Ġtransitory": 16016,
    "Ġbast": 21377,
    "iar": 2382,
    "Ġjog": 18404,
    "keen": 12780,
    "fishery": 10031,
    "aits": 20765,
    "Ġhighlands": 22765,
    "Ġspont": 22128,
    "Ġmultiplication": 2876,
    ".}": 20744,
    "resembled": 21245,
    "irts": 9237,
    "Ġbefell": 14009,
    "Ġincarnate": 20373,
    "Ġinstantaneously": 23656,
    "Ġmasoned": 20250,
    "bber": 4566,
    "inuating": 16201,
    "gal": 15354,
    "Ġjenny": 20161,
    "Ġcommissionaire": 17000,
    "Ġbeeches": 9226,
    "Ġoutward": 7903,
    "trop": 15435,
    "Ġassistant": 7298,
    "Ġendowed": 18924,
    "Ġinquiries": 5678,
    "Ġresemblance": 7976,
    "ient": 394,
    "Ġwhip": 8451,
    "Ġauger": 21202,
    "Ġindef": 9189,
    "tained": 4403,
    "Ġfavourites": 16644,
    "Ġmob": 16015,
    "ĠlinnÃ¦us": 15274,
    "Ġtransom": 22435,
    "Ġlimit": 10443,
    "arab": 21439,
    "Ġcorroboration": 26052,
    "ignified": 14491,
    "tap": 17676,
    "Ġmilky": 9946,
    "Ġmagician": 25058,
    "fishing": 20858,
    "Ġimpute": 18332,
    "bidden": 19736,
    "Ġgreenness": 23766,
    "produced": 25414,
    "Ġtow": 4393,
    "profound": 16424,
    "vens": 21111,
    "Ġcuring": 21342,
    "inence": 15480,
    "movable": 14323,
    "point": 6062,
    "Ġhoky": 17926,
    "Ġnomine": 26456,
    "Ġoverwhelming": 17102,
    "expanded": 23664,
    "ogr": 18670,
    "frau": 15088,
    "Ġfold": 5531,
    "Ġindia": 10370,
    "Ġsir": 1568,
    "Ġsick": 4693,
    "anned": 17839,
    "Ġadv": 1122,
    "Ġmanaged": 7905,
    "Ġtitle": 11408,
    "Ġnuts": 17951,
    "wreat": 21126,
    "vo": 11539,
    "frame": 17116,
    "Ġexpiration": 22622,
    "aways": 15309,
    "Ġconsort": 18723,
    "pshaw": 21027,
    "Ġlingo": 24903,
    "Ġjanuary": 13651,
    "Ġdeliberately": 10624,
    "Ġsurv": 6081,
    "Ġsign": 2498,
    "fen": 20849,
    "guarded": 13292,
    "Ġredness": 19310,
    "Ġwounding": 19585,
    "gul": 12463,
    "Ġrendering": 16657,
    "cook": 8269,
    "glimmer": 26321,
    "article": 22397,
    "Ġquarter": 3973,
    "Ġcologne": 13661,
    "Ġcalendar": 18876,
    "Ġspiral": 14584,
    "orne": 17872,
    "recollected": 25347,
    "Ġenumer": 12743,
    "ened": 1389,
    "Ġcreamy": 14332,
    "Ġhovers": 19078,
    "Åĵ": 10744,
    "Ġstreaked": 19113,
    "wards": 1276,
    "Ġsoar": 18282,
    "wins": 21128,
    "aling": 1034,
    "veral": 2358,
    "ism": 4874,
    "Ġmalignity": 10556,
    "/*": 10070,
    "dev": 7632,
    "Ġmidway": 14604,
    "Ġinsist": 9890,
    "Ġsettle": 6293,
    "unusual": 21876,
    "sper": 4432,
    "wealth": 22685,
    "Ġbarn": 11586,
    "Ġdrinks": 24279,
    "Ġreluct": 14371,
    "Ġdoubling": 23318,
    "Ġgree": 7594,
    "Ġtops": 14586,
    "Ġpatagon": 14499,
    "Ġmistifying": 23719,
    "Ġknitted": 19588,
    "Ġtremulous": 14985,
    "Ġcapstan": 9098,
    "stra": 4043,
    "Ġorganize": 8991,
    "anely": 17836,
    "Ġswallowed": 7943,
    "Ġgraphs": 25463,
    "Ġgraceful": 11296,
    "Ġundertake": 14479,
    "Ġimpatiently": 8337,
    "Ġsermons": 20193,
    "towing": 17689,
    "Ġabated": 18390,
    "ption": 7398,
    "Ġimmeasurable": 26230,
    "Ġattempted": 8000,
    "Ġoverlapping": 26238,
    "Ġunfor": 15837,
    "grief": 13730,
    "Ġrambles": 17184,
    "Ġvoyage": 3054,
    "Ġweary": 5635,
    "glanced": 19364,
    "power": 7136,
    "Ġmuzzle": 21319,
    "Ġemper": 9860,
    "Ġtablet": 19204,
    "Ġratio": 5066,
    "neys": 23581,
    "wrath": 23755,
    "aloud": 17940,
    "uning": 1313,
    "Ġeaster": 15672,
    "inaw": 21182,
    "urous": 10212,
    "Ġresumed": 11810,
    "Ġthanked": 9457,
    "springs": 24911,
    "Ġdances": 10812,
    "Ġinhabitant": 19754,
    "Ġoffic": 3183,
    "Ġcommercial": 22671,
    "listen": 13512,
    "Ġdivision": 19442,
    "Ġrheumatic": 20704,
    "Ġther": 17778,
    "âĢĻ,": 14069,
    "thirds": 25046,
    "Ġcontinent": 14887,
    "horses": 17567,
    "Ġsane": 21220,
    "learned": 8588,
    "Ġcutting": 4983,
    "Ġguilty": 7250,
    "Ġexample": 5096,
    "Ġsta": 18062,
    "Ġwhine": 21712,
    "Ġbachelor": 7786,
    "ascar": 8434,
    "Ġ104": 24412,
    "Ġnom": 21516,
    "Ġshallow": 14393,
    "Ġswan": 23048,
    "omely": 21656,
    "Ġdiscerning": 25002,
    "Ġbarrels": 9435,
    "Ġturkish": 12259,
    "thousands": 16872,
    "Ġrejoinder": 24597,
    "Ġinduce": 7762,
    "machine": 971,
    "respective": 19845,
    "Ġdreams": 7496,
    "Ġvastly": 23858,
    "Ġbraved": 23835,
    "Ġperforms": 11875,
    "Ô": 149,
    "joining": 19444,
    "Ġsuperficial": 23456,
    "Ġcomfortably": 16615,
    "tasted": 17687,
    "Ġtruth": 3320,
    "Ġscrupled": 25049,
    "Ġgroup": 2038,
    "Ġtranquo": 14842,
    "brit": 19197,
    "ocations": 23707,
    "expressing": 16801,
    "viii": 12019,
    "ashed": 3781,
    "Ġhairs": 13228,
    "Ġreeling": 18032,
    "argue": 21442,
    "Ġcrawl": 11375,
    "successfully": 14990,
    "ellations": 21941,
    "Ġblunt": 11892,
    "complacency": 19913,
    "Ġgaunt": 11268,
    "ter": 359,
    "vessel": 11377,
    "Ġtrowsers": 9627,
    "aswag": 21543,
    "eyeing": 14945,
    "Ġexquisitely": 20201,
    "Ġboston": 22635,
    "childhood": 16868,
    "Ġutil": 4672,
    "Ġfixing": 13154,
    "Ġperu": 14221,
    "Ġhoot": 19076,
    "Ġclassify": 1717,
    "agatha": 21905,
    "conceivable": 17130,
    "Ġrabbit": 4286,
    "Ġbottomless": 12104,
    "frozen": 25139,
    "Ġwinchester": 10065,
    "Ġhiss": 15785,
    "Ġspermacetti": 19052,
    "Ġrear": 6535,
    "Ġdollars": 11455,
    "geor": 15976,
    "Ġtrouble": 3688,
    "Ġimagine": 3919,
    "ogn": 2519,
    "Ġglided": 7447,
    "Ġgle": 7858,
    "Ġmorsel": 20676,
    "anders": 18152,
    "urmountable": 15278,
    "Ġmultitud": 18746,
    "Ġelapsed": 7652,
    "pigs": 17140,
    "Ġpersonages": 23540,
    "Ġty": 6657,
    "Ġunalterable": 15849,
    "Ġsneezing": 12245,
    "morland": 24150,
    "Ġriveted": 13616,
    "ĠĠĠĠĠĠĠĠĠĠĠĠĠĠĠĠĠĠĠĠĠĠĠ": 18831,
    "Ġwinding": 8235,
    "bring": 9104,
    "Ġbourgh": 5069,
    "Ġdetestable": 15097,
    "Ġsystemat": 18442,
    "Ġram": 11013,
    "Ġscru": 8190,
    "ourse": 8869,
    "Ġdiffusion": 23781,
    "Ġscholar": 26111,
    "Ġcig": 6520,
    "ush": 3631,
    "Ġsaville": 15887,
    "Ġvari": 833,
    "Ġwrite": 3817,
    "Ġbarbarians": 19586,
    "esty": 4303,
    "ament": 2442,
    "Ġfierc": 18711,
    "Ġtumble": 16879,
    "lessly": 4554,
    "eter": 11620,
    "Ġtamer": 24976,
    "topic": 10527,
    "Ġperpet": 7644,
    "-------": 20387,
    "performances": 26006,
    "Ġcaresses": 26059,
    "Ġb": 281,
    "Ġbuck": 7157,
    "level": 2655,
    "Ġpeculiarity": 12931,
    "Ġmingling": 20196,
    "Ġloggerhead": 13655,
    "Ġsuns": 23272,
    "porary": 14552,
    "Ġrequirements": 9787,
    "Ġphysiology": 25332,
    "Ġhotel": 8650,
    "Ġpist": 12613,
    "ĠĠĠ": 2115,
    "Ġcommonplace": 11096,
    "Ġchry": 22243,
    "islanders": 25442,
    "Ġimplement": 3287,
    "derest": 18314,
    "Ġinclosed": 19537,
    "Ġprehensile": 26534,
    "Ġsubstitute": 16726,
    "persecutor": 26529,
    "Ġanoints": 25538,
    "Ġexcellent": 4234,
    "range": 3494,
    "Ġkeeping": 7283,
    "Ġchains": 8250,
    "ails": 6160,
    "Ġbacking": 16115,
    "Ġsepar": 3996,
    "odiac": 14028,
    "iferous": 17291,
    "cocks": 23560,
    "Ġhear": 1967,
    "isted": 3299,
    "Ġattain": 12745,
    "Ġstrange": 2273,
    "Ġclamped": 18432,
    "Ġreusable": 13555,
    "Ġbegg": 16252,
    "Ġwond": 3934,
    "seas": 14032,
    "Ġcrest": 12939,
    "Ġproperty": 6450,
    "mell": 20963,
    "Ď": 207,
    "Ġbeacon": 21753,
    "Ġpenetration": 19916,
    "Ġsuperiors": 23455,
    "Ġstockings": 19995,
    "elt": 4112,
    "halloa": 17090,
    "Ġsurve": 9873,
    "Ġdisp": 3359,
    "Ġpen": 1530,
    "mercenary": 26315,
    "Ġstains": 21738,
    "Ġweights": 898,
    "Ġenable": 686,
    "Ġdistillation": 16042,
    "ufactured": 15180,
    "Ġslyness": 25266,
    "Ġbaked": 21384,
    "rimin": 2425,
    "Ġfriend": 1295,
    "indulged": 22372,
    "places": 7876,
    "activation": 3227,
    "Ġcounterpart": 24721,
    "frantic": 24283,
    "rifice": 12501,
    "fat": 8078,
    "sigma": 3005,
    "ensities": 22543,
    "pond": 21012,
    "Ġfeared": 5930,
    "Ġrecklessly": 16983,
    "Ġjust": 1239,
    "Ġislets": 21798,
    "Ġdelineate": 26057,
    "darted": 20831,
    "Ġendured": 6072,
    "pract": 10119,
    "ables": 7889,
    "plentiful": 21953,
    "Ġunhappy": 5640,
    "Ġapprove": 12871,
    "Ġcaves": 15551,
    "Ġhitherto": 5879,
    "Ġretain": 7862,
    "Ġdiligent": 25075,
    "regard": 7972,
    "lives": 12483,
    "amaz": 21841,
    "Ġjost": 23629,
    "Ġstrain": 6023,
    "Ġbashaw": 25633,
    "Ġjutting": 22298,
    "Ġtrees": 4198,
    "chair": 5916,
    "ends": 6038,
    "ushing": 5731,
    "acon": 10681,
    "acked": 10974,
    "Ġtrucks": 19511,
    "Ġeconomy": 17200,
    "Ġring": 4449,
    "attendants": 25495,
    "extremely": 26263,
    "Ġimpulsively": 24880,
    "misfortunes": 16756,
    "appearance": 5333,
    "apprehension": 26114,
    "jammed": 25906,
    "queg": 1770,
    "rogress": 21533,
    "Ġdocile": 19957,
    "Ġfeatures": 1433,
    "Ġdropped": 4468,
    "iny": 4291,
    "Ġanoint": 25537,
    "Ġdr": 2828,
    "Ġeffectual": 18731,
    "prophecy": 22845,
    "Ġready": 3399,
    "spersed": 22734,
    "chance": 6827,
    "nect": 662,
    "lanterns": 17428,
    "Ġconsoled": 18112,
    "absence": 12706,
    "Ġattained": 14077,
    "earthly": 24724,
    "methodically": 20663,
    "ologist": 22851,
    "Ġ13": 6718,
    "solute": 16598,
    "Ġfervour": 19725,
    "Ġwal": 6517,
    "Ġpetticoat": 15294,
    "forbearance": 22799,
    "prosper": 19100,
    "Ġpaints": 23522,
    "Ġrelics": 16194,
    "aulding": 11339,
    "Ġsplintered": 11418,
    "Ġling": 7377,
    "Ġdomineering": 23660,
    "perv": 1573,
    "poss": 4778,
    "Ġburly": 19249,
    "Ġarist": 14161,
    "Ġbugs": 13646,
    "Ġleaps": 14007,
    "ect": 381,
    "twenty": 6607,
    "Ġmortally": 23914,
    "Ġsavesoul": 26227,
    "clergy": 18933,
    "Ġdiffidence": 14659,
    "Ġwhatever": 3474,
    "equally": 19898,
    "whiteness": 18370,
    "jaw": 13742,
    "Ġfinally": 4666,
    "Ġthomson": 26454,
    "odecim": 9831,
    "amy": 8467,
    "ĠarchÃ¦": 22788,
    "Ġwin": 9641,
    "Ġanxiously": 8289,
    "Ġwolfish": 25935,
    "fainting": 20471,
    "ample": 1365,
    "Ġamelia": 26250,
    "deceiving": 22141,
    "sudden": 5315,
    "fear": 8513,
    "Ġforgot": 4683,
    "Ġstretched": 5919,
    "Ġrickety": 26505,
    "_,âĢĻ": 12431,
    "Ġbee": 21746,
    "Ġridic": 7508,
    "office": 16394,
    "Ġglad": 3326,
    "Ġproof": 6153,
    "woman": 5898,
    "âĢĶâĢĿ": 3300,
    "Ġgasfitters": 25038,
    "rawling": 21633,
    "Ġsatisf": 2809,
    "Ġreigning": 15698,
    "Ġlikeness": 11179,
    "Ġclubs": 25179,
    "Ġnervous": 2406,
    "Ġprison": 5403,
    "Ġnotorious": 18223,
    "Ġbrut": 18768,
    "Ġbroad": 3638,
    "Ġcrumb": 16439,
    "Ġstruck": 3391,
    "Ġstill": 1156,
    "Ġwick": 2006,
    "Ġtoad": 21507,
    "Ġfrivolous": 26176,
    "Ġconsecutive": 20701,
    "favourable": 12261,
    "Ġroutine": 13506,
    "Ġspouter": 12796,
    "iquette": 26132,
    "Ġretrogress": 23070,
    "Ġhierarchical": 1929,
    "lim": 9606,
    "Ġdried": 7367,
    "Ġdesired": 4664,
    "Ġscience": 1540,
    "mutually": 26136,
    "Ġdiscl": 9796,
    "Ġoversight": 22348,
    "Ġladies": 3190,
    "Ġdireful": 11019,
    "Ġperempt": 13672,
    "Ġinsp": 2100,
    "stocks": 23818,
    "Ġcannib": 6035,
    "Ġgash": 15668,
    "Ġloathing": 15066,
    "sometimes": 5971,
    "ancies": 11583,
    "adventure": 17233,
    "Ġshift": 2282,
    "terrific": 25040,
    "vacancies": 25919,
    "Ġrambled": 20167,
    "Ġinvited": 6903,
    "freely": 16854,
    "sim": 6510,
    "side": 2303,
    "Ġcruel": 5121,
    "Ġappeased": 23194,
    "Ġconvince": 14642,
    "Ġsubtile": 20378,
    "Ġextraordinary": 5414,
    "Ġwedged": 24068,
    "ough": 470,
    "Ġand": 295,
    "Ġstocks": 23174,
    "steelkilt": 10046,
    "maker": 12490,
    "base": 20776,
    "Ġdec": 641,
    "Ġliar": 22405,
    "Ġwretch": 6378,
    "Ġgre": 1582,
    "Ġspeeding": 23563,
    "Ġintricacies": 15137,
    "Ġhold": 2244,
    "Ġupdating": 2693,
    "Ġnoble": 3441,
    "omet": 3075,
    "Ġmarines": 16258,
    "marriage": 7744,
    "Ġbrag": 23831,
    "Ġknee": 7093,
    "pest": 6964,
    "otes": 15741,
    "Ġfeedback": 23431,
    "Ġeat": 4643,
    "Ġeasy": 3453,
    "Ġjoll": 11763,
    "Ġshank": 21994,
    "wake": 11545,
    "your": 1986,
    "Ġvigilant": 20183,
    "tone": 8762,
    "Ġ115": 24439,
    "Ġofficer": 6753,
    "Ġrules": 1920,
    "isk": 9167,
    "slipped": 25529,
    "Ġhandling": 8912,
    "fthand": 26386,
    "Ġcheek": 8577,
    "Ġfeelingly": 22994,
    "humoredly": 26324,
    "Ġsplitting": 4380,
    "Ġscound": 12830,
    "composure": 24031,
    "Ġplace": 1653,
    "bask": 20775,
    "Ġexasperated": 11412,
    "Ġam": 659,
    "Ġent": 904,
    "geons": 15977,
    "renew": 24450,
    "pits": 15411,
    "Ġamazement": 7764,
    "Ġdisgu": 8205,
    "meadow": 18674,
    "perse": 15896,
    "Ġperemptorily": 17366,
    "knell": 24555,
    "teous": 16172,
    "Ġspind": 18307,
    "Ġmemb": 14029,
    "imag": 6990,
    "jerked": 25618,
    "Ġsolutions": 1949,
    "Ġsneeze": 24699,
    "Ġstoven": 23173,
    "Ġfoam": 6891,
    "Ġflutter": 16247,
    "Ġende": 21929,
    "igantic": 5539,
    "ires": 6037,
    "condition": 7059,
    "Ġvain": 3628,
    "Ġbaker": 4696,
    "Ġmachine": 801,
    "disp": 7975,
    "Ġcontradicted": 20210,
    "Ġshared": 10263,
    "Ġflowery": 16232,
    "Ġdict": 9175,
    "Ġgardens": 16452,
    "Ġmistakes": 16541,
    "nered": 18494,
    "Ġcomposition": 1687,
    "Ġrumbling": 18211,
    "maged": 15392,
    "Ġsagacious": 14970,
    "Ġrelieved": 7665,
    "fi": 12459,
    "Ġorgans": 15863,
    "Ġpraying": 19553,
    "Ġwarmup": 3917,
    "Ġsaloon": 24059,
    "masts": 19423,
    "Ġsemicirc": 16392,
    "lee": 11584,
    "althy": 8431,
    "Ġxiii": 25591,
    "counter": 20277,
    "iability": 20919,
    "conduct": 11795,
    "lin": 9603,
    "Ġelias": 18635,
    "Ġhabitual": 24790,
    "Ġreplace": 14477,
    "Ġglove": 14492,
    "baned": 17495,
    "Ġbash": 12584,
    "inces": 13827,
    "Ġskirt": 18728,
    "pain": 7350,
    "connections": 14427,
    "Ġnewton": 3532,
    "oe": 7552,
    "astic": 1868,
    "Ġcovers": 18594,
    "Ġemm": 18002,
    "shone": 22445,
    "Ġcongealed": 25981,
    "Ġsurgeon": 8981,
    "bly": 6110,
    "Ġple": 1469,
    "add": 5229,
    "Ġdecks": 6900,
    "wreck": 21135,
    "Ġflashed": 11913,
    "Ċ": 203,
    "Ġyours": 4121,
    "torn": 17682,
    "Ġancient": 5443,
    "Ġutter": 3971,
    "aster": 1867,
    "bon": 13683,
    "downward": 16619,
    "print": 23809,
    "Ġtinted": 13821,
    "Ġrage": 5110,
    "Ġsalutations": 25382,
    "Ġchis": 11748,
    "discovery": 12015,
    "grown": 10099,
    "hon": 6793,
    "Ġsinful": 18948,
    "however": 4370,
    "Ġdiscu": 4361,
    "Ġsecurely": 16802,
    "Ġfaced": 10808,
    "right": 2772,
    "Ġdeformed": 14048,
    "Ġpron": 6451,
    "fic": 20851,
    "Ġintelligence": 562,
    "clean": 14759,
    "Ġhearken": 21682,
    "olently": 15754,
    "inkled": 5477,
    "stained": 21646,
    "Ġnevertheless": 5040,
    "Ġnotes": 7189,
    "Ġcleansed": 26293,
    "Ġliking": 23590,
    "according": 12026,
    "bourine": 9395,
    "Ġannounce": 13336,
    "Ġforger": 15730,
    "Ġderivative": 3002,
    "Ġzealand": 12348,
    "noise": 14325,
    "corrupt": 14894,
    "Ġblemish": 19678,
    "Ġdeprec": 15755,
    "Ġsubterranean": 13609,
    "gard": 7339,
    "Ġstoutly": 16924,
    "Ġvia": 2386,
    "Ġsucceed": 4543,
    "Ġtasselled": 25921,
    "corrid": 24484,
    "ext": 933,
    "plac": 15814,
    "breeding": 16675,
    "Ġrinal": 21974,
    "Ġwheeled": 14138,
    "Ġenlar": 15798,
    "Ġmethodically": 23110,
    "Ġsuppress": 13020,
    "âĢĻ-": 18166,
    "extreme": 11029,
    "Ġassent": 12731,
    "ď": 208,
    "dost": 14535,
    "Ġattacked": 10567,
    "resembling": 25932,
    "ought": 831,
    "Ġwafted": 14500,
    "Ġquar": 3112,
    "Ġpotential": 3618,
    "Ġrider": 24184,
    "Ġfighting": 12195,
    "Ġfellows": 8256,
    "Ġdid": 836,
    "finished": 10554,
    "Ġfoolish": 5979,
    "Ġclapping": 14206,
    "bride": 19199,
    "mbl": 5945,
    "Ġsalvation": 14756,
    "Ġmanhood": 22323,
    "bl": 4138,
    "smoking": 23908,
    "Ġbasket": 9572,
    "Ġ1869": 19382,
    "ryder": 18639,
    "continuing": 24479,
    "£": 101,
    "Ġeffects": 7236,
    "Ġunless": 4087,
    "Ġflashing": 13025,
    "Ġspot": 4151,
    "vapor": 25755,
    "looks": 12016,
    "Ġbegging": 11080,
    "Ġoil": 3375,
    "Ġcaptain": 1601,
    "Ġexpanse": 14290,
    "gely": 10700,
    "iftings": 23225,
    "merc": 19279,
    "Ġhusbands": 16642,
    "medi": 2629,
    "buncle": 13691,
    "apply": 18758,
    "Ġreproached": 24891,
    "abond": 15738,
    "Ġwalks": 8966,
    "immense": 18052,
    "Ġdank": 21426,
    "Ġknave": 11272,
    "Ġrejected": 12292,
    "Ġintensely": 17017,
    "Ġrustling": 24715,
    "rough": 589,
    "Ġstoper": 14462,
    "Ġdenote": 19332,
    "swimming": 24258,
    "common": 4125,
    "Ġirresolute": 24916,
    "Ġvibrated": 25045,
    "Ġestablish": 9542,
    "help": 1478,
    "cake": 20803,
    "Ġunf": 4086,
    "secret": 12234,
    "Ġcachalot": 17834,
    "Ġcreases": 22725,
    "lemagne": 26436,
    "Ġangrily": 9406,
    "tim": 13790,
    "dimens": 2321,
    "Ġcollecting": 12284,
    "cer": 6642,
    "ateness": 15518,
    "specul": 23940,
    "Ġcurrents": 13006,
    "Ġmichigan": 26426,
    "Ġadventure": 5980,
    "smile": 23903,
    "Ġlistening": 6318,
    "Ġhere": 1091,
    "drunk": 24659,
    "Ġinvented": 17037,
    "Ġbanish": 15567,
    "Ġoperated": 14547,
    "Ġincarnation": 25573,
    "Ġmemory": 2275,
    "Ġhaw": 10251,
    "Ġrussia": 26267,
    "Ġlanding": 11983,
    "sails": 7497,
    "regiment": 16451,
    "Ġstow": 21727,
    "omist": 21655,
    "Ġtag": 15467,
    "Ġdisquis": 22524,
    "sequent": 6831,
    "Ġbushy": 16400,
    "ă": 196,
    "augment": 18827,
    "usal": 7638,
    "Ġstiff": 6992,
    "disappointment": 11425,
    "sen": 21048,
    "visits": 24223,
    "inated": 6804,
    "Ġstood": 2554,
    "Ġrenew": 6145,
    "onomy": 12544,
    "Ġinhale": 20299,
    "Ġdate": 7841,
    "Ġwrenching": 17322,
    "england": 18928,
    "Ġinher": 10179,
    "Ġresounded": 22541,
    "ithmetic": 18061,
    "quohog": 21849,
    "Ġgradient": 449,
    "brink": 23575,
    "ignorantly": 25189,
    "Ġentered": 2849,
    "yingly": 23057,
    "Ġwhosoever": 21716,
    "ick": 837,
    "Ġhopelessly": 16378,
    "Ġolder": 9326,
    "bringing": 17166,
    "Ġbeg": 1282,
    "Ġdetest": 8500,
    "eyes": 5684,
    "Ġclass": 804,
    "foot": 9046,
    "Ġdissuade": 26256,
    "Ġprophetic": 20018,
    "sius": 13787,
    "Ġrate": 1062,
    "Ġdefinition": 14403,
    "Ġresid": 22535,
    "Ġsitu": 3495,
    "Ġgracechurch": 12196,
    "Ġcem": 17823,
    "Ġvideo": 25365,
    "Ġparagraph": 17453,
    "Ġbenchmarks": 15021,
    "Ġnaturalists": 10361,
    "Ġrobbery": 11911,
    "Ġwarb": 17787,
    "Ġsquaring": 22835,
    "Ġrum": 5923,
    "itheat": 21336,
    "oboam": 9357,
    "Ġjam": 10951,
    "ieve": 1658,
    "velling": 14761,
    "Ġmainmast": 9778,
    "Ġmiscell": 16147,
    "Ġobliterated": 17404,
    "Ġmasonry": 13597,
    "ceiving": 3898,
    "Ġpaddock": 25037,
    "mand": 3890,
    "Ġmatch": 4527,
    "±": 114,
    "Ġgurgling": 17445,
    "ispensable": 9095,
    "thinness": 25810,
    "ict": 593,
    "Ġresc": 4503,
    "Ġtossing": 8125,
    "accompl": 9879,
    "Ġconsecrate": 26489,
    "trimmed": 23946,
    "atively": 2698,
    "Ġfleeting": 19326,
    "ĠĠĠĠĠĠĠĠĠĠ": 18576,
    "aloes": 21499,
    "Ġdressing": 7090,
    "Ġpos": 1009,
    "fine": 10090,
    "Ġlect": 9222,
    "Ġcoun": 4173,
    "Ġpur": 2217,
    "Ġcordially": 16836,
    "bent": 15310,
    "solution": 14686,
    "leather": 13889,
    "Ġthoroughfare": 16944,
    "ees": 13710,
    "officer": 17054,
    "Ġprincipally": 11309,
    "rec": 6003,
    "Ġcigarette": 20655,
    "Ġdegradation": 2632,
    "day": 1859,
    "Ġsheath": 14151,
    "Ġpant": 10817,
    "Ġfervent": 14895,
    "Ġgeorgia": 23884,
    "ple": 455,
    "orney": 17873,
    "Ġleviathan": 3289,
    "myster": 16260,
    "Ġgu": 1328,
    "Ġconnect": 798,
    "ological": 1885,
    "thread": 15824,
    "Ġaloof": 21782,
    "modesty": 22854,
    "prove": 11147,
    "Ġphenomena": 21481,
    "Ġrefer": 18702,
    "yes": 986,
    "Ġafter": 871,
    "stige": 21652,
    "Ġtortured": 14923,
    "Ġroods": 22401,
    "rance": 5993,
    "Ġmerid": 13191,
    "Ġcelest": 9900,
    "chooses": 23673,
    "Ġintegration": 9867,
    "rubbery": 17341,
    "Ġdemanding": 16805,
    "Ġkiller": 19567,
    "Ġsisters": 3639,
    "Ġpig": 5705,
    "begged": 18520,
    "Ġobsc": 7039,
    "ware": 3930,
    "Ġbehavioral": 11396,
    "Ġwithdrew": 9695,
    "ulating": 10887,
    "Ġberths": 20113,
    "errand": 22905,
    "reproach": 15185,
    "Ġmultiplied": 23690,
    "omuch": 21657,
    "Ġprofess": 3696,
    "tro": 15432,
    "client": 18931,
    "uting": 15657,
    "Ġtoilette": 20491,
    "Ġslices": 23163,
    "Ġgust": 21594,
    "Ġpretending": 19313,
    "Ġvoy": 2621,
    "Ġsolicitude": 10039,
    "Ġpencils": 23192,
    "Ġsaws": 23046,
    "Ġsche": 1704,
    "Ġsacrificed": 17421,
    "meal": 22694,
    "zy": 2672,
    "Ġconflagration": 26364,
    "Ġclings": 15970,
    "rove": 21530,
    "Ġsuspects": 16890,
    "Ġm": 274,
    "powder": 17645,
    "Ġgeneric": 18448,
    "Ġjones": 7204,
    "Ġvariance": 1166,
    "vic": 13801,
    "Ġdoctrine": 24197,
    "Ġlulled": 17968,
    "Ġholds": 7974,
    "surrounded": 26088,
    "Ġadmeasurements": 26225,
    "Ġvineyarder": 25606,
    "Ġparagra": 15877,
    "themselves": 6540,
    "Ġhunsford": 6301,
    "oga": 22692,
    "Ġnumer": 3637,
    "somers": 19366,
    "Ġamount": 8511,
    "Ġentra": 18695,
    "buttoned": 13630,
    "Ġcruisers": 25863,
    "cabin": 8362,
    "Ġalleghan": 25795,
    "tons": 7559,
    "Ġbabes": 24425,
    "Ġshow": 3403,
    "Ġarr": 1801,
    "hue": 20898,
    "Ġapologies": 25196,
    "Ġslashing": 23168,
    "Ġpresto": 22227,
    "Ġaccepted": 7750,
    "Ġregarded": 5762,
    "Ġprophes": 16347,
    "!_": 7329,
    "manner": 6170,
    "Ġfacetious": 20582,
    "Ġstrained": 10218,
    "proceeded": 25190,
    "Ġastr": 15493,
    "Ġtrappings": 23079,
    "83": 13679,
    "gangway": 20666,
    "cure": 11474,
    "mole": 22702,
    "enthus": 17977,
    "quitted": 21848,
    "Ġsmell": 7216,
    "Ġrings": 11697,
    "Ġencode": 4362,
    "Ġsacrilege": 26228,
    "gn": 8081,
    "Ġponder": 6819,
    "ram": 13971,
    "Ġsporty": 19889,
    "Ġexclaim": 11221,
    "dangerous": 20239,
    "carried": 16711,
    "Ġadvertised": 17247,
    "inates": 21179,
    "Ġfrighted": 24026,
    "Ġcaravan": 26290,
    "acknowledge": 18469,
    "ned": 3492,
    "Ġinstability": 3809,
    "bag": 7542,
    "Ġcanst": 8857,
    "Ġharpooneer": 3769,
    "topp": 22562,
    "arken": 18667,
    "Ġdeliverance": 15156,
    "Ġinventing": 24861,
    "Ġfulfil": 9550,
    "remain": 9837,
    "Ġthin": 4345,
    "undoubtedly": 13309,
    "Ġarrive": 6907,
    "ortations": 22255,
    "smo": 10125,
    "Ġflood": 7715,
    "Ġnecess": 3476,
    "Ġbrushed": 15568,
    "Ġfeatureless": 22615,
    "Ġearned": 19403,
    "ullo": 12727,
    "Ġmoored": 11790,
    "_).âĢĶ": 8681,
    "Ġdrooping": 9419,
    "Ġashamed": 6403,
    "ending": 1991,
    "Ġperil": 5557,
    "Ġfanc": 6743,
    "ill": 447,
    "Ġodorous": 19565,
    "Ġhen": 3502,
    "Ġfemin": 13434,
    "order": 1962,
    "Ġasserted": 16949,
    "ckled": 9256,
    "vitiated": 25754,
    "_;": 6640,
    "Ġtons": 11549,
    "Ġecc": 11627,
    "Ġfunctions": 1339,
    "Ġuncont": 14115,
    "ben": 4926,
    "Ġprocession": 11773,
    "Ġtoss": 10184,
    "Ġmodified": 14166,
    "troubled": 17112,
    "Ġ97": 19773,
    "Ġresounds": 22539,
    "solemn": 19816,
    "Ġsaith": 14155,
    "Ġvan": 1088,
    "Ġmatrimonial": 25489,
    "Ġcondescending": 24868,
    "Ġdent": 13905,
    "Ġglobal": 2374,
    "jury": 15372,
    "cup": 10690,
    "everything": 6324,
    "Ġinde": 7371,
    "Ġgowns": 25359,
    "stream": 15683,
    "Ġfacility": 19849,
    "Ġjove": 9267,
    "Ġsignature": 16492,
    "Ġclinging": 10292,
    "Ġwalrus": 14972,
    "Ġblew": 9045,
    "Ġguards": 16266,
    "Ġpinioned": 21480,
    "Ġimpressive": 14999,
    "Ġfished": 21408,
    "Ġprocured": 8676,
    "ugging": 23289,
    "Ġwearing": 12737,
    "Ġspoilt": 24807,
    "Ġig": 3501,
    "Ġnovels": 15927,
    "Ġsaid": 578,
    "Ġmythologies": 26213,
    "Ġbaptized": 25774,
    "Ġdil": 6383,
    "Ġincredible": 9514,
    "roylott": 20025,
    "flame": 16637,
    "nose": 17610,
    "steady": 14708,
    "zealand": 26056,
    "Ġspermaceti": 8967,
    "expect": 4769,
    "Ġagitated": 7647,
    "Ġwigwam": 11428,
    "grees": 20885,
    "ary": 988,
    "Ġsensitive": 13195,
    "Ġmodel": 509,
    "Ġdemo": 10880,
    "Ġpeak": 16124,
    "Ġchamois": 16800,
    "Ġvisit": 2586,
    "aled": 3939,
    "python": 4692,
    "emporary": 15795,
    "accessible": 13637,
    "Ġpoured": 8800,
    "Ġwant": 1119,
    "Ġmargin": 11919,
    "test": 13791,
    "Ġcister": 13881,
    "killed": 15375,
    "hunsford": 24386,
    "Ġatlantic": 7000,
    "occ": 4481,
    "Ġdisgusting": 19893,
    "stall": 21637,
    "Ġvineyard": 12328,
    "Ġske": 4815,
    "Ġseason": 5238,
    "erative": 21271,
    "Ġcompressed": 21854,
    "miserably": 24210,
    "Ġrespons": 2686,
    "Ġconfinement": 19042,
    "Ġhardships": 14450,
    "Ġlogger": 11952,
    "ustomed": 6098,
    "ersampling": 18216,
    "listened": 15043,
    "Ġdirty": 9178,
    "Ġhanover": 20584,
    "Ġsovereign": 10061,
    "Ġstepdaughter": 22609,
    "lu": 597,
    "stern": 8444,
    "isco": 12579,
    "Ġprofanely": 23569,
    "earth": 6502,
    "wind": 4248,
    "sho": 6425,
    "Ġdiverse": 19209,
    "Ġbackstays": 22659,
    "protruding": 24816,
    "Ġruthless": 15284,
    "occupation": 15056,
    "Ġobsole": 22699,
    "Ġhoof": 23351,
    "urned": 9305,
    "based": 2964,
    "maritime": 24172,
    "Ġahab": 1212,
    "Ġinclu": 1102,
    "Ġlord": 2970,
    "Ġmarvellous": 7538,
    "Ġalleg": 14016,
    "wand": 10738,
    "Ġdante": 21436,
    "Ġbefall": 8828,
    "Ġfoiled": 23242,
    "Ġbanished": 10616,
    "Ġloops": 8852,
    "Ġscandal": 9081,
    "Ġago": 3134,
    "r": 86,
    "Ġravings": 18646,
    "Ġdarling": 12602,
    "Ġpredicted": 2045,
    "ucumber": 19059,
    "Ġaudience": 24769,
    "Ġseam": 3904,
    "Ġhereby": 10358,
    "Ġadvertise": 25388,
    "Ġexploding": 2109,
    "Ġgourmand": 26466,
    "travellers": 24318,
    "watching": 16930,
    "Ġplacing": 8900,
    "res": 2762,
    "ivided": 22075,
    "Ġdefinitions": 22940,
    "Ġemblazonings": 26043,
    "intu": 22929,
    "vocabulary": 25085,
    "Ġimpotently": 22387,
    "Ġtemple": 7653,
    "Ġheel": 9683,
    "Ġimpotent": 18447,
    "Ġvesuvius": 26501,
    "Ġemployed": 5200,
    "Ġtreading": 16504,
    "Ġnearing": 15792,
    "Ġuncivilized": 25498,
    "Ġinscrutable": 10672,
    "Ġcontemplated": 13462,
    "Ġusurpation": 18358,
    "Ġsubfield": 11867,
    "appearing": 14637,
    "Ġgorgeous": 20465,
    "Ġfang": 21401,
    "Ġbeware": 8827,
    "toes": 22561,
    "Ġattends": 19649,
    "response": 25762,
    "promised": 12249,
    "Ġstaff": 14005,
    "Ġsunlight": 13083,
    "Ġtalking": 3854,
    "Ġslightest": 6092,
    "Ġcheerless": 16694,
    "Ġpag": 6010,
    "Ġbent": 5149,
    "Ġmethodology": 2287,
    "taffrail": 15441,
    "Ġguiltless": 16940,
    "Ġdais": 24372,
    "zza": 24166,
    "Ġjem": 18402,
    "Ġsubmitted": 11869,
    "Ġanswer": 2600,
    "Ġpreparation": 13527,
    "crossing": 19409,
    "Ġjoky": 18406,
    "Ġwayward": 22870,
    "Ġemploys": 19429,
    "Ġgeorgiana": 8625,
    "Ġprofane": 13150,
    "Ġcrews": 8990,
    "sters": 6391,
    "uns": 21867,
    "Ġconference": 15744,
    "Ġequalled": 13310,
    "Ġmeth": 1414,
    "Ġlip": 6532,
    "ize": 765,
    "Ġporpoises": 13380,
    "angs": 5834,
    "#": 7,
    "Ġpassenger": 14368,
    "Ġcavity": 20486,
    "Ġincludes": 2012,
    "glue": 17556,
    "Ġincant": 18568,
    "scales": 22991,
    "valu": 1662,
    "Ġoff": 903,
    "Ġbuy": 8299,
    "lingering": 18601,
    "Ġremained": 3139,
    "unnatural": 15770,
    "Ġpsych": 10176,
    "Ġda": 5150,
    "Ġadmiring": 16479,
    "Ġbearded": 15724,
    "load": 12879,
    ",--": 2479,
    "Ġem": 1926,
    "dient": 440,
    "Ġbelow": 4059,
    "yesterday": 10353,
    "feeders": 25235,
    "Ġdeposited": 25484,
    "Ġadequate": 20307,
    "continually": 11302,
    "Ġlone": 11612,
    "Ġhish": 21910,
    "Ġembracing": 14979,
    "oars": 9614,
    "class": 4092,
    "binary": 20783,
    "Ġdependen": 1830,
    "iance": 5279,
    "Ġhatred": 8608,
    "pile": 17629,
    "swaying": 25910,
    "bowing": 24454,
    "Ġfoolscap": 24155,
    "plenty": 14087,
    "h": 76,
    "Ġconnex": 10665,
    "Ġconception": 10313,
    "Ġfocused": 16340,
    "Ġwhirling": 12246,
    "Ġplan": 3878,
    "Ġfishy": 16522,
    "Ġgettest": 23231,
    "Ġsoothe": 7405,
    "stem": 570,
    "aning": 2253,
    "Åĵuvre": 25887,
    "Ġcountryside": 23595,
    "Ġconspicuous": 13601,
    "Ġclust": 9273,
    "luckily": 19751,
    "Ġamused": 11797,
    "ir": 379,
    "Ġdiscovered": 4410,
    "rary": 4574,
    "Ġpassage": 3881,
    "Ġsulky": 13513,
    "Ġgrapnels": 25551,
    "tered": 2230,
    "Ġalley": 15733,
    "vely": 3863,
    "ands": 21863,
    "Ġconvulsively": 25717,
    "Ġere": 3683,
    "Ġpants": 21463,
    "Ġdissatisfied": 14256,
    "Ġholland": 10365,
    "nett": 16219,
    "Ġrange": 9711,
    "Ġnam": 17948,
    "ribs": 23363,
    "Ġheadsman": 13270,
    "shri": 14234,
    "ances": 1336,
    "Ġmiss": 1227,
    "mming": 1170,
    "needle": 20312,
    "farmer": 25899,
    "Ġtainted": 21169,
    "Ġhack": 12754,
    "Ġprick": 14478,
    "/`)": 13658,
    "ĠmanÅĵuv": 18417,
    "Ġapprehensions": 13402,
    "months": 9071,
    "Ġfollowing": 4060,
    "Ġthreatened": 8329,
    "Ġintelligently": 4509,
    "Ġfolk": 10375,
    "Ġframework": 1877,
    "Ġgardiners": 11157,
    "Ġapex": 24342,
    "Ġbravest": 23838,
    "uel": 6966,
    "Ġearning": 23938,
    "Ġtoe": 13935,
    "Ġwig": 9161,
    "ondescript": 22911,
    "Ġgaiters": 20459,
    "Ġpush": 9184,
    "Ġquiver": 16000,
    "riety": 12742,
    "Ġcursed": 6726,
    "Ġdeg": 3280,
    "Ġstudent": 14474,
    "incible": 16497,
    "relate": 24008,
    "Ġloathsome": 13526,
    "Ġspat": 2666,
    "won": 7144,
    "Ġreminded": 9998,
    "Ġmaster": 3679,
    "Ġberth": 8679,
    "Ġskul": 22792,
    "Ġsighed": 10337,
    "erve": 12546,
    "Ġneared": 14072,
    "advantage": 8658,
    "rely": 6123,
    "network": 1917,
    "Ġencountering": 11269,
    "Ġhideousness": 16915,
    "Ġbraz": 19356,
    "ruin": 22173,
    "yield": 13808,
    "Ġconductor": 24004,
    "app": 1039,
    "Ġanxiety": 5408,
    "Ġshop": 9251,
    "Ġoakshott": 12227,
    "Ġham": 3422,
    "Ġuniversity": 13119,
    "composed": 14739,
    "Ġindividually": 22954,
    "Ġbattalions": 25776,
    "Ġconfined": 7465,
    "Ġexpressed": 4464,
    "Ġmechanism": 2446,
    "Ġenergetic": 15196,
    "Ġaddition": 1144,
    "Ġglistening": 12363,
    "hval": 20897,
    "denial": 18716,
    "Ġrequesting": 24632,
    "princ": 8620,
    "Ġensl": 19273,
    "Ġcolumb": 22858,
    "liked": 10508,
    "Ġdisappeared": 5645,
    "Ġarticulate": 24432,
    "Ġungover": 18255,
    "Ġpreserve": 7529,
    "Ġbe": 336,
    "impud": 23759,
    "ructive": 18538,
    "Ġprinciples": 10010,
    "Ġtim": 4577,
    "pacing": 21020,
    "Ġeach": 893,
    "Ġkissed": 10044,
    "Ġtrying": 4838,
    "Ġejac": 10203,
    "Ġdistrustful": 25054,
    "Ġemployer": 19430,
    "rison": 13778,
    "er": 269,
    "Ġmetropolis": 17273,
    "Ġmetropol": 11135,
    "nants": 17613,
    "ruck": 6848,
    "Ġcommander": 8624,
    "Ġproduces": 2093,
    "Ġindepend": 3666,
    "nx": 17607,
    "Ġunfulfilled": 26509,
    "visitors": 13346,
    "Ġunex": 11711,
    "Ġchristians": 13306,
    "Ġevenings": 18753,
    "Ġtrait": 23071,
    "atible": 17772,
    "Ġclean": 5652,
    "Ġgrey": 4510,
    "path": 10118,
    "manif": 14372,
    "Ġbrush": 17864,
    "orious": 6007,
    "Ġnewspapers": 17186,
    "idays": 21767,
    "Ġattachment": 6049,
    "Ġcylinders": 25943,
    "Ġincantation": 26257,
    "Ġiceberg": 14715,
    "gish": 20872,
    "Ġwitty": 21291,
    "thoroughly": 26508,
    "Ġsickened": 16775,
    "aret": 7417,
    "Ġconvers": 2911,
    "Ġwhelm": 25998,
    "sand": 21051,
    "Ġdav": 15587,
    "Ġwarmed": 12022,
    "Ġfacial": 10605,
    "icted": 5936,
    "intelligence": 5882,
    "dee": 11731,
    "necessarily": 19630,
    "ology": 1527,
    "Ġdirect": 1471,
    "island": 10794,
    "serve": 13043,
    "patient": 25342,
    "Ġidea": 2488,
    "Ġreplied": 2265,
    "apes": 9740,
    "Ġnobler": 14173,
    "Ġminut": 2204,
    "Ġmir": 9646,
    "Ġinsupportable": 13931,
    "Ġrelinqu": 12979,
    "trowsers": 17691,
    "Ġcurt": 18838,
    "have": 2058,
    "pall": 17628,
    "Ġhospitality": 13511,
    "bingleys": 19633,
    "Ġlodged": 11252,
    "Ġblanched": 26282,
    "Ġparc": 10920,
    "ite": 712,
    "entrance": 12655,
    "search": 8464,
    "Ġspoken": 4836,
    "Ġnation": 12645,
    "Đ": 209,
    "Ġtwain": 16117,
    "veh": 12677,
    "etting": 21577,
    "Ġheels": 10850,
    "Ġpharaoh": 26585,
    "Ġflitting": 13023,
    "throt": 25659,
    "possess": 5983,
    "Ġwaldman": 11345,
    "bu": 5132,
    "Ġvillas": 24050,
    "Ġroses": 11784,
    "Ġpink": 12616,
    "adie": 18088,
    "Ġowest": 25091,
    "Ġexagger": 12717,
    "nar": 12491,
    "------": 12131,
    "Ġprofusion": 23567,
    "eminent": 25104,
    "Ġlandowner": 23379,
    "Ġinterpre": 1588,
    "Ġrush": 5924,
    "Ġimpatience": 7509,
    "yramid": 8367,
    "Ġfurs": 18738,
    "dles": 11480,
    "Ġthoroughfares": 26095,
    "philips": 20033,
    "Ġlust": 9197,
    "fell": 6953,
    "Ġglimmered": 20170,
    "Ġpenetrate": 12267,
    "fluke": 25204,
    "isis": 12577,
    "Ġmalay": 24391,
    "Ġlimited": 23544,
    "iarity": 8743,
    "Ġsmooth": 2782,
    "Ġheathen": 10565,
    "ames": 2958,
    "Ġ1950": 11359,
    "Ġdragon": 14943,
    "Ġrelationship": 2319,
    "Ġeternal": 5975,
    "circumstances": 8046,
    "dry": 13702,
    "redible": 15802,
    "Ġsneezes": 24698,
    "Ġany": 688,
    "Ġcriminal": 7537,
    "Ġgrain": 15829,
    "vex": 21695,
    "ĠĠĠĠĠĠĠĠĠĠĠĠĠĠĠĠĠĠĠĠĠĠĠĠĠĠ": 13386,
    "Ġimprecations": 25820,
    "atived": 21261,
    "Ġenthus": 7232,
    "oring": 1861,
    "Ġneck": 4885,
    "Ġappal": 18359,
    "ihood": 20921,
    "happening": 16564,
    "papers": 12499,
    "!âĢĿ": 846,
    "Ġboarders": 16600,
    "ories": 4753,
    "Ġtass": 15469,
    "Ġunqualified": 22058,
    "Ġhaste": 9003,
    "Ġhover": 15617,
    "Ġchoicest": 24220,
    "izes": 885,
    "Ġelderly": 13493,
    "Ġcontracted": 12858,
    "forks": 26387,
    "Ġcollapsed": 15080,
    "Ġpar": 456,
    "Ġvers": 7563,
    "parted": 21015,
    "Ġlad": 2368,
    "combination": 25486,
    "landlord": 9839,
    "Ġaffl": 14385,
    "Ġlisten": 4673,
    "poor": 6060,
    "Ġassembly": 10642,
    "Ġawaken": 23585,
    "arnel": 18124,
    "Ġgerman": 6141,
    "term": 3756,
    "Ġstupidity": 15049,
    "Ġherd": 7887,
    "Ġwit": 3837,
    "Ġfainted": 8791,
    "razor": 21634,
    "Ġedition": 16433,
    "offices": 19062,
    "Ġsenior": 17171,
    "Ġinmost": 17930,
    "Ġt": 261,
    "Ġestates": 16458,
    "miraculous": 26396,
    "manners": 16183,
    "spears": 23939,
    "Ġtherefore": 2239,
    "ractions": 11632,
    "Ġreconciled": 13585,
    "Ġpedro": 14994,
    "Ġfacilitate": 26098,
    "Ġbrawny": 13611,
    "Ġmand": 21303,
    "Ġinsertion": 26343,
    "usations": 15945,
    "Ġincorruption": 26309,
    "large": 6625,
    "trust": 21077,
    "Ġfugitive": 17326,
    "account": 5329,
    "Ġendeavor": 16545,
    "el": 306,
    "Ġgap": 21596,
    "Ġpicture": 4856,
    "Ġprocedures": 9411,
    "Ġconst": 1911,
    "Ġparade": 18301,
    "unched": 10235,
    "pate": 21009,
    "fowl": 17549,
    "Ġblame": 6446,
    "Ġspur": 18303,
    "Ġindolent": 13001,
    "Ġplum": 11820,
    "Ġqueen": 3209,
    "Ġmornings": 16236,
    "Ġconsequences": 11335,
    "Ġmechanis": 1230,
    "Ġseeing": 2889,
    "Ġadmire": 5263,
    "Ġveget": 11884,
    "Ġbeads": 18083,
    "Ġrevelry": 15135,
    "Ġquantization": 19853,
    "quished": 21845,
    "Ġnavigation": 9992,
    "wet": 15451,
    "ishment": 3505,
    "Ġfathoms": 9083,
    "Ġbuoyant": 13530,
    "owner": 18611,
    "Ġ7": 4745,
    "Ġmight": 961,
    "Ġaltogether": 4831,
    "Ġminers": 22828,
    "warning": 25531,
    "ity": 417,
    "best": 6111,
    "Ġspeech": 4609,
    "Ġconj": 8460,
    "Ġdecision": 2678,
    "Ġhorizon": 6632,
    "analysis": 26173,
    "Ġsuperlative": 26074,
    "nobody": 16133,
    "Ġembrace": 16990,
    "consolatory": 25306,
    "Ġspit": 22121,
    "ö": 183,
    "Ġrang": 9244,
    "aby": 18106,
    "Ġunderground": 18984,
    "linked": 17593,
    "asily": 13945,
    "iate": 6505,
    "Ġexcitement": 9381,
    "Ġfurthest": 22813,
    "Ġhogshead": 26367,
    "meantime": 9091,
    "ibbald": 18846,
    "eminently": 25105,
    "59": 17473,
    "Ġrossum": 3014,
    "Ġrested": 9378,
    "Ġtint": 13816,
    "Ġtort": 5901,
    "Ġgrammatical": 13537,
    "Ġlike": 669,
    "Ġsecure": 4912,
    "Ġmaternal": 11059,
    "apparent": 11041,
    "simple": 13450,
    "Ġner": 1647,
    "Ġcase": 1942,
    "athy": 14322,
    "deck": 4497,
    "Ġflash": 8229,
    "Ġineffectual": 17383,
    "Ġtongues": 14862,
    "Ġswish": 23050,
    "daggoo": 13706,
    "Ġwrithing": 11944,
    "Ġtweezers": 26556,
    "required": 17030,
    "Ġflavor": 16251,
    "Ġloading": 15872,
    "Ġgra": 416,
    "Ġhobbling": 25644,
    "fro": 8732,
    "Ġglittering": 10052,
    "Ġconsecut": 18111,
    "Ġbestirred": 20450,
    "Ġissu": 6253,
    "condem": 16342,
    "Ġ12": 5483,
    "ained": 3064,
    "Ġconstraints": 2743,
    "ancholy": 5070,
    "Ġwoke": 21288,
    "afric": 19178,
    "Ġaffrighted": 13570,
    "Ġexamine": 7734,
    "Ġdoctor": 5067,
    "Ġmanhandle": 22326,
    "aping": 8193,
    "token": 21081,
    "Ġlatterly": 24082,
    "Ġcl": 557,
    "Ġcrowned": 16841,
    "Ġspecially": 11996,
    "Ġkilled": 4955,
    "Ġdrawings": 14721,
    "Ġadmir": 12020,
    "Ġregulate": 22565,
    "Ġrocky": 13385,
    "inger": 6812,
    "unwittingly": 25801,
    "lying": 7174,
    "Ġthirdly": 24140,
    "Ġnineveh": 13387,
    "Ġwoman": 2390,
    "unimportant": 18159,
    "ping": 9615,
    "sleepy": 24729,
    "marked": 9048,
    "Ġhope": 1791,
    "Ġyojo": 7610,
    "Ġtri": 4813,
    "thur": 7188,
    "Ġacqu": 1418,
    "Ġtraverse": 18890,
    "orrah": 17875,
    "Ġfancied": 7326,
    "Ġautonomous": 10675,
    "Ġalpha": 13586,
    "Ġevaluation": 16538,
    "Ġcorrupt": 11921,
    "ked": 5616,
    "lipped": 16215,
    "Ġacquiescence": 20329,
    "sin": 21047,
    "Ġconfeder": 25708,
    "Ġaddu": 22099,
    "gration": 9121,
    "Ġunreasonable": 12775,
    "Ġtension": 13823,
    "behind": 6779,
    "Ġmaj": 3922,
    "ckery": 22087,
    "Ġbull": 7839,
    "devils": 20031,
    "Ġmean": 742,
    "Ġillustrious": 17109,
    "Ġnuptial": 25782,
    "miles": 10712,
    "Ġwinc": 9642,
    "Ġsent": 1775,
    "pounds": 21024,
    "exciting": 19667,
    "rael": 21626,
    "Ġattentions": 5877,
    "Ġpebbles": 16127,
    "creature": 5346,
    "Ġwilds": 16508,
    "Ġeigenvalues": 4998,
    "Ġsudden": 2000,
    "enances": 10153,
    "burned": 25079,
    "without": 4846,
    "ach": 435,
    "Ġleaned": 7607,
    "ć": 200,
    "Ġdespatched": 23827,
    "Ġguid": 2640,
    "thomas": 18219,
    "Ġresigned": 9767,
    "inch": 10755,
    "Ġelder": 7224,
    "Ġsoothing": 8172,
    "ograph": 4797,
    "Ġkrusen": 20713,
    "Ġlaid": 3936,
    "Ġredeem": 20498,
    "Ġbravery": 23834,
    "Ġsaf": 3998,
    "feel": 3808,
    "Ġdecember": 15007,
    "Ġbarbs": 10531,
    "Ġinterlude": 16070,
    "religion": 20574,
    "ensions": 14258,
    "ave": 979,
    "Ġresiding": 16058,
    "Ġplanted": 9773,
    "althily": 19357,
    "Ġsepulchral": 25892,
    "://": 11465,
    "Ġchilly": 25562,
    "Ġunforgiving": 25995,
    "Ġthanks": 6707,
    "artificial": 1016,
    "omination": 21659,
    "Ġbang": 17854,
    "Ġtones": 8399,
    "Ġmeekly": 26490,
    "Ġframe": 1798,
    "Ġintellectual": 11401,
    "Ġbubble": 13533,
    "countenance": 6925,
    "Ġmarvelled": 18873,
    "uses": 11759,
    "ozy": 17622,
    "Ġcandle": 8291,
    "Ġinflicted": 11365,
    "Ġretire": 10381,
    "ateur": 22003,
    "ĠcÃ¦sar": 20578,
    "passed": 8025,
    "Ġdazz": 11593,
    "Ġorigin": 4117,
    "water": 4868,
    "youn": 5690,
    "Ġblanche": 18818,
    "Ġelevation": 14898,
    "Ġcrabs": 19173,
    "Ġgrieve": 14706,
    "spot": 9789,
    "Ġsiamese": 20481,
    "Ġpartners": 11854,
    "Ġlun": 7855,
    "Ġilluminated": 20174,
    "clair": 18932,
    "flutterings": 26606,
    "Ġunprecedented": 15852,
    "Ġinfants": 16365,
    "Ġboarded": 13231,
    "contr": 12055,
    "Ġwhiteness": 5918,
    "itute": 9651,
    "Ġbenefits": 4284,
    "cask": 12444,
    "Ġmal": 5221,
    "achus": 18283,
    "valuable": 8245,
    "Ġpartaking": 22698,
    "Ġcoiling": 12903,
    "luding": 6700,
    "Ġunprinciple": 18254,
    "Ġpil": 5014,
    "insupportable": 21192,
    "Ġexplain": 545,
    "Ġnailing": 21524,
    "respond": 12541,
    "destroyed": 15259,
    "Ġost": 9649,
    "Ġbuild": 6474,
    "magistrate": 19862,
    "Ġimmemorially": 25383,
    "Ġancestry": 25641,
    "Ġrelent": 18774,
    "lord": 3861,
    "Ġpresents": 8244,
    "fool": 9047,
    "flood": 19805,
    "Ġvalidation": 2361,
    "Ġpossibility": 7458,
    "cream": 15330,
    "Ġburning": 5976,
    "Ġpertin": 18450,
    "Ġenem": 4708,
    "idated": 11660,
    "Ġmortal": 4681,
    "Ġgips": 10841,
    "oky": 8197,
    "evidently": 20344,
    "ux": 7813,
    "rederick": 14078,
    "Ġforgo": 21770,
    "atigable": 15269,
    "Ġperceptibly": 25821,
    "Ġunimportant": 22027,
    "amusement": 15281,
    "Ġsetting": 7046,
    "Ġandes": 12639,
    "Ġbroadway": 23981,
    "Ġarches": 14162,
    "eldom": 4411,
    "Ġfidel": 12594,
    "Ġdetailed": 12822,
    "aw": 1450,
    "Ġdelivery": 18975,
    "entering": 17976,
    "Ġjeopardized": 20229,
    "Ġfeigned": 22207,
    "Ġparamore": 22119,
    "Ġgover": 2464,
    "Ġperiods": 13301,
    "Ġuntil": 2669,
    "hat": 6956,
    "Ġmeek": 21809,
    "Ġcorpusants": 13676,
    "Ġxxii": 24478,
    "Ġunfelt": 24108,
    "onious": 15517,
    "appalled": 18759,
    "Ġson": 2986,
    "eline": 2306,
    "Ġshort": 2225,
    "tures": 21068,
    "Ġput": 1800,
    "vengeance": 13354,
    "Ġbleeds": 24397,
    "ribution": 14306,
    "acknowled": 10975,
    "Ġgenerally": 4154,
    "subtle": 24243,
    "Ġpunctures": 25133,
    "page": 13770,
    "principle": 10650,
    "Ġhardship": 18913,
    "Ġlastly": 16204,
    "Ġinclined": 6622,
    "Ġnecessitated": 23925,
    "É": 138,
    "trampled": 26333,
    "finally": 9498,
    "Ġcaval": 25769,
    "nep": 20985,
    "Ġmead": 8835,
    "programming": 10062,
    "Ġrelating": 2707,
    "backward": 2685,
    "ceptible": 10956,
    "Ġliberties": 19666,
    "Ġcorrected": 10448,
    "Ġwatched": 6297,
    "umb": 3479,
    "Ġfa": 4819,
    "Ġking": 2307,
    "Ġdeliciousness": 24124,
    "Ġmulti": 1043,
    "Ġmig": 13855,
    "10": 17472,
    "Ġburglar": 17354,
    "Ġer": 8104,
    "removing": 17764,
    "iter": 4389,
    "disapprobation": 19155,
    "3": 23,
    "Ġjoists": 19232,
    "Ġlethargy": 26483,
    "Ġexpert": 18859,
    "nam": 2771,
    "ications": 4442,
    "abound": 15737,
    "invested": 17117,
    "Ġblu": 2688,
    "Ġcanallers": 13625,
    "Ġrealistic": 5860,
    "Ġintended": 5548,
    "Ġdancing": 5703,
    "Ġbit": 2968,
    "Ġcomprehended": 11294,
    "Ġruinous": 24633,
    "Ġinto": 649,
    "Ġinexhaustible": 16981,
    "Ġsciences": 15942,
    "ĸ": 249,
    "net": 1193,
    "Ġasyl": 12732,
    "stay": 9679,
    "Ġvenom": 24238,
    "reject": 21235,
    "Ġashen": 21896,
    "plings": 11693,
    "apped": 5395,
    "completely": 12418,
    "animate": 12575,
    "terrors": 25041,
    "Ġmaddened": 17244,
    "Ġger": 21588,
    "Ġpurely": 12229,
    "K": 47,
    "Ġblackstone": 23387,
    "Ġgetting": 4063,
    "Ġvote": 21944,
    "opposite": 19928,
    "Ġcooking": 16646,
    "Ġleaks": 16447,
    "inte": 5144,
    "eth": 620,
    "promote": 24727,
    "Ġcooked": 13265,
    "deemed": 18315,
    "Ġfrontispiece": 23911,
    "Ġ55": 24323,
    "Ġerror": 1766,
    "Ġmantelpiece": 15206,
    "this": 1441,
    "Ġpulpit": 7470,
    "Ġtheorem": 2330,
    "Ġmechan": 1191,
    "conversations": 24749,
    "Ġdemands": 19642,
    "perceive": 12808,
    "nson": 16086,
    "Ġvagueness": 25737,
    "Ġexalted": 12410,
    "Ġscrib": 22280,
    "Ġsuper": 2154,
    "shortly": 12256,
    "Ġlived": 3987,
    "wedding": 13369,
    "¦": 104,
    "Ġresolute": 19244,
    "pred": 2805,
    "iners": 4937,
    "Ġstruggled": 9904,
    "26": 10072,
    "rippling": 24714,
    "Ġdevotion": 22720,
    "Ġguard": 6178,
    "Ġpractises": 23292,
    "Ġbulk": 5591,
    "Ġbennets": 9805,
    "vid": 915,
    "Ġmann": 18416,
    "Ġpsychology": 11448,
    "Ġwasted": 9703,
    "volume": 18600,
    "jolly": 20930,
    "aur": 15307,
    "held": 3836,
    "Ġinstruments": 12221,
    "Ġvicious": 24403,
    "aciously": 12905,
    "Ġfatig": 6756,
    "Ġoverwhelmed": 11403,
    "Ġhorrify": 23816,
    "baboon": 25516,
    "brimming": 23576,
    "Ġbulkhead": 24511,
    "nigh": 13762,
    "assumed": 22305,
    "Ġhither": 4759,
    "Ġcrushing": 20175,
    "bearing": 9764,
    "Ġrespected": 11951,
    "momentum": 4991,
    "circumamb": 26087,
    "mate": 5358,
    "Ġstrangeness": 16707,
    "Ġpointing": 5661,
    "Ġpersons": 6182,
    "thing": 1480,
    "Ġnarwhale": 12291,
    "Ġlinked": 15076,
    "ig": 323,
    "Ġfamily": 1969,
    "Ġbedfellow": 16436,
    "Ġportable": 19368,
    "irous": 8838,
    "Ġencounters": 19579,
    "puzzling": 26143,
    "sens": 8095,
    "rospect": 11611,
    "Ġfatt": 15576,
    "Ġaslant": 21898,
    "naturally": 14572,
    "due": 22407,
    "Ġfreshets": 25705,
    "Ġlurks": 11290,
    "Ġdevious": 22718,
    "inclination": 20056,
    "Ġpluck": 15611,
    "Ġamazed": 14888,
    "arling": 10814,
    "Ġspout": 3282,
    "Ġblood": 3165,
    "ide": 722,
    "umst": 2507,
    "Ġdiscernible": 15068,
    "Ġrachel": 11845,
    "Ġblacksmith": 6595,
    "leeward": 15209,
    "justine": 7682,
    "useless": 14594,
    "Ġparadise": 11195,
    "Ġpeddling": 24799,
    "Ġarg": 4766,
    "ĠĠĠĠĠĠĠĠĠĠĠĠĠĠĠĠĠĠĠĠĠĠĠĠĠĠĠĠĠĠĠĠĠĠ": 14614,
    "inisc": 15487,
    "ler": 3491,
    "Ġbubbles": 11398,
    "ĠcÃ¦": 15552,
    "Ġoffered": 5816,
    "ows": 1919,
    "Ġseriously": 7061,
    "ocratic": 17245,
    "Ġdiscomposed": 25580,
    "nikin": 23247,
    "Ġwrest": 11570,
    "Ġbrist": 14377,
    "exceeded": 24999,
    "Ġvariants": 1793,
    "baden": 25615,
    "tort": 17675,
    "Ġintersect": 22574,
    "Ġbeds": 14551,
    "Ġtandem": 26411,
    "circle": 16736,
    "Ġextort": 22721,
    "Ġpacifics": 24373,
    "_.": 2213,
    "Ġseverest": 14090,
    "abern": 21787,
    "Ġcurtain": 14409,
    "Ġwriggling": 15256,
    "Ġcele": 9899,
    "Ġguiding": 19240,
    "Ġspool": 24806,
    "Ġpea": 14316,
    "iluvian": 18060,
    "umerable": 11723,
    "Ġpark": 5465,
    "Ġadversary": 12171,
    "Ġhumph": 22880,
    "aky": 18411,
    "Ġgrammar": 1059,
    "Ġhenry": 5197,
    "Ġcharlotte": 3886,
    "Ġpuff": 6526,
    "Ġexpressive": 8982,
    "Ġun": 423,
    "ropol": 10952,
    "phant": 6287,
    "Ġdemand": 4947,
    "Ġdisappoint": 24205,
    "Ġwisest": 11232,
    "Ġhomeless": 23385,
    "Ġhieroglyphic": 25587,
    "Ġstr": 757,
    "Ġstrata": 26027,
    "Ġgrant": 11871,
    "inev": 21976,
    "Ġheredit": 9216,
    "Ġtigris": 25759,
    "Ġcolumn": 9327,
    "Ġsequ": 983,
    "Ġshakes": 10904,
    "Ġoce": 3030,
    "Ġmeanly": 12907,
    "Ġdispose": 23877,
    "ishop": 9741,
    "Ġpalsy": 25778,
    "Ġswandam": 11088,
    "Ġtahiti": 13617,
    "Ġthirst": 7589,
    "orters": 21399,
    "archangel": 18791,
    "Ġrewarded": 14939,
    "Ġmarbank": 23034,
    "athered": 6972,
    "Ġthrown": 4639,
    "rival": 12741,
    "writes": 4988,
    "stupid": 12673,
    "Ġsearching": 13160,
    "Ġspeaker": 19148,
    "Ġauxiliary": 26418,
    "Ġpumps": 8426,
    "Ġxv": 23405,
    "Ġjur": 12832,
    "sincerely": 24584,
    "fare": 7798,
    "iriously": 18171,
    "learnt": 23437,
    "inu": 1117,
    "Ġtargets": 4200,
    "ú": 187,
    "acrity": 14278,
    "Ġacknowledges": 24688,
    "Ġmilitia": 13315,
    "chronicle": 26480,
    "Ġmans": 15534,
    "romeda": 17262,
    "ee": 1660,
    "bolts": 11420,
    "Ġjiff": 22293,
    "Ġhuff": 21487,
    "Ġtuning": 3072,
    "Ġclutch": 15053,
    "Ġshouts": 19536,
    "ds": 4688,
    "Ġproflig": 23566,
    "Ġeffectively": 2638,
    "Ġpitiful": 13236,
    "Ġherring": 14126,
    "unworthy": 18161,
    "Ġadaptively": 4191,
    "Ġliter": 8811,
    "Ġoutset": 15953,
    "discern": 14850,
    "two": 3856,
    "angled": 6844,
    "Ġmonoton": 3635,
    "Ġpurchasing": 19874,
    "Ġcommotion": 9779,
    "Ġhaught": 10252,
    "Ġdanes": 25156,
    "Ġele": 1965,
    "Ġoriental": 9096,
    "Ġprosecution": 12379,
    "waistcoat": 17360,
    "Ġsmith": 16062,
    "Ġseaward": 22943,
    "sche": 13015,
    "Ġascribe": 16782,
    "Ġwhir": 6393,
    "Ġselect": 3995,
    "paid": 15413,
    "Ġexcell": 10415,
    "asons": 6014,
    "Ġcryst": 9916,
    "io": 3798,
    "Ġpencil": 11941,
    "Ġfidgeted": 25889,
    "Ġbell": 4635,
    "distinguish": 19571,
    "indirectly": 18437,
    "Ġbalances": 2344,
    "alle": 1293,
    "Ġbarber": 23788,
    "Ġkelson": 18350,
    "Ġexceed": 1344,
    "Ġpenet": 6888,
    "fortunate": 4792,
    "Ġaccost": 12844,
    "Ġaccelerating": 1618,
    "lan": 15376,
    "Ġarchitecture": 1142,
    "Ġrecess": 10847,
    "oned": 4630,
    "Ġbeneath": 3233,
    "Ġnarwhales": 24902,
    "halfway": 24311,
    "collins": 6916,
    "Ġbridal": 14953,
    "Ġquito": 24408,
    "Ġirrespective": 23373,
    "Ġwatch": 2747,
    "olstad": 7611,
    "Ġsmothered": 20719,
    "Ġopen": 1549,
    "Ġdecanter": 22441,
    "olds": 9310,
    "Ġ6": 5141,
    "Ġpetty": 19594,
    "Ġvelvets": 25393,
    "Ġwharves": 13504,
    "Ġaccumulating": 2725,
    "8": 28,
    "an": 278,
    "tes": 11528,
    "Ġattack": 5478,
    "Ġfad": 17876,
    "Ġclient": 5556,
    "Ġsegment": 12755,
    "Ġsemantics": 2899,
    "ignific": 11953,
    "Ġplaguy": 22601,
    "Ġstung": 21735,
    "Ġcastaway": 16640,
    "secut": 7866,
    "Ġdraw": 3669,
    "Ġaerial": 21197,
    "Ġmy": 412,
    "like": 1886,
    "tra": 4934,
    "Ġridges": 16731,
    "heat": 15496,
    "delightful": 12194,
    "quely": 10231,
    "Ġpr": 1597,
    "Ġfright": 3793,
    "teringly": 21820,
    "Ġpropose": 9852,
    "Ġearthquake": 14628,
    "mastod": 23971,
    "Ġorphan": 12381,
    "Ġovercame": 9742,
    "azz": 8261,
    "Ġfears": 5729,
    "Ġsooner": 5573,
    "Ġpursue": 6314,
    "Ġforms": 6397,
    "northern": 23667,
    "Ġregions": 10323,
    "Ġtrough": 15962,
    "Ġhooped": 23353,
    "Ġsings": 15504,
    "Ġsettlement": 19835,
    "Ġnerves": 2628,
    "cheered": 23804,
    "Ġilluminate": 17192,
    "Ġmemoirs": 26205,
    "Ġloc": 10914,
    "addition": 13382,
    "Ġamput": 16031,
    "irresist": 21909,
    "Ġcoarsely": 25828,
    "Ġspreading": 13376,
    "Ġconventional": 25547,
    "Ġwouldn": 6045,
    "Ġliberty": 7761,
    "Ġstreet": 2962,
    "Ġpenn": 11112,
    "ssed": 3732,
    "Ġte": 1162,
    "Ġfins": 9663,
    "laborers": 23913,
    "clay": 18930,
    "would": 2356,
    "Ġshave": 21993,
    "Ġslender": 11938,
    "Ġaven": 10759,
    "tempt": 21078,
    "Ġmouthful": 16574,
    "ernsey": 8901,
    "twig": 23699,
    "altern": 17941,
    "Ġcam": 10161,
    "Ġcuff": 17829,
    "icide": 11617,
    "Ġboasted": 16105,
    "plague": 21950,
    "Ġnavel": 24576,
    "antucket": 2645,
    "retion": 9361,
    "Ġforbidding": 17079,
    "urs": 6989,
    "Ġinvective": 26181,
    "Ġbirth": 6524,
    "Ġheaps": 11641,
    "forehead": 8515,
    "Ġprincipal": 6496,
    "Ġnasty": 17442,
    "onym": 14649,
    "Ġruddy": 17125,
    "Ġyes": 2690,
    "Ġdreamt": 23936,
    "wled": 15453,
    "respectively": 24700,
    "Ġcertain": 1555,
    "repaid": 24491,
    "Ġcreditor": 24290,
    "Ġsab": 10762,
    "pt": 386,
    "Ġrazor": 22652,
    "shop": 14236,
    "Ġwhistling": 19789,
    "Ġhoe": 23349,
    "Ġunexampled": 20358,
    "ning": 948,
    "Ġconfound": 23303,
    "Ġheadland": 22892,
    "asburgh": 15644,
    "Ġhysterical": 26092,
    "bowed": 10683,
    "Ġgot": 2280,
    "Ġsteadfastly": 10651,
    "Ġsolitudes": 22883,
    "Ġgem": 21591,
    "Ġtransformed": 22606,
    "Ġanteced": 26177,
    "ot": 346,
    "rons": 21038,
    "Ġencamp": 22797,
    "Ġdepends": 1086,
    "bits": 17488,
    "metal": 24765,
    "plish": 18200,
    "Ġguided": 10460,
    "indifference": 15980,
    "Ġfanning": 23388,
    "ising": 2254,
    "Ġshoulders": 5566,
    "Ġwilling": 7420,
    "Ġmatlock": 18798,
    "Ġlovely": 4710,
    "cannon": 22964,
    "different": 6501,
    "Ġsuppressing": 22998,
    "ale": 506,
    "Ġmisgivings": 15289,
    "Ġstared": 8454,
    "onist": 21249,
    "dish": 12450,
    "Ġagile": 22510,
    "Ġstrenuously": 17447,
    "Ġdeparture": 6490,
    "Ġcamp": 9164,
    "Ġdoct": 4452,
    "Ġterrified": 14671,
    "Ġraising": 8909,
    "Ġmaids": 19690,
    "bal": 2156,
    "Ġnib": 13939,
    "Ġacid": 22679,
    "Ġlurked": 11291,
    "Ġmichael": 20678,
    "Ġnecessarily": 13246,
    "Ġbraced": 16579,
    "ume": 4835,
    "Ġharris": 13926,
    "Ġaccorded": 24086,
    "Ġcate": 4106,
    "Ġespecial": 26410,
    "only": 3308,
    "Ġgrappling": 25812,
    "Ġdivulged": 16648,
    "Ġcriminals": 19921,
    "Ġhil": 10821,
    "becomes": 22492,
    "Ġign": 8294,
    "Ġseized": 4833,
    "ellation": 12748,
    "Ġfret": 10806,
    "Ġoccurs": 1858,
    "Ġrespectfully": 18994,
    "Ġcould": 703,
    "chief": 4644,
    "Ġdeparted": 5564,
    "Ġxliv": 23407,
    "hamlet": 23261,
    "qual": 8156,
    "Ġchilled": 18382,
    "era": 13846,
    "guess": 14760,
    "Ġdisinterested": 16054,
    "Ġnearer": 5301,
    "others": 7669,
    "Ġmystery": 5509,
    "Ġpresently": 5116,
    "intment": 4720,
    "imitably": 21708,
    "chambers": 25454,
    "Ġrises": 9712,
    "meeting": 11017,
    "moon": 10335,
    "Ġtries": 9150,
    "ternatural": 12713,
    "delirious": 19504,
    "Ġdomin": 10462,
    "Ġinattention": 17931,
    "Ġh": 290,
    "Ġafore": 10758,
    "au": 778,
    "Ġirregularity": 25324,
    "igan": 21696,
    "Ġghostliness": 24651,
    "Ġcomfits": 21856,
    "difficult": 10057,
    "vol": 732,
    "Ġexerc": 6833,
    "iag": 20915,
    "ouse": 1190,
    "copy": 5133,
    "Ġpreliminaries": 25176,
    "entary": 21564,
    "mber": 7803,
    "\"],": 26120,
    "axed": 8888,
    "ernity": 18615,
    "Ġaudibly": 24771,
    "âĢĻ": 378,
    "sleep": 6511,
    "Ġ5": 4935,
    "Ġtools": 11608,
    "Ġfrom": 434,
    "cru": 7126,
    "Ġstature": 10863,
    "Ġthem": 640,
    "hammer": 14490,
    "Ġactivation": 918,
    "Ġmiserable": 3633,
    "Ġsuitable": 18280,
    "Ġconditions": 8306,
    "Ġfriesland": 26442,
    "five": 6356,
    "lamp": 9608,
    "Ġeldest": 6571,
    "aper": 4999,
    "Ġobserved": 3540,
    "Ġladen": 19176,
    "Ġparaphrasing": 26526,
    "Ġsell": 7825,
    "Ġlivelihood": 24774,
    "orrow": 2920,
    "Ġtarpaul": 17730,
    "Ġlandsman": 11350,
    "aths": 22700,
    "Ġengineer": 11973,
    "helmsman": 24287,
    "Ġinfinite": 8576,
    "Ġharpooned": 13258,
    "Ġuntoward": 19164,
    "Ġoffices": 14337,
    "Ġspaniard": 20361,
    "compose": 24029,
    "Ġfundamentals": 14635,
    "zeal": 16292,
    "Ġhermit": 15855,
    "his": 1413,
    "âĢ": 294,
    "oniously": 21256,
    "Ġromish": 19583,
    "Ġventured": 7501,
    "Ġwield": 21289,
    "Ġgodson": 23356,
    "Ġpent": 17903,
    "moreover": 12966,
    "Ġsafer": 22167,
    "Ġgallied": 19555,
    "speak": 5504,
    "holloa": 19462,
    "Ġtails": 9901,
    "discrimin": 19607,
    "Ġark": 10276,
    "Ġoutriders": 26543,
    "Ġtwit": 12927,
    "Ġconfirms": 23308,
    "Ġsable": 15499,
    "Ġadd": 630,
    "wretched": 10741,
    "Ġconstrain": 2630,
    "Ġvale": 14081,
    "luc": 9751,
    "Ġfresher": 23208,
    "Ġirish": 14534,
    "ipotent": 10958,
    "Ġpol": 2579,
    "Ġkent": 6691,
    "turtle": 12209,
    "Ġgreat": 897,
    "Ġepisode": 26346,
    "Ġsurviv": 13433,
    "acca": 23596,
    "Ġadopted": 15177,
    "Ġcustoms": 19651,
    "bar": 7541,
    "olen": 9699,
    "tooth": 18578,
    "ifling": 15780,
    "wrong": 13202,
    "Ġimpending": 22381,
    "kitchen": 17585,
    "Ġbeau": 9224,
    "Ġindirect": 18834,
    "Ġsynd": 22203,
    "Ġproverb": 12714,
    "mes": 1195,
    "Ġsmiles": 6706,
    "alive": 10827,
    "acquainted": 7313,
    "Ġfixed": 2687,
    "nostril": 26559,
    "appetite": 22842,
    "jar": 17577,
    "Ġsne": 6372,
    "adequate": 15202,
    "preading": 18497,
    "Ġsting": 10861,
    "doesn": 19819,
    "hil": 8378,
    "Ġnick": 21520,
    "Ġ82": 24458,
    "Ġdocks": 14175,
    "reduc": 5459,
    "iz": 363,
    "Ġprincip": 5600,
    "Ġannihilated": 20251,
    "akeman": 6267,
    "Ġoutskirts": 17456,
    "speps": 14336,
    "encouragement": 17422,
    "Ġgroan": 13322,
    "Ġhurtling": 24957,
    "Ġmurderous": 8315,
    "changed": 7175,
    "Ġpushing": 10819,
    "extric": 22768,
    "Ġopposing": 12038,
    "mmed": 7913,
    "linen": 25257,
    "Ġezek": 18009,
    "Ġvor": 15804,
    "income": 15485,
    "expound": 23662,
    "ifting": 6545,
    "Ġtechn": 9371,
    "rigible": 24931,
    "Ġbureau": 11589,
    "Ġmaintained": 12932,
    "Ġcaulk": 25440,
    "Ġvillain": 8635,
    "Ġresearches": 13137,
    "surely": 10569,
    "imagination": 13478,
    "Ġbre": 1915,
    "Ġunconnected": 18242,
    "hug": 17563,
    "invari": 21183,
    "Ġnods": 19064,
    "arian": 10316,
    "mit": 4933,
    "âĢĶâĢľ": 2974,
    "Ġrendered": 5773,
    "sword": 10726,
    "Ġbrim": 12972,
    "theirs": 23601,
    "Ġlengthen": 15651,
    "Ġunsafe": 22038,
    "Ġpicturesqueness": 24480,
    "Ġstride": 22612,
    "takes": 21074,
    "Ġexcluded": 16387,
    "plainly": 11089,
    "Ġdefer": 18821,
    "Ġsunshine": 14495,
    "lucases": 20209,
    "Ġmajority": 13288,
    "Ġlist": 2369,
    "Ġnine": 5369,
    "pronounce": 25192,
    "dogs": 25402,
    "Ġbiggest": 24566,
    "Ġaids": 12226,
    "ution": 4347,
    "wrinkles": 16555,
    "Ġgladstone": 23867,
    "Ġsoap": 14132,
    "Ġunlikely": 10908,
    "Ġcaution": 11346,
    "Ġreve": 2937,
    "ids": 21760,
    "Ġauthent": 14518,
    "emberley": 4167,
    "Ġgreek": 10630,
    "circumspect": 26086,
    "vings": 9750,
    "Ġappeared": 2779,
    "Ġsucking": 12784,
    "ĠdÃ¦mon": 7844,
    "Ġjurymen": 16847,
    "Ġimpelling": 22382,
    "spirit": 11313,
    "Ġbecame": 2694,
    "Ġstain": 18064,
    "ioning": 21506,
    "Ġinland": 11607,
    "2": 22,
    "Ġseamen": 5063,
    "Ġcommunicates": 24547,
    "ills": 1628,
    "Ġabusive": 22270,
    "ance": 478,
    "familiar": 19782,
    "Ġsuggest": 5417,
    "Ġvows": 15806,
    "Ġmysterious": 7527,
    "Ġlavater": 20494,
    "Ġflu": 3276,
    "Ġnative": 4640,
    "ouching": 13175,
    "Ġalarmed": 6923,
    "Ġrespectable": 6736,
    "Ġexperiences": 13021,
    "Ġtingling": 15091,
    "Ġimmense": 4952,
    "Ġnimble": 21525,
    "antage": 3875,
    "iquet": 17575,
    "Ġprobed": 18733,
    "ignation": 11128,
    "Ġrationally": 18213,
    "Ġlull": 15648,
    "Ġcomprehension": 15085,
    "ĠĠĠĠĠĠĠĠĠĠĠĠĠĠĠĠĠĠĠĠĠĠĠĠĠĠĠĠĠĠĠĠĠĠĠĠĠĠĠ": 19258,
    "Ġpleasing": 6190,
    "xic": 9145,
    "paralleled": 14509,
    "tall": 17673,
    "Ġchamp": 18381,
    "problems": 11434,
    "Ġcure": 21338,
    "science": 11907,
    "arat": 9180,
    "Ġruins": 16156,
    "Ġunsupp": 22018,
    "Ġcoffin": 4426,
    "Ġcrystall": 20225,
    "Ġpines": 12615,
    "Ġpostp": 12141,
    "dislike": 23493,
    "tumult": 12421,
    "designated": 26295,
    "Ġgracious": 8846,
    "Ġvi": 1955,
    "Ġprodigy": 19791,
    "ancy": 4391,
    "ost": 5360,
    "Ġsensational": 16391,
    "Ġchemistry": 11460,
    "Ġlung": 7167,
    "Ġburg": 23650,
    "Ġdissolved": 18554,
    "art": 590,
    "nades": 20996,
    "Ġquaff": 22411,
    "Ġmeta": 2896,
    "Ġroofs": 16985,
    "absolut": 8458,
    "Ġfully": 6342,
    "Ġextend": 18684,
    "Ġsoc": 3525,
    "Ġteaching": 10364,
    "Ġnicely": 8708,
    "cont": 2925,
    "Ġweak": 5098,
    "Ġeloquence": 11839,
    "immediate": 20092,
    "Ġwarming": 23557,
    "du": 603,
    "Ġscale": 1547,
    "rel": 3752,
    "Ġventilator": 8713,
    "bitious": 16669,
    "ider": 21762,
    "Ġassuming": 16693,
    "Ġsources": 10147,
    ".âĢĿ": 464,
    "Ġincomp": 12895,
    "Ġexertions": 13408,
    "Ġmerchants": 23732,
    "derbyshire": 18321,
    "Ġgrizzled": 11450,
    "surface": 10530,
    "Ġhauled": 11692,
    "talk": 6656,
    "Ġsex": 8841,
    "Ġenvirons": 13208,
    "Ġepicures": 25880,
    "Ġhereditarily": 25224,
    "Ġhappening": 14382,
    "Ġwealthy": 18178,
    "Ġimpertinence": 11366,
    "Ġhom": 9186,
    "wilful": 25086,
    "rim": 7137,
    "Ġgoethe": 22421,
    "Ġreconcile": 25291,
    "ief": 2046,
    "Ġener": 10896,
    "Ġexec": 19491,
    "Ġaddresses": 3766,
    "un": 373,
    "Ġaccosted": 13671,
    "Ġtidy": 17093,
    "Ġtriumphal": 24371,
    "Ġune": 4597,
    "bourne": 19102,
    "Ġtwinkled": 14311,
    "flow": 2234,
    "improve": 15709,
    "explain": 1481,
    "ingham": 21299,
    "Ġmaty": 22907,
    "lighter": 20958,
    "Ġglobular": 19014,
    "igation": 5917,
    "Ġdecap": 16018,
    "Ġmonuments": 22981,
    "Ġfest": 10804,
    "Ġfocus": 4232,
    "Ġshook": 4465,
    "ĠâĢľâĢĺ": 8503,
    "Ġgoney": 14545,
    "Ġneighbouring": 12116,
    "Ġdelights": 14596,
    "Ġbristles": 25843,
    "Ġamends": 14245,
    "Ġmethinks": 10388,
    "sure": 5522,
    "Ġdiligently": 11405,
    "Ġintegrated": 13529,
    "Ġdomains": 6611,
    "Ġmeanest": 12908,
    "Ġfren": 10805,
    "Ġbiting": 17861,
    "you": 1005,
    "Ġintricate": 15136,
    "urged": 18047,
    "Ġdominion": 16523,
    "Ġcathed": 14548,
    "Ġthump": 11610,
    "Ġcour": 1768,
    "Ġproc": 5545,
    "Ġwalking": 4322,
    "Ġonset": 12708,
    "windibank": 24158,
    "Ġstrangely": 5677,
    "Ġdownright": 16116,
    "Ġbulls": 23856,
    "Ġpantheistic": 26335,
    "dut": 10087,
    "Ġcoal": 18593,
    "Ġenchantment": 24869,
    "Ġbrief": 6976,
    "bergs": 18681,
    "coiled": 16485,
    "supportable": 12368,
    "Ġfreshe": 13067,
    "bun": 12436,
    "Ġsideways": 6181,
    "!)": 10068,
    "onies": 6806,
    "Ġcrutch": 23446,
    "Ġaccusation": 22378,
    "Ġsor": 4142,
    "induce": 22371,
    "Ġmotives": 7486,
    "deserving": 17241,
    "Ġmatters": 4974,
    "generations": 23784,
    "matter": 5136,
    "hig": 12472,
    "Ġanno": 9667,
    "Ġbuffalo": 11429,
    "nevertheless": 8285,
    "Ġsingularly": 12146,
    "Ġverse": 16602,
    "ittleness": 22373,
    "Ġfairly": 6325,
    "Ġinflexibly": 26370,
    "Ġmerited": 23730,
    "dock": 16417,
    "Ġsang": 12532,
    "Ġlover": 7193,
    "Ġducking": 17146,
    "necessities": 24306,
    "Ġinheriting": 25354,
    "Ġpitch": 5767,
    "Ġremote": 8919,
    "Ġdeportment": 22605,
    "Ġgrat": 4054,
    "Ġpangs": 15612,
    "Ġunresting": 25553,
    "Ġessence": 13403,
    "Ġluff": 15650,
    "owners": 16085,
    "Ġconfining": 23305,
    "fre": 5425,
    "ortions": 10948,
    "cape": 13696,
    "Ġbackwater": 18650,
    "Ġpleated": 16295,
    "Ġattractive": 25575,
    "Ġblaze": 16218,
    "Ġtalker": 23369,
    "Ġfancy": 3743,
    "Ġceler": 15548,
    "wall": 10136,
    "Ġconsiderations": 9409,
    "Ġresolves": 23646,
    "Ġalle": 11665,
    "Ġperception": 9749,
    "Ġprovoke": 14825,
    "Ġtruthful": 23865,
    "Ġexpansion": 22623,
    "Ġimpo": 3443,
    "Ġhairy": 23863,
    "Ġcoins": 11817,
    "den": 939,
    "Ġtypewritten": 16420,
    "Ġconfines": 23304,
    "Ġimagined": 8606,
    "anoke": 21359,
    "ually": 2773,
    "imony": 12688,
    "thr": 12758,
    "tal": 17670,
    "encounter": 20390,
    "Ġbu": 3680,
    "Ġheading": 8935,
    "isters": 11918,
    "Ġdisappo": 4502,
    "Ġgestic": 21605,
    "Ġconvolutional": 2164,
    "surgeon": 24214,
    "ashing": 4824,
    "anesc": 21358,
    "Ġfortnight": 6200,
    "Ġfaded": 10809,
    "trees": 10731,
    "capable": 13700,
    "Ġvoyagings": 19235,
    "Ġtailed": 21167,
    "Ġapplication": 2068,
    "Ġwilfully": 16766,
    "pattern": 4685,
    "Ġrattler": 24995,
    "Ġpeels": 22688,
    "mansion": 20982,
    "bout": 20772,
    "changing": 10854,
    "ivot": 11716,
    "Ġcharitable": 23268,
    "Ġderives": 16307,
    "resist": 8275,
    "Ġteach": 8553,
    "gris": 8259,
    "Ġajar": 21201,
    "Ġreturns": 11924,
    "ource": 5244,
    "Ġwis": 3726,
    "Ġinnoc": 3791,
    "mitted": 5213,
    "gor": 547,
    "broad": 8642,
    "Ġiv": 4042,
    "Ġslippers": 19614,
    "fearfully": 25116,
    "Ġsouthern": 7688,
    "compasses": 19456,
    "Ġindignation": 8346,
    "Ġfastidious": 14493,
    "enced": 4293,
    "ĠâĢľâĢĶ": 9733,
    "Ġdiscuss": 9473,
    "Ġplans": 7917,
    "ificial": 608,
    "Ġclamorous": 24909,
    "Ġtum": 5692,
    "arding": 22154,
    "Ġjunior": 15098,
    "Ġserves": 4668,
    "Ġage": 3892,
    "distrustful": 26330,
    "lesome": 12962,
    "pute": 8844,
    "Ġorganically": 3013,
    "tis": 4102,
    "Ġnieces": 8432,
    "Ġmarket": 7708,
    "Ġas": 374,
    "jee": 17579,
    "control": 16543,
    "Ġfurnace": 19438,
    "Ġimport": 1029,
    "idirection": 2413,
    "revolver": 25627,
    "abominable": 20592,
    "Ġoily": 13863,
    "ratulations": 20124,
    "constable": 24605,
    "Ġsides": 4578,
    "Ġhatches": 12043,
    "Ġsplinters": 15101,
    "Ġdistinctly": 7311,
    "comprehend": 14357,
    "afford": 14654,
    "humour": 7498,
    "viv": 17698,
    "Ġintelligences": 12829,
    "robust": 19727,
    "Ġweave": 21918,
    "Ġhumorousness": 25377,
    "Ġsteer": 10386,
    "Ġaffords": 16734,
    "Ġprovided": 6577,
    "Ġdisplay": 6428,
    "Ġcerem": 7077,
    "Ġcomprehen": 5349,
    "Ġalow": 18099,
    "gia": 20875,
    "Ġmail": 17800,
    "Ġhelper": 24023,
    "Ġcharted": 22247,
    "otic": 15742,
    "Ġg": 310,
    "Ġtrifles": 16951,
    "Ġpious": 11598,
    "Ġbud": 10168,
    "Ġgratefully": 20443,
    "racts": 14352,
    "Ġslop": 23160,
    "llable": 6879,
    "Ġaxe": 15061,
    "Ġabominable": 12320,
    "disgu": 19153,
    ",": 16,
    "Ġtwelve": 4963,
    "Ġunique": 12776,
    "athom": 12937,
    "Ġfuneral": 10283,
    "Ġse": 402,
    "smart": 23904,
    "Ġder": 1499,
    "encoura": 15048,
    "Ġmenaces": 23104,
    "Ġdispersed": 16597,
    "take": 4575,
    "Ġmarked": 4618,
    "Ġstraggling": 23750,
    "uctive": 17696,
    "Ġtropical": 17065,
    "Ġmis": 916,
    "perfectly": 9085,
    "Ġlane": 5627,
    "Ġsupply": 6066,
    "Ġwrong": 4724,
    "expectant": 24275,
    "Ġblueprints": 13169,
    "Ą": 197,
    "Ġlevi": 3034,
    "Ġcorpus": 13028,
    "erxes": 21274,
    "bearer": 18521,
    "Ġdreading": 23797,
    "Ġsavory": 23874,
    "Ġfuller": 11156,
    "Ġmanx": 7904,
    "ullen": 8234,
    "Ĕ": 213,
    "Ġoust": 21322,
    "Ġfortitude": 9884,
    "Ġthird": 4182,
    "À": 129,
    "Ġswimmer": 19457,
    "Ġdetail": 635,
    "Ġcopy": 10163,
    "Ġtumbled": 13404,
    "paddington": 20476,
    "Ġemigrant": 25859,
    "tern": 4220,
    "Ġslaught": 23165,
    "mured": 6960,
    "Ġagreeably": 24952,
    "Ġsnake": 12059,
    "Ġbrood": 23098,
    "Ġmark": 2335,
    "Ġimmediate": 6089,
    "Ġvancouver": 26565,
    "makes": 10711,
    "Ġoptimization": 1380,
    "Ġapology": 8327,
    "rably": 21630,
    "Ġlizard": 12652,
    "Ĥ": 229,
    "Ġresponses": 23647,
    "Ġmany": 1107,
    "Ġtelegraph": 25583,
    "imen": 12684,
    "sou": 12503,
    "continu": 5501,
    "Ġsatire": 22897,
    "pleasanter": 24044,
    "Ġclumsy": 9579,
    "Ġclos": 4547,
    "arb": 1561,
    "Ġate": 8839,
    "Ġrapture": 13494,
    "Ġfaculties": 14957,
    "Ġbrain": 2088,
    "Ġunh": 9252,
    "drovand": 24760,
    "vel": 2388,
    "Ġenchanted": 9080,
    "Ġprayers": 12121,
    "Ġfort": 2581,
    "fulfil": 16044,
    "Ġtempest": 8213,
    "sleeves": 26109,
    "Ġon": 350,
    "tahit": 17692,
    "Ġwantonly": 22890,
    "Ġtink": 9148,
    "_âĢĶâĢĻ": 13681,
    "Ġlogs": 16345,
    "mush": 20976,
    "Ġsequence": 1978,
    "Ġmouse": 4694,
    "wor": 3417,
    "trial": 20349,
    "governed": 25405,
    "Ġmemorable": 16426,
    "Ġdoesn": 7438,
    "dependence": 17167,
    "Ġsuccour": 20433,
    "vest": 6230,
    "continued": 8675,
    "Ġointment": 21324,
    "Ġseclusion": 18208,
    "Ġimpediments": 26240,
    "delay": 16698,
    "wish": 8099,
    "Ġresnet": 5473,
    "Ġsk": 959,
    "Ġcondescension": 10618,
    "Ġottoman": 17377,
    "Ġassembled": 9235,
    "Ġcolumns": 14376,
    "east": 9115,
    "Ġfool": 4231,
    "Ġceleb": 20224,
    "Ġmatrices": 4969,
    "Ġweigh": 10894,
    "Ġgirdle": 19156,
    "Ġ182": 13234,
    "ading": 5091,
    "Ġfaster": 3194,
    "Ġbir": 17853,
    "Ġxxxvi": 24969,
    "Ġchecked": 9375,
    "their": 2544,
    "Ġriverside": 25247,
    "Ġincommod": 25307,
    "Ġdifficulty": 5770,
    "expl": 9282,
    "Ġbeatrix": 24204,
    "Ġmah": 15538,
    "Ġpalpitated": 26085,
    "rigged": 17062,
    "Ġpref": 14171,
    "secur": 18126,
    "Ġperse": 6272,
    "below": 12119,
    "arrow": 4175,
    "awn": 3830,
    "Ġcasualties": 25512,
    "comprehensive": 20625,
    "Ġrecur": 1621,
    "Ġunfit": 14785,
    "Ġgambler": 26190,
    "cnns": 3620,
    "wait": 11320,
    "Ġserv": 3329,
    "conscientious": 19625,
    "Ġabominate": 20063,
    "conjecturing": 20133,
    "Ġgranite": 22806,
    "kempt": 20940,
    "Ġevolved": 9891,
    "Ġbrighton": 6470,
    "afforded": 25865,
    "blog": 19838,
    "gained": 20880,
    "Ġjoyous": 14663,
    "Ġlashing": 11615,
    "Ġwhat": 600,
    "comparatively": 25839,
    "civil": 7796,
    "Ġshr": 4222,
    "tranqu": 14705,
    "Ġsatur": 1933,
    "burg": 16773,
    "Ġquohog": 10972,
    "Ġflit": 23006,
    "ugal": 19024,
    "Ġcre": 890,
    "lingly": 9772,
    "apothe": 22331,
    "sue": 2077,
    "Ġopposition": 16519,
    "hers": 7635,
    "astern": 8581,
    "Ġphrase": 11187,
    "Ġconsidering": 4614,
    "Ġgarb": 21600,
    "Ġsullenly": 17172,
    "Ġslates": 11107,
    "ise": 707,
    "endure": 22222,
    "desolation": 20448,
    "Ġarisen": 11741,
    "wich": 11543,
    "Ġnormalizing": 1823,
    "Ġreserves": 19669,
    "Ġdaggoo": 5441,
    "Ġfluctu": 5267,
    "Ġlegal": 10439,
    "Ġlewis": 15722,
    "Ġthreshold": 2811,
    "Ġcrib": 21346,
    "laz": 15384,
    "professional": 20274,
    "Ġheadstrong": 14387,
    "Ġcondescended": 19954,
    "Ġrode": 15996,
    "opÃ¦": 12870,
    "Ġfollow": 1398,
    "ap": 546,
    "Ġdines": 21421,
    "Ġclad": 12841,
    "Ġneglected": 10377,
    "otence": 14022,
    "Ġbalm": 22900,
    "Ġunacquainted": 12774,
    "iforn": 14063,
    "Ġrepugnance": 19086,
    "Ġ19": 6719,
    "Ġmysteries": 11322,
    "Ġstrung": 22614,
    "mid": 5617,
    "Ġmonogram": 26574,
    "umblings": 23927,
    "Ġrede": 13983,
    "Ġdimmed": 24267,
    "ĠvertebrÃ¦": 11435,
    "nay": 7135,
    "Ġbreathed": 11220,
    "Ġdistricts": 20262,
    "Ġweeping": 11685,
    "sitting": 8386,
    "Ġtriangular": 14858,
    "Ġnovelties": 24778,
    "Ġawed": 23584,
    "Ġdoubtless": 6195,
    "Ġadmirably": 16480,
    "emotions": 15794,
    "instr": 12528,
    "Ġ1": 1015,
    "Ġalgorithms": 856,
    "Ġdiscussing": 5202,
    "Ġincluding": 2851,
    "dear": 6555,
    "Ġdilatory": 24705,
    "Ġrind": 21966,
    "Ġsibbald": 21229,
    "µ": 118,
    "ju": 13740,
    "Ġgrating": 14359,
    "Ġ1894": 5196,
    "Ġ$": 21149,
    "Ġerroneous": 17408,
    "apology": 22330,
    "Ġattractions": 12915,
    "Ġindign": 6173,
    "Ġcompan": 2174,
    "Ġdeigned": 18141,
    "mmar": 951,
    "beh": 5472,
    "axen": 22518,
    "iece": 3225,
    "utional": 17983,
    "wart": 17705,
    "Ġcomplaint": 24776,
    "Ġarve": 15900,
    "Ġcongratulatory": 19766,
    "Ġfrocks": 23919,
    "responsible": 25763,
    "slowly": 9088,
    "Ġcalculus": 23980,
    "Ġpilgrim": 25599,
    "Ġwhit": 7177,
    "Ġdiary": 24739,
    "Ġgrasping": 12163,
    "Ġpurplish": 19140,
    "Ġconfl": 11138,
    "vul": 15447,
    "Ġshakespeare": 20306,
    "Ġmud": 11572,
    "bacc": 7794,
    "non": 9611,
    "language": 5129,
    "Ġfiendish": 13325,
    "Ġabide": 14187,
    "kne": 20934,
    "Ġgreyish": 24208,
    "Ġreynolds": 10209,
    "Ġawe": 7147,
    "eag": 20841,
    "Ġsire": 15500,
    "Ġunass": 14113,
    "Ġdecoyed": 18486,
    "summer": 11992,
    "Ġdecreed": 18484,
    "dar": 20823,
    "ensing": 12894,
    "Ġcongratulated": 19765,
    "Ġreliance": 14384,
    "Ġheavily": 6740,
    "hastily": 19701,
    "Ġcusack": 26433,
    "belong": 12120,
    "Ġsalisbury": 24060,
    "Ġhanded": 8217,
    "Ġare": 527,
    "contrast": 25594,
    "Ġplutarch": 22600,
    "Ġstanzas": 21741,
    "Ġproposals": 10613,
    "Ġvul": 10247,
    "Ġtested": 23211,
    "Ġpressed": 6041,
    "Ġharry": 24571,
    "ober": 15405,
    "Ġvig": 5460,
    "persons": 24173,
    "prov": 16421,
    "Ġfogs": 25282,
    "antly": 1990,
    "Ġdownst": 3558,
    "ole": 9613,
    "Ġbosom": 6939,
    "Ġclutches": 20016,
    "Ġsepul": 14089,
    "Ġjournal": 15217,
    "Ġbeneficial": 23929,
    "Ġunlab": 3785,
    "Ġjen": 9266,
    "Ġshavings": 14109,
    "Ġlucky": 7758,
    "dart": 20825,
    "Ġsine": 10763,
    "Ġtender": 5753,
    "Ġdiscovers": 4425,
    "Ġallurements": 22006,
    "Ġsuppose": 2871,
    "helping": 23137,
    "Ġiron": 3231,
    "Ġhorns": 11123,
    "Ġtenants": 23546,
    "Ġhurt": 7700,
    "Ġsilently": 6895,
    "Ġreaches": 18031,
    "surround": 16758,
    "Ġstammered": 26199,
    "Ġconvent": 11667,
    "Ġreadily": 5253,
    "Ġpeace": 3690,
    "Ġmallet": 17810,
    "Ġoppress": 13170,
    "Ġstrictest": 17042,
    "commence": 19990,
    "cob": 10086,
    "Ġestate": 6316,
    "Ġtrades": 8231,
    "Ġdecreases": 3410,
    "Ġprovides": 1932,
    "cloudless": 20331,
    "Ġflo": 2590,
    "rived": 5373,
    "olent": 8154,
    "Ġmerchantmen": 19859,
    "Ġmeaning": 1417,
    "Ġproport": 2299,
    "Ġblot": 9811,
    "Ġjing": 15947,
    "leaned": 21367,
    "Ġlar": 767,
    "Ġtriumphantly": 11287,
    "ounders": 22390,
    "itions": 4144,
    "slack": 16894,
    "Ġcornelius": 13571,
    "Ġbattery": 21392,
    "Ġcommis": 22668,
    "Ġpunctil": 20112,
    "Ġcomrade": 12281,
    "Ġprecip": 7074,
    "Ġburnished": 23995,
    "line": 1442,
    "Ġpatience": 2647,
    "everywhere": 23698,
    "Ġshipped": 9714,
    "brilliancy": 26077,
    "Ġshout": 4260,
    "mon": 2311,
    "Ġfragrant": 13078,
    "riv": 3108,
    "Ġcatch": 4438,
    "Ġwedge": 24067,
    "length": 7134,
    "Ġcasually": 25093,
    "Ġinevitably": 17230,
    "Ġcontour": 18474,
    "Ġfearlessness": 19160,
    "Ġthreat": 5154,
    "Ġinsects": 25646,
    "Ġrusty": 14963,
    "Ġkrus": 18349,
    "Ġfreighted": 16321,
    "Ġgoodness": 6058,
    "higher": 20405,
    "Ġwolves": 25934,
    "Ġexploration": 2340,
    "disputed": 23499,
    "Ġsuspicions": 9478,
    "Ġfilled": 4392,
    "ubbub": 23241,
    "Ġzero": 1199,
    "Ġexclaimed": 4682,
    "Ġuneasy": 8661,
    "piled": 21014,
    "Ġhaggard": 17329,
    "iop": 20918,
    "Ġthreatens": 24375,
    "Ġoccurred": 4459,
    "elzebub": 26464,
    "Ġhaz": 12753,
    "Ġskip": 1846,
    "Ġinarticulate": 21497,
    "Ġbony": 12585,
    "resemblance": 25933,
    "Ġbest": 1977,
    "unbe": 21869,
    "Ġschools": 9476,
    "Ġleisure": 6539,
    "asked": 8911,
    "aired": 8368,
    "Ġ102": 24410,
    "Ġravine": 18647,
    "Ġdoings": 18375,
    "gaffman": 26390,
    "Ġrifts": 21972,
    "Ġchurned": 18385,
    "Ġmend": 8405,
    "Ġcomforter": 20505,
    "Ġpoor": 1708,
    "Ġfisherman": 12073,
    "Ġrev": 6988,
    "Ġgay": 5535,
    "Ġhogshe": 20490,
    "cellar": 20276,
    "Ġadvertisement": 6941,
    "Ġexposes": 22621,
    "Ġcuba": 25095,
    "Ġshell": 11734,
    "Ġoysters": 20577,
    "Ġworth": 4414,
    "mixed": 15393,
    "Ġvarying": 15808,
    "proportions": 22844,
    "Ġshattered": 7883,
    "Ġdestroying": 14728,
    "_.âĢĿ": 5885,
    "concern": 6099,
    "Ġgiven": 1627,
    "Ġchild": 2260,
    "Ġuniverse": 14123,
    "Ġjuly": 17236,
    "ayed": 12710,
    "Ġsands": 14947,
    "Ġhealth": 3899,
    "watches": 14946,
    "kington": 11203,
    "Ġnonsensical": 21526,
    "Ġaffright": 9331,
    "Ġperformance": 1308,
    "det": 5207,
    "urity": 8142,
    "Ġapproved": 16033,
    "Ġchoke": 22246,
    "standers": 18477,
    "tese": 21082,
    "Ġvictims": 19803,
    "Ġkno": 5242,
    "acies": 14276,
    "Ġ86": 24461,
    "Ġ{": 21151,
    "Ġcrust": 21349,
    "even": 3833,
    "Ġsaxe": 13626,
    "mer": 2836,
    "quarried": 24945,
    "Ġcleaned": 23180,
    "Ġmach": 13856,
    "Ġwounded": 8657,
    "Ġforesaw": 19127,
    "Ġuncl": 22013,
    "Ġanchor": 7368,
    "Ġkingdom": 12017,
    "Ġtows": 19561,
    "Ġcongratulations": 10580,
    "Ġinex": 6528,
    "anything": 5518,
    "extent": 22767,
    "_âĢĶâĢĻâĢĿ": 25741,
    "Ġhard": 1444,
    "Ġverte": 9440,
    "Ġadmitted": 8986,
    "Ġdur": 11591,
    "Ġsemantic": 1961,
    "destiny": 16702,
    "dancing": 12452,
    "Ġguardsmen": 20629,
    "))": 1514,
    "Ġreplying": 19580,
    "ondon": 2708,
    "create": 24156,
    "Ġvolat": 24141,
    "Ġhandsome": 4906,
    "Ġclothes": 4997,
    "Ġexacted": 23602,
    "moby": 8536,
    "Ġ}": 21152,
    "haw": 6361,
    "awk": 23113,
    "Ġwires": 21294,
    "Ġsparkling": 11356,
    "Ġglow": 7170,
    "attracted": 13047,
    "Ġclasped": 17206,
    "Ġeulogy": 26470,
    "successful": 11358,
    "Ġbaron": 19333,
    "Ġlights": 8960,
    "Ġbunger": 9995,
    "Ġdol": 9664,
    "doubtful": 24791,
    "Ġblundering": 26283,
    "Ġsurmise": 12293,
    "counterpart": 26359,
    "Ġcontact": 9280,
    "Ġrevenue": 26194,
    "Ġbrine": 18769,
    "Ġsumatra": 15285,
    "answered": 10273,
    "Ġcane": 10927,
    "agement": 4183,
    "Ġtool": 21508,
    "Ġdiscount": 22777,
    "Ġjudged": 12081,
    "Ġcomo": 21851,
    "Ġentreaties": 9035,
    "knowledge": 7478,
    "!": 5,
    "Ġthimble": 15634,
    "pursue": 24973,
    "ago": 14064,
    "olic": 14041,
    "Ġgazes": 24091,
    "herald": 22202,
    "!âĢĶâĢĻ": 23564,
    "ner": 1372,
    "ohnson": 16323,
    "leman": 21366,
    "Ġsparsity": 4203,
    "Ġadorned": 15246,
    "Ġfireside": 23531,
    "ma": 1151,
    "Ġanticipatingly": 26102,
    "alf": 4638,
    "Ġincommun": 25308,
    "Ġrural": 21964,
    "bodily": 17314,
    "hog": 8379,
    "Ġbackwards": 12924,
    "hetically": 21207,
    "not": 908,
    "property": 19998,
    "Ġbelong": 3882,
    "Ġdaboll": 25950,
    "Ġlounging": 10021,
    "cement": 3045,
    "threat": 10900,
    "kish": 20933,
    "Ġenigmatical": 20596,
    "Ġeyebrows": 23514,
    "seeing": 7078,
    "Ġimmediately": 3368,
    "Ġwhites": 21714,
    "Ġchiefly": 5766,
    "Ġimpelled": 11780,
    "'(": 2982,
    "increase": 20267,
    "Ġafterwards": 3530,
    "blunder": 24127,
    "itled": 7577,
    "Ġbestowed": 6593,
    "Ġregret": 5561,
    "Ġcarter": 18900,
    "Ġdearly": 10401,
    "Ġgraph": 10902,
    "Ġcheshire": 13088,
    "Ġviewed": 10463,
    "opposing": 24825,
    "secured": 16938,
    "Ġleast": 2064,
    "Ġtusks": 17253,
    "Ġforbearance": 12326,
    "msman": 9268,
    "Ġfreed": 7267,
    "Ġconsider": 2571,
    "osing": 3687,
    "andromeda": 21865,
    "Ġoccasion": 3243,
    "Ġcorporeal": 17359,
    "Ġtarget": 2825,
    "Ġchildren": 3765,
    "Ġneural": 619,
    "Ġgrateful": 7660,
    "tenham": 16319,
    "Ġcheat": 19023,
    "ios": 2158,
    "rollable": 13944,
    "Ġwearied": 15791,
    "Ġmasses": 10503,
    "Ġsatisfactory": 11192,
    "Ġsuggested": 8320,
    "iving": 1724,
    "Ġmagg": 18905,
    "Ġpattered": 19020,
    "Ġnumberless": 16414,
    "Ġcompunction": 18589,
    "Ġamph": 18510,
    "Ġprovidence": 18745,
    "whip": 22234,
    "iah": 14416,
    "Ġinjured": 9039,
    "Ġthat": 335,
    "ced": 692,
    "bulwarks": 12270,
    "rench": 3964,
    "Ġannounced": 9034,
    "Ġhorribly": 16341,
    "Ġplainpalais": 20736,
    "Ġwrithed": 17106,
    "âĢľ": 344,
    "Ġbritain": 16956,
    "Ġvectors": 1771,
    "Ġhowling": 8509,
    "Ġpausing": 8652,
    "Ġholding": 4979,
    "Ġaustrian": 24300,
    "Ġmari": 6813,
    "Ġresembles": 25969,
    ")âĢĶ": 20741,
    "reen": 21230,
    "Ġoppressively": 25712,
    "Ġexotic": 21828,
    "Ġcostume": 16494,
    "tumultuously": 25613,
    "Ġdeified": 18140,
    "erde": 21267,
    "inction": 6660,
    "Ġrepresentation": 14404,
    "Ġgoug": 17990,
    "provided": 13635,
    "Ġvis": 1089,
    "verbally": 25360,
    "Ġberry": 19745,
    "Ġadapt": 1023,
    "leviathan": 7784,
    "disgust": 23495,
    "Ġspades": 12794,
    "Ġangry": 5498,
    "Ġpalmed": 24087,
    "Ġgravity": 9247,
    "Ġwages": 13853,
    "Ġirreducible": 5519,
    "Ġregent": 18581,
    "Ġconcent": 8249,
    "Ġinns": 17929,
    "Ġsnorting": 23740,
    "thrown": 8480,
    "factories": 19842,
    "ase": 1158,
    "therly": 18346,
    "Ġterms": 2566,
    "tting": 17680,
    "anywhere": 14682,
    "irably": 13293,
    "itably": 10782,
    "Ġven": 4647,
    "Ġinterlacing": 22575,
    "Ġfleets": 23773,
    "Ġcharley": 19010,
    "^": 66,
    "Ġkindest": 23294,
    "Ġcrater": 16438,
    "Ġmountainous": 16599,
    "Ġorbs": 22089,
    "Ġproud": 5654,
    "Ġarguing": 25470,
    "Ġtyph": 10007,
    "manned": 18763,
    "Ġannouncing": 16754,
    "ribute": 7227,
    "Ġundoubtedly": 8312,
    "ife": 1025,
    "albatross": 15627,
    "endeavour": 17031,
    "Ġcyl": 15554,
    "Ġcarriage": 3946,
    "rougham": 15991,
    "Ġexhibition": 14956,
    "till": 6965,
    "Ġfurnaces": 24002,
    "Ġdiabolical": 20341,
    "Ġknighthood": 25297,
    "where": 2092,
    "Ġsurvivors": 25732,
    "steel": 8298,
    "Ġpore": 21456,
    "Ġsolving": 2484,
    "odes": 18117,
    "Ġconjectures": 16925,
    "Ġ1820": 25718,
    "Ġeber": 18003,
    "Ġmatrim": 11060,
    "talking": 10006,
    "Ġinser": 6820,
    "Ġcomputing": 2220,
    "Ġseams": 12122,
    "ards": 2508,
    "narrow": 11507,
    "ouri": 21445,
    "Ġvocation": 10525,
    "Ġstat": 1490,
    "Ġtestified": 16324,
    "jabez": 20932,
    "absolute": 17122,
    "works": 6587,
    "Ġprivately": 19522,
    "sip": 10725,
    "Ġfacts": 2289,
    "Ġsailing": 5323,
    "questions": 16760,
    "indispensable": 14209,
    "year": 11095,
    "Ġslouched": 13055,
    "pret": 7212,
    "Ġarchipelagoes": 14349,
    "Ġword": 1050,
    "Ġsen": 9156,
    "Ġincline": 18569,
    "Ġpalace": 16690,
    "Ġcolt": 11044,
    "Ġcontrad": 9754,
    "Ġscrut": 15943,
    "Ġcurvature": 3572,
    "osely": 9264,
    "Ġfour": 2215,
    "honor": 19899,
    "vap": 13802,
    "Ġspiteful": 19521,
    "itates": 13868,
    "Ġthreads": 13115,
    "Ġtal": 7564,
    "Ġexcuses": 19045,
    "Ġtrust": 4076,
    "Ġcompose": 12900,
    "Ġprocess": 560,
    "Ġsmall": 894,
    "Ġacquies": 11097,
    "vert": 15712,
    "erson": 7002,
    "Ġfearful": 6197,
    "Ġlevels": 12696,
    "Ġsomewhat": 4897,
    "Ġ58": 24326,
    "Ġturban": 23612,
    "Ġsax": 10929,
    "Ġguidance": 9416,
    "indef": 17735,
    "Ġmagnanim": 14471,
    "hinting": 17569,
    "Ġcheapside": 23287,
    "leaves": 12576,
    "Ġpurp": 2395,
    "Ġteaches": 18806,
    "Ġdispute": 16053,
    "Ġordering": 18998,
    "Ġlavenza": 17970,
    "anc": 6379,
    "Ġevian": 24292,
    "Ġimperial": 9480,
    "bs": 3748,
    "Ġcategorization": 12134,
    "Ġdumbly": 24985,
    "Ġhandsomer": 20332,
    "heeded": 13833,
    "iosity": 2212,
    "Ġunkindness": 22039,
    "Ġactions": 6278,
    "Ġbits": 11587,
    "Ġarea": 14186,
    "Ġbeat": 4488,
    "ints": 3418,
    "Ġdated": 10939,
    "Ġstayed": 7997,
    "Ġpine": 8796,
    "Ġlove": 2054,
    "compliment": 11364,
    "Ġpersuading": 19408,
    "Ġcattle": 12570,
    "wa": 5896,
    "Ġscandinav": 19959,
    "iro": 20913,
    "Ġbond": 21382,
    "treasures": 26152,
    "gave": 7799,
    "nings": 9131,
    "henomena": 20271,
    "aves": 3598,
    "Ġensemble": 1607,
    "Ġlouisiana": 25076,
    "ene": 2170,
    "Ġtokens": 1772,
    "Ġarticles": 7108,
    "aunt": 8369,
    "Ġdepressions": 25798,
    "Ġalternately": 15031,
    "Ġwoodlands": 23519,
    "sav": 8096,
    "ascending": 24707,
    "superiority": 20184,
    "Ġgenerous": 6271,
    "ify": 1565,
    "Ġacknowled": 6350,
    "rew": 3647,
    "cul": 1901,
    "Ġprev": 6264,
    "tempted": 26403,
    "mical": 9128,
    "ower": 1065,
    "Ġdistrict": 10318,
    "Ġbressed": 21385,
    "Ġcareer": 11118,
    "Ġstarting": 7728,
    "Ġexterior": 19986,
    "Ġpropontis": 17465,
    "rinted": 21042,
    "Ġagrees": 22513,
    "Ġlifted": 6985,
    "satisfactory": 16893,
    "shadow": 20311,
    "Ġunlocked": 14119,
    "rendering": 22337,
    "paint": 21017,
    "stolen": 13976,
    "vital": 17700,
    "Ġunfl": 22017,
    "Ġsires": 21225,
    "fluttering": 23970,
    "seemingly": 25362,
    "caught": 8726,
    "Ġdrowsy": 26444,
    "Ġvisibly": 22875,
    "directed": 20403,
    "Ġinterven": 10997,
    "necess": 4896,
    "Ġpeter": 10535,
    "Ġhemis": 21681,
    "vity": 7815,
    "alescing": 23864,
    "ization": 481,
    "recur": 4434,
    "nt": 922,
    "Ġinquiring": 8999,
    "Ġexter": 7397,
    "larger": 24202,
    "waiting": 12218,
    "Ġwhisper": 6205,
    "Ġroy": 4225,
    "Ġwillow": 18528,
    "upset": 23017,
    "acters": 9308,
    "dirty": 20833,
    "ele": 9114,
    "Ġnarrower": 24354,
    "Ġfall": 2990,
    "Ġshone": 7404,
    "in": 262,
    "Ġrealising": 18982,
    "Ġbrides": 22864,
    "Ġappalling": 8499,
    "itations": 17817,
    "rested": 13072,
    "osque": 22258,
    "Ġcombined": 8547,
    "Ġearth": 2855,
    "Ġalarming": 14778,
    "Ġcall": 2075,
    "Ġtaught": 6803,
    "chester": 23805,
    "quit": 15759,
    "alse": 4180,
    "Ġtarts": 10753,
    "Ġarch": 952,
    "spee": 9316,
    "Ġfewer": 16223,
    "Ġhawaiian": 25366,
    "Ġstubbornness": 25380,
    "Ġirritated": 17242,
    "reflection": 13453,
    "Ġhay": 11604,
    "tled": 3458,
    "Ġpollard": 20384,
    "Ġlibraries": 20613,
    "mad": 5280,
    "Ġagain": 815,
    "hair": 9122,
    "Ġxiv": 23406,
    "Ġcatastrophic": 3541,
    "pless": 6260,
    "time": 3144,
    "Ġryder": 10258,
    "Ġentertained": 9997,
    "Ġtul": 21158,
    "Ġsincerity": 13677,
    "ounder": 11742,
    "determination": 19943,
    "close": 9985,
    "Ġunfrequ": 19507,
    "ishe": 13890,
    "bowsprit": 16853,
    "Ġstup": 14004,
    "Ġstrateg": 1356,
    "Ġshortly": 6196,
    "Ġmountain": 3374,
    "Ġpleasanter": 19067,
    "Ġsubjects": 7072,
    "Ġarchitects": 18743,
    "if": 376,
    "snap": 24848,
    "dered": 2475,
    "Ġdied": 4108,
    "omitted": 18023,
    "Ġsheaves": 22155,
    "cus": 3976,
    "Ġflattering": 13026,
    "ato": 17769,
    "rers": 14717,
    "Ġheiress": 20696,
    "rank": 21040,
    "rever": 21234,
    "Ġrefreshment": 17239,
    "Ġcongregated": 20095,
    "Ġrats": 21970,
    "Ġboot": 11836,
    "Ġverify": 12085,
    "Ġdropping": 7483,
    "leisure": 21369,
    "Ġdire": 867,
    "ive": 426,
    "Ġperson": 2373,
    "can": 1231,
    "objections": 19915,
    "Ġsnarled": 25716,
    "omon": 10207,
    "stand": 622,
    "Ġnetherfield": 3926,
    "erial": 4631,
    "Ġwits": 15530,
    "antingly": 22095,
    "Ġaboriginal": 14188,
    "enjoyment": 17257,
    "adequ": 11020,
    "eastward": 15128,
    "Ġbarrowful": 25595,
    "Ġtouched": 6000,
    "allowance": 16824,
    "omy": 6249,
    "Ġfront": 3452,
    "Ġstunsail": 25543,
    "Ġoverpower": 12839,
    "Ġdeliver": 9848,
    "Ġguest": 7249,
    "_.)": 7278,
    "Ġmalice": 7152,
    "Ġlaunched": 14925,
    "Ġvisage": 18772,
    "Ġaspect": 3096,
    "pire": 9135,
    "exact": 7909,
    "Ġspecific": 2003,
    "Ġra": 813,
    "Ġeternities": 19941,
    "air": 1002,
    "Ġpensive": 21473,
    "follow": 5680,
    "aded": 3548,
    "Ġjulia": 22299,
    "constantly": 24606,
    "ravelled": 18014,
    "ansion": 10925,
    "confid": 14866,
    "Ġcommitted": 7431,
    "Ġcharmingly": 24221,
    "Ġgrud": 17995,
    "ortunity": 4401,
    "Ġtranquill": 6630,
    "Ġstrat": 16090,
    "ug": 1767,
    "Ġcomfortless": 23910,
    "concerning": 9067,
    "prodig": 16425,
    "Ġinquisitive": 26317,
    "Ġreasoning": 2103,
    "Ġplay": 2627,
    "ured": 1654,
    "Ġclassifies": 11840,
    "Ġspurned": 12795,
    "Ġeconomically": 25288,
    "Ġcheever": 23283,
    "rudence": 7092,
    "Ġsoftmax": 1688,
    "Ġnatives": 17950,
    "Ġdiligence": 17114,
    "Ġwillingly": 8884,
    "Ġidolator": 19996,
    "Ġunhappiness": 14117,
    "ille": 9219,
    "Ġuse": 830,
    "Ġdefines": 1740,
    "noon": 5037,
    "Ġlibr": 15998,
    "Ġpattering": 18651,
    "Ġlocks": 11722,
    "Ġarchy": 14348,
    "Ġwork": 1325,
    "tish": 17677,
    "Ġbiases": 2400,
    "ppery": 10892,
    "weeks": 14315,
    "despicable": 24636,
    "Ġvolcano": 24144,
    "Ġspoil": 17007,
    "Ġste": 1390,
    "Ġbutler": 18270,
    "Ġz": 998,
    "Ġparl": 8177,
    "somewhat": 11160,
    "visit": 7754,
    "Ġrisks": 9963,
    "Ġgest": 8133,
    "presbyter": 20616,
    "Ġrequires": 985,
    "Ġdesperate": 7776,
    "Ġshed": 8180,
    "Ġperdition": 15990,
    "Ġchurches": 12826,
    "Ġacquired": 13040,
    "unc": 15766,
    "Ġmixture": 9562,
    "ites": 3894,
    "july": 20473,
    "Ġoccurrences": 11050,
    "Ġunstructured": 3006,
    "Ġreptile": 15276,
    "sacred": 17028,
    "Ġpsal": 15613,
    "Ġgravely": 7882,
    "Ġgratify": 19501,
    "Ġhungry": 10532,
    "torm": 11530,
    "omited": 21658,
    "blue": 13692,
    "Ġasiatic": 20428,
    "spending": 18691,
    "Ġdesperado": 19818,
    "alogies": 25158,
    "Ġunfeeling": 14118,
    "uniform": 18157,
    "Ġcalamities": 25699,
    "heredit": 21208,
    "Ġbefallen": 12341,
    "emic": 18184,
    "ision": 1855,
    "pin": 13766,
    "cad": 17504,
    "Ġposition": 1956,
    "Ġhabit": 6771,
    "Ġheadway": 18790,
    "Ġvapory": 17006,
    "Ġexecute": 7505,
    "america": 17097,
    "Ġflowers": 8940,
    "threatened": 25462,
    "Ġports": 10818,
    "dilig": 17282,
    "never": 3149,
    "fa": 7336,
    "itory": 12564,
    "Ġtoil": 6531,
    "Ġreasoned": 23084,
    "Ġcup": 5697,
    "epend": 3315,
    "Ġeffort": 8204,
    "Ġsquat": 14366,
    "Ġpalmy": 19497,
    "Ġparad": 2846,
    "Ġcruelty": 9968,
    "rib": 1947,
    "superst": 11325,
    "Ġpatentee": 25586,
    "Ġmusic": 5268,
    "Ġsinister": 8568,
    "Ġdinah": 9452,
    "Ġkey": 2101,
    "Ġpagans": 16922,
    "Ġbewitching": 25976,
    "occurrences": 26331,
    "Ġwhistles": 24624,
    "Ġfifth": 11257,
    "Ġberm": 21381,
    "Ġacutely": 14313,
    "Ġupright": 8493,
    "cur": 3269,
    "Ġeternity": 12276,
    "ropri": 2181,
    "Ġsurround": 4616,
    "icit": 3380,
    "Ġejaculation": 20253,
    "Ġtribe": 10751,
    "Ġday": 956,
    "Ġexploitation": 2352,
    "Ġmurmured": 7480,
    "Ġnois": 4263,
    "Ġdevout": 14327,
    "insist": 23061,
    "Ġimped": 18443,
    "Ġample": 11796,
    "Ġmouth": 3176,
    "Ġspeedily": 7711,
    "Ġtopsails": 19193,
    "rust": 2583,
    "idly": 12698,
    "cturn": 17986,
    "Ġsignal": 5944,
    "Ġhands": 1664,
    "Ġchurning": 15935,
    "Ġsultanism": 25888,
    "Ġcunning": 6238,
    "Ġspouts": 7729,
    "/(": 2985,
    "report": 13397,
    "Ġstript": 23694,
    "meat": 18673,
    "Ć": 199,
    "omit": 13977,
    "ividually": 22077,
    "Ġlightened": 23260,
    "Ġdeputation": 21837,
    "iably": 13737,
    "Ġtowers": 16738,
    "Ġproblems": 2852,
    "addressing": 24401,
    "Ġhand": 861,
    "Ġopened": 3512,
    "Ġaristocratic": 20511,
    "place": 4150,
    "petulance": 24299,
    "Ġoun": 13862,
    "Ġcolleague": 17159,
    "Ġemotions": 8969,
    "Ġsprained": 15881,
    "Ġdiscoursing": 26266,
    "ety": 3520,
    "Ġassociations": 14962,
    "Ġdeployment": 11194,
    "Ġgeor": 3389,
    "Ġ(âĢľ": 15993,
    "Ġbattered": 17862,
    "Ġcul": 17822,
    "Ġvolumes": 14798,
    "Ġbodiless": 24226,
    "ientious": 11689,
    "Ġscanning": 18399,
    "ptic": 21915,
    "absent": 21786,
    "Ġbonds": 17869,
    "Ġstern": 4218,
    "Ġcrushed": 9422,
    "Ġtoler": 7588,
    "Ġmining": 22826,
    "Ġbequest": 21750,
    "Ġopportunity": 4786,
    "Ġropes": 10748,
    "elf": 565,
    "Ġdiscove": 16153,
    "rifle": 21045,
    "repent": 15512,
    "Ġtilted": 20411,
    "Ġmiller": 19882,
    "obvious": 9356,
    "swing": 15428,
    "odox": 21808,
    "Ġgreenland": 5761,
    "john": 11497,
    "Ġunguarded": 15848,
    "Ġroom": 1463,
    "Ġunsolved": 22030,
    "Ġard": 5164,
    "scra": 13018,
    "Ġdetection": 3302,
    "rut": 8091,
    "Ġleak": 2162,
    "diversity": 25897,
    "chor": 6146,
    "Ġjoyful": 13218,
    "itiously": 13870,
    "seemed": 4301,
    "Ġreflecting": 24751,
    "Ġerrand": 11085,
    "Ġarsacides": 17293,
    "spirits": 8054,
    "mouse": 15391,
    "Ġcranial": 25592,
    "Ġunobstructed": 18264,
    "Ġcomplex": 752,
    "reputable": 15516,
    "Ġ80": 24456,
    "Ġacquaintances": 17349,
    "Ġenderby": 13649,
    "loo": 10319,
    "ription": 5676,
    "Ġchina": 8039,
    "Ġpleasantness": 24136,
    "Ġhated": 7584,
    "avenue": 25057,
    "Ġloveliness": 13606,
    "Ġscan": 22276,
    "those": 4492,
    "satisfaction": 9991,
    "sensibility": 25023,
    "Ġexhausting": 24710,
    "Ġcaptured": 7245,
    "Ġuttering": 16460,
    "Ġcognitive": 13632,
    "Ġprob": 972,
    "Ġpawnbroker": 13656,
    "compan": 7301,
    "thither": 21980,
    "Ġnobly": 22238,
    "Ġtags": 20570,
    "Ġmustard": 12928,
    "edy": 2863,
    "bulkington": 19924,
    "ats": 4249,
    "Ġpositions": 2057,
    "Ġhag": 12623,
    "strangers": 20335,
    "japan": 15373,
    "Ġturbulence": 26597,
    "Ġrephr": 21676,
    "Ġhumans": 8929,
    "Ġreced": 15689,
    "Ġnaval": 16899,
    "Ġsof": 18281,
    "Ġapartments": 19613,
    "Ġcrash": 12000,
    "Ġaffectionate": 5585,
    "Ġfishes": 11590,
    "Ġoffer": 4843,
    "gossip": 23402,
    "enges": 13050,
    "Ġincommunicable": 26611,
    "splash": 25209,
    "Ġfragments": 19005,
    "Ġnightgown": 23130,
    "Ġhelm": 5275,
    "Ġrevered": 23733,
    "Ġlovel": 10271,
    "application": 12361,
    "Ġvanity": 7045,
    "increasing": 20268,
    "Ġgradually": 3402,
    "Ġneutral": 12739,
    "vously": 23503,
    "sofa": 26146,
    "Ġflamingo": 15099,
    "Ġflour": 8944,
    "Ġlicence": 25096,
    "athies": 22701,
    "oors": 17620,
    "ensation": 22542,
    "Ġj": 533,
    "Ġhence": 4989,
    "sorting": 17004,
    "aract": 17894,
    "ermost": 7430,
    "oology": 21005,
    "Ġcloth": 9743,
    "Ġpersever": 10002,
    "Ġunpleasant": 7191,
    "gerine": 22885,
    "Ġconsequence": 5542,
    "Ġtruce": 24113,
    "Ġprocuring": 16870,
    "knew": 9126,
    "Ġpruning": 18971,
    "choose": 23672,
    "Ġprivileged": 20111,
    "mo": 865,
    "Ġhandspike": 22697,
    "hood": 2661,
    "Ġdetected": 18847,
    "Ġfactory": 23275,
    "screw": 9346,
    "neath": 12864,
    "rain": 461,
    "Ġmagnificence": 20631,
    "Ġprocessing": 887,
    "stranger": 9882,
    "reduced": 15803,
    "Ġelusive": 22643,
    "Ġprophesy": 26061,
    "upid": 6582,
    "Ġwaistcoat": 12268,
    "Ġomitted": 12561,
    "Ġchapters": 10473,
    "Ġskilful": 25836,
    "Ġsprung": 11249,
    "Ġsquares": 11169,
    "Ġfacet": 15582,
    "Ġfrig": 13079,
    "Ġswung": 6449,
    "Ġalong": 1981,
    "Ġgun": 4702,
    "multiple": 15106,
    "====": 1482,
    "meditated": 19069,
    "Ġlabeled": 3716,
    "ingly": 2134,
    "Ġnought": 21519,
    "Ġintru": 15825,
    "Ġgenteel": 19979,
    "Ġimpressions": 9552,
    "Ġlighter": 12651,
    "atch": 674,
    "Ġbritish": 11337,
    "Ġcetacean": 25878,
    "avery": 13682,
    "fur": 6355,
    "Ġtask": 1311,
    "eping": 5833,
    "desponding": 26341,
    "Ġconv": 2973,
    "oil": 7805,
    "Ġcommendation": 13608,
    "Ġplague": 11822,
    "Ġhop": 1461,
    "Ġdiscriminator": 3393,
    "Ġemperors": 15158,
    "Ġorgies": 18285,
    "rible": 3223,
    "Ġsecret": 3718,
    "Ġdiscipline": 26561,
    "Ġglory": 6064,
    "Ġheated": 21679,
    "Ġglared": 13014,
    "Ġevolve": 3004,
    "Ġmeasureless": 14709,
    "Ġwithheld": 18114,
    "Ġflinging": 13583,
    "Ġriot": 14688,
    "Ġneg": 1332,
    "Ġdrunkard": 20176,
    "Ġundeniable": 26510,
    "kl": 4865,
    "Ġreflection": 6440,
    "Ġbosoms": 16795,
    "brÃ¦": 11175,
    "Ġpatterns": 1211,
    "Ġcarted": 21347,
    "therefore": 5953,
    "Ġmortals": 9915,
    "uttered": 8440,
    "Ġexamples": 2606,
    "Ġwives": 12552,
    "Ġdisd": 7030,
    "Ġearn": 3546,
    "Ġvenerable": 9093,
    "Ġoverpowering": 15248,
    "returning": 12203,
    "oked": 4305,
    "Ġ31": 12128,
    "Ġthrusts": 24350,
    "Î": 143,
    "li": 1186,
    "Ġtol": 6675,
    "Ġgoverned": 23570,
    "write": 14647,
    "found": 4210,
    "Ġluc": 3311,
    "Ġclasses": 4052,
    "Ġlany": 21551,
    "contin": 16542,
    "Ġgarden": 3822,
    "Ġtou": 15465,
    "Ġbec": 1350,
    "unw": 14056,
    "Ġbulldog": 23857,
    "satisfied": 10578,
    "Ġasylum": 13665,
    "\"": 6,
    "happened": 9432,
    "standard": 22425,
    "waist": 13416,
    "Ġimprobable": 9794,
    "oran": 8788,
    "Ġhelping": 3265,
    "Ġeels": 21617,
    "Ġneville": 7399,
    "Ġmorocc": 22976,
    "Ġelephant": 8255,
    "Ġblush": 14400,
    "Ġhussey": 7724,
    "Ġsimply": 7218,
    "Ġsundial": 15081,
    "Ġages": 7028,
    "Ġsleeves": 10660,
    "toller": 20671,
    "Ġpul": 2041,
    "completed": 19992,
    "oth": 1183,
    "minutely": 19592,
    "Ġdarting": 7756,
    "respect": 6374,
    "sulphur": 25909,
    "subject": 6631,
    "chet": 13215,
    "Ġvehement": 16200,
    "glim": 19363,
    "thed": 8826,
    "Ġduncan": 13459,
    "Ġtie": 10750,
    "Ġenglishman": 11229,
    "Ġsympathising": 24297,
    "),": 1347,
    "Ġinvoking": 19145,
    "Ġhurling": 19110,
    "Ġcongregational": 25102,
    "well": 1690,
    "Ġchemist": 11134,
    "ination": 2918,
    "Ġcaliforn": 14430,
    "speaking": 12096,
    "Ġcraft": 4373,
    "sil": 5282,
    "exe": 11787,
    "Ġwestward": 24389,
    "Ġdamps": 23474,
    "Ġwilt": 9643,
    "89": 20758,
    "shine": 9287,
    "Ġ4": 3982,
    "Ġwilliam": 3483,
    "speptic": 23943,
    "Ġlancaster": 26340,
    "Ġpeeling": 22689,
    "Ġlamentations": 17076,
    "Ġelevated": 7318,
    "anation": 5803,
    "conjectured": 25181,
    "Ġthistle": 21913,
    "aited": 12433,
    "Ġ1839": 20458,
    "Ġclay": 7019,
    "appro": 7044,
    "accursed": 20539,
    "Ġelbows": 18636,
    "Ġinseparable": 20687,
    "resum": 17761,
    "Ġsincere": 11137,
    "Ġalteration": 9545,
    "Ġenforced": 21935,
    "Ġimag": 2677,
    "Ġentries": 22742,
    "Ġhaven": 8473,
    "Ġraises": 11843,
    "enses": 10994,
    "Ġrenewed": 9537,
    "sharp": 10306,
    "Ġsubsiding": 23432,
    "Ġcastors": 23973,
    "Ġterti": 14538,
    "Ġpardon": 5727,
    "estate": 12819,
    "assured": 10953,
    "inexplicable": 25809,
    "Ġ46": 19489,
    "sub": 4659,
    "Ġsword": 6732,
    "Ġtastes": 15476,
    "Ġhabits": 6926,
    "Ġslide": 10393,
    "sembled": 7263,
    "Ġjoke": 8868,
    "Ġmates": 4872,
    "Ġbaby": 6636,
    "rying": 3182,
    "Ġredu": 1355,
    "Ġwer": 12549,
    "sham": 9756,
    "abri": 6682,
    "beth": 13687,
    "Ġflurry": 18861,
    "Ġvolcanoes": 24143,
    "consciousness": 13363,
    "Ġelasticity": 19557,
    "Ġintercept": 14268,
    "staff": 21647,
    "child": 5538,
    "Ġreturned": 2895,
    "Ġrevelation": 25222,
    "Ġconfederate": 17353,
    "Ġpleased": 4061,
    "iom": 20914,
    "Ġwrapping": 19774,
    "Ġrabb": 4160,
    "Ġdoran": 9179,
    "Ġwhether": 2001,
    "phil": 7924,
    "verize": 21725,
    "urry": 13992,
    "syntax": 5866,
    "Ġwherever": 8523,
    "Ġpro": 360,
    "thodox": 21985,
    "Ġflower": 16231,
    "Ġscrupulous": 20067,
    "Ġevenness": 22830,
    "Ġ133": 24783,
    "Ġmacy": 19353,
    "Ġret": 1382,
    "Ġbub": 8117,
    "Ġgolden": 5336,
    "joy": 3335,
    "Ġbackpropagation": 1263,
    "Ġbanners": 24858,
    "venty": 6427,
    "recognised": 15261,
    "decoder": 3643,
    "Ġpondered": 15165,
    "figured": 20121,
    "Ġlxi": 21558,
    "Ġabilities": 8866,
    "Ġboscombe": 8325,
    "Ġdowncast": 18652,
    "oin": 17617,
    "Ġcabin": 3304,
    "Ġrmsprop": 3355,
    "distressed": 24199,
    "Ġcigars": 12250,
    "attain": 21260,
    "Ġcount": 1817,
    "Ġgravesend": 15215,
    "networks": 2407,
    "Ġjib": 14193,
    "Ġunaccountably": 26515,
    "unavoidable": 17389,
    "Ġcredulous": 17144,
    "please": 8176,
    "Ġpat": 1743,
    "Ġmess": 7831,
    "Ġpaintings": 15055,
    "Ġfors": 21768,
    "feelings": 5674,
    "Ġturing": 7566,
    "Ġconsuming": 22789,
    "Ġbengal": 18782,
    "culous": 11141,
    "Ġswear": 6461,
    "rad": 2256,
    "verted": 10217,
    "Ġsy": 489,
    "complet": 11383,
    "Ġextravagant": 17278,
    "bation": 9102,
    "Ġmysticetus": 24922,
    "kine": 15374,
    "mystic": 25316,
    "Ġother": 759,
    "transform": 8049,
    "ropout": 1320,
    "gazed": 15360,
    "Ġpreposterous": 13668,
    "Ġclinched": 17393,
    "sticks": 25964,
    "f": 74,
    "Ġwild": 2603,
    "Ġbill": 4038,
    "many": 5250,
    "Ġover": 555,
    "Ġdignity": 5704,
    "Ġgovernor": 16489,
    "given": 8376,
    "hammered": 19007,
    "Ġformerly": 7493,
    "obedience": 17409,
    "hundreds": 25073,
    "Ġshuttle": 12124,
    "dream": 8727,
    "Ġride": 12756,
    "queness": 18146,
    "inked": 12911,
    "Ġexaggerate": 25649,
    "Ġunclad": 22051,
    "etition": 7382,
    "describe": 1513,
    "ange": 1018,
    "Ġyellowish": 24430,
    "Ġhansom": 13663,
    "bearers": 18524,
    "abil": 2008,
    "mitting": 17602,
    "Ġlirra": 21557,
    "Ġtyros": 26101,
    "Ġhovel": 8253,
    "str": 2580,
    "Ġshoots": 14568,
    "example": 16011,
    "Ġdiscoverers": 26036,
    "theast": 21745,
    "vers": 1327,
    "Ġofficial": 7081,
    "Ġskull": 6288,
    "dreams": 12335,
    "Ġprevented": 5941,
    "Ġglide": 22983,
    "Ġinheritance": 25355,
    "idirectional": 2422,
    "Ġpointed": 4773,
    "Ġenjoined": 18191,
    "partly": 14602,
    "Ġpretension": 23763,
    "Ġsoot": 14131,
    "Ġwardrobe": 17225,
    "ĠĠĠĠĠĠĠĠĠĠĠĠĠĠĠĠĠĠĠĠĠĠĠĠĠĠĠĠ": 9974,
    "Ġfrancisco": 26064,
    "Ġtranquilly": 12288,
    "Ġbecome": 3155,
    "Ġtables": 9877,
    "Ġcouns": 10520,
    "assuming": 22307,
    "Ġeconomical": 25287,
    "ped": 6365,
    "Ġsagaciously": 24731,
    "utral": 12661,
    "anxious": 15108,
    ".âĢĻâĢĿ": 6739,
    "Ġbinnacle": 8118,
    "agitation": 14067,
    "teen": 6370,
    "Ġriddles": 16732,
    "Ġmantle": 25274,
    "depth": 12798,
    "cable": 20796,
    "gust": 6360,
    "smeer": 26147,
    "penetrate": 20323,
    "librarian": 26568,
    "Ġproofs": 19813,
    "skull": 24488,
    "Ġcollectively": 19966,
    "Ġjug": 12833,
    "Ġgoat": 16005,
    "Ġafforded": 8028,
    "Ġobliging": 13240,
    "ops": 5247,
    "Ġconf": 1821,
    "Ġcensured": 25094,
    "progression": 20380,
    "Ġaccomplishments": 13377,
    "Ġinvention": 19951,
    "Ë": 140,
    "Ġdrifted": 14625,
    "Ġrumors": 11321,
    "remonstr": 23188,
    "Ġclapham": 17265,
    "Ġdistrusted": 13540,
    "ophisticated": 22475,
    "Ġterra": 13114,
    "Ġaccurate": 13290,
    "erland": 9640,
    "Ġchiswick": 25560,
    "Ġflourishing": 25187,
    "Ġgaping": 13968,
    "Ġsin": 1512,
    "august": 11071,
    "pence": 15408,
    "Ġgri": 17987,
    "boats": 6204,
    "Ġol": 17814,
    "Ġmitt": 21306,
    "legged": 10466,
    "lings": 8745,
    "Ġsought": 5010,
    "Ġgentlemanly": 19314,
    "painter": 24896,
    "Ġcenturies": 8622,
    "Ġparallelization": 3432,
    "Ġstumbling": 21739,
    "Ġbelf": 21379,
    "Ġcau": 13880,
    "Ġdazed": 15593,
    "Ġregression": 4406,
    "resp": 13838,
    "Ġsimulates": 2742,
    "actually": 14296,
    "Ġhardened": 14449,
    "Ġpecks": 18669,
    "didn": 9006,
    "Ġbarbed": 14834,
    "perquis": 22183,
    "send": 15422,
    "education": 20300,
    "Ġcruises": 23705,
    "Ġachieved": 13164,
    "Ġcritical": 7475,
    "Ġvesture": 20060,
    "Ġeven": 1027,
    "Ġwarsaw": 26167,
    "lled": 10107,
    "upon": 2724,
    "hamed": 6305,
    "god": 4863,
    "Ġservox": 23868,
    "Ġbohemian": 17133,
    "*": 14,
    "Ġbeseeching": 26311,
    "Ġprivate": 5345,
    "enc": 7574,
    "Ġhardest": 18912,
    "Ġpermanent": 13629,
    "Ġlucases": 9009,
    "umps": 6317,
    "ince": 4337,
    "ascribed": 24708,
    "Ġcaught": 3728,
    "Ġstrokes": 16769,
    "pread": 7418,
    "rep": 5525,
    "charitable": 23930,
    "rect": 1596,
    "parm": 21013,
    "Ġrequest": 6050,
    "interruption": 20110,
    "ledge": 1329,
    "Ġensued": 11394,
    "hero": 21203,
    "Ġcolon": 18765,
    "sink": 11521,
    "Ġincarn": 11812,
    "emason": 18186,
    "Ġinmates": 15620,
    "Ġgenerator": 3384,
    "Ġoutline": 15952,
    "Ġnile": 21518,
    "á": 162,
    "Ġdivide": 12108,
    "Ġrepose": 6741,
    "ordered": 8789,
    "accompan": 11452,
    "Ġtimely": 19593,
    "glance": 16587,
    "Ġconsequ": 6254,
    "sterns": 23366,
    "Ġsecurity": 8977,
    "Ġsplit": 7992,
    "Ġshifting": 12766,
    "Ġdisposal": 19374,
    "situation": 11437,
    "Ġponies": 21474,
    "Ġpunct": 8660,
    "olstadt": 7788,
    "Ġdimens": 3147,
    "Ġswamp": 14435,
    "Ġuntrodden": 23520,
    "Ġexal": 10877,
    "omas": 12674,
    "Ġunp": 12770,
    "Ġgratified": 8021,
    "Ġlaws": 8002,
    "ants": 1392,
    "Ġgreece": 17069,
    "Ġtem": 805,
    "Ġlima": 10442,
    "avating": 18605,
    "Ġhoisted": 5959,
    "official": 24914,
    "Ġfet": 5807,
    "ersburgh": 18215,
    "Ġhumbug": 18779,
    "Ġmunro": 25630,
    "Ġsilk": 11961,
    "Ġsprings": 16687,
    "hurt": 19877,
    "Ġerskine": 17431,
    "ce": 313,
    "fortune": 4975,
    "Ġinvolve": 11043,
    "Ġscattered": 6856,
    "Ġvehem": 22886,
    "moid": 2453,
    "Ġtell": 1468,
    "Ġcampa": 17173,
    "vative": 1539,
    "Ġsuccessfully": 19427,
    "Ġvile": 8472,
    "Ġspeak": 2229,
    "Ġresembled": 18033,
    "Ġsteep": 2893,
    "Ġhumane": 11882,
    "ied": 941,
    "dough": 15334,
    "Ġ179": 19753,
    "Ġthus": 2037,
    "Æ": 135,
    "stool": 23817,
    "Ġnovelty": 13461,
    "canoes": 16230,
    "Ġproduced": 2455,
    "nowled": 5470,
    "Ġentit": 22741,
    "ox": 9133,
    "Ġleatherhead": 20012,
    "Ġexh": 5232,
    "Ġkentuck": 19890,
    "pursu": 11392,
    "Ġbur": 2700,
    "Ġinsight": 16530,
    "Ġminimum": 23037,
    "return": 5489,
    "Ġloveliest": 20260,
    "Ġgroves": 16740,
    "use": 2539,
    "Ġrequired": 7223,
    "Ġi": 312,
    "Ġexhibiting": 19837,
    "rell": 11563,
    "ascended": 24706,
    "Ġpalpit": 16691,
    "Ġ125": 24470,
    "Ġcomprehensive": 15086,
    "Ġremarkable": 4915,
    "Ġtranspointed": 22437,
    "Ġbarely": 16936,
    "Ġauthoritative": 19560,
    "supervised": 1948,
    "Ġnightfall": 23129,
    "Ġyoungest": 7953,
    "fireside": 24692,
    "Ġactivations": 2722,
    "Ġgodfrey": 15292,
    "limin": 8383,
    "Ġtransl": 2833,
    "Ġcetace": 14987,
    "paws": 21028,
    "Ġitself": 2526,
    "Ġentrapped": 26262,
    "Ġfloor": 4375,
    "Ġrapturously": 24888,
    "accountable": 7109,
    "Ġrepairs": 19083,
    "Ġentertainment": 12220,
    "adr": 6994,
    "Ġsternly": 16715,
    "igned": 5656,
    "Ġsunken": 14494,
    "ensity": 11811,
    "Ġgallows": 12143,
    "signed": 21060,
    "Ġfilm": 23922,
    "our": 534,
    "preserving": 25304,
    "clerval": 7950,
    "organic": 25946,
    "Ġfailing": 12135,
    "Ġthorough": 6245,
    "iary": 15369,
    "Ġacc": 573,
    "deliver": 19503,
    "Ġgazed": 6478,
    "Ġbus": 1905,
    "verse": 9687,
    "Ġrainy": 24341,
    "Ġsmallest": 6430,
    "pression": 10407,
    "Ġjac": 1899,
    "Ġwhirlp": 16963,
    "Ġunprovided": 18260,
    "Ġoutsk": 15954,
    "Ġhasty": 10477,
    "br": 2480,
    "Ġlinks": 13954,
    "Ġtwink": 8215,
    "Ġhired": 10177,
    "Ġprepared": 5876,
    "Ġunknown": 4450,
    "Ġmisled": 22753,
    "Ġabstained": 25231,
    "Ġhardihood": 23111,
    "Ġdorm": 4821,
    "Ġspeeches": 22655,
    "possible": 5743,
    "idol": 21763,
    "Ġhelplessly": 20076,
    "Ġvoice": 2191,
    "Ġrecovery": 11441,
    "Ġshrink": 14802,
    "Ġsucceeding": 16761,
    "Ġporus": 24398,
    "Ġnoises": 18373,
    "Ġkept": 3346,
    "Ġprairies": 20019,
    "Ġassumed": 9465,
    "ss": 398,
    "Ġdeficiency": 14402,
    "gered": 9275,
    "Ġshovel": 23490,
    "uarded": 21104,
    "justified": 19006,
    "¡": 99,
    "better": 7119,
    "Ġconstant": 6309,
    "destro": 13307,
    "Ġpropensity": 18997,
    "Ġmarry": 4415,
    "draught": 12087,
    "idy": 21761,
    "ace": 717,
    "Ġdisadvantages": 18558,
    "Ġshameful": 19851,
    "itar": 15544,
    "Ġchristmas": 6924,
    "Ġglobules": 26588,
    "heaving": 21206,
    "._]]": 5334,
    "im": 327,
    "earn": 10696,
    "Ġswallows": 18882,
    "Ġenlivened": 26207,
    "Ġprompt": 3186,
    "om": 316,
    "Ġcrotch": 9962,
    "Ġscarlet": 13220,
    "Ġcells": 13884,
    "vishnoo": 21118,
    "Ġwondrous": 4735,
    "Ġbutchers": 18272,
    "Ġaf": 782,
    "Ġchimney": 6497,
    "Ġtortures": 14922,
    "Ġwitnessed": 14843,
    "«": 109,
    "oft": 3590,
    "Ġsuspicious": 9479,
    "Ġtwenty": 3945,
    "Ġpondicherry": 20489,
    "Ġreasonably": 11094,
    "vast": 10736,
    "aug": 1210,
    "Ġlying": 4825,
    "asc": 6386,
    "residence": 19262,
    "Ġground": 2850,
    "Ġgans": 5821,
    "meant": 7920,
    "Ġeggs": 12340,
    "hertfordshire": 10936,
    "Ġrank": 6258,
    "Ġstranded": 9774,
    "uger": 21102,
    "irwin": 8468,
    "Ġfooted": 23795,
    "Ġvolley": 24142,
    "Ġpasses": 2681,
    "Ġaff": 1118,
    "Ġpoisoned": 24886,
    "placidity": 25988,
    "Ġapplicable": 19008,
    "una": 21866,
    "Ġtract": 21164,
    "Ġcondemned": 7778,
    "reast": 17758,
    "Ġlexicon": 25974,
    "Ġhandkerchief": 8913,
    "Ġblossom": 26312,
    "Ġhorizont": 6937,
    "Ġharpoone": 2915,
    "companies": 24894,
    "Ġparticularly": 5056,
    "Ġskin": 5038,
    "obviously": 25242,
    "something": 4282,
    "ergy": 2365,
    "Ġsadder": 24048,
    "Ġindefinitely": 25221,
    "simp": 17665,
    "nature": 5359,
    "Ġpendulous": 25955,
    "strange": 6086,
    "Ġd": 284,
    "Ġdiscontented": 16056,
    "Ġyore": 21775,
    "repid": 11564,
    "Ġmock": 3689,
    "thro": 12759,
    "Ġdismally": 20213,
    "Ġlaughed": 5059,
    "Ġcoopers": 20520,
    "Ġtongs": 9960,
    "ound": 585,
    "Ġdragging": 14476,
    "iply": 22344,
    "ribe": 1220,
    "Ġconsequently": 8059,
    "Ġcomplied": 14733,
    "Ġdeb": 4764,
    "Ġfitzwilliam": 5771,
    "Ġbenignity": 18781,
    "nnight": 20992,
    "der": 468,
    "Ġsubdivisions": 26037,
    "Ġdislike": 6047,
    "Ġadequately": 15197,
    "hur": 6648,
    "Ġhos": 4942,
    "poke": 18796,
    "Ġinquest": 16547,
    "cas": 20793,
    "spell": 22731,
    "orted": 4602,
    "Ġinfer": 7683,
    "cra": 6354,
    "Ġinscribed": 24938,
    "Ġjets": 10287,
    "Ġnursing": 12212,
    "Ġburn": 3681,
    "Ġcorresponds": 19820,
    "Ġcons": 953,
    "Ġmomentum": 1600,
    "Ġcreditors": 20128,
    "Ġunderneath": 16336,
    "astrop": 3316,
    "Ġbedfellows": 23438,
    "rushed": 10584,
    "Ġobscurely": 20187,
    "barbs": 20236,
    "pillar": 5619,
    "Ġpra": 4344,
    "Ġsaintly": 25931,
    "Ġwhereby": 11834,
    "ationally": 15702,
    "Ġ62": 24365,
    "Ġjot": 11761,
    "estinated": 15919,
    "kee": 18273,
    "anchor": 13888,
    "Ġpavement": 9577,
    "Ġbrittle": 22863,
    "Ġfavours": 23280,
    "Ġfear": 2277,
    "Ġsuddenness": 23380,
    "Ġexplaining": 15958,
    "Ġnarratives": 24353,
    "olence": 10230,
    "Ġsyn": 15910,
    "Ġterrify": 19359,
    "Ġlash": 8438,
    "bureau": 20788,
    "ef": 5134,
    "case": 5206,
    "carrying": 16712,
    "Ġeagle": 13198,
    "legs": 13180,
    "stains": 11635,
    "mental": 16059,
    "ĠâĢĶâĢĶ": 25757,
    "Ġsituation": 4069,
    "harbors": 20147,
    "Ġath": 15799,
    "Ġex": 361,
    "scythes": 26402,
    "Ġstingy": 25455,
    "countryman": 24639,
    "Ġmoisture": 12357,
    "Ġgable": 15664,
    "Ġwarbling": 26168,
    "colonel": 8284,
    "Ġkindness": 4093,
    "Ġpreach": 14172,
    "Ġunconscious": 9546,
    "Ġexhib": 6349,
    "comm": 7439,
    "destruction": 11256,
    "Ġlend": 17962,
    "Ġthings": 1964,
    "Ġroots": 11185,
    "Ġprefer": 6416,
    "Ġsam": 7569,
    "Ġemploy": 3614,
    "twill": 21073,
    "garity": 17554,
    "ving": 595,
    "err": 1139,
    "Ġwomen": 4750,
    "Ġtepid": 26412,
    "Ġfourteen": 12008,
    "gu": 3953,
    "ography": 13360,
    "Ġsymphony": 26532,
    "elopement": 23156,
    "barrels": 15041,
    "ibilities": 13008,
    "Ġincumbent": 16060,
    "Ġai": 3126,
    "Ġbachelors": 24860,
    "ffic": 22148,
    "Ġhoops": 9388,
    "Ġvarieties": 14309,
    "Ġcrows": 24028,
    "rights": 23675,
    "Ġequivalent": 4802,
    "lesc": 11038,
    "stairs": 5155,
    "Ġahoy": 12182,
    "Ġhovered": 12629,
    "Ġnibbling": 17384,
    "Ġreader": 11932,
    "tstone": 21083,
    "Ġgoblets": 20517,
    "Ġvap": 6837,
    "string": 15682,
    "Ġconvinced": 4201,
    "Ġvow": 10246,
    "Ġassociate": 13448,
    "orange": 21398,
    "Ġdolphin": 17311,
    "voc": 8393,
    "iancy": 13009,
    "Ġsympathise": 16794,
    "Ġsavannah": 17415,
    "Ġx": 2074,
    "Ġspaniards": 25555,
    "strang": 11183,
    "Ġextras": 22722,
    "ļ": 253,
    "Ġnash": 5819,
    "Ġspinning": 15052,
    "fright": 9595,
    "Ġnoticed": 5549,
    "ashion": 3855,
    "duing": 22408,
    "Ġmaggie": 26291,
    "Ġensure": 23688,
    "vices": 21115,
    "ank": 1366,
    "Ġinaudible": 21496,
    "pendicular": 6499,
    "Ġacquitted": 18898,
    "hate": 20891,
    "Ġtrue": 1338,
    "glorious": 19365,
    "sheltered": 25585,
    "Ġbeaches": 18084,
    "aws": 8236,
    "meditation": 19068,
    "westward": 25424,
    "results": 20385,
    "Ġtemporal": 2614,
    "evening": 7089,
    "Ġassociates": 24712,
    "Ġconclusions": 10553,
    "Ġnodding": 23333,
    "alization": 733,
    "ool": 17618,
    "Ġdanger": 3519,
    "Ġimpious": 15984,
    "Ġdutch": 6327,
    "develop": 13516,
    "Ġfloating": 6604,
    "Ġaware": 5756,
    "murdered": 12200,
    "prejudiced": 17296,
    "Ġdecoding": 3082,
    "spr": 7435,
    "Ġrightly": 13061,
    "Ġtowns": 11173,
    "lonely": 20956,
    "Ġbuildings": 24720,
    "Ġoblig": 3446,
    "ctic": 8441,
    "Ġplays": 12035,
    "standing": 5558,
    "ased": 1267,
    "Ġbeards": 21748,
    "Ġwakes": 11571,
    "Ġsmaller": 1884,
    "Ġdecomp": 3807,
    "Ġconverts": 2808,
    "Ġinterests": 14569,
    "Ġperpetual": 12301,
    "descending": 16281,
    "Ġglossy": 15226,
    "Ġwithdraw": 16964,
    "Ġhastening": 19335,
    "Ġsatiated": 22899,
    "dared": 13701,
    "Ġdollar": 25283,
    "Ġbuzz": 23994,
    "Ġunworth": 22033,
    "Ġlengths": 19205,
    "Ġexplored": 23516,
    "Ġcond": 3871,
    "Ġrashly": 20304,
    "drifting": 19823,
    "sher": 5217,
    "Ġabsurdities": 24878,
    "Ġfiner": 13049,
    "Ġmerrily": 23731,
    "Ġband": 5290,
    "Ġestimates": 3745,
    "Ġdisenc": 22523,
    "Ġincom": 9768,
    "Ġah": 5075,
    "bug": 17492,
    "Ġbronze": 22866,
    "Ġsensitivity": 3069,
    "Ġdefence": 11067,
    "Ġnigh": 4878,
    "Ġcap": 2366,
    "Ġscreams": 24603,
    "served": 5043,
    "Ġharpooneers": 4732,
    "Ġgrieved": 8297,
    "rised": 10123,
    "Ġrelations": 5852,
    "Ġwrist": 8242,
    "Ġcomplaints": 12262,
    "elements": 25203,
    "occasionally": 13519,
    "Ġp": 289,
    "poky": 17644,
    "Ġschoolmaster": 16862,
    "hollow": 24037,
    "&": 10,
    "elson": 16372,
    "Ġcanv": 7009,
    "Ġtru": 4103,
    "Ġye": 901,
    "cl": 1493,
    "irectly": 6940,
    "Ġanimation": 11152,
    "Ġabstra": 22268,
    "Ġsimilitude": 19210,
    "Ġparis": 8178,
    "dramatic": 19383,
    "Ġoaken": 13864,
    "Ġreaction": 15692,
    "great": 3516,
    "Ġball": 3622,
    "Ġpopular": 6216,
    "gardiner": 12289,
    "Ġmeddling": 24080,
    "Ġpainting": 13139,
    "ulsive": 10233,
    "Ġrealities": 18981,
    "Ġdedicated": 19189,
    "ah": 1835,
    "Ġestablishment": 13577,
    "Ġjar": 15948,
    "Ġdisinclination": 22533,
    "Ġ124": 24469,
    "Ġpostpone": 17306,
    "Ġleathern": 15050,
    "istrate": 7406,
    "Ġrep": 1939,
    "Ġdisturbed": 8671,
    "Ġpacket": 14892,
    "Ġdreaming": 11223,
    "Ġaffirmative": 15221,
    "Ġshadow": 5596,
    "**": 4686,
    "bet": 6109,
    "Ġaffected": 5577,
    "concerns": 24064,
    "Ġflail": 23007,
    "Ġphant": 7055,
    "strugg": 21653,
    "doctor": 19095,
    "Ġinjunctions": 24269,
    "Ġenables": 725,
    "Ġgallons": 14817,
    "suff": 4961,
    "Ġfingertips": 24014,
    "Ġpreparations": 12308,
    "bree": 15313,
    "Ġharpo": 1944,
    "ituted": 13872,
    "Ġburying": 19251,
    "silly": 24422,
    "Ġviii": 16411,
    "hump": 12475,
    "Ġdirected": 5579,
    "Ġclub": 8873,
    "Ġbloss": 19255,
    "Ġeve": 13969,
    "pervised": 1595,
    "deduction": 23556,
    "Ġchocks": 13343,
    "Ġoptimize": 1586,
    "Ġasser": 6257,
    "ried": 925,
    "Ġbethink": 12377,
    "Ġnailed": 10189,
    "Ġlocket": 22110,
    "Ġprecious": 5760,
    "ful": 682,
    "Ġhistories": 14687,
    "Ġburke": 19250,
    "Ġdiver": 2534,
    "Ġseer": 21956,
    "Ġkills": 15904,
    "Ġallows": 3229,
    "Ġabsent": 7014,
    "hello": 13361,
    "Ġno": 510,
    "ters": 1571,
    "Ġeffect": 968,
    "Ġrigging": 5601,
    "Ġscand": 7203,
    "Ġbegun": 7243,
    "brothers": 17024,
    "Ġembeddings": 2176,
    "Ġranges": 2887,
    "prince": 23812,
    "Ġblazing": 11894,
    "dman": 10088,
    "Ġagrippa": 11805,
    "Ġfunction": 591,
    "probability": 17022,
    "ately": 1745,
    "Ġcasked": 24497,
    "hever": 13830,
    "vib": 21114,
    "aders": 21755,
    "feels": 22498,
    "poled": 22903,
    "Ġwere": 556,
    "enterprise": 24992,
    "Ġunchanged": 22028,
    "dances": 17521,
    "Ġvisible": 4777,
    "Ġforces": 12700,
    "Ġportraits": 20141,
    "Ġtranced": 18421,
    "Ġdetained": 18377,
    "Ġdiction": 8794,
    "shudder": 26245,
    "Ġcorrob": 16262,
    "endering": 21283,
    "droppers": 24759,
    "Ġignited": 25069,
    "Ġinsolent": 13598,
    "Ġdelusion": 18974,
    "Ġaddressed": 5262,
    "Ġimmured": 24069,
    "onstr": 12543,
    "cell": 10685,
    "Ġbuilding": 8062,
    "Ġjup": 15950,
    "Ġhunter": 5401,
    "Ġeastern": 11628,
    "Ġexult": 10229,
    "erect": 20847,
    "Ġdidn": 4360,
    "society": 9971,
    "nets": 9132,
    "Ġhatch": 7847,
    "ounced": 4954,
    "ench": 21278,
    "ilar": 10215,
    "father": 3773,
    "izon": 18133,
    "reliable": 21239,
    "Ġpressing": 9260,
    "Ġdawned": 14993,
    "etime": 12657,
    "Ġrick": 21967,
    "Ġlistener": 16474,
    "Ġfullest": 14813,
    "Ġclut": 7641,
    "Ġcosmopol": 16454,
    "ification": 1013,
    "Ġfronts": 20530,
    "Ġmature": 17799,
    "Ġshun": 11707,
    "Ġcompute": 2910,
    "Ġcapacious": 19175,
    "Ġcens": 8412,
    "ultaneous": 18586,
    "Ġlearnedly": 23384,
    "Ġhampshire": 15241,
    "bare": 12439,
    "Ġma": 3250,
    "Ġmechanically": 14401,
    "Ġstifle": 18073,
    "Ġcentaurs": 23830,
    "Ġcertainty": 6734,
    "sive": 4140,
    "Ġcity": 4528,
    "Ġadvisable": 11442,
    "Ġseems": 2483,
    "display": 19154,
    "peculiarity": 23107,
    "Ġwithdrawing": 11340,
    "reach": 17757,
    "ingle": 1037,
    "consum": 12868,
    "occasional": 19575,
    "Ġgoblet": 25823,
    "Ġkeels": 11061,
    "Ġdin": 3624,
    "tenderly": 20529,
    "Ġmitigates": 3051,
    "ta": 13788,
    "Ġplacid": 11824,
    "Ġidol": 7467,
    "Ġairth": 23317,
    "Ġherein": 16189,
    "Ġroyalty": 19735,
    "numerous": 17430,
    "Ġtimbers": 14838,
    "Ġunwilling": 7885,
    "province": 26072,
    "ger": 1108,
    "burgh": 6773,
    "Ġapparently": 6778,
    "0": 20,
    "Ġouter": 6859,
    "Ġthickening": 24021,
    "Ġpurring": 23475,
    "Ġouthouse": 22311,
    "maltese": 24795,
    "ichron": 22160,
    "Ġtot": 4181,
    "Ġnervousness": 23555,
    "Ġdead": 2172,
    "Ġdoxology": 22241,
    "Ġstake": 14002,
    "Ġwrap": 24594,
    "traces": 24315,
    "system": 4031,
    "Ġchr": 3686,
    "churning": 21694,
    "Ġsidel": 9635,
    "Ġneglig": 18877,
    "ength": 2316,
    "amplified": 26494,
    "danced": 20827,
    "entieth": 17978,
    "Ġwheelbarrow": 17204,
    "three": 5239,
    "apping": 5851,
    "arrival": 15597,
    "Ġharmless": 9964,
    "Ġmorality": 22975,
    "Ġtroub": 22342,
    "ibly": 2998,
    "Ġsix": 3043,
    "Ġtelegra": 11890,
    "Ġnantucketer": 6914,
    "young": 7321,
    "hors": 9598,
    "Ġsmells": 8889,
    "Ġstalked": 20427,
    "Ġwired": 17786,
    "Ġcellar": 8058,
    "Ġeaves": 15673,
    "Ġcoasts": 12161,
    "ript": 4149,
    "Ġinducement": 16843,
    "fishermen": 17061,
    "chess": 16573,
    "Ġland": 1998,
    "Ġelevating": 19728,
    "Ġfiver": 22772,
    "Ġcompassion": 6487,
    "Ġharem": 9708,
    "aced": 2409,
    "enth": 6680,
    "Ġexpressly": 16453,
    "repe": 8775,
    "Ġappalled": 22218,
    "Ġmanaging": 22322,
    "Ġturns": 4981,
    "erval": 4017,
    "trick": 19411,
    "Ġcoppers": 22582,
    "elag": 12656,
    "Ġfel": 1516,
    "ceptive": 15960,
    "augmented": 26286,
    "Ġgreenwich": 19319,
    "Ġ88": 19710,
    "Ġspan": 11726,
    "Ġdeposit": 17268,
    "proachable": 23396,
    "overlooked": 23322,
    "Ġadhering": 14139,
    "Ġbrill": 8549,
    "approaching": 15011,
    "Ã¦": 4335,
    "ators": 7829,
    "pike": 11514,
    "Ġankles": 17899,
    "happ": 3103,
    "Ġclouds": 5775,
    "Ġhousekeeper": 7456,
    "urities": 18048,
    "Ġinconvenience": 9563,
    "Ġmer": 2934,
    "Ġstim": 18063,
    "outon": 12801,
    "pitchpoling": 25725,
    "ĠâĢĻ": 3042,
    "richard": 17286,
    "precision": 4329,
    "Ġjohnson": 18409,
    "Ġthence": 8881,
    "Ġthroats": 24575,
    "inously": 21185,
    "Ġtemperature": 1004,
    "Ġhat": 2775,
    "Ġingenuity": 17163,
    "Ġidly": 16403,
    "Ġthinking": 4028,
    "Ġslam": 13054,
    "la": 10705,
    "estation": 15918,
    "quer": 11677,
    "ational": 5716,
    "Ġpolite": 9881,
    "Ġemergencies": 17361,
    "Ġcarving": 14442,
    "keeping": 8634,
    "Ġstrugg": 3213,
    "Ġid": 1910,
    "Ġwager": 17792,
    "Ġbrig": 11047,
    "Ġcommod": 10333,
    "ant": 438,
    "Ġpedest": 14995,
    "Ġtrain": 515,
    "Ġhours": 2823,
    "saving": 21058,
    "Ġdishes": 16047,
    "quickness": 19850,
    "gate": 12464,
    "give": 4689,
    "gr": 2086,
    "Ġphilistines": 26082,
    "or": 282,
    "Ġcontrivances": 12355,
    "Ġsubstantial": 14809,
    "Ġcounty": 9030,
    "Ġcompar": 4771,
    "Ġincrease": 9368,
    "Ġshould": 866,
    "olera": 21830,
    "bless": 22309,
    "Ġapologizing": 25197,
    "block": 11470,
    "Ġrespectful": 16344,
    "Ġreprehensible": 15696,
    "Ġlawy": 9453,
    "Ġelimin": 16106,
    "Ġconjure": 17123,
    "Ġparchment": 13650,
    "Ġglim": 9343,
    "interference": 23737,
    "Ġunostentatious": 22067,
    "wantonly": 25149,
    "younger": 11312,
    "apprec": 22839,
    "gress": 2214,
    "it": 276,
    "caut": 20811,
    "together": 3555,
    "Ġtwisted": 7228,
    "yth": 981,
    "Ġreef": 10849,
    "Ġwindings": 18909,
    "parts": 14601,
    "complied": 19912,
    "Ġcares": 9365,
    "Ġdearest": 5457,
    "ignity": 4371,
    "Ġthinker": 22808,
    "Ġlat": 5087,
    "Ġfruitless": 25605,
    "replied": 11565,
    "akened": 7415,
    "Ġimplies": 24873,
    "rog": 15637,
    "billows": 20235,
    "Ġdenny": 9001,
    "putable": 10901,
    "introduced": 15123,
    "Ġlifts": 25358,
    "Ġseeks": 14302,
    "Ġeffected": 14353,
    "Ġuncompromised": 20602,
    "rief": 6202,
    "ficial": 17548,
    "attachment": 13048,
    "Ġproper": 1379,
    "Ġplumage": 17297,
    "eminence": 20097,
    "unken": 10236,
    "Ġdivert": 23592,
    "Ġoverhung": 15967,
    "Ġclothing": 18430,
    "ahab": 4287,
    "Ġproblem": 1270,
    "dissemble": 23491,
    "Ġjamming": 17264,
    "Ġsepulch": 15283,
    "Ġbrooded": 23101,
    "warmth": 20051,
    "Ġamber": 7026,
    "Ġdistraction": 22501,
    "divers": 15341,
    "uplifted": 17695,
    "Ġfiery": 6871,
    "Ġwar": 5526,
    "Ġnaut": 13940,
    "cater": 20814,
    "Ġtruest": 16703,
    "whole": 6085,
    "Ġsenate": 25214,
    "Ġsuckling": 25997,
    "Ġgradu": 15830,
    "Ġfruit": 12324,
    "Ġwhirlwinds": 20463,
    "interests": 19707,
    "beaten": 20314,
    "Ġwrongfully": 24248,
    "Ġhereafter": 9329,
    "exercise": 17459,
    "Ġromans": 16759,
    "enance": 3373,
    "illing": 8174,
    "Ġarranged": 9876,
    "Ġchapel": 9522,
    "Ġrocking": 10969,
    "Ġnearest": 8469,
    "purse": 20023,
    "Ġlick": 21547,
    "conject": 8879,
    "Ġtricks": 13482,
    "Ġpretended": 19312,
    "Ġlarger": 1403,
    "Ġbewit": 15725,
    "Ġpatchwork": 24138,
    "Ġcreator": 7253,
    "Ġmuttering": 10499,
    "overs": 17621,
    "Ġgrandeur": 8627,
    "Ġmodels": 762,
    "stays": 15685,
    "braid": 17494,
    "brated": 12025,
    "Ġspanish": 2831,
    "°": 113,
    "gentle": 5356,
    "cannot": 5745,
    "likeness": 19476,
    "Ġburden": 8607,
    "Ġelijah": 9099,
    "Ġwaved": 9644,
    "Ġthunders": 15635,
    "Ġequality": 16357,
    "Ġarmed": 9259,
    "fatigue": 20657,
    "Ġvess": 3296,
    "itten": 3442,
    "Ġbradstreet": 9576,
    "Ġhowever": 1306,
    "asting": 12804,
    "Þ": 159,
    "recollect": 17223,
    "housekeeping": 24100,
    "Ġobligation": 13241,
    "icherry": 15134,
    "Ġgrizz": 10352,
    "Ġassisted": 11111,
    "Ġmed": 3983,
    "Ġpolitics": 19224,
    "Ġbidirectional": 3753,
    "Ġsystems": 807,
    "Ġbristling": 20525,
    "Ġfought": 12591,
    "Ġobjections": 8564,
    "istical": 8489,
    "Ġdefinite": 11069,
    "Ġdishon": 12228,
    "Ġfortune": 4236,
    "Ġdischarge": 18556,
    "aks": 8506,
    "Ġkeepers": 23538,
    "Ġcleaning": 23178,
    "aries": 6244,
    "astrous": 15883,
    "Ġstacks": 18074,
    "Ġstony": 21736,
    "rified": 15418,
    "grat": 5052,
    "Ġboy": 3023,
    "Ġden": 3106,
    "Ġblackest": 19098,
    "Ġsc": 530,
    "Ġhaughty": 11449,
    "soles": 18688,
    "Ġturks": 14598,
    "Ġsched": 2341,
    "Ġdrinking": 12166,
    "Ġpreacher": 18369,
    "Ġfever": 6558,
    "Ġenquired": 21937,
    "Ġroared": 7023,
    "Ġcheery": 16369,
    "eness": 2291,
    "Ġlistless": 16475,
    "Ġspect": 3551,
    "mistak": 16878,
    "Ġwatchful": 16526,
    "Ġmonster": 3790,
    "going": 6313,
    "Ġpalp": 11251,
    "fac": 17541,
    "rels": 6664,
    "pan": 10716,
    "Ġaim": 10145,
    "dation": 2615,
    "yn": 7819,
    "Ġsinew": 25431,
    "Ġoblique": 20168,
    "Ġcontrary": 5260,
    "Ġmagnitude": 1945,
    "ohog": 9843,
    "awake": 14451,
    "musical": 25340,
    "itime": 15545,
    "Ġawakened": 10453,
    "Ġmurmuring": 23578,
    "Ġsacrificial": 24871,
    "Ġshamefully": 24716,
    "Ġconceits": 19388,
    "Ġmakes": 3650,
    "Ġmitig": 1335,
    "Ġsailors": 4273,
    "Ġgossip": 18471,
    "Ġspecks": 14307,
    "Ġvisitors": 7984,
    "Ġth": 299,
    "Ġmemories": 14541,
    "Ġsubdued": 11030,
    "weed": 14314,
    "belongs": 25596,
    "erer": 8731,
    "?âĢĻ": 2642,
    "Ġsandwich": 19827,
    "Ġsatir": 18792,
    "Ġbeque": 18080,
    "Ġhoriz": 4726,
    "Ġtransform": 746,
    "fates": 20857,
    "angles": 18295,
    "Ġgrated": 22802,
    "Ġminiature": 11040,
    "hour": 7340,
    "Ġuncommonly": 7759,
    "Ġknew": 2055,
    "Ġblanc": 11065,
    "Ġrecip": 16139,
    "Ġcapacity": 10440,
    "Ġric": 18209,
    "Ġslabs": 13057,
    "Ġ78": 19612,
    "Ġpuzzled": 7317,
    "Ġsplendid": 17213,
    "Ġcircumstances": 3921,
    "Ġrestrictions": 20634,
    "Ġagency": 11804,
    "Ġcontinues": 18807,
    "Ġoutside": 5554,
    "text": 1976,
    "bee": 16035,
    "Ġpiping": 23224,
    "Ġdiscernment": 15067,
    "Ġunremitting": 26217,
    "Ġstricken": 9775,
    "heim": 17746,
    "Ġbowed": 6242,
    "vint": 21113,
    "Ġplatonian": 25118,
    "hilar": 25081,
    "Ġflame": 7448,
    "Ĉ": 201,
    "Ġconviction": 6326,
    "Ġarctic": 12810,
    "Ġhip": 17920,
    "Ġhunting": 7259,
    "Ġsealed": 15816,
    "Ġdismal": 11808,
    "Ġdisgracing": 26255,
    "Ġmaxim": 3085,
    "fitting": 1509,
    "Ġflourished": 15124,
    "Ġdenied": 9000,
    "Ġhe": 318,
    "Ġangular": 19206,
    "Ġhandsom": 11124,
    "69": 17474,
    "Ġinclement": 22550,
    "Ġsplend": 9897,
    "Ġgi": 15663,
    "begging": 22493,
    "Ġteacher": 22912,
    "landsmen": 25059,
    "Ġwharf": 9559,
    "named": 9889,
    "Ġreflect": 6575,
    "Ġlooked": 1805,
    "Ġfading": 15581,
    "Ġdaresay": 14703,
    "etics": 21578,
    "Ġdev": 886,
    "Ġintrospect": 15826,
    "Ġmaelstrom": 19354,
    "gratification": 24348,
    "Ġrifle": 18212,
    "narrowly": 20346,
    "Ġhistory": 4005,
    "Ġconstrued": 26301,
    "owal": 13995,
    "5": 25,
    "Ġinstrum": 6054,
    "Ġlogits": 3451,
    "Ġdiffered": 22710,
    "monsters": 19170,
    "avings": 12021,
    "degree": 12799,
    "greatly": 16623,
    "action": 3724,
    "yp": 1044,
    "Ġsaratoga": 26423,
    "bast": 10076,
    "Ġguilt": 6179,
    "Ġshore": 4834,
    "Ġresults": 7308,
    "Ġix": 12666,
    "Ġpian": 13916,
    "Ġscratches": 22283,
    "Ġconsumm": 15153,
    "Ġcabinet": 23859,
    "Ġreceipt": 20354,
    "declaration": 25175,
    "Ġoccasions": 7987,
    "Ġexact": 2546,
    "bastian": 10673,
    "Ġlabor": 10416,
    "?âĢĻâĢĿ": 23641,
    "iciency": 9574,
    "Ġlegisl": 23534,
    "Ġindec": 13927,
    "Ġlunacy": 20026,
    "Ġassumpt": 5415,
    "Ġinhaled": 25451,
    "squeezing": 25913,
    "<EOS>": 2,
    "Ġoverl": 18423,
    "Ġsearched": 15817,
    "Ġwaned": 17791,
    "Ġsteeply": 23723,
    "Ġoffence": 12942,
    "Ġtumult": 7114,
    "reserved": 13842,
    "Ġblank": 5950,
    "lit": 9605,
    "lover": 18536,
    "Ġfeels": 6882,
    "Ġadvance": 5484,
    "Ġunsupervised": 2492,
    "Ġthrees": 23399,
    "wants": 21129,
    "Ġdiggings": 24649,
    "Ġcompetent": 11814,
    "Ġenclosure": 20622,
    "Ġinexperience": 26099,
    "Ġescorted": 23505,
    "Ġtackles": 8050,
    "Ġenjoys": 19448,
    "deprived": 19897,
    "brimmed": 14588,
    "ribut": 816,
    "Ġcomponents": 8892,
    "isles": 15561,
    "Ġplunder": 22599,
    "Ġtrusting": 24103,
    "Ġexulting": 20257,
    "Ġanyways": 22517,
    "Ġprovid": 1007,
    "Ġmasks": 23325,
    "Ġalms": 21777,
    "Ġdrives": 14578,
    "Ġsashes": 21224,
    "Ġhaggerston": 26452,
    "Â·": 21148,
    "Ġarrives": 23606,
    "piece": 6655,
    "wished": 13804,
    "madam": 24421,
    "Ġ----": 7145,
    "Ġdesires": 9455,
    "Ġslipper": 24265,
    "terr": 8153,
    "Ġturk": 6603,
    "neurons": 3133,
    "windlass": 16721,
    "Ġ1828": 25720,
    "hum": 3775,
    "Ġsqueezing": 25006,
    "Ġservice": 6471,
    "L": 48,
    "Ġfeeling": 3084,
    "remember": 7262,
    "Ġsublimity": 26345,
    "eled": 2362,
    "Ġvigilance": 12369,
    "Ġautom": 3947,
    "Ġbigger": 19760,
    "Ġdeadly": 5405,
    "Ġ79": 24264,
    "Ġpains": 5964,
    "Ġlaborious": 13101,
    "Ġsow": 17749,
    "mar": 4333,
    "Ġflora": 11416,
    "Ġinfat": 14501,
    "Ġfly": 3866,
    "Ġgenial": 12192,
    "vult": 21112,
    "Ġsolid": 6443,
    "Ġhunch": 18934,
    "Ġtiar": 21166,
    "Ġsmitten": 12897,
    "Ġindividual": 5744,
    "Ġribbons": 24329,
    "Ġletters": 3789,
    "Ġwid": 4632,
    "Ġfatigued": 13463,
    "Ġdominant": 12394,
    "Ġactiv": 834,
    "ability": 716,
    "aye": 3658,
    "Ġnoiseless": 10356,
    "Ġjoints": 12033,
    "Ġolive": 12562,
    "Ġjaws": 5593,
    "Ġocean": 3305,
    "Ġ]": 15458,
    "Ġvict": 3760,
    "stop": 11633,
    "Ġhackluyt": 25655,
    "Ġmelancholy": 5606,
    "Ġsmack": 9299,
    "Ġrobust": 1340,
    "Ġeludes": 26554,
    "leads": 21368,
    "ike": 5000,
    "Ġloosened": 26002,
    "Ġcrashes": 13123,
    "reg": 2185,
    "Ġantelope": 24179,
    "Ġcentrally": 23829,
    "Ġpads": 21472,
    "Ġcheating": 16368,
    "Ġcaged": 21350,
    "Ġprofessed": 14723,
    "upright": 23016,
    "sli": 11522,
    "Ġtransfer": 2295,
    "Ġmillions": 11354,
    "Ġresidual": 1678,
    "Ġzones": 22816,
    "Ġus": 496,
    "Ġepsom": 19981,
    "Ġpurchas": 19873,
    "Ġsport": 6688,
    "Ġpolic": 13159,
    "Ġunheard": 22022,
    "accomplished": 17211,
    "Ġdefects": 12331,
    "Ġgriefs": 16771,
    "Ġbrow": 3985,
    "Ġvacancies": 24345,
    "ousings": 18335,
    "Ġunwritten": 22031,
    "Ġhavoc": 15811,
    "Ġferguson": 17469,
    "must": 3576,
    "Ġadvised": 16203,
    "Ġtendons": 19807,
    "judging": 24201,
    "Ġnoticing": 18224,
    ":--": 5784,
    "Ġascertained": 25296,
    "Ġundet": 16704,
    "Ġtransferred": 16466,
    "shadows": 25479,
    "Ġdangerous": 6613,
    "heric": 15909,
    "dare": 12451,
    "Ġviolence": 5962,
    "Ġstochastic": 3264,
    "requent": 3648,
    "Ġrefreshing": 20263,
    "Ġdesist": 16237,
    "author": 9859,
    "Ġinjunction": 19616,
    "Ġspe": 821,
    "Ġisland": 4046,
    "Ġuninjured": 22053,
    "Ġforbidden": 17078,
    "Ġlam": 21546,
    "Ġquill": 12855,
    "venerable": 26408,
    "oup": 2015,
    "Ġtried": 3646,
    "Ġcont": 621,
    "Ġscenes": 5730,
    "Ġmoonshine": 19596,
    "Ġsnodhead": 19300,
    "Ġprisoner": 8672,
    "courage": 17509,
    "Ġutterly": 6100,
    "Ġ200": 19294,
    "Ġgout": 21593,
    "Ġrather": 1494,
    "neighbourhood": 10024,
    "Ġferule": 24499,
    "Ġsprinkled": 19495,
    "Ġstoutest": 24628,
    "pp": 384,
    "Ġabundant": 17154,
    "grey": 14911,
    "we": 847,
    "Ġmore": 676,
    "Ġpromotion": 23191,
    "Ġtreatment": 12069,
    "Ġegot": 18007,
    "Ġhappily": 9330,
    "Ġkindling": 19036,
    "Ġstriking": 6088,
    "izarre": 17388,
    "indisc": 22370,
    "Ġcurbstone": 26042,
    "Ġperfectly": 3698,
    "Ġmost": 1020,
    "Ġstarbuck": 2194,
    "Ġstarboard": 7604,
    "embow": 21928,
    "Ġicelandic": 25886,
    "Ġquest": 2002,
    "Ġcharing": 14180,
    "Ġsoftened": 11102,
    "usiveness": 22290,
    "hairs": 20903,
    "Ġskeleton": 5514,
    "anxiety": 25155,
    "affording": 23776,
    "Ġtickets": 17094,
    "thes": 7391,
    "Ġgene": 15669,
    "Ġanalytical": 22945,
    "Ġmout": 17798,
    "vineyard": 25421,
    "Ġmuff": 8113,
    "Ġconfirm": 9855,
    "rey": 12535,
    "Ġsweetheart": 19393,
    "Ġrecre": 22736,
    "Ġdaughters": 4419,
    "ong": 536,
    "Ġphotography": 24683,
    "Ġchann": 15933,
    "milk": 20475,
    "Ġsurface": 5119,
    "Ġtax": 13815,
    "ctu": 5088,
    "mightily": 24101,
    "Ġalone": 2570,
    "Ġrobbed": 23003,
    "violence": 16477,
    "Ġdusting": 24596,
    "Ġnug": 21522,
    "Ġbowels": 9429,
    "Ġbefitting": 15723,
    "leading": 15559,
    "eaten": 20343,
    "Ġshock": 6082,
    "Ġeighteen": 11238,
    "Ġscenari": 22284,
    "Ġve": 1110,
    "Ġpound": 12614,
    "Ġtok": 1244,
    "bul": 6951,
    "Ġfringe": 17271,
    "strikes": 24670,
    "ntax": 935,
    "Ġtravellers": 11308,
    "Ġmetrics": 19034,
    "Ġsuspend": 14608,
    "Ġcombat": 16182,
    "spass": 18689,
    "Ġprestige": 22233,
    "Ġphaet": 16316,
    "Ġheaded": 11054,
    "Ġsuffered": 5649,
    "ans": 458,
    "Ġcharging": 23266,
    "neville": 22462,
    "Ġtanning": 17729,
    "gging": 7696,
    "justice": 7957,
    "ĩ": 234,
    "iguous": 18044,
    "Ġnorms": 3664,
    "Ġindulge": 10582,
    "Ġbelike": 18828,
    "opic": 22473,
    "Ġroyals": 19531,
    "Ġir": 1994,
    "Ġmicroscopic": 26373,
    "priv": 9619,
    "Ġturner": 7049,
    "Ġscoundrel": 13669,
    "falling": 24361,
    "Ġmoses": 21314,
    "hatred": 24821,
    "scale": 3534,
    "lose": 12880,
    "Ġwhen": 514,
    "horse": 8605,
    "ess": 410,
    "Ġspurn": 18309,
    "vere": 4883,
    "Ġspy": 22120,
    "Ġlub": 15646,
    "Ġornamented": 20360,
    "Ġregard": 3066,
    "wling": 11544,
    "servant": 15035,
    "fifth": 20145,
    "proud": 9903,
    "Ġbig": 5805,
    "ppered": 15788,
    "Ġtet": 21156,
    "contented": 14634,
    "mechanically": 17299,
    "Ġmisfortune": 5569,
    "Ġcoinc": 11001,
    "consolation": 15151,
    "Ġtweed": 22674,
    "Ġwra": 5905,
    "Ġtreat": 3172,
    "ified": 3222,
    "sto": 3195,
    "scure": 22985,
    "condescended": 26248,
    "Ġhumorous": 10360,
    "who": 2449,
    "Ġstay": 3094,
    "circ": 4386,
    "tumbled": 21089,
    "ien": 10101,
    "kindly": 14743,
    "Ġbiographical": 22761,
    "pat": 10116,
    "Ġhost": 7068,
    "Ġlieu": 19563,
    "----âĢĿ": 13304,
    "Ġbennett": 16322,
    "wretch": 17708,
    "doors": 19094,
    "answ": 15882,
    "Ġpiratical": 24801,
    "Ġnecessitates": 23926,
    "Ġdevice": 1931,
    "Ġmarshal": 20218,
    "Ġabhor": 5467,
    "Ġrow": 5309,
    "lac": 17589,
    "osure": 5306,
    "Ġyouthful": 16723,
    "cigar": 26124,
    "treat": 12511,
    "Ġsavages": 9911,
    "Ġpier": 7162,
    "Ġpow": 4637,
    "noticed": 14340,
    "Ġvivid": 8057,
    "Ġkinds": 14505,
    "ulations": 6028,
    "Ġsuperiority": 14617,
    "european": 26371,
    "Ġremainder": 9857,
    "Ġeffusions": 18540,
    "Ġsound": 2242,
    "Ġpositives": 4315,
    "reposed": 24492,
    "grant": 10427,
    "Ġbumps": 21390,
    "threaten": 25461,
    "cats": 17512,
    "Ġtreachery": 15100,
    "Ġmoderately": 22211,
    "Ġmurky": 19201,
    "Ġmeets": 7396,
    "Ġfinest": 10392,
    "tinted": 17683,
    "form": 495,
    "Ġdecayed": 22822,
    "Ġatom": 18192,
    "ties": 2761,
    "felicity": 25140,
    "discharging": 26305,
    "Ġpolice": 4674,
    "them": 3020,
    "reached": 13840,
    "Ġkidn": 20204,
    "ptember": 10893,
    "servants": 15037,
    "Ġnegative": 1464,
    "Ġfoster": 18991,
    "Ġcoherent": 3260,
    "Ġhoarsely": 26302,
    "uts": 8815,
    "Ġanalogical": 25640,
    "Ġunsur": 22019,
    "stood": 4113,
    ",âĢĻâĢĶ": 23527,
    "urred": 8448,
    "ort": 521,
    "Ġpeaking": 22687,
    "Ġnonce": 23232,
    "Ġhorizontally": 17012,
    "Ġa": 263,
    "Ġrevel": 9214,
    "Ġattempt": 3487,
    "Ġastir": 14640,
    "Ġissues": 9541,
    "Ġdey": 11674,
    "Ġcaut": 6521,
    "Ġsolemn": 4097,
    "Ġafford": 4363,
    "Ġklan": 23661,
    "bill": 10075,
    "ove": 1741,
    "Ġfrolic": 23921,
    "®": 111,
    "Ġcaptive": 14426,
    "saw": 5893,
    "Ġcargo": 16286,
    "Ġharvest": 13413,
    "observing": 25494,
    "Ġaggreg": 12882,
    "Ġhome": 2028,
    "Ġwasn": 6997,
    "uble": 21101,
    "Ġmovements": 24359,
    "poster": 11055,
    "ling": 736,
    "Ġvengeance": 5884,
    "Ġpartially": 13120,
    "by": 1157,
    "Ġgenuine": 14884,
    "Ġcountenance": 3967,
    "Ġquestioned": 14620,
    "Ġprofited": 19191,
    "woof": 21138,
    "Ġsoothingly": 25047,
    "natural": 2312,
    "Ġ183": 13235,
    "Ġpalms": 8643,
    "ude": 7562,
    "Ġstrategy": 2372,
    "Ġtowed": 11265,
    "Ġplainpal": 19276,
    "Ġgeneva": 5450,
    "phology": 3010,
    "Ġhagger": 21488,
    "Ġrepulses": 26070,
    "Ġpuppy": 12403,
    "Ġindoors": 18835,
    "Ġdesol": 6881,
    "flatter": 23964,
    "acid": 11005,
    "face": 3675,
    "Ġsoph": 1614,
    "Ġ73": 24260,
    "borean": 25743,
    "Ġinteresting": 4323,
    "Ġcoiled": 11818,
    "runs": 25415,
    "otle": 21794,
    "Ġcitations": 25437,
    "Ġtown": 2458,
    "Ġvoid": 14085,
    "Ġezekiel": 26192,
    "Ġspade": 9258,
    "eternal": 17982,
    "Ġmournful": 12334,
    "Ġfoliage": 18867,
    "Ġquestion": 2781,
    "custom": 15332,
    "eli": 3870,
    "contain": 18502,
    "Ġappetites": 20205,
    "Ġquaint": 18465,
    "summoned": 26591,
    "Ġobtru": 18677,
    "Ġdisembow": 22534,
    "Ġsoft": 1459,
    "off": 1887,
    "Ġlegs": 4916,
    "Ġthigh": 10186,
    "Ġminimizing": 3465,
    "Ġdramat": 23217,
    "Ġaffidav": 18787,
    "Ġsinews": 20286,
    "requ": 7148,
    "Ġgull": 15667,
    "Ġhellaswag": 24343,
    "reel": 21232,
    "circumst": 5348,
    "temper": 10003,
    "Ġbaleen": 10036,
    "fect": 2302,
    "Ġdisturbing": 19944,
    "Ġwoven": 9925,
    "Ġoccupies": 24005,
    "Ġinfinitely": 8963,
    "hurst": 19878,
    "Ġcommit": 18655,
    "Ġhurricane": 16430,
    "Ġfrench": 4939,
    "Ġdawn": 6816,
    "Ġauthorities": 11264,
    "collected": 13211,
    "Ġchannels": 26013,
    "onden": 13843,
    "Ġoutlandish": 12836,
    "Ġthereof": 22365,
    "Ġloved": 4598,
    "rocious": 21536,
    "Ġaust": 4871,
    "Ġshot": 4542,
    "immedi": 8450,
    "regarded": 12006,
    "Ġinvari": 6529,
    "Ġunra": 18237,
    "Ġshame": 6410,
    "Ġamiss": 18511,
    "Ġtracing": 18888,
    "malice": 17604,
    "engines": 18927,
    "Ġwanted": 4968,
    "urean": 18122,
    "Ġrepent": 9862,
    "az": 2183,
    "simon": 16973,
    "Ġattempts": 10490,
    "Ġregarding": 13206,
    "es": 288,
    "ren": 549,
    "Ġsur": 2184,
    "ideas": 18585,
    "Ġfumbled": 17881,
    "Ġkiss": 8182,
    "Ġsanct": 15062,
    "teeth": 10355,
    "Ġspurred": 22135,
    "Ġassume": 10515,
    "otics": 10223,
    "Ġbenches": 18780,
    "Ġdiffers": 23780,
    "Ġman": 544,
    "Ġcro": 4873,
    "ves": 696,
    "Ġexcel": 3566,
    "Ġmem": 2070,
    "Ġopp": 2699,
    "Ġwouldst": 18501,
    "Ġslew": 23381,
    "cription": 20817,
    "intervals": 10637,
    "invest": 11559,
    "Ġintertw": 18590,
    "conditionally": 24834,
    "Ġcounterbalance": 24722,
    "wolf": 26409,
    "ourably": 14374,
    "Ġencountered": 8321,
    "ice": 584,
    "Ġlowerings": 23645,
    "ias": 6362,
    "aside": 10191,
    "Ġdost": 7636,
    "ostent": 16846,
    "Ġaffinity": 18785,
    "perpendicular": 14159,
    "Ġerecting": 24652,
    "Ġmoney": 3419,
    "Ġsecrecy": 7316,
    "sof": 17657,
    "feed": 9292,
    "Ġdefined": 11896,
    "Ġgasped": 11372,
    "Ġgrace": 5374,
    "embarrassed": 20595,
    "regards": 23466,
    "Ġsummoned": 9910,
    "character": 6331,
    "oker": 10963,
    "innocence": 15182,
    "Ġcongrat": 5827,
    "adventurous": 25361,
    "oubled": 23644,
    "lod": 15377,
    "Ġcadiz": 17324,
    "Ġstaple": 26198,
    "highly": 24764,
    "Ġpopulous": 16826,
    "rote": 4591,
    "Ġleading": 7297,
    "Ġalexander": 17423,
    "Ġtranquil": 7310,
    "friendly": 13280,
    "advent": 10220,
    "delight": 5344,
    "Ġcreative": 9829,
    "Ġexerting": 21829,
    "Ġdeliberate": 15022,
    "Ġpartake": 18675,
    "dense": 18715,
    "Ġimage": 3404,
    "most": 1256,
    "Ġoccasionally": 5590,
    "Ġlikened": 16499,
    "Ġ126": 24471,
    "Ġhapp": 1092,
    "Ġartistic": 18612,
    "Ġlooking": 2476,
    "Ġsimpleton": 16333,
    "Ġseen": 1369,
    "Ġwrecked": 9965,
    "virtue": 20568,
    "remarkable": 13496,
    "discernible": 20549,
    "swam": 24254,
    "Ġensu": 7874,
    "Ġbeaks": 21752,
    "Ġsherlock": 3889,
    "itty": 3553,
    "Ġgallantry": 15102,
    "Ġgiving": 4082,
    "Ġmerged": 19295,
    "Ġbounding": 19398,
    "Ġwool": 19431,
    "Ġardently": 9497,
    "othic": 16214,
    "soever": 11858,
    "Ġloosed": 22109,
    "Ġpropag": 16346,
    "Ġvertu": 23888,
    "Ø": 153,
    "Ġsalt": 8016,
    "Ġwhoever": 10973,
    "Ġinflict": 15001,
    "Ġwhereas": 3851,
    "vell": 3955,
    "Ġplug": 17147,
    "Ġnodded": 11968,
    "Ġhour": 1814,
    "Ġattacking": 24465,
    "Ġpropont": 16348,
    "ness": 851,
    "Ġcharts": 12825,
    "etwork": 441,
    "Ġdams": 16455,
    "labours": 16617,
    "bert": 4662,
    "rious": 11687,
    "engthen": 14456,
    "Ġhull": 5446,
    "azed": 9398,
    "Ġjudgment": 5765,
    "Ġbeats": 21749,
    "Ġsociet": 9448,
    "urring": 21702,
    "Ġnomin": 10190,
    "Ġbandaged": 16842,
    "Ġschoolmasters": 19719,
    "Ġpoetical": 25056,
    "Ġmiriam": 25273,
    "various": 10397,
    "solved": 7684,
    "haul": 14764,
    "wishing": 21127,
    "Ġresources": 2941,
    "Ġbracing": 16580,
    "Ġchowders": 18386,
    "Ġknife": 7309,
    "Ġseventeen": 26210,
    "Ġposter": 14274,
    "Ġfair": 2840,
    "dun": 17516,
    "conceive": 16027,
    "having": 5211,
    "Ġstrengthen": 20699,
    "con": 653,
    "Ġearl": 7675,
    "Ġcompacted": 23507,
    "Ġassum": 4062,
    "Ġaries": 21196,
    "Ġstart": 3256,
    "favour": 9548,
    "Ġgrunted": 16169,
    "snatched": 24850,
    "proceeding": 20140,
    "Ġgallery": 10524,
    "Ġaccompany": 9486,
    "Ġanimals": 8978,
    "deli": 15343,
    "believed": 9932,
    "icles": 17972,
    "recklessly": 25269,
    "Ġrefreshed": 15290,
    "Ġbeautiful": 3670,
    "Ġunaffected": 14121,
    "islands": 21374,
    "Ġoblige": 10488,
    "Ġacting": 10991,
    "hammad": 23262,
    "enough": 6809,
    "Ġabout": 632,
    "Ġrooms": 5180,
    "Ġsemicircular": 26069,
    "Ġpained": 19166,
    "Ġtars": 21163,
    "Ġdevoting": 22719,
    "Ġenveloping": 19733,
    "nui": 20999,
    "Ġrows": 10561,
    "ering": 1266,
    "Ġdisown": 22521,
    "Ġcongenial": 12409,
    "Ġlearnable": 3992,
    "catherine": 7127,
    "Ġclue": 7020,
    "cence": 9588,
    "hecy": 21205,
    "Ġdouble": 4940,
    "Ġbanks": 6814,
    "Ġcaptiv": 16255,
    "Ġprayer": 16666,
    "oura": 1058,
    "Ġtransformer": 2637,
    "towns": 24854,
    "Ġmac": 15536,
    "Ġslu": 13835,
    "Ġindians": 14408,
    "Ġprairie": 8712,
    "Ġcogent": 14272,
    "Ġunlike": 7004,
    "idation": 5022,
    "Ġly": 2269,
    "Ġuncork": 23428,
    "Ġtwitched": 20442,
    "Ġessential": 7523,
    "flinging": 20867,
    "homely": 25617,
    "truck": 15440,
    "cott": 8073,
    "Ġfrayed": 23254,
    "Ġarom": 15491,
    "Ġwhisker": 23932,
    "Ġbark": 10798,
    "ckles": 22086,
    "iments": 4945,
    "Ġchain": 1845,
    "Ġmediterranean": 12313,
    "Ġpresuming": 16793,
    "Ġcock": 10999,
    "Ġmonsie": 11447,
    "Ġoutstanding": 22313,
    "daylight": 19056,
    "wing": 2524,
    "Ġshirr": 18231,
    "Ġrearing": 12675,
    "square": 15059,
    "tackles": 25624,
    "Ġhelmsman": 10504,
    "monograph": 23524,
    "oric": 21394,
    "sme": 17658,
    "Ġang": 2515,
    "Ġabed": 22262,
    "consciously": 19624,
    "Ġrecumbent": 22739,
    "Ġbritannica": 24680,
    "rity": 13775,
    "Ġproceeding": 9905,
    "Ġdecided": 5471,
    "Ġcracking": 14574,
    "cruise": 24841,
    "Ġcelestial": 10066,
    "Ġgifted": 17996,
    "Ġpy": 21449,
    "Ġtransp": 4770,
    "Ġhim": 475,
    "Ġbear": 3656,
    "Ġdivided": 8631,
    "Ġluggage": 25957,
    "Ġendow": 23140,
    "Ġuniformity": 23483,
    "Ġsurprised": 3826,
    "Ġgratifying": 13303,
    "Ġabhorrence": 9052,
    "Ġappend": 18360,
    "Ġwrapt": 24595,
    "Ġwinged": 16995,
    "wood": 5897,
    "pretty": 10621,
    "Ġtapped": 11553,
    "fly": 13713,
    "pronounced": 12344,
    "Ġthrusting": 10552,
    "suspicious": 25390,
    "gledy": 25403,
    "Ġirre": 7468,
    "Ġspl": 2987,
    "Ġloss": 823,
    "solitary": 14506,
    "damn": 20022,
    "Ġappointment": 10646,
    "Ġwhispers": 14699,
    "Ġmel": 4816,
    "backpropagation": 11984,
    "cost": 19185,
    "Ġangles": 23587,
    "Ġhebrew": 13987,
    "Ġforehead": 5261,
    "Ġpurposed": 23551,
    "Ġmaketh": 15186,
    "Ġbaff": 10799,
    "reng": 3999,
    "Ġimaginations": 16515,
    "Ġdism": 9766,
    "Ġwinking": 17793,
    "cet": 15324,
    "Ġproving": 15749,
    "Ġknight": 9726,
    "Ġintegr": 7968,
    "Ġins": 2784,
    "Ġgrand": 3592,
    "Ġrumpled": 24600,
    "Ġcategories": 4474,
    "Ġflat": 8227,
    "Ġ1807": 26083,
    "Ġintrig": 21987,
    "Ġlearnt": 7614,
    "Ġverdict": 13473,
    "Ġbanking": 19629,
    "Ġsubtlety": 24780,
    "Ġresuming": 12891,
    "otently": 21797,
    "uttering": 12660,
    "ĠĠĠĠĠĠĠĠĠĠĠĠĠĠĠĠĠĠĠĠĠĠĠĠĠĠĠĠĠĠĠĠĠĠĠĠĠĠĠĠĠĠĠĠĠĠĠĠĠĠĠ": 20037,
    "gments": 12467,
    "exerc": 16013,
    "Ġsmoky": 22555,
    "Ġsixty": 7722,
    "reeling": 21243,
    "Ġblue": 3455,
    "Ġanchors": 12611,
    "ŀ": 257,
    "Ġused": 2060,
    "onel": 3090,
    "preserve": 25303,
    "Ġyellow": 5300,
    "tide": 11532,
    "bloom": 24689,
    "brave": 19822,
    "cripp": 20818,
    "raising": 21629,
    "photograph": 16152,
    "Ġunhing": 18241,
    "Ġmaiden": 13384,
    "gown": 9596,
    "Ġextinguish": 14330,
    "tha": 15821,
    "riers": 18182,
    "ouement": 21446,
    "shapes": 22454,
    "Ġcave": 10785,
    "Ġbroadened": 23982,
    "Ġbraces": 14669,
    "Ġvincent": 15282,
    "Ġgold": 3277,
    "ustry": 18356,
    "Ġrecollection": 6620,
    "Ġimbecile": 17391,
    "Ġtwinkling": 12322,
    "Ġears": 4487,
    "peter": 24298,
    "Ġredundant": 16551,
    "Ġseedy": 21959,
    "mult": 8747,
    "torture": 26151,
    "Ġsentence": 6187,
    "Ġsnar": 13196,
    "Ġkings": 7197,
    "Ġsebastian": 11696,
    "Ġw": 272,
    "Ġhumiliation": 16197,
    "Ġgibe": 25959,
    "hyena": 24252,
    "shall": 4548,
    "sentiment": 12912,
    "Ġbreed": 19073,
    "conveyed": 20519,
    "regularly": 13204,
    "beam": 16036,
    "suspicions": 25391,
    "suddenly": 6493,
    "Ġprem": 3427,
    "mur": 5428,
    "Ġtrap": 7671,
    "Ġcontrols": 1731,
    "Ġcurtains": 22962,
    "Ġpuzzling": 14897,
    "blades": 24128,
    "Ġupdate": 2466,
    "Ġbuckets": 17034,
    "Ġnur": 5710,
    "Ġrepugnant": 26590,
    "whilst": 18371,
    "Ġpipeline": 2317,
    "otions": 7180,
    "Ġbeh": 1804,
    "sharpening": 22456,
    "Ġphrenologist": 25607,
    "Ġain": 6969,
    "smitten": 23906,
    "Ġreceptacle": 23189,
    "Ġfurniture": 6476,
    "beards": 22487,
    "Ġcircles": 7966,
    "Ġsurvive": 9066,
    "Ġlabrador": 23328,
    "Ġopulent": 23627,
    "Ġclasping": 20208,
    "Ġeavesdroppers": 25963,
    "ources": 2792,
    "infl": 15486,
    "Ġluck": 4880,
    "Ġ(_": 3734,
    "rushing": 10017,
    "Ġeveryday": 22762,
    "Ġstandpoint": 23276,
    "plans": 21949,
    "Ġactually": 5389,
    "Ġissuing": 16948,
    "Ġdeceit": 13479,
    "Ġconfounded": 16386,
    "prom": 6509,
    "icip": 6389,
    "Ġpolynesian": 26026,
    "Ġwitnessing": 19597,
    "creator": 26381,
    "nor": 2745,
    "what": 642,
    "ents": 1898,
    "Ġsuggests": 12198,
    "Ġnewcomer": 26040,
    "allowed": 5728,
    "Ġenviron": 4280,
    "Ġdash": 8121,
    "ub": 1222,
    "Ġincoherent": 17399,
    "Ġbreezes": 14868,
    "Ġreconsidered": 21670,
    "Ġengrossed": 12992,
    "Ġunwarrantable": 26353,
    "Ġbloodshed": 23799,
    "Ġliveliness": 13641,
    "Ġprobably": 4311,
    "Ġblotting": 25313,
    "Ġrespects": 7269,
    "half": 4931,
    "Ġspoils": 24808,
    "greeting": 24554,
    "ens": 701,
    "horrible": 14600,
    "rapidly": 15242,
    "cd": 15322,
    "Ġdeductions": 19732,
    "owed": 2270,
    "Ġepidemic": 20694,
    "Ġofficio": 23813,
    "erranean": 9333,
    "Ġtotally": 9470,
    "Ġstripping": 23696,
    "Ġwaving": 8575,
    "angel": 5726,
    "Ġharsh": 9520,
    "Ġderision": 16308,
    "Ġpounds": 5368,
    "begin": 8883,
    "Ġgenerate": 1477,
    "Ġglen": 18852,
    "dat": 1659,
    "Ġintolerably": 15827,
    "wear": 22680,
    "Ġriots": 23890,
    "Ġconjunction": 25100,
    "Ġbrandy": 11049,
    "Ġshillings": 15833,
    "Ġency": 21930,
    "Ġblasphe": 17406,
    "Ġreverence": 12057,
    "admon": 21758,
    "stooped": 23819,
    "extra": 8218,
    "Ġchronicler": 20228,
    "rather": 5430,
    "girdling": 26389,
    "Ġagonies": 14251,
    "Ġmass": 3777,
    "Ġribs": 7101,
    "Ġlevel": 5020,
    "Ġsupreme": 13605,
    "Ġslumbering": 25701,
    "Ġprinc": 4195,
    "drab": 23895,
    "ute": 4642,
    "incident": 14591,
    "Ġshoes": 7071,
    "Ġansw": 2205,
    "Ġfleet": 9431,
    "Ġwat": 1287,
    "deav": 2676,
    "Ġplates": 11006,
    "Ġ129": 24474,
    "Ġcolour": 4458,
    "Ġcontrolled": 23249,
    "Ġdashed": 6009,
    "Ġencouraging": 2264,
    "Ġceti": 24773,
    "Ġrapidly": 3242,
    "remem": 13063,
    "Ġbloodshot": 23798,
    "Ġbreach": 11972,
    "Ġvulture": 17338,
    "H": 44,
    "Ġreceived": 2956,
    "Ġwindow": 3000,
    "Ġnovelist": 24777,
    "Ġsins": 13836,
    "Ġdanish": 21429,
    "typewritten": 26038,
    "Ġwet": 6518,
    "Ġnoisier": 4624,
    "Ġinexperienced": 26100,
    "Ġlads": 8597,
    "brance": 7284,
    "Ġvalu": 5039,
    "Ġext": 889,
    "Ġarduous": 26531,
    "ula": 2829,
    "Ġrivers": 9441,
    "enesis": 24388,
    "Ġexpressing": 12007,
    "bench": 16803,
    "Ġsnail": 19298,
    "Ġtrusty": 24102,
    "oriously": 17874,
    "Ġbled": 17856,
    "Ġlump": 21549,
    "Ġregiment": 6432,
    "Ġsoldiers": 8686,
    "Ġpillow": 10037,
    "Ġbroiled": 18908,
    "Ġcassock": 20485,
    "Ġnoteworthy": 24159,
    "Ġtight": 8107,
    "â": 163,
    "mmet": 10988,
    "x": 92,
    "Ġdisaster": 12885,
    "Ġworlds": 11945,
    "Ġanomalous": 25637,
    "Ġplaintiffs": 13607,
    "Ġobsequious": 17403,
    "Ġobeisance": 19757,
    "Ġapothe": 12373,
    "oforte": 14286,
    "ushes": 22288,
    "claim": 9834,
    "Ġshipwreck": 20444,
    "Ġegress": 21618,
    "ifled": 14062,
    "dwelling": 20563,
    "jets": 20927,
    "Ġlysander": 13136,
    "Ġnatural": 1113,
    "Ġblankness": 24610,
    "Ġdeliriously": 23228,
    "Ġcalcul": 3636,
    "Ġlazarus": 15028,
    "private": 13580,
    "Ġrecollections": 10512,
    "Ġought": 3420,
    "Ġwane": 21287,
    "Ġciv": 3309,
    "Ġdelirium": 10405,
    "turbable": 24531,
    "twice": 14621,
    "Ġcoldly": 14650,
    "ron": 5216,
    "Ġcharm": 4546,
    "queens": 22906,
    "quin": 21844,
    "aul": 6352,
    "Ġfreely": 7056,
    "tiness": 21070,
    "ieties": 19027,
    "Ġgeneralize": 3100,
    "Ġthick": 3779,
    "Ġprof": 2463,
    "Ġxlix": 25860,
    "Ġanecd": 20153,
    "Ġconqueror": 25796,
    "industrious": 26239,
    "Ġadmitting": 19182,
    "erns": 8777,
    "Ü": 157,
    "ivity": 1637,
    "eh": 13709,
    "Ġcruis": 14624,
    "cousins": 20116,
    "rador": 19158,
    "Ġdocument": 15018,
    "Ġscratch": 25564,
    "Ġgl": 1255,
    "bury": 9106,
    "Ġcontr": 1916,
    "Ġwol": 15528,
    "pled": 7891,
    "Ġindistinctly": 26117,
    "Ġintensity": 10015,
    "Ġtakes": 5007,
    "Ġprogram": 12989,
    "savor": 25024,
    "Ġarrival": 4731,
    "Ġpages": 15605,
    "omeness": 18022,
    "Ġtatters": 21176,
    "Ġagatha": 6866,
    "welcomed": 24644,
    "oves": 15402,
    "Ġfinny": 23125,
    "Ġ25": 13190,
    "Ġdevelop": 1638,
    "icirc": 15653,
    "estic": 4956,
    "Ġhousehold": 8567,
    "ison": 3074,
    "Ġrespect": 1669,
    "Ġmonument": 16238,
    "Ġserenity": 10027,
    "Ġgin": 13960,
    "prehens": 9288,
    "Ġthro": 5817,
    "hidden": 17370,
    "igate": 8822,
    "Ġlowering": 7986,
    "Ġfailure": 13312,
    "Ġcuriosity": 2347,
    "Ġsus": 18277,
    "daughters": 13464,
    "Ġfake": 5810,
    "Ġimprovement": 7965,
    "Ġtwine": 14310,
    "bucket": 17493,
    "Ġerect": 6143,
    "Ġledger": 19400,
    "Ġsharkish": 24506,
    "eler": 1570,
    "Ġsubaltern": 22786,
    "Ġstealing": 18893,
    "incredible": 16498,
    "tre": 8760,
    "Ġundo": 15838,
    "Ġnautical": 17385,
    "İ": 241,
    "Ġbounds": 9917,
    "strils": 10458,
    "known": 3567,
    "Ġadopt": 10631,
    "Ġsle": 2014,
    "Ġfind": 1458,
    "Ġgrammars": 11402,
    "folio": 10546,
    "cused": 15331,
    "Ġper": 587,
    "marrying": 19546,
    "Ġminute": 4275,
    "balls": 12303,
    "Ġoblivious": 26032,
    "hack": 20895,
    "Ġoverthrow": 18427,
    "Ġadditionally": 1174,
    "Ġwade": 17784,
    "Ġsteering": 10387,
    "Ġunpleasing": 22052,
    "âĢĻ!âĢĿ": 18167,
    "Ġcur": 1229,
    "Ġblacksmiths": 19872,
    "Ġtrumpet": 9573,
    "ccess": 3179,
    "Ġpack": 5444,
    "Ġsqueaking": 26274,
    "Ġstructured": 2976,
    "Ġpatient": 6892,
    "Ġdisturbance": 15012,
    "Ġattent": 4358,
    "Ġrichest": 26211,
    "Ġisle": 8832,
    "quent": 2094,
    "Ġterritories": 23843,
    "Ġshaping": 22000,
    "aire": 10680,
    "Ġsunset": 8962,
    "remind": 23185,
    "Ġsecondary": 23334,
    "laid": 10109,
    "umul": 1289,
    "Ġdiscovery": 5412,
    "scap": 22987,
    "Ġcanal": 8181,
    "Ġdevote": 10338,
    "Ġploughing": 26259,
    "Ġcountries": 13095,
    "Ġconcer": 23319,
    "urmount": 13994,
    "encountered": 20391,
    "Ġglimmer": 15140,
    "Ġjoes": 19230,
    "į": 240,
    "Ġinwards": 15618,
    "Ġhart": 17921,
    "during": 6787,
    "Ġ131": 24782,
    "Ġstandard": 14497,
    "Ġaccompanied": 6780,
    "let": 2735,
    "Ġqueerest": 16413,
    "Ġunsc": 22011,
    "Ġcash": 9652,
    "acle": 4716,
    "Ġ59": 24327,
    "thee": 9689,
    "elly": 17979,
    "Ġpupella": 20420,
    "Ġmoody": 8200,
    "Ġsurprise": 3825,
    "yden": 21142,
    "Ġbills": 17860,
    "Ġknock": 9972,
    "Ġloft": 5642,
    "Ġmort": 3460,
    "heavy": 10574,
    "indifferent": 14208,
    "isher": 2882,
    "Ġringbolts": 24196,
    "Ġoakum": 16934,
    "Ġtexel": 25923,
    "perplex": 18340,
    "angle": 22101,
    "Ġconsideration": 5191,
    "dipped": 20836,
    "burn": 8370,
    "gd": 3123,
    "bank": 10079,
    "Ġsummar": 3524,
    "Ġweek": 2830,
    "feit": 16039,
    "Ġdoubled": 19641,
    "Ġsoftness": 18917,
    "iterranean": 15547,
    "Ġintrepidity": 25550,
    "osh": 18388,
    "gyric": 19109,
    "Ġlieuten": 13324,
    "Ġlocations": 12411,
    "Ġexpress": 2195,
    "unmistakable": 21892,
    "zetts": 17714,
    "itigated": 23044,
    "Ġoblong": 14320,
    "quake": 11678,
    "Ġfamine": 16326,
    "uding": 16146,
    "Ġclaimed": 14205,
    "!_âĢĶ": 19971,
    "Ġgarments": 15192,
    "ĠĠĠĠĠĠĠĠĠĠĠĠĠĠĠĠĠĠĠĠĠĠĠĠĠĠĠĠĠĠĠĠĠĠĠĠĠĠĠĠĠĠĠĠĠĠĠĠĠ": 20036,
    "Ġcomely": 21852,
    "Ġmultiple": 1185,
    "Ġincurable": 22549,
    "antled": 18286,
    "Ġceased": 6468,
    "Ġidentifies": 12013,
    "marks": 7346,
    "Ġsagacity": 16974,
    "overspreading": 26139,
    "ensical": 18567,
    "mits": 13755,
    "Ġtiny": 11552,
    "Ġbusy": 6189,
    "Ġprosecuted": 25293,
    "Ġreckon": 19869,
    "Ġtempted": 9056,
    "brim": 23574,
    "Ġirreproachable": 24917,
    "Ġparameters": 993,
    "mel": 9127,
    "hunting": 24385,
    "Ġ94": 17717,
    "Ġpom": 21450,
    "horr": 14599,
    "Ġpigeon": 9515,
    "vis": 4576,
    "Ġintruding": 21988,
    "Ġadored": 18291,
    "Ġcautious": 12251,
    "Ġstorms": 11262,
    "mistaken": 12208,
    "Ġafric": 8905,
    "Ġtone": 4037,
    "ĕ": 214,
    "Ġpublic": 4330,
    "Ġconfide": 13097,
    "conside": 9289,
    "Ġrelevant": 1864,
    "cig": 17503,
    "Ġalternate": 19984,
    "wretchedness": 17252,
    "Ġmere": 2715,
    "Ġobst": 6284,
    "Ġsolution": 9804,
    "Ġassured": 4369,
    "Ġstave": 11650,
    "spouting": 25000,
    "any": 3338,
    "blows": 17165,
    "Ġunexpectedly": 19908,
    "understanding": 1109,
    "Ġmiz": 10777,
    "Ġvirtuous": 14754,
    "Ġsling": 21219,
    "complained": 25838,
    "igators": 18045,
    "Ġimpassable": 20611,
    "sake": 13782,
    "Ġfamiliar": 5511,
    "totally": 25417,
    "Ġinserting": 19905,
    "Ġinvest": 4978,
    "Ġsteps": 2868,
    "Ġcomprehend": 6494,
    "carte": 25400,
    "Ġgovern": 10450,
    "hearing": 8402,
    "Ġdrove": 4984,
    "Ġavocation": 23950,
    "english": 2778,
    "cks": 3080,
    "Ġchili": 25561,
    "Ġbite": 10797,
    "Ġbery": 13897,
    "passenger": 24165,
    "Ġjustinian": 22969,
    "flaming": 23967,
    "Ġmonstrous": 7789,
    "Ġcapering": 21352,
    "fere": 10989,
    "Ġprofit": 14585,
    "Ġpumping": 25643,
    "Ġdirector": 18920,
    "Ġep": 7384,
    "Ġship": 1093,
    "Ġexpeditions": 24954,
    "Ġbrightest": 13222,
    "Ġfanny": 23389,
    "Ġmajor": 13287,
    "ont": 2623,
    "(_": 7540,
    "Ġwhelmed": 25999,
    "Ġsofas": 26224,
    "instant": 8651,
    "Ġisinglass": 21799,
    "prim": 23808,
    "gro": 10094,
    "Ġcasket": 19723,
    "Ġstrangest": 14794,
    "oding": 1462,
    "Ġestablished": 9069,
    "Ġdamned": 13129,
    "ic": 304,
    "Ġslips": 23164,
    "Ġdecaying": 2247,
    "Ġfrock": 10489,
    "Ġfrequ": 3328,
    "jewel": 20345,
    "along": 6012,
    "Ġstaving": 21734,
    "Ġfountain": 7365,
    "stars": 18016,
    "far": 5787,
    "Ġborne": 6351,
    "batim": 25016,
    "gno": 13726,
    "Ġwast": 21857,
    "Ġegg": 8818,
    "Ġfortifications": 23619,
    "Ġindefinite": 17176,
    "Ġscaffold": 18400,
    "robber": 21534,
    "Ġwithin": 2165,
    "ä": 165,
    "worked": 18990,
    "enjoyments": 25433,
    "mat": 2199,
    "Ġuninterrupted": 22043,
    "Ġdisgust": 6705,
    "Ġsquire": 16178,
    "Ġinfallibly": 10040,
    "bed": 3290,
    "ò": 179,
    "Ġembellish": 25847,
    "Ġdata": 519,
    "ineffectual": 26507,
    "bye": 5949,
    "Ġplanisp": 24054,
    "Ġwait": 4907,
    "Ġwes": 8778,
    "Ġcultivation": 17145,
    "entered": 8814,
    "Ġhurts": 19111,
    "stirred": 20423,
    "grateful": 10428,
    "Ġstrait": 23749,
    "lestrade": 9656,
    "fanning": 20865,
    "quar": 7615,
    "Ġbald": 16205,
    "Ġreproofs": 24892,
    "orders": 12872,
    "Ġter": 2051,
    "Ġpool": 5173,
    "Ġwalls": 6762,
    "Ġto": 297,
    "opinion": 10984,
    "nailed": 20995,
    "hurriedly": 25510,
    "Ġincorpor": 13163,
    "morn": 20975,
    "Ġepid": 18004,
    "Ġ60": 14874,
    "Ġcontemplation": 11357,
    "danger": 10089,
    "som": 3292,
    "worse": 14690,
    "chairs": 21690,
    "myst": 9821,
    "Ġseem": 914,
    "Ġmin": 1026,
    "avail": 18604,
    "Ġha": 400,
    "commun": 15033,
    "Ġhumaneval": 25582,
    "Ġ84": 19708,
    "Ġsill": 10765,
    "Ġamateur": 22482,
    "know": 2322,
    "Ġenvelop": 5587,
    "ibule": 13007,
    "Ġcocoan": 20315,
    "Ġtertiary": 15293,
    "Ġuntamed": 19163,
    "Ġknowledge": 1447,
    "blown": 25201,
    "Ġorchard": 22091,
    "Ġconducted": 10502,
    "ign": 1701,
    "del": 4073,
    "Ġlac": 17964,
    "Ġgills": 17992,
    "Ġaccompaniments": 24482,
    "Ġrighteous": 18945,
    "alterable": 13622,
    "ssian": 3401,
    "Ġintend": 12762,
    "Ġinit": 818,
    "Ġconvenience": 11331,
    "Ġpricking": 23221,
    "Ġtopmost": 14587,
    "Ġgir": 2255,
    "Ġult": 9074,
    "Ġprojecting": 9984,
    "Ġdisconcerted": 18562,
    "Ġluxurious": 17310,
    "Ġlives": 4826,
    "Ġscared": 14189,
    "Ġsaddest": 16662,
    "liness": 8746,
    "Ġheaped": 18037,
    "melancholy": 12351,
    "volutions": 16320,
    "Ġbeside": 5192,
    "allows": 15905,
    "Ġsabbee": 17255,
    "Ġconsulted": 13428,
    "Ġmaz": 15539,
    "Ġreveries": 11347,
    "Ġfairer": 20460,
    "Ġleyden": 21744,
    "trip": 21090,
    "valued": 2857,
    "Ġhath": 12626,
    "Ġexistence": 4707,
    "Ġadorn": 12790,
    "Ġcoron": 4461,
    "Ġexpected": 3694,
    "Ġbegin": 3098,
    "Ġscrawled": 24580,
    "Ġseverely": 14932,
    "Ġmonomaniac": 9568,
    "Ġnice": 6676,
    "rets": 12538,
    "Ġ64": 24367,
    "Ġexclamations": 11361,
    "refuge": 24734,
    "Ġthemselves": 3249,
    "Ġcubic": 20086,
    "acity": 5735,
    "cro": 13695,
    "Ġeye": 2281,
    "Ġgreatly": 5849,
    "Ġindefatigable": 17177,
    "Ġdisreputable": 22531,
    "Ġkrusenstern": 26377,
    "generosity": 23785,
    "Ġher": 427,
    "Ġbargain": 23791,
    "bantering": 25253,
    "Ġlagged": 21555,
    "pequod": 7052,
    "Ġant": 4343,
    "Ġuncommon": 5026,
    "Ġirrevoc": 15038,
    "Ġtufted": 17014,
    "box": 5749,
    "Ġarrangement": 2659,
    "Ġthousandth": 23684,
    "Ġinstruction": 14341,
    "brew": 11473,
    "parad": 16382,
    "aging": 2238,
    "arranged": 19317,
    "degrees": 22147,
    "Ġdwelt": 12603,
    "Ġhelps": 9366,
    "Ġeas": 2357,
    "Ġtechni": 1758,
    "Ġconsole": 8150,
    "Ġflatter": 9347,
    "claimed": 9835,
    "Ġexponential": 1057,
    "Ġ108": 19683,
    "Ġindependently": 4242,
    "Ġskilfully": 20522,
    "mere": 11851,
    "Ġreminiscences": 26269,
    "Ġproperly": 7944,
    "calling": 12447,
    "Ġsemicircle": 26068,
    "Ġserm": 9633,
    "represented": 20194,
    "pulous": 15415,
    "Ġsledge": 8110,
    "Ġaspire": 21897,
    "Ġmechanical": 7937,
    "Ġsmiting": 12896,
    "omp": 2474,
    "Ġbusily": 9384,
    "merry": 16536,
    "Ġnobleman": 19390,
    "Ġpredef": 18515,
    "lections": 4752,
    "Ġjurors": 17343,
    "Ġcatching": 9477,
    "Ġdevoutly": 25832,
    "Ġqueequeg": 2013,
    "instinct": 19542,
    "Ġretention": 23068,
    "Ġfade": 21405,
    "Ġcoffee": 6760,
    "Ġimpl": 7195,
    "Ġreign": 13984,
    "jeroboam": 25619,
    "letter": 6201,
    "tale": 10127,
    "bbles": 13690,
    "Ġnut": 12644,
    "oss": 10115,
    "embed": 18187,
    "Ġprender": 22232,
    "Ġwithout": 1121,
    "entions": 17974,
    "Ġdevotedly": 24750,
    "picture": 11407,
    "Ġinsolence": 20252,
    "Ġdeactivates": 20702,
    "objection": 19914,
    "vitality": 20477,
    "Ġmutable": 23952,
    "Ġgets": 10839,
    "allions": 22195,
    "Ġfeathers": 15118,
    "incom": 21180,
    "etrics": 21582,
    "wrapped": 15208,
    "qualified": 17098,
    "popular": 26140,
    "Ġovertaken": 18425,
    "Ġ235": 25713,
    "Ġsw": 1357,
    "Ġsutherland": 10148,
    "Ġashes": 7616,
    "Ġcyp": 21343,
    "Ġrival": 10485,
    "Ġinnumerable": 13349,
    "Ġtash": 13819,
    "aviour": 11004,
    "Ġlig": 21545,
    "Ġontario": 26204,
    "Ġclosest": 16763,
    "endless": 22223,
    "Ġbox": 5109,
    "Ġlayers": 817,
    "Ġfolly": 7940,
    "Ġtrump": 8194,
    "Ġuncounted": 19116,
    "tut": 15433,
    "winds": 10521,
    "Ġante": 17896,
    "istry": 22106,
    "fatality": 25019,
    "Ġcapable": 5054,
    "Ġdaybreak": 18726,
    "Ġconcealing": 23900,
    "Ġranged": 10257,
    "Ġmelted": 19620,
    "âĢĶâĢĺ_": 24831,
    "Ġoscillations": 2903,
    "Ġvernal": 23886,
    "impenet": 18053,
    "Ġsoftly": 7947,
    "Ġprov": 4398,
    "Ġactivity": 7919,
    "quod": 2166,
    "voyage": 7785,
    "lays": 14921,
    "Ġrevellers": 21675,
    "jump": 10103,
    "Ġpersu": 3562,
    "Ġbackgammon": 22660,
    "chariot": 26479,
    "Ġquakers": 22413,
    "happiness": 6469,
    "Ġpretence": 13203,
    "unhesitatingly": 26496,
    "Ġdog": 4187,
    "ittered": 18439,
    "Ġset": 1175,
    "Ġembatt": 18848,
    "Ġfeebly": 24877,
    "nowhere": 18418,
    "shaken": 16021,
    "Ġrelatives": 12978,
    "Ġaverage": 3137,
    "Ġburgled": 23652,
    "hus": 5072,
    "idence": 4299,
    "Ġcanall": 10928,
    "Ġexternal": 8364,
    "dom": 6222,
    "Ġbankers": 24302,
    "establishment": 26113,
    "Ġmastery": 23990,
    "Ġoverhead": 11768,
    "Ġstorm": 4298,
    "Ġgaped": 13966,
    "Ġcommunion": 19012,
    "Ġsounded": 8591,
    "Ġoperations": 2300,
    "Ġoverlook": 10959,
    "cils": 20813,
    "respectable": 19846,
    "Ġsensationalism": 26067,
    "exc": 5169,
    "amples": 1824,
    "rd": 17649,
    "Ġshin": 18227,
    "aphys": 15200,
    "Ġmotionless": 8323,
    "eray": 21265,
    "Ġjura": 14192,
    "Ġdromed": 15594,
    "ulled": 14055,
    "Ġstops": 3163,
    "Ġrem": 954,
    "took": 6164,
    "as": 302,
    "ocris": 23708,
    "strate": 12671,
    "Ġmuslin": 19381,
    "youth": 11873,
    "exper": 8878,
    "Ġfifteen": 6947,
    "Ġrefusing": 11028,
    "Ġvinegar": 20098,
    "Ġuproar": 22152,
    "Ġstab": 10862,
    "Í": 142,
    "Ġmalacca": 24393,
    "Ġcarpent": 4462,
    "unbounded": 21882,
    "project": 16423,
    "Ġstaggers": 24653,
    "Ġhugest": 17015,
    "Ġcry": 3496,
    "ceed": 1074,
    "Ġroused": 7622,
    "cr": 4072,
    "mouthful": 25208,
    "dishonourable": 26365,
    "Ġkneel": 14805,
    "Ġadro": 15865,
    "Ġinj": 4760,
    "liable": 3814,
    "Ġexterm": 21826,
    "fo": 5278,
    "Ġbulky": 13226,
    "peaceful": 20445,
    "Ġdiv": 3729,
    "sprinkling": 24912,
    "Ġcontention": 22423,
    "instinctively": 26327,
    "Ġslanting": 23170,
    "Ġincalculable": 17460,
    "Ġarmies": 16491,
    "Ġpend": 15603,
    "alley": 23021,
    "eager": 12457,
    "Ġcarelessness": 13073,
    "Ġwindows": 4971,
    "leg": 2817,
    "Ġstuck": 9220,
    "Ġassure": 4416,
    "Ġstars": 6149,
    "Ġswain": 18880,
    "Ġminiatures": 20320,
    "approve": 19935,
    "Ġineffect": 13929,
    "Ġmoth": 17802,
    "Ġhog": 13923,
    "acted": 11010,
    "whips": 22235,
    "Ġmassive": 9931,
    "imens": 1746,
    "fordshire": 4676,
    "Ġaccidentally": 9504,
    "Ġcoronet": 6344,
    "Ġgenealogies": 25961,
    "Ġclassical": 22644,
    "ssing": 3805,
    "to": 713,
    "Ġender": 11688,
    "triumph": 15439,
    "Ġsoothed": 10028,
    "Ġhuge": 4700,
    "position": 15412,
    "ladies": 9528,
    "Ġamphitheat": 26251,
    "Ġthither": 6821,
    "Ġchin": 4891,
    "Ġgave": 2218,
    "Ġmcc": 21305,
    "Ġbuckler": 24859,
    "meth": 11502,
    "Ġsecuring": 11990,
    "forty": 9373,
    "devilish": 17082,
    "Ġbestowing": 16971,
    "prises": 23811,
    "Ġnest": 10188,
    "Ġped": 6817,
    "Ġshaped": 15832,
    "Ġdoes": 942,
    "rail": 10204,
    "Ġxx": 5492,
    "acher": 6868,
    "Ġtattered": 21170,
    "Ġtolland": 24988,
    "Ġcourses": 10411,
    "Ġguess": 4903,
    "attended": 8952,
    "Ġlatitudes": 9495,
    "Ġjuicy": 25370,
    "Ġtypes": 8936,
    "Ġcommerce": 11015,
    "din": 8373,
    "Ġsod": 11561,
    "scoured": 22990,
    "Ġinvincible": 23479,
    "Ġreduce": 7942,
    "Ġcontextually": 11960,
    "Ġsuggestions": 24453,
    "iousness": 4899,
    "Ġunfortunately": 10909,
    "Ġbol": 6241,
    "strade": 5065,
    "itiousness": 21332,
    "Ġinspecting": 24613,
    "Ġwipe": 25764,
    "Ġpursued": 6328,
    "Ġdeclares": 16992,
    "Ġmix": 7576,
    "tor": 15431,
    "humiliation": 24018,
    "phantoms": 24679,
    "Ġcredited": 25153,
    "Ġfinger": 5273,
    "Ġfavourable": 7958,
    "je": 11495,
    "lines": 6959,
    "Ġresignation": 18566,
    "Ġtreacle": 14595,
    "Ġphyseter": 26586,
    "Ġdrawn": 4272,
    "ual": 945,
    "Ġrib": 4936,
    "coun": 10686,
    "Ġtallest": 15473,
    "utmost": 21585,
    "Ġpantaloons": 20295,
    "Ġwomanly": 23550,
    "Ġanomalously": 25638,
    "amet": 588,
    "Ġnumbers": 2892,
    "Ġbalmoral": 16206,
    "Ġcopse": 17067,
    "Ġslipping": 13358,
    "coal": 12023,
    "Ġupd": 946,
    "Ġimp": 577,
    "urches": 12681,
    "Ġremoter": 20104,
    "wer": 8394,
    "ester": 11597,
    "Ġsingle": 1691,
    "gy": 2096,
    "Ġpopulation": 16827,
    "Ġhob": 12627,
    "Ġjokes": 18408,
    "Ġ[_": 15460,
    "ighbour": 3390,
    "Ġcomprehending": 24445,
    "\"]": 17470,
    "emed": 3382,
    "Ġhollow": 5648,
    "Ġdavy": 25951,
    "hoped": 20909,
    "Ġatmosphere": 10897,
    "ics": 3254,
    "Ġboth": 1655,
    "Ġdies": 11592,
    "aisance": 15073,
    "Ġadvantages": 9807,
    "Ġallies": 18234,
    "Ġoverwhel": 8195,
    "Ġmiraculous": 13545,
    "ilingly": 21720,
    "Ġyell": 21774,
    "affrail": 11205,
    "Ġsummoning": 23872,
    "Ġabandoned": 8351,
    "Ġunrecord": 16621,
    "moderate": 22855,
    "Ġexasperate": 20096,
    "Ġbelly": 10369,
    "scissors": 20726,
    "Ġprevailed": 7777,
    "iled": 1765,
    "Ġreligious": 25121,
    "ilight": 12691,
    "ected": 7872,
    "Ġethiop": 26155,
    "Ġspices": 22127,
    "ention": 853,
    "Ġdownward": 10331,
    "Ġrescue": 13340,
    "Ġacceptable": 16744,
    "Ġbruited": 25773,
    "Ġpaling": 21460,
    "Ġbam": 15563,
    "achalot": 15861,
    "Ġbreathing": 9444,
    "Ġimprec": 14217,
    "Ġinspirited": 23419,
    "Ġcompanion": 3642,
    "esting": 7412,
    "Ġresponsiveness": 2902,
    "Ġstowed": 21733,
    "Ġpoul": 15610,
    "Ġwindpipe": 23103,
    "Ġanom": 12609,
    "Ġeducated": 16785,
    "prof": 7698,
    "Ġcelebrated": 13592,
    "Ġcruise": 12047,
    "Ġsobs": 14134,
    "solitude": 23297,
    "is": 280,
    "Ġunbroken": 18250,
    "Ġtakings": 20571,
    "Ğ": 223,
    "Ġheadsmen": 14731,
    "Ġhonourable": 10456,
    "Ġlanguages": 1567,
    "ways": 1443,
    "Ġmathemat": 3199,
    "Ġsalesman": 13667,
    "ally": 531,
    "Ġenchanting": 17039,
    "suffered": 24334,
    "Ġtranslations": 12050,
    "Ġmanufact": 22325,
    "Ġgrinning": 9053,
    "berries": 22717,
    "conversation": 7122,
    "Ġblinding": 14727,
    "Ġheroine": 24543,
    "Ġshorter": 4495,
    "swe": 5995,
    "Ġbreaking": 6310,
    "nels": 12493,
    "Ġdefray": 22937,
    "Ġlie": 4404,
    "itating": 9650,
    "precip": 14664,
    "might": 4075,
    "educated": 17259,
    "Ġpapered": 20129,
    "Ġcatches": 23425,
    "gast": 20870,
    "a": 69,
    "fired": 20859,
    "Ġanaly": 1216,
    "Ġinoffensive": 21495,
    "Ġcontemptuously": 19832,
    "Ġenric": 21931,
    "Ġmogul": 12860,
    "Ġavail": 11226,
    "Ġsource": 6805,
    "Ġprevent": 756,
    "utting": 17984,
    "Ġsandwiched": 26610,
    "Ġtechniques": 2872,
    "anke": 15558,
    "amp": 2607,
    "Ġac": 845,
    "Ġschoolboys": 24481,
    "Ġseal": 10256,
    "musket": 25341,
    "missed": 11209,
    "ship": 1393,
    "cottage": 9569,
    "ither": 1545,
    "agery": 21904,
    "itching": 21333,
    "hangs": 15367,
    "presume": 25670,
    "Ġtis": 15464,
    "landish": 11940,
    "Ġstem": 15716,
    "included": 19208,
    "affa": 23775,
    "Ġ134": 24784,
    "Ġvigorously": 11299,
    "nuee": 17429,
    "anger": 2173,
    "Ġprogress": 5023,
    "abulary": 4800,
    "hetic": 12201,
    "division": 20047,
    "abouts": 9451,
    "Ġastronomy": 25926,
    "Ġpenal": 1773,
    "Ġlecture": 13565,
    "eed": 20840,
    "Ġinterchange": 16071,
    "Ġscraggy": 24579,
    "Ġwoodcock": 19162,
    "Ġdesertion": 24787,
    "Ġcauses": 2564,
    "agger": 7871,
    "Ġpals": 13917,
    "lab": 3457,
    "Ġcolleg": 22857,
    "Ġrely": 8820,
    "Ġroaring": 10968,
    "Ġtroubling": 26546,
    "Ġbrothers": 13173,
    "Ġinhospit": 25452,
    "Ġemaciated": 20637,
    "Ġgums": 21608,
    "Ġdecent": 10978,
    "Ġhopeful": 19037,
    "arranging": 19316,
    "uously": 7353,
    "lection": 3651,
    "Ĩ": 233,
    "è": 169,
    "st": 315,
    "Ġhinge": 25541,
    "Ġhospitals": 24923,
    "alarms": 21502,
    "Ġsixpence": 19315,
    "Ġincognit": 22551,
    "Ġbreaks": 13181,
    "Ġconsented": 11295,
    "detective": 24383,
    "Ġdeception": 18142,
    "Ġwritten": 4164,
    "urp": 1472,
    "Ġswap": 23049,
    "Ġhave": 445,
    "lins": 2026,
    "rope": 3181,
    "Ġrebounds": 25967,
    "Ġfluke": 14673,
    "Ġbeaut": 2396,
    "Ġhugh": 15004,
    "Ġperv": 15988,
    "Ġbaboon": 19692,
    "Ġwheeling": 18288,
    "fl": 3599,
    "na": 13759,
    "Ġsloping": 11937,
    "Ġinfrequent": 3820,
    "Ġsangu": 15503,
    "Ġwave": 7575,
    "Ġimpact": 10296,
    "Ġlet": 1114,
    "Ġengine": 1922,
    "Ġmoods": 14950,
    "Ġsuffice": 18869,
    "heed": 15497,
    "nne": 20988,
    "Ġmississ": 18837,
    "Ġchewed": 16371,
    "ims": 7176,
    "ival": 4223,
    "olly": 3221,
    "Ġbelie": 14405,
    "cracy": 24690,
    "Ġtable": 2503,
    "squee": 15429,
    "Ġdelicacy": 6340,
    "buttons": 22399,
    "behaved": 24463,
    "centre": 17087,
    "Ġenvy": 13207,
    "?âĢĿ": 700,
    "xter": 9146,
    "virt": 15450,
    "Ġblooming": 17212,
    "Ġdug": 21428,
    "Ġsounds": 5190,
    "Ġcalifornia": 20528,
    "Ġpredomin": 16034,
    "Ġpleasure": 2697,
    "kes": 3676,
    "Ġdeeper": 2084,
    "Ġfam": 1584,
    "Ġspoon": 22131,
    "Ġfuriously": 9801,
    "Ġexclaiming": 13639,
    "algorith": 3353,
    "Ġtrophy": 20005,
    "Ġendeavoured": 4918,
    "Ġ63": 24366,
    "died": 10693,
    "Ġmusty": 22677,
    "Ġmaintains": 2146,
    "orum": 12588,
    "Ġclasp": 9744,
    "Ġphren": 8571,
    "Ġquiescent": 26242,
    "Ġhaul": 11690,
    "unwholesome": 26497,
    "cious": 6643,
    "Ġcasting": 12098,
    "Ġfinite": 2329,
    "sailed": 17666,
    "Ġinformation": 1046,
    "Ġgr": 978,
    "Ġwhereof": 16100,
    "ativeness": 15519,
    "Ġwonderfully": 10430,
    "Ġdented": 17891,
    "Ġprotested": 9933,
    "Ġamply": 22479,
    "fact": 6358,
    "Ġ43": 14768,
    "clopÃ¦dia": 15255,
    "everlasting": 18771,
    "Ġencl": 16163,
    "Ġindication": 22949,
    "'t": 3142,
    "exclaimed": 11788,
    "philosophers": 25252,
    "Ġspace": 1526,
    "id": 338,
    "Ġmeeting": 5193,
    "aton": 21257,
    "zors": 21146,
    "Ġhan": 15615,
    "Ġquarters": 8619,
    "Ġpe": 850,
    "Ġmichaelmas": 26374,
    "Ġdonkey": 23227,
    "Ġack": 5622,
    "Ġtutored": 20126,
    "woe": 21134,
    "Ġagricultural": 26550,
    "imin": 1769,
    "Ġeclips": 20695,
    "chie": 21687,
    "grasp": 16429,
    "Ġflapped": 23011,
    "ul": 371,
    "there": 1425,
    "aspect": 10193,
    "Ġshetland": 22156,
    "Ġquadr": 8199,
    "Ġdirection": 1794,
    "Ġrueful": 25581,
    "twinkle": 23703,
    "ician": 21562,
    "Ġequilibrium": 4137,
    "Ġstreets": 5863,
    "Ġcharacteristically": 23691,
    "waves": 10742,
    "supplementary": 20548,
    "Ġcop": 7579,
    "onic": 7827,
    "invol": 12527,
    "blocks": 25517,
    "owders": 18050,
    "Ġwherefore": 8524,
    "pped": 1999,
    "Ġpoints": 5248,
    "Ġtherein": 11774,
    "Ġcopied": 20006,
    "Ġspaulding": 11729,
    "Ġguido": 2980,
    "uded": 6286,
    "heading": 5487,
    "Ġramble": 9312,
    "Ġintu": 12761,
    "nable": 13761,
    "Ġgasp": 7172,
    "scence": 14418,
    "Ġ20": 8613,
    "Ġbadge": 16683,
    "kind": 3860,
    "whenever": 11879,
    "Ġvit": 10245,
    "streets": 13393,
    "humor": 19450,
    "Ġtying": 15472,
    "Ġdesolate": 10012,
    "Ġmessage": 13521,
    "jumping": 20244,
    "untarily": 6312,
    "Ġcloudy": 19475,
    "Ġvaliant": 9799,
    "Ġsundry": 20072,
    "Ġspam": 7630,
    "Ġunwaning": 25170,
    "Ġbildad": 3778,
    "lasting": 8010,
    "rese": 15507,
    "ral": 4627,
    "Ġconcrete": 20636,
    "savage": 15074,
    "refusal": 24736,
    "ction": 503,
    "Ġunconcern": 14116,
    "Ġconstitutional": 25125,
    "Ġregards": 16066,
    "Ġaccompanying": 11304,
    "Ġwonders": 7500,
    "lot": 3204,
    "fin": 5209,
    "reproof": 25432,
    "maid": 8552,
    "ana": 15556,
    "Ġtyro": 16994,
    "Ġruns": 8595,
    "dire": 15335,
    "mass": 12487,
    "Ġvainly": 9923,
    "Ġpistols": 17328,
    "Ġ130": 24781,
    "loud": 11500,
    "Ġeurope": 8061,
    "Ġcontroverted": 23250,
    "Ġsch": 13834,
    "declined": 25174,
    "Ġlament": 7856,
    "Ġrejo": 5915,
    "Ġfluffy": 19362,
    "Ġsleepers": 13147,
    "adjust": 21757,
    "ulence": 15763,
    "Ġrenounce": 19466,
    "Ġarms": 3963,
    "Ġregularizer": 2343,
    "Ġsaleve": 17390,
    "achable": 14137,
    "pertaining": 22181,
    "itu": 1223,
    "Ġstroll": 13350,
    "Ġkick": 5837,
    "Ġdrew": 3536,
    "Ġmoral": 6579,
    "Ġtwilight": 16119,
    "Ġstopping": 2753,
    "Ġdistrusting": 25053,
    "Ġmightiest": 12957,
    "tout": 21064,
    "Ġwaxed": 21296,
    "are": 639,
    "Ġlimp": 19179,
    "dick": 11479,
    "gus": 13724,
    "Ġpoem": 22586,
    "ov": 15399,
    "Ġsigh": 10336,
    "ument": 5240,
    "Ġreckoned": 24744,
    "Ġseeth": 21957,
    "Ġgrop": 12662,
    "Ġdisquiet": 18552,
    "Ġdisordered": 16052,
    "½": 126,
    "Ġprocessions": 18433,
    "unctuous": 21879,
    "drawers": 19384,
    "Ġfloated": 7288,
    "Ġhundred": 2696,
    "Ġtist": 21161,
    "<MASK>": 4,
    "Ġjav": 7901,
    "aim": 2759,
    "Ġwhither": 10214,
    "Ġvictory": 16653,
    "Ġanywhere": 8516,
    "Ġchapter": 2960,
    "Ġphilipp": 23882,
    "Ġbelted": 22944,
    "Ġmodes": 22210,
    "Ġcomplexion": 8210,
    "^{": 15303,
    "Ġwerter": 15238,
    "generative": 4328,
    "Ġharp": 17923,
    "Ġmalicious": 10557,
    "Ġjelly": 22297,
    "elter": 21568,
    "Ġscatter": 18397,
    "Ġscre": 9736,
    "Ġrome": 12153,
    "Ġcorn": 9349,
    "arned": 21814,
    "Ġstated": 9688,
    "Ġjig": 15949,
    "Ġutterance": 14762,
    "Ġcrystal": 17214,
    "Ġshoals": 13131,
    "Ġtheatre": 21277,
    "minute": 11274,
    "Ġheaved": 9383,
    "headers": 23106,
    "Ġundisturbed": 19518,
    "Ġenemies": 9038,
    "iline": 21718,
    "sister": 5139,
    "Ġinherent": 4590,
    "anite": 17837,
    "deal": 12797,
    "Ġfidget": 15188,
    "Ġspiracle": 14149,
    "ulent": 21859,
    "Ġconclusion": 5985,
    "Ġconsoling": 19455,
    "outer": 9668,
    "walton": 20248,
    "interred": 23736,
    "âĢĿâĢĶ": 5721,
    "Ġadapted": 11039,
    "Ġsignificance": 13276,
    "Ġfun": 525,
    "Ġgrown": 5628,
    "confidential": 25876,
    "Ġsmilingly": 22557,
    "Ġnavies": 16900,
    "transferred": 24514,
    "Ġspark": 6689,
    "Ġthickness": 13273,
    "leton": 5148,
    "Ġaccommod": 14212,
    "Ġanybody": 5313,
    "itional": 22471,
    "buff": 15317,
    "fulness": 4307,
    "heavens": 19744,
    "Ġspared": 7892,
    "Ġpredecess": 18517,
    "and": 372,
    "Ġforg": 3784,
    "Ġdames": 23473,
    "icest": 21561,
    "Ġinnovative": 1548,
    "Ġmasterless": 23992,
    "Ġsplin": 8618,
    "Ġclutching": 24951,
    "Ġgrove": 12144,
    "shells": 26055,
    "ed": 293,
    "mortals": 25409,
    "Ġbrother": 2752,
    "lik": 3911,
    "phew": 6368,
    "Ġfootfall": 14661,
    "Ġscreening": 25300,
    "Ġvindictiveness": 25738,
    "sound": 6799,
    "permission": 15899,
    "Ġjon": 15946,
    "Ġworn": 6445,
    "decor": 23779,
    "ities": 1828,
    "Ġpreface": 18367,
    "Ġcritically": 23445,
    "Ġmason": 10157,
    "Ġsket": 18727,
    "Ġgates": 10200,
    "enger": 10773,
    "Ġpleadings": 25852,
    "Ġchoice": 2167,
    "uncle": 8158,
    "Ġgathered": 8442,
    "Ġsend": 4104,
    "furnished": 20240,
    "Ġardent": 9969,
    "ĠâĢĺ": 1630,
    "Ġgor": 9206,
    "Ġdisplaying": 16966,
    "Ġsobbed": 14136,
    "Ġcripple": 11440,
    "Ġimprecate": 20516,
    "hurry": 24763,
    "Ġwretchedness": 9026,
    "appear": 13194,
    "odhead": 18118,
    "Ġmermaid": 17813,
    "Ġnegro": 6447,
    "Ġsave": 4049,
    "Ġproced": 2582,
    "Ġprobable": 5570,
    "ocr": 10468,
    "Ġconvert": 11841,
    "abst": 21785,
    "pleasing": 14741,
    "Ġwillingness": 24910,
    "Ġsheets": 9721,
    "avers": 17480,
    "sweeping": 24618,
    "Ġreleased": 2981,
    "Ġobliged": 4283,
    "Ġlearn": 365,
    "Ġconstantly": 11971,
    "Ġcrouching": 23443,
    "owing": 7601,
    "Ġbegins": 7244,
    "ipper": 13739,
    "ven": 781,
    "Ġmen": 1435,
    "Ġincreased": 2211,
    "Ġstro": 4594,
    "million": 25751,
    "Ġunearthly": 9036,
    "Ġcontest": 18473,
    "Ġdiscredit": 22778,
    "Ġevangelists": 20338,
    "Ġeuroc": 14958,
    "Ġfragmentary": 25854,
    "Ġhollowly": 24526,
    "Ġgospel": 18000,
    "Ġgloried": 22984,
    "fow": 20852,
    "catch": 17506,
    "Ġpermanently": 25473,
    "Ġobservable": 25126,
    "Ġcoaxing": 18598,
    "beginning": 13559,
    "Ġhundredth": 16517,
    "assault": 22303,
    "Ġperch": 10298,
    "machines": 8384,
    "desp": 6075,
    "Ġteasing": 11889,
    "Ġwent": 1534,
    "Ġprevious": 2089,
    "Ġrokovoko": 22403,
    "ĠĠĠĠ": 459,
    "Ġcompos": 22568,
    "Ġfantastic": 10058,
    "inous": 8771,
    "mpt": 6653,
    "Ġbolted": 12242,
    "phon": 4124,
    "Ġlithe": 24668,
    "mish": 17598,
    "inks": 6869,
    "irements": 22209,
    "Ġhopes": 4230,
    "}": 97,
    "Ġdece": 6996,
    "Ġkrempe": 10669,
    "Ġlawless": 19433,
    "velope": 17701,
    "Ġimputation": 22169,
    "Ġ103": 24411,
    "thought": 3845,
    "hee": 10760,
    "Ġspecksnyder": 17402,
    "Ġvirtual": 11239,
    "Ġlivery": 15997,
    "Ġcommend": 10334,
    "Ġagric": 22512,
    "Ġrele": 2922,
    "beyond": 8882,
    "max": 1684,
    "mockery": 24378,
    "Ġsurvivor": 17362,
    "Ġorders": 5340,
    "Ġpostmark": 16725,
    "purpose": 10043,
    "Ġfriendless": 23023,
    "commend": 19991,
    "sighted": 19784,
    "Ġenhancement": 23666,
    "Ġinfirmity": 26298,
    "Ġhilarious": 20297,
    "Ġworshipper": 25692,
    "Ġperceived": 4714,
    "count": 4209,
    "Ġreputation": 11639,
    "ners": 3270,
    "Ġprotruded": 19468,
    "Ġbusiness": 2232,
    "Ġfagged": 17882,
    "Ġhorseback": 14849,
    "Ġcombing": 22846,
    "plun": 15813,
    "Ġweeks": 4563,
    "Ġdefect": 8554,
    "igated": 15704,
    "uries": 6147,
    "Ġ1846": 26084,
    "Ġunav": 18240,
    "ķ": 248,
    "lar": 4480,
    "Ġmoved": 4839,
    "Ġproductions": 22942,
    "Ġregal": 16065,
    "acing": 2719,
    "ine": 405,
    "Ġgreen": 3052,
    "Ġrealism": 18983,
    "rength": 4098,
    "beaut": 8512,
    "Ġum": 10211,
    "Ġinexplicable": 12254,
    "Ġhurry": 4913,
    "Ġrooted": 13167,
    "Ġexhale": 24402,
    "cowardly": 25749,
    "phr": 18712,
    "Ġdisgra": 18549,
    "arson": 22745,
    "Ġusher": 22214,
    "Ġfin": 1460,
    "Ġyarn": 10868,
    "influences": 25250,
    "Ġrough": 7187,
    "Ġfalsely": 20580,
    "lamps": 25260,
    "underneath": 23787,
    "Ġsubs": 2129,
    "able": 452,
    "biqu": 17497,
    "Ġdimin": 3868,
    "Ġslightly": 7293,
    "Ġkirwin": 8496,
    "mathematics": 26304,
    "Ġwall": 3838,
    "Ġtunnel": 14929,
    "Ġpaint": 7707,
    "huzza": 20912,
    "Ġinvite": 14562,
    "Ġmim": 3105,
    "ignantly": 23264,
    "relapse": 24013,
    "furnish": 25338,
    "Ġcultivated": 17363,
    "Ġprincely": 24145,
    "Ġgrotesque": 26329,
[...]
