{
  "metadata": {
    "vocab_size": 26615,
    "algorithm": "BPE",
    "created_at": "2026-07-05 06:03:37",
    "special_tokens": [
      "<PAD>",
      "<SOS>",
      "<EOS>",
      "<UNK>",
      "<MASK>"
    ]
  },
  "vocab": {
    "bee": 16041,
    "pered": 4198,
    "wich": 11545,
    "weight": 2940,
    "Ġresentful": 24633,
    "Ġinfirm": 19019,
    "Ġwre": 5077,
    "Ġflooded": 24964,
    "sympathy": 20545,
    "Ġunder": 1638,
    "Ġcasket": 19727,
    "Ġsentry": 19027,
    "loom": 18536,
    "Ġfortunate": 6215,
    "Ġunfl": 22023,
    "Ġmeetings": 16533,
    "Ġbeam": 2878,
    "Ã¦us": 14819,
    "fare": 7799,
    "unaffected": 21888,
    "Ġseasoned": 24404,
    "Ġencourage": 10382,
    "interview": 19301,
    "Ġungrateful": 14123,
    "riety": 12747,
    "public": 17647,
    "Ġscarcely": 4006,
    "we": 846,
    "msgate": 18413,
    "iliation": 10861,
    "rist": 10124,
    "continue": 16862,
    "ent": 305,
    "muring": 17602,
    "vel": 2385,
    "Ġtet": 21160,
    "Ġplunder": 22609,
    "lers": 10108,
    "determination": 19948,
    "Ġcellars": 24666,
    "Ġobliging": 13246,
    "Ġsupreme": 13610,
    "Ġyarman": 12709,
    "determine": 19947,
    "Ġverdict": 13478,
    "._)": 10482,
    "past": 8091,
    "asse": 15648,
    "Ġrecol": 4027,
    "Ġgrain": 15834,
    "Ġdesolation": 12272,
    "shaven": 18493,
    "Ġmcc": 21309,
    "Ġreception": 9841,
    "Ġsuperiors": 23457,
    "Ċ": 203,
    "Ġattempt": 3486,
    "france": 24283,
    "rian": 10244,
    "date": 17518,
    "Ġstately": 9836,
    "Ġholiest": 18814,
    "Ġrule": 1532,
    "haven": 20914,
    "Ġdock": 15933,
    "Ġmarsh": 9823,
    "abounding": 25980,
    "Ġspoiled": 11364,
    "Ġload": 14147,
    "Ġpassengers": 13678,
    "Ġmaj": 3924,
    "och": 21003,
    "Ġthere": 562,
    "Ġreckoned": 24743,
    "Ġimpartial": 15222,
    "Ġsize": 1217,
    "Ġeuroclydon": 15299,
    "Ġcoopers": 20525,
    "Ġspirits": 3696,
    "rob": 5533,
    "Ġincident": 6281,
    "Ġsmilingly": 22566,
    "Ġactually": 5389,
    "Ġchopping": 24221,
    "Ï": 144,
    "varying": 13806,
    "Ġaforethought": 25429,
    "Ġswallow": 8952,
    "mastod": 23977,
    "Ġmadly": 16486,
    "emotion": 21933,
    "erranean": 9336,
    "Ġaccuracy": 1101,
    "bra": 6220,
    "Ġ124": 24468,
    "Ġlandsmen": 11352,
    "Ġwidespread": 20678,
    "Ġplayful": 19239,
    "gather": 20877,
    "onted": 11569,
    "dry": 13706,
    "gin": 4931,
    "Ġnarrations": 24351,
    "Ġvastly": 23863,
    "Ġheathen": 10567,
    "Ġparting": 9785,
    "oded": 11671,
    "Ġdecreed": 18483,
    "Ġcurve": 22975,
    "positive": 20570,
    "har": 20892,
    "nantucket": 7805,
    "season": 14036,
    "Ġtigers": 25759,
    "Ġsafety": 6340,
    "idea": 9303,
    "Ġdatasets": 2389,
    "Ġhard": 1444,
    "Ġhair": 3316,
    "luded": 4228,
    "adm": 7608,
    "Ġter": 2051,
    "Ġshivering": 10267,
    "consid": 4925,
    "aren": 10076,
    "Ġcolossal": 11460,
    "Ġgust": 21601,
    "Ġcheek": 8580,
    "puzzling": 26144,
    "thur": 7187,
    "scand": 18857,
    "Ġhereby": 10360,
    "Ġrece": 11640,
    "asible": 21546,
    "abroad": 18111,
    "andromeda": 21873,
    "Ġseem": 916,
    "Ġdue": 3841,
    "Ġcarpenters": 16753,
    "Ġmetaphysical": 26070,
    "ffic": 22156,
    "Ġpresum": 4839,
    "gia": 20878,
    "Ġinvaluable": 10184,
    "Ġabsolut": 3907,
    "command": 6577,
    "Ġpursuing": 9440,
    "hangs": 15371,
    "gallantry": 15062,
    "Ġlux": 8817,
    "Ġcheshire": 13093,
    "Ġpaternal": 16376,
    "Ġlaunched": 14928,
    "Ġgans": 5822,
    "Ġtransformations": 3484,
    "uzz": 4524,
    "puff": 21024,
    "hack": 20898,
    "Ġpoorly": 9857,
    "Ġfut": 15578,
    "Ġlunging": 24994,
    "Ġclattering": 22357,
    "ere": 6789,
    "ity": 417,
    "Ġsulky": 13517,
    "exerc": 16018,
    "reasoning": 9478,
    "rows": 6442,
    "aneously": 4058,
    "Ġindelible": 25695,
    "Ġatt": 779,
    "Ġvague": 6406,
    "idly": 12704,
    "asis": 12654,
    "aling": 1035,
    "compliments": 24807,
    "Ġputting": 5327,
    "Ġnote": 4263,
    "Ġsenor": 20153,
    "Ġwidows": 24238,
    "Ġgrasping": 12169,
    "ute": 4642,
    "Ġdescribes": 3121,
    "Ġdine": 7365,
    "cab": 7332,
    "studied": 17151,
    "Ġundet": 16702,
    "tried": 13796,
    "Ġdeadliest": 14557,
    "stove": 21656,
    "agne": 21910,
    "ely": 622,
    "Ġdrawings": 14724,
    "Ġoppose": 16520,
    "industrious": 26241,
    "plexion": 14265,
    "Ġpick": 4256,
    "Ġlexicon": 25975,
    "Ġenthus": 7231,
    "sharpening": 22464,
    "Ġtink": 9150,
    "?âĢĿâĢĶ": 12902,
    "prop": 1026,
    "rudential": 16711,
    "Ġbegrim": 23021,
    "Ġoffices": 14342,
    "ghan": 19458,
    "Ġreaders": 18916,
    "ā": 194,
    "Ġbeasts": 10619,
    "itled": 7577,
    "Ġgarb": 21607,
    "failed": 20865,
    "ocations": 23709,
    "id": 338,
    "endom": 15925,
    "lux": 14228,
    "heedful": 20576,
    "ling": 735,
    "Ġcultivated": 17366,
    "Ġcreditor": 24291,
    "dro": 6646,
    "Ġernest": 8720,
    "Ġascendency": 20235,
    "Ġaberdeen": 26542,
    "Ġrequisite": 18651,
    "Ġalleghan": 25796,
    "Ġencoder": 3635,
    "Ġangular": 19210,
    "Ġoutrages": 18416,
    "mering": 12494,
    "Ġpaddle": 20062,
    "Ġpreternatural": 12827,
    "mayhew": 23995,
    "Ġgulp": 20032,
    "blind": 16703,
    "Ġentertainment": 12226,
    "Ġfringe": 17273,
    "Ġcompasses": 11268,
    "sac": 7141,
    "Ġtwelfth": 22682,
    "Ġbespeaking": 26311,
    "Ġsaluted": 14760,
    "Ġmanagement": 8194,
    "Ġowners": 7663,
    "Ġlogits": 3449,
    "Ġinterested": 6458,
    "eries": 6808,
    "Ġexclude": 19042,
    "Ġunwilling": 7888,
    "Ġmonomaniac": 9570,
    "ird": 2427,
    "Ġentreaties": 9037,
    "ante": 11724,
    "use": 2535,
    "Ġhills": 6527,
    "Ġpassionate": 11274,
    "Ġconjecture": 9534,
    "covered": 11478,
    "waist": 13421,
    "Ġdrowning": 19906,
    "g": 75,
    "Ġhurtling": 24962,
    "Ġscorch": 20070,
    "Ġoarsman": 8641,
    "affectionate": 24922,
    "Ġreligion": 11416,
    "spermaceti": 12197,
    "Ġwretched": 4079,
    "Ġlend": 17965,
    "solute": 16599,
    "Ġexerting": 21837,
    "Ġassisting": 13261,
    "Ġaustralia": 15235,
    "Ġcollateral": 20075,
    "Ġlurk": 13386,
    "Ġmockery": 12111,
    "Ġcondemned": 7779,
    "Ġobjecting": 18898,
    "barrel": 17060,
    "Ġviolation": 23409,
    "Ġcrocod": 19631,
    "despairing": 25077,
    "Ġboarded": 13237,
    "ander": 6401,
    "Ġtrifles": 16952,
    "Ġspanish": 2826,
    "Ġoverlook": 10961,
    "Ġlizard": 12658,
    "Ġbrahma": 26321,
    "Ġmorris": 18852,
    "ough": 471,
    "Ġconcepts": 4551,
    "Ġchamois": 16801,
    "Ġleadenhall": 16630,
    "Ġcalamities": 25700,
    "village": 25423,
    "thrown": 8482,
    "Ġcane": 10928,
    "Ġslippery": 12170,
    "Ġdeformed": 14049,
    "Ġnaturally": 2467,
    "Ġdriver": 16475,
    "Ġjacket": 6489,
    "atiously": 15524,
    "wound": 21129,
    "Ġpoints": 5249,
    "itely": 5365,
    "Ġhig": 753,
    "Ġshin": 18228,
    "oqu": 7554,
    "Ġendeavour": 4677,
    "Ġcabman": 14606,
    "Ġinterconnected": 1337,
    "Ġtowns": 11174,
    "Ġhumorousness": 25378,
    "Ġbattery": 21397,
    "Ġmarried": 3409,
    "conside": 9292,
    "Ġsummit": 7731,
    "Ġdistance": 3483,
    "Ġabsorbing": 17130,
    "Ġopportunity": 4786,
    "ering": 1268,
    "Ġtattered": 21174,
    "Ġdeemed": 7612,
    "Ġscaramouch": 23831,
    "abond": 15744,
    "create": 24161,
    "Ġrind": 21977,
    "Ġearlier": 9089,
    "Ġoceans": 7997,
    "drink": 10597,
    "Ġminimizes": 2047,
    "Ġphotography": 24684,
    "clerval": 7952,
    "Ġopens": 23629,
    "Ġcedar": 15191,
    "Ġtracing": 18892,
    "Ġdreaded": 8290,
    "excitement": 19672,
    "Ġmoment": 991,
    "Ġdevoting": 22734,
    "Ġnovember": 11752,
    "Ġupstairs": 5837,
    "Ġsmoked": 10325,
    "peril": 18341,
    "Ġbreezes": 14871,
    "Ġmorass": 22980,
    "arising": 17897,
    "Ġamusing": 11803,
    "Ġoars": 3894,
    "upon": 2719,
    "Ġequ": 1733,
    "Ġaccent": 10295,
    "Ġbelieves": 14409,
    "Ġabsorb": 25115,
    "Ġanybody": 5314,
    "popular": 26141,
    "Ġindividuality": 14911,
    "Ġportents": 14680,
    "Ġtired": 9151,
    "Ġcorroded": 18877,
    "Ġriver": 5411,
    "Ġembattled": 26290,
    "Ġsarat": 21230,
    "Ġslabs": 13065,
    "Ġcontempl": 6702,
    "throughout": 24089,
    "Ġremarks": 7472,
    "Ġastronomy": 25927,
    "Ġpersu": 3563,
    "Ġemerging": 24614,
    "Ġperem": 12936,
    "sullen": 17670,
    "Ġrum": 5925,
    "ishments": 9275,
    "Ġbetrayed": 9563,
    "Ġphysiology": 25333,
    "Ġdir": 21425,
    "Ġfuel": 13906,
    "Ġspangled": 22140,
    "Ġhem": 8447,
    "Ġcalled": 1973,
    "71": 20758,
    "Ġnodes": 1968,
    "Ġcapricious": 20541,
    "reast": 17759,
    "Ġdrops": 9034,
    "escript": 18470,
    "relatively": 24017,
    "forehead": 8517,
    "Ġfall": 2988,
    "Ġundec": 22022,
    "Ġdistur": 5313,
    "summit": 23420,
    "iterranean": 15553,
    "Ġpresided": 20210,
    "Ġawaken": 23588,
    "Ġgathering": 14980,
    "teeth": 10357,
    "life": 4933,
    "vill": 10736,
    "Ġhovering": 10180,
    "engthen": 14459,
    "Ġother": 758,
    "Ġle": 333,
    "Ġagree": 7646,
    "Ġcall": 2074,
    "Ġlanc": 19767,
    "Ġheart": 1596,
    "Ġori": 8411,
    "aft": 9585,
    "Ġsweep": 8267,
    "Ġfaintest": 24569,
    "Ġaccost": 12850,
    "worn": 13808,
    "eties": 10838,
    "\":": 9583,
    "'t": 3146,
    "remediable": 26296,
    "directed": 20408,
    "Ġsir": 1572,
    "Ġrecognised": 8997,
    "allah": 5839,
    "featured": 24159,
    "Ġsublim": 19970,
    "Ġpetersburgh": 24230,
    "Ġpsychology": 11449,
    "Ġcringed": 25943,
    "Ġhaws": 21956,
    "Ġdeceased": 15007,
    "abs": 11669,
    "bast": 10079,
    "Ġuprising": 12806,
    "icil": 17974,
    "zor": 15460,
    "ousings": 18336,
    "Ġch": 513,
    "Ġanticipation": 17057,
    "critters": 14777,
    "Ġperformer": 18757,
    "woman": 5900,
    "ingale": 21302,
    "ersman": 11705,
    "caus": 11477,
    "malice": 17604,
    "Ġacquies": 11098,
    "hecy": 21209,
    "uvian": 12246,
    "warmly": 25029,
    "Ġraft": 16116,
    "Ġdelusion": 18976,
    "ium": 4865,
    "Ġepistle": 24905,
    "Ġcircumst": 2975,
    "Ġforeshad": 23454,
    "Ġerected": 12237,
    "appin": 18760,
    "acity": 5734,
    "Ġfiendish": 13331,
    "Ġpassages": 12974,
    "ilies": 18059,
    "Ġtenth": 13828,
    "Ġleg": 2338,
    "flukes": 25206,
    "Ġsolomon": 11053,
    "Ġdiscussed": 19562,
    "Ġprev": 6265,
    "undant": 14793,
    "Ġleast": 2064,
    "nantucketer": 24977,
    "ged": 1510,
    "cheon": 23806,
    "Ġcove": 22585,
    "Ġnewcomers": 26042,
    "Ġhistor": 3391,
    "Ġwicked": 5962,
    "erson": 7002,
    "Ġtack": 5620,
    "Ġextracts": 9361,
    "Ġcem": 17825,
    "Ġcondesc": 7181,
    "Ġminutest": 14560,
    "Ġfam": 1589,
    "Ġcolleg": 22862,
    "Ġimprovements": 14513,
    "brilliancy": 26078,
    "onden": 13846,
    "articulate": 17400,
    "Ġfruitless": 25606,
    "belais": 24041,
    "Ġunprecedented": 15857,
    "Ġconsol": 3812,
    "Ġsolic": 7934,
    "july": 20478,
    "everlasting": 18773,
    "een": 726,
    "faint": 17546,
    "Ġinexperienced": 26101,
    "Ġdispose": 23882,
    "Ġpanel": 13375,
    "ense": 2052,
    "Ġneedless": 19232,
    "Ġsports": 18311,
    "escape": 16008,
    "Ġah": 5075,
    "Ġspe": 823,
    "Ġpleas": 1906,
    "Ġpassionately": 16765,
    "Ġintended": 5547,
    "Ġshown": 5159,
    "Ġoutermost": 22324,
    "Ġshiny": 14108,
    "Ġexposing": 11835,
    "indirect": 22377,
    "ture": 7557,
    "utored": 15666,
    "impregn": 21718,
    "Ġcongreg": 8464,
    "perfect": 7634,
    "Ġpotential": 3619,
    "express": 4896,
    "fer": 1945,
    "Ġ43": 14771,
    "Ġhope": 1790,
    "hoped": 20912,
    "romang": 22010,
    "Ġhands": 1666,
    "Ġsens": 1854,
    "da": 17515,
    "Ġexplicit": 3588,
    "eling": 6682,
    "Ġevangelists": 20342,
    "Ġpolished": 11183,
    "tables": 19760,
    "token": 21085,
    "Ġscrib": 22288,
    "Ġdeformity": 11678,
    "Ġleaped": 8829,
    "Ġintrepidity": 25551,
    "ination": 2911,
    "successively": 24778,
    "_),": 7126,
    "izure": 21846,
    "Ġwise": 6811,
    "Ġample": 11801,
    "Ġmines": 21311,
    "Ġseen": 1367,
    "cur": 3272,
    "urons": 3130,
    "severe": 21823,
    "\\": 64,
    "give": 4688,
    "Ġrationally": 18214,
    "Ġcalmed": 16271,
    "parable": 16388,
    "killing": 20944,
    "kee": 18274,
    "terms": 15754,
    "Ġbranded": 14381,
    "rubbed": 22195,
    "Ġseals": 11698,
    "youn": 5690,
    "trad": 21078,
    "Ġanywhere": 8518,
    "Ġvanity": 7046,
    "Ġelated": 18634,
    "Ġviol": 2071,
    "Ġmeanwhile": 5736,
    "Ġcourses": 10412,
    "next": 5893,
    "remorse": 14468,
    "holmes": 4432,
    "Ġbelrive": 18832,
    "Ġgravel": 14104,
    "attended": 8954,
    "histicated": 20903,
    "alley": 23027,
    "Ġdissimilar": 22536,
    "uously": 7352,
    "Ġwhel": 15869,
    "Ġwitt": 17785,
    "Ġaffording": 14823,
    "Ġtemptations": 24504,
    "wondered": 17117,
    "Ġeff": 684,
    "Ġamel": 18511,
    "mers": 9612,
    "brother": 7092,
    "breadth": 20279,
    "Ġachieves": 4380,
    "Ġpromise": 4199,
    "Ġdoomed": 11343,
    "Ġwhat": 600,
    "Ġsheeted": 19834,
    "Ġforeheads": 23450,
    "Ġact": 690,
    "Ġglad": 3328,
    "Ġdoes": 942,
    "Ġbill": 4039,
    "Ġhorizontally": 17013,
    "Ġcylinders": 25944,
    "Ġpatiently": 19920,
    "Ġstuffed": 13412,
    "Ġlim": 2381,
    "dick": 11480,
    "Ġmoul": 15547,
    "opened": 7915,
    "Ġtask": 1310,
    "ideas": 18583,
    "Ġexperiment": 11923,
    "employ": 10896,
    "Ġstains": 21746,
    "Ġfeebly": 24878,
    "Ġimpudence": 26243,
    "Ġtrap": 7672,
    "thole": 21991,
    "erve": 12553,
    "Ġignorant": 5344,
    "Ġmoulton": 17437,
    "Ġexpanse": 14294,
    "Ġago": 3136,
    "Ġwas": 370,
    "Ġinsatiable": 19274,
    "Ġthumb": 6981,
    "inhabited": 13623,
    "Ġbarbary": 24218,
    "Ġinfidel": 13091,
    "raltar": 24235,
    "simon": 16974,
    "consolatory": 25307,
    "arying": 9803,
    "thesize": 24907,
    "Ġplum": 11825,
    "Ġadequate": 20311,
    "is": 280,
    "Ġtempted": 9058,
    "Ġvertebra": 20184,
    "threat": 10901,
    "Ġdisgusting": 19896,
    "Ġgrass": 5177,
    "ech": 4391,
    "Ġvaried": 11851,
    "Ġsobs": 14134,
    "Ġleghorn": 13149,
    "Ġblackest": 19100,
    "Ġimprinted": 22394,
    "moid": 2451,
    "Ġrecklessly": 16984,
    "ders": 8076,
    "Ġpur": 2216,
    "Ġladyship": 5046,
    "Ġmappings": 2146,
    "owed": 2270,
    "Ġhandfuls": 17211,
    "aside": 10193,
    "iring": 1709,
    "Ġrestrain": 8966,
    ",": 16,
    "causing": 25519,
    "Ġwit": 3838,
    "chers": 11318,
    "Ġguineas": 16274,
    "aken": 1870,
    "Ġpad": 8126,
    "Ġcultivation": 17147,
    "gracious": 11834,
    "Ġdais": 24371,
    "Ġsensation": 6895,
    "Ġuntoward": 19167,
    "Ġburly": 19252,
    "Ġhermits": 22079,
    "Ġtowering": 16740,
    "gloves": 25146,
    "Ġsporty": 19892,
    "des": 3174,
    "Ġig": 3502,
    "Ġeconomically": 25289,
    "Ġdepicting": 22600,
    "Ġbye": 12742,
    "Ġrel": 1097,
    "Ġcensus": 15099,
    "Ġinsult": 6748,
    "aborate": 14024,
    "purpose": 10046,
    "Ġgirth": 13139,
    "Ġdiligent": 25078,
    "class": 4094,
    "ped": 6963,
    "Ġdownward": 10333,
    "Ġprognost": 15284,
    "gang": 17554,
    "stat": 21648,
    "Ġmaintains": 2142,
    "speaks": 19722,
    "tolerable": 17689,
    "sprang": 19994,
    "Ġstre": 2106,
    "Ġdrawn": 4275,
    "profound": 16428,
    "Ġpoul": 15616,
    "Ġprotectors": 9072,
    "Ġforests": 13595,
    "Ġyounge": 16290,
    "ampling": 12730,
    "Ġintroduced": 7691,
    "Ġbedfellow": 16441,
    "ela": 21573,
    "strang": 11184,
    "Ġscroll": 14193,
    "Ġbashaw": 25634,
    "fle": 7129,
    "Ġdrawers": 12109,
    "Ġim": 475,
    "ub": 1228,
    "address": 14883,
    "Ġsaturation": 2062,
    "Ġbabies": 19695,
    "Ġaslant": 21906,
    "Ġfrance": 7682,
    "Ġgreedily": 18967,
    "Ġcalmer": 23048,
    "den": 938,
    "companies": 24895,
    "Ġimple": 1805,
    "Ġmanaging": 22330,
    "Ġhackney": 20436,
    "Ġninety": 13604,
    "Ġgathers": 24742,
    "mur": 5428,
    "destiny": 16700,
    "splinter": 25211,
    "Ġunjustly": 17128,
    "Ġmocking": 24006,
    "apering": 8042,
    "low": 656,
    "Ġcorp": 5574,
    "Ġinvisibly": 24814,
    "Ġboyhood": 23758,
    "first": 3933,
    "summoned": 26592,
    "Ġcabinet": 23864,
    "Ġgoug": 17993,
    "Ġunra": 18238,
    "Ġezek": 18012,
    "Ġrealising": 18984,
    "Ġcharacteristically": 23693,
    "Ġpassing": 4314,
    "Ġfore": 2151,
    ",âĢĶâĢĺ": 23805,
    "ado": 11660,
    "Ġlvi": 21557,
    "uming": 8493,
    "alization": 732,
    "punctual": 26357,
    "Ġboards": 14302,
    "Ġmyst": 4049,
    "soldiers": 25912,
    "expound": 23662,
    "unw": 14059,
    "Ġrem": 954,
    "Ġsystem": 573,
    "fully": 2202,
    "irr": 12741,
    "ď": 208,
    "iply": 22360,
    "lig": 3175,
    "Ġhearers": 15706,
    "Ġadored": 18292,
    "Ġelopement": 10331,
    "Ġembod": 14414,
    "Ġreliably": 22882,
    "Ġcomfortably": 16616,
    "Ġexaggerate": 25650,
    "augh": 1783,
    "Ġendure": 5957,
    "Ġfranc": 16354,
    "you": 1006,
    "idated": 11663,
    "Ġscales": 4851,
    "Ġin": 291,
    "Ġmarred": 23036,
    "ipp": 10104,
    "understood": 13219,
    "Ġconvention": 25547,
    "Ġidentity": 2523,
    "Ġmagnific": 16323,
    "glit": 23853,
    "Ġopposing": 12044,
    "Ġretreats": 16929,
    "Ġregard": 3066,
    "dam": 7798,
    "Ġcaulking": 20296,
    "lasting": 8012,
    "arpening": 21447,
    "Ġlakes": 8132,
    "Ġj": 533,
    "Ġloves": 10916,
    "Ġashore": 5352,
    "Ġinoffensive": 21502,
    "Ġtruly": 4796,
    "Ġgovern": 10451,
    "cleanliness": 25872,
    "Ġdecanting": 22443,
    "Ġcrucial": 9894,
    "Ġstam": 18068,
    "Ġridicule": 13514,
    "ins": 1378,
    "trying": 15440,
    "coo": 11171,
    "given": 8378,
    "teen": 6370,
    "Ġringleader": 26214,
    "Ġtyph": 10010,
    "Ġintegration": 9870,
    "Ġbanks": 6814,
    "Ġiteratively": 3057,
    "Ġvice": 6549,
    "x": 92,
    "Ġhur": 2098,
    "Ġworst": 7443,
    "Ġeigen": 4882,
    "abominable": 20597,
    "impropriety": 21717,
    "Ġequatorial": 13511,
    "Ġideas": 5494,
    "Ġblank": 5952,
    "Ġvalu": 5039,
    "Ġprosperity": 20260,
    "bitt": 17487,
    "Ġtum": 5692,
    "Ġadmirer": 16839,
    "robber": 21541,
    "sneezes": 11447,
    "ada": 14013,
    "Ġlaughed": 5059,
    "Ġsuperfluous": 17416,
    "returning": 12209,
    "Ġwoods": 5406,
    "Ġspecksnyder": 17405,
    "Ġneighbors": 25807,
    "holland": 24044,
    "Ġmaintaining": 1506,
    "enged": 23149,
    "maintained": 25023,
    "Ġoldest": 12978,
    "Ġunintellig": 22029,
    "Ġshutters": 9939,
    "chose": 18043,
    "Ġbast": 21382,
    "Ġaware": 5756,
    "Ġprinces": 23228,
    "Ġtumb": 21172,
    "Ġinput": 609,
    "Ġegyptian": 13589,
    "iosity": 2308,
    "Ġspell": 8858,
    "argue": 21448,
    "Ġwonderfully": 10431,
    "Ġzones": 22823,
    "musical": 25341,
    "Ġsite": 17754,
    "Ġthousandth": 23686,
    "tranquillity": 20549,
    "rabb": 15683,
    "Ġstove": 6734,
    "sul": 15423,
    "avo": 8521,
    "angled": 6843,
    "Ġspouting": 9441,
    "quickness": 19853,
    "Ġprocedures": 9414,
    "Ġunwaning": 24830,
    "Ġchiselled": 25560,
    "Ġbarriers": 23797,
    "behold": 12881,
    "Ġthe": 270,
    "Ġdiv": 3730,
    "Ġunctuous": 10268,
    "Ġmel": 4818,
    "shudder": 26247,
    "monsters": 19173,
    "Ġdeploy": 3131,
    "Ġbold": 5293,
    "Ġsuffoc": 18871,
    "Ġharpoone": 2909,
    "Ġset": 1177,
    "Ġattentions": 5879,
    "Ġfiled": 15583,
    "threatened": 25463,
    "Ġlegible": 23537,
    "ull": 1431,
    "design": 19343,
    "Ġpurely": 12235,
    "describe": 1512,
    "Ġdesolate": 10015,
    "Ġvaluable": 5607,
    "Ġconsuming": 22796,
    "Ġvictory": 16655,
    "Ġstarvation": 19794,
    "alf": 4638,
    "Ġcaval": 25770,
    "Ġselected": 9712,
    "milk": 20480,
    "Ġquee": 1980,
    "Ġconcentrate": 25066,
    "ustomed": 6100,
    "Ġboister": 12923,
    "voc": 8395,
    "Ġmilan": 19538,
    "avast": 8900,
    "Ġenlivened": 26209,
    "bingleys": 19637,
    "icism": 13958,
    "Ġmanilla": 15962,
    "ph": 918,
    "Ġelij": 8911,
    "Ġmidnight": 5266,
    "Ġrecess": 10848,
    "Ġhoist": 11979,
    "horr": 14600,
    "Ġvenerable": 9096,
    "search": 8466,
    "Ġjurymen": 16848,
    "pips": 21022,
    "Ġsoul": 2723,
    "thing": 1479,
    "Ġcurling": 9343,
    "Ġgold": 3280,
    "Ġreverse": 16983,
    "athom": 12943,
    "Ġcritics": 23445,
    "_.": 2211,
    "Ġart": 747,
    "Ġasks": 5115,
    "Ġpunctual": 17139,
    "Ġspar": 10922,
    "ears": 20847,
    "treacle": 25151,
    "cad": 17506,
    "Ġlow": 1649,
    "Ġpine": 8800,
    "lung": 17592,
    "Ġstreamed": 14547,
    "orphans": 26441,
    "Ġpasses": 2677,
    "anque": 13890,
    "bestow": 16930,
    "unken": 10238,
    "Ġrollicking": 24450,
    "uced": 13802,
    "suff": 4961,
    "conve": 14245,
    "opening": 10314,
    "Ġallegro": 25795,
    "Ġdealer": 23980,
    "tails": 21089,
    "Ġjoosy": 23634,
    "Ġquicker": 16509,
    "likeness": 19481,
    "throwing": 11706,
    "ie": 728,
    "bury": 9109,
    "Ġdoubloons": 13437,
    "Ġventing": 19496,
    "sun": 7140,
    "crimson": 24088,
    "Ġinjunctions": 24271,
    "across": 10324,
    "ineering": 21972,
    "Ġdestroying": 14731,
    "eration": 10773,
    "Ġstages": 14006,
    "Ġlistened": 4470,
    "Ġalmost": 1658,
    "nature": 5360,
    "ived": 1530,
    "Ġteasing": 11892,
    "y": 93,
    "hurry": 24762,
    "lungs": 26136,
    "oud": 1941,
    "Ġflit": 23012,
    "urre": 10857,
    "Ġsitting": 3604,
    "pretending": 17041,
    "dearest": 11738,
    "inno": 10757,
    "plain": 1358,
    "Ġduncan": 13464,
    "Ġpartly": 6714,
    "deli": 15347,
    "alth": 3257,
    "Ġlazarus": 15030,
    "Ġbourgh": 5069,
    "Ġclink": 22351,
    "Ġulster": 14998,
    "Ġnegatived": 23052,
    "edged": 15634,
    "Ġpadded": 25039,
    "dispute": 23501,
    "Ġabstained": 25232,
    "Ġripple": 25505,
    "Ġlearnt": 7614,
    "Ġfeeble": 12287,
    "Ġcoach": 6867,
    "Ġquench": 22424,
    "distinguished": 10528,
    "Ġdiverted": 14593,
    "Ġburnwell": 13271,
    "Ġdestroy": 5772,
    "Ġtruce": 24116,
    "Ġkin": 15907,
    "learned": 8598,
    "airing": 16179,
    "Ġlimb": 9404,
    "princip": 17138,
    "Ġwhispering": 14947,
    "Ġrewards": 10849,
    "appeared": 4281,
    "Ġloggerhead": 13660,
    "Ġencouraging": 2264,
    "Ġsubtle": 6717,
    "Ġbackbones": 22659,
    "Ġprocession": 11778,
    "ilent": 21724,
    "Ġlig": 21552,
    "Ġfee": 7198,
    "ov": 15402,
    "Ġsequence": 1976,
    "Ġinclement": 22559,
    "battering": 20788,
    "Ġcaptain": 1606,
    "Ġintrude": 25991,
    "wis": 12522,
    "ditch": 17529,
    "Ġshield": 22004,
    "Ġhook": 6453,
    "Ġprairie": 8716,
    "Ġpersuasions": 16633,
    "Ġseaport": 20602,
    "aternity": 21268,
    "Ġembraces": 19874,
    "Ġ104": 24411,
    "icting": 12855,
    "lightened": 12068,
    "Ġrekindled": 21681,
    "Ġ": 225,
    "Ġobserving": 6081,
    "Ġgn": 8821,
    "Ġunlo": 22015,
    "Ġstraight": 3701,
    "earnestly": 17315,
    "Ġthinkings": 22816,
    "Ġinsufferable": 13933,
    "hyena": 24254,
    "bull": 13693,
    "Ġmeanness": 22603,
    "Ġstab": 10863,
    "Ġdied": 4109,
    "Ġbad": 3986,
    "Ġcasualty": 20344,
    "fatigue": 20660,
    "Ġamong": 1669,
    "Ġvict": 3760,
    "Ġendless": 7054,
    "Ġadaptive": 1355,
    "Ġglossy": 15230,
    "Ġlam": 21553,
    "however": 4374,
    "Ġdesk": 11910,
    "Ġrevolution": 3307,
    "Ġcertainty": 6735,
    "Ġowing": 6006,
    "Ġaverted": 16257,
    "cries": 17512,
    "tons": 7558,
    "Ġextremely": 2667,
    "[": 63,
    "Ġsetting": 7047,
    "pre": 647,
    "Ġabsorbed": 12334,
    "Ġsidel": 9637,
    "angs": 5835,
    "Ġcomposedly": 25186,
    "8": 28,
    "Ġwharves": 13508,
    "unks": 15778,
    "Ġtongs": 9963,
    "Ġsubsisted": 19119,
    "R": 54,
    "Ġneglig": 18879,
    "Ġcomply": 8894,
    "Ġmarling": 23038,
    "Ġ93": 24593,
    "Ġsprung": 11249,
    "Ġbeadle": 26485,
    "Ġgently": 7171,
    "Ġfrig": 13084,
    "Ġdisco": 3428,
    "Ġprot": 3845,
    "Ġamerican": 5061,
    "Ġseeming": 8542,
    "althily": 19362,
    "kn": 5791,
    "leaving": 10792,
    "Ġwherein": 14297,
    "Ġbowditch": 19325,
    "mblings": 19783,
    "Ġpronouncing": 16970,
    "domestic": 19828,
    "flood": 19809,
    "azz": 8263,
    "Ġsort": 1505,
    "Ġeaster": 15678,
    "oysius": 14369,
    "Ġheading": 8937,
    "Ġapprehended": 26091,
    "Ġimbu": 15894,
    "Ġrudder": 25110,
    "fortnight": 13090,
    "Ġabounding": 12347,
    "Ġdowncast": 18653,
    "unfearing": 21897,
    "Ġinstructive": 19287,
    "ism": 4875,
    "Ġindependently": 4246,
    "sideways": 14572,
    "india": 22376,
    "Ġfellows": 8258,
    "isters": 11922,
    "Ġcountrymen": 23597,
    "Ġmoss": 9286,
    "emason": 18184,
    "Ġconst": 1909,
    "Ġrejoicing": 13424,
    "Ġchristendom": 16695,
    "Ġlatitudes": 9498,
    "Ġstress": 18069,
    "ilder": 15716,
    "Ġslight": 3119,
    "safie": 20351,
    "Ġshriek": 6639,
    "xter": 9148,
    "finer": 17547,
    "fav": 6648,
    "Ġmarch": 4080,
    "Ġparched": 11730,
    "Ġhosea": 17333,
    "Ġcrowds": 14741,
    "Ġdiscrimin": 2545,
    "Ġpersecut": 16953,
    "Ġcomprised": 14272,
    "Ġlinen": 12410,
    "Ġferrule": 24516,
    "Ġproportionate": 17043,
    "isbury": 21380,
    "servant": 15037,
    "Ġsituations": 10493,
    "Ġadro": 15870,
    "Ġdelightful": 6321,
    "Ġlord": 2966,
    "Ġgasp": 7172,
    "Ġapple": 14169,
    "Ġprogramming": 1184,
    "forest": 22523,
    "Ġconsisting": 8973,
    "Ġundisturbed": 19522,
    "cement": 2968,
    "Ġtheology": 21279,
    "ources": 2787,
    "vous": 2252,
    "Ġdeficient": 18826,
    "Ġsevent": 18201,
    "little": 3353,
    "oration": 2208,
    "jewel": 20349,
    "Ġtransition": 14244,
    "ĠĠĠĠĠĠĠĠĠĠĠĠĠĠĠĠĠĠĠĠĠĠĠĠĠĠĠ": 14888,
    "Ġdagger": 21441,
    "bale": 20776,
    "Ġsharper": 17181,
    "Ġscheming": 23274,
    "Ġedition": 16456,
    "Ġaltered": 7392,
    "neurons": 3135,
    "ants": 1391,
    "Ġinscriptions": 20012,
    "antingly": 22103,
    "Ġexcellence": 11452,
    "Ġtart": 12532,
    "reproof": 25433,
    "Ġadvancing": 6878,
    "erest": 10698,
    "lott": 6652,
    "hole": 5585,
    "Ġbreaking": 6311,
    "maybe": 23994,
    "Ġcontrivance": 17185,
    "!_": 7328,
    "Ġgreek": 10632,
    "Ġcloudless": 16670,
    "Ġflame": 7447,
    "circumamb": 26088,
    "Ġaffections": 10386,
    "iece": 3232,
    "Ġstockings": 20000,
    "mason": 17603,
    "poled": 22913,
    "shortened": 24747,
    "regarded": 12010,
    "Ġamount": 8513,
    "Ġrecollections": 10514,
    "floor": 14938,
    "moderate": 22841,
    "Ġrespectively": 23251,
    "tanh": 5204,
    "Ġdepart": 4656,
    "Ġeas": 2355,
    "Ġhertfordshire": 5377,
    "proposal": 18756,
    "ê": 171,
    "acrity": 14262,
    "difference": 13710,
    "Ġbutts": 15858,
    "Ġprudence": 13922,
    "gaff": 20884,
    "Ġsauntering": 18328,
    "Ġopposition": 16521,
    "Ġdimmed": 24269,
    "Ġrepugnant": 26591,
    "Ġheavily": 6741,
    "Ġtarget": 2820,
    "distressed": 24201,
    "Ġpinch": 15018,
    "rals": 21045,
    "beautiful": 10650,
    "doors": 19096,
    "regular": 3042,
    "Ġslipping": 13364,
    "Ġext": 878,
    "inate": 6234,
    "onstr": 12550,
    "Ġoutset": 15958,
    "yesterday": 10355,
    "Ġabstra": 22276,
    "Ġadmeasure": 18294,
    "Ġclubbed": 26547,
    "î": 175,
    "Ġwouldst": 18498,
    "sixteen": 24854,
    "beloved": 19464,
    "pped": 1998,
    "Ġkl": 2733,
    "Ġhardest": 18914,
    "Ġthreats": 13380,
    "ĠâĢĻ": 3043,
    "idays": 21775,
    "Ġlagged": 21562,
    "Ġbrilliant": 11415,
    "Ġparc": 10921,
    "supp": 4161,
    "ras": 21039,
    "breat": 10080,
    "Ġwhatever": 3474,
    "coward": 13703,
    "elab": 21574,
    "Ġdeact": 18138,
    "general": 7488,
    "Ġbroadway": 23987,
    "Ġobserve": 4670,
    "Ġreferences": 21678,
    "dripping": 16906,
    "Ġthough": 993,
    "Ġ91": 24591,
    "welcomed": 24645,
    "Ġenjoying": 11235,
    "woof": 21142,
    "few": 8204,
    "Ġclue": 7020,
    "Ġvast": 3297,
    "Ġinvoluntarily": 8549,
    "Ġz": 1000,
    "Ġlikely": 3597,
    "Ġprim": 8245,
    "Ġinnermost": 12164,
    "tremendous": 20676,
    "avers": 17482,
    "Ġinterlude": 16076,
    "arian": 10318,
    "Ġcommerce": 11016,
    "shoulders": 16586,
    "Ġexhilar": 19686,
    "Ġlittle": 866,
    "Ġalas": 5923,
    "easy": 9594,
    "ison": 3074,
    "Ġskilfully": 20527,
    "congratulations": 20282,
    "suitableness": 26262,
    "Ġsurging": 19135,
    "Ġardently": 9500,
    "_,âĢĻ": 12436,
    "Ġkick": 5838,
    "games": 20882,
    "igated": 15710,
    "end": 500,
    "Ġsanct": 15066,
    "Ġendwise": 23139,
    "ifling": 15786,
    "Ġdeliberation": 19972,
    "izarre": 17391,
    "Ġlivel": 11356,
    "Ġalleys": 25979,
    "Ġseparation": 11248,
    "Ġdrooping": 9422,
    "laugh": 10110,
    "brated": 12029,
    "aton": 21261,
    "Ġtire": 17721,
    "sway": 15426,
    "parameter": 2908,
    "passed": 8027,
    "ortations": 22263,
    "Ġcomely": 21848,
    "free": 8739,
    "Ġdisclose": 16159,
    "Ġabst": 9268,
    "Ġdistinctly": 7310,
    "nose": 17611,
    "Ġswore": 10380,
    "Ġgems": 9210,
    "Ġrows": 10562,
    "Ġmelancholy": 5605,
    "Ġinserting": 19908,
    "Ġfejee": 18355,
    "Ġconce": 3422,
    "Ġexcel": 3567,
    "Ġgallows": 12149,
    "Ġlandowner": 23384,
    "hump": 12481,
    "jonah": 11498,
    "Ġregarding": 13213,
    "Ġcod": 8414,
    "pul": 8757,
    "bat": 8073,
    "arched": 10816,
    "expectation": 14858,
    "Ġst": 332,
    "Ġly": 2269,
    "Ġdepth": 2438,
    "Ġrail": 7223,
    "owder": 8450,
    "cturn": 17989,
    "Ġsill": 10766,
    "Ġtwist": 11854,
    "ful": 668,
    "Ġhiss": 15791,
    "Ġeasily": 3888,
    "ledyard": 22396,
    "bewil": 22503,
    "ulus": 21869,
    "Ġjoky": 18407,
    "Ġthese": 822,
    "offic": 7465,
    "Ġcrowned": 16842,
    "um": 454,
    "Ġwaxed": 21300,
    "Ġtort": 5903,
    "Ġwedged": 24936,
    "umns": 14149,
    "Ġtra": 1384,
    "convolutional": 4958,
    "Ġaddress": 2271,
    "Ġminimizing": 3465,
    "ogene": 18675,
    "volut": 1564,
    "Ġalmanac": 26486,
    "sory": 17660,
    "otently": 21805,
    "entimes": 12660,
    "Ġimpenetrable": 17399,
    "Ø": 153,
    "Ġcakes": 13886,
    "iling": 3093,
    "Ġvacantly": 16816,
    "Ġwished": 3728,
    "Ġpag": 6012,
    "flag": 14713,
    "Ġglow": 7170,
    "Ġsuffer": 4722,
    "Ġsilk": 11966,
    "Ġwrest": 11573,
    "Ġmish": 15540,
    "Ġconcert": 11970,
    "Ġdrowsy": 26445,
    "Ġjolly": 6857,
    "m": 81,
    "iled": 1765,
    "sa": 8760,
    "Ġfavourably": 16364,
    "Ġbeque": 18083,
    "iction": 4268,
    "Ġfairest": 20466,
    "Ġworthy": 7240,
    "Ġotherwise": 4657,
    "cus": 3979,
    "Ġfarm": 7841,
    "plac": 15823,
    "binder": 17501,
    "Ġsums": 2900,
    "Ġchanc": 18385,
    "Ġkindliness": 23298,
    "Ġpleasant": 4169,
    "Ġlieu": 19567,
    "Ġsquee": 7930,
    "escaped": 14231,
    "bond": 17491,
    "Ġpieces": 7368,
    "Ġsavann": 14685,
    "Ġstamp": 7866,
    "ete": 9205,
    "Ġasc": 4765,
    "Ġinferiority": 17115,
    "Ġmosses": 20166,
    "Ġsplit": 7994,
    "Ġmilitary": 11259,
    "ild": 1154,
    "Ġtook": 1856,
    "Ġstiffest": 24827,
    "Ġprincip": 5599,
    "times": 8100,
    "Ġfeed": 2125,
    "suggested": 17301,
    "Ġpals": 13920,
    "ick": 835,
    "Ġdiscre": 2417,
    "Ġregretted": 13403,
    "Ġreduces": 2346,
    "Ġpotent": 12067,
    "Ġforster": 5230,
    "Ġupward": 9723,
    "oky": 8199,
    "Ġaisle": 21204,
    "wake": 11547,
    "aged": 2607,
    "Ġbodies": 8033,
    "Ġwick": 2006,
    "Ġeclipsed": 26378,
    "nowledge": 10291,
    "Ġanalog": 12616,
    "Ġshuttle": 12130,
    "Ġintent": 6409,
    "Ġexcessively": 9442,
    "Ġgir": 2256,
    "simple": 13455,
    "Ġspeaking": 4025,
    "deemed": 18316,
    "Ġrake": 18640,
    "stud": 8823,
    "stranded": 19228,
    "wheel": 22874,
    "Ġwasting": 12732,
    "Ġseizing": 7879,
    "listened": 15045,
    "Ġcolumn": 9330,
    "Ġneatness": 19935,
    "vener": 21114,
    "trust": 21081,
    "rew": 3648,
    "Ġyawn": 7609,
    "Ġjo": 2609,
    "Åĵ": 10745,
    "garn": 20872,
    "Ġdiary": 24738,
    "ners": 3273,
    "descend": 23090,
    "Ġwreck": 7313,
    "Ġnevertheless": 5040,
    "Ġdealing": 14047,
    "Ġcasually": 25096,
    "Ġplata": 25120,
    "Ġtrumpet": 9575,
    "dart": 20828,
    "solic": 16382,
    "Ġdisengaged": 12893,
    "ancy": 4395,
    "Ġcalculus": 23986,
    "ending": 1989,
    "Ġrested": 9381,
    "cle": 3955,
    "Ġmysterious": 7526,
    "vedale": 22714,
    "Ġstoke": 10397,
    "Ġconvent": 11670,
    "Ġarray": 12813,
    "Ġderbyshire": 6587,
    "age": 504,
    "Ġwhereon": 16104,
    "Ġhumped": 19772,
    "Ġhousekeeping": 18946,
    "Ġsi": 21215,
    "Ġsuper": 2153,
    "left": 6975,
    "tles": 10731,
    "Ġgovernments": 20270,
    "Ġfaulty": 14909,
    "Ġhelmsman": 10506,
    "Ġpatients": 24810,
    "itative": 13872,
    "mical": 9130,
    "Ġslop": 23164,
    "quished": 21859,
    "Ġunavailing": 26217,
    "Ġalarmed": 6922,
    "Ġperpet": 7644,
    "english": 2773,
    "oof": 15407,
    "stripped": 16946,
    "Ġcontroverted": 23255,
    "Ġhabitation": 14804,
    "Ġpriority": 19765,
    "Ġvisage": 18766,
    "âĢĶ.": 11758,
    "iquette": 26133,
    "coat": 5407,
    "ifix": 21908,
    "Ġthink": 987,
    "Ġaugmented": 15108,
    "etite": 21583,
    "Ġproperly": 7946,
    "mp": 3726,
    "shiver": 16028,
    "Ġassistants": 9454,
    "Ġhumble": 8553,
    "Ġchivalrous": 20518,
    "Ġparasol": 22126,
    "Ġpreviously": 3917,
    "beards": 22496,
    "000": 2560,
    "fted": 9120,
    "Ġmute": 19419,
    "ods": 8838,
    "modesty": 22840,
    "Ġsavagely": 26325,
    "Ġcanvassed": 19938,
    "harm": 13737,
    "Ġbrowne": 13305,
    "Ġcommenced": 8533,
    "Ġwants": 5742,
    "Ġferguson": 17471,
    "Ġcharity": 8865,
    "Ġsighs": 22713,
    "Ġincognita": 26552,
    "raising": 21636,
    "circum": 16738,
    "Ġsimilarly": 24309,
    "Ġseams": 12128,
    "mrs": 3743,
    "ival": 4226,
    "frozen": 25142,
    "Ġfading": 15587,
    "Ġconsiderably": 7715,
    "Ġstepfather": 7220,
    "Ġrouted": 24908,
    "Ġbrown": 6299,
    "seek": 8840,
    "follow": 5680,
    "lied": 6507,
    "Ġinflamed": 13476,
    "Ě": 219,
    "Ġsnap": 11201,
    "creatures": 7516,
    "bots": 10084,
    "tort": 17676,
    "Ġ1778": 25730,
    "Ġtanning": 17730,
    "Ġmodes": 22217,
    "Ġattempting": 14698,
    "Ġcharted": 22255,
    "Ġunwarrant": 19936,
    "cannon": 22966,
    "share": 14237,
    "unearthly": 19275,
    "âĢĶ": 518,
    "Ġnorthern": 7264,
    "Ġapo": 9632,
    "Ġpenn": 11113,
    "Ġsticking": 13430,
    "Ġbind": 12586,
    "invite": 25091,
    "ivity": 1705,
    "Ġfleecy": 17024,
    "Ġafghan": 22633,
    "Ġpuzzled": 7316,
    "Ġhealthy": 10852,
    "lucas": 15154,
    "Ġcustoms": 19655,
    "admirably": 24947,
    "Ġprogen": 14041,
    "Ġsingularly": 12152,
    "Ġtremulous": 14988,
    "Ġhatches": 12048,
    "Ġdrowned": 9554,
    "Ġafter": 870,
    "Ġundeserving": 18269,
    "Ġfrighted": 24032,
    "Ġbathed": 17867,
    "thorough": 21990,
    "anded": 5924,
    "Ġdissatisfied": 14258,
    "Ġbordering": 17230,
    "Ġdirt": 15597,
    "egyptians": 25899,
    "Ġtent": 15469,
    "ogrand": 26263,
    "Ġsensit": 2946,
    "Ġturns": 4981,
    "consider": 6349,
    "london": 9611,
    "brought": 7284,
    "Ġfist": 21407,
    "lant": 20949,
    "gird": 20881,
    "Ġresearches": 13131,
    "Ġwronged": 24249,
    "Ġcomputer": 1182,
    "prepare": 20215,
    "Ġball": 3623,
    "Ġrespond": 11177,
    "snap": 24849,
    "Ġplenty": 6709,
    "Ġgould": 17992,
    "degree": 12805,
    "Ġnod": 1890,
    "ery": 1270,
    "Ġecc": 11630,
    "mell": 20966,
    "attery": 18507,
    "Ġruin": 6057,
    "Ġhospitals": 24924,
    "Ġphilipses": 24451,
    "Ġflesh": 5970,
    "Ġcommodore": 12398,
    "Ġsuppressing": 23005,
    "Ġfree": 3376,
    "Ġdeduced": 12211,
    "Ġjun": 8507,
    "Ġpompous": 20426,
    "ificent": 8185,
    "grand": 7971,
    "Ġconscious": 7744,
    "designated": 26320,
    "hello": 13367,
    "Ġintrospective": 20603,
    "oury": 22309,
    "Ġ1807": 26084,
    "view": 5897,
    "Ġsubmerged": 11875,
    "Ġunhe": 22013,
    "quality": 10234,
    "Ġpants": 21469,
    "Ġobservant": 20113,
    "Ġsleet": 8977,
    "Ġoverwhelming": 17102,
    "Ġdistribut": 841,
    "Ġcomstock": 21851,
    "Ġacting": 10992,
    "disguise": 26307,
    "Ġretire": 10383,
    "Ġinsect": 12640,
    "Ġcave": 10786,
    "Ġglades": 19375,
    "Ġwatchful": 16527,
    "poky": 17645,
    "Ġoverlapping": 26240,
    "Ġscaffold": 18401,
    "circled": 24189,
    "Ġeveryone": 8920,
    "Ġwearisome": 19798,
    "Ġbreeds": 23352,
    "Ġreptile": 15280,
    "Ġbam": 15569,
    "Ġgreedy": 3053,
    "Ġarguments": 8038,
    "Ġruminated": 24601,
    "Ġramadan": 9577,
    "Ġfoiled": 23247,
    "Ġtranquill": 6632,
    "innocence": 15186,
    "Ġdrows": 21439,
    "anesc": 21363,
    "ural": 505,
    "Ġoutlandish": 12842,
    "Ġodor": 12153,
    "Ġnovelty": 13466,
    "terror": 18131,
    "pay": 10719,
    "propagation": 1227,
    "succeeded": 15178,
    "gans": 11491,
    "big": 13688,
    "Ġglimpses": 13435,
    "Ġswept": 7979,
    "commence": 19995,
    "palms": 25263,
    "ksome": 10106,
    "sticks": 25966,
    "Ġhardship": 18915,
    "cun": 20797,
    "Ġcheerful": 6623,
    "Ġnor": 1554,
    "Ġcracks": 12022,
    "astonished": 15034,
    "Ġmuskets": 17056,
    "Ġdilated": 24703,
    "Ġprompted": 23820,
    "Ġmotives": 7485,
    "fier": 9595,
    "Ġhey": 11643,
    "Ġenthr": 22751,
    "ica": 10200,
    "Ġraving": 16114,
    "Ġbelongs": 8016,
    "Ġrec": 894,
    "wail": 21128,
    "Ġdank": 21432,
    "Ġassumptions": 5517,
    "Ġsignific": 3825,
    "Ġcarter": 18902,
    "discoloured": 23500,
    "Ġtrunk": 7204,
    "Ġchambers": 16800,
    "Ġgreyish": 24210,
    "Ġpious": 11601,
    "rap": 21632,
    "derstand": 652,
    "Ġchoose": 5983,
    "Ġrecede": 25969,
    "avier": 2829,
    "elect": 20848,
    "Ġequinoctial": 20535,
    "itating": 9652,
    "atical": 10772,
    "poling": 12223,
    "ulia": 18151,
    "verize": 21733,
    "ils": 3184,
    "Ġundoing": 22038,
    "Ġeagerly": 4990,
    "itan": 10161,
    "Ġbreath": 4791,
    "daugh": 6788,
    "unt": 2044,
    "Ġelix": 22648,
    "Ġted": 13814,
    "Ġrifled": 21984,
    "rope": 3187,
    "Ġvindictive": 20473,
    "Ġoffing": 16146,
    "Ġsuits": 22087,
    "Ġoften": 1956,
    "Ġacute": 16126,
    "Ġdwell": 5813,
    "arned": 21826,
    "Ġjoker": 22303,
    "acey": 7649,
    "ceiling": 21631,
    "Ġfurther": 1055,
    "Ġfrightened": 5342,
    "Ġpreprocess": 22238,
    "Ġpredictions": 1455,
    "unimportant": 18162,
    "plings": 11700,
    "Ġing": 5284,
    "arp": 2027,
    "Ġindependence": 12108,
    "retch": 4372,
    "Ġrelationship": 2317,
    "ocean": 12404,
    "gr": 2085,
    "Ġsituation": 4070,
    "Ġscrewing": 20211,
    "bun": 12441,
    "Ġdodo": 9074,
    "iated": 5891,
    "Ġcling": 11774,
    "Ġlace": 13951,
    "Ġbraced": 16581,
    "ontory": 10460,
    "laz": 15388,
    "Ġsworn": 14437,
    "captain": 3953,
    "oran": 8792,
    "melted": 25207,
    "handedness": 24921,
    "Ġtener": 21166,
    "Ġglance": 4233,
    "Ġunfeeling": 14121,
    "wives": 15457,
    "Ġpoliceman": 15261,
    "Ġflames": 7941,
    "fulness": 4309,
    "Ġgrowth": 14630,
    "consult": 24171,
    "uction": 15445,
    "Ġgoat": 16010,
    "medium": 23641,
    "Ġhull": 5446,
    "Ġbeards": 21756,
    "Ġburnished": 24001,
    "Ġcav": 13882,
    "overhearing": 19054,
    "simultaneously": 19866,
    "Ġcoco": 11002,
    "Ġunlocking": 20708,
    "Ġexhaustion": 14963,
    "ment": 694,
    "Ġbodings": 21394,
    "Ġparamet": 614,
    "¥": 103,
    "Ġacknowledgment": 16958,
    "Ġshifting": 12772,
    "Ġspeeches": 22667,
    "Ġbarbara": 24815,
    "Ġriots": 23895,
    "Ġlac": 17967,
    "rowed": 22867,
    "fleet": 15015,
    "results": 20390,
    "Ġern": 8398,
    "Ġdirty": 9180,
    "cutting": 23787,
    "Ġcursory": 18850,
    "Ġgaiety": 16750,
    "Ġprolong": 6831,
    "Ġchestnut": 19675,
    "Ġrecip": 16143,
    "ire": 493,
    "jol": 20927,
    "Ġcomparing": 14269,
    "surgeon": 24216,
    "Ġanger": 5442,
    "eting": 7169,
    "berg": 11861,
    "Ġcous": 3436,
    "Ġinvitation": 5188,
    "Ġpopular": 6217,
    "vember": 10856,
    "Ġrun": 2357,
    "Ġeavesdroppers": 25964,
    "rocket": 13946,
    "Ġcrest": 12946,
    "bur": 4686,
    "dances": 17522,
    "kindled": 16662,
    "rabbit": 20594,
    "Ġdismember": 20218,
    "Ġraved": 22651,
    "Ġfinite": 2327,
    "interests": 19711,
    "impl": 21711,
    "Ġpan": 5082,
    "Ġtropic": 17064,
    "oh": 1581,
    "Ġsap": 18324,
    "Ġsunrise": 9375,
    "Ġweights": 898,
    "Ġapproached": 5844,
    "ove": 1744,
    "d": 72,
    "annica": 24561,
    "isa": 17847,
    "uses": 11764,
    "Ġasi": 12736,
    "Ġartistic": 18613,
    "Ġstates": 1852,
    "Ġbolivia": 24668,
    "somers": 19371,
    "Ġblack": 2033,
    "Ġowned": 11879,
    "tend": 17675,
    "Ġworshipper": 25693,
    "station": 10845,
    "attached": 11938,
    "straight": 9942,
    "affect": 13215,
    "has": 4011,
    "stoke": 18025,
    "Ġbranches": 6776,
    "itche": 7578,
    "avenza": 17104,
    "Ġcordon": 24393,
    "indispensable": 14211,
    "Ġhappiness": 2945,
    "prehensible": 12363,
    "Ġomnipotent": 13551,
    "Ġwrinkles": 8573,
    "Ġhemis": 21688,
    "aking": 975,
    "urpation": 16304,
    "Ġprovided": 6578,
    "br": 2478,
    "Ġclang": 15966,
    "Ġindividual": 5744,
    "Ġchurches": 12832,
    "Ġlanguages": 1570,
    "Ġconsume": 12962,
    "gloom": 17141,
    "bulkington": 19927,
    "Ġbroad": 3639,
    "nal": 1902,
    "Ġheadland": 22901,
    "Ġyield": 5093,
    "Ġimmutable": 17360,
    "Ġvehicle": 20141,
    "Ġsecret": 3719,
    "Ġsung": 23276,
    "Ġmeditate": 16708,
    "Ġridges": 16732,
    "greg": 6649,
    "Ġzone": 14364,
    "ribs": 23369,
    "Ġrapt": 7224,
    "Ġsinners": 18952,
    "tit": 11529,
    "ot": 346,
    "pronouncing": 25194,
    "mish": 17599,
    "england": 18931,
    "Ġair": 1834,
    "threshold": 21992,
    "Ġjuicy": 25371,
    "scans": 22993,
    "Ġassoc": 6402,
    "Ġmealy": 18123,
    "enary": 12555,
    "Ġbehoo": 19037,
    "Ġassign": 11111,
    "Ġdeduction": 14901,
    "urred": 8451,
    "Ġvexations": 24611,
    "Ġperturbation": 20444,
    "singular": 12192,
    "Ġjour": 11767,
    "Ġru": 948,
    "Ġdra": 1594,
    "Ġcontention": 22431,
    "indifferent": 14210,
    "Ġstile": 21737,
    "Ġbarricade": 14661,
    "Ġinspecting": 24615,
    "Ġemigrant": 25860,
    "and": 372,
    "ected": 7875,
    "drop": 15339,
    "Ġparaphrasing": 26527,
    "icken": 6712,
    "writer": 14649,
    "saturday": 14860,
    "batim": 25019,
    "ikes": 8088,
    "crooked": 25747,
    "Ġproposal": 10021,
    "Ġgangs": 21613,
    "Ġdead": 2170,
    "Ġdisrespect": 18554,
    "Ġpalpit": 16691,
    "scotland": 20532,
    "dire": 15338,
    "tuesday": 17691,
    "Ġchaldee": 26236,
    "Ġquakers": 22421,
    "okes": 9279,
    "Ġfled": 6672,
    "Ġharriet": 24572,
    "Ġheadache": 22903,
    "strikes": 24671,
    "progra": 9397,
    "Ġflurry": 18862,
    "Ġpoultry": 17443,
    "Ġmercenary": 17195,
    "Ġamounts": 6705,
    "Ġextra": 4054,
    "Ġtimid": 6346,
    "Ġhyena": 24518,
    "loat": 8889,
    "ispiece": 19728,
    "Ġchaos": 17010,
    "Ġunit": 1848,
    "Ġyoungster": 23183,
    "Ġburke": 19253,
    "alarmed": 21507,
    "Ġmott": 17805,
    "Ġliveliness": 13646,
    "when": 1593,
    "arranted": 19322,
    "Ġdistorted": 14251,
    "Ġbohemian": 17135,
    "greater": 13255,
    "Ġnarr": 5085,
    "preced": 10310,
    "utarch": 15665,
    "Ġbare": 6133,
    "Ġplun": 6282,
    "Ġgerman": 6142,
    "Ġlevelled": 11285,
    "Ġemail": 19076,
    "Ġcooped": 22586,
    "Ġfare": 5810,
    "stern": 7863,
    "Ġlav": 13952,
    "Ġgrasped": 8035,
    "Ġstrengthen": 20703,
    "âĢĶ(": 15941,
    "illes": 12698,
    "Ġinterp": 16075,
    "Ġirregular": 9867,
    "Ġlust": 9199,
    "Ġconfirm": 9858,
    "leave": 7838,
    "Ġsalary": 13297,
    "Ġrobins": 16249,
    "Ġcomforts": 14695,
    "Ġnumbers": 2886,
    "Ġjohn": 5032,
    "Ġsincer": 13070,
    "gentlemanlike": 20005,
    "Ġwashington": 17204,
    "Ġresult": 4461,
    "grass": 23416,
    "Ġbeth": 9659,
    "phia": 22766,
    "Ġsto": 1497,
    "Ġsequences": 1752,
    "Ġphilosophers": 10553,
    "ise": 707,
    "Ġannoyed": 17201,
    "Ġwin": 9643,
    "Ġwheel": 9720,
    "Ġfemales": 14939,
    "Ġinscrut": 10036,
    "Ġstig": 14004,
    "cnns": 3621,
    "Ġatom": 18193,
    "Ġsits": 10769,
    "Ġbravest": 23844,
    "itud": 2930,
    "Ġchancery": 20718,
    "Ġspiteful": 19525,
    "Ġattics": 22629,
    "Ġglimmer": 15144,
    "agony": 14071,
    "details": 19678,
    "Ġsearch": 2591,
    "Ġsperma": 19050,
    "Ġcheering": 11134,
    "elt": 4113,
    "Ġsighed": 10339,
    "Ġunnatural": 7189,
    "Ġhogarth": 25781,
    "Ú": 155,
    "Ġscandalous": 24880,
    "Ġsilently": 6894,
    "Ġpilgr": 12184,
    "cest": 12448,
    "Ġoft": 9196,
    "Ġalteration": 9548,
    "Ġscepticism": 25928,
    "Ġtol": 6676,
    "pour": 17631,
    "ushing": 5731,
    "urean": 18125,
    "aks": 8508,
    "uguese": 20734,
    "Ġsummar": 3526,
    "cceed": 4142,
    "Ġpall": 7582,
    "crat": 24086,
    "Ġsult": 10768,
    "Ġsashes": 21228,
    "Ġcivilized": 8668,
    "Ġrenewed": 9540,
    "Ġretreated": 13436,
    "ug": 1767,
    "Ġintense": 6158,
    "Ġ15": 9326,
    "Ġsleepless": 14583,
    "consequence": 9765,
    "Ġarchly": 22782,
    "Ġdefici": 22947,
    "Ġperish": 8877,
    "people": 7677,
    "ble": 542,
    "_--": 20764,
    "lesome": 12969,
    "gentlemen": 9506,
    "Ġirregularity": 25325,
    "sey": 5542,
    "Ġwaves": 3916,
    "Ġpetticoat": 15298,
    "Ġeleventh": 23372,
    "aculate": 16067,
    "Ġprize": 11951,
    "hog": 8381,
    "Ġknot": 7012,
    "after": 2894,
    "Ġconjectured": 9999,
    "pequod": 7053,
    "Ġcraw": 7281,
    "Ġanalogical": 25641,
    "Ġbewit": 15731,
    "Ġunwarranted": 24831,
    "Ġlooks": 4165,
    "beholding": 16044,
    "limp": 20954,
    "supplied": 10521,
    "mansion": 20985,
    "1775": 26379,
    "ylon": 24980,
    "ology": 1614,
    "Ġpanthe": 19656,
    "Ġsculpture": 26017,
    "witted": 17708,
    "Ġpainted": 7980,
    "Ġheavier": 13105,
    "cy": 642,
    "Ġunappe": 22021,
    "Ġtension": 13826,
    "fol": 4863,
    "Ġartist": 12916,
    "dependence": 17169,
    "Ġpiping": 23230,
    "ographical": 16787,
    "Ġmist": 2875,
    "ituted": 13875,
    "Ġd": 284,
    "Ġearned": 19408,
    "Ġsinned": 18953,
    "Ġmalady": 24391,
    "him": 1938,
    "Ġpatted": 16374,
    "Ġble": 5223,
    "Ġjaw": 3321,
    "screwed": 17189,
    "Ġcolonies": 14377,
    "Ġagents": 9768,
    "Ġwakes": 11574,
    "Ġhalts": 3161,
    "confidence": 16809,
    "key": 5462,
    "ior": 2040,
    "Ġsenses": 8253,
    "explanations": 25235,
    "pattern": 4799,
    "Ġinterpretation": 19719,
    "Ġcovari": 2341,
    "Ġazores": 20196,
    "Ġarabic": 24983,
    "Ġdecl": 3589,
    "society": 9974,
    "Ġprofess": 3697,
    "Ġmortification": 12098,
    "Ġdisposition": 5409,
    "Ġa": 263,
    "Ġtemple": 7653,
    "vig": 15448,
    "narrative": 17321,
    "Ġdel": 1617,
    "Ġfavourite": 5271,
    "Ġtooks": 23329,
    "constable": 24607,
    "impenetrable": 26198,
    "Ġwalk": 1824,
    "heim": 17747,
    "circumstances": 8048,
    "Ġvult": 12756,
    "vellers": 16675,
    "*": 14,
    "Ġrueful": 25582,
    "sombre": 23857,
    "Ġfront": 3450,
    "Ġnails": 12652,
    "ench": 21282,
    "lover": 18537,
    "Ġwar": 5526,
    "Ġinhabitant": 19758,
    "Ġdistinguish": 2724,
    "wood": 5899,
    "Ġincarn": 11817,
    "Ġhammered": 13243,
    "cong": 10690,
    "Ġfrowning": 13626,
    "Ġlinn": 13955,
    "sub": 4659,
    "crated": 16684,
    "Ġstagnant": 24655,
    "Ġguards": 16272,
    "origin": 7581,
    "Ġ*": 1274,
    "Ġpaltry": 16692,
    "Ġpsych": 10178,
    "Ġconsiderations": 9412,
    "compasses": 19461,
    "Ġwil": 4580,
    "Ġbachelor": 7787,
    "Ġdeserves": 13293,
    "Ġfinancier": 26584,
    "Ġspeak": 2228,
    "Ġinterm": 14273,
    "Ġpermanent": 13634,
    "Ġafraid": 3530,
    "estion": 18363,
    "Ġhaughty": 11450,
    "Ġbu": 3681,
    "Ġnursed": 16886,
    "Ġgregarious": 18966,
    "Ġaddressed": 5263,
    "Ġreleased": 2978,
    "Ġcrib": 21351,
    "iancy": 13013,
    "Ġseasonable": 24405,
    "parm": 21016,
    "passenger": 24168,
    "Ġimpregnable": 26024,
    "Ġberkshire": 16885,
    "Ġlubber": 17446,
    "Ġsmith": 16070,
    "Ġpartial": 2126,
    "Ġmemorand": 23408,
    "Ġcareful": 2612,
    "Ġproficiency": 19195,
    "Ġwolves": 25935,
    "poured": 17638,
    "violets": 23547,
    "Ġcrawford": 24894,
    "Ġvital": 9245,
    "Ġseizure": 21962,
    "Ġinstability": 3810,
    "Ġreddening": 25971,
    "Ġidentical": 10435,
    "Ġdiet": 13912,
    "friendship": 24051,
    "Ġclaim": 5106,
    "protest": 24812,
    "Ġslung": 23170,
    "Ġdeb": 4764,
    "Ġfails": 13317,
    "belong": 12126,
    "Ġadvise": 7937,
    "Ġpott": 21472,
    "Ġexpenses": 11836,
    "ader": 14014,
    "bol": 8721,
    "Ġfive": 2834,
    "Ġsailing": 5324,
    "Ġstabbed": 25457,
    "Ġtransports": 24279,
    "proper": 7470,
    "Ġchamp": 18382,
    "Ġdesigns": 13020,
    "Ġbleeds": 24396,
    "q": 85,
    "french": 9121,
    "Ġexcused": 23316,
    "Ġpaper": 4282,
    "formality": 22233,
    "Ġunnaturally": 24871,
    "Ġcreator": 7256,
    "skirted": 24488,
    "Ġextinct": 14328,
    "acit": 16065,
    "Ġgaol": 19570,
    "club": 26381,
    "Ġtopsails": 19196,
    "Ġpuffed": 14979,
    "Ġquadr": 8201,
    "Ġoutput": 930,
    "Ġincognit": 22560,
    "duck": 22417,
    "Ġgunw": 6213,
    "northern": 23666,
    "Ġstir": 5824,
    "Ġtedious": 15270,
    "Ġpalp": 11251,
    "Ġfrocks": 23926,
    "Ġmurmuring": 23581,
    "Ġrespected": 11956,
    "knew": 9128,
    "Ġrevealing": 3922,
    "Ġtones": 8402,
    "charitable": 23936,
    "ropes": 7905,
    "Ġbig": 5806,
    "erably": 7572,
    "ran": 11517,
    "utes": 5915,
    "circ": 4390,
    "Ġtreatise": 19348,
    "Ġaccidents": 10297,
    "resent": 10770,
    "Ġpat": 1769,
    "Ġbread": 5404,
    "countenance": 6924,
    "rim": 7138,
    "Ġcamel": 25350,
    "soon": 4026,
    "Ġflap": 14424,
    "Ġstruct": 2782,
    "Ġinfinite": 8579,
    "Ġfirmness": 11238,
    "Ġcontents": 7209,
    "Ġeasy": 3451,
    "direct": 12460,
    "Ġsavesoul": 26229,
    "arthur": 14832,
    "Ġcar": 1419,
    "compared": 24036,
    "banish": 20784,
    "po": 1139,
    "arling": 10815,
    "Ġputs": 19036,
    "sax": 21059,
    "Ġfr": 1698,
    "Ġmember": 8588,
    "leaning": 10791,
    "Ġmoody": 8202,
    "cies": 1813,
    "Ġinvaders": 23482,
    "Ġsole": 3298,
    "vand": 21111,
    "brandy": 19203,
    "ials": 11709,
    "rodu": 1817,
    "Ġcarted": 21353,
    "convul": 24884,
    "pleas": 3849,
    "Ġprojected": 16870,
    "Ġ-": 1946,
    "re": 266,
    "Ġunperceived": 22040,
    "vic": 13804,
    "Ġfurnish": 9021,
    "Ġcarav": 18903,
    "Ġwhirled": 14962,
    "produ": 10721,
    "Ġblossom": 26313,
    "Ġpound": 12620,
    "Ġcorroborated": 26055,
    "Ġconstables": 19072,
    "Ġbitterness": 8025,
    "Ġlivery": 16003,
    "Ġquohog": 10973,
    "Ġanalogy": 25640,
    "Ġsovereign": 10064,
    "aggra": 21911,
    "Ġspecialized": 3918,
    "residual": 19264,
    "Ġdeceitfulness": 25734,
    "whisper": 17083,
    "Ġfaster": 3201,
    "Ġreturning": 5326,
    "itaries": 21339,
    "Ġlurid": 19684,
    "Ġinterfere": 11820,
    "Ġwrath": 16320,
    "lets": 7837,
    "Ġblue": 3453,
    "Ġmr": 661,
    "engagements": 25855,
    "Ġoctavo": 15166,
    "Ġdestruction": 6601,
    "score": 18858,
    "95": 17479,
    "Ġrogue": 22410,
    "Ġthat": 335,
    "Ġvalue": 2084,
    "lengthwise": 19953,
    "Ġvectors": 1772,
    "function": 4386,
    "conducted": 25573,
    "Ġpromoting": 3163,
    "Ġneedn": 19231,
    "Ġplumage": 17300,
    "Ġeleg": 6193,
    "face": 3676,
    "Ġshilling": 18229,
    "Ġcoolly": 9774,
    "Ġsailors": 4276,
    "Ġfin": 1459,
    "Ġcolonel": 3408,
    "Ġunass": 14116,
    "merchant": 10468,
    "Ġdissect": 16055,
    "Ġthreatened": 8331,
    "Ġmomentous": 16174,
    "Ġresolved": 3795,
    "aan": 20766,
    "Ġlibr": 16004,
    "Ġshank": 22002,
    "Ġcoop": 14275,
    "Ġwithdra": 6398,
    "Ġstanding": 2999,
    "Ġtasselled": 25922,
    "planted": 11701,
    "vely": 3863,
    "henomena": 20275,
    "imental": 16534,
    "urbed": 15712,
    "serpent": 16294,
    "Ġsubjects": 7073,
    "Ġweak": 5098,
    "Ġcreep": 22727,
    "using": 5468,
    "Ġdiscussion": 17196,
    "thrust": 10263,
    "Ġheaped": 18040,
    "Ġpropose": 9855,
    "buff": 15321,
    "Ġcontained": 7679,
    "Ġfingertips": 24020,
    "Ġii": 7384,
    "Ġhatty": 19267,
    "thinking": 9016,
    "Ġrumpled": 24602,
    "ze": 1289,
    "Ġwhirling": 12252,
    "Ġepid": 18007,
    "Ą": 197,
    "Ġcomplaisance": 19452,
    "Ġspas": 10923,
    "inhab": 10758,
    "nals": 16402,
    "dost": 14536,
    "Ġsuspense": 9420,
    "Ġrash": 10899,
    "Ġhushed": 13927,
    "frisco": 16788,
    "mere": 11858,
    "Ġerection": 24004,
    "fow": 20855,
    "Ġperry": 22401,
    "erity": 21270,
    "Ġworn": 6445,
    "etent": 10201,
    "Ġglistened": 20175,
    "Ġspasmodically": 17316,
    "Ġqu": 605,
    "cing": 1013,
    "Ġaudits": 24769,
    "Ġcontrolled": 23254,
    "striving": 24670,
    "Ġoverlooked": 15974,
    "Ġ65": 24367,
    "Ġerrors": 2597,
    "Ġcrozetts": 19632,
    "Ġmonarchs": 25851,
    "Ġvirtual": 11240,
    "Ġbomb": 17869,
    "Ġdisappointing": 19582,
    "Ġancles": 21450,
    "Ġdecision": 2674,
    "raged": 9213,
    "Ġestates": 16460,
    "mystery": 15158,
    "Ġscheduling": 2352,
    "nails": 17615,
    "Ġautoregressive": 3431,
    "Ġcanada": 22171,
    "want": 8770,
    "Ġancestors": 25643,
    "aring": 1476,
    "Ġcastors": 23979,
    "Ġinvoluntary": 18765,
    "Ġtapping": 10753,
    "Ġthus": 2037,
    "Ġpossesses": 19355,
    "completely": 12423,
    "ornamented": 26596,
    "onomy": 12551,
    "Ġe": 311,
    "Ġquiver": 16006,
    "oftener": 23968,
    "since": 5896,
    "Ġpredecess": 18518,
    "Ġferocious": 17421,
    "topic": 10529,
    "Ġconsciousness": 9950,
    "ree": 874,
    "Ġwake": 4749,
    "Ġmule": 13864,
    "Ġcircle": 4977,
    "Ġsnarled": 25715,
    "write": 14648,
    "Ġabomination": 22283,
    "Ġwhom": 1830,
    "Ġhump": 5854,
    "Ġinve": 17931,
    "evidence": 25522,
    "Ġmessages": 24986,
    "Ġfilm": 23929,
    "inex": 14094,
    "surf": 24214,
    "leap": 21370,
    "Ġrelieve": 8225,
    "Ġsatisf": 2804,
    "Ġsupers": 18281,
    "oid": 3126,
    "common": 4126,
    "Ġproper": 1379,
    "Ġscott": 22286,
    "Ġindia": 10372,
    "Ġmarshy": 20221,
    "giving": 8742,
    "Ġsnatched": 10472,
    "Ġaquiline": 26160,
    "avoid": 9307,
    "Ġbottles": 16572,
    "Ġargu": 10935,
    "information": 12396,
    "smoke": 17224,
    "Ġpossible": 2585,
    "savagery": 25028,
    "Ġplaguy": 22611,
    "Ġif": 697,
    "anned": 17841,
    "mockery": 24377,
    "prom": 6509,
    "context": 3405,
    "Ġfollowing": 4061,
    "Ġedd": 8399,
    "Ġinexpressible": 17335,
    "Ġhogshead": 26369,
    "Ġperformed": 8548,
    "happiest": 19334,
    "Ġpassions": 7931,
    "tenderly": 20534,
    "con": 653,
    "Ġchatting": 24746,
    "Ġillustration": 19137,
    "Ġbriskly": 25312,
    "Ġstalk": 12701,
    "ad": 337,
    "Ġclerical": 25569,
    "Ġvag": 9710,
    "mped": 16649,
    "Ġgirls": 4279,
    "Ġ200": 19297,
    "Ġforbidding": 17079,
    "eat": 11484,
    "spe": 3560,
    "ulled": 14058,
    "Ġwollstonecraft": 26426,
    "suitable": 18633,
    "Ġanchors": 12617,
    "ferent": 4194,
    "Ġreceives": 20357,
    "Ġdimly": 9490,
    "Ġmade": 1049,
    "Ġderivatives": 2372,
    "Ġpaling": 21466,
    "Ġobstinate": 11337,
    "Ġbi": 921,
    "considering": 12178,
    "Ġwritten": 4167,
    "Ġfetched": 24567,
    "Ġpow": 4637,
    "taste": 10131,
    "Ġwhosoever": 21723,
    "hint": 12479,
    "Ġdoctrine": 24199,
    "Ġhindrance": 25221,
    "Ġsays": 3561,
    "Ġtwinkle": 12326,
    "arth": 4444,
    "Ġdiffusion": 23785,
    "Ġtur": 2564,
    "Ġabridged": 26541,
    "quietly": 10594,
    "Ġ$": 21153,
    "Ġgeological": 14534,
    "perpetually": 20516,
    "Ġskill": 6871,
    "Ġdocuments": 10025,
    "histor": 13494,
    "Ġdesires": 9459,
    "icious": 7379,
    "Ġfathom": 17048,
    "Ġdiabolically": 25514,
    "Ġpoetical": 25059,
    "Ġsweatings": 25709,
    "Ġalso": 1343,
    "armon": 23063,
    "asets": 2312,
    "Ġvulgar": 13607,
    "Ġjam": 10952,
    "Ġcloset": 19594,
    "inions": 8404,
    "Ġdeclared": 5594,
    "Ġcompacted": 23510,
    "Ġskylarking": 19490,
    "mel": 9129,
    "Ġradiance": 13374,
    "Ġbulge": 23860,
    "ruding": 9726,
    "Ġoptim": 782,
    "Ġperplexed": 23660,
    "Ġterrify": 19364,
    "Ġstatue": 23151,
    "Ġburn": 3682,
    "Ġtrappings": 23087,
    "Ġimprecations": 25821,
    "Ġappeal": 16317,
    "charm": 13992,
    "buoy": 7761,
    "raised": 15682,
    "family": 7323,
    "Ġjug": 12839,
    "Ġaffectionately": 13171,
    "Ġnarrowly": 16821,
    "supervised": 1927,
    "Ġfronts": 19003,
    "terrible": 8467,
    "lude": 6162,
    "Ġvideos": 13609,
    "```": 25894,
    "Ġrifle": 18213,
    "Ġflorida": 20661,
    "msman": 9272,
    "Ġschool": 5512,
    "Ġknighthood": 25298,
    "Ġoun": 13865,
    "highly": 24763,
    "Ġtorments": 13397,
    "becoming": 18520,
    "customary": 25896,
    "rings": 10723,
    "Ġdeposit": 17270,
    "iates": 13739,
    "Ġangle": 8606,
    "here": 2549,
    "Ġbeheaded": 11658,
    "estation": 15922,
    "Ġthemselves": 3253,
    "Ġtapers": 11553,
    "Ġtypically": 1534,
    "Ġhessian": 3548,
    "°": 113,
    "gunwale": 20665,
    "Ġinvestigated": 25387,
    "Ġenlarged": 25986,
    "east": 9117,
    "Ġadmirers": 19689,
    "Ġcoding": 8117,
    "Ġdrunkard": 20180,
    "Ġeternity": 12282,
    "Ġremembering": 14611,
    "augment": 18830,
    "Ġbit": 2964,
    "Ġclustered": 25234,
    "Ġneeds": 6606,
    "insufferable": 21195,
    "telling": 14442,
    "Ġdrag": 6185,
    "mock": 5174,
    "Ġcrushed": 9425,
    "Ġgrate": 12968,
    "agement": 4188,
    "ential": 827,
    "ager": 6547,
    "neighboring": 20620,
    "Ġpostpone": 17309,
    "Ġintellig": 525,
    "architect": 22895,
    "Ġlucerne": 23867,
    "flinging": 20870,
    "eous": 13714,
    "ean": 20842,
    "Ġbudge": 15167,
    "Ġsocieties": 20185,
    "onds": 12998,
    "Ġxlvi": 25591,
    "Ġcompelled": 14270,
    "N": 50,
    "Ġmes": 17798,
    "ancies": 11586,
    "Ġeyed": 12671,
    "ativeness": 15523,
    "opard": 9293,
    "Ġtechn": 9368,
    "Ġhot": 4257,
    "Ġsuperb": 16444,
    "Ġpresume": 8039,
    "Ġcompare": 9304,
    "Ġrefusing": 11026,
    "½": 126,
    "itting": 1151,
    "moil": 22707,
    "read": 3277,
    "eminently": 25108,
    "Ġdown": 831,
    "Ġadmin": 23556,
    "Ġcoiled": 11823,
    "Ġgroups": 3718,
    "derbyshire": 18322,
    "oriously": 17876,
    "Ġcrabs": 19176,
    "mutually": 26137,
    "in": 262,
    "ds": 4687,
    "Ġgrecian": 26297,
    "Ġsugg": 4500,
    "Ġmagnifying": 16324,
    "Ġhunted": 7452,
    "suffered": 24329,
    "Ġadventure": 5982,
    "ptember": 10894,
    "Ġdisagreeable": 9300,
    "carpenter": 11428,
    "onist": 21253,
    "Ġ116": 24439,
    "eddling": 11904,
    "Ġoil": 3374,
    "castle": 3351,
    "Ġpersever": 10005,
    "bed": 3491,
    "Ġlo": 452,
    ")âĢĶâĢľ": 20745,
    "neys": 23584,
    "Ġcont": 618,
    "Ġethere": 23954,
    "hr": 20890,
    "Ġbubbles": 11399,
    "thought": 3846,
    "Ġimpressions": 9555,
    "wreck": 21139,
    "writing": 7721,
    "confirmed": 19643,
    "Ġranged": 10259,
    "Ġai": 3127,
    "Ġunnearable": 26517,
    "omn": 15685,
    "ried": 927,
    "tranqu": 14708,
    "bedstead": 23935,
    "court": 7510,
    "Ġmccarthys": 19665,
    "Ġscraping": 13419,
    "Ġunprincipled": 20710,
    "Ġbutler": 18271,
    "Ġowe": 8116,
    "Ġheaviest": 23328,
    "magnetic": 20555,
    "Ġstudy": 1737,
    "mal": 6794,
    "Ġjoint": 12037,
    "Ġpassed": 2011,
    "Ġpigs": 19750,
    "Ġfantastic": 10061,
    "icher": 9204,
    "fain": 13717,
    "Ġcleaning": 23184,
    "Ġwithin": 2163,
    "Ġnecessitated": 23932,
    "Ġannihilated": 20255,
    "Ġconstruct": 23345,
    "supers": 22644,
    "Ġscript": 18399,
    "Ġexpert": 18872,
    "snapping": 24850,
    "Ġsuperstitions": 17072,
    "Ġrigging": 5600,
    "wandering": 20287,
    "Ġpredestinated": 18517,
    "waistcoat": 17363,
    "Ġblowing": 10486,
    "Ġcurb": 16237,
    "compl": 6872,
    "Ġfac": 6381,
    "Ġminuteness": 19140,
    "Ġoutwardly": 25003,
    "physiogn": 26266,
    "upper": 11540,
    "fa": 7335,
    "Ġpiqu": 21481,
    "Ġcord": 5222,
    "ousand": 2430,
    "Ġaunt": 3179,
    "Ġradiant": 16810,
    "Ġparliament": 18303,
    "appearing": 14638,
    "Ġimpo": 3441,
    "Ġrudimental": 25111,
    "Ġmaze": 23834,
    "deprived": 19900,
    "Ġhoof": 23357,
    "Ġinspiring": 19114,
    "ribes": 23370,
    "ĸ": 249,
    "Ġdaintiest": 25954,
    "Ġencounter": 6629,
    "Ġjudged": 12087,
    "Ġ6": 5141,
    "Ġreverence": 12062,
    "Ġparticle": 18672,
    "Ġlarger": 1403,
    "Ġprospect": 4706,
    "property": 20003,
    "Ġenglishmen": 19433,
    "irable": 5776,
    "hers": 7635,
    "Ġcontracted": 12864,
    "independ": 15984,
    "Ġsires": 21229,
    "gue": 12471,
    "zy": 2668,
    "Ġcigars": 12256,
    "ates": 519,
    "ul": 371,
    "Ġgroping": 13668,
    "owe": 15711,
    "Ġcalmness": 12097,
    "Ġguardsmen": 20633,
    "Ġawaited": 17074,
    "consciously": 19628,
    "Ġfounded": 8560,
    "artificial": 997,
    "bon": 13687,
    "Ġstochastic": 3267,
    "Ġumbrell": 13653,
    "line": 1442,
    "trees": 10732,
    "thank": 4950,
    "Ġmomentary": 11037,
    "Ġupbraiding": 26228,
    "Ġrouse": 15825,
    "paper": 9138,
    "iastic": 12483,
    "Ġcountenances": 11968,
    "Ġacqu": 1417,
    "reflect": 19867,
    "Ġcustomary": 8673,
    "Ġpsalmody": 20588,
    "Ġprovidence": 18747,
    "hee": 10761,
    "ĠĠĠĠĠĠ": 6414,
    "Ġcontributed": 16012,
    ".âĢĶ": 4248,
    "apolog": 22337,
    "Ġrhyme": 21986,
    "Ġcontinue": 5398,
    "iable": 3336,
    "jets": 20930,
    "Ġagreeable": 4552,
    "Ġopp": 2694,
    "under": 3132,
    "her": 488,
    "Ġheadsmen": 14734,
    "blades": 24131,
    "Ġapproaching": 6284,
    "Ġjoin": 4855,
    "Ġflavor": 16255,
    "assisted": 22312,
    "fal": 17537,
    "Ġsplend": 9900,
    "Ġinevitably": 17232,
    "Ġcoronation": 13337,
    "Ġsecondly": 14519,
    "velling": 14764,
    "Ġbaronial": 23796,
    "Ġdelay": 5748,
    "ĠĠĠĠĠĠĠĠĠĠĠĠĠĠĠĠĠĠĠĠĠĠĠĠĠĠĠĠĠĠĠĠĠĠĠĠĠĠĠĠĠĠĠĠ": 12157,
    "Ġhappening": 14385,
    "ily": 1032,
    "Ġwarehouse": 20420,
    "----": 4056,
    "killer": 20479,
    "Ġstudying": 9845,
    "locks": 14458,
    "fourths": 25510,
    "ailing": 7022,
    "etymology": 14703,
    "Ġascended": 8669,
    "scure": 22992,
    "lifted": 15389,
    "swam": 24256,
    "Ġignorantly": 19498,
    "caused": 25520,
    "nar": 12497,
    "Ġpresc": 15928,
    "Ġdrifted": 14626,
    "Ġloaf": 15875,
    "preading": 18496,
    "desol": 13221,
    "Ġante": 17898,
    "inu": 1117,
    "Ġconstantinople": 19840,
    "Ġnois": 4267,
    "Ġimpertin": 6932,
    "pshire": 21026,
    "Ġkuiperai": 10936,
    "pronounced": 12349,
    "Ġrods": 9755,
    "Ġconcernment": 23624,
    "streamed": 25967,
    "Ġrussian": 14352,
    "Ġdetestation": 17129,
    "ep": 443,
    "Ġskip": 1845,
    "Æ": 135,
    "Ġtoday": 12647,
    "Ġyoung": 1504,
    "illings": 14144,
    "objection": 19917,
    "ogany": 18676,
    "Ġ32": 19492,
    "Ġrepeat": 8001,
    "Ġthousands": 6749,
    "or": 282,
    "acific": 4960,
    "E": 41,
    "Ġkidnapping": 26358,
    "Ġtold": 2184,
    "Ġclasp": 9746,
    "Ġdisgraceful": 15021,
    "Ġplucked": 15116,
    "Ġfinished": 5044,
    "dangerous": 20243,
    "Ġsoothed": 10031,
    "alone": 10185,
    "Ġhowled": 12860,
    "Ġ184": 16608,
    "Ġdwelt": 12609,
    "Ġlearn": 365,
    "Ġestablish": 9545,
    "itious": 8783,
    "scra": 13026,
    "Ġneurons": 977,
    "furniture": 20245,
    "phere": 21021,
    "sledge": 21060,
    "Ġuncont": 14118,
    "umbs": 14691,
    "Ġguilty": 7249,
    "Ġoaks": 16934,
    "Ġprivileges": 25135,
    "blacksmith": 17002,
    "Ġsilken": 16384,
    "Ġmourn": 8707,
    "Ġsqualid": 14371,
    "ulated": 6031,
    "fishery": 10034,
    "Ġpool": 5173,
    "\"],": 26121,
    "Ġdevoid": 18689,
    "Ġhomely": 25220,
    "okers": 18443,
    "conceal": 25117,
    "Ġtrif": 6270,
    "friendly": 13288,
    "ulates": 14057,
    "stooped": 23825,
    "Ġsensational": 16394,
    "alleled": 14431,
    "Ġflo": 2589,
    "Ġfriendly": 9822,
    "Ġpicture": 4858,
    "Ġposs": 1619,
    "Ġnoses": 18374,
    "Ġtooth": 9194,
    "subsided": 25832,
    "Ġwrig": 13072,
    "Ġmus": 3397,
    "Ġimpotent": 18448,
    "seemingly": 25363,
    "fairly": 17221,
    "superst": 11326,
    "Ġinfernal": 11964,
    "Ġexert": 5722,
    "Ġdiminish": 14747,
    "Ġmanufact": 22333,
    "Ġfashion": 4297,
    "Ġmachine": 787,
    "Ġgr": 978,
    "Ġnerves": 2627,
    "leaped": 17845,
    "Ġimprudence": 10299,
    "ascended": 24705,
    "Ġcomputers": 2644,
    "Ġbattalions": 25777,
    "Ġracket": 22654,
    "Ġheightens": 24155,
    "Ġsong": 5904,
    "Ġmight": 963,
    "ille": 9221,
    "strange": 6087,
    "pon": 17626,
    "future": 13719,
    "Ġcommod": 10335,
    "reputable": 15519,
    "considered": 9582,
    "ullied": 23109,
    "Ġapproved": 16036,
    "distinctive": 25726,
    "Ġsixth": 16561,
    "Ġservants": 6611,
    "seem": 10229,
    "cannot": 5745,
    "Ġcontrad": 9757,
    "Ġexponentially": 1445,
    "Ġbo": 797,
    "Ġsweet": 3466,
    "orrowed": 19291,
    "Ġswart": 14436,
    "Ġglass": 4370,
    "Ġanom": 12615,
    "Ġund": 4117,
    "Ġbrightened": 23832,
    "Ġcities": 17829,
    "Ġpatient": 6893,
    "Ġfrosts": 19805,
    "Ġfollows": 7673,
    "sleet": 20152,
    "Ġresent": 6050,
    "Ġsnail": 19302,
    "Ġreference": 2565,
    "Ġgesture": 11400,
    "Ġcorrid": 9826,
    "Ġaccounted": 10296,
    "Ġcross": 1372,
    "Ġapartment": 6635,
    "Ġabominable": 12325,
    "Ġdeliver": 9852,
    "phur": 16153,
    "Ġpastures": 23423,
    "Ġwhispered": 5338,
    "Ġcontortions": 18477,
    "Ġanchored": 17442,
    "Ġportcullis": 26604,
    "roads": 17960,
    "Ġrid": 4355,
    "Ġsenate": 25215,
    "Ġstigma": 25792,
    "Ġclassification": 1092,
    "Ġauthor": 4376,
    "Ġmurderer": 4980,
    "Ġplacing": 8903,
    "Ġexactness": 23606,
    "Ġ25": 13195,
    "requiem": 24857,
    "Ġcombat": 16188,
    "Ġcurbstone": 26044,
    "Ġpermanently": 25474,
    "Ġcommissioned": 19897,
    "xt": 2080,
    "Ġrheum": 18215,
    "Ġcivilly": 19606,
    "bony": 15322,
    "Ġhorner": 8960,
    "Ġswells": 9829,
    "Ġreplay": 5047,
    "Ġcy": 13876,
    "Ġpicturesque": 14896,
    "Ġdepress": 14048,
    "forbid": 14356,
    "Ġbeautiful": 3671,
    "Ġlegs": 4917,
    "Ġusurpation": 18362,
    "mar": 4336,
    "bel": 3832,
    "Ġdisappeared": 5645,
    "treat": 12517,
    "asily": 13948,
    "Ġbeating": 8146,
    "appointment": 24062,
    "knowing": 10438,
    "Ġunlock": 18244,
    "oology": 21008,
    "zening": 21151,
    "purse": 20028,
    "changing": 10855,
    "ctive": 11625,
    "Ġchin": 4892,
    "Ġbead": 21755,
    "pious": 17634,
    "Ġbund": 17865,
    "Ġwrought": 11947,
    "swim": 16780,
    "months": 9073,
    "thrill": 25657,
    "Ġforts": 21777,
    "Ġoutlaws": 22328,
    "bergs": 18684,
    "Ġlands": 6595,
    "Ġaff": 1118,
    "Ġsympathy": 6347,
    "Ġfilled": 4396,
    "ensed": 10997,
    "Ġfootpath": 19340,
    "Ġspurned": 12801,
    "entropy": 1440,
    "akness": 14196,
    "famous": 16917,
    "warning": 25532,
    "semicirc": 26492,
    "Ġhurry": 4914,
    "vid": 917,
    "state": 13981,
    "Ġfate": 4754,
    "Ġsuspend": 14609,
    "Ġincessantly": 11412,
    "Ġshrink": 14805,
    "į": 240,
    "genteel": 19952,
    "Ġsmoke": 4716,
    "umblings": 23897,
    "Ġbroken": 3447,
    "pagan": 17287,
    "lled": 10109,
    "Ġlatitude": 8330,
    "Ġcapacious": 19178,
    "Ġrout": 7401,
    "Ġ109": 24415,
    "lin": 9605,
    "abriel": 6949,
    "Ġuns": 15839,
    "Ġsubdued": 11031,
    "iting": 2156,
    "Ġprey": 6415,
    "fact": 6359,
    "fearing": 18531,
    "ose": 716,
    "Ġentry": 11028,
    "Ġprick": 14480,
    "Ġvia": 2383,
    "_âĢĶâĢĻâĢĿ": 25742,
    "Ġchase": 3944,
    "Ġblasphe": 17409,
    "Ġdebated": 9042,
    "Ġcarbuncle": 14447,
    "Ġbackwards": 12929,
    "delirious": 19508,
    "Ġlabyrinth": 13682,
    "Ġcit": 10784,
    "Ġcomplete": 4383,
    "Ġnailing": 21531,
    "Ġadversity": 24304,
    "fore": 686,
    "wide": 10139,
    "anth": 13889,
    "Ġscreamed": 9526,
    "Ġdispirited": 23885,
    "Ġeasiness": 23540,
    "Ġcomposition": 1691,
    "Ġpiece": 5367,
    "Ġaloud": 6253,
    "Ġimpetuous": 25571,
    "Ġrusty": 14966,
    "Ġmere": 2711,
    "Ġconfounded": 16386,
    "Ġcirclings": 26432,
    "ntax": 934,
    "Ġtouching": 4680,
    "faith": 15026,
    "Ġstumped": 24945,
    "meet": 11859,
    "admon": 21765,
    "Ġthundering": 24292,
    "Ġconscientious": 16728,
    "Ġmeridians": 17357,
    "belief": 13285,
    "Ġdecapitated": 20619,
    "Ġvivacious": 19818,
    "Ġident": 2241,
    "except": 5383,
    "Ġdischarged": 15223,
    "parlour": 16389,
    "olen": 9702,
    "Ġpupella": 20425,
    "skin": 10570,
    "Ġencompassed": 15256,
    "toss": 22572,
    "usually": 10287,
    "Ġencoura": 1365,
    "foundation": 16716,
    "Ġhut": 15622,
    "Ġconf": 1818,
    "Ġsurviving": 24638,
    "rolling": 9062,
    "more": 1033,
    "Ġsaved": 6691,
    "repeated": 12342,
    "ĠĠĠĠĠĠĠĠĠĠ": 18579,
    "Ġled": 3522,
    "ists": 3998,
    "discover": 10541,
    "Ġscre": 9739,
    "Ġorgies": 18286,
    "Ġpa": 2990,
    "Ġgown": 10203,
    "phenomenon": 17649,
    "Ġtreading": 16505,
    "dor": 12455,
    "spouting": 25005,
    "anyone": 16594,
    "ì": 173,
    "Ġdoctor": 5067,
    "Ġadult": 18290,
    "allions": 22203,
    "Ġhor": 1662,
    "Ġdemi": 25549,
    "Ġsocietal": 11437,
    "Ġalternative": 19990,
    "Ġsciences": 15947,
    "ogr": 18674,
    "harbor": 13567,
    "54": 15302,
    "chet": 13220,
    "Ġentitled": 8541,
    "dev": 7632,
    "Ġemboldened": 22971,
    "shot": 2179,
    "geneva": 13732,
    "orative": 21401,
    "Ġalchemists": 26488,
    "Ġaccumulating": 2720,
    "Ġsne": 6372,
    "Ġtestified": 16319,
    "Ġabhorrence": 9054,
    "Ġwhaleman": 4654,
    "Ġcounty": 9032,
    "Ġperu": 14224,
    "humoured": 11237,
    "nigh": 13765,
    "Ġrestrict": 16379,
    "Ġind": 1221,
    "sin": 21051,
    "Ġloomings": 24952,
    "listener": 24931,
    "Ġassaulted": 25321,
    "Ġvane": 22878,
    "limin": 8385,
    "balls": 12308,
    "eded": 9675,
    "Ġtreasure": 9560,
    "Ġunav": 18241,
    "Ġwow": 15531,
    "Ġosc": 2833,
    "erred": 6376,
    "Ġsloop": 25931,
    "batross": 9095,
    "Ġfurnace": 19443,
    "Ġusing": 718,
    "ario": 14249,
    "Ġmuttering": 10501,
    "Ġspikes": 22141,
    "Ġboarding": 12090,
    "watching": 16931,
    "Ġjove": 9270,
    "Ġmrs": 1466,
    "ļ": 253,
    "ethics": 8881,
    "Ġnation": 12651,
    "Ġchry": 22251,
    "Ġtransparent": 9491,
    "Ġrepairing": 25590,
    "Ġperpendicular": 7208,
    "Ġhill": 5626,
    "Ġperform": 1037,
    "Ġcompanionship": 14922,
    "ky": 4520,
    "Ġinconsiderable": 21499,
    "despair": 8345,
    "arks": 2843,
    "Ġonset": 12714,
    "tumult": 12426,
    "ood": 962,
    "phantoms": 24680,
    "Ġ111": 24435,
    "Ġmournful": 12339,
    "holes": 12057,
    "Ġthose": 1173,
    "Ġincludes": 2012,
    "owing": 7601,
    "news": 23136,
    "gam": 10097,
    "Ġaccounting": 14574,
    "hardly": 6491,
    "oarsman": 25262,
    "overed": 2852,
    "Ġbrides": 22870,
    "enormous": 26167,
    "Ġjoking": 12841,
    "ourable": 4967,
    "Ġobjections": 8567,
    "Ġhatchways": 24992,
    "Ġmud": 11575,
    "Ġnatives": 17953,
    "Ġsculpt": 15949,
    "Ġcapable": 5054,
    "Ġskipper": 22802,
    "Ġfleshy": 24616,
    "Ġunrestrained": 25555,
    "Ġorange": 8488,
    "nowadays": 22342,
    "Ġsearching": 13165,
    "pal": 9618,
    "Ġloads": 22119,
    "Ġimbib": 22180,
    "Ġrepulses": 26071,
    "yn": 7820,
    "Ġda": 5150,
    "Ġabandon": 12261,
    "Ġmeets": 7395,
    "Ġremonstr": 16164,
    "Ġinitialization": 1255,
    "Ġearth": 2848,
    "called": 6293,
    "Ġorb": 22096,
    "oak": 21005,
    "infer": 10146,
    "Ġcontemplated": 13467,
    "Ġbenevolence": 9529,
    "collect": 16565,
    "Ġdumplings": 15193,
    "scissors": 20729,
    "Ġdisadvantages": 18559,
    "clouded": 20334,
    "Ġbones": 4583,
    "Ġeternities": 19946,
    "rights": 23677,
    "belated": 24040,
    "Ġclothe": 4712,
    "missed": 11210,
    "government": 25407,
    "Ġarchitect": 979,
    "Ġapproving": 18508,
    "Ġvertically": 19383,
    "þ": 191,
    "Ġinfluenced": 19635,
    "weekly": 25685,
    "shri": 14236,
    "sle": 9140,
    "hung": 8382,
    "Ġplaything": 19240,
    "Ġsuggestive": 11298,
    "Ġrevolve": 19732,
    "Â·": 21152,
    "Ġsafer": 22175,
    "Ġsympathies": 14863,
    "solution": 14687,
    "Ġtwitched": 20447,
    "Ġhopelessly": 16381,
    "Ġdrenched": 12607,
    "Ġpriests": 15042,
    "ixed": 4853,
    "consideration": 14957,
    "Ġlevi": 3035,
    "tap": 17677,
    "Ġdecap": 16022,
    "cooee": 12421,
    "Ġtechniques": 2866,
    "elephant": 12354,
    "off": 1888,
    "Ġdocumentation": 20557,
    "Ġdeliberate": 15024,
    "miseries": 16758,
    "Ġhoneymoon": 25646,
    "ĠĠĠĠĠĠĠĠ": 711,
    "Ġbone": 4695,
    "Ġextravag": 11254,
    "alogue": 25163,
    "Ġnatur": 17336,
    "Ġelegant": 7531,
    "Ġbidirectional": 3753,
    "itying": 21999,
    "Ġmottled": 20681,
    "Ġseer": 21957,
    "Ġperceiving": 8878,
    "urmount": 13998,
    "Ġdesc": 764,
    "Ġcongratulations": 10582,
    "hum": 3776,
    "Ġder": 1496,
    "Ġregiment": 6432,
    "Ġensl": 19276,
    "Ġexterior": 19991,
    "smo": 10127,
    "Ġsynd": 22211,
    "perquisites": 26532,
    "apprehens": 17408,
    "atch": 674,
    "ission": 6457,
    "Ġgrapnels": 25552,
    "iverse": 13119,
    "sprinkling": 24913,
    "os": 526,
    "Ġ132": 19898,
    "wick": 5363,
    "Ġthunder": 4825,
    "brown": 15320,
    "Ġglowed": 24865,
    "nikin": 23223,
    "ologically": 22888,
    "wouldn": 23539,
    "Ġlanterns": 24577,
    "Ġejaculation": 20257,
    "Ġspire": 18307,
    "Ġherself": 1569,
    "angling": 14142,
    "Ġskills": 1838,
    "although": 8809,
    "fifth": 20149,
    "]]": 5205,
    "Ġturtles": 19223,
    "Ġunfathomable": 20551,
    "Ġvicious": 24402,
    "Ġdelight": 2548,
    "Ġpills": 21470,
    "Ġimputable": 22178,
    "pict": 8387,
    "Ġjewels": 12372,
    "Ġrecourse": 22744,
    "lascar": 20962,
    "Ġrecalled": 8539,
    "sight": 5996,
    "unction": 10236,
    "dist": 4481,
    "Ġsa": 474,
    "Ġabundantly": 17158,
    "ĠĠĠĠĠĠĠĠĠĠĠĠĠĠĠĠĠĠĠĠĠĠĠĠĠĠ": 13391,
    "dawson": 26129,
    "Ġbraw": 23838,
    "Ġextort": 22719,
    "Ġdragging": 14478,
    "ition": 649,
    "Ġpinioned": 21487,
    "Ġchemical": 10411,
    "acid": 10995,
    "Ġoriginated": 24123,
    "umbling": 6612,
    "Ġfarthing": 14456,
    "bore": 13689,
    "Ġluxuries": 25167,
    "skinned": 25388,
    "Ġboy": 3021,
    "Ġlife": 1352,
    "remained": 8572,
    "Ġdata": 515,
    "Ġwast": 21865,
    "dut": 10089,
    "bounded": 13442,
    "header": 11936,
    "Ġcheetah": 14503,
    "Ġpages": 15611,
    "Ġfamiliarity": 16730,
    "Ġstudded": 18962,
    "Ġdogs": 7742,
    "Ġconsumm": 15157,
    "Ġmarvel": 23039,
    "Ġsafie": 6619,
    "Ġsam": 7568,
    "Ġshortness": 23483,
    "assed": 6421,
    "murderers": 25728,
    "Ġscrupulous": 20072,
    "Ġexplore": 15911,
    "Ġpostponed": 20393,
    "Ġscreening": 25301,
    "ohnson": 16329,
    "Ġ113": 19699,
    "Ġbas": 6380,
    "T": 56,
    "Ġobsole": 22702,
    "Ġfumbling": 21421,
    "Ġflies": 13029,
    "bolt": 25138,
    "Ġ81": 24456,
    "ortment": 22262,
    "Ġagonising": 25374,
    "turkish": 24532,
    "Ġlights": 8962,
    "Ġdebts": 8037,
    "carp": 9112,
    "Ġfleeting": 19329,
    "amore": 21854,
    "Ġchewed": 16372,
    "seeking": 17154,
    "gorge": 22343,
    "Ġ103": 24410,
    "Ġdevices": 2941,
    "Ġdying": 2133,
    "asingly": 17963,
    "veil": 18048,
    "Ġgrown": 5628,
    "Ġpaddock": 25040,
    "somerset": 26324,
    "Ġdeception": 18142,
    "Ġadded": 2714,
    "Ġass": 1502,
    "Ġtattooing": 15029,
    "Ġleaf": 15726,
    "Ġobviously": 16811,
    "scot": 14420,
    "Ġdepressions": 25799,
    "drew": 7333,
    "strade": 5065,
    "Ġbordered": 24563,
    "Ġundulated": 19519,
    "won": 8396,
    "Ġnoting": 18222,
    "Ġwilling": 7420,
    "Ġoutdone": 22323,
    "zek": 16259,
    "crier": 20822,
    "Ġyawning": 12303,
    "Ġindignity": 18835,
    "Ġlog": 1678,
    "Ġpretext": 22234,
    "Ġmeditation": 16706,
    "Ġinquir": 4242,
    "ofs": 11833,
    "Ġcarriages": 11099,
    "far": 5787,
    "Ġpeaked": 2297,
    "Ġhampshire": 15245,
    "sudden": 5316,
    "upp": 10132,
    "descending": 16287,
    "niest": 18970,
    "access": 11181,
    "cellar": 20280,
    "Ġabased": 22273,
    "Ġtheirs": 7025,
    "Ġmantel": 11440,
    "ubines": 22963,
    "Ġunprinciple": 18255,
    "Ġear": 1422,
    "Ġbeds": 14553,
    "Ġmogul": 12866,
    "Ġspades": 12800,
    "the": 334,
    "Ġcargo": 16292,
    "Ġusage": 9733,
    "Ġcounters": 24141,
    "Ġtempt": 5564,
    "Ġjapanese": 10634,
    "Ġpromptly": 23821,
    "Ġshamefully": 24715,
    "Ġcleared": 6076,
    "Ġalexander": 17426,
    "Ġshipmates": 6721,
    "cooks": 25070,
    "irresistible": 18176,
    "Ġenthusiasm": 8066,
    "Ġenl": 18190,
    "Ġsacrific": 15019,
    "Ġspaulding": 11734,
    "islands": 21379,
    "ifford": 15787,
    "Ġwont": 9854,
    "Ġrefreshed": 15293,
    "Ġparticular": 2450,
    "garious": 17559,
    "lovel": 22515,
    "Ġcad": 12572,
    "Ġunderstood": 5655,
    "Ġtrains": 10948,
    "Ġellenborough": 26155,
    "philips": 20038,
    "ry": 808,
    "Ġphiladelphia": 26605,
    "Ġfurthest": 22820,
    "Ġinferior": 8367,
    "lection": 3652,
    "Ġimmedi": 2902,
    "force": 12965,
    "Ġstraightened": 12112,
    "spite": 16140,
    "Ġrange": 9714,
    "discharging": 26306,
    "Ġequally": 5258,
    "Ġgermans": 25785,
    "Ġprecious": 5760,
    "rested": 13078,
    "Ġfew": 1213,
    "rowsers": 8698,
    "Ġvisibly": 22856,
    "Ġprofanely": 23572,
    "Ġuser": 15919,
    "Ġforswe": 21779,
    "Ġtemples": 18646,
    "Ġstirring": 10581,
    "dread": 8732,
    "glorious": 19370,
    "iah": 14419,
    "Ġsteer": 10388,
    "Ġrefers": 1568,
    "Ġprimitive": 25064,
    "doubt": 6782,
    "Ġbats": 13902,
    "Ġconnect": 798,
    "Ġschools": 9479,
    "Ġfolded": 7768,
    "Ġhinges": 15215,
    "inconsiderable": 21194,
    "Ġdominic": 25381,
    "Ġarticulate": 24431,
    "quest": 4538,
    "Ġmuff": 8115,
    "Ġtant": 12529,
    "Ġraised": 4660,
    "Ġrevealed": 6752,
    "eding": 7165,
    "ortal": 6266,
    "pardon": 10067,
    "Ġagain": 817,
    "Ġcable": 11582,
    "seaman": 25458,
    "Ġredeem": 20503,
    "Ġfelicity": 7259,
    "Ġheadsman": 13278,
    "Ġstriding": 16096,
    "asmuch": 10196,
    "Ġinland": 11610,
    "gar": 5614,
    "ccarthy": 4889,
    "tri": 11531,
    "Ġimputation": 22177,
    "rians": 21935,
    "daw": 17523,
    "Ġgrove": 12150,
    "Ġmonster": 3791,
    "Ġconvergence": 974,
    "gh": 3798,
    "Ġadvised": 16217,
    "Ġhogshe": 20495,
    "unning": 4494,
    "atmospheric": 17777,
    "Ġporus": 24397,
    "Ġsuit": 5725,
    "impe": 21712,
    "Ġhealed": 21687,
    "writes": 4988,
    "resolution": 17767,
    "Ġgild": 15672,
    "borough": 20787,
    "Ġsilence": 3269,
    "try": 7813,
    "Ġsalad": 19482,
    "Ġimitate": 14159,
    "Ġens": 2786,
    "Ġaugmentation": 20119,
    "trained": 4239,
    "amongst": 24673,
    "Ġoscillations": 2896,
    "Ġdesigned": 7741,
    "fabulous": 20477,
    "clo": 5612,
    "windlass": 16722,
    "Ġspeakest": 23487,
    "Ġnoon": 6560,
    "ellative": 21950,
    "sense": 11525,
    "Ġattorney": 18627,
    "Ġenjoy": 3758,
    "Ġcomprehensive": 15090,
    "Ġmanifold": 13563,
    "shall": 4550,
    "forward": 2186,
    "Ġunpitying": 25661,
    "Ġ117": 19700,
    "Ġrick": 21978,
    "obliged": 20634,
    "rudence": 7093,
    "Ġclearer": 16315,
    "Ġconfidential": 9090,
    "Ġdistinct": 4609,
    "Ġconceive": 8463,
    "Ġprairies": 20024,
    "Ġguido": 2977,
    "ence": 393,
    "Ġdisobedience": 22540,
    "Ġportentous": 15232,
    "wards": 1277,
    "Ġdiff": 3115,
    "Ġeconomy": 17202,
    "Ġdart": 4585,
    "til": 17672,
    "lan": 15380,
    "Ġpraises": 16731,
    "Ġenhance": 2979,
    "rom": 420,
    "farmer": 25900,
    "Ġuncomfortable": 8487,
    "Ġresume": 18566,
    "?": 35,
    "Ġdyspepsia": 20645,
    "ape": 1905,
    "Ġwager": 17794,
    "tremble": 17143,
    "semble": 1521,
    "Ġoblong": 14323,
    "farm": 15354,
    "joined": 13279,
    "Ġshrinking": 14806,
    "<PAD>": 0,
    "visual": 24224,
    "Ġsatir": 18795,
    "conspicuous": 26249,
    "ription": 5676,
    "Ġspile": 22132,
    "Ġbeau": 9226,
    "verd": 21732,
    "ics": 3258,
    "riptions": 14796,
    "offing": 23338,
    "arthly": 8031,
    "Ġbankers": 24303,
    "Ġmotion": 4566,
    "scorn": 22995,
    "Ġgriff": 22810,
    "Ġswear": 6461,
    "ý": 190,
    "provided": 13640,
    "Ġdeportment": 22601,
    "Í": 142,
    "ructed": 7030,
    "imod": 15713,
    "Ġfry": 17881,
    "Ġaccompan": 5513,
    "labour": 23918,
    "ggling": 19098,
    "sleeves": 26110,
    "Ġecho": 12670,
    "Ġpublicly": 13326,
    "Ġbloom": 9890,
    "Ġrivers": 9444,
    "Ġcanallers": 13630,
    "danced": 20830,
    "Ġarctic": 12814,
    "Ġtipt": 21176,
    "Ġundeceive": 25553,
    "Ġgradients": 611,
    "Ġpresuming": 16794,
    "Ġerroneous": 17411,
    "completed": 19997,
    "ection": 4948,
    "burnt": 20083,
    "Ġparametric": 2395,
    "lever": 2931,
    "Ġstep": 751,
    "abst": 21793,
    "youngest": 19746,
    "Ġtransaction": 22472,
    "ething": 1604,
    "deed": 1516,
    "Ġraven": 16115,
    "Ġtranquilly": 12293,
    "=": 33,
    "Ġunce": 11714,
    "Ġafford": 4366,
    "arpaul": 14537,
    "uger": 21106,
    "reserved": 13845,
    "tured": 13797,
    "Ġher": 426,
    "allied": 7409,
    "Ġmetropolitan": 17277,
    "Ġdisgusted": 14992,
    "Ġnib": 13942,
    "bec": 4051,
    "observing": 25495,
    "Ġdriving": 3617,
    "Ġjaws": 5592,
    "Ġmitt": 21310,
    "Ġsl": 1495,
    "Ġobliv": 16136,
    "Ġgriev": 16636,
    "Ġclimes": 12844,
    "Ġadorned": 15250,
    "âĢĶâĢľ": 2971,
    "uttering": 12666,
    "dis": 2251,
    "darcy": 5208,
    "Ġner": 1648,
    "Ġconsequent": 18113,
    "Ġfewer": 16227,
    "Ġbeacon": 21761,
    "Ġobservation": 6598,
    "gently": 13731,
    "pires": 13777,
    "Ġenvironment": 4032,
    "salesman": 20674,
    "Ġcomprise": 18585,
    "es": 288,
    "Ġwines": 21290,
    "Ġlets": 18079,
    "Ġparl": 8179,
    "lays": 14924,
    "lo": 681,
    "Ġevenings": 18755,
    "Ġbohemia": 10651,
    "lim": 9608,
    "Ġsnuffing": 25015,
    "Ġtrusty": 24105,
    "tall": 17674,
    "Ġsavor": 23878,
    "Ġdespised": 14668,
    "benefact": 24642,
    "output": 4403,
    "Ġappear": 2484,
    "Ġbending": 12589,
    "Ġcultured": 25158,
    "bantering": 25254,
    "asters": 8436,
    "Ġhumane": 11887,
    "Ġdelineate": 26058,
    "Ġmoulded": 16976,
    "howling": 18991,
    "untarily": 6313,
    "Ġcetace": 14990,
    "Ġsanguinary": 25930,
    "etical": 13960,
    "ibank": 6879,
    "Ġalbatross": 10872,
    "Ġshone": 7403,
    "sander": 11528,
    "Ġtoo": 1166,
    "prior": 21035,
    "Ġinasmuch": 10826,
    "Ġhoary": 23358,
    "professional": 20278,
    "itt": 571,
    "ber": 883,
    "eer": 15350,
    "Ġextensive": 12945,
    "auley": 22625,
    "ways": 1443,
    "Ġcomb": 1059,
    "Ġtalker": 23374,
    "Ġsiamese": 20486,
    "taught": 17685,
    "Ġimbec": 14158,
    "Ġdances": 10813,
    "Ġprovince": 24191,
    "Ġterrors": 6917,
    "sho": 6425,
    "Ġstag": 6149,
    "ills": 1632,
    "Ġuninhabited": 22054,
    "Ġrashness": 25461,
    "necess": 4897,
    "Ġuseless": 7038,
    "Ġway": 1088,
    "Ġcoil": 11821,
    "Ġpuzzle": 11306,
    "Ġrefined": 18696,
    "Ġstraw": 9431,
    "compassion": 12371,
    "Ġincomp": 12904,
    "Ġbriefly": 11368,
    "Ġleech": 24156,
    "Ġimproves": 22754,
    "Ġtelegram": 15226,
    "Ġstudious": 23216,
    "Ġvex": 5950,
    "mate": 5359,
    "wled": 15456,
    "diver": 20833,
    "ordinate": 12879,
    "Ġjanuary": 13656,
    "Ġmeasured": 9806,
    "Ġpondicherry": 20494,
    "Ġelab": 22646,
    "Ġwrap": 24596,
    "Ġmostly": 7664,
    "dig": 4930,
    "Ġconfine": 14509,
    "Ġabusive": 22278,
    "vulgar": 25919,
    "confined": 24327,
    "Ġdimin": 3868,
    "Ġcig": 6520,
    "Ġclassifies": 11841,
    "complained": 25840,
    "Ġvessels": 6756,
    "hammered": 19005,
    "Ġphiladel": 23888,
    "Ġbanished": 10618,
    "thar": 18218,
    "Ġbrewed": 23350,
    "ĠâĢĺ": 1634,
    "sought": 15429,
    "prophet": 16181,
    "alive": 10828,
    "actor": 11840,
    "thunder": 10264,
    ".]": 15301,
    "adding": 21766,
    "lowering": 16034,
    "he": 264,
    "tan": 4742,
    "Ġwedge": 24935,
    "Ġtornado": 24623,
    "Ġexe": 3992,
    "Ġdismissed": 12896,
    "away": 4625,
    "Ġterribly": 10426,
    "Ġmeditating": 20046,
    "Ġjustification": 22972,
    "Ġandrew": 21511,
    "Ġunwonted": 15009,
    "Ġob": 860,
    "Ġindolent": 13009,
    "iers": 5992,
    "Ġhandspike": 22700,
    "Ġescape": 2647,
    "inople": 13831,
    "Ġshoved": 23492,
    "rect": 1600,
    "Ġquill": 12861,
    "Ġsepulchral": 25893,
    "Ġreluct": 14374,
    "gates": 20874,
    "Ġfret": 10807,
    "desk": 23812,
    "Ġunallied": 22035,
    "400": 20757,
    "justice": 7959,
    "Ġaccosted": 13675,
    "hoisting": 23718,
    "coburg": 13601,
    "Ġbear": 3657,
    "Ġstair": 8457,
    "kicked": 20945,
    "athies": 22704,
    "Ġolive": 12569,
    "ounix": 14165,
    "Ġ156": 20173,
    "Ġactiv": 833,
    "Ġenduring": 16305,
    "urged": 18051,
    "resolutions": 26165,
    "Ġmout": 17800,
    "connected": 1309,
    "ashing": 4826,
    "Ġcritical": 7473,
    "Ġleaving": 3901,
    "Ġpreceding": 7527,
    "Ġperverseness": 13657,
    "Ġforemast": 12008,
    "lleg": 20953,
    "Ġbeats": 21757,
    "Ġlima": 10443,
    "Ġboun": 21383,
    "Ġatonement": 21947,
    "boy": 4738,
    "Ġremonstrance": 20626,
    "Ġweep": 7619,
    "laid": 10111,
    "Ġgratitude": 5598,
    "Ġcensured": 25097,
    "whatsoever": 18486,
    "Ġovers": 14206,
    "Ġunpleasant": 7190,
    "Ġashamed": 6403,
    "Ġproud": 5654,
    "roylott": 20030,
    "Ġfiver": 22776,
    "harpooned": 24287,
    "Ġmorning": 1749,
    "vour": 17700,
    "Ġkeepers": 23542,
    "Ġbravely": 23842,
    "Ġmaxim": 3085,
    "Ġindoors": 18838,
    "Ġsolitary": 5855,
    "Ġhumbly": 16200,
    "perai": 10278,
    "Ġvigil": 9509,
    "Ġcommotion": 9782,
    "Ġexceedingly": 4614,
    "Ġleaky": 2349,
    "Ġtrim": 15977,
    "Ġaffection": 2639,
    "Ġwallow": 19469,
    "landish": 11945,
    "Ġbelie": 14408,
    "Ġtuesday": 9628,
    "play": 5099,
    "oppressed": 24821,
    "Ġisles": 8461,
    "Ġatone": 15805,
    "cold": 9591,
    "ĠĠĠĠĠĠĠĠĠĠĠĠĠĠĠĠĠĠĠĠĠĠĠĠ": 5322,
    "Ġtrough": 15978,
    "Ġdraws": 19439,
    "ckets": 6842,
    "dignity": 15348,
    "ahit": 9384,
    "Ġsimul": 1807,
    "Ġplough": 18610,
    "icted": 5938,
    "audible": 17134,
    "Ġfile": 13905,
    "Ġamelia": 26253,
    "Ġliv": 6680,
    "Ġilleg": 21627,
    "hap": 17560,
    "Ġdisplay": 6428,
    "avating": 18608,
    "Ġrequesting": 24634,
    "Ġexult": 10231,
    "Ġmelbourne": 24290,
    "Ġwhaleboats": 18479,
    "Ġvillas": 24056,
    "ur": 326,
    "recogn": 13428,
    "reduc": 5459,
    "anous": 21362,
    "Ġobsequious": 17406,
    "Ġroyals": 19535,
    "Ġlimit": 10444,
    "including": 23592,
    "Ġentr": 14343,
    "Ġfasc": 12602,
    "Ġmichigan": 26427,
    "Ġsovere": 9258,
    "Ġcaresses": 26060,
    "ersed": 10261,
    "entreat": 17978,
    "nne": 20991,
    "Ġsuppression": 23004,
    "Ġceases": 19315,
    "Ġcool": 5735,
    "Ġslouched": 13063,
    "Ġobjects": 5577,
    "ultaneously": 4193,
    "hist": 7131,
    "Ġpuzz": 5532,
    "mast": 3601,
    "Ġdescended": 7427,
    "unting": 21879,
    "Ġintru": 15830,
    "Ġblemish": 19682,
    "Ġpark": 5465,
    ".)": 6783,
    "moment": 3578,
    "Ġfretfully": 25448,
    "Ġgrapp": 14103,
    "oice": 1383,
    "Ġundertake": 14481,
    "Ġanswerable": 23472,
    "cheered": 23808,
    "eps": 12794,
    "morland": 24154,
    "their": 2540,
    "Ġsepulch": 15287,
    "ective": 18177,
    "_)": 9104,
    "Ġprodigious": 8058,
    "Ġtemperature": 1004,
    "seized": 14037,
    "'(": 2980,
    "full": 7419,
    "clear": 9026,
    "Ġcomposure": 7216,
    "south": 8762,
    "Ġribbed": 16805,
    "glo": 8741,
    "inde": 17732,
    "inked": 12917,
    "Ġcomplexion": 8212,
    "Ġdespaired": 14670,
    "ĠâĢĶ_": 3457,
    "courageous": 26128,
    "Ġespecial": 26411,
    "ple": 455,
    "Ġprized": 23226,
    "investigations": 25534,
    "Ġtranquillity": 7535,
    "Ġaccelerating": 1621,
    "darker": 24512,
    "Ġstray": 18072,
    "Ġundergo": 23241,
    "Ġscot": 5643,
    "databases": 3023,
    "Ġbowls": 23773,
    "Ġmagical": 23103,
    "usiveness": 22298,
    "Ġalternating": 15032,
    "Ġcolt": 11045,
    "Ġcorrespond": 6210,
    "Ġscuff": 15945,
    "slouched": 24556,
    "Ġcedars": 20295,
    "Ġtints": 17728,
    "Ġmaiden": 13389,
    "Ġsque": 18758,
    "Ġsmiting": 12905,
    "Ġexam": 3709,
    "shone": 22453,
    "abeth": 907,
    "Ġrescales": 5068,
    "Ġodious": 12154,
    "Ġlimp": 19182,
    "izz": 7613,
    "ĠĠĠĠĠĠĠĠĠĠĠĠĠĠĠĠĠĠĠĠĠĠĠĠĠĠĠĠĠĠĠĠĠĠĠĠĠĠĠĠĠĠ": 24211,
    "vicious": 21121,
    "anged": 3587,
    "Ġnewcomer": 26041,
    "Ġmodels": 760,
    "Ġcommunicate": 10579,
    "Ġbuck": 7157,
    "Ġstow": 21735,
    "iqu": 7803,
    "Ġspectator": 19409,
    "Ġdumbly": 24990,
    "Ġcoral": 11925,
    "Ġgorgeous": 20470,
    "pin": 13769,
    "Ġhis": 380,
    "Ġroof": 6565,
    "Ġidolator": 20001,
    "Ġconsternation": 9861,
    "Ġwishes": 4795,
    "Ġcripple": 11441,
    "Ġsouls": 6309,
    "unsupervised": 10890,
    "Ġmatrimonial": 25490,
    "Ġhieroglyph": 11973,
    "Ġrespectful": 16347,
    "explain": 1480,
    "elev": 12462,
    "Ġsombre": 18861,
    "redible": 15807,
    "Ġeverlasting": 9339,
    "rugg": 15905,
    "cks": 3079,
    "Ġweeks": 4565,
    "Ġglancing": 5399,
    "Ġscornful": 25001,
    "Ġcurtains": 22979,
    "surpr": 5998,
    "valu": 1682,
    "Ġbark": 10799,
    "ompl": 4536,
    "dÃ¦mon": 17528,
    "Ġexh": 5232,
    "Ġancient": 5443,
    "Ġrepent": 9865,
    "Ġinstinct": 6576,
    "iations": 11496,
    "Ġapologies": 25197,
    "Ġcommonplaces": 16291,
    "Ġnarratives": 24352,
    "Ġwishing": 7831,
    "plans": 21963,
    "Ġleads": 12100,
    "hil": 8380,
    "Ġcalm": 3446,
    "Ġallegor": 25546,
    "Ġacknowled": 6351,
    "Ġpinched": 17035,
    "pen": 1204,
    "retched": 3068,
    "scythes": 26403,
    "glancing": 11215,
    "Ġstatements": 7515,
    "Ġnatures": 16506,
    "Ġcounted": 12143,
    "Ġannouncing": 16755,
    "Ġstingy": 25456,
    "21": 10074,
    "Ġwood": 2292,
    "Ġpasseng": 12975,
    "Ġfrenzy": 13625,
    "Ġintimate": 6550,
    "Ġmyself": 1454,
    "Ġpeculiarity": 12937,
    "Ġsuffered": 5649,
    "Ġseam": 3905,
    "oper": 7346,
    "Ġflirt": 14425,
    "Ġtree": 5285,
    "discovery": 12019,
    "Ġemployments": 12106,
    "inferior": 12397,
    "Ġnumerous": 6919,
    "Ġwanting": 6722,
    "Ġbloodshed": 23803,
    "Ġimpunity": 14217,
    "gall": 6360,
    "Ġsignificantly": 4519,
    "Ġannum": 24205,
    "scence": 14421,
    "respond": 12548,
    "Ġgreece": 17069,
    "sens": 8097,
    "Î": 143,
    "Ġstruggles": 16580,
    "dy": 4073,
    "Ġcunning": 6239,
    "resistible": 10645,
    "Ġtransformers": 1143,
    "Ġearthy": 23714,
    "Ġire": 12673,
    "Ġflourishing": 25188,
    "ounds": 4156,
    "Ġrepeatedly": 9023,
    "Ġmedit": 8026,
    "Ġtraps": 23085,
    "hide": 10704,
    "Ġvolume": 6769,
    "Ġburnt": 9930,
    "Ġpricking": 23227,
    "Ġruskin": 25810,
    "eli": 3870,
    "nyder": 16686,
    "Ġorganizations": 12317,
    "Ġexclaim": 11222,
    "Ġwestmorland": 24389,
    "Ġwondrously": 24067,
    "Ġfetch": 7770,
    "Ġgrimes": 11035,
    "bask": 20778,
    "Ġspringing": 10520,
    "Ġutmost": 5496,
    "Ġpale": 4532,
    "Ġgout": 21600,
    "Ġsweat": 13143,
    "Ġinstructing": 3122,
    "Ġcompetent": 11819,
    "Ġstirs": 14919,
    "Ġphysiognomical": 25612,
    "Ġentropy": 2031,
    "Ġappropriated": 23486,
    "Ġmississ": 18840,
    "Ġlightly": 13087,
    "Ġpaints": 23525,
    "Ġstanzas": 21749,
    "monograph": 23527,
    "Ġacquiesced": 25494,
    "Ġmerc": 9428,
    "Ġers": 15462,
    "Ġbenefactor": 14699,
    "sensations": 20054,
    "Ġfaculties": 14960,
    "mr": 1901,
    "Ġincor": 2610,
    ".âĢĿ": 464,
    "eh": 13712,
    "itic": 11580,
    "Ġcounterpane": 11344,
    "Ġrepairs": 19085,
    "Ġsevere": 6033,
    "atra": 17772,
    "ody": 1478,
    "Ġnocturnal": 20717,
    "Ġpeev": 22697,
    "Ġsplice": 19311,
    "Ġrecklessness": 24744,
    "erde": 21271,
    "Ġknocking": 10561,
    "Ġyellow": 5302,
    "._]]": 5335,
    "Ġobstinacy": 17423,
    "Ġwired": 17788,
    "Ġxx": 5492,
    "Ġcut": 2641,
    "Ġnumberless": 16418,
    "Ġexecution": 6926,
    "Ġpry": 11602,
    "norm": 20987,
    "Ġconvulsively": 25716,
    "!âĢĶ": 2455,
    "Ġliberally": 16831,
    "Ġconcussion": 26301,
    "Ġplead": 14457,
    "etition": 7381,
    "Ġpictured": 16624,
    "Ġsulkily": 25882,
    "Ġharpoons": 5659,
    "Ġtyros": 26102,
    "raint": 18317,
    "Ġsn": 2949,
    "accounted": 16502,
    "macy": 18807,
    "itatingly": 25278,
    "Ġattracted": 8907,
    "herds": 22208,
    "Ġarchitectures": 2907,
    "sets": 17661,
    "Ġgreatly": 5850,
    "cloudless": 20335,
    "Ġdesiring": 14417,
    "Ġcorrupt": 11926,
    "Ġhar": 5815,
    "Ġungovernable": 20711,
    "iner": 2669,
    "Ġhighest": 3529,
    "kilt": 4867,
    "eryton": 4092,
    "Ġcottagers": 6761,
    "Ġunsub": 22026,
    "simp": 17666,
    "Ġproposals": 10615,
    "Ġbully": 23859,
    "riet": 18185,
    "Ġimportance": 4901,
    "spl": 9141,
    "brows": 17498,
    "Ġpeep": 6869,
    "Ġincreasingly": 9373,
    "Ġenormity": 19698,
    "rah": 8138,
    "glim": 19368,
    "Ġflooring": 23626,
    "Ġcompar": 4771,
    "Ġtrifling": 10604,
    "swells": 26149,
    "lighter": 20961,
    "Ġ94": 17718,
    "ishment": 3506,
    "Ġpunch": 9957,
    "Ġmystic": 7502,
    "arity": 1301,
    "Ġtremendous": 8354,
    "Ġ1820": 25718,
    "proceeded": 25191,
    "Ġweighed": 8714,
    "Ġgordon": 26468,
    "av": 739,
    "Ġexpanded": 14293,
    "Ġcosine": 2374,
    "caterpillar": 26384,
    "fred": 20857,
    "pshaw": 21030,
    "acetty": 24463,
    "Ġevident": 6614,
    "Ġrattling": 11396,
    "Ġready": 3398,
    "hither": 11494,
    "Ġcook": 3710,
    "Ġwithdrawing": 11341,
    "oriented": 2947,
    "Ġsmitten": 12906,
    "relate": 24014,
    "Ġfain": 5809,
    "Ġabsolutely": 4859,
    "Ġbumping": 25281,
    "Ġcho": 4547,
    "secondly": 16985,
    "Ġarbitrary": 4736,
    "Ġgang": 9209,
    "Ġkindest": 23297,
    "dying": 15343,
    "Ġscoundrel": 13673,
    "Ġpole": 6433,
    "Ġdecidedly": 9511,
    "Ġdemon": 7871,
    "Ġdiabolism": 25515,
    "ferences": 10328,
    "Ġpres": 9734,
    "Ġinquiring": 9001,
    "Ġ85": 24459,
    "omit": 13976,
    "Ġenveloping": 19736,
    "Ġcondem": 6339,
    "Ġ13": 6719,
    "Ġauthentic": 20538,
    "Ġsteepest": 3088,
    "Ġblessings": 24178,
    "Ġjonas": 20612,
    "Ġxxx": 7767,
    "ty": 1002,
    "Ġlaughing": 5339,
    "orm": 425,
    "Ġpaid": 5015,
    "vest": 6231,
    "Ġpersonal": 7478,
    "isome": 17850,
    "ingle": 1039,
    "Ġwooden": 4730,
    "Ġstall": 12700,
    "Ġhelmeted": 19691,
    "Ġprograms": 7238,
    "Ġdetermination": 9821,
    "Ġkink": 22198,
    "probable": 17022,
    "uttle": 6248,
    "Ġcontour": 18475,
    "likely": 9025,
    "mention": 7214,
    "smoking": 23914,
    "Ġegress": 21625,
    "Ġuntrodden": 23523,
    "favouring": 24761,
    "Ġpitied": 14693,
    "excuse": 13384,
    "eldest": 22799,
    "Ġproprietor": 12376,
    "entering": 17979,
    "Ġprotect": 6338,
    "Ġdare": 3545,
    "Ġtwink": 8217,
    "Ġlimbs": 5967,
    "Ġtun": 6000,
    "Ġnormalizing": 1820,
    "Ġsequel": 14359,
    "leton": 5148,
    "Ġ27": 8618,
    "oso": 12835,
    "repugnance": 16865,
    "unctions": 18158,
    "Ġsum": 2697,
    "Ġtartar": 17324,
    "Ġsearched": 15819,
    "Ġwhen": 514,
    "Ġdrop": 4345,
    "Ġscar": 3215,
    "cart": 10691,
    "Ġvolumes": 14801,
    "upright": 23022,
    "Ġreposing": 23365,
    "continuance": 19721,
    "Ġirrespective": 23378,
    "Ġobjection": 6586,
    "Ġconsideration": 5191,
    "Ġslightest": 6093,
    "Ġcoer": 22584,
    "Ġdrives": 14579,
    "handsome": 13179,
    "rers": 14720,
    "Ġhearken": 21689,
    "Ġneither": 3685,
    "Ġ99": 10746,
    "akin": 11770,
    "Ġstriving": 8998,
    "yea": 23092,
    "Ġhing": 11606,
    "Ġmiscellaneous": 17464,
    "Ġsurely": 6308,
    "Ġpersonified": 19180,
    "(": 12,
    "Ġmannish": 26239,
    "Ġinflict": 15002,
    "gen": 6503,
    "Ġcauses": 2561,
    "nants": 17614,
    "Ġfern": 21410,
    "usual": 5842,
    "https": 11686,
    "dued": 7911,
    "save": 13787,
    "Ġprofundities": 20456,
    "ignified": 14491,
    "Ġthrough": 603,
    "Ġfre": 1573,
    "Ġanalyze": 1547,
    "Ġsharply": 9405,
    "Ġtombed": 25164,
    "mpt": 6655,
    "Ġobtru": 18673,
    "Ġbarbed": 14837,
    "du": 604,
    "Ġmum": 13860,
    "inkles": 7425,
    "Ġassertion": 13492,
    "condem": 16345,
    "leviathans": 19941,
    "Ġtainted": 21173,
    "Ġc": 277,
    "Ġson": 2984,
    "urning": 12920,
    "Ġinterpre": 1592,
    "Ġadequ": 10914,
    "Ġfriendless": 23029,
    "Ġpatches": 4237,
    "Ġmutiny": 13263,
    "Ġsolitudes": 22890,
    "Ġdiscipline": 26562,
    "Ġtrous": 10962,
    "Ġ97": 19777,
    "Ġcomprehending": 24444,
    "Ġadvancement": 24474,
    "Ġpromethe": 14469,
    "Ġsurv": 6082,
    "tackles": 25625,
    "Ġperpetual": 12306,
    "carry": 19529,
    "ondon": 2703,
    "Ġscraped": 16904,
    "hel": 4815,
    "sm": 3435,
    "Ġminister": 18753,
    "Ġadversary": 12177,
    "Ġtattoo": 7358,
    "Ġkings": 7196,
    "Ġconversing": 14634,
    "======": 9835,
    "pleasure": 5979,
    "Ġhandle": 3137,
    "Ġmisfortunes": 7042,
    "jub": 20931,
    "Ġcomplex": 746,
    "Ġspitz": 14150,
    "offices": 19065,
    "arians": 18527,
    "Ġafresh": 18629,
    "Ġintrodu": 1924,
    "likes": 18816,
    "bul": 6950,
    "Ġlikes": 9410,
    "Ġlearns": 2642,
    "Ġdependent": 14291,
    "Ġhear": 1966,
    "Ġwait": 4908,
    "Ġislands": 6766,
    "Ġobsequ": 14322,
    "Ġsect": 17752,
    "Ġferoc": 14904,
    "tin": 6117,
    "[_": 5131,
    "Ġtalks": 23373,
    "absence": 12712,
    "shadow": 20317,
    "Ġtenants": 23550,
    "huzza": 20915,
    "Ġvindication": 25365,
    "Ġconfusing": 23310,
    "Ġfrenz": 25447,
    "expanded": 23664,
    "Ġomn": 8412,
    "Ġleagues": 9225,
    "medi": 2629,
    "Ġcrumpled": 16440,
    "Ġop": 2603,
    "Ġconvenience": 11332,
    "Ġobserved": 3541,
    "Ġmansion": 17811,
    "Ġpup": 12623,
    "poor": 6062,
    "ork": 416,
    "Ġsales": 12811,
    "Ġdaunt": 19667,
    "Ġslept": 8260,
    "sooner": 14779,
    "penetrating": 25491,
    "Ġauthent": 14515,
    "Ġsorrows": 13358,
    "Ġfullest": 14816,
    "hatherley": 17569,
    "Ġrosy": 18458,
    "v": 90,
    "ention": 854,
    "Ġpagans": 16923,
    "gust": 6361,
    "Ġinsert": 19907,
    "lose": 12886,
    "Ġaccording": 5508,
    "Ġdesp": 3218,
    "Ġpads": 21478,
    "Ġauthority": 7749,
    "adventures": 20259,
    "Ġcertain": 1561,
    "Ġcheered": 16371,
    "Ġexasper": 8468,
    "Ġfish": 2708,
    "Ġovertaken": 18430,
    "Ġcontinents": 16850,
    "eskye": 21454,
    "vib": 21118,
    "Ġcheapside": 23291,
    "Ġlandscape": 12420,
    "Ġfollowed": 1794,
    "Ġtempestuous": 20074,
    "Ġentertain": 6055,
    "Ġgladness": 16592,
    "sullenly": 26150,
    "Ġequival": 4783,
    "Ġomen": 11578,
    "Ġgrappling": 25813,
    "awake": 14454,
    "Ġboughs": 20492,
    "Ġcrab": 13147,
    "organic": 25947,
    "Ġsoar": 18277,
    "Ġprogress": 5023,
    "Ġfalls": 14645,
    "Ġtents": 13820,
    "hors": 9600,
    "confidential": 25877,
    "Ġfactor": 19013,
    "bouton": 17503,
    "Ġanxiously": 8291,
    "erval": 4017,
    "Ġconfused": 7965,
    "ately": 1683,
    "mentioned": 10625,
    "constantinople": 25508,
    "Ġenderby": 13654,
    "Ġconcocted": 26300,
    "Ġgrated": 22808,
    "13": 20752,
    "Ġeliza": 6437,
    "infidel": 24664,
    "Ġcontraction": 16011,
    "Ġbulldog": 23862,
    "Ġcontrasting": 11155,
    "judges": 19576,
    "Ġarrested": 9562,
    "Ġattention": 1178,
    "Ġheadway": 18794,
    "lections": 4752,
    "Ġfrankness": 16747,
    "oters": 21804,
    "lands": 8242,
    "Ġporpoise": 7107,
    "doom": 23380,
    "Ġaversion": 18867,
    "Ġdoubtful": 19143,
    "code": 15331,
    "Ġbiggest": 24566,
    "cher": 5786,
    "Ġdistressed": 8516,
    "dee": 11736,
    "Ġintroduce": 3208,
    "Ġshave": 22001,
    "Ġseries": 7060,
    "Ġpledge": 11603,
    "Ġprivilege": 11420,
    "antique": 18288,
    "leep": 4634,
    "advance": 12160,
    "Ġforecastle": 5495,
    "Ġdrawback": 23993,
    "Ġsuperior": 2752,
    "Ġopened": 3513,
    "properly": 24919,
    "Ġstupid": 7603,
    "brew": 11474,
    "Ġambiguous": 20167,
    "Ġobsolete": 26559,
    "www": 17253,
    "oes": 4435,
    "Ġpliny": 11828,
    "ok": 574,
    "rosings": 15647,
    "Ġtilted": 20416,
    "Ġpursuit": 4733,
    "Ġadaptively": 4196,
    "Ġanswer": 2599,
    "standard": 22441,
    "Ġcommenting": 25229,
    "foam": 24417,
    "Ġoffend": 16147,
    "mean": 6438,
    "Ġtalked": 4422,
    "adoes": 11662,
    "Ġmorose": 18851,
    "concern": 5876,
    "Ġroods": 22409,
    "somebody": 14566,
    "even": 3834,
    "Ġscheme": 7065,
    "Ġpeace": 3691,
    "Ġdespairing": 14775,
    "Ġanon": 9668,
    "Ġinteractions": 12910,
    "irium": 8163,
    "attest": 23123,
    "Ġintimacy": 8704,
    "Ġunsophisticated": 25993,
    "Ġposted": 16725,
    "boots": 11127,
    "Ġsprout": 24090,
    "spr": 7434,
    "oment": 922,
    "lingering": 18603,
    "Ġfidelity": 15244,
    ")": 13,
    "Ġnapoleon": 20560,
    "stamp": 21658,
    "Ġappertaining": 26534,
    "Ġadroop": 26002,
    "Ġhosmer": 6774,
    "Ġbecause": 2209,
    "co": 2434,
    "Ġishmael": 7394,
    "Ġirre": 7467,
    "Ġhaste": 9005,
    "Ġparr": 22124,
    "concl": 12873,
    "Ġunappalled": 22068,
    "Ġcomplimented": 14906,
    "Ġstim": 18066,
    "Ġpossess": 3207,
    "Ġfemale": 8346,
    "Ġsnapped": 9899,
    "encountered": 20396,
    "uv": 6230,
    "uish": 5431,
    "Ġgrim": 7438,
    "Ġnigh": 4879,
    "Ġjac": 1898,
    "Ġbizarre": 17873,
    "plied": 10257,
    "Ġcontribute": 12865,
    "vitiated": 25755,
    "Ġfood": 5080,
    "Ġjulia": 22307,
    "ermaid": 14300,
    "Ġremoval": 12121,
    "88": 20760,
    "Ġsand": 6236,
    "Ġfame": 21409,
    "whar": 15930,
    "Ġensu": 7877,
    "Ġearliest": 9832,
    "rossed": 11014,
    "fic": 20854,
    "Ġforever": 14554,
    "Ġtwos": 18658,
    "Ġsuspected": 9064,
    "Ġnewcastle": 16225,
    "Ġostentatious": 25737,
    "Ġweapons": 10595,
    "handle": 11191,
    "Ġtawn": 13825,
    "Ġinjection": 3467,
    "Ġparticip": 16134,
    "Ġgrey": 4513,
    "title": 17289,
    "ľ": 255,
    "Ġgazed": 6478,
    "Ġfrom": 434,
    "Ġmists": 14631,
    "Ġquaff": 22419,
    "inking": 6710,
    "Ġswap": 23056,
    "twig": 23701,
    "Ġtrepidation": 19218,
    "geor": 15981,
    "Ġloudly": 7311,
    "Ġincalculable": 17462,
    "Ġintermediate": 18590,
    "Ġenemy": 5604,
    "Ġbales": 21392,
    "mediterranean": 16408,
    "Ġamber": 7027,
    "Ġquadrille": 13543,
    "Ġfolly": 7942,
    "Ġframed": 19033,
    "calm": 8936,
    "Ġbidden": 24647,
    "Ġkilling": 13336,
    "Ġdeficiency": 14405,
    "urs": 6989,
    "warks": 5004,
    "Ġexceeding": 1584,
    "wel": 6118,
    "Ġunluck": 8486,
    "Ġhooded": 12409,
    "Ġconventional": 25548,
    "Ġcurses": 13017,
    "ĠvertebrÃ¦": 11436,
    "Ġwards": 17791,
    "rece": 21237,
    "Ġinqu": 2965,
    "Ġsolicit": 22891,
    "Ġwings": 9165,
    "objections": 19918,
    "Ġconvulsive": 19309,
    "Ġrud": 8479,
    "Ġ46": 19494,
    "Ġreinforcement": 3461,
    "reposed": 24491,
    "iries": 18172,
    "ricade": 13043,
    "Ġtrucks": 19515,
    "Ġre": 317,
    "akened": 7414,
    "gging": 7697,
    "Ġrefinement": 18697,
    "Ġwoe": 4793,
    "Ġworldly": 16333,
    "Ġimperfectly": 25727,
    "Ġsatisfied": 4171,
    "Ġchurchyard": 16778,
    "chiefly": 14848,
    "ravelled": 18017,
    "Ġmuscle": 14690,
    "Ġbuy": 8300,
    "Ġrecent": 7435,
    "position": 15415,
    "Ġpaddling": 25286,
    "Ġabrid": 22277,
    "Ġvi": 1954,
    "Ġtheir": 641,
    "Ġcynical": 25771,
    "arled": 21446,
    "ar": 285,
    "Ġindividually": 22961,
    "Ġdears": 18139,
    "Ġuniformity": 23485,
    "Ġchimneys": 16973,
    "Ġwhatsoever": 18461,
    "Ġval": 969,
    "endeavoured": 12284,
    "Ġstrang": 4160,
    "Ġberries": 13410,
    "excited": 13383,
    "Ġsalisbury": 24066,
    "Ġenlightened": 12750,
    "Ġtrusting": 24106,
    "hering": 12818,
    "car": 4212,
    "Ġon": 351,
    "Ġhow": 599,
    "Ġconfirming": 25322,
    "Ġbelong": 3883,
    "cast": 2927,
    "Ġplatonian": 25121,
    "elihood": 4622,
    "Ġtaste": 5524,
    "vices": 21119,
    "iloqu": 11650,
    "tered": 2229,
    "Ġincreased": 2210,
    "uteness": 17988,
    "Ġextraordinary": 5414,
    "Ġscra": 5841,
    "Ġtis": 15467,
    "Ġlean": 7605,
    "Ġpuppy": 12408,
    "Ġescort": 23507,
    "Ġaskance": 23152,
    "dreadful": 11422,
    "dz": 4739,
    "pleasures": 24049,
    "Ġorgans": 15868,
    "Ġsymph": 22212,
    "Ġexperience": 1400,
    "Ġapparatus": 24909,
    "transform": 8051,
    "Ġcon": 348,
    "Ġlodgings": 8313,
    "Ġloafer": 18300,
    "espe": 3499,
    "Ġaffords": 16735,
    "Ġharry": 24571,
    "Ġreflection": 6440,
    "draw": 23903,
    "Ġindicate": 23725,
    "rench": 3966,
    "Ġregards": 16083,
    "redit": 3873,
    "Ġscr": 11763,
    "S": 55,
    "Ġloosed": 22117,
    "Ġstamping": 20034,
    "Ġpill": 7847,
    "humoredly": 26326,
    "Ġdarker": 13123,
    "bestowed": 12229,
    "Ġengravings": 15070,
    "Ġclouded": 13294,
    "Ġgrip": 11629,
    "answ": 15887,
    "Ġlumber": 13954,
    "Ġfeast": 10279,
    "iamond": 14591,
    "Ġstup": 14007,
    "Ġunrecord": 16622,
    "&": 10,
    "Ġcistern": 17383,
    "attacked": 23125,
    "Ġresort": 18564,
    "Ġmur": 2488,
    "Ġeffusions": 18542,
    "consumed": 25676,
    "Ġneskyeuna": 26460,
    "Ġliberated": 19669,
    "Ġantip": 24179,
    "Ġtwinkled": 14314,
    "land": 1528,
    "Ġjud": 3359,
    "Ġattain": 12751,
    "ounding": 22397,
    "Ġwoll": 21296,
    "Ġparticularly": 5056,
    "Ġclasped": 17208,
    "matters": 14876,
    "phant": 6288,
    "eronomy": 15527,
    "Ġharb": 7369,
    "harb": 9125,
    "Ġminute": 4278,
    "Ġelapsed": 7652,
    "Ġvineyard": 12333,
    "log": 18535,
    "Ġregrets": 18602,
    "Ġjealously": 24125,
    "Ġdepose": 22599,
    "Ġweakened": 16824,
    "ernsey": 8904,
    "Ġscrews": 25178,
    "Ġjuggling": 20442,
    "injured": 15135,
    "fun": 3932,
    "initely": 7567,
    "Ġvehement": 16204,
    "Č": 205,
    "Ġproverb": 12720,
    "allest": 5485,
    "hampshire": 23268,
    "westward": 25425,
    "Ġstrength": 4259,
    "Ġadvice": 4902,
    "alse": 4184,
    "Ġmenaced": 16295,
    "?_âĢĿ": 12319,
    "enger": 10774,
    "web": 18665,
    "murdered": 12206,
    "conscientious": 19629,
    "moreover": 12973,
    "consolation": 15155,
    "Ġairs": 14512,
    "Ġapprehending": 26092,
    "Ġpleaded": 16302,
    "Ġharm": 5017,
    "Ġformal": 2942,
    "Ġpruning": 18973,
    "oblivious": 26583,
    "Ġgradient": 450,
    "atively": 2693,
    "Ġconcerned": 5332,
    "Ġinstantaneously": 23659,
    "ouder": 17902,
    "Ġoverdone": 22365,
    "Ġdisguises": 25058,
    "Ġchinks": 22256,
    "Ġices": 21157,
    "Ġguardian": 14944,
    "rove": 21537,
    "penet": 11071,
    "Ġsquaring": 22845,
    "Ġelect": 10843,
    "Ġalpha": 13591,
    "swelled": 19613,
    "Ġburial": 16522,
    "Ġthomson": 26455,
    "Ġtunes": 24621,
    "Ġarrange": 3120,
    "Ġpattering": 18652,
    "Ġconfound": 23307,
    "thinness": 25811,
    "improve": 15715,
    "ginger": 13166,
    "bons": 17488,
    "establishment": 26114,
    "Ġintermix": 25827,
    "Ġfailure": 13318,
    "Ġvillagers": 19477,
    "):": 11462,
    "astic": 1869,
    "Ġchest": 5185,
    "thro": 12765,
    "Ġencode": 4365,
    "Ġbundle": 13429,
    "Ġenterprise": 8645,
    "Ġbands": 14886,
    "Ġskirting": 22801,
    "Ġviewing": 19266,
    "Ġmunro": 25631,
    "Ġconsp": 10226,
    "turner": 19544,
    "boxes": 16889,
    "Ġguest": 7248,
    "Ġeddies": 25089,
    "Ġaromatic": 25926,
    "Ġbanquet": 15243,
    "inence": 15483,
    "ible": 1116,
    "Ġloathing": 15072,
    "crop": 20800,
    "Ġretrieval": 10676,
    "Ġexpressing": 12011,
    "Ġblotches": 25315,
    "pair": 21014,
    "Ġmuffled": 10642,
    "pointing": 12228,
    "Ġneighb": 14078,
    "intention": 10369,
    "Ġmantle": 25275,
    "Ġrenounce": 19471,
    "mbly": 9795,
    "Ġgreatness": 12948,
    "Ġcommence": 6168,
    "59": 17475,
    "Ġheroines": 19754,
    "mature": 20969,
    "Ġclo": 6044,
    "Ġlandlessness": 23383,
    "Ġarchitecture": 1122,
    "Ġpleasantly": 14521,
    "Ġiceberg": 14718,
    "Ġriddles": 16733,
    "mai": 22918,
    "Ġcapstan": 9101,
    "Ġstate": 1810,
    "Ġcharing": 14182,
    "fisher": 7546,
    "embedding": 20360,
    "bitts": 26123,
    "Ġrapturously": 24889,
    "mixed": 17606,
    "miniature": 16766,
    "Ġfulfilment": 20190,
    "Ġadventurous": 16734,
    "Ġapologize": 15131,
    "Ġtusks": 17255,
    "Ġenormousness": 24511,
    "Ġjustine": 4970,
    "Ġstead": 5650,
    "mor": 4215,
    "Ġguns": 16777,
    "Ġquoin": 22423,
    "lilies": 20963,
    "vels": 5432,
    "Ġstudent": 14477,
    "ack": 610,
    "Ġslopes": 18943,
    "Ġpoliteness": 8275,
    "Ġ[": 6967,
    "Ġweal": 21925,
    "adie": 18091,
    "Ġdissembling": 26256,
    "Ġdisappears": 18561,
    "Ġengraving": 17080,
    "Ġscience": 1531,
    "Ġmistress": 8615,
    "Ġsmallest": 6430,
    "Ġthoughtlessness": 16196,
    "etah": 12665,
    "hood": 2658,
    "awned": 19463,
    "Ġoper": 2118,
    "Ġtid": 8108,
    "Ġrealistic": 5861,
    "Ġfreighted": 16327,
    "Ġavalanche": 17435,
    "Ġbiographical": 22775,
    "Ġundone": 24118,
    "Ġender": 11693,
    "igan": 21702,
    "twilight": 23704,
    "Ġnobleman": 19395,
    "lake": 13751,
    "Ġprecision": 13190,
    "Ġspectators": 19410,
    "/`)": 13663,
    "Ġpots": 9430,
    "Ġdifferent": 1428,
    "Ġwhisker": 23938,
    "awing": 18917,
    "Ġattends": 19653,
    "feren": 767,
    "Ġknocked": 9502,
    "accordingly": 19216,
    "chief": 4644,
    "Ġ123": 24467,
    "gment": 4392,
    "anxious": 15112,
    "Ġrounded": 14440,
    "afford": 14655,
    "wl": 17703,
    "Ġjoist": 19234,
    "ladies": 9531,
    "etween": 774,
    "Ġboard": 3384,
    "Ġdelighted": 5499,
    "Ġindustry": 18839,
    "Ġexclamations": 11362,
    "tomorrow": 25915,
    "Ġaccurately": 3925,
    "Ġexpand": 9309,
    "Ġportion": 7491,
    "Ġgrace": 5374,
    "retaining": 21248,
    "Ġresolutely": 14610,
    "ue": 1180,
    "hair": 9124,
    "whosoever": 22245,
    "wretch": 17709,
    "Ġentries": 22749,
    "elements": 25204,
    "trick": 19416,
    "cask": 12450,
    "Ġ199": 3009,
    "Ġtenderest": 23553,
    "puted": 8849,
    "mist": 5686,
    "your": 1984,
    "gies": 13728,
    "Ġspeculations": 23002,
    "agged": 9239,
    "breakfast": 8691,
    "licted": 20958,
    "Ġroasted": 18459,
    "regularization": 3515,
    "Ġnaturalist": 22904,
    "Ġtri": 4814,
    "umbered": 22122,
    "Ġsuperlatively": 26076,
    "icial": 12659,
    "Ġincapable": 7422,
    "Ġclub": 8876,
    "ologist": 22887,
    "neg": 12868,
    "pierced": 26142,
    "iform": 2199,
    "Ġgravely": 7885,
    "Ġsnar": 13203,
    "Ġweaken": 21927,
    "50": 6784,
    "Ġexplanations": 15913,
    "Ġserving": 14487,
    "Ġconsummate": 25311,
    "Ġinjury": 10542,
    "Ġshouted": 5348,
    "Ġcarving": 14445,
    "wrinkles": 16557,
    "Ġimpending": 22389,
    "Ġembalmed": 13659,
    "Ġant": 4346,
    "fac": 17542,
    "Ġnatural": 1125,
    "magnificent": 20277,
    "Ġminimum": 23046,
    "Ġconsider": 2568,
    "unable": 14061,
    "ish": 550,
    "Ġrecompense": 14840,
    "Ġhorsey": 24251,
    "acked": 10974,
    "Ġextreme": 2514,
    "strong": 6323,
    "sam": 21054,
    "Ġconcealed": 7494,
    "Ġsolitude": 6875,
    "Ġadmirable": 8270,
    "emic": 18182,
    "umphed": 23518,
    "playful": 24356,
    "Ġfat": 3460,
    "atives": 2237,
    "Ġsickened": 16776,
    "prof": 7699,
    "whips": 22243,
    "sufficient": 6637,
    "Ġgrowled": 19285,
    "soup": 21061,
    "Ġknave": 11273,
    "Ġinference": 9673,
    "Ġresol": 2664,
    "seriously": 18906,
    "ppa": 10241,
    "Ġlip": 6533,
    "Ġsprain": 18306,
    "Ġcoiling": 12912,
    "reme": 2424,
    "ase": 1160,
    "charge": 9451,
    "Ġrepro": 7274,
    "Ġclings": 15967,
    "Ġpattern": 1338,
    "sincerely": 24586,
    "Ġshared": 10265,
    "Ġcolour": 4462,
    "Ġinventing": 24862,
    "revenge": 13844,
    "Ġphaeton": 17466,
    "Ġdespite": 19356,
    "Ġapproxim": 1219,
    "serious": 14450,
    "quely": 10233,
    "Ġmonsieur": 12424,
    "Ġdays": 2077,
    "Ġsolve": 4197,
    "cour": 4480,
    "Ġnest": 10190,
    "missionary": 24617,
    "Ġmanhandle": 22334,
    "emy": 14075,
    "advent": 10222,
    "Ġbridal": 14956,
    "yet": 3751,
    "ollen": 11299,
    "Ġcobb": 14277,
    "Ġrejo": 5917,
    "Ġdiscu": 4364,
    "omon": 10208,
    "Ġlavater": 20499,
    "anning": 10166,
    "ö": 183,
    "Ġdropt": 23678,
    "lock": 1469,
    "Ġinfamy": 14502,
    "Ġgovernor": 16491,
    "================================================================": 9992,
    "acquaintance": 6937,
    "Ġlie": 4408,
    "Ġbliss": 13005,
    "impossible": 8827,
    "iless": 10283,
    "======================================================================": 10070,
    "adem": 21762,
    "ical": 752,
    "phil": 7927,
    "sche": 13023,
    "itions": 4147,
    "Ġchecking": 23289,
    "Ġunex": 11716,
    "Ġhindoo": 17177,
    "Ġbusiness": 2233,
    "Ġbub": 8119,
    "Ġpilot": 5986,
    "Ġrings": 11703,
    "err": 1142,
    "Ġstoutly": 16925,
    "Ġmanner": 2194,
    "Ġaught": 8777,
    "Ġtim": 4578,
    "Ġsemicircle": 26068,
    "Ġwestern": 10656,
    "acious": 5560,
    "Ġdescent": 971,
    "united": 14062,
    "Ġchapter": 2956,
    "Ġstores": 18071,
    "Ġsecrecy": 7315,
    "bearer": 18522,
    "Ġ74": 24263,
    "kye": 20940,
    "Ġspeckled": 14311,
    "Ġsingled": 23775,
    "tram": 19646,
    "going": 6314,
    "ces": 579,
    "Ġmisled": 22768,
    "Ġharvard": 24573,
    "hetically": 21211,
    "ignorantly": 25190,
    "Ġdepending": 14290,
    "Ġimparted": 15991,
    "Ġoak": 6129,
    "Ġliterature": 17150,
    "Ġalph": 9697,
    "Ġrattled": 15071,
    "Ġnature": 2538,
    "Ġpoisonous": 24888,
    "Ġreading": 5114,
    "Ġgrazed": 15836,
    "inery": 17734,
    "Ġcondescended": 19959,
    "othing": 6995,
    "âĢľâĢĻ": 10223,
    "mut": 17596,
    "strongly": 24685,
    "Ġdil": 6383,
    "Ġextended": 7924,
    "extinguished": 16152,
    "Ġresisted": 22546,
    "Ġharpooning": 23982,
    "Ġcandle": 8293,
    "Ġwander": 9033,
    "Ġabomin": 8190,
    "Ġcreaking": 14332,
    "Ġfol": 1287,
    "Ġprelimin": 8863,
    "Ġsignifies": 19206,
    "confid": 14869,
    "tart": 21070,
    "hur": 6650,
    "Ġlecture": 13570,
    "ace": 719,
    "Ġimprudent": 12851,
    "Ġforemost": 12007,
    "Ġrapid": 1423,
    "allic": 12817,
    "Ġgrotesque": 26331,
    "neighb": 16025,
    "Ġstrangers": 8315,
    "Ġassociate": 13453,
    "Ġwolfish": 25936,
    "cabinet": 25080,
    "omp": 2472,
    "Ġrifts": 21983,
    "exciting": 19671,
    "proved": 11989,
    "Ġphilosopher": 12187,
    "ocation": 14627,
    "Ġthistle": 21921,
    "rees": 5436,
    "Ġwisdom": 11234,
    "Ġhed": 7386,
    "Ġdownstream": 3772,
    "Ġseize": 8167,
    "Ġfallen": 5969,
    "Ġflamingo": 15103,
    "else": 6534,
    "Ġtuples": 13480,
    "Ġmouse": 4694,
    "Ġ1671": 25008,
    "Ġhoriz": 4726,
    "Ġexploitation": 2350,
    "Ġfirst": 937,
    "constit": 24606,
    "moments": 19415,
    "joint": 24012,
    "decl": 8859,
    "negro": 18488,
    "Ġkeeping": 7282,
    "Ġindians": 14412,
    "Ġkidn": 20208,
    "Ġstur": 15720,
    "Ġhappen": 5570,
    "croquet": 25748,
    "Ġlowerings": 23648,
    "Ġtransformed": 22620,
    "Ġbrute": 8929,
    "Ġcontinually": 5042,
    "Ġperv": 15993,
    "ountain": 2917,
    "Ġlast": 1123,
    "centred": 25020,
    "Ġwelfare": 12563,
    "weakness": 16127,
    "Ġglided": 7446,
    "umer": 9260,
    "Ġdependency": 3487,
    "us": 531,
    "days": 7688,
    "Ġdistinctions": 18533,
    "composure": 24037,
    "Ġinhabited": 12189,
    "enthusiastic": 20695,
    "ilib": 4115,
    "Ġfootfall": 14662,
    "Ġbree": 5012,
    "skill": 24486,
    "Ġbubble": 13537,
    "ris": 9139,
    "itives": 17821,
    "Ġlounged": 19957,
    "Ġencouraged": 9357,
    "Ġoxford": 11372,
    "Ġoverflowing": 17239,
    "¤": 102,
    "Ġhauling": 14089,
    "Ġacceded": 22383,
    "Ġbreast": 8970,
    "Ġfixed": 2683,
    "bies": 15315,
    "quarried": 24948,
    "Ġchronicled": 25329,
    "Ġtoilette": 20496,
    "Ġcasc": 15559,
    "Ġforbid": 7867,
    "avish": 22602,
    "Ġcramped": 23533,
    "Ġpurring": 23477,
    "Ġsquad": 22842,
    "Ġirresolute": 24917,
    "Ġepis": 19985,
    "Ġcham": 4893,
    "Ġstorms": 11263,
    "Ġfear": 2276,
    "father": 3774,
    "Ġanvil": 11599,
    "Ġextracting": 11102,
    "Ġlurking": 11290,
    "Ġfourteen": 12012,
    "Ġtallest": 15476,
    "effectually": 25131,
    "Ġpoint": 2056,
    "Ġincalcul": 16069,
    "Ġlonging": 14301,
    "Ġinvincible": 23481,
    ".--": 20748,
    "Ġvelocity": 10622,
    "induce": 22379,
    "irc": 1729,
    "Ġameric": 3851,
    "Ġsauce": 15893,
    "Ġdevelop": 1681,
    "Ġwhalemen": 3909,
    "acknowled": 10975,
    "Ġsurm": 7475,
    "ah": 1832,
    "Ġbreat": 3459,
    "Ġaback": 22271,
    "Ġunless": 4088,
    "Ġsleeps": 10447,
    "dred": 2527,
    "Ġdeserved": 7737,
    "Ġflattened": 26048,
    "inder": 9154,
    "Ġrequirements": 9797,
    "them": 3018,
    "Ġverify": 12091,
    "zealand": 26050,
    "Ġveins": 8934,
    "Ġshattered": 7886,
    "Ġhumanity": 6732,
    "bling": 10684,
    "Ġgaunt": 11269,
    "attacks": 23126,
    "Ġbonnet": 10657,
    "Ġepidemic": 20698,
    "Ġplanted": 9776,
    "renadier": 18420,
    "Ġravings": 18643,
    "Ġgrope": 17997,
    "dream": 8731,
    "Ġmagnificence": 20635,
    "Ġastir": 14641,
    "Ġdeliriously": 23234,
    "Ġprocess": 561,
    "another": 5439,
    "Ġevinced": 7101,
    "Ġvener": 8165,
    "Ġpreliminary": 10059,
    "Ġkicked": 10583,
    "Ġbulk": 5590,
    "Ġ181": 23899,
    "Ġmor": 1252,
    "Ġdictionaries": 12343,
    "Ġgayer": 24497,
    "Ġchronic": 9931,
    "Ġdownstairs": 11225,
    "rane": 17654,
    "Ġfeasts": 25370,
    "Ġergo": 25032,
    "Ġimproved": 7656,
    "Ġtide": 6660,
    "Ġvain": 3629,
    "Ġremarkable": 4916,
    "Ġsix": 3044,
    "Ġtransform": 757,
    "Ġjer": 6267,
    "ges": 2872,
    "nin": 17609,
    "elly": 17982,
    "Ġdrinking": 12172,
    "Ġhuzza": 12637,
    "Ġlbs": 11617,
    "Ġrequ": 812,
    "Ġmusical": 23896,
    "cry": 12449,
    "Ġcognitive": 13637,
    "Ġlot": 6679,
    "Ġcomparatively": 9492,
    "Ġcommand": 3324,
    "Ġimmersed": 19488,
    "leading": 15565,
    "Ġpaved": 17915,
    "Ġappears": 5402,
    "Ġstrait": 23753,
    "Ġcourtiers": 24137,
    "Ġembracing": 14982,
    "encing": 21285,
    "jur": 17579,
    "Ġdair": 17891,
    "cigar": 26125,
    "Ġsteadfast": 8682,
    "Ġdece": 6996,
    "olent": 8156,
    "bular": 15316,
    "Ġtiller": 8967,
    "irms": 18171,
    "Ġscotland": 6641,
    "Ġimperilled": 19581,
    "anyth": 5438,
    "Ġtranquo": 14845,
    "Ġspending": 10924,
    "Ġcontinued": 2921,
    "ifies": 6687,
    "Ġpromises": 10402,
    "Ġlearning": 388,
    "Ġspear": 9316,
    "shott": 11797,
    "lamps": 25261,
    "Ġshavings": 14112,
    "falgar": 26131,
    "liber": 18815,
    "ren": 549,
    "Ġgid": 13964,
    "Ġunheeded": 18262,
    "boom": 18999,
    "ibly": 2996,
    "Ġbadly": 12135,
    "Ġwinged": 16996,
    "W": 59,
    "Ġloop": 14148,
    "Ġgnarled": 25169,
    "Ġrear": 6536,
    "Ġir": 1992,
    "Ġthw": 21519,
    "during": 6787,
    "Ġcircular": 13114,
    "Ġcanvas": 7784,
    "hunted": 16833,
    "Ġinherit": 25353,
    "chari": 21693,
    "Ġreason": 1374,
    "nurs": 21001,
    "retrospect": 23143,
    "Ġadmeasurements": 26227,
    "ieged": 22583,
    "Ġends": 8239,
    "used": 3261,
    "ous": 477,
    "Ġguard": 6179,
    "Ġrig": 4224,
    "harpoone": 6108,
    "trap": 24333,
    "nervous": 16279,
    "oc": 2832,
    "Ġdamp": 8265,
    "regiment": 16451,
    "Ġswung": 6449,
    "Ġprofundity": 20455,
    "aint": 2541,
    "posture": 16928,
    "ball": 7793,
    "ggy": 13117,
    "Ġflapped": 23017,
    "Ġcas": 8413,
    "Ġcompanions": 5866,
    "Ġscud": 14192,
    "could": 2871,
    "abama": 12713,
    "Ġcharges": 23272,
    "Ġeagerness": 6609,
    "onts": 15521,
    "Ġbumps": 21395,
    "income": 15488,
    "iard": 9603,
    "measure": 10033,
    "Ġclasses": 4053,
    "les": 1015,
    "oft": 3590,
    "Ġyields": 19659,
    "Ġarri": 2553,
    "Ġwhence": 5840,
    "Ġenvy": 13199,
    "Ġembodied": 25848,
    "walton": 20252,
    "Ġpoem": 22594,
    "Ġcame": 1299,
    "Ġwrote": 5011,
    "Ġobtained": 7431,
    "Ġfru": 8422,
    "gl": 3291,
    "Ġsiber": 17756,
    "Ġ(": 594,
    "Ġpiratical": 24798,
    "Ġanointing": 25540,
    "Ġnavigators": 19766,
    "Ġlongbourn": 3509,
    "bill": 10078,
    "Ġwaistcoat": 12274,
    "Ġhealthful": 24061,
    "chariot": 26480,
    "separ": 9232,
    "Ġbelly": 10371,
    "Ġinject": 2709,
    "Ġsigh": 10338,
    "Ġjokes": 18409,
    "Ġanticip": 7506,
    "Ġ33": 16677,
    "powers": 25411,
    "Ġpork": 21461,
    "Ġdisappointed": 7098,
    "================================": 5671,
    "Ġclap": 10958,
    "ung": 2745,
    "pursued": 17283,
    "Ġhence": 4989,
    "Ġjeroboam": 10602,
    "Ġign": 8295,
    "ga": 17551,
    "Ġaffrighted": 13575,
    "Ġobvious": 4964,
    "Ġunb": 10908,
    "Ġdownst": 3559,
    "umerable": 11728,
    "Ġdenny": 9003,
    "fleece": 19951,
    "Ġshag": 9253,
    "04": 10681,
    "Ġinstruct": 2863,
    "accident": 11182,
    "Ġrobust": 1332,
    "Ġdomain": 3490,
    "Ġtrod": 15028,
    "Ġthing": 1642,
    "Ġwa": 1754,
    "apse": 14200,
    "fall": 5135,
    "sych": 9889,
    "Ġplay": 2626,
    "Ġignorance": 6620,
    "Ġhappily": 9333,
    "Ġtal": 7563,
    "Ġfair": 2835,
    "Ġoptimize": 1615,
    "Ġthre": 2059,
    "Ġphilips": 5410,
    "Ġirish": 14535,
    "Ġseptember": 18206,
    "Ġcircumnavigating": 25615,
    "Ġhil": 10822,
    "ivities": 22090,
    "asting": 12810,
    "Ġuproar": 22160,
    "whereby": 23421,
    "Ġevery": 928,
    "mmed": 7916,
    "Ġpreferment": 19855,
    "Ġobliterated": 17407,
    "Ġflorid": 17137,
    "Ġcolds": 23761,
    "Ġdeterminate": 23010,
    "Ġunequal": 14844,
    "Ġapr": 12536,
    "Ġtrapped": 23081,
    "movable": 14326,
    "let": 2730,
    "interested": 9508,
    "Ġsample": 3180,
    "Ġillustrative": 25069,
    "Ġextremity": 8990,
    "Ġshelter": 17009,
    "Ġmarble": 7669,
    "Ġenergy": 2552,
    "Ġlobster": 11390,
    "Ġbaggy": 24537,
    "ugal": 19021,
    "ta": 13791,
    "ece": 17532,
    "Ġbroadened": 23988,
    "itheat": 21341,
    "alarms": 21509,
    "an": 278,
    "maker": 12496,
    "Ġvessel": 3796,
    "tps": 11536,
    "snow": 10725,
    "Ġprocure": 9512,
    "Ġcharitable": 23273,
    "opportunity": 12278,
    "ump": 2285,
    "Ġhes": 6251,
    "Ġevangelist": 20341,
    "Ġloun": 7166,
    "violently": 23546,
    "ibles": 18788,
    "Ġrallied": 14098,
    "Ġrevellers": 21682,
    "inea": 7622,
    "north": 14617,
    "Ġprisoner": 8676,
    "Ġlascar": 9201,
    "Ġadjusts": 8982,
    "sold": 15428,
    "é": 170,
    "mission": 5971,
    "Ġfanatic": 23395,
    "Ġgorge": 13569,
    "isms": 12584,
    "Ġunst": 18239,
    "Ġaltitude": 26204,
    "Ġmanhood": 22331,
    "Ġagricultural": 26551,
    "Ġbigot": 24565,
    "Ġmending": 17806,
    "Ġof": 298,
    "tea": 18743,
    "Ġpersonality": 16478,
    "usive": 8193,
    "Ġspared": 7895,
    "Ġsubstituting": 26328,
    "Ġornaments": 17454,
    "Ġcrosswise": 18888,
    "Ġgeorgia": 23889,
    "cott": 8075,
    "Ġexpedite": 24956,
    "Ġmend": 8408,
    "charlotte": 6473,
    "Ġmob": 16020,
    "ñ": 178,
    "Ġhead": 1124,
    "Ġindignation": 8348,
    "Ġaghast": 16050,
    "Ġtho": 21518,
    "Ġarrog": 18338,
    "Ġbegging": 11081,
    "Ġeurope": 8063,
    "aset": 10833,
    "ate": 424,
    "azine": 19132,
    "Ġprivate": 5346,
    "encoun": 12301,
    "seven": 8465,
    "Ġleaning": 5228,
    "Ġpebbles": 16132,
    "capitals": 25083,
    "Ġniagara": 26459,
    "Ġshar": 9252,
    "Ġadopt": 10633,
    "Ġvary": 15810,
    "Ġpath": 2112,
    "Ġmach": 13859,
    "Ġregular": 947,
    "Ġriveted": 13621,
    "Ġendangered": 16306,
    "Ġwomanly": 23554,
    "Ġsharks": 4498,
    "Ġsem": 1878,
    "Ġforeman": 23449,
    "pride": 11211,
    "Ġbleached": 24395,
    "judging": 24203,
    "motion": 17607,
    "Ġminimize": 7051,
    "bidden": 19739,
    "Ġinterpreter": 23219,
    "Ġmagnitudes": 3819,
    "Ġstrove": 9959,
    "Ġsplendour": 20227,
    "Ġnext": 2136,
    "h": 76,
    "Ġevangelical": 25507,
    "hind": 20896,
    "Ġillness": 8593,
    "Ġmole": 11794,
    "Ġcandidates": 4334,
    "Ġunconditional": 15847,
    "Ġimitation": 22176,
    "Ġforegoing": 23451,
    "finished": 10556,
    "Ġjon": 15951,
    "itters": 10782,
    "flitted": 23972,
    "Ġmalignant": 14880,
    "Ġdevotees": 25377,
    "Ġpronounce": 16969,
    "rit": 21038,
    "Ġbroom": 18908,
    "tes": 11530,
    "Ġlibraries": 20617,
    "uncontrollable": 20599,
    "grasping": 20642,
    "speps": 14338,
    "lab": 3455,
    "Ġantagonist": 26330,
    "fulfilment": 26026,
    "Ġmarchant": 14787,
    "Ġcables": 15561,
    "embraced": 25805,
    "Ġincom": 9771,
    "iance": 5280,
    "vy": 21110,
    "Ġvolition": 14799,
    "arrange": 23769,
    "Ġforgot": 4683,
    "imprudent": 14652,
    "Ġostens": 25276,
    "Ġcocksure": 26260,
    "mad": 5281,
    "Ġforbear": 17123,
    "Ġcatch": 4442,
    "remental": 21250,
    "bl": 4141,
    "Ġhundred": 2691,
    "Ġimpatience": 7508,
    "Ġtumbling": 13827,
    "charmed": 21700,
    "pton": 15795,
    "wanderer": 25424,
    "ont": 2622,
    "Ġconfirmed": 11140,
    "before": 3114,
    "Ġimaginative": 19249,
    "leness": 4690,
    "Ġstanders": 19015,
    "Ġgilded": 17447,
    "manifested": 20529,
    "Ġscream": 5936,
    "Ġintelligences": 12834,
    "Ġsympathise": 16795,
    "Ġabundant": 17156,
    "injury": 25214,
    "Ġaverse": 11082,
    "azed": 9401,
    "birth": 15324,
    "Ġassume": 10517,
    "required": 17030,
    "apside": 22964,
    "Ġpipes": 9851,
    "Ġwhalebone": 10978,
    "ades": 5631,
    "Ġsquall": 7044,
    "returned": 7766,
    "Ġveiled": 16203,
    "Ġinde": 7370,
    "children": 9057,
    "Ġengineering": 3024,
    "Ġmoney": 3418,
    "Ġwednesday": 9086,
    "Ġxxiv": 24476,
    "efficient": 2869,
    "Ġmorrow": 9345,
    "Ġpreserving": 19799,
    "Ġmost": 1019,
    "among": 6257,
    "Ġfancies": 10425,
    "glasses": 11216,
    "consequential": 26251,
    "art": 586,
    "oken": 4306,
    "ighb": 10424,
    "Ġcooking": 16648,
    "regarding": 15074,
    "Ġconject": 6028,
    "Ġentic": 16149,
    "Ġcigar": 9547,
    "Ġwallet": 21301,
    "mosphere": 10045,
    "Ġburying": 19254,
    "rot": 21536,
    "etting": 21584,
    "Ġscandinavian": 26347,
    "Ġserviceable": 24717,
    "Ġslewed": 23388,
    "ondency": 15272,
    "Ġripe": 13238,
    "Ġmapple": 11151,
    "hever": 13833,
    "osity": 14187,
    "Ġaggregate": 25678,
    "Ġavailed": 23955,
    "Ġhigher": 1819,
    "silenced": 24422,
    "Ġblackstone": 23392,
    "Ġseeth": 21958,
    "dict": 15340,
    "Ġconclude": 8583,
    "ages": 828,
    "Ġavowed": 16635,
    "obli": 23099,
    "bering": 18683,
    "Ġmonth": 2847,
    "Ġverily": 16604,
    "Ġwaving": 8578,
    "death": 6262,
    "Ġmatrim": 11061,
    "Ð": 145,
    "Ġye": 901,
    "Ġic": 9627,
    "Ġexplored": 23519,
    "Ġtus": 10750,
    "Ġincarnation": 25574,
    "ĠâĢĶâĢĶ": 25758,
    "Ġteacup": 16210,
    "loath": 22513,
    "Ġtreacle": 14596,
    "Ġdim": 4757,
    "Ġconvivial": 16550,
    "Ġmitig": 1335,
    "Ġfits": 8794,
    "Ġgoodge": 22827,
    "Ġcharacteristic": 12051,
    "quaker": 15766,
    "õ": 182,
    "Ġgliding": 8563,
    "impress": 18054,
    "delights": 19704,
    "on": 267,
    "ugl": 23292,
    "Ġdescrying": 18617,
    "jephro": 26393,
    "Ġdetailed": 12828,
    "ootiful": 17375,
    "Ġchildish": 13140,
    "Ġshapes": 14111,
    "Ġhoars": 19079,
    "peaceful": 20450,
    "Ġtraditions": 11444,
    "Ġcaus": 1724,
    "expression": 10549,
    "mil": 13754,
    "Ġsaddest": 16664,
    "gyric": 19111,
    "Ġdream": 3538,
    "Ġglare": 13021,
    "staring": 18023,
    "Ġminut": 2203,
    "Ġchoice": 2165,
    "comprehensive": 20629,
    "breaths": 25337,
    "Ġeastward": 13393,
    "mechanical": 25579,
    "to": 713,
    "Ġcocked": 12911,
    "Ġevil": 3803,
    "ik": 17572,
    "Ġfilthy": 13252,
    "Ġchoicest": 24222,
    "Ġrevenge": 5452,
    "instinct": 19546,
    "Ġlug": 15655,
    "Ġproves": 14040,
    "stolen": 13984,
    "revolver": 25628,
    "Ġnets": 21528,
    "Ġfierceness": 26267,
    "Ġhermit": 15860,
    "dering": 5307,
    "whatever": 6695,
    ".*": 7330,
    "nearly": 8684,
    "Ġconclusion": 5987,
    "onian": 17768,
    "ishop": 9744,
    "Ġundiscovered": 18253,
    "Ġconcer": 23324,
    "Ġocean": 3306,
    "Ġreach": 4045,
    "wondering": 19847,
    "sartain": 25623,
    "geons": 15982,
    "Ġevidently": 6759,
    "Ġresolve": 13173,
    "familiar": 19786,
    "recked": 17763,
    "hawk": 7122,
    "Ġarticulated": 24432,
    "ě": 220,
    "Ġgruff": 21618,
    "Ġprevention": 16093,
    "Ġbet": 1135,
    "seemed": 4303,
    "Ġpress": 5933,
    "bes": 6643,
    "hopes": 15372,
    "Ġmaelstrom": 19359,
    "Ġdisaster": 12891,
    "Ġperceived": 4714,
    "Ġhadn": 9721,
    "Ġdecisive": 18484,
    "Ġimpenitent": 26549,
    "Ġchamber": 6214,
    "Ġspur": 18304,
    "ingham": 21303,
    "robustness": 26340,
    "Ġcivil": 4678,
    "Ġspake": 18309,
    "agon": 7873,
    "Á": 130,
    "Ġidea": 2486,
    "Ġunfelt": 24111,
    "Ġcaved": 21356,
    "crippled": 26385,
    "Ġengine": 1919,
    "Ġhundreds": 4327,
    "jah": 17582,
    "Ġsit": 4216,
    "Ġconvolutions": 21812,
    "Ġwalled": 15537,
    "Ġblessing": 11264,
    "Ġdeclaring": 19423,
    "Ġ88": 19714,
    "Ġabominably": 20069,
    "ix": 1800,
    "Ġevol": 2813,
    "topp": 22571,
    "ateg": 1390,
    "ashion": 3856,
    "Ġwhy": 1760,
    "Ġforbidden": 17078,
    "Ġreducing": 1958,
    "taining": 7205,
    "supplemental": 25875,
    "savor": 25027,
    "inguished": 6599,
    "Ġcoroner": 7509,
    "Ġwhale": 627,
    "it": 276,
    "Ġgraph": 10903,
    "originally": 24940,
    "archbishop": 22896,
    "Ġvisual": 5741,
    "ner": 1371,
    "Ġpolynes": 16085,
    "Ġsignify": 16495,
    "swell": 17664,
    "cstasy": 11446,
    "Ġbacked": 12928,
    "Ġthither": 6820,
    "Ġclapham": 17267,
    "Ġsignature": 16494,
    "horse": 8609,
    "aff": 3102,
    "Ġunfitted": 24109,
    "Ġcalculated": 4476,
    "carries": 19530,
    "programming": 10065,
    "Ġstring": 11830,
    "Ġsurest": 19058,
    "omically": 13978,
    "rises": 17656,
    "reject": 21239,
    "L": 48,
    "Ġver": 3394,
    "ially": 9249,
    "Ġthrees": 23404,
    "Ġannoyance": 20664,
    "advanced": 19591,
    "Ġtawny": 20485,
    "Ġbe": 336,
    "crazy": 24692,
    "Ġslay": 16309,
    "Ġlink": 8131,
    "ici": 8442,
    "congenial": 25400,
    "Ġshunned": 17295,
    "Ġflee": 7080,
    "Ġunmo": 12777,
    "Ġheron": 22078,
    "Ġcontest": 18474,
    "slo": 17657,
    "Ġindicated": 10470,
    "Ġvisitors": 7986,
    "Ġhonestly": 19975,
    "Ġreside": 22544,
    "oing": 15403,
    "Ġclim": 8196,
    "Ġdig": 6136,
    "Ġordinary": 6098,
    "Ġmounttop": 19981,
    "shine": 9290,
    "Ġchowders": 18387,
    "onsensical": 18578,
    "Ġgreenland": 5761,
    "Ġdecently": 22442,
    "Ġoverhear": 15976,
    "Ġpulling": 5863,
    "Ġdevious": 22733,
    "imen": 12690,
    "Ġtolerable": 6948,
    "Ġaddu": 22107,
    "gro": 10096,
    "Ġsunshine": 14495,
    "Ġsuperficial": 23458,
    "Ġnick": 21527,
    "comparison": 25842,
    "persuaded": 15076,
    "Ġchanges": 2287,
    "touching": 15094,
    "rudently": 16712,
    "Ġacross": 1329,
    "doubted": 17527,
    "Ġrelief": 6061,
    "Ġpresumably": 19627,
    "rasing": 21048,
    "Ġcommunications": 16357,
    "Ġcontinues": 18812,
    "Ġumbrella": 15268,
    "Ġmid": 2615,
    "performed": 18343,
    "grampus": 18619,
    "Ġoccupied": 5273,
    "Ġcontempt": 6276,
    "Ġallies": 18235,
    "lean": 21368,
    "yes": 986,
    "terogene": 21830,
    "wearing": 22691,
    "recklessly": 25270,
    "Ġcommit": 18656,
    "Ġcoronet": 6345,
    "Ġchuckled": 10649,
    "Ġvery": 636,
    "Ġevap": 19626,
    "asons": 6016,
    "Ġflogged": 23627,
    "Ġduplicate": 17217,
    "Ġmoth": 17804,
    "cary": 10692,
    "Ġork": 18285,
    "ringle": 21043,
    "proceed": 8978,
    "scuttle": 11913,
    "ulty": 22573,
    "Ġproving": 15755,
    "ude": 7561,
    "Ġadd": 629,
    "vult": 21116,
    "Ġclanging": 18423,
    "sorrows": 17322,
    "ware": 3934,
    "Ġunsupp": 22024,
    "luyt": 18460,
    "urches": 12689,
    "Ġpines": 12621,
    "Ġ0": 1903,
    "Ġcruisers": 25864,
    "atus": 21263,
    "Ġpers": 1373,
    "Ġdoubling": 23322,
    "Ġrepresentations": 1876,
    "Ġpeeped": 10014,
    "tis": 4103,
    "Ġairy": 23320,
    "Ġarist": 14161,
    "Ġamazing": 9979,
    "Ġostrich": 26431,
    "nursery": 26400,
    "Ġclanking": 20614,
    "add": 5229,
    "sign": 8389,
    "atig": 13847,
    "breast": 11247,
    "wheels": 14383,
    "eches": 8079,
    "Ġwalks": 8968,
    "rift": 11521,
    "Ġmusk": 7493,
    "Ġsiberia": 26162,
    "Ġembarked": 17136,
    "Ġstationary": 19697,
    "odecimo": 11445,
    "present": 1138,
    "lid": 20947,
    "Ġrummaged": 16911,
    "scattered": 22999,
    "aggoo": 5130,
    "Ġabraham": 18396,
    "pitch": 13302,
    "metals": 24765,
    "op": 659,
    "reck": 9638,
    "Ġveteran": 17452,
    "Ġbuckets": 17034,
    "heard": 5009,
    "Ġplants": 22605,
    "Ġcrust": 21354,
    "recl": 15512,
    "Ġfellow": 2775,
    "Ġsur": 2182,
    "Ġchoked": 9266,
    "Ġguiding": 19243,
    "Ġsaws": 23053,
    "<SOS>": 1,
    "Ġbackwater": 18650,
    "threadbare": 25990,
    "Ġdistrict": 10320,
    "shore": 10306,
    "Ġpotency": 14647,
    "Ġtravels": 11930,
    "coal": 12027,
    "Ę": 217,
    "Ġbran": 5252,
    "Ġfeared": 5932,
    "Ġsubjected": 23574,
    "Ġlent": 21551,
    "americ": 8157,
    "Ġdearer": 14051,
    "Ġhatter": 4110,
    "Ġtw": 839,
    "keel": 14130,
    "propriety": 14367,
    "esteem": 26009,
    "tting": 17681,
    "acing": 2715,
    "rr": 17651,
    "Ġlamps": 14792,
    "Ġcher": 6130,
    "Ġcoils": 9305,
    "Ġmouthful": 16576,
    "Ġsecure": 4913,
    "true": 2587,
    "Ġtransactions": 18500,
    "Ġjuggler": 26368,
    "Ġyards": 5371,
    "Ġber": 5698,
    "Ġsembl": 19061,
    "Ġequilibrium": 4140,
    "Ġheedful": 19743,
    "Ġcomputes": 4768,
    "Ġtroubles": 19442,
    "Ġgard": 2188,
    "!âĢĻâĢĿ": 16593,
    "Ġourselves": 5127,
    "Ġrailway": 15022,
    "likelihood": 4992,
    "Ġdenomin": 12071,
    "Ġutensils": 23516,
    "Ġbronze": 22872,
    "Ġmultiple": 1188,
    "div": 8077,
    "Ġschedules": 3387,
    "Ġfet": 5808,
    "Ġremove": 7498,
    "Ġoppress": 13175,
    "Ġmastery": 23996,
    "51": 12434,
    "Ġcir": 21344,
    "Ġdisapprobation": 16060,
    "Ġargosy": 24275,
    "Ġfactory": 23280,
    "Ġstubb": 1787,
    "mits": 13758,
    "abound": 15743,
    "Ġhistorical": 3645,
    "Ġsage": 17753,
    "Ġtouched": 6002,
    "cul": 1900,
    "consternation": 16913,
    "Ġinspector": 6498,
    "Ġconduct": 3732,
    "Ġdiscoverer": 26036,
    "osed": 1962,
    "Ġlesson": 7275,
    "Ġcuvier": 9167,
    "Ġgroan": 13328,
    "Ġxavier": 2853,
    "ipotent": 10960,
    "Ġundertaking": 8576,
    "Ġscratches": 22291,
    "admit": 18093,
    "tw": 2810,
    "Ġpenetrating": 17012,
    "respectively": 24699,
    "Ġ105": 24412,
    "god": 4864,
    "Ġstranger": 3485,
    "Ġadapted": 11041,
    "silent": 9976,
    "Ġsouthwards": 19636,
    "fate": 17540,
    "ocris": 23710,
    "Ġrighteous": 18948,
    "tray": 21080,
    "Ġglimmering": 25241,
    "iger": 8448,
    "ening": 3105,
    "Ġaudience": 24768,
    "saved": 15433,
    "Ġcapacity": 10441,
    "librarian": 26569,
    "Ġbuilding": 8064,
    "Ġspeedy": 11173,
    "pe": 1437,
    "Ġpolice": 4674,
    "Ġslaught": 23169,
    "Ġrepugnance": 19088,
    "Ġhabitu": 19531,
    "Ġcomplet": 4424,
    "Ġremainder": 9860,
    "lested": 14885,
    "Ġtamer": 24981,
    "Ġenrolled": 21942,
    "ion": 296,
    "Ġpolitely": 8995,
    "Ġfloat": 12035,
    "Ġdines": 21427,
    "Ġsun": 1720,
    "Ġbirch": 26175,
    "ĠĠĠĠĠĠĠĠĠĠĠĠĠĠĠĠĠĠĠĠĠĠĠĠĠĠĠĠĠĠĠĠĠĠ": 14615,
    "hob": 20902,
    "Ġlips": 3990,
    "Ġcat": 2119,
    "Ġadieu": 10053,
    "Ġhartshorn": 26182,
    "Ġlightness": 23264,
    "Ġnonsensical": 21533,
    "Ġstrasburgh": 18616,
    "tent": 21067,
    "sank": 17663,
    "Ġlashes": 17969,
    "Ġvote": 21952,
    "shrugged": 22460,
    "Ġjovial": 19236,
    "russian": 22194,
    "imately": 12692,
    "Ġsmiled": 5942,
    "ven": 780,
    "Ġwrapt": 24597,
    "Ġlambton": 10659,
    "Ġsmote": 18576,
    "Ġformerly": 7492,
    "Ġinsol": 10182,
    "Ġbake": 21385,
    "Ġteeth": 4166,
    "Ġplayed": 9418,
    "Ġunaffected": 14124,
    "Ġminor": 12972,
    "Ġvigorously": 11300,
    "inary": 3276,
    "Ġstra": 2992,
    "Ġacquaintance": 4132,
    "smile": 23909,
    "Ġcheese": 9379,
    "por": 2148,
    "mber": 7804,
    "Ġleaks": 16447,
    "metic": 14986,
    "nour": 20990,
    "isp": 5528,
    "Ġconv": 2970,
    "expectant": 24277,
    "Ġbrilliancy": 20110,
    "Ġchilled": 18383,
    "cannibals": 25585,
    "Ġmu": 17797,
    "Ġrumbling": 18212,
    "Ġnewfoundland": 26570,
    "Ġostentatiously": 20472,
    "invested": 17119,
    "Ġchrist": 4071,
    "Ġrephrased": 26478,
    "Ġtexas": 25923,
    "Ġbiting": 17863,
    "latitudes": 17198,
    "Ġfelony": 18954,
    "distrustful": 26332,
    "Ġskilful": 25838,
    "Ġpenet": 6887,
    "continued": 8679,
    "Â£": 4813,
    "Ġtarpaul": 17731,
    "Ġuncork": 23433,
    "Ġtreat": 3178,
    "Ġrandom": 1591,
    "Ġsells": 21226,
    "Ġconsisted": 10420,
    "Ġincompetent": 25680,
    "loving": 18538,
    "urried": 21708,
    "frequent": 15356,
    "Ġaudio": 24771,
    "Ġafrican": 20140,
    "Ġcreditable": 19625,
    "Ġrobert": 10971,
    "behaviour": 11302,
    "variety": 23189,
    "Ġalthough": 4150,
    "ell": 396,
    "teous": 16176,
    "Ġhairs": 13234,
    "Ġfrozen": 9015,
    "Ġserved": 8247,
    "Ġev": 4830,
    "Ġabhorred": 9510,
    "Ġtimorous": 24227,
    "Ġgratify": 19506,
    "Ġintolerable": 8483,
    "Ġlessen": 14533,
    "Ġassurance": 7775,
    "Ġlowered": 6736,
    "observed": 7675,
    "Ġsliding": 9366,
    "Ġcrystal": 17216,
    "Ġsallies": 21232,
    "Ġcharmed": 16763,
    "Ġunmanufactured": 20437,
    "Ġcorpor": 23045,
    "Ġrh": 9246,
    "Ġnotable": 18223,
    "bread": 10687,
    "İ": 241,
    "whilst": 18372,
    "Ġfir": 17879,
    "Ġaverages": 2398,
    "Ġimprec": 14218,
    "Ġreputed": 18038,
    "Ġpoverty": 9306,
    "Ġimmortality": 26327,
    "keepers": 16661,
    "forster": 16168,
    "Ġbeard": 11657,
    "Ġawhile": 13832,
    "Ġchoking": 15937,
    "groom": 8743,
    "Ġponder": 6818,
    "Ġpettic": 14843,
    "unavoidable": 17392,
    "Ġdecreasing": 2444,
    "Ġtopmost": 14588,
    "occurred": 13341,
    "displayed": 20738,
    "Ġdinners": 23985,
    "relations": 14735,
    "Ġinvolves": 1106,
    "four": 6114,
    "Ġwork": 1319,
    "calculation": 25689,
    "Ġimputed": 12812,
    "Ġimpotently": 22395,
    "spike": 16141,
    "Ġclimbing": 20073,
    "Ġcreature": 2384,
    "uttural": 21593,
    "Ġblessed": 6930,
    "Ġhugh": 15005,
    "Ġtrivial": 10144,
    "Ġshears": 18320,
    "ought": 829,
    "Ġsubsequent": 7659,
    "Ġcommanding": 16591,
    "presbyter": 20621,
    "Ġparcels": 25466,
    "Ġquery": 2479,
    "Ġrooms": 5180,
    "Ġexotic": 21836,
    "various": 10399,
    "Ġwarmed": 12026,
    "Ġexcess": 3344,
    "Ġperil": 5556,
    "Ġglistening": 12368,
    "experience": 17160,
    "Ġvent": 3995,
    "Ġknow": 632,
    "ident": 3380,
    "Ġblasted": 7939,
    "Ġangelic": 19630,
    "Ġwaits": 23282,
    "'s": 2470,
    "Ġhurriedly": 11250,
    "Ġsunwards": 19012,
    "wild": 8771,
    "perfectly": 9088,
    "sofa": 26147,
    "Ġmau": 21313,
    "Ġcharacters": 9374,
    "idation": 5022,
    "paralleled": 14511,
    "ppered": 15794,
    "Ġsuggestion": 19710,
    "shell": 16289,
    "Ġpains": 5966,
    "Ġdiabol": 11454,
    "Ġfelt": 1746,
    "Ġlist": 2367,
    "illustration": 2284,
    "Ġduties": 6610,
    "Ġsoftened": 11104,
    "resses": 16157,
    "Ġp": 289,
    "Ġn": 300,
    "Ġ30": 10513,
    "hearty": 14836,
    "Ġspread": 5161,
    "summon": 23419,
    "Ġdeser": 3884,
    "believe": 8304,
    "Ġinexhaustible": 16982,
    "Ġunexpl": 22042,
    "latitude": 25260,
    "Ġobedient": 20108,
    "Ġsepul": 14091,
    "Ġendeavours": 8621,
    "Ġdisgra": 18550,
    "Ġpalmy": 19502,
    "Ġdash": 8123,
    "representation": 20199,
    "Ġdelicate": 6480,
    "rible": 3230,
    "Ġpen": 1529,
    "Ġlungs": 8363,
    "Ġfinger": 5274,
    "Ġevid": 3501,
    "Ġpasture": 14544,
    "Ġresounded": 22549,
    "animal": 16979,
    "Ġhooked": 19081,
    "absent": 21795,
    "Ġemploy": 3615,
    "cowardly": 25750,
    "Ġenvied": 19299,
    "Ġxxxii": 24975,
    "sion": 8095,
    "ge": 559,
    "Ġhoops": 9391,
    "Ġbelf": 21384,
    "Ġsigmoid": 2463,
    "Ġwelded": 9573,
    "!--": 10679,
    "Ġhum": 1099,
    "Ġbol": 6242,
    "shriek": 20523,
    "advise": 24219,
    "Ġrails": 22653,
    "Ġvictor": 5125,
    "prisoner": 20546,
    "Ġwreath": 25937,
    "bub": 15319,
    "Ġlooked": 1802,
    "Ġknowingly": 18481,
    "Ġden": 3107,
    "omics": 21647,
    "Ġincomplete": 17210,
    "Ġaffability": 14389,
    "ĥ": 230,
    "Ġindividuals": 24545,
    "Ġconsequence": 5541,
    "Ġcopse": 17067,
    "Ġmerrily": 23734,
    "thousand": 5546,
    "Ġdetached": 10281,
    "agreeable": 5830,
    "ail": 565,
    "rollable": 13947,
    "Ġcollections": 22864,
    "discern": 14853,
    "Ġathe": 17742,
    "txt": 12519,
    "hearted": 6970,
    "questions": 16761,
    "Ġdent": 13908,
    "Ġgracefully": 13394,
    "history": 15016,
    "avery": 13686,
    "Ġrefusal": 10344,
    "Ġchord": 22250,
    "Ġgifts": 21616,
    "Ġchatbots": 11350,
    "Ġexecutors": 19536,
    "Ġnice": 6677,
    "itiousness": 21337,
    "remembrance": 25703,
    "Ġswarm": 23058,
    "Ġunaccountable": 7889,
    "Ġskulls": 12963,
    "Ġwitness": 4621,
    "Ġfleetness": 20182,
    "rut": 8093,
    "Ġundersampling": 19521,
    "Ġdressed": 5081,
    "settle": 16663,
    "forks": 26388,
    "if": 376,
    "Ġruinous": 24635,
    "concluding": 19484,
    "disappointment": 11426,
    "Ġimpregn": 26023,
    "Ġfavoring": 2347,
    "Ġencircling": 26273,
    "Ġpromising": 10401,
    "Ġsatin": 12992,
    "measured": 19993,
    "Ġenchant": 7184,
    "Ġhanged": 17927,
    "Ġhotel": 8654,
    "office": 16399,
    "Ġscare": 18397,
    "Ġquestioning": 10465,
    "Ġidly": 16406,
    "Ġcannib": 6037,
    "Ġprofoundly": 16860,
    "Ġaccounts": 7206,
    "Ġrap": 14305,
    "Ġmining": 22833,
    "lift": 15387,
    "Ġcoming": 2617,
    "Ġimpenit": 22393,
    "Ġicebergs": 23978,
    "Ġhulls": 13928,
    "Ġpulpit": 7469,
    "lipped": 16219,
    "disc": 4729,
    "Ġsketch": 16167,
    "oar": 12501,
    "Ġlying": 4827,
    "james": 15375,
    "sockets": 22732,
    "Ġaccustomed": 6860,
    "erland": 9642,
    "uniform": 18160,
    "_.âĢĻâĢĿ": 17481,
    "Ġincome": 7919,
    "Ġeve": 13972,
    "Ġgood": 1001,
    "sim": 6510,
    "clu": 20801,
    "Ġlieuten": 13330,
    "leisure": 21374,
    "Ġlonger": 3361,
    "Ġnervous": 2404,
    "Ġabutted": 22280,
    "operations": 19978,
    "Ġdiscussing": 5202,
    "Ġcaulk": 25441,
    "Ġwand": 4342,
    "Ġhelps": 9370,
    "Ġbrows": 13304,
    "card": 11476,
    "Ġstature": 10864,
    "seated": 11673,
    "ers": 406,
    "Ġconfessed": 8010,
    "ruded": 15906,
    "inst": 4294,
    "raction": 8139,
    "Ġdinnertime": 16720,
    "Ġcircumn": 11986,
    "Ġfevers": 22214,
    "Ġthrowing": 6336,
    "Ġmallet": 17812,
    "Ġcomputing": 2219,
    "resolved": 9641,
    "Ġstorm": 4300,
    "Ġlegendary": 20540,
    "calabash": 22900,
    "Ġfurlong": 18742,
    "Ġgraceful": 11297,
    "Ġtrifled": 24675,
    "balance": 12009,
    "Ġprofuse": 23568,
    "mund": 13760,
    "hatch": 15367,
    "irons": 10240,
    "Ġsupp": 1266,
    "Ġreckoning": 14981,
    "âĢĶâĢĻ": 8189,
    "Ġbuilded": 24718,
    "Ġhinting": 19652,
    "Ġfunere": 22264,
    "Ġclearly": 6896,
    "Ġlangs": 13956,
    "Ġcur": 1249,
    "bus": 5355,
    "Ġmirth": 15548,
    "Ġstupendous": 20504,
    "pervading": 18958,
    "idious": 11664,
    "Ġdeified": 18140,
    "pets": 17637,
    "Ġcapting": 23025,
    "Ġgrounds": 6750,
    "stript": 21661,
    "Ġincredulity": 11312,
    "Ġardu": 22183,
    "sl": 5794,
    "imate": 4221,
    "impotence": 23764,
    "henomen": 10496,
    "Ġvirgin": 7327,
    "Ġbrotherly": 16529,
    "Ġtint": 13819,
    "complaisance": 24808,
    "Ġrubbed": 12959,
    "Ġstro": 4595,
    "Ġdangers": 12357,
    "Ġvial": 10250,
    "tha": 15826,
    "Ġgpt": 4351,
    "Ġlabourers": 23336,
    "Ġvacancy": 9046,
    "Ġgeese": 7694,
    "Ġbloody": 9891,
    "liable": 3815,
    "league": 17846,
    "Ġproved": 4885,
    "acqu": 4844,
    "Ġspires": 11733,
    "Ġnourishment": 15195,
    "elves": 2157,
    "irably": 13299,
    "Ġzealand": 12353,
    "ler": 3492,
    "Ġproflig": 23569,
    "Ġthrown": 4639,
    "j": 78,
    "ridge": 9499,
    "Ġcheerfulness": 10518,
    "Ġknob": 24406,
    "Ġglassy": 19563,
    "Ġfancy": 3744,
    "again": 3399,
    "Ġwarehouses": 20421,
    "philosophy": 13583,
    "Ġfriends": 2654,
    "ceiving": 3899,
    "rock": 15644,
    "liest": 6295,
    "Ġpict": 3500,
    "Ġhumming": 12990,
    "Ġpresence": 5031,
    "mole": 22705,
    "roof": 17956,
    "bearded": 18523,
    "commend": 19996,
    "Ġtistig": 26414,
    "Ġrest": 1782,
    "Ġdromedary": 17441,
    "baked": 20781,
    "Ġbefriend": 18084,
    "Ġcontextually": 11957,
    "Ġimaginary": 11187,
    "equ": 6790,
    "Ġtriumphal": 24370,
    "Ġrod": 9282,
    "Ġprojects": 9513,
    "Ġrichness": 19313,
    "Ġcontracting": 16014,
    "above": 8149,
    "new": 1465,
    "oning": 7571,
    "Ġappre": 5165,
    "Ġsubtile": 20383,
    "Ġenormous": 5608,
    "Ġobjectionable": 16992,
    "Ġislanders": 19505,
    "persu": 8029,
    "disputed": 23502,
    "Ġchil": 11754,
    "Ġforbearance": 12331,
    "holder": 13286,
    "Ġslackened": 15129,
    "Ġproductions": 22950,
    "Ġgra": 415,
    "sne": 10126,
    "instinctively": 26329,
    "Ġoverhung": 15975,
    "usable": 22294,
    "iously": 2675,
    "Ġcreating": 2998,
    "Ġpartially": 13126,
    "acles": 8520,
    "Ġresolving": 9421,
    "Ġapartments": 19617,
    "Ġunacquainted": 12780,
    "tum": 11533,
    "Ġamusement": 8057,
    "Ġhaze": 18197,
    "Ġtelling": 5747,
    "Ġwade": 17786,
    "Ġfootsteps": 16574,
    "lour": 15383,
    "Ġdiana": 21440,
    "Ġghast": 9211,
    "vens": 21115,
    "izing": 1071,
    "Ġexpressions": 7706,
    "Ġtwentieth": 18660,
    "Ġix": 12672,
    "angels": 22111,
    "Ġstool": 14463,
    "Ġireland": 17337,
    "eon": 8733,
    "fork": 20859,
    "Ġadditionally": 1176,
    "marest": 20982,
    "Ġmouthfuls": 20648,
    "gement": 13730,
    "Ġrucastles": 18722,
    "Ġrehears": 15703,
    "ke": 429,
    "Ġproudly": 19745,
    "kne": 20937,
    "Ġandes": 12645,
    "Ġterr": 3275,
    "Ġfluttered": 16252,
    "Ġvariance": 1169,
    "ket": 17583,
    "Ġvoices": 7878,
    "reach": 17758,
    "eu": 17531,
    "Ġeast": 5370,
    "stayed": 25291,
    "Ġmerchantmen": 19862,
    "orange": 21403,
    "covery": 11172,
    "Ġlieutenant": 15264,
    "Ġplague": 11827,
    "aver": 6785,
    "ruin": 22191,
    "tro": 15435,
    "Ġfurs": 18741,
    "ounts": 4651,
    "Ġinanimate": 13935,
    "Ġmine": 3181,
    "sive": 4143,
    "Ġsetbacks": 11064,
    "Ġpained": 19169,
    "inav": 15485,
    "lue": 8510,
    "isles": 15567,
    "Ġirrevoc": 15040,
    "Ġbrothers": 13178,
    "crowded": 20193,
    "Ġlevel": 5020,
    "Ġsensitivity": 3069,
    "cription": 20820,
    "Ġthack": 21521,
    "dead": 8181,
    "Ġimpetus": 25570,
    "Ġwert": 12560,
    "Ġinwards": 15624,
    "Ġoccasionally": 5589,
    "wreat": 21130,
    "convinced": 10624,
    "ember": 1957,
    "helmsman": 24288,
    "Ġfleece": 10616,
    "Ġsignification": 19205,
    "Ġfacts": 2289,
    "quer": 11682,
    "k": 79,
    "Ġ24": 13194,
    "downstairs": 23923,
    "receiving": 12547,
    "market": 16840,
    "Ġswallowed": 7945,
    "Ġremained": 3143,
    "Ġsanctioned": 26352,
    "Ġepaulets": 24906,
    "otograph": 5827,
    "Ġdigest": 24648,
    "Ġfusion": 21418,
    "val": 1156,
    "Ġbony": 12591,
    "combined": 20323,
    "ostent": 16847,
    "cking": 4265,
    "Ġsubset": 9872,
    "Ġpel": 17906,
    "Ġmechanically": 14400,
    "ament": 2439,
    "Ġcongenial": 12414,
    "humiliation": 24024,
    "esc": 612,
    "razor": 21641,
    "Ġacquit": 18899,
    "Ġtaught": 6803,
    "mindful": 19602,
    "shud": 18489,
    "enial": 17781,
    "Ġnearing": 15801,
    "Ġinsurg": 23683,
    "lips": 13752,
    "Ġpuffs": 14978,
    "opement": 10313,
    "Ġwes": 8782,
    "Ġcosmopol": 16454,
    "Ġcrav": 19175,
    "nant": 17610,
    "nihil": 9849,
    "Ġguarded": 9828,
    "Ġungracious": 18259,
    "fect": 2301,
    "eprints": 12795,
    "Ġderived": 8240,
    "Ġbeaut": 2393,
    "yt": 17712,
    "Ġconfinement": 19040,
    "measureless": 20238,
    "Ġbroke": 5323,
    "Ġempty": 5354,
    "Ġwhereby": 11839,
    "sch": 21053,
    "akeman": 6268,
    "ashed": 3782,
    "Ġsuperflu": 14555,
    "Ġdeject": 10881,
    "Ġcontented": 9758,
    "ais": 8072,
    "archical": 1925,
    "Ġstash": 18070,
    "ut": 308,
    "Ġundertaken": 18988,
    "Ġbehooves": 20735,
    "combination": 25487,
    "Ġindu": 5295,
    "Ġoversight": 22364,
    "Ġmutineer": 19421,
    "augmented": 26288,
    "gg": 1996,
    "Ġcrows": 24034,
    "Ġseemingly": 9320,
    "Ġgate": 6824,
    "Ġmystery": 5509,
    "Ġitaly": 10868,
    "Ġlanguor": 12852,
    "Ġharvest": 13418,
    "Ġintact": 21994,
    "Ġcost": 2504,
    "Ġrnns": 2394,
    "Ġlogical": 14488,
    "Ġmicha": 17813,
    "Ġhappy": 2466,
    "Ġemper": 9863,
    "Ġportraits": 20145,
    "Ġboats": 2637,
    "ogne": 12944,
    "Ġrol": 3555,
    "Ġhealthcare": 8017,
    "Ġpoles": 11005,
    "ancient": 9657,
    "Ġpouch": 21473,
    "Ġliber": 5168,
    "Ġrepine": 16412,
    "Ġworried": 22930,
    "Ġtoiled": 12646,
    "Ġelse": 2480,
    ",âĢĶâĢľ": 10072,
    "walks": 19724,
    "Ġloos": 15874,
    "Ġprom": 1523,
    "Ġsquares": 11170,
    "glass": 9911,
    "Ġsplashed": 23751,
    "Ġmarty": 20293,
    "Ġott": 13868,
    "unteered": 26496,
    "Ġoysters": 20582,
    "activation": 3234,
    "Ġvapor": 8703,
    "Ġmalice": 7152,
    "Ġbracelets": 25503,
    "Ġbeaches": 18087,
    "Ġunable": 4951,
    "Ġteach": 8554,
    "opatra": 22482,
    "Ġbitten": 21393,
    "Ġcetus": 19887,
    "Ġimpressed": 8200,
    "Ġdexterity": 25295,
    "Ġopportunities": 19251,
    "Ġsigning": 22712,
    "rages": 15684,
    "Ġsend": 4105,
    "_?âĢĿ": 15308,
    "path": 10120,
    "wicked": 24448,
    "Ġlithe": 24669,
    "its": 1149,
    "Ġexcell": 10416,
    "Ġexclaiming": 13644,
    "Ġcos": 2207,
    "Ġcircumstances": 3923,
    "amused": 21857,
    "announced": 19762,
    "Ġhudson": 15194,
    "Ġthrusting": 10554,
    "Ġlounging": 10024,
    "Ġsoliloqu": 11888,
    "calling": 12453,
    "capital": 15091,
    "Ġshy": 10904,
    "cabin": 8364,
    "Ġdaresay": 14706,
    "coarse": 16488,
    "Ġhast": 3153,
    "Ġbottled": 23798,
    "Ġomit": 17817,
    "Ġcoal": 18591,
    "Ġdismast": 12892,
    "Ġsundering": 23278,
    "elzebub": 26465,
    "eter": 11623,
    "scrape": 25699,
    "Ġneglecting": 25010,
    "Ġpawn": 12066,
    "begging": 22502,
    "Ġleaders": 16629,
    "Ġpray": 3896,
    "Ġactionable": 24559,
    "Ġchairs": 12830,
    "Ġwhispers": 14702,
    "Ġonly": 789,
    "Ġchurning": 15940,
    "please": 8178,
    "Ġmidships": 23636,
    "icirc": 15659,
    "Ġeliminating": 20623,
    "Ġunparalleled": 15856,
    "additional": 20467,
    "black": 6768,
    "Ġsire": 15503,
    "Ġsteward": 6585,
    "Ġ183": 13241,
    "iters": 21332,
    "Ġmagnanimous": 17413,
    "Ġendeavored": 19305,
    "Ġsoaring": 22082,
    "Ġattitudes": 16101,
    "oms": 4593,
    "pede": 19932,
    "Ġexcavating": 23318,
    "cc": 472,
    "Ġstreat": 15724,
    "Ġcalms": 23047,
    "shoe": 14969,
    "Ġwild": 2602,
    "Ġxii": 11993,
    "Ġcounsel": 13618,
    "ĠĠĠĠĠĠĠĠĠĠĠĠĠĠĠĠĠĠĠĠĠĠĠĠĠĠĠĠĠĠĠĠĠĠĠĠĠĠĠĠĠ": 19585,
    "exactly": 10638,
    "Ġnearer": 5303,
    "Ġlanguid": 14221,
    "Ġalman": 21786,
    "Ġmartial": 20294,
    "ousness": 10276,
    "matical": 13132,
    "char": 3504,
    "Ġenglish": 3614,
    "Ġconfiding": 19039,
    "Ġdiameter": 19869,
    "Ġunion": 6838,
    "iber": 6506,
    "Ġaristocratic": 20515,
    "Ġhomeward": 9394,
    "Ġfem": 6135,
    "Ġdoors": 6418,
    "Ġcoats": 16080,
    "Ġimmediate": 6090,
    "cially": 3489,
    "Ġstrides": 22622,
    "Ġcontriv": 9284,
    "Ġinsights": 13182,
    "ellation": 12753,
    "Ġantichron": 24183,
    "Ġaside": 5234,
    "Ġhog": 13926,
    "Ġsunlight": 13088,
    "Ġwaterproof": 19090,
    "oro": 21398,
    "commencement": 26350,
    "Ġmaking": 1780,
    "Ġdial": 10811,
    "Ġlurch": 21559,
    "Ġborne": 6352,
    "room": 2177,
    "Ġspat": 2663,
    "Ġmillions": 11355,
    "Ġtierce": 15480,
    "elaborate": 21580,
    "Ġinhabit": 5782,
    "Ġimplies": 24874,
    "Ġfrench": 4939,
    "nam": 2857,
    "uity": 12521,
    "Ġriggers": 24157,
    "Ġruss": 18720,
    "detached": 19677,
    "Ġrotterdam": 25476,
    "forgot": 11034,
    "ĠĠĠĠĠĠĠĠĠĠĠĠĠĠĠĠĠĠĠĠĠĠĠĠĠĠĠĠĠĠ": 24442,
    "ti": 8391,
    "ospit": 22268,
    "assembled": 21549,
    "ittance": 12849,
    "lace": 13750,
    "Ġfris": 23259,
    "Ġasylum": 13669,
    "Ġmut": 3582,
    "cooper": 19192,
    "Ġlaws": 8004,
    "Ġstrand": 11831,
    "apprehension": 26115,
    "Ġherb": 15859,
    "ll": 1141,
    "Ġconstant": 6310,
    "Ġwrongfully": 24250,
    "Ġdialogue": 12407,
    "ipelag": 12845,
    "Ġvainly": 9926,
    "icket": 22672,
    "Ġabandonment": 25604,
    "00": 1613,
    "Ġscenery": 11457,
    "sorting": 17005,
    "lessly": 4556,
    "Ġnantucketers": 9896,
    "osen": 6854,
    "ource": 5244,
    "rel": 3752,
    "Ġbud": 10170,
    "Ġsobbed": 14136,
    "Ġgramm": 8172,
    "Ġdoubly": 16391,
    "insult": 16282,
    "Ġheiress": 20700,
    "Ġdirectors": 18923,
    "Ġbattle": 5909,
    "Ġreadability": 2722,
    "Ġreproach": 9558,
    "Ġdestination": 19151,
    "Ġpacing": 8428,
    "distinction": 19574,
    "kindly": 14746,
    "nerable": 16278,
    "avering": 24792,
    "Ġpaws": 13923,
    "Ġwearied": 15797,
    "Ġgnawed": 25168,
    "tish": 17678,
    "Ġstripping": 23698,
    "rese": 15510,
    "jet": 13744,
    "Ġexercised": 24800,
    "hurt": 19880,
    "Ġrevers": 21668,
    "Ġsphy": 18312,
    "paying": 25412,
    "rior": 12745,
    "phew": 6368,
    "ieve": 1660,
    "Ġshocks": 16458,
    "Ġtwine": 14313,
    "shrouded": 26363,
    "Ġfright": 3794,
    "Ġtidy": 17093,
    "invol": 12534,
    "itchen": 7788,
    "Ġscrewed": 15123,
    "ĠÂ£": 5006,
    "que": 1115,
    "Ġteneriffe": 26415,
    "begin": 8886,
    "Ġcaptivating": 26051,
    "erate": 7149,
    "Ġmorsel": 20680,
    "Ġwheeling": 18289,
    "Ġ1869": 19387,
    "Ġsorrow": 4628,
    "Ġnomine": 26457,
    "Ġshoot": 11162,
    "Ġpictures": 5503,
    "Ġwaggish": 25435,
    "mannered": 22855,
    "stocks": 23824,
    "ain": 343,
    "Ġvalid": 1735,
    "thrasher": 25659,
    "Ġinfluence": 5515,
    "Ġscholar": 26112,
    "Ġblown": 12089,
    "Ġinvited": 6902,
    "Ġdebar": 24273,
    "Ġdemoniac": 15069,
    "Ġtypewritten": 16424,
    "stricken": 9886,
    "rugged": 6848,
    "protection": 19922,
    "Ġchorus": 10947,
    "Ġaffront": 18790,
    "Ġfatigue": 8701,
    "Ġflowing": 14413,
    "Ġloom": 7628,
    "softened": 20413,
    "Ġhenry": 5197,
    "_.)": 7277,
    "Ġtru": 4104,
    "Ġflannel": 26578,
    "Ġdolphins": 20399,
    "tossed": 10998,
    "Ġenem": 4708,
    "Ġconstrued": 26302,
    "Ġproof": 6154,
    "Ġwherefore": 8526,
    "rifled": 21050,
    "Ġrisks": 9966,
    "Ġvib": 8166,
    "showing": 22461,
    "Ġvalues": 2651,
    "Ġsprawling": 22144,
    "Ġsevered": 18204,
    "Ġreceptacle": 23195,
    "Ġemptied": 24346,
    "shazzar": 15292,
    "Ġembarr": 7445,
    "elope": 14470,
    "Ġrelease": 19292,
    "Ġsurpass": 13586,
    "Ġclearness": 23187,
    "D": 40,
    "Ġdisplaying": 16967,
    "Ġeat": 4643,
    "Ġsupplication": 25492,
    "Ġfinancial": 23132,
    "Ġdomineer": 23669,
    "africa": 26309,
    "Ġwomen": 4750,
    "Ġrank": 6259,
    "Ġlashed": 9200,
    "Ġwould": 650,
    "Ġmazes": 25941,
    "Ġinsupportable": 13934,
    "Ġtroubled": 6617,
    "shire": 3020,
    "Ġlap": 8439,
    "rated": 6228,
    "Ġcle": 1508,
    "retreat": 23141,
    "Ġthirt": 13941,
    "whip": 22242,
    "vius": 23545,
    "Ġmonday": 6128,
    "Ġjail": 22299,
    "nlp": 8754,
    "Ġegotistical": 26193,
    "sake": 13785,
    "late": 11500,
    "Ġhunter": 5401,
    "Ġcorrespondence": 10596,
    "Ġsumatra": 15289,
    "Ġoccasions": 7989,
    "amiable": 14056,
    "extinguish": 22762,
    "Ġcoward": 7155,
    "rebell": 17764,
    "Ý": 158,
    "Ġtiar": 21170,
    "Ġaustrian": 24301,
    "Ġpurses": 23478,
    "Ġpoetry": 15083,
    "Ġriotous": 20547,
    "instruct": 19545,
    "]": 65,
    "Ġneedle": 8276,
    "anks": 3914,
    "intelligence": 5884,
    "Ġcotton": 17381,
    "Ġexertion": 8055,
    "Ġreus": 8825,
    "Ġrippling": 17279,
    "Ġepicurean": 20558,
    "Ġacre": 22685,
    "gal": 15358,
    "achable": 14139,
    "Ġcoefficient": 2882,
    "Ġwrecks": 16819,
    "Ġprovincial": 20652,
    "Ġperished": 11787,
    "Ġcoron": 4465,
    "Ġcountenance": 3969,
    "Ġperilously": 24503,
    "brill": 16492,
    "Ġbestowed": 6594,
    "wear": 22687,
    "ermost": 7429,
    "requirements": 24858,
    "opÃ¦": 12877,
    "Ġkneeling": 12146,
    "Ġforeseeing": 23452,
    "hauteur": 26392,
    "Ġsheer": 14152,
    "education": 20304,
    "Ġobliquely": 12365,
    "Ġlately": 6387,
    "Ġbeggar": 9351,
    "Ġcrossing": 7251,
    "col": 3103,
    "Ġturnpike": 23032,
    "eastward": 15132,
    "Ġsubsiding": 23437,
    "icult": 3343,
    "Ġplan": 3878,
    ".": 18,
    "Ġrabbit": 4288,
    "angered": 16180,
    "Ġpanting": 11605,
    "Ġliter": 8815,
    "Ġstrike": 4857,
    "Ġlatent": 19658,
    "Ġmould": 6519,
    "Ġaye": 3354,
    "mmet": 10989,
    "Ġfuneral": 10284,
    "Ġsurprise": 3826,
    "Ġencamped": 22806,
    "Ġevolve": 3002,
    "ivorous": 22092,
    "orney": 17875,
    "Ġsordid": 26423,
    "Ġholiday": 13002,
    "Ġfainting": 16898,
    "Ġexpression": 4516,
    "baron": 24926,
    "chant": 4258,
    "Ġbehaviors": 13258,
    "Ġwoke": 21292,
    "Ġdissuade": 26258,
    "Ġliberality": 24376,
    "paint": 21020,
    "Ġcolleague": 17161,
    "Ġquick": 2582,
    "Ġreward": 6145,
    "traces": 24335,
    "great": 3517,
    "Ġcreases": 22728,
    "Ġcaged": 21355,
    "rush": 7011,
    "Ġgave": 2217,
    "Ġserves": 4668,
    "Ġseating": 18200,
    "plague": 21964,
    "natured": 7111,
    "Ġbon": 8789,
    "carrying": 16714,
    "gangway": 20670,
    "Ġrendered": 5773,
    "Ġplunge": 13446,
    "Ġhandsome": 4907,
    "twain": 23702,
    "Ġmeasurement": 19426,
    "burst": 10539,
    "Ġmartyr": 26362,
    "Ġvestige": 20066,
    "Ġbounce": 21396,
    "Ġfortitude": 9887,
    "ú": 187,
    "blasted": 20192,
    "Ġdetested": 14176,
    "Ġhinge": 25542,
    "Ġmaintain": 855,
    "continuing": 24478,
    "tumultuously": 25614,
    "Ġadhering": 14141,
    "Ġunthink": 18248,
    "Ġspirit": 3723,
    "hark": 15368,
    "held": 3837,
    "overcoat": 19053,
    "Ġsple": 21218,
    "Ġbase": 5013,
    "Ġced": 10785,
    "deformity": 22151,
    "Ġalms": 21785,
    "bearers": 18525,
    "post": 6063,
    "Ġdepos": 11006,
    "superiority": 20188,
    "Ġunfinished": 19512,
    "ker": 5792,
    "Ġconjugal": 25104,
    "imagine": 19934,
    "Ġinsincere": 26600,
    "Ġunexampled": 20363,
    "Ġcharge": 5325,
    "oir": 21004,
    "Ġseren": 7400,
    "Ġcollar": 11882,
    "Ġscruples": 15081,
    "iana": 7049,
    "Ġpresentiment": 18990,
    "Ġtrembled": 8705,
    "whal": 10941,
    "trade": 19647,
    "Ġrepining": 23364,
    "Ġsecuring": 11994,
    "Ġcompromising": 22579,
    "seat": 18127,
    "ensing": 12903,
    "benefit": 24643,
    "Ġnecessary": 4474,
    "Ġassuring": 13068,
    "Ġcork": 12573,
    "silver": 19693,
    "Ġcruise": 12052,
    "generous": 16570,
    "Ġlashing": 11618,
    "Ġdelic": 4133,
    "Ġarisen": 11746,
    "alyards": 18782,
    "diversity": 25898,
    "Ġbonds": 17871,
    "Ġint": 409,
    "Ġisolated": 13562,
    "humorously": 24023,
    "ce": 313,
    "Ġwapping": 21297,
    "Ġrack": 9314,
    "Ġlifted": 6985,
    "Ġpersian": 11091,
    "Ġlift": 8814,
    "Ġdeployment": 11206,
    "seventh": 12718,
    "Ġcease": 7077,
    "Ġcens": 8415,
    "Ġfishers": 19357,
    "Ġfeigned": 22215,
    "Ġtreacherous": 13557,
    "Ġsmacking": 20168,
    "Ġresemblance": 7974,
    "ocity": 8279,
    "ascal": 10194,
    "Ġtransfer": 2277,
    "Ġsneer": 13450,
    "aug": 1212,
    "Ġhue": 8431,
    "Ġinconven": 7586,
    "Ġwoody": 23520,
    "Ġexecutioner": 12275,
    "high": 6651,
    "sorrow": 12512,
    "Ġloveliest": 20264,
    "Ġtroublesome": 24005,
    "Ġpalace": 16690,
    "stige": 21665,
    "Ġdreaminess": 23943,
    "Ġwrite": 3818,
    "itz": 6007,
    "Ġado": 7626,
    "..": 5783,
    "Ġke": 1155,
    "anke": 15564,
    "how": 1646,
    "adays": 14015,
    "walls": 25346,
    "Ġtrying": 4840,
    "Ġshooting": 11163,
    "Ġfancying": 12116,
    "vengeance": 13360,
    "Ġduchess": 4800,
    "Ġmoments": 4847,
    "destroy": 19513,
    "Ġcounter": 6481,
    "Ġowl": 20087,
    "Ġforeign": 9874,
    "shop": 14238,
    "Ġgushed": 21611,
    "pse": 21011,
    "trip": 21094,
    "murmured": 24454,
    "Ġcorrespondent": 19825,
    "Ġanytime": 12889,
    "Ġfretfulness": 25449,
    "Ġlif": 10197,
    "Ġfolks": 14428,
    "autumn": 23346,
    "ague": 3903,
    "Ġmadden": 10448,
    "detained": 24381,
    "cles": 8729,
    "Ġunsavory": 20709,
    "Ġessentials": 20006,
    "Ġdenied": 9002,
    "Ġamiss": 18513,
    "Ġsnoring": 23742,
    "Ġcircumspect": 15087,
    "seldom": 13789,
    "tube": 20414,
    "germ": 15359,
    "rods": 21542,
    "Ġglared": 13022,
    "Ġfiddle": 25445,
    "nor": 2739,
    "Ġcolumns": 14378,
    "Ġunfathomably": 25874,
    "wra": 11543,
    "inated": 6804,
    "Ġcomplaint": 24775,
    "Ġprevious": 2088,
    "Ġmelt": 21320,
    "reduced": 15808,
    "Ġaccents": 14212,
    "Ġrecollected": 8312,
    "Ġbes": 2659,
    "spin": 22736,
    "Ġsurmises": 17055,
    "Ġhyp": 3869,
    "Ġunmethodically": 22073,
    "Ġdazed": 15599,
    "Ġjoists": 19235,
    "itching": 21338,
    "Ġbedford": 7474,
    "torm": 11532,
    "onet": 12549,
    "incess": 15484,
    "Ġwithstand": 10227,
    "Ġmanager": 11772,
    "Ġbriony": 9331,
    "Ġholds": 7977,
    "Ġdomes": 23668,
    "gravel": 22624,
    "stolidity": 21667,
    "Ġmah": 15544,
    "canonical": 22967,
    "quimaux": 21864,
    "town": 7143,
    "Ġescaped": 6459,
    "staking": 21652,
    "Ġscraggy": 24579,
    "begone": 12882,
    "accomplishments": 25327,
    "dischar": 19155,
    "Ġaccommodate": 20520,
    "Ġyears": 1893,
    "Ġintending": 11707,
    "Ġinquiry": 6484,
    "list": 7550,
    "damp": 15346,
    "foot": 9048,
    "Ġfert": 15585,
    "xes": 21143,
    "Ġassaults": 15159,
    "myself": 5113,
    "abiding": 21798,
    "Ġprinc": 4200,
    "Ġphrases": 2795,
    "Ġshr": 4225,
    "asiness": 8130,
    "bell": 7331,
    "Ġmeditations": 25016,
    "Ġcomputation": 964,
    "alcul": 15631,
    "Ġcorrect": 2432,
    "track": 24334,
    "extracts": 22763,
    "Ġeffaced": 18541,
    "Ġledger": 19405,
    "got": 6954,
    "Ĵ": 245,
    "Ġris": 4887,
    "Ġgemini": 26470,
    "Ġcrackling": 24963,
    "Ġmountain": 3373,
    "Ġhardy": 8568,
    "othe": 2614,
    "Ġpalsied": 25780,
    "Ġconse": 21809,
    "Ġsuffusing": 23034,
    "Ġfossil": 12390,
    "unbounded": 21890,
    "od": 350,
    "Ġpeleg": 3737,
    "inter": 2948,
    "Ġgloomily": 14802,
    "Ġdisciple": 22787,
    "Ġdancing": 5703,
    "Ġenvelop": 5586,
    "Ġbass": 17857,
    "Ġdefine": 9817,
    "Ġdire": 865,
    "Ġlobes": 22120,
    "Ġdispleasure": 16054,
    "Ġeye": 2282,
    "Ġbarely": 16937,
    "Ġloite": 22116,
    "Ġshouldn": 14327,
    "Ġbapt": 13898,
    "Ġbegged": 8232,
    "Ġdevout": 14335,
    "Ġapparel": 20439,
    "storied": 18027,
    "Ġthreatens": 24374,
    "Ġsilly": 7686,
    "Ġyielding": 12190,
    "Ġshallow": 14397,
    "beneath": 9537,
    "Ġunman": 12778,
    "soo": 18687,
    "Ġjackets": 19605,
    "ascar": 8437,
    "Ġentity": 10346,
    "Ġvap": 6836,
    "Ġreluctant": 20528,
    "Ġfollies": 16258,
    "hing": 981,
    "response": 25763,
    "ł": 259,
    "Ġdistinguishing": 16497,
    "Ġanonymous": 26179,
    "Ġtearless": 24785,
    "Ġinfallible": 15073,
    "Ġdefy": 11900,
    "Ġpantry": 20298,
    "culine": 19067,
    "Ġcriminal": 7536,
    "Ġcoin": 9773,
    "pacing": 21023,
    "Ġswarming": 16275,
    "affections": 17358,
    "Ġeyebrows": 23517,
    "performances": 26007,
    "Ġineffable": 17334,
    "Ġintelligently": 3913,
    "dashing": 20838,
    "ü": 189,
    "una": 21874,
    "Ġshorter": 4499,
    "Ġofficer": 6754,
    "Ġlazy": 17050,
    "ĠâĢĶ": 13813,
    "Ġwave": 7575,
    "Ġwail": 21289,
    "Ġstaple": 26200,
    "Ġhen": 3503,
    "Ġcontract": 18476,
    "Ġtantamount": 25626,
    "Ġemploys": 19434,
    "Ġflukes": 5267,
    "Ġxxxi": 24971,
    "interesting": 12205,
    "Ġloosened": 26003,
    "calcul": 12991,
    "Ġcaress": 16341,
    "Ġgolden": 5337,
    "Ġrecognise": 12040,
    "Ġsettles": 22924,
    "leaned": 21372,
    "Ġobstacle": 16956,
    "kles": 17585,
    "ibid": 18842,
    "Ġmassachusetts": 24025,
    "epend": 3317,
    "Ġwound": 4528,
    "Ġdoub": 1835,
    "obviously": 25243,
    "Ġdanced": 7843,
    "squ": 7810,
    "Ġbro": 1430,
    "mit": 4934,
    "Ġushered": 18361,
    "thankful": 16807,
    "hemat": 3128,
    "Ġmenaces": 23111,
    "Ġoccasioned": 13231,
    "stranger": 9885,
    "elder": 21576,
    "Ġ76": 24264,
    "Ġemotion": 7690,
    "je": 11497,
    "Ġbinding": 20422,
    "Ġlawyer": 10670,
    "Ġloss": 825,
    "Ġrecur": 1624,
    "Ġoverheard": 11777,
    "declaration": 25176,
    "Ġfloats": 9415,
    "Ġrough": 7186,
    "Ġshovel": 23493,
    "Ġpepper": 9783,
    "opy": 4459,
    "Ġhenceforth": 19645,
    "Ġmeantime": 6207,
    "Ġhopkins": 23133,
    "Ġpawnbroker": 13661,
    "alliance": 22205,
    "strip": 19833,
    "Ġuniversally": 12002,
    "Ġdaw": 21433,
    "Ġfatig": 6757,
    "urch": 3991,
    "Ġtorment": 8677,
    "Ġadvantageously": 19548,
    "Ġcritically": 23446,
    "presently": 9809,
    "Ġnecessity": 7295,
    "Ġgre": 1586,
    "extrem": 18704,
    "Ġarch": 936,
    "Ġeel": 18004,
    "ardy": 22161,
    "Ġwhistled": 24625,
    "Ġmaddening": 17244,
    "Ġlawyers": 25249,
    "umbent": 12093,
    "herent": 2529,
    "onder": 3777,
    "Ġfl": 1280,
    "interred": 23739,
    "Ġassented": 17340,
    "Ġbreaks": 13186,
    "resp": 13841,
    "Ġhooped": 23359,
    "Ġencomp": 12967,
    "Ġopening": 5045,
    "allow": 5104,
    "appalled": 18762,
    "ilty": 6394,
    "tra": 5002,
    "Ġroarings": 25302,
    "Ġsor": 4145,
    "Ġ20": 8617,
    "Ġshroud": 6483,
    "prosper": 19102,
    "amous": 15764,
    "Ġpalpitated": 26086,
    "Ġpantheistic": 26337,
    "Ġ67": 19663,
    "Ġpianoforte": 15276,
    "Ġdesper": 6177,
    "Ġmorcar": 13019,
    "Ġconversation": 3332,
    "Ġwoodlands": 23522,
    "Ġordin": 16652,
    "Ġscal": 1556,
    "Ġventured": 7500,
    "Ġreappearance": 21671,
    "Ġenveloped": 12212,
    "Ġparmacetti": 20607,
    "Ġattempted": 8002,
    "Ġgaped": 13969,
    "oat": 13766,
    "Ġindies": 22955,
    "Ĺ": 250,
    "Ġmot": 2986,
    "Ġpaddles": 15150,
    "Ġquest": 2001,
    "Ġuseful": 3558,
    "Ġringle": 18211,
    "machines": 8386,
    "Ġdamning": 19141,
    "Ġsulphur": 24934,
    "endent": 15924,
    "suit": 18632,
    "pest": 6964,
    "Ġrealism": 18985,
    "Ġwhoa": 22427,
    "Ġcrash": 12004,
    "Ġsunday": 7269,
    "Ġconting": 18473,
    "ill": 447,
    "Ġdiffered": 22715,
    "cures": 20807,
    "Ġnook": 15931,
    "Ġfriendship": 7245,
    "Ġhorse": 4725,
    "ctions": 951,
    "susceptible": 24662,
    "Ġintellect": 8171,
    "Ġpreposter": 12826,
    "Ġmaz": 15545,
    "Ġcursed": 6727,
    "glory": 23855,
    "Ġkeener": 22919,
    "model": 3881,
    "Ġpatterns": 1214,
    "Ġfonder": 17882,
    "ald": 15628,
    "Ġox": 7153,
    "Ġparsee": 6413,
    "Ġworship": 10368,
    "Ġsupported": 9820,
    "assumed": 22313,
    "german": 11493,
    "ifiable": 18166,
    "batch": 1982,
    "benevolently": 25601,
    "Ġdimens": 3152,
    "Ġdismasted": 15254,
    "Ġfring": 11128,
    "Ġbearing": 5300,
    "Ġawkward": 7074,
    "9": 29,
    "Ġgloves": 8577,
    "Ġup": 463,
    "Ġlook": 880,
    "globe": 25145,
    "Ġexperiences": 13034,
    "Ġbooks": 4675,
    "Ġperfections": 23610,
    "Ġlogic": 13081,
    "Ġincorporate": 20457,
    "Ġcyn": 13888,
    "ropri": 2178,
    "Ġmeans": 699,
    "eel": 11485,
    "Ġdirected": 5578,
    "Ġreveren": 13198,
    "brous": 19201,
    "Ġdistributed": 18662,
    "Ġlucky": 7759,
    "wal": 10135,
    "atible": 17773,
    "akes": 2218,
    "ield": 2407,
    "Ġverd": 6918,
    "over": 1846,
    "Ġintroduction": 8972,
    "Ġaccusation": 22385,
    "Ġsad": 3864,
    "Ġcruisings": 25865,
    "Ġincompatible": 25681,
    "thy": 2934,
    "Ġproceedings": 9909,
    "Ġfrog": 23925,
    "devoted": 20020,
    "needle": 20313,
    "Ġessentially": 24925,
    "doctor": 19097,
    "abri": 6683,
    "Ġexclusion": 19399,
    "Ġartful": 22613,
    "Ö": 151,
    "inese": 12883,
    "Ġtended": 21169,
    "Ġconsequently": 8061,
    "gorith": 556,
    "Ġcruel": 5121,
    "Ġcopying": 17068,
    "Ġcovering": 13259,
    "Ġgryphon": 4299,
    "Ġaffidavit": 20726,
    "Ġspilling": 22142,
    "becomes": 22501,
    "yards": 9625,
    "ittleness": 22381,
    "Ġcandid": 4097,
    "Ġunfor": 15842,
    "laying": 19775,
    "Ġassistance": 6334,
    "Ġadvances": 13000,
    "Ġfirmament": 19474,
    "Ġhatchet": 16530,
    "legged": 10467,
    "Ġfeature": 750,
    "Ġ]": 15461,
    "Ġchisel": 20371,
    "Ġcarriage": 3949,
    "prise": 7727,
    "umber": 5241,
    "anx": 8787,
    "Ġregularization": 1187,
    "Ġsnaky": 23744,
    "Ġforthwith": 16619,
    "ouring": 6420,
    "iony": 9193,
    "Ġdrove": 4984,
    "Ġprophes": 16351,
    "Ġdegraded": 19229,
    "Ġunjust": 8485,
    "Ġbat": 10796,
    "Ġlock": 5929,
    "finish": 24383,
    "Ġcanoes": 12809,
    "Ġsegment": 12761,
    "Ġhavoc": 15816,
    "Ġdrunken": 12053,
    "Ġemblem": 20501,
    "Ġrecommended": 8671,
    "digger": 24311,
    "rons": 21042,
    "Ġdefend": 9342,
    "Ġjingling": 26018,
    "Ġavail": 11227,
    "Ġshoals": 13137,
    "Ġpositives": 4316,
    "Ġslew": 23386,
    "Ġsucceed": 4545,
    "Ġdrab": 13074,
    "therefore": 5955,
    "Ġcompiled": 22576,
    "Ġstreng": 18073,
    "Ġest": 2266,
    "Ġcorporeally": 25729,
    "Ġhail": 7399,
    "Ġmiguel": 25767,
    "Ġsacrificed": 17424,
    "onement": 21259,
    "Ġabhor": 5467,
    "came": 4570,
    "Ġadditional": 7936,
    "Ġabandoned": 8353,
    "disaster": 23495,
    "Ġunprejudiced": 18270,
    "Ġwhile": 606,
    "Ġconj": 8462,
    "regret": 16450,
    "variance": 2655,
    "cele": 21629,
    "Ġfeels": 6881,
    "Ġunerringly": 18266,
    "Ġben": 1110,
    "Ġpropri": 6739,
    "Ġmatlock": 18805,
    "Ġstubborn": 10415,
    "Ġbaff": 10800,
    "Ġattract": 11837,
    "grew": 17556,
    "Ġtusk": 25426,
    "Ġspasmodic": 20401,
    "Ġfing": 3755,
    "bab": 11469,
    "Ġblo": 2731,
    "Ġmutable": 23958,
    "Ġtottenham": 24143,
    "outward": 22165,
    "Ġpersistence": 3067,
    "Ġparis": 8180,
    "Ġconfl": 11138,
    "orts": 2555,
    "Ġsoldiers": 8690,
    "Ġingenious": 12351,
    "iors": 9127,
    "Ġstock": 7454,
    "corrob": 24484,
    "Ġdeceive": 12726,
    "Ġseethings": 26504,
    "omorrah": 18020,
    "Ġyou": 366,
    "feeders": 25236,
    "Ġrequired": 7225,
    "Ġcharacteristics": 8613,
    "fes": 20853,
    "degrees": 22155,
    "wolf": 26410,
    "Ġfighting": 12201,
    "Ġgenerously": 22407,
    "Ġworker": 23043,
    "Ġsplintered": 11419,
    "Ġconfided": 19038,
    "Ġhire": 21489,
    "Ġwant": 1119,
    "Ġsecretly": 13275,
    "chard": 21691,
    "Ġvelv": 10621,
    "Ġfurlongs": 20725,
    "lashed": 20956,
    "Ġslain": 8955,
    "letter": 6202,
    "Ġveter": 15814,
    "Ġloitered": 26526,
    "umbled": 8494,
    "Ġnailed": 10191,
    "asc": 6386,
    "Ġbinnacle": 8120,
    "Ġearnestly": 5980,
    "occupations": 24969,
    "oney": 3049,
    "Ġnative": 4640,
    "depart": 12269,
    "Ġrespects": 7268,
    "ication": 989,
    "thin": 14099,
    "street": 6495,
    "Ġcupboard": 16884,
    "Ġderive": 10396,
    "Ġtor": 8107,
    "Ġfloundered": 18863,
    "endar": 18365,
    "evinced": 19928,
    "Ġso": 430,
    "Ġphrensy": 25127,
    "Ġinvoking": 19147,
    "clean": 14762,
    "ther": 482,
    "like": 1887,
    "istic": 970,
    "mates": 5073,
    "Ġdormouse": 4926,
    "Ġcet": 6671,
    "Ġintervals": 5597,
    "Ġisle": 8836,
    "Ġcontemplation": 11358,
    "Ġagonies": 14253,
    "Ġseats": 14090,
    "our": 534,
    "down": 3469,
    "algorithm": 4332,
    "Ġpile": 8426,
    "fail": 17541,
    "broke": 14780,
    "Ġcried": 1485,
    "Ġaver": 1285,
    "Ġnoblest": 13245,
    "satisfy": 16893,
    "Ġrhine": 12359,
    "Ġboasted": 16109,
    "goodness": 19290,
    "Ġlady": 1590,
    "ressed": 3022,
    "onical": 21256,
    "throne": 25658,
    "Ġfingers": 5672,
    "Ġanother": 1739,
    "moored": 22708,
    "droppers": 24758,
    "illa": 12797,
    "Ġlamented": 24996,
    "Ġrashly": 20308,
    "educ": 10829,
    "Ġchimer": 24604,
    "Ġvisions": 12977,
    "Ġheinous": 18041,
    "Ġseparate": 5778,
    "gentle": 5357,
    "possession": 12225,
    "Ġteaches": 18799,
    "Ġexpose": 10329,
    "Ġveracity": 23892,
    "Ġcontextual": 3741,
    "Ġbadge": 16681,
    "Ġepicures": 25880,
    "Ġwhistling": 19793,
    "Ġswiss": 18883,
    "blue": 13696,
    "Ġseparated": 9466,
    "lust": 15382,
    "Ġinherent": 4591,
    "Ġvilla": 14749,
    "rying": 3188,
    "oboam": 9360,
    "Ġdangerous": 6615,
    "Ġrelish": 14386,
    "itself": 7835,
    "Ġaffecting": 2326,
    "opic": 22481,
    "Ġdiffident": 23786,
    "camp": 15332,
    "Ġprodigies": 19796,
    "itically": 21333,
    "Ġdeceiving": 21842,
    "iation": 7342,
    "Ġchronicler": 20232,
    "Ġfoes": 11954,
    "partner": 19224,
    "Ġfriday": 14489,
    "Ġallowance": 14391,
    "swiss": 24257,
    "offers": 16398,
    "Ġappe": 1538,
    "accompan": 11453,
    "Ġexclaimed": 4682,
    "franch": 24285,
    "ernity": 18614,
    "Ġspies": 22133,
    "Ġperusal": 14226,
    "âĢĿ]": 21820,
    "Ġbed": 2150,
    "Ġgrimesby": 11458,
    "ends": 6040,
    "prove": 11148,
    "never": 3154,
    "ĠĠĠĠĠĠĠĠĠĠĠĠĠĠĠĠĠĠĠĠĠĠĠĠĠĠĠĠĠĠĠĠĠĠĠĠĠ": 14616,
    "permitted": 18344,
    "Ġnoiselessly": 22868,
    "place": 4153,
    "Ġbenefit": 8294,
    "Ġunch": 18240,
    "oars": 9616,
    "Ġmomentum": 1605,
    "dem": 10694,
    "Ġto": 297,
    "Ġans": 1647,
    "Ġassuming": 16693,
    "iliating": 12699,
    "Ġenabling": 1082,
    "arson": 22752,
    "Ġapex": 24341,
    "Ġcleans": 18950,
    "wag": 21126,
    "iceland": 21570,
    "Ġladen": 19179,
    "poss": 4778,
    "ene": 2168,
    "Ġ(`": 12856,
    "Ġantiquities": 25599,
    "Ġyojo": 7610,
    "Ġbespe": 19244,
    "Ġjem": 18403,
    "Ġintegral": 25011,
    "ppo": 18178,
    "Ġdisturbing": 19949,
    "Ġnotes": 7188,
    "ime": 625,
    "Ġarid": 22181,
    "Ġtraitors": 23082,
    "Ġric": 18210,
    "Ġmakes": 3651,
    "mot": 17597,
    "hau": 17563,
    "Ġcomput": 601,
    "preference": 22467,
    "bird": 9587,
    "Ġbring": 3326,
    "roused": 16654,
    "orne": 17874,
    "Ġgreenhorn": 23771,
    "Ġintensified": 17019,
    "Ġprogrammed": 11059,
    "Ġvales": 21951,
    "Ġentit": 22748,
    "Ġsh": 419,
    "Ġthomas": 17950,
    "Ġhalting": 16276,
    "Ġsoap": 14132,
    "Ġcaroline": 7253,
    "Ġimpediments": 26242,
    "wonder": 6371,
    "Ġarrows": 18337,
    "Ġhun": 1494,
    "ayed": 12716,
    "Ġcard": 7362,
    "turning": 8318,
    "nings": 9133,
    "Ġadieus": 25113,
    "trop": 15438,
    "Ġtoad": 21514,
    "iter": 4393,
    "etuous": 21587,
    "scept": 21056,
    "Ġbearded": 15730,
    "Ġending": 18924,
    "Ġluckless": 16798,
    "anoke": 21364,
    "scho": 8763,
    "remark": 7260,
    "Ġfervently": 25878,
    "unnatural": 15776,
    "frankly": 20025,
    "Ġmasts": 6465,
    "Ġsubtlety": 24779,
    "Ġawaiting": 11391,
    "tinted": 17684,
    "Ġunconcerned": 20513,
    "disappointed": 25192,
    "spirited": 19756,
    "Ġtriumphantly": 11288,
    "harpo": 4806,
    "Ġgrotes": 19566,
    "Ġri": 3395,
    "child": 5537,
    "join": 12117,
    "hope": 5991,
    "contrivance": 26317,
    "Ġattraction": 18626,
    "Ġhams": 16613,
    "Ġcrush": 9424,
    "jabez": 20935,
    "Ġconflict": 17275,
    "Ġdey": 11677,
    "Ġcapabilities": 4378,
    "Ġenlarge": 21940,
    "lac": 17590,
    "Ġbenches": 18783,
    "ide": 722,
    "el": 306,
    "Ġacquaintances": 17352,
    "ach": 435,
    "Ġsmooth": 2777,
    "Ġimmemorial": 10512,
    "ĠĠĠĠĠĠĠĠĠĠĠĠĠĠĠĠĠĠĠĠĠĠĠĠĠĠĠĠĠĠĠĠĠĠĠĠĠĠ": 16526,
    "beheld": 11804,
    "Ġstraps": 19312,
    "Ġharrow": 17928,
    "less": 929,
    "pond": 21015,
    "Ġgloomy": 7503,
    "Ġunholy": 26220,
    "Ġwaters": 3595,
    "Ġunh": 9255,
    "dressing": 11483,
    "terr": 8155,
    "Ġmotioned": 19595,
    "Ġfluke": 14675,
    "adieu": 26202,
    "Ġheaved": 9385,
    "ady": 996,
    "Ġsmelt": 16071,
    "Ġenc": 966,
    "Ġheroic": 14910,
    "Ġplat": 8522,
    "Ġaudible": 19883,
    "asburgh": 15650,
    "Ġfortune": 4240,
    "Ġescapes": 23509,
    "Ā": 193,
    "progress": 11990,
    "Ġtwitch": 22680,
    "Ġself": 1779,
    "Ġyore": 21783,
    "Ġroman": 8324,
    "cadence": 26126,
    "Ġdetermining": 14423,
    "Ġgurglings": 26466,
    "Ġtube": 15004,
    "Ġsurpassing": 20471,
    "Ġgall": 4352,
    "la": 10706,
    "wise": 2574,
    "Ġsurvive": 9069,
    "Ġrestless": 10414,
    "Ġleakage": 23461,
    "oured": 2670,
    "Ġoccupations": 9460,
    "Ġcrossed": 6070,
    "Ġfoundering": 21423,
    "Ġapprehen": 16830,
    "ç": 168,
    "Ġduring": 873,
    "uten": 11624,
    "Ġforce": 5092,
    "cup": 10693,
    "backs": 9393,
    "Ġwine": 6810,
    "Ġprair": 7747,
    "Ġaudibly": 24770,
    "Ġcharcoal": 19008,
    "judgment": 16754,
    "Ġexpectation": 6903,
    "Ġmusty": 22684,
    "Ġcurls": 22976,
    "Ġissu": 6254,
    "Ġcards": 7580,
    "uzzle": 19586,
    "Ġrelaps": 18776,
    "Ġlabours": 8585,
    "voyages": 24856,
    "Ġdisd": 7031,
    "ositories": 22269,
    "Ġirritated": 17243,
    "en": 271,
    "Ġgovernesses": 25130,
    "Ġthick": 3780,
    "holding": 7739,
    "Ġcaught": 3729,
    "tol": 17673,
    "intended": 11067,
    "Ġgiver": 21609,
    "Ġbillows": 7501,
    "Ġnonce": 23238,
    "destined": 24115,
    "ier": 1136,
    "Ġgarn": 13965,
    "Ġaccusations": 22384,
    "Ġharpo": 1942,
    "Ġhauled": 11697,
    "doing": 8587,
    "ine": 404,
    "yielded": 25757,
    "Ġreproofs": 24893,
    "kshire": 13748,
    "animals": 24737,
    "Ġquenched": 22422,
    "Ġbless": 4343,
    "quitted": 21862,
    "does": 6195,
    "Ġtransformer": 2636,
    "Ġshuddering": 9053,
    "Ġdynam": 3304,
    "Ġabatement": 22281,
    "Ġencountering": 11270,
    "Ġindependent": 9018,
    "handled": 19263,
    "tom": 15437,
    "Ġthine": 7373,
    "À": 129,
    "impatience": 25501,
    "Ġabroad": 8868,
    "hew": 5286,
    "hopeless": 16918,
    "roc": 9676,
    "Ġsperm": 1843,
    "Ġsluggish": 25891,
    "Ġkins": 22199,
    "Ġbenjam": 22894,
    "anite": 17839,
    "Ġplates": 11008,
    "despicable": 24639,
    "Ġplaces": 5390,
    "creation": 14808,
    "oubted": 5860,
    "Ġunprepared": 22053,
    "Ġrepute": 18037,
    "Ġtrifle": 10603,
    "Ġinseparable": 20691,
    "driven": 19774,
    "ued": 7560,
    "ignor": 8963,
    "clifford": 23159,
    "Ġwhites": 21721,
    "Ġdecorated": 22445,
    "Ġsituated": 9450,
    "nelson": 25621,
    "fl": 3599,
    "Ġshaster": 22003,
    "Ġattested": 22630,
    "Ġapplies": 11962,
    "Ġexertions": 13413,
    "so": 888,
    "astern": 8584,
    "Ġpublisher": 24068,
    "Ġkinds": 14505,
    "shipped": 18492,
    "Ġflour": 8946,
    "Ġloud": 4701,
    "Ġcircumvent": 25067,
    "Ġdinn": 23984,
    "unched": 10237,
    "interval": 7992,
    "said": 4102,
    "Ġsacrifice": 9557,
    "isher": 2876,
    "trimmed": 23952,
    "Ġordered": 5833,
    "Ġsalesman": 13671,
    "Ġhelmet": 19690,
    "iour": 4036,
    "Ġscatter": 18398,
    "Ġnamed": 6140,
    "Ġglimpse": 6943,
    "<MASK>": 4,
    "unch": 14060,
    "system": 4138,
    "direful": 25897,
    "man": 1052,
    "Ġche": 1763,
    "Ġfountains": 13505,
    "Ġfrankenstein": 7096,
    "Ġmans": 15539,
    "star": 12676,
    "either": 6791,
    "Ġexploded": 15912,
    "intments": 18822,
    "Ġwreat": 15533,
    "squeezing": 25914,
    "tee": 16175,
    "presumption": 20445,
    "feeder": 12364,
    "Ġbag": 5699,
    "Ġfiercely": 12956,
    "Ġslink": 23165,
    "uded": 6287,
    "mystic": 25317,
    "Ġstride": 22621,
    "Ġbeaufort": 13571,
    "ladyship": 14831,
    "Ġmar": 1311,
    "Ġwisest": 11233,
    "Ġsorrowful": 10538,
    "acute": 22550,
    "Ġrepressed": 21672,
    "Ġstands": 5259,
    "Ġderiv": 1736,
    "Ġlistening": 6319,
    "Ġruns": 8599,
    "Ġrepair": 11981,
    "Ġlater": 6018,
    "produced": 25415,
    "Ġscores": 2712,
    "shel": 11933,
    "Ġmo": 628,
    "scru": 16245,
    "icts": 22405,
    "Ġenigmatical": 20600,
    "Ġplans": 7920,
    "Ġelementary": 24811,
    "Ġautumnal": 19045,
    "Ġsubfield": 11872,
    "bordered": 17500,
    "cross": 3575,
    "Ġcampa": 17175,
    "Ġsul": 7569,
    "ariously": 18528,
    "sand": 21055,
    "Ġadvers": 4888,
    "sor": 7351,
    "Ġtherefore": 2240,
    "hairs": 20906,
    "Ġbug": 11591,
    "Ġassurances": 10002,
    "Ġbiscuit": 12593,
    "Ġweapon": 7776,
    "Ġpenalty": 1840,
    "Ġarmies": 16493,
    "iop": 20921,
    "aulding": 11340,
    "Ġdoesn": 7437,
    "quadr": 15767,
    "Ġgore": 17991,
    "arness": 11674,
    "Ġloved": 4599,
    "spades": 14337,
    "Ġcharger": 19006,
    "Ġmaimed": 21319,
    "guest": 19485,
    "Ġdaylight": 10352,
    "Ġsea": 1208,
    "bergen": 14331,
    "Ġreliance": 14387,
    "Ġhurst": 5581,
    "Ġtrade": 2546,
    "warrant": 21140,
    "Ġprecipitous": 24836,
    "Ġchimney": 6497,
    "Ġmurmur": 14590,
    "Ġultimately": 17166,
    "Ġfangs": 12601,
    "prolong": 23398,
    "Ġguided": 10461,
    "Ġburst": 4381,
    "Ġpresentation": 14482,
    "punct": 20195,
    "umps": 6318,
    "Ġvolcanoes": 24147,
    "Ġbefore": 813,
    "Ġswing": 13040,
    "ward": 705,
    "amplified": 26495,
    "reliable": 21243,
    "Ġincoherent": 17402,
    "Ġnewsp": 9341,
    "Ġbitter": 4172,
    "Ġinstances": 5567,
    "hotel": 20053,
    "Ġgrec": 18963,
    "Ġremnants": 22797,
    "Ġtrowsers": 9629,
    "Ġtelescopes": 25691,
    "Ġchivalry": 25820,
    "Ġunreserved": 19400,
    "pacific": 17642,
    "peace": 13053,
    "Ġgenerating": 12857,
    "aid": 1921,
    "furnished": 20244,
    "blocks": 25518,
    "Ġum": 10213,
    "Ġmund": 21321,
    "wand": 10739,
    "Ġpropagating": 20636,
    "ort": 521,
    "Ġmowers": 17814,
    "hmael": 7341,
    "Ġremorselessly": 16968,
    "izens": 18146,
    "Ġattentively": 9952,
    "Ġsmothered": 20722,
    "emberley": 4170,
    "Ġhourly": 23305,
    "oftentimes": 19424,
    "Ġpractised": 23330,
    "Ġwonders": 7499,
    "Ġimpertinent": 9079,
    "Ġcupidity": 24534,
    "Ġwrapping": 19778,
    "ersburgh": 18216,
    "Ġbeen": 626,
    "iverer": 11719,
    "Ġrecurred": 18979,
    "Ġnavel": 24576,
    "Ġrecounted": 22743,
    "aphys": 15204,
    "false": 15357,
    "zz": 4292,
    "Ġcentury": 8292,
    "illation": 14143,
    "Ġcannibal": 7774,
    "Ġtrusted": 10519,
    "disapprobation": 19159,
    "abhor": 12711,
    "Ġlaure": 16910,
    "Ġheels": 10851,
    "emporary": 15799,
    "Ġfrequencies": 4789,
    "tiger": 13799,
    "Ġsociable": 19406,
    "olera": 21838,
    "ableness": 8150,
    "oniously": 21260,
    "Ġstories": 10866,
    "wherefore": 19110,
    "Ġro": 596,
    "_:": 17480,
    "Ġsquare": 2396,
    "ak": 537,
    "solely": 19819,
    "Ġbelieve": 2144,
    "Ġgrammatical": 13541,
    "Ġlaughter": 9029,
    "incom": 21184,
    "wond": 8772,
    "Ġshipmate": 8931,
    "Ġspo": 6845,
    "houn": 20895,
    "gate": 12470,
    "Ġrepresent": 1211,
    "Ġcreamy": 14333,
    "Ġrate": 1065,
    "iant": 5427,
    "hereafter": 19219,
    "Ġincrease": 9372,
    "Ġsubstit": 19543,
    "promised": 12255,
    "Ġthrusts": 24349,
    "Ġtakes": 5007,
    "Ġscan": 22284,
    "Ġthroats": 24575,
    "Ġunattended": 15846,
    "Ġdeprec": 15761,
    "Ġresidual": 1680,
    "Ġtill": 1823,
    "declared": 15121,
    "Ġcrimin": 6900,
    "Ġaffirmative": 15225,
    "ostentatious": 20654,
    "Ġunt": 2295,
    "Ġbabel": 24425,
    "grim": 19108,
    "party": 8994,
    "Ġvibrated": 25048,
    "agation": 1223,
    "Ġglobu": 23275,
    "Ġdistingu": 2513,
    "Ġrelent": 18775,
    "othed": 16512,
    "Ġstoner": 7178,
    "Ġimagine": 3921,
    "cated": 20805,
    "Ġplaning": 22608,
    "Ġwhaler": 7519,
    "suffer": 24328,
    "horrors": 20544,
    "Ġcausal": 3411,
    "Ġkrus": 18350,
    "horn": 8087,
    "Ġpossessor": 23827,
    "most": 1258,
    "endeav": 7150,
    "Ġinflexibly": 26372,
    "Ġspatial": 2727,
    "hold": 3981,
    "Ġbenefits": 4286,
    "Ġsisters": 3640,
    "Ġack": 5621,
    "haz": 17565,
    "Ġjournal": 15221,
    "accursed": 20543,
    "Ġphren": 8574,
    "Ġroused": 7623,
    "Ġcaring": 23096,
    "Ġplanets": 24059,
    "Ġacquired": 13048,
    "yard": 5901,
    "Ġgradu": 15835,
    "do": 1995,
    "compass": 9462,
    "hence": 16626,
    "Ġcarried": 3692,
    "icient": 794,
    "geese": 22372,
    "Ġbr": 1074,
    "Ġbier": 22773,
    "Ġafloat": 9310,
    "Ġharpoon": 3616,
    "Ġeligible": 10672,
    "inferiors": 25347,
    "Åĵuv": 15185,
    "Ġjurors": 17346,
    "ric": 1377,
    "ses": 3028,
    "Ġundoubted": 19517,
    "Ġknots": 15010,
    "opolising": 25677,
    "fold": 7545,
    "Ġconfident": 11139,
    "Ġattached": 5392,
    "Ġ500": 24323,
    "Ó": 148,
    "Ġimp": 575,
    "pondicherry": 26401,
    "dia": 2131,
    "Ġuttered": 7279,
    "urday": 13997,
    "attle": 4467,
    "Ġsustained": 13485,
    "Ġlasting": 18793,
    "Ġbul": 3294,
    "Ġstake": 14005,
    "Ġjunks": 25116,
    "Ġaround": 3611,
    "atre": 17771,
    "Ġwives": 12559,
    "crews": 15044,
    "Ġcompression": 18147,
    "Ġauthoritative": 19564,
    "Ġcountry": 2532,
    "Ġhole": 6080,
    "Ġ79": 24266,
    "speaking": 12102,
    "Ġjabbering": 22308,
    "Ġrock": 5311,
    "Ġinfle": 16365,
    "Ġhandwriting": 14321,
    "rol": 5713,
    "Ġcuba": 25098,
    "pie": 21013,
    "Ġboth": 1657,
    "Ġsocial": 7007,
    "generative": 4329,
    "inders": 15983,
    "Ġremark": 2143,
    "string": 15689,
    "fi": 12465,
    "blot": 20785,
    "Ġbankrupt": 16797,
    "Ġsentinel": 26066,
    "continual": 20646,
    "Ġbowsprit": 16562,
    "oldened": 22645,
    "Ġinjured": 9041,
    "apparatus": 26564,
    "Ġgeneralization": 984,
    "Ġperson": 2370,
    "Ġsinful": 18951,
    "consist": 14818,
    "circumstance": 7764,
    "Ġeaten": 14847,
    "Ġpet": 4586,
    "Ġsleeping": 6320,
    "gul": 12469,
    "Ġfielding": 16232,
    "Ġsain": 17751,
    "brit": 19200,
    "Ġtall": 4037,
    "Ġguilt": 6180,
    "achel": 7032,
    "Ġwield": 21293,
    "Ġmild": 4146,
    "Ġdragon": 14946,
    "alizing": 17942,
    "Ġfearless": 9877,
    "Ġearnestness": 12129,
    "sper": 4436,
    "Ġanomalously": 25639,
    "Ġwoven": 9928,
    "Ġcompre": 4449,
    "Ġfake": 5811,
    "Ġreal": 1637,
    "mill": 13756,
    "Ġzoned": 22824,
    "Ġequalled": 13316,
    "Ġsober": 10911,
    "Ġstiff": 6992,
    "illar": 5101,
    "Ġinsomuch": 23685,
    "Ġspecimens": 18860,
    "ouri": 21451,
    "Ġcontentment": 14872,
    "Ġtimor": 24226,
    "Ġsobbing": 14135,
    "Ġperplexity": 2754,
    "cu": 10085,
    "Ġneighbour": 3805,
    "Ġnoticed": 5548,
    "Ġpleated": 16300,
    "Ġperman": 10965,
    "Ġherbage": 25997,
    "Ġmoose": 22436,
    "Ġdescends": 14287,
    "Ġcanes": 22169,
    "kin": 7132,
    "Ġfault": 5702,
    "stood": 4114,
    "Ġslaughtered": 26585,
    "Ġdrunk": 9426,
    "Ġtablet": 19207,
    "Ġasiatic": 20433,
    "Ġmal": 5221,
    "Ġclothes": 4997,
    "Ġpressed": 6043,
    "%": 9,
    "uc": 1877,
    "Ġrevolver": 14900,
    "Ġbalances": 2343,
    "bod": 12440,
    "ogn": 2416,
    "Ġirreproachable": 24918,
    "Ġinputs": 842,
    "Ī": 235,
    "iced": 3897,
    "Ġselfishness": 12292,
    "Ġclifford": 22359,
    "Ġchocks": 13349,
    "Ġuncivil": 11156,
    "Ġbrief": 6976,
    "Ġreven": 18031,
    "Ġbask": 8118,
    "manned": 18763,
    "Ġgeography": 23375,
    "ribe": 1224,
    "Ġdivert": 23595,
    "iet": 1775,
    "ons": 709,
    "ispensable": 9098,
    "Ġdisinterested": 16059,
    "shunned": 22465,
    "nowled": 5470,
    "Ġcourt": 4168,
    "repairing": 24494,
    "Ġaims": 15498,
    "ooped": 17624,
    "prison": 14664,
    "Ġheaths": 25973,
    "Ġthereupon": 18435,
    "aning": 2254,
    "preserve": 25304,
    "^": 66,
    "Ġprotesting": 14743,
    "Ġopal": 23628,
    "olently": 15760,
    "Ġwoeful": 19622,
    "Ġhalls": 19528,
    "ually": 2769,
    "Ġprofoundest": 16861,
    "Ġgrunt": 18736,
    "Ġdeposition": 18606,
    "effort": 19217,
    "thence": 23403,
    "ced": 744,
    "jeroboam": 25620,
    "Ġcaterpillar": 5865,
    "achines": 1723,
    "fellows": 12277,
    "irty": 4048,
    "Ġconquest": 15751,
    "waited": 24587,
    "Ġ29": 23732,
    "blunder": 24130,
    "ir": 379,
    "liberal": 26283,
    "Ġnuts": 17954,
    "Ġemma": 20697,
    "ineas": 15824,
    "aciously": 12900,
    "Ġwarmer": 19188,
    "Ĭ": 237,
    "Ġinsurance": 23684,
    "alescence": 15927,
    "Ġerskine": 17434,
    "Ġstation": 5299,
    "Ġdefile": 18825,
    "herself": 4891,
    "Ġpoet": 8209,
    "Ġamsterdam": 22489,
    "wig": 17705,
    "Ġupp": 13994,
    "Ġmomentarily": 22817,
    "Ġenergies": 25460,
    "presbyterian": 26370,
    "Ġcheery": 16370,
    "lydon": 13991,
    "toes": 22570,
    "Ġunfair": 19510,
    "repe": 8780,
    "dening": 22784,
    "Ġpewter": 17187,
    "Ġcalmly": 7734,
    "ency": 3865,
    "ken": 2799,
    "Ġgiven": 1630,
    "Ġwildest": 16511,
    "indisc": 22378,
    "perpendicular": 14164,
    "conception": 22479,
    "Ġcobbler": 25831,
    "bureau": 20791,
    "reception": 15516,
    "illum": 15872,
    "philosop": 9569,
    "Ġreport": 6192,
    "Ġinvariably": 8065,
    "Ġholy": 6592,
    "onym": 14650,
    "Ġtreating": 4283,
    "Ġacknowledged": 7533,
    "Ġhumbug": 18780,
    "Ġther": 17779,
    "Ġcollinses": 19131,
    "Ġeasier": 11166,
    "Ġeuropean": 20049,
    "Ġrever": 6537,
    "Ġlanyard": 26462,
    "Ġsangu": 15506,
    "Ġgallons": 14820,
    "perpet": 14163,
    "Ġquite": 1742,
    "merged": 11194,
    "Ġaccepted": 7751,
    "Ġannealing": 1557,
    "pat": 10118,
    "Ġ&": 6513,
    "church": 8141,
    "grained": 20885,
    "nns": 1894,
    "Ġintently": 8170,
    "tips": 13798,
    "jolly": 20933,
    "ouncement": 11748,
    "Ġdriven": 6199,
    "sively": 13788,
    "Ġleading": 7296,
    "Ġblocked": 19225,
    "ari": 672,
    "Ġoverpowered": 15291,
    "Ġchristians": 13312,
    "Ġtropical": 17065,
    "Ġappend": 18359,
    "Ġwhirlp": 16964,
    "hered": 5622,
    "albatross": 15633,
    "Ġintimately": 24801,
    "Ġoversampling": 20519,
    "exceed": 7913,
    "Ġappals": 22222,
    "guessed": 25873,
    "eted": 7591,
    "Ġclump": 15969,
    "Ġforfeit": 21780,
    "iom": 20917,
    "Ġhonoured": 9883,
    "Ġinstruments": 12227,
    "Ġanyhow": 14256,
    "Ġrang": 9247,
    "Ġcriminals": 19924,
    "Ġprinciples": 10013,
    "Ġcumberland": 21358,
    "Ġjane": 1758,
    "Ġterrier": 23402,
    "Ġexposed": 8524,
    "Ġdismantled": 20219,
    "patient": 25343,
    "Ġconfirms": 23312,
    "Ġcrystals": 20230,
    "acon": 10683,
    "zen": 5140,
    "sailors": 9924,
    "ensation": 22551,
    "Ġadmir": 12024,
    "Ġtriumphant": 12193,
    "Ġquoted": 22420,
    "Ġdetails": 6566,
    "ĵ": 246,
    "erne": 21272,
    "Ġpout": 17908,
    "commun": 15035,
    "abases": 3006,
    "impenet": 18056,
    "Ġshreds": 12774,
    "Ġstaircase": 20099,
    "Ġrecover": 9792,
    "ara": 12610,
    "Ġeither": 2604,
    "Ġsupercil": 23456,
    "Ġshe": 466,
    "Ġgenus": 24428,
    "Ġlabrador": 23335,
    "Ġhaw": 10253,
    "Ġbrawny": 13616,
    "Ġimbedded": 18333,
    "Ġspace": 1558,
    "alleging": 23028,
    "Ġspring": 4119,
    "Ġkept": 3348,
    "salis": 25150,
    "Ġpavement": 9579,
    "Ġsmaller": 1885,
    "Ġbegat": 18864,
    "Ġbarber": 23792,
    "Ġbrutality": 26278,
    "Ġcoppers": 22588,
    "Ġidleness": 11145,
    "ubb": 1651,
    "go": 2063,
    "Ġme": 352,
    "Ġpilgrim": 25600,
    "Ġunseason": 22055,
    "Ġjewelled": 20186,
    "Ġindirect": 18837,
    "intosh": 22944,
    "Ġfavourites": 16646,
    "Ġreputation": 11642,
    "mountain": 10714,
    "Ġresid": 22543,
    "cent": 8074,
    "Ġsociet": 9452,
    "Ġastonishing": 10503,
    "know": 2320,
    "Ġmemorable": 16430,
    "Ġcruising": 6912,
    "Ġchiefly": 5766,
    "Ġdeigned": 18141,
    "Ġfaces": 6010,
    "Ġnind": 17952,
    "Ġbingley": 1677,
    "Ġarrang": 2469,
    "Ġmainten": 16120,
    "Ġtrotting": 19979,
    "offensive": 16401,
    "Ġspinning": 15054,
    "Ġsticks": 14933,
    "Ġresidence": 8208,
    "Ġearly": 2078,
    "probably": 10022,
    "Ġswearing": 16466,
    "ribut": 818,
    "Ġdismally": 20217,
    "savage": 15078,
    "Ġpeaceable": 14725,
    "Ġbench": 7237,
    "fortun": 3539,
    "Ġcomprehend": 6494,
    "relig": 15514,
    "Ġgiving": 4083,
    "duct": 3507,
    "Ġtu": 6968,
    "Ġvancouver": 26566,
    "Ġbagging": 24538,
    "Ġembellish": 25849,
    "Ġapothecary": 13662,
    "Ġunquestionable": 26223,
    "mo": 862,
    "Ġstaving": 21742,
    "aching": 5832,
    "backed": 9868,
    "ifference": 5632,
    "Ġdivinest": 25722,
    "Ġtag": 15470,
    "Ġunrolled": 22041,
    "Ġdiadem": 24740,
    "whaleman": 23439,
    "Ġresolution": 5500,
    "Ġfarther": 5956,
    "Ġthrow": 3781,
    "Ġco": 730,
    "network": 1849,
    "Ġpeddler": 26181,
    "/(": 2983,
    "Ġconcerns": 12034,
    "Ġmetallic": 19062,
    "prejudice": 25572,
    "bolts": 11421,
    "Ġtail": 3089,
    "unforeseen": 21893,
    "Ġglut": 18855,
    "claim": 9837,
    "Ġhandy": 12940,
    "Ġgallon": 24186,
    "ghost": 20889,
    "solemn": 19820,
    "american": 11401,
    "Ġeasterly": 25963,
    "ilingly": 21728,
    "Ġcarelessly": 11121,
    "Ġsheet": 6263,
    ":--": 5784,
    "Ġ119": 24440,
    "hypothe": 25906,
    "penny": 22949,
    "ithmetic": 18064,
    "Ġtoast": 21516,
    "Ġrefuse": 5739,
    "Ġyankees": 26203,
    "))": 1513,
    "Ġsuicide": 12792,
    "incible": 16498,
    "covenant": 23564,
    "Ġapproximate": 2345,
    "strate": 12678,
    "dled": 9113,
    "ficial": 17549,
    "Ġresiding": 16064,
    "Ġref": 899,
    "kindness": 10507,
    "Ġagric": 22519,
    "gown": 9598,
    "trivial": 21095,
    "Ġalow": 18102,
    "utmost": 21592,
    "Ġblan": 18818,
    "Ġtoma": 7372,
    "Ġdangerously": 23940,
    "Ġgrowing": 6751,
    "bound": 6221,
    "Ġunspeakably": 25173,
    "madness": 14884,
    "Ġadvantage": 4315,
    "omb": 10207,
    "Ġrolls": 8335,
    "Ġsullenly": 17174,
    "naturedly": 24841,
    "Ġirene": 8446,
    "thr": 12764,
    "Ġmacey": 12567,
    "Ġmortified": 14696,
    "Ġdisappo": 4506,
    "Ġmitigating": 1620,
    "Ġexhausting": 24709,
    "Ġfisherman": 12079,
    "gladness": 25195,
    "Ġ127": 24471,
    "Ġde": 363,
    "Ġcheat": 19020,
    "Ġhorsham": 10407,
    "influ": 9543,
    "Ġsally": 15504,
    "Ġblood": 3170,
    "what": 640,
    "mir": 20965,
    "Ġunhappy": 5640,
    "whale": 2138,
    "Ġincant": 18570,
    "Ġplank": 7034,
    "Ġmutilated": 23962,
    "Ġsimpleton": 16337,
    "Ġresp": 2493,
    "edd": 1230,
    "Ġbuttons": 12785,
    "Ġisinglass": 21807,
    "Ġmeant": 3550,
    "Ġexplo": 2286,
    "Ġteased": 18798,
    "Ġpurple": 10434,
    "antucket": 2643,
    "Ġnames": 4533,
    "Ġsqueezed": 20039,
    "Ġcomposed": 8895,
    "Ġdimension": 3243,
    "gradually": 12919,
    "Ġvapory": 17007,
    "Ġpeak": 16129,
    "Ġcomplain": 6686,
    "Ġoffers": 12951,
    "bbs": 23694,
    "xible": 13810,
    "antial": 8489,
    "hat": 6955,
    "ben": 4927,
    "Ġfergus": 16873,
    "Ġvilest": 20104,
    "Ġsafe": 5103,
    "birds": 15147,
    "Ġcleat": 18949,
    "Ġsocket": 12788,
    "Ġmedd": 15542,
    "Ġbutton": 10269,
    "Ġembarks": 22970,
    "dissatisf": 26130,
    "ob": 1420,
    "Ġprobed": 18734,
    "Ġlifts": 25359,
    "pitching": 24077,
    "Ġmonument": 16242,
    "Ġshad": 3847,
    "Ġmechanis": 1203,
    "octial": 20008,
    "vinegar": 25421,
    "Ġchannels": 26014,
    "Ġaustral": 12176,
    "Ġpass": 1040,
    "Ġscruple": 25051,
    "butter": 11788,
    "Ġstru": 2169,
    "Ġbennet": 1578,
    "Ġrevered": 23736,
    "Ġjustinian": 22973,
    "Ġdiscover": 4718,
    "Ġeffemin": 18543,
    "Ġraging": 14307,
    "iloquent": 21730,
    "Ġmention": 2987,
    "Ġinadequate": 17939,
    "Ġarc": 14160,
    "Ġmisanthrop": 22771,
    "Ġgrows": 4985,
    "unk": 4539,
    "Ġleaves": 5021,
    "Ġcompliments": 8636,
    "nut": 12498,
    "Ġbrawn": 10483,
    "ergy": 2363,
    "Ġtowing": 9195,
    "wedding": 12525,
    "Ġprompt": 3192,
    "Ġbatt": 13901,
    "garden": 15027,
    "mechanically": 17302,
    "Ġharness": 17930,
    "Ġperseverance": 13600,
    "Ġoct": 10160,
    "Ġ64": 24366,
    "Ġomin": 11579,
    "Ġape": 21199,
    "Ġstage": 7388,
    "igned": 5656,
    "Ġmodel": 508,
    "houses": 9601,
    "Ġyarn": 10869,
    "onious": 15520,
    "Ġdab": 15591,
    "inquire": 16933,
    "Ġsane": 21224,
    "pursu": 11393,
    "gir": 8084,
    "Ġpatronage": 17053,
    "Ġfreshe": 13073,
    "ved": 869,
    "heavy": 10576,
    "Ġchill": 11755,
    "atural": 939,
    "Ġobtaining": 16135,
    "Ġhymn": 24517,
    "Ġbroker": 23106,
    "perform": 15899,
    "Ġserenely": 13509,
    "form": 502,
    "barrow": 15323,
    "Ġremembrance": 8319,
    "approaching": 15013,
    "iards": 17575,
    "Ġcovent": 16078,
    "Ġchair": 3661,
    "Ġrand": 1587,
    "Ġschoolboys": 24480,
    "Ġarrayed": 25665,
    "Ġcapture": 3385,
    "utely": 8133,
    "pard": 9620,
    "quis": 7872,
    "horner": 23616,
    "Ġdeaden": 23462,
    "frock": 20124,
    "acceptable": 25184,
    "Ġhimself": 1350,
    "richard": 17288,
    "Ġbubbling": 17328,
    "Ġbolted": 12248,
    "bib": 17493,
    "ivers": 1983,
    "orted": 4603,
    "Ġsoftware": 18920,
    "Ġcrawl": 11376,
    "Ġimport": 1017,
    "doms": 20837,
    "Ġdignity": 5704,
    "unreasonable": 18165,
    "Ġpeeping": 16130,
    "Ġpiazza": 26451,
    "Ġbee": 21754,
    "Ġcourage": 4633,
    "Ġinevitable": 15170,
    "Ġhorizon": 6634,
    "Ġunchanging": 22048,
    "aston": 7407,
    "Ġhorrify": 23822,
    "spanish": 14336,
    "nostr": 22746,
    "Ġsky": 3968,
    "worthy": 7733,
    "Ġcolonial": 22865,
    "ohog": 9846,
    "Ġnaval": 16900,
    "Ġtip": 15473,
    "Ġrefresh": 10345,
    "fifty": 12355,
    "Ġhackluyt": 25656,
    "``": 15309,
    "talk": 6658,
    "Ġlocked": 6036,
    "infliction": 25925,
    "Ġcabaco": 13170,
    "Ġcrumbs": 19124,
    "Ġdoubted": 7966,
    "Ġtemperate": 16165,
    "Ġventilator": 8717,
    "Ġfrederick": 15590,
    "say": 3983,
    "immortal": 21714,
    "Ġrecorded": 11294,
    "t": 88,
    "ana": 15562,
    "Ġsped": 22130,
    "Ġpleasing": 6191,
    "Ġadds": 1806,
    "shaped": 10309,
    "Ġairth": 23321,
    "shabbily": 26248,
    "Ġroast": 18456,
    "Ġingenuity": 17165,
    "ression": 3406,
    "Ġtroub": 22370,
    "beware": 16043,
    "ignorance": 17163,
    "marriage": 7745,
    "Ġdundee": 16998,
    "certainly": 5340,
    "braid": 17496,
    "gling": 10099,
    "Ġwashing": 9707,
    "ught": 2750,
    "Ġthreat": 5154,
    "apt": 729,
    "Ġwere": 555,
    "osa": 22265,
    "Ġearnest": 3928,
    "Ġfolk": 10377,
    "Ġtangles": 25762,
    "pinn": 21028,
    "faced": 8081,
    "Ġresearch": 3101,
    "ifferent": 4262,
    "Ġinviting": 19145,
    "Ġgleaming": 24998,
    "theories": 18081,
    "Ġdeal": 3607,
    "Ġunfolded": 10640,
    "Ġprison": 5403,
    "ivory": 10272,
    "Ġgrooves": 16742,
    "ev": 6951,
    "sip": 10726,
    "up": 1283,
    "bare": 12444,
    "Ġdy": 2576,
    "moving": 11017,
    "Ġgenerate": 1611,
    "Ġcaves": 15557,
    "Ġshowed": 4497,
    "Ġrob": 1267,
    "guilt": 24071,
    "Ġstrategies": 1839,
    "ĠâĢľ_": 6697,
    "Ġbunch": 11327,
    "board": 3565,
    "Ġmedium": 16707,
    "Ġsemicirc": 16395,
    "Ġnecess": 3476,
    "began": 6426,
    "Ġaltering": 18105,
    "Ġspectacle": 10498,
    "Ġseldom": 4629,
    "Ġshook": 4469,
    "Ġfireplace": 13148,
    "ictions": 14227,
    "zors": 21150,
    "strugg": 21666,
    "Ġpenal": 1774,
    "Ġhusbands": 16644,
    "Ġoxen": 19954,
[...]
