{
  "metadata": {
    "vocab_size": 26613,
    "algorithm": "BPE",
    "created_at": "2026-06-06 05:53:25",
    "special_tokens": [
      "<PAD>",
      "<SOS>",
      "<EOS>",
      "<UNK>",
      "<MASK>"
    ]
  },
  "vocab": {
    "Ġunsafe": 22039,
    "ishly": 14198,
    "Ġlament": 7857,
    "Ġsnoring": 23737,
    "Ġbrazier": 26320,
    "death": 6261,
    "goodness": 19288,
    "arness": 11670,
    "Ġcoefficient": 2882,
    "speak": 5504,
    "Ġstructures": 2720,
    "Ġdeser": 3889,
    "precipitance": 25867,
    "Ġplunging": 14950,
    "Ġblight": 18817,
    "simultaneously": 19863,
    "Ġmichaelmas": 26374,
    "scratch": 26043,
    "vellers": 16672,
    "Ġgulf": 10634,
    "Ġunconscious": 9545,
    "Ġpeople": 2545,
    "Ġoblig": 3442,
    "spe": 3557,
    "gies": 13724,
    "atics": 15521,
    "Ġful": 4297,
    "Ġporter": 15608,
    "Ġgaunt": 11266,
    "twas": 15436,
    "Ġhardened": 14448,
    "Ġexcessive": 3894,
    "Ġbumps": 21390,
    "Ġbenefit": 8293,
    "po": 1138,
    "Ġeducation": 5128,
    "ils": 3182,
    "Ġrelevant": 1863,
    "Ġfading": 15581,
    "Ġsucceeding": 16760,
    "Ġdiscourse": 9796,
    "fulfilment": 26025,
    "Ġparallel": 1412,
    "tried": 13792,
    "adm": 7608,
    "largely": 19573,
    "pencil": 18827,
    "Ġcraw": 7282,
    "Ġstag": 6148,
    "Ġpalaces": 24090,
    "ĠĠĠĠĠĠĠĠĠĠĠĠĠĠ": 22561,
    "Ġfurnished": 6475,
    "Ġhurst": 5581,
    "Ġerrors": 2597,
    "Ġcuts": 14607,
    "Ġdependent": 14296,
    "Ġxxiv": 24476,
    "grate": 23410,
    "mus": 10109,
    "Ġhailed": 6407,
    "Ġfolded": 7768,
    "pron": 9004,
    "Ġextensive": 12937,
    "Ġrecorded": 11291,
    "Ġfascinating": 17326,
    "hope": 5990,
    "binary": 20783,
    "Ġprincess": 23224,
    "Ġtended": 21165,
    "plex": 698,
    "Ġunprinciple": 18254,
    "Ġrap": 14301,
    "Ġstrongly": 5657,
    "Ġgord": 21598,
    "artificial": 994,
    "baggage": 24926,
    "Ġinquest": 16545,
    "Ġimmemorial": 10509,
    "Ġmet": 1802,
    "Ġlizzie": 26461,
    "faith": 15023,
    "Ġdeserve": 8309,
    "roqu": 21532,
    "Ġvertically": 19378,
    "Ġstrand": 11825,
    "Ġimplac": 24874,
    "flying": 13719,
    "imet": 21704,
    "Ġstru": 2170,
    "Ġmechanisms": 1575,
    "ads": 5718,
    "Ġeddystone": 25709,
    "Ġwonders": 7500,
    "Ġresult": 4458,
    "Ġspires": 11727,
    "Ġsound": 2242,
    "mem": 10708,
    "balls": 12302,
    "Ġfavoured": 16359,
    "whal": 10938,
    "Ġpaused": 5416,
    "Ġfamed": 16325,
    "Ġspermacetti": 19051,
    "Ġflurry": 18860,
    "Ġoutputs": 2884,
    "scale": 3532,
    "Ġheadlands": 22896,
    "Ġescaping": 13133,
    "Ġkiss": 8183,
    "Ġblacks": 23386,
    "Ġpurplish": 19140,
    "idelburgh": 10559,
    "Ġlord": 2963,
    "metal": 24765,
    "Ġdro": 2770,
    "Ġfortun": 4982,
    "Ġdreamt": 23936,
    "Ġdisinclination": 22534,
    "Ġmonday": 6127,
    "Ġbrawny": 13611,
    "Ġentic": 16143,
    "Ġchap": 5934,
    "ine": 404,
    "Ġhumiliating": 22879,
    "court": 7511,
    "ens": 702,
    "nigh": 13761,
    "ev": 6952,
    "Ġtidings": 11395,
    "Ġlees": 18075,
    "Ġcorroboration": 26053,
    "Ġenigmatical": 20596,
    "Ġthoroughly": 8348,
    "avenza": 17103,
    "03": 20747,
    "Ġvehement": 16200,
    "Ġasyl": 12730,
    "Ġblush": 14400,
    "Ġordin": 16649,
    "itect": 975,
    "71": 20755,
    "behold": 12873,
    "Ġdescending": 8901,
    "pad": 13766,
    "Ġemperor": 15156,
    "Ġshalt": 18230,
    "islands": 21374,
    "Ġassertions": 19945,
    "caps": 20806,
    "Ġoldest": 12969,
    "whar": 15925,
    "wait": 11318,
    "crated": 16695,
    ".": 18,
    "Ġvigorously": 11297,
    "Ġyears": 1891,
    "isbury": 21375,
    "twist": 23699,
    "Ġrefrain": 12943,
    "Ġpreceding": 7528,
    "Ġspeaking": 4028,
    "careful": 14864,
    "Ġdrinks": 24278,
    "Ġpulley": 2973,
    "Ġaut": 1825,
    "saturday": 14856,
    "twice": 14620,
    "Ġdestroyer": 13411,
    "Ġparadise": 11192,
    "Ġnathan": 21524,
    "taller": 26150,
    "Ġchiefly": 5766,
    "Ġbeaut": 2397,
    "Ġhealed": 21681,
    "playful": 24356,
    "veral": 2350,
    "nostril": 26558,
    "Ġinoffensive": 21496,
    "Ġhilariously": 25450,
    "stricken": 9882,
    "Ġreligion": 11413,
    "Ġconscience": 6929,
    "besides": 8695,
    "in": 262,
    "Ġerad": 25028,
    "Ġlieu": 19563,
    "Ġphotography": 24683,
    "Ġwearisome": 19794,
    "lier": 20948,
    "venty": 6427,
    "Ġramad": 8527,
    "misfortunes": 16755,
    "Ġshud": 5461,
    "Ġprecipices": 12274,
    "Ġjoppa": 12033,
    "antique": 18287,
    ",âĢĿâĢĶ": 14219,
    "Ġglut": 18851,
    "Ġarrang": 2469,
    "Ġbias": 1190,
    "attentive": 17188,
    "use": 2537,
    "Ġcottages": 14725,
    "Ġabandon": 12254,
    "ching": 5156,
    "Ġcouns": 10519,
    "minutes": 7512,
    "Ġprobabilities": 4966,
    "Ġafghan": 22628,
    "wards": 1276,
    "Ġpell": 21455,
    "Ġpine": 8795,
    "Ġappointment": 10645,
    "Ġshadows": 8013,
    "insult": 16278,
    "doom": 23375,
    "Ġremind": 6058,
    "feeders": 25235,
    "bestowed": 12222,
    "arken": 18667,
    "occupations": 24966,
    "insurance": 18889,
    "Ġdiminished": 16664,
    "unnatural": 15770,
    "Ġfulfilment": 20186,
    "ax": 693,
    "Ġbetokened": 18795,
    "vengeance": 13354,
    "Ġself": 1778,
    "Ġbutler": 18270,
    "Ġcomrade": 12280,
    "Ġtiny": 11550,
    "mers": 9609,
    "Ġcongealed": 25981,
    "Ġol": 17814,
    "Ġbracelets": 25502,
    "Ġgate": 6825,
    "Ġprot": 3850,
    "Ġdevil": 3610,
    "Ġdexterity": 25294,
    "Ġfootpath": 19337,
    "Ġslipper": 24264,
    "uce": 11533,
    "decoder": 3643,
    "Ġbroad": 3638,
    "Ġvictoria": 14871,
    "Ġcomprised": 14266,
    "dripping": 16904,
    "inhabited": 13618,
    "Ġwayward": 22869,
    "Ġunlim": 18253,
    "Ġbal": 1132,
    "Ġsatin": 12986,
    "warn": 11540,
    "Ġtraversed": 18893,
    "bennet": 5352,
    "Ġfron": 14486,
    "Ġwon": 1660,
    "Ġelasticity": 19557,
    "loveliness": 26548,
    "Ġcharley": 19005,
    "Ġsideboard": 10384,
    "Ġlive": 2735,
    "Ġstaid": 21733,
    "guest": 19480,
    "Ġske": 4815,
    "Ġdependen": 1830,
    "Ġoil": 3370,
    "cavity": 26126,
    "Ġjourney": 3882,
    "Ġbritain": 16955,
    "Ġcows": 15550,
    "Ġinscrutable": 10671,
    "Ġbreaching": 23346,
    "Ġschemes": 11129,
    "Ġcongratulations": 10579,
    "principle": 10649,
    "circum": 16736,
    "Ġpier": 7162,
    "Ġgreeting": 18962,
    "laug": 10706,
    "Ġexcavating": 23314,
    "ileries": 18058,
    "all": 485,
    "laying": 19771,
    "pute": 8843,
    "Ġgore": 17988,
    "Ġsw": 1357,
    "Ġcoarsely": 25828,
    "Ġcomposition": 1686,
    "Ġatt": 775,
    "Ġscraping": 13414,
    "arp": 2026,
    "Ġloveliest": 20260,
    "Ġfowl": 11328,
    "Ġintegration": 9866,
    "Ġtone": 4040,
    "Ġavalanche": 17431,
    "Ġtumult": 7114,
    "Ġapproached": 5843,
    "Ġimpose": 22380,
    "Ġconjoined": 21804,
    "Ġbegan": 2021,
    "omed": 13973,
    "Ġthrees": 23399,
    "unconquerable": 21889,
    "icy": 6140,
    "Ġreasoning": 1975,
    "Ġthereof": 22366,
    "touching": 15089,
    "Ġconsumm": 15152,
    "Ġtrooped": 24899,
    "inquiry": 15140,
    "Ġobtru": 18672,
    "x": 92,
    "monograph": 23524,
    "Ġsyllable": 9726,
    "abroad": 18108,
    "Ġinducement": 16842,
    "tha": 15821,
    "exceedingly": 9565,
    "Ġfund": 2842,
    "Ġproportions": 16467,
    "Ġpromising": 10398,
    "Ġengage": 9333,
    "Ġassizes": 11107,
    "Ġcanterbury": 22166,
    "Ġknowledge": 1444,
    "Ġcausal": 3407,
    "Ġdynamically": 4472,
    "Ġunintellig": 22024,
    "Ġlace": 13947,
    "Ġestimate": 19371,
    "Ġdeformed": 14045,
    "lection": 3651,
    "Ġunfinished": 19508,
    "Ġchaps": 14176,
    "Ġtapers": 11549,
    "lydia": 6826,
    "Ġhomeless": 23385,
    "Ġintercept": 14267,
    "Ġprocure": 9508,
    "Ġchair": 3660,
    "Ġhabitu": 19527,
    "Ġnewly": 9336,
    "ensities": 22544,
    "Ġmisfortune": 5568,
    "Ġfalse": 4343,
    "Ġfaithfully": 14885,
    "Ġthroughout": 8875,
    "Ġrejected": 12291,
    "affectionate": 24921,
    "Ġbony": 12583,
    "Ġjoists": 19232,
    "discern": 14849,
    "Ġshrugged": 12765,
    "adow": 18087,
    "follows": 24527,
    "aph": 10952,
    "Ġcommunicate": 10576,
    "Ġeaten": 14843,
    "crier": 20819,
    "Ġfejee": 18354,
    "Ġbravely": 23835,
    "itably": 10781,
    "Ġbind": 12578,
    "Ġmowers": 17812,
    "prisoner": 20542,
    "bus": 5354,
    "Ġpoul": 15610,
    "teen": 6370,
    "Ġheadstrong": 14386,
    "Ġcopying": 17067,
    "ional": 1079,
    "ĠĠĠĠĠĠĠĠĠĠĠĠĠĠĠĠĠĠĠĠĠĠĠĠĠĠĠĠĠĠĠĠĠĠĠĠĠĠĠĠĠĠĠĠĠ": 9950,
    "Ġsqu": 1037,
    "Ġcele": 9898,
    "Ġsenate": 25214,
    "cher": 5786,
    "rese": 15507,
    "Ġdemanded": 8327,
    "Ġdry": 5624,
    "addition": 13382,
    "Ġstick": 6026,
    "Ġprogen": 14038,
    "keen": 12778,
    "shabb": 18488,
    "Ġmaketh": 15185,
    "Ġreneg": 21673,
    "Ġungrateful": 14119,
    "Ġcaliforn": 14429,
    "rically": 15416,
    "Ġrepairing": 25589,
    "Ġforeb": 12000,
    "consuming": 25674,
    "otics": 10222,
    "Ġplaything": 19237,
    "Ġtrag": 13036,
    "rics": 13034,
    "Ġcretan": 22726,
    "Ġrefined": 18700,
    "Ġphiladel": 23882,
    "heartily": 24214,
    "nails": 17613,
    "Ġabruptly": 15148,
    "Ġbene": 2031,
    "Ġcustomary": 8669,
    "Ġplata": 25117,
    "suspicious": 25390,
    "oder": 2460,
    "injustice": 17736,
    "Ġdelights": 14595,
    "ouses": 5163,
    "Ġseries": 7060,
    "Ġprovinc": 16741,
    "Ġjuggling": 20437,
    "endeavouring": 15014,
    "Ġlun": 7856,
    "Ġfatally": 19392,
    "Ġparsonage": 7123,
    "Ġbirth": 6524,
    "whe": 1070,
    "falsehood": 25901,
    "Ġblock": 2576,
    "Ġcivil": 4677,
    "Ġretire": 10380,
    "Ġmovement": 9966,
    "owing": 7601,
    "ommod": 13975,
    "sford": 5998,
    "thyself": 19297,
    "Ġrunning": 3954,
    "cies": 1814,
    "Ġgobern": 22423,
    "Ġlub": 15646,
    "Ġanteced": 26177,
    "Ġlinn": 13951,
    ":--": 5784,
    "icant": 21560,
    "Ġtyros": 26101,
    "machine": 947,
    "Ġaware": 5756,
    "Ġdaboll": 25950,
    "Ġbalancing": 2433,
    "Ġinterconnected": 1338,
    "Ġbelonged": 6922,
    "gloom": 17138,
    "entreat": 17975,
    "Ġchim": 5933,
    "Ġseasoned": 24404,
    "quadrille": 20593,
    "Ġinspire": 11992,
    "Ġutilize": 4797,
    "Ġhaul": 11689,
    "Ġidentify": 12010,
    "Ġtransferred": 16456,
    "beer": 22487,
    "Ġacknowled": 6350,
    "Ġrad": 4962,
    "Ġremoving": 12113,
    "Ġorph": 9715,
    "Ġcompelled": 14264,
    "crowded": 20189,
    "Ġsickened": 16774,
    "Ġtranspointed": 22438,
    "wicked": 24448,
    "lakeman": 13749,
    "Ġbre": 1912,
    "Ġfixed": 2685,
    "Ġannot": 15599,
    "Ġwitnesses": 9484,
    "slept": 17168,
    "continued": 8675,
    "otence": 14021,
    "historian": 25735,
    "Ġnortheast": 23203,
    "?_": 8070,
    "Ġfurrow": 22811,
    "Ġaids": 12225,
    "Ġproprietor": 12370,
    "Ġcult": 8780,
    "Ġgrasped": 8034,
    "Ġliterary": 25162,
    "Ġjudging": 16594,
    "Ġgracechurch": 12195,
    "Ġcontest": 18473,
    "Ġcuba": 25095,
    "unless": 9233,
    "Ġrepresents": 4902,
    "Ġtreatise": 19343,
    "cherish": 24551,
    "ilty": 6394,
    "Ġsong": 5903,
    "Ġsignature": 16492,
    "Ġsuspended": 5665,
    "allah": 5838,
    "Ë": 140,
    "ubb": 1645,
    "necessity": 13365,
    "difficulty": 12387,
    "Ġwashed": 15762,
    "can": 1230,
    "Ġholder": 6724,
    "Ġdet": 513,
    "51": 12428,
    "girl": 12315,
    "Ġpredomin": 16034,
    "Ġtradesman": 20071,
    "Ġoutside": 5553,
    "does": 6194,
    "Ġodor": 12146,
    "requiem": 24856,
    "Ġoperated": 14546,
    "urns": 10212,
    "Ġdoth": 13906,
    "story": 9211,
    "Ġapparition": 8067,
    "Ġreceiving": 4882,
    "ô": 181,
    "Ġbenef": 3486,
    "Ġwolfish": 25935,
    "asol": 21538,
    "Ġnodded": 11966,
    "ā": 194,
    "Ġpron": 6451,
    "fs": 17534,
    "lording": 24050,
    "Ġreversed": 15694,
    "Ġfertile": 20581,
    "Ġbrutality": 26276,
    "utions": 1888,
    "¨": 106,
    "Ġafforded": 8029,
    "humoured": 11234,
    "kilt": 4866,
    "Ġinexplicable": 12253,
    "subjects": 19875,
    "raged": 9210,
    "Ġchurches": 12823,
    "alice": 3207,
    "Ġ121": 24465,
    "Ġelab": 22640,
    "Ġimmortality": 26325,
    "Ġgrim": 7439,
    "ortions": 10946,
    "Ġatone": 15800,
    "Ġcover": 3554,
    "ė": 216,
    "mass": 12486,
    "ulence": 15763,
    "Ġadroop": 26001,
    "quit": 15759,
    "Ġmagnetic": 17239,
    "Ġcheeks": 5958,
    "scores": 22988,
    "Ġsunshine": 14493,
    "ton": 1725,
    "loo": 10318,
    "Ġimplements": 2488,
    "K": 47,
    "Ġwhite": 1541,
    "Ġmanx": 7906,
    "atigable": 15268,
    "hangs": 15366,
    "Ġblanket": 8343,
    "Ġstacks": 18074,
    "Ġmerid": 13193,
    "Ġchamp": 18380,
    "Ġstil": 15715,
    "Ġpig": 5705,
    "Ġcasked": 24496,
    "letons": 14612,
    "Ġeduc": 4784,
    "ught": 2751,
    "Ġemb": 1260,
    "Ġvalue": 2085,
    "Ġoccupies": 24006,
    "Ġicicles": 25264,
    "Ġsickening": 19603,
    "christian": 17231,
    "Ġstock": 7455,
    "Ġcowards": 12569,
    "Ġtwinkle": 12320,
    "vid": 917,
    "Ġdismantled": 20215,
    "Ġbewil": 11655,
    "Ġrivals": 20270,
    "ront": 15417,
    "Ġcommunicated": 9060,
    "swept": 19785,
    "Ġshutters": 9935,
    "dream": 8727,
    "armon": 23058,
    "stepfather": 19189,
    "====": 1482,
    "pulous": 15415,
    "Ġdining": 6977,
    "Ġcetus": 19884,
    "wheeling": 22868,
    "Ġsweetness": 9444,
    "Ġmates": 4872,
    "Ġwickedness": 9524,
    "Ġsuppression": 22998,
    "wantonly": 25149,
    "Ġalley": 15733,
    "eed": 20840,
    "Ġhears": 8139,
    "ised": 1121,
    "Ġenorm": 5302,
    "Ġsuffoc": 18870,
    "Ġsli": 4747,
    "Ġpraise": 6486,
    "bowl": 14889,
    "Ġpetticoat": 15293,
    "Ġbriskly": 25311,
    "Ġsunday": 7270,
    "Ġresp": 2496,
    "risonment": 17373,
    "Ġregretted": 13398,
    "ĺ": 251,
    "ascar": 8435,
    "Ġequally": 5257,
    "Ġliable": 14227,
    "Ġgreat": 895,
    "Ġstops": 3166,
    "Ġsoil": 9253,
    "Ġseemingly": 9317,
    "Ġpian": 13915,
    "fright": 9594,
    "ested": 3477,
    "est": 499,
    "dipped": 20836,
    "Ġheidelburgh": 11641,
    "Ġcurve": 22977,
    "stately": 18021,
    "Ġproviding": 1361,
    "perquis": 22188,
    "level": 2655,
    "Ġaltar": 9227,
    "Ġbeamed": 23719,
    "entiful": 10835,
    "Ġjeer": 24123,
    "Ġsurv": 6082,
    "Ġfrom": 434,
    "Ġgenerously": 22390,
    "Ġmills": 21310,
    "cheer": 9435,
    "returned": 7766,
    "Ġmanipulated": 25178,
    "Ġpalp": 11249,
    "Ġfiles": 21412,
    "Ġfirmest": 16663,
    "Ġincessant": 15095,
    "Ġtaking": 3248,
    "Ġwight": 12549,
    "field": 3070,
    "Ġperturbed": 20438,
    "vy": 21106,
    "Ġ(`": 12849,
    "Ġamaz": 5385,
    "Ġhigher": 1820,
    "visits": 24222,
    "Ġjungfrau": 15246,
    "Ġtexture": 19159,
    "Ġvital": 9241,
    "intu": 22931,
    "Ġislanders": 19500,
    "Ġexploitation": 2344,
    "Ġtenderest": 23549,
    "Ġobsequ": 14318,
    "Ġdegraded": 19225,
    "Ġunconquerable": 22061,
    "Ġoccurring": 2791,
    "den": 938,
    "moved": 9782,
    "urre": 10854,
    "Ġnatur": 17332,
    "Ġgilder": 21611,
    "ime": 625,
    "Ġuninjured": 22054,
    "Ġunrecorded": 17466,
    "Ġoftentimes": 20154,
    "Ġluck": 4880,
    "fra": 8375,
    "steady": 14707,
    "oura": 1059,
    "Ġring": 4450,
    "Ġyoungest": 7954,
    "flames": 14710,
    "Ġcompose": 12898,
    "Ġincalcul": 16061,
    "Ġguarded": 9824,
    "unity": 4153,
    "Ġnostrils": 10941,
    "Ġreiter": 21664,
    "Ġservants": 6610,
    "Ġparac": 12791,
    "Ġpaintings": 15056,
    "Ġthack": 21515,
    "Ġunbounded": 18259,
    "Ġoffend": 16141,
    "enstein": 5799,
    "A": 37,
    "ato": 17768,
    "over": 1847,
    "benevolent": 15231,
    "Ġadvertise": 25388,
    "Ġnails": 12644,
    "Ġextreme": 2517,
    "Ġign": 8294,
    "Ġbohemian": 17132,
    "shot": 2109,
    "doubtless": 17001,
    "ancholy": 5070,
    "Ġpunctilious": 26352,
    "Ġapprehensiveness": 16876,
    "Ġwhereas": 3857,
    "Ġscroll": 14190,
    "Ġtying": 15472,
    "derment": 22159,
    "Ġpersuasion": 10497,
    "Ġbreathed": 11218,
    "Ġsense": 3249,
    "Ġproclaim": 18131,
    "Ġrece": 11636,
    "respective": 19845,
    "Ġreasonable": 7251,
    "knew": 9125,
    "bber": 4567,
    "Ġthirty": 4944,
    "rodden": 21533,
    "ij": 7802,
    "ceremony": 20588,
    "Ġevian": 24291,
    "heeded": 13832,
    "Ġsubsc": 22786,
    "ior": 2039,
    "59": 17472,
    "Ġcruel": 5121,
    "Ġquill": 12853,
    "notches": 22752,
    "Ġnewfoundland": 26568,
    "Ġconvers": 2904,
    "Ġindisp": 18833,
    "Ġbet": 1133,
    "âĢĶ.": 11752,
    "Ġbliss": 12997,
    "Ġresided": 11808,
    "esting": 7412,
    "Ġeasiest": 23535,
    "fatality": 25019,
    "Ġtrowsers": 9626,
    "Åĵuvre": 25887,
    "measureless": 20234,
    "Ġspl": 2982,
    "arpaul": 14535,
    "Ġpreternatural": 12819,
    "ference": 1881,
    "Ġknelt": 12155,
    "imly": 12683,
    "old": 799,
    "oss": 10114,
    "vib": 21114,
    "mine": 5617,
    "Ġch": 512,
    "Ġsank": 5076,
    "sey": 5542,
    "Ġhind": 9187,
    "Ġinsights": 13177,
    "dare": 12450,
    "Ġmerry": 5868,
    "Ġcomparing": 14263,
    "horrors": 20540,
    "Ġcrowd": 6336,
    "Ġsickly": 16773,
    "¼": 125,
    "clam": 13051,
    "remed": 18952,
    "å": 166,
    "advice": 12154,
    "inkers": 22613,
    "atherley": 7220,
    "Ġneg": 1332,
    "itated": 4438,
    "Ġsweet": 3463,
    "Ġaddressed": 5262,
    "Ġbraces": 14668,
    "Ġis": 347,
    "dam": 7798,
    "ynolds": 10034,
    "Ġmadam": 5663,
    "Ġbringing": 5869,
    "pronounced": 12343,
    "Ġhollows": 19740,
    "Ġgesture": 11397,
    "pret": 7212,
    "Ġminutest": 14559,
    "ities": 1827,
    "Ġverily": 16602,
    "ú": 187,
    "Ġcork": 12565,
    "gives": 15355,
    "declaration": 25175,
    "Ġdeem": 18133,
    "âĢĿ]": 21813,
    "position": 15412,
    "Ġscoundrel": 13668,
    "unnecessary": 21878,
    "Ġexpecting": 10435,
    "Ġdrawer": 13264,
    "Ġcareer": 11116,
    "Ġtemperature": 1005,
    "Ġg": 310,
    "Ġunalterable": 15849,
    "osure": 5306,
    "Ġtrades": 8232,
    "Ġintegr": 7969,
    "Ġinev": 10180,
    "Ġdemig": 20355,
    "Ġcurves": 18846,
    "Ġvictory": 16652,
    "Ġexponential": 1057,
    "Ġargument": 7098,
    "miraculous": 26395,
    "Ġexulting": 20256,
    "Ġtransl": 2829,
    "fisher": 7547,
    "Ġrachel": 11842,
    "Ġbil": 15562,
    "Ġretrogression": 26580,
    "Ġkindled": 19026,
    "isters": 11917,
    "unalterable": 21884,
    "Ġemma": 20693,
    "Ġbir": 17853,
    "icated": 7590,
    "log": 18537,
    "Ġfundamental": 3011,
    "Ġhed": 7387,
    "ushed": 2968,
    "io": 3802,
    "Ġgreatest": 4093,
    "Ġproduct": 3531,
    "bourne": 19102,
    "Ġubiquitous": 26195,
    "Ġmorcar": 13007,
    "Ġautumnal": 19039,
    "happily": 14656,
    "preced": 10308,
    "Ġwithered": 19463,
    "gon": 17551,
    "henomenon": 13612,
    "Ġdelay": 5748,
    "nns": 1892,
    "er": 269,
    "Ġuncomfortable": 8485,
    "Ġuncl": 22014,
    "Ġsummar": 3523,
    "exceeded": 25001,
    "Ġdoubtless": 6195,
    "Ġscreams": 24604,
    "incredible": 16497,
    "Ġplaint": 10324,
    "Ġcorrid": 9822,
    "Ġcomputer": 1215,
    "Ġirreducible": 5519,
    "ression": 3402,
    "Ġreplying": 19580,
    "manner": 6170,
    "Ġbefitting": 15723,
    "Ġplum": 11819,
    "shipmates": 11925,
    "iom": 20914,
    "scene": 14415,
    "Ġstumbling": 21740,
    "Ġtormenting": 15102,
    "acting": 22629,
    "Ġinward": 11604,
    "Ġtossings": 25356,
    "Ġconsequence": 5541,
    "Ġcaw": 13881,
    "uttle": 6247,
    "Ġcorroded": 18875,
    "owers": 12680,
    "mr": 1900,
    "nearer": 22462,
    "Ġrevelry": 15134,
    "Ġluxury": 20130,
    "idious": 11660,
    "sensations": 20049,
    "recurring": 24193,
    "Ġimperilled": 19577,
    "Ġsneeze": 24699,
    "Ġgo": 614,
    "Ġquadrille": 13539,
    "tim": 13789,
    "Ġarise": 7897,
    "pondicherry": 26399,
    "cig": 17502,
    "Ġseething": 18203,
    "Ġassumpt": 5415,
    "Ġspeak": 2230,
    "shook": 19855,
    "Ġskies": 8919,
    "Ġreason": 1354,
    "Ġarriving": 19216,
    "Ġspouted": 14673,
    "hopes": 15367,
    "Ġfronts": 20530,
    ";âĢĶ": 3748,
    "olic": 14040,
    "Ġam": 660,
    "Ġsavannah": 17414,
    "Ġhumor": 11049,
    "Ġdraught": 9843,
    "Ġfinery": 23123,
    "Ġson": 2981,
    "avoiding": 25236,
    "didst": 19347,
    "crowd": 25254,
    "commander": 16986,
    "Ġsignify": 16493,
    "Ġbreadth": 10562,
    "Ġimaginary": 11184,
    "Ġserenity": 10026,
    "bbs": 23690,
    "aimed": 3955,
    "done": 6500,
    "Ġmab": 12556,
    "Ġindependence": 12101,
    "tea": 18740,
    "Ġappertaining": 26532,
    "crooked": 25746,
    "Ġmildly": 9028,
    "Ġwedded": 16673,
    "Ġengland": 3859,
    "Ġarguments": 8037,
    "stopping": 19348,
    "Ġenhance": 3488,
    "Ġelbow": 12917,
    "Ġpredict": 670,
    "Ġbandaged": 16841,
    "gy": 2096,
    "aggoo": 5130,
    "Ġgranting": 18737,
    "per": 483,
    "ahit": 9381,
    "¿": 128,
    "Ġtechnically": 12363,
    "Ġhut": 15616,
    "erting": 17776,
    "Ġorchard": 22092,
    "fel": 8733,
    "formity": 10277,
    "Ġacknowledge": 13400,
    "Ġannihil": 10173,
    "Ġbureau": 11587,
    "Ġaffected": 5576,
    "power": 7136,
    "Ġwash": 9701,
    "Ġsexes": 25168,
    "Ġstake": 14001,
    "Ġrelied": 16193,
    "inctions": 17731,
    "Ġscandinav": 19959,
    "ouraged": 22855,
    "Ġcrowding": 13277,
    "Ġnomin": 10189,
    "provided": 13635,
    "Ġcontrary": 5260,
    "Ġmed": 3989,
    "Ġbox": 5109,
    "Ġmonotonous": 13261,
    "she": 1396,
    "Ġdearest": 5457,
    "sho": 6425,
    "Ġplaintiffs": 13607,
    "Ġenters": 11023,
    "Ġadmission": 23554,
    "Ġembod": 14416,
    "Ġsmaller": 1882,
    "define": 1528,
    "Ġrick": 21971,
    "Ġimpro": 903,
    "Ġlatter": 3992,
    "lod": 15376,
    "Ġfloundering": 16248,
    "Ġausten": 5881,
    "Ġvess": 3294,
    "Ġunworth": 22034,
    "Ġdisgra": 18549,
    "retrospect": 23134,
    "Ġlurked": 11289,
    "inquir": 9534,
    "Ġanalytical": 22912,
    "Ġhurricane": 16430,
    "solid": 16379,
    "Ġchron": 19436,
    "obstructed": 15224,
    "Ġdisputing": 25824,
    "Ġtendinous": 16930,
    "verbally": 25360,
    "Ġinvoking": 19145,
    "stripped": 16944,
    "gunw": 17219,
    "Ġemployment": 8628,
    "Ġbeck": 14007,
    "Ġfemale": 8345,
    "ener": 560,
    "gravel": 22618,
    "Ġgeneration": 2156,
    "Ġpia": 21463,
    "trifling": 19412,
    "throt": 25659,
    "Ġyawn": 7609,
    "µ": 118,
    "Ġstoop": 16309,
    "Ġparl": 8178,
    "Ġvestige": 20061,
    "._]]": 5334,
    "Ġfade": 21406,
    "umns": 14146,
    "put": 414,
    "la": 10704,
    "Ġgrunt": 18736,
    "eze": 20846,
    "block": 11468,
    "orient": 2876,
    "Ġshining": 8172,
    "Ġexploration": 2333,
    "Ġloadstone": 25816,
    "olets": 21007,
    "Ġequals": 4726,
    "attending": 18916,
    "Ġnear": 1716,
    "consol": 9760,
    "usation": 18396,
    "Ġdissembling": 26254,
    "likelihood": 4992,
    "ason": 1246,
    "itarian": 21335,
    "ky": 4519,
    "Ġreverse": 16981,
    "por": 2151,
    "Ġexcessively": 9438,
    ".]": 15296,
    "ichever": 13955,
    "Ġundivided": 24120,
    "Ġori": 8409,
    "mar": 4335,
    "Ġneed": 2609,
    "resnet": 4071,
    "Ġapart": 4745,
    "Ġsolace": 16198,
    "splice": 17169,
    "flight": 15350,
    "Ġtake": 1577,
    "ĠĠĠĠĠĠĠĠĠĠĠĠĠĠĠĠĠĠĠĠĠĠĠĠĠĠĠĠĠĠĠĠĠĠĠĠĠĠĠĠĠĠĠĠĠĠĠĠĠĠĠĠĠ": 20038,
    "Ġstrove": 9955,
    "Ġtwenty": 3952,
    "famous": 16915,
    "scent": 13017,
    "bern": 20774,
    "Ġswim": 3820,
    "progress": 11984,
    "hoist": 23711,
    "Ġmomentum": 1599,
    "unc": 15766,
    "Ġmanxman": 9564,
    "avish": 22592,
    "Ġdescribing": 19253,
    "mansion": 20982,
    "uff": 2730,
    "Ġtraits": 23073,
    "improve": 15709,
    "joint": 24007,
    "Ġtattooing": 15026,
    "Ġcoals": 16071,
    "Ġhills": 6527,
    "Ġslid": 7952,
    "Ġhome": 2027,
    "Ġforeseen": 16442,
    "lungs": 26135,
    "Ġcistern": 17379,
    "designated": 26295,
    "twain": 23698,
    "Ġeccentric": 13647,
    "Ġvaliant": 9798,
    "brow": 15313,
    "Ġeye": 2280,
    "Ġforlorn": 14013,
    "Ġothers": 2583,
    "Ġsheets": 9720,
    "Ġdarcy": 1342,
    "Ġdestroying": 14727,
    "young": 7321,
    "orange": 21398,
    "Ġcalls": 6744,
    "Ġtiles": 17725,
    "._": 3219,
    "Ġ129": 24473,
    "Ġsuperiors": 23454,
    "Ġbubbles": 11396,
    "vinegar": 25420,
    "Ġcoat": 4553,
    "ating": 666,
    "bethink": 25744,
    "simon": 16972,
    "Ġvehemence": 26565,
    "Ġconnection": 5479,
    "successful": 11356,
    "Ġhumaneval": 25582,
    "Ġeber": 18003,
    "Ġfleets": 23772,
    "ided": 2783,
    "iring": 1707,
    "information": 12390,
    "tle": 2412,
    "Ġbeaches": 18084,
    "Ġjoll": 11762,
    "Ġsobbed": 14133,
    "Ġhud": 10821,
    "racts": 14352,
    "Ġmounttop": 19976,
    "Ġlouisa": 13544,
    "iltrated": 19305,
    "Ġspurn": 18309,
    "beaten": 20314,
    "Ġprofessional": 7299,
    "pet": 4867,
    "Ġice": 3601,
    "Ġdaresay": 14702,
    "fugitive": 26131,
    "Ġnorton": 12645,
    "Ġdownstairs": 11222,
    "Ġprophesied": 26062,
    "ĠĠĠĠĠĠĠĠĠĠĠĠĠĠĠĠĠĠĠĠĠĠĠĠĠ": 24441,
    "Ġinser": 6820,
    "Ġgained": 4534,
    "ief": 2045,
    "Ġindu": 5293,
    "Ġriv": 10745,
    "tale": 10126,
    "Ġflee": 7079,
    "anean": 7443,
    "Ġgnawed": 25164,
    "Ġconclusion": 5986,
    "Ġlot": 6678,
    "similar": 13451,
    "Ġrecumbent": 22739,
    "Ġeven": 1027,
    "Ġsure": 1864,
    "Ġsuperstitious": 13518,
    "Ġmotions": 8281,
    "Ġbalmy": 22902,
    "Ġdistricts": 20262,
    "Ġpurchased": 12257,
    "milk": 20475,
    "sil": 5282,
    "Ġhaughty": 11447,
    "emotions": 15792,
    "charles": 14697,
    "Ġkeener": 22913,
    "Ġinasmuch": 10824,
    "Ġexamined": 6334,
    "entimes": 12652,
    "Ġnowadays": 18546,
    "Ġknocking": 10558,
    "avail": 18604,
    "Ġbabes": 24424,
    "Ġheaths": 25972,
    "waited": 24586,
    "Ġresid": 22536,
    "Ġcontented": 9754,
    "Ġday": 958,
    "Ġplates": 11004,
    "Ġcourting": 23289,
    "Ġhorner": 8957,
    "Ġcombinations": 22859,
    "wise": 2575,
    "Ġsharpened": 17363,
    "Ġpreparations": 12307,
    "clerval": 7951,
    "Ġclubs": 25179,
    "Ġaccelerating": 1615,
    "ppings": 18176,
    "Ġaccursed": 9452,
    "Ġpantheistic": 26335,
    "cient": 4568,
    "Ġduchess": 4799,
    "Ġoverflowing": 17236,
    "Ġeldest": 6571,
    "Ġamusing": 11797,
    "Ġfountains": 13501,
    "ially": 9244,
    "Ġprejudice": 9074,
    "Ġprodigy": 19791,
    "Ġassumptions": 5517,
    "kine": 15373,
    "âĢľâĢĻ": 10220,
    "chel": 11205,
    "Ġsurmis": 23462,
    "originally": 24937,
    "Ġcircumn": 11980,
    "Ġlastly": 16203,
    "slipped": 25529,
    "Ġregulations": 18599,
    "calcul": 12983,
    "Ġcapacity": 10439,
    "outon": 12799,
    "istically": 14142,
    "Ġheeded": 13401,
    "ming": 3598,
    "Ġminister": 18751,
    "watching": 16929,
    "Ġrainy": 24340,
    "ofs": 11827,
    "Ġdare": 3542,
    "how": 1638,
    "Ġlists": 11164,
    "Ġprophes": 16347,
    "!": 5,
    "horse": 8605,
    "Ġderiv": 1736,
    "Ġbefriend": 18081,
    "Ġprofessions": 11229,
    "Ġflail": 23005,
    "Ġforfeit": 21773,
    "Ġsiber": 17754,
    "voy": 7143,
    "Ġwheelbarrow": 17203,
    "Ġprofit": 14584,
    "ras": 21035,
    "Ġimprecate": 20516,
    "Ġweeps": 24947,
    "Ġaccumulates": 2888,
    "Ġhy": 5625,
    "flesh": 13488,
    "due": 22408,
    "inno": 10755,
    "Ġthunders": 15635,
    "Ġconceit": 7295,
    "Ġpropriety": 10008,
    "Ġaffection": 2642,
    "Ġo": 275,
    "Ġvirtual": 11238,
    "orers": 14101,
    "Ġhighly": 4844,
    "pig": 8752,
    "Ġdisputes": 25825,
    "gallantry": 15059,
    "Ġrevolutions": 23838,
    "Ġbuoyancy": 20040,
    "apple": 22842,
    "Ġclue": 7019,
    "ot": 346,
    "ieve": 1655,
    "conclusions": 25672,
    "Ġfeels": 6882,
    "Ġswap": 23051,
    "lab": 3454,
    "monster": 8592,
    "pleasantness": 19769,
    "Ġholes": 16407,
    "ateg": 1380,
    "mit": 4933,
    "Ġtall": 4039,
    "houn": 20892,
    "Ġvag": 9706,
    "incom": 21180,
    "marching": 25752,
    "Ġsurface": 5119,
    "aly": 1122,
    "Ġshrill": 12138,
    "Ġmajority": 13290,
    "Ġcheck": 7271,
    "Ġkeeping": 7283,
    "Ġrelationship": 2313,
    "Ġceiling": 7997,
    "Ġwhiteness": 5919,
    "Ġboisterous": 20441,
    "Ġnephew": 6404,
    "pine": 13767,
    "Ġemotion": 7690,
    "dering": 5305,
    "Ġsurpassed": 25267,
    "Ġdiffered": 22709,
    "Ġexhilarating": 26337,
    "circumamb": 26087,
    "Ġrudeness": 17123,
    "Ġpresenting": 18986,
    "Ġadjac": 18292,
    "Ġsuggestive": 11295,
    "Ġfolks": 14424,
    "Ġstay": 3092,
    "igen": 4829,
    "asburgh": 15644,
    "Ġlamb": 8811,
    "Ġblasphe": 17405,
    "Ġbrimstone": 25686,
    "icing": 9199,
    "Ġvariants": 1793,
    "Ġsiberia": 26161,
    "Ġpasture": 14542,
    "Ġmightiest": 12956,
    "Ġassail": 13059,
    "Ġlingo": 24903,
    "Ġ46": 19489,
    "Ġsevered": 18205,
    "Ġrainbows": 19647,
    "Ġflooring": 23623,
    "Ġupdates": 1300,
    "Ġperf": 12846,
    "Ġpromise": 4199,
    "Ġduke": 7756,
    "Ġcask": 5527,
    "Ġchristian": 6479,
    "Ġforged": 12700,
    "pendicular": 6499,
    "Ġtink": 9147,
    "Ġpride": 3823,
    "Ġclout": 22341,
    "Ġregular": 953,
    "rugg": 15896,
    "awakened": 14451,
    "Ġshabby": 14109,
    "blu": 12437,
    "perch": 18342,
    "Ġcommit": 18655,
    "Ġstillness": 12991,
    "Ġgush": 10201,
    "destruction": 11254,
    "Ġindoors": 18835,
    "iable": 3331,
    "anthrop": 17380,
    "mong": 15387,
    "yarn": 15456,
    "Ġsty": 6251,
    "Ġmakes": 3650,
    "Ġfumbled": 17881,
    "incidentally": 20538,
    "Ġsallied": 12533,
    "Ġleaks": 16447,
    "Ġpubl": 3942,
    "Ġfeedback": 23431,
    "raised": 15676,
    "Ġharpoons": 5659,
    "Ġpleasantest": 24137,
    "utch": 21584,
    "iard": 9600,
    "objections": 19915,
    "Ġimmediately": 3363,
    "°": 113,
    "loved": 14249,
    "meetings": 20376,
    "Ġshown": 5159,
    "perhaps": 4123,
    "Ġcents": 17828,
    "eler": 1571,
    "Ġadvanced": 1486,
    "ilt": 2965,
    "inced": 3333,
    "pard": 9617,
    "Ġconveying": 19713,
    "Ġample": 11795,
    "hotel": 20048,
    "Ġstreatham": 17447,
    "Ġ130": 24781,
    "Ġchaise": 9075,
    "Ġeyford": 10640,
    "Ġcra": 2329,
    "jackets": 24895,
    "Ġlabors": 23328,
    "Ġsquall": 7043,
    "blunder": 24129,
    "Ġbattle": 5908,
    "Ġnatural": 1119,
    "Ġpers": 1355,
    "instead": 14811,
    "Ġhousekeeping": 18943,
    "Ġappeased": 23198,
    "fthand": 26385,
    "Ġsweetheart": 19393,
    "mark": 5281,
    "Ġwishes": 4794,
    "Ġposs": 1613,
    "Ġtens": 17722,
    ".,": 5988,
    "Ġthrust": 5084,
    "Ġabsor": 8504,
    "inferences": 17738,
    "aet": 15305,
    "securer": 25602,
    "Ġgre": 1582,
    "Ġxxxi": 24968,
    "Ā": 193,
    "Ġsqualid": 14366,
    "Ġdelusion": 18973,
    "free": 8735,
    "Ġfeel": 1261,
    "aven": 8210,
    "desp": 6076,
    "adders": 24399,
    "Ġthis": 382,
    "Ġimaginations": 16515,
    "Ġphilosopher": 12180,
    "Ġfocused": 16339,
    "Ġemployments": 12099,
    "Ġbeheld": 4492,
    "Ġdistrustful": 25054,
    "Ġblubber": 5666,
    "voc": 8394,
    "Ġtranqu": 4604,
    "Ġchivalry": 25818,
    "Ġbristles": 25843,
    "emporary": 15793,
    "Ġhints": 8430,
    "Ġopposed": 11186,
    "Ġcoun": 4178,
    "================": 3721,
    "inc": 2523,
    "departed": 24794,
    "Ġdelic": 4135,
    "runs": 25415,
    "Ġpredefined": 20717,
    "Ġmantel": 11437,
    "ispensable": 9094,
    "Ġmac": 15536,
    "Ġimmediate": 6090,
    "Ġtid": 8107,
    "Ġ61": 24363,
    "Ġomn": 8410,
    "Ġmartyr": 26360,
    "Ġlouis": 8357,
    "Ġgalvan": 21615,
    "istic": 956,
    "oding": 1461,
    "Ġenric": 21933,
    "Ġtorm": 5434,
    "Ġ10": 5248,
    "ying": 1448,
    "Ġvacuous": 24343,
    "events": 12314,
    "profound": 16424,
    "Ġcreat": 1434,
    "Ġloses": 15871,
    "Ġsupposing": 6729,
    "faced": 8080,
    "Ġswain": 18881,
    "Ġinterpret": 5490,
    "snapping": 24849,
    "Ġescorted": 23505,
    "narrative": 17317,
    "spending": 18691,
    "Ġgentlemanlike": 12063,
    "gue": 12464,
    "Ġopposite": 5120,
    "Ġken": 22189,
    "ante": 11718,
    "Ġunluckily": 20100,
    "bent": 15309,
    "Ġwow": 15527,
    "Ġcheerful": 6621,
    "rians": 21928,
    "reference": 13838,
    "privilege": 25263,
    "aples": 20767,
    "Ġbreezes": 14867,
    "Ġcovari": 2335,
    "Ġstooping": 13058,
    "hertfordshire": 10934,
    "Ġroods": 22402,
    "turns": 14904,
    "ropri": 2181,
    "ressing": 8917,
    "Ġhappiness": 2942,
    "Ġlinguistic": 12421,
    "hard": 4688,
    "Ġdaint": 15590,
    "Ġindolence": 16227,
    "Ġtattered": 21170,
    "Ġdiffident": 23781,
    "board": 3562,
    "themselves": 6540,
    "Ġlisten": 4672,
    "Ġsemblance": 20733,
    "wives": 15454,
    "Ġleakage": 23458,
    "whispering": 26103,
    "ucumber": 19060,
    "Ġexterior": 19986,
    "Ġbeneath": 3235,
    "meadow": 18679,
    "tenderly": 20529,
    "Ġunmethodically": 22069,
    "fr": 4804,
    "attention": 2110,
    "Ġcritics": 23443,
    "Ġdissol": 18551,
    "Ġhorsey": 24248,
    "specim": 23941,
    "Ġtowers": 16737,
    "Ġspiteful": 19521,
    "ception": 6562,
    "Ġtufted": 17013,
    "uy": 21098,
    "Ġcarted": 21347,
    "Ġdodo": 9071,
    "drovand": 24760,
    "Ġbecoming": 4396,
    "darted": 20831,
    "human": 7088,
    "Ġqualifications": 24675,
    "Ġfurious": 10353,
    "crown": 13696,
    "Ġnumberless": 16414,
    "Ġsatirical": 26279,
    "breathing": 25335,
    "vint": 21113,
    "Ġbites": 23740,
    "length": 7134,
    "Ġste": 1389,
    "Ġbridegroom": 10603,
    "precaution": 23819,
    "Ġcont": 622,
    "Ġgenerating": 12845,
    "irms": 18166,
    "Ġdab": 15585,
    "Ġtools": 11606,
    "Ġworship": 10365,
    "Ġimpregnable": 26023,
    "Ġmental": 21318,
    "Ġforgetting": 3432,
    "Ġappeal": 16314,
    "Ġcurtains": 22981,
    "sum": 2087,
    "Ġlakes": 8131,
    "farewell": 12303,
    "Ġchann": 15933,
    "Ġfitted": 6243,
    "Ġsynd": 22204,
    "glings": 23848,
    "Ġaccuse": 14210,
    "lue": 8508,
    "Ġhopes": 4234,
    "laughed": 20280,
    "Ġachieves": 4378,
    "Ġcle": 1514,
    "large": 6625,
    "Ġlittle": 866,
    "Ġknocked": 9498,
    "Ġoxford": 11369,
    "dissatisf": 26129,
    "Ġuncommon": 5026,
    "seventy": 10874,
    "Ġhellish": 10549,
    "Ġcontin": 5382,
    "Ġrolls": 8334,
    "expl": 9281,
    "Ġboasting": 19934,
    "Ġamber": 7026,
    "eat": 11480,
    "Ġlogical": 14485,
    "Ġscheming": 23269,
    "Ġfavourite": 5270,
    "Ġflatter": 9346,
    "bots": 10081,
    "order": 1957,
    "breadth": 20275,
    "Ġmorbid": 16232,
    "Ġaband": 6561,
    "Ġchained": 16387,
    "Ġimpertinence": 11364,
    "talk": 6656,
    "Ġnomine": 26455,
    "Ġpowdered": 24236,
    "Ġclassical": 22621,
    "acled": 16079,
    "Ġempt": 5051,
    "speckled": 23942,
    "Ġholmes": 1309,
    "Ġinter": 728,
    "Ġgermany": 25785,
    "ighter": 7968,
    "Ġdisappears": 18560,
    "Ġshock": 6083,
    "odecimo": 11442,
    "Ġcheese": 9375,
    "Ġcrab": 13142,
    "promise": 12247,
    "Ġtedious": 15265,
    "Ġjustly": 11900,
    "ohnson": 16324,
    "Ġhisself": 21912,
    "Ġdisgust": 6705,
    "Ġcommunic": 5751,
    "inguished": 6598,
    "appearing": 14636,
    "Ġintroduce": 3204,
    "ĠâĢľâĢĻ": 22252,
    "Ġinflexibly": 26370,
    "fee": 12875,
    "berries": 22722,
    "Ġc": 277,
    "Ġgigantic": 5915,
    "Ġroughly": 17039,
    "meditated": 19069,
    "ells": 5303,
    "Ġspermaceti": 8966,
    "Ġblank": 5951,
    "roots": 15640,
    "Ġminutely": 14560,
    "Ġponderous": 8355,
    "Ġattended": 5391,
    "Ġlard": 13945,
    "Ġgnarled": 25165,
    "Ġstrike": 4855,
    "Ġgenerator": 3379,
    "Ġoccasional": 7289,
    "Ġpartner": 6714,
    "ets": 1160,
    "ê": 171,
    "movement": 25577,
    "soup": 21057,
    "Ġhaunt": 18197,
    "fainting": 20471,
    "brought": 7285,
    "Ġtypes": 8935,
    "rigging": 20004,
    "tles": 10729,
    "hideous": 25407,
    "Ġblueprints": 13169,
    "skirted": 24488,
    "pertaining": 22186,
    "Ġwords": 1325,
    "Ġsimpleton": 16332,
    "tails": 21085,
    "Ġvindictive": 20468,
    "Ġdescrying": 18618,
    "Ġexactly": 2767,
    "Ġlion": 9674,
    "lone": 11497,
    "Ġstandards": 19015,
    "fil": 12459,
    "Ġtranquil": 7310,
    "Ġnorm": 762,
    "Ġawoke": 7286,
    "Ġflowery": 16230,
    "Ġshouting": 10521,
    "Ġcemet": 20679,
    "âĢĶâĢĺ_": 24831,
    "Ġshri": 5375,
    "Ġtint": 13815,
    "Ġresounds": 22540,
    "Ġdata": 517,
    "Ġlasted": 11051,
    "trop": 15435,
    "Ġantiqu": 12141,
    "cooper": 19188,
    "Ġoutfits": 22319,
    "Ġbut": 424,
    "genteel": 19947,
    "Ġislands": 6766,
    "cap": 8373,
    "Ġsomething": 1796,
    "Ġannoyance": 20661,
    "Ġiron": 3233,
    "Ġawaken": 23585,
    "Ġanatomical": 15074,
    "enchant": 21282,
    "Ġcaul": 10786,
    "Ġabreast": 18394,
    "Ġmiserably": 12944,
    "Ġdem": 11672,
    "Ġdelicious": 14791,
    "alt": 12634,
    "Ġspinal": 12299,
    "Ġchink": 15930,
    "Ġwilfully": 16765,
    "example": 16011,
    "Ġpulling": 5862,
    "Ġener": 10894,
    "Ġsurmise": 12292,
    "asis": 12646,
    "Ġspouter": 12794,
    "ued": 7561,
    "fowl": 17548,
    "ffy": 18314,
    "Ġhearty": 9844,
    "Ġhorizon": 6632,
    "Ġravines": 25831,
    "Ġabounding": 12341,
    "letter": 6201,
    "Ġcannot": 1661,
    "Ġspectrum": 4474,
    "Ġyale": 21777,
    "Ġ79": 24263,
    "robust": 19726,
    "homely": 25617,
    "Ġdisappo": 4505,
    "concent": 19478,
    "mutually": 26136,
    "Ġgrie": 3580,
    "Ġrealised": 18979,
    "Ġhands": 1659,
    "Ġunholy": 26218,
    "Ġthose": 1174,
    "Ġdefine": 9813,
    "bastian": 10672,
    "iscuit": 10597,
    "Ġhen": 3500,
    "Ġdownst": 3556,
    "himself": 3974,
    "Ġseventy": 7881,
    "Ġev": 4828,
    "Ġproceed": 3241,
    "Ġtoward": 17946,
    "Ġcommunicating": 16888,
    "bearers": 18527,
    "Ġqueequeg": 2011,
    "Ġferguson": 17468,
    "Ġpromises": 10399,
    "uplifted": 17694,
    "Ġfullest": 14812,
    "Ġlubber": 17442,
    "entreaties": 26185,
    "Ġoriental": 9095,
    "Ġpressing": 9259,
    "accompanied": 12418,
    "Ġreveal": 11197,
    "deepest": 22834,
    "Ġyelled": 9692,
    "Ġpropos": 7062,
    "etical": 13956,
    "Ġopt": 793,
    "Ġglo": 1713,
    "olds": 9309,
    "allet": 11081,
    "Ġsociety": 3980,
    "agos": 21902,
    "Ġremaining": 6188,
    "manif": 14371,
    "Ġrenders": 13281,
    "Ġuniverse": 14122,
    "Ġstilly": 25973,
    "toller": 20671,
    "Ġilleg": 21621,
    "mrs": 3743,
    "Ġhelped": 7459,
    "iously": 2677,
    "Ġarm": 2494,
    "Ġsentiment": 6588,
    "con": 654,
    "osc": 18387,
    "Ġcomputational": 1622,
    "Ġgemini": 26468,
    "rates": 21037,
    "Ġlam": 21547,
    "Ġsteered": 11091,
    "Ġresearches": 13121,
    "Ġhesitation": 13439,
    "Ġhorr": 3190,
    "Ġbeginning": 4243,
    "princip": 17135,
    "Ã¦st": 24174,
    "heart": 4525,
    "tempt": 21078,
    "Ġcoronet": 6344,
    "unable": 14057,
    "drink": 10594,
    "Ġcargo": 16288,
    "semicirc": 26490,
    "Ġtwelfth": 22676,
    "Ġmeekly": 26489,
    "unguarded": 23668,
    "Ġenter": 4031,
    "Ġdistinguish": 2726,
    "Ġimprudence": 10296,
    "from": 1989,
    "perseus": 26005,
    "Ġii": 7385,
    "Ġsquatted": 25841,
    "Ġcurling": 9341,
    "Ġcouples": 16851,
    "Ġbland": 11062,
    "Ġgodfrey": 15291,
    "oftener": 23962,
    "started": 10843,
    "Ġawkward": 7073,
    "vative": 1672,
    "voyage": 7786,
    "Ġportents": 14678,
    "Ġidly": 16403,
    "ayed": 12708,
    "Ġsky": 3972,
    "Ġ180": 16605,
    "Ġadmitted": 8985,
    "matters": 14872,
    "Ġdecanter": 22456,
    "Ġintrude": 25990,
    "eronomy": 15523,
    "Ġbadge": 16682,
    "Ġtrotting": 19974,
    "Ġcourtesy": 9943,
    "iv": 432,
    "©": 107,
    "highly": 24764,
    "admitted": 18091,
    "Ġloath": 7891,
    "orable": 8120,
    "ornamented": 26594,
    "Ġarched": 10930,
    "Ġthrow": 3783,
    "Ġwhist": 6022,
    "Ñ": 146,
    "Ġwinter": 5220,
    "Ġvector": 1970,
    "Ġwhereby": 11834,
    "Ġrusty": 14962,
    "Ġpounds": 5368,
    "aciously": 12903,
    "Ġexal": 10875,
    "exe": 11786,
    "denial": 18717,
    "Ġconfirming": 25321,
    "Ġredress": 23750,
    "rodu": 1818,
    "Ġz": 999,
    "Ġreport": 6191,
    "Ġdeclared": 5594,
    "ware": 3937,
    "Ġhumorously": 18776,
    "Ġnervously": 19183,
    "Ġsanity": 24981,
    "Ġpersever": 10001,
    "urred": 8449,
    "Ġthomson": 26453,
    "Ġbodily": 6106,
    "?âĢĿ": 701,
    "oam": 8751,
    "Ġrescales": 5068,
    "Ġstunsail": 25543,
    "Ġhellaswag": 24342,
    "dinner": 11404,
    "hetic": 12200,
    "weight": 2937,
    "icip": 6389,
    "iferous": 17290,
    "ccess": 3183,
    "Ġdistribution": 2018,
    "consolation": 15150,
    "benevol": 12223,
    "Ġingenious": 12345,
    "Ġguido": 2974,
    "Ġdeserves": 13287,
    "tes": 11526,
    "mbling": 3342,
    "contin": 16540,
    "rimshander": 20656,
    "welcomed": 24644,
    "Ġbalance": 2020,
    "riers": 18186,
    "Ġde": 363,
    "Ġassertion": 13487,
    "ru": 481,
    "Ġmildness": 9942,
    "emptied": 23635,
    "iriously": 18169,
    "Ġanswers": 7070,
    "Ġcompanies": 14556,
    "Ġcavity": 20486,
    "unch": 14056,
    "Ġarrow": 10929,
    "Ġaccording": 5508,
    "str": 2578,
    "Ġhatred": 8608,
    "Ġstrugg": 3216,
    "Ġconcluding": 9855,
    "Ġprovoked": 13323,
    "Ġcause": 2413,
    "Ġbestowing": 16970,
    "Ġmassacre": 20546,
    "meaning": 2905,
    "Ġdisturbing": 19944,
    "Ġchoke": 22247,
    "encyclopÃ¦dia": 16662,
    "Ġdependencies": 2312,
    "Ġambitious": 18514,
    "pinn": 21025,
    "bless": 22310,
    "Ġupbra": 22152,
    "lies": 15379,
    "Ġvolcano": 24146,
    "canoes": 16228,
    "Ġtreading": 16503,
    "Ġhideous": 5983,
    "Ġparticle": 18671,
    "Ġnuts": 17951,
    "Ġashen": 21897,
    "Ġagonies": 14250,
    "nosed": 20991,
    "then": 2052,
    "Ġframe": 1955,
    "Ġiceberg": 14714,
    "Ġreplete": 15695,
    "alive": 10826,
    "Ġropes": 10747,
    "whew": 22866,
    "og": 869,
    "Ġshape": 5639,
    "Ġremorseless": 13449,
    "Ġpangs": 15612,
    "Ġjob": 7015,
    "growing": 13731,
    "rann": 21043,
    "Ġrefreshment": 17238,
    "Ġunfolding": 17085,
    "Ġvery": 635,
    "Ġdiscoverer": 26035,
    "maintained": 25020,
    "conjectures": 25180,
    "Ġtea": 5041,
    "Ġrounded": 14437,
    "neighbouring": 19962,
    "Ġinsert": 19904,
    "Ġmortified": 14693,
    "û": 188,
    ")âĢĶ": 20741,
    "Ġtribes": 20479,
    "Ġsmooth": 2777,
    "Ġdischarged": 15218,
    "Ġwhich": 502,
    "Ġcombines": 1171,
    "Ġwhichever": 13998,
    "Ġtahiti": 13617,
    "Ġresign": 18564,
    "Ġintroduction": 8969,
    "Ġcomprising": 16066,
    "Ġkettle": 26232,
    "Ġliv": 6679,
    "unk": 4538,
    "Ġprofessor": 11228,
    "Ġribbed": 16803,
    "Ġlid": 6983,
    "Ġsimpl": 1578,
    "title": 17286,
    "Ġfoam": 6891,
    "Ġfr": 1694,
    "Ġbolts": 16942,
    "Ġrubbing": 9319,
    "Ġrole": 15995,
    "everything": 6324,
    "Ġdews": 21836,
    "Ġfortnight": 6200,
    "Ġpedestrian": 25879,
    "Ġstrainings": 24628,
    "Ġcelebrated": 13592,
    "Ġfries": 21414,
    "Ġmidday": 23632,
    "Ġharmony": 16813,
    "Ġshovel": 23490,
    "Ġinexper": 16979,
    "Ġhollow": 5648,
    "stonecraft": 24355,
    "Ġnaut": 13939,
    "humorously": 24019,
    "Ġvacancy": 9043,
    "Ġbingley": 1673,
    "Ġhooked": 19079,
    "Ġdistillation": 16043,
    "Ġwaned": 17791,
    "everybody": 8610,
    "accepting": 20134,
    "Ġtruest": 16702,
    "Ġvarieties": 14308,
    "Ġplants": 22596,
    "ghan": 19453,
    "Ġniag": 21528,
    "Ġquarter": 3979,
    "anged": 3585,
    "Ġworsted": 19993,
    "Ġpennies": 17269,
    "unbe": 21870,
    "Ġnobler": 14172,
    "Ġprosperous": 15169,
    "times": 8099,
    "icher": 9201,
    "Ġunnecessary": 8850,
    "Ġneighbour": 3808,
    "Ġquadrant": 11402,
    "ssible": 2990,
    "bone": 5611,
    "Ġextraordinary": 5414,
    "Ġosc": 2834,
    "Ġrust": 6408,
    "Ġvocabulary": 4995,
    "earthly": 24724,
    "Ġtrustees": 24107,
    "success": 6710,
    "pipe": 8696,
    "benefact": 24641,
    "prick": 19341,
    "dred": 2529,
    "ier": 1136,
    "Ġberth": 8679,
    "peaceful": 20445,
    "Ġeconomy": 17199,
    "Ġvessels": 6755,
    "Ġoperations": 2298,
    "Ġjo": 2610,
    "Ġconsist": 1932,
    "Ġhogshe": 20490,
    "Ġadvancing": 6878,
    "become": 14245,
    "Ġomens": 21326,
    "Ġpra": 4346,
    ");": 7330,
    "antically": 22094,
    "Ġpitch": 5767,
    "Ġavast": 9918,
    "Ġdepress": 14044,
    "Ġserm": 9632,
    "Ġbelike": 18829,
    "Ġapproxim": 1217,
    "Ġrmsprop": 3351,
    "Ġxi": 16428,
    "Ġimprovement": 7965,
    "Ġjones": 7204,
    "Ġlimb": 9400,
    "obed": 14444,
    "Ġknowing": 4455,
    "Ġdissolved": 18554,
    "Ġspent": 3967,
    "Ġstalked": 20427,
    "Ġentit": 22741,
    "Ġreverence": 12056,
    "Ġbid": 6131,
    "Ġits": 707,
    "Ġsanction": 20024,
    "discovered": 8325,
    "Ġeffectively": 2548,
    "oko": 18440,
    "Ġdocument": 15017,
    "Ġmentioned": 4329,
    "Ġfrantically": 23257,
    "Ġmisanthrop": 22760,
    "pherd": 13642,
    "bee": 16036,
    "employ": 10893,
    "countless": 24149,
    "Ġrejoicing": 13419,
    "Ġchamois": 16799,
    "Ġsacri": 18328,
    "Ġenglishman": 11227,
    "Ġliber": 5168,
    "crimin": 17507,
    "Ġlapl": 19776,
    "Ġinferior": 8366,
    "pse": 21008,
    "Ġresent": 6049,
    "Ġscreaming": 13421,
    "urn": 778,
    "Ġdireful": 11015,
    "Ġbrothers": 13173,
    "Ġsentence": 6187,
    "Ġglaring": 11904,
    "Ġinmost": 17930,
    "explanations": 25234,
    "Ġchiselled": 25559,
    "Ġstripping": 23694,
    "Ġble": 5223,
    "Ġwoll": 21292,
    "a": 69,
    "Ġtranquillize": 24757,
    "rain": 462,
    "Ġtinge": 25087,
    "izure": 21839,
    "discernible": 20549,
    "uguese": 20731,
    "Ġmiracle": 15091,
    "Ġnotice": 4542,
    "Ġsensible": 4976,
    "Ġcircle": 4977,
    "Ġcompromising": 22571,
    "asy": 5294,
    "firm": 10697,
    "igh": 2028,
    "Ġharrow": 17925,
    "Ġguar": 23044,
    "Ġagreeable": 4551,
    "Ġpsych": 10175,
    "commotion": 24913,
    "Ġunprepared": 22048,
    "Ġsped": 22123,
    "Ġrisk": 8039,
    "Ġfestoon": 20293,
    "capable": 13699,
    "Ġemblem": 20496,
    "daughter": 8354,
    "Ġphantom": 8706,
    "Ġeyed": 12663,
    "bled": 5469,
    "Ġswayed": 15046,
    "Ġwoman": 2390,
    "fetch": 12461,
    "puff": 21021,
    "ture": 7558,
    "fulfil": 16035,
    "rimin": 2426,
    "Ġgrotes": 19562,
    "harpooneers": 8689,
    "aming": 5828,
    "Ġdeficiencies": 26569,
    "Ġcomprehens": 8320,
    "Ġcamberwell": 25350,
    "eted": 7591,
    "abulary": 4800,
    "Ġsudden": 1997,
    "Ġjove": 9266,
    "indisc": 22371,
    "Ġcusack": 26432,
    "Ġcertainly": 2499,
    "mody": 16177,
    "aker": 3661,
    "Ġhabits": 6926,
    "Ġelsewhere": 7713,
    "Ġlegend": 14573,
    "Ġtroubling": 26546,
    "Ġsubstantiated": 25875,
    "adding": 21757,
    "Ġ17": 5740,
    "Ġlodgings": 8312,
    "Ġcriminal": 7537,
    "Ġexacted": 23602,
    "Ġharvest": 13413,
    "Ġremark": 2147,
    "Ġtowed": 11263,
    "Ġarg": 4765,
    "carb": 20809,
    "Ġwhel": 15864,
    "beheld": 11799,
    "Ġcircumstantial": 14642,
    "Ġsorting": 3232,
    "Ġlewis": 15722,
    "Ġacquired": 13040,
    "Ġpulverize": 23391,
    "relieved": 13274,
    "Ġaccompanying": 11302,
    "philosop": 9566,
    "ours": 3425,
    "Ġfix": 2510,
    "Ġabrid": 22270,
    "Ġpresumed": 10543,
    "Ġrobes": 16251,
    "Ġfork": 15729,
    "itters": 10780,
    "paying": 25411,
    "Ġstiffest": 24829,
    "Ġrelent": 18772,
    "Ġhasten": 10477,
    "ige": 12675,
    "Ġsymptom": 13481,
    "Ġfinal": 5400,
    "owed": 2269,
    "Ġtogether": 1878,
    "Ġpaling": 21461,
    "Ġsplitting": 4382,
    "Ġconsistent": 14527,
    "Ġprehensile": 26533,
    "Ġlivid": 14987,
    "ckles": 22087,
    "near": 5842,
    "Ġhim": 476,
    "articulate": 17396,
    "itten": 3438,
    "Ġresembled": 18033,
    "readily": 19360,
    "twenty": 6607,
    "Ġromish": 19583,
    "wandering": 20283,
    "Ġhinting": 19648,
    "umpled": 15874,
    "Ġroads": 13286,
    "Ġlamps": 14789,
    "uvian": 12239,
    "ber": 885,
    "Ġcommon": 1411,
    "Ġinj": 4759,
    "embarrassed": 20595,
    "Ġvi": 1950,
    "Ġabraham": 18395,
    "Ġstudents": 23214,
    "mount": 9128,
    "Ġsnail": 19299,
    "Ġtwink": 8216,
    "Ġclanging": 18422,
    "sacred": 17027,
    "sad": 11518,
    "Ġground": 2845,
    "indebted": 26158,
    "Ġsource": 6805,
    "likewise": 13103,
    "razor": 21635,
    "Ġparamount": 15876,
    "Ġschools": 9475,
    "stuff": 15685,
    "angered": 16176,
    "Ġproc": 5544,
    "Ġintervals": 5597,
    "lu": 597,
    "Ġrank": 6258,
    "Ġundressed": 19512,
    "ppery": 10890,
    "Ġmassac": 14734,
    "Ġstart": 3257,
    "orious": 6008,
    "Ġmultitud": 18746,
    "Ġoozy": 21325,
    "ornament": 23487,
    "uncommonly": 25549,
    "Ġvulgar": 13602,
    "Ġbathing": 20198,
    "Ġspiritual": 9928,
    "sixty": 24852,
    "increased": 20269,
    "Ġalways": 1695,
    "rived": 5373,
    "Ġtorrents": 20054,
    "Ġstowed": 21734,
    "Ġcrescent": 16134,
    "Ġrepented": 23361,
    "Ġpolitic": 23617,
    "ucket": 2484,
    "adem": 21755,
    "concerned": 24583,
    "dishonourable": 26365,
    "Ġprows": 19888,
    "Ġmurmured": 7480,
    "Ġinclement": 22551,
    "Ġcompanion": 3642,
    "weaknesses": 26030,
    "Ĺ": 250,
    "Ġhoard": 23351,
    "buff": 15316,
    "Ġrival": 10484,
    "asingly": 17960,
    "Ġspool": 24806,
    "ivil": 6411,
    "seemed": 4304,
    "Ġtherefore": 2240,
    "opius": 18509,
    "Ġoverflow": 10291,
    "enorm": 17780,
    "Ġcomprehensiveness": 25072,
    "Ġlothario": 26184,
    "function": 4247,
    "altering": 12636,
    "Ġfanatic": 23390,
    "holland": 24041,
    "chairs": 21691,
    "Ġhunters": 6300,
    "book": 4668,
    "Ġregal": 16074,
    "Ġdistingu": 2516,
    "Ġfor": 340,
    "Ġdeliberately": 10623,
    "Ġsecond": 1890,
    "Ġlady": 1586,
    "Ġcases": 3964,
    "official": 24914,
    "finding": 17012,
    "Ġjonah": 3478,
    "sl": 5794,
    "Ġaudacious": 13458,
    "Ġstomach": 11651,
    "Ġgracious": 8845,
    "ara": 12602,
    "ee": 1656,
    "Ġadjusting": 3409,
    "grieved": 17315,
    "Ġnoiseless": 10355,
    "Ġstiggs": 25792,
    "Ġrecording": 24433,
    "Ġelement": 6898,
    "Ġpartly": 6713,
    "Ġanomalously": 25638,
    "Ġinvaluable": 10181,
    "Ġplunge": 13441,
    "course": 6104,
    "Ġnar": 7375,
    "inforcement": 3268,
    "Ġsaintly": 25931,
    "trimmed": 23946,
    "Ġsurrounding": 12159,
    "Ġabove": 2933,
    "Ġwearer": 21920,
    "forever": 22517,
    "attended": 8951,
    "Ġtwig": 11847,
    "Ġglu": 15665,
    "erate": 7149,
    "americans": 25042,
    "quake": 11678,
    "Ġsplice": 19308,
    "uteness": 17985,
    "crack": 19839,
    "Ġwhaler": 7520,
    "up": 1284,
    "get": 1020,
    "Ġwestmorland": 24389,
    "grasp": 16429,
    "expect": 4768,
    "Ġswells": 9825,
    "Ġlane": 5627,
    "Ġdefend": 9338,
    "foremost": 14251,
    "quiet": 6154,
    "Ġtwit": 12925,
    "Ġconstrained": 19239,
    "Ġglasses": 9473,
    "Ġalternating": 15029,
    "Ġrequest": 6051,
    "Ġcomfortable": 6095,
    "aiian": 23591,
    "Ġhair": 3311,
    "mes": 1196,
    "Ġusage": 9728,
    "Ġparties": 7038,
    "befall": 22494,
    "aceti": 7111,
    "Ġgoblets": 20517,
    "Ġparis": 8179,
    "igators": 18044,
    "Ġajar": 21201,
    "Ġfaculties": 14956,
    "law": 6115,
    "Ġprove": 5232,
    "Ġblanched": 26282,
    "rical": 11516,
    "Ġrevenue": 26194,
    "Ġwade": 17784,
    "Ġoust": 21322,
    "onder": 3779,
    "Ġcareless": 11117,
    "Ġbutcher": 18271,
    "atement": 17772,
    "appear": 13196,
    "steak": 14706,
    "Ă": 195,
    "Ġ19": 6719,
    "Ġnupt": 13941,
    "Ġanalogy": 25639,
    "Ġthereupon": 18433,
    "Ġstartling": 14669,
    "esc": 617,
    "Ġjura": 14191,
    "short": 6566,
    "astern": 8581,
    "call": 8722,
    "Ġsleepers": 13147,
    "Ġsymbolize": 24962,
    "iment": 2815,
    "nurtured": 25524,
    "Ġpharaoh": 26584,
    "Ġpresided": 20206,
    "Ġthump": 11608,
    "reserved": 13841,
    "Ġhandspike": 22694,
    "mens": 20968,
    "bishop": 13692,
    "regards": 23465,
    "ross": 808,
    "Ġdistributed": 18661,
    "Ġcomprehension": 15084,
    "Ġtrous": 10957,
    "papers": 12498,
    "nal": 1901,
    "Ġsetbacks": 11061,
    "Ġprecaution": 11194,
    "Ġfrenchman": 11281,
    "Ġmaintained": 12930,
    "Ġey": 8135,
    "Ġcoincidences": 26363,
    "Ġrequisition": 22655,
    "Ġimpartial": 15217,
    "Ġtub": 7146,
    "icular": 2022,
    "Ġstatistics": 1680,
    "Ġaustralia": 15230,
    "Ġwished": 3728,
    "Ġnuptial": 25782,
    "Ġdistrusted": 13540,
    "Ġbeef": 6830,
    "Ġellenborough": 26154,
    "extinguish": 22770,
    "Ġwont": 9850,
    "iday": 8828,
    "Ġdomestic": 6910,
    "C": 39,
    "Ġbordering": 17227,
    "assertion": 22309,
    "name": 6795,
    "Ġlassitude": 20585,
    "Ġimprudent": 12844,
    "irene": 15914,
    "mental": 16047,
    "Ġclergy": 7642,
    "ication": 993,
    "Ġcane": 10925,
    "Ġstra": 2989,
    "Ġapprised": 18360,
    "headers": 23106,
    "Ġlungs": 8362,
    "Ġcount": 1815,
    "Ġconnections": 973,
    "Ġsighed": 10336,
    "tain": 559,
    "Ġrealise": 16335,
    "built": 16824,
    "ard": 465,
    "eskye": 21449,
    "cific": 10084,
    "folding": 24927,
    "Ġresist": 7917,
    "rud": 4191,
    "Ġconflagration": 26364,
    "Ġsuperglue": 23456,
    "Ġstable": 2698,
    "disappeared": 14569,
    "Ġsolving": 2483,
    "Ġquartered": 20371,
    "Ġimpress": 6862,
    "apolog": 22331,
    "Ġchimney": 6497,
    "Ġdecided": 5471,
    "Ġsorrow": 4627,
    "Ġconting": 18472,
    "perpetually": 20511,
    "Ġentertain": 6054,
    "Ġindign": 6173,
    "Ġredness": 19311,
    "itory": 12563,
    "Ġhabit": 6771,
    "chers": 11315,
    "Ġdire": 865,
    "grave": 16092,
    "ems": 5235,
    "sequ": 2404,
    "Ġconfederate": 17352,
    "Ġcharity": 8861,
    "Ġexisting": 12713,
    "twelve": 14621,
    "saved": 15430,
    "avo": 8517,
    "Ġinsular": 19267,
    "Ġdisciple": 22781,
    "mo": 863,
    "stre": 5451,
    "Ġtravel": 5953,
    "zes": 11546,
    "paused": 17372,
    "Ġconvolutions": 21805,
    "shark": 14236,
    "Ġ58": 24325,
    "rise": 6226,
    "woe": 21134,
    "Ġnapoleon": 20556,
    "ren": 550,
    "Z": 62,
    "Ġpity": 4941,
    "ites": 3900,
    "until": 6596,
    "Ġrhyme": 21979,
    "Ġstile": 21730,
    "Ġfolly": 7941,
    "Ġmight": 964,
    "remarks": 23187,
    "Ġcarr": 23088,
    "Ġhoops": 9387,
    "Ġsunk": 5752,
    "modesty": 22827,
    "Ġantiquities": 25598,
    "ufactured": 15179,
    "Ġmouthful": 16573,
    "Ġoughts": 23897,
    "Ġdives": 17890,
    "herfield": 3628,
    "ĠâĢľâĢĺ_": 25111,
    "regularization": 3512,
    "Ġdivineness": 25724,
    "Ġdispel": 16595,
    "battering": 20785,
    "Ġboard": 3380,
    "Ġgraves": 11705,
    "ometer": 19325,
    "Ġvariously": 18653,
    "_).": 5887,
    "Ġformation": 2940,
    "Ġslow": 2381,
    "Ġdressing": 7090,
    "Ġcolour": 4459,
    "draughts": 20386,
    "Ġdevices": 2938,
    "mand": 3896,
    "Ġlines": 4533,
    "Ġkidn": 20204,
    "nel": 11502,
    "apable": 6422,
    "perai": 10275,
    "Ġsubmitted": 11868,
    "africa": 26308,
    "Ġresignation": 18566,
    "ruct": 691,
    "Ġasiatic": 20428,
    "mistak": 16877,
    "ouri": 21446,
    "Ġspecksnyder": 17401,
    "Ġmer": 2926,
    "achus": 18279,
    "Ġmemory": 2274,
    "icorn": 15654,
    "Ġthimble": 15634,
    "Ġpreced": 6040,
    "Ġelevating": 19727,
    "Ġbegone": 11913,
    "rather": 5430,
    "Ġfacet": 15582,
    "Ġconsort": 18723,
    "nursery": 26398,
    "Ġlonged": 6436,
    "Ġyer": 15731,
    "Ġunostentatious": 22068,
    "Ġhandy": 12932,
    "Ġabruptness": 25299,
    "atig": 13843,
    "requent": 3648,
    "Ġmethods": 3160,
    "Ġnuptials": 20492,
    "rust": 2581,
    "turner": 19540,
    "iled": 1764,
    "Ġseats": 14087,
    "comp": 3816,
    "searching": 25103,
    "bohemia": 20730,
    "Ġasylum": 13664,
    "problems": 11432,
    "Ġdisplayed": 10607,
    "Ġmeta": 2971,
    "Ġevolved": 9889,
    "f": 74,
    "Ġcharming": 6628,
    "Ġexceeding": 1580,
    "Ġlevelled": 11282,
    "Ġvoids": 25807,
    "ashes": 6016,
    "rudent": 6482,
    "fool": 9046,
    "sort": 6798,
    "Ġreputation": 11638,
    "gee": 15975,
    "Ġmusic": 5268,
    "Ġscrew": 8866,
    "Ġavocation": 23950,
    "indifferent": 14207,
    "Ġfriendless": 23024,
    "Ġevap": 19622,
    "ateral": 19375,
    "Ġstuff": 5717,
    "networks": 2408,
    "Ġarabian": 9088,
    "Ġunwillingness": 20030,
    "Ġwhitting": 18055,
    "Ġhundredth": 16517,
    "divided": 25018,
    "Ġwoke": 21288,
    "Ġdoor": 1739,
    "tling": 9141,
    "Ġbelly": 10368,
    "Ġfake": 5810,
    "Ġwar": 5526,
    "Ġcontrol": 13077,
    "aster": 1867,
    "Ġvillagers": 19472,
    "Ġfist": 21402,
    "purpose": 10042,
    "Ġjoining": 13162,
    "mber": 7804,
    "{": 95,
    "agreeable": 5829,
    "Ġsar": 21212,
    "proceeded": 25190,
    "Ġevidently": 6759,
    "announce": 24559,
    "Ġconnect": 798,
    "Ġreliably": 22875,
    "Ġtoday": 12639,
    "Ġversion": 10628,
    "Ġdripping": 13145,
    "Ġquoin": 22416,
    "Ġfrown": 10806,
    "I": 45,
    "Ġeaglet": 19304,
    "ellation": 12746,
    "Ġhappen": 5570,
    "Ġindian": 4132,
    "Ġblasphemy": 26115,
    "Ġmalays": 19676,
    "Ġbarred": 9001,
    "Ġfagged": 17882,
    "Ġarts": 11005,
    "Ġstood": 2553,
    "Ġsabbee": 17254,
    "Ġbetake": 22903,
    "Ġextremity": 8987,
    "if": 375,
    "Ġillustrative": 25066,
    "Ġbark": 10797,
    "Ġdecline": 9286,
    "batross": 9091,
    "iarity": 8743,
    "Ġcorporeally": 25729,
    "Ġsupers": 18282,
    "tom": 15434,
    "clim": 18929,
    "moored": 22702,
    "Ġtumb": 21168,
    "Ġhates": 21484,
    "roded": 17955,
    "unwillingly": 21882,
    "nings": 9130,
    "Ġcuff": 17829,
    "ators": 7830,
    "Ġviv": 6156,
    "Ġhum": 1095,
    "gale": 13722,
    "grant": 10426,
    "Ġglassy": 19559,
    "Ġaccumulated": 11928,
    "Ġexplored": 23516,
    "Ġhemp": 9214,
    "Ġnet": 3624,
    "leaped": 17843,
    "Ġtorrid": 25032,
    "ļ": 253,
    "tables": 19756,
    "Ġgrew": 5182,
    "Ġstress": 18066,
    "Ġthree": 1369,
    "bouton": 17500,
    "trunk": 23945,
    "Ġtimor": 24223,
    "Ġrefer": 18698,
    "Ġcommonly": 3262,
    "useness": 22280,
    "pillar": 5618,
    "chains": 9683,
    "Ġscrutin": 26014,
    "Ġwithal": 18113,
    "Ġexclusion": 19394,
    "ollen": 11296,
    "rugged": 6849,
    "Ġadjusted": 23457,
    "fly": 13712,
    "Ġlocket": 22111,
    "Ġgods": 6454,
    "oriental": 23718,
    "Ġirresolute": 24916,
    "pents": 11510,
    "erring": 11055,
    "Ġscraped": 16902,
    "humour": 7498,
    "Ġther": 17777,
    "Ġaven": 10758,
    "Ġpartially": 13120,
    "Ġirksome": 13109,
    "headsman": 16699,
    "Ġprouder": 18972,
    "oons": 12495,
    "Ġdair": 17889,
    "murmured": 24454,
    "Ġsinging": 7724,
    "gish": 20872,
    "delightful": 12193,
    "progression": 20380,
    "Ġappear": 2487,
    "Ġnorthumbria": 24170,
    "fortnight": 13084,
    "succeed": 10327,
    "bert": 4661,
    "Ġfairest": 20461,
    "etimes": 1986,
    "Ġmemoirs": 26205,
    "Ġoversampling": 20514,
    "Ġdance": 4440,
    "Ġsailors": 4277,
    "Ġnewcom": 16220,
    "Ġpresents": 8245,
    "Ġserpent": 6737,
    "Ġblan": 18816,
    "Ġbehind": 2807,
    "Ġpurchasing": 19874,
    "Ġpaltry": 16691,
    "Ġfoundling": 22966,
    "Ġharsh": 9519,
    "Ġreservo": 16830,
    "ithmetic": 18061,
    "Ġcultivation": 17144,
    "istrate": 7406,
    "Ġpassionate": 11271,
    "Ġledger": 19400,
    "Ġlacepede": 20493,
    "Ġconsidered": 4610,
    "hullo": 17569,
    "phren": 22748,
    "Ġcontinual": 6777,
    "itch": 10159,
    "Ġadmirers": 19685,
    "Ġgates": 10199,
    "Ġconverse": 11844,
    "Ġembedding": 2103,
    "Ġembracing": 14978,
    "Ġpals": 13916,
    "Ġsluggish": 25890,
    "Ġcautiousness": 19865,
    "Ġ1883": 23893,
    "variance": 2657,
    "beating": 22488,
    "Ġmississippi": 20724,
    "known": 3565,
    "Ġdiamond": 15596,
    "Ġinterpreted": 1711,
    "Ġpressure": 13420,
    "Ġacceptable": 16743,
    "black": 6768,
    "Ġmonogram": 26573,
    "Ġslave": 7454,
    "sofa": 26146,
    "Ġfeverish": 11346,
    "Ġours": 4611,
    "Ġobligation": 13241,
    "stochastic": 3773,
    "iven": 1234,
    "Ġknave": 11270,
    "Ġacquiesce": 20328,
    "ittered": 18439,
    "Ġpacked": 9978,
    "Ġcop": 7579,
    "Ġresearch": 3037,
    "izens": 18143,
    "Ġheathenish": 13614,
    "ign": 1701,
    "ifies": 6686,
    "compassion": 12365,
    "umbent": 12092,
    "Ġruddy": 17124,
    "Ġforeshadowing": 26591,
    "Ġsneer": 13445,
    "Ġvenetian": 14845,
    "talked": 14983,
    "Ġbenevolence": 9525,
    "terrific": 25040,
    "quickly": 14960,
    "Ġstrateg": 1382,
    "Ġsofa": 10267,
    ".*": 7331,
    "Ġoptimizer": 5036,
    "Ġmurdering": 14809,
    "bringing": 17165,
    "combined": 20319,
    "eff": 2536,
    "Ġdeceive": 12718,
    "knows": 19171,
    "Ġunnaturally": 24870,
    "begged": 18523,
    "Ġebb": 21620,
    "iss": 2178,
    "Ġvener": 8164,
    "Ġ200": 19295,
    "Ġencompassed": 15251,
    "Ġpratt": 23220,
    "pred": 2802,
    "smiled": 16613,
    "Ġchronicle": 20227,
    "Ġvirtuous": 14754,
    "oors": 17619,
    "irresistible": 18171,
    "Ġpleasing": 6190,
    "Ġbranches": 6776,
    "Ġlexicon": 25974,
    "Ġcorners": 18874,
    "Ġadventure": 5981,
    "Ġimpelled": 11779,
    "certain": 3674,
    "Ġreproofs": 24892,
    "Ġgarments": 15191,
    "Ġabominable": 12319,
    "prepare": 20211,
    "Ġwantonly": 22892,
    "compar": 14358,
    "Ġdramat": 23218,
    "oforte": 14284,
    "Ġrapidity": 11098,
    "Ġflo": 2590,
    "Ġadmit": 7711,
    "Ġkeep": 2353,
    "mad": 5280,
    "Ġdiscreet": 16481,
    "snowy": 20282,
    "pag": 11508,
    "acrity": 14277,
    "generations": 23783,
    "rush": 7010,
    "Ġimpenitent": 26547,
    "tiest": 21080,
    "Ġappals": 22216,
    "Ġshells": 20362,
    "amous": 15758,
    "Ġreserve": 9969,
    "Ġcares": 9364,
    "narr": 12493,
    "cated": 20802,
    "lacings": 26134,
    "Ġbohem": 8526,
    "Ġnumber": 1980,
    "alizing": 17939,
    "unquiet": 21879,
    "Ġworker": 23030,
    "Ġscand": 7203,
    "Ġmust": 846,
    "acy": 3957,
    "Ġrumors": 11319,
    "Ġide": 2123,
    "Ġascend": 9958,
    "Ġmoles": 22430,
    "nut": 12491,
    "Ġfelt": 1745,
    "puted": 8844,
    "Ġbreath": 4790,
    "sufferable": 12173,
    "Ġgraceful": 11294,
    "execut": 13653,
    "mir": 20962,
    "calm": 8933,
    "Ġrouse": 15820,
    "Ġpecks": 18669,
    "Ġpauses": 14813,
    "Ġsow": 17748,
    "Ġhumbled": 16195,
    "ple": 455,
    "shrouded": 26361,
    "Ġrooms": 5180,
    "Ġbeque": 18080,
    "quadr": 15761,
    "tarpaulins": 26404,
    "cra": 6354,
    "acetty": 24463,
    "Ġafternoon": 6053,
    "Ġstep": 751,
    "ently": 1612,
    "gratification": 24347,
    "Ġplainpal": 19277,
    "Ġaffinity": 18786,
    "Ġhalts": 3157,
    "Ġchr": 3687,
    "Ġoffspring": 16142,
    "Ġ59": 24326,
    "Ġvary": 15805,
    "orders": 12870,
    "million": 25751,
    "Ġkrem": 9724,
    "ella": 12745,
    "Ġfinds": 6299,
    "journey": 8744,
    "league": 17844,
    "Ġobeisance": 19757,
    "Ġfog": 9660,
    "abilities": 3234,
    "Ġwriters": 13541,
    "allingly": 22197,
    "Ġlink": 8130,
    "Ġpenetrate": 12266,
    "size": 15424,
    "arest": 4006,
    "¢": 100,
    "Ġpenetrating": 17010,
    "Ġsidel": 9634,
    "Ġomitted": 12560,
    "Ġhyper": 19738,
    "Ġgiddy": 20495,
    "Ġbarbed": 14833,
    "Ġhunts": 23157,
    "Ġkindred": 16373,
    "youngest": 19742,
    "compliments": 24810,
    "Ġbowels": 9428,
    "Ġquery": 2480,
    "prodigious": 17465,
    "Ġplumage": 17296,
    "inlaid": 21189,
    "Ġgossip": 18470,
    "Ġoh": 2177,
    "Ġauthority": 7749,
    "Ġeastward": 13388,
    "wedged": 24337,
    "Ġrapture": 13494,
    "Ġbraced": 16578,
    "Ġreverie": 13455,
    "Ġimpulsive": 19961,
    "jah": 17580,
    "vel": 2388,
    "Ġauthorities": 11262,
    "bing": 7792,
    "...": 24548,
    "Ġcastors": 23973,
    "Ġretreats": 16927,
    "stra": 4046,
    "Ġwelded": 9570,
    "deed": 1522,
    "copper": 19187,
    "haw": 6361,
    "ios": 2275,
    "Ġsnuff": 7992,
    "Ġdesires": 9455,
    "mut": 17594,
    "Ġhempen": 13548,
    "Ġsensit": 2944,
    "considered": 9579,
    "Ġexert": 5722,
    "Ġpacing": 8426,
    "Ġdignified": 15595,
    "Ģ": 227,
    "Ġfaintly": 14913,
    "jolly": 20930,
    "Ġfeathers": 15117,
    "reeling": 21243,
    "eded": 9672,
    "Ġmagnitude": 1942,
    "Ġpromoting": 3161,
    "Ġbirch": 26174,
    "Ġantique": 19550,
    "Ġmarling": 23034,
    "Ġwharves": 13504,
    "eel": 11481,
    "Ġspotted": 12135,
    "brandy": 19199,
    "labours": 16616,
    "85": 13679,
    "_,âĢĿ": 6218,
    "Ġpaper": 4283,
    "itself": 7835,
    "Ġegypt": 9677,
    "Ġstained": 11650,
    "Ġrid": 4354,
    "Ġpioneer": 17918,
    "Ġdiscrete": 2476,
    "acup": 14276,
    "Ġthief": 11607,
    "libr": 22921,
    "dangerous": 20239,
    "Ġskip": 1846,
    "Ġsale": 14153,
    "Ġforgetfulness": 14606,
    "false": 15352,
    "Ġarmchair": 8271,
    "Ġdramatic": 4850,
    "side": 2300,
    "Ġpersuading": 19408,
    "itive": 6668,
    "Ġexercising": 19906,
    "Ġhad": 443,
    "sloop": 26145,
    "bey": 10312,
    "ifling": 15780,
    "bular": 15311,
    "Ġconception": 10314,
    "Ġsystem": 574,
    "Ġveteran": 17448,
    "accompan": 11450,
    "twill": 21073,
    "Ġgro": 4395,
    "Ġpossibility": 7458,
    "Ġraises": 11840,
    "xology": 21140,
    "Ġinsincere": 26598,
    "Ġcakes": 13882,
    "Ġdwell": 5812,
    "Ġwerter": 15237,
    "Ġteacher": 22910,
    "Ġinformed": 6717,
    "Ġdusk": 12324,
    "nerable": 16275,
    "haustible": 16890,
    "Ġindef": 9188,
    "Ġminutes": 2999,
    "rine": 21036,
    "Ġscore": 9736,
    "Ġr": 405,
    "urity": 8143,
    "Ġcommitting": 22671,
    "Ġchips": 14178,
    "worth": 8626,
    "constit": 24605,
    "Ġmonstrous": 7790,
    "Ġmorocc": 22970,
    "Ġ69": 19660,
    "Ġhamper": 19387,
    "ckled": 9255,
    "Ġprotecting": 24686,
    "Ġmagnus": 18956,
    "Ġjurymen": 16846,
    "Ġsloop": 25930,
    "presbyterian": 26368,
    "da": 17513,
    "Ġbuckler": 24859,
    "Ġeffects": 7236,
    "Ġbasin": 19847,
    "Ġirrevoc": 15037,
    "oline": 6834,
    "england": 18928,
    "magistrate": 19862,
    "ass": 535,
    "Ġgames": 11624,
    "eyeing": 14944,
    "oms": 4592,
    "cc": 472,
    "±": 114,
    "Ġchival": 14179,
    "uns": 21868,
    "Ġnarwhales": 24902,
    "Ġincommun": 25308,
    "Ġdeduce": 8337,
    "Ġmyster": 5926,
    "Ġceleb": 20224,
    "Ġarticulate": 24431,
    "don": 3541,
    "Ġconcisely": 19046,
    "Ġswiftly": 5670,
    "Ġwafted": 14497,
    "hent": 12530,
    "Ġyork": 11663,
    "Ġpreluding": 18368,
    "approb": 11039,
    "fiery": 13579,
    "Ġregulate": 22586,
    "Ġpresentation": 14479,
    "Ġreappearance": 21665,
    "Ġresiding": 16059,
    "Ġiv": 4045,
    "Ġunhappy": 5640,
    "orily": 15570,
    "Ġalien": 14016,
    "Ġknitting": 24217,
    "ieged": 22576,
    "azine": 19130,
    "Ġmoody": 8201,
    "Ġcommentaries": 20159,
    "Ġhawsers": 26501,
    "extending": 22769,
    "fth": 20855,
    "stood": 4117,
    "ite": 713,
    "Ġdominant": 12393,
    "Ġjung": 12832,
    "Ġaffright": 9330,
    "Ġhistorically": 19376,
    "rep": 5525,
    "omy": 6248,
    "Ġmasts": 6465,
    "Ġbuildings": 24720,
    "shriek": 20518,
    "Ġskylarking": 19485,
    "Ġbarrens": 25501,
    "Ġcyn": 13884,
    "oked": 4308,
    "``": 15304,
    "ter": 359,
    "scattered": 22991,
    "Ġcanall": 10926,
    "Ġbarnacled": 25536,
    "baden": 25615,
    "abeth": 907,
    "Ġdur": 11589,
    "Ġaz": 9628,
    "garet": 9596,
    "Ġknew": 2054,
    "Ġexpedition": 10632,
    "distinguish": 19571,
    "Ġbraw": 23831,
    "Ġbuoyed": 20039,
    "Ġnurse": 9515,
    "Ġresults": 7308,
    "Ġbreak": 2866,
    "Ġcoin": 9769,
    "aying": 15747,
    "itating": 9649,
    "Ġflask": 3035,
    "Ġmccarthys": 19661,
    "Ġexperiment": 11916,
    "Ġfrequ": 3325,
    "Ġadventurous": 16732,
    "Ġdivers": 9664,
    "Ġmortar": 19391,
    "Ġmultipl": 2790,
    "Ġbitt": 10795,
    "content": 11195,
    "Ġturk": 6603,
    "Ġanother": 1737,
    "Ġelephant": 8256,
    "Ġlie": 4405,
    "Ġcapering": 21352,
    "stalls": 26472,
    "Ġadmiral": 17303,
    "Ġsuffering": 8945,
    "Ġresulting": 24197,
    "Ġlogits": 3448,
    "Ġalgorith": 558,
    "Ġsecurely": 16801,
    "Ġsm": 705,
    "condem": 16342,
    "Ġmel": 4816,
    "Ġshed": 8181,
    "Ġdriving": 3615,
    "bounded": 13437,
    "Ġworst": 7444,
    "Ġmention": 2984,
    "Ġverge": 23884,
    "Ġfolio": 11915,
    "Ġsingular": 4422,
    "Ġwail": 21285,
    "constable": 24606,
    "Ġwigwam": 11426,
    "Ġpigs": 19746,
    "Ġlac": 17964,
    "Ġmakest": 25435,
    "savagery": 25025,
    "proved": 11983,
    "Ġwor": 1188,
    "Ġpleaded": 16298,
    "Ġwronged": 24246,
    "Ġcolumb": 22852,
    "orously": 8419,
    "Ġgestic": 21606,
    "Ġmonument": 16235,
    "Ġmau": 21309,
    "unned": 21876,
    "float": 19804,
    "equ": 6790,
    "Ġcolumbus": 26563,
    "Ġ14": 9321,
    "elev": 12455,
    "Ġsobbing": 14132,
    "Ġ64": 24366,
    "âĢĶâĢľ_": 13202,
    "Ġlizz": 21555,
    "Ġattend": 5035,
    "Ġpertur": 12847,
    "precision": 4331,
    "Ġbutchers": 18272,
    "mechan": 11854,
    "ulated": 6030,
    "elephant": 12348,
    "Ġsouthwards": 19632,
    "Ġguilt": 6179,
    "Ġplatonian": 25118,
    "Ġsized": 11560,
    "Ġdairy": 20685,
    "Ġdraughts": 20220,
    "which": 1708,
    "Ġenjoy": 3759,
    "Ġbids": 24645,
    "Ġezek": 18009,
    "Ġpeculiarity": 12929,
    "Ġinjury": 10539,
    "garity": 17553,
    "âĢĿâĢĶ": 5721,
    "Ġlogs": 16345,
    "Ġadequ": 10911,
    "Ġmetallic": 19032,
    "Ġloom": 7628,
    "urrection": 12405,
    "Ġcongratulated": 19765,
    "Ġprovidence": 18745,
    "je": 11493,
    "Ġinitialization": 1252,
    "Ġinclemency": 22553,
    "Ġoutline": 15952,
    "netherfield": 9811,
    "endeav": 7150,
    "objects": 13468,
    "seldom": 13785,
    "mannered": 22849,
    "Ġrug": 16155,
    "Ġloading": 15872,
    "mid": 5616,
    "Ġwhistles": 24625,
    "Ġwretchedness": 9025,
    "Ġestim": 3345,
    "peculiarities": 13469,
    "Ġtasks": 1790,
    "Ġamericans": 14742,
    "cupboards": 25401,
    "Ġexists": 14036,
    "Ġtremulous": 14984,
    "Ġleviathanic": 12077,
    "bra": 6219,
    "abashed": 21790,
    "avier": 2830,
    "prudently": 21033,
    "Ġboarders": 16599,
    "Ġglad": 3323,
    "dug": 18462,
    "Ġcapture": 3381,
    "Ġlit": 6246,
    "Ġcontemplated": 13462,
    "Ġsuff": 1304,
    "Ġstretching": 10013,
    "Ġser": 1667,
    "seated": 11669,
    "expedition": 26078,
    "caterpillar": 26382,
    "Ġbelshazzar": 16224,
    "Ġrecollecting": 17112,
    "Ġtong": 4870,
    "âĢĻ": 379,
    "Ġrollicking": 24450,
    "Ġbalmoral": 16206,
    "Ġrecursive": 4781,
    "Ġimbedded": 18332,
    "imodal": 17445,
    "Ġanybody": 5313,
    "when": 1589,
    "ror": 7351,
    "Ġklux": 22193,
    "animate": 12573,
    "Ġcoach": 6867,
    "Ġdiminishing": 4209,
    "Ġbred": 9168,
    "Ġinflex": 20633,
    "sacrifice": 13490,
    "Ġsobs": 14131,
    "Ġsilvery": 13091,
    "Ġautonom": 10414,
    "Ġcannib": 6036,
    "Ġretarded": 23070,
    "Ġemail": 19074,
    "Ġpenny": 16312,
    "Ġsimple": 1617,
    "cary": 10688,
    "Ġcompassionate": 24723,
    "Ġpreprocessing": 26535,
    "pervised": 1677,
    "Ġenvelopes": 24506,
    "adieu": 26200,
    "shoes": 14238,
    "Ġproblems": 2847,
    "inu": 1114,
    "cloudless": 20331,
    "Ġmeasured": 9802,
    "Ġlawyers": 25248,
    "Ġbewitching": 25976,
    "passage": 11259,
    "Ġmetropolitan": 17273,
    "Ġscrews": 25177,
    "Ġafric": 8904,
    "arrow": 4180,
    "Ġkrempe": 10668,
    "'d": 12424,
    "falling": 24360,
    "Ġswings": 11086,
    "henomen": 10493,
    "Ġ500": 24327,
    "jury": 15371,
    "Ġsciences": 15943,
    "Ġtoad": 21508,
    "Ġumbrell": 13648,
    "otently": 21798,
    "Ġequinoctial": 20531,
    "severe": 21816,
    "gling": 10096,
    "Ġarray": 12805,
    "overing": 6306,
    "Ġaccept": 4409,
    "Ġod": 4437,
    "Ġsides": 4578,
    "plate": 18199,
    "Ġtext": 2267,
    "Ġerecting": 24652,
    "Ġelectric": 15192,
    "Ġvariance": 1168,
    "phants": 9316,
    "throughout": 24086,
    "Ġwink": 11566,
    "Ġintolerable": 8481,
    "zag": 17712,
    "me": 877,
    "Ġrespond": 11174,
    "bud": 10681,
    "Ġ103": 24410,
    "alluring": 18352,
    "Ġrods": 9752,
    "Ġsqueezed": 20034,
    "Y": 61,
    "itors": 2911,
    "child": 5537,
    "state": 13977,
    "Ġdispirited": 23879,
    "answering": 26004,
    "Ġdeposed": 16085,
    "meat": 18678,
    "ermaid": 14294,
    "Ġmistress": 8611,
    "Ġdisse": 18548,
    "morn": 20975,
    "irr": 12732,
    "Ġunfold": 8023,
    "hoped": 20909,
    "Ġliterature": 17147,
    "Ġpruning": 18970,
    "formality": 22220,
    "Ġjudge": 5502,
    "complacency": 19913,
    "Ġshore": 4834,
    "loat": 8885,
    "Ġindisposed": 26287,
    "grasping": 20638,
    "utting": 17984,
    "Ġobvious": 4964,
    "biqu": 17496,
    "Ġloop": 14145,
    "Ġcoolness": 16885,
    "Ġdiscomposure": 20377,
    "convers": 6567,
    "Ġpatriot": 23293,
    "Ġgaze": 6932,
    "Ġreceives": 20353,
    "figures": 20120,
    "Ġhired": 10176,
    "Ġwoods": 5406,
    "Ġglaciers": 20172,
    "valley": 16213,
    "Ġa": 263,
    "convalescence": 24884,
    "Ġducking": 17145,
    "Ġunra": 18237,
    "placidity": 25988,
    "Ġevanesc": 24293,
    "Ġadvert": 10570,
    "Ġbath": 9657,
    "Ġmalicious": 10556,
    "Ġindicate": 23720,
    "Ġsucking": 12784,
    "Ġvic": 5236,
    "Ġadvise": 7935,
    "fit": 6645,
    "distinctive": 25726,
    "Ġrashly": 20304,
    "Ġadmirably": 16480,
    "Ġbrilliant": 11412,
    "Ġeuroc": 14957,
    "yed": 3271,
    "Ġtwine": 14309,
    "remaining": 20219,
    "Ġoak": 6128,
    "Ġprinted": 11946,
    "aspect": 10192,
    "glances": 23850,
    "Ġearls": 18903,
    "Ġtrees": 4203,
    "goose": 19101,
    "Ġadvance": 5484,
    "oters": 21797,
    "Ġconstitution": 20107,
    "Ġmagazine": 23097,
    "third": 8168,
    "pol": 5893,
    "whatsoever": 18493,
    "Ġtrousers": 12411,
    "Ġsultan": 15182,
    "writes": 4988,
    "###": 3827,
    "Ġbrine": 18768,
    "Ġallures": 22004,
    "Ġharpooneers": 4731,
    "Ġsatisfaction": 5667,
    "Ġplat": 8520,
    "Ġinit": 819,
    "Ġfortunately": 12176,
    "tolerable": 17687,
    "isen": 10791,
    "Ġmalay": 24390,
    "Ġoverhead": 11770,
    "Ġdarker": 13117,
    "Ġweakened": 16822,
    "approach": 24833,
    "spade": 10339,
    "Ġramadans": 25119,
    "Ġpunch": 9953,
    "nothing": 3152,
    "Ġslip": 8953,
    "hit": 20888,
    "Ġadversarial": 5606,
    "Ġrus": 14091,
    "Ġcasualty": 20340,
    "Ġbench": 7238,
    "Ġhither": 4758,
    "Ġhandsomely": 25497,
    "Ġtelesc": 12990,
    "acceptance": 25185,
    "Ġwrapped": 8342,
    "itively": 21329,
    "Ġbeheading": 21752,
    "Ġtepid": 26411,
    "Ġadversity": 24302,
    "Ġcell": 6237,
    "Ġfiercely": 12948,
    "bul": 6951,
    "Ġest": 2265,
    "Ġservice": 6471,
    "Ġlawless": 19433,
    "lest": 5288,
    "ca": 20792,
    "Ġcomputes": 4767,
    "Ġsacrificed": 17420,
    "eting": 7169,
    "Ê": 139,
    "sided": 17663,
    "ounted": 5030,
    "shake": 22443,
    "chant": 4259,
    "Ġperadventure": 22397,
    "mess": 13751,
    "inite": 6002,
    "Ġbending": 12581,
    "eral": 9158,
    "Ġvillains": 14748,
    "sought": 15426,
    "Ġhipp": 21490,
    "Ġserious": 4322,
    "Ġfarthing": 14452,
    "Ġassistance": 6333,
    "aited": 12432,
    "amouch": 21849,
    "Ġfacing": 10170,
    "Ġ114": 24437,
    "Ġnoises": 18373,
    "Ġplight": 14279,
    "abilizing": 2921,
    "evidence": 25521,
    "Ġbrig": 11045,
    "Ġbible": 9318,
    "Ġforwards": 12699,
    "ish": 551,
    "Ġinfle": 16361,
    "Ġrequire": 914,
    "Ġu": 324,
    "etting": 21578,
    "Ġtrespass": 23599,
    "Ġprefer": 6416,
    "Ġblot": 9810,
    "Ġtick": 8109,
    "Ġblended": 16217,
    "Ġbanished": 10615,
    "Ġdisappeared": 5645,
    "Ġfriend": 1297,
    "Ġbeget": 9224,
    "cleanliness": 25871,
    "gpt": 5355,
    "Ġsweating": 16462,
    "Ġard": 5164,
    "ishop": 9740,
    "neighb": 16025,
    "bore": 13684,
    "Ġsensibly": 14513,
    "station": 10842,
    "Ġbrief": 6976,
    "Ġblasts": 19994,
    "Ġleviathan": 3287,
    "Ġchicha": 15934,
    "Ġmistifying": 23717,
    "Ġdenial": 13212,
    "Ġfought": 12589,
    "Ġshivering": 10264,
    "hastening": 24447,
    "Ġattached": 5392,
    "Ġduplicity": 25331,
    "clear": 9022,
    "Ġspans": 18304,
    "Ġairs": 14511,
    "Ġadult": 18289,
    "Ġanything": 2188,
    "Ġvirtues": 9934,
    "Ġswallowed": 7944,
    "Ġschooner": 16746,
    "Ġcast": 3603,
    "usoid": 4766,
    "Ġshriek": 6637,
    "elope": 14455,
    "Ġdegener": 14046,
    "Ġweave": 21918,
    "chain": 18039,
    "rey": 12534,
    "Ġshift": 2281,
    "Ġconnex": 10664,
    "Ġrock": 5310,
    "rage": 10841,
    "Ġstrong": 1789,
    "Ġpow": 4636,
    "treated": 21093,
    "Ġbounty": 26436,
    "absolute": 17121,
    "Ġreward": 6144,
    "Ġgranite": 22806,
    "Ġimplies": 24873,
    "Ġnin": 10186,
    "Ġx": 2074,
    "Ġabilities": 8865,
    "Ġcol": 1058,
    "Ġcow": 13874,
    "Ġmedicine": 15203,
    "sea": 4762,
    "sleepy": 24729,
    "Ġsanctified": 25883,
    "Ġwinchester": 10064,
    "silenced": 24422,
    "Ġunwarrant": 20132,
    "Ġgood": 1000,
    "Ġnote": 4264,
    "Ġobserving": 6081,
    "onze": 21254,
    "scor": 13016,
    "Ġbizarre": 17871,
    "Ġclergyman": 8711,
    "upper": 11536,
    "Ġarrange": 3118,
    "Ġlanyard": 26460,
    "wick": 5362,
    "mistakable": 20652,
    "invite": 25088,
    "Ġgritted": 22803,
    "Ġmes": 17796,
    "Ġassid": 18944,
    "come": 2379,
    "prove": 11145,
    "Ġpointing": 5661,
    "Ġquickly": 4241,
    "seems": 10873,
    "laws": 19806,
    "grees": 20885,
    "tro": 15432,
    "Ġcreaking": 14329,
    "Ġrandom": 1587,
    "Ġentitled": 8538,
    "Ġquit": 5245,
    "Ġstaff": 14004,
    "Ġhansom": 13662,
    "rant": 11514,
    "ellow": 3879,
    "Ġcope": 17830,
    "Ġsway": 7571,
    "Ġgrunted": 16166,
    "Ġhyp": 3875,
    "Ġanomalous": 25637,
    "Ġsung": 23271,
    "Ġwrench": 12553,
    "Ġfastening": 16355,
    "Ġrecurring": 23231,
    "Ġretention": 23069,
    "Ġaback": 22264,
    "early": 20117,
    "complet": 11381,
    "Ġunremitting": 26217,
    "gloves": 25143,
    "Ġsupplication": 25491,
    "Ġclutch": 15052,
    "Ġdoublo": 6079,
    "Ġentire": 2561,
    "Ġrepro": 7275,
    "preference": 22464,
    "Ġasia": 11680,
    "Ġstubb": 1788,
    "Ġannounce": 13336,
    "Ġincul": 22547,
    "Ġexcite": 11963,
    "Ġnotions": 14097,
    "Ġmaiden": 13384,
    "Ġunimpe": 22070,
    "low": 652,
    "Ġconqueror": 25796,
    "h": 76,
    "Ġwhales": 1829,
    "pleasant": 5874,
    "Ġindic": 2885,
    "de": 461,
    "inkled": 5477,
    "Ġaims": 15495,
    "shri": 14233,
    "shipped": 18486,
    "contrast": 25594,
    "Ġutmost": 5496,
    ")âĢĶâĢľ": 20742,
    "ñ": 178,
    "Ġfolk": 10374,
    "iful": 2880,
    "Ġfrogs": 23919,
    "Ġfettered": 24567,
    "visited": 13345,
    "Ġsnap": 11199,
    "week": 12927,
    "Ġmethodic": 23155,
    "eldest": 22799,
    "Ġformless": 22825,
    "protected": 19920,
    "chery": 24550,
    "Ġleagues": 9222,
    "pest": 6964,
    "Ġreaching": 7303,
    "Ġappropriated": 23484,
    "Ġgib": 13963,
    "anned": 17839,
    "mology": 12488,
    "Ġimpersonal": 17394,
    "Ġscud": 14189,
    "Ġtamer": 24978,
    "Ġpursuing": 9436,
    "Ġbrother": 2749,
    "Ġor": 437,
    "dilig": 17281,
    "ishnoo": 10953,
    "Ġnoses": 18372,
    "Ġselfishness": 12286,
    "Ġmissionary": 25696,
    "Ġlowermost": 23242,
    "Ġpardon": 5727,
    "misery": 13341,
    "derick": 22160,
    "Ġlifelessly": 23048,
    "Ġsavoury": 23874,
    "Ġinterest": 2248,
    "Ġagony": 5388,
    "Ġseal": 10255,
    "á": 162,
    "Ġswift": 3667,
    "Ġescapes": 23506,
    "Ġincivility": 18573,
    "Ġenem": 4707,
    "relative": 24011,
    "âĢĶâĢľ": 2967,
    "Ġmechanically": 14396,
    "Ġattain": 12743,
    "ill": 447,
    "ated": 715,
    "Ġinclu": 1097,
    "Ġerie": 20052,
    "Ġfasting": 16354,
    "Ġnoblest": 13239,
    "Ġindestructible": 26571,
    "Ġdemi": 25548,
    "coburg": 13596,
    "3": 23,
    "hold": 3984,
    "Ġimperson": 14217,
    "Ġwarmed": 12020,
    "usion": 3299,
    "Ġuneasy": 8661,
    "Ġapology": 8328,
    "imag": 6990,
    "Ġcontributes": 15248,
    "Ġpunctures": 25133,
    "L": 48,
    "Ġtossing": 8126,
    "Ġdisabled": 18561,
    "aks": 8506,
    "ascertaining": 26459,
    "Ġresounded": 22542,
    "Ġardu": 22176,
    "Ġbelrive": 18830,
    "pect": 1253,
    "Ġutil": 4671,
    "Ġsnuffing": 25012,
    "mole": 22699,
    "ification": 1004,
    "renched": 7908,
    "Ġguitar": 16269,
    "Ġeasily": 3893,
    "Ġlegitimate": 20641,
    "Ġfir": 17877,
    "Ġeditions": 19120,
    "Ġsof": 18275,
    "Ġmat": 1147,
    "Ġpersonal": 7479,
    "Ġarisen": 11740,
    "Ġconvenience": 11329,
    "E": 41,
    "Ġheedful": 19739,
    "Ġne": 390,
    "retch": 4370,
    "Ġneatness": 19931,
    "way": 764,
    "Ġsteed": 13037,
    "Ġirrad": 19093,
    "Ġmonomaniac": 9567,
    "Ġcorrespondent": 19821,
    "Ġexclaiming": 13639,
    "Ġseamen": 5063,
    "Ġproced": 2580,
    "Ġsculpt": 15945,
    "Ġgunwales": 12237,
    "Ġpear": 11849,
    "itage": 17816,
    "Ġabhor": 5467,
    "cer": 6642,
    "Ġpropose": 9851,
    "Ġmichael": 20678,
    "Ġcontinent": 14886,
    "thine": 15822,
    "cond": 1662,
    "Ġdisapprobation": 16056,
    "Ġigniting": 25070,
    "renewed": 19703,
    "Ġwalled": 15533,
    "Ġreasonably": 11084,
    "Ġburnt": 9926,
    "Ġdelivered": 11114,
    "Ġblade": 11890,
    "Ġleaky": 2343,
    "Ġefficient": 1007,
    "Ġcooking": 16645,
    "rose": 6014,
    "Ġconfed": 13094,
    "Ġdrink": 4786,
    "winter": 10739,
    "Ġbills": 17860,
    "Ġnasty": 17441,
    "Ġgrat": 4057,
    "Ġpart": 860,
    "filled": 9593,
    "utterly": 20010,
    "Ġsympathetic": 17357,
    "mp": 3726,
    "Ġunprecedented": 15852,
    "Ġfierc": 18713,
    "Ġpatiently": 19917,
    "Ġpaddling": 25285,
    "Ġhandle": 3134,
    "commod": 16172,
    "Ġunctuous": 10265,
    "D": 40,
    "Ġsympathising": 24296,
    "aration": 12603,
    "violets": 23541,
    "Ġincarn": 11811,
    "Ġsummer": 4789,
    "Ġhers": 7890,
    "olstad": 7611,
    "Ġsmilingly": 22558,
    "Ġunluck": 8484,
    "Ġconfinement": 19037,
    "owe": 15705,
    "Ġvilla": 14746,
    "sake": 13781,
    "Ġstaple": 26198,
    "Ġbl": 1189,
    "intense": 22934,
    "Ġhook": 6453,
    "Ġparliament": 18302,
    "Ġdishonor": 25601,
    "compan": 7301,
    "Ġren": 3848,
    "Ġsmile": 4272,
    "Ġemboldened": 22994,
    "kick": 20935,
    "ondency": 15267,
    "Ġparagraph": 17452,
    "Ġparacels": 13665,
    "inese": 12876,
    "Ġresuming": 12889,
    "Ġridges": 16730,
    "Ġimpat": 4454,
    "Ġlung": 7167,
    "Ġtester": 21171,
    "vig": 15445,
    "tailed": 17684,
    "Ġcollected": 2613,
    "Ġbay": 9167,
    "Ġdazzling": 15209,
    "Ġslop": 23161,
    "Ġsult": 10766,
    "Ġsod": 11559,
    "Ġintroduces": 3267,
    "elevating": 20404,
    "Ġsimplest": 16331,
    "Ġopulent": 23628,
    "Ġclerval": 4652,
    "fatal": 17087,
    "saying": 8640,
    "Ġscrupulous": 20067,
    "Ġtrout": 22353,
    "Ġjub": 22293,
    "heedful": 20572,
    "Ġproprietors": 20185,
    "Ġprinc": 4200,
    "Ġarrested": 9559,
    "Ġtrem": 6659,
    "itance": 13866,
    "Ġcin": 13873,
    "Ġsiamese": 20481,
    "form": 498,
    "Ġunassuming": 20507,
    "mb": 916,
    "springs": 24911,
    "suspended": 15175,
    "Ġshoulders": 5565,
    "antages": 7192,
    "Ġtrinity": 22355,
    "iza": 6255,
    "school": 10053,
    "Ġconfounded": 16383,
    "verity": 13999,
    "Ġduodecimo": 16766,
    "Ġsuccession": 12098,
    "guilt": 24068,
    "amused": 21850,
    "Ġdescribes": 3119,
    "Ġdistributes": 4196,
    "pid": 1371,
    "Ġswish": 23052,
    "Ġcharacters": 9370,
    "missing": 13216,
    "Ġyield": 5093,
    "Ġhenry": 5197,
    "Ġexile": 12712,
    "Ġeucl": 24709,
    "Ġreside": 22537,
    "ering": 1267,
    "communication": 25881,
    "Ġvisage": 18779,
    "Ġconfiding": 19036,
    "could": 2870,
    "Ġruminated": 24600,
    "mixed": 15392,
    "/": 19,
    "Ġslippery": 12163,
    "wrinkles": 16553,
    "cut": 3121,
    "Ġorthodox": 22093,
    "possible": 5743,
    "abash": 18107,
    "Ġtuesday": 9625,
    "wandered": 20284,
    "Ġfatigued": 13463,
    "cab": 7333,
    "Ġdimin": 3874,
    "mense": 4779,
    "sometimes": 5972,
    "Ġinherent": 4590,
    "Ġbask": 8117,
    "Ġbond": 21382,
    "Ġclay": 7018,
    "acted": 11008,
    "amore": 21847,
    "Ġspan": 11725,
    "Ġconfronted": 23305,
    "==": 944,
    "Ġintrodu": 1923,
    "Ġmaz": 15539,
    "ply": 6366,
    "Ġpattern": 1347,
    "Ġprivileged": 20111,
    "Ġprocuring": 16867,
    "Ġended": 7950,
    "fain": 13713,
    "uneasiness": 23685,
    "Ġvehicle": 20137,
    "Ġmumbling": 11571,
    "Ġproportionably": 19969,
    "Ġweighing": 20014,
    "Ġward": 10154,
    "magnetic": 20551,
    "Ġimpregn": 26022,
    "ban": 9583,
    "pleasure": 5978,
    "alone": 10182,
    "Ġguernsey": 9349,
    "negro": 18495,
    "anke": 15558,
    "Ġunequal": 14840,
    "gen": 6503,
    "Ġprized": 23221,
    "end": 503,
    "ensibility": 22545,
    "Ġstrangeness": 16706,
    "bidden": 19735,
    "consciously": 19624,
    "Ġtrapped": 23075,
    "intending": 22933,
    "Ġperformer": 18754,
    "Ġtracks": 18891,
    "Ġhandsom": 11122,
    "Ġtiara": 26414,
    "pat": 10115,
    "specific": 10496,
    "ego": 4036,
    "Ġcandidate": 16700,
    "Ġilluminate": 17191,
    "Ġtandem": 26410,
    "Ġslo": 15505,
    "previous": 9759,
    "Ġwre": 5077,
    "residence": 19262,
    "Ġflorid": 17134,
    "Ġhorrible": 4905,
    "Ġwhe": 439,
    "Ġbattered": 17862,
    "Ġhooded": 12403,
    "lifted": 15384,
    "Ġproceeded": 5335,
    "mosp": 8089,
    "commanders": 16988,
    "Ġrevived": 11366,
    "Ġconveniences": 19811,
    "plan": 15812,
    "conceal": 25114,
    "rocket": 13942,
    "Ġhorizont": 6937,
    "Ġburtons": 19252,
    "giana": 7801,
    "Ġjoints": 12032,
    "bethinking": 25745,
    "Ġnormalizes": 1862,
    "_)âĢĶ": 20143,
    "Ġeternity": 12275,
    "goodbye": 12053,
    "Ġsplash": 16547,
    "ustom": 3789,
    "exper": 8877,
    "Ġnooks": 26011,
    "Ġwildest": 16508,
    "Ġunbelief": 22047,
    "gather": 20874,
    "Ġhabitations": 24789,
    "bewil": 22497,
    "lorious": 17591,
    "Ġmarks": 6746,
    "Ġdiscomposed": 25580,
    "alike": 17942,
    "Ġgangway": 20157,
    "floated": 24643,
    "ord": 668,
    "practical": 17220,
    "Ġdictating": 20151,
    "Ġsucceeded": 6105,
    "Ġleading": 7297,
    "eu": 17529,
    "ager": 6546,
    "Ġenvirons": 13180,
    "shadow": 20311,
    "Ġwindibank": 7256,
    "jaws": 20931,
    "made": 4808,
    "Ġtunnels": 24621,
    "fri": 20853,
    "seek": 8835,
    "Ġbenignity": 18782,
    "Ġutterance": 14762,
    "Ġmannish": 26237,
    "Ġwis": 3727,
    "illation": 14140,
    "dressed": 10694,
    "Ġbison": 21386,
    "sust": 15421,
    "angels": 22104,
    "Ġfathoms": 9082,
    "Ġspeeches": 22656,
    "Ġfiends": 14826,
    "Ġhackluyt": 25655,
    "continual": 20643,
    "stiff": 12671,
    "respectively": 24700,
    "94": 4803,
    "Ġextant": 18680,
    "Ġmissed": 8555,
    "Ġmenacing": 23105,
    "Ġfugitives": 25634,
    "Ġ56": 24323,
    "Ġencaps": 12957,
    "Ġgloss": 11954,
    "hies": 17559,
    "Ġretreating": 19798,
    "Ġchamber": 6213,
    "without": 4846,
    "Ġmidst": 7986,
    "Ġagents": 9764,
    "Ġmod": 494,
    "critical": 19502,
    "Ġintricacies": 15136,
    "Ġproudly": 19741,
    "Ġconsequent": 18110,
    "irst": 878,
    "Ġsullenly": 17171,
    "Ġye": 899,
    "Ġrepeated": 3832,
    "Ġbounce": 21391,
    "ale": 506,
    "plague": 21951,
    "Ġhat": 2771,
    "Ġoffered": 5816,
    "Ġautoregressive": 3429,
    "Ġlashing": 11613,
    "Ġjumped": 7096,
    "Ġuns": 15834,
    "dataset": 23248,
    "Ġdecency": 18489,
    "aciousness": 18606,
    "Ġsixth": 16557,
    "hyme": 19608,
    "Ġdawned": 14992,
    "ficial": 17547,
    "Ġengra": 7875,
    "itates": 13867,
    "Ġtrifles": 16950,
    "cooks": 25067,
    "J": 46,
    "heidelburgh": 21210,
    "Ġinher": 10178,
    "Ġfanny": 23389,
    "ored": 3897,
    "Ġexclamations": 11359,
    "Ġcatching": 9476,
    "Ġgrinning": 9052,
    "chancing": 22916,
    "Ġthunder": 4823,
    "Ġvaults": 17152,
    "bermaid": 20789,
    "erred": 6376,
    "Ġamerican": 5061,
    "Ġmanifold": 13558,
    "embed": 18182,
    "neying": 22461,
    "inform": 10142,
    "swed": 24252,
    "Ġfled": 6670,
    "grammar": 6435,
    "Ġcontentment": 14868,
    "vanity": 24976,
    "Ġfellows": 8257,
    "Ġphilist": 16600,
    "stocks": 23817,
    "warp": 17705,
    "ę": 218,
    "arrant": 10473,
    "Ġsurviv": 13433,
    "training": 2520,
    "happ": 3102,
    "Ġund": 4120,
    "Ġfurnace": 19438,
    "Ġdeportment": 22609,
    "Ġrecollect": 8310,
    "Ġberm": 21381,
    "Ġapple": 14166,
    "Ġbust": 10166,
    "insula": 23064,
    "Ġinflicted": 11363,
    "Ġfreer": 23209,
    "Ġrepeatedly": 9019,
    "Ġonly": 787,
    "Ġhast": 3149,
    "Ġsidelong": 11436,
    "Ġbeam": 2877,
    "Ġdict": 9174,
    "orum": 12586,
    "igated": 15704,
    "Ġplaster": 16081,
    "Ġunresting": 25553,
    "Ġrises": 9711,
    "scra": 13018,
    "onies": 6806,
    "eled": 2358,
    "gences": 20876,
    "unimportant": 18159,
    "Ġterminating": 23509,
    "alarm": 15624,
    "Ġtri": 4813,
    "Ġimpreg": 15985,
    "opic": 22474,
    "ribs": 23364,
    "ows": 1916,
    "Ġtailed": 21167,
    "luded": 4228,
    "Ġrugged": 18720,
    "decease": 25557,
    "Ġimbalanced": 18333,
    "Ġinquirer": 24963,
    "Ġbrewed": 23345,
    "Ġvii": 13106,
    "Ġjunk": 15951,
    "Ġlizard": 12650,
    "Ġshout": 4265,
    "Ġinstigated": 18704,
    "Ġspies": 22126,
    "Ġjur": 12830,
    "Ġaf": 782,
    "Ġsignal": 5945,
    "Ġassuring": 13060,
    "means": 9784,
    "olera": 21831,
    "Ġprocession": 11773,
    "ome": 536,
    "cles": 8725,
    "Ġadmirer": 16837,
    "Ġsket": 18727,
    "muttered": 13757,
    "Ġejaculation": 20253,
    "required": 17029,
    "shortly": 12255,
    "fellows": 12270,
    "Ġchances": 9261,
    "Ġunho": 18245,
    "Ġfootman": 8288,
    "burning": 25078,
    "Ġdiameter": 19866,
    "Ġtrophy": 20005,
    "Ġcheshire": 13087,
    "Ġobtain": 8913,
    "Ġrapidly": 3158,
    "bedstead": 23846,
    "Ġost": 9648,
    "Ġanew": 11428,
    "Ġsemicircle": 26068,
    "Ġslipping": 13358,
    "Ġbleached": 24395,
    "ĠĠĠĠ": 460,
    "Ġchopping": 24218,
    "Ġunfathomable": 20547,
    "Ġunforgiving": 25995,
    "icken": 6711,
    "Ġcabinets": 23859,
    "Ġinhabited": 12182,
    "Ġgoing": 2067,
    "Ġhur": 2099,
    "Ġtempor": 2367,
    "fields": 14652,
    "plac": 15814,
    "Ġdevotees": 25376,
    "wrath": 23754,
    "Ġsodden": 25535,
    "Ġsc": 532,
    "Ġatom": 18192,
    "Ġclearness": 23182,
    "ce": 313,
    "Ġpreface": 18367,
    "exercise": 17458,
    "Ġnursing": 12211,
    "Ġmercifully": 20177,
    "Ġdive": 10171,
    "shapes": 22450,
    "Ġconstruct": 23341,
    "Ġassent": 12729,
    "Ġprizes": 13071,
    "Ġaltogether": 4831,
    "brit": 19196,
    "Ġenjoyed": 8008,
    "counter": 20277,
    "Ġpeter": 10534,
    "Ġcontracting": 16009,
    "Ġpenal": 1772,
    "Ġfrequented": 16584,
    "Ġinstituted": 18703,
    "pieces": 8754,
    "Ġnoteworthy": 24161,
    "idge": 14012,
    "ilst": 8144,
    "Ġwings": 9162,
    "arrang": 14651,
    "oop": 10714,
    "mock": 5174,
    "Ġundertaken": 18985,
    "Ġreadily": 5253,
    "Ġlombardy": 26462,
    "Ġche": 1762,
    "usual": 5840,
    "Ġvulgarity": 25363,
    "Ġnonsense": 6982,
    "Ġhawaiian": 25366,
    "Ġabout": 632,
    "gover": 10701,
    "liberal": 26281,
    "Ġdeafened": 25651,
    "beautiful": 10647,
    "latitude": 25259,
    "Ġaries": 21196,
    "collected": 13211,
    "Ġreported": 11976,
    "Ġmottled": 20677,
    "Ġbordeaux": 24563,
    "cuniary": 26378,
    "Ġsoutherly": 23333,
    "islanders": 25442,
    "Ġstriving": 8995,
    "Ġmeridian": 25714,
    "Ġinsomuch": 23681,
    "reach": 17756,
    "Ġlancaster": 26340,
    "hanging": 10099,
    "Ġagreed": 7028,
    "Ġcontrive": 16008,
    "Ġperches": 18449,
    "Ġcrazy": 8593,
    "Ġmultiplication": 2869,
    "Ġscraps": 16901,
    "Ġbiases": 2401,
    "Ġding": 12595,
    "Ġnlp": 3060,
    "Ġjerked": 19831,
    "Ġadvances": 12984,
    "Ġilluminating": 25245,
    "Ġcau": 13879,
    "Ġdistressing": 12215,
    "Ġdecently": 22454,
    "Ġunfortunate": 5376,
    "Ġconsternation": 9857,
    "Ġensue": 18190,
    "Ġalexander": 17422,
    "feather": 16041,
    "Ġmonsie": 11445,
    "Ġgout": 21594,
    "Ġcommands": 16588,
    "contained": 22470,
    "rity": 13774,
    "Ġcarve": 23090,
    "Ġscrewed": 15118,
    "Ġboil": 16103,
    "prof": 7699,
    "Ġret": 1381,
    "Ġfoiled": 23244,
    "Ġwhiskers": 10491,
    "Ġdeduced": 12204,
    "Ġdesmarest": 22972,
    "Ġepid": 18004,
    "ean": 20839,
    "Ġdistributing": 22677,
    "fishery": 10030,
    "Ġmysteries": 11320,
    "Ġsought": 5010,
    "Ġshaken": 10263,
    "Ġvineyard": 12327,
    "Ġindicated": 10468,
    "Ġslaves": 23168,
    "Ġprophets": 20449,
    "ail": 567,
    "Ġpeeping": 16125,
    "deliber": 17424,
    "Ġdre": 1743,
    "Ġcraven": 16469,
    "ĠĠĠĠĠĠĠĠĠĠĠĠĠĠĠĠĠĠĠ": 22948,
    "ements": 11106,
    "alloyed": 22199,
    "Ġresemble": 15690,
    "Ġhang": 9186,
    "Ġsevere": 6032,
    "Ġvers": 7563,
    "ref": 6515,
    "Ġsex": 8840,
    "Ġmitigating": 1614,
    "ost": 5360,
    "Ġunivers": 2126,
    "Ġplausible": 26552,
    "Ġactiv": 834,
    "oker": 10961,
    "Ġcommonplace": 11094,
    "weakness": 16122,
    "Ġsovere": 9254,
    "Ġdivinely": 25723,
    "lever": 2928,
    "Ġreading": 5114,
    "Ġpursuit": 4732,
    "spears": 23939,
    "Ġmorality": 22969,
    "Ġsucked": 14136,
    "Ġgrassy": 24378,
    "iction": 4269,
    "ounds": 4159,
    "mates": 5073,
    "Ġinland": 11605,
    "ighted": 8476,
    "Ġheadache": 22897,
    "credit": 12445,
    "tps": 11532,
    "Ġbrightest": 13222,
    "Ġauthors": 10415,
    "Ġtrans": 639,
    "Ġinteresting": 4325,
    "Ġsquint": 22836,
    "Ġembarked": 17133,
    "amaz": 21848,
    "Ġuncont": 14114,
    "Ġinfernal": 11958,
    "Ġfeasts": 25369,
    "cun": 20794,
    "Ġimpetuously": 20370,
    "family": 7324,
    "it": 276,
    "Ġinc": 703,
    "Ġbrains": 2633,
    "square": 15060,
    "estic": 4956,
    "Ġhistory": 4009,
    "wedded": 24338,
    "Ġfris": 23255,
    "Ġjem": 18402,
    "punctual": 26355,
    "bank": 10078,
    "Ġfilling": 13406,
    "Ġisinglass": 21800,
    "presumption": 20440,
    "Ġslain": 8952,
    "clair": 18932,
    "Ġmarvels": 11082,
    "Ġfitness": 23997,
    "Ġpattering": 18652,
    "clings": 23149,
    "Ġbeaver": 18085,
    "Ġannihilation": 15163,
    "nantucket": 7805,
    "oo": 7553,
    "Ġvillainous": 25131,
    "animal": 16977,
    "Ġph": 1550,
    "uncontrollable": 20594,
    "Ġsherry": 19449,
    "Ġdisd": 7030,
    "centre": 17086,
    "Ġspark": 6689,
    "Ġgunw": 6212,
    "Ġflights": 24753,
    "Ġboneless": 19604,
    "Ġboats": 2640,
    "stun": 18018,
    "good": 2897,
    "rus": 5930,
    "Ġadviser": 25312,
    "Ġmim": 3104,
    "Ġpouch": 21468,
    "Ġvib": 8165,
    "Ġtottenham": 24141,
    "Ġparticip": 16129,
    "Ġgrap": 11704,
    "Ġbequest": 21751,
    "ver": 331,
    "Ġanimation": 11150,
    "south": 8758,
    "dogs": 25402,
    "gates": 20871,
    "Ġpet": 4585,
    "best": 6111,
    "hug": 17562,
    "obtained": 23093,
    "Ġjackson": 24239,
    "Ġelusive": 22644,
    "idated": 11659,
    "Ġbasics": 13446,
    "uttermost": 24940,
    "Ġcaptioning": 23021,
    "aid": 1920,
    "olidity": 18132,
    "Ġolive": 12561,
    "itud": 2927,
    "stache": 15687,
    "Ġallusion": 7625,
    "substance": 15229,
    "ckery": 22088,
    "Ġcherish": 10588,
    "Ġtrail": 16281,
    "none": 6962,
    "Ġrepugnance": 19086,
    "Ġflogged": 23624,
    "Ġit": 339,
    "ards": 2506,
    "pool": 16207,
    "Ġbenefits": 4287,
    "Ġ(âĢľ": 15993,
    "izes": 886,
    "favourite": 15141,
    "Ġsleeper": 8600,
    "ti": 8390,
    "Ġlasting": 18791,
    "Ġcig": 6520,
    "ladder": 19783,
    "seen": 2878,
    "Ł": 258,
    "Ġask": 1494,
    "Ġgoblet": 25823,
    "Ġtur": 2566,
    "ford": 2822,
    "Ġheron": 22071,
    "india": 22369,
    "Ġempire": 11143,
    "close": 9984,
    "Ġbury": 12038,
    "Ġdemoniac": 15064,
    "Ġadmir": 12018,
    "Ġcomposedly": 25183,
    "romeda": 17261,
    "Ġtormented": 8674,
    "Ġprevail": 13440,
    "nephew": 26396,
    "Ġspiracle": 14148,
    "Ġbrightness": 16575,
    "Ġsaf": 4003,
    "bpp": 20771,
    "Ġfate": 4753,
    "expense": 22427,
    "Ġdespondence": 25869,
    "Ġharpoone": 2908,
    "Ġtransitory": 16017,
    "Ġsagacity": 16973,
    "Ġlxi": 21559,
    "Ġcurb": 16236,
    "maker": 12489,
    "Ġhorses": 6385,
    "Ġmitigates": 3049,
    "Ĭ": 237,
    "Ġconsulted": 13428,
    "Ġsoliloquized": 17300,
    "Ġrepent": 9861,
    "sies": 21053,
    "tiger": 13795,
    "Ġpeculiarly": 8287,
    "Ġconstables": 19072,
    "Ġbuffaloes": 25217,
    "Ġstrain": 6024,
    "driven": 19770,
    "ighb": 10422,
    "Ġqueens": 16705,
    "Ġstrife": 18614,
    "ertips": 23639,
    "Ġsustaining": 25333,
    "hid": 13732,
    "Ġvoluntarily": 12137,
    "Ġoffic": 3187,
    "Ġunthinkingly": 26220,
    "ophisticated": 22476,
    "Ġhurry": 4913,
    "Ġburden": 8607,
    "Ġcruelly": 13373,
    "on": 267,
    "phenomenon": 17647,
    "Ġsorry": 4210,
    "Ġadversary": 12170,
    "Ġsympt": 7012,
    "Ġshortly": 6196,
    "Ġ27": 8614,
    "Ġzigzag": 26272,
    "Ġordained": 19443,
    "Ġadvantage": 4316,
    "Ġconcer": 23319,
    "slave": 16894,
    "uses": 11757,
    "Ġwoodlands": 23519,
    "ignific": 11952,
    "unsuitable": 21891,
    "Ġlottery": 19887,
    "ston": 15680,
    "Ġdelight": 2550,
    "Ġvel": 7186,
    "Ġwaving": 8575,
    "Ġpurposed": 23551,
    "Ġpreside": 18365,
    "queness": 18147,
    "Ġexcess": 3339,
    "Ġezekiel": 26192,
    "Ġmotionless": 8324,
    "Ġgeneralization": 984,
    "pudding": 17646,
    "Ġprincipally": 11307,
    "Ġstuffed": 13407,
    "Ġrudimental": 25108,
    "Ġanticipation": 17056,
    "ached": 2319,
    "bitterly": 20336,
    "Ġswitching": 23056,
    "Ġsignifies": 19202,
    "Ġcond": 3877,
    "limp": 20951,
    "Ġfounded": 8556,
    "rendering": 22338,
    "Ġvolumes": 14798,
    "Ġbrilliancy": 20105,
    "Ġendless": 7053,
    "Ġawe": 7147,
    "onement": 21255,
    "Ġvirginia": 13498,
    "Ġembodiment": 20527,
    "Ġincensed": 18572,
    "home": 7341,
    "H": 44,
    "Ġahab": 1213,
    "ographical": 16785,
    "ĠcÃ¦sar": 20578,
    "Ġremains": 4910,
    "Ġeyeing": 6460,
    "ias": 6362,
    "Ġgouldings": 26187,
    "Ġtistig": 26412,
    "Ġmonosy": 18843,
    "Ġbachelor": 7787,
    "Ġseating": 18201,
    "100": 11462,
    "Ġpostponed": 20388,
    "Ġromans": 16758,
    "ears": 20844,
    "racing": 21629,
    "Ġsoldier": 16919,
    "Ġmonsieur": 12417,
    "father": 3776,
    "Ġdome": 15586,
    "moon": 10334,
    "phology": 3006,
    "steep": 19417,
    "Ġpondered": 15164,
    "iciency": 9573,
    "Ġconsecrated": 26487,
    "co": 2436,
    "Ġfixing": 13154,
    "Ġexploding": 2108,
    "ript": 4154,
    "Ġtasselled": 25921,
    "Ġjon": 15946,
    "Ġasph": 21896,
    "Ġspitz": 14147,
    "Ġsocially": 22076,
    "Ġbig": 5805,
    "Ġarrives": 23606,
    "Ġpen": 1534,
    "Ġtheoretic": 23310,
    "É": 138,
    "polar": 24584,
    "nameless": 19902,
    "throw": 14096,
    "Ġsnapped": 9894,
    "Ġverte": 9439,
    "Ġunscrew": 22038,
    "Ġunav": 18240,
    "Ġoccasions": 7988,
    ".âĢĻ": 1718,
    "droppers": 24759,
    "Ġvinc": 14083,
    "Ġthus": 2036,
    "Ġdra": 1590,
    "stern": 7862,
    "Ġhier": 1894,
    "Ġunctuousness": 17233,
    "Ġhush": 13209,
    "Ġgrain": 15829,
    "Ġflat": 8228,
    "frank": 7758,
    "son": 2326,
    "Ġpatron": 7462,
    "Ġdivin": 13271,
    "Ġactivation": 919,
    "Ġgospel": 18000,
    "oney": 3047,
    "Ġmumbled": 17807,
    "Ġresumed": 11809,
    "Ġnecessitated": 23924,
    "ingle": 1038,
    "Ġsoundings": 13131,
    "Ġgoug": 17990,
    "jack": 7344,
    "horr": 14598,
    "uv": 6229,
    "beauty": 20102,
    "renadier": 18419,
    "Ġleft": 1760,
    "onday": 6064,
    "inting": 9812,
    "fury": 17546,
    "Ġsummarization": 3645,
    "itement": 7836,
    "Ġoctavo": 15161,
    "Ġringing": 13329,
    "Ġaccordance": 19496,
    "Ġott": 13864,
    "Ġchoicest": 24219,
    "Ġuncounted": 19116,
    "Ġdrunken": 12047,
    "Ġkra": 18348,
    "Ġnervousness": 23555,
    "class": 4096,
    "disgraceful": 26076,
    "Ġviciously": 24403,
    "Ġvineyards": 25106,
    "sor": 7352,
    "commanding": 24752,
    "Ġhighlands": 22773,
    "roar": 17952,
    "collect": 16562,
    "Ġidiot": 11968,
    "ython": 1029,
    "ivered": 7005,
    "Ġalbatross": 10869,
    "Ġpil": 5014,
    "Ġpromote": 23191,
    "belief": 13279,
    "Ġmizen": 17257,
    "quar": 7615,
    "Ġfrequencies": 4788,
    "Ġdejection": 15194,
    "clut": 23148,
    "Ġsurtout": 23464,
    "Ġsepulchre": 20558,
    "ry": 807,
    "Ġgaz": 4044,
    "Ġaccount": 2318,
    "Ġdemo": 10877,
    "Ġprecisely": 6466,
    "Ġdislike": 6048,
    "bat": 8072,
    "sleet": 20148,
    "murder": 10563,
    "Ġcontr": 1913,
    "Ġdigress": 24648,
    "silent": 9972,
    "road": 6677,
    "Ġmarlings": 23036,
    "Ġostens": 25275,
    "maritime": 24172,
    "grie": 12467,
    "fits": 13716,
    "Ġpint": 17909,
    "Ġcollapsed": 15079,
    "oran": 8787,
    "Ġdropped": 4470,
    "contrad": 19291,
    "Ġrealistic": 5860,
    "dra": 3410,
    "rumours": 23896,
    "rance": 5994,
    "elijah": 19471,
    "rible": 3226,
    "Ġfict": 21403,
    "Ġdetection": 3444,
    "Ġmann": 18416,
    "Ġdeepest": 8213,
    "Ġ71": 24258,
    "Ġkelson": 18350,
    "sin": 21047,
    "Ġinstruments": 12220,
    "Ġgermans": 25784,
    "Ġhandful": 9780,
    "Ġdoors": 6418,
    "Ġdebar": 24270,
    "Ġdogs": 7742,
    "Ġwoven": 9924,
    "Ġpastures": 23418,
    "asher": 15643,
    "quarrel": 20013,
    "Ġtoil": 6531,
    "Ġstarry": 16922,
    "ifications": 9727,
    "onden": 13842,
    "Ġcountries": 13093,
    "urean": 18122,
    "Ġpermit": 9747,
    "Ġcav": 13878,
    "Ġencouraged": 9353,
    "Ġgoal": 10300,
    "Ġactive": 7916,
    "gument": 20884,
    "Ġmichigan": 26425,
    "Ġfiendish": 13325,
    "Ġshirt": 8847,
    "Ġpalms": 8643,
    "Ġphara": 23200,
    "Ġmajest": 24060,
    "Ġreminiscences": 26269,
    "Ġescaped": 6459,
    "Ġcemeteries": 26375,
    "swam": 24253,
    "Ġenchanted": 9079,
    "Ġlad": 2364,
    "Ġstingy": 25455,
    "Ġconver": 806,
    "Ġentities": 11861,
    "Ġvalidate": 3137,
    "Ġbrightened": 23825,
    "disappearing": 23501,
    "Ġcrazed": 19174,
    "Ġmoreover": 6163,
    "catherine": 7127,
    "Ġunconditional": 15842,
    "Ġunfrequent": 24109,
    "Ġsubaltern": 22788,
    "Ġwheel": 9716,
    "Ġmoods": 14949,
    "Ġadvoc": 12985,
    "Ġreproach": 9555,
    "Ġstolen": 14005,
    "Ġdistrust": 8205,
    "Ġloo": 22108,
    "Ġaustral": 12169,
    "Ġblood": 3169,
    "Ġcontent": 5034,
    "Ġlords": 14640,
    "reason": 4413,
    "Ġsubl": 7235,
    "Ġcrumb": 16439,
    "Ġ&": 6513,
    "Ġwidth": 16771,
    "Ġcoverage": 4288,
    "Ġivory": 4476,
    "Ġmillions": 11352,
    "inion": 2873,
    "rope": 3185,
    "irectly": 6940,
    "Ġlodged": 11250,
    "Ġpost": 4273,
    "Ġcetace": 14986,
    "Ġsoftmax": 1687,
    "Ġdandy": 17892,
    "Ġextremely": 2669,
    "nuts": 15397,
    "Ġdishonoured": 20389,
    "Ġgrooves": 16740,
    "Ġprairie": 8712,
    "yonder": 21143,
    "erer": 8731,
    "Ġenterprise": 8641,
    "Ġbos": 4875,
    "Ġgloomy": 7504,
    "Ġrome": 12152,
    "Ġfrank": 4418,
    "rad": 2256,
    "Ġspoutings": 14674,
    "hol": 3841,
    "displeasure": 23494,
    "_.": 2212,
    "whole": 6086,
    "Ġscholar": 26111,
    "sych": 9884,
    "Ġmantle": 25274,
    "Ġperdition": 15990,
    "Ġhoisting": 9860,
    "ernally": 22606,
    "osis": 18389,
    "Ġillustrious": 17108,
    "vocabulary": 25085,
    "attracted": 13047,
    "Ġroofs": 16984,
    "Ġmonomania": 17084,
    "Ġgeological": 14532,
    "Ġimmensity": 25329,
    "Ġsheaves": 22156,
    "Ġnoisier": 4623,
    "Ġbucket": 8786,
    "Ġletter": 2198,
    "Ġworkflow": 2354,
    "Ġte": 1149,
    "sculptured": 26045,
    "Ġcrushing": 20175,
    "Ġy": 341,
    "Ġaimed": 20249,
    "_âĢĶâĢĻâĢĿ": 25741,
    "regarded": 12004,
    "oner": 6124,
    "Ġdisinclined": 22527,
    "Ġbenches": 18781,
    "Ġhosmer": 6774,
    "estruct": 22221,
    "Ġdisobey": 18559,
    "secre": 18126,
    "Ġneskye": 21529,
    "):": 11459,
    "15": 12427,
    "confidence": 16807,
    "Ġclasping": 20208,
    "force": 12959,
    "Ġboasted": 16105,
    "Ġdefiance": 11066,
    "Ġencountered": 8322,
    "tashtego": 9621,
    "Ġfondly": 19615,
    "Ġwitnessed": 14842,
    "bout": 20772,
    "whiteness": 18370,
    "rebellum": 26165,
    "Ġbanish": 15567,
    "Ġfreedom": 9081,
    "und": 4119,
    "recovered": 19786,
    "asing": 5912,
    "Ġanxiety": 5408,
    "Ġenjoyments": 24016,
    "forgotten": 12412,
    "Ġdecide": 9285,
    "Ġfits": 8789,
    "Ġcollection": 8222,
    "windows": 19533,
    "remind": 23186,
    "frantic": 24282,
    "Ġretort": 23068,
    "Ġcrucial": 9890,
    "composed": 14739,
    "ishment": 3503,
    "Ġinsol": 10179,
    "Ġbalanced": 12987,
    "augmented": 26286,
    "based": 2957,
    "fates": 20857,
    "lun": 20945,
    "kill": 13742,
    "Ġexpatiate": 18625,
    "Ġdust": 5909,
    "Ġaround": 3608,
    "whales": 5187,
    "remain": 9836,
    "Ġproduce": 4366,
    "illustration": 2282,
    "Ġdetain": 14181,
    "Ġfascinated": 25635,
    "Ġpendulous": 25955,
    "Ġshall": 1143,
    "learn": 2186,
    "Ġin": 291,
    "Ġfun": 523,
    "Ġbespeaking": 26310,
    "bar": 7541,
    "nable": 13760,
    "therly": 18339,
    "apologizing": 26543,
    "una": 21867,
    "Ġtimorous": 24224,
    "Ġdr": 2824,
    "Ġhours": 2818,
    "Ġtried": 3646,
    "aution": 9386,
    "wherever": 13116,
    "Ġcomp": 724,
    "Ġheaps": 11640,
    "Ġconscious": 7744,
    "Ġflash": 8230,
    "suffered": 24333,
    "Ġbull": 7840,
    "Ġclasp": 9742,
    "Ġax": 7823,
    "Ġcomforters": 25800,
    "Ġtotal": 4993,
    "ishes": 6523,
    "Ġtart": 12524,
    "Ġslightly": 7293,
    "fleece": 19946,
    "Ġtant": 12521,
    "aby": 18106,
    "Ġpad": 8125,
    "Ġexhausting": 24710,
    "Ġordering": 18997,
    "Ġgeorgia": 23883,
    "Ġmeeting": 5193,
    "distressed": 24198,
    "dia": 2135,
    "Ġbeh": 1803,
    "distrustful": 26330,
    "Ġfogs": 25282,
    "Ġlucky": 7759,
    "Ġtelegraph": 25583,
    "month": 6463,
    "Ġtow": 4394,
    "Ġearthquake": 14627,
    "Ġgrown": 5628,
    "byshire": 6172,
    "dishon": 20402,
    "obliv": 23094,
    "reproof": 25432,
    "Ġsoda": 25534,
    "Ġspare": 5102,
    "Ġnames": 4532,
    "Ġchaldee": 26234,
    "¬": 110,
    "Ġlined": 15647,
    "envelope": 17782,
    "ioneer": 15629,
    "Ġfriendly": 9818,
    "esley": 17902,
    "next": 5892,
    "Ġperformance": 1308,
    "itig": 1331,
    "Ġsings": 15504,
    "Ġabstract": 17180,
    "Ġbrushed": 15568,
    "Ġtreacherous": 13552,
    "admire": 24943,
    "Ġemploy": 3613,
    "itioned": 22467,
    "Ġsheeted": 19830,
    "Ġmachinations": 25767,
    "reflect": 19864,
    "Ġcobb": 14270,
    "Ġpatterns": 1212,
    "physiogn": 26263,
    "jee": 17578,
    "Ġparameters": 995,
    "Ġpredicts": 2595,
    "inserted": 18888,
    "Ġprovincial": 20649,
    "Ġsegmentation": 17338,
    "Ġalter": 6542,
    "Ġfarmhouse": 24986,
    "Ġblooming": 17211,
    "Ġkeen": 4612,
    "slack": 16893,
    "Ġsupp": 1265,
    "Ġsettee": 22919,
    "Ġprompted": 23813,
    "abama": 12705,
    "led": 581,
    "aux": 14287,
    "Ġcotton": 17377,
    "ula": 2825,
    "Ġvexatious": 19780,
    "Ġtashtego": 4486,
    "Ġdeposit": 17267,
    "Ġweather": 3998,
    "enit": 17778,
    "ways": 1439,
    "Ġbillow": 14777,
    "assist": 11764,
    "Ġirish": 14533,
    "Ġcolumn": 9326,
    "Ġprovid": 1009,
    "Ġblocks": 6321,
    "Ġpunctually": 17137,
    "quired": 21853,
    "elopement": 23143,
    "20": 20752,
    "entire": 6824,
    "Ġcripp": 9652,
    "Ġdrenched": 12599,
    "Ġthere": 564,
    "Ġmaps": 2960,
    "national": 20997,
    "omited": 21639,
    "flask": 12096,
    "Ġcrowder": 19454,
    "sailor": 14713,
    "orough": 5700,
    "indian": 11775,
    "26": 10071,
    "================================": 5671,
    "affa": 23774,
    "determine": 19942,
    "aloft": 8805,
    "impregn": 21712,
    "Ġprotect": 6337,
    "Ġactuated": 18544,
    "Ġbodiless": 24225,
    "Ġsteak": 9827,
    "Ġshiny": 14104,
    "Ġreassure": 21670,
    "Ġcharnel": 22250,
    "ild": 1155,
    "Ġreader": 11931,
    "Ġmaterials": 11286,
    "hood": 2660,
    "Ġai": 3125,
    "supposing": 24134,
    "daring": 20828,
    "summon": 23414,
    "pence": 15408,
    "Ġtolland": 24990,
    "Ġdesolation": 12265,
    "Ġcherry": 16934,
    "line": 1438,
    "repugnance": 16863,
    "hole": 5586,
    "Ġcries": 7154,
    "Ġhagger": 21489,
    "adoes": 11658,
    "xible": 13806,
    "Ġcranes": 20381,
    "inked": 12909,
    "cottage": 9568,
    "ignantly": 23264,
    "Ġatlantic": 7000,
    "pole": 9331,
    "banish": 20781,
    "cracy": 24690,
    "bun": 12435,
    "Ġepic": 15028,
    "dismal": 23496,
    "Ġridic": 7508,
    "Ġshe": 466,
    "Ġpur": 2217,
    "unexpected": 15775,
    "Ġtraditions": 11441,
    "Ġhooks": 14966,
    "Ġlodge": 5779,
    "Ġjet": 5307,
    "Ġrestrain": 8963,
    "elzebub": 26463,
    "flowing": 14557,
    "Ġencounters": 19579,
    "valuable": 8248,
    "Ġexcuses": 19044,
    "Ġinjured": 9038,
    "Ġlearn": 364,
    "ra": 314,
    "solitude": 23295,
    "Ġscorching": 20066,
    "ura": 1060,
    "Ġproductions": 22944,
    "Ġinsupportable": 13930,
    "affairs": 14655,
    "Ġunsupplied": 22041,
    "iety": 2817,
    "rael": 21627,
    "Ġcamel": 25349,
    "holmes": 4429,
    "Ġdetails": 6565,
    "Ġfift": 6382,
    "Ġpocket": 4898,
    "Ġwing": 6665,
    "Ġanno": 9666,
    "cordiality": 25137,
    "undertaking": 23785,
    "Ġgowns": 25359,
    "establish": 17391,
    "Ġmonths": 3453,
    "Ġforced": 4352,
    "worked": 19023,
    "Ġprev": 6264,
    "âĢĿ--": 21814,
    "yden": 21142,
    "Ġwithdrawing": 11338,
    "Ġcand": 3275,
    "Ġcreating": 2995,
    "unvarying": 21885,
    "Ġunaccountable": 7888,
    "venge": 4657,
    "Ġsizes": 1523,
    "Ġim": 475,
    "Ġcaulking": 20292,
    "Ġdirections": 1969,
    "Ġtho": 21512,
    "spark": 18690,
    "Ġyoungster": 23178,
    "Ġscan": 22282,
    "Ġmeadow": 17150,
    "Ġreservoir": 20650,
    "alle": 1295,
    "Ġapprobation": 10982,
    "royal": 11391,
    "masts": 19423,
    "Ġmild": 4148,
    "Ġpatchwork": 24140,
    "Ġdesired": 4663,
    "izarre": 17387,
    "Ġpir": 6818,
    "Ġfobbing": 26440,
    "ineff": 21964,
    "Ġprosecution": 12379,
    "Ġpled": 17907,
    "ishness": 22340,
    "nostr": 22754,
    "Ġautumn": 14507,
    "otent": 8830,
    "Ġdiscoloured": 15250,
    "baned": 17494,
    "Ġclair": 6268,
    "Ġham": 3418,
    "earliest": 20118,
    "Ġuppermost": 15276,
    "bourgh": 19103,
    "dimensional": 2345,
    "Ġacre": 22679,
    "Ġshrubbery": 18232,
    "Ġmultiple": 1186,
    "gress": 2214,
    "Ġglens": 18852,
    "uteronomy": 15661,
    "Ġgoble": 14228,
    "request": 21240,
    "ho": 2856,
    "Ġcorrupt": 11920,
    "Ġpoet": 8209,
    "Ġexpressive": 8981,
    "Ġpoem": 22587,
    "Ġdiana": 21435,
    "Ġtune": 17724,
    "ribution": 14304,
    "Ġcurbstone": 26042,
    "Ġpronouncing": 16968,
    "Ġsolicit": 22885,
    "venant": 22626,
    "Ġindignantly": 16938,
    "rippa": 11339,
    "Ġflourish": 17159,
    "Ġspile": 22125,
    "Ġdesert": 6726,
    "Ġextravagant": 17277,
    "Ġstepped": 7051,
    "Ġ2026": 12332,
    "Ġfrayed": 23309,
    "Ġnotes": 7189,
    "Ġstiff": 6992,
    "Ġclaps": 22344,
    "ķ": 248,
    "umes": 10915,
    "turbable": 24530,
    "vous": 2251,
    "Ġclimes": 12836,
    "purse": 20023,
    "Ġmutually": 23954,
    "Ġflung": 8562,
    "ulity": 10884,
    "dart": 20825,
    "Ġfads": 21415,
    "ilogue": 21722,
    "hroom": 12473,
    "ness": 853,
    "Ġrosings": 4606,
    "crime": 14781,
    "ound": 585,
    "gall": 6359,
    "Ġrebellion": 26474,
    "Ġlimits": 3451,
    "Ġtoast": 21510,
    "boil": 18999,
    "Ġflag": 7242,
    "Ġconnected": 5393,
    "pier": 17634,
    "Ġk": 484,
    "Ġdaugh": 2292,
    "Ġwides": 17788,
    "uzza": 11268,
    "kshire": 13744,
    "Ġfanciful": 24788,
    "scrape": 25698,
    "Ġelimin": 16106,
    "Ġbarrier": 16568,
    "shold": 2772,
    "Ġconv": 2966,
    "widely": 25343,
    "tuning": 1581,
    "Ġinstability": 3813,
    "humored": 19451,
    "Ġcocain": 18594,
    "imble": 10856,
    "conversations": 24749,
    "Ġcocks": 18593,
    "Ġconsecutive": 20701,
    "Ġunconcerned": 20508,
    "Ġsnuffed": 15070,
    "consider": 6348,
    "ge": 561,
    "Ġobliquely": 12359,
    "ĉ": 202,
    "Ġwe": 387,
    "Ġtongues": 14861,
    "osely": 9263,
    "Ġsoldiers": 8686,
    "Ġquar": 3111,
    "Ġprotesting": 14740,
    "Ġunerring": 15845,
    "into": 3678,
    "Ġhorns": 11121,
    "stretching": 20497,
    "Ġped": 6817,
    "Ġpeev": 22691,
    "iosity": 2357,
    "condite": 23246,
    "Ġdreary": 10407,
    "Ġourselves": 5127,
    "Ġ235": 25713,
    "Ġlaboratory": 13610,
    "Ġeight": 3903,
    "harpooneer": 8688,
    "Ġdescription": 7429,
    "Ġcooked": 13267,
    "robe": 15639,
    "Ġcapable": 5054,
    "Ġscraggy": 24578,
    "Ġhandwriting": 14317,
    "ppa": 10238,
    "vac": 15449,
    "subst": 12161,
    "illuminated": 17451,
    "Ġvivacity": 14939,
    "Ġmembrane": 20502,
    "Ġdiscovery": 5412,
    "rug": 18340,
    "iterranean": 15547,
    "Ġdough": 8421,
    "Ġcarcase": 14442,
    "semic": 21818,
    "Ġstones": 9220,
    "Ġdecoding": 3080,
    "Ġapprehension": 7113,
    "rib": 1944,
    "Ġla": 5913,
    "ccas": 15883,
    "Ġpremium": 23901,
    "Ġtranquillity": 7536,
    "Ġsolic": 7933,
    "Ġanimate": 23421,
    "beloved": 19459,
    "alously": 15626,
    "Ġmamma": 10046,
    "Ġprank": 23219,
    "Ġpursue": 6314,
    "thankful": 16805,
    "Ġnobleman": 19390,
    "Ġclinched": 17392,
    "Ġparch": 11723,
    "bted": 7794,
    "Ġaisle": 21200,
    "Ġamid": 4959,
    "Ġwits": 15530,
    "Ġinsertion": 26343,
    "belled": 24036,
    "lock": 1471,
    "Ġamel": 18510,
    "Ġsplinters": 15100,
    "Ġunmannerly": 26516,
    "insisted": 23065,
    "Ġdragging": 14475,
    "leaving": 10790,
    "precisely": 6917,
    "Ġdiscrimin": 2547,
    "Ġdaggoo": 5441,
    "Ġyour": 633,
    "eping": 5833,
    "Ġenthus": 7232,
    "Ġdorm": 4821,
    "Ġcontro": 1685,
    "tinted": 17682,
    "Ġredu": 1353,
    "love": 9292,
    "Ġmaddening": 17242,
    "Ġdeveloped": 16333,
    "Ġladder": 8598,
    "Ġclosely": 6488,
    "Ġswitzerland": 10378,
    "Ġfrog": 23917,
    "Ġpaws": 13919,
    "Ġphaet": 16317,
    "Ġrehears": 15697,
    "nineteenth": 26138,
    "brimming": 23576,
    "Ġcur": 1254,
    "loaded": 22510,
    "Ġenable": 685,
    "Ġyarn": 10866,
    "Ġjer": 6266,
    "Ġfinishing": 23122,
    "Ġcravat": 26307,
    "miniature": 16764,
    "Ġpoetry": 15078,
    "âĢĿ": 354,
    "Ġblanche": 18819,
    "Ġattested": 22620,
    "!_": 7329,
    "qualities": 25043,
    "cons": 4309,
    "Ġimmaculate": 19484,
    "aus": 1503,
    "Ġhumble": 8551,
    "Ġcolourless": 19568,
    "Ġcruising": 6913,
    "Ġconsiderable": 4008,
    "Ġjeopardy": 13594,
    "Ġexceptional": 19369,
    "Ġadventures": 7748,
    "Ġanom": 12607,
    "why": 2828,
    "Ġsubmission": 22787,
    "etence": 21575,
    "Ġterr": 3272,
    "Ġintens": 7003,
    "Ġtamely": 24979,
    "plentiful": 21954,
    "impe": 21706,
    "Ġindomit": 22953,
    "Ġdeployment": 11198,
    "au": 779,
    "ittance": 12841,
    "Ġmud": 11570,
    "Ġheroes": 10575,
    "Ġgovernor": 16489,
    "cred": 9106,
    "Ġpremature": 3724,
    "Ġpenn": 11110,
    "antingly": 22096,
    "Ġunspeak": 8849,
    "Ġhire": 21483,
    "char": 3501,
    "breath": 15160,
    "Ġdrooping": 9418,
    "Ġgover": 2462,
    "rals": 21041,
    "Ġpresc": 15923,
    "asper": 7855,
    "Ġelated": 18633,
    "Ġstings": 21732,
    "mushroom": 26394,
    "levelled": 23643,
    "member": 20974,
    "Ġaim": 10144,
    "Ġconverted": 16113,
    "impl": 21705,
    "instrument": 15236,
    "Ġjanuary": 13651,
    "Ġlaure": 16908,
    "Ġaccurate": 13260,
    "ipped": 5790,
    "ourers": 21448,
    "Ġvit": 10244,
    "place": 4155,
    "rimsh": 17026,
    "Ġ68": 24369,
    "must": 3574,
    "Ġadm": 2405,
    "Ġchance": 3315,
    "Ġspain": 15878,
    ";--": 8069,
    "Ġjustified": 11901,
    "Ġjogged": 26236,
    "Ġthee": 2626,
    "Ġfearfulness": 23511,
    "ash": 1990,
    "Ġloathing": 15067,
    "Ġfooted": 23794,
    "larger": 24201,
    "Ġimag": 2675,
    "stick": 15682,
    "Ġdefer": 18822,
    "Ġattempt": 3484,
    "Ġclattered": 22347,
    "uneasy": 23684,
    "Ġguid": 2641,
    "Ġdiscussed": 19558,
    "Ġpast": 2098,
    "thrill": 25656,
    "Ġflu": 3276,
    "Ġflutter": 16245,
    "Ġincessantly": 11409,
    "Ġfloundered": 18861,
    "Ġdrive": 5055,
    "Ġharry": 24570,
    "fo": 5278,
    "Ġincrust": 22548,
    "yet": 3752,
    "ning": 949,
    "Ġfemin": 13434,
    "Ġromantic": 8031,
    "confined": 24331,
    "sides": 12504,
    "Ġgirdled": 19157,
    "Ġopenshaw": 7955,
    "Ġlowerings": 23645,
    "Ġindul": 5856,
    "fif": 9115,
    "Ġignominy": 15083,
    "mews": 22712,
    "pots": 11511,
    "bingley": 4927,
    "Ġdundee": 16996,
    "Ġobeyed": 12213,
    "along": 6013,
    "Ġspeed": 2449,
    "ooping": 21006,
    "Ġrespectful": 16344,
    "ugn": 9376,
    "Ġcreditors": 20128,
    "ources": 2788,
    "ie": 729,
    "Ġsir": 1569,
    "ompl": 4535,
    "Ġloathsome": 13526,
    "Ġgenerates": 3662,
    "Ä": 133,
    "ĠĠĠĠĠĠĠĠĠĠĠĠĠĠĠĠĠ": 22947,
    "Ġwavering": 23278,
    "Ġincommod": 25307,
    "will": 1967,
    "slightest": 25416,
    "Ġbelief": 5855,
    "Ġdestined": 7975,
    "Ġregression": 4408,
    "Ġwouldn": 6046,
    "Ġsax": 10927,
    "proportion": 16182,
    "Ġmap": 2395,
    "Ġdecoyed": 18492,
    "Ġflog": 23622,
    "ach": 433,
    "Ġconfused": 7964,
    "Ġsarat": 21226,
    "Ġpersevering": 20232,
    "justine": 7683,
    "Ġfanned": 19099,
    "Ġcomrades": 9553,
    "Ġyet": 1028,
    "Ġproofs": 19813,
    "Ġdelineate": 26057,
    "atical": 10770,
    "Ġover": 556,
    "Ġpossesses": 19350,
    "ssing": 3809,
    "Ġclearer": 16311,
    "Ġregarded": 5762,
    "usage": 12828,
    "angible": 22103,
    "ricity": 23061,
    "<MASK>": 4,
    "ogra": 4572,
    "Ġunrestingly": 20359,
    "Ġsnoo": 21227,
    "Ġpredictions": 1455,
    "Ġcellar": 8059,
    "](": 11464,
    "Ġexpressions": 7706,
    "Ġfossils": 20221,
    "conceivable": 17129,
    "Ġpeddler": 24800,
    "Ġdiscol": 12949,
    "Ġpots": 9426,
    "alf": 4637,
    "sinking": 17667,
    "box": 5749,
    "ħ": 232,
    "chiefly": 14844,
    "quer": 11677,
    "companion": 9556,
    "iforn": 14062,
    "Ġdearer": 14047,
    "Ġrepetition": 8971,
    "Ġshears": 18319,
    "Ġdecidedly": 9507,
    "ari": 674,
    "Ġpetrified": 19595,
    "Ġcompassion": 6487,
    "erranean": 9332,
    "Ġcorrespond": 6209,
    "Ġanytime": 12881,
    "Ġprofess": 3697,
    "Ġinheritance": 25355,
    "Ġpluck": 15611,
    "Ġbuffalo": 11427,
    "ature": 521,
    "Ġturkey": 19218,
    "Ġinject": 2711,
    "Ġstreets": 5863,
    "Ġpurposes": 11166,
    "Ġwindpipe": 23103,
    "Ġinnermost": 12157,
    "Ġcandid": 4099,
    "Ġchief": 3378,
    "Ġdiscovering": 13355,
    "appo": 3917,
    "Ġwhirlp": 16962,
    "Ġnobody": 6158,
    "Ġsorely": 17255,
    "Ġstrikes": 13181,
    "ing": 273,
    "Ġencourag": 1392,
    "Ġascended": 8665,
    "Ġbeen": 626,
    "Ġmystical": 12129,
    "ohn": 4560,
    "Ġforemost": 12001,
    "approve": 19935,
    "Ġminima": 3461,
    "Ġinnoc": 3795,
    "Ġdistorted": 14248,
    "Ġmorass": 22967,
    "Ġretains": 20028,
    "Ġdevoting": 22717,
    "Ġdelightfully": 13156,
    "Ġprogram": 12989,
    "Ġcourt": 4170,
    "Ġaint": 17743,
    "Ġtooks": 23324,
    "gence": 875,
    "Ġarch": 936,
    "ezes": 9989,
    "produce": 20281,
    "Ġtrap": 7672,
    "rolled": 9058,
    "Ġstates": 1852,
    "Ġconve": 5455,
    "zwilliam": 5074,
    "image": 9684,
    "Ġbleeding": 14878,
    "ailed": 3245,
    "draw": 23895,
    "Ġflip": 11909,
    "strong": 6322,
    "introduction": 15121,
    "poison": 14390,
    "months": 9070,
    "erative": 21271,
    "rist": 10121,
    "Ġultimate": 12346,
    "Ġshunned": 17291,
    "Ġgrapes": 15213,
    "plans": 21950,
    "pain": 7350,
    "Ġblotting": 25313,
    "Ġpursued": 6328,
    "Ġstagger": 10590,
    "ia": 1257,
    "vell": 3961,
    "Ġconfusion": 7273,
    "Ġmole": 11788,
    "Ġwhip": 8451,
    "Ġsequentially": 4914,
    "Ġhandsome": 4906,
    "Ġcanvassed": 19933,
    "Ġpawnbroker": 13656,
    "Ġhouses": 6138,
    "writing": 7721,
    "oftentimes": 19419,
    "Ġhappily": 9329,
    "hs": 8378,
    "Ġid": 1908,
    "few": 8203,
    "Ġupwards": 7633,
    "desolation": 20448,
    "afric": 19178,
    "Ġbronze": 22865,
    "Ġhans": 12622,
    "billows": 20235,
    "Ġstrenuously": 17446,
    "continually": 11300,
    "Ġcontinental": 19704,
    "Ġseeks": 14300,
    "ashion": 3861,
    "Ġsaucer": 20604,
    "med": 1907,
    "amount": 10882,
    "pure": 17625,
    "Ġgallows": 12142,
    "gir": 8083,
    "surpr": 5997,
    "Ġserviceable": 24718,
    "stationed": 25453,
    "Ġowe": 8115,
    "Ġgrateful": 7660,
    "Ġxxx": 7767,
    "han": 12469,
    "dev": 7632,
    "Ġassign": 11108,
    "Ġbacked": 12921,
    "Ġmountain": 3369,
    "fourths": 25509,
    "wil": 8396,
    "Ġunsounded": 15847,
    "lane": 10705,
    "illating": 22105,
    "hend": 13249,
    "Ġsnows": 14724,
    "Ġbeautifully": 13265,
    "corrid": 24483,
    "intellect": 18821,
    "ferent": 4195,
    "Ġmiss": 1228,
    "offing": 23332,
    "Ġrains": 24339,
    "Ġconsequences": 11333,
    "sto": 3198,
    "Ġproposed": 7460,
    "Ġstar": 6023,
    "Ġbiological": 1931,
    "Ġeggs": 12339,
    "Ġdeterminate": 23002,
    "Ġswing": 13033,
    "Ġmist": 2874,
    "Ġappointed": 20101,
    "Ġjoosy": 23631,
    "Ġdelineations": 26058,
    "Ġoverhear": 15974,
    "chat": 21684,
    "Ġluxurious": 17309,
    "Ġexception": 11214,
    "under": 3129,
    "Ġvir": 7001,
    "Ġbands": 14882,
    "icacy": 15655,
    "Ġwounds": 17790,
    "Ġjoint": 12031,
    "point": 6063,
    "sect": 8153,
    "Ġstrolled": 16769,
    "luent": 15994,
    "ikes": 8087,
    "talking": 10005,
    "Ġpotential": 3617,
    "Ġviolation": 23404,
    "Ġ91": 24590,
    "Ġdivinest": 25722,
    "Ġextended": 7923,
    "ice": 591,
    "Ġrepublican": 17410,
    "Ġsunrise": 9371,
    "Ġdegra": 2591,
    "attent": 9358,
    "ands": 21864,
    "opened": 7914,
    "ctu": 5088,
    "scuttle": 11906,
    "ju": 13739,
    "Ġcontrasting": 11152,
    "Ġphys": 5653,
    "Ġpleasures": 11141,
    "'": 11,
    "Ġstrangely": 5677,
    "Ġmiraculous": 13545,
    "omuch": 21638,
    "Ġtransportation": 13640,
    "Ġblazing": 11893,
    "Ġgradual": 20600,
    "Ġsacrificial": 24871,
    "chron": 21692,
    "Ġstating": 15719,
    "Ġalone": 2568,
    "tstone": 21083,
    "Ġsatisf": 2806,
    "Ġcommunication": 1870,
    "Ġtraitors": 23076,
    "evid": 11482,
    "Ġcasual": 11407,
    "Ġundoubted": 19513,
    "coffin": 10661,
    "Ġconn": 9228,
    "cely": 3571,
    "Ġluc": 3308,
    "Ġusing": 709,
    "Ġdomain": 3465,
    "uncomfortable": 18160,
    "repeated": 12336,
    "dden": 1806,
    "Ġgentlemanly": 19315,
    "Ġboyhood": 23753,
    "Ġagreeably": 24952,
    "erately": 21272,
    "Ġsignific": 3828,
    "Ġdictator": 20152,
    "Ġload": 14144,
    "Ġnext": 2140,
    "Ġ55": 24322,
    "imagination": 13478,
    "ability": 716,
    "serv": 7451,
    "amusement": 15280,
    "sway": 15423,
    "Ġsoothed": 10027,
    "Ġwould": 651,
    "Ġban": 7156,
    "securing": 19812,
    "Ġdate": 7842,
    "this": 1437,
    "Ġrigging": 5600,
    "tured": 13793,
    "Ġbulkhead": 24507,
    "Ġcomplicated": 14733,
    "Ġwaters": 3593,
    "Ġplow": 21458,
    "incing": 15484,
    "icket": 22666,
    "Ġchuck": 8500,
    "fortunately": 9448,
    "eline": 2366,
    "Ġshun": 11706,
    "Ġvocation": 10524,
    "Ġeasterly": 25962,
    "mysterious": 26052,
    "grief": 13729,
    "Ġbarbarously": 24819,
    "Ġrichness": 19310,
    "inished": 17733,
    "repaid": 24490,
    "Ġunchanging": 22043,
    "Ġfreshe": 13067,
    "narrowly": 20346,
    "Ġwasting": 12724,
    "Ġinadequate": 17936,
    "ifting": 6545,
    "Ġcommercial": 22672,
    "Ġsnaky": 23739,
    "Ġgeorge": 3747,
    "quet": 6835,
    "Ġimputable": 22171,
    "Ý": 158,
    "Ġhoping": 11102,
    "gird": 20878,
    "ĠĠĠĠĠĠĠĠĠĠĠĠĠĠĠĠĠĠĠĠĠĠĠĠĠĠĠĠĠĠĠĠĠĠĠĠĠĠĠĠĠĠĠĠĠĠĠĠ": 7989,
    "Ġpink": 12614,
    "Ġrobbery": 11914,
    "aunt": 8370,
    "lesson": 22766,
    "elstrom": 17981,
    "Ġbade": 9170,
    "Ġquadr": 8200,
    "Ġjoist": 19231,
    "ĠâĢĺ": 1626,
    "Ġanalysis": 2032,
    "Ġ50": 24318,
    "Ġgems": 9207,
    "surd": 6934,
    "Ġtones": 8400,
    "Ġragged": 11841,
    "uttural": 21587,
    "ution": 4349,
    "Ġreached": 4024,
    "95": 17476,
    "Ġineffect": 13928,
    "insanity": 23066,
    "Ġelapsed": 7652,
    "Ġvint": 18194,
    "Ġmethinks": 10391,
    "Ġniagara": 26457,
    "kitchen": 17584,
    "Ġshouldn": 14323,
    "Ġviolently": 6456,
    "Ġaccusations": 22378,
    "ove": 1742,
    "Ġprogno": 14039,
    "Ġlash": 8439,
    "Ġparagra": 15877,
    "Ġscent": 10284,
    "Ġunlab": 3788,
    "Ġlagged": 21556,
    "dependence": 17166,
    "Ġzig": 18742,
    "Ġinsult": 6747,
    "Ġstraightway": 9015,
    "mblance": 7323,
    "Ġrickety": 26505,
    "Ġglories": 16238,
    "Ġcling": 11768,
    "Ġintroduced": 7691,
    "Ġinterlacing": 22574,
    "Ġuntimely": 16466,
    "Ġrum": 5924,
    "Ġinvisibly": 24817,
    "Ġclaw": 22345,
    "Ġestimable": 23869,
    "Ġkne": 4267,
    "Ġpond": 13914,
    "Ġindolent": 13001,
    "Ġpince": 21470,
    "supplementary": 20548,
    "persuasion": 20042,
    "interference": 23735,
    "Ġpagans": 16921,
    "Ġcaused": 5048,
    "Ġaccused": 8507,
    "Ġforeheads": 23447,
    "Ġmeanwhile": 5736,
    "Ġstall": 12692,
    "**:": 4736,
    "bingleys": 19633,
    "umbers": 10916,
    "------": 12130,
    "Ġexecuted": 9470,
    "Ġgrizz": 10351,
    "renew": 24449,
    "while": 2932,
    "Ġquest": 1999,
    "jol": 20924,
    "inence": 15480,
    "Ġworms": 25216,
    "Ġdimly": 9486,
    "Ġunit": 1849,
    "landish": 11939,
    "Ġprocopius": 19729,
    "poured": 17636,
    "shud": 18483,
    "Ġscientific": 6857,
    "Ġimp": 577,
    "rabbit": 20589,
    "Ġcanv": 7009,
    "Ġdetestation": 17126,
    "Ġequality": 16357,
    "Ġdirectors": 18921,
    "Ġhighland": 18712,
    "illing": 8175,
    "Ġsimil": 2533,
    "grin": 19105,
    "Ġbarrowful": 25595,
    "Ġ1894": 5196,
    "oard": 4809,
    "Ġ/*": 10138,
    "Ġscotland": 6639,
    "Ġmanhandle": 22327,
    "Ġain": 6969,
    "Ġwhistled": 24624,
    "Ġbier": 22762,
    "Ġmeddle": 19490,
    "Ġprophecy": 25706,
    "Ġunique": 12774,
    "Ġwarehouses": 20416,
    "spouting": 25002,
    "Ġgirls": 4280,
    "inces": 13826,
    "Ġlessons": 7692,
    "Ġunfathomably": 25873,
    "Ġunhinged": 26216,
    "australian": 20560,
    "Ġalms": 21778,
    "less": 927,
    "sec": 6152,
    "has": 4014,
    "Ġbulge": 23854,
    "Ġstripped": 10464,
    "Ġsubs": 2130,
    "Ġqualified": 14948,
    "Ġbrand": 16185,
    "swimming": 24257,
    "Ġdeemed": 7612,
    "Ġforesee": 19125,
    "Ġrussian": 14348,
    "endering": 21283,
    "Ġaddressing": 11162,
    "Ġarrayed": 25664,
    "Ġ26": 10469,
    "separation": 25226,
    "Ġesteemed": 10587,
    "Ġvaried": 11845,
    "Ġencourage": 10379,
    "erick": 13846,
    "Ġcolossal": 11457,
    "Ġincurable": 22550,
    "Ġeve": 13968,
    "solution": 14685,
    "Ġoverthrow": 18432,
    "Ġjuly": 17235,
    "Ġteasing": 11887,
    "une": 2784,
    "Ġvial": 10247,
    "Ġecl": 18005,
    "estim": 14168,
    "Ġagencies": 18541,
    "Ġillum": 9398,
    "Ġdamn": 11156,
    "main": 8088,
    "Ġaver": 1286,
    "eer": 15345,
    "Ġwild": 2602,
    "weaving": 18666,
    "Ġarrant": 23296,
    "Ġforc": 9226,
    "with": 1298,
    "Ġrat": 4353,
    "Ġfrancis": 26063,
    "Ġfrosty": 14933,
    "Ġaggregate": 25677,
    "vil": 2731,
    "Ġspat": 2665,
    "Ġgreenhorn": 23766,
    "hind": 20893,
    "ieces": 4771,
    "ginger": 13161,
    "oso": 12826,
    "supplemental": 25874,
    "Ġclings": 15961,
    "Ġscratching": 20367,
    "beries": 22720,
    "Ġresisted": 22539,
    "vine": 10733,
    "Ġmixed": 6974,
    "autions": 20766,
    "Ġ109": 24415,
    "agatha": 21906,
    "Ġyoung": 1509,
    "Ġplaguy": 22602,
    "animals": 24738,
    "Ġdeception": 18139,
    "haps": 1666,
    "Ġopium": 8993,
    "Ġleave": 2458,
    "Ġunderstanding": 1782,
    "Ġlonely": 6823,
    "Ġdisplaying": 16965,
    "Ġenlivened": 26207,
    "Ġindependent": 9014,
    "Ġviolence": 5963,
    "Ġstaggering": 20272,
    "iding": 3849,
    "social": 11021,
    "kered": 18274,
    "venor": 16098,
    "Ġobliter": 14320,
    "Ġbales": 21387,
    "Ġassuming": 16692,
    "Ġfert": 15579,
    "Ġfish": 2710,
    "yn": 7820,
    "Ġcall": 2075,
    "Ġforbidding": 17078,
    "Ġseren": 7401,
    "Ġbubble": 13533,
    "shabbily": 26246,
    "Ġsynthe": 26007,
    "Ġstreng": 18070,
    "·": 120,
    "sensible": 20050,
    "Ġloaded": 8490,
    "lovely": 16044,
    "versed": 9823,
    "Ġbreaths": 14855,
    "Ġpresumably": 19623,
    "Ò": 147,
    "Ġchal": 18377,
    "Ġwrithing": 11943,
    "Ġsqueezing": 25006,
    "Ġcontemptible": 16952,
    "stirred": 20423,
    "poss": 4777,
    "Ġtainted": 21169,
    "Ġdash": 8122,
    "Ġhartshorn": 26180,
    "Ġhowling": 8509,
    "prince": 23811,
    "relate": 24009,
    "ily": 1032,
    "Ġalphabetical": 17200,
    "Ġsort": 1511,
    "Ġperfections": 23607,
    "Ġappearances": 10450,
    "Ġhabitual": 24790,
    "vicious": 21117,
    "Ġfreckled": 18959,
    "Ġphaeton": 17463,
    "tal": 17669,
    "shrugged": 22448,
    "Ġsmoked": 10321,
    "Ġrooted": 13167,
    "Ġtahit": 10753,
    "master": 5687,
    "Ġlobster": 11387,
    "Ġmute": 19414,
    "Ġunembarrassed": 22067,
    "Ġheaviest": 23323,
    "Ġ32": 19487,
    "rer": 3620,
    "anyth": 5438,
    "Ġinquisitive": 26317,
    "comparatively": 25839,
    "Ġcrib": 21346,
    "gd": 3122,
    "strikes": 24670,
    "Ġmilliner": 19883,
    "Ġopp": 2696,
    "Ġgetting": 4067,
    "Ġimpressions": 9551,
    "Ġconstitutional": 25125,
    "Ġsurpassing": 20466,
    "Ġembarks": 22993,
    "nowadays": 22336,
    "conceive": 16028,
    "Ġexpensive": 12914,
    "gaze": 17556,
    "Ġoverpow": 14206,
    "jaw": 13741,
    "inction": 6660,
    "Ġprisoner": 8672,
    "Ġproperties": 3116,
    "Ġfable": 15574,
    "hunting": 24384,
    "Ġconvergence": 974,
    "incible": 16496,
    "Ġcapst": 8596,
    "Ġgam": 11621,
    "Ġsuited": 12783,
    "Ġpiteous": 17917,
    "calculation": 25688,
    "iveness": 2468,
    "Ġpredecessor": 26253,
    "connect": 1294,
    "Ġcry": 3494,
    "onness": 21253,
    "sails": 7497,
    "thou": 4708,
    "r": 86,
    "º": 123,
    "Ġinjunctions": 24268,
    "Ġvest": 8163,
    "ond": 1161,
    "each": 7335,
    "Ġbecalmed": 18086,
    "Ġstupendous": 20499,
    "Ġvanished": 6874,
    "deadly": 17099,
    "Ġorganically": 3009,
    "isle": 13890,
    "Ġfloor": 4377,
    "Ġamateur": 22483,
    "Ġpemberley": 4587,
    "so": 890,
    "Ġrigid": 16715,
    "Ġcuriosity": 2485,
    "garden": 15024,
    "Ġhis": 380,
    "Ġasse": 8160,
    "brew": 11471,
    "alth": 3254,
    "Ġvoracity": 25986,
    "Ġcombining": 22858,
    "Åĵuv": 15180,
    "hus": 5072,
    "Ġcompetent": 11813,
    "Ġchas": 18378,
    "Ġunable": 4951,
    "bbing": 6323,
    "cloud": 11104,
    "Ġlearnt": 7613,
    "Ġcool": 5734,
    "rative": 17651,
    "Ġtusk": 25425,
    "irmed": 9237,
    "parts": 14600,
    "mou": 10707,
    "Ġbo": 797,
    "Ġmoon": 4607,
    "ors": 855,
    "aston": 7408,
    "Ġconcise": 23321,
    "Ġwhom": 1833,
    "Ġmuscles": 12085,
    "wickham": 5884,
    "Ġshoal": 12012,
    "Ġbeard": 11653,
    "Ġenumer": 12741,
    "Ġsomehow": 4841,
    "Ġbook": 2701,
    "Ġmighty": 4230,
    "Ġri": 3391,
    "hands": 5967,
    "dÃ¦mon": 17526,
    "ellect": 7381,
    "Ġwint": 15531,
    "onged": 18411,
    "search": 8464,
    "Ġancles": 21445,
    "Ġwaldman": 11343,
    "Ġsurprise": 3829,
    "caroline": 24148,
    "Ġlowers": 23241,
    "Ġclut": 7641,
    "Ġsunken": 14492,
    "Ġplayfully": 19238,
    "Ġlashings": 25097,
    "violence": 16477,
    "tons": 7559,
    "zetts": 17713,
    "Ġrefreshed": 15288,
    "]]": 5205,
    "Ġriot": 14687,
    "Ġp": 289,
    "friend": 3865,
    "orate": 10799,
    "Ġjac": 1897,
    "Ġconsecut": 18111,
    "Ġscrape": 14916,
    "alogue": 25159,
    "remonstr": 23189,
    "Ġdisappearance": 9295,
    "alot": 15623,
    "kindness": 10504,
    "Ġbutterfly": 19909,
    "horrible": 14599,
    "Ġspecially": 11994,
    "Ġarrowy": 25469,
    "Ġvict": 3761,
    "Ġeliminating": 20618,
    "anatory": 21361,
    "merit": 19281,
    "ridden": 24361,
    "Î": 143,
    "Ġconstrain": 2632,
    "Ġdevoted": 6573,
    "Ġfloating": 6604,
    "Ġwait": 4907,
    "Ġgrimly": 17051,
    "Ġeddying": 16434,
    "rucastle": 22180,
    "Ġharmless": 9963,
    "cav": 17506,
    "ened": 1388,
    "return": 5489,
    "Ġregain": 22585,
    "Ġdeparted": 5563,
    "turkish": 24532,
    "adler": 21760,
    "Ġdynam": 3362,
    "unpardonable": 21888,
    "inspect": 11556,
    "drowned": 17367,
    "Ġwaterward": 23366,
    "Ġambergris": 8705,
    "back": 2016,
    "responsible": 25763,
    "downward": 16618,
    "ricade": 13035,
    "Ġsl": 1499,
    "Ġsally": 15501,
    "output": 4400,
    "affect": 13210,
    "Ġpleasurable": 23339,
    "isive": 10792,
    "Ġstammered": 26199,
    "Ġwel": 4526,
    "semble": 1527,
    "Ġshaggy": 13568,
    "veh": 12677,
    "Ġthanked": 9457,
    "Ġdisp": 3355,
    "snap": 24848,
    "Ġslighter": 18939,
    "gratitude": 16815,
    "Ġtimid": 6345,
    "ignified": 14489,
    "Ġsund": 8249,
    "Ġdispatched": 23878,
    "Ġslang": 23158,
    "ch": 321,
    "bly": 6110,
    "Ġenabling": 1076,
    "suff": 4961,
    "Ġgangs": 21607,
    "braid": 17493,
    "Ġbake": 21380,
    "dance": 17518,
    "Ġspasmod": 12410,
    "Ġtransformations": 3482,
    "aan": 20763,
    "staff": 21654,
    "Ġfreely": 7056,
    "apering": 8041,
    "Ġvainly": 9922,
    "Ġguards": 16268,
    "Ġporus": 24397,
    "Ġcalf": 16266,
    "Ġalliance": 18235,
    "Ġfergus": 16871,
    "axing": 18547,
    "Ġunhappiness": 14116,
    "Ġthroat": 7771,
    "Ġstables": 23653,
    "detective": 24382,
    "Ġecstasy": 11628,
    "m": 81,
    "Ġirreduc": 5491,
    "Ġawed": 23584,
    "Ġcontrived": 10302,
    "flutter": 23968,
    "Ġunrivalled": 26518,
    "Ġovertook": 18429,
    "opy": 4456,
    "Ġmagnifying": 16319,
    "Ġkingdom": 12015,
    "elab": 21568,
    "Ġwearing": 12735,
    "remem": 13063,
    "Ġfrederick": 15584,
    "Ġabsorbed": 12328,
    "Ġcus": 21341,
    "Ġvelvet": 12395,
    "Ġridiculous": 10627,
    "Ġcostume": 16494,
    "Ġneighbor": 25805,
    "Ġdens": 21423,
    "gaining": 20122,
    "melancholy": 12350,
    "attendants": 25495,
    "evidently": 20344,
    "Ġschedules": 3383,
    "Ġpanelled": 19653,
    "Ġeducated": 16784,
    "afternoon": 13185,
    "Ġ550": 19640,
    "Ġslavish": 23172,
    "etch": 9203,
    "Ġprocedures": 9410,
    "Ġref": 905,
    "comple": 7441,
    "springing": 24889,
    "Ġcomplet": 4421,
    "Ġvancou": 22872,
    "being": 3915,
    "unching": 18158,
    "Ġthousandth": 23682,
    "teous": 16169,
    "accomplishments": 25326,
    "instantly": 7506,
    "Ġperfume": 25665,
    "street": 6495,
    "Ġbrisk": 9801,
    "ascended": 24706,
    "hall": 8085,
    "Ġpry": 11597,
    "Ġgrave": 5100,
    "Ġnaturalists": 10361,
    "unworthy": 18161,
    "----âĢĿ": 13304,
    "Ġaspect": 3094,
    "Ġers": 15459,
    "jo": 3750,
    "lamp": 9607,
    "Ġdaylight": 10349,
    "Ġthre": 2058,
    "Ġdisastrous": 16058,
    "globe": 25142,
    "Ġinstructed": 19284,
    "69": 17473,
    "ident": 3376,
    "thodox": 21986,
    "Ġprojected": 16868,
    "mush": 20976,
    "umn": 5835,
    "cob": 10085,
    "Ġparaphrasing": 26525,
    "Ġpoetic": 17102,
    "Ġsub": 950,
    "onist": 21249,
    "Ġyounger": 5252,
    "Ġfresher": 23210,
    "Ġoccasion": 3244,
    "Ġfiled": 15577,
    "brous": 19197,
    "Ġpallor": 13514,
    "Ġfloated": 7288,
    "Ġtent": 15466,
    "Ġglac": 9344,
    "Ġresembling": 4098,
    "Ġfewer": 16222,
    "Ġreplacing": 3447,
    "tumbled": 21089,
    "Ġgentleness": 8709,
    "Ġado": 7626,
    "pitchpoling": 25725,
    "fever": 22499,
    "Ġsnatch": 14638,
    "ī": 236,
    "Ġcart": 11580,
    "Ġcoal": 18591,
    "Ġmonarch": 14410,
    "Ġarduous": 26528,
    "Ġlabyrin": 13102,
    "llable": 6879,
    "Ġtumbling": 13824,
    "trees": 10730,
    "Ġmur": 2491,
    "ibility": 2393,
    "leads": 21368,
    "ret": 1476,
    "Ġbounding": 19398,
    "Ġpassing": 4315,
    "Ġinventing": 24861,
    "Ġted": 13810,
    "Ġinspired": 2521,
    "Ġlanes": 19764,
    "Ġasks": 5115,
    "Ġrue": 11864,
    "Ġengineering": 3022,
    "Ġdoze": 14173,
    "Ġforth": 3460,
    "Ġcollege": 11422,
    "ignorance": 17160,
    "Ġsoft": 1458,
    "ĠĠĠĠĠĠĠĠĠĠĠĠĠĠĠĠĠĠĠĠĠĠĠ": 18831,
    "Ġalmighty": 18104,
    "Ġconflag": 20334,
    "Ġchilian": 25563,
    "Ġhebrew": 13986,
    "Ġbast": 21377,
    "Ġinert": 15619,
    "Ġadroit": 26000,
    "Ġplan": 3884,
    "Ġnets": 21522,
    "Ġaccumulating": 2722,
    "Ġweakness": 9965,
    "Ġskewer": 19619,
    "zors": 21146,
    "tol": 17671,
    "spirited": 19752,
    "Ġpott": 21467,
    "Ġidentity": 2526,
    "infidel": 24663,
    "Ġaffectionately": 13166,
    "Ġpantry": 20294,
    "Ġspray": 7895,
    "ung": 2746,
    "Ġ13": 6718,
    "Ġlower": 2663,
    "Ġtiger": 11552,
    "Ġweariness": 19793,
    "Ġmale": 9647,
    "etts": 12656,
    "cence": 9587,
    "Ġflowers": 8939,
    "Ġabhorrence": 9051,
    "Ġsatisfying": 23695,
    "escape": 16005,
    "shame": 16018,
    "Ġfinished": 5044,
    "Ġdisregarded": 22528,
    "Ġroots": 11183,
    "Ġsweetly": 23915,
    "lessness": 5317,
    "Ġwhistling": 19789,
    "jane": 4482,
    "Ġrem": 955,
    "Ġshrine": 19530,
    "dread": 8728,
    "Ġgale": 5822,
    "ignorantly": 25189,
    "Ġevid": 3498,
    "pretend": 24882,
    "prise": 7727,
    "Ġuncork": 23428,
    "Ġpoor": 1709,
    "Ġpremeditated": 22232,
    "Ġextra": 4056,
    "Ġpurring": 23475,
    "ittle": 812,
    "Ġarmitage": 23580,
    "pens": 17631,
    "Ġbacks": 8528,
    "Ġtables": 9876,
    "Ġprofited": 19190,
    "Ġcut": 2644,
    "etics": 21579,
    "Ġdivined": 19441,
    "tall": 17672,
    "Ġenchant": 7185,
    "istered": 14143,
    "lemag": 21370,
    "Ġshorter": 4498,
    "Ġwoodcock": 19162,
    "Ġclaim": 5106,
    "Ġescort": 23504,
    "observation": 17268,
    "speeches": 25239,
    "Ġmaking": 1779,
    "lp": 898,
    "Ġquart": 11784,
    "currents": 23841,
    "Ġdefe": 21833,
    "Ġintrepidity": 25550,
    "Ġlearns": 2645,
    "Ġopens": 23626,
    "Ġsuite": 18281,
    "Ġgeometric": 3217,
    "Ġvelv": 10618,
    "cool": 19186,
    "),": 1346,
    "Ġcheerfully": 12131,
    "Ġhelen": 16654,
    "Ġepisode": 26346,
    "Ġfro": 3469,
    "Ġdear": 1542,
    "separately": 25227,
    "onstrate": 17767,
    "Ġoutsk": 15954,
    "âĢ": 294,
    "society": 9970,
    "Ġaug": 6234,
    "ushing": 5730,
    "Ġpuffs": 14974,
    "iance": 5279,
    "frequently": 9977,
    "Ġstir": 5823,
    "scr": 16239,
    "occurred": 13335,
    "Ġroused": 7623,
    "Ġshoreless": 24294,
    "Ġprosper": 10228,
    "Ġlazarus": 15027,
    "ush": 3629,
    "Ġtra": 1385,
    "!âĢĶâĢĻ": 23564,
    "obscure": 23095,
    "Ġconsent": 5372,
    "transom": 19733,
    "kinder": 24845,
    "Ġdiversity": 25284,
    "unwillingness": 25802,
    "Ġuttering": 16461,
    "Ġclanking": 20610,
    "Ġacknowledgment": 16956,
    "pedest": 24695,
    "Ġfeminine": 15261,
    "Ġstanding": 2996,
    "numerous": 17429,
    "akers": 9738,
    "Ġbathe": 25443,
    "meditation": 19068,
    "Ġpleadings": 25852,
    "run": 10720,
    "ography": 13360,
    "Ġlearned": 2023,
    "walking": 9980,
    "join": 12110,
    "vo": 11537,
    "final": 19675,
    "Ġattacks": 12201,
    "Ġinconsiderable": 21493,
    "judging": 24200,
    "Ġfortunes": 12175,
    "Ġcaval": 25769,
    "Ġminimum": 23040,
    "Ġsubsided": 14549,
    "aside": 10190,
    "elder": 21570,
    "justified": 19002,
    "post": 6062,
    "Ġpract": 1866,
    "ladyship": 14827,
    "Ġstraightened": 12105,
    "Ġcompetition": 14265,
    "Ġkicked": 10580,
    "gn": 8082,
    "Ġnerve": 16338,
    "atre": 17769,
    "taught": 17683,
    "Ġequator": 7461,
    "Ġinside": 5448,
    "Ġprofounder": 23568,
    "Ġdream": 3535,
    "Ġburnwell": 13266,
    "Ġty": 6657,
    "warmly": 25026,
    "bulkington": 19924,
    "Ġmermaids": 26170,
    "Ġfeeds": 16432,
    "Ġundergone": 18984,
    "cop": 20800,
    "Ġwhites": 21715,
    "begin": 8882,
    "Ġjohnson": 18409,
    "phur": 16144,
    "iluvian": 18060,
    "Ġparade": 18301,
    "Ġpin": 7161,
    "rossing": 18647,
    "Ġservant": 5764,
    "ried": 925,
    "Ġdegenerated": 20504,
    "oblivious": 26581,
    "oning": 7572,
    "darker": 24512,
    "Ġplaying": 6909,
    "Ġhypothesis": 14780,
    "topp": 22563,
    "Ġoverwhelm": 25052,
    "ribe": 1222,
    "Ġlingu": 11611,
    "Ġsocks": 14130,
    "grounds": 11149,
    "is": 280,
    "underneath": 23786,
    "lyph": 10850,
    "both": 5785,
    "Ġtobacco": 8367,
    "Ġdoubtfully": 23477,
    "Ġobe": 5800,
    "Ġstubbs": 23294,
    "Ġfound": 1244,
    "Ġsprinkled": 19495,
    "Ġmurky": 19200,
    "erde": 21267,
    "anxiously": 15108,
    "ĠĠĠĠĠĠĠĠĠĠĠĠĠĠĠĠĠĠĠĠĠĠĠĠĠĠĠĠĠĠĠĠĠĠĠĠĠĠĠĠĠĠĠĠĠĠ": 9951,
    "rants": 13776,
    "Ġwaning": 15532,
    "aste": 4600,
    "Ġconstraints": 2740,
    "Ġrelatives": 12977,
    "Ġpracticable": 19058,
    "Ġdismal": 11807,
    "Ġreus": 8820,
    "bearance": 22493,
    "Ġweeds": 21921,
    "Ġgour": 21596,
    "Ġcherub": 23285,
    "afford": 14653,
    "Ġpaved": 17912,
    "Ġgoverned": 23570,
    "Ġemm": 18002,
    "achalot": 15860,
    "Ġuncles": 23429,
    "Ġsable": 15499,
    "stories": 18023,
    "Ġsimulation": 2752,
    "Ġmother": 2068,
    "ances": 1336,
    "ext": 930,
    "advise": 24216,
    "Ġoverhung": 15973,
    "Ġtreated": 7080,
    "Ġsoaring": 22075,
    "Ġprovinces": 24189,
    "Ġpossibly": 4513,
    "Ġtahitian": 25427,
    "Ġ84": 19708,
    "Ġviii": 16412,
    "Ġlistener": 16474,
    "Ġpurch": 6599,
    "Ġ20": 8613,
    "Ġfile": 13901,
    "Ġrecesses": 17259,
    "Ġhan": 15615,
    "borean": 25743,
    "Ġferocity": 16870,
    "oration": 2209,
    "fishing": 20858,
    "imens": 1746,
    "Ġob": 861,
    "books": 8663,
    "difference": 13706,
    "Ġsilent": 3408,
    "Ġexpedite": 24953,
    "idually": 21767,
    "Ġsubject": 2465,
    "Ġweal": 21917,
    "Ġawaited": 17073,
    "embarr": 15794,
    "Ġaffidav": 18788,
    "Ó": 148,
    "Ġbread": 5404,
    "Ġimport": 1034,
    "Ġcontemptuously": 19832,
    "Ġsou": 1886,
    "kee": 18273,
    "Ġnich": 21518,
    "Ġfifth": 11255,
    "Ġdiabolism": 25514,
    "Ġaffecting": 2321,
    "william": 4561,
    "asable": 21539,
    "Ġtre": 2538,
    "probability": 17021,
    "Ġsteadfastly": 10650,
    "Ġperilously": 24503,
    "accepted": 20135,
    "Ġcalling": 5662,
    "Ġcomplaints": 12261,
    "Ġtasted": 12525,
    "Ġnorth": 4319,
    "indifference": 15980,
    "Ġsports": 18310,
    "Ġreposing": 23360,
    "Ġlevi": 3030,
    "Ġris": 4886,
    "ago": 14063,
    "opard": 9289,
    "gradient": 2273,
    "Ġlabour": 7274,
    "zeal": 16259,
    "olog": 1096,
    "iam": 2511,
    "que": 1134,
    "Ġwealthy": 18178,
    "Ġgodfre": 14528,
    "pemberley": 9619,
    "Ġshel": 6847,
    "Ġapproving": 18505,
    "Ġsubdiv": 16157,
    "Ġfloat": 12029,
    "eray": 21265,
    "neurons": 3132,
    "Ġpleasantly": 14519,
    "Ġtoma": 7373,
    "zor": 15457,
    "Ġcloudless": 16667,
    "quohog": 21856,
    "listener": 24930,
    "his": 1410,
    "Ġrolled": 4428,
    "Ġmuchness": 18708,
    "Ġcat": 2122,
    "persons": 24173,
    "Ġchivalrous": 20513,
    "mother": 5480,
    "strike": 14947,
    "Ġalleghan": 25795,
    "christ": 10209,
    "Ġstash": 18067,
    "Ġ135": 24785,
    "salis": 25147,
    "Ġhelp": 1635,
    "Ġseverely": 14931,
    "ospit": 22261,
    "?âĢĶ": 3466,
    "Ġwick": 2004,
    "Ġrenounce": 19466,
    "Ġforbearance": 12325,
    "effect": 8603,
    "Ġsusp": 2664,
    "ogy": 22708,
    "Ġrepresenting": 4062,
    "Ġprimary": 25060,
    "Ġbegged": 8231,
    "Ġsaturation": 2061,
    "thanking": 24329,
    "Ġdiscours": 18718,
    "alo": 7587,
    "late": 11496,
    "duty": 20238,
    "wit": 7818,
    "Ġdeaths": 14536,
    "Ġ116": 24439,
    "Ġmaria": 7124,
    "Ġquicker": 16506,
    "Ġderivative": 2997,
    "familiar": 19782,
    "embow": 21927,
    "Ġslay": 16305,
    "Ġplough": 18608,
    "Ġdinners": 23979,
    "asant": 17958,
    "instruct": 19541,
    "Ġpurp": 2396,
    "heric": 15909,
    "Ġtry": 3131,
    "Ġoverwhelmed": 11401,
    "Ġaloft": 4303,
    "appalled": 18760,
    "Ġgriefs": 16770,
    "Ġtimely": 19593,
    "Ġunf": 4090,
    "theories": 18078,
    "coward": 13698,
    "bal": 2157,
    "Ġclenched": 14202,
    "foundered": 20866,
    "Ġwestern": 10653,
    "Ġhard": 1441,
    "ĩ": 234,
    "Ġunob": 22013,
    "land": 1533,
    "liking": 22922,
    "ode": 1453,
    "Ğ": 223,
    "Ġjuicy": 25370,
    "Ġmorris": 18842,
    "warks": 5004,
    "Ġ54": 24321,
    "Ġchemical": 10409,
    "-": 17,
    "Ġflashed": 11910,
    "americ": 8156,
    "rederick": 14077,
    "destroy": 19509,
    "Ġrifts": 21976,
    "dead": 8180,
    ".}": 20744,
    "Ġneighbours": 8303,
    "because": 4923,
    "aloes": 21500,
    "Ġchast": 18379,
    "country": 6103,
    "Ġapologize": 15126,
    "Ġrecommendation": 17024,
    "owner": 18610,
    "Ġfigures": 8629,
    "Ġhardships": 14449,
    "Ġperilous": 7769,
    "performed": 18345,
    "Ġalready": 2712,
    "through": 4025,
    "last": 3803,
    "Ġglit": 8558,
    "Ġwhar": 7388,
    "drop": 15335,
    "Ġreser": 5170,
    "Ġdefilements": 26284,
    "Ġvibration": 17098,
    "Ġshaster": 21996,
    "prodig": 16425,
    "oubled": 23644,
    "Ġjagged": 18407,
    "reflected": 24733,
    "Ġsulk": 15044,
    "Ġadvis": 9805,
    "itions": 4149,
    "Ġelbows": 18635,
    "Ġfastidious": 14491,
    "Į": 239,
    "Ġendeared": 26497,
    "ipotent": 10958,
    "akeman": 6267,
    "Ġhaught": 10251,
    "Ġartic": 5314,
    "Ġbachelors": 24860,
    "Ġprotested": 9932,
    "dared": 13700,
    "whisper": 17082,
    "itying": 21992,
    "walton": 20248,
    "Ġenlar": 15798,
    "ively": 1282,
    "repid": 11562,
    "Ġtendency": 11327,
    "enter": 7858,
    "Ġmaxim": 3083,
    "Ġtraged": 9350,
    "between": 5071,
    "Ġrallied": 14094,
    "Ġboone": 11837,
    "Ġanchor": 7368,
    "Ġdocumentation": 20553,
    "iod": 3842,
    "Ġracket": 22648,
    "written": 7995,
    "commence": 19990,
    "abri": 6682,
    "Ġlaudanum": 20689,
    "Ġhousings": 21491,
    "13": 20749,
    "Ġhazarded": 25654,
    "Ġbanners": 24858,
    "Ġunsavory": 20706,
    "Ġobedient": 20103,
    "Ġconfidential": 9086,
    "Ġprendergast": 26536,
    "Ġexample": 5096,
    "Ġpie": 13913,
    "oda": 15746,
    "Ġthrusting": 10551,
    "Ġeleven": 9388,
    "mic": 12485,
    "watery": 19825,
    "Ġloosened": 26002,
    "Ġlimbs": 5966,
    "learning": 2356,
    "Ġsocietal": 11434,
    "shott": 11791,
    "Ġwandered": 6930,
    "Ġbeggar": 9347,
    "Ġpsal": 15613,
    "Ġgenerations": 10962,
    "Ġmines": 21307,
    "Ġroaring": 10966,
    "Ġpoliceman": 15256,
    "Ġforbade": 15212,
    "hitherto": 17282,
    "Ġblows": 5973,
    "imely": 13996,
    "Ġgoverness": 8601,
    "mag": 6508,
    "Ġsearched": 15817,
    "Ġawa": 7714,
    "Ġtheoretically": 3563,
    "considerable": 10547,
    "Ġfluffy": 19362,
    "Ġgrievous": 13257,
    "cripp": 20818,
    "Ġcheapside": 23286,
    "Ġloveliness": 13606,
    "coronet": 16862,
    "Ġtrad": 9826,
    "Ġunhallowed": 17179,
    "Ġdece": 6996,
    "keeper": 5596,
    "elsewhere": 19867,
    "Ġprofane": 13150,
    "Ġinsensible": 12322,
    "intments": 18820,
    "Ġprovoke": 14824,
    "Ġcommander": 8624,
    "Ġancest": 12610,
    "Ġimpact": 10295,
    "least": 8783,
    "excepting": 19705,
    "Ġvigil": 9505,
    "Ġinflu": 4909,
    "Ġbodings": 21389,
    "Ġmaker": 15540,
    "piece": 6655,
    "Ġcho": 4546,
    "Ġblandly": 20322,
    "Ġ1000": 3115,
    "Ġbehoo": 19034,
    "Ġboards": 14298,
    "Ġrejecting": 17050,
    "Ġjump": 4503,
    "hospit": 25903,
    "inking": 6709,
    "chop": 21686,
    "insufferable": 21191,
    "aviour": 11002,
    "Ġperishing": 22396,
    "Ġgiver": 21603,
    "indirect": 22370,
    "the": 334,
    "values": 4973,
    "heim": 17745,
    "Ġwreath": 25936,
    "Ġdoubloons": 13432,
    "Ġincludes": 2010,
    "Ġfiery": 6871,
    "Ġpleasanter": 19067,
    "Ġhairs": 13228,
    "smile": 23902,
    "Ġcousins": 9913,
    "ivity": 1699,
    "Ġlevels": 12694,
    "Ġestab": 6315,
    "treatment": 20410,
    "Ġferoc": 14900,
    "Ġruns": 8595,
    "Ġpalpitated": 26085,
    "Ġdefect": 8554,
    "engineer": 23145,
    "strongly": 24684,
    "min": 4570,
    "Ġhab": 4218,
    "longer": 8612,
    "Ġafar": 14290,
    "reat": 619,
    "alescence": 15922,
    "Ġchestnut": 19671,
    "Ġalso": 1343,
    "Ġstationary": 19693,
    "Ġphyset": 23201,
    "valu": 1705,
    "circumstances": 8047,
    "Ġcomparatively": 9488,
    "Ġflapp": 23006,
    "Ġforbidden": 17077,
    "ectual": 21913,
    "Ġshetland": 22157,
    "Ġworlds": 11944,
    "Ġhand": 859,
    "Ġmach": 13855,
    "Ġrider": 24184,
    "Ġgas": 8133,
    "Ġtallow": 14776,
    "Ġstroll": 13350,
    "Ġalterations": 19870,
    "standing": 5557,
    "expectant": 24274,
    "non": 9610,
    "glancing": 11212,
    "fitting": 1513,
    "Ġopposition": 16519,
    "Ġinhuman": 13927,
    "Ġspar": 10919,
    "Ġascertain": 9704,
    "Ġslapped": 23170,
    "warning": 25531,
    "Ġcommun": 1704,
    "Ġnought": 21520,
    "s": 87,
    "cing": 1014,
    "separated": 20158,
    "ty": 1002,
    "Ġcompanions": 5865,
    "Ġsnugly": 17110,
    "ulsive": 10232,
    "Ġglanced": 5952,
    "Ġmiles": 3804,
    "methodically": 20663,
    "drawn": 9911,
    "Ġinform": 998,
    "Ġdead": 2171,
    "ountain": 2915,
    "stupid": 12672,
    "unning": 4493,
    "Ġstrengthen": 20699,
    "Ġharem": 9707,
    "unt": 2043,
    "create": 24158,
    "Ġallured": 14111,
    "Ġbewildered": 15211,
    "belated": 24037,
    "Ġgliding": 8559,
    "Ġguise": 14430,
    "Ġparr": 22117,
    "Ġungod": 22022,
    "Ġcontradict": 12382,
    "zas": 17711,
    "Ġintelligence": 562,
    "Ġpatient": 6894,
    "Ġperil": 5556,
    "Ġquestion": 2776,
    "passenger": 24165,
    "bub": 15314,
    "Ġinconvenient": 20008,
    "mbly": 9793,
    "Ġcards": 7580,
    "Ġclutches": 20016,
    "Ġchuckled": 10646,
    "pennies": 26285,
    "you": 1006,
    "queg": 1769,
    "Ġshot": 4543,
    "Ġulster": 14996,
    "impul": 16554,
    "Ġimmeasurable": 26229,
    "Ġfalsehood": 10522,
    "Ġdifference": 1491,
    "Ġvolat": 24143,
    "Ġross": 2764,
    "Ġpovels": 22590,
    "open": 7025,
    "Ġvon": 14079,
    "etween": 777,
    "Ġmapp": 2082,
    "Ġquito": 24407,
    "Ġque": 4160,
    "Ġ>": 21150,
    "Ġentertaining": 16925,
    "Ġslashing": 23169,
    "Ġbru": 13893,
    "Ġthoughtfulness": 18771,
    "Ġstarboard": 7604,
    "mists": 17604,
    "Ġdownstream": 3774,
    "uits": 21103,
    "Ġcould": 704,
    "smug": 23904,
    "Ġcrosses": 23060,
    "Ġfretfulness": 25448,
    "ĸ": 249,
    "one": 615,
    "osures": 22259,
    "screwed": 17186,
    "capital": 15086,
    "Ġtransom": 22436,
    "somewhere": 12009,
    "j": 78,
    "weep": 22682,
    "Ġdeformity": 11674,
    "asily": 13944,
    "Ġsofas": 26223,
    "ak": 539,
    "Ġgemin": 21608,
    "Ġability": 2763,
    "Ġfath": 7364,
    "ang": 446,
    "Ġgaieties": 24194,
    "Ġlurking": 11287,
    "avating": 18605,
    "Ġif": 699,
    "Ġhospital": 15038,
    "Ġbreathes": 13243,
    "Ġflashes": 11912,
    "Ġheedfulness": 24521,
    "Ġabund": 8863,
    "Ġbumpkins": 25281,
    "Ġoutward": 7905,
    "Ġcate": 4110,
    "quimaux": 21857,
    "fancy": 7337,
    "elect": 20845,
    "cats": 17511,
    "Ġsorrowful": 10535,
    "playing": 19656,
    "deserted": 18958,
    "Ġnods": 19064,
    "Ġthickly": 12112,
    "Ġhunsford": 6301,
    "Ġdespatched": 23826,
    "Ġbelieved": 4367,
    "Ġreduce": 7943,
    "Ġrele": 2914,
    "ander": 6401,
    "speps": 14334,
    "strils": 10457,
    "oned": 4629,
    "supplement": 14795,
    "Ġjabez": 11763,
    "cks": 3078,
    "cturn": 17986,
    "om": 315,
    "measure": 10029,
    "reck": 9635,
    "Ġinexpressible": 17331,
    "exclaimed": 11787,
    "either": 6791,
    "Ġcurrents": 13012,
    "shorn": 22445,
    "Ġpeaceful": 9454,
    "Ġ2": 2925,
    "Ġaccidentally": 9503,
    "omn": 15679,
    "Ġtantalizing": 20412,
    "Ġpreserved": 9260,
    "Ġirregularity": 25324,
    "Ġtex": 15471,
    "Ġrecital": 16139,
    "Ġcarpenters": 16751,
    "Ġmont": 8557,
    "rees": 5436,
    "Ġproud": 5654,
    "Ġcetology": 10007,
    "ister": 1296,
    "Ġredoubled": 23751,
    "roofed": 26183,
    "condition": 7059,
    "Ġunabated": 15850,
    "city": 15325,
    "Ġdefinite": 11067,
    "Ġscript": 18399,
    "proceeding": 20140,
    "prejudiced": 17295,
    "Ġkindliness": 23292,
    "Ġcircumnavigating": 25614,
    "urbed": 15706,
    "Ġaust": 4871,
    "istol": 6259,
    "Ġaugment": 8691,
    "keys": 15856,
    "these": 3240,
    "Ġdinner": 4244,
    "Ġsatir": 18793,
    "sweetly": 25134,
    "matic": 4617,
    "Ġmonitors": 3155,
    "Ġharp": 17923,
    "Ġshaking": 6551,
    "dig": 4929,
    "Ġbel": 1214,
    "raction": 8138,
    "Ġhaven": 8473,
    "Ġeasier": 11163,
    "Ġpurpose": 2708,
    "Ġprejud": 6851,
    "ition": 653,
    "Ġnatives": 17950,
    "iz": 365,
    "treat": 12510,
    "total": 17249,
    "abhor": 12703,
    "cst": 10083,
    "ead": 2600,
    "Ġanimals": 8977,
    "Ġright": 1508,
    "Ġexpost": 18624,
    "Ġjolly": 6858,
    "Ġmovements": 24358,
    "Ġstranger": 3483,
    "grampus": 18617,
    "Ġsacrilege": 26228,
    "orts": 2557,
    "Ġsays": 3558,
    "Ġincreas": 1692,
    "ourse": 8868,
    "Ġpreparing": 8647,
    "abst": 21786,
    "Ġcathed": 14547,
    "asted": 4648,
    "Ġladen": 19176,
    "gardiner": 12288,
    "och": 21000,
    "bantering": 25253,
    "Ġfuss": 13903,
    "Ġcove": 22578,
    "rever": 21234,
    "ques": 2840,
    "Ġmuffled": 10639,
    "Ġcascade": 20579,
    "bohem": 19001,
    "Ġcontemplation": 11355,
    "Ġcook": 3710,
    "Ġspas": 10920,
    "fen": 20849,
    "Ġtidy": 17092,
    "Ġrabb": 4164,
    "Ġtroub": 22354,
    "Ġcorporeal": 17358,
    "arboard": 7266,
    "Ġegyptians": 25289,
    "Ġforehead": 5261,
    "Ġdol": 9663,
    "Ġexam": 3709,
    "hardly": 6491,
    "exam": 10974,
    "ged": 1515,
    "Ġconfid": 7687,
    "ald": 15622,
    "Ġcentre": 5122,
    "abling": 1075,
    "necessarily": 19630,
    "red": 396,
    "Ġuncle": 3192,
    "anel": 21355,
    "Ġbushes": 16399,
    "Ġinterested": 6458,
    "neglected": 25669,
    "fooled": 24418,
    "Ġalarming": 14778,
    "bl": 4143,
    "Ġcovariate": 2347,
    "Ġmotives": 7486,
    "daughters": 13464,
    "Ġply": 21452,
    "creatures": 7517,
    "ui": 9143,
    "Ġfighting": 12194,
    "Ġstupidity": 15048,
    "cused": 15330,
    "Ġblast": 7445,
    "mis": 4520,
    "passing": 14810,
    "thirds": 25046,
    "Ġbount": 15565,
    "Ġspleen": 26420,
    "ater": 3367,
    "Ġpractises": 23327,
    "endless": 22224,
    "Ġbeware": 8826,
    "Ġnarrow": 5086,
    "single": 10125,
    "anite": 17837,
    "Ġwise": 6811,
    "ignation": 11126,
    "Ġserved": 8246,
    "bolts": 11418,
    "fashioned": 9569,
    "Ġsnarl": 25715,
    "Ġinitialized": 3951,
    "Ġpublisher": 24065,
    "Ġinst": 913,
    "Ġix": 12664,
    "Ġpropri": 6738,
    "Ġfollowing": 4064,
    "ĠâĢľ": 516,
    "Ġdisordered": 16053,
    "bow": 5424,
    "Ġkirwin": 8496,
    "Ġbreakfast": 3978,
    "Ġinvestig": 10548,
    "Ġamongst": 8958,
    "unaccountable": 15776,
    "Ġprudential": 17919,
    "lotte": 3328,
    "Ġuninter": 18246,
    "Ġearth": 2849,
    "Ġsoo": 15857,
    "Ġishmael": 7395,
    "ports": 13772,
    "Ġvibrating": 13536,
    "fortun": 3536,
    "irresist": 21910,
    "Ġpertaining": 18451,
    "col": 3101,
    "Ġcurious": 3357,
    "Ġimprisonment": 22385,
    "Ġastonishment": 4793,
    "Ġdaybreak": 18726,
    "expose": 23663,
    "Ġcomply": 8889,
    "sam": 21050,
    "Ġspir": 2431,
    "Ġsuns": 23272,
    "proachable": 23396,
    "Ġscents": 22285,
    "Ġfortune": 4240,
    "Ġpencil": 11940,
    "Ġdenied": 8999,
    "Ġmuhammad": 26169,
    "Ġlikelihood": 16499,
    "Ġmarry": 4416,
    "Ġscimet": 22291,
    "different": 6501,
    "Ġdiv": 3730,
    "bre": 3981,
    "Ġmastery": 23990,
    "Ġboldness": 24427,
    "Ġchar": 1702,
    "Ġfishy": 16522,
    "Ġapprehens": 5682,
    "Ġegress": 21619,
    "terday": 4704,
    "rods": 21536,
    "Ġgroping": 13663,
    "Ġprosperity": 20257,
    "Ġtreats": 19342,
    "Ġmultiplicity": 19275,
    "Ġquarters": 8619,
    "Ġslee": 8973,
    "skinned": 25387,
    "Ġcul": 17822,
    "another": 5439,
    "hidden": 17369,
    "Ġpersuas": 23944,
    "Ġrestrained": 16371,
    "ostentatious": 20651,
    "Ġdarkness": 4278,
    "typewritten": 26038,
    "Ġsubtlety": 24780,
    "Ġunmolested": 15243,
    "Ġprinciple": 6770,
    "mouse": 15390,
    "Ġsold": 6003,
    "Ġ92": 24591,
    "Ġredeemed": 25789,
    "Ġdebts": 8036,
    "Ġvineyarder": 25606,
    "observing": 25494,
    "Ġapparel": 20434,
    "otion": 4946,
    "Ġstreaming": 19672,
    "Ġbushy": 16400,
    "Ġheal": 21679,
    "Ġsinful": 18948,
    "\"]": 17469,
    "Ġgrope": 17994,
    "Ġsucceed": 4544,
    "exasper": 22425,
    "protruding": 24816,
    "governed": 25405,
    "Ġpant": 10816,
    "tures": 21068,
    "Ġequin": 14494,
    "Ġlatitudes": 9494,
    "vacancies": 25919,
    "Ġrubbed": 12951,
    "Ġbus": 1903,
    "Ġgrasshopper": 24379,
    "tu": 12508,
    "Ġconsented": 11293,
    "Ġbelt": 12999,
    "fur": 6355,
    "Ġclients": 19730,
    "Ġwhit": 7177,
    "cannibals": 25584,
    "nt": 922,
    "Ġcaptain": 1600,
    "Ġglue": 15671,
    "Ġtypewriter": 19097,
    "weigh": 18665,
    "erne": 21268,
    "regularly": 13206,
    "looks": 12014,
    "Ġbend": 9169,
    "orney": 17873,
    "Ġdagger": 21436,
    "Ġhero": 5715,
    "<SOS>": 1,
    "volutions": 16321,
    "Ġmoving": 1675,
    "Ġpall": 7582,
    "Ġsatisfy": 6912,
    "anesc": 21358,
    "Ġdrug": 11408,
    "Ġignited": 25069,
    "_:": 17477,
    "man": 1054,
    "Ġsepar": 4001,
    "ceived": 1963,
    "tasted": 17686,
    "Ġdiver": 2532,
    "Ġconsider": 2569,
    "Ġfashion": 4298,
    "Ġwaterproof": 19088,
    "Ġalive": 4397,
    "vand": 21107,
    "Ġinvested": 7279,
    "Ġeavesdroppers": 25963,
    "quite": 4645,
    "iag": 20915,
    "ational": 5716,
    "Ġdense": 8123,
    "Ġdolph": 12377,
    "Ġfurniture": 6476,
    "Ġtangled": 13825,
    "presum": 12864,
    "Ġpest": 13911,
    "Ġaccumul": 1409,
    "Ġprodigiously": 14930,
    "ented": 4348,
    "wretchedness": 17251,
    "Ġghostliness": 24651,
    "winds": 10520,
    "Ġbashful": 20418,
    "swiftly": 20550,
    "iquette": 26132,
    "omically": 13974,
    "Ġwol": 15528,
    "Ġrightly": 13061,
    "Ġsho": 2245,
    "Ġjour": 11761,
    "Ġchronic": 9927,
    "Ġgreatly": 5849,
    "Ġauto": 23307,
    "Ġlaw": 3653,
    "Ġspoken": 4836,
    "animated": 14973,
    "Ġthousand": 2780,
    "Ġappare": 12815,
    "gentlemen": 9502,
    "feet": 6568,
    "Ġscenery": 11454,
    "Ġsprained": 15881,
    "Ġmonuments": 22975,
    "Ġfull": 2179,
    "Ġcombined": 8548,
    "Ġtestified": 16313,
    "Ġab": 528,
    "Ġmonica": 22976,
    "Ġluggage": 25957,
    "Ġassur": 6074,
    "Ġomit": 17815,
    "Ġdescend": 7427,
    "Ġuncomp": 15839,
    "ial": 409,
    "Ġmitt": 21306,
    "threat": 10898,
    "ither": 1549,
    "boast": 23252,
    "Ġwhereupon": 14292,
    "Ġcurds": 22980,
    "Ġsleep": 2403,
    "impenetrable": 26196,
    "Ġenlist": 21935,
    "Ġfoster": 18990,
    "recklessly": 25269,
    "cceed": 4144,
    "unavoidable": 17388,
    "Ġshort": 2226,
    "Ġreplaced": 13069,
    "Ġalbino": 20501,
    "Ġslope": 14459,
    "Ġbawling": 25945,
    "Ġmuttering": 10498,
    "ink": 754,
    "Ġrange": 9710,
    "Ġbent": 5149,
    "quarried": 24945,
    "swinging": 25912,
    "malicious": 19901,
    "Ġquarrelling": 13497,
    "Ġcontained": 7679,
    "musket": 25341,
    "guard": 12125,
    "cup": 10689,
    "Ġsubdued": 11028,
    "Ġspr": 4026,
    "Ġdomineer": 23659,
    "sou": 12502,
    "atically": 2743,
    "Ġexh": 5231,
    "Ġhate": 5445,
    "Ġfo": 1647,
    "Ġhath": 12624,
    "Ġjune": 10287,
    "Ġfrance": 7682,
    "torn": 17681,
    "Ġsliding": 9362,
    "fort": 1749,
    "Ġanswered": 2850,
    "Ġintelligences": 12827,
    "Ġnash": 5819,
    "Ġvicissitudes": 12415,
    "dling": 9110,
    "Ġexpand": 9305,
    "Ġchronicled": 25328,
    "posterity": 25488,
    "?_âĢĿ": 12313,
    "Ġglobules": 26587,
    "keep": 3853,
    "Ġ35": 24076,
    "Ġwithdra": 6398,
    "Ġpensive": 21474,
    "Ġsy": 488,
    "Ġprophe": 13076,
    "acetti": 13394,
    "Ġwan": 15526,
    "Ġpanic": 11284,
    "geor": 15976,
    "Ġbowsprit": 16558,
    "Ġconvict": 23742,
    "rossed": 11011,
    "Ġbowl": 11202,
    "shuff": 18484,
    "Ġvoyager": 16511,
    "Ġcapting": 23020,
    "Ġtarshish": 12025,
    "Ġincoherent": 17398,
    "Ġjiff": 22294,
    "Ġplanning": 14750,
    "Ġamong": 1663,
    "verted": 10216,
    "Ġenclosure": 20622,
    "Ġbob": 22634,
    "Ġaccompl": 5167,
    "Ġlocker": 16910,
    "Ġpersonages": 23538,
    "Ġpurest": 14937,
    "Ġquee": 1979,
    "wrapped": 15207,
    "Ġremarks": 7474,
    "Ġassaults": 15154,
    "zening": 21147,
    "thread": 15824,
    "Ġscold": 10948,
    "contr": 12054,
    "Ġlazy": 17049,
    "Ġheading": 8934,
    "inhab": 10756,
    "fanc": 20863,
    "Ġstockings": 19995,
    "Ġinvolved": 8921,
    "Ġelemental": 19918,
    "Ġdiscoverers": 26036,
    "gabriel": 15358,
    "Ġ131": 24782,
    "Ġapplications": 4782,
    "Ġhelmet": 19686,
    "tied": 21069,
    "thence": 23398,
    "py": 17623,
    "Ġincites": 22549,
    "Ġtolerable": 6949,
    "em": 389,
    "Ġinduce": 7763,
    "Ġmich": 21304,
    "Ġclapping": 14201,
    "Ġcompan": 2174,
    "whence": 23216,
    "fer": 1914,
    "Ġbended": 21383,
    "bation": 9101,
    "Ġherself": 1567,
    "divers": 15340,
    "Ġdesperation": 19817,
    "Ġunwound": 25169,
    "orand": 21395,
    "patched": 17642,
    "sensibility": 25023,
    "Ġarticles": 7108,
    "Ġtiar": 21166,
    "Ġrejection": 19982,
    "Ġisa": 14023,
    "Ġcontemporary": 16010,
    "Ġtranslations": 12049,
    "ulation": 5458,
    "ider": 21763,
    "Ġintroducing": 11972,
    "._)": 10479,
    "Ġlimping": 23543,
    "Ġvacancies": 24344,
    "Ġtoilette": 20491,
    "emic": 18179,
    "dep": 6786,
    "light": 3014,
    "wants": 21129,
    "Ġcomfort": 3436,
    "cont": 2917,
    "blue": 13691,
    "prehend": 14241,
    "ious": 770,
    "Ġgorge": 13564,
    "Ġinvective": 26181,
    "range": 3492,
    "Ġrav": 14302,
    "Ġwaifing": 25243,
    "expressing": 16800,
    "st": 316,
    "Ġtax": 13814,
    "Ġdiagon": 24740,
    "Ġconjure": 17122,
    "Ġunmingled": 18263,
    "Ġdisengaged": 12885,
    "----âĢĻ": 24096,
    "Ġsummers": 23870,
    "Ġripples": 25505,
    "Ġaccord": 4027,
    "Ġcrowned": 16840,
    "spent": 12939,
    "athy": 14321,
    "Ġfurs": 18738,
    "minds": 24231,
    "oriented": 2945,
    "inguish": 9395,
    "Ġmary": 3846,
    "Ġfamine": 16326,
    "Ġbankers": 24301,
    "Ġexponentially": 1442,
    "shop": 14235,
    "sip": 10724,
    "Ġhomage": 12352,
    "Ġcountry": 2534,
    "Ġtro": 7356,
    "Ġvigour": 24461,
    "conve": 14242,
    "Ġprynne": 25540,
    "Ġouthouse": 22312,
    "touched": 15438,
    "Ġclothe": 4711,
    "Ġpolluted": 25593,
    "Ġstead": 5650,
    "Ġhark": 8428,
    "Ġtoss": 10183,
    "retirement": 23135,
    "ggling": 19096,
    "Ġcasement": 25092,
    "Ġcared": 8781,
    "shattered": 22447,
    "Ġrather": 1496,
    "Ġhomeward": 9390,
    "Ġphysiognomically": 25612,
    "Ġwardrobe": 17224,
    "Ġinjunction": 19616,
    "Ġfar": 1449,
    "Ġpretended": 19313,
    "crow": 9589,
    "Ġexclude": 19043,
    "Ġbarbara": 24818,
    "cure": 11472,
    "mankind": 14372,
    "Ġjoy": 3184,
    "Ġemaciated": 20637,
    "examine": 25477,
    "Ġbound": 3516,
    "Ġsmoking": 6429,
    "Ġoblige": 10487,
    "Ġopened": 3510,
    "Ġern": 8397,
    "Ġfootfall": 14660,
    "Ġobserv": 8586,
    "Ġcountless": 16382,
    "type": 16174,
    "Ġsaturday": 6452,
    "Ġornamented": 20360,
    "Ġforeshad": 23451,
    "Ġwithheld": 18114,
    "utes": 5914,
    "Ġprophesy": 26061,
    "Ġhorrid": 7999,
    "Ġobjections": 8564,
    "lass": 5993,
    "presbyter": 20616,
    "Ġbrad": 8785,
    "convolutional": 4958,
    "Ġscott": 22284,
    "Ġprocesses": 3631,
    "Ġbulky": 13226,
    "quakes": 21854,
    "Ġslabs": 13057,
    "Ġobsc": 7039,
    "marked": 9047,
    "Ġcomprehending": 24444,
    "Ġscheduling": 2346,
    "Ġgently": 7171,
    "restored": 18977,
    "Ġblossom": 26312,
    "Ġcottagers": 6761,
    "Ġthrilling": 19747,
    "ender": 9159,
    "Ġunfitted": 24108,
    "gled": 10698,
    "ituted": 13871,
    "anks": 3919,
    "Ġfactor": 19011,
    "Ġdella": 21438,
    "Ġprognostics": 20557,
    "Ġdynamic": 5124,
    "Ġevangelical": 25506,
    "suggest": 20374,
    "Ġtort": 5902,
    "arking": 16123,
    "Ġdist": 681,
    "Ġdisreputable": 22532,
    "Ġterrible": 5327,
    "e": 73,
    "Ġtakings": 20571,
    "Ġhatchet": 16528,
    "Ġtemperate": 16160,
    "Ġcraft": 4375,
    "shudder": 26245,
    "Ġabundantly": 17155,
    "Ġfireside": 23529,
    "Ġreckoning": 14977,
    "Ġforgery": 25977,
    "ishing": 1144,
    "Ġbargain": 23790,
    "Ġmodels": 761,
    "Ġimpenit": 22386,
    "Ġbumping": 25280,
    "Ġdevoid": 18682,
    "otic": 15742,
    "Ġholds": 7976,
    "Ġinaudible": 21497,
    "Ġdank": 21427,
    "Ġslewed": 23383,
    "ma": 1151,
    "ceiving": 3904,
    "comprehensive": 20625,
    "elizabeth": 1985,
    "ghost": 20886,
    "Ġsyn": 15910,
    "Ġpercept": 14222,
    "instance": 24167,
    "give": 4687,
    "Ġseparation": 11246,
    "completely": 12416,
    "gressive": 2754,
    "sequence": 2854,
    "Ġlent": 21545,
    "Ġphilipp": 23881,
    "althily": 19357,
    "hearing": 8403,
    "Ġcamp": 9163,
    "Ġgallantry": 15101,
    "Ġrenewing": 19809,
    "Ġpython": 1067,
    "âĢĻ,": 14070,
    "Ġplying": 17913,
    "arrived": 12605,
    "Ġdus": 8423,
    "Ġstreams": 12189,
    "silly": 24421,
    "Ġstocks": 23175,
    "Ġdevotion": 22718,
    "Ġtin": 15462,
    "Ġarist": 14158,
    "Ġlifts": 25358,
    "desperate": 17350,
    "Ġfinest": 10390,
    "Ġembal": 11907,
    "Ġflattered": 10373,
    "Ġalche": 21781,
    "andam": 10886,
    "dis": 2250,
    "Ġflaming": 8563,
    "Ġmahogany": 20576,
    "à": 161,
    "Ġbolted": 12241,
    "Ġheaving": 7600,
    "Ġmerged": 19296,
    "Ġsincere": 11134,
    "Ġ181": 23891,
    "immediately": 10047,
    "Ġsubordinate": 18722,
    "Ġsur": 2184,
    "Ġenraged": 10243,
    "unbidden": 21892,
    "Ġcommand": 3319,
    "Ġclosing": 11769,
    "linearity": 1646,
    "Ġcanted": 17831,
    "Ġparamore": 22120,
    "âĢĻ!âĢĿ": 18173,
    "ouse": 1191,
    "Ġreceive": 4703,
    "deployment": 26526,
    "Ġemph": 14524,
    "Ġterminated": 23508,
    "sphere": 22732,
    "ĠĊ": 12519,
    "narrated": 25621,
    "hated": 17560,
    "Ġargue": 16782,
    "Ġtalking": 3860,
    "pooh": 18798,
    "Ġprom": 1529,
    "gam": 10094,
    "Ġfee": 7199,
    "Ġgrieved": 8297,
    "slide": 24555,
    "Ġstopping": 2750,
    "landed": 18954,
    "Ġprodig": 6028,
    "Ġlydia": 2374,
    "Ġirene": 8444,
    "tut": 15433,
    "Ġnorthwards": 19545,
    "Ġforg": 3787,
    "declined": 25174,
    "Ġdrifting": 19279,
    "Ġtold": 2187,
    "================================================================": 9988,
    "uer": 21099,
    "Ġabsence": 4894,
    "Ġcoiling": 12901,
    "Ġineffable": 17330,
    "Ġtopsails": 19192,
    "Ġarctic": 12806,
    "/*": 10069,
    "Ġproving": 15752,
    "Ġcrushed": 9421,
    "mai": 22911,
    "Ġterrific": 6754,
    "oars": 9613,
    "Ġchallenges": 13628,
    "Ġpractised": 23326,
    "Ġboisterously": 25682,
    "motives": 26137,
    "Ġgrating": 14354,
    "Ġfrivolous": 26176,
    "Ġ21": 11196,
    "Ġstyle": 6946,
    "connections": 14426,
    "Ġbristling": 20525,
    "fedallah": 25522,
    "helmsman": 24286,
    "hic": 3247,
    "Ġinsatiable": 19271,
    "Ġexecut": 4248,
    "Ġje": 4124,
    "ĠĠĠĠĠĠĠĠĠĠĠĠĠĠĠĠĠĠĠĠĠĠ": 16225,
    "Ġindecision": 25781,
    "Ġtraced": 10382,
    "induce": 22372,
    "tort": 17674,
    "Ġstur": 15714,
    "Ġphilosophers": 10550,
    "Ġdisembow": 22535,
    "carp": 9108,
    "Ġstudious": 23213,
    "Ġsparkling": 11354,
    "Ġgrudge": 20692,
    "Ġstriding": 16091,
    "Ġuncivil": 11153,
    "Ġtenderness": 12212,
    "elze": 21571,
    "Ġpoorly": 9853,
    "otions": 7180,
    "build": 12184,
    "bildad": 9585,
    "Ġcaptive": 14425,
    "ignomin": 23265,
    "Ġcomprehended": 11292,
    "Ġprovision": 14823,
    "Ġconject": 6027,
    "Ġwages": 13852,
    "apply": 18759,
    "mention": 7214,
    "Ġevenings": 18753,
    "Ġgans": 5821,
    "Ġpatentee": 25586,
    "Ġstiffness": 24830,
    "eringly": 23001,
    "cannot": 5745,
    "ries": 3350,
    "distinction": 19570,
    "Ġconspicuous": 13601,
    "Ġcreditor": 24289,
    "Ġ89": 19711,
    "Ġtwee": 22673,
    "Ġquitted": 5311,
    "flinging": 20867,
    "cor": 5520,
    "osque": 22260,
    "Ġscreamed": 9522,
    "Ġdragon": 14942,
    "Ġ1807": 26083,
    "Ġresolved": 3798,
    "Ġtapping": 10751,
    "following": 10571,
    "affording": 23775,
    "Ġsooty": 25815,
    "Ġmorals": 22968,
    "Ġexamination": 8005,
    "Ġfer": 5623,
    "Ġdescent": 988,
    "Ġferocious": 17417,
    "Ġjeopardized": 20229,
    "Ġgentlemen": 3641,
    "greatly": 16622,
    "ipper": 13738,
    "Ġbreakers": 12052,
    "Ġgurglings": 26464,
    "Ġcord": 5222,
    "uted": 7592,
    "Ġsi": 21211,
    "Ġmassachusetts": 24021,
    "gaff": 20881,
    "clinging": 20821,
    "Ġhulls": 13924,
    "Ġ(": 595,
    "scheme": 15252,
    "list": 7551,
    "fortune": 4975,
    "Ġcoer": 22577,
    "Ġprejudiced": 24809,
    "Ġaid": 6122,
    "Ġdesperate": 7777,
    "vessels": 10624,
    "Ġverse": 16601,
    "Ġowing": 6005,
    "Ġconvenient": 8346,
    "Ġelevated": 7318,
    "Ġdiction": 8793,
    "Ġprofound": 5497,
    "Ġprogra": 1145,
    "cru": 7126,
    "december": 25558,
    "Ġay": 15490,
    "disposed": 25010,
    "eye": 6224,
    "grown": 10098,
    "Ġremonstr": 16159,
    "chastic": 2331,
    "Ġdevils": 7230,
    "Ġrelating": 2705,
    "lingering": 18601,
    "Ġweapons": 10592,
    "reposed": 24491,
    "cellar": 20276,
    "fears": 18531,
    "Ġneedles": 11182,
    "vious": 1784,
    "Ġgroans": 14822,
    "Ġmaid": 5285,
    "Ġthickest": 16653,
    "Ġofficio": 23812,
    "Ġsenor": 20149,
    "Ġinvests": 14866,
    "discredit": 24249,
    "Ġfoundering": 21418,
    "jonah": 11494,
    "Ġspire": 18306,
    "Ġperturbation": 20439,
    "Ġvindict": 13603,
    "contracting": 19293,
    "Ġemerged": 8684,
    "Ġengrossed": 12993,
    "Ġcaps": 8415,
    "valued": 2851,
    "Ġsibbald": 21229,
    "Ġprogressive": 5024,
    "circumspect": 26086,
    "Ġcable": 11577,
    "tray": 21076,
    "tained": 4404,
    "Ġdistinctly": 7311,
    "move": 11851,
    "Ġunsupp": 22019,
    "Ġindicates": 3194,
    "Ġingratitude": 17467,
    "Ġvillages": 14747,
    "introduce": 25186,
    "Ġtokens": 1771,
    "Ġbulldog": 23856,
    "Ġbold": 5291,
    "Ġscrawled": 24579,
    "acute": 22593,
    "cd": 15321,
    "2": 22,
    "Ġspecial": 2102,
    "ercial": 21273,
    "eyed": 11484,
    "Ġentreated": 9949,
    "Ġwrong": 4723,
    "impetuous": 23761,
    "Ġbam": 15563,
    "Ġphysiognomy": 25610,
    "Ġspont": 22129,
    "september": 14034,
    "prairies": 20565,
    "Ġburned": 8630,
    "Ġirretrie": 23372,
    "88": 20757,
    "Ġgur": 21590,
    "advancing": 14834,
    "ck": 436,
    "Ġingenuity": 17162,
    "forward": 2189,
    "harpoons": 24284,
    "Ġoutlandish": 12834,
    "Ġresigned": 9766,
    "Ġrecommence": 16811,
    "Ġbowed": 6242,
    "Ġprying": 15606,
    "forks": 26386,
    "Ġspot": 4156,
    "ĥ": 230,
    "erc": 5905,
    "inkles": 7426,
    "Ġelementary": 24814,
    "whom": 8185,
    "Ġshol": 21993,
    "resent": 10768,
    "oundering": 11743,
    "clo": 5612,
    "Ġdignity": 5704,
    "Ġsplit": 7993,
    "verdict": 21727,
    "ib": 1232,
    "sme": 17657,
    "Ġlithe": 24668,
    "mael": 6723,
    "Ġoutlined": 22318,
    "li": 1187,
    "g": 75,
    "Ġyoked": 15732,
    "Ġintimacy": 8700,
    "Ġsling": 21219,
    "Ġowes": 20083,
    "itty": 3551,
    "elter": 21569,
    "Ġsignificance": 13278,
    "Ġoxen": 19949,
    "Ġsensations": 5259,
    "Ġimportance": 4900,
    "gratulation": 24348,
    "Ġexercised": 24803,
    "Ġpitied": 14690,
    "Ġcrumbs": 20639,
    "blood": 7780,
    "Ġbenefited": 19396,
    "Ġwillow": 18533,
    "Ġgasp": 7172,
    "!âĢĻâĢĿ": 16591,
    "enchanted": 26423,
    "Ġeighteen": 11237,
    "ishe": 13889,
    "whereby": 23416,
    "iqu": 7803,
    "common": 4129,
    "Ġbracing": 16579,
    "Ġumbrella": 15263,
    "asleep": 21542,
    "ws": 7355,
    "Ġclock": 9531,
    "Ġlug": 15649,
    "Ġnimble": 21526,
    "Ġtam": 7822,
    "Ġphysical": 7522,
    "finish": 24383,
    "bright": 8988,
    "ansion": 10923,
    "trained": 4239,
    "Ġnurtured": 19748,
    "heavenly": 20043,
    "cost": 19185,
    "Ġsupply": 6067,
    "Ġmilky": 9945,
    "Ġpence": 17905,
    "Ġdiligence": 17113,
    "glit": 23847,
    "Ġrattled": 15066,
    "ips": 2611,
    "eight": 9590,
    "Ġarea": 14185,
    "Ġscept": 15502,
    "Ġseat": 4949,
    "Ġcoward": 7155,
    "olet": 13764,
    "Ġtru": 4107,
    "hement": 13830,
    "angled": 6844,
    "af": 2378,
    "Ġunqualified": 22059,
    "Ġrambled": 20167,
    "ceptibly": 22352,
    "Ġwhole": 1658,
    "Ġtoo": 1165,
    "Ġtag": 15467,
    "Ġcorpore": 13399,
    "Ġeternities": 19941,
    "Ġobviously": 16809,
    "scand": 18853,
    "Ġopenly": 8572,
    "haust": 5777,
    "leagued": 26434,
    "Ġreadability": 2724,
    "Ġmerchants": 23730,
    "Ġgabriel": 7595,
    "enjoyments": 25433,
    "fal": 17535,
    "Ġtattooings": 24900,
    "Ġrewarding": 13435,
    "overfitting": 13098,
    "Ġtwilight": 16119,
    "iliating": 12691,
    "Ġgul": 7860,
    "Ġeighty": 19474,
    "ĠĠĠĠĠĠĠĠĠĠĠĠĠĠĠĠĠĠĠĠĠĠĠĠĠĠĠ": 14884,
    "repairing": 24494,
    "Ġkills": 15904,
    "Ġcharging": 23266,
    "pleasanter": 24047,
    "Ġdisconnected": 22523,
    "Ġsymptoms": 8704,
    "Ġlandsc": 11144,
    "ray": 2439,
    "Ġallusions": 10904,
    "Ġsimul": 1808,
    "lected": 1632,
    "lizzy": 6651,
    "isition": 11583,
    "alleging": 23023,
    "Ġside": 1387,
    "Ġentirely": 3431,
    "erably": 7573,
    "Ġverify": 12084,
    "Ġpreparation": 13527,
    "Ġchoosing": 19589,
    "Ġobservations": 13551,
    "putable": 10899,
    "Ġdiabolical": 20341,
    "Ġcalcul": 3636,
    "Ġpartial": 2129,
    "Ġcoloured": 11043,
    "Ġchoked": 9262,
    "Ġneglecting": 25007,
    "ular": 718,
    "browed": 25894,
    "lounged": 26133,
    "umst": 2505,
    "Ġmason": 10156,
    "Ġhalls": 19524,
    "ineer": 11696,
    "Ġweights": 896,
    "barrow": 15319,
    "Ġbeaks": 21753,
    "objection": 19914,
    "Ġshops": 21999,
    "Ġincarnate": 20373,
    "Ġheire": 18036,
    "Ġcrocodile": 20739,
    "Ġvent": 3999,
    "Ġclams": 19987,
    "Ġreturning": 5325,
    "Ġquaff": 22412,
    "Ġcowardice": 17031,
    "plainly": 11089,
    "seaman": 25457,
    "Ġinnovative": 1688,
    "Ġrare": 7036,
    "Ġgazing": 5876,
    "Ġreprehensible": 15696,
    "Ġhedgehog": 10643,
    "======": 9831,
    "Ġhob": 12625,
    "Ġcathedral": 17411,
    "forming": 15916,
    "leader": 25351,
    "Ġapprehensions": 13402,
    "unwho": 21875,
    "lesome": 12961,
    "Ġpostmark": 16724,
    "Ġprecautions": 23724,
    "lied": 6507,
    "Ġcastles": 16638,
    "innocence": 15181,
    "Ġhumility": 12980,
    "soft": 12506,
    "Ġadmin": 23552,
    "Ġmill": 6666,
    "Ġmediocr": 24083,
    "Ġvulture": 17337,
    "Ġinner": 9669,
    "Ġaccurately": 4140,
    "Ġsuspicions": 9477,
    "Ġvenom": 24237,
    "Ġdespondency": 16576,
    "Ġpag": 6011,
    "wis": 12515,
    "Ġgregarious": 18963,
    "Ġcash": 9651,
    "Ġearl": 7676,
    "Ġexchange": 15750,
    "Ġmerryweather": 9520,
    "rints": 12499,
    "bellies": 19972,
    "Ġenglish": 3611,
    "very": 501,
    "extra": 8219,
    "Ġres": 697,
    "Ġgrappling": 25812,
    "Ġrecounted": 22737,
    "Ġvines": 12747,
    "Ġloving": 8176,
    "lucases": 20209,
    "Ġrural": 21968,
    "who": 2447,
    "Ġworthy": 7241,
    "Ġraptures": 13495,
    "crat": 24097,
    "Ġparsee": 6413,
    "Ġabsurdly": 19958,
    "Ġparted": 5929,
    "Ġwisdom": 11231,
    "Ġsing": 3072,
    "Ġpassage": 3887,
    "Ġdepicted": 14282,
    "Ġruss": 18719,
    "Ġdispose": 23876,
    "oof": 15404,
    "business": 5609,
    "Ġmal": 5221,
    "Ġtaste": 5524,
    "Ġrecl": 16137,
    "volume": 18587,
    "Ġrepining": 23359,
    "Ġdistracted": 11801,
    "Ġstriking": 6089,
    "assistance": 20369,
    "pursu": 11390,
    ",--": 2477,
    "Ġbreast": 8967,
    "arctic": 12606,
    "Ġsig": 867,
    "smart": 23903,
    "sworn": 24255,
    "Ġdisgusting": 19893,
    "gether": 1593,
    "Ġgoat": 16004,
    "fordshire": 4675,
    "Ġhypothe": 4075,
    "Ġcommunications": 16353,
    "Ġmoisture": 12356,
    "Ġimpenet": 14218,
    "Ġbottled": 23793,
    "Ġbecome": 3156,
    "painful": 13500,
    "asets": 2308,
    "Ġcovered": 5171,
    "ashing": 4824,
    "Ń": 260,
    "Ġdelighted": 5499,
    "Ġhid": 1320,
    "fish": 3513,
    "Ġwiping": 25765,
    "Ġnewsp": 9337,
    "Ġhandled": 12933,
    "lady": 4431,
    "Ġspared": 7894,
    "Ġpads": 21473,
    "terdam": 18129,
    "Ġaught": 8772,
    "Ġhigh": 931,
    "Ġless": 1936,
    "azore": 23461,
    "Ġjobs": 24832,
    "Ġrashness": 25460,
    "cushion": 20820,
    "dwelt": 23868,
    "iries": 18167,
    "Ġunimag": 12771,
    "bourine": 9394,
    "expressive": 24304,
    "particularly": 8340,
    "Ġsavages": 9910,
    "Ġhimmale": 18334,
    "Ġgramm": 8171,
    "Ġcomplacency": 19446,
    "Ġarsacidean": 20363,
    "Ġtransplanted": 22439,
    "Ġruinous": 24634,
    "Ġblinds": 8007,
    "Ġroundabout": 23059,
    "Ġhumanity": 6731,
    "Ġlig": 21546,
    "spades": 14333,
    "ward": 706,
    "Ġphant": 7055,
    "Ġaccost": 12842,
    "Ġgr": 979,
    "aggra": 21904,
    "brad": 20780,
    "Ġsuggests": 12197,
    "anse": 12571,
    "ubl": 3592,
    "Ġdines": 21422,
    "Ġsystemat": 18442,
    "pra": 15406,
    "Ġle": 333,
    "Ġfarewell": 9518,
    "Ġvideos": 13604,
    "Ġpatched": 16375,
    "Ġpeace": 3691,
    "doub": 6223,
    "Ġcomparative": 10541,
    "vess": 7354,
    "Ġportraits": 20141,
    "Ġdoubting": 13097,
    "Ġconditions": 8307,
    "Ġcrowded": 8012,
    "Ġconceals": 23900,
    "unched": 10234,
    "Ġungovernable": 20708,
    "uneven": 23683,
    "iancy": 13005,
    "Ġcynical": 25770,
    "Ġburg": 23650,
    "Ġang": 2513,
    "Ġsoles": 22074,
    "avoid": 9303,
    "des": 1566,
    "Ġsingled": 23770,
    "Ġclustered": 25233,
    "perv": 1653,
    "shoe": 14965,
    "planks": 21952,
    "Ġyon": 9691,
    "Ġpractices": 19057,
    "Ġconven": 6151,
    "Ġ]": 15458,
    "rained": 5162,
    "ile": 520,
    "coming": 3559,
    "Ġbruised": 25772,
    "Ġfew": 1195,
    "Ġshattered": 7885,
    "Ġlookest": 22715,
    "Ġcran": 11997,
    "Ġ122": 24466,
    "Ġmaybe": 12945,
    "Ġcuring": 21342,
    "Ġarchitecture": 1117,
    "Ġesteem": 7531,
    "eminence": 20097,
    "Ġcringing": 25941,
    "throwing": 11700,
    "Ġconfusing": 23304,
    "fiercely": 25256,
    "Ġreduced": 11921,
    "Ġsec": 2076,
    "rential": 22917,
    "listened": 15042,
    "exceed": 7912,
    "Ġinmates": 15620,
    "Ġgeneric": 18448,
    "Ġploughing": 26259,
    "barn": 17481,
    "Ġspokes": 18313,
    "Ġmonkey": 8226,
    "Ġguardians": 14941,
    "ela": 21567,
    "to": 714,
    "owder": 8448,
    "Ġhelping": 3265,
    "Ġintru": 15825,
    "Ġsystematic": 5244,
    "alarmed": 21501,
    "Ġengravings": 15065,
    "infant": 19826,
    "Ġdig": 6135,
    "recollection": 25348,
    "Ġveter": 15809,
    "overcome": 19052,
    "colonel": 8285,
    "Ġwatson": 3594,
    "erringly": 16210,
    "onym": 14648,
    "unfortunate": 15774,
    "dled": 9109,
    "Ġpri": 5813,
    "Ġtyphoon": 12386,
    "Ġbarque": 23788,
    "sens": 8096,
    "buckets": 26123,
    "Ġsnatches": 16542,
    "Ġespecial": 26409,
    "Ġcocked": 12900,
    "irts": 9236,
    "Ġhun": 1498,
    "Ġtesting": 23195,
    "Ġtener": 21162,
    "opinion": 10983,
    "Ġthenceforth": 25182,
    "Ġcontemplate": 19891,
    "Ġabstraction": 26538,
    "assistant": 25567,
    "Ġdog": 4193,
    "airs": 2222,
    "Ġunappe": 22016,
    "usions": 6159,
    "Ġloafer": 18299,
    "match": 15388,
    "Ġcontribute": 12857,
    "Ġworaciousness": 22927,
    "Ġdeck": 2139,
    "forbid": 14353,
    "Ġsegment": 12753,
    "doms": 20834,
    "lanterns": 17427,
    "Ġunfair": 19506,
    "east": 9114,
    "ear": 8730,
    "Ġpurses": 23476,
    "Ġbell": 4634,
    "Ġmargin": 11918,
    "urry": 13992,
    "Ġinto": 647,
    "Ġquantization": 19853,
    "Ġimposs": 16615,
    "abode": 21789,
    "full": 7420,
    "whosoever": 22238,
    "Ġchatting": 24747,
    "Ġprofoundest": 16859,
    "Ġshipmates": 6720,
    "ology": 1603,
    "Ġinfinity": 23280,
    "Ġdenomin": 12064,
    "servants": 15036,
    "Ġremorselessly": 16966,
    "Ġsplintered": 11416,
    "Ġcontracted": 12856,
    "Ġundeserving": 18268,
    "acter": 2508,
    "occup": 7753,
    "various": 10396,
    "features": 14736,
    "yt": 17710,
    "brim": 23574,
    "Ġassaulted": 25320,
    "Ġconvolutional": 2163,
    "Ġprivately": 19522,
    "blister": 24127,
    "Ġdropout": 1559,
    "reader": 23843,
    "Ġcasualties": 25512,
    "uned": 21869,
    "Ġstruggling": 12071,
    "Ġstare": 10862,
    "Ġinspect": 5964,
    "Ġpublished": 11240,
    "Ġbefell": 14008,
    "ratches": 20123,
    "Ġsaxe": 13626,
    "exp": 2737,
    "Ġbelongs": 8015,
    "Ġce": 3027,
    "irth": 5634,
    "Ġbroadened": 23982,
    "Ġboon": 22635,
    "west": 10738,
    "Ġpostp": 12140,
    "Ġbun": 6007,
    "Ġmusty": 22678,
    "Ġmeth": 1469,
    "Ġnormal": 1202,
    "pressed": 6587,
    "V": 58,
    "del": 4077,
    "Ġpatagonia": 25857,
    "ondescript": 22914,
    "Ġdemanding": 16804,
    "jumping": 20244,
    "Ġexpansion": 22625,
    "island": 10793,
    "uble": 21101,
    "Ġbarricade": 14659,
    "pay": 10717,
    "tired": 21071,
    "Ġmem": 2070,
    "chair": 5917,
    "mouthed": 12397,
    "Ġassembl": 20059,
    "Ġniece": 5712,
    "invest": 11557,
    "concerns": 24582,
    "Ġstrives": 23693,
    "introduced": 15122,
    "Ġhogarth": 25780,
    "Ġuses": 1208,
    "abled": 12790,
    "Ġinclude": 1874,
    "Ġeleventh": 23367,
    "suppose": 8644,
    "Ġprocedure": 2809,
    "lifeless": 24311,
    "Ġspaniards": 25555,
    "ends": 6039,
    "wall": 10135,
    "sullenly": 26149,
    "tout": 21064,
    "entrance": 12653,
    "Ġhurried": 4033,
    "wreat": 21126,
    "Ġsquad": 22835,
    "poky": 17643,
    "save": 13783,
    "twelvemonth": 25862,
    "mons": 17599,
    "acquired": 24295,
    "Ġuntamed": 19163,
    "digger": 24309,
    "Ġmotioned": 19591,
    "Ġpermission": 9277,
    "penny": 22943,
    "Ġsurvivor": 17361,
    "oglyph": 11016,
    "acit": 16078,
    "saddest": 25527,
    "tains": 10960,
    "Ġtipped": 17727,
    "Ġunsub": 22021,
    "text": 1972,
    "Ġaverages": 2402,
    "Ġsticking": 13425,
    "Ġprophet": 7681,
    "nades": 20996,
    "Ġstructure": 854,
    "Ġconnexion": 11452,
    "Ġdecapitated": 20614,
    "Ġstrang": 4162,
    "xic": 9144,
    "Ġcomely": 21841,
    "upp": 10129,
    "Ġago": 3133,
    "ery": 1269,
    "Ġmonarchs": 25846,
    "Ġsublim": 19965,
    "Ġstrongest": 11133,
    "Ġindiscreet": 22954,
    "Ġsteal": 16282,
    "Ġshuddered": 11298,
    "ampton": 18145,
    "Ġran": 3340,
    "Ġmutineer": 19416,
    "Ġunhappily": 18262,
    "mountains": 15178,
    "ke": 429,
    "ć": 200,
    "constant": 11322,
    "Ġchairs": 12821,
    "Ġconsolidation": 5060,
    "Ġchecked": 9374,
    "Ġundiscovered": 18252,
    "Ġrascally": 26506,
    "taste": 10128,
    "featured": 24027,
    "Ġlapse": 17119,
    "play": 5099,
    "rents": 5308,
    "Ġasking": 5651,
    "z": 94,
    "iour": 4038,
    "Ġembra": 6579,
    "Ġstove": 6733,
    "before": 3112,
    "Ġcuriously": 13010,
    "Ġsoc": 3522,
    "Ġbigness": 19759,
    "hors": 9597,
    "Ġplainpalais": 20736,
    "subject": 6631,
    "Ġbridge": 8349,
    "gno": 13725,
    "Ġadopted": 15176,
    "Ġsour": 21215,
    "Ġins": 2779,
    "eridge": 15524,
    "Ġsober": 10908,
    "Ġuncompromised": 20602,
    "Ġmastiff": 23722,
    "Ġtornado": 24622,
    "Ġtutored": 20126,
    "Ġecon": 9676,
    "Ġovercame": 9744,
    "ep": 442,
    "Ġtowns": 11171,
    "Ġlbs": 11612,
    "phr": 18696,
    "Ġthistle": 21914,
    "een": 726,
    "Ġstorm": 4301,
    "izers": 18142,
    "Ġprofusion": 23567,
    "mouth": 9129,
    "umblings": 23926,
    "cross": 3572,
    "ridge": 9495,
    "tisement": 6767,
    "Ġchiswick": 25560,
    "Ġcondu": 18109,
    "simply": 20669,
    "Ġdrily": 23537,
    "ĠĠĠĠĠĠĠĠĠĠĠĠĠĠĠĠĠĠĠĠĠĠĠĠĠĠ": 13386,
    "Ġprone": 18968,
    "Ġsmo": 2700,
    "Ġstring": 11824,
    "Ġreconc": 9681,
    "Ġcough": 11578,
    "ust": 497,
    "Ġargemone": 24273,
    "pshaw": 21027,
    "bene": 6112,
    "Ġcy": 13872,
    "Ġethere": 23948,
    "Ġstrata": 26027,
    "Ġsheepfold": 25466,
    "Ġrighteous": 18945,
    "Ġapparelled": 20435,
    "Ġphren": 8571,
    "theless": 4261,
    "Ġveins": 8931,
    "Ġimplicate": 24876,
    "Ġtalked": 4419,
    "august": 11069,
    "racted": 4773,
    "Ġfuneral": 10281,
    "hest": 3366,
    "Ġincorrupt": 19234,
    "Ġjen": 9265,
    "Ġmould": 6519,
    "Ġreappeared": 21663,
    "Ġreef": 10847,
    "Ġeste": 6085,
    "iments": 4945,
    "Ġsuggested": 8321,
    "stige": 21659,
    "Ġcorpulence": 24505,
    "summoned": 26590,
    "trap": 24312,
    "Ġpersecut": 16951,
    "Ġsongs": 13418,
    "Ġspo": 6846,
    "Ġshield": 21997,
    "Ġtrusty": 24104,
    "theirs": 23601,
    "Ġw": 272,
    "Ġresponsiveness": 2895,
    "Ġseclusion": 18208,
    "enterprise": 24994,
    "Ġevenly": 4130,
    "Ġputting": 5326,
    "Ġimpertin": 6933,
    "Ġreproachfully": 25251,
    "educated": 17258,
    "Ġresidual": 1676,
    "appears": 12057,
    "Ġadorn": 12788,
    "Ġinterlude": 16068,
    "Ġoverflowed": 20261,
    "Ġdelicately": 24125,
    "Ġazure": 12371,
    "atmospheric": 17775,
    "Ġleast": 2064,
    "far": 5787,
    "Ġqualities": 7533,
    "Ġcaged": 21350,
    "Ġclimax": 25051,
    "driver": 14919,
    "Ġplank": 7033,
    "Ġdesperately": 24656,
    "ality": 2514,
    "angu": 570,
    "Ġquestioned": 14619,
    "Ġcomputers": 2647,
    "deaux": 22147,
    "Ġ77": 24262,
    "Ġpresented": 5183,
    "Ġclose": 3032,
    "poles": 16208,
    "culiar": 2820,
    "Ġisol": 8832,
    "Ġhandspikes": 12934,
    "Ġwalton": 14970,
    "Ġbaker": 4695,
    "Ġawkwardness": 13485,
    "ered": 1682,
    "Ġveracity": 23886,
    "compliment": 11362,
    "ĠmanÅĵuv": 18417,
    "hollow": 24040,
    "Ġfragment": 14509,
    "Ġmechanis": 1219,
    "counters": 25397,
    "gangway": 20666,
    "pton": 15791,
    "reserve": 17764,
    "Ġprotruded": 19468,
    "Ġcondem": 6338,
    "Ġsuspic": 4469,
    "uing": 17692,
    "err": 1141,
    "Ġash": 4832,
    "onomy": 12543,
    "Ġsuperfluous": 17412,
    "Ġharpoon": 3614,
    "Û": 156,
    "wn": 721,
    "nur": 11503,
    "Ġlay": 584,
    "Ġerect": 6143,
    "Ġdaughter": 2867,
    "Ġlocks": 11721,
    "Ġgleamed": 17076,
    "Ġthrill": 24540,
    "Ġsuper": 2154,
    "Ġjurors": 17342,
    "games": 20879,
    "Ġafrica": 12342,
    "Ġheap": 12674,
    "chess": 16572,
    "sander": 11524,
    "Ġreminisc": 18725,
    "Ġhourly": 23299,
    "Ġexposure": 16097,
    "bler": 11470,
    "Ġselect": 4000,
    "Ġsuccess": 3607,
    "Ġsurvivors": 25732,
    "Ġ112": 24436,
    "ĠâĢĶ": 13809,
    "skill": 24486,
    "quely": 10230,
    "Ġdisgracing": 26255,
    "ceptive": 15966,
    "Ġinsatiate": 19269,
    "Ġsnow": 3705,
    "Ġexisted": 15749,
    "Ġnail": 9194,
    "abetical": 15740,
    "Ġsums": 2900,
    "glasses": 11213,
    "affrail": 11203,
    "conception": 22472,
    "Ġsecondly": 14516,
    "ures": 839,
    "Ġcrevice": 22727,
    "Ġstaircase": 20094,
    "Ġcorner": 4369,
    "Ġomen": 11573,
    ".;": 20743,
    "ath": 862,
    "Ġimperfectly": 25727,
    "ĝ": 222,
    "Ġindulged": 13415,
    "Ġawful": 6199,
    "bodily": 17313,
    "gments": 12466,
    "abouts": 9450,
    "flex": 24843,
    "Ġallude": 12767,
    "Ġcirclings": 26430,
    "Ġstarting": 7729,
    "mere": 11852,
    "Ġcreates": 2008,
    "Ġrequested": 14305,
    "covering": 15332,
    "ĠĠĠĠĠĠĠĠĠĠĠĠĠĠĠĠĠĠĠĠĠĠĠĠĠĠĠĠĠĠĠĠĠĠĠĠĠĠĠĠ": 4516,
    "Ġenveloping": 19732,
    "terr": 8154,
    "involuntarily": 20413,
    "gging": 7697,
    "mpus": 13755,
    "Ġmerchant": 6467,
    "Ġve": 1105,
    "Ġdebility": 24271,
    "inously": 21185,
    "Ġexist": 9230,
    "ships": 5486,
    "Å": 134,
    "Ġunch": 18239,
    "rew": 3647,
    "Ġdrops": 9031,
    "Ġdrows": 21434,
    "prit": 19340,
    "fully": 2203,
    "Ġowns": 22822,
    "Ġsix": 3040,
    "Ġbrew": 23343,
    "Ġarsacides": 17292,
    "Ġpremises": 10486,
    "sank": 17661,
    "Ġwrig": 13064,
    "ï": 176,
    "bread": 10683,
    "insist": 23062,
    "Ġsolemnisation": 24113,
    "little": 3348,
    "northern": 23666,
    "atic": 4018,
    "Ç": 136,
    "sailed": 17665,
    "clifford": 23154,
    "Ġroyalty": 19734,
    "violent": 14578,
    "achable": 14134,
    "Ġcarved": 7947,
    "Ġram": 11010,
    "Ġhunting": 7259,
    "palms": 25262,
    "Ġfors": 21769,
    "Ġprofessors": 14723,
    "Ġregion": 2271,
    "Ġmag": 1426,
    "ivation": 3108,
    "liest": 6294,
    "speed": 19407,
    "Ġcertain": 1558,
    "Ġsparing": 22127,
    "Ġstro": 4594,
    "brimmed": 14587,
    "Ġyellow": 5300,
    "desolate": 25703,
    "Ġassistant": 7298,
    "disappointment": 11423,
    "henry": 16624,
    "woman": 5899,
    "Ġbigot": 24564,
    "Ġhereditarily": 25224,
    "Ġnotable": 18222,
    "Ġhyena": 24518,
    "Ġamelia": 26251,
    "Ġcolonies": 14373,
    "c": 71,
    "Ġ11": 5318,
    "Ġnovel": 6695,
    "Ġlashes": 17966,
    "Ġemphasis": 20535,
    "Ġdestabilizing": 5053,
    "lay": 5891,
    "Ġbundle": 13424,
    "amid": 12720,
    "lynes": 15701,
    "pagans": 25525,
    "ĠÂ£": 5006,
    "chors": 11642,
    "remembered": 17349,
    "Ġequ": 1733,
    "Ġidleness": 11142,
    "Ġadequate": 20307,
    "fashion": 8081,
    "Ġneville": 7399,
    "blown": 25201,
    "myst": 9820,
    "Ġeleg": 6192,
    "intellig": 5320,
    "Ġcruise": 12046,
    "acey": 7649,
    "Ġsolitary": 5854,
    "Ġgull": 15667,
    "Ġrevel": 9213,
    "Ġringle": 18210,
    "nantucketer": 24974,
    "Ġcrammed": 16470,
    "for": 970,
    "Ġlone": 11610,
    "Ġdodge": 19885,
    "Ġintrusion": 12761,
    "licted": 20955,
    "Ġpreference": 9731,
    "inder": 9151,
    "Ġsubmerged": 11869,
    "Ġasleep": 6836,
    "Ġcogent": 14271,
    "Ġappellation": 22218,
    "Ġsneezes": 24698,
    "barb": 10079,
    "Ġstim": 18063,
    "Ġapproved": 16030,
    "Ġtrifling": 10601,
    "rons": 21038,
    "mountain": 10712,
    "Ġmutinous": 23955,
    "Ġannounced": 9033,
    "go": 2063,
    "Ġbreathing": 9443,
    "Ġaff": 1115,
    "Ġastir": 14639,
    "Ġhavoc": 15811,
    "Ġcruisers": 25863,
    "Ġappetites": 20205,
    "Ġloitering": 22114,
    "Ġpossible": 2585,
    "ldog": 21915,
    "quitted": 21855,
    "!--": 10676,
    "Ġdisturb": 7107,
    "medium": 23638,
    "Ġregions": 10322,
    "awe": 20764,
    "chants": 21690,
    "Ġsu": 435,
    "Ġplace": 1648,
    "(": 12,
    "ribut": 815,
    "Ġfatal": 5871,
    "itan": 10158,
    "seemingly": 25362,
    "unearthly": 19272,
    "Ġpreser": 6041,
    "esteemed": 26009,
    "Ġcopper": 7425,
    "ifully": 13184,
    "sitting": 8387,
    "hammered": 19003,
    "Ġcrad": 21348,
    "anting": 6412,
    "Ġintercourse": 10996,
    "Ġtravell": 5575,
    "Ġdifferent": 1425,
    "tubes": 25211,
    "miss": 3174,
    "Ġlarboard": 11007,
    "delivered": 24100,
    "Ġtorch": 25030,
    "Ġpot": 2988,
    "terbury": 21822,
    "Ġjoyous": 14662,
    "Ġunidirectional": 3423,
    "umb": 3476,
    "represent": 9636,
    "thesize": 24906,
    "Ġtou": 15465,
    "ckets": 6843,
    "vigorous": 25917,
    "Ġcentaurs": 23829,
    "anim": 6522,
    "uzz": 4523,
    "oing": 15400,
    "Ġjapan": 7639,
    "Ġhatherley": 7849,
    "Ġovercome": 6044,
    "inclination": 20056,
    "Ġwallowing": 24043,
    "Ġtapering": 8770,
    "Ġpumps": 8427,
    "Ġnarrowly": 16819,
    "numbers": 17615,
    "Ġruled": 22783,
    "amet": 587,
    "Ġconsc": 4275,
    "Ġprojecting": 9983,
    "Ġpicturesque": 14892,
    "net": 1193,
    "clump": 23152,
    "eked": 16401,
    "Ġliar": 22406,
    "Ġrespons": 2684,
    "Ġdish": 6136,
    "disp": 7977,
    "Ġlandscape": 12413,
    "ipotence": 22357,
    "Ġric": 18209,
    "Ġunwilling": 7887,
    "cheerfulness": 20179,
    "Ġclam": 7416,
    "Ġdisgraceful": 15018,
    "sprit": 11380,
    "feel": 3812,
    "attached": 11932,
    "Ġthreaten": 24373,
    "Ġendured": 6073,
    "Ġdowncast": 18651,
    "history": 15013,
    "ĠĠĠĠĠĠĠĠĠĠĠĠĠĠĠĠĠĠĠĠĠĠĠĠĠĠĠĠĠĠĠĠĠĠĠĠĠ": 14614,
    "yond": 2327,
    "Ġfamous": 5255,
    "Ġgreenland": 5761,
    "Ġsting": 10859,
    "parlour": 16397,
    "enet": 10151,
    "idol": 21764,
    "Ġbespe": 19241,
    "Ġarithmetic": 18338,
    "ulus": 21862,
    "Ġflows": 13006,
    "lowering": 16027,
    "peter": 24297,
    "Ġbloodshot": 23797,
    "Ġfrowning": 13621,
    "Ġcrime": 4615,
    "Ġindefinite": 17175,
    "allest": 5485,
    "Ġmeryton": 4436,
    "Ġelij": 8907,
    "uncont": 15771,
    "Ġdenominated": 15226,
    "Ġadorned": 15245,
    "Ġpatients": 24813,
    "raise": 18011,
    "Ġbengal": 18783,
    "Ġmutual": 8296,
    "Ġmutable": 23952,
    "Ġcutting": 4983,
    "Ġpeninsula": 23194,
    "anum": 17835,
    "Ġrelapses": 26278,
    "stays": 15686,
    "draul": 9441,
    "Ġflattering": 13025,
    "Ġmasking": 2422,
    "Ġsmall": 892,
    "Ġsystematically": 4227,
    "aphs": 22334,
    "Ġfeast": 10276,
    "Ġmorbidness": 20627,
    "âĢĿ;": 11668,
    "Ġ25": 13192,
    "Ġhandsomest": 20333,
    "Ġsilk": 11960,
    "riumph": 4919,
    "Ġstoutest": 24629,
    "Ġelig": 9776,
    "strangely": 17275,
    "Ġbrighter": 16186,
    "Ġaglow": 22512,
    "Ġbacking": 16115,
    "rr": 17649,
    "Ġrecommend": 7102,
    "Ġmiser": 18705,
    "Ġlob": 7627,
    "Ġsnugness": 20075,
    "ethe": 9675,
    "msgate": 18410,
    "Ġmodest": 15915,
    ",)": 9099,
    "duchess": 18463,
    "Ġefforts": 11798,
    "Ġshrouds": 11342,
    "Ġinflamed": 13471,
    "recollected": 25347,
    "Ġconstruction": 9384,
    "gings": 7549,
    "ault": 2305,
    "Ġtist": 21161,
    "uniform": 18157,
    "Ġsharing": 3474,
    "Ġant": 4345,
    "ized": 1530,
    "Ġpick": 4257,
    "more": 1033,
    "Ġbusiness": 2234,
    "moor": 22700,
    "memory": 13615,
    "remains": 10397,
    "Ġpresum": 4837,
    "apped": 5395,
    "Ġhaunts": 18198,
    "Ġsuch": 792,
    "Ġignor": 4013,
    "food": 12460,
    "unken": 10235,
    "Ġquick": 2582,
    "aternity": 21264,
    "Ġcomo": 21840,
    "dost": 14534,
    "Ġbaronial": 23791,
    "Ġpostpone": 17305,
    "intolerable": 22936,
    "Ġextras": 22714,
    "Ġscruple": 25048,
    "Ġdeeps": 16102,
    "dragging": 16608,
    "feeling": 6616,
    "Ġdisconcerted": 18562,
    "oar": 12494,
    "Ġhowever": 1306,
    "Ġbore": 5079,
    "decan": 22141,
    "Ġlumber": 13950,
    "Ġimage": 3400,
    "rench": 3970,
    "Ġnearest": 8470,
    "Ġantip": 24176,
    "Ġspend": 5304,
    "gul": 12462,
    "Ġhenceforth": 19646,
    "Ġmingled": 12374,
    "Ġmob": 16015,
    "protection": 19919,
    "Ġrustic": 14963,
    "flatter": 23964,
    "disc": 4728,
    "hopper": 23712,
    "Ġimages": 1597,
    "Ġsurp": 9633,
    "Ġexcell": 10416,
    "Ġdisposal": 19374,
    "Ġobservation": 6597,
    "endure": 22223,
    "Ġinjuries": 11275,
    "tranqu": 14704,
    "Ġjack": 4651,
    "Ġsurplus": 26303,
    "flagged": 23969,
    "Ġvapor": 8699,
    "Ġgeography": 23370,
    "Ġauger": 21202,
    "moving": 11014,
    "Ġprimitive": 25061,
    "Ġraw": 3318,
    "Ġguardsmen": 20629,
    "Ġsympat": 13338,
    "Ġacquire": 2723,
    "Ġdeparture": 6490,
    "Ġbeach": 6541,
    "Ġfuture": 1112,
    "exped": 16524,
    "sticks": 25965,
    "Ġvine": 8471,
    "Ġwondering": 7971,
    "itu": 1225,
    "eng": 1490,
    "Ġobservable": 25126,
    "Ġrout": 7402,
    "scure": 22984,
    "Ġshrinking": 14803,
    "ivided": 22082,
    "Ġbackpropagation": 1263,
    "Ġshipwrecked": 25687,
    "Ġactions": 6278,
    "Ġwealth": 7620,
    "Ġsadly": 7302,
    "Ġsphy": 18311,
    "Ġmaternal": 11057,
    "particip": 23615,
    "cim": 8719,
    "interested": 9504,
    "Ġpriest": 7526,
    "Ġmant": 9646,
    "Ġtransformer": 2639,
    "vul": 15447,
    "Ġstandard": 14495,
    "zza": 24166,
    "huzza": 20912,
    "ieties": 19021,
    "Ġhare": 5157,
    "complain": 14357,
    "Ġbroken": 3446,
    "addressed": 13383,
    "Ġdiscerning": 24955,
    "onsible": 22559,
    "Ġeag": 2964,
    "ones": 2742,
    "Ġreck": 6537,
    "Ġcordon": 24393,
    "whalebone": 19118,
    "Ġfeigned": 22208,
    "stay": 9679,
    "Ġpatch": 4181,
    "Ġreplied": 2264,
    "Ġincome": 7918,
    "Ġmarines": 16261,
    "icions": 21561,
    "assumed": 22306,
    "aswag": 21544,
    "Ġindelible": 25694,
    "Ġnam": 17948,
    "Ġcedar": 15186,
    "pher": 11509,
    "Ġprofoundly": 16858,
    "Ġawaiting": 11388,
    "Ġmoluccas": 25629,
    "Ġcensus": 15094,
    "Ġrifle": 18212,
    "Ġcircumstance": 4987,
    "Ġlatterly": 24084,
    "tackle": 17319,
    "Ġrespectability": 14483,
    "Ġpartners": 11850,
    "Ġprop": 1679,
    "Ġtoy": 15631,
    "Ġgrounds": 6749,
    "Ġconstitutes": 13550,
    "Ġassented": 17336,
    "Ġrecently": 11859,
    "sold": 15425,
    "Ġactor": 16046,
    "Ġbasic": 24701,
    "nson": 16089,
    "Ġblurred": 22929,
    "approbation": 11456,
    "Ġjunks": 25113,
    "Ġstory": 2899,
    "Ġlance": 4879,
    "Ġweld": 8112,
    "Ġfootmen": 23795,
    "Ġbewitched": 25975,
    "Ġcooper": 16073,
    "umbria": 23927,
    "pression": 10406,
    "Ġengraving": 17079,
    "grinder": 23413,
    "Ġdeg": 3280,
    "Ġbutton": 10266,
    "Ġmalice": 7152,
    "insensibility": 23067,
    "aye": 3658,
    "Ġdiscovered": 4411,
    "complaisance": 24811,
    "Ġcyp": 21343,
    "Ġfarther": 5955,
    "ifference": 5632,
    "chie": 21688,
    "vener": 21110,
    "Ġassume": 10514,
    "architect": 22886,
    "Ġindomitableness": 26570,
    "Ġmanif": 8869,
    "ades": 5631,
    "tee": 16168,
    "yards": 9622,
    "ickering": 22668,
    "ever": 1073,
    "Ġdams": 16455,
    "ulties": 12897,
    "Ġcords": 14877,
    "oky": 8198,
    "Ġsimpler": 2047,
    "ithing": 11647,
    "Ġpuff": 6526,
    "Ġinvulnerable": 19146,
    "Ġhateful": 19712,
    "acca": 23596,
    "Ġexposed": 8522,
    "Ġfing": 3756,
    "trembling": 17141,
    "innocent": 20285,
    "Ġspecimens": 18857,
    "Ġfiver": 22775,
    "Ġgreeks": 20011,
    "Ġdisasters": 16052,
    "grew": 17554,
    "helping": 23136,
    "Ġchowders": 18385,
    "Ġdiscl": 9795,
    "Ġassist": 3561,
    "departure": 15232,
    "Ġdism": 9765,
    "Ġconceited": 12087,
    "mopol": 15394,
    "woes": 21132,
    "ribute": 7226,
    "Ġarranging": 11172,
    "Ġcups": 16881,
    "inquiries": 13575,
    "Ġenvironment": 3775,
    "Ġslammed": 20446,
    "Ġautom": 3612,
    "Ġdeduction": 14897,
    "Ġrelative": 11880,
    "afflicted": 23776,
    "telling": 14438,
    "Ġpenet": 6888,
    "Ġhelmsman": 10503,
    "bordered": 17497,
    "Ġbegrimed": 26577,
    "izabeth": 908,
    "phil": 7925,
    "Ġman": 544,
    "Ġrapturously": 24888,
    "Ġoppressively": 25712,
    "iop": 20918,
    "Ġportra": 9007,
    "attend": 11100,
    "Ġfielding": 16231,
    "ive": 428,
    "Ġcounteracted": 19861,
    "Ġsupplies": 20325,
    "Ġpresently": 5116,
    "Ġ166": 25004,
    "Ġvernal": 23885,
    "bearing": 9763,
    "Ġemployed": 5200,
    "Ġmacy": 19353,
    "Ġphilipses": 24451,
    "Ġcheers": 16364,
    "ĠĠĠĠĠ": 3524,
    "Ġgrease": 26189,
    "laugh": 10107,
    "Ġmove": 5107,
    "!_âĢĿ": 11374,
    "Ġengagements": 9976,
    "jud": 4481,
    "Ġrelate": 6875,
    "Ġexterm": 21827,
    "bath": 13687,
    "Ġharvard": 24572,
    "Ġmanhood": 22324,
    "Ġattentions": 5878,
    "Ġemptied": 24346,
    "Ġmouths": 7491,
    "Ġproposal": 10017,
    "Ġincidents": 9297,
    "Ġseals": 11694,
    "Ġhereby": 10356,
    "crippled": 26383,
    "Ġethics": 15461,
    "Ġdeliverance": 15155,
    "Ġsnatched": 10470,
    "Ġprofessed": 14722,
    "Ġventing": 19492,
    "relatively": 24012,
    "sustained": 20567,
    "Ġlonging": 14297,
    "Ġsummary": 19402,
    "Ġdifficulties": 11223,
    "plicable": 10254,
    "Ġheads": 3739,
    "Ġreports": 19084,
    "Ġ1828": 25720,
    "Ġearlier": 9085,
    "Ġhatches": 12042,
    "traced": 19636,
    "oarsman": 25261,
    "Ġcrests": 25685,
    "aire": 10679,
    "é": 170,
    "Ġantagonist": 26328,
    "Ġ4": 3988,
    "nervous": 16276,
    "Ġceler": 15548,
    "Ġgree": 7594,
    "Ġdid": 837,
    "Ġineff": 12630,
    "Ġthrowing": 6335,
    "gal": 15353,
    "Ġreconciled": 13585,
    "Ġexceedingly": 4613,
    "dut": 10086,
    "Ġstung": 21736,
    "Ġlima": 10441,
    "inate": 6233,
    "Ġwest": 5219,
    "Ġmemb": 14028,
    "vings": 9749,
    "Ġdistrusting": 25053,
    "Ġmargaret": 10375,
    "mown": 20969,
    "custom": 15331,
    "pal": 9615,
    "Ġunfeeling": 14117,
    "honor": 19899,
    "stud": 8818,
    "itche": 7578,
    "Ġfuel": 13902,
    "Ġvacantly": 16814,
    "ulent": 21860,
    "Ġatonement": 21940,
    "Ġperv": 15988,
    "Ġugl": 12678,
    "Ġjamming": 17263,
    "Ġgreatness": 12940,
    "Ġeyel": 17095,
    "Ġsaved": 6690,
    "Ġadopt": 10630,
    "Ġsave": 4052,
    "Ġgross": 11622,
    "Ġhieroglyph": 11967,
    "glanced": 19364,
    "Ġstraighten": 24001,
    "Ġpoisoned": 24886,
    "Ġmeasuring": 22877,
    "Ġimm": 3968,
[...]
