{
  "metadata": {
    "vocab_size": 26615,
    "algorithm": "BPE",
    "created_at": "2026-05-28 06:10:41",
    "special_tokens": [
      "<PAD>",
      "<SOS>",
      "<EOS>",
      "<UNK>",
      "<MASK>"
    ]
  },
  "vocab": {
    "Ġhimmale": 18335,
    "elfth": 22374,
    "pale": 13774,
    "Ġspectre": 16632,
    "Ġprofessional": 7299,
    "Ġdearest": 5457,
    "influences": 25251,
    "sav": 8097,
    "Ġshot": 4544,
    "Ġvane": 22880,
    "modern": 1145,
    "repid": 11566,
    "Ġhammered": 13244,
    "Ġdonkey": 23231,
    "Ġferocious": 17421,
    "historical": 20469,
    "uting": 15663,
    "Ġjapanese": 10634,
    "Ġrogue": 22409,
    "oppressed": 24821,
    "arle": 21444,
    "blu": 12443,
    "Ġhumans": 8932,
    "Ġparchment": 13655,
    "Ġbleak": 10560,
    "rep": 5525,
    "Ġinterval": 4054,
    "Ġdescending": 8905,
    "Ġsuspicion": 6213,
    "Ġugl": 12686,
    "Ġachieved": 13169,
    "Ġskylarking": 19490,
    "Ġclapping": 14205,
    "onom": 9160,
    "Ġbumps": 21395,
    "cord": 8727,
    "hound": 20897,
    "Ġoust": 21327,
    "Ġfore": 2155,
    "Ġsail": 1673,
    "Ġclaret": 22362,
    "Ġmusic": 5269,
    "istics": 1630,
    "library": 13003,
    "Ġpunch": 9957,
    "Ġwaldman": 11346,
    "Ġif": 696,
    "Ġlad": 2366,
    "Ġegyptian": 13589,
    "observation": 17271,
    "impressions": 20701,
    "tide": 11534,
    "ainted": 3660,
    "âĢľâĢĻ": 10223,
    "Ġcomprehended": 11295,
    "Ġinserting": 19908,
    "resent": 10770,
    "Ġ66": 24368,
    "Ġeludes": 26555,
    "Ġlean": 7606,
    "Ġfilling": 13411,
    "Ġnoises": 18375,
    "Ġroom": 1463,
    "Ġimprovement": 7963,
    "ilburn": 18062,
    "works": 6592,
    "Ġoutputs": 2882,
    "zening": 21151,
    "tures": 21072,
    "Ġtusk": 25426,
    "Ġherds": 9718,
    "Ġda": 5150,
    "Ġaslant": 21906,
    "Ġcurious": 3364,
    "Ġexpressive": 8984,
    "capitals": 25083,
    "Ġpresent": 1641,
    "fearing": 18525,
    "Ġspur": 18304,
    "playful": 24356,
    "Ġbradstreet": 9578,
    "Ġsaints": 20677,
    "Ġrighteous": 18948,
    "flag": 14713,
    "seeking": 17154,
    "Ġnash": 5820,
    "Ġeclips": 20699,
    "mers": 9612,
    "Ġattendance": 12185,
    "impatient": 13643,
    "Ġheated": 21686,
    "Ġproposition": 23252,
    "Ġbawling": 25946,
    "Ġorganizations": 12317,
    "naturalist": 23526,
    "Ġpredecessor": 26255,
    "dimly": 15349,
    "Ġdeception": 18142,
    "horse": 8609,
    "pton": 15795,
    "Ġflow": 1238,
    "despond": 19803,
    "ard": 465,
    "Ġundoubted": 19517,
    "wreat": 21130,
    "alleging": 23028,
    "harb": 9125,
    "Ġscho": 4436,
    "Ġmate": 3710,
    "oko": 18446,
    "Ġdeliberate": 15024,
    "breeze": 20565,
    "Ġdropt": 23679,
    "Ġrecklessly": 16984,
    "oked": 4308,
    "Ġunobstructed": 18265,
    "Ġappeals": 16318,
    "Ġinspect": 5966,
    "smiles": 14694,
    "heavily": 24533,
    "Ġnarrative": 6217,
    "ividual": 5463,
    "Ġinnoc": 3796,
    "Ġdark": 2111,
    "Ġsteadily": 8053,
    "Ġharder": 14451,
    "Ġoppress": 13175,
    "ficial": 17549,
    "Ġrele": 2912,
    "asting": 12810,
    "Ġpacifics": 24372,
    "Ġso": 432,
    "wished": 13807,
    "Ġwreath": 25937,
    "Ġmalignant": 14880,
    "woes": 21136,
    "Ġpossibility": 7458,
    "Ġthump": 11613,
    "Ŀ": 256,
    "government": 25407,
    "Ġbroom": 18908,
    "Ġrecol": 4028,
    "ste": 3586,
    "Ġtropical": 17065,
    "Ġgrim": 7439,
    "Ġunden": 22018,
    "Ġdispositions": 13236,
    "======================================================================": 10070,
    "Ġcoco": 11002,
    "Ġsquared": 1383,
    "Ġeas": 2354,
    "Ġshine": 12770,
    "Ġlicense": 20094,
    "Ġexpiring": 16098,
    "mering": 12494,
    "oura": 1060,
    "Ġroods": 22408,
    "Ġinhabitant": 19758,
    "Ġreliability": 22885,
    "Ġpresumably": 19627,
    "separated": 20162,
    "Ġwoll": 21296,
    "Ġgods": 6455,
    "ush": 3634,
    "Ġpositional": 2598,
    "blog": 19842,
    "renched": 7909,
    "Ġfelt": 1743,
    "Ġunnatural": 7190,
    "Ġwhim": 14001,
    "Ġorganization": 7985,
    "lour": 15383,
    "Ġwast": 21865,
    "Ġvoice": 2194,
    "Ġaverages": 2398,
    "Ġenabling": 1083,
    "Ġhapless": 15815,
    "Ġcorrection": 5062,
    "famous": 16917,
    "Ġcredulous": 17146,
    "Ġlive": 2734,
    "Ġcomprise": 18586,
    "former": 11751,
    "george": 26020,
    "Ġissue": 2313,
    "Ġstruggle": 3677,
    "Ġblankets": 24613,
    "required": 17030,
    "oftentimes": 19424,
    "Ġgulp": 20032,
    "Ġunjust": 8486,
    "Ġspouter": 12802,
    "Ġhues": 21493,
    "rusted": 16508,
    "Ġensure": 23691,
    "Ġbowels": 9432,
    "ius": 5789,
    "Ġadvis": 9809,
    "Ġcannibal": 7775,
    "Ġhast": 3148,
    "ipotent": 10959,
    "Ġxvi": 19106,
    "Ġchal": 18379,
    "Ġyourselves": 9030,
    "gorge": 22342,
    "cottage": 9571,
    "Ġunfitted": 24110,
    "Ġjackets": 19605,
    "Ġexacted": 23605,
    "Ġsigned": 11178,
    "Ġgown": 10203,
    "sensations": 20054,
    "Ġins": 2780,
    "Ġparlor": 13542,
    "pyramid": 21032,
    "shortened": 24747,
    "iferous": 17293,
    "Ġpromotion": 23198,
    "Ġattendant": 11286,
    "atious": 10153,
    "rubbed": 22189,
    "Ġprocesses": 3635,
    "Ġdeserves": 13293,
    "own": 747,
    "telesc": 22821,
    "Ġhappen": 5570,
    "Ġmediocrity": 26609,
    "Ġwoods": 5406,
    "vedale": 22714,
    "Ġaccumulates": 2886,
    "Ġsickle": 24247,
    "Ġsatisfactory": 11193,
    "Ġhoof": 23355,
    "Ġbuckets": 17034,
    "offices": 19062,
    "posted": 24637,
    "wood": 5900,
    "Ġbrothers": 13178,
    "plumed": 21966,
    "proper": 7471,
    "Ġregularizer": 2341,
    "thar": 18218,
    "Ġmonarch": 14417,
    "approached": 13488,
    "cleanliness": 25872,
    "Ġpagoda": 19791,
    "Ġmotions": 8282,
    "Ġenigmatical": 20600,
    "perceived": 8861,
    "Ġlucky": 7760,
    "Ġ23": 13195,
    "Ĝ": 221,
    "oors": 17621,
    "Ġnought": 21526,
    "etus": 21582,
    "ributed": 8216,
    "Ġmalay": 24390,
    "Ġaloof": 21790,
    "Ġsimilar": 4918,
    "Ġwretched": 4081,
    "Ġclutched": 13521,
    "jumping": 20248,
    "Ġstaggered": 9541,
    "Ġexplain": 545,
    "Ġdumplings": 15193,
    "Ġtents": 13820,
    "rage": 10844,
    "Ġtobacco": 8368,
    "Ġaspire": 21905,
    "Ġearning": 23944,
    "anter": 9168,
    "Ġwes": 8782,
    "Ġnearest": 8473,
    "--âĢľ": 12976,
    "Ġtalent": 12300,
    "Ġwithdraw": 16965,
    "national": 21000,
    "Ġfri": 17880,
    "Ġexertions": 13413,
    "Ġain": 6970,
    "icy": 6142,
    "Ġdoran": 9181,
    "Ġtreatise": 19348,
    "woe": 21138,
    "Ġreaches": 18034,
    "Ġbesee": 19244,
    "isen": 10793,
    "Ġdiggings": 24650,
    "Ġrearing": 12681,
    "Ġfloated": 7288,
    "Ġkuiperai": 10936,
    "Ġmountainous": 16600,
    "lac": 17590,
    "ribute": 7224,
    "Ġrending": 19470,
    "Ġminers": 22836,
    "Ġheed": 5630,
    "Ġunho": 18246,
    "Ġdecidedly": 9511,
    "reme": 2424,
    "aisance": 15077,
    "burnt": 20083,
    "Ġdy": 2437,
    "dutch": 17220,
    "sombre": 23857,
    "uttle": 6249,
    "Ġmultitudinous": 26275,
    "surf": 24214,
    "Ġmart": 10780,
    "Ġmemory": 2277,
    "pleasing": 14745,
    "Ġfloat": 12035,
    "allions": 22203,
    "Ġexert": 5722,
    "uvian": 12246,
    "Ġeleg": 6194,
    "Ġdiffered": 22715,
    "Ġmichael": 20682,
    "Ġcannib": 6038,
    "Ġoccupations": 9460,
    "Ġshar": 9252,
    "Ġembattled": 26289,
    "Ġuntoward": 19167,
    "Ġfiver": 22784,
    "59": 17475,
    "Ġmoth": 17804,
    "Ġhistory": 4006,
    "son": 2331,
    "reporting": 24493,
    "arrival": 15603,
    "boiling": 19000,
    "opinion": 10985,
    "te": 995,
    "Ġwere": 557,
    "Ġskirts": 14354,
    "horses": 17568,
    "Ġcongrat": 5828,
    "Ġingenuity": 17165,
    "Ġneville": 7399,
    "Ġbenefit": 8295,
    "itime": 15551,
    "Ġtraced": 10385,
    "Ġstocks": 23180,
    "animals": 24737,
    "oot": 13767,
    "Ġenvelopes": 24506,
    "ieties": 19023,
    "Ġharpo": 1940,
    "Ġentertained": 10000,
    "oise": 15405,
    "seldom": 13789,
    "Ġexperiments": 23030,
    "prehensible": 12363,
    "ots": 3295,
    "Ġgaieties": 24197,
    "gazing": 12475,
    "thur": 7188,
    "interesting": 12205,
    "still": 4220,
    "Ġmixture": 9564,
    "Ġtrance": 12843,
    "Ġboldness": 24427,
    "Ġent": 904,
    "wall": 10138,
    "Ġshoulder": 5849,
    "Ġtwopence": 18661,
    "Ġabsence": 4895,
    "fitting": 1508,
    "uses": 11764,
    "Ġinvestigated": 25387,
    "Ġclaws": 15973,
    "ier": 1135,
    "igh": 2028,
    "Ġdocks": 14179,
    "atre": 17771,
    "Ġstealing": 18895,
    "Ġmembrane": 20507,
    "cially": 3491,
    "Ġmagnified": 23210,
    "qu": 369,
    "why": 2827,
    "Ġrequires": 1064,
    "em": 389,
    "Ġshrivelled": 19706,
    "Ġdey": 11677,
    "Ġdetested": 14176,
    "Ġsli": 4749,
    "lins": 2025,
    "Ġdefe": 21840,
    "cked": 2761,
    "Ġgrated": 22808,
    "Ġspilled": 10926,
    "ories": 4754,
    "though": 2115,
    "Ġsoup": 7069,
    "vered": 4832,
    "Ġpolitic": 23620,
    "Ġbolts": 16944,
    "Ġsupport": 6730,
    "Ġmonument": 16240,
    "Ġhazard": 20435,
    "Ġaccompl": 5167,
    "bon": 13687,
    "iz": 365,
    "Ġpoet": 8210,
    "Ġannealing": 1555,
    "gypt": 8262,
    "etwork": 441,
    "Ġfacts": 2290,
    "Ġheat": 5453,
    "metallic": 19882,
    "Ġsafer": 22175,
    "Ġdrank": 16537,
    "comfortable": 7320,
    "cond": 1662,
    "mir": 20965,
    "mph": 20974,
    "Ġfearfully": 23514,
    "Ġtranquil": 7310,
    "repe": 8780,
    "Ġ0": 1902,
    "Ġjing": 15952,
    "Ġmistress": 8615,
    "Ġoffic": 3184,
    "Ġsaving": 15890,
    "Ġpresum": 4839,
    "Ġyell": 21782,
    "Ġhasn": 12929,
    "adventure": 17235,
    "ried": 924,
    "quired": 21860,
    "Ġsevent": 18201,
    "Ġsensible": 4976,
    "under": 3130,
    "Ġtickled": 20060,
    "hum": 3780,
    "Ġfail": 4150,
    "irksome": 18175,
    "gments": 12473,
    "all": 485,
    "Ġraved": 22655,
    "Ġinevitable": 15170,
    "Ġenhancement": 23833,
    "Ġirretrie": 23375,
    "orate": 10801,
    "Ġcomputers": 2644,
    "Ġfreshet": 25704,
    "Ġcounter": 6482,
    "ble": 542,
    "french": 9121,
    "Ġfew": 1207,
    "Ġhaggerston": 26453,
    "Ġassisting": 13262,
    "iquette": 26133,
    "idol": 21771,
    "Ġmax": 2003,
    "pertaining": 22193,
    "Ġers": 15462,
    "bpp": 20774,
    "Ġsingled": 23774,
    "Ġcons": 953,
    "Ġpleasing": 6192,
    "Ġdepartments": 24244,
    "magn": 10612,
    "Ġghast": 9211,
    "Ġ131": 24781,
    "Ġgrec": 18962,
    "Ġslop": 23166,
    "ropes": 7905,
    "Ġrepelled": 19087,
    "Ġacute": 16126,
    "Ġtroubles": 19442,
    "ors": 853,
    "Ġopposition": 16523,
    "Ġbattalions": 25777,
    "Ġledge": 19404,
    "Ġundertaken": 18986,
    "Ġunattended": 15846,
    "Ġtrout": 22347,
    "Ġfacial": 10607,
    "Ġmarlings": 23040,
    "apologizing": 26545,
    "Ġtransf": 22440,
    "_)": 9104,
    "Ġlaughs": 24118,
    "Ġshunned": 17295,
    "Ġpassionate": 11274,
    "rim": 7139,
    "Ġclever": 7056,
    "Ġestimated": 16595,
    "Ġhot": 4257,
    "Ġed": 2245,
    "Ġgrain": 15834,
    "puzzling": 26144,
    "Ġsofas": 26226,
    "Ġtheology": 21279,
    "Ġassuming": 16693,
    "istan": 22113,
    "Ġobliterated": 17407,
    "©": 107,
    "solid": 16379,
    "Ġcleanse": 24526,
    "Ġnovelty": 13466,
    "Ġremain": 1873,
    "Ġsparks": 22138,
    "Ġtroub": 22348,
    "asleep": 21548,
    "actorily": 25576,
    "Ġstrive": 23696,
    "Ġpupp": 10821,
    "Ġperches": 18450,
    "Ġcasualties": 25513,
    "Ġvessel": 3800,
    "pots": 11515,
    "Ġletter": 2200,
    "omical": 9682,
    "voyage": 7787,
    "gin": 4931,
    "fashion": 8082,
    "Ġdecaying": 2251,
    "nnight": 20995,
    "Ġrefres": 14342,
    "harpoon": 9493,
    "Ġearliest": 9833,
    "grace": 5847,
    "Ġqualifications": 24676,
    "Ġobe": 5801,
    "Ġchildren": 3769,
    "¾": 127,
    "Ġprints": 16334,
    "subtle": 24245,
    "building": 17311,
    "etent": 10201,
    "ê": 171,
    "Ġbuilt": 8302,
    "washed": 13050,
    "Ġsink": 4341,
    "abs": 11669,
    "Ġaffectionately": 13171,
    "Ġswam": 6449,
    "Ġdil": 6384,
    "Ġcaulking": 20296,
    "Ġdoctrine": 24199,
    "convalescence": 24885,
    "Ġdisent": 22528,
    "shot": 2146,
    "Ġ1836": 25721,
    "Ġmagnetic": 17242,
    "Ġaltering": 18105,
    "Ġkeener": 22918,
    "icism": 13958,
    "low": 655,
    "Ġimpending": 22388,
    "Ġmade": 1049,
    "Ġpeaking": 22694,
    "Ġcutting": 4983,
    "bec": 4053,
    "Ġslid": 7953,
    "Ġappre": 5165,
    "Ġlighten": 23263,
    "Ġtorch": 25033,
    "romed": 10906,
    "Ġgradu": 15835,
    "Ġbeacon": 21761,
    "Ġdocumentation": 20557,
    "Ġunw": 7005,
    "imod": 15713,
    "Ġfrozen": 9015,
    "Ġbravest": 23844,
    "desire": 14663,
    "Ġful": 4297,
    "shirt": 22458,
    "Ġtwin": 12932,
    "Ġnumbers": 2884,
    "Ġeber": 18006,
    "abash": 18110,
    "Ġscenery": 11457,
    "Ġexcused": 23313,
    "Ġunprejudiced": 18270,
    "should": 3261,
    "Ġformation": 2939,
    "Ġassumpt": 5415,
    "Ġrooms": 5180,
    "sample": 12510,
    "oul": 4700,
    "letter": 6203,
    "U": 57,
    "Ġautom": 3515,
    "Ġdust": 5911,
    "Ġexpressly": 16454,
    "Ġcalculates": 13269,
    "declined": 25175,
    "albatross": 15633,
    "order": 1956,
    "Ġacutely": 14316,
    "unless": 9237,
    "Ġtemporal": 2613,
    "Ġreveries": 11348,
    "Ġremaining": 6190,
    "passage": 11262,
    "amped": 12036,
    "Ġretains": 20033,
    "stopping": 19353,
    "sixteen": 24854,
    "Ġ50": 24314,
    "ribs": 23367,
    "lovely": 16048,
    "Ġblue": 3457,
    "poison": 14394,
    "Ġminutely": 14561,
    "osition": 1374,
    "fugitive": 26132,
    "ghost": 20889,
    "Ġtag": 15470,
    "true": 2587,
    "estation": 15923,
    "itself": 7835,
    "Ġvagueness": 25738,
    "Ġdavy": 25952,
    "Ġobsc": 7041,
    "pronouncing": 25194,
    "muring": 17602,
    "audible": 17134,
    "ception": 6564,
    "publ": 17639,
    "Ġmultimodal": 18749,
    "house": 4077,
    "Ġdoubting": 13102,
    "tales": 17687,
    "ti": 8391,
    "legged": 10467,
    "agitation": 14070,
    "Ġlexicon": 25975,
    "Ġobst": 6285,
    "Ġdirected": 5578,
    "unc": 15772,
    "Ġabuse": 18398,
    "consum": 12874,
    "Ġfowl": 11331,
    "Ġfaulty": 14909,
    "13": 20752,
    "Ġcane": 10928,
    "Ġrev": 6989,
    "rocious": 21543,
    "âĢĶâĢĺ": 7015,
    "Ġimperial": 9483,
    "individual": 18437,
    "Ġvan": 1091,
    "Ġpraises": 16731,
    "Ġboxes": 13377,
    "Ġangle": 8606,
    "surpr": 5999,
    "Ġcatches": 23429,
    "agers": 5633,
    "Ġshrill": 12145,
    "Ġartful": 22614,
    "Ġverses": 17063,
    "Ġelse": 2481,
    "sister": 5139,
    "Ġirresistible": 13116,
    "ip": 554,
    "glim": 19368,
    "Ġspermacetti": 19050,
    "seeing": 7080,
    "Ġambiguous": 20167,
    "Ġdiverted": 14593,
    "hospit": 25904,
    "Ġsuns": 23277,
    "Ġsubstant": 14811,
    "Ġtexas": 25923,
    "Ġmichaelmas": 26376,
    "Ġwarnings": 16882,
    "Ġprodigious": 8058,
    "compliments": 24807,
    "Ġinnocence": 6478,
    "indifference": 15985,
    "Ġreappeared": 21669,
    "tal": 17671,
    "Ġadvertising": 25390,
    "Ġforeb": 12006,
    "Ġoutsk": 15959,
    "Ġsunken": 14494,
    "Ġev": 4830,
    "Ġcircular": 13114,
    "Ġ(`": 12856,
    "Ġdisobedience": 22540,
    "Ġdaybreak": 18727,
    "osque": 22267,
    "eff": 2535,
    "Ġtravelling": 11308,
    "50": 6785,
    "Ġdis": 693,
    "supervised": 1953,
    "contents": 12061,
    "Ġgain": 4829,
    "lingering": 18602,
    "absolute": 17124,
    "Ġswerve": 14440,
    "Ġ55": 24318,
    "capital": 15091,
    "forbid": 14355,
    "oboam": 9360,
    "creat": 20802,
    "Ġclaimed": 14204,
    "Ġdodge": 19888,
    "Ġpear": 11855,
    "Ġcivil": 4680,
    "condite": 23250,
    "omb": 10207,
    "Ġflit": 23012,
    "taking": 5689,
    "Ġtrusty": 24106,
    "Ġinsignificance": 20460,
    "*": 14,
    "remark": 7261,
    "94": 4804,
    "Ġgrey": 4513,
    "Ġguilty": 7250,
    "Ġperformed": 8550,
    "ñ": 178,
    "ophisticated": 22483,
    "Ġslappin": 18945,
    "akeman": 6269,
    "disgrace": 16460,
    "Ġinit": 817,
    "Ġbead": 21755,
    "damn": 20027,
    "Ġjoes": 19232,
    "Ġsob": 12791,
    "Ġstate": 1807,
    "Ġtreacle": 14596,
    "Ġlav": 13951,
    "Ġtattooed": 11379,
    "Ġscrut": 15948,
    "Ġoppose": 16522,
    "Ġelixir": 26556,
    "Ġarc": 14160,
    "thrasher": 25659,
    "Ġweighed": 8714,
    "Ġchambermaid": 24305,
    "Ġproves": 14040,
    "involved": 25627,
    "Ġdromedary": 17441,
    "Ġconstitution": 20112,
    "Ġbecoming": 4398,
    "Ġfar": 1449,
    "riptions": 14797,
    "Ġsheaves": 22163,
    "Ġplayfulness": 23639,
    "Ġcall": 2074,
    "Ġencourag": 1395,
    "Ġscrawled": 24580,
    "Ġott": 13868,
    "Ġ124": 24468,
    "mouth": 9132,
    "azed": 9401,
    "solute": 16599,
    "iguous": 18046,
    "can": 1232,
    "Ġdisrespect": 18554,
    "repaid": 24490,
    "Ġsplendid": 17215,
    "Ġenhance": 3246,
    "lands": 8242,
    "Ġconcise": 23323,
    "Ġscream": 5937,
    "Ġmystery": 5509,
    "stayed": 25291,
    "Ġdetained": 18373,
    "Ġwhittingham": 26199,
    "hush": 20908,
    "Ġtranslates": 12054,
    "Ġeighty": 19479,
    "Ġatlantic": 7001,
    "Ġvanquished": 22882,
    "je": 11497,
    "plexion": 14264,
    "Ġjavelins": 26106,
    "Ġfreshe": 13073,
    "_,âĢĿ": 6220,
    "neglected": 25670,
    "Ġleaves": 5021,
    "Ġrichest": 26213,
    "headed": 4318,
    "Ġtorm": 5434,
    "edding": 4368,
    "therly": 18347,
    "Ġirrevoc": 15040,
    "rief": 6204,
    "Ġcommendation": 13613,
    "=": 33,
    "Ġdecipher": 22451,
    "cott": 8075,
    "Ġtwice": 4663,
    "wrapped": 15212,
    "preference": 22472,
    "Ġwaste": 9236,
    "vation": 4745,
    "Ġandromeda": 21512,
    "Ġrepining": 23362,
    "Ġtowering": 16740,
    "Ġamiable": 4269,
    "Ġbumpkin": 20203,
    "Ġtree": 5285,
    "prosper": 19102,
    "Ġspell": 8858,
    "Ġhailing": 11696,
    "Ġdrunk": 9426,
    "Ġdenominated": 15231,
    "ifford": 15787,
    "Ġtilted": 20416,
    "¤": 102,
    "Ġvulture": 17341,
    "Ġbrigs": 20325,
    "mises": 20980,
    "print": 23814,
    "Ġdescrib": 2718,
    "udg": 22772,
    "uck": 1233,
    "Ġrepentance": 15163,
    "Ġbrother": 2747,
    "Ġsister": 1476,
    "whip": 22242,
    "Ġoutlaws": 22328,
    "acy": 3955,
    "Ġthinner": 24184,
    "othing": 6996,
    "Ġpitches": 23905,
    "Ġhigher": 1818,
    "god": 4864,
    "icil": 17974,
    "Ġabrid": 22287,
    "crowning": 25749,
    "Ġcastle": 14719,
    "regards": 23468,
    "Ġmicrosc": 20679,
    "oughed": 22080,
    "Ġgruff": 21618,
    "Ġsalesman": 13671,
    "Ġhardy": 8569,
    "Ġpsych": 10178,
    "Ġropes": 10749,
    "Ġstir": 5824,
    "Ġservox": 23873,
    "Ġhart": 17924,
    "Ġmerest": 14032,
    "scene": 14421,
    "Ġran": 3346,
    "Ġcaprice": 14578,
    "Ġdrowsy": 26445,
    "Ġhuzza": 12637,
    "Ġnoiseless": 10358,
    "Ġarmada": 23582,
    "ources": 2788,
    "Ġkiller": 19571,
    "ilations": 21726,
    "Ġcastaway": 16642,
    "stir": 12677,
    "pulling": 25149,
    "simon": 16974,
    "Ġindisposed": 26290,
    "supernatural": 19782,
    "Ġframed": 19065,
    "Ġreleased": 2976,
    "Ġwire": 13854,
    "Ġanat": 8125,
    "Ġshaved": 22007,
    "murderer": 13396,
    "offended": 16400,
    "Ġsoar": 18282,
    "Ġextraction": 11253,
    "pulled": 25148,
    "Ġvolumes": 14802,
    "Ġele": 1960,
    "recursion": 13332,
    "proceeding": 20144,
    "Ġlayers": 815,
    "hastening": 24447,
    "offers": 16398,
    "Ġdescends": 14289,
    "Ġbandages": 24426,
    "Ġundeserving": 18269,
    "accompl": 9882,
    "oo": 7553,
    "Ġcubic": 20091,
    "Ġdisclosed": 15156,
    "sheltered": 25586,
    "Ġword": 1051,
    "Ġcontrolled": 23253,
    "Ġdescribed": 6608,
    "aired": 8370,
    "flakes": 23971,
    "Ġtet": 21160,
    "erringly": 16214,
    "Ġcloudy": 19480,
    "Ġmarvellous": 7538,
    "Ġawful": 6201,
    "Ġkid": 9727,
    "embow": 21934,
    "Ġchestnuts": 24380,
    "Ġenjoys": 19453,
    "wich": 11545,
    "ided": 2784,
    "mist": 5686,
    "hob": 20902,
    "Ġapplied": 6188,
    "screen": 22995,
    "Ġcentrally": 23835,
    "Ġdelirium": 10406,
    "uerus": 26407,
    "Ġwint": 15535,
    "collinses": 19925,
    "Ġfanned": 19101,
    "Ġhasten": 10479,
    "Ġferrule": 24516,
    "summer": 11996,
    "Ġwilson": 6632,
    "Ġmutiny": 13264,
    "Ġgardens": 16453,
    "Ġbacking": 16120,
    "Ġentrances": 25836,
    "Ġjewels": 12372,
    "boscombe": 26122,
    "drawn": 9915,
    "log": 18532,
    "increas": 10455,
    "sleet": 20152,
    "letters": 13177,
    "abern": 21794,
    "Ġthrob": 21522,
    "Ġnamed": 6141,
    "iment": 2814,
    "oted": 4599,
    "lock": 1471,
    "command": 6578,
    "Ġtruest": 16701,
    "Ġcandles": 9910,
    "Ġprogen": 14041,
    "accursed": 20543,
    "owing": 7602,
    "Ġaffords": 16735,
    "inj": 9153,
    "oat": 13766,
    "doom": 23378,
    "Ġcir": 21344,
    "Ġanonym": 17899,
    "!": 5,
    "ied": 942,
    "Ġloading": 15877,
    "igating": 21703,
    "braces": 24659,
    "forest": 22522,
    "Ġought": 3422,
    "longing": 23728,
    "Ġaccommodate": 20520,
    "Ġconve": 5455,
    "Ġworlds": 11950,
    "Ġabounding": 12347,
    "offic": 7466,
    "urried": 21708,
    "Ġprizes": 13077,
    "Ġstirring": 10581,
    "Ġinvoked": 19146,
    "Ġmig": 13858,
    "tale": 10129,
    "byshire": 6174,
    "Ġprofit": 14586,
    "Ġdevotees": 25377,
    "Ġhire": 21489,
    "Ġreliably": 22884,
    "Ġgrievances": 20650,
    "Ġadvert": 10573,
    "orrowed": 19291,
    "related": 24016,
    "Ġweep": 7620,
    "spade": 10341,
    "Ġpittance": 15620,
    "Ġconcealed": 7495,
    "Ġremoving": 12120,
    "Ġconfided": 19035,
    "Ġbreeding": 14522,
    "Ġanimated": 7703,
    "sought": 15429,
    "Ġadversary": 12177,
    "namely": 23653,
    "greatest": 10495,
    "Ġimmovable": 15895,
    "glings": 23854,
    "Ġrascal": 11703,
    "Ġincorruption": 26310,
    "hens": 3937,
    "Ġstowed": 21741,
    "è": 169,
    "Ġengland": 3858,
    "Ġ130": 24780,
    "Ġimperson": 14219,
    "Ġpatched": 16387,
    "Ġjav": 7904,
    "Ġunpardonable": 22067,
    "Ġst": 332,
    "ulties": 12905,
    "Ġstabbing": 20306,
    "Ġpleasantly": 14520,
    "Ġcharts": 12831,
    "Ġsolutions": 1944,
    "Ġcott": 3711,
    "Ġenjoyed": 8009,
    "Ġcompensated": 17403,
    "Ġprayed": 16669,
    "Ġglow": 7171,
    "itic": 11580,
    "Ġchamp": 18382,
    "Ġchurches": 12832,
    "Ġfeast": 10279,
    "shoals": 24716,
    "stun": 18021,
    "eat": 11484,
    "Ġsymbol": 7718,
    "Ġcyl": 15560,
    "Ġmy": 412,
    "Ġangrily": 9409,
    "quee": 4131,
    "Ġshell": 11739,
    "Ġmunro": 25631,
    "Ġeconomical": 25288,
    "Ġprompted": 23819,
    "leads": 21373,
    "Ġblend": 14401,
    "Ġlig": 21552,
    "phology": 3006,
    "Ġoh": 2179,
    "Ġprevents": 2558,
    "Ġin": 291,
    "shipping": 10309,
    "usion": 3301,
    "robber": 21541,
    "orified": 21405,
    "warks": 5004,
    "Ġhanding": 16133,
    "fabulous": 20477,
    "turbable": 24530,
    "iary": 15373,
    "Ġcheetah": 14502,
    "Ġunimpe": 22077,
    "corpse": 24485,
    "ĠĠĠĠĠĠĠĠĠĠĠĠĠ": 22568,
    "±": 114,
    "Ġterr": 3275,
    "'(": 2977,
    "Ġply": 21457,
    "refuge": 24733,
    "Ġtease": 18809,
    "Ġmitt": 21310,
    "Ġrecommended": 8671,
    "Ġcordon": 24393,
    "cop": 20803,
    "Ġviewing": 19266,
    "ication": 1002,
    "secre": 18130,
    "Ġsuccess": 3612,
    "our": 534,
    "ange": 1018,
    "claps": 23157,
    "garious": 17559,
    "Ġmajestic": 8643,
    "Ġpulpit": 7470,
    "Ġamphitheat": 26253,
    "Ġburgled": 23659,
    "aux": 14290,
    "Ġprudence": 13922,
    "asp": 3343,
    "Ġgrunt": 18736,
    "asable": 21545,
    "Ġfeigned": 22215,
    "Ġmillions": 11355,
    "dried": 20829,
    "ā": 194,
    "stee": 21655,
    "Ġalternating": 15032,
    "Ġjourney": 3880,
    "rential": 22922,
    "Ġpint": 17911,
    "contented": 14635,
    "Ġladyship": 5046,
    "Ġparticular": 2450,
    "âĢĶ": 518,
    "iece": 3227,
    "aan": 20766,
    "hatchway": 25905,
    "Ġunsupervised": 2513,
    "Ġwhichever": 14002,
    "taste": 10131,
    "Ġscruples": 15081,
    "Ġvect": 1226,
    "yours": 7696,
    "Ġlumps": 21560,
    "Ġpreceded": 13431,
    "Ġcapacious": 19178,
    "Ġincreas": 1692,
    "Ġexplained": 5938,
    "wet": 15454,
    "Ġdescried": 7921,
    "Ġtemperate": 16165,
    "Ġdiscovering": 13361,
    "Ġeffects": 7236,
    "dislike": 23497,
    "Ġlic": 8438,
    "alescing": 23869,
    "Ġbias": 1191,
    "Ġget": 1625,
    "Ġreeling": 18035,
    "truth": 9921,
    "Ġentries": 22747,
    "Ġorgan": 2502,
    "Ġdominion": 16516,
    "Ġconcentrate": 25066,
    "refusal": 24735,
    "inkles": 7426,
    "Ġpride": 3825,
    "Ġmetropol": 11138,
    "ef": 5134,
    "continu": 5501,
    "sentimental": 25682,
    "spoke": 11024,
    "Ġdocuments": 10025,
    "Ġappropri": 2231,
    "Ġdarkened": 16434,
    "Ġrenow": 18030,
    "sartain": 25623,
    "Ġpie": 13917,
    "Ġprices": 15615,
    "ware": 3935,
    "Ġdiscrimination": 23607,
    "Ġtasks": 1785,
    "experience": 17160,
    "Ġsunbeam": 23279,
    "Ġcoroner": 7510,
    "Ġboundless": 10497,
    "Ġinduced": 8674,
    "Ġovers": 14207,
    "Ġfurnish": 9021,
    "avier": 2829,
    "ersed": 10261,
    "Ġcategories": 4478,
    "Ġroyals": 19535,
    "obstructed": 15229,
    "Ġwert": 12560,
    "Ġte": 1167,
    "Ġnewsp": 9341,
    "Ġemergency": 25731,
    "Ġfrayed": 23338,
    "Ġcassock": 20490,
    "spell": 22732,
    "Ġcum": 21345,
    "Ġshoes": 7073,
    "ement": 1501,
    "ence": 392,
    "Ġpil": 5014,
    "Ó": 148,
    "Ġsultry": 20291,
    "Ġmultiplied": 23693,
    "steaks": 23964,
    "Ġrelevant": 1863,
    "itations": 17819,
    "Ġfettered": 24568,
    "feet": 6570,
    "Ġduties": 6611,
    "Ġintu": 12767,
    "tray": 21080,
    "min": 4573,
    "Ġgovernor": 16492,
    "ved": 869,
    "Ġwrist": 8244,
    "Ġrucastle": 5176,
    "ctor": 13962,
    "pause": 12504,
    "Ġ221": 25071,
    "borean": 25744,
    "phil": 7927,
    "Ġrattled": 15071,
    "Ġclothe": 4713,
    "Ġhistorically": 19381,
    "Ġgoblets": 20522,
    "Ġslee": 8976,
    "Ġvoid": 14088,
    "Ġcusack": 26434,
    "Ġairs": 14510,
    "Ġtongs": 9963,
    "Ġdefray": 22945,
    "Ġasyl": 12738,
    "Ġpines": 12621,
    "Ġadv": 1133,
    "Ġobtain": 8917,
    "peace": 13053,
    "independ": 15984,
    "Ġjoke": 8871,
    "Ġfrosty": 14937,
    "Ġidiotic": 25589,
    "¯": 112,
    "grounds": 11152,
    "Ġyard": 5923,
    "visitor": 15061,
    "dreadful": 11422,
    "pull": 6797,
    "tomb": 21096,
    "Ġsavag": 19377,
    "mission": 5972,
    "Ġstrongly": 5657,
    "amid": 12728,
    "Ġsublim": 19970,
    "Ġhomage": 12358,
    "Ġintim": 6838,
    "ages": 827,
    "Ġwoollen": 12107,
    "Ġadmiring": 16481,
    "ro": 301,
    "Ġwhether": 1997,
    "Ġpoisonous": 24888,
    "Ġevalu": 3092,
    "Ġstream": 5186,
    "consc": 4842,
    "poled": 22910,
    "Ġsettee": 22924,
    "Ġfourth": 7708,
    "Ġsticks": 14933,
    "epend": 3315,
    "Ġyale": 21784,
    "Ġgiver": 21609,
    "Ġlucas": 3834,
    "Ġlan": 5821,
    "Ġmanx": 7907,
    "Ġaugmented": 15108,
    "hun": 5210,
    "Ġcabinet": 23864,
    "nyder": 16686,
    "Ġdistances": 22508,
    "warmly": 25029,
    "des": 3169,
    "Ġprotect": 6339,
    "confidence": 16809,
    "feels": 22504,
    "Ġchina": 8041,
    "Ġaction": 5797,
    "Ġtrapped": 23081,
    "Ġhardly": 2432,
    "Ġlurking": 11290,
    "Ġamong": 1667,
    "Ġturtle": 4205,
    "Ġmiguel": 25767,
    "promontory": 24727,
    "ython": 1029,
    "Ġoverjoy": 15975,
    "comfortableness": 24524,
    "Ġmerits": 13199,
    "onomy": 12551,
    "Ġincline": 18572,
    "mouthful": 25209,
    "poor": 6063,
    "Ġdependence": 18625,
    "ruct": 684,
    "admirably": 24947,
    "Ġgenealogies": 25962,
    "Ġterrier": 23400,
    "theless": 4260,
    "Ġcircumference": 13547,
    "Ġfolding": 19729,
    "Ġensue": 18191,
    "ent": 305,
    "Ġcraven": 16471,
    "Ġprobed": 18733,
    "Ġignoble": 19402,
    "Ġgarments": 15196,
    "lied": 6508,
    "gia": 20878,
    "Ġsights": 7472,
    "Ġconfirming": 25322,
    "Ġac": 845,
    "Ġobject": 1397,
    "Ġexclam": 6759,
    "adequ": 11020,
    "Ġtrunk": 7205,
    "Ġsecrets": 9056,
    "investments": 25533,
    "increased": 20273,
    "Ġarg": 4767,
    "Ġcards": 7581,
    "snowy": 20286,
    "industrious": 26241,
    "tle": 2409,
    "Ġaccurate": 13237,
    "burg": 16774,
    "Ġflock": 21415,
    "Ġtow": 4396,
    "Ġbordered": 24563,
    "ount": 1112,
    "Ġtitle": 11409,
    "æ": 167,
    "Ġgeese": 7695,
    "Ġpremeditated": 22239,
    "gainst": 25144,
    "itary": 4752,
    "Ġimpunity": 14217,
    "Ġneural": 620,
    "Ġconclusions": 10555,
    "Ġlethar": 21751,
    "grow": 10100,
    "fork": 20859,
    "Ġswelling": 11928,
    "rade": 9681,
    "Ġstamped": 13529,
    "animate": 12581,
    "Ġemergencies": 17364,
    "Ġfairest": 20466,
    "Ġmccauley": 26427,
    "Ġprem": 3429,
    "mature": 20969,
    "wherefore": 19110,
    "Ġsnap": 11201,
    "Ġhope": 1786,
    "Ġunparalleled": 15856,
    "Ġphotograph": 6304,
    "Ġfavourites": 16646,
    "Ġwildest": 16511,
    "beer": 22492,
    "Ġopportunities": 19250,
    "Ġtops": 14587,
    "anth": 13889,
    "Ġslides": 18941,
    "Ġ57": 24320,
    "Ġsympathies": 14863,
    "Ġattested": 22635,
    "na": 13762,
    "Ğ": 223,
    "cap": 8374,
    "Ġminutes": 2997,
    "Ġjoy": 3181,
    "happiest": 19334,
    "Ġscatter": 18392,
    "Ġoccasioned": 13231,
    "Ġforfeit": 21780,
    "Ġbery": 13900,
    "/(": 2980,
    "Ġhaunt": 18198,
    "wanderer": 25424,
    "Ġprovides": 1926,
    "Ġpapers": 4021,
    "Ġpay": 3963,
    "wheel": 22874,
    "Ġbreed": 19075,
    "Ġsupported": 9820,
    "Ġceremonious": 24838,
    "Ġhereabouts": 12982,
    "Ġlined": 15653,
    "Ġcombines": 1132,
    "Ġgretna": 26469,
    "tin": 6118,
    "Ġscreamed": 9526,
    "Ġhol": 1182,
    "ize": 763,
    "Ġburke": 19252,
    "isl": 21378,
    "Ġresponsiveness": 2893,
    "Ġut": 2280,
    "gs": 7338,
    "Ġrejoice": 10210,
    "Ġindulging": 16905,
    "softened": 20413,
    "iop": 20921,
    "Ġsomebody": 7914,
    "Ġgout": 21600,
    "Ġnet": 3628,
    "Ġmortals": 9918,
    "Ġseven": 4542,
    "plunging": 25988,
    "Ġmantle": 25275,
    "um": 454,
    "Ġbehaved": 13258,
    "apparatus": 26564,
    "Ġrecomm": 4996,
    "endured": 22232,
    "Ġbrougham": 17872,
    "Ġwitt": 17785,
    "Ġhigh": 930,
    "Ġretarded": 23077,
    "icha": 11740,
    "Ġconcl": 5095,
    "bowsprit": 16854,
    "Ġclumsy": 9581,
    "Ġphysiognomical": 25612,
    "alloyed": 22206,
    "Ġstool": 14463,
    "fav": 6649,
    "prior": 21035,
    "isive": 10794,
    "Ġpon": 10177,
    "Ġtwinkled": 14314,
    "igned": 5656,
    "Ġstumbling": 21747,
    "weakness": 16127,
    "Ġtread": 9411,
    "talk": 6659,
    "Ġpenalizing": 13094,
    "Ġhaughty": 11450,
    "get": 1021,
    "lanterns": 17431,
    "Ġfoes": 11955,
    "never": 3149,
    "Ġunerring": 15850,
    "Ġrashly": 20308,
    "thousand": 5546,
    "Ġsho": 2249,
    "Ġresolutely": 14610,
    "ising": 2258,
    "on": 267,
    "ceiling": 21631,
    "Ġmistaken": 4986,
    "dden": 1801,
    "embraced": 25805,
    "Ġgamming": 25543,
    "Ġsurrender": 16450,
    "Ġjunks": 25116,
    "arthy": 4824,
    "repent": 15515,
    "oses": 3946,
    "Ġunreasonably": 17453,
    "drop": 15339,
    "Ġpatriot": 23320,
    "fitzwilliam": 11353,
    "falling": 24360,
    "Ġunmo": 12777,
    "Ġhartshorn": 26182,
    "Ġsubterranean": 13614,
    "Ġstript": 23697,
    "Ġgospel": 18003,
    "Ġaddison": 14234,
    "chain": 18042,
    "shabbily": 26248,
    "Ġtalents": 15046,
    "Ġagency": 11808,
    "Ġmarshalled": 25316,
    "Ġtiar": 21170,
    "Ġmic": 17799,
    "Ġvenerable": 9096,
    "Ġlearnedly": 23387,
    "Ġfern": 21410,
    "Ġdiligent": 25078,
    "Ġinitials": 11014,
    "semic": 21826,
    "Ġwarn": 5695,
    "Ġvirt": 3909,
    "Ġgreeted": 23216,
    "Ġmissionary": 25697,
    "vac": 15452,
    "thole": 21991,
    "rom": 420,
    "Ġmotives": 7486,
    "Ġrevenue": 26196,
    "Ġsweeter": 23921,
    "hor": 2572,
    "Ġpoltro": 23621,
    "events": 12320,
    "Ġoffering": 3005,
    "Ġvial": 10250,
    "succeed": 10330,
    "Ġaboard": 6699,
    "intu": 22937,
    "Ġcoll": 8222,
    "orers": 14105,
    "Ġtip": 15473,
    "ğ": 224,
    "naught": 20996,
    "maged": 15396,
    "Ġmean": 743,
    "kindled": 16662,
    "marks": 7346,
    "icip": 6390,
    "Ġced": 10785,
    "Ġponies": 21480,
    "forbearance": 22805,
    "Ġarve": 15896,
    "mut": 17596,
    "Ġmischie": 22763,
    "Ġirritated": 17243,
    "Ġgunwales": 12244,
    "Ġinvitation": 5188,
    "Ġinterchange": 16074,
    "islanders": 25443,
    "Ġkent": 6693,
    "con": 653,
    "Ġcomplexion": 8212,
    "Ġimpenitent": 26549,
    "Ġstrolled": 16771,
    "Ġknife": 7309,
    "Ġbass": 17857,
    "Ġcumulative": 4212,
    "Ġinsight": 16532,
    "Ġwarrior": 24495,
    "assuming": 22315,
    "Ġtestimony": 14474,
    "inent": 9630,
    "umbered": 22122,
    "intolerable": 22942,
    "fee": 12884,
    "Ġinhabit": 5782,
    "secret": 12240,
    "sac": 7142,
    "icts": 22412,
    "Ġfriday": 14489,
    "Ġunbecoming": 22069,
    "Ġremedy": 18725,
    "conc": 3947,
    "Ġawait": 17073,
    "sticks": 25966,
    "Ġexhibition": 14959,
    "Ġperemptorily": 17369,
    "Ġbrick": 8928,
    "Ġnightfall": 23134,
    "Ġnoble": 3442,
    "Ġstall": 12700,
    "Ġoverfitting": 1543,
    "operation": 13503,
    "Ġjutting": 22306,
    "Ġwearer": 21928,
    "fresh": 13395,
    "Ġheathen": 10567,
    "Ġnodes": 1965,
    "Ġstill": 1155,
    "mun": 20964,
    "Ġbusiness": 2236,
    "Ġbarbara": 24815,
    "sustained": 20571,
    "Ġvexations": 24611,
    "Ġinsomuch": 23686,
    "onts": 15521,
    "Ġgripping": 26188,
    "Ġgoodly": 22825,
    "Ġavast": 9922,
    "ego": 4034,
    "ighter": 7969,
    "ctuous": 9207,
    "pivot": 21033,
    "Ġexultation": 15174,
    "_,": 2798,
    "Ġproport": 2300,
    "Ġloitered": 26526,
    "Ġutterly": 6102,
    "Ġscarcely": 4007,
    "Ġhas": 824,
    "alice": 3206,
    "ieces": 4773,
    "itect": 966,
    "ĝ": 222,
    "person": 7747,
    "Ġglad": 3326,
    "bran": 23576,
    "Ġunp": 12776,
    "meal": 22719,
    "darted": 20834,
    "Ġpretty": 3862,
    "Ġinsignific": 13183,
    "Ġtranquo": 14845,
    "Ġpore": 21462,
    "phenomenon": 17649,
    "Ġardently": 9500,
    "charitable": 23936,
    "bearded": 18520,
    "anx": 8787,
    "dee": 11736,
    "Ġardent": 9972,
    "Ġsmiles": 6708,
    "Ġslu": 13838,
    "unk": 4539,
    "adding": 21766,
    "windlass": 16722,
    "Ġimbedded": 18333,
    "Ġasiatics": 20434,
    "/`": 12432,
    "tracks": 19649,
    "otence": 14025,
    "smitten": 23912,
    "Ġoverflow": 10294,
    "Ġthw": 21519,
    "copyright": 5278,
    "Ġbend": 9172,
    "Ġdegener": 14050,
    "Ġslily": 23168,
    "ning": 949,
    "ind": 568,
    "Ġear": 1423,
    "Ġimpute": 18332,
    "london": 9611,
    "three": 5239,
    "Ġattempts": 10492,
    "Ġcontrive": 16013,
    "Ġdefy": 11900,
    "arter": 17895,
    "reng": 4001,
    "Ġbodings": 21394,
    "Ġfifth": 11258,
    "electricity": 26386,
    "Ġcrippled": 25279,
    "Ġpagans": 16923,
    "lydia": 6826,
    "Ġconcluded": 5658,
    "Ġthoroughfares": 26096,
    "loun": 17589,
    "mense": 4781,
    "Ġengineer": 11977,
    "attain": 21264,
    "Ġlordly": 23746,
    "Ġsolved": 8933,
    "Ġwires": 21298,
    "Ġcrowned": 16842,
    "clump": 23159,
    "Ġdevoid": 18681,
    "Ġserve": 9370,
    "Ġedward": 19153,
    "Ġpretended": 19316,
    "buncle": 13695,
    "hol": 3840,
    "Ġclattered": 22361,
    "influ": 9543,
    "Ġsheep": 10927,
    "Ġbillow": 14783,
    "derment": 22172,
    "sleepers": 24729,
    "Ġpulverize": 23394,
    "Ġemerge": 14930,
    "corner": 13400,
    "deliver": 19507,
    "hopeless": 16918,
    "Ġgracefully": 13394,
    "geneva": 13732,
    "Ġpunctil": 20117,
    "Ġdecember": 15008,
    "barrels": 15043,
    "Ġmeadow": 17153,
    "Ġliber": 5168,
    "Ġmodels": 754,
    "dug": 18463,
    "Ġpurplish": 19142,
    "Ġchanced": 8188,
    "Ġgidd": 25784,
    "quently": 9704,
    "Ľ": 254,
    "ource": 5244,
    "augment": 18831,
    "brit": 19200,
    "Ġhowled": 12859,
    "Ġfabric": 25948,
    "Ġcalls": 6746,
    "Ġembraces": 19874,
    "useful": 16504,
    "asing": 5914,
    "oun": 483,
    "Ġsi": 21215,
    "isa": 17847,
    "Ġothers": 2583,
    "Ġcond": 3875,
    "Ġus": 496,
    "derbyshire": 18323,
    "acquainted": 7313,
    "qualities": 25046,
    "cloth": 11940,
    "bation": 9105,
    "Ġpreferment": 19855,
    "Ġhandspike": 22700,
    "suitableness": 26262,
    "ws": 7355,
    "Ġmetal": 9382,
    "Ġmadame": 13153,
    "Ġincident": 6282,
    "Ġ78": 19616,
    "Ġsentry": 19024,
    "romang": 22010,
    "ulating": 10888,
    "Ġpersuas": 23950,
    "Ġdocument": 15020,
    "rift": 11521,
    "swells": 26149,
    "Ġimp": 573,
    "Ġpreliminary": 10059,
    "_âĢĶâĢĻ": 13685,
    "Ġsitu": 3497,
    "Ġcorn": 9352,
    "whims": 22244,
    "Ġgate": 6825,
    "Ġtragedy": 10669,
    "Ġregion": 2274,
    "arp": 2026,
    "Ġ*": 1271,
    "Ġdanes": 25160,
    "yp": 1043,
    "Ġpers": 1378,
    "Ġbecher": 18881,
    "Ġall": 422,
    "Ġreclining": 26034,
    "Ġkeenly": 9487,
    "Ġthose": 1171,
    "Ġagrees": 22520,
    "Ġsire": 15503,
    "Ġbloss": 19258,
    "Ġshares": 23248,
    "confid": 14869,
    "plun": 15822,
    "enthusiastic": 20695,
    "rig": 7556,
    "Ġprovision": 14827,
    "Ġhearses": 20063,
    "Ġtwitch": 22680,
    "blister": 24129,
    "Ġstages": 14006,
    "oqu": 7555,
    "Ġleague": 6540,
    "loo": 10321,
    "rily": 7622,
    "admon": 21765,
    "ger": 1106,
    "Ġstock": 7455,
    "gaff": 20884,
    "Ġne": 390,
    "Ġnearing": 15800,
    "halfway": 24312,
    "hardly": 6492,
    "civilized": 17075,
    "Ġreg": 729,
    "fleece": 19951,
    ",âĢĶâĢľ": 10072,
    "Ġmassac": 14739,
    "ibid": 18843,
    "Ġweighing": 20019,
    "bra": 6221,
    "venge": 4660,
    "Ġconjectured": 9999,
    "Ġblotches": 25315,
    "Ġpul": 2039,
    "|": 96,
    "beings": 12881,
    "elastic": 17983,
    "Ġsaturation": 2060,
    "Ġreven": 18031,
    "locks": 14458,
    "unavoidable": 17392,
    "Ġopportunity": 4787,
    "Ġwaking": 11572,
    "Ġgovernesses": 25130,
    "warnings": 20354,
    "Ġcove": 22587,
    "Ġhoped": 5488,
    "Ġyanke": 18100,
    "Ġelevated": 7318,
    "Ġnotable": 18223,
    "Ġclerval": 4655,
    "etah": 12665,
    "umphed": 23519,
    "ox": 9135,
    "Ġaccidental": 16849,
    "erate": 7150,
    "rows": 6443,
    "contracting": 19296,
    "philosop": 9569,
    "Ġrheum": 18215,
    "Ġheaviest": 23325,
    "Ġcruel": 5121,
    "Ġsuggestion": 19710,
    "swing": 15431,
    "Ġfour": 2217,
    "used": 3259,
    "Ġdoubly": 16385,
    "Ġphrases": 2796,
    "Ġdeceive": 12726,
    "Ġissues": 9544,
    "Ġheel": 9686,
    "commanding": 24751,
    "Ġmahogany": 20581,
    "lightning": 16553,
    "10": 17474,
    "Ġoverladen": 22371,
    "loose": 11807,
    "Ġshifted": 14109,
    "Ġtune": 17726,
    "Ġlurid": 19684,
    "ging": 2601,
    "subs": 14303,
    "obed": 14448,
    "cat": 15326,
    "Ġeag": 2962,
    "k": 79,
    "Ġglimp": 6068,
    "read": 3277,
    "Ġpursuers": 13230,
    "Ġcheerily": 13311,
    "Ġrealised": 18980,
    "nson": 16096,
    "Ġessays": 19747,
    "enged": 23151,
    "fol": 4863,
    "forgot": 11034,
    "barbs": 20240,
    "Ġincorporate": 20457,
    "Ġcompelled": 14268,
    "Ġrhone": 25231,
    "conducted": 25573,
    "ia": 1255,
    "Ġbeautifully": 13271,
    "ested": 3481,
    "Ġbressed": 21390,
    "Ġrepeatedly": 9023,
    "Ġdifferen": 936,
    "returning": 12209,
    "Ġarchbishop": 18714,
    "Ġglo": 1713,
    "affold": 16564,
    "Ġyesterday": 5333,
    "Ġsighing": 18677,
    "Ġcommitted": 7431,
    "Ġcurtain": 14422,
    "offensive": 16401,
    "Ġchance": 3318,
    "ordinary": 4408,
    "rels": 6667,
    "Ġturnpike": 23033,
    "Ġlewis": 15728,
    "ounted": 5030,
    "Ġgrass": 5177,
    "gam": 10097,
    "Ġfolk": 10377,
    "memory": 13620,
    "Ġcorp": 5574,
    "Ġaims": 15498,
    "Ġstarve": 24627,
    "Ġpaper": 4283,
    "Ġsinusoid": 4782,
    "Ġandes": 12645,
    "Ġye": 901,
    "Ġchinese": 14185,
    "Ġpurchas": 19876,
    "escript": 18472,
    "Ġberries": 13410,
    "ual": 946,
    "through": 4023,
    "Ġunc": 2124,
    "ape": 1904,
    "careful": 14868,
    "communication": 25881,
    "sens": 8098,
    "Ġcontest": 18474,
    "Ġunprofitable": 18268,
    "Ġplaus": 22606,
    "Ġcalmness": 12097,
    "tempt": 21082,
    "consequ": 18507,
    "Ġmechanically": 14398,
    "Ġshowing": 7733,
    "eag": 20844,
    "Ġfif": 4218,
    "Ġexped": 7651,
    "welcomed": 24645,
    "Ġshouldn": 14327,
    "Ġwhoa": 22425,
    "Ġfumbling": 21421,
    "ancing": 1754,
    "attoo": 6808,
    "Ġvind": 10251,
    "Ġsurmount": 20004,
    "offer": 19061,
    "Ġcheeks": 5960,
    "Ġunwritten": 22039,
    "mild": 15394,
    "Ġintimate": 6551,
    "Ġfolks": 14428,
    "smooth": 20251,
    "Ġexper": 1295,
    "bermaid": 20792,
    "Ġgodly": 19082,
    "Ġevident": 6615,
    "Ġdebility": 24274,
    "Ġbutts": 15858,
    "malice": 17604,
    "vously": 23507,
    "rely": 6125,
    "musket": 25342,
    "ppa": 10241,
    "Ġunder": 1635,
    "Ġplayful": 19238,
    "Ġdependent": 14294,
    "Ġwestern": 10656,
    "Ġpurch": 6601,
    "authority": 13594,
    "Ġbids": 24646,
    "Ġscheming": 23274,
    "Ġsophisticated": 1608,
    "onial": 11568,
    "arily": 4127,
    "Ġcapacity": 10441,
    "Ġstammered": 26201,
    "Ġexpedite": 24956,
    "imprisonment": 23764,
    "Ġsp": 458,
    "Ġdegenerated": 20509,
    "engines": 18930,
    "zor": 15460,
    "Ġone": 569,
    "Ġguardian": 14944,
    "Ġpitched": 9447,
    "guinea": 16674,
    "Ġtarn": 21161,
    "Ġlovers": 9722,
    "Ġbiases": 2397,
    "bird": 9587,
    "Ġuneasiness": 9486,
    "Ġentire": 2560,
    "Ġrap": 14308,
    "headers": 23113,
    "rannical": 26402,
    "com": 1004,
    "Ġscra": 5841,
    "Ġheaving": 7601,
    "oology": 21008,
    "Ġacquiescence": 20333,
    "bolt": 25138,
    "confined": 24327,
    "Ġinvincible": 23482,
    "telescope": 26563,
    "Ġarrive": 6907,
    "Ġaffections": 10386,
    "Ġlass": 15651,
    "Ġinformation": 1045,
    "Ġplant": 8902,
    "Ġscare": 18391,
    "sig": 2871,
    "Ġlost": 2634,
    "Ġanything": 2190,
    "Ġseats": 14090,
    "rinted": 21046,
    "Ġinquir": 4242,
    "Ġadmit": 7712,
    "travellers": 24338,
    "dreams": 12340,
    "moby": 8539,
    "Ġinhabited": 12189,
    "Ġinexperience": 26100,
    "profound": 16427,
    "Ġchast": 18381,
    "î": 175,
    "Ġcompatibility": 2954,
    "Ġquadrille": 13543,
    "balanced": 14555,
    "Ġskilful": 25838,
    "king": 3058,
    "Ġaisle": 21204,
    "Ġdistressing": 12222,
    "Ġasiatic": 20433,
    "th": 408,
    "Ġinstances": 5567,
    "Ġmassacre": 20550,
    "lights": 13208,
    "Ġrapture": 13498,
    "distant": 13338,
    "mal": 6795,
    "keenest": 25662,
    "revolver": 25628,
    "Ġencamp": 22803,
    "responsible": 25764,
    "Ġfierce": 7437,
    "Ġcategor": 4141,
    "Ġcolossal": 11460,
    "rack": 18013,
    "Ġdimin": 3872,
    "Ġcooked": 13273,
    "Ġbig": 5806,
    "Ġfault": 5702,
    "Ġderivative": 2996,
    "circuit": 24190,
    "Ġgrudge": 20696,
    "iza": 6257,
    "Ġsteward": 6586,
    "attended": 8954,
    "Ġcomplain": 6687,
    "Ġgroves": 16741,
    "Ġindu": 5295,
    "consid": 4925,
    "Ġgemini": 26470,
    "narwhale": 17320,
    "Ġfang": 21406,
    "Ġcondem": 6340,
    "iger": 8448,
    "Ġhoky": 17929,
    "Ġefficiently": 4275,
    "ikes": 8088,
    "points": 14395,
    "istrate": 7406,
    "Ġcrusad": 23709,
    "Ġdiscern": 7659,
    "throughout": 24091,
    "pierced": 26142,
    "Ġevanesc": 24295,
    "Ġkra": 18349,
    "suddenly": 6494,
    "ong": 536,
    "Ġmonarchs": 25851,
    "could": 2869,
    "Ġincl": 4270,
    "Ġembatt": 18834,
    "Ġballarat": 14721,
    "Ġvoyage": 3053,
    "Ġeat": 4645,
    "Ġcoachman": 15001,
    "Ġblade": 11896,
    "commun": 15035,
    "extric": 22768,
    "Ġindignity": 18836,
    "Ġcracking": 14575,
    "Ġruinous": 24635,
    "Ġyouthful": 16724,
    "Ġmeddle": 20580,
    "ll": 1138,
    "Ġdemi": 25549,
    "hammad": 23267,
    "Ġpopular": 6218,
    "Ġmott": 17805,
    "Ġliving": 3061,
    "Ġmixed": 6975,
    "onings": 21255,
    "Ġgilder": 21617,
    "intercourse": 14639,
    "Ġmyth": 18221,
    "archbishop": 22898,
    "Ġdistinguishing": 16498,
    "instances": 13323,
    "Ġturned": 2132,
    "Ġdischar": 11811,
    "Ġhil": 10822,
    "greek": 25405,
    "Ġlaborious": 13106,
    "distinctive": 25726,
    "Ġfierceness": 26267,
    "introduction": 15126,
    "Ġadoration": 18293,
    "Ġdiffident": 23785,
    "pardon": 10067,
    "$": 8,
    "lop": 20950,
    "Ġstuff": 5717,
    "gon": 17553,
    "Ġvacantly": 16816,
    "Ġrelatives": 12986,
    "scale": 3537,
    "Ġslavish": 23177,
    "Ġconceited": 12095,
    "Ġdies": 11595,
    "tur": 5688,
    "Ġstruck": 3393,
    "sory": 17660,
    "belais": 24042,
    "ulent": 21867,
    "crimson": 24090,
    "irectly": 6940,
    "Ġinv": 2227,
    "reproof": 25433,
    "hooked": 23718,
    "Ġ96": 24594,
    "Ġisa": 14027,
    "Ġstamp": 7866,
    "Ġzealand": 12353,
    "Ġhumbled": 16199,
    "worth": 8630,
    "Ġtrinity": 22349,
    "Ġcomprises": 22578,
    "plac": 15823,
    "Ġdetaining": 25819,
    "Ġspeaking": 4026,
    "nment": 20992,
    "their": 2541,
    "Ġcarcase": 14446,
    "Ġobscure": 9556,
    "Ġbeds": 14552,
    "Ġneedn": 19230,
    "Ġbenefactor": 14699,
    "Ġmoritz": 11909,
    "grateful": 10429,
    "Ġcompliment": 5673,
    "Ġcream": 22724,
    "oney": 3048,
    "Ġproductions": 22950,
    "hog": 8381,
    "prim": 23813,
    "Ġob": 859,
    "Ġdisgrace": 7214,
    "iscuits": 24667,
    "Ġmoderation": 12823,
    "Ġillustrious": 17109,
    "Ġfrivolous": 26177,
    "Ġhook": 6454,
    "Ġmonuments": 22983,
    "tree": 11535,
    "Ġdazz": 11596,
    "Ġjinglers": 26019,
    "Ġgarb": 21607,
    "gging": 7698,
    "Ġcount": 1813,
    "brandy": 19203,
    "Ġcarrying": 6074,
    "gaffman": 26391,
    "Ġrejected": 12297,
    "type": 16177,
    "sherlock": 5422,
    "Ġformed": 3884,
    "sent": 762,
    "Ġpush": 9186,
    "Ġvoluntary": 14801,
    "cruise": 24842,
    "Ġveteran": 17452,
    "delirium": 14787,
    "consternation": 16913,
    "peter": 24299,
    "Ġscenari": 22278,
    "Ġfacility": 19852,
    "Ġward": 10157,
    "Ġinterior": 8898,
    "ieve": 1657,
    "rive": 9709,
    "iancy": 13013,
    "Ġsums": 2898,
    "riage": 2123,
    "Ġunderneath": 16340,
    "myster": 16264,
    "Ġtrepidation": 19217,
    "Ġcrad": 21352,
    "anous": 21362,
    "orters": 21404,
    "old": 799,
    "Ġhearty": 9847,
    "Ġwipe": 25765,
    "Ġdaring": 8122,
    "equal": 14995,
    "Ġfloating": 6606,
    "Ġbaling": 17861,
    "Ġbritannica": 24681,
    "Ġantagon": 19553,
    "honest": 17004,
    "Ġnevertheless": 5040,
    "leather": 13892,
    "Ġdedication": 3331,
    "Ġpince": 21475,
    "rusion": 11324,
    "hearty": 14836,
    "Ġque": 4160,
    "Ġsenseless": 12082,
    "league": 17846,
    "Ġcreature": 2384,
    "Ġcapricious": 20541,
    "Ġattempted": 8002,
    "Ġflitting": 13030,
    "consist": 14818,
    "Ġheath": 15705,
    "Ġlim": 2381,
    "Ġunconsc": 6554,
    "Ġexceptional": 19374,
    "Ġfervour": 19741,
    "eneva": 5118,
    "C": 39,
    "e": 73,
    "prot": 6898,
    "Ġhuddled": 20302,
    "Ġbranch": 8333,
    "fters": 20863,
    "mn": 3578,
    "Ġtubs": 11371,
    "Ġjonah": 3482,
    "follows": 24527,
    "Ġtwink": 8217,
    "Ġmun": 12566,
    "Ġfundamental": 3011,
    "minute": 11275,
    "Ġconveyed": 8336,
    "constantinople": 25508,
    "Ġparad": 2840,
    "Ġvortex": 26210,
    "victim": 25531,
    "Ġuncork": 23432,
    "max": 1684,
    "imely": 14000,
    "Ġweak": 5098,
    "Ġobeying": 13417,
    "Ġdrowned": 9554,
    "Ġconstrain": 2627,
    "Ġintelligently": 4134,
    "Ġprivilege": 11420,
    "Ġmagnanim": 14475,
    "skinned": 25388,
    "Ġscramble": 24578,
    "Ġoaths": 13526,
    "Ġcountless": 16382,
    "Ġfedallah": 6110,
    "¥": 103,
    "Ġprecaution": 11197,
    "ird": 2427,
    "Ġavoid": 5199,
    "Ġcrimes": 8591,
    "shott": 11797,
    "coun": 10689,
    "boilers": 26298,
    "only": 3308,
    "Ġstepmother": 16093,
    "alluring": 18353,
    "Ġwhelmed": 26000,
    "Ġfol": 1287,
    "Ġmonica": 22984,
    "monograph": 23530,
    "gentlemanlike": 20005,
    "Ġfishery": 4176,
    "Ġpipeline": 2299,
    "Ġsummar": 3527,
    "imate": 4222,
    "fanc": 20866,
    "Ġmighty": 4230,
    "mbly": 9789,
    "pick": 17635,
    "Ġpaint": 7709,
    "fiercely": 25257,
    "Ġobserver": 11991,
    "Ġbuckskin": 19955,
    "persons": 24176,
    "Ġsquares": 11170,
    "Ġbritish": 11338,
    "Ġodorous": 19569,
    "ref": 6516,
    "request": 21244,
    "Ġremonstrance": 20626,
    "Ġhur": 2098,
    "egypt": 15352,
    "Ġlabrador": 23332,
    "Ġmoccas": 22439,
    "Ġhooped": 23357,
    "Ġplunged": 8696,
    "Ġsab": 10763,
    "Ġbale": 7839,
    "likeness": 19481,
    "Ġvines": 12755,
    "Ġhoneymoon": 25646,
    "Ġfight": 5366,
    "Ġwithin": 2167,
    "ingu": 2119,
    "Ġactivations": 2719,
    "Ġbanks": 6815,
    "Ġoverlooking": 22366,
    "hemat": 3127,
    "voyages": 24856,
    "pper": 3207,
    "year": 11096,
    "ining": 3219,
    "Ġindulged": 13420,
    "Ġsupercil": 23455,
    "allest": 5485,
    "ahit": 9384,
    "Ġconsulted": 13433,
    "Ġdisguise": 10048,
    "Ġscarlet": 13227,
    "Ġrocked": 12857,
    "writing": 7722,
    "Ġbashee": 19851,
    "inordinate": 21197,
    "Ġpolice": 4676,
    "neying": 22468,
    "Ġrattle": 10900,
    "harpooneer": 8692,
    "cas": 20796,
    "retrospect": 23145,
    "Ġtranced": 18421,
    "icherry": 15138,
    "Ġobedience": 11414,
    "Ġsuggests": 12204,
    "deceptive": 22154,
    "Ġconsult": 6059,
    "Ġkilled": 4955,
    "isp": 5528,
    "strikes": 24671,
    "influence": 13581,
    "heav": 5694,
    "Ġalarm": 4048,
    "whenever": 11884,
    "izzy": 3095,
    "Ġsolar": 22889,
    "Ġrelu": 1044,
    "Ġdrags": 16942,
    "Ġopenshaw": 7956,
    "Ġcommended": 18657,
    "swallow": 24259,
    "conceive": 16032,
    "Ġborn": 5224,
    "successfully": 14993,
    "isco": 12585,
    "bone": 5611,
    "ushing": 5731,
    "ĠĠĠĠĠĠĠĠĠĠĠĠĠĠĠĠĠĠĠĠĠĠĠĠĠĠĠĠĠĠĠĠĠ": 12046,
    "mates": 5073,
    "Ġajar": 21205,
    "Ġhydraulic": 10066,
    "Ġunass": 14116,
    "Ġunmingled": 18264,
    "Ġsubstit": 19543,
    "owards": 4596,
    "Ġcanallers": 13630,
    "Ġxx": 5492,
    "Ġcamel": 25350,
    "adders": 24399,
    "Ġcher": 6131,
    "Ġlanterns": 24577,
    "Ġvary": 15810,
    "Ġfranc": 16354,
    "Ġmassa": 19457,
    "Ġmaternal": 11059,
    "Ġdoubloons": 13437,
    "Ġglove": 14492,
    "ette": 15662,
    "de": 459,
    "Ġissu": 6255,
    "Ġfleets": 23776,
    "erative": 21275,
    "Ġransacked": 26505,
    "Ġpo": 738,
    "atever": 3077,
    "Ġclump": 15972,
    "Ġguardsmen": 20633,
    "frequent": 15356,
    "ouraged": 22865,
    "Ġsodden": 25536,
    "Ġvoyagings": 19237,
    "obli": 23099,
    "itud": 2927,
    "Ġverdict": 13478,
    "Ġulster": 14998,
    "estruct": 22223,
    "Ġguiltless": 16941,
    "Ġrespectable": 6738,
    "Ġappet": 9733,
    "ustration": 2262,
    "Ġsol": 1104,
    "Ġfoss": 9852,
    "Ġsurv": 6083,
    "Ġinitial": 821,
    "umbers": 10919,
    "Ġunwell": 22022,
    "Ġcrumbs": 19124,
    "oglyph": 11018,
    "Ġchristian": 6480,
    "Ġredoubled": 23755,
    "ipelag": 12844,
    "Ġpleated": 16299,
    "Ġcarpenter": 4686,
    "Ġraft": 16119,
    "Ġdestroy": 5772,
    "Ġdeliberately": 10626,
    "Ġcontradict": 12388,
    "Ġunsc": 22019,
    "Ġbeard": 11657,
    "rib": 1943,
    "ositions": 10285,
    "Ġcoarse": 14277,
    "twist": 23704,
    "Ġbehalf": 14506,
    "Ġsolely": 9912,
    "recked": 17763,
    "friends": 8307,
    "wing": 2519,
    "ernally": 22619,
    "Ġaffidav": 18789,
    "Ġtarget": 2820,
    "Ġsires": 21229,
    "Ġdependencies": 2316,
    "Ġplacid": 11829,
    "Ġhessian": 3550,
    "Ġherring": 14128,
    "Ġunite": 9256,
    "ommod": 13979,
    "Ġstable": 2699,
    "unnatural": 15776,
    "ingale": 21302,
    "Ġdesisted": 22979,
    "Ġsolving": 2483,
    "Ġtumbled": 13409,
    "Ġlime": 13950,
    "arboard": 7266,
    "Ġpalace": 16690,
    "Ġrejo": 5918,
    "Ġlaid": 3941,
    "Ġwide": 4109,
    "Ġ\"": 6121,
    "Ġnursed": 16886,
    "Ġrosy": 18459,
    "Ġmanhandle": 22334,
    "||": 4870,
    "ineering": 21986,
    "writ": 16554,
    "Ġillustrate": 25068,
    "rug": 18340,
    "Ġimprec": 14218,
    "Ġapr": 12536,
    "behaviour": 11302,
    "Ġdolphin": 17314,
    "Ġcoal": 18596,
    "answers": 22128,
    "<UNK>": 3,
    "Ġbount": 15571,
    "treatment": 20415,
    "Ġstack": 21738,
    "Ġmanned": 9273,
    "Ġsecre": 5493,
    "feit": 16043,
    "Ġpau": 17910,
    "Ġmazes": 25941,
    "Ġcastor": 19430,
    "Ġbreaching": 23349,
    "arpo": 1751,
    "Ġfritters": 23259,
    "prick": 19346,
    "Ġtreble": 16505,
    "arance": 4699,
    "Ġsong": 5905,
    "Ġdreaminess": 23943,
    "boo": 16353,
    "Ġphrase": 11188,
    "Ġprairie": 8716,
    "Ġwhile": 607,
    "between": 5071,
    "Ġirre": 7468,
    "compasses": 19461,
    "ĠâĢĶâĢľ_": 17719,
    "----âĢĻ": 24101,
    "@": 36,
    "enthus": 17980,
    "gerine": 22892,
    "conceivable": 17132,
    "Ġpikes": 21482,
    "Ġmouth": 3177,
    "Ġlabel": 14516,
    "Ġassent": 12737,
    "Ġdistension": 22509,
    "Ġsubsequently": 16163,
    "lott": 6653,
    "Ġsamuel": 10035,
    "Ġtruth": 3320,
    "reputation": 15517,
    "specul": 23946,
    "ike": 5000,
    "them": 3016,
    "icated": 7591,
    "uberance": 25917,
    "Ġparcel": 15202,
    "humoured": 11237,
    "urmountable": 15282,
    "Ġruined": 12958,
    "Ġtraditions": 11444,
    "Ġprophets": 20453,
    "hercules": 22210,
    "labour": 23918,
    "Ġwhitney": 11374,
    "tender": 14476,
    "Ġencodings": 4776,
    "Ġsav": 3360,
    "Ġsheets": 9724,
    "conviction": 19968,
    "enc": 7574,
    "willing": 6594,
    "Ġdair": 17891,
    "Ġzone": 14360,
    "Ġpracticable": 19057,
    "elf": 565,
    "Ġcalcul": 3639,
    "bab": 11469,
    "Ġspan": 11732,
    "Ġcran": 12003,
    "ĠĠĠĠĠĠĠĠĠĠĠĠĠĠĠĠĠĠĠĠĠĠĠĠĠĠĠĠĠĠĠĠĠĠĠĠĠĠĠĠĠĠĠĠĠĠĠĠĠĠĠĠĠĠĠĠĠĠĠĠ": 19262,
    "Ġtenderest": 23553,
    "Ġpaddington": 17095,
    "Ġadmin": 23556,
    "Ġbubble": 13537,
    "Ġbread": 5404,
    "Ġembellished": 25850,
    "Ġimaginations": 16519,
    "ove": 1741,
    "Ġgardiners": 11158,
    "databases": 3022,
    "invested": 17119,
    "utting": 17987,
    "ography": 13366,
    "Ġcaring": 23096,
    "Ġkindred": 16376,
    "Ġgra": 415,
    "rule": 15899,
    "Ġfulfilled": 11363,
    "kn": 5791,
    "Ġcourtship": 24137,
    "tuning": 1582,
    "Ġburst": 4381,
    "Ġholds": 7977,
    "Ġtough": 13817,
    "Ġopium": 8996,
    "ruction": 4358,
    "Ġdeep": 805,
    "sense": 11525,
    "Ġteach": 8556,
    "Ġeddy": 13549,
    "Ġwit": 3843,
    "Ġmaria": 7126,
    "ric": 1376,
    "Ġdeeply": 4718,
    "Ġlifts": 25359,
    "Ġgoblet": 25824,
    "cent": 8074,
    "Ġdiscrimin": 2547,
    "Ġmounting": 19980,
    "Ġpastures": 23422,
    "Ġoff": 903,
    "Ġ38": 24081,
    "bag": 7542,
    "Ġshag": 9253,
    "thy": 2930,
    "naturalists": 23527,
    "Ġcasket": 19727,
    "Ġgetting": 4066,
    "nesday": 8706,
    "ificial": 602,
    "Ġnobler": 14177,
    "fall": 5135,
    "south": 8762,
    "Ġtipt": 21176,
    "goin": 23404,
    "Ġstyle": 6946,
    "au": 776,
    "loa": 18531,
    "ulled": 14058,
    "ments": 1402,
    "meantime": 9094,
    "precipitance": 25868,
    "Ġmanager": 11772,
    "saying": 8644,
    "ickering": 22674,
    "Ġsly": 9634,
    "Ġafter": 870,
    "typewritten": 26039,
    "Ġinquire": 7721,
    "yt": 17712,
    "philips": 20038,
    "Ġtear": 6725,
    "Ġheathenish": 13619,
    "Ġfits": 8794,
    "Ġmournful": 12339,
    "Ġrand": 1584,
    "situation": 11438,
    "Ġoptimizer": 5035,
    "puff": 21024,
    "Ġcalms": 23047,
    "Ġglistening": 12368,
    "repeating": 20132,
    "Ġferocity": 16872,
    "Ġfriends": 2655,
    "Ġbelongs": 8016,
    "ques": 2839,
    "Ġvinc": 14087,
    "Ġpet": 4588,
    "Ġsed": 10762,
    "mical": 9130,
    "Ġmouthfuls": 20648,
    "imes": 1301,
    "quid": 18149,
    "whereby": 23420,
    "meadow": 18680,
    "Ġpeninsula": 23200,
    "remem": 13071,
    "Ġcanst": 8860,
    "Ġrh": 9246,
    "lie": 12486,
    "leviathan": 7786,
    "Ġgomorrah": 21619,
    "savor": 25025,
    "Ġnod": 1888,
    "Ġtap": 12530,
    "Ġhypocritical": 20740,
    "\",": 10680,
    "ignation": 11129,
    "Ġexpectation": 6904,
    "watch": 6120,
    "Ġbathe": 25444,
    "henomena": 20275,
    "Ġhaste": 9005,
    "Ġfangs": 12601,
    "Ġenthusiastic": 19969,
    "heeded": 13836,
    "Ġbeaches": 18087,
    "Ġanimating": 23426,
    "Ġbang": 17856,
    "Ġdeclining": 23967,
    "Ġsoftened": 11102,
    "Ġcontinental": 19708,
    "Ġrevelry": 15139,
    "Ġthreatening": 16829,
    "Ġwired": 17788,
    "Ġdimmed": 24269,
    "Ġflip": 11916,
    "Ġrickety": 26506,
    "Ġrequired": 7227,
    "Ġdownstairs": 11225,
    "Ġfurn": 3712,
    "Ġslips": 23171,
    "thine": 15827,
    "whilst": 18372,
    "Ġnatur": 17336,
    "Ġleatherhead": 20017,
    "Ĵ": 245,
    "dition": 15341,
    "red": 398,
    "Ġearned": 19408,
    "elab": 21574,
    "Ġmolasses": 25629,
    "Ġadopted": 15181,
    "sailed": 17667,
    "Ġtortoise": 16909,
    "Ġpleases": 16300,
    "Ġsumatra": 15289,
    "Ġing": 5284,
    "Ġadmirer": 16839,
    "iating": 3204,
    "instinct": 19546,
    "guest": 19485,
    "Ġpelt": 15613,
    "Ġknighthood": 25298,
    "Ġprojected": 16870,
    "Ġstrateg": 1302,
    "Ġscaled": 2104,
    "Ġaffair": 4464,
    "Ġpolite": 9884,
    "Ġsulphur": 24934,
    "ees": 13713,
    "Ġburly": 19251,
    "heidelburgh": 21214,
    "plifted": 9713,
    "compar": 14362,
    "Ġloitering": 22121,
    "Ġuser": 15919,
    "Ġthreading": 23403,
    "Ġeverywhere": 9797,
    "Ġinterference": 8897,
    "zes": 11550,
    "Ġneared": 14077,
    "proof": 16425,
    "Ġsecondary": 23334,
    "Ġlamps": 14793,
    "Ġpigeon": 9518,
    "Ġscent": 10286,
    "stave": 21653,
    "igms": 3045,
    "derstand": 658,
    "elop": 1518,
    "Ġsuperl": 16445,
    "Ġstraits": 7995,
    "bow": 5424,
    "Ġanxiety": 5408,
    "immense": 18055,
    "Ġphyseter": 26587,
    "one": 615,
    "floated": 24644,
    "ites": 3900,
    "Ġpleasantest": 24139,
    "wholly": 10942,
    "subject": 6634,
    "Ġregain": 22584,
    "oded": 11671,
    "Ġtending": 17725,
    "Ġours": 4614,
    "Ġpequod": 2325,
    "Ġhesitate": 16947,
    "ancho": 4938,
    "Ġanxious": 4518,
    "Ġtreacher": 8608,
    "Ġvertebra": 20184,
    "lessness": 5318,
    "Ġhandling": 8915,
    "Ġaven": 10760,
    "Ġplump": 14285,
    "Ġscenes": 5730,
    "Ġoceans": 7997,
    "vib": 21118,
    "circled": 24189,
    "Ġcottages": 14730,
    "Ġnervously": 19186,
    "Ġacceptable": 16745,
    "bee": 16039,
    "Ġtu": 6969,
    "Ġgemin": 21614,
    "Ġpolar": 9413,
    "ancies": 11586,
    "Ġcontinue": 5398,
    "Ġstricken": 9778,
    "Ġtrifles": 16952,
    "dient": 442,
    "Ġexperienced": 6584,
    "mp": 3730,
    "Ġprofusion": 23570,
    "Ġclues": 18424,
    "Ġobed": 8538,
    "work": 1827,
    "Ġteacher": 22921,
    "Ġrevolution": 3305,
    "down": 3471,
    "Ġforgotten": 5679,
    "Ġhampshire": 15245,
    "Ġdenny": 9003,
    "Ġu": 324,
    "Ġgateway": 24799,
    "brows": 17498,
    "]": 65,
    "boast": 23255,
    "Ġmercifully": 20181,
    "Ġcomplaint": 24775,
    "rods": 21542,
    "Ġcommanded": 6332,
    "Ġincites": 22557,
    "hroom": 12480,
    "!)": 10071,
    "Ġhitherto": 5882,
    "Ġhieroglyphics": 17305,
    "Ġbristling": 20530,
    "Ġadversity": 24304,
    "Ġinvestment": 24331,
    "Ġpatience": 3023,
    "Ġdeference": 10882,
    "seek": 8840,
    "enced": 4296,
    "hint": 12479,
    "furnished": 20244,
    "combined": 20323,
    "philosophy": 13583,
    "iture": 5696,
    "Ġrecovery": 11442,
    "ration": 2001,
    "theast": 21753,
    "Ġunce": 11714,
    "nep": 20988,
    "cating": 20804,
    "isons": 17851,
    "Ġstandpoint": 23281,
    "crippled": 26385,
    "Ġsent": 1771,
    "gain": 8740,
    "cul": 1899,
    "ignantly": 23269,
    "brilliancy": 26078,
    "Ġplainpal": 19279,
    "Ġstables": 23660,
    "Ġgreas": 17994,
    "Ġchoking": 15937,
    "Ġmakest": 25436,
    "Ġagents": 9768,
    "tot": 10729,
    "Ġnois": 4267,
    "stirring": 20429,
    "Ġgreatly": 5851,
    "Ġlatterly": 24085,
    "Ġfever": 6560,
    "Ġbethink": 12382,
    "Ġretrieval": 10676,
    "Ġhelping": 3267,
    "coffin": 10664,
    "Ġblu": 2686,
    "Ġcedar": 15191,
    "Ġdiscoveries": 13362,
    "Ġinspector": 6499,
    "Ġsherlock": 3894,
    "breaking": 14767,
    "Ġjeroboam": 10602,
    "Ġunsuccessful": 18258,
    "Ġpreparations": 12313,
    "rugged": 6849,
    "unteered": 26496,
    "uvier": 9070,
    "Ġstatement": 5255,
    "illating": 22112,
    "Ĕ": 213,
    "Ġeyed": 12673,
    "pless": 6262,
    "fluttering": 23976,
    "Ġroofs": 16986,
    "pregn": 18499,
    "verted": 10219,
    "Ġgrammatical": 13541,
    "Ġmatted": 22915,
    "sail": 3605,
    "Ġcruising": 6913,
    "Ġseemingly": 9320,
    "amous": 15764,
    "Ġabruptly": 15153,
    "transferred": 24510,
    "Ġreader": 11937,
    "Ġvac": 5025,
    "Ġglaciers": 20176,
    "impart": 21713,
    "ĠĠĠĠĠĠĠĠĠĠĠĠĠĠĠĠĠĠĠĠĠĠĠĠĠĠĠĠĠĠĠĠĠĠĠĠĠĠĠĠĠĠĠĠĠĠĠĠĠ": 20041,
    "Ġhotels": 19539,
    "Ġdisk": 22527,
    "Ġfasting": 16358,
    "Ġplata": 25120,
    "Ġrepl": 1592,
    "Ġemac": 16409,
    "cork": 20798,
    "Ġsubst": 4273,
    "bantering": 25254,
    "Ġwolfish": 25936,
    "Ġunbending": 25465,
    "Ġbankers": 24303,
    "Ġpeople": 2545,
    "Ġvenom": 24240,
    "imately": 12692,
    "ccess": 3180,
    "mmed": 7916,
    "will": 1966,
    "Ġinstigated": 18703,
    "Ġmuskets": 17056,
    "Ġaromatic": 25926,
    "Ġslaves": 23170,
    "Ġreassure": 21676,
    "Ġcrooked": 11282,
    "Ġvisual": 5741,
    "ert": 2631,
    "Ġphara": 23203,
    "Ġtranqu": 4606,
    "urous": 10214,
    "Ġrim": 21970,
    "part": 2574,
    "inating": 9155,
    "Ġpleasanter": 19069,
    "Ġcon": 348,
    "Ġnormalizing": 1819,
    "pp": 384,
    "Ġhusbands": 16644,
    "Ġpilgrimage": 17310,
    "attendants": 25496,
    "Ġdelightfully": 13161,
    "same": 5362,
    "ses": 3026,
    "Ġvict": 3764,
    "Ġapo": 9632,
    "Ġgardeners": 12124,
    "Ġeconomy": 17202,
    "Ġneeds": 6607,
    "eryton": 4094,
    "Ġirregularity": 25325,
    "Ġleviathanic": 12084,
    "Ġspasmodic": 20401,
    "longer": 8616,
    "Ġlivelong": 25512,
    "Ġburgl": 13176,
    "jackets": 24896,
    "Ġoftener": 13568,
    "spending": 18688,
    "Ġhealth": 3905,
    "hy": 4741,
    "uit": 8394,
    "Ġedged": 23490,
    "completely": 12423,
    "adru": 15734,
    "icked": 10334,
    "Ġcrests": 25686,
    "Ġlegible": 23537,
    "thickness": 25368,
    "Ġoverpowered": 15291,
    "Ġears": 4491,
    "Ġrelieve": 8225,
    "Ġspies": 22134,
    "found": 4215,
    "delights": 19704,
    "pagans": 25526,
    "Ġwhittling": 20702,
    "Ġadult": 18292,
    "Ġdisinclination": 22541,
    "Ġpronounce": 16969,
    "ibly": 2992,
    "Ġconject": 6029,
    "Ġdissolved": 18555,
    "acey": 7650,
    "Ġhood": 10824,
    "ourable": 4967,
    "sighted": 19788,
    "Ġdispersed": 16598,
    "datasets": 11953,
    "Ġspringing": 10520,
    "Ġmultiplicity": 19277,
    "Ġstructure": 844,
    "ailed": 3247,
    "Ġsmilingly": 22566,
    "Ġanew": 11431,
    "Ġunb": 10908,
    "Ġimmediate": 6091,
    "Ġappeased": 23201,
    "Ġburglar": 17356,
    "Ġdescend": 7427,
    "finger": 10095,
    "abounding": 25980,
    "Ġinitialization": 1251,
    "Ġforger": 15736,
    "Ġclasped": 17208,
    "Ġtempt": 5564,
    "olent": 8156,
    "Ġvanity": 7047,
    "Ġdilated": 24703,
    "Ġengaged": 3432,
    "Ġcoincid": 20320,
    "Ġtheore": 1828,
    "Ġconstraints": 2739,
    "nailed": 20998,
    "Ġconsummation": 17427,
    "Ġic": 9627,
    "lydon": 13991,
    "Ġscale": 1549,
    "Ġbor": 5805,
    "Ġemer": 5961,
    "plutarch": 21968,
    "awe": 20767,
    "Ġones": 3017,
    "Ġmace": 21312,
    "imp": 3032,
    "Ġcondense": 21813,
    "Ġenvy": 13190,
    "accomplished": 17213,
    "Ġsex": 8845,
    "disappointed": 25192,
    "Ġwisely": 13276,
    "Ġsust": 7008,
    "tem": 6370,
    "Ġfriendly": 9822,
    "Ġascent": 19621,
    "Ġapproached": 5844,
    "Ġplaid": 22607,
    "ifling": 15786,
    "matlock": 23472,
    "mology": 12495,
    "Ġgales": 12669,
    "Ġmontan": 22982,
    "Ġcoral": 11925,
    "easily": 17535,
    "Ġdistraction": 22510,
    "Ġbuckler": 24860,
    "parm": 21016,
    "Ġsubfield": 11872,
    "Ġlivelihood": 24773,
    "gladness": 25195,
    "Ġmitigating": 1620,
    "Ġrope": 4339,
    "Ġtricks": 13487,
    "Ġsisterly": 16306,
    "Ġdrawled": 23993,
    "infant": 19830,
    "Ġconvolutional": 2166,
    "Ġentra": 18694,
    "oured": 2672,
    "Ġidentifies": 12017,
    "Ġrevolve": 19732,
    "Ġoutermost": 22324,
    "Ġtremor": 24767,
    "Ġfresher": 23214,
    "inglass": 21305,
    "Ġnlp": 3060,
    "Ġgrate": 12968,
    "ortions": 10949,
    "Ġyield": 5093,
    "Ġshudder": 9052,
    "descried": 11932,
    "whal": 10941,
    "Ġschedules": 3390,
    "display": 19158,
    "Ġroot": 2650,
    "Ġflinging": 13588,
    "Ġsquat": 14369,
    "inquire": 16933,
    "Ġswords": 19899,
    "rebell": 17764,
    "Ġinstantly": 3595,
    "Ġshe": 466,
    "troubled": 17112,
    "Ń": 260,
    "Ġsor": 4147,
    "Ġerie": 20057,
    "atered": 22012,
    "._]]": 5335,
    "Ġs": 265,
    "'m": 9584,
    "Ġalleviated": 26205,
    "Ġprofessions": 11232,
    "twelve": 14623,
    "Ġbec": 1350,
    "Ġaccompanied": 6781,
    "Ġyour": 634,
    "Ġrol": 3557,
    "Ġtraged": 9354,
    "visual": 24224,
    "Ġporus": 24397,
    "vious": 1781,
    "struck": 7864,
    "feel": 3814,
    "last": 3805,
    "sculptured": 26046,
    "Ġbodiless": 24228,
    "Ġholding": 4979,
    "Ġinfluence": 5515,
    "Ġhurled": 10430,
    "Ġhellish": 10552,
    "Ġhelm": 5276,
    "Ġtracks": 18892,
    "crane": 24089,
    "Ġquebec": 24134,
    "Ġsubtle": 6718,
    "Ġflukes": 5267,
    "mas": 5212,
    "Ġelevates": 24499,
    "provided": 13640,
    "Ġbroadened": 23988,
    "Ġbiography": 22765,
    "eliest": 14749,
    "Ġembraced": 10008,
    "distressed": 24201,
    "girls": 12322,
    "Ġfins": 9665,
    "jumped": 20249,
    "Ġmovements": 24358,
    "Ġchiselled": 25560,
    "Ġhus": 3091,
    "ctive": 11625,
    "Ġuppermost": 15281,
    "expectations": 24278,
    "Ġcrows": 24035,
    "Ġomen": 11578,
    "Ġsliding": 9365,
    "rust": 2581,
    "Ġlingo": 24904,
    "drowned": 17371,
    "Ġsuperstitious": 13522,
    "Ġindicates": 3191,
    "Ġslide": 10395,
    "Ġbundle": 13429,
    "Ġcock": 11001,
    "Ġbonds": 17871,
    "Ġcoin": 9773,
    "exp": 2736,
    "nearly": 8684,
    "Ġbroke": 5323,
    "render": 10292,
    "ra": 314,
    "Ġshoulders": 5565,
    "tempted": 26404,
    "wants": 21133,
    "hoping": 17567,
    "ì": 173,
    "Ġbrine": 18771,
    "reds": 12754,
    "Ġadaptation": 3153,
    "Ġlower": 2662,
    "Ġscorch": 20068,
    "Ġplunge": 13446,
    "Ġrolled": 4430,
    "Ġactively": 18655,
    "Ġdriving": 3619,
    "ru": 480,
    "Ġgenerator": 3386,
    "Ġrephr": 21683,
    "quakes": 21861,
    "¼": 125,
    "Ġwooden": 4731,
    "destruction": 11256,
    "jud": 4482,
    "Ġhem": 8447,
    "Ġreluctant": 20528,
    "Ġshoots": 14569,
    "says": 13303,
    "Ġflatter": 9350,
    "Ġbeware": 8831,
    "tack": 12516,
    "oned": 4632,
    "Ġshiver": 12771,
    "Ġfurlong": 18740,
    "Ġdaughter": 2866,
    "Ġprom": 1528,
    "tha": 15826,
    "Ġalternate": 19989,
    "utes": 5916,
    "Ġnailing": 21531,
    "Ġmake": 1284,
    "splice": 17172,
    "ulate": 5233,
    "venant": 22629,
    "Ġglobal": 2371,
    "sweet": 8689,
    "Ġinteractions": 12907,
    "izens": 18146,
    "Ġentry": 11027,
    "cannibals": 25585,
    "Ġcouple": 5423,
    "Ġinadequate": 17939,
    "forgotten": 12419,
    "Ġoriginally": 7304,
    "mbl": 5948,
    "context": 3408,
    "Ġloss": 823,
    "Ġvisit": 2584,
    "Ġwatery": 6298,
    "Ġ97": 19777,
    "Ġ92": 24592,
    "Ġhesitated": 10004,
    "bent": 15314,
    "Ġdella": 21443,
    "blocks": 25518,
    "Ġtrough": 15966,
    "Ġcolouring": 16752,
    "Ġstiffest": 24827,
    "dered": 2474,
    "aft": 9585,
    "Ġoozy": 21330,
    "alliance": 22205,
    "Ġassailants": 20452,
    "Ġgrop": 12668,
    "engthen": 14459,
    "ipl": 20920,
    "Ġpreceding": 7528,
    "Ġinsects": 25647,
    "watery": 19829,
    "Ġsomewhere": 5384,
    "Ġbrush": 17866,
    "evening": 7091,
    "Ġcarriage": 3950,
    "howling": 18990,
    "iles": 2858,
    "formity": 10280,
    "Ġunprinciple": 18255,
    "blue": 13696,
    "Ġslammed": 20451,
    "Ġproprietors": 20189,
    "Ġtriangular": 14861,
    "ricted": 15422,
    "Ġprotruded": 19473,
    "placed": 7882,
    "Ġlanguor": 12852,
    "_": 67,
    "Ġecl": 18008,
    "Ġmanilla": 15962,
    "adieu": 26202,
    "Ġsignature": 16495,
    "Ġfoolish": 5982,
    "Ġenticing": 22748,
    "Ġvengeance": 5887,
    "Ġnut": 12650,
    "Ġapplications": 4784,
    "Ġallowing": 2178,
    "nobody": 16137,
    "twenty": 6609,
    "Ġvariants": 1788,
    "Ġspect": 3554,
    "Ġdinnertime": 16720,
    "kye": 20940,
    "brance": 7284,
    "Ġoverboard": 6047,
    "Ġindestructible": 26573,
    "```": 25894,
    "Ġcyp": 21348,
    "Ġbackground": 18649,
    "ters": 1573,
    "Ġpatagonia": 25858,
    "Ġreporting": 24658,
    "Ġpyramids": 15117,
    "constellation": 24609,
    "classification": 4388,
    "Ġ181": 23899,
    "Ġcomplacency": 19451,
    "Ġgobern": 22428,
    "Ġpemberley": 4590,
    "Ġwolves": 25935,
    "cor": 5520,
    "Ġexcept": 3313,
    "Ġidleness": 11145,
    "Ġrecklessness": 24744,
    "Ġnieces": 8435,
    "Ġcorrect": 2431,
    "Ġconsecrate": 26490,
    "Ġviolence": 5965,
    "Ġutterance": 14766,
    "century": 20050,
    "Ġlate": 3380,
    "Ġindians": 14414,
    "Ġclimax": 25054,
    "jac": 8383,
    "Ġes": 8773,
    "Ġsails": 5257,
    "ands": 21871,
    "Ġsnowy": 9020,
    "pow": 10718,
    "Ġblast": 7445,
    "Ġjanuary": 13656,
    "Ġrecall": 3857,
    "Ġsick": 4694,
    "Ġrevolutions": 23845,
    "Ġgaily": 16749,
    "Ġmerchantmen": 19862,
    "Ġsenor": 20153,
    "ime": 625,
    "Ġberkshire": 16885,
    "Ġmoves": 14233,
    "Ġcovered": 5171,
    "Ġbennets": 9808,
    "Ġlet": 1111,
    "aping": 8195,
    "twelvemonth": 25863,
    "Ġunusually": 15849,
    "Ġarticles": 7110,
    "Ġcommanders": 23871,
    "Ġopera": 23428,
    "Ġthinking": 4030,
    "Ġnarrowed": 24354,
    "Ġcomprehending": 24444,
    "hitherto": 17285,
    "ladies": 9531,
    "Ġprejudice": 9077,
    "whether": 5320,
    "osoever": 17345,
    "mond": 20976,
    "Ġeu": 6391,
    "important": 7114,
    "Ġsharing": 3479,
    "Ġtie": 10751,
    "Ġcontemplation": 11358,
    "win": 6802,
    "edged": 15634,
    "utter": 7594,
    "Ġgradual": 20604,
    "Ġallusion": 7626,
    "icher": 9204,
    "Ġglen": 18848,
    "Ġtract": 21168,
    "Ġincorrect": 2728,
    "creature": 5347,
    "Ć": 199,
    "zeal": 16277,
    "Ġgasping": 17038,
    "income": 15488,
    "hack": 20898,
    "bucket": 17495,
    "onian": 17768,
    "Ġlima": 10443,
    "uted": 7593,
    "parameter": 2972,
    "Ġpuzzle": 11306,
    "Ġvacant": 9497,
    "addressing": 24400,
    "ercely": 12554,
    "Ġsordid": 26423,
    "ck": 436,
    "Ġdisplays": 19859,
    "Ġjingling": 26018,
    "Ġ49": 24084,
    "iarity": 8747,
    "Ġmoodily": 19837,
    "ohnson": 16329,
    "proble": 9395,
    "Ġexamples": 2605,
    "Ġcem": 17825,
    "Ġpervers": 11786,
    "Ġupper": 5090,
    "Ġtrustworthy": 24108,
    "elfare": 11780,
    "cely": 3576,
    "Ġtusks": 17255,
    "Ġplausible": 26554,
    "ree": 873,
    "Ġpostponed": 20393,
    "Ġpatted": 16386,
    "failed": 20865,
    "ifiable": 18166,
    "cheon": 23805,
    "Ġbol": 6243,
    "shortly": 12262,
    "Ġattraction": 18628,
    "Ġheave": 7600,
    "Ġser": 1671,
    "Ġemerg": 13427,
    "Ġweal": 21925,
    "Ġdecreases": 3413,
    "bb": 2799,
    "globe": 25145,
    "incredible": 16500,
    "Ġgettest": 23235,
    "erval": 4019,
    "bil": 20773,
    "Ġexposed": 8525,
    "earn": 10697,
    "antingly": 22103,
    "needle": 20316,
    "fic": 20854,
    "Ġ68": 24369,
    "total": 17252,
    "Ġplease": 4724,
    "agation": 1258,
    "kl": 4866,
    "unned": 21883,
    "amplified": 26495,
    "dl": 20825,
    "Ġtig": 13815,
    "Ġglided": 7447,
    "afric": 19181,
    "Ġslender": 11943,
    "vii": 13151,
    "change": 6393,
    "Ġutmost": 5496,
    "lin": 9605,
    "liv": 9609,
    "Ġpian": 13919,
    "recurrent": 4994,
    "Ġbumping": 25281,
    "Ġappetite": 12387,
    "Ġlik": 2522,
    "Ġcoherent": 3262,
    "Ġregretted": 13403,
    "Ġlightning": 5750,
    "Ġ28": 19297,
    "vitality": 20482,
    "Ġmoles": 22437,
    "Ġloun": 7167,
    "Ġrheumatic": 20707,
    "9": 29,
    "Ġkeen": 4615,
    "Ġease": 5629,
    "Ġumb": 11648,
    "stand": 637,
    "ighbour": 3392,
    "didn": 9009,
    "Ġcommend": 10336,
    "poured": 17638,
    "Ġsigning": 22712,
    "atig": 13847,
    "onel": 3089,
    "oquent": 12503,
    "Ġhig": 756,
    "Ġbrightest": 13229,
    "Ġpresuming": 16794,
    "machine": 987,
    "caves": 20815,
    "Ġdecl": 3593,
    "mot": 17597,
    "bloom": 24690,
    "Ġburning": 5979,
    "Ġunguarded": 15853,
    "Ġide": 2122,
    "remains": 10400,
    "Ġtwinkle": 12326,
    "Ġbeth": 9659,
    "chased": 18044,
    "Ġfeebly": 24878,
    "Ġuncont": 14118,
    "Ġdiscourse": 9800,
    "Ġlanding": 11987,
    "Ġrevolver": 14900,
    "Ġpainted": 7980,
    "ar": 285,
    "barbar": 20241,
    "Ġbay": 9170,
    "ĸ": 249,
    "Ġentrapped": 26264,
    "considerably": 13448,
    "Ġthoroughly": 8349,
    "Ġeyelids": 26108,
    "coburg": 13601,
    "lounged": 26134,
    "Ġspark": 6691,
    "Ġlvi": 21557,
    "Ġaries": 21200,
    "Ġgem": 21598,
    "Ġsystemat": 18448,
    "Ġfrenzy": 13625,
    "prehens": 9291,
    "ards": 2504,
    "splash": 25210,
    "Ġsplinter": 23749,
    "Ġsquires": 16184,
    "Ġfeeds": 16435,
    "Ġpicturesqueness": 24479,
    "Ġgrown": 5628,
    "always": 5708,
    "tied": 21073,
    "Ġhalts": 3156,
    "Ġindies": 22957,
    "Ġweighted": 2089,
    "Ġargemone": 24276,
    "Ġgentleness": 8713,
    "Ġfreedom": 9084,
    "unfortunate": 15780,
    "Ġprevail": 13445,
    "Ġrafters": 22660,
    "Ġsalad": 19482,
    "Ġreported": 11982,
    "Ġbarbs": 10533,
    "eddling": 11903,
    "Ġneskye": 21535,
    "arming": 8953,
    "Ġseamen": 5063,
    "Ġkirwin": 8499,
    "Ġapparel": 20439,
    "Ġpantry": 20298,
    "Ġchief": 3384,
    "Ġcases": 3961,
    "Ġprovoked": 13329,
    "Ġkick": 5838,
    "Ġsearch": 2591,
    "Ġstomach": 11655,
    "Ġreminded": 10001,
    "Ġvastly": 23863,
    "Ġacross": 1330,
    "Ġbrazier": 26322,
    "Ġmotive": 6093,
    "unciation": 25983,
    "Ġolive": 12569,
    ";âĢĿâĢĶ": 20762,
    "pag": 11512,
    "Ġmccarthy": 5145,
    "Ġchristendom": 16695,
    "Ġforever": 14553,
    "Ġsettle": 6295,
    "omit": 13976,
    "nel": 11506,
    "airing": 16178,
    "Ġcontinues": 18807,
    "Ġrestoration": 19025,
    "Ġloosed": 22117,
    "Ġimmut": 13301,
    "ga": 17551,
    "Ġpaddling": 25286,
    "Ġechoed": 20427,
    "Ġambergris": 8709,
    "boots": 11127,
    "Ġalive": 4399,
    "client": 18934,
    "desirable": 23812,
    "Ġsluggish": 25891,
    "Ġloop": 14148,
    "delivered": 24102,
    "abouts": 9455,
    "Ġmysterious": 7527,
    "moil": 22707,
    "well": 1690,
    "scores": 22991,
    "Ġivory": 4477,
    "instinctively": 26329,
    "disappeared": 14571,
    "Ġlives": 4828,
    "Ġxiii": 25592,
    "Ġgeometric": 3216,
    "Ġdisguises": 25058,
    "Ġmeta": 2971,
    "severe": 21824,
    "Ġcommunion": 19009,
    "Ġstreaming": 19676,
    "umul": 1288,
    "Ġaffliction": 25846,
    "Ġhad": 443,
    "face": 3680,
    "viv": 17699,
    "Ġthine": 7374,
    "Ġclient": 5555,
    "Ġpuffs": 14978,
    "Ġincarnation": 25574,
    "Ġmost": 1020,
    "invest": 11561,
    "Ġabhor": 5467,
    "Ġgriev": 16636,
    "Ġoutstanding": 22321,
    "separation": 25227,
    "buffalo": 20566,
    "Ġstraightened": 12112,
    "mystic": 25317,
    "Ġcake": 12574,
    "bulk": 19926,
    "Ġapplicable": 19013,
    "contriv": 19295,
    "Ġhumming": 12990,
    "unicorn": 21894,
    "boone": 23256,
    "Ġscolding": 15203,
    "ot": 346,
    "Ġseized": 4835,
    "Ġindulgence": 11320,
    "Ġdiscours": 18719,
    "Ġdepth": 2439,
    "Ġsymmetry": 20369,
    "ograph": 4798,
    "Ġarrang": 2470,
    "Ġslept": 8260,
    "Ġreflected": 2904,
    "Ġevolved": 9894,
    "august": 11072,
    "period": 15905,
    "ected": 7875,
    "Ġprudential": 17922,
    "Ġunfolding": 17086,
    "Ġvineyards": 25109,
    "murdered": 12206,
    "Ġhabitu": 19531,
    "Ġwant": 1116,
    "ours": 3430,
    "thirst": 15828,
    "Ġsquaring": 22846,
    "mile": 17598,
    "Ġmention": 2984,
    "Ġgree": 7595,
    "ierce": 14393,
    "Ġlard": 13949,
    "gest": 5426,
    "Ġhymn": 24517,
    "given": 8378,
    "Ġrespectfully": 18994,
    "Ġthreads": 13121,
    "Ġlaughter": 9029,
    "Ġbabes": 24424,
    "Ġinvesting": 19644,
    "Ġdaily": 5989,
    "Ġportion": 7492,
    "Ġsaluted": 14761,
    "Ġdelicacy": 6342,
    "Ġstarry": 16924,
    "olstad": 7612,
    "isticated": 1594,
    "Ġsteadfast": 8682,
    "Ġthought": 1096,
    "Ġanguish": 5582,
    "tu": 12515,
    "Ġexcellent": 4237,
    "Ġdece": 6997,
    "Ġinvariable": 13459,
    "Ġreasonable": 7251,
    "yesterday": 10354,
    "Ġgloom": 4203,
    "Ġprospects": 9961,
    "ledge": 1329,
    "wards": 1276,
    "Ġlets": 18079,
    "uzza": 11271,
    "Ġsweetheart": 19398,
    "endurable": 22233,
    "evidence": 25522,
    "place": 4155,
    "Ġlichen": 20095,
    "mountains": 15183,
    "Ġneglected": 10379,
    "Ġwhenever": 5166,
    "Ġanxiously": 8291,
    "Ġwarrant": 17796,
    "Ġhonorable": 16877,
    "Ġredden": 15697,
    "Ġimproper": 22739,
    "Ġsulk": 15047,
    "Ġpersuade": 5874,
    "Ġjeopardy": 13599,
    "unwillingness": 25803,
    "Ġplaying": 6909,
    "nable": 13764,
    "unimportant": 18162,
    "aimed": 3952,
    "ale": 506,
    "dis": 2254,
    "Ġattacked": 10569,
    "onds": 12999,
    "Ġprojects": 9513,
    "imming": 9689,
    "Ġbleeding": 14882,
    "Ġpale": 4532,
    "Ġhatchways": 24992,
    "Ġconsolidation": 5060,
    "Ġcomplexity": 1693,
    "bol": 8721,
    "Ġverdant": 15003,
    "Ġhinted": 6014,
    "Ġwhitewashed": 14471,
    "uns": 21875,
    "iner": 2671,
    "Ġembarr": 7446,
    "Ġfrowning": 13626,
    "c": 71,
    "adventurous": 25362,
    "Ġendeav": 2950,
    "Ġhatter": 4113,
    "Ġsympathy": 6348,
    "Ġdissimilar": 22536,
    "resolution": 17767,
    "Ġnonce": 23236,
    "Ġanatomical": 15079,
    "Ġalgorithm": 769,
    "Ġfamed": 16330,
    "artic": 14223,
    "Ġillness": 8594,
    "Ġarrayed": 25665,
    "violets": 23547,
    "Ġlandlessness": 23381,
    "iet": 1770,
    "Ġsimilitude": 19212,
    "elzebub": 26465,
    "Ġhowling": 8512,
    "Ġlust": 9199,
    "Ġwing": 6668,
    "Ġloo": 22115,
    "Ġblocks": 6323,
    "Ġunrecord": 16622,
    "Ġvillanous": 24058,
    "ĠĠĠĠĠĠĠĠĠĠĠĠĠĠ": 22569,
    "Ġzig": 18743,
    "somebody": 14566,
    "Ġyouth": 4261,
    "Ġcomput": 601,
    "Ġstingy": 25456,
    "etrics": 21589,
    "accident": 11182,
    "Ġwh": 328,
    "gossip": 23405,
    "wishes": 13809,
    "Ġfondness": 16781,
    "Ġlose": 5028,
    "Ġconventional": 25548,
    "Ġlinks": 13957,
    "Ġfancied": 7326,
    "apped": 5395,
    "Ġhabit": 6772,
    "op": 657,
    "Ġape": 21199,
    "diss": 17524,
    "intending": 22939,
    "-": 17,
    "Ġlazarus": 15030,
    "rmsprop": 4522,
    "Ġbritain": 16957,
    "istle": 15873,
    "Ġstupid": 7604,
    "towns": 24855,
    "iration": 4540,
    "Ġintroducing": 11978,
    "Ġ&": 6514,
    "Ġ73": 24262,
    "corrid": 24483,
    "Ġplaning": 22608,
    "usiveness": 22298,
    "Ġlurch": 21559,
    "Ġig": 3502,
    "earnest": 12402,
    "Ġmusket": 12299,
    "moderate": 22858,
    "Ġrefrained": 14343,
    "franch": 24285,
    "ripp": 6406,
    "stonecraft": 24355,
    "professor": 17251,
    "Ġworldly": 16333,
    "saturday": 14860,
    "Ġtouch": 3399,
    "amp": 2606,
    "atlantic": 15526,
    "sleep": 6512,
    "itions": 4149,
    "Ġmornings": 16238,
    "Ġ93": 24593,
    "terogene": 21830,
    "similar": 13456,
    "Ġlately": 6388,
    "Ġmalice": 7153,
    "Ġpail": 15610,
    "landed": 18957,
    "Ġreligious": 25124,
    "Ġprovinc": 16743,
    "Ġfluctuations": 5516,
    "Ġgoble": 14231,
    "shipmates": 11931,
    "caut": 20814,
    "Ġdaresay": 14706,
    "shrouded": 26363,
    "Ġperth": 7024,
    "Ġstructures": 2720,
    "anche": 10789,
    "bitterly": 20340,
    "Ġseverest": 14092,
    "Ġdarkly": 19116,
    "Ġback": 826,
    "adem": 21762,
    "Ġheightens": 24156,
    "Ġfortunately": 12183,
    "Ġsolicited": 20040,
    "Ġultimate": 12352,
    "epilogue": 22105,
    "scream": 11077,
    "Ġdeity": 18137,
    "Ġrepeating": 11214,
    "strang": 11184,
    "tempestuous": 26098,
    "scotland": 20532,
    "Ġsnoo": 21231,
    "Ġhelmeted": 19691,
    "dwell": 15344,
    "maltese": 24794,
    "Ġpassing": 4315,
    "awed": 10393,
    "ative": 732,
    "really": 6972,
    "Ġdesire": 3719,
    "Ġrules": 1916,
    "Ġbounding": 19403,
    "Ġimmensity": 25330,
    "Ġconceal": 5976,
    "felt": 5891,
    "Ġphaeton": 17466,
    "emone": 21930,
    "Ġmarines": 16262,
    "Ġmerry": 5870,
    "bony": 15322,
    "Ġnumberless": 16417,
    "Ġcows": 15556,
    "Ġmotionless": 8325,
    "Ġhide": 4591,
    "improve": 15715,
    "Ġalmost": 1655,
    "Ġreposing": 23363,
    "wick": 5363,
    "Ġtraitors": 23082,
    "hearth": 15501,
    "ipt": 12482,
    "Ġbestowing": 16972,
    "caps": 20809,
    "Ġelement": 6897,
    "Ġimitated": 18330,
    "Ġgrowing": 6752,
    "Ġwinds": 5746,
    "marching": 25753,
    "Ġalarmed": 6923,
    "onym": 14650,
    "Ġapprovingly": 26254,
    "Ġinvented": 17037,
    "Ġshort": 2229,
    "patched": 17644,
    "dishon": 20407,
    "Ġsponge": 26005,
    "heavenly": 20048,
    "Ġrepresents": 4903,
    "Ġmoisture": 12362,
    "marry": 13327,
    "orated": 12595,
    "Ġmyster": 5928,
    "Ġpurchasing": 19877,
    "Ġmasoned": 20254,
    "ensibility": 22553,
    "hullo": 17571,
    "reading": 12083,
    "Ġanalog": 12616,
    "scrape": 25699,
    "Ġver": 3397,
    "Ġinterpreter": 23217,
    "Ġsoaring": 22085,
    "tallied": 21092,
    "horizon": 23617,
    "decided": 13218,
    "prises": 23816,
    "sa": 8760,
    "moment": 3580,
    "Ġassiduous": 26294,
    "Ġmilk": 6486,
    "Ġtransplanted": 22444,
    "Ġrailway": 15022,
    "lantic": 6365,
    "Ġgovern": 10451,
    "Ġdart": 4587,
    "gg": 1993,
    "edmund": 17948,
    "tting": 17681,
    "Ġunre": 3480,
    "Ġshade": 6552,
    "Ġtwit": 12933,
    "Ġobjection": 6587,
    "Ġadmirably": 16482,
    "ernation": 8213,
    "dipped": 20839,
    "ency": 3869,
    "Ġchisel": 20371,
    "inger": 6813,
    "afforded": 25866,
    "slipping": 25529,
    "Ġlofty": 6219,
    "shel": 11933,
    "Ġpremium": 23908,
    "º": 123,
    "Ġassertion": 13492,
    "dÃ¦mon": 17528,
    "Ġlabelled": 23331,
    "Ġswish": 23058,
    "oing": 15403,
    "Ġperceived": 4715,
    "Ġbrave": 6331,
    "suffered": 24329,
    "Ġcomplet": 4423,
    "Ġrefreshment": 17241,
    "Ġcolumns": 14378,
    "Ġmechanical": 7938,
    "vessel": 11378,
    "iring": 1706,
    "queness": 18150,
    "breeding": 16676,
    "Î": 143,
    "Ġwaterloo": 11983,
    "Ġchronicle": 20231,
    "Ġinflex": 20637,
    "forward": 2191,
    "Ġpersons": 6182,
    "Ġraptures": 13499,
    "tit": 11529,
    "Ġvisitors": 7986,
    "nical": 20993,
    "Ġspoon": 22140,
    "Ġsaw": 1352,
    "clear": 9026,
    "disagreeable": 11164,
    "reel": 21236,
    "ads": 5718,
    "Ġstout": 6027,
    "Ġostlers": 25277,
    "Ġthinkings": 22815,
    "Ġredeemed": 25790,
    "Ġbarbed": 14837,
    "forbidding": 25839,
    "Ġboughs": 20492,
    "Ġlimits": 3456,
    "smeer": 26148,
    "boy": 4739,
    "Ġappalling": 8502,
    "Ġparaphrasing": 26527,
    "Ġsuavely": 26524,
    "melted": 25207,
    "Ġvillas": 24057,
    "Ġbathing": 20202,
    "Ġwidth": 16773,
    "set": 3866,
    "Ġasp": 15784,
    "burgh": 6774,
    "Ġrelics": 16198,
    "Ġrecesses": 17262,
    "inously": 21189,
    "Ġsacrilege": 26230,
    "Ġthoughts": 3136,
    "Ġprosperous": 15173,
    "Ġacquiesced": 25494,
    "Ġgoethe": 22427,
    "Ġrespectful": 16348,
    "Ġtake": 1579,
    "Ġoblong": 14323,
    "Ġramadans": 25122,
    "ĺ": 251,
    "Ġdubious": 17385,
    "ender": 9162,
    "Ġdisplaying": 16967,
    "Ġniagara": 26459,
    "talking": 10009,
    "aurus": 20563,
    "Ġrecept": 1525,
    "mass": 12493,
    "onents": 8781,
    "perplex": 18344,
    "whalemen": 10432,
    "Ġserenely": 13509,
    "Ġdesert": 6728,
    "giv": 13724,
    "outside": 12808,
    "Ġtunnels": 24622,
    "cham": 10854,
    "Ġgovernment": 15179,
    "respective": 19848,
    "Ġinfer": 7685,
    "Ġhenry": 5197,
    "ensical": 18570,
    "Ġinsolence": 20256,
    "Ġsaratoga": 26424,
    "lutions": 20952,
    "Ġexter": 7397,
    "Ġgriefs": 16772,
    "Ġhurt": 7702,
    "Ġexpect": 2308,
    "aries": 6246,
    "Ġfestival": 25446,
    "ean": 20842,
    "Ġleaf": 15726,
    "Ġsurf": 19133,
    "'t": 3142,
    "peasant": 23115,
    "Ġblankness": 24612,
    "Ġindiam": 22959,
    "innocence": 15186,
    "usages": 22295,
    "alleled": 14431,
    "aning": 2257,
    "Ġven": 4649,
    "Ġcivility": 4789,
    "Ġprosperity": 20260,
    "Ġmeaning": 1416,
    "Ġrum": 5926,
    "figures": 20125,
    "Ġauthorities": 11265,
    "Ġprecision": 13192,
    "Ġinquirers": 24967,
    "Ġclank": 15971,
    "sheet": 16288,
    "motives": 26138,
    "Ġinvaluable": 10184,
    "Ġonce": 1491,
    "Ġconcocted": 26300,
    "Ġcomrades": 9235,
    "Ġreel": 9215,
    "did": 3193,
    "agre": 18167,
    "Ġscrupled": 25052,
    "evil": 11487,
    "Ġtaste": 5524,
    "Ġfluffy": 19367,
    "goes": 10427,
    "Ġglide": 22985,
    "such": 3081,
    "Ġsafety": 6341,
    "Ġtropic": 17064,
    "Ġhier": 1894,
    "Ġtrembling": 7481,
    "angered": 16181,
    "Ġpaths": 2570,
    "ouncement": 11748,
    "Ġdeadliest": 14557,
    "arent": 4249,
    "leagued": 26436,
    "Ġwink": 11571,
    "overspreading": 26140,
    "Ġetern": 7087,
    "Ġattached": 5392,
    "daggoo": 13709,
    "Ġoccurrences": 11051,
    "Ġfr": 1694,
    "discovered": 8326,
    "Ġcompliments": 8636,
    "Ġthrills": 24541,
    "Ġconceive": 8463,
    "Ġveritable": 19384,
    "urged": 18050,
    "Ġparting": 9785,
    "fellow": 6793,
    "strong": 6324,
    "Ġverily": 16604,
    "Ġve": 1107,
    "Ġproportion": 7281,
    "il": 329,
    "Ġemperors": 15162,
    "Ġriveted": 13621,
    "Ġceasing": 23759,
    "berg": 11867,
    "results": 20390,
    "Ġabsurd": 7203,
    "Ġextreme": 2515,
    "beat": 10987,
    "Ġpensive": 21479,
    "Ġhints": 8432,
    "Ġcheever": 23285,
    "alization": 731,
    "Ġcom": 368,
    "Ġperemptory": 25741,
    "omp": 2473,
    "Ġlovely": 4711,
    "Ġagon": 10322,
    "afflicted": 23780,
    "Ġancestors": 25643,
    "Ġvoracity": 25987,
    "smote": 23913,
    "Ġfatal": 5873,
    "Ġgestic": 21612,
    "Ġmountains": 4427,
    "driver": 14923,
    "Ġout": 543,
    "Ġmysteries": 11323,
    "recogn": 13428,
    "Ġjelly": 22305,
    "Ġsubtlety": 24779,
    "venty": 6428,
    "Ġeternities": 19946,
    "Ġingen": 9051,
    "oline": 6834,
    "95": 17479,
    "currents": 23848,
    "Ġsuperhuman": 23454,
    "thankful": 16807,
    "Ġcheck": 7271,
    "described": 18896,
    "iana": 7050,
    "Ġexhaustion": 14963,
    "oment": 918,
    "promise": 12254,
    "eter": 11623,
    "Ġrestrain": 8966,
    "itu": 1228,
    "Ġelect": 10843,
    "dashed": 12459,
    "outer": 9670,
    "astes": 11742,
    "Ġsouthampton": 24308,
    "Ġlimited": 23548,
    "Ġextremely": 2668,
    "carp": 9112,
    "Ġopulent": 23631,
    "Ġhighlands": 22779,
    "Ġacquaintances": 17352,
    "Ġsurging": 19135,
    "Ġaccomplice": 24375,
    "Ġroughly": 17040,
    "treasures": 26153,
    "Ġscrewed": 15123,
    "love": 9296,
    "Ġsuspected": 9064,
    "les": 1017,
    "Ġfishe": 15589,
    "Ġtrumpet": 9575,
    ")": 13,
    "Ġdolphins": 20399,
    "Ġinfrequent": 3826,
    "Ġcongregation": 12332,
    "rocket": 13946,
    "Ġuncommonly": 7761,
    "Ġbeadle": 26485,
    "Ġduration": 20356,
    "dan": 17516,
    "Ġsprinkled": 19500,
    "Ġpoliteness": 8275,
    "beautiful": 10650,
    "Ġbestirred": 20454,
    "length": 7136,
    "mannered": 22859,
    "Ġrendering": 16659,
    "Ġlatin": 16822,
    "strom": 15687,
    "oman": 2015,
    "majesty": 26282,
    "Ġincomp": 12901,
    "Ġriver": 5411,
    "Ġca": 21342,
    "Ġyankees": 26203,
    "Ġwondering": 7972,
    "ched": 1546,
    "]]": 5205,
    "Ġtreasures": 17047,
    "Ġdiving": 12605,
    "taken": 7560,
    "onged": 18411,
    "shape": 10983,
    "Ġprincess": 23227,
    "Ġrobinson": 17465,
    "Ġprecipices": 12281,
    "gover": 10703,
    "paid": 15416,
    "instantly": 7506,
    "Ġburial": 16524,
    "Ġmisconduct": 22761,
    "float": 19808,
    "Ġmoments": 4847,
    "iscre": 17852,
    "rene": 5379,
    "vo": 11541,
    "rapidly": 15246,
    "apology": 22338,
    "Ġincluded": 8958,
    "Ġliberal": 12194,
    "inks": 6869,
    "Ġcasting": 12104,
    "somerset": 26324,
    "onze": 21258,
    "Ġpaintings": 15059,
    "omist": 21642,
    "Ġangry": 5498,
    "å": 166,
    "Ġecc": 11630,
    "quent": 2093,
    "algorithm": 3678,
    "admiration": 11388,
    "postp": 24636,
    "Ġlacey": 10199,
    "Ġswain": 18882,
    "Ġrelative": 11886,
    "securer": 25603,
    "Ġassumptions": 5517,
    "Ġ1807": 26084,
    "Ġannounce": 13342,
    "Ġmanhat": 22332,
    "Ġcoming": 2617,
    "Ġpewter": 17187,
    "innocent": 20289,
    "Ġtroubled": 6618,
    "ves": 739,
    "Ġunderwent": 23240,
    "Ġreflection": 6441,
    "ening": 3104,
    "ploy": 2069,
    "lasting": 8012,
    "rent": 1169,
    "Ġcapt": 1290,
    "plainly": 11091,
    "Ġcanvas": 7785,
    "throw": 14100,
    "Ġshocking": 10436,
    "Ġinher": 10181,
    "Ġconfess": 3768,
    "Ġshrouded": 14971,
    "Ġturns": 4981,
    "Ġunstructure": 2991,
    "Ġrecognise": 12043,
    "Ġmartyr": 26362,
    "Ġaccost": 12849,
    "Ġcatherine": 2811,
    "Ġheightened": 8652,
    "Ġimpo": 3444,
    "present": 1136,
    "Ġfellows": 8258,
    "ascar": 8437,
    "Ġcongregational": 25105,
    "ach": 435,
    "Ġguessed": 11283,
    "bank": 10081,
    "Ġflesh": 5971,
    "upset": 23023,
    "Ġcarted": 21353,
    "osure": 5308,
    "Ġemployer": 19435,
    "Ġmirror": 12381,
    "ojo": 7349,
    "Ġboarders": 16601,
    "Ġproperly": 7946,
    "ollion": 19718,
    "Ġtranquilly": 12293,
    "Ġsprung": 11248,
    "Ġincreases": 3797,
    "Ķ": 247,
    "Ġacknowled": 6352,
    "fere": 10988,
    "Ġinscrut": 10036,
    "Ġtarshish": 12031,
    "Ġspouting": 9441,
    "Ġdated": 10939,
    "Ġcens": 8415,
    "Ġ1825": 25719,
    "umb": 3406,
    "Ġhurried": 4031,
    "cannot": 5745,
    "Ġreflecting": 24750,
    "Ġsketch": 16167,
    "immed": 9219,
    "gy": 2095,
    "Ġsunwards": 19012,
    "Ġgambler": 26192,
    "Ġsupers": 18279,
    "bearings": 25372,
    "Ġmeek": 21814,
    "Ġinattention": 17934,
    "str": 2578,
    "Ġadvice": 4902,
    "Ġmerryweather": 9524,
    "Ġfortun": 4982,
    "german": 11493,
    "ission": 6458,
    "Ġruff": 14351,
    "arris": 13212,
    "happen": 19333,
    "Ġmer": 2926,
    "Ġintricate": 15140,
    "Ġdespairing": 14776,
    "Ġfewer": 16227,
    "Ġpoltroon": 26599,
    "inferior": 12397,
    "nearer": 22469,
    "Ġsomehow": 4843,
    "ading": 5091,
    "Ġcelestial": 10069,
    "Ġaffording": 14823,
    "Ġinvolves": 1128,
    "Ġmusical": 23896,
    "Ġlionel": 25287,
    "uments": 5551,
    "Ġovertook": 18430,
    "following": 10574,
    "Ġnovel": 6697,
    "Ġtomahawk": 7539,
    "Ġdock": 15933,
    "beginning": 13564,
    "Ġmagg": 18907,
    "mate": 5359,
    "Ġbrew": 23346,
    "strongly": 24685,
    "Ġirregularly": 25324,
    "Ġshop": 9254,
    "Ġfaith": 5351,
    "thrill": 25657,
    "Ġmus": 3400,
    "Ġautomatically": 3728,
    "afternoon": 13188,
    "Ġstrongest": 11136,
    "Ġlastly": 16207,
    "ance": 479,
    "fam": 5991,
    "curious": 10484,
    "Ġchallenge": 25472,
    "Ġhaught": 10254,
    "Ġpig": 5705,
    "Ġmonkey": 8227,
    "Ġhumiliation": 16201,
    "Ġrapturously": 24889,
    "Ġtangled": 13829,
    "Ġpearl": 20380,
    "Ġfeeling": 3082,
    "ob": 1421,
    "Ġplot": 14283,
    "ergy": 2363,
    "reason": 4415,
    "piled": 21017,
    "Ġexhaust": 6400,
    "ald": 15628,
    "Ġsituations": 10493,
    "Ġ125": 24469,
    "revenge": 13844,
    "lacings": 26135,
    "eray": 21269,
    "Ġblaming": 22934,
    "Ġmud": 11575,
    "Ġmystic": 7503,
    "cet": 15327,
    "Ġcripp": 9655,
    "entered": 8818,
    "Ġnapole": 15118,
    "va": 4744,
    "Ġinforming": 18742,
    "chance": 6827,
    "Ġcoefficient": 2880,
    "Ġfairy": 14628,
    "Ġnathan": 21530,
    "Ġbearing": 5300,
    "Ġhunts": 23162,
    "Ġbon": 8789,
    "magnifying": 25393,
    "antediluvian": 24345,
    "insensibility": 23074,
    "morrow": 4574,
    "Ġformality": 22833,
    "Ġindel": 13008,
    "dam": 7799,
    "Ġpitchpoling": 14913,
    "Ġbasics": 13451,
    "daw": 17523,
    "Ġjealously": 24126,
    "Ġcoat": 4554,
    "fect": 2302,
    "Ġobservations": 13556,
    "hearing": 8405,
    "Ġpills": 21470,
    "Ġmac": 15541,
    "Ġushered": 18357,
    "historian": 25735,
    "Ġphiladel": 23888,
    "swear": 16919,
    "Ġdaniel": 15114,
    "Ġprovoking": 16744,
    "uch": 876,
    "Ġvolley": 24147,
    "Ġallows": 3231,
    "Ġaccomp": 4714,
    "Ġungenerous": 18267,
    "Ġdistress": 5845,
    "spee": 9319,
    "Ġthackeray": 26456,
    "fanning": 20868,
    "schoolmaster": 15164,
    "Ġsuggestive": 11298,
    "Ġy": 341,
    "Ġvivacious": 19818,
    "Ġtarpaul": 17731,
    "Ġpopulous": 16827,
    "Ġamber": 7028,
    "Ġorb": 22096,
    "extraordinary": 9097,
    "Ġpollard": 20389,
    "Ġpence": 17907,
    "Ġperpetually": 17070,
    "aves": 2544,
    "ption": 7398,
    "Ġrelationship": 2317,
    "Ġpsychology": 11449,
    "itled": 7578,
    "Ġvillains": 14752,
    "Ġdrily": 23543,
    "crimes": 16685,
    "Ġcam": 10163,
    "Ġdeserving": 14756,
    "<": 32,
    "Ġdrawings": 14725,
    "Ġpallor": 13518,
    "Ġascribed": 14857,
    "Ġperch": 10300,
    "Ġjuggling": 20442,
    "Ġcritic": 19123,
    "Ġsealed": 15818,
    "Ġsem": 1877,
    "supportable": 12373,
    "Ġstagger": 10593,
    "Ġfrig": 13084,
    "ustomed": 6101,
    "Ġgreen": 3051,
    "errand": 22913,
    "van": 7815,
    "Ġdere": 21839,
    "amed": 4448,
    "tomorrow": 25915,
    "abled": 12798,
    "talked": 14987,
    "Ġcause": 2410,
    "Ġdropped": 4472,
    "arb": 1565,
    "waves": 10741,
    "...": 24548,
    "elizabeth": 1983,
    "Ġgreenness": 23769,
    "Ġdecently": 22447,
    "Ġhatchway": 13527,
    "Ġpeeling": 22696,
    "Ġsenate": 25215,
    "proportions": 22855,
    "added": 11661,
    "Ġexeget": 24086,
    "almost": 4943,
    "snap": 24849,
    "useness": 22297,
    "ension": 6571,
    "Ġcunning": 6240,
    "Ġishmael": 7395,
    "olog": 1087,
    "Ġul": 6828,
    "Ġmonotonically": 3835,
    "india": 22376,
    "Ġcliffs": 15974,
    "Ġrefusing": 11029,
    "Ġfre": 1571,
    "Ġconvul": 13206,
    "Ġunfulfilled": 26510,
    "Ġkate": 15908,
    "Ġretiring": 16283,
    "acters": 9311,
    "Ġhedgehogs": 25395,
    "Ġshrunk": 16719,
    "Ġduchess": 4800,
    "Ġthough": 993,
    "Ġsummarization": 3648,
    "Ġtrip": 16789,
    "trem": 17682,
    "det": 5207,
    "Ġende": 21937,
    "bearers": 18522,
    "Ġpomp": 12626,
    "thro": 12765,
    "madness": 14884,
    "Ġdistingu": 2514,
    "Ġlondon": 2837,
    "Ġspear": 9314,
    "Ġprefer": 6417,
    "Ġbought": 8418,
    "Ġslewed": 23386,
    "Ġtested": 23206,
    "Ġarticle": 9504,
    "Ġordinarily": 20651,
    "Ġmethodology": 2433,
    "delightful": 12200,
    "remember": 7262,
    "Ġ110": 24434,
    "valuable": 8249,
    "worthy": 7734,
    "swimming": 24260,
    "devouring": 24953,
    "Ġplan": 3882,
    "Ġsuccour": 20438,
    "lect": 1224,
    "Ġconcussion": 26301,
    "Ġimplement": 3330,
    "Ġparadigms": 3055,
    "ural": 504,
    "Ġproc": 5544,
    "Ġcrystall": 20229,
    ".}": 20747,
    "convenient": 12241,
    "impenet": 18056,
    "deaux": 22153,
    "Ġharem": 9711,
    "Ġundeniable": 26511,
    "Ġsloping": 11942,
    "ught": 2749,
    "Ġspears": 12928,
    "Ġbreaches": 14521,
    "ĠâĢĻ": 3041,
    "Ġdollar": 25284,
    "sively": 13788,
    "questions": 16761,
    "prejudiced": 17299,
    "leave": 7838,
    "Ġsloop": 25931,
    "Ġthen": 666,
    "Ġpersist": 16282,
    "Ġpurposes": 11169,
    "Ġbowsman": 11255,
    "Ġrelaxed": 12988,
    "Ġancestry": 25642,
    "Ġestimable": 23875,
    "Ġtroops": 24899,
    "Ġlaborers": 19058,
    "papers": 12505,
    "Ġinarticulate": 21504,
    "billiard": 25335,
    "Ġbier": 22764,
    "countless": 24152,
    "'re": 12431,
    "ecess": 17533,
    "met": 6655,
    "Ġstochastic": 3266,
    "Ġrested": 9380,
    "Ġwives": 12559,
    "Ġbarbaric": 10016,
    "Ġarab": 7824,
    "Ġchronic": 9931,
    "oil": 7806,
    "Ġcarbuncle": 14447,
    "Ġremember": 2678,
    "Ġportentous": 15232,
    "Ġindepend": 3670,
    "Ġfam": 1585,
    "Ġdashing": 8799,
    "Ġtwitched": 20447,
    "gabriel": 15363,
    "enses": 10996,
    "Ġcatholic": 20684,
    "Ġcommunication": 1870,
    "right": 2767,
    "Ġlanguage": 647,
    "ust": 495,
    "hatred": 24818,
    "Ġneighbor": 25806,
    "owders": 18053,
    "nantucketer": 24977,
    "Ġmorass": 22975,
    "Ġengineering": 3024,
    "Ġmoody": 8202,
    "Ġsneering": 24696,
    "batt": 20780,
    "isms": 12584,
    "Ġsur": 2186,
    "Ġcrouched": 23441,
    "oid": 3125,
    "Ġdescribes": 3120,
    "Ġremnants": 22797,
    "izabeth": 909,
    "omically": 13978,
    "Ġmamm": 25093,
    "Ġmajest": 24064,
    "eminently": 25108,
    "Ġcass": 13881,
    "umpled": 15879,
    "======": 9835,
    "Ġuncivil": 11156,
    "freighted": 14894,
    "oam": 8755,
    "Ġcoron": 4465,
    "cable": 20799,
    "Ġfervent": 14903,
    "uc": 1876,
    "itates": 13871,
    "appearance": 5334,
    "Ġtheirs": 7026,
    "Ġsensationalism": 26068,
    "Ġunrestrained": 25555,
    "over": 1844,
    "eminent": 25107,
    "Ġdismissed": 12896,
    "Ġastr": 15496,
    "Ġstave": 11653,
    "heartedness": 24825,
    "Ġconcept": 661,
    "Ġderive": 10396,
    "sunlight": 24852,
    "ife": 1024,
    "Ġstun": 11652,
    "bug": 17494,
    "tub": 9145,
    "Ġcrash": 12004,
    "Ġex": 361,
    "somewhat": 11161,
    "orrow": 2910,
    "tarpaulins": 26406,
    "Ġkeeping": 7283,
    "Ġtreacherous": 13557,
    "masterly": 24529,
    "Ġmuhammad": 26170,
    "otherwise": 7672,
    "Ġoccupation": 9933,
    "Ġscar": 3210,
    "Ġnapoleons": 25886,
    "oga": 22709,
    "Ġtax": 13818,
    "Ġwrite": 3823,
    "hors": 9600,
    "Ġmonomania": 17085,
    "hind": 20896,
    "dun": 17517,
    "ductive": 23939,
    "scar": 9818,
    "Ġcr": 2153,
    "isturbed": 18298,
    "solved": 7686,
    "ph": 926,
    "Ġdisconnected": 22530,
    "animal": 16979,
    "Ġwhistle": 9068,
    "itching": 21338,
    "arat": 9182,
    "Ġendless": 7055,
    "embra": 14076,
    "Ġmutilated": 23962,
    "Ġproceeding": 9908,
    "Ġpairs": 4183,
    "Ġbarbarous": 13479,
    "pair": 21014,
    "Ġ6": 5141,
    "Ġprofess": 3701,
    "foam": 24417,
    "Ġduplicates": 17218,
    "Ġconsequ": 6256,
    "tackles": 25625,
    "Ġexal": 10878,
    "footsteps": 25200,
    "Ġenough": 1757,
    "Ġsoap": 14134,
    "Ġpepper": 9783,
    "idy": 21769,
    "Ġtam": 7822,
    "Ġaid": 6124,
    "Ġgush": 10204,
    "Ġsprawling": 22145,
    "Ġfarewell": 9522,
    "Ġspreading": 13381,
    "hogs": 20085,
    "thereby": 14449,
    "moral": 14804,
    "hundred": 8332,
    "Ġmol": 12565,
    "Ġscratch": 25565,
    "Ġlambton": 10659,
    "Ġindifferent": 6176,
    "Ġinvisibly": 24814,
    "Ġten": 2386,
    "Ġunrel": 14697,
    "ropri": 2183,
    "Ġglossy": 15230,
    "seaman": 25458,
    "ĠĠĠĠĠĠĠĠĠĠĠĠĠĠĠĠĠĠĠĠĠĠĠ": 18835,
    "Ġribbons": 24324,
    "understood": 13219,
    "Ġchanges": 2288,
    "Ġsheeted": 19834,
    "Ġmeditating": 20046,
    "Ġgait": 13334,
    "user": 5105,
    "Ġtaurus": 21181,
    "Ġsedentary": 25431,
    "rabbit": 20594,
    "awing": 18917,
    "Ġstrides": 22617,
    "Ġmonstrous": 7791,
    "steep": 19422,
    "racts": 14359,
    "unquiet": 21886,
    "icious": 7380,
    "dued": 7911,
    "°": 113,
    "bler": 11473,
    "Ġload": 14147,
    "ilogue": 21729,
    "connections": 14430,
    "Ġcontempt": 6277,
    "Ġstores": 18071,
    "Ġintercepted": 25828,
    "consolatory": 25307,
    "walks": 19724,
    "abiding": 21798,
    "unting": 21879,
    "Ġselect": 3997,
    "bre": 3978,
    "Ġdolph": 12383,
    "Ġruin": 6058,
    "Ġexceptions": 13233,
    "Ġministers": 22837,
    "soft": 12513,
    "thought": 3850,
    "Ġyon": 9695,
    "Ġpoising": 22596,
    "Ġmapp": 2081,
    "int": 1198,
    "Ġthames": 13940,
    "reader": 23850,
    "Ġtiger": 11556,
    "Ġinsensibility": 17110,
    "Ġcorrespondent": 19825,
    "heum": 17748,
    "common": 4129,
    "crawling": 16959,
    "listen": 13516,
    "Ġimpartial": 15222,
    "Ġdeploy": 2965,
    "chors": 11646,
    "Ġinhuman": 13931,
    "Ġunalterable": 15854,
    "sme": 17659,
    "ood": 960,
    "Ġcoun": 4179,
    "posture": 16928,
    "resting": 23237,
    "marrying": 19550,
    "Ġmisanthrop": 22762,
    "Ġwaterproof": 19090,
    "inte": 5144,
    "Ġendeavoured": 4919,
    "Ġderiv": 1735,
    "Ġwisest": 11233,
    "eteenth": 20160,
    "gage": 13725,
    "Ġbullion": 24988,
    "Ġcupboard": 16884,
    "Ġarisen": 11746,
    "scorched": 25698,
    "Ġhamp": 12634,
    "Ġpierce": 17036,
    "smo": 10127,
    "Ġdisinclined": 22534,
    "Ġalpha": 13591,
    "tains": 10963,
    "Ġaltar": 9230,
    "Ġextinguish": 14338,
    "Ġembal": 11904,
    "osal": 11762,
    "Ġ64": 24366,
    "leo": 21367,
    "Ġleaving": 3906,
    "Ġcondemned": 7780,
    "apside": 22966,
    "Ġattic": 16104,
    "Ġstandard": 14497,
    "Ġstam": 18068,
    "valu": 1712,
    "way": 765,
    "practical": 17223,
    "Ġhazarded": 25655,
    "weaknesses": 26031,
    "Ġtemptations": 24504,
    "inced": 3338,
    "astic": 1868,
    "Ġdeferred": 18827,
    "yet": 3755,
    "Ġchron": 19441,
    "Ġilleg": 21622,
    "Ġhorrible": 4906,
    "collins": 6916,
    "aw": 1448,
    "Ġthanking": 18605,
    "Ġrigger": 19533,
    "Ġbaboon": 19696,
    "Ġsheath": 14153,
    "Ġintrospective": 20603,
    "apprehens": 17408,
    "Ġcrackling": 24963,
    "Ġpitied": 14693,
    "Ġjobs": 24833,
    "Ġg": 310,
    "om": 315,
    "Ġresc": 4507,
    "Ġbunch": 11327,
    "Ġcosine": 2374,
    "Ġfelix": 4850,
    "Ġintelligences": 12834,
    "Ġworkflow": 2419,
    "Ġheadsman": 13278,
    "Ġreasons": 6022,
    "Ġinfant": 11963,
    "İ": 241,
    "Ġgranting": 18737,
    "Ü": 157,
    "Ġhardihood": 23116,
    "ĠĠĠĠĠĠĠĠĠĠĠĠĠĠĠĠĠĠĠĠĠĠĠĠĠĠĠĠĠĠĠĠĠĠĠĠĠĠĠĠĠĠĠ": 12158,
    "Ġfaintest": 24569,
    "ignant": 11130,
    "Ġrepaired": 13111,
    "proposal": 18762,
    "Ġscared": 14188,
    "followed": 8340,
    "examined": 17268,
    "Ġlaunched": 14928,
    "dress": 17521,
    "Ġoverseeing": 22369,
    "shazzar": 15292,
    "Ġdepress": 14048,
    "reflected": 24732,
    "Ġconven": 6153,
    "Ġhoisting": 9864,
    "answered": 10275,
    "frozen": 25142,
    "Ġpunchbowl": 20234,
    "smug": 23911,
    "Ġarms": 3966,
    "Ġsuffer": 4723,
    "wl": 17703,
    "Ġmariners": 6070,
    "ishe": 13893,
    "Ġjoyful": 13225,
    "Ġlock": 5930,
    "Ġconscientious": 16728,
    "Ġtypewriting": 16422,
    "Ġdens": 21428,
    "Ġklux": 22200,
    "Ġfunctional": 3047,
    "spermaceti": 12197,
    "Ġfeather": 8862,
    "desp": 6095,
    "ensed": 10997,
    "Ġvarious": 3511,
    "belong": 12126,
    "Ġwater": 1945,
    "morland": 24155,
    "Ġsolace": 16202,
    "Ġresembles": 25970,
    "remembrance": 25703,
    "Ġtransports": 24279,
    "Ġcocain": 18599,
    "Ġcracks": 12022,
    "Ġacid": 22686,
    "press": 1730,
    "Ġdivin": 13277,
    "87": 20759,
    "Ġsincer": 13070,
    "Ġignorant": 5344,
    "garnished": 26389,
    "ash": 1989,
    "egyptians": 25899,
    "Ġmessage": 13525,
    "Ġpersever": 10005,
    "Ġtoast": 21516,
    "Ġsc": 527,
    "Ġcage": 17827,
    "Ġtribute": 15477,
    "expectant": 24277,
    "tt": 13792,
    "Ġimpul": 7208,
    "Ġallusions": 10907,
    "post": 6064,
    "aloft": 8810,
    "Ġstarting": 7730,
    "Ġmodes": 22219,
    "Ġstriving": 8998,
    "Ġbeheld": 4493,
    "ague": 3908,
    "Ġregression": 4410,
    "Ġinoffensive": 21502,
    "inates": 21183,
    "Ġdoesn": 7438,
    "Ġparade": 18302,
    "philosophers": 25253,
    "Ġcolon": 18764,
    "Ġvib": 8166,
    "illings": 14144,
    "adr": 6995,
    "Ġstudious": 23242,
    "Ġodds": 13333,
    "Ġapologized": 25199,
    "Ġmovement": 9970,
    "Ġnice": 6678,
    "Ġintellectual": 11402,
    "Ġcapting": 23025,
    "Ġforeseeing": 23451,
    "exasper": 22432,
    "Ġmuscle": 14690,
    "Ġsiamese": 20486,
    "contrasted": 17308,
    "terrors": 25044,
    "Ġjupiter": 17458,
    "Ġcommunic": 5751,
    "swiss": 24257,
    "zers": 21149,
    "lim": 9608,
    "Ġloite": 22116,
    "Ġbrand": 16189,
    "harpoone": 6109,
    "Ġlestrade": 5826,
    "hung": 8382,
    "Ġfro": 3474,
    "Ġloves": 10916,
    "uteronomy": 15667,
    "Ġenergetic": 15200,
    "Ġgroups": 3721,
    "Ġclearly": 6896,
    "turning": 8318,
    "Ġpirate": 14997,
    "04": 10681,
    "precip": 14666,
    "Ġhor": 1659,
    "Ġimplicit": 19961,
    "remind": 23192,
    "erland": 9642,
    "back": 2014,
    "warmth": 20056,
    "Ġclap": 10960,
    "jure": 20926,
    "Ġpredictions": 1456,
    "Ġshrieked": 9550,
    "departure": 15237,
    "Ġtimidly": 11339,
    "Ġtapping": 10753,
    "Ġglitter": 25126,
    "Ġvindictiveness": 25739,
    "Ġbennet": 1576,
    "Ġobjective": 3767,
    "Ġhesitating": 16948,
    "Ġ134": 24783,
    "sorting": 17005,
    "huzza": 20915,
    "Ġmounted": 7833,
    "Ġpatches": 4238,
    "Ġslackened": 15129,
    "lighter": 20961,
    "Ġalms": 21785,
    "Ġrewarding": 13440,
    "musical": 25341,
    "conjectured": 25182,
    "pillar": 5618,
    "Ġfowler": 16938,
    "Ġterribly": 10426,
    "Ġchairs": 12830,
    "Ġconjured": 25102,
    "patter": 4038,
    "Ġwhalemen": 3914,
    "Ġdamp": 8265,
    "Ġdecide": 9288,
    "Ġterminating": 23513,
    "ourselves": 9013,
    "Ġthread": 14539,
    "Ġdistur": 5313,
    "Ġcopestone": 24939,
    "stately": 18024,
    "Ġluxuriant": 20398,
    "Ġexplored": 23520,
    "Ġiv": 4045,
    "Ġaffect": 1387,
    "hamlet": 23266,
    "Ġfejee": 18355,
    "Ġche": 1759,
    "ihood": 20924,
    "Ġhearing": 4762,
    "coll": 23781,
    "Ġgips": 10842,
    "Ġmilky": 9949,
    "ivot": 11721,
    "Ġiroqu": 21623,
    "Ġsanely": 24985,
    "Ġmechanis": 1181,
    "rate": 2422,
    "possess": 5986,
    "Ġharmless": 9967,
    "Ġphyset": 23204,
    "Ġlapl": 19780,
    "Ġstraining": 11328,
    "Ġsaint": 15509,
    "Ġsighed": 10339,
    "Ġill": 2196,
    "Ġinstituted": 18702,
    "unbe": 21877,
    "hering": 12818,
    "apply": 18760,
    "Ġheedless": 14905,
    "law": 6117,
    "measureless": 20238,
    "shipped": 18492,
    "Ġpagan": 7119,
    "Ġmuttering": 10501,
    "Ġswims": 12123,
    "Ġplanned": 14755,
    "Ġfixing": 13159,
    "Ġwanted": 4968,
    "breat": 10080,
    "Ġrepairs": 19085,
    "Ġexec": 19495,
    "Ġguilt": 6181,
    "Ġtoils": 10187,
    "Ġflooded": 24964,
    "Ġay": 15493,
    "wandered": 20288,
    "Ġtyphoons": 20237,
    "plain": 1359,
    "Ġfiendish": 13331,
    "Ġspeech": 4612,
    "changed": 7176,
    "Ġforesight": 13130,
    "scot": 14419,
    "Ġoftentimes": 20158,
    "Ġreal": 1634,
    "Ġprivileged": 20116,
    "Ġbran": 5252,
    "Ġbusks": 23341,
    "Ġmidday": 23635,
    "Ġmuse": 13862,
    "Ġtars": 21167,
    "Ġcautiously": 16978,
    "Ġphenomenon": 17919,
    "chose": 18043,
    "Ġdam": 2218,
    "devil": 7897,
    "Ġfurthermore": 1168,
    "lord": 3865,
    "ign": 1701,
    "gree": 10702,
    "an": 278,
    "Ġprogrammed": 11058,
    "Ġcompacted": 23511,
    "Ġcolumb": 22862,
    "Ġworshipped": 25692,
    "queen": 12731,
    "mmet": 10990,
    "pressing": 19015,
    "Ġestablished": 9071,
    "Ġsecurity": 8979,
    "haired": 14769,
    "Ġglasses": 9477,
    "Ġextremities": 19198,
    "Ġhere": 1092,
    "Ý": 158,
    "ivility": 12793,
    "sal": 8761,
    "cursed": 23847,
    "congratulations": 20282,
    "Ġtaught": 6804,
    "Ġmarch": 4082,
    "utted": 15664,
    "Ġscarcity": 23829,
    "rod": 10832,
    "Ġcurled": 8228,
    "wr": 3027,
    "Ġleader": 14704,
    "Ġhastily": 5763,
    "Ġwanting": 6723,
    "Ġcome": 1240,
    "bath": 13692,
    "Ġsingularly": 12152,
    "odd": 21816,
    "Ġenjoying": 11235,
    "Ġcastaways": 19431,
    "dar": 20826,
    "Ġsporty": 19892,
    "Ġsubord": 22792,
    "til": 17672,
    "acute": 22599,
    "hes": 1400,
    "ambition": 13414,
    "Ġgiven": 1628,
    "fortnight": 13090,
    "effort": 19216,
    "ashed": 3786,
    "mingled": 14715,
    "dep": 6787,
    "ela": 21573,
    "Ġdecreas": 1647,
    "Ġ1820": 25718,
    "Ġfuss": 13907,
    "eding": 7166,
    "Ġdisconsol": 18558,
    "Ġmonosy": 18847,
    "enjoyment": 17259,
    "vocabulary": 25088,
    "class": 4096,
    "remarked": 12291,
    "Ġmagazine": 23104,
    "Ġdevoted": 6575,
    "affected": 10477,
    "Ġdeposited": 25485,
    "Ġdeceitfulness": 25734,
    "steel": 8300,
    "Ġnail": 9197,
    "Ġrenowned": 26195,
    "Ġforeboding": 20387,
    "Ġramadan": 9577,
    "Ġbehavioral": 11397,
    "Ġpound": 12620,
    "superstitiousness": 25509,
    "Ġblan": 18818,
    "udding": 11868,
    "Ġ180": 16607,
    "Ġinfallibly": 10043,
    "Ġaudio": 24771,
    "Ġcomprehens": 8321,
    "chants": 21696,
    "ieving": 7033,
    "hab": 1081,
    "Ġchronicler": 20232,
    "daring": 20831,
    "Ġblew": 9047,
    "lipped": 16219,
    "sleepy": 24728,
    "Ġvice": 6550,
    "Ġprince": 18972,
    "Ġvicinity": 7315,
    "Ġpout": 17908,
    "Ġfingers": 5672,
    "speechless": 25396,
    "Ġobstinacy": 17423,
    "Ġbegrim": 23021,
    "Ġliberty": 7763,
    "Ġexhale": 24401,
    "plentiful": 21967,
    "Ġthink": 985,
    "Ġdiscol": 12957,
    "Ġoperated": 14547,
    "superiority": 20188,
    "darcy": 5208,
    "Ġnone": 3221,
    "half": 4932,
    "Ġoysters": 20582,
    "wont": 21135,
    "Ġarrived": 3749,
    "Ġleading": 7297,
    "Ġcreated": 2707,
    "affa": 23778,
    "Ġfate": 4755,
    "partner": 19223,
    "Ġconcealment": 16915,
    "Ġfi": 938,
    "quohog": 21863,
    "Ġunholy": 26220,
    "ĠlinnÃ¦us": 15278,
    "Ġtissu": 25921,
    "Ġcou": 5288,
    "Ġchoke": 22254,
    "ificant": 22208,
    "cousin": 10654,
    "_.)": 7278,
    "breakfast": 8691,
    "respond": 12548,
    "Ġbarn": 11589,
    "Ġtreachery": 15104,
    "indirectly": 18438,
    "Ġdrenched": 12607,
    "Ġselecting": 16682,
    "Ġgodfre": 14529,
    "Ġbrighton": 6471,
    "Ġintegrated": 13533,
    "eastward": 15132,
    "Ġridge": 14821,
    "experienced": 15124,
    "steps": 9407,
    "Ġlounged": 19957,
    "Ġliveliness": 13646,
    "Ġgrasp": 4665,
    "Ġgriff": 22810,
    "races": 21634,
    "Ġrinal": 21982,
    "teness": 23211,
    "danger": 10091,
    "Ġeve": 13972,
    "Ġearnestly": 5981,
    "Ġambition": 11433,
    "Ġfunction": 584,
    "Ġscimet": 22279,
    "Ġwail": 21289,
    "Ġmischief": 8544,
    "Ġcomply": 8894,
    "Ġdynamically": 3892,
    "noo": 9788,
    "Ġfoolscap": 24160,
    "Ġsucked": 14132,
    "thunder": 10264,
    "Ġswiftness": 9929,
    "star": 12676,
    "Ġorgans": 15868,
    "Ġcreditor": 24291,
    "Ġraven": 16118,
    "Ġalternative": 19990,
    "Ġbarque": 23792,
    "Ġlink": 8131,
    "wind": 4252,
    "Ġlivid": 14991,
    "&": 10,
    "speed": 19412,
    "Ġlarboard": 11010,
    "Ġrudimental": 25111,
    "renew": 24449,
    "straight": 9942,
    "oms": 4595,
    "Ġderick": 9366,
    "icken": 6713,
    "awned": 19463,
    "breathing": 25336,
    "bad": 12439,
    "blast": 9589,
    "canonical": 22969,
    "settle": 16663,
    "Ġdent": 13908,
    "Ġcitadel": 25439,
    "Ġbet": 1134,
    "Ġday": 956,
    "Ġnobly": 22246,
    "Ġsunk": 5752,
    "augmented": 26288,
    "Ġevenly": 4130,
    "Ġblackness": 9394,
    "Ġrecommend": 7104,
    "Ġmoment": 991,
    "Ġ75": 19615,
    "Ġnarrations": 24351,
    "Ġdined": 9178,
    "amet": 587,
    "Ġunrecorded": 17469,
    "Ġgibraltar": 25788,
    "),": 1346,
    "Ġbus": 1903,
    "ignific": 11958,
    "piteous": 21036,
    "Ġtimes": 2305,
    "Ġbarrel": 23793,
    "Ġlips": 3990,
    "of": 768,
    "anchor": 13891,
    "Ġ550": 19639,
    "Ġcloudless": 16670,
    "Ġsuffusing": 23035,
    "irons": 10240,
    "liament": 16220,
    "hus": 5072,
    "Ġmbpp": 21325,
    "Ġsurtout": 23467,
    "Ġmultiple": 1187,
    "Ġsteelkilt": 5675,
    "Ġdampening": 2891,
    "Ġvi": 1949,
    "collar": 19330,
    "alogue": 25163,
    "ips": 2593,
    "Ġinterest": 2252,
    "Ġdefinite": 11070,
    "Ġrun": 2356,
    "Ġunaware": 22064,
    "Ġgib": 13967,
    "Ġsuperlatively": 26076,
    "Ġfully": 6344,
    "Ġcabal": 23644,
    "Ġsundry": 20077,
    "ampton": 18147,
    "obtain": 23098,
    "Ġreproofs": 24893,
    "axed": 8891,
    "hetic": 12207,
    "Ġdeepest": 8215,
    "Ġobtaining": 16135,
    "Ġcampaign": 20663,
    "apping": 5853,
    "ide": 721,
    "ds": 4689,
    "apparat": 22852,
    "Ġcountrymen": 23597,
    "Ġoccasion": 3245,
    "pond": 21015,
    "Ġgenuine": 14887,
    "Ġbrown": 6300,
    "Ġanywhere": 8519,
    "arking": 16128,
    "Ġliar": 22413,
    "Ġbinding": 20422,
    "Ġconstraint": 16514,
    "Ġentail": 9795,
    "fe": 670,
    "Ġessence": 13408,
    "Ġidea": 2487,
    "Ġuneasily": 24232,
    "ggy": 13117,
    "Ġclean": 5652,
    "âĢľâĢĺ": 1485,
    "utions": 1889,
    "hilar": 25084,
    "Ġ_": 839,
    "Ġmainz": 22651,
    "Ġpeevish": 26558,
    "Ġpitch": 5767,
    "Ġretribution": 16284,
    "Ġobservation": 6599,
    "Ġundertake": 14480,
    "Ġpad": 8126,
    "Ġstructured": 2968,
    "Ġlikelihood": 16502,
    "Ġremained": 3139,
    "Ġpompous": 20426,
    "Ġhaze": 18197,
    "cou": 13698,
    "Ġrecently": 11864,
    "Ġadvers": 4888,
    "ready": 2362,
    "fts": 18701,
    "Ġextensive": 12947,
    "Ġpenny": 16316,
    "itional": 22473,
    "Ġcapstan": 9101,
    "but": 592,
    "Ġsigma": 1542,
    "Ġjesty": 18406,
    "agos": 21909,
    "mindful": 19602,
    "--------": 14785,
    "non": 9613,
    "Ġpaced": 7584,
    "size": 15426,
    "Ġseeth": 21958,
    "susceptible": 24662,
    "chariot": 26480,
    "drugg": 20840,
    "Ġperusal": 14226,
    "Ġgorge": 13569,
    "Ġdistrusted": 13544,
    "ruined": 18341,
    "Ġawkward": 7075,
    "Ġcomstock": 21856,
    "baboon": 25517,
    "Ġquiescent": 26244,
    "Ġshadowed": 24049,
    "Ġholiday": 13002,
    "ace": 719,
    "anse": 12579,
    "Ġupset": 22157,
    "Ġdepression": 21845,
    "Ġdiminish": 14748,
    "Ġparametric": 2395,
    "irts": 9240,
    "Ġfatigued": 13468,
    "iple": 4807,
    "mentioned": 10625,
    "forks": 26388,
    "precisely": 6917,
    "Ġglobules": 26589,
    "Ġpeasant": 13554,
    "better": 7121,
    "backpropagation": 11988,
    "Ġinitialized": 3948,
    "Ġkissed": 10047,
    "cial": 2647,
    "Ġunmindful": 22071,
    "Ġdeaf": 12725,
    "Ġwhiskers": 10494,
    "Ġundulating": 19520,
    "Ġmorocc": 22978,
    "Ġvaults": 17155,
    "frequently": 9981,
    "(": 12,
    "Ġhang": 9189,
    "idelburgh": 10563,
    "Ġwarehouses": 20421,
    "Ġlogits": 3453,
    "Ġscorched": 17101,
    "Ġinsensible": 12328,
    "arius": 14250,
    "Ġobstin": 14955,
    "understand": 1176,
    "Ġconqueror": 25797,
    "Ġaberdeen": 26543,
    "Ġthin": 4348,
    "robotics": 11307,
    "Ġodious": 12154,
    "Ġweeds": 21929,
    "Ġmak": 10779,
    "duodecimo": 16005,
    "Ġstuffed": 13412,
    "Ġwel": 4527,
    "aco": 12910,
    "Ġexcavating": 23315,
    "perishing": 22191,
    "Ġembodied": 25848,
    "Ġmiseries": 10348,
    "Č": 205,
    "Ġidly": 16406,
    "Ġgolden": 5337,
    "Ġundersampling": 19521,
    "Ġpoor": 1708,
    "Ġquarto": 17298,
    "belonged": 25598,
    "Ġblessed": 6931,
    "Ġpray": 3901,
    "igate": 8826,
    "Ġbetake": 22909,
    "ingolstadt": 21306,
    "Ġoversight": 22367,
    "Ġfortune": 4240,
    "77": 15303,
    "Ġespecial": 26411,
    "zza": 24169,
    "Ġknowing": 4457,
    "cket": 3690,
    "und": 4119,
    "Ġallurements": 22014,
    "misrepresented": 24213,
    "Ġstr": 748,
    "iqu": 7804,
    "Ġverse": 16603,
    "Ġbee": 21754,
    "revol": 12544,
    "Ġbidding": 9539,
    "rev": 17757,
    "Ġpermanent": 13634,
    "Ġjog": 18405,
    "Ġsmoothe": 23661,
    "Ġbust": 10169,
    "aston": 7408,
    "Ġcaroline": 7254,
    "Ġskiff": 16166,
    "scans": 22988,
    "oper": 7347,
    "fl": 3602,
    "Ġpleased": 4064,
    "Ġswamp": 14439,
    "omen": 4086,
    "Ġuttermost": 19491,
    "Ġ7": 4746,
    "Ġunfrequent": 24111,
    "Ġticking": 25036,
    "relig": 15514,
    "Ġrick": 21975,
    "studied": 17151,
    "ounder": 11747,
    "ohog": 9845,
    "Ġexotic": 21836,
    "rified": 15421,
    "ieves": 4004,
    "Ġincommun": 25309,
    "slackened": 26095,
    "Ġconsulting": 13432,
    "Ġfruits": 17120,
    "inguish": 9399,
    "transition": 24509,
    "Ġhumorousness": 25378,
    "Ġbrushed": 15574,
    "thrust": 10263,
    "Ġnow": 691,
    "dig": 4930,
    "Ġrural": 21972,
    "Ġhinge": 25542,
    "Ġloafer": 18300,
    "Ġcongenial": 12414,
    "Ġimpatient": 5602,
    "Ġremem": 4313,
    "Ġlungs": 8363,
    "deformity": 22151,
    "forehead": 8518,
    "Ġfailure": 13318,
    "Ġrounding": 16275,
    "Ġprob": 969,
    "Ġpolynesian": 26027,
    "Ġfists": 15586,
    "Ġlysander": 13142,
    "Ġroyal": 5601,
    "Ġ183": 13242,
    "Ġboasted": 16109,
    "umbria": 23898,
    "Ġheavenly": 12088,
    "Ġcollege": 11425,
    "Ġlees": 18078,
    "Ġhardened": 14452,
    "enth": 6682,
    "Ġfrogs": 23927,
    "Ġunjustly": 17128,
    "riv": 3108,
    "Ġstrangers": 8315,
    "Ġmeditations": 25016,
    "Ġpatentee": 25587,
    "Ġ1883": 23901,
    "perfectly": 9088,
    "devoted": 20020,
    "Ġenchanted": 9082,
    "Ġconj": 8462,
    "notches": 22756,
    "tra": 5002,
    "Ġratio": 5066,
    "Ġconvincing": 19310,
    "idered": 4553,
    "recover": 24624,
    "Ġun": 423,
    "irms": 18171,
    "walton": 20252,
    "Ġcurses": 13026,
    "Ġbrah": 19360,
    "Ġmosses": 20166,
    "Ġreceiving": 4883,
    "Ġdancing": 5703,
    "Ġfishing": 9664,
    "Ġsmothe": 18576,
    "amidst": 25653,
    "Ġcooking": 16648,
    "Ġ41": 24082,
    "complain": 14361,
    "hide": 10704,
    "Ġmarrying": 6179,
    "Ġcounsel": 13618,
    "likewise": 13108,
    "portent": 25413,
    "staff": 21660,
    "Ġaunts": 21203,
    "Ġfrancis": 26064,
    "cil": 8724,
    "Ġshutters": 9939,
    "Ġanecd": 20157,
    "ooping": 21009,
    "Ġconfessed": 8010,
    "gins": 12472,
    "Ġgestures": 13538,
    "Ġdaughters": 4422,
    "Ġtherein": 11779,
    "hereafter": 19218,
    "Ġapp": 500,
    "Ġmagical": 23103,
    "âĢĶâĢĶâĢĿ": 15942,
    "spread": 8390,
    "Ġtotal": 4993,
    "fifth": 20149,
    "sprinkling": 24913,
    "iar": 2379,
    "Ġstarlight": 24628,
    "stiff": 12679,
    "Ġquantization": 19856,
    "Ġenveloping": 19736,
    "Ġpugn": 21484,
    "hatchet": 24819,
    "Ġfulfil": 9553,
    "Ġarch": 932,
    "Ġprec": 2915,
    "atively": 2695,
    "Ġshalt": 18231,
    "rs": 7808,
    "likelihood": 4992,
    "Ġveins": 8934,
    "Ġsketches": 26272,
    "Ġotherwise": 4659,
    "Ġtapers": 11553,
    "Ġinvol": 1071,
    "Ġphysical": 7522,
    "Ġdexter": 9703,
    "Ġagainst": 1697,
    "Ġnotorious": 18224,
    "Ġpeculiar": 3150,
    "until": 6598,
    "Ġgrie": 3585,
    "Ġpine": 8800,
    "Ġslack": 8957,
    "Ġirons": 7697,
    "Ġmod": 494,
    "Ġoccasionally": 5589,
    "Ġladies": 3190,
    "Ġexecution": 6927,
    "bare": 12444,
    "ose": 717,
    "bestow": 16930,
    "Ġuneasy": 8665,
    "Ġgasp": 7173,
    "Ġrepine": 16412,
    "ectual": 21920,
    "Ġwhispered": 5338,
    "Ġbalances": 2342,
    "elope": 14468,
    "Ġlaurel": 20656,
    "ue": 1178,
    "bered": 4505,
    "Ġsqu": 1035,
    "comprehens": 16180,
    "hastened": 16846,
    "broke": 14781,
    "Ġcandid": 4099,
    "Ġlurks": 11291,
    "Ġkill": 4454,
    "bowed": 10686,
    "contrast": 25595,
    "dington": 12069,
    "anxious": 15112,
    "Ġnetwork": 451,
    "wait": 11321,
    "prairies": 20569,
    "6": 26,
    "adler": 21767,
    "Ġpains": 5967,
    "Ġfavourable": 7960,
    "Ġalphabetical": 17203,
    "Ġhedges": 19988,
    "Ġled": 3524,
    "Ġcable": 11582,
    "Ġmaxim": 3084,
    "Ġswimmer": 19462,
    "cupboards": 25402,
    "Ġcherished": 10592,
    "Ġdarted": 4759,
    "Ġalterations": 19873,
    "Ġunsav": 18252,
    "igner": 21705,
    "Ġmaledictions": 26429,
    "Ġsauce": 15893,
    "brushing": 20790,
    "vings": 9753,
    "Ġwrithed": 17106,
    "Ġpumping": 25644,
    "umerable": 11728,
    "Ġobserv": 8589,
    "Ġtemptation": 8681,
    "fearfully": 25119,
    "scence": 14420,
    "Ġruss": 18720,
    "befall": 22499,
    "stretching": 20502,
    "Ġcognitive": 13637,
    "Ġmou": 13857,
    "asses": 7018,
    "Ġpossibilities": 18976,
    "Ġ44": 16680,
    "Ġfeeble": 12287,
    "cim": 8723,
    "Ġseveral": 2673,
    "Ġsensation": 6895,
    "Ġexcuses": 19041,
    "fortun": 3541,
    "Ġaforethought": 25429,
    "perch": 18342,
    "deep": 980,
    "Ġsegmentation": 17342,
    "Ġvicious": 24402,
    "oled": 17620,
    "qual": 8158,
    "fow": 20855,
    "Ġpumps": 8429,
    "alth": 3255,
    "difficult": 10060,
    "Ġbrig": 11048,
    "Ġcigar": 9547,
    "Ġbeautiful": 3674,
    "ackinaw": 22430,
    "Ġturks": 14599,
    "Ġedge": 5189,
    "Ġprofessors": 14728,
    "Ġcomb": 1032,
    "orted": 4605,
    "meat": 18679,
    "Ġstationary": 19697,
    "Ġaboriginal": 14193,
    "Ġpossession": 5588,
    "quite": 4648,
    "tawn": 21083,
    "Ġpersuasions": 16633,
    "Ġpistols": 17331,
    "Ġnumber": 1978,
    "Ġamidst": 9496,
    "inities": 21188,
    "Ġremembrance": 8319,
    "Ġarcher": 22184,
    "Ġtalker": 23372,
    "idly": 12704,
    "Ġcorresponding": 13441,
    "Ġvers": 7563,
    "uneasiness": 23690,
    "Ġaccompany": 9489,
    "wam": 10137,
    "Ġtoilings": 24741,
    "versed": 9827,
    "porpoise": 16437,
    "Ġray": 18642,
    "Ġpays": 13300,
    "Ġteneriffe": 26415,
    "oice": 1384,
    "furthest": 19844,
    "Ġnorthumbria": 24173,
    "ullo": 12733,
    "Ġwakes": 11574,
    "Ġdiversion": 17199,
    "quadr": 15767,
    "Ġmouths": 7491,
    "Ġlod": 4043,
    "Ġowe": 8116,
    "inctions": 17733,
    "Ġsuspic": 4471,
    "Ġpious": 11601,
    "ethe": 9678,
    "Ġswearing": 16466,
    "Ġprofuse": 23568,
    "iv": 433,
    "isbury": 21380,
    "Ġcig": 6521,
    "âĢĿâĢĶ": 5721,
    "Ġelastic": 4362,
    "Ġwonderfully": 10431,
    "Ġvacancies": 24344,
    "alarms": 21509,
    "Ġcommonest": 23094,
    "Ġimbalance": 22179,
    "Ĭ": 237,
    "Ġdreamt": 23942,
    "Ġcontingency": 26246,
    "Ġringing": 13335,
    "ferent": 4196,
    "Ġsped": 22131,
    "resistible": 10645,
    "Ġexcite": 11968,
    "Ġsane": 21224,
    "Ġbrilliant": 11415,
    "gaining": 20127,
    "Ġpoem": 22594,
    "pool": 16211,
    "condesc": 18506,
    "sounding": 24795,
    "Ġoutbreak": 22322,
    "Ġnarratives": 24352,
    "Ġundecided": 22053,
    "Ġjost": 23633,
    "shine": 9290,
    "expectation": 14858,
    "Ġactivity": 7922,
    "Ġpea": 14319,
    "Ġhowl": 12858,
    "tort": 17676,
    "Ġmorcar": 13015,
    "Ġtyp": 1129,
    "Ġveil": 7935,
    "vint": 21117,
    "Ġwhimsical": 20431,
    "deepest": 22813,
    "Ġinexpress": 12639,
    "rather": 5430,
    "itheat": 21341,
    "chery": 24550,
    "sugg": 11844,
    "Ġdandy": 17894,
    "Ġtranspired": 16785,
    "Ġventure": 7741,
    "Ġloath": 7893,
    "Ġdiscipl": 22789,
    "baden": 25616,
    "Ġthrow": 3785,
    "Ġcoburg": 18600,
    "history": 15016,
    "narr": 12500,
    "Ġirrad": 19095,
    "Ġimport": 1005,
    "Ġprecip": 7076,
    "Ġundergone": 18985,
    "overlooked": 23324,
    "Ġ200": 19298,
    "presum": 12872,
    "Ġpunctures": 25136,
    "Ġorganisation": 23585,
    "advanced": 19591,
    "Ġfoolishly": 19785,
    "Ġentreated": 9953,
    "Ġpair": 5706,
    "aviour": 10995,
    "Ġguard": 6180,
    "uble": 21105,
    "Ġrestlessness": 23293,
    "Ġbiscuit": 12593,
    "Ġmistaking": 23721,
    "opes": 10312,
    "Ġskulls": 12963,
    "Ġxviii": 23412,
    "orously": 8421,
    "Ġhey": 11643,
    "Ġbalmy": 22908,
    "Ġhunger": 8570,
    "Ġdecent": 10979,
    "slipped": 25530,
    "Ġannum": 24205,
    "Ġemb": 1221,
    "Ġgnawed": 25168,
    "skull": 24487,
    "rous": 3754,
    "Ġerr": 1321,
    "limp": 20954,
    "being": 3915,
    "what": 642,
    "ravity": 21639,
    "estab": 14171,
    "Ġcauldron": 25442,
    "althily": 19362,
    "Ġweb": 9242,
    "Ġdesirous": 8944,
    "elements": 25204,
    "future": 13719,
    "âĢľâĢĶ": 10873,
    "harmony": 25751,
    "gang": 17554,
    "Ġma": 3252,
    "Ġdesigned": 7742,
    "Ġdynam": 3067,
    "enger": 10774,
    "Ġatom": 18193,
    "Ġnook": 15931,
    "perhaps": 4123,
    "Ġlingering": 11380,
    "Ġpleadings": 25854,
    "Ġyielded": 14874,
    "coiled": 16487,
    "Ġpuffed": 14979,
    "Ġappointment": 10648,
    "Ġbored": 16108,
    "aus": 1500,
    "henomenon": 13617,
    "Ġrainy": 24340,
    "Ġsecurely": 16803,
    "Ġgift": 10841,
    "Ġ182": 13241,
    "announcement": 24562,
    "xible": 13810,
    "Ġintruder": 25992,
    "enjoy": 10775,
    "Ġdarkness": 4278,
    "Ġmutual": 8298,
    "dissemble": 23495,
    "Ġgrowl": 16539,
    "Ġthyself": 6604,
    "doubted": 17527,
    "leap": 21370,
    "Ġcomprehen": 5350,
    "Ġreptile": 15280,
    "Ġmetropolitan": 17276,
    "Ġpanic": 11287,
    "preading": 18498,
    "ilated": 18060,
    "Ġstru": 2174,
    "Ġgrotesque": 26331,
    "Ġadmired": 7983,
    "dinner": 11407,
    "Ġlaboratory": 13615,
    "gammon": 20246,
    "blo": 6355,
    "Ġsaddest": 16664,
    "Ġdissip": 10993,
    "Ġbill": 4041,
    "Ġdescribe": 2764,
    "Ġgour": 21602,
    "Ġowen": 15097,
    "dreaded": 25141,
    "lucky": 24544,
    "Ġfriesland": 26443,
    "Ġwrap": 24596,
    "ctors": 21594,
    "Ġverify": 12091,
    "Ġjohnson": 18410,
    "delight": 5345,
    "reen": 21234,
    "Ġpursuing": 9440,
    "Ġtrap": 7673,
    "bbs": 23695,
    "occupied": 12307,
    "Ġmam": 8407,
    "mo": 861,
    "Ġmild": 4148,
    "Ġsternly": 16710,
    "Ġcrisis": 13129,
    "ect": 381,
    "exact": 7912,
    "Ġdents": 13913,
    "Ġundivided": 24122,
    "inity": 5693,
    "fulness": 4310,
    "Ġclinging": 10293,
    "ernal": 4312,
    "Ġaddresses": 3770,
    "binnacle": 20789,
    "Ġholder": 6726,
    "Ġsubaltern": 22795,
    "oud": 1939,
    "Ġchooses": 13350,
    "Ġunconcerned": 20513,
    "Ġwalked": 3138,
    "Ġmisanthropic": 26561,
    "Ġbarrels": 9438,
    "oop": 10716,
    "Ġrector": 21680,
    "Ġperseus": 10605,
    "itarian": 21340,
    "Ġsettlement": 19839,
    "Ġchaplain": 19914,
    "reduced": 15808,
    "Ġvisibly": 22868,
    "Ġthrone": 12217,
    "estinated": 15924,
    "io": 3804,
    "Ġpres": 9734,
    "Ġjumbled": 22302,
    "Ġcontinuing": 14399,
    "earliest": 20123,
    "Ġseparation": 11247,
    "hav": 20899,
    "Ġlung": 7168,
    "Ġforward": 1835,
    "Ġflight": 6582,
    "Ġheadlands": 22902,
    "Ġchaos": 17010,
    "Ġhush": 13214,
    "hunter": 10557,
    "leaped": 17845,
    "itude": 1418,
    "Ġwar": 5526,
    "adm": 7609,
    "Ġlowerings": 23651,
    "eth": 619,
    "Ġdiscuss": 9476,
    "riers": 18188,
    "Ġmodest": 15918,
    "Ġgaol": 19570,
    "Ġtrespass": 23602,
    "Ġclatter": 22356,
    "whis": 7900,
    "Ġsolve": 4198,
    "ellent": 3763,
    "Ġbodies": 8033,
    "flies": 19427,
    "regarding": 15074,
    "inburgh": 15492,
    "Ġcommission": 6714,
    "slight": 10728,
    "Ġaudacious": 13463,
    "mody": 16187,
    "Ġendow": 23140,
    "Ġjane": 1753,
    "aught": 2680,
    "Ġgenius": 8047,
    "Ġhundreds": 4328,
    "Ġwoeful": 19622,
    "scept": 21056,
    "braid": 17496,
    "Ġpiny": 21474,
    "Ġpsalmody": 20588,
    "ese": 4444,
    "Ġlisten": 4675,
    "unmistakable": 21900,
    "wore": 21127,
    "Ġhorseman": 19610,
    "urning": 12920,
    "spirited": 19756,
    "Ġjourneying": 25566,
    "Ġvictims": 19807,
    "Ġfolly": 7942,
    "Ġseaport": 20602,
    "Ġtuning": 3071,
    "Ġrepublic": 14531,
    "Ġmaiden": 13389,
    "irt": 3075,
    "bushes": 24446,
    "suspended": 15180,
    "Ġrestore": 9381,
    "odings": 4400,
    "fering": 17543,
    "Ġfin": 1460,
    "Ġharm": 5017,
    "Ġresidence": 8208,
    "arising": 17897,
    "Ġthoughtfully": 12984,
    "Ġdur": 11594,
    "Ġmoral": 6581,
    "Ġsum": 2700,
    "aire": 10682,
    "Ġnightgown": 23135,
    "Ġchains": 8252,
    "urrection": 12412,
    "Ġsoothingly": 25050,
    "Ġattributed": 11840,
    "Ġgoodge": 22826,
    "no": 878,
    "berries": 22753,
    "medi": 2628,
    "Ġtak": 15471,
    "Ġshadows": 8014,
    "Ġtechn": 9375,
    "trying": 15440,
    "Ġkindly": 6079,
    "Ġthickets": 24027,
    "Ġdownright": 16121,
    "ĠmanÅĵuv": 18418,
    "yden": 21146,
    "merry": 16538,
    "Ġconduct": 3736,
    "Ġsofa": 10271,
    "Ġfrighted": 24033,
    "Ġcommodore": 12398,
    "haz": 17565,
    "Ġtroubling": 26547,
    "Ġseasonable": 24405,
    "Ġdub": 13911,
    "tailed": 17686,
    "upright": 23022,
    "Ġeaten": 14847,
    "Ġflew": 5587,
    "ieved": 3228,
    "Ġcigaret": 16977,
    "Ġchapters": 10474,
    "secured": 16939,
    "Ġcolonies": 14377,
    "Ġreadability": 2724,
    "Ġbegun": 7243,
    "Ġseaman": 8642,
    "began": 6427,
    "inces": 13830,
    "leaving": 10792,
    "oices": 7348,
    "Ġcreases": 22726,
    "incident": 14592,
    "crack": 19843,
    "Ġcontrivance": 17185,
    "happily": 14658,
    "gorith": 553,
    "Ġincred": 5646,
    "Ġshaster": 22003,
    "Ġresent": 6051,
    "Ġgrowth": 14630,
    "succeeded": 15178,
    "gaze": 17558,
    "Ġtumultuous": 10617,
    "Ġsanity": 24984,
    "Ġdespised": 14668,
    "Ġbushy": 16404,
    "excepting": 19709,
    "Ġhasty": 10478,
    "haul": 14768,
    "stairs": 5155,
    "Ġpitiless": 19391,
    "Ġhastened": 9006,
    "iom": 20917,
    "Ġjohn": 5032,
    "Ġbison": 21391,
    "p": 84,
    "Ġneither": 3689,
    "Ġdeclared": 5594,
    "aution": 9389,
    "Ġpitching": 16612,
    "Ġconverse": 11847,
    "minutes": 7512,
    "silence": 8046,
    "rushing": 10020,
    "Ġfurnishing": 16647,
    "Ġsnoring": 23742,
    "Ġoffered": 5817,
    "either": 6792,
    "bourn": 3302,
    "Ġcarelessness": 13079,
    "Ġnam": 17951,
    "Ġaqu": 17743,
    "Ġnational": 13944,
    "Ġdelay": 5748,
    "Ġvigilant": 20187,
    "antages": 7192,
    "Ġankers": 21449,
    "Ġdoors": 6419,
    "seas": 14035,
    "tre": 8764,
    "Ġtra": 1385,
    "tles": 10731,
    "Ġconfidence": 6591,
    "writer": 14649,
    "want": 8770,
    "Ġpouch": 21473,
    "anish": 2616,
    "title": 17289,
    "Ġaccepted": 7752,
    "fiery": 13584,
    "Ġreign": 13987,
    "Ġdauntless": 26338,
    "ought": 828,
    "Ġdiabol": 11454,
    "ander": 6402,
    "Ġadoption": 24951,
    "Ġhers": 7891,
    "loath": 22513,
    "fi": 12465,
    "Ġmiller": 19885,
    "Ġfaultless": 24539,
    "Ġheire": 18039,
    "ameter": 2916,
    "Ġunreasonable": 12781,
    "omon": 10208,
    "Ġmogul": 12866,
    "think": 3611,
    "bted": 7795,
    "Ġancest": 12618,
    "mmar": 952,
    "Ġpanelled": 19657,
    "considered": 9582,
    "ilege": 22263,
    "Ġconflag": 20338,
    "Ġdigging": 14940,
    "Ġsund": 8250,
    "Ġaffection": 2638,
    "Ġwalrus": 14975,
    "plied": 10257,
    "ascribed": 24707,
    "Ġseconds": 16397,
    "suited": 22644,
    "Ġpar": 456,
    "Ġrecursive": 4783,
    "Ġple": 1470,
    "Ġsatir": 18794,
    "ems": 5236,
    "Ġpersecut": 16953,
    "knowledge": 7478,
    "andes": 18154,
    "Ġstage": 7389,
    "Ġprovidence": 18747,
    "itory": 12571,
    "Ġpenetrating": 17012,
    "utmost": 21592,
    "erated": 21273,
    "Ġdeal": 3610,
    "Ġimage": 3407,
    "spl": 9141,
    "Ġdeser": 3887,
    "Ġwhom": 1829,
    "Ġcomputations": 16002,
    "Ġaught": 8777,
    "expanded": 23668,
    "Ġilluminate": 17194,
    "Ġenig": 15802,
    "Ġrushing": 7403,
    "ols": 2412,
    "Ġchewing": 23286,
    "Ġreaped": 18032,
    "Ġdejection": 15199,
    "Ġhemp": 9217,
    "wretchedness": 17254,
    "Ġallude": 12775,
    "Ġlayer": 1013,
    "Ġdemoniac": 15069,
    "Ġj": 533,
    "arded": 5029,
    "exhibited": 18478,
    "hyme": 19612,
    "sound": 6800,
    "Ġfid": 10804,
    "Ġgentlemanlike": 12070,
    "Ġcornelius": 13576,
    "tier": 12518,
    "acceptable": 25185,
    "Ġfidgeted": 25890,
    "Ġemig": 14524,
    "kilt": 4867,
    "hotel": 20053,
    "Ġsuspending": 19245,
    "Ġmons": 10158,
    "coast": 10450,
    "Ġvig": 5460,
    "Ġforgery": 25978,
    "Ġinfl": 6892,
    "cd": 15325,
    "Ġzeros": 3325,
    "Ġsafe": 5103,
    "Ġdynamic": 5122,
    "â": 163,
    "beards": 22495,
    "Ġrevisit": 21674,
    "Ġwoman": 2387,
    "Ġsmo": 2701,
    "Ġmerit": 9429,
    "nigh": 13765,
    "Ġeasier": 11166,
    "Ġsurgeons": 23466,
    "Ġwealth": 7621,
    "Ġvoids": 25808,
    "menced": 23150,
    "foremost": 14254,
    "atus": 21263,
    "Ġsouls": 6310,
    "aurs": 20771,
    "keys": 15861,
    "Ġoccup": 3742,
    "nantucket": 7805,
    "Ġeng": 1161,
    "ady": 996,
    "Ġsoil": 9257,
    "pieces": 8758,
    "longbourn": 9898,
    "white": 4604,
    "Ġrace": 5848,
    "Ġmap": 2391,
    "scythes": 26403,
    "Ġsledge": 8112,
    "romeda": 17264,
    "rebellum": 26166,
    "Ġprevailing": 24674,
    "Ġloops": 8855,
    "gue": 12471,
    "Ġinviting": 19145,
    "thouse": 21987,
    "Ġpill": 7847,
    "Ġsaves": 18325,
    "ply": 6367,
    "Ġ1846": 26085,
    "Ġsleeps": 10447,
    "readers": 23851,
    "Ġpaddock": 25040,
    "pitchpoling": 25725,
    "ceptibly": 22351,
    "Ġdine": 7366,
    "Ġcaptioning": 23026,
    "Ġglanced": 5954,
    "ition": 652,
    "Ġconducted": 10504,
    "recklessly": 25270,
    "bask": 20778,
    "Ġtrans": 631,
    "Ġpoverty": 9307,
    "Ġdreadfully": 7727,
    "Ġwilling": 7421,
    "chest": 11209,
    "Ġhunted": 7453,
    "Ġarmy": 11744,
    "Ġdiscussing": 5202,
    "ĠĠĠĠĠ": 3529,
    "Ġlieu": 19567,
    "clergyman": 20731,
    "speak": 5504,
    "Ġmrs": 1468,
    "Ġsymp": 4503,
    "behold": 12882,
    "Ġmaj": 3927,
    "Ġcrater": 16438,
    "march": 13757,
    "Ġdistinction": 8888,
    "Ġdirest": 22711,
    "Ġstraight": 3705,
    "Ġarmies": 16494,
    "Ġregulations": 18594,
    "Ġmorals": 22976,
    "Ġrestraint": 15130,
    "Ġderivatives": 2372,
    "Ġnavies": 16901,
    "Ġrud": 8480,
    "Ġdisadvantage": 12894,
    "equ": 6791,
    "Ġcubs": 20090,
    "soundest": 24796,
    "Ġinnocent": 4922,
    "dick": 11480,
    "Ġspeechless": 13357,
    "Ġjoking": 12841,
    "bbings": 19278,
    "Ġcheerless": 16694,
    "lier": 20951,
    "Ġtom": 15636,
    "Ġfaire": 13368,
    "Ġexquis": 9701,
    "groom": 8743,
    "Ġmouse": 4695,
    "chop": 21692,
    "Ġobsole": 22702,
    "oar": 12501,
    "Ġlively": 5449,
    "Ġfainting": 16898,
    "anch": 15563,
    "Ġstatements": 7516,
    "Ġkrus": 18350,
    "Ġdwelling": 7322,
    "Ġsneezes": 24697,
    "Ġevaluate": 3192,
    "Ġchuckled": 10649,
    "Ġgoring": 21608,
    "hued": 20913,
    "elev": 12462,
    "Ġhawk": 15176,
    "tooth": 18582,
    "bers": 2571,
    "arrant": 10475,
    "Ġobjects": 5577,
    "spir": 5738,
    "mund": 13760,
    "Ġcanal": 8183,
    "Ġincurable": 22558,
    "Ġhinting": 19652,
    "Ġgoodness": 6061,
    "Ġafar": 14295,
    "Ġassembled": 9238,
    "corners": 17370,
    "Ġneedle": 8276,
    "steady": 14711,
    "tend": 17675,
    "isters": 11922,
    "Ġimpersonal": 17398,
    "Ġbows": 4083,
    "imperturbable": 25791,
    "pur": 7807,
    "nosed": 20994,
    "Ġcalculated": 4476,
    "Ġedinburgh": 16458,
    "aging": 2241,
    "Ġdetermines": 2369,
    "ultaneous": 18585,
    "Ġexasperate": 20101,
    "ª": 108,
    "Ġprogra": 1143,
    "Ġinfidel": 13091,
    "rew": 3650,
    "Ġinterrupting": 19560,
    "Ġthick": 3784,
    "note": 14344,
    "shoe": 14969,
    "bourine": 9398,
    "Ġfreezing": 23886,
    "Ġcontextually": 11960,
    "msgate": 18413,
    "Ġenlightened": 12750,
    "Ġcorporeal": 17362,
    "fortunes": 6334,
    "problem": 25244,
    "Ġaskance": 23154,
    "Ġirreducible": 5519,
    "Ġedges": 3828,
    "iers": 5993,
    "Ġtaller": 16688,
    "sn": 7140,
    "Ġperils": 6275,
    "Ġmanner": 2199,
    "Ġincidentally": 16955,
    "Ġrasc": 21979,
    "upon": 2721,
    "Ġdate": 7842,
    "Ġsmelling": 16069,
    "onness": 21257,
    "Ġagreement": 18540,
    "Ġopens": 23629,
    "Ġencirc": 18731,
    "Ġspinning": 15054,
    "oration": 2211,
    "Ġmortally": 23920,
    "Ġv": 399,
    "ilent": 21724,
    "Ġclum": 8875,
    "surely": 10571,
    "Ġowners": 7664,
    "Ġcompliance": 12118,
    "quished": 21859,
    "moored": 22708,
    "Ġisn": 7868,
    "Ġpiled": 8427,
    "Ġaston": 3704,
    "oir": 21004,
    "Ġdescrying": 18619,
    "shock": 19857,
    "felix": 10655,
    "conclusions": 25673,
    "Ġflashes": 11919,
    "Ġspecies": 5112,
    "Ġhollowly": 24525,
    "Ġoverwhelming": 17102,
    "Ġlay": 586,
    "Ġcalculate": 13268,
    "Ġcertain": 1559,
    "Ġtoiling": 15638,
    "Ġavenue": 13624,
    "pressed": 6589,
    "Ġet": 3582,
    "pos": 15412,
    "duing": 22416,
    "Ġvul": 10249,
    "Ġpods": 17917,
    "murderers": 25728,
    "lacing": 17591,
    "Ġcharges": 23272,
    "ential": 825,
    "Ġbrilliantly": 25123,
    "Ġtorrent": 17092,
    "claim": 9837,
    "Ġvictim": 6100,
    "pate": 21012,
    "reated": 10304,
    "Ġplun": 6283,
    "icions": 21567,
    "Ġforemast": 12008,
    "Ġnovels": 15932,
    "bore": 13689,
    "Ġcode": 1719,
    "Ġlawy": 9457,
    "ium": 4865,
    "Ġrepay": 19083,
    "Ġsocially": 22086,
    "Ġshocked": 9403,
    "Ġpursuit": 4734,
    "Ġpast": 2097,
    "Ġtroublesome": 24006,
    "Ġbarber": 23791,
    "Ġfamil": 4320,
    "Ġwithstand": 10227,
    "Ġnature": 2539,
    "Ġcontracting": 16014,
    "Ġsnow": 3709,
    "Ġbuoyant": 13534,
    "Ġpass": 1037,
    "Ġmagistrate": 8235,
    "pets": 17637,
    "two": 3861,
    "rages": 15684,
    "dropout": 3194,
    "converse": 22480,
    "acquaintance": 6938,
    "infall": 21191,
    "characteristic": 24686,
    "declare": 25174,
    "Ġbuttoning": 17237,
    "Ġdiab": 10613,
    "Ġhumped": 19772,
    "ums": 10274,
    "Ġfact": 1727,
    "Ġbelike": 18832,
    "fulfil": 16045,
    "guilt": 24073,
    "med": 1911,
    "atically": 2640,
    "Ġseparately": 13306,
    "Ġbehaves": 23300,
    "Ġnothing": 1360,
    "subsided": 25832,
    "Ġstore": 8455,
    "Ġbarnacled": 25537,
    "ece": 17532,
    "Ġern": 8398,
    "pleas": 3853,
    "Ġinconstant": 21500,
    "Ġforgiven": 24031,
    "Ġethere": 23954,
    "Ġ-": 1942,
    "odes": 18122,
    "clouds": 25497,
    "vy": 21110,
    "iciency": 9576,
    "valued": 2850,
    "Ġvillagers": 19477,
    "--": 1039,
    "Ġriots": 23895,
    "Ġpubl": 3940,
    "harpoons": 24286,
    "denial": 18718,
    "disposition": 10044,
    "Ġtwilight": 16124,
    "Ġconcent": 8251,
    "Ġtransmit": 10306,
    "Ġemperor": 15161,
    "delirious": 19508,
    "Ġjar": 15953,
    "Ġbore": 5079,
    "Ġbloodless": 19341,
    "Ġceleb": 20228,
    "Ġlookest": 22718,
    "Ġhagger": 21495,
    "ak": 537,
    "Ġperiodically": 19497,
    "Ġunfeeling": 14121,
    "Ġmatter": 1732,
    "Ġsubterr": 10350,
    "Ġfrankenstein": 7097,
    "Ġsqualid": 14370,
    "regularly": 13211,
    "Ġkink": 22198,
    "Ġentreaties": 9037,
    "ume": 4837,
    "liable": 3820,
    "Ġamerican": 5061,
    "Ġenem": 4709,
    "Ġsend": 4108,
    "Ġinvis": 6902,
    "Ġshower": 11713,
    "Ġunlo": 22017,
    "Ġcultivated": 17366,
    "Ġheadlong": 11891,
    "berwell": 22752,
    "throne": 25658,
    "obey": 11511,
    "impenetrable": 26198,
    "Ġhysterics": 26094,
    "Ġexploitation": 2349,
    "Ġthinnest": 24185,
    "fo": 5279,
    "Ġservice": 6472,
    "Ġsymptom": 13486,
    "Ġunfortunate": 5376,
    "Ġble": 5223,
    "Ġsprain": 18306,
    "Ġliable": 14230,
    "start": 7599,
    "Ġinflu": 4908,
    "Ġdictate": 20154,
    "Ġnick": 21527,
    "fleet": 15015,
    "admit": 18093,
    "Ġcleans": 18950,
    "Ġcrocodile": 20742,
    "desired": 9007,
    "ffy": 18319,
    "procure": 23398,
    "posterity": 25489,
    "ĠĠĠĠĠĠĠĠĠĠĠĠĠĠĠĠĠĠĠĠĠĠĠĠĠĠĠĠ": 9977,
    "Ġcrate": 19121,
    "Ġdimens": 3147,
    "sk": 5521,
    "Ġcanoe": 9725,
    "painful": 13504,
    "Ġmiracle": 15096,
    "Ġnot": 413,
    "ised": 1090,
    "Ġsal": 3938,
    "Ġhebrew": 13990,
    "injustice": 17738,
    "azore": 23464,
    "beating": 22493,
    "Ġvexation": 10588,
    "Ġadmeasurements": 26227,
    "Ġmar": 1312,
    "lined": 12487,
    "culiarity": 11143,
    "bies": 15315,
    "Ġforcing": 3222,
    "houses": 9601,
    "stubb": 6020,
    "Ġsyn": 15915,
    "Ġloud": 4702,
    "Ġfinish": 7950,
    "loss": 22512,
    "Ġworry": 18817,
    "Ġinstructed": 19286,
    "Ġfamiliarly": 11304,
    "onsense": 6432,
    "pervised": 1598,
    "inese": 12877,
    "parsee": 14512,
    "Ġadagrad": 2899,
    "iety": 2816,
    "rying": 3183,
    "Ġtry": 3132,
    "Ġ1": 1016,
    "Ġanswerable": 23473,
    "clearer": 24072,
    "Ġmariner": 7247,
    "ourse": 8872,
    "Ġthenceforth": 25183,
    "Ġflap": 14424,
    "Ġstandards": 19017,
    "Ġbuy": 8301,
    "ufact": 10734,
    "preserver": 20216,
    "Ġinternal": 2250,
    "butt": 15997,
    "Ġtuck": 10142,
    "Ġreigns": 21675,
    "Ġegyptians": 25290,
    "ulous": 4450,
    "Ġeddying": 17118,
    "Ġconstable": 19070,
    "clay": 18933,
    "maul": 11893,
    "mag": 6509,
    "Ġdevote": 10340,
    "Ġmoul": 15547,
    "we": 848,
    "verity": 14003,
    "Ġjets": 10289,
    "Ġwollstonecraft": 26426,
    "Ġfirmament": 19474,
    "Ġinconvenience": 9565,
    "Ġtopmost": 14588,
    "Ġarchitect": 971,
    "Ġblow": 3377,
    "âĢĻ,": 14072,
    "desc": 1396,
    "Ġvery": 636,
    "scy": 21058,
    "orphans": 26441,
    "Ġimple": 1860,
    "folio": 10548,
    "Ġusefulness": 19411,
    "Ġmaz": 15545,
    "Ġunflinching": 26513,
    "Ġextravagant": 17280,
    "im": 327,
    "Ġenv": 2913,
    "Ġmisfortunes": 7043,
    "Ġvic": 5237,
    "Ġsmaller": 1883,
    "Ġimpelling": 22389,
    "res": 2758,
    "alions": 21505,
    "Ġpia": 21468,
    "Ġsailed": 4890,
    "seized": 14037,
    "Ġflorida": 20661,
    "Ġfalse": 4344,
    "Ġcontrasting": 11155,
    "arth": 4443,
    "cheeks": 23809,
    "Ġfrightful": 7737,
    "ituted": 13875,
    "ĠĠĠĠĠĠĠĠĠĠĠĠĠĠĠĠĠĠĠĠĠĠĠĠĠĠĠĠĠĠĠĠĠĠĠĠĠĠĠĠĠĠĠĠĠĠĠĠ": 7990,
    "Ġseen": 1368,
    "Ġix": 12670,
    ";âĢĿ": 7792,
    "Ġsoundings": 13136,
    "Ġhussey": 7726,
    "avenue": 25059,
    "pequod": 7054,
    "Ġcompared": 2232,
    "match": 15393,
    "glance": 16588,
    "Ġincredulity": 11312,
    "dance": 17520,
    "Ġenumerating": 15247,
    "Ġsepar": 3998,
    "Ġwont": 9853,
    "Ġdestroyer": 13416,
    "Ġjub": 22300,
    "vishnoo": 21122,
    "fuller": 22507,
    "Ġinquiries": 5678,
    "impe": 21712,
    "that": 850,
    "pleasures": 24050,
    "Ġamours": 22486,
    "gris": 8261,
    "clings": 23156,
    "Ġsitt": 21220,
    "Ġcarriages": 11099,
    "gno": 13729,
    "Ġbecalmed": 18089,
    "joined": 13279,
    "Ġcarav": 18903,
    "Ġsign": 2495,
    "Ġ91": 24591,
    "attest": 23123,
    "opatra": 22482,
    "mouse": 15395,
    "Ġ13": 6720,
    "Ġilluminating": 25246,
    "tish": 17678,
    "Ġexactly": 2766,
    "eked": 16405,
    "Ġtruthful": 23870,
    "benevolent": 15236,
    "Ġlanded": 7469,
    "slee": 17170,
    "Ġtop": 2472,
    "Ġproblem": 1269,
    "Ġprophetic": 20023,
    "========": 2314,
    "Ġconfound": 23304,
    "thesize": 24907,
    "Ġvirgin": 7328,
    "Ġc": 277,
    "Ġen": 393,
    "ahead": 12437,
    "Ġdepartment": 24243,
    "Ġabund": 8868,
    "Ġimplies": 24874,
    "Ġpeace": 3695,
    "draw": 23903,
    "Ġbewildered": 15216,
    "Ġretention": 23076,
    "Ġtrack": 7450,
    "Ġturnkeys": 23034,
    "Ġapology": 8329,
    "eness": 2292,
    "Ġfle": 3090,
    "Ġindefinite": 17178,
    "Ġfals": 15584,
    "drive": 8686,
    "Ġdefines": 1740,
    "Ġmour": 6974,
    "x": 92,
    "Ġtalk": 1967,
    "oried": 10803,
    "Ġundulates": 24120,
    "rougham": 15996,
    "track": 24334,
    "Ġannihil": 10176,
    "entieth": 17981,
    "Ġsentimental": 24753,
    "Ġreproof": 24891,
    "iving": 1724,
    "Ġturn": 1297,
    "Ġnotice": 4543,
    "Ġhole": 6081,
    "ĠcÃ¦sar": 20583,
    "Ġattach": 14300,
    "daughters": 13469,
    "ee": 1658,
    "bes": 6644,
    "Ġinclinations": 19542,
    "Ġfootpaths": 26319,
    "besides": 8699,
    "Ġaversion": 18867,
    "cr": 4012,
    "Ġsurest": 19055,
    "Ġaware": 5756,
    "Ġsubsc": 22793,
    "Ġcries": 7155,
    "Ġcanoes": 12809,
    "Ġofficio": 23818,
    "Ġcharles": 11959,
    "Ġag": 682,
    "Ġrender": 8306,
    "shooting": 16966,
    "running": 6798,
    "sincere": 16908,
    "Ġtill": 1822,
    "Ġprograms": 7239,
    "Ġbenef": 3490,
    "life": 4933,
    "arken": 18668,
    "obvious": 9359,
    "ond": 1160,
    "_).": 5889,
    "Ġdiscoursing": 26268,
    "ogue": 9787,
    "Ġatrocious": 21950,
    "summon": 23418,
    "Ġmortar": 19396,
    "Ġadvoc": 12995,
    "fre": 5425,
    "age": 505,
    "Ġrevolutionized": 3370,
    "Ġremark": 2148,
    "Ġimmersed": 19488,
    "Ġmizen": 17260,
    "Ġgrammar": 1061,
    "binary": 20786,
    "Ġemploy": 3617,
    "Ġinexorable": 12259,
    "odious": 21817,
    "Ġoverheard": 11777,
    "Ġartic": 5315,
    "Ġdesponding": 25869,
    "liking": 22928,
    "Ġbackward": 7655,
    "Ġty": 6660,
    "Ġunst": 18239,
    "Ġtreacherously": 25132,
    "Ġgentleman": 3039,
    "n": 82,
    "Ġphren": 8575,
    "Ġdissipate": 13636,
    "Ġjo": 2609,
    "Ġ36": 14770,
    "Ġpartial": 2128,
    "mysterious": 26052,
    "Ġregardless": 19326,
    "etency": 21586,
    "Ġgor": 9208,
    "Ġmay": 922,
    "Ġsaying": 3243,
    "Ġlands": 6596,
    "aloes": 21506,
    "Ġtru": 4107,
    "Ġenlarge": 21940,
    "Ġmanifold": 13563,
    "ids": 21768,
    "theirs": 23604,
    "lashed": 20956,
    "Ġhumane": 11887,
    "Ġinferences": 17937,
    "Ġfootpath": 19340,
    "Ġhereby": 10360,
    "Ġadmires": 19688,
    "Ġserved": 8247,
    "Ġdisc": 944,
    "approbation": 11459,
    "garn": 20872,
    "Ġsain": 17751,
    "ument": 5240,
    "Ġhidden": 1375,
    "cream": 15333,
    "Ġinclu": 1102,
    "Ġabominate": 20071,
    "Ġcaptain": 1607,
    "weary": 22690,
    "Ġ60": 14877,
    "Ġeventually": 8620,
    "peddling": 21034,
    "Ġboon": 22641,
    "Ġalways": 1696,
    "Ġaccelerating": 1621,
    "^{": 15307,
    "Ġadd": 629,
    "istically": 14145,
    "Ġhopeless": 7462,
    "Ġribs": 7103,
    "Ġmerged": 19299,
    "Ġrecurrent": 1800,
    "rants": 13780,
    "Ġshipmate": 8931,
    "Ġfoster": 18991,
    "Ġploughed": 22612,
    "Ġalfred": 21791,
    "Ġlouis": 8358,
    "Ġgene": 15675,
    "Ġgangway": 20161,
    "Ġhal": 1362,
    "Ġavert": 14427,
    "ifice": 7198,
    "Ġtradeoff": 2658,
    "fortunately": 9453,
    "Ġhurrying": 11997,
    "season": 14036,
    "apothecary": 26546,
    "vere": 4884,
    "uguese": 20734,
    "dle": 3306,
    "Ġapprehended": 26091,
    "Ġwines": 21290,
    "affair": 14656,
    "Ġplaintiffs": 13612,
    "flu": 9119,
    "bweb": 20793,
    "Ġreplay": 5047,
    "Ġreceive": 4705,
    "Ġfantastic": 10061,
    "reproach": 15189,
    ".âĢĿ": 463,
    "Ġmuster": 16125,
    "Ġstil": 15721,
    "Ġuplifted": 11649,
    "Ġrattler": 25000,
    "Ġid": 1907,
    "wandering": 20287,
    "Ì": 141,
    "Ġpredicting": 2415,
    "castle": 3353,
    "Ġarsacidean": 20368,
    "conclude": 24070,
    "Ġvari": 832,
    "Ġasked": 2279,
    "Ġorganically": 3009,
    "jaw": 13745,
    "perquis": 22195,
    "Ġorchard": 22099,
    "Ġpassers": 18758,
    "inside": 23070,
    "ader": 14014,
    "Ġmarshy": 20221,
    "lose": 12886,
    "Ġeight": 3903,
    "Ġcircumstance": 4987,
    "Ġneighbour": 3810,
    "Ġsand": 6237,
    "Ġcaucus": 17382,
    "Ġcovering": 13260,
    "Ġminus": 18751,
    "visits": 24225,
    "mount": 9131,
    "Ġcritically": 23445,
    "Ġrain": 5005,
    "Ġsmokes": 22565,
    "Ġmasses": 10505,
    "Ġinvoluntary": 18768,
    "Ġoverall": 4359,
    "Ġsharpened": 17367,
    "Ġpersuading": 19413,
    "Ġluckily": 16799,
    "Ġ95": 19776,
    "Ġwhisky": 23937,
    "Ġawake": 8273,
    "Ġphysiology": 25333,
    "Ġtarts": 10754,
    "Ġravines": 25833,
    "uish": 5431,
    "shorn": 22457,
    "vulgar": 25919,
    "covering": 15336,
    "Ġdispose": 23882,
    "Ġ166": 25007,
    "Ġfine": 1317,
    "Ġseptember": 18206,
    "ination": 2908,
    "Ġslung": 23173,
    "Ġcalmly": 7735,
    "iloqu": 11650,
    "frightened": 17197,
    "Ġnarration": 13506,
    "Ġturtles": 19222,
    "Ġtender": 5753,
    "oused": 6558,
    "heed": 15500,
    "Ġabout": 633,
    "cheap": 23806,
    "Ġsayest": 22780,
    "Ġmal": 5221,
    "Ġeyebrows": 23518,
    "cab": 7333,
    "Ġinconvenient": 20013,
    "family": 7324,
    "Ġbelshazzar": 16228,
    "vap": 13805,
    "Ġimpertin": 6933,
    "Ġtenth": 13828,
    "Ġfoul": 7160,
    "aks": 8509,
    "bel": 3837,
    "icting": 12860,
    "ĠcÃ¦": 15558,
    "extinguished": 16152,
    "mort": 10711,
    "irmed": 9241,
    "Ġentertain": 6056,
    "Ġliterary": 25166,
    "Ġsta": 18065,
    "Ġcommentaries": 20163,
    "in": 262,
    "Ġvolat": 24146,
    "buoy": 7762,
    "Ġdisputes": 25826,
    "Ġexposing": 11835,
    "Ġjew": 9469,
    "inished": 17735,
    "Ġchilian": 25564,
    "Ã¦st": 24177,
    "razor": 21641,
    "downward": 16620,
    "unted": 6999,
    "Ġsaid": 578,
    "Ġquote": 18467,
    "Ġpausing": 8656,
    "Ġramsgate": 18648,
    "Ġlurked": 11292,
    "finding": 17014,
    "Ġsymmetrical": 20370,
    "Ġbottled": 23797,
    "thorough": 21990,
    "Ġcruis": 14625,
    "Ġrobins": 16249,
    "abby": 14023,
    "Ġequally": 5258,
    "Ġmanufactured": 22335,
    "Ġgi": 15669,
    "Ġretreating": 19802,
    "Ġapprised": 18364,
    "inkling": 16094,
    "Ġsubdiv": 16162,
    "Ġextravagance": 17281,
    "Ġsuspend": 14609,
    "Ġtwitching": 25684,
    "Ġreversed": 15700,
    "Ġachieves": 4380,
    "meas": 7434,
    "Ġsympathised": 14864,
    "leviathans": 19941,
    "ain": 343,
    "Ġawakened": 10454,
    "diminished": 20841,
    "Ġstren": 15723,
    "Ġquadr": 8201,
    "neural": 3064,
    "Ġflor": 8565,
    "term": 3760,
    "creator": 26382,
    "torture": 26152,
    "Ġache": 18664,
    "inferences": 17740,
    "Ġremove": 7499,
    "regiment": 16452,
    "Ġwrought": 11947,
    "Ġreplaced": 13075,
    "Ġpotential": 3621,
    "ractions": 11635,
    "Ġmanor": 14198,
    "Ġouthouse": 22319,
    "Ġresolute": 19246,
    "Ġcorroded": 18877,
    "Ġhour": 1808,
    "Ġdanish": 21435,
    "nels": 12499,
    "next": 5894,
    "ording": 9766,
    "Ġflapped": 23017,
    "aved": 5474,
    "Ġvaliantly": 22807,
    "Ġprobabilities": 4966,
    "Ġspanish": 2826,
    "Ġsubmit": 11873,
    "Ġscept": 15505,
    "Ġinstructions": 11196,
    "Ġself": 1776,
    "Ġregarded": 5762,
    "conscience": 14862,
    "idually": 21774,
    "occasionally": 13523,
    "Ġlocket": 22118,
    "Ġpermanently": 25474,
    "Ġaugmentation": 20119,
    "Ġassociations": 14965,
    "Ġcomprehensive": 15090,
    "Ġprivacy": 19527,
    "Ġfring": 11128,
    "fur": 6357,
    "Ġcustoms": 19655,
    "Ġabsurdities": 24880,
    "Ġhospital": 15041,
    "avail": 18568,
    "Ġactivation": 916,
    "Ġdedu": 5584,
    "ily": 1030,
    "visited": 13351,
    "ries": 3357,
    "Ġhelter": 24029,
    "field": 3070,
    "oda": 15752,
    "roc": 9676,
    "Ġliter": 8815,
    "Ġscrape": 14920,
    "peare": 18913,
    "Ġslopes": 18943,
    "otent": 8835,
    "Ġspokes": 18314,
    "atter": 650,
    "Ġtart": 12531,
    "Ġtint": 13819,
    "Ġentropy": 2030,
    "dev": 7632,
    "Ġbattle": 5910,
    "ķ": 248,
    "Ġhumanity": 6733,
    "Ġyoked": 15738,
    "bounded": 13442,
    "carte": 25401,
    "vert": 15718,
    "Ġric": 18210,
    "rix": 1574,
    "hour": 7340,
    "returns": 23144,
    "Ġshoal": 12018,
    "Ġbeg": 1282,
    "5": 25,
    "volut": 1562,
    "Ġcalifornia": 20533,
    "Ġord": 3738,
    "Ġcircumn": 11986,
    "just": 1698,
    "Ġlived": 3989,
    "Ġevangelical": 25507,
    "Ġgrasshopper": 24379,
    "Ġjeer": 24125,
    "Ġextend": 18690,
    "sne": 10126,
    "Ġdecoding": 3080,
    "Ġfrown": 10808,
    "rospect": 11614,
    "fishing": 20861,
    "Ġvehicles": 10661,
    "Ġnoisier": 4626,
    "Ġcrystal": 17216,
    "Ġoverthrown": 18432,
    "Ġtepid": 26413,
    "spoutings": 25006,
    "mic": 12492,
    "canallers": 22970,
    "Ġlivers": 18462,
    "Ġtyro": 16995,
    "Ġscolded": 25473,
    "cano": 18842,
    "blows": 17167,
    "ropout": 1320,
    "Ġsyrian": 18354,
    "Ġclose": 3035,
    "Ġpleasures": 11144,
    "Ġgl": 1253,
    "verty": 8454,
    "abst": 21793,
    "anything": 5518,
    "Ġart": 746,
    "Ġans": 1644,
    "Ġdepend": 778,
    "que": 1150,
    "Ġalong": 1976,
    "Ġunless": 4090,
    "Ġcommonplaces": 16291,
    "Ġelemental": 19921,
    "ex": 622,
    "Ġprofessor": 11231,
    "Ġyards": 5371,
    "Ġpope": 11604,
    "Ġharvest": 13418,
    "Ġscores": 2714,
    "thoughtfully": 24048,
    "Ġgases": 21606,
    "standard": 22446,
    "perpendicular": 14164,
    "Ġpreface": 18368,
    "Ġunexpl": 22044,
    "brink": 23578,
    "Ġcrib": 21351,
    "Ġensemble": 1612,
    "Ġmeditate": 16708,
    "frost": 15109,
    "ariously": 18527,
    "Ġcreep": 22725,
    "Ġmu": 17797,
    "Ġgallon": 24186,
    "Ġelizabeth": 1127,
    "closing": 23160,
    "Ġviolin": 16430,
    "Ġheedfully": 24520,
    "pleased": 8856,
    "traces": 24335,
    "Ġlawn": 7379,
    "lynes": 15707,
    "Ġlabyrin": 13107,
    "approaching": 15013,
    "Ī": 235,
    "disguise": 26307,
    "rell": 11565,
    "ornament": 23491,
    "chronicle": 26481,
    "hunt": 20905,
    "Ġconviction": 6328,
    "aulding": 11340,
    "Ġcheshire": 13093,
    "lady": 4433,
    "ortations": 22262,
    "dy": 4075,
    "Ú": 155,
    "Ġscott": 22272,
    "Ġindicated": 10470,
    "Ġviciously": 24403,
    "pennies": 26287,
    "Ġlessons": 7693,
    "Ġfounded": 8561,
    "Ġwars": 17787,
    "Ġfrank": 4420,
    "precedented": 15177,
    "Ġcemet": 20683,
    "Ġprotesting": 14744,
    "ublic": 11228,
    "Ġissued": 10601,
    "Ġhiss": 15791,
    "another": 5439,
    "past": 8091,
    "Ġmadness": 6603,
    "Ġrestless": 10414,
    "Ġaffirmative": 15225,
    "Ġcreditors": 20133,
    "Ġslaught": 23172,
    "Ġtrooped": 24900,
    "Ġindispens": 22960,
    "Ġcomp": 723,
    "altern": 17944,
    "Ġrelease": 19292,
    "Ġlasted": 11054,
    "Ġhydraul": 9516,
    "Ġcru": 2822,
    "libr": 22927,
    "Ġannotations": 25955,
    "Ġegress": 21627,
    "Ġhastening": 19338,
    "Ġcomputing": 2222,
    "ellations": 21947,
    "kingly": 20941,
    "Ġarrows": 18337,
    "rabb": 15683,
    "itty": 3556,
    "Ġdistrusting": 25056,
    "visit": 7756,
    "pot": 10119,
    "Ġconclusion": 5988,
    "Ġtowns": 11174,
    "englishman": 23680,
    "niest": 19003,
    "Ġunsub": 22028,
    "Ġwoes": 23989,
    "Ġanalyze": 1675,
    "Ġrepented": 23364,
    "existence": 16017,
    "Ġlizard": 12658,
    "Ġbristol": 14382,
    "bergs": 18696,
    "forgive": 18732,
    "Ġdoes": 943,
    "ridden": 24361,
    "Ġaudible": 19883,
    "entropy": 1438,
    "ater": 3373,
    "Ġdist": 678,
    "join": 12117,
    "fainting": 20476,
    "Ġcelebrated": 13597,
    "mean": 6439,
    "imen": 12690,
    "ognit": 19195,
    "Ġcorroborated": 26054,
    "Ġplanisp": 24061,
    "ffic": 22160,
    "Ġmcc": 21308,
    "Ġbroken": 3450,
    "furniture": 20245,
    "Ġwhaleman": 4656,
    "might": 4078,
    "writhed": 26081,
    "nial": 20986,
    "Ġsculpt": 15949,
    "Ġlevel": 5020,
    "Ġwarmest": 16485,
    "Ġexcited": 5579,
    "mur": 5428,
    "deprived": 19900,
    "Ġwasn": 6998,
    "Ġblasts": 19999,
    "Ġflowed": 10373,
    "Ġinspection": 14544,
    "Ġsaville": 15892,
    "Ġsalmon": 24065,
    "Ġsubl": 7235,
    "icating": 15658,
    "ilar": 10217,
    "Ġdisengaged": 12893,
    "Ġstrang": 4162,
    "taining": 7206,
    "Ġtheories": 13851,
    "death": 6263,
    "Ġraging": 14310,
    "Ġburns": 16525,
    "uer": 21103,
    "Ġding": 12603,
    "Ġraises": 11848,
    "flow": 2226,
    "colnett": 19332,
    "Ġnewcomer": 26041,
    "Ġquadru": 16007,
    "elius": 13291,
    "ility": 623,
    "sford": 6000,
    "Ġomn": 8412,
    "description": 11095,
    "chamber": 13628,
    "Ġdomains": 6613,
    "Ġham": 3424,
    "Ġforging": 18096,
    "Ġstra": 2988,
    "Ġimpassable": 20615,
    "Ġfall": 2985,
    "Ġbecause": 2213,
    "ause": 1314,
    "Ġscrew": 8866,
    "buff": 15321,
    "finished": 10556,
    "thomas": 18220,
    "closed": 23158,
    "Ġgenerally": 4158,
    "Ġcarelessly": 11120,
    "conduct": 11800,
    "Ġboyhood": 23757,
    "Ġdit": 21424,
    "soon": 4027,
    "Ġignor": 4010,
    "although": 8809,
    "í": 174,
    "Ġlightnings": 16355,
    "Ġvales": 21951,
    "Ġamongst": 8961,
    "Ġexclusion": 19399,
    "Ġstiffly": 15006,
    "anean": 7443,
    "Ġresembled": 18036,
    "Ġreeds": 15699,
    "msman": 9272,
    "Ġridic": 7508,
    "Ġpassed": 2007,
    "83": 13683,
    "Ġhoofs": 14527,
    "Ġinco": 14262,
    "Ġreveren": 13200,
    "Ġdisp": 3362,
    "Ġwounds": 17792,
    "sockets": 22730,
    "asher": 15649,
    "Ġrelief": 6062,
    "Ġemploys": 19434,
    "Ġheart": 1593,
    "twice": 14622,
    "chers": 11318,
    "daugh": 6789,
    "Ġfad": 17878,
    "Ġgiant": 13970,
    "itancy": 21336,
    "Ġ2": 2925,
    "Ġrods": 9756,
    "viating": 14580,
    "Ġintegral": 25011,
    "ingley": 1545,
    "Ġfrock": 10491,
    "Ġreconsidered": 21677,
    "Ġpal": 4042,
    "Ġhospitality": 13515,
    "cannib": 11906,
    "round": 3371,
    "Ġfrankness": 16747,
    "Ġorder": 1685,
    "Ġbashful": 20423,
    "Ġclergy": 7643,
    "Ġladen": 19179,
    "Ġinjury": 10542,
    "Ġoutlined": 22325,
    "eng": 1488,
    "detective": 24382,
    "Ġnephews": 24712,
    "guilty": 19486,
    "Ġscanning": 18394,
    "Ġdire": 864,
    "Ġarid": 22181,
    "hid": 13736,
    "Ġsnatch": 14640,
    "gressive": 2752,
    "ĠĠĠĠĠĠĠĠĠĠĠĠĠĠĠĠĠĠĠĠĠĠĠĠĠĠĠĠĠĠĠĠĠĠ": 14614,
    "Ġcolony": 18765,
    "Ġerrone": 14432,
    "Ġpulley": 2974,
    "Ġshrine": 19534,
    "Ġattorney": 18629,
    "rades": 8592,
    "training": 2517,
    "acious": 5561,
    "blow": 9106,
    "Ġpane": 21467,
    "69": 17476,
    "as": 302,
    "Ġbenjamin": 26568,
    "Ġsig": 868,
    "Ġincalculable": 17462,
    "define": 1527,
    "Ġinsulated": 23683,
    "Ġunreasoning": 15848,
    "Ġtails": 9904,
    "Ġworn": 6446,
    "enormous": 26167,
    "Ġgasps": 24866,
    "Ġstri": 2802,
    "Ġmeekly": 26491,
    "Ġembarrassed": 11385,
    "www": 17253,
    "Ġheap": 12682,
    "Ġintroduced": 7692,
    "Ġhumbly": 16200,
    "abomin": 15745,
    "Ġagreeing": 20022,
    "Ġfert": 15585,
    "atiously": 15524,
    "board": 3567,
    "auley": 22625,
    "Ġvishnoo": 12757,
    "Ġlawyer": 10670,
    "Ġsummer": 4791,
    "subjects": 19878,
    "intellig": 5321,
    "Ġspind": 18308,
    "Ġapothe": 12378,
    "empl": 5724,
    "staking": 21652,
    "Ġgrecian": 26297,
    "Ġmarched": 18873,
    "Ġinsatiable": 19274,
    "Ġschoolboys": 24480,
    "Ġtransparency": 10678,
    "Ġtemperature": 1006,
    "Ġdecomposes": 5506,
    "Ġthrill": 24540,
    "Ġmot": 2983,
    "phia": 22776,
    "Ġdeliberation": 19972,
    "olic": 14044,
    "Ġsupposed": 4559,
    "Ġincomplete": 17210,
    "bench": 16804,
    "Ġairth": 23318,
    "Ġstum": 21736,
    "Ġweig": 7619,
    "oke": 1858,
    "Ġraving": 16117,
    "Ġturkey": 19221,
    "eluded": 21579,
    "itchen": 7789,
    "attacks": 23126,
    "Ġreced": 15695,
    "?âĢĻ": 2639,
    "sixty": 24853,
    "prom": 6510,
    "blooded": 20026,
    "Ġdinn": 23984,
    "Ġmatch": 4529,
    "Ġdirecting": 16302,
    "Ġafghan": 22631,
    "ft": 911,
    "velled": 9878,
    "Ġhovers": 19080,
    "Ġmuchness": 18709,
    "inging": 5909,
    "Ġblinds": 8008,
    "Ġgabriel": 7596,
    "direction": 17525,
    "Ġhed": 7387,
    "serv": 7451,
    "chet": 13220,
    "measure": 10033,
    "eringly": 23007,
    "Ġegotistical": 26193,
    "serious": 14450,
    "Ġrevealing": 3925,
    "aintance": 3571,
    "Ġsuperficial": 23457,
    "sey": 5542,
    "Ġtougher": 21179,
    "Ġsome": 654,
    "Ġnoise": 1070,
    "ri": 391,
    "Ġincredulous": 9989,
    "ashes": 6018,
    "Ġ40": 14771,
    "Ġshocks": 16459,
    "Ġdeigned": 18141,
    "Ġlighted": 7065,
    "Ġbefriend": 18084,
    "irc": 1729,
    "eted": 7592,
    "Ġeliminating": 20623,
    "Ġsurrounded": 5881,
    "Ġblotted": 20220,
    "rier": 9244,
    "ougher": 18276,
    "Ġpillar": 21477,
    "Ġvigil": 9509,
    "Ġdistribution": 2016,
    "unched": 10237,
    "Ġexclamations": 11362,
    "Ġwintry": 17436,
    "abilizing": 2921,
    "hoist": 23716,
    "Ġsoftmax": 1688,
    "misfortunes": 16757,
    "Ġhooked": 19081,
    "Ġfloor": 4379,
    "Ġwine": 6811,
    "Ġcister": 13884,
    "Ġirregular": 9867,
    "suitable": 18633,
    "Ġwatchful": 16529,
    "Ġcensured": 25097,
    "power": 7138,
    "Ġgirdle": 19160,
    "Ġwrapping": 19778,
    "Ġremoval": 12121,
    "Ġaper": 17744,
    "teous": 16175,
    "Ġwaistcoat": 12274,
    "off": 1886,
    "intments": 18822,
    "carrying": 16714,
    "roll": 9198,
    "Ġangles": 23590,
    "Ġgrease": 26191,
    "Ġstirred": 12221,
    "Ġastern": 6092,
    "vul": 15450,
    "`": 68,
    "uend": 21104,
    "Ġdestined": 7976,
    "?--": 15306,
    "previously": 17209,
    "Ġhosea": 17333,
    "Ġdidst": 11852,
    "seemingly": 25363,
    "exceed": 7913,
    "ansion": 10922,
    "contained": 22477,
    "Ġwild": 2602,
    "Ġhostile": 19943,
    "emin": 8472,
    "suspect": 9542,
    "sun": 7141,
    "Ġjun": 8508,
    "Ġabaft": 22289,
    "ipp": 10104,
    "arrangement": 17417,
    "ppery": 10893,
    "Ġmother": 2066,
    "Ġfirm": 3871,
    "wonders": 17145,
    "Ġwicked": 5963,
    "Ġundone": 24119,
    "Ġadmiral": 17307,
    "ounds": 4159,
    "Ġpain": 2306,
    "Ġostentatious": 25737,
    "velope": 17702,
    "ï": 176,
    "Ġconcrete": 20639,
    "Ġclerks": 17297,
    "appear": 13201,
    "Ġhobbling": 25645,
    "amore": 21848,
    "Ġbats": 13902,
    "Ġfanciful": 24787,
    "nav": 17611,
    "Ġcomfortless": 23916,
    "Ġcrow": 3807,
    "-------": 20392,
    "inlaid": 21193,
    "Ġbott": 3146,
    "doubt": 6783,
    "immediately": 10051,
    "unities": 15774,
    "Ġpilgr": 12184,
    "Ġtowing": 9195,
    "Ġjollity": 25567,
    "Ġxiv": 23410,
    "Ġtallest": 15476,
    "Ġpeep": 6870,
    "possibility": 13365,
    "Ġdesist": 16239,
    ",*": 17473,
    "Ġsmote": 18577,
    "dangerous": 20243,
    "repeated": 12342,
    "Ġ80": 24455,
    "purp": 8092,
    "dependence": 17169,
    "uttering": 12666,
    "Ġguiding": 19242,
    "Ġfrog": 23925,
    "dancing": 12458,
    "u": 89,
    "Ġdive": 10174,
    "Ġsplend": 9900,
    "Ġdisplayed": 10610,
    "Ġgrapp": 14103,
    "ringle": 21043,
    "etween": 774,
    "Ġintens": 7004,
    "Ġdisease": 14259,
    "Ġmem": 2168,
    "Ġpicked": 6343,
    "unworthy": 18164,
    "Ġships": 3716,
    "Ġreplying": 19584,
    "Ġsolution": 9807,
    "Ġbadly": 12135,
    "Ġsolemn": 4100,
    "Ġconjoined": 21811,
    "asters": 8436,
    "ichron": 22171,
    "Ġindia": 10372,
    "Ġbab": 5291,
    "Ġwasting": 12732,
    "fel": 8737,
    "Ġperry": 22402,
    "Ġaccumulated": 11934,
    "Ġof": 298,
    "rings": 10723,
    "Ġfisher": 3220,
    "Ġdetermining": 14423,
    "Ġprovided": 6579,
    "fourth": 11329,
    "Ġforster": 5230,
    "Ġledgers": 23941,
    "Ġexploding": 2108,
    "Ġpalsy": 25779,
    "Ġtargets": 4206,
    "Ġbush": 23339,
    "thirds": 25049,
    "Ï": 144,
    "arers": 12133,
    "fully": 2205,
    "Ġcreating": 2993,
    "andromeda": 21873,
    "assemblies": 25957,
    "erer": 8735,
    "Ġjura": 14194,
    ".âĢĶ": 4248,
    "----âĢĿ": 13310,
    "guard": 12132,
    "Ġsmoke": 4716,
    "Ġcolourless": 19572,
    "Ġclaim": 5106,
    "Ġfiends": 14830,
    "Ġhandled": 12941,
    "Ġdivide": 12114,
    "Ġflourishing": 25188,
    "vol": 736,
    "Ġvint": 18195,
    "Ġfilial": 16621,
    "ting": 1333,
    "Ġsow": 17750,
    "Ġpeaceful": 9458,
    "Ġdictator": 20156,
    "Ġfem": 6136,
    "Ġdefects": 12336,
    "Ġvancou": 22881,
    "rese": 15510,
    "ogene": 18675,
    "Ġsovere": 9258,
    "Ġtechniques": 2864,
    "Ġghosts": 12236,
    "Ġhish": 21918,
    "Ġmark": 2333,
    "Ġtun": 6001,
    "iscient": 17853,
    "Ġlandau": 16421,
    "Ġdiscerned": 24959,
    "Ġpreach": 14174,
    "Ġscru": 8191,
    "Ġblooming": 17214,
    "Ġobliquely": 12365,
    "ribly": 8256,
    "Ġgoat": 16009,
    "asily": 13948,
    "Ġhoe": 23353,
    "Ġle": 333,
    "Ġpicking": 11260,
    "Ġtreated": 7082,
    "Ġrashness": 25461,
    "ison": 3073,
    "indulged": 22380,
    "Ġexcitement": 9383,
    "Ġenjoyments": 24022,
    "putting": 14102,
    "Ġhundredth": 16521,
    "Ġwise": 6812,
    ",âĢĶâĢĺ": 23804,
    "dom": 6224,
    "Ġcommence": 6169,
    "Ġdeclare": 6617,
    "Ġyoungest": 7955,
    "Ġcircling": 19094,
    "Ġstarts": 16584,
    "Ġnapoleon": 20560,
    "likely": 9025,
    "Ġprotecting": 24687,
    "Ġactual": 3740,
    "Ġenvironmental": 24087,
    "relu": 17760,
    "Ġkrempe": 10671,
    "imony": 12694,
    "Ġmemories": 14556,
    "farm": 15354,
    "Ġpainfully": 13145,
    "Ġarchipelagoes": 14350,
    "blame": 14796,
    "axing": 18548,
    "below": 12125,
    "Ġlens": 8440,
    "sul": 15423,
    "assumed": 22313,
    "Ġcircus": 19093,
    "Ġperpetual": 12306,
    "meeting": 11021,
    "Ġfuneral": 10284,
    "Ġheadstrong": 14390,
    "Ġattained": 14080,
    "Ġparadise": 11195,
    "row": 1065,
    "pursu": 11393,
    "Ġmarvels": 11085,
    "Ġrecommending": 24332,
    "Ġpaltry": 16692,
    "Ġhuff": 21494,
    "oak": 21005,
    "Ġgaping": 13971,
    "Ġwantonly": 22896,
    "Ġconvict": 23747,
    "Ġinterruptions": 24188,
    "Ġrecre": 22741,
    "Ġentreat": 4510,
    "Ç": 136,
    "Ġl": 303,
    "Ġroar": 9755,
    "arled": 21446,
    "sciss": 18853,
    "Ġtypes": 8938,
    "Ġwings": 9165,
    "Ġoverwhel": 8198,
    "Ġsuspicious": 9482,
    "------": 12137,
    "Ġwishes": 4796,
    "Ġpointing": 5661,
    "Ġyer": 15737,
    "Ġcurves": 18857,
    "Ġprofoundest": 16861,
    "Ġhousings": 21497,
    "Ġsoldier": 16921,
    "Ġshivering": 10267,
    "stepfather": 19192,
    "Ġfrench": 4939,
    "Ġshowed": 4497,
    "rodu": 1816,
    "appalled": 18761,
    "pass": 4291,
    "Ġsmith": 16067,
    "Ġengage": 9337,
    "Ġgerm": 13966,
    "Ġnegatived": 23052,
    "Ġlethargy": 26484,
    "footman": 17164,
    "recollected": 25348,
    "Ġimperfectly": 25727,
    "Ġunresting": 25554,
    "Ġidiot": 11974,
    "travel": 24336,
    "tornadoes": 26154,
    "Ġconsumed": 10351,
    "Ġrepeat": 8001,
    "Ġmortifying": 13249,
    "Ġentered": 2843,
    "Ġharpoon": 3618,
    "Ġexordium": 26493,
    "Ġcompunction": 18588,
    "Ġconveniences": 19815,
    "!_âĢĿ": 11377,
    "peril": 18343,
    "cu": 10085,
    "Ġprosper": 10230,
    "Ġtrucks": 19515,
    "edded": 8558,
    "Ġlacepede": 20499,
    "Ġextrem": 2476,
    "Ġrelated": 3717,
    "Ġparacels": 13670,
    "Ġconcerns": 12034,
    "despairing": 25077,
    "Ġevian": 24293,
    "Ġitaly": 10868,
    "formality": 22218,
    "Ġcripple": 11441,
    "Ě": 219,
    "Ġkettle": 26234,
    "rane": 17654,
    "Ġ86": 24460,
    "urday": 13996,
    "Ġclosest": 16764,
    "Ġstreatham": 17451,
    "retrie": 18926,
    "grie": 12474,
    "Ġplu": 8802,
    "Ġmasking": 2420,
    "Ġabhorrent": 16857,
    "Ġbeh": 1798,
    "sequ": 2401,
    "Ġminister": 18753,
    "Ġreconc": 9685,
    "Ġenter": 4029,
    "colour": 9905,
    "Ġexamination": 8006,
    "educated": 17261,
    "twain": 23703,
    "Ġcrawled": 17044,
    "Ġparticulars": 5754,
    "anced": 1303,
    "anxiously": 15113,
    "Ġtailed": 21171,
    "norm": 20987,
    "Ġmysticetus": 24923,
    "Ġsoon": 1229,
    "Ġrobustness": 18880,
    "Ē": 211,
    "renewed": 19707,
    "Ġinexhaustible": 16982,
    "splinter": 25211,
    "igan": 21702,
    "Ġexpanding": 25239,
    "awn": 3836,
    "Ġdeceived": 6546,
    "truck": 15443,
    "wreck": 21139,
    "Ġparlour": 12324,
    "85": 13684,
    "Ġscowl": 22276,
    "Ġyoun": 1408,
    "Ġstairs": 5540,
    "Ġfurnishes": 19444,
    "Ġgrief": 4622,
    "Ġvexatious": 19784,
    "Ġgrassy": 24378,
    "Ġmout": 17800,
    "Ġmonsie": 11448,
    "Ġrefer": 18697,
    "Ġmet": 1797,
    "aciously": 12911,
    "Ġbraw": 23838,
    "continual": 20646,
    "Ġtwelvemonth": 12181,
    "Ġunappe": 22023,
    "Ġarchy": 14349,
    "surround": 16759,
    "Ġspatial": 2729,
    "Ġconfiding": 19036,
    "olerably": 11675,
    "married": 9951,
    "Ġlike": 668,
    "Ġgive": 1711,
    "miseries": 16758,
    "Ġmantelpiece": 15210,
    "ensions": 14261,
    "Ġantique": 19554,
    "everything": 6326,
    "rapid": 12674,
    "Ġcalifornian": 25853,
    "Ġprogram": 12997,
    "Ġrighted": 23182,
    "Ġwears": 10242,
    "Ġneutral": 12745,
    "Ġshamefully": 24715,
    "Ġfading": 15587,
    "asible": 21546,
    "unw": 14059,
    "Ġthy": 2512,
    "Ġpruning": 18971,
    "Ġsolitary": 5856,
    "¬": 110,
    "Ġneighbourhood": 5126,
    "Ġ27": 8618,
    "Ġmental": 21322,
    "paralleled": 14513,
    "darkness": 9514,
    "Ġacquitted": 18900,
    "interruption": 20115,
    "rough": 590,
    "hew": 5286,
    "ounce": 6559,
    "holder": 13286,
    "medium": 23641,
    "Ġinno": 1358,
    "prevailed": 17347,
    "shake": 22455,
    "Ġcoupled": 16852,
    "Ġhertfordshire": 5377,
    "Ġsweeping": 8987,
    "Ġcomputation": 962,
    "diver": 20833,
    "Ġbustle": 17229,
    "parable": 16392,
    "justine": 7684,
    "Ġdisagree": 22537,
    "Ġimprisonment": 22391,
    "Ġcopies": 24938,
    "Ġenergy": 2553,
    "Ġblo": 2733,
    "Ġeagerness": 6610,
    "Ġann": 4490,
    "ked": 5615,
    "frank": 7759,
    "specimen": 26606,
    "tiger": 13799,
    "Ġtales": 10143,
    "early": 20122,
    "Ġcenturies": 8626,
    "Ġlevelled": 11285,
    "Ġawaited": 17074,
    "Ġholes": 16410,
    "Ġfleeting": 19329,
    "Ġmemo": 18120,
    "Ġartfully": 22615,
    "grasp": 16432,
    "Ġdyspepsia": 20645,
    "Ġmorose": 18845,
    "gardiner": 12294,
    "bourgh": 19105,
    "Ġoffended": 7042,
    "Ġstyled": 24672,
    "Ġfoundering": 21423,
    "Ġcelebrate": 26359,
    "Ġbambooz": 26120,
    "Ġaccursed": 9443,
    "licted": 20958,
    "Ġstatistics": 1682,
    "shold": 2771,
    "Ġplentiful": 12915,
    "enty": 2911,
    "Ġdataset": 12820,
    "Ġstating": 15725,
    "hval": 20900,
    "bru": 12442,
    "magnificent": 20277,
    "Ġfear": 2278,
    "Ġdespatched": 23832,
    "Ġornam": 15867,
    "Ġgamy": 18001,
    "Ġattaining": 15806,
    "appro": 7046,
    "Ġbruited": 25774,
    "Ġdissembling": 26256,
    "Ġmiser": 18704,
    "Ġdomineer": 23647,
    "Ġarranged": 9879,
    "Ġencapsulate": 13677,
    "position": 15415,
    "Ġfav": 1750,
    "apering": 8042,
    "Ġarr": 1795,
    "Ġcrotch": 9965,
    "Ġeffected": 14357,
    "Ġdiminishing": 4210,
    "Ġobstetrics": 24679,
    "elaborate": 21580,
    "Ġlimbs": 5968,
    "elder": 21576,
    "Ġrise": 5637,
    "Ġembark": 8559,
    "known": 3570,
    "Ġdad": 12604,
    "understanding": 1196,
    "pit": 3982,
    "standing": 5557,
    "Ġcramped": 23534,
    "cherish": 24551,
    "Ġempires": 19077,
    "Ġgives": 5018,
    "entimes": 12660,
    "heavy": 10576,
    "Ġformidable": 8221,
    "Ġtrappings": 23087,
    "othic": 16218,
    "Ġartificial": 780,
    "Ġbeats": 21757,
    "Ġimprudently": 22390,
    "ss": 397,
    "conjecturing": 20137,
    "Ġantiqu": 12148,
    "ete": 9205,
    "Ġsable": 15502,
    "har": 20892,
    "Ġevermore": 18813,
    "uous": 4146,
    "Ġdreamed": 16631,
    "Ġimplements": 2486,
    "Ġhinges": 15215,
    "Ġsins": 13839,
    "hib": 15370,
    "gener": 3124,
    "Ġconquest": 15751,
    "Ġimbalanced": 18334,
    "Ġforb": 11665,
    "ledyard": 22397,
    "eers": 20845,
    "Ġcarpent": 4466,
    "Ġsod": 11563,
    "Ġlashes": 17969,
    "Ġthan": 737,
    "Ġmortal": 4683,
    "Ġmerited": 23733,
    "Ġcoop": 14273,
    "Ġcrop": 10164,
    "warrant": 21140,
    "imitably": 21715,
    "big": 13688,
    "Ġeels": 21626,
    "soever": 11862,
    "Ġauthority": 7750,
    "youth": 11878,
    "Ġgentlemanly": 19318,
    "Ġsavannah": 17418,
    "idation": 5022,
    "ingly": 2135,
    "cra": 6356,
    "Ġstrasburgh": 18615,
    "simply": 20673,
    "Ġjoyously": 19350,
    "Ġboast": 7036,
    "Ġredness": 19314,
    "Ġchaps": 14181,
    "Ġexists": 14043,
    "irresist": 21917,
    "ress": 929,
    "Ġunfrequently": 20741,
    "put": 414,
    "Ã¦": 4338,
    "Ġsheltered": 19913,
    "ó": 180,
    "romising": 18234,
    "Ġacceptance": 14829,
    "Ġtwig": 11853,
    "Ġcobb": 14275,
    "questioning": 16851,
    "ccas": 15888,
    "Ġfulfilment": 20190,
    "aying": 15753,
    "Ġevangel": 11281,
    "Ġbugs": 13651,
    "Ġark": 10277,
    "Ġsucceeding": 16762,
    "genteel": 19952,
    "seven": 8466,
    "hence": 16626,
    "Ġinjunctions": 24271,
    "Ġlimping": 23549,
    "luck": 5733,
    "Ġflog": 23625,
    "Ġmatrim": 11060,
    "strils": 10459,
    "Ġgreedy": 3052,
    "Ġuntutored": 19168,
    "Ġsplashing": 16551,
    "oro": 21398,
    "Ġunhappy": 5640,
    "Ġnasty": 17445,
    "carpenter": 11428,
    "Ġpro": 360,
    "Ġeulogy": 26472,
    "omed": 13977,
    "ĠĠĠĠĠĠĠĠĠĠĠĠĠĠĠĠĠĠĠ": 22956,
    "Ġhit": 7164,
    "Ġworth": 4417,
    "Ġprocure": 9512,
    "scr": 16242,
    "division": 20052,
    "Ġraise": 6168,
    "Ġcynical": 25771,
    "ods": 8839,
    "Ġfris": 23258,
    "Ġpoultry": 17443,
    "Ġnovember": 11752,
    "\\": 64,
    "Ġhieroglyphic": 25588,
    "Ġdeserted": 8640,
    "Ġgrosvenor": 17420,
    "Ġfiend": 4412,
    "neighb": 16030,
    "Ġmissing": 6177,
    "av": 700,
    "Ġampl": 22485,
    "Ġanswering": 7477,
    "Ġbasement": 24701,
    "Ġsignific": 3830,
    "Ġperformer": 18756,
    "Ġdesk": 11910,
    "Ġdiscoverer": 26036,
    "ifference": 5632,
    "assembled": 21549,
    "Ġlobes": 22120,
    "Ġphrenologists": 25609,
    "Ġcreate": 2090,
    "private": 13585,
    "Ġnumerous": 6920,
    "pike": 11516,
    "Ġtenement": 23551,
    "Ġepicurean": 20558,
    "al": 292,
    "Ġtipped": 17729,
    "wis": 12522,
    "Ġaggregated": 25679,
    "wives": 15457,
    "sank": 17663,
    "Ġphilosophy": 7105,
    "fig": 8738,
    "chosen": 21699,
    "Ġwidespread": 20678,
    "enchant": 21286,
    "ilities": 6992,
    "Ġcarving": 14445,
    "gle": 20871,
    "Ġinterconnected": 1337,
    "beheld": 11804,
    "Ġworse": 4720,
    "Ġsaxe": 13631,
    "Ġ126": 24470,
    "Ġspoiled": 11364,
    "petulance": 24300,
    "Ġmatrix": 1610,
    "Ġluff": 15656,
    "Ġthereof": 22373,
    "Ġvis": 1072,
    "Ġsalut": 10511,
    "eld": 967,
    "Ġwat": 1286,
    "Ġtren": 17722,
    "Ġherself": 1567,
    "digger": 24311,
    "Ġknave": 11273,
    "Ġraw": 3321,
    "Ġpave": 8803,
    "Ġtrail": 16285,
    "Ġyelling": 18099,
    "ases": 1524,
    "Ġsteak": 9831,
    "Ġexisted": 15756,
    "rench": 3967,
    "Ġdelineations": 26059,
    "dripping": 16906,
    "Ġhumor": 11052,
    "Ġhag": 12629,
    "Ġrelations": 5854,
    "Ġcarpets": 18904,
    "Ġcondesc": 7182,
    "Ġunearthly": 9038,
    "Ġdre": 1742,
    "Ġsummary": 19406,
    "itten": 3443,
    "Ġbountiful": 25945,
    "Ġpretensions": 16559,
    "Ġgone": 2106,
    "Ġadhering": 14142,
    "Ġparts": 4166,
    "Ġgratified": 8022,
    "pus": 3418,
    "erately": 21276,
    "Ġdisdain": 8361,
    "stove": 21656,
    "Ġubiquitous": 26197,
    "Ġshoot": 11162,
    "Ġmaintain": 854,
    "Ġdood": 22247,
    "Ġport": 3310,
    "Ġquoted": 22420,
    "estic": 4956,
    "new": 1467,
    "Ġcoasts": 12167,
    "Ġendwise": 23141,
    "Ġverd": 6919,
    "Ġcoleman": 22592,
    "Ġ88": 19714,
    "trap": 24333,
    "content": 11198,
    "less": 927,
    "Ġafresh": 18626,
    "kept": 11720,
    "droppers": 24758,
    "Ġattractions": 12922,
    "Ġastonishment": 4795,
    "crossing": 19414,
    "Ġdemands": 19641,
    "tired": 21075,
    "Ġmorbidness": 20631,
    "Ġcataract": 23430,
    "Ġecho": 12672,
    "xi": 17711,
    "Ġcollapsed": 15084,
    "Ġunderground": 18984,
    "Ġrese": 2212,
    "penet": 11071,
    "favourite": 15146,
    "erie": 21274,
    "developed": 15267,
    "Ġowes": 20088,
    "single": 10128,
    "removed": 15518,
    "omach": 11636,
    "Ġclair": 6271,
    "Ġgouldings": 26189,
    "Ġbenefited": 19401,
    "dissatisfied": 26613,
    "Ġwhirlp": 16964,
    "Ġbourgh": 5069,
    "Ġperilously": 24503,
    "Ġroots": 11186,
    "_.âĢĿ": 5888,
    "Ġintrodu": 1922,
    "kshire": 13748,
    "Ġatt": 788,
    "Ġsecure": 4913,
    "Ġax": 7823,
    "Ġdelic": 4136,
    "Ġchrysalis": 26539,
    "Ġdebated": 9042,
    "Ġbond": 21387,
    "teringly": 21828,
    "Ġapprehensions": 13407,
    "Ġensuing": 12312,
    "Ġpublished": 11242,
    "mush": 20979,
    "Ġexhibited": 9546,
    "Ġconsum": 9801,
    "Ġwarmly": 8989,
    "es": 288,
    "grin": 19107,
    "Ġnicely": 8712,
    "Ġprehensile": 26535,
    "rably": 21637,
    "Ġtrifling": 10604,
    "Ġexchange": 15757,
    "ppings": 18179,
    "striving": 24670,
    "Ġgrinning": 9055,
    "Ġbeheaded": 11658,
    "Ġdecrease": 4202,
    "Ġbash": 12590,
    "headsman": 16698,
    "dignity": 15348,
    "Ġupwards": 7634,
    "Ġlodger": 24096,
    "âĢĶ(": 15941,
    "Ġlavenza": 17973,
    "Ġmuteness": 19420,
    "Ġignorance": 6621,
    "Ġtexture": 19162,
    "Ġmasks": 23327,
    "Ġhes": 6252,
    "little": 3355,
    "Ġminimize": 7052,
    "Ġblackest": 19100,
    "mists": 17605,
    "Ġnatives": 17953,
    "ĠĠĠĠĠĠĠĠĠĠĠĠĠĠĠĠĠĠĠĠĠĠĠĠĠĠĠĠĠĠĠĠĠĠĠĠĠĠĠĠĠĠĠĠĠĠĠĠĠĠĠ": 20042,
    "Ġpropose": 9854,
    "Ġtheme": 16022,
    "Ġ77": 24265,
    "centre": 17087,
    "Ġfilthy": 13252,
    "arding": 22162,
    "Ġbehold": 5049,
    "Ġprovince": 24191,
    "sorrows": 17322,
    "Ġoscill": 2854,
    "Ġconfusion": 7273,
    "Ġinsinuating": 19273,
    "Ġmount": 7362,
    "fa": 7336,
    "Ġoptimization": 1453,
    "Ġexecuted": 9474,
    "Ġfull": 2181,
    "Ġstro": 4597,
    "Ġamph": 18511,
    "Ġlords": 14642,
    "Ġunfathom": 14791,
    "Ġesteem": 7531,
    "Ġfable": 15580,
    "Ġpreventing": 884,
    "Ġestimates": 3750,
    "Ġbonnet": 10657,
    "Ġconvinced": 4207,
    "apsed": 6297,
    "wickham": 5886,
    "Ġtons": 11551,
    "Ġfing": 3759,
    "ead": 2600,
    "ief": 2044,
    "Ġuncle": 3189,
    "Ġshan": 9251,
    "Ġbriony": 9331,
    "arman": 11597,
    "Ġstake": 14005,
    "Ġauthor": 4376,
    "Ġdegenerating": 25800,
    "ars": 906,
    "Ġskies": 8923,
    "Ġmalays": 19680,
    "ifers": 15785,
    "Ġheight": 4221,
    "Ġce": 3030,
    "Ġbakers": 17868,
    "hist": 7132,
    "rit": 21038,
    "explained": 23149,
    "Ġrides": 21976,
    "Ġgave": 2220,
    "51": 12434,
    "Ġbelonged": 6922,
    "Ġremarking": 13127,
    "worm": 15455,
    "Ġmo": 628,
    "Ġweave": 21926,
    "Ġindistinctly": 26118,
    "overcoat": 19052,
    "extremely": 26265,
    "iss": 2180,
    "Ġapex": 24341,
    "Ġthre": 2057,
    "pushed": 21025,
    "Ġwigwam": 11429,
    "Ġhorizontally": 17013,
    "Ġacted": 7422,
    "outon": 12807,
    "Ġshouting": 10524,
    "Ġgrizz": 10353,
    "warning": 25532,
    "Ġbrute": 8929,
    "attempts": 17192,
    "links": 20960,
    "surprised": 9533,
    "Ġearth": 2847,
    "¡": 99,
    "accounted": 16503,
    "Ġoverpowering": 15252,
    "expected": 5780,
    "Ġhats": 14619,
    "Ġrepresentation": 14408,
    "Ġlabels": 3289,
    "Ġalmighty": 18107,
    "Ġexult": 10231,
    "Ġdivinest": 25722,
    "jolly": 20933,
    "Ģ": 227,
    "Ġantichron": 24183,
    "Ġflounders": 23019,
    "Ġbrotherhood": 23673,
    "Ġtahitian": 25428,
    "Ġinasmuch": 10826,
    "vous": 2255,
    "Ġpresents": 8246,
    "habit": 16192,
    "gloom": 17141,
    "comprehend": 14363,
    "Ġcoins": 11822,
    "ushes": 22296,
    "hateful": 20911,
    "Ġconscience": 6929,
    "Ġdeserts": 10509,
    "Ġmaw": 15543,
    "wish": 8101,
    "aloons": 20014,
    "w": 91,
    "Ġfarther": 5957,
    "terrific": 25043,
    "eyed": 11488,
    "complete": 15036,
    "lucifer": 25302,
    "Ġimagine": 3924,
    "nui": 21002,
    "Ġsabbee": 17257,
    "Ġunperceived": 22042,
    "cary": 10692,
    "Ġdrugg": 17121,
    "Ġadvent": 4357,
    "icide": 11620,
    "uneven": 23688,
    "Ġoptimize": 1536,
    "Ġrare": 7039,
    "Ġtrace": 6183,
    "Ġsombre": 18861,
    "Ġhave": 444,
    "Ġoverpower": 12847,
    "Ġcaut": 6522,
    "R": 54,
    "Ġhappening": 14385,
    "Ġeel": 18004,
    "Ġslam": 13062,
    "ises": 3655,
    "anned": 17841,
    "Ġsobbing": 14137,
    "helm": 12175,
    "Ġfaintness": 24570,
    "illum": 15872,
    "Ġshouted": 5348,
    "avings": 12025,
    "fr": 4805,
    "Ġring": 4452,
    "rifled": 21050,
    "Ġhurricane": 16433,
    "Ġaccount": 2323,
    "Ġinconsist": 17938,
    "Ġdispleased": 18556,
    "Ġlamb": 8816,
    "Ġshepherd": 14154,
    "Ġbound": 3521,
    "Ġdoxology": 22249,
    "accomp": 10456,
    "Ġjovial": 19235,
    "som": 3292,
    "Ġnatures": 16507,
    "Ġillum": 9402,
    "eler": 1572,
    "Ġaddressing": 11165,
    "Ġcrush": 9424,
    "clair": 18935,
    "Ġcomfits": 21857,
    "ĠvertebrÃ¦": 11436,
    "Ġbatt": 13901,
    "gallantry": 15062,
    "Ġtore": 6532,
    "Ġindiscriminately": 20630,
    "Ġprison": 5403,
    "Ġrumpled": 24602,
    "Ġproced": 2580,
    "bill": 10078,
    "Ġmurmured": 7480,
    "Ġenderby": 13654,
    "Ġbethinking": 25280,
    "Ġrummaged": 16911,
    "Ġthat": 335,
    "Ġcontaining": 2235,
    "Ġtrial": 6637,
    "Ġleviathans": 8283,
    "ispens": 8337,
    "Ġold": 1056,
    "head": 1436,
    "reception": 15516,
    "Ġmurmuring": 23581,
    "Ġbells": 19604,
    "holloa": 19467,
    "Ġtombed": 25164,
    "Ġmitig": 1335,
    "app": 1038,
    "iverse": 13119,
    "breckinridge": 24077,
    "Ġdwell": 5813,
    "Ġsilken": 16380,
    "Ġseeks": 14304,
    "Ġfleetness": 20182,
    "Ġprogno": 14042,
    "Ġgnashed": 20136,
    "Ġrequest": 6053,
    ")âĢĶ": 20744,
    "wer": 8397,
    "holland": 24045,
    "Ġtwos": 18658,
    "ik": 17572,
    "ardy": 22161,
    "complexion": 14364,
    "ieth": 10705,
    "atural": 934,
    "usal": 7639,
    "Ġadhes": 22111,
    "whalers": 17265,
    "boys": 13363,
    "deserted": 19344,
    "Ġcooped": 22588,
    "Ġbehooves": 20735,
    "Ġpump": 12625,
    "raint": 18317,
    "ara": 12610,
    "Ġancles": 21450,
    "Ġfraud": 19064,
    "Ġduty": 4071,
    "Ġbreakfast": 3975,
    "Ġsubset": 9872,
    "Ġgenerative": 5644,
    "irations": 18173,
    "Ġappear": 2485,
    "Ġattack": 5478,
    "Ġhill": 5626,
    "unctuous": 21887,
    "Ġconscious": 7745,
    "pha": 22774,
    "Ġannot": 15605,
    "Ġderbyshire": 6588,
    "mine": 5617,
    "meditated": 19074,
    ".": 18,
    "Ġoutrages": 18416,
    "Ġugliness": 20430,
    "Ġwildness": 14604,
    "foolish": 12350,
    "preser": 9762,
    "trouble": 8297,
    "Ġrotterdam": 25476,
    "Ġrelinquish": 17349,
    "Ġemblaz": 16229,
    "treas": 17680,
    "Ġfootmen": 23799,
    "ern": 751,
    "Ġlearning": 386,
    "turned": 7306,
    "Ġdripping": 13150,
    "weight": 2936,
    "ii": 4014,
    "Ġunqualified": 22066,
    "Ġfemin": 13439,
    "Ġpretension": 23766,
    "atmosphere": 21267,
    "rise": 6228,
    "Ġmend": 8408,
    "Ġheard": 1401,
    "distinction": 19574,
    "Ġfighting": 12201,
    "vard": 21113,
    "Ġdusky": 13552,
    "irene": 15921,
    "Ġstupendous": 20504,
    "osp": 6854,
    "Ġspade": 9261,
    "Ġtinged": 20086,
    "racting": 10357,
    "Ġdifficult": 3573,
    "Ġpromethe": 14470,
    "Ġcool": 5734,
    "Ġsauntering": 18328,
    "prepar": 22471,
    "whar": 15930,
    "Ġstaid": 21740,
    "Ġaquiline": 26160,
    "glorious": 19370,
    "isle": 13894,
    "ugging": 23291,
    "Ġmounttop": 19981,
    "Ġforbid": 7867,
    "popular": 26141,
    ".)": 6784,
    "Ġaids": 12232,
    "Ġattribute": 16106,
    "Ġtraces": 7947,
    "Ġtim": 4580,
    "Ġenthus": 7232,
    "Ġsog": 22083,
    "Ġimmens": 9941,
    "Ġcur": 1263,
    "dishonourable": 26367,
    "Ġpredomin": 16049,
    "Ġ112": 24436,
    "Ġunfavourable": 17419,
    "something": 4285,
    "infallibly": 26418,
    "stock": 13226,
    "Ġdeplored": 20508,
    "Ġsatin": 12992,
    "Ġbrawny": 13616,
    "propriety": 14374,
    "manif": 14375,
    "loops": 12887,
    "ings": 630,
    "ore": 418,
    "Ġno": 511,
    "ipper": 13742,
    "Ġexpression": 4516,
    "Ġadieu": 10053,
    "Ġeffective": 1247,
    "Ġgossiping": 26245,
    "Ġrover": 18456,
    "Ġcreative": 9832,
    "Ġwashed": 15768,
    "Ġheavily": 6742,
    "attachment": 13056,
    "Ġmannish": 26239,
    "Ġinterested": 6459,
    "atement": 17774,
    "pinn": 21028,
    "Ġzones": 22822,
    "Ġround": 1369,
    "Ġtossed": 5816,
    "Ġfeed": 2127,
    "cake": 20806,
    "Ġmore": 676,
    "Ġwell": 902,
    "Ġwaterward": 23369,
    "circum": 16738,
    "neighbourhood": 10027,
    "batch": 1979,
    "ort": 522,
    "Ġcountryside": 23598,
    "Ġmaid": 5287,
    "Ġtraps": 23085,
    "pop": 17632,
    "guess": 14764,
    "Ġtools": 11611,
    "Ġslit": 13061,
    "Ġpredicted": 2043,
    "accomplishment": 20226,
    "Þ": 159,
    "preced": 10311,
    "ord": 667,
    "Ġpedro": 15067,
    "clut": 23155,
    "mistakable": 20655,
    "Ġcharged": 9856,
    "che": 3168,
    "Ġcompromising": 22579,
    "Ġguitar": 16271,
    "ais": 8072,
    "uming": 8494,
    "Ġcomforts": 14695,
    "Ġshoals": 13137,
    "Ġevents": 4473,
    "Ġfireboard": 23536,
    "Ġlaughed": 5059,
    "persecutor": 26531,
    "rayed": 23565,
    "Ġcos": 2210,
    "nib": 5214,
    "Ġrooted": 13172,
    "Ġ123": 24467,
    "keeping": 8638,
    "onist": 21253,
    "Ġwrest": 11573,
    "uendoes": 26408,
    "Ġhudson": 15194,
    "Ġhalls": 19528,
    "vest": 6232,
    "sych": 9892,
    "Ġmedicine": 15209,
    "Ġwand": 4342,
    "Ġstrategies": 1837,
    "Ġdisgraceful": 15021,
    "limbs": 20194,
    "Ġhopelessly": 16377,
    "rapt": 13975,
    "Ġindividual": 5744,
    "Ġcontemptible": 16954,
    "looking": 4032,
    "Ġbeau": 9226,
    "Ġgroping": 13668,
    "sweeping": 24620,
    "Ġthing": 1638,
    "Ġstrangeness": 16705,
    "Ġdomineering": 23648,
    "Ġpeasants": 12335,
    "Ġpen": 1533,
    "disgu": 19157,
    "lesc": 11039,
    "fates": 20860,
    "Ġextracting": 11112,
    "Ġvaulted": 25171,
    "Ġminima": 3466,
    "Ġabsolute": 6766,
    "Ġdimension": 3239,
    "yrin": 12526,
    "Ġcaused": 5048,
    "sequently": 14584,
    "Ġperished": 11787,
    "etw": 407,
    "Ġconfeder": 25708,
    "Ġexpected": 3699,
    "mand": 3895,
    "invol": 12534,
    "nostr": 22717,
    "Ġ42": 16679,
    "lude": 6163,
    "Ġsorrow": 4630,
    "Ġvanish": 8930,
    "Ġfort": 2579,
    "================================================================": 9992,
    "Ġbug": 11591,
    "Ġrecollecting": 17113,
    "Ġaged": 10323,
    "ampled": 18885,
    "Ġexcl": 3477,
    "mospheric": 17091,
    "Ġhonest": 7287,
    "ahab": 4290,
    "Ġimpetuously": 20375,
    "bestowed": 12229,
    "Ġslime": 23165,
    "Ġ76": 24264,
    "earthquakes": 24724,
    "Ġjewel": 9944,
    "ige": 12683,
    "Ġforbe": 8459,
    "bable": 8722,
    "Ġtut": 8774,
    "Ġwarsaw": 26168,
    "idirectional": 2421,
    "Ġtransl": 2828,
    "Ġcrutch": 23446,
    "Ġpow": 4639,
    "Ġpopularly": 12245,
    "Ġteased": 18810,
    "Ġdotted": 16793,
    "unts": 12735,
    "missing": 13223,
    "Ġperu": 14224,
    "rus": 5932,
    "Ġcross": 1373,
    "Ġlargely": 14287,
    "ĠĠĠĠĠĠĠĠĠĠĠĠĠĠĠĠĠĠĠĠĠĠĠĠĠĠĠĠĠĠĠĠĠĠĠĠĠĠĠĠĠĠĠĠ": 12157,
    "propagation": 1261,
    "Ġfleet": 9434,
    "ler": 3493,
    "Ġobserved": 3543,
    "urry": 13995,
    "Ġrippling": 17279,
    "Ġsar": 21216,
    "ignominious": 26588,
    "iting": 2161,
    "Ġanticipated": 13513,
    "Ġjerked": 19835,
    "Ġruefully": 17303,
    "Ġindic": 2883,
    "urn": 775,
    "lit": 9607,
    "Ġgentle": 1890,
    "Ġrobbery": 11915,
    "isis": 12583,
    "Ġpots": 9430,
    "Ġmister": 22758,
    "Ġalbino": 20506,
    "enesis": 24387,
    "estion": 18360,
    "ountain": 2914,
    "Ġmalicious": 10559,
    "Ġpromise": 4200,
    "Ġmodeling": 2094,
    "Ġmelancholy": 5605,
    "Ġ133": 24782,
    "Ġmuzzle": 21324,
    "Ġmeagre": 21815,
    "Ġfaithful": 9505,
    "Ġbackwoods": 22665,
    "Ġripp": 11220,
    "Ġweld": 8113,
    "ham": 1700,
    "Ġladder": 8602,
    "Ġconclude": 8583,
    "Ġdisenc": 22531,
    "fil": 12466,
    "Ġbelie": 14409,
    "Ġreconciled": 13590,
    "Ġstructural": 2797,
    "Ġdistinctions": 18530,
    "Ġresid": 22543,
    "Ġchinks": 22256,
    "Ġspecially": 12000,
    "conject": 8882,
    "rations": 10724,
    "iro": 20916,
    "Ġrelig": 8553,
    "Ġ51": 24315,
    "Ġmentioned": 4330,
    "Ġpalms": 8647,
    "tranquillity": 20549,
    "dem": 10694,
    "Ġtremendous": 8354,
    "supplemental": 25875,
    "Ġworshipper": 25693,
    "Ġphotography": 24684,
    "Ġcompose": 12906,
    "Ġarchitectures": 2905,
    "Ġsermon": 12379,
    "Ġscrewing": 20211,
    "especially": 3574,
    "Ġlasting": 18792,
    "ological": 1884,
    "accents": 19213,
    "Ġregal": 16075,
    "Ġleads": 12100,
    "burning": 25081,
    "recol": 10152,
    "Ġstoutest": 24630,
    "Ġpip": 1599,
    "Ġwarriors": 19726,
    "Ġind": 1223,
    "alas": 8807,
    "Ġbag": 5699,
    "ceptible": 10958,
    "Ġtormented": 8678,
    "Ġfanatic": 23393,
    "Ġchicha": 15939,
    "Ġe": 312,
    "Ġcrosses": 23067,
    "Ġdesolated": 24809,
    "Ġeyes": 1334,
    "Ġbefallen": 12346,
    "Ġannesley": 19580,
    "Ġdestroyed": 5272,
    "lays": 14924,
    "ench": 21282,
    "Ġascendency": 20235,
    "Ġrequiring": 2918,
    "problems": 11435,
    "inev": 21984,
    "Ġhunters": 6302,
    "Ġboun": 21383,
    "Ġquestionable": 19268,
    "inction": 6663,
    "compl": 6873,
    "Ġgreenhorn": 23770,
    "Ġsolomon": 11053,
    "Ġendeavored": 19305,
    "Ġcovari": 2340,
    "Ġunderstanding": 1809,
    "Ġrecess": 10848,
    "Ġadler": 8175,
    "Ġembrace": 16991,
    "Ġcaw": 13885,
    "weep": 22688,
    "sensible": 20055,
    "Ġunostentatious": 22074,
    "Ġtub": 7147,
    "Ġcolonel": 3411,
    "Ġassented": 17340,
    "Ġincluding": 2848,
    "interrupted": 11418,
    "Ġordering": 18997,
    "Ġawoke": 7286,
    "Ġoutset": 15958,
    "Ġribbed": 16805,
    "ith": 330,
    "Ġjolly": 6858,
    "Ġfigured": 16645,
    "Ġanytime": 12889,
    "Ġtyros": 26102,
    "Ġabominable": 12325,
    "Ġvesu": 21954,
    "Ġelder": 7223,
    "proceeded": 25191,
    "articulate": 17400,
    "Ġinex": 6529,
    "Ġlouder": 13471,
    "ishly": 14202,
    "Ġmonster": 3795,
    "18": 20753,
    "Ġstops": 3163,
    "Ġbeast": 7180,
    "deduction": 23674,
    "Ġnat": 12649,
    "Ġmockery": 12111,
    "Ġappropriated": 23487,
    "possessed": 9530,
    "transom": 19737,
    "Ġgrapnels": 25552,
    "Ġalter": 6544,
    "churning": 21701,
    "dinah": 20084,
    "Ġhackluyt": 25656,
    "Ġraising": 8912,
    "recl": 15512,
    "âĢĿ)": 21819,
    "Ġhansom": 13667,
    "Ġxxx": 7768,
    ".--": 20748,
    "Ġbulkington": 14678,
    "Ġstatue": 23153,
    "sofa": 26147,
    "doubtless": 17003,
    "Ġepaulets": 24906,
    "Ġswore": 10380,
    "Ġoriginate": 24123,
    "eye": 6226,
    "Ġberths": 20118,
    "Ġfortunes": 12182,
    "Ġskeletons": 16792,
    "handsome": 13179,
    "Ġpledge": 11603,
    "Ġvacuous": 24343,
    "Ġskilfully": 20527,
    "fishermen": 17061,
    "Ġresort": 18564,
    "laughed": 20284,
    "Ġjourneys": 19478,
    "Ġaccusations": 22382,
    "snow": 10725,
    "Ġwhirling": 12252,
    "stein": 5505,
    "Ġended": 7951,
    "wear": 22687,
    "streets": 13398,
    "Ġaux": 21202,
    "Ġarmchair": 8272,
    "silly": 24421,
    "Ġgrazed": 15836,
    "ivered": 7007,
    "Ġreco": 9793,
    "Ġexciting": 23312,
    "Ġcongealed": 25982,
    "Ġplainpalais": 20739,
    "Ġfurnaces": 24009,
    "Ġbring": 3324,
    "Ġflower": 16234,
    "trans": 5593,
    "Ġjoys": 13224,
    "Ġacquaint": 13049,
    "Ġglimmering": 25241,
    "Ġsleep": 2399,
    "Ġessex": 20130,
    "Ġchain": 1842,
    "Ġpistol": 7848,
    "Ġallev": 18103,
    "Ġfavoured": 16362,
    "erman": 5108,
    "Ġmeasuring": 22886,
    "depth": 12804,
    "contempl": 13194,
    "luding": 6702,
    "aculate": 16085,
    "Ġmeasures": 1208,
    "Ġrag": 18641,
    "Ġgilded": 17447,
    "uzz": 4524,
    "Ġworked": 6585,
    "ives": 1410,
    "Ġhack": 12760,
    "Ġshutting": 14762,
    "Ġnewcom": 16224,
    "Ġcompany": 3723,
    "Ġpianoforte": 15276,
    "unte": 21878,
    "arranging": 19320,
    "âĢĿ": 354,
    "Ġguarded": 9828,
    "honour": 13470,
    "Ġinferior": 8367,
    "unning": 4494,
    "Ġtreat": 3173,
    "sebastian": 21825,
    "liked": 10510,
    "Ġreddening": 25971,
    "Ġentic": 16149,
    "Ġswart": 14437,
    "Ġinheritance": 25356,
    "Ġmoonlight": 9960,
    "usual": 5842,
    "Ġdisposing": 19378,
    "Ġdictated": 25219,
    "Ġphr": 2681,
    "Ġvesuvius": 26502,
    "Ġinde": 7371,
    "Ġnich": 21524,
    "Ġcasked": 24496,
    "Ġenable": 683,
    "fordshire": 4678,
    "byter": 16215,
    "rooms": 10433,
    "i": 77,
    "Ġabsent": 7016,
    "coming": 3564,
    "support": 9471,
    "grasping": 20642,
    "plans": 21963,
    "lemagne": 26437,
    "signed": 21064,
    "Ġassid": 18947,
    "Ġinvari": 6530,
    "barrow": 15323,
    "Ġmushroom": 13240,
    "_âĢĶ": 11468,
    "Ġadmir": 12024,
    "Ġmedd": 15542,
    "Ġactionable": 24559,
    "Ġgrandeur": 8631,
    "Ġalice": 1484,
    "Ġcordage": 19681,
    "Ġtuples": 13480,
    "cru": 7128,
    "Ġtall": 4039,
    "Ġfeasts": 25370,
    "scheme": 15257,
    "Ġhorner": 8960,
    "Ġscheduling": 2351,
    "outs": 7010,
    "people": 7678,
    "orative": 21401,
    "Ġlunch": 13528,
    "Ġyes": 2688,
    "Ġmoby": 3666,
    "urg": 8143,
    "Ġplanning": 14754,
    "Ġphysi": 9990,
    "Ġcad": 12572,
    "Ġunwe": 15841,
    "pockets": 16213,
    "Ġenjoined": 18192,
    "Ġ135": 24784,
    "evident": 25521,
    "Ġprincipally": 11310,
    "attentive": 17191,
    "ention": 867,
    "question": 5418,
    "Ġpebbles": 16132,
    "Ġdistribut": 841,
    "Ġsugg": 4500,
    "Ġpartially": 13126,
    "Ġram": 11015,
    "Ġreynolds": 10211,
    "wrath": 23758,
    "Ġghost": 6144,
    "Ġlaudanum": 20693,
    "ict": 600,
    "ers": 405,
    "alling": 6039,
    "regulated": 23469,
    "Ġpainter": 19170,
    "Ġlengthen": 15657,
    "ssible": 2989,
    "sort": 6799,
    "Ġlinear": 3435,
    "ļ": 253,
    "insula": 23071,
    "apolog": 22337,
    "Ġdestro": 3724,
    "Ġmachinery": 20488,
    "Ġpalpit": 16691,
    "Ġungrateful": 14123,
    "ire": 497,
    "Ġpict": 3501,
    "acter": 2506,
    "Ġreconciliation": 25293,
    "Ġravine": 18647,
    "Ġshorter": 4499,
    "floor": 14938,
    "Ġthirst": 7590,
    "Ġdisregarded": 22535,
    "Ġdumb": 7844,
    "Ġwillingly": 8887,
    "Ġusurpation": 18358,
    "Ġinsipid": 26314,
    "autions": 20769,
    "Ġlat": 5087,
    "hatches": 19930,
    "Ġconsistent": 14528,
    "beaut": 8515,
    "alse": 4186,
    "Ġjuncture": 17131,
    "carbuncle": 26383,
    "Ġlength": 2500,
    "Ġemotion": 7691,
    "Ġspitzbergen": 15290,
    "ditch": 17529,
    "Ġunappalled": 22070,
    "ink": 757,
    "Ġbegged": 8232,
    "Ġprecautions": 23729,
    "Ġframe": 2024,
    "Ġabreast": 18400,
    "Ġalien": 14020,
    "hunted": 16833,
    "Ġale": 9156,
    "âĢĻ-": 18169,
    "commodore": 20628,
    "Ġinert": 15625,
    "Ġboards": 14302,
    "Ġgrud": 17998,
    "Ġwield": 21293,
    "Ġaff": 1115,
    "Ġcomponents": 8896,
    "cus": 3979,
    "Ġbernard": 20687,
    "worse": 14692,
    "soles": 18685,
    "intelligence": 5885,
    "Ġimputed": 12812,
    "Ġover": 556,
    "Ġmizzen": 20292,
    "Ġchildish": 13140,
    "Ġundulations": 19518,
    "drawers": 19389,
    "Ġcollateral": 20075,
    "drifting": 19827,
    "Ġvirtual": 11240,
    "Ġscratching": 20372,
    "iness": 1280,
    "showing": 22461,
    "shaven": 18493,
    "Ġgradually": 3404,
    "Ġcab": 2632,
    "Ġhuman": 1318,
    "ousings": 18336,
    "hood": 2659,
    "indian": 11781,
    "Ġweigh": 10895,
    "Ġcumberland": 21358,
    "Ġexercise": 8360,
    "weaving": 18667,
    "beam": 16040,
    "Ġproduced": 2453,
    "odox": 21818,
    "sailing": 14716,
    "compass": 9462,
    "Ġforeign": 9874,
    "lestrade": 9658,
    "pth": 2382,
    "recollect": 17225,
    "Ġshapes": 14111,
    "Ġdash": 8123,
    "Ġpurest": 14941,
    "Ġlion": 9677,
    "0": 20,
    "Ġperish": 8877,
    "Ġsplin": 8622,
    "poke": 18798,
    "Ġspilling": 22143,
    "Ġdaft": 19666,
    "Ġlegal": 10440,
    "eties": 10838,
    "athy": 14325,
    "perv": 1568,
    "Ġis": 347,
    "scand": 18851,
    "Ġflapp": 23014,
    "Ġbowlines": 19324,
    "standers": 18483,
    "Ġtorment": 8677,
    "Ġbeing": 1162,
    "ass": 539,
    "Ġcoldly": 14651,
    "const": 5941,
    "Ġrepublican": 17414,
    "Ġtug": 11552,
    "obser": 11100,
    "Ġphenomena": 21488,
    "sies": 21057,
    "Ġdrifted": 14626,
    "vis": 4579,
    "Ġbun": 6009,
    "Ġwre": 5077,
    "Ġshifting": 12772,
    "Ġpaus": 4299,
    "Ġpol": 2577,
    "examine": 25478,
    "Ġdispleasure": 16054,
    "Ġterra": 13120,
    "Ġbesides": 3516,
    "Ġpersuasion": 10500,
    "Ġagonizing": 17240,
    "interview": 19301,
    "Ġfooting": 14484,
    "Ġbal": 1131,
    "Ġquietude": 19363,
    "Ġpom": 21456,
    "revealed": 20419,
    "Ġimpart": 11783,
    "Ġdais": 24371,
    "Ġtranquill": 6633,
    "Ġvow": 10248,
    "Ġenrolled": 21942,
    "resemblance": 25934,
    "Ġtail": 3088,
    "ipelagoes": 13674,
    "Ġgouge": 26190,
    "Ġhaws": 21956,
    "Ġgrapes": 15218,
    "Ġvestige": 20066,
    "Ġwarden": 17226,
    "Ġdamps": 23477,
    "mblies": 24610,
    "Ġsleepy": 8269,
    "Ġunchanged": 22036,
    "aples": 20770,
    "end": 502,
    "Ġspleen": 26422,
    "direct": 12460,
    "reclining": 20577,
    "nature": 5360,
    "ouble": 2661,
    "expression": 10549,
    "Ġinstruct": 2861,
    "custom": 15335,
    "infer": 10146,
    "purposes": 25024,
    "Ġthrice": 10577,
    "brevi": 24076,
    "Ġreport": 6193,
    "Ġobeisance": 19761,
    "Ġcasually": 25096,
    "sper": 4435,
    "based": 2955,
    "Ġintroduction": 8972,
    "ht": 376,
    "Ġamid": 4959,
    "Ġappl": 1725,
    "Ġprender": 22240,
    "Ġfrighten": 13282,
    "discovering": 24253,
    "Ġbreezes": 14871,
    "¦": 104,
    "Ġdoubled": 19640,
    "Ġunfl": 22025,
    "Ġencountered": 8323,
    "relation": 19450,
    "Ġcatastrophic": 3544,
    "etting": 21584,
    "lifeless": 24313,
    "penetrating": 25491,
    "Ġflames": 7941,
    "Ġtastes": 15479,
    "reeable": 3614,
    "Ġfrom": 434,
    "Ġapolog": 9045,
    "Ġresources": 2933,
    "Ġsimul": 1804,
    "Ġdusk": 12330,
    "prodigious": 17468,
    "Ġcous": 3439,
    "Ġmercenary": 17195,
    "Ġforgetfulness": 14607,
    "Ġsmacking": 20168,
    "moving": 11017,
    "Ġjacket": 6490,
    "heim": 17747,
    "sol": 1787,
    "Ġtreatment": 12075,
    "Ġpropriety": 10012,
    "shelf": 20384,
    "Ġhorror": 3774,
    "Ġchilly": 25563,
    "onstrate": 17769,
    "Ġaccidentally": 9507,
    "Ġcontr": 1913,
    "Ġducking": 17148,
    "us": 532,
    "Ġcompos": 22575,
    "opence": 18508,
    "iline": 21725,
    "Ġmetaphysical": 26067,
    "jointed": 24014,
    "ominy": 13980,
    "Ġvolcano": 24149,
    "iding": 3848,
    "):": 11462,
    "Ġmarry": 4418,
    "pol": 5895,
    "impatience": 25501,
    "Ġintrospect": 15831,
    "Ġcharming": 6631,
    "Ġpierced": 12285,
    "Ġdecreasing": 2445,
    "sand": 21055,
    "Ġconfronted": 23308,
    "Ġengraved": 17081,
    "able": 452,
    "ils": 3179,
    "ival": 4227,
    "Ġslacked": 25189,
    "numbers": 17617,
    "Ġargue": 16784,
    "Ġconsp": 10226,
    "Ġmalady": 24391,
    "Ġreside": 22544,
    "Ġgunwale": 7325,
    "lot": 3205,
    "Ġsooty": 25816,
    "Ġvaliant": 9802,
    "Ġcountry": 2533,
    "original": 9087,
    "gra": 770,
    "ded": 2755,
    "Ġicebergs": 23978,
    "toller": 20675,
    "Ġnecessitates": 23933,
    "queequeg": 4335,
    "destroy": 19513,
    "sudden": 5316,
    "country": 6105,
    "Ġaback": 22281,
    "hedge": 22505,
    "Ġwrinkled": 7264,
    "Ġregained": 18593,
    "Ġpaved": 17915,
    "along": 6015,
    "Ġstump": 7603,
    "Ġbelieves": 14410,
    "ocation": 14627,
    "Ġparsonage": 7125,
    "Ġnecess": 3478,
    "number": 10116,
    "strade": 5065,
    "Ġprecipice": 19944,
    "deserving": 17247,
    "Ġ[": 6968,
    "Ġbuoyancy": 20045,
    "deli": 15347,
    "bott": 9108,
    "Ġperiodical": 14775,
    "Ġpenal": 1769,
    "Ġross": 2763,
    "ortunities": 15943,
    "Ġpeculiarity": 12937,
    "fac": 17542,
    "Ġuncontrollable": 25815,
    "Ġclams": 19992,
    "Ġfinny": 23130,
    "eleg": 20851,
    "Ġreproach": 9558,
    "aching": 5832,
    "Ġwhatever": 3476,
    "Ġdared": 5440,
    "turns": 14908,
    "bennet": 5353,
    "escaped": 14232,
    "acquired": 24297,
    "geon": 6272,
    "Ġeleventh": 23370,
    "Ġfurnace": 19443,
    "Ġfragment": 14519,
    "Ġrephrased": 26478,
    "Ġaristotle": 25818,
    "Ġrubbing": 9323,
    "Ġuse": 816,
    "Ġimpropriety": 17397,
    "Ġaudibly": 24770,
    "Ġchoosing": 19593,
    "connected": 1310,
    "Ġguernsey": 9353,
    "Ġgrind": 18735,
    "Ġspirits": 3700,
    "Ġridges": 16732,
    "Ġchoose": 5984,
    "Ġshone": 7404,
    "Ġshall": 1141,
    "sho": 6426,
    "Ġheroism": 24543,
    "Ġpoured": 8804,
    "salis": 25150,
    "Ġsurvivors": 25732,
    "Ġdames": 23476,
    "Ġinestimable": 17444,
    "holes": 12057,
    "Ġindisp": 18837,
    "octavo": 11386,
    "consequential": 26251,
    "hold": 3981,
    "Ġgeography": 23373,
    "Ġrejecting": 17051,
    "Ġlashed": 9200,
    "Ġaffidavit": 20726,
    "Ġendeavors": 16547,
    "Ġchemist": 11135,
    "Ġentirely": 3436,
    "Ġconfide": 13101,
    "rail": 10206,
    "Ġdodging": 19889,
    "everywhere": 23701,
    "reflect": 19867,
    "Ġbreathe": 9014,
    "Ġpiqu": 21481,
    "Ġreus": 8825,
    "itals": 17822,
    "Ġsaith": 14157,
    "agger": 7874,
    "Ġdab": 15591,
    "joke": 20932,
    "Ġimpediments": 26242,
    "born": 7543,
    "ures": 837,
    "ssip": 14081,
    "bulkington": 19927,
    "Ġabilities": 8870,
    "Ġexord": 21832,
    "Ġking": 2307,
    "prejudice": 25572,
    "bears": 22494,
    "Ġpredefined": 20719,
    "oundering": 11749,
    "admire": 24946,
    "Ġkicking": 16902,
    "ux": 7814,
    "Ġfleecy": 17024,
    "Ġalley": 15739,
    "welcome": 10003,
    "Ġdan": 8796,
    "Ġblunt": 11897,
    "Ġworst": 7444,
    "Ġbaron": 19336,
    "Ġspecimen": 13023,
    "Ġbrook": 13052,
    "Ġslowly": 3620,
    "Ġvess": 3296,
    "believe": 8305,
    "Ġenvied": 19293,
    "Ġpedd": 17912,
    "Ġalgorith": 562,
    "Ġsuspense": 9420,
    "Ġcharity": 8865,
    "dismay": 19156,
    "varying": 13806,
    "Ġwid": 4634,
    "Ġsurpasses": 25269,
    "aggra": 21911,
    "idirection": 2411,
    "Ġkentuckian": 26344,
    "Ġairy": 23317,
    "por": 2152,
    "Ġeternity": 12282,
    "Ġhousekeeper": 7456,
    "footed": 19692,
    "Ġlatent": 19658,
    "dor": 12455,
    "Ġisle": 8836,
    "rowed": 22866,
    "modesty": 22857,
    "Ġdundee": 16998,
[...]
