{
  "metadata": {
    "vocab_size": 26616,
    "algorithm": "BPE",
    "created_at": "2026-09-04 06:54:59",
    "special_tokens": [
      "<PAD>",
      "<SOS>",
      "<EOS>",
      "<UNK>",
      "<MASK>"
    ]
  },
  "vocab": {
    "Ġmysteriously": 24602,
    "Ġ1846": 26085,
    "Ġgushed": 21610,
    "Ġpowder": 11277,
    "Ġwantest": 18791,
    "Ġindependence": 12109,
    "udding": 11869,
    "Ġlet": 1110,
    "should": 3263,
    "Ġcrosswise": 18888,
    "nurs": 21001,
    "spoke": 11025,
    "Ġquenched": 22421,
    "Ġtrusting": 24107,
    "algorith": 3519,
    "Ġbur": 2694,
    "Ġredden": 15698,
    "Ġadmits": 23556,
    "Ġwhirlp": 16965,
    "conside": 9293,
    "Ġcastaway": 16643,
    "Ġmaintenance": 17464,
    "Ġbl": 1189,
    "ferent": 4191,
    "mock": 5174,
    "irious": 15790,
    "quohog": 21856,
    "humanity": 24840,
    "Ġbohem": 8529,
    "Ġre": 317,
    "Ġdiminishing": 4205,
    "wanted": 10745,
    "Ġproducts": 5198,
    "Ġunrolled": 22040,
    "Ġroom": 1464,
    "Ġirritated": 17244,
    "chors": 11647,
    "Ġmarsh": 9824,
    "lowering": 16033,
    "Ġemerge": 14931,
    "arrang": 14654,
    "Ġthinner": 24184,
    "cadence": 26126,
    "Ġsho": 2243,
    "hies": 17562,
    "miseries": 16759,
    "entitled": 21571,
    "Ġdreamt": 23942,
    "Ġglass": 4369,
    "news": 23137,
    "means": 9789,
    "deeply": 16168,
    "Ġart": 750,
    "extinguish": 22766,
    "Ġenraptured": 26502,
    "Ġhiss": 15792,
    "Ġtruthful": 23870,
    "Ġdaboll": 25951,
    "Ġkindling": 19032,
    "Ġdeject": 10883,
    "seaman": 25458,
    "adopt": 25545,
    "Ġerudite": 26353,
    "phology": 3013,
    "Ġbricks": 13565,
    "Ġstops": 3171,
    "Ġfisherman": 12080,
    "Ġquality": 3528,
    "Ġconnect": 797,
    "idol": 21770,
    "hetic": 12208,
    "Ġuntidy": 23524,
    "situation": 11439,
    "Ġreported": 11984,
    "Ġel": 801,
    "Ġnurtured": 19752,
    "Ġtriumphal": 24371,
    "Ġpurchased": 12265,
    "houn": 20895,
    "Ġmoreover": 6165,
    "Ġwhittling": 20702,
    "Ġwh": 328,
    "Ġsash": 17756,
    "Ġreckoning": 14982,
    "Ġ&": 6514,
    "Ġproblem": 1269,
    "Ġdrunken": 12054,
    "Ġcognitive": 13637,
    "Ġopenness": 18958,
    "employ": 10897,
    "Ġmagnitude": 1943,
    "goodness": 19290,
    "Ġmisery": 3812,
    "Ġdrank": 16536,
    "inition": 11559,
    "Ġfanning": 23393,
    "deadly": 17101,
    "Ġcompassion": 6488,
    "showing": 22455,
    "Ġembarked": 17137,
    "Ġnursing": 12219,
    "Ġgramm": 8171,
    "lively": 12489,
    "Ġshades": 9466,
    "Ġjourney": 3876,
    "Ġdominant": 12400,
    "Ġtelesc": 12996,
    "Ġtemperature": 1006,
    "hue": 20901,
    "two": 3857,
    "Ġplaint": 10328,
    "Ġabused": 22273,
    "Ġcalculate": 13267,
    "Ġpaddled": 20204,
    "Ġscr": 11764,
    "eridge": 15529,
    "glit": 23853,
    "neurons": 3138,
    "))": 1516,
    "Ġconsent": 5372,
    "Ġcorpulence": 24509,
    "Ġabsurdly": 19963,
    "warmly": 25029,
    "icial": 12661,
    "subtle": 24246,
    "Ġoppress": 13175,
    "Ġoaks": 16935,
    "igner": 21705,
    "beholding": 16044,
    "Ġphaeton": 17467,
    "Ġpunctilious": 26355,
    "bert": 4663,
    "Ġprendergast": 26539,
    "eastward": 15133,
    "Ġdif": 872,
    "Ġnobleman": 19395,
    "jets": 20930,
    "Ġunwell": 22019,
    "Ġfirmest": 16667,
    "Ġwages": 13857,
    "Ġrusty": 14967,
    "ancy": 4395,
    "rential": 22921,
    "observed": 7676,
    "Ġreads": 23118,
    "Ġpine": 8801,
    "Ġasi": 12738,
    "Ġco": 729,
    "Ġshadow": 5596,
    "Ġsinews": 20290,
    "Ġseal": 10259,
    "fishermen": 17063,
    "unnatural": 15777,
    "fortun": 3539,
    "Ġrequires": 1031,
    "era": 13850,
    "increasing": 20272,
    "castle": 3349,
    "ahead": 12438,
    "Ġtwinkled": 14315,
    "ain": 343,
    "izing": 1068,
    "Ġclearer": 16315,
    "Ġswan": 23054,
    "Ġme": 353,
    "Ġcannon": 14153,
    "Ġop": 2600,
    "Ġflat": 8228,
    "excellent": 8044,
    "Ġeaten": 14848,
    "ander": 6402,
    "rigging": 20009,
    "Ġallured": 14116,
    "Ġcheek": 8581,
    "Ġrooms": 5180,
    "tor": 15435,
    "Ġofficio": 23819,
    "woe": 21138,
    "mission": 5971,
    "Ġremainder": 9861,
    "Ġopened": 3511,
    "igators": 18048,
    "Ġcharacteristic": 12052,
    "Ġgloves": 8578,
    "Ġworshipping": 22931,
    "wonders": 17146,
    "derment": 22170,
    "Ġskewer": 19623,
    "Ġdashing": 8800,
    "Ġnormalization": 1243,
    "Ġadopted": 15182,
    "Ġnobler": 14178,
    "Ġstay": 3098,
    "Ġdeliciousness": 24128,
    "innocence": 15187,
    "Ġinfirm": 19022,
    "carry": 19529,
    "ible": 1114,
    "Ġdoubts": 8583,
    "ios": 2299,
    "Ġstrings": 11835,
    "Ġimprisonment": 22393,
    "foreseen": 14256,
    "determination": 19948,
    "hauled": 20671,
    "bbles": 13695,
    "Ġinoffensive": 21501,
    "define": 1525,
    "ust": 496,
    "instinct": 19546,
    "Ġmizen": 17261,
    "Ġtinkling": 25213,
    "Ġmeditation": 16707,
    "Ġincl": 4268,
    "Ġforbearing": 25101,
    "apparat": 22847,
    "Ġdismantled": 20219,
    "Ġbewil": 11660,
    "mary": 8752,
    "Ġinvite": 14565,
    "Ġemir": 23353,
    "evidence": 25522,
    "orrah": 17877,
    "Ġcranes": 20386,
    "Ġporpoises": 13385,
    "Ġsciences": 15948,
    "friendly": 13288,
    "Ġgret": 21604,
    "neglected": 25669,
    "twist": 23700,
    "belongs": 25597,
    "Ġdecanter": 22443,
    "Ġabilities": 8870,
    "arrow": 4177,
    "recol": 10153,
    "german": 11494,
    "ool": 17620,
    "Ġindependent": 9019,
    "Ġdepartments": 24245,
    "Ġserpents": 13080,
    "programming": 10066,
    "withdrawn": 23031,
    "estation": 15924,
    "fetch": 12469,
    "etuous": 21586,
    "dest": 4101,
    "Ġbetake": 22910,
    "Ġrearing": 12683,
    "ious": 769,
    "ay": 355,
    "ense": 2053,
    "through": 4023,
    "Ġsacred": 10932,
    "Ġ81": 24457,
    "Ġsqualid": 14371,
    "weeks": 14319,
    "ortunities": 15945,
    "Ġcabin": 3302,
    "perplex": 18345,
    "Ġ80": 24456,
    "Ġmagnanimous": 17414,
    "Ġcorporeally": 25729,
    "Ġrepeat": 8000,
    "Ġknives": 14840,
    "Ġawfulness": 23589,
    "Ġlurks": 11292,
    "Ġsuav": 22080,
    "Ġsomehow": 4843,
    "Ġsmiting": 12904,
    "rit": 21038,
    "Ġingen": 9052,
    "hammer": 14491,
    "ò": 179,
    "olic": 14045,
    "Ġlandlord": 5581,
    "Ġnarrow": 5086,
    "clergy": 18936,
    "Ġgratefully": 20448,
    "Ġghost": 6144,
    "Ġsnap": 11203,
    "Ġcontrive": 16014,
    "Ġorbs": 22094,
    "Ġbreaks": 13186,
    "usual": 5842,
    "Ġmanners": 3789,
    "Ġoptimizer": 5035,
    "ir": 379,
    "Ġmur": 2487,
    "disposed": 25013,
    "Ġgovernments": 20270,
    "adieu": 26202,
    "Ġcontinued": 2923,
    "Ġorlop": 22095,
    "Ġejac": 10206,
    "Ġwhose": 2009,
    "Ġinvestigated": 25387,
    "Ë": 140,
    "Ġmid": 2612,
    "Ġscolded": 25473,
    "ike": 5000,
    "Ġfoiled": 23247,
    "Ġyielded": 14875,
    "pilot": 25909,
    "Ġcrystall": 20229,
    "Ġstructures": 2718,
    "Ġfortune": 4238,
    "flo": 6116,
    "Ġf": 283,
    "coat": 5407,
    "Ġdegraded": 19229,
    "Ġbattering": 13904,
    "Ġessentially": 24925,
    "Ġappro": 659,
    "Ġreplenished": 13639,
    "Ġdisregard": 22532,
    "disguise": 26307,
    "Ġlullaby": 20591,
    "Ġcharacter": 2791,
    "whiskers": 12315,
    "Ġaim": 10148,
    "Ġowed": 10782,
    "Ġstores": 18074,
    "sim": 6511,
    "Ġtypewriting": 16424,
    "isen": 10794,
    "Ġtries": 9153,
    "Ġuses": 1211,
    "Ġlimited": 23547,
    "mon": 2307,
    "elling": 5831,
    "warks": 5004,
    "Ġobservations": 13556,
    "ersman": 11705,
    "Ġverge": 23890,
    "Ġscheme": 7066,
    "Ġdemanding": 16807,
    "Ġrelating": 2703,
    "Ġfurn": 3710,
    "ariously": 18525,
    "Ġretrieval": 10677,
    "Ġconveys": 16857,
    "Ġmort": 3456,
    "enary": 12556,
    "Ġdeafened": 25652,
    "Ġinherit": 25353,
    "Ġtrib": 13822,
    "Ġcocks": 18592,
    "leman": 21371,
    "Ġdisquiet": 18553,
    "Ġdeterminate": 23007,
    "orously": 8420,
    "ships": 5486,
    "latter": 15386,
    "ortunity": 4405,
    "Ġfind": 1458,
    "Ġcumberland": 21358,
    "eager": 12464,
    "Ġexcluded": 16388,
    "Ġhad": 444,
    "Ġsto": 1500,
    "const": 5940,
    "plumed": 21959,
    "utch": 21589,
    "Ġaccount": 2319,
    "Ġhamper": 19392,
    "complied": 19915,
    "Ġmisty": 16542,
    "Ġconjure": 17126,
    "Ġhogshe": 20495,
    "Ġparticular": 2448,
    "accidents": 19215,
    "Û": 156,
    "Ġnugent": 26459,
    "Ġtreas": 7358,
    "bec": 4051,
    "stige": 21658,
    "itous": 13870,
    "Ġline": 1849,
    "Ġsupplement": 23005,
    "Ġministers": 22836,
    "recurrent": 4994,
    "Ġvacancy": 9047,
    "especially": 3572,
    "Ġechoed": 20427,
    "firm": 10700,
    "Ġprometheus": 15296,
    "Ġwest": 5219,
    "Ġheathenish": 13619,
    "Ġtitle": 11410,
    "written": 7995,
    "rule": 15900,
    "cring": 20813,
    "Ġimpart": 11784,
    "Ġlun": 7856,
    "evenings": 19466,
    "shook": 19858,
    "atches": 13849,
    "orient": 2878,
    "Ġsix": 3048,
    "Ġclings": 15967,
    "Ġmutinous": 23961,
    "onies": 6807,
    "Ġceti": 24772,
    "Ġskirts": 14356,
    "distant": 13338,
    "fort": 1746,
    "breathing": 25336,
    "rably": 21636,
    "Ġsight": 2112,
    "standing": 5558,
    "Ġheedful": 19743,
    "offing": 23335,
    "fiercely": 25257,
    "Ġsnatching": 10474,
    "indebted": 26159,
    "Ġwant": 1119,
    "voices": 21120,
    "ture": 7559,
    "izon": 18136,
    "neural": 3070,
    "Ġarchitect": 977,
    "Ġoperate": 19117,
    "sander": 11529,
    "Ġprolong": 6832,
    "sto": 3203,
    "Ġunra": 18238,
    "Ġbottles": 16573,
    "etency": 21585,
    "asis": 12656,
    "does": 6196,
    "Ġarrival": 4732,
    "Ê": 139,
    "Ġinsist": 9893,
    "Ġnought": 21525,
    "of": 767,
    "Ġwidow": 8666,
    "brothers": 17026,
    "Ġantilles": 24181,
    "olly": 3228,
    "Ġplucked": 15117,
    "arm": 1357,
    "rown": 2192,
    "Ġflip": 11916,
    "Ġpalsy": 25779,
    "Ġbou": 17854,
    "Ġforce": 5092,
    "masculine": 24387,
    "Ġschools": 9480,
    "Ġbuoyant": 13534,
    "sham": 9760,
    "Ġovercame": 9749,
    "Ġmyst": 4049,
    "Ġacquiring": 2764,
    "Ġarabian": 9093,
    "Ġremorseless": 13454,
    "uy": 21102,
    "================================================================": 9993,
    "ven": 781,
    "Ġresumed": 11816,
    "turtle": 12216,
    "believed": 9936,
    "Ġbashaw": 25634,
    "Ġwrecked": 9969,
    "Ġstatement": 5255,
    "Ġinvent": 7165,
    "ower": 1018,
    "soft": 12514,
    "Ġelijah": 9103,
    "relapse": 24019,
    "Ġfilters": 3923,
    "retrospect": 23144,
    "Ġbackstays": 22666,
    "Ġsmooth": 2776,
    "consequ": 18507,
    "arity": 1303,
    "Ġsuggested": 8321,
    "her": 489,
    "sign": 8388,
    "Ġsurvive": 9069,
    "Ġpainful": 6463,
    "calabash": 22900,
    "hammad": 23266,
    "Ġlonging": 14302,
    "Ġmadden": 10449,
    "Ġraised": 4661,
    "Ġcelerity": 17439,
    "retreat": 23142,
    "Ġhighness": 22774,
    "Ġcorrob": 16268,
    "Ġshoot": 11163,
    "your": 1985,
    "bowsprit": 16855,
    "gged": 3776,
    "Ġproduce": 4367,
    "Ġmurdered": 6465,
    "Ġbade": 9174,
    "Ġd": 284,
    "oran": 8793,
    "Ġspend": 5306,
    "umbers": 10920,
    "ĠĠĠĠĠĠĠĠĠĠĠĠĠĠĠĠĠĠĠĠĠĠĠĠ": 5322,
    "Ġmob": 16021,
    "Ġleathern": 15052,
    "ille": 9222,
    "Ġhonestly": 19975,
    "Ġscriptures": 26237,
    "Ġrecursive": 4783,
    "Ġsquared": 1382,
    "Ġformer": 3322,
    "sample": 12511,
    "Ġcontingency": 26246,
    "Ġisolated": 13562,
    "Ġtimor": 24227,
    "james": 15376,
    "Ġsettling": 11064,
    "ipper": 13743,
    "loo": 10322,
    "stun": 18018,
    "cul": 1899,
    "rig": 7557,
    "Ġpugnacious": 26453,
    "haz": 17566,
    "Ġowners": 7664,
    "Ġtechni": 1663,
    "critters": 14778,
    "bethink": 25745,
    "Ġbrid": 6292,
    "ice": 590,
    "Ġsli": 4749,
    "uation": 17696,
    "Ġprudence": 13923,
    "Ġbegged": 8231,
    "Ġoccupied": 5273,
    "ification": 988,
    "ave": 980,
    "Ġwat": 1288,
    "Ġhurriedly": 11250,
    "Ġappropriate": 2247,
    "----âĢĿ": 13310,
    "weigh": 18666,
    "iates": 13740,
    "Ġexposed": 8525,
    "sockets": 22728,
    "Ġsits": 10770,
    "spending": 18688,
    "Ġsquires": 16184,
    "keel": 14131,
    "Ġconsume": 12964,
    "Ġrepeating": 11215,
    "piteous": 21036,
    "Ġvouch": 15813,
    "horner": 23616,
    "Ġamsterdam": 22488,
    "Ġcaulk": 25441,
    "Ġwhirling": 12253,
    "Ġprevent": 757,
    "repaid": 24491,
    "uger": 21106,
    "smitten": 23912,
    "Ġneck": 4886,
    "Ġgoug": 17993,
    "Ġfill": 5701,
    "whispering": 26104,
    "here": 2547,
    "quently": 9705,
    "itable": 5437,
    "Ġairs": 14514,
    "Ġcitadel": 25439,
    "Ġbenefactor": 14700,
    "Ġcot": 13880,
    "poison": 14396,
    "hearted": 6971,
    "Ġspace": 1541,
    "Ġbroke": 5323,
    "Ġanswerable": 23472,
    "folio": 10549,
    "Ġstop": 2499,
    "Ġopulence": 23629,
    "Ġbubblingly": 25633,
    "Ġbrotherly": 16529,
    "Ġprovoked": 13329,
    "unable": 14062,
    "Ġentertainment": 12227,
    "Ġampl": 22484,
    "Ġdivide": 12115,
    "adam": 15734,
    "Ġranged": 10260,
    "Ġdoubly": 16389,
    "Ġones": 3025,
    "Ġwhoever": 10975,
    "cru": 7128,
    ";âĢĻ": 15306,
    "Ġvigilant": 20187,
    "phants": 9325,
    "Ġsure": 1865,
    "Ġord": 3735,
    "sway": 15428,
    "determ": 7107,
    "devouring": 24953,
    "Ġdistinct": 4610,
    "Ġsmote": 18575,
    "rospect": 11615,
    "Ġforbidding": 17080,
    "okers": 18442,
    "securing": 19816,
    "Ġgolden": 5337,
    "Ġfreshe": 13073,
    "Ġgallant": 8658,
    "onstrate": 17770,
    "Ġdismay": 11813,
    "Ġdinners": 23985,
    "Ġstable": 2696,
    "Ġvault": 8845,
    "imprudent": 14653,
    "Ġpropose": 9856,
    "outer": 9671,
    "Ġdepicting": 22610,
    "alse": 4182,
    "Ġemblazonings": 26043,
    "gives": 15361,
    "Ġbubbles": 11400,
    "Ġsallied": 12542,
    "Ġepoch": 26473,
    "Ġru": 947,
    "Ġthoughtlessness": 16197,
    "frisco": 16789,
    "Ġeurope": 8062,
    "Ġdecomposition": 5343,
    "nigh": 13766,
    "Ġpreserving": 19799,
    "ð": 177,
    "enchanted": 26426,
    "Ġmorbidness": 20631,
    "Ġmustering": 18663,
    "Ġcongreg": 8464,
    "uniform": 18160,
    "Ġmiller": 19885,
    "Ġpinched": 17036,
    "Ġrally": 21972,
    "capital": 15092,
    "Ġhated": 7586,
    "Ġpallet": 21483,
    "Ġoffer": 4845,
    "Ġhide": 4590,
    "Ġsymmetrical": 20370,
    "Ġsquid": 11882,
    "Ġtelescope": 17351,
    "Ġaccomplishments": 13382,
    "Ġtrail": 16286,
    "Ġexpon": 968,
    "Ġspray": 7895,
    "unearthly": 19275,
    "Ġmacey": 12568,
    "Ġnur": 5710,
    "Ġbo": 796,
    "value": 18810,
    "Ġexists": 14044,
    "throw": 14101,
    "Ġethere": 23954,
    "Ġtops": 14588,
    "eneva": 5118,
    "Ġwhipping": 21719,
    "Ġinit": 816,
    "Ġbethinking": 25280,
    "Ġboard": 3382,
    "fow": 20855,
    "Ġferoc": 14900,
    "Ġprophets": 20453,
    "Ġimpetuously": 20375,
    "ores": 2413,
    "Ġdews": 21843,
    "Ġmol": 12566,
    "pleasantness": 19773,
    "wood": 5899,
    "Ġjabez": 11770,
    "breat": 10081,
    "Ġempty": 5354,
    "Ġxxxi": 24969,
    "Ġur": 5540,
    "Ġimparted": 15992,
    "pleasing": 14745,
    "Ġspanish": 2824,
    "Ġfeared": 5932,
    "Ġmetropolis": 17277,
    "Ġswayed": 15050,
    "fishers": 24929,
    "urious": 21706,
    "Ġtakings": 20575,
    "Ġtradesmen": 17106,
    "etical": 13961,
    "Ġrob": 1280,
    "meas": 7434,
    "pl": 401,
    "getic": 12971,
    "drowned": 17372,
    "Ġmarvelled": 18875,
    "Ġfather": 1452,
    "Ġdynamic": 5124,
    "ises": 3653,
    "circumspect": 26087,
    "Ġexal": 10879,
    "thank": 4950,
    "indifferent": 14214,
    "Ġamiable": 4267,
    ".âĢĻâĢĿ": 6741,
    "Ġgot": 2276,
    "Ġpeaceable": 14726,
    "ceed": 1075,
    "Ġstochastic": 3267,
    "ocratic": 17247,
    "Ġbulb": 23858,
    "Ġwhether": 2001,
    "attached": 11939,
    "houses": 9602,
    "Ġbefore": 809,
    "Ġraiment": 22656,
    "uding": 16154,
    "Ġunfitted": 24110,
    "Ġimpute": 18332,
    "Ġbrains": 2626,
    "Ġwould": 651,
    "judging": 24204,
    "Ġcount": 1814,
    "tal": 17672,
    "Ġuseful": 3558,
    "artificial": 943,
    "Ġtistig": 26415,
    "Ġrabbit": 4287,
    "ray": 2435,
    "engagement": 14461,
    "Ġim": 475,
    "urged": 18051,
    "Ġrepel": 23362,
    "Ġfold": 5531,
    "Ġeditions": 19154,
    "Ġlifeless": 8951,
    "Ġreluctant": 20528,
    "Ġescapes": 23509,
    "Ė": 215,
    "Ġspade": 9262,
    "arched": 10817,
    "Ġisinglass": 21806,
    "lucifer": 25302,
    "Ġalternately": 15034,
    "Ġcanvas": 7784,
    "Ġbeale": 12705,
    "pus": 3413,
    "Ġenhancement": 23754,
    "keepers": 16662,
    "which": 1708,
    "pike": 11517,
    "mangled": 20983,
    "Ġjoining": 13167,
    "Ġpettiness": 24232,
    "Ġspite": 4153,
    "mency": 18928,
    "Ġstern": 4220,
    "Ġhospital": 15042,
    "shock": 19857,
    "Ġrand": 1580,
    "Ġstones": 9226,
    "ploy": 2037,
    "Ġberg": 24536,
    "oses": 3943,
    "Ġcontradict": 12389,
    "ut": 308,
    "Ġsaturn": 22905,
    "historical": 20469,
    "Ġimprinted": 22395,
    "Ġtheme": 16022,
    "battle": 12446,
    "cc": 469,
    "cool": 19189,
    "Ġumbrella": 15269,
    "Ġexpressing": 12013,
    "windibank": 24163,
    "æ": 167,
    "Ġshaping": 22007,
    "Ġflame": 7448,
    "Ġrealising": 18983,
    "Ġtreats": 19347,
    "Ġoily": 13867,
    "Ġpursued": 6330,
    "Ġdesignated": 19524,
    "Ġrheum": 18215,
    "Ġpleasantly": 14522,
    "frankenstein": 11393,
    "Ġaddresses": 3767,
    "marriage": 7745,
    "Ġmedit": 8025,
    "dorff": 15241,
    "Ġincident": 6282,
    "mastod": 23977,
    "spades": 14334,
    "Ġdaugh": 2291,
    "ersburgh": 18216,
    "Ġspeckled": 14309,
    "pped": 1999,
    "Ġinno": 1438,
    "89": 20761,
    "cim": 8723,
    "total": 17253,
    "icious": 7380,
    "Ġpulled": 5660,
    "Ġprior": 11320,
    "like": 1886,
    "sullenly": 26150,
    "Ġlandowner": 23384,
    "Ġlike": 667,
    "ade": 882,
    "Ġsubstituting": 26328,
    "Ġfreedom": 9085,
    "Ġakin": 15498,
    "uendoes": 26409,
    "Ġbeaches": 18087,
    "Ġindolence": 16233,
    "isco": 12587,
    "Ġinevitably": 17233,
    "ows": 1916,
    "Ġpresented": 5183,
    "upt": 13801,
    "jected": 22717,
    "Ġflank": 8229,
    "Ġinvade": 19144,
    "č": 206,
    "Ġregulate": 22590,
    "stayed": 25291,
    "Ġdisciple": 22783,
    "Ġsigmoid": 2461,
    "Ġterra": 13120,
    "istical": 8492,
    "Ġmazes": 25941,
    "Ġpresents": 8245,
    "Ġmeridians": 17358,
    "escript": 18472,
    "Ġsoaring": 22090,
    "floated": 24644,
    "9": 29,
    "iously": 2674,
    "Ġlambton": 10660,
    "form": 498,
    "Ġdodo": 9075,
    "Ġha": 400,
    "Ġfrantic": 7957,
    "Ġcompanions": 5867,
    "lit": 9608,
    "Ġagrippa": 11811,
    "deployment": 26529,
    "Ġaffection": 2636,
    "Ġassented": 17341,
    "Ġ}": 21156,
    "Ġshr": 4223,
    "mews": 22715,
    "Ġrepugnance": 19088,
    "rayed": 23564,
    "arer": 3966,
    "Ġrenounce": 19471,
    "mysteries": 26051,
    "âĢĶâĢĿ": 3299,
    "Ġbower": 15571,
    "bey": 10316,
    "Ġramadan": 9578,
    "Ġjavan": 25000,
    "Ġlashed": 9201,
    "Ġfrenchman": 11285,
    "Ġreus": 8826,
    "Ġaux": 21202,
    "magnetic": 20555,
    "Ġfloating": 6606,
    "Ġsigning": 22711,
    "Ġhorizontal": 7783,
    "Ġsurf": 19133,
    "Ġmin": 1026,
    "ribly": 8255,
    "Ġcoloss": 11048,
    "Ġpat": 1805,
    "Ġbanqu": 12594,
    "behind": 6780,
    "tranquillity": 20549,
    "Ġmoccas": 22438,
    "Ġillust": 8263,
    "kindled": 16663,
    "Ġdemean": 12729,
    "Ġapril": 13665,
    "Ġprognost": 15285,
    "Ġappals": 22222,
    "Ġbeck": 14012,
    "libra": 22928,
    "Ġheroes": 10579,
    "Ġintending": 11708,
    "Ġdarts": 16770,
    "Ġy": 341,
    "braid": 17497,
    "history": 15017,
    "Ġslumbers": 18944,
    "Ġsovereign": 10065,
    "Ġstoutly": 16926,
    "udg": 22771,
    "Ġsegment": 12763,
    "Ġreducing": 1956,
    "Ġbamboo": 17440,
    "Ġofficially": 24839,
    "col": 3106,
    "Ġdegener": 14053,
    "custom": 15336,
    "ck": 437,
    "peare": 18913,
    "Ġevermore": 18813,
    "mediterranean": 16408,
    "Ġflooring": 23625,
    "atiable": 17776,
    "Ġunsupplied": 22045,
    "bruary": 15239,
    "Ġtimidly": 11340,
    "Ġfrequented": 16588,
    "Ġtainted": 21173,
    "Ġmaking": 1779,
    "hands": 5968,
    "Ġcretan": 22725,
    "inese": 12889,
    "Ġrounds": 18887,
    "Ġdepth": 2436,
    "Ġwithered": 19468,
    "belais": 24041,
    "adequate": 15207,
    "is": 280,
    "excitement": 19672,
    "Ġsubsiding": 23436,
    "Ġwelcome": 5604,
    "atic": 4017,
    "scruple": 26045,
    "face": 3677,
    "sail": 3603,
    "Ġresources": 2938,
    "follows": 24528,
    "Ġpasses": 2676,
    "correspond": 13401,
    "Ġvariants": 1791,
    "Ġunseasonable": 26522,
    "sheep": 23089,
    "Ġwhosoever": 21722,
    "Ġcircumnavigation": 20403,
    "Ġthanking": 18603,
    "lo": 679,
    "Ġsqu": 1038,
    "breakfast": 8691,
    "Ġpower": 1222,
    "atively": 2692,
    "Ġelse": 2479,
    "Ġinformed": 6719,
    "Ġmortally": 23920,
    "Ġtribute": 15478,
    "Ġnurse": 9520,
    "Ġevangelical": 25507,
    "infor": 2855,
    "Ġcommanding": 16592,
    "chet": 13220,
    "Ġhowever": 1307,
    "Ġmorals": 22975,
    "Ġorganically": 3016,
    "Ġvor": 15810,
    "Ġincorporated": 25710,
    "Ġtraps": 23083,
    "finds": 19929,
    "faint": 17547,
    "colonel": 8285,
    "?": 35,
    "ic": 304,
    "mountain": 10715,
    "Ġtechn": 9369,
    "appearing": 14639,
    "Ġpleasurable": 23341,
    "chants": 21695,
    "Ġmot": 2989,
    "lantic": 6365,
    "Ġtweed": 22680,
    "Ġunsounded": 15853,
    "itating": 9653,
    "fri": 20856,
    "pulled": 25148,
    "Ġoutwardly": 25001,
    "Ġsequel": 14359,
    "afraid": 10443,
    "inite": 6003,
    "Ġcompleted": 9000,
    "Ġconver": 805,
    "Ġintently": 8169,
    "n": 82,
    "Ġthroughout": 8880,
    "Ġsum": 2697,
    "screw": 9349,
    "Ġungrateful": 14124,
    "Ġscotch": 12214,
    "ensity": 11817,
    "Ġvic": 5237,
    "ricade": 13043,
    "dissemble": 23494,
    "Ġdug": 21433,
    "Ġclump": 15969,
    "Ġsusp": 2661,
    "Ġwind": 1431,
    "shri": 14236,
    "Ġroanoke": 22410,
    "violent": 14582,
    "Ġseason": 5238,
    "Ġappal": 18360,
    "Ġastern": 6091,
    "igning": 12687,
    "Ġhush": 13214,
    "Ġbasin": 19850,
    "atical": 10773,
    "Ġfragrant": 13091,
    "Ġregulations": 18600,
    "Ġstupidity": 15053,
    "Ġconductor": 24010,
    "omely": 21662,
    "Ġhos": 4942,
    "uneven": 23684,
    "Ġcomfort": 3436,
    "Ġharvest": 13418,
    "Ġstrands": 25575,
    "Ġsentence": 6189,
    "Ġcustom": 5078,
    "Ġpronounced": 8351,
    "Ġpay": 3961,
    "wit": 7817,
    "skin": 10571,
    "Ġlets": 18066,
    "Ġreptile": 15281,
    "Ġarthur": 7196,
    "ķ": 248,
    "Ġflattened": 26048,
    "Ġhateful": 19716,
    "izz": 7614,
    "charmed": 21699,
    "Ġsepulchre": 20562,
    "Ġfiles": 21416,
    "ĠĠĠĠĠĠĠĠĠĠĠĠĠ": 22566,
    "fted": 9121,
    "Ġapparatus": 24909,
    "Ġdomin": 10470,
    "Ġcobb": 14275,
    "Ġ76": 24265,
    "shortly": 12263,
    "Ġsequential": 2133,
    "Ġdestitute": 14568,
    "able": 452,
    "Ġundergo": 23239,
    "Ġprofile": 16490,
    "Ġcav": 13883,
    "Ġengine": 1918,
    "Ġimaginations": 16518,
    "itively": 21334,
    "rocious": 21542,
    "Ġreinforcement": 3133,
    "Ġtrembling": 7482,
    "Ġissued": 10602,
    "Ġmaintains": 2144,
    "umber": 5241,
    "ur": 326,
    "Ġsavann": 14686,
    "Ġstained": 11655,
    "grown": 10102,
    "returned": 7766,
    "Ġweakness": 9970,
    "Ġburial": 16523,
    "strugg": 21659,
    "Ġcasual": 11411,
    "!âĢĿ": 845,
    "ods": 8839,
    "Ġsuck": 15863,
    "merged": 11195,
    "Ġindulge": 10585,
    "handkerchief": 14619,
    "definition": 23123,
    "Ġpatted": 16383,
    "Ġtri": 4814,
    "out": 468,
    "Ġby": 383,
    "Ġassu": 21901,
    "Ġbos": 4876,
    "anchor": 13892,
    "Ġmission": 13010,
    "Ġphr": 2678,
    "Ġsensation": 6896,
    "Ġhanding": 16134,
    "mad": 5281,
    "thrill": 25657,
    "occasional": 19579,
    "Ġsatisfying": 23696,
    "chorus": 19814,
    "Ġislanders": 19505,
    "Ġdeclines": 23966,
    "agrad": 2744,
    "Ġsweet": 3462,
    "ime": 625,
    "Ġlesson": 7276,
    "bearings": 25372,
    "Ġseasons": 9434,
    "Ġjackets": 19605,
    "intimate": 22940,
    "Ġcoll": 8221,
    "Ġclean": 5652,
    "Ġcontribut": 12865,
    "ç": 168,
    "Ġinhaled": 25452,
    "Ġquestion": 2775,
    "roar": 17955,
    "glings": 23854,
    "Ġident": 2238,
    "entering": 17979,
    "Ġhorrors": 10482,
    "hide": 10705,
    "footman": 17165,
    "Ġcrest": 12946,
    "Ġlighting": 13086,
    "Ġdissu": 18551,
    "fare": 7799,
    "secre": 18129,
    "Ġfailing": 12142,
    "Ġheedless": 14906,
    "Ġimpact": 10299,
    "Ġxxi": 24476,
    "plete": 10921,
    "proof": 16427,
    "Ġrelied": 16198,
    "astonished": 15035,
    "urry": 13997,
    "sings": 4249,
    "Ġnegative": 1465,
    "Ġpossible": 2582,
    "Ġprimal": 17108,
    "Ġfowler": 16939,
    "._": 3223,
    "Ġcommander": 8628,
    "Ġconfusion": 7273,
    "Ġproportion": 7281,
    "Ġensures": 3060,
    "Ġpredefined": 20719,
    "Ġresp": 2492,
    "Ġmagazine": 23103,
    "Ġvoyagings": 19238,
    "izabeth": 909,
    "Ġshouted": 5348,
    "Ġrains": 24340,
    "Ġirrevocably": 15301,
    "Ġtrials": 16791,
    "Ġstead": 5650,
    "ad": 337,
    "Ġstr": 771,
    "Ġhermits": 22078,
    "Ġaccelerate": 23228,
    "obscure": 23101,
    "Ġtwisting": 18659,
    "Ġdubious": 17386,
    "Ġshamefully": 24715,
    "Ġconv": 2972,
    "Ġowner": 8926,
    "upwards": 18866,
    "Ġscreamed": 9527,
    "regular": 3046,
    "injustice": 17739,
    "Ġunquestion": 18249,
    "Ġsax": 10931,
    "endar": 18365,
    "Ġhelpless": 8302,
    "Ġuniversal": 2231,
    "Ġpint": 17910,
    "uss": 8767,
    "Ġpacific": 5153,
    "Ġsomewhere": 5384,
    "distinct": 13339,
    "Ġcomposed": 8895,
    "Ġconfession": 11237,
    "ard": 466,
    "Ġbrigs": 20325,
    "stache": 15693,
    "Ġsale": 14157,
    "Ġvener": 8164,
    "Ġconducting": 16652,
    "Ġfingertips": 24020,
    "sick": 13787,
    "Ġserve": 9372,
    "Ġnarrated": 14874,
    "pul": 8757,
    "Ġimplicate": 24877,
    "handed": 7483,
    "diss": 17525,
    "Ġwashing": 9708,
    "horses": 17569,
    "Ġripples": 25506,
    "faith": 15027,
    "Ġbreed": 19073,
    "Ġlights": 8963,
    "mild": 15395,
    "Ġsymb": 2589,
    "Ġtoy": 15638,
    "shop": 14238,
    "Ġenchant": 7185,
    "reated": 10305,
    "Ġlan": 5821,
    "also": 7851,
    "rages": 15685,
    "Ġavoided": 13262,
    "barbaric": 26360,
    "Ġwhirl": 13452,
    "ript": 4150,
    "slee": 17171,
    "Ġconverts": 2802,
    "Ġconjectures": 16927,
    "lesson": 22773,
    "qualified": 17099,
    "!_âĢĶ": 19976,
    "treasures": 26153,
    "Ġsuited": 12790,
    "Ġvalued": 12187,
    "covering": 15337,
    "Ġpilgrim": 25600,
    "affording": 23780,
    "alizing": 17942,
    "Ġbudge": 15168,
    "Ġhun": 1497,
    "aet": 15311,
    "Ġridge": 14821,
    "acquired": 24298,
    "Ġedward": 19153,
    "cun": 20797,
    "desire": 14664,
    "spoken": 11864,
    "Ġtroubling": 26549,
    "avern": 24791,
    "Ġdodge": 19888,
    "Ġdoub": 1836,
    "Ġlawyers": 25249,
    "Ġbert": 4583,
    "Ġdisclosed": 15157,
    "smiled": 16616,
    "Ġadditional": 7936,
    "Ġnaked": 8127,
    "Ġoperations": 2297,
    "Ġlavenza": 17973,
    "Ġhilarious": 20301,
    "Ġbreathless": 12174,
    "passing": 14814,
    "access": 11182,
    "Ġparted": 5930,
    "scru": 16244,
    "Ġspilling": 22151,
    "Ġfervour": 19729,
    "Ġerrand": 11087,
    "Ġcountry": 2531,
    "altern": 17944,
    "Ġribs": 7103,
    "notches": 22755,
    "plex": 709,
    "Ġenough": 1759,
    "lutions": 20952,
    "trampled": 26335,
    "aguy": 21914,
    "pocket": 9814,
    "Ġfrivolous": 26177,
    "Ġhopeful": 19033,
    "Ġarrogance": 26233,
    "Ġhaste": 9006,
    "Ġtended": 21169,
    "ingley": 1544,
    "Ġlogic": 13081,
    "Ġfiery": 6871,
    "Ġfunctions": 1341,
    "mons": 17602,
    "pop": 17633,
    "report": 13402,
    "Ġoccurring": 2789,
    "bourne": 19104,
    "Ġgnarled": 25169,
    "Ġisles": 8461,
    "Ġindividuality": 14912,
    "Ġwarbling": 26169,
    "Ġpromise": 4195,
    "Ġdeaf": 12727,
    "Ġaccording": 5508,
    "Ġgiddy": 20500,
    "Ġsplendidly": 25328,
    "Ġpo": 736,
    "Ġpam": 21456,
    "order": 1958,
    "sufficiently": 14984,
    "Ġunavailing": 26217,
    "Ġanalogical": 25641,
    "Ġpoisonous": 24888,
    "Ġregiment": 6433,
    "iz": 363,
    "Ġhark": 8429,
    ",_": 11464,
    "Ġcolumn": 9331,
    "handle": 11192,
    "Ġtoils": 10188,
    "Ġsecondary": 23334,
    "Ġrationally": 18214,
    "Ġz": 1001,
    "happen": 19333,
    "representing": 25272,
    "Ġnind": 17952,
    "cess": 533,
    "sincerely": 24585,
    "Ġbarnacled": 25537,
    "Ġwhipcord": 20098,
    "sharpening": 22458,
    "Ġsmothered": 20722,
    "Ġaltar": 9231,
    "Ġmovements": 24359,
    "Ġcolumbus": 26566,
    "Ġprogeny": 17391,
    "Ġhammer": 6095,
    "Ġglistened": 20175,
    "iron": 3587,
    "Ġfearfulness": 23514,
    "Ġhates": 21489,
    "prom": 6510,
    "inary": 3275,
    "gul": 12470,
    "Ġseries": 7062,
    "Ġdevelopment": 7059,
    "Ġcassock": 20490,
    "Ġbrit": 6291,
    "Ġexplored": 23519,
    "Ġfix": 2506,
    "Ġshoes": 7073,
    "utional": 17986,
    "Ġter": 2052,
    "Ġinsert": 19907,
    "breath": 15166,
    "vent": 681,
    "Ġswears": 16465,
    "Ġbishop": 13905,
    "osc": 18388,
    "generally": 9438,
    "Ġnear": 1718,
    "Ġdiscerned": 25006,
    "Ġcathedral": 17416,
    "lier": 20951,
    "adays": 14016,
    "gather": 20877,
    "osal": 11763,
    "ductive": 23939,
    "Ġrumours": 24599,
    "Ġminimax": 5860,
    "abby": 14024,
    "waters": 11335,
    "Ġdrown": 6816,
    "Ġwallow": 19469,
    "descend": 23088,
    "Ġcovariate": 2348,
    "date": 17519,
    "Ġhunt": 6185,
    "Ġlarboard": 11011,
    "Ġvint": 18195,
    "rie": 2784,
    "Ġsoda": 25535,
    "boards": 23257,
    "Ġpathetic": 19037,
    "Ġsuperiority": 14618,
    "iff": 3901,
    "acknowled": 10977,
    "Ġhollowly": 24526,
    "everywhere": 23697,
    "Ġgurg": 15677,
    "Ġfemales": 14940,
    "Ġcommenced": 8534,
    "poor": 6062,
    "Ġtw": 839,
    "Ġdistributes": 4192,
    "Ġphysical": 7523,
    "Ġremarks": 7474,
    "pres": 16032,
    "urned": 9309,
    "Ġpleasantest": 24139,
    "ignor": 8964,
    "Ġtract": 21168,
    "pronouncing": 25194,
    "inder": 9155,
    "Ġdawned": 14997,
    "Ġfaded": 10811,
    "prove": 11149,
    "Ġvisiting": 10360,
    "robust": 19731,
    "³": 116,
    "Ġcracks": 12024,
    "too": 4508,
    "Ġhit": 7164,
    "oided": 11511,
    "Ġ55": 24319,
    "Ġrange": 9715,
    "regards": 23468,
    "Ġimpotently": 22396,
    "young": 7321,
    "anesc": 21363,
    "draught": 12095,
    "ĠâĢľ_": 6698,
    "placidity": 25989,
    "dug": 18463,
    "Ġlazy": 17051,
    "Ġmerit": 9430,
    "Ġimmensity": 25330,
    "Ġmeanness": 22599,
    "possibility": 13365,
    "Ġloveliest": 20264,
    "Ġtennes": 23551,
    "Ġchallenges": 13633,
    "win": 6802,
    "perhaps": 4119,
    "finger": 10096,
    "abases": 3011,
    "Ġinjurious": 24273,
    "cery": 20810,
    "Ġoverhanging": 22365,
    "Ġboldness": 24428,
    "Ġshrieked": 9551,
    "matters": 14877,
    "Ġlab": 1871,
    "Ġkidn": 20208,
    "Ġintervening": 17270,
    "counterpart": 26361,
    "information": 12397,
    "Ġdeacon": 18146,
    "Ġjonah": 3477,
    "delighted": 10565,
    "Ġharbors": 24902,
    "ĭ": 238,
    "overs": 17623,
    "lott": 6653,
    "Ġlaud": 17970,
    "Ġshri": 5375,
    "Ġchamounix": 14867,
    "stones": 11638,
    "Ġresponses": 23650,
    "Ġinferred": 14503,
    "oars": 9617,
    "ccas": 15889,
    "Ġcomprehending": 24445,
    "ship": 1390,
    "Ġcomforter": 20510,
    "Ġsavory": 23879,
    "Ġbecame": 2688,
    "worm": 15456,
    "Ġundertone": 23241,
    "fishery": 10035,
    "Ġprevention": 16095,
    "Ġwreck": 7314,
    "Ġforger": 15737,
    "slipping": 25529,
    "Ġguarded": 9829,
    "kilt": 4867,
    "Ġmuzzle": 21324,
    "hatchet": 24819,
    "Ġdisinclination": 22540,
    "Ġdeliriously": 23230,
    "empty": 23636,
    "Ġagreeably": 24955,
    "Ġwoods": 5406,
    "Ġpr": 1596,
    "Ġsmiles": 6708,
    "Ġtimes": 2301,
    "ú": 187,
    "aited": 12439,
    "Ġsurpasses": 25269,
    "Ġnewfoundland": 26571,
    "Ġbitten": 21393,
    "Ġconveying": 19717,
    "Ġplunder": 22605,
    "Ġsanctified": 25883,
    "Ġofficial": 7083,
    "Ġadmiral": 17308,
    "Ġpyth": 21463,
    "note": 14343,
    "Ġnobody": 6160,
    "Ġwashes": 21865,
    "Ġbended": 21388,
    "Ġrug": 16159,
    "Ġdoted": 21436,
    "cull": 20811,
    "Ġpiratical": 24798,
    "'": 11,
    "Ġluc": 3310,
    "spermaceti": 12198,
    "Ġattorney": 18628,
    "Ġgent": 7383,
    "Ġnaturalists": 10365,
    "Ġglancing": 5399,
    "Ġdangerous": 6615,
    "Ġremove": 7500,
    "Ġroman": 8323,
    "Ġtaken": 2527,
    "grin": 19107,
    "Ġsoftly": 7948,
    "Ġcloth": 9746,
    "Ġcoiling": 12911,
    "quakes": 21854,
    "Ġincorrect": 2726,
    "Ġdecide": 9289,
    "Ġrelent": 18776,
    "jah": 17583,
    "ologist": 22855,
    "mult": 8751,
    "Ġmeditate": 16709,
    "mael": 6725,
    "Ġbowsprit": 16563,
    "Ġadroit": 26001,
    "Ġgag": 21596,
    "deserted": 19344,
    "Ġcarpets": 18904,
    "Ġcold": 3037,
    "ls": 1291,
    "significant": 25085,
    "Ġentries": 22744,
    "attending": 18918,
    "execut": 13658,
    "helped": 18927,
    "oin": 17619,
    "oub": 1632,
    "eth": 617,
    "Ġthroat": 7771,
    "Ġburg": 23653,
    "loose": 11808,
    "Ġmatrimony": 13638,
    "Ġpickle": 16724,
    "mo": 864,
    "Ġsaleve": 17394,
    "enge": 21283,
    "had": 1949,
    "Ġunsur": 22024,
    "Ġpleases": 16301,
    "Ġmixture": 9565,
    "nineteenth": 26139,
    "islands": 21379,
    "strom": 15687,
    "Ġmott": 17805,
    "Ġ23": 13195,
    "Ġcompress": 21860,
    "Ġapplication": 2086,
    "Ġbaron": 19336,
    "olog": 1059,
    "ists": 3998,
    "principle": 10653,
    "hump": 12482,
    "Ġdirest": 22710,
    "famous": 16918,
    "Ġjourneys": 19478,
    "Ġwhitting": 18058,
    "Ġgest": 8134,
    "Ġratt": 7881,
    "gam": 10098,
    "quin": 21851,
    "pos": 15413,
    "Ġscores": 2712,
    "point": 6064,
    "Ġcampaign": 20663,
    "inf": 6234,
    "adow": 18090,
    "complete": 15037,
    "Ġgin": 13964,
    "posture": 16929,
    "eleg": 20851,
    "Ġfluttered": 16251,
    "mill": 13757,
    "Ġaband": 6563,
    "Ġvolat": 24146,
    "Ġexcitement": 9384,
    "necessarily": 19634,
    "recollection": 25349,
    "ĠĠĠĠĠĠĠĠĠĠĠĠĠĠĠĠĠĠĠĠĠĠ": 16231,
    "Ġwhirlwinds": 20468,
    "georgiana": 26021,
    "Ġobliged": 4284,
    "Ġfrosty": 14938,
    "arious": 10319,
    "rud": 4187,
    "itably": 10784,
    "ologically": 22856,
    "Ġtying": 15476,
    "Ġvagu": 13592,
    "Ġinterpre": 1584,
    "Ġplaited": 14286,
    "blown": 25202,
    "Ġplump": 14285,
    "ric": 1377,
    "Ġwhispering": 14948,
    "Ġlanding": 11989,
    "rivial": 9437,
    "enjoyments": 25434,
    "aurus": 20563,
    "Ġorb": 22093,
    "Ġwides": 17790,
    "Ġgentle": 1891,
    "ian": 1238,
    "Ġdom": 2834,
    "ilations": 21725,
    "Ġhem": 8447,
    "Ġauxiliary": 26420,
    "Ġunsocial": 18257,
    "fro": 8736,
    "Ġreaped": 18032,
    "Ġwaist": 6892,
    "Ġhandkerchief": 8917,
    "ince": 4338,
    "gaffman": 26392,
    "Ġassistance": 6335,
    "Ġearly": 2078,
    "uttering": 12668,
    "Ġfascinating": 17331,
    "mitted": 5213,
    "late": 11501,
    "phren": 22806,
    "bud": 10686,
    "Ġlatitudes": 9499,
    "banked": 25338,
    "returning": 12210,
    "merry": 16537,
    "Ġended": 7950,
    "Ġfloat": 12036,
    "ozy": 17624,
    "Þ": 159,
    "Ġsurvivor": 17366,
    "cra": 6356,
    "Ġpul": 2042,
    "Ĵ": 245,
    "Ġbanish": 15574,
    "dignity": 15349,
    "Ġmart": 10781,
    "Ġobsequ": 14323,
    "Ġloading": 15878,
    "Ġpist": 12621,
    "Ġruminated": 24600,
    "Ġdifference": 1491,
    "51": 12435,
    "Ġhandsome": 4907,
    "Ġincognit": 22558,
    "leisure": 21374,
    "ham": 1702,
    "Ġrecoil": 18689,
    "Ġrejo": 5917,
    "Ġloomings": 24952,
    "Ġinscribed": 24941,
    "safety": 20352,
    "ac": 739,
    "Ġfetch": 7770,
    "sided": 17666,
    "unched": 10238,
    "Ġcourtship": 24137,
    "Ġalt": 18101,
    "Ġroods": 22407,
    "Ġfate": 4755,
    "Ġhistorical": 3645,
    "Ġlectures": 17181,
    "Ġslang": 23163,
    "Ġauthors": 10419,
    "myself": 5113,
    "Ġepid": 18007,
    "destiny": 16701,
    "obedience": 17413,
    "Ġtapping": 10754,
    "Ġshortened": 23484,
    "ciousness": 20819,
    "Ġtest": 1594,
    "Ġconsolation": 6210,
    "Ġoptimize": 1534,
    "Ġpatagonian": 20537,
    "Ġbravery": 23840,
    "Ġcottage": 4735,
    "Ġalan": 10871,
    "Ġamidst": 9497,
    "Ġtol": 6677,
    "Ġmorose": 18845,
    "Ġformula": 2863,
    "Ġstave": 11654,
    "drawn": 9916,
    "Ġsem": 1878,
    "increase": 20271,
    "waist": 13421,
    "Ġintricacies": 15142,
    "Ġnamed": 6141,
    "neck": 14243,
    "Ġhes": 6252,
    "Ġaccidentally": 9508,
    "iber": 6507,
    "Ġvisage": 18773,
    "Ġbonds": 17871,
    "Ġarising": 10935,
    "sue": 2076,
    "Ġcastors": 23979,
    "raint": 18317,
    "Ġvanity": 7047,
    "vii": 13151,
    "possesses": 24617,
    "Ġmultiple": 1186,
    "Ġmistake": 6205,
    "Ġexhibition": 14960,
    "figured": 20126,
    "<PAD>": 0,
    "momentum": 4991,
    "Ġequinox": 25856,
    "Ġgardeners": 12125,
    "Ġpropag": 16351,
    "Ġseventy": 7880,
    "Ġafresh": 18626,
    "Ġjeer": 24125,
    "Ġsi": 21215,
    "Ġ54": 24318,
    "Ġchrist": 4071,
    "Ġodds": 13333,
    "Ġdying": 2137,
    "solemn": 19820,
    "fer": 1991,
    "Ġforster": 5230,
    "etch": 9207,
    "elled": 3990,
    "Ġautonomous": 10678,
    "Ġborrowed": 17232,
    "paus": 13776,
    "ihood": 20924,
    "arthly": 8030,
    "Ġmallet": 17812,
    "Ġfireboard": 23533,
    "oat": 13767,
    "ĕ": 214,
    "Ġbran": 5252,
    "ath": 862,
    "Ġcreative": 9834,
    "Ġsecre": 5493,
    "lucky": 24545,
    "Ġdoubting": 13103,
    "situ": 9624,
    "Ġsoles": 22089,
    "Ġceremonious": 24838,
    "squeezing": 25914,
    "Ġmouth": 3185,
    "Ġloadstone": 25817,
    "arranged": 19321,
    "Ġmaster": 3681,
    "perfectly": 9089,
    "Ġadvantageously": 19548,
    "rudence": 7094,
    "Ġmeasures": 1208,
    "ishing": 1144,
    "Ġintend": 12770,
    "Ġmumbling": 11577,
    "Ġveiled": 16204,
    "alcul": 15632,
    "endom": 15927,
    "Ġflies": 13029,
    "trunk": 23951,
    "Ġgratification": 24100,
    "Ġimmemorial": 10513,
    "cures": 20807,
    "butt": 15998,
    "Ġcard": 7363,
    "ler": 3490,
    "okingly": 22385,
    "Ġseparately": 13306,
    "broken": 8020,
    "ellent": 3760,
    "gress": 2212,
    "Ġtuples": 13480,
    "oce": 10716,
    "Ġherds": 9719,
    "Ġsleepy": 8268,
    "Ġforced": 4351,
    "Ġhorror": 3771,
    "educ": 10830,
    "Ġcoats": 16078,
    "Ġmonotonically": 3831,
    "veral": 2351,
    "Ġgeography": 23375,
    "Ġput": 1798,
    "Ġcocain": 18593,
    "Ġneeds": 6607,
    "ige": 12686,
    "Ġnocturnal": 20717,
    "Ġwinds": 5746,
    "Ġsuspected": 9065,
    "Ġfalsehood": 10526,
    "niest": 18973,
    "Ġuninterrupted": 22048,
    "network": 1926,
    "inent": 9631,
    "Ġquivers": 22417,
    "bounded": 13442,
    "Ġabruptly": 15154,
    "ivorous": 22086,
    "dle": 3305,
    "Ġhorizon": 6635,
    "Ġinwards": 15625,
    "Ġdeclining": 23967,
    "Ġimply": 18445,
    "Ġinsensibility": 17111,
    "Ġnarrowly": 16822,
    "Ġtemple": 7655,
    "wicked": 24449,
    "Ġpostpone": 17310,
    "Ġfrolic": 23928,
    "hack": 20898,
    "suff": 4961,
    "Ġaccompanied": 6781,
    "penetrating": 25491,
    "ond": 1161,
    "Ġhollows": 19744,
    "Ġeasy": 3449,
    "blending": 24130,
    "idelburgh": 10564,
    "feed": 9296,
    "Ġpersuading": 19413,
    "eminently": 25108,
    "Ġdoth": 13911,
    "aster": 1867,
    "desk": 23812,
    "Ġundertake": 14481,
    "ordingly": 18516,
    "Ġbeneficial": 23934,
    "acrity": 14282,
    "Ġviews": 7290,
    "reement": 15514,
    "thoughtfully": 24047,
    "mush": 20979,
    "Ġpractically": 13109,
    "egypt": 15353,
    "Ġthou": 1809,
    "flowing": 14552,
    "Ġaugment": 8695,
    "Ġaston": 3702,
    "shape": 10984,
    "Ġreason": 1397,
    "menced": 23149,
    "Ġadequate": 20311,
    "Ġcents": 17830,
    "Ġdeliberately": 10627,
    "pendicular": 6500,
    "Ġsharkish": 24506,
    "Ġapt": 9158,
    "Ġnapoleons": 25886,
    "Ġhansom": 13668,
    "steering": 16638,
    "gest": 5426,
    "Ġtunnel": 14933,
    "Ġshower": 11714,
    "Ġpresumed": 10547,
    "Ġbulkhead": 24511,
    "Ġling": 7377,
    "Ġcleans": 18950,
    "Ġcommonplaces": 16292,
    "Ġshreds": 12776,
    "gan": 2198,
    "Ġtortured": 14927,
    "Ġentered": 2842,
    "Ġcategor": 4136,
    "Ġpunctually": 17141,
    "acon": 10684,
    "ittered": 18440,
    "bucket": 17496,
    "Ġpreface": 18368,
    "Ġeagerness": 6610,
    "Ġslippers": 19618,
    "Ġcountries": 13100,
    "girls": 12323,
    "intolerable": 22941,
    "weight": 2941,
    "intended": 11068,
    "consol": 9765,
    "cen": 17505,
    "asing": 5913,
    "Ġducking": 17149,
    "Ġent": 903,
    "Ġmaddening": 17245,
    "Ġnervously": 19186,
    "Ġseams": 12129,
    ".--": 20748,
    "speps": 14335,
    "ckinridge": 11724,
    "fel": 8737,
    "Ġobeisance": 19761,
    "obviously": 25243,
    "Ġjaw": 3318,
    "Ġpant": 10819,
    "Ġc": 277,
    "Ġbesides": 3512,
    "Ġdank": 21431,
    "Ġbattered": 17864,
    "Ġeyeing": 6461,
    "Ġinconsist": 17938,
    "adequately": 20322,
    "Ġtalker": 23374,
    "idays": 21774,
    "Ġdocumentation": 20557,
    "Ġmonosyllable": 20728,
    "Ġpianoforte": 15277,
    "Ġinasmuch": 10827,
    "ĠĠĠĠĠĠĠĠĠĠĠĠĠĠĠĠĠĠĠĠĠĠĠĠĠĠĠĠĠĠĠĠĠĠĠĠĠĠĠĠĠĠĠĠĠĠ": 9956,
    "Ġtrunks": 15979,
    "Ġtea": 5041,
    "Ġemotion": 7691,
    "Ġprinciples": 10014,
    "ract": 1028,
    "oring": 1859,
    "tri": 11532,
    "Ġsilken": 16382,
    "season": 14037,
    "Ġdistribution": 2019,
    "quietly": 10595,
    "Ġunful": 22013,
    "Ġsordid": 26424,
    "highest": 20411,
    "Ġmeasureless": 14713,
    "zeal": 16276,
    "Ġlength": 2498,
    "adel": 15733,
    "Ġambitious": 18515,
    "expectation": 14859,
    "anded": 5924,
    "atics": 15526,
    "Ġverdure": 10615,
    "flex": 24844,
    "Ġapothe": 12379,
    "Ġreconc": 9686,
    "Ġadjusting": 3411,
    "game": 11493,
    "ĠâĢľâĢĺ": 8506,
    "Ġexclam": 6759,
    "Ġtesting": 23217,
    "Ġdestiny": 8986,
    "Ġapproximate": 2340,
    "Ġveget": 11890,
    "iguous": 18047,
    "inous": 8776,
    "likely": 9026,
    "Ġwhiff": 21721,
    "ogue": 9785,
    "pless": 6262,
    "Ġrevered": 23736,
    "Ġcheerfully": 12139,
    "lamps": 25261,
    "aye": 3659,
    "Ġfoe": 7681,
    "Ġell": 17717,
    "except": 5383,
    "lished": 8383,
    "Ġalfred": 21790,
    "Ġspy": 22137,
    "Ġloose": 4649,
    "Ġblan": 18819,
    "antediluvian": 24346,
    "Ġhealthcare": 8016,
    "Ġintercourse": 11000,
    "Ġsalmon": 24064,
    "braces": 24659,
    "Ġcheeks": 5959,
    "ansion": 10927,
    "Ġfatal": 5873,
    "Ġreceiving": 4883,
    "Ġstages": 14008,
    "horn": 8086,
    "Ġtrappers": 23084,
    "Ġcomposedly": 25184,
    "Ġsales": 12813,
    "Ġhold": 2242,
    "countless": 24152,
    "Ġcleaning": 23184,
    "Ġport": 3309,
    "Ġmonster": 3792,
    "inconsiderable": 21194,
    "eh": 13713,
    "omitted": 18026,
    "Ġenergy": 2550,
    "Ġclaim": 5106,
    "Ġunhappy": 5640,
    "T": 56,
    "Ġannoyance": 20664,
    "leads": 21373,
    "da": 17516,
    "omit": 13981,
    "Ġimplies": 24874,
    "Ġsinned": 18953,
    "Ġagitation": 6865,
    "Ġimaginary": 11188,
    "Ġspears": 12930,
    "dman": 10091,
    "Ġeaglet": 19307,
    "Ġpon": 10178,
    "Ġpitied": 14694,
    "Ġhandwriting": 14322,
    "Ġentire": 2557,
    "abern": 21793,
    "omited": 21664,
    "Ġcorn": 9353,
    "Ġchanc": 18385,
    "Ġderision": 16312,
    "sound": 6800,
    "stad": 7599,
    "displeasure": 23497,
    "degree": 12804,
    "sixteen": 24854,
    "wal": 10136,
    "Ġuninhabited": 22053,
    "lanterns": 17432,
    "ateg": 1433,
    "Ġaudience": 24768,
    "privilege": 25264,
    "Ġdust": 5910,
    "Ġvexatious": 19784,
    "Ġknows": 4157,
    "Ġ8": 5433,
    "Ġsquire": 16183,
    "cannib": 11907,
    "cd": 15326,
    "cloudless": 20335,
    "Ġdiggings": 24650,
    "amount": 10886,
    "sought": 15430,
    "plexion": 14263,
    "Ġans": 1645,
    "Ġinaccessible": 13937,
    "Ġshoots": 14570,
    "bent": 15315,
    "shold": 2771,
    "Ġfound": 1246,
    "gument": 20887,
    "Ġpretty": 3858,
    "falgar": 26131,
    "ously": 2489,
    "dles": 11483,
    "elly": 17982,
    "Ġresembles": 25970,
    "Ġdoctors": 12156,
    "Ġphenomenon": 17917,
    "Ġthee": 2619,
    "Ġconfirmation": 17213,
    "waiting": 12225,
    "Ġtexel": 25924,
    "Ġimitate": 14160,
    "iana": 7050,
    "Ġtarn": 21161,
    "repid": 11567,
    "Ġsplashed": 23750,
    "Ġcommunicate": 10580,
    "nursery": 26401,
    "baby": 25516,
    "leviathans": 19941,
    "Ġcolonial": 22862,
    "V": 58,
    "Ġbackwards": 12933,
    "Ġremorselessly": 16969,
    "Ġrejoice": 10211,
    "Ġsplitting": 4384,
    "features": 14823,
    "Ġsimpl": 1576,
    "ctors": 21593,
    "Ġtawn": 13826,
    "Ġunstructured": 3009,
    "Ġconstables": 19070,
    "condite": 23249,
    "Ġcarpenter": 4686,
    "rodden": 21538,
    "atever": 3082,
    "ier": 1138,
    "Ġposs": 1613,
    "Ġlucky": 7759,
    "Ġperilously": 24507,
    "axen": 22525,
    "Ġbuoyancy": 20045,
    "Ġconve": 5455,
    "oons": 12503,
    "Ġready": 3396,
    "gave": 7800,
    "Ġsuppressing": 23004,
    "Ġmel": 4818,
    "recollected": 25348,
    "paying": 25412,
    "Ġcaval": 25770,
    "Ġperiodically": 19497,
    "Ġirreparable": 20002,
    "Ġfuss": 13908,
    "hangs": 15372,
    "Ġtested": 23218,
    "Ġindirect": 18838,
    "Ġvile": 8475,
    "Ġseasoned": 24405,
    "bergen": 14339,
    "Ġreproof": 24891,
    "ids": 21767,
    "athan": 2959,
    "Ġconsiderable": 4004,
    "threatened": 25463,
    "Ġpossessor": 23827,
    "Ġath": 15805,
    "Ġquantity": 6948,
    "ians": 2356,
    "Ġshipping": 14107,
    "pyramid": 21032,
    "iza": 6257,
    "fur": 6357,
    "provided": 13640,
    "Ġsubdued": 11035,
    "Ġrescue": 13346,
    "Ġmichigan": 26429,
    "Ġoutside": 5554,
    "Ġ1894": 5196,
    "resc": 21241,
    "Ġencl": 16169,
    "Ġworld": 1591,
    "Ġtremble": 6906,
    "kinson": 10029,
    "mess": 13756,
    "itics": 13875,
    "Ġmusky": 19385,
    "Ġillustrative": 25069,
    "._]]": 5335,
    "do": 1996,
    "Ġlistened": 4470,
    "supposing": 24136,
    "Ġglow": 7171,
    "Ġperf": 12855,
    "Ġcommonest": 23093,
    "chastic": 2332,
    "Ġfortunate": 6216,
    "attendants": 25496,
    "decl": 8859,
    "modesty": 22850,
    "Ġwisely": 13276,
    "putation": 7626,
    "Ġengaging": 9339,
    "bers": 2568,
    "urities": 18052,
    "Ġpau": 17908,
    "Ġpedest": 15067,
    "Ġforesaw": 19128,
    "hurriedly": 25511,
    "iving": 1725,
    "resolutions": 26165,
    "Ġjoosy": 23633,
    "Ġhitting": 21490,
    "Ġreser": 5170,
    "Ġinterlude": 16074,
    "Ġpupp": 10822,
    "Ġwatchful": 16528,
    "Ġflowers": 8943,
    "fooled": 24419,
    "Ġfrequently": 4680,
    "Ġtuning": 3076,
    "afford": 14656,
    "Ġdispleased": 18556,
    "Ġark": 10278,
    "Ġartfully": 22614,
    "solic": 16380,
    "Ġlistener": 16476,
    "classes": 12140,
    "politeness": 16908,
    "Ġsubproblems": 12963,
    "ment": 687,
    "Ġstars": 6151,
    "Ġchick": 22251,
    "Ġnap": 8813,
    "folly": 20864,
    "Ġheartfelt": 18967,
    "Ġcapricious": 20541,
    "Ġmisled": 22758,
    "Ġascribed": 14858,
    "wife": 8101,
    "Ġpremium": 23908,
    "Ġcrescent": 16140,
    "Ġviolently": 6457,
    "Ġblasphemer": 26117,
    "Ġprotruding": 16661,
    "Ġlizzy": 3546,
    "Ġincessant": 15101,
    "Ġassisted": 11112,
    "Ġconqueror": 25797,
    "Ġ45": 14773,
    "entered": 8819,
    "Ġregent": 18598,
    "Ġghast": 9212,
    "Ġblazing": 11900,
    "Ġstup": 14009,
    "asher": 15650,
    "ich": 471,
    "Ġhouse": 1503,
    "Ġeclips": 20699,
    "Ġunassuming": 20512,
    "Ġblessing": 11265,
    "othed": 16513,
    "Ġsuperstitions": 17073,
    "els": 1761,
    "giana": 7801,
    "Ġdialogue": 12408,
    "Ġaunt": 3182,
    "Ġpoints": 5249,
    "Ġthickening": 24027,
    "Ġpoured": 8805,
    "Ġcounties": 23305,
    "transp": 24512,
    "Ġstiffness": 24828,
    "Ġinheritance": 25356,
    "Ġhams": 16614,
    "Ġ20": 8617,
    "Ġexplain": 545,
    "vit": 13804,
    "uns": 21874,
    "ppo": 18178,
    "oriented": 2950,
    "Ġfil": 3469,
    "Ġkiss": 8184,
    "Ġhand": 859,
    "ulls": 8842,
    "Ġstout": 6026,
    "Ġrollicking": 24451,
    "Ċ": 203,
    "requ": 7149,
    "escaped": 14233,
    "ckles": 22098,
    "Ā": 193,
    "mes": 1198,
    "rec": 6005,
    "Ġlearns": 2639,
    "stolidity": 21660,
    "conc": 3945,
    "Ġdeck": 2139,
    "lengthwise": 19953,
    "Ġdespaired": 14671,
    "Ġretreat": 6071,
    "Ġchurning": 15941,
    "ohog": 9846,
    "Ġunfeeling": 14122,
    "Ġjapanese": 10636,
    "oundering": 11750,
    "imper": 14000,
    "Ġsurtout": 23467,
    "Ġsomewhat": 4898,
    "Ġcomforted": 19394,
    "cost": 19188,
    "Ġcategories": 4478,
    "Ġrules": 1917,
    "Ġcous": 3434,
    "Ġgarnery": 17390,
    "agues": 8161,
    "Ġleather": 7605,
    "Ġneither": 3686,
    "Ġintention": 5638,
    "Ġdiscoloured": 15256,
    "Ġsatisfy": 6911,
    "Ġdenial": 13217,
    "Ġfad": 17878,
    "Ġdarkness": 4275,
    "Ġliable": 14231,
    "Ġcompassionate": 24722,
    "Ġgenerative": 5644,
    "eight": 9594,
    "Ġpave": 8804,
    "conditionally": 24835,
    "Ġdegradation": 2627,
    "erringly": 16216,
    "Ġargument": 7100,
    "Ġdraw": 3670,
    "Ġforebodings": 17307,
    "Ġrebellion": 26477,
    "Ġbiggest": 24567,
    "Ġmastery": 23996,
    "Ġquies": 18465,
    "Ġdestroy": 5772,
    "twenty": 6609,
    "Ġmutter": 23957,
    "ituted": 13876,
    "dum": 17520,
    "Ġfills": 12600,
    "Ġhedge": 8364,
    "relate": 24014,
    "Ġmarvels": 11086,
    "wherever": 13122,
    "Ġreception": 9842,
    "Ġtimber": 13353,
    "Ġmoment": 992,
    "inex": 14099,
    "con": 655,
    "Ġsign": 2493,
    "Ġforever": 14555,
    "Ġindeed": 1678,
    "vicinity": 20483,
    "advantages": 11273,
    "Ġmunro": 25631,
    "Ġwhisker": 23938,
    "librarian": 26570,
    "Ġsphere": 15886,
    "Ġtwice": 4662,
    "steady": 14712,
    "Ġmonoton": 3636,
    "Ġexquis": 9702,
    "specim": 23947,
    "isure": 6242,
    "Ġroasted": 18460,
    "Ġconcussion": 26301,
    "Ġfri": 17880,
    "Ġdwell": 5813,
    "iarity": 8747,
    "Ġdesperate": 7777,
    "burned": 25082,
    "safe": 10057,
    "merchant": 10468,
    "Ġfearing": 12821,
    "Ġterminating": 23512,
    "Ġharvard": 24574,
    "Ġlooks": 4163,
    "Ġundu": 15841,
    "Ġdere": 21839,
    "Ġclim": 8195,
    "Ġpeered": 18669,
    "Ġgarden": 3823,
    "Ġtemptations": 24508,
    "Ġdropping": 7484,
    "province": 26073,
    "Ġunreserved": 19400,
    "Ġascent": 19621,
    "Ġvacancies": 24345,
    "formity": 10281,
    "Ġtrembled": 8705,
    "Ġ49": 24084,
    "Ġaback": 22270,
    "instead": 14815,
    "Ġretort": 23073,
    "Ġphrensy": 25127,
    "Ġodorous": 19569,
    "virtue": 20572,
    "ushed": 2974,
    "Ġsky": 3967,
    "Ġwearily": 18180,
    "aching": 5832,
    "Ġfore": 2153,
    "Ġbon": 8790,
    "gentlemen": 9507,
    "Ġdays": 2077,
    "shiver": 16027,
    "inctions": 17734,
    "grinder": 23417,
    "aton": 21261,
    "Ġhurrah": 9872,
    "Ġslappin": 18945,
    "Ġheaved": 9386,
    "ferences": 10329,
    "Ġyesterday": 5333,
    "Ġship": 1090,
    "Ġresults": 7308,
    "Ġdogs": 7742,
    "Ġgriff": 22810,
    "Ġadmeasure": 18294,
    "Ġwhiting": 10861,
    "Ġbands": 14887,
    "Ġperemptory": 25741,
    "ise": 707,
    "Ġwarning": 9061,
    "Ġscalding": 16326,
    "Ġspecific": 2003,
    "abular": 4763,
    "Ġsubtile": 20383,
    "ick": 835,
    "nel": 11507,
    "Ġconvent": 11671,
    "painful": 13504,
    "brous": 19201,
    "watching": 16932,
    "church": 8140,
    "Ġlisten": 4674,
    "cordiality": 25140,
    "rical": 11521,
    "Ġelephant": 8256,
    "Ġtransport": 11280,
    "four": 6115,
    "Ġviolet": 19092,
    "Ġzeal": 9101,
    "Ġmillar": 13864,
    "clay": 18933,
    "Ġendangered": 16306,
    "haw": 6363,
    "Ġhumor": 11053,
    "Ġassembl": 20064,
    "scenes": 16245,
    "shine": 9291,
    "Ġsteed": 13045,
    "Ġamb": 9295,
    "unwittingly": 25802,
    "Ġgratify": 19506,
    "Ġannihilated": 20255,
    "lightning": 16554,
    "Ġgangway": 20161,
    "Ġmake": 1286,
    "ressed": 3028,
    "Ġphaet": 16320,
    "honest": 17005,
    "built": 16827,
    "english": 2772,
    "Ġwhitened": 24868,
    "lod": 15382,
    "Ġrushing": 7403,
    "Ġ131": 24781,
    "Ġgrudge": 20696,
    "Ġ114": 24438,
    "ullo": 12735,
    "Ġhover": 15624,
    "fill": 15354,
    "Ġboundary": 11224,
    "Ġwinchester": 10069,
    "ifice": 7197,
    "Ġarisen": 11747,
    "ensed": 10997,
    "blocks": 25518,
    "Ġexaggerate": 25650,
    "Ġgrand": 3593,
    "ĠĠĠĠĠĠĠĠĠĠĠĠĠĠĠĠĠĠĠĠĠĠĠĠĠĠ": 13391,
    "Ġperpetual": 12307,
    "mer": 2829,
    "Ġstings": 21741,
    "mates": 5073,
    "Ġfitly": 24002,
    "Ġesquimaux": 25154,
    "Ġdrowning": 19906,
    "Ġreliable": 18778,
    "Ġpropagating": 20636,
    "Ġdeceit": 13484,
    "Ġstren": 15727,
    "Ġsuperb": 16444,
    "Ġautonom": 10418,
    "lected": 1635,
    "Ġtwit": 12935,
    "ĠĠĠĠĠĠĠĠ": 711,
    "Ġsuccessfully": 19432,
    "Ġplanned": 14755,
    "Ġprosperity": 20260,
    "so": 890,
    "Ġfocused": 16345,
    "Ġtumbled": 13409,
    "Ġsands": 14951,
    "Ġstool": 14465,
    "Ġrichest": 26213,
    "Ġbathe": 25444,
    "Ġmanifested": 17160,
    "Ġii": 7385,
    "Ġgable": 15671,
    "darkened": 24517,
    "Ġcontrasting": 11156,
    "Ġnine": 5369,
    "enormous": 26167,
    "Ġtravell": 5576,
    "Ġuntimely": 16468,
    "Ġdiscredit": 22782,
    "halloa": 17091,
    "ought": 830,
    "Ġchange": 1995,
    "Ġaberde": 22281,
    "Ġboldly": 9504,
    "Ġsailors": 4274,
    "Ġweighed": 8714,
    "aration": 12613,
    "atherine": 2593,
    "Ġes": 8773,
    "Ġdaggoo": 5441,
    "loat": 8890,
    "Ġseemingly": 9321,
    "Ġeat": 4644,
    "reinforcement": 7826,
    "Ġxxxvi": 24972,
    "Ġburst": 4381,
    "commanded": 16990,
    "Ġve": 1104,
    "elihood": 4623,
    "Ġheads": 3740,
    "poured": 17639,
    "Ġbrought": 2514,
    "Ġdisco": 3426,
    "Ġprodu": 1207,
    "Ġthirt": 13942,
    "Ġswells": 9830,
    "earnestly": 17316,
    "shipmates": 11932,
    "hot": 8084,
    "Ġcable": 11583,
    "bul": 6951,
    "Ġunjustly": 17129,
    "Ġfrequencies": 4790,
    "Ġnatural": 1113,
    "particular": 5757,
    "rece": 21237,
    "Ġstudies": 7956,
    "cerem": 15682,
    "unmistakable": 21899,
    "Ġb": 281,
    "Ġcombat": 16193,
    "Ġrelinquish": 17350,
    "Ġtout": 17721,
    "intelligent": 16846,
    "Ġrejoined": 14930,
    "1": 21,
    "Ġtwitching": 25684,
    "Ġdisobey": 18560,
    "bask": 20778,
    "Ġdescribe": 2763,
    "Ġlysander": 13142,
    "Ġspectre": 16633,
    "Ġshoulders": 5566,
    "air": 1005,
    "Ġuntil": 2665,
    "Ġpoltroon": 26600,
    "erect": 20850,
    "build": 12192,
    "Ġwharves": 13508,
    "residual": 19264,
    "stead": 10848,
    "these": 3244,
    "Ġcommod": 10336,
    "iated": 5891,
    "equally": 19901,
    "Ġunqualified": 22063,
    "Ġglory": 6066,
    "Ġwhereupon": 14297,
    "Ġinfluenced": 19635,
    "Ġdiabolically": 25514,
    "restored": 18979,
    "Ġinstigated": 18699,
    "all": 486,
    "bbed": 6910,
    "Ġannounce": 13342,
    "contain": 18503,
    "wling": 11547,
    "Ġtransparent": 9492,
    "å": 166,
    "Ġinside": 5448,
    "Ġgrain": 15835,
    "Ġdebar": 24274,
    "Ġcircumstances": 3921,
    "Ġstig": 14006,
    "boom": 18999,
    "Ġwomanly": 23553,
    "Ġrighteous": 18948,
    "hideous": 25408,
    "Ġthirst": 7591,
    "Ġalter": 6544,
    "picture": 11409,
    "Ġusing": 715,
    "Ġkiller": 19571,
    "Ġhither": 4760,
    "arers": 12134,
    "ositions": 10285,
    "Ġopposed": 11190,
    "takes": 21079,
    "Ġpoison": 7219,
    "Ġwritten": 4165,
    "buffalo": 20566,
    "Ġmoral": 6581,
    "Ġhackney": 20436,
    "Ġentry": 11027,
    "Ġoverall": 4357,
    "am": 367,
    "Ġhooks": 14971,
    "attributed": 23125,
    "Ġpow": 4638,
    "quer": 11681,
    "fortune": 4975,
    "Æ": 135,
    "Ġpope": 11604,
    "oquence": 11388,
    "Ġbegrim": 23020,
    "Ġfocuses": 8653,
    "Ġrickety": 26507,
    "Ġtelegra": 11894,
    "Ġmoul": 15548,
    "Ġbespeaking": 26311,
    "formation": 22225,
    "Ġgold": 3279,
    "Ġslips": 23170,
    "Ġships": 3714,
    "Ġinsepar": 17936,
    "Ġconditions": 8307,
    "distrustful": 26332,
    "ffic": 22155,
    "Ġforth": 3459,
    "dington": 12070,
    "Ġsundering": 23277,
    "Ġstructure": 847,
    "Ġmanipulation": 10661,
    "hered": 5623,
    "Ġsunken": 14495,
    "Ġclassifies": 11836,
    "Ġflowery": 16236,
    "steep": 19422,
    "stoke": 18022,
    "Ġdesc": 775,
    "Ġhyperborean": 26341,
    "gradient": 2270,
    "Ġprovocation": 24194,
    "ą": 198,
    "Ġtumb": 21172,
    "Ġexpression": 4516,
    "Ġpunctual": 17140,
    "Ġexchanged": 10880,
    "cham": 10855,
    "Ġped": 7845,
    "severe": 21822,
    "Ġspent": 3962,
    "ilty": 6395,
    "cre": 4248,
    "Ġrecept": 1523,
    "shud": 18486,
    "soled": 14332,
    "rained": 5162,
    "Ġfloats": 9416,
    "Ġfacilitate": 26099,
    "lights": 13208,
    "Ġinstincts": 16988,
    "bbing": 6325,
    "Ġohio": 19130,
    "Ġrespectability": 14487,
    "school": 10058,
    "âĢľâĢĺ": 1485,
    "Ġwreaths": 25938,
    "Ġwronged": 24250,
    "drown": 13708,
    "Ġ86": 24461,
    "sive": 4141,
    "ucumber": 19058,
    "winding": 16722,
    "ĠlinnÃ¦us": 15279,
    "lemag": 21375,
    "Ġconsort": 18723,
    "vable": 10135,
    "Ġmachinery": 20488,
    "Ġchristmas": 6924,
    "ean": 20842,
    "Ġdial": 10812,
    "Ġwell": 901,
    "Ġcit": 10785,
    "Ġtid": 8107,
    "Ġlived": 3988,
    "Ġtight": 8108,
    "Ġappeared": 2773,
    "sis": 1864,
    "Ġlodger": 24096,
    "Ġclose": 3041,
    "phon": 4124,
    "Ġavowed": 16636,
    "Ġdistress": 5845,
    "Ġnois": 4265,
    "sheet": 16289,
    "ashion": 3856,
    "Ġstowing": 18077,
    "yramid": 8368,
    "Ġblo": 2731,
    "rich": 11520,
    "Ġtolerable": 6949,
    "Ġabominably": 20069,
    "Ġske": 4816,
    "walls": 25346,
    "Ġbrut": 18770,
    "Ġsmoky": 22562,
    "Ġchimney": 6498,
    "ket": 17584,
    "inferior": 12398,
    "Ġforts": 21776,
    "ladyship": 14832,
    "Ġint": 409,
    "Ġdeceiving": 21842,
    "Ġforeman": 23448,
    "Ġdeact": 18141,
    "odecim": 9835,
    "Ġexhaled": 19685,
    "------": 12138,
    "avoiding": 25237,
    "Ġcy": 13877,
    "Ġcreation": 6440,
    "Ġcrystal": 17217,
    "spikes": 10343,
    "Ġmice": 13862,
    "Ġascribe": 16784,
    "Ġshallow": 14398,
    "fters": 20863,
    "Ġdelicious": 14795,
    "Ġparched": 11731,
    "Ġmemo": 18122,
    "arnel": 18130,
    "ceptibly": 22370,
    "Ġfluid": 11214,
    "Ġsources": 10150,
    "Ġundet": 16703,
    "boots": 11128,
    "Ġunaccountable": 7887,
    "Ġdecay": 1013,
    "Ġtails": 9905,
    "Ġsuffered": 5649,
    "Ġvalues": 2648,
    "answ": 15888,
    "arned": 21825,
    "contriv": 19295,
    "Ġpainting": 13144,
    "Ġgliding": 8564,
    "Ġsoliloquized": 17305,
    "Ġshook": 4469,
    "Ġdefile": 18826,
    "Ġgenial": 12199,
    "Ġpurposes": 11170,
    "Ġsped": 22139,
    "Ġis": 347,
    "Ġopp": 2693,
    "Ġinsulated": 23679,
    "Ġunlocking": 20708,
    "Ġnumbers": 2887,
    "Ġshed": 8182,
    "Ġassuredly": 14825,
    "station": 10846,
    "light": 3021,
    "Ġangry": 5498,
    "ever": 1077,
    "Ġinh": 10826,
    "Ġth": 299,
    "Ġtester": 21175,
    "Ġgrasped": 8034,
    "Ġwretchedly": 19509,
    "Ġbeard": 11658,
    "Ġadjusts": 8983,
    "Ġequals": 4728,
    "Ġchicha": 15940,
    "odecimoes": 25319,
    "nett": 16224,
    "Ġenlarge": 21939,
    "Ġconfessor": 24022,
    "Ġmeal": 9700,
    "Ġturks": 14600,
    "decor": 23783,
    "Ġmagn": 1553,
    "Ġcontributes": 15254,
    "Ġprocured": 8680,
    "coun": 10690,
    "Ġanom": 12617,
    "chair": 5918,
    "Ġpairs": 4179,
    "Ġcoburg": 18594,
    "Ġcommission": 6714,
    "Ġdistressing": 12223,
    "Ġshivering": 10268,
    "Ġsurmised": 24920,
    "Ġgilded": 17448,
    "Ġbehaviors": 13258,
    "speechless": 25396,
    "Ġnarwhales": 24903,
    "Ġremoval": 12122,
    "Ġquohog": 10974,
    "sn": 7140,
    "Ġactive": 7915,
    ",âĢĶâĢľ": 10073,
    "sleepers": 24729,
    "Ġrummaged": 16912,
    "ientiously": 21945,
    "Ġfund": 2840,
    "Ġstrain": 6025,
    "Ġprojected": 16873,
    "Ġcomrade": 11684,
    "Ġens": 2785,
    "Ġinch": 7850,
    "Ġfortifications": 23622,
    "Ġsaucer": 20608,
    "ved": 869,
    "Ġantagon": 19553,
    "Ġacquiesced": 25494,
    "Ġinquiries": 5678,
    "landish": 11946,
    "Ġriver": 5411,
    "ptember": 10895,
    "boilers": 26298,
    "Ġdropout": 1556,
    "Ġparts": 4162,
    "Ġturtle": 4200,
    "Ġimprecate": 20521,
    "Ġprogressive": 5024,
    "destined": 24116,
    "grampus": 18616,
    "Ġbuck": 7158,
    "Ġregarding": 13213,
    "Ġlub": 15653,
    "dimensional": 2346,
    "Ġoccurrence": 14385,
    "ometer": 19328,
    "Ġcandles": 9911,
    "gentleness": 24845,
    "Ġjura": 14195,
    "Ġsan": 7824,
    "Ġscaled": 2107,
    "!âĢĻ": 3332,
    "Ġhinting": 19652,
    "Ġslew": 23386,
    "Ġflanks": 11918,
    "Ġdrink": 4788,
    "Ġlivid": 14992,
    "Ġtech": 1621,
    "Ġmod": 492,
    "thinking": 9017,
    "ounts": 4652,
    "Ġinspiring": 19114,
    "feared": 11807,
    "Ġcir": 21344,
    "Ġpaddington": 17096,
    "ition": 654,
    ".*": 7331,
    "Ġprove": 5231,
    "Ġwhistle": 9068,
    "Ġscre": 9740,
    "Ġaffairs": 6878,
    "Ġplied": 22600,
    "Ġx": 2073,
    "mud": 20973,
    "thr": 12766,
    "honorable": 19903,
    "uses": 11765,
    "Ġcorner": 4370,
    "Ġreserve": 9974,
    "Ġpolished": 11184,
    "Ġwit": 3839,
    "net": 1195,
    "slow": 7810,
    "Ġresolution": 5500,
    "Ġsepulch": 15288,
    "Ġaffrighted": 13575,
    "ough": 472,
    "numer": 15402,
    "points": 14397,
    "discovery": 12021,
    "zwilliam": 5074,
    "Ġunche": 23431,
    "Ġgild": 15673,
    "beauty": 20107,
    "Ġfiddle": 25445,
    "cain": 15329,
    "include": 23591,
    "rear": 21235,
    "Ġmurmur": 14591,
    "cher": 5786,
    "altering": 12646,
    "Ġinteraction": 7424,
    "Ġcontinuing": 14400,
    "Ç": 136,
    "rief": 6204,
    "Ġdried": 7367,
    "Ġmultitude": 9328,
    "Ġabutted": 22279,
    "Ġspangled": 22149,
    "Ġschoolmaster": 16864,
    "Ġsensitive": 13202,
    "Ġjuggler": 26368,
    "Ġdent": 13909,
    "Ġsurvey": 13596,
    "Ġdesirable": 8944,
    "Ī": 235,
    "lled": 10110,
    "Ġburglar": 17357,
    "Ġquitting": 7647,
    "umbria": 23898,
    "Ġ29": 23732,
    "tea": 18743,
    "cou": 13699,
    "seam": 10876,
    "unders": 13313,
    "Ġdepressed": 10885,
    "tis": 4103,
    "Ġheartily": 6890,
    "Ġmodels": 745,
    "Ġinvestigations": 17249,
    "sharks": 14240,
    "unerative": 21900,
    "Ġevaluate": 3092,
    "hoisting": 23718,
    "Ġpittance": 15621,
    "Ġnick": 21526,
    "Ġinspector": 6499,
    "Ġconsummate": 25311,
    "Ġunclad": 22056,
    "Ġarrows": 18337,
    "prise": 7727,
    "weaknesses": 26031,
    "hyena": 24255,
    "Ġtransition": 14244,
    "pan": 10718,
    "accustomed": 13160,
    "squee": 15433,
    "¶": 119,
    "Ġmerest": 14034,
    "Ġsharp": 2414,
    "¯": 112,
    "Ġtags": 20574,
    "!": 5,
    "Ġsturgeon": 20595,
    "indust": 18436,
    "Ġchoking": 15938,
    "Ġconcentric": 20078,
    "Ġaccepted": 7751,
    "Ġezek": 18012,
    "Ġsufficient": 2004,
    "Ġsudden": 2000,
    "woman": 5900,
    "atters": 18497,
    "tempted": 26405,
    "Ġfirmament": 19474,
    "Ġbabies": 19695,
    "Ġwatery": 6298,
    "macy": 18807,
    "Ġgemini": 26471,
    "het": 5435,
    "aco": 12912,
    "Ġbeyond": 2457,
    "Ġcurses": 13025,
    "Ġsoothe": 7405,
    "Ġrestlessness": 23295,
    "Ġresult": 4461,
    "aught": 2677,
    "iloqu": 11651,
    "Ġdevotees": 25377,
    "Ġswitching": 23060,
    "Ġmoist": 9288,
    "ished": 1425,
    "Ġcurrent": 13023,
    "Ġevenings": 18755,
    "armed": 7251,
    "Ġheh": 21683,
    "Ġlizz": 21560,
    "Ġapologizing": 25198,
    "Ġsleeve": 20143,
    "Ġdams": 16456,
    "Ġintrusion": 12771,
    "him": 1939,
    "narr": 12501,
    "entle": 1737,
    "stretching": 20502,
    "after": 2895,
    "Ġmoments": 4847,
    "Ġpunchbowl": 20234,
    "Ġcross": 1373,
    "Ġadmiration": 5329,
    "empl": 5724,
    "Ġmaterial": 5178,
    "Ġfourteen": 12014,
    "scale": 3535,
    "icide": 11621,
    "Ġblessed": 6931,
    "Ġensigns": 23688,
    "constant": 11326,
    "Ġrecounted": 22739,
    "har": 20892,
    "header": 11937,
    "oubtedly": 6943,
    "Ġoccurs": 1856,
    "forth": 9324,
    "Ġwallowing": 24046,
    "ble": 542,
    "Ġhurled": 10431,
    "Ġgoverning": 2792,
    "Ġkindest": 23296,
    "oward": 6022,
    "despatched": 19804,
    "bweb": 20793,
    "Ġfitting": 21411,
    "Ġcomprehend": 6495,
    "Ġtass": 15472,
    "ums": 10275,
    "onom": 9161,
    "Ġbashee": 19851,
    "Ġmisanthrop": 22761,
    "Ġsleet": 8978,
    "Ġdiffident": 23786,
    "Ġingratitude": 17471,
    "designated": 26320,
    "Ġfoundation": 4230,
    "Ġwears": 10243,
    "Ġshivered": 14111,
    "Ġseparation": 11248,
    "Ġunlikely": 10910,
    "osite": 4894,
    "Ġacquisition": 18901,
    "squall": 13524,
    "oir": 21004,
    "blind": 16704,
    "Ġwhelm": 25999,
    "Ġdais": 24372,
    "tips": 13799,
    "G": 43,
    "Ġtold": 2185,
    "overcome": 19052,
    "Ġobscurely": 20191,
    "ental": 7169,
    "sloop": 26146,
    "inian": 21185,
    "Ġsparkling": 11358,
    "assemblies": 25957,
    "horse": 8609,
    "dances": 17523,
    "feet": 6570,
    "orers": 14106,
    "Ġsends": 14793,
    "ppa": 10242,
    "loa": 18534,
    "Ġevenness": 22837,
    "Ġtag": 15471,
    "com": 990,
    "Ġincarnate": 20378,
    "(_": 7541,
    "smo": 10128,
    "Ġvivacious": 19818,
    "system": 4279,
    "Ġmadam": 5663,
    "Ġquakers": 22420,
    "Ġdrawing": 3913,
    "Ġoverboard": 6046,
    "pherd": 13647,
    "Ġg": 310,
    "Ġregularity": 22787,
    "attempts": 17193,
    "anth": 13890,
    "Ġbenef": 3487,
    "Ġunique": 12784,
    "stooped": 23825,
    "Ġfir": 17879,
    "Ġsche": 1705,
    "crime": 14777,
    "urred": 8451,
    "Ġdue": 3842,
    "Ġunlab": 3787,
    "Ġasia": 11686,
    "Ġmaid": 5287,
    "Ġglu": 15672,
    "¿": 128,
    "Ġmakes": 3651,
    "gers": 8376,
    "Ġtandem": 26413,
    "roofed": 26185,
    "Ġshrinking": 14807,
    "Ġmethodic": 23115,
    "soup": 21061,
    "Ġqu": 606,
    "occup": 7753,
    "Ġhearty": 9848,
    "Ġsplit": 7993,
    "Ġquarrels": 16569,
    "mpt": 6656,
    "Ġcapsizing": 20092,
    "dimly": 15350,
    "erity": 21270,
    "ė": 216,
    "Ġusually": 6265,
    "smug": 23911,
    "chan": 1176,
    "Ġdisinclined": 22533,
    "Ġgrating": 14358,
    "Ġbrawny": 13616,
    "aft": 9586,
    "Ġeffort": 8205,
    "Ġital": 10868,
    "Ġep": 7384,
    "infall": 21191,
    "advance": 12161,
    "quarter": 11390,
    "##": 2315,
    "abouts": 9456,
    "ĠâĢľ": 516,
    "impressed": 12697,
    "erate": 7150,
    "Ġorganizations": 12318,
    "Ġlock": 5929,
    "Ġdawn": 6817,
    "Ġperturbed": 20443,
    "Ġmathematical": 3350,
    "Ġbenjam": 22895,
    "Ġeucl": 24708,
    "Ġgregarious": 18964,
    "Ġbecomes": 6397,
    "Ġtypes": 8939,
    "ousand": 2428,
    "knot": 13748,
    "Ġcorrespondence": 10597,
    "everything": 6326,
    "Ġending": 18924,
    "Ġtour": 9150,
    "Ġside": 1386,
    "Ġforging": 18096,
    "Ġpreventing": 884,
    "ellest": 21577,
    "Ġhollow": 5648,
    "cabinet": 25080,
    "produced": 25415,
    "knew": 9129,
    "Ġvag": 9711,
    "Ġwon": 1664,
    "iquette": 26133,
    "Ġnights": 7258,
    "Ġoffences": 18690,
    "_": 67,
    "ĸ": 249,
    "Ġirregular": 9868,
    "Ġfallen": 5969,
    "Ġengravings": 15069,
    "makes": 10713,
    "hereabouts": 23608,
    "Ġsociable": 19407,
    "Ġgoes": 3850,
    "rowed": 22863,
    "Ġsunda": 13546,
    "thunder": 10265,
    "man": 1054,
    "Ġyelling": 18099,
    "â": 163,
    "Ġcalamity": 17352,
    "Ġperse": 6273,
    "Ġpriest": 7527,
    "venth": 9298,
    "dr": 6223,
    "Ġcasket": 19727,
    "Ġincluding": 2847,
    "Ġhides": 16267,
    "cod": 12448,
    "Ġensue": 18191,
    "Ġjacket": 6490,
    "Ġlottery": 19890,
    "================================": 5671,
    "east": 9118,
    "Ġwindigate": 18912,
    "immediate": 20097,
    "Ġdough": 8422,
    "Ġpills": 21468,
    "dock": 16422,
    "obtained": 23099,
    "pursu": 11394,
    "cigar": 26125,
    "matlock": 23471,
    "raved": 18015,
    "Ġ31": 12135,
    "Ġspotted": 12143,
    "Ġthy": 2511,
    "iew": 2446,
    "dition": 15342,
    "teeth": 10357,
    "Ġsuspend": 14610,
    "Ġmccarthys": 19665,
    "inst": 4294,
    "Ġmassachusetts": 24025,
    "Ġupright": 8496,
    "cloth": 11941,
    "Ġstraits": 7994,
    "Ġexcessive": 3888,
    "murderer": 13396,
    "Ġeagle": 13205,
    "acious": 5562,
    "Ġpilgr": 12185,
    "erie": 21273,
    "Ġweal": 21924,
    "verdict": 21733,
    "boast": 23255,
    "Ġquestioned": 14622,
    "Ġweld": 8112,
    "cnns": 3621,
    "Ġalexander": 17427,
    "Ġmere": 2711,
    "Ġfelix": 4850,
    "rect": 1595,
    "Ġcoleridge": 18769,
    "Ġhovering": 10181,
    "Ġsuspecting": 14913,
    "Ġfar": 1451,
    "Ġwarehouse": 20420,
    "Ġhurtling": 24960,
    "instances": 13323,
    "Ġforged": 12710,
    "Ġowe": 8115,
    "Ġpreaching": 15930,
    "leave": 7837,
    "Ġstoner": 7179,
    "fanning": 20868,
    "obli": 23098,
    "Ġbutt": 14128,
    "Ġstar": 6024,
    "abama": 12715,
    "Ġsurgeons": 23466,
    "ĠâĢĶâĢľ_": 17720,
    "gentleman": 7519,
    "Ġpatriot": 23303,
    "rugged": 6849,
    "cred": 9111,
    "Ġdrawers": 12110,
    "footed": 19692,
    "ubb": 1649,
    "Ġson": 2987,
    "abb": 15743,
    "Ġstarlight": 24627,
    "exhibited": 18478,
    "Ġransacked": 26506,
    "Ġlight": 1699,
    "Ġrelieved": 7667,
    "Ġhospitable": 17061,
    "Ġjoke": 8872,
    "shelf": 20384,
    "Ġlapl": 19780,
    "bly": 6112,
    "inations": 7568,
    "Ġdo": 512,
    "Ġsuccor": 25663,
    "Ġmethodology": 2284,
    "Ġhieroglyphic": 25588,
    "unken": 10239,
    "Ġdidst": 11853,
    "Ġannouncing": 16756,
    "rennial": 22345,
    "Ġdismal": 11814,
    "shazzar": 15293,
    "acle": 4717,
    "Ġcrack": 7710,
    "Ġaverred": 18867,
    "Ġarom": 15495,
    "fifth": 20149,
    "Ġhasten": 10480,
    "scure": 22986,
    "icted": 5938,
    "Ġphiladelphia": 26606,
    "Ġmoney": 3416,
    "Ġmomentum": 1599,
    "Ġflourish": 17163,
    "Ġbun": 6008,
    "coll": 23782,
    "Ġtattooings": 24901,
    "analysis": 26174,
    "Ġholes": 16411,
    "Ġheaving": 7602,
    "Ġfoundering": 21422,
    "Ġfronts": 19003,
    "Ġafrican": 20140,
    "Ġshar": 9253,
    "Ġmoss": 9287,
    "Ġafford": 4365,
    "*": 14,
    "Ġlodges": 19503,
    "rench": 3965,
    "Ġbiting": 17863,
    "Ġscenarios": 26544,
    "behaved": 24463,
    "holmes": 4432,
    "inking": 6711,
    "pute": 8849,
    "happily": 14659,
    "Ġdisengaged": 12895,
    "Ġdeserted": 8640,
    "Ġpronouncing": 16971,
    "wel": 6119,
    "composure": 24037,
    "Ġfrigate": 13085,
    "Ġstaring": 8830,
    "Ġaccordance": 19501,
    "Ġyork": 11668,
    "Ġcheck": 7271,
    "Ġharmony": 16816,
    "Ġhip": 17923,
    "Ġpot": 2994,
    "Ġreside": 22543,
    "pip": 6657,
    "Ġdrowned": 9555,
    "Ġunrelieved": 20548,
    "Ġfumbled": 17883,
    "americ": 8156,
    "Ġgentleman": 3045,
    "Ġpreservative": 24630,
    "Ġcompany": 3721,
    "Ġenquired": 21944,
    "somewhere": 12017,
    "Ġmetaphysical": 26070,
    "saf": 11527,
    "Ġhawsers": 26504,
    "Ġprime": 10406,
    "hoped": 20912,
    "removed": 15519,
    "Ġirregularly": 25324,
    "Ġfrenzy": 13625,
    "Ġmatches": 14399,
    "ĠĠĠĠĠĠĠĠĠĠĠĠĠĠĠĠĠĠĠĠĠĠĠĠĠĠĠ": 14889,
    "guessed": 25873,
    "Ġoftener": 13568,
    "deav": 2671,
    "Ġhypotheses": 4388,
    "write": 14649,
    "ezing": 10576,
    "Ġtearing": 14394,
    "enc": 7575,
    "washed": 13050,
    "Ġdented": 17893,
    "ingale": 21302,
    "oppressed": 24821,
    "Ġsums": 2902,
    "Ġas": 374,
    "Ġalternating": 15033,
    "plate": 18200,
    "Ġtrading": 23081,
    "fat": 8079,
    "Ġlurking": 11291,
    "Ġperpetually": 17072,
    "Ġspared": 7894,
    "Ġaccordingly": 6622,
    "Ġhing": 11607,
    "Ġemper": 9864,
    "Ġconsideration": 5191,
    "Ġamateur": 22489,
    "Ġheav": 1850,
    "ople": 2318,
    "abbering": 21800,
    "cious": 6646,
    "Ġsoundings": 13136,
    "sl": 5794,
    "Ġcircumnavigating": 25615,
    "Ġexh": 5232,
    "Ġgasp": 7173,
    "Ġmach": 13860,
    "Ġcatastrophe": 10486,
    "Ġprecise": 7077,
    "Ġguns": 16778,
    "traversed": 19650,
    "lies": 15385,
    "Ġbehavior": 8002,
    "Ġsod": 11564,
    "Ġslates": 11108,
    "Ġden": 3110,
    "Ġreduced": 11928,
    "screaming": 20328,
    "yra": 8103,
    "Ġbacking": 16121,
    "Ġreciproc": 20625,
    "seldom": 13790,
    "ieves": 4003,
    "Ġfootmarks": 19339,
    "spanish": 14333,
    "solute": 16600,
    "¾": 127,
    "Ġnorris": 23204,
    "apply": 18760,
    "theirs": 23604,
    "char": 3502,
    "%": 9,
    "Ġgap": 21602,
    "Ġanswer": 2596,
    "oker": 10965,
    "Ġgrows": 4985,
    "Ġusurpation": 18358,
    "Ġbead": 21754,
    "Ġpatient": 6895,
    "Ġamazing": 9980,
    "faced": 8080,
    "Ġextort": 22751,
    "avail": 18605,
    "Ġidentity": 2523,
    "Ġj": 534,
    "Ġyards": 5371,
    "sugg": 11845,
    "ĠĠĠĠĠĠĠĠĠĠĠĠĠĠĠĠĠĠĠĠĠĠĠĠĠĠĠĠĠĠĠĠĠĠĠĠĠĠĠĠĠĠĠĠĠĠĠĠ": 7989,
    "Ġspan": 11735,
    "Ġmich": 21309,
    "Ġvent": 3995,
    "Ġname": 2082,
    "isf": 2433,
    "Ġezekiel": 26194,
    "remind": 23191,
    "grasp": 16433,
    "ĠĠĠĠĠĠĠĠĠĠĠĠĠĠĠĠĠĠĠĠĠĠĠĠĠĠĠĠĠĠĠĠĠĠĠĠĠĠĠĠĠĠĠĠĠ": 9955,
    "Ġact": 692,
    "Ġpenalizing": 13095,
    "pounds": 21027,
    "Ġguido": 2981,
    "Ġfleshy": 24615,
    "Ġbu": 3682,
    "Ġscript": 18399,
    "Ġeste": 6085,
    "Ġwickedness": 9529,
    "quite": 4647,
    "augh": 1782,
    "bold": 17490,
    "Ġcomb": 1082,
    "Ġcuba": 25098,
    "inguished": 6600,
    "gence": 876,
    "Ġcomprised": 14270,
    "Åĵuvre": 25888,
    "lested": 14886,
    "Ġhed": 7387,
    "resting": 23237,
    "Ġtrophy": 20010,
    "Ġclaret": 22354,
    "Ġsubtlety": 24779,
    "aid": 1920,
    "ety": 3520,
    "shutters": 20314,
    "Ġfeedback": 23435,
    "Ġfurnace": 19443,
    "Ġwick": 2006,
    "byter": 16217,
    "Ġself": 1778,
    "weed": 14318,
    "verted": 10220,
    "Ġtarshish": 12033,
    "diminished": 20841,
    "Ġballasted": 23983,
    "aries": 6246,
    "ething": 1598,
    "Ġveteran": 17453,
    "Ġperched": 10302,
    "Ġuninjured": 22058,
    "Ġfollow": 1394,
    "Ġoccurrences": 11052,
    "Ġyours": 4121,
    "Ġdreamy": 14706,
    "Ġtoast": 21515,
    "Ġorganisation": 23585,
    "Ġquick": 2579,
    "Ġenabled": 9299,
    "Ġjoll": 11769,
    "13": 20752,
    "ividually": 22087,
    "Ġspokes": 18316,
    "Ġfleeting": 19329,
    "enjoy": 10776,
    "rison": 13782,
    "Ġsorrowful": 10539,
    "confusion": 13373,
    "Ġfrontispiece": 23917,
    "luent": 16000,
    "Ġuneasy": 8665,
    "softened": 20413,
    "Ġvaluable": 5608,
    "unforeseen": 21892,
    "Ġdenominated": 15232,
    "Ġpolynes": 16083,
    "Ġunfathom": 14792,
    "_âĢĶâĢĿ": 20765,
    "invest": 11562,
    "Ġmerely": 3769,
    "Ġwealth": 7622,
    "Ġsubstit": 19543,
    "Ġseam": 3904,
    "Ġplu": 8803,
    "times": 8099,
    "Ġyarman": 12711,
    "Ġpreser": 6042,
    "Ġroses": 11790,
    "Ġcheapside": 23291,
    "cross": 3575,
    "train": 2034,
    "Ġfloated": 7288,
    "agreeable": 5830,
    "hmael": 7342,
    "ills": 1627,
    "Ġdiameter": 19869,
    "Ġanatomy": 12324,
    "Ġextracted": 16325,
    "Ġforming": 7044,
    "Ġlids": 12280,
    "Ġsummoned": 9914,
    "Ġtypewriter": 19099,
    "cape": 13701,
    "Ġedged": 23489,
    "Ġaffectation": 14443,
    "Ġlinear": 3430,
    "Ġcoast": 4656,
    "Ġcoarsely": 25830,
    "Ġmining": 22833,
    "Ġinert": 15626,
    "Ġbackwoods": 22665,
    "Ġyoke": 18098,
    "Ġtragedy": 10670,
    "accursed": 20543,
    "Ġnoteworthy": 24164,
    "Ġjenkinson": 11433,
    "Ġworshippers": 25694,
    "happening": 16567,
    "Ġquarrelling": 13501,
    "Ġalliance": 18236,
    "@": 36,
    "Ġpiping": 23233,
    "Ġpressed": 6043,
    "Ġhercules": 14130,
    "Ġanguish": 5584,
    "base": 20779,
    "whether": 5320,
    "Ġbenevolence": 9530,
    "Ġplace": 1652,
    "impulse": 20647,
    "unte": 21877,
    "quarters": 24949,
    "Ġunprovided": 18261,
    "Ġinsurg": 23680,
    "Ġsurrounds": 24234,
    "Ġinsp": 2101,
    "hills": 13739,
    "ogene": 18672,
    "unching": 18161,
    "Ġsupply": 6068,
    "inc": 2519,
    "Ġtip": 15474,
    "feren": 766,
    "drifting": 19827,
    "Ġomnipotent": 13551,
    "meat": 18678,
    "Ġdesponding": 25869,
    "Ġpoetic": 17104,
    "misery": 13347,
    "Ġobservant": 20113,
    "crown": 13702,
    "nearly": 8684,
    "Ġimputation": 22176,
    "Ġjurors": 17347,
    "ics": 3258,
    "Ġheavens": 5050,
    "Ġrenow": 18030,
    "estations": 22228,
    "Ġ2026": 12339,
    "Ġsquad": 22838,
    "Ġhydraulic": 10067,
    "iard": 9604,
    "Ġrever": 6538,
    "Ġnonsense": 6983,
    "however": 4374,
    "Ġstandard": 14498,
    "ered": 1681,
    "Ġthence": 8885,
    "furnished": 20244,
    "Ġscuff": 15946,
    "unexpected": 15782,
    "Ġenviron": 3951,
    "streamed": 25966,
    "Ġno": 511,
    "Ġadjusted": 23459,
    "Ġnorton": 12655,
    "Ġone": 570,
    "Ġfaces": 6010,
    "Ġsettled": 3741,
    "off": 1887,
    "Ġcrimin": 6901,
    "accepting": 20138,
    "Ġclinched": 17397,
    "Ġag": 683,
    "zza": 24169,
    "Ġardour": 8043,
    "Ġlingo": 24904,
    "Ġsocial": 7009,
    "Ġsquare": 2397,
    "Ġlead": 3522,
    "cture": 15669,
    "Ġremark": 2145,
    "Ġmag": 1427,
    "inea": 7625,
    "Ġchaplain": 19914,
    "Ġcalam": 13038,
    "conv": 7213,
    "Ġfacing": 10174,
    "Ġbeaten": 10531,
    "arness": 11675,
    "Ġrobberies": 23019,
    "Ġarrived": 3746,
    "Ġconfirm": 9859,
    "Ġpardon": 5727,
    "ik": 17573,
    "Ġupper": 5090,
    "Ġjerk": 16952,
    "Ġlabours": 8586,
    "pal": 9619,
    "Ġminutest": 14562,
    "Ġmayhap": 18710,
    "gether": 1590,
    "ificent": 8183,
    "Ġsuffice": 18871,
    "thus": 5158,
    "Ġplanks": 5563,
    "Ġsuite": 18278,
    "Ġbanks": 6815,
    "Ġconsequences": 11337,
    "Ġunexampled": 20363,
    "Ġarticle": 9505,
    "venty": 6428,
    "deliberated": 26119,
    "Ġenraged": 10247,
    "kitchen": 17587,
    "eman": 5636,
    "Ġencoding": 4775,
    "Ġprob": 971,
    "Ġjackson": 24243,
    "Ġmachine": 799,
    "Ġtwenty": 3947,
    "Ġclasses": 4053,
    "Ġmaw": 15544,
    "Ġpane": 21465,
    "Ġunprejudiced": 18270,
    "ensils": 22552,
    "Ġmeddling": 21323,
    "Ġstrang": 4158,
    "Ġoverhead": 11778,
    "agon": 7871,
    "lacing": 17592,
    "Ġpurplish": 19142,
    "ness": 851,
    "qualities": 25046,
    "aux": 14291,
    "Ġpalp": 11251,
    "Ġdisappointment": 6629,
    "alled": 5912,
    "Ġdisappearance": 9300,
    "Ġfurrow": 22819,
    "]]": 5205,
    "Ġmarvell": 7248,
    "Ġlasting": 18793,
    "Ġrepositories": 23367,
    "Ġeverlasting": 9340,
    "ancies": 11587,
    "oms": 4594,
    "Ġbaby": 6639,
    "âĢĶ(": 15942,
    "Ġredness": 19314,
    "Ġincomplete": 17211,
    "Ġquadrant": 11406,
    "Ġhusbands": 16645,
    "Ġextinction": 14341,
    "Ġretired": 6072,
    "Ġtalking": 3855,
    "Ġscraps": 16904,
    "Ġpersonally": 8602,
    "Ġpra": 4345,
    "Ġunderground": 18985,
    "Ġfit": 3684,
    "Ġevaluation": 16555,
    "Ġthus": 2036,
    "Ġgreatness": 12948,
    "Ġauthoritative": 19564,
    "ara": 12612,
    "objection": 19917,
    "screwed": 17190,
    "Ġunlim": 18254,
    "converse": 22479,
    "Ġcelest": 9904,
    "Ġfierceness": 26266,
    "Ġberm": 21386,
    "projecting": 26074,
    "Ġreap": 18029,
    "Ġpedro": 15066,
    "vo": 11542,
    "Ġcomponents": 8896,
    "Ġnantucketers": 9897,
    "Ġgrimesby": 11459,
    "Ġbridegroom": 10607,
    "Ġencomp": 12968,
    "passion": 11262,
    "rever": 21238,
    "banish": 20784,
    "Ġoppression": 23652,
    "Ġperempt": 13677,
    "Ġvindictive": 20473,
    "Ġexpanded": 14292,
    "trust": 21081,
    "tormented": 13648,
    "dramatic": 19388,
    "expectations": 24279,
    "Ġtorrid": 25035,
    "Ġimmortality": 26327,
    "deal": 12802,
    "Ġwarden": 17227,
    "Ġtorrent": 17093,
    "Ġapartment": 6636,
    "Ġdecomp": 3809,
    "Ġyale": 21783,
    "Ġticking": 25036,
    "Ġindic": 2886,
    "clouded": 20334,
    "thread": 15830,
    "Ġoutfits": 22325,
    "Ġchairs": 12832,
    "Ġrevenge": 5452,
    "shoulder": 16586,
    "Ġra": 823,
    "aintance": 3569,
    "Ġdesired": 4665,
    "Ġloops": 8856,
    "Ġmagnifying": 16322,
    "Ġbinding": 20422,
    "jewel": 20349,
    "dried": 20829,
    "Ġsubstitute": 16728,
    "abri": 6684,
    "Ġdetective": 14401,
    "Ġentertained": 10001,
    "Ġcreat": 1437,
    "Ġwedded": 15539,
    "Ġbequeathed": 20704,
    "Ġgore": 17991,
    "organ": 15578,
    "Ġcomputational": 1624,
    "Ġdistrustful": 25057,
    "Ġwhistles": 24625,
    "Ġload": 14148,
    "Ġendeared": 26500,
    "Ġiroqu": 21627,
    "Ġinserted": 8356,
    "bearance": 22498,
    "Ġdisgusting": 19896,
    "Ġgrandfather": 19425,
    "Ġdistressed": 8516,
    "Ġbequest": 21757,
    "Ġavenues": 25430,
    "Ġtorm": 5434,
    "Ġphrase": 11189,
    "Ġintensely": 17019,
    "Ġinputs": 841,
    "Ġfelony": 18954,
    "Ġpatroness": 13512,
    "marry": 13327,
    "Ġcolt": 11046,
    "Ġenjoined": 18192,
    "==": 944,
    "Ġpursue": 6316,
    "Ġsearched": 15823,
    "entirely": 7782,
    "qual": 8157,
    "Ġstat": 1492,
    "Ġcontaining": 2229,
    "Ġninetieth": 25358,
    "mentioned": 10626,
    "Ġsings": 15508,
    "Ġnorth": 4318,
    "rants": 13781,
    "Ġinforming": 18744,
    "Ġey": 8135,
    "mot": 17598,
    "Ġices": 21157,
    "Ġwidespread": 20678,
    "Ġtrade": 2545,
    "Ġze": 8548,
    "Ġdinner": 4242,
    "Ġbutterfly": 19912,
    "eminent": 25107,
    "Ġtransformers": 1135,
    "Ġsulphur": 24934,
    "Ġnames": 4533,
    "Ġlac": 17967,
    "Ġboarded": 13237,
    "Ġexultation": 15175,
    "lass": 5994,
    "Ġtribes": 20484,
    "ĠĠĠĠĠĠĠĠĠĠĠĠĠĠĠĠĠĠĠĠĠĠĠĠĠĠĠĠĠĠĠĠĠĠ": 14615,
    "Ġshowed": 4497,
    "snatched": 24851,
    "Ġwandered": 6930,
    "Ġmedd": 15543,
    "Ġnoiseless": 10359,
    "Ġspinal": 12306,
    "Ġbay": 9171,
    "Ġbrilliantly": 25123,
    "verest": 13994,
    "oquent": 12504,
    "Ġfang": 21406,
    "heavenly": 20048,
    "Ġmorphology": 3015,
    "Ġplight": 14284,
    "mblance": 7323,
    "Ġoriental": 9100,
    "merit": 19283,
    "deploy": 22128,
    "Ġsoo": 15865,
    "Ġwestmorland": 24390,
    "Ġhypocritical": 20740,
    "Ġsatisfied": 4169,
    "Ġrequested": 14306,
    "concl": 12875,
    "Ġpatients": 24810,
    "calling": 12454,
    "Ġiii": 7861,
    "tr": 3579,
    "Ġcruellest": 19661,
    "imens": 1744,
    "Ġmodest": 15918,
    "Ġentrapped": 26264,
    "Ġlordly": 23746,
    "Ġindepend": 3667,
    "hearing": 8404,
    "Ġbounty": 26439,
    "Ġsteelkilt": 5675,
    "actorily": 25577,
    "conditional": 9081,
    "irement": 18356,
    "twice": 14623,
    "Ġpiling": 17911,
    "www": 17254,
    "Ġwed": 7576,
    "Ġstooping": 13066,
    "overhearing": 19054,
    "Ġcruising": 6912,
    "Ġmast": 2900,
    "Ġslight": 3122,
    "Ġdeeps": 16120,
    "Ġdormouse": 4926,
    "bourn": 3301,
    "Ġswashing": 23059,
    "kered": 18275,
    "Ġfifty": 4624,
    "distance": 12157,
    "Ġentity": 10344,
    "icting": 12862,
    "electricity": 26387,
    "Ġdick": 3496,
    "pening": 2828,
    "ous": 477,
    "Ġunexpectedly": 19911,
    "Ġhelen": 16658,
    "izes": 885,
    "mering": 12495,
    "Ġrecital": 16146,
    "Ġheard": 1398,
    "Ġinconceivable": 17940,
    "bishop": 13698,
    "Ġsquatted": 25843,
    "Ġbarrens": 25502,
    "Ġprolonged": 8358,
    "umbrance": 22122,
    "Ġcour": 1765,
    "Ġshouting": 10525,
    ",âĢĿâĢĶ": 14218,
    "rudent": 6483,
    "Ġ26": 10472,
    "invincible": 25092,
    "Ġoffic": 3192,
    "aloud": 17943,
    "Ġbiography": 22769,
    "missing": 13223,
    "Ġspilled": 10926,
    "Ġinvulnerable": 19148,
    "Ġsnugly": 17112,
    "Ġser": 1670,
    "fs": 17537,
    "Ġsymmetry": 20369,
    "adamite": 20596,
    "Ġwaited": 4909,
    "Ġrandom": 1583,
    "travel": 24337,
    "Ġsparks": 22146,
    "lorious": 17594,
    "Ġroute": 11383,
    "Ġache": 18664,
    "Ġstrike": 4857,
    "Ġbegg": 16257,
    "Ġmisunderstand": 18705,
    "Ġreigns": 21674,
    "invari": 21187,
    "Ġdomes": 23708,
    "Ġskill": 6872,
    "Ġlogits": 3447,
    "continu": 5501,
    "Ġxxv": 19720,
    "Ġorph": 9720,
    "Ġprocessions": 18427,
    "_),": 7127,
    "Ġoutbreak": 22321,
    "Ġbrooded": 23107,
    "studies": 25170,
    "Ġencirc": 18730,
    "h": 76,
    "Ġparr": 22123,
    "Ġincline": 18570,
    "proves": 23397,
    "Ġscuttle": 7414,
    "Ġstill": 1157,
    "Ġrhyme": 21982,
    "Ġvegetables": 15225,
    "ratches": 20128,
    "itancy": 21336,
    "Ġhanded": 8217,
    "Ġgait": 13334,
    "Ġcarrying": 6073,
    "flatter": 23970,
    "ights": 8478,
    "oglyph": 11018,
    "Ġgladly": 14683,
    "Ġmuff": 8114,
    "thest": 11657,
    "blunder": 24131,
    "Ġwindsor": 16889,
    "Ġbeasts": 10620,
    "Ġparaphrasing": 26528,
    "hroom": 12481,
    "bearer": 18519,
    "Ġwatch": 2741,
    "tub": 9146,
    "presume": 25671,
    "injured": 15136,
    "understanding": 1147,
    "affa": 23779,
    "Ġdropt": 23675,
    "Ġhumble": 8554,
    "Ġrespected": 11956,
    "Ġcoding": 8116,
    "Ġunc": 2125,
    "Ġassailed": 23181,
    "Ġcream": 22722,
    "Ġkn": 4546,
    "ward": 705,
    "Ġstarry": 16925,
    "Ġterr": 3274,
    "miserably": 24213,
    "Ġbaling": 17861,
    "Ġsandwich": 19831,
    "tum": 11534,
    "Ġdifficult": 3571,
    "Ú": 155,
    "oy": 1016,
    "Ġmurder": 4278,
    "Ġbull": 7839,
    "Ġassociated": 12254,
    "Ġdescried": 7919,
    "Ġsupplies": 20329,
    "Ġtraged": 9355,
    "Ġsteer": 10389,
    "Ġmalacca": 24393,
    "Ġparting": 9787,
    "Ġdoublo": 6079,
    "Ġheading": 8938,
    "touched": 15442,
    "Ġclimate": 9278,
    "Ġtendency": 11331,
    "gay": 11491,
    "Ġarmies": 16494,
    "wise": 2572,
    "Ġrelates": 12985,
    "wheels": 14384,
    "inlaid": 21193,
    "Ġemerged": 8688,
    "Ġsixteen": 8283,
    "Ġtick": 8109,
    "Ġruled": 22785,
    "yarn": 15460,
    "quadrille": 20598,
    "Ġpromotion": 23197,
    "Ġfuriously": 9805,
    "E": 41,
    "Ġscreen": 17208,
    "Ġmotives": 7487,
    "drovand": 24759,
    "lant": 20949,
    "Ġtraining": 529,
    "Ġcontext": 1694,
    "redit": 3873,
    "Ġfergus": 16869,
    "Ġknow": 633,
    "Ġmout": 17800,
    "Ġyarn": 10870,
    "Ġpostscript": 14810,
    "elephant": 12355,
    "Ġbelongs": 8015,
    "insanity": 23071,
    "Ġburke": 19253,
    "gorge": 22341,
    "herds": 22208,
    "rrh": 26145,
    "Ġmystery": 5509,
    "Ġbaleful": 24985,
    "Ġparents": 6754,
    "Ġenduring": 16305,
    "mn": 3576,
    "furthest": 19844,
    "romising": 18234,
    "Ġperformed": 8549,
    "edd": 1197,
    "are": 638,
    "Ġrights": 10399,
    "lotte": 3331,
    "pin": 13770,
    "Ġtomahawk": 7540,
    "inkers": 22618,
    "err": 1142,
    "perth": 22189,
    "Ġdemonstrate": 24997,
    "Ġpersonified": 19180,
    "riumph": 4920,
    "Ġindicates": 3199,
    "Ġprovide": 7750,
    "Ġpillow": 10041,
    "ross": 807,
    "Ġworshipper": 25693,
    "Ġlimp": 19182,
    "Ġplowdon": 26449,
    "Ġoutrages": 18416,
    "ape": 1904,
    "Ġgardener": 19136,
    "context": 3403,
    "Ġstates": 1851,
    "full": 7420,
    "ĠâĢĶ": 13814,
    "Ġslaught": 23171,
    "L": 48,
    "Ġaromatic": 25926,
    "Ġarrested": 9563,
    "Ġrudimental": 25111,
    "affairs": 14658,
    "Ġcampa": 17176,
    "Ġanomalously": 25639,
    "ears": 20847,
    "Ġhardships": 14454,
    "Ġambition": 11434,
    "aried": 10989,
    "Ġjewel": 9945,
    "rine": 21040,
    "Ġwhales": 1827,
    "Ġpilot": 5986,
    "good": 2899,
    "een": 726,
    "flitted": 23972,
    "outh": 2684,
    "azz": 8262,
    "Ġmelancholy": 5606,
    "ued": 7562,
    "Ġhor": 1659,
    "Ġlanterns": 24578,
    "Ġoarsman": 8641,
    "Ġendurance": 23141,
    "Ġabsurd": 7202,
    "Ġincessantly": 11413,
    "Ġaccumulation": 2689,
    "oft": 3591,
    "Ġrele": 2916,
    "Ġfirmly": 8014,
    "sets": 17662,
    "Ġensued": 11396,
    "Ġrowing": 10303,
    "Ġlondon": 2836,
    "Ġdisconcerted": 18563,
    "ury": 3311,
    "Ġpreprocessing": 26538,
    "winds": 10524,
    "anim": 6523,
    "appl": 9329,
    "Ġstacked": 21750,
    "together": 3556,
    "uttered": 8442,
    "Ġsettlement": 19839,
    "iour": 4036,
    "cushion": 20823,
    "bodily": 17318,
    "astes": 11743,
    "Ġspectrum": 4475,
    "Ġentertain": 6055,
    "Ġpleaded": 16302,
    "stuff": 15691,
    "quely": 10234,
    "Ġsympathised": 14865,
    "Ġengineer": 11979,
    "ose": 718,
    "Ġidolator": 20001,
    "values": 4973,
    "summit": 23419,
    "bast": 10080,
    "Ġworkman": 16263,
    "ropol": 10955,
    "Ġdespondency": 16580,
    "pot": 10120,
    "unsupervised": 10891,
    "gra": 768,
    "usations": 15951,
    "Ġgleamed": 17078,
    "Ġcomput": 604,
    "inct": 3292,
    "Ġemails": 13110,
    "Ġaskance": 23154,
    "stranger": 9886,
    "Ġenvelopes": 24510,
    "Ġsunshine": 14496,
    "Ġunwritten": 22036,
    "Ġdeceitfulness": 25734,
    "civilized": 17076,
    "inexplicable": 25810,
    "Ġbloodless": 19341,
    "Ġto": 297,
    "Ġvial": 10251,
    "Ġselected": 9714,
    "Ġhuman": 1319,
    "Ġbrow": 3986,
    "Ġgained": 4535,
    "arches": 10818,
    "transformer": 25018,
    "Ġinst": 912,
    "Ġtarred": 23611,
    "introduction": 15127,
    "Ġexquisitely": 20205,
    "incible": 16499,
    "Ġpurposely": 10446,
    "gracechurch": 24582,
    "Ġabased": 22272,
    "Ġlofty": 6219,
    "ville": 6088,
    "Ġadaptive": 1294,
    "they": 1880,
    "hawk": 7123,
    "Ġmasked": 3695,
    "blow": 9107,
    "Ġrevived": 11370,
    "Ġcigars": 12257,
    "Ġcollecting": 12290,
    "jumping": 20248,
    "wants": 21133,
    "Ġdependen": 1828,
    "Ġstrong": 1787,
    "ance": 478,
    "onely": 6517,
    "ssible": 2996,
    "Ġimmediate": 6090,
    "Ġcontraction": 16012,
    "quadr": 15768,
    "Ġunwarrant": 19936,
    "Ġenglishmen": 19433,
    "resses": 16155,
    "Ġsignificant": 8637,
    "Ġvehemence": 26568,
    "Ġresolves": 23649,
    "fal": 17538,
    "Ġthickets": 24026,
    "Ġwindlass": 7255,
    "yonder": 21147,
    "ollen": 11300,
    "Ġcoming": 2614,
    "Ġassumpt": 5415,
    "omuch": 21663,
    "Ġmomentary": 11038,
    "Ġdownst": 3559,
    "hes": 1396,
    "Ġbreast": 8971,
    "Ġantique": 19554,
    "chemical": 23811,
    "Ġlurid": 19684,
    "Ġsnar": 13203,
    "Ġsplinter": 23749,
    "Ġrightly": 13069,
    "Ġinglorious": 24424,
    "Ġsweetheart": 19398,
    "clo": 5613,
    "Ġbroadway": 23987,
    "acceptable": 25185,
    "lined": 12488,
    "roll": 9199,
    "Ġspices": 22144,
    "uten": 11625,
    "irection": 2388,
    "Ġtales": 10144,
    "Ġovertook": 18430,
    "Ġrasc": 21978,
    "ai": 2525,
    "Ġpersuasion": 10501,
    "Ġkingdom": 12023,
    "cused": 15335,
    "Ġlabour": 7274,
    "Ġbegan": 2022,
    "eyes": 5684,
    "Ġidiot": 11976,
    "Ġinclu": 1097,
    "]": 65,
    "impe": 21711,
    "Ġbeauties": 10447,
    "Ġarr": 1799,
    "Ġswerve": 14440,
    "Ġlamps": 14794,
    "Ġfilial": 16622,
    "Ġdetermined": 2220,
    "Ġfamed": 16330,
    "much": 3706,
    "cruising": 12284,
    "Ġcompacted": 23510,
    "intelligence": 5884,
    "Ġwatson": 3597,
    "mantel": 26396,
    "Ġdeprec": 15762,
    "interests": 19711,
    "Ġloveliness": 13611,
    "Ġpaddling": 25286,
    "Ġexcavating": 23317,
    "Ġtranquillize": 24756,
    "Ġrelaps": 18777,
    "Ġunwarrantable": 26346,
    "sofa": 26147,
    "Ġkeeping": 7283,
    "comm": 7440,
    "Ġmodeling": 2096,
    "succeeded": 15179,
    "Ġsway": 7572,
    "trial": 20353,
    "Ġcad": 12573,
    "Ġmed": 4174,
    "Ġsuns": 23276,
    "inging": 5908,
    "Ġdeal": 3608,
    "Ġchina": 8040,
    "painted": 17641,
    "Ġchaos": 17011,
    "Ġroads": 13292,
    "conven": 6164,
    "Ġhas": 824,
    "Ġeligible": 10673,
    "Ġultimately": 17167,
    "Ġmarshalled": 25316,
    "peculiarities": 13474,
    "Ġquar": 3116,
    "Ġparamet": 608,
    "Ġimages": 1597,
    ",âĢĻâĢĶ": 23528,
    "Ġtong": 4871,
    "Ġdecorum": 16024,
    "impud": 23763,
    "Ġstreat": 15728,
    "Ġcomplimented": 14907,
    "Ġpopularly": 12246,
    "Ġfa": 4821,
    "amongst": 24673,
    "Ġpoverty": 9307,
    "arthur": 14833,
    "Ġrestless": 10415,
    "Ġwooden": 4731,
    "hypothe": 25906,
    "Ġgather": 6536,
    "accur": 14595,
    "Ġgrap": 11711,
    "Ġweap": 6157,
    "Åĵ": 10746,
    "Ġsheaves": 22167,
    "Ġfortun": 4982,
    "Ġstack": 21740,
    "loops": 12888,
    "sar": 12509,
    "Ġmoses": 21318,
    "legs": 13185,
    "hateful": 20911,
    "Ġ41": 24082,
    "epilogue": 22107,
    "Ġjudges": 14687,
    "Ġmariner": 7247,
    "Ġledger": 19405,
    "nikin": 23226,
    "already": 6981,
    "Ġwhereof": 16106,
    "afternoon": 13188,
    "âĢĻ": 378,
    "beloved": 19464,
    "ateness": 15523,
    "Ġalche": 21787,
    "enes": 5218,
    "Ġpoorly": 9858,
    "Ġbrightened": 23832,
    "Ġspe": 819,
    "Ġmurmured": 7481,
    "Ġcornelius": 13576,
    "Ġbuffaloes": 25218,
    "hundreds": 25076,
    "Ġmont": 8562,
    "Ġvolcanoes": 24148,
    "Ġpasseng": 12976,
    "Ġvaults": 17156,
    "Ġcorpus": 13036,
    "no": 897,
    "Ġhead": 1126,
    "Ġwane": 21291,
    "viv": 17700,
    "Ġsixty": 7723,
    "Ġcongratulations": 10583,
    "dead": 8180,
    "ural": 502,
    "Ġgroping": 13669,
    "Ġfejee": 18355,
    "Ġsmart": 11819,
    "Ġclapham": 17268,
    "breadth": 20279,
    "Ġconfound": 23306,
    "about": 3586,
    "Ġconsisted": 10421,
    "Ġturkish": 12266,
    "doing": 8588,
    "ex": 622,
    "Ġattics": 22632,
    "must": 3577,
    "Ġwired": 17788,
    "Ġsuspects": 16892,
    "Ġlestrade": 5825,
    "Ġhero": 5715,
    "creature": 5347,
    "Ġstatistics": 1680,
    "Ġrustling": 24714,
    "Ġdisent": 22527,
    "Ġpauses": 14817,
    "Ġsanct": 15065,
    "Ġoffing": 16147,
    "gate": 12471,
    "Ġliberal": 12195,
    "retired": 11940,
    "bering": 18693,
    "condition": 7061,
    "opotam": 22483,
    "itiously": 13874,
    "Ġflickering": 23017,
    "uced": 13803,
    "alley": 23027,
    "Ġlistless": 16477,
    "animated": 14978,
    "ding": 3031,
    "Ġmar": 1313,
    "otes": 15748,
    "rigible": 24932,
    "Ġgro": 4398,
    "sentence": 2940,
    "Ġtackle": 9516,
    "Ġdang": 9177,
    "eties": 10839,
    "spears": 23945,
    "Ġearlier": 9090,
    "Ġfluffy": 19367,
    "pleasures": 24049,
    "forget": 11033,
    "Ġmilan": 19538,
    "Ġvineyard": 12334,
    "Ġlegisl": 23535,
    "ipher": 18428,
    "unctions": 18158,
    "Ġbree": 5012,
    "ifully": 13187,
    "prodigious": 17469,
    "Ġrepose": 6743,
    "metic": 14987,
    "recogn": 13428,
    "Ġadvis": 9810,
    "Ġyer": 15738,
    "Ġtener": 21166,
    "Ġdance": 4443,
    "Ġscand": 7203,
    "Ġvoyage": 3058,
    "Ġcommentaries": 20163,
    "intense": 22939,
    "Ġcostume": 16497,
    "Ġbarrels": 9439,
    "Ġsuccour": 20438,
    "Ġunresting": 25554,
    "splash": 25210,
    "Ġahead": 6665,
    "Ġ119": 24441,
    "lestrade": 9659,
    "Ġislets": 21805,
    "Ġlawless": 19438,
    "Ġsickened": 16777,
    "Ġclient": 5556,
    "Ġregion": 2269,
    "Ġrevolving": 9986,
    "arman": 11598,
    "igen": 4832,
    "Ġreasonably": 11096,
    "ython": 1032,
    "Ġdull": 6385,
    "Ġpliny": 11829,
    "proceeded": 25191,
    "allah": 5839,
    "spread": 8389,
    "Ġworthy": 7241,
    "Ġproportional": 2524,
    "courageous": 26128,
    "Ġinquis": 19306,
    "Ġprofessors": 14728,
    "Ġimpartial": 15223,
    "Ġscoundrel": 13674,
    "Ġsemantic": 1957,
    "Ġcanvassed": 19938,
    "andy": 8158,
    "Ġtread": 9412,
    "Ġearned": 19408,
    "Ġdel": 1610,
    "Ġdistur": 5313,
    "itude": 1417,
    "Ġdriving": 3617,
    "Ġreaching": 7303,
    "helping": 23146,
    "Ġdifficulty": 5770,
    "oct": 7555,
    "Ġindelicacy": 25696,
    "keys": 15862,
    "Ġintrodu": 1923,
    "northern": 23666,
    "Ġsometimes": 2168,
    "Ġinclinations": 19542,
    "Ġclos": 4549,
    "Ġsuggestive": 11299,
    "Ġsyllable": 9732,
    "Ġspecially": 12002,
    "iling": 3097,
    "--âĢľ": 12977,
    "danced": 20830,
    "plings": 11699,
    "slack": 16896,
    "Ġflatter": 9351,
    "rudently": 16712,
    "Ġlips": 3989,
    "sch": 21053,
    "onse": 21252,
    "irwin": 8471,
    "Ġimpropri": 14220,
    "datasets": 11957,
    "Ġfuel": 13907,
    "Ġunbecoming": 22066,
    "Ġchinese": 14186,
    "Ġentrance": 7233,
    "Ġactively": 18655,
    "Ġsurprise": 3827,
    "Ġdeclare": 6616,
    "Ġsurpassing": 20471,
    "Ġyields": 19659,
    "uce": 11538,
    "Ġpods": 17915,
    "Ġpresumably": 19627,
    "bs": 3774,
    "eskye": 21487,
    "solved": 7686,
    "few": 8204,
    "Ġscattered": 6856,
    "Ġassaults": 15160,
    "requirements": 24858,
    "Ġfellows": 8257,
    "Ġtheology": 21279,
    "childhood": 16870,
    "consc": 4842,
    "Ġtasselled": 25922,
    "eur": 7546,
    "Ġblanket": 8343,
    "rougham": 15997,
    "dismay": 19156,
    "exception": 9979,
    "pulous": 15419,
    "Ġinter": 727,
    "70": 17478,
    "cstasy": 11447,
    "txt": 12520,
    "Ġfancies": 10426,
    "Ġhunch": 18937,
    "Ġinterests": 14571,
    "Ġtiny": 11555,
    "nurse": 15212,
    "84": 15305,
    "Ġsurpl": 19134,
    "Ġcrate": 19121,
    "Ġtex": 15475,
    "mense": 4781,
    "road": 6679,
    "iece": 3232,
    "sprang": 19994,
    "Ġleech": 24157,
    "Ġimpregn": 26023,
    "Ġonce": 1493,
    "Ġancho": 15607,
    "send": 15426,
    "Ġtake": 1575,
    "amusement": 15286,
    "Ġdiversity": 25285,
    "Ġinfrequent": 3822,
    "Ġdressing": 7092,
    "Ġstuck": 9225,
    "gazing": 12476,
    "Ġesteemed": 10591,
    "Ġmechanically": 14406,
    "fr": 4805,
    "when": 1585,
    "encing": 21285,
    "Ġkid": 9729,
    "Ġnursed": 16887,
    "dischar": 19155,
    "vest": 6232,
    "xic": 9148,
    "devil": 7893,
    "uncont": 15778,
    "Ġreaches": 18034,
    "etus": 21581,
    "Ġrueful": 25582,
    "Ġdines": 21426,
    "Ġinfallible": 15074,
    "Ġservants": 6612,
    "Ġtu": 6969,
    "Ġdeser": 3883,
    "Ġchestnuts": 24381,
    "Ġwelded": 9574,
    "Ġ91": 24590,
    "sighted": 19788,
    "Ġwarmup": 3917,
    "Ġfinally": 4667,
    "Ġruined": 12959,
    "Ġjer": 6268,
    "arken": 18668,
    "Ġwarsaw": 26168,
    "Ġhans": 12632,
    "mortal": 10115,
    "Ġdeeply": 4718,
    "downstairs": 23923,
    "Ġjane": 1755,
    "Ġstoutest": 24629,
    "Ġegyptian": 13589,
    "whaler": 20312,
    "prop": 1052,
    "be": 668,
    "carriage": 9949,
    "Ġdeclared": 5595,
    "Ġsticking": 13430,
    "Ġquadrille": 13543,
    "Ġtheorem": 2324,
    "Ġlocking": 18299,
    "Ġretrogression": 26583,
    "Ġrisks": 9967,
    "Ġirrevoc": 15041,
    "Ġpresc": 15929,
    "antly": 1989,
    "plish": 18201,
    "Ġgreece": 17071,
    "Ġenhance": 3008,
    "Ġjury": 5378,
    "type": 16180,
    "Ġcorrection": 5062,
    "corrupt": 14898,
    "Ġespecial": 26412,
    "ructive": 18545,
    "Ġlives": 4828,
    "promise": 12255,
    "iced": 3896,
    "irm": 3111,
    "Ġ200": 19298,
    "Ġimp": 582,
    "Ġdesp": 3218,
    "vere": 4884,
    "tanh": 5204,
    "Ġstraps": 19312,
    "Ġstoop": 16313,
    "Ġattends": 19653,
    "claim": 9838,
    "\\": 64,
    "Ġstile": 21739,
    "Ġtease": 18797,
    "ectual": 21917,
    "drawing": 10489,
    "tort": 17677,
    "etting": 21583,
    "Ġvect": 1226,
    "bank": 10082,
    "Ġrushes": 20511,
    "Ġdetected": 18815,
    "Ġvenge": 5420,
    "Ġcompliance": 12119,
    "raising": 21635,
    "Ġrussian": 14353,
    "pictures": 15094,
    "Ġfagged": 17884,
    "Ġfeel": 1258,
    "Ġbred": 9172,
    "Ġdamning": 19141,
    "reflection": 13458,
    "irt": 3080,
    "ivance": 22082,
    "Ġ36": 14770,
    "Ġheighten": 19532,
    "Ġamount": 8514,
    "Ġcarpent": 4466,
    "Ġlod": 4041,
    "Ġprairie": 8716,
    "inhab": 10759,
    "Ġpredecess": 18529,
    "iantly": 13742,
    "Ġrephr": 21682,
    "Ġsammy": 24933,
    "Ġhistory": 4005,
    "Ġheavy": 3743,
    "orney": 17875,
    "4": 24,
    "Ġbehold": 5049,
    "accept": 8901,
    "Ġglove": 14493,
    "haut": 20904,
    "mming": 1170,
    "Ġpaths": 2567,
    "Ġmince": 22834,
    "ubines": 22964,
    "Ġlegit": 16474,
    "Ġtedious": 15271,
    "ren": 549,
    "special": 14708,
    "zz": 4292,
    "Ġcharged": 9857,
    "turn": 4291,
    "Ġcentrally": 23835,
    "successfully": 14994,
    "venor": 16101,
    "Ġcorridor": 10674,
    "Ġdreams": 7497,
    "plutarch": 21961,
    "gro": 10097,
    "Ġcosmetic": 23473,
    "Ġformed": 3880,
    "Ġtechniques": 2865,
    "Ġfre": 1568,
    "Ġmightier": 18729,
    "Ġperceptibly": 25822,
    "ribes": 23369,
    "Ġethics": 15465,
    "jol": 20927,
    "Ġmeridian": 25713,
    "Ġexchange": 15758,
    "Ġgroups": 3719,
    "Ġwicked": 5962,
    "Ġstole": 7953,
    "Ġstri": 2800,
    "Ġtasted": 12534,
    "ableness": 8149,
    "Ġreplace": 14478,
    "Ġnominally": 17234,
    "Ġscandinavian": 26347,
    "Ġrevellers": 21681,
    "Ġinsip": 19269,
    "Ġrestore": 9383,
    "Ġtext": 2264,
    "setting": 13289,
    "Ġrope": 4337,
    "Ġledgers": 23941,
    "avier": 2827,
    "anzas": 17842,
    "Ġtestimony": 14479,
    "Ġwhence": 5840,
    "Ġinsurmountable": 16532,
    "Ġbadly": 12136,
    "opposing": 24822,
    "musical": 25341,
    "Ġfierce": 7437,
    "Ġhardship": 18915,
    "Ġrude": 7234,
    "Ġposition": 1953,
    "Ġqual": 6276,
    "Ġsyn": 15916,
    "ote": 4597,
    "scent": 13021,
    "crimson": 24090,
    "Ġquitted": 5312,
    "harpooneers": 8693,
    "Ġumb": 11649,
    "bitt": 17488,
    "Ġphilist": 16603,
    "Ġinboard": 17935,
    "Ġunfortunate": 5376,
    "Ġjourneying": 25566,
    "wic": 21123,
    "Ġcompar": 4772,
    "Ġbeauty": 3768,
    "Ġlucy": 17972,
    "Ġtreasures": 17048,
    "ersed": 10262,
    "tattoo": 21090,
    "amplified": 26496,
    "Ġhabitation": 14805,
    "ī": 236,
    "Ġauthorities": 11266,
    "Ġpallidness": 25605,
    "Ġriggers": 24158,
    "worship": 19390,
    "Ġbeneath": 3240,
    "ssip": 14082,
    "Ġscrut": 15949,
    "pacific": 17643,
    "´": 117,
    "Ġsperma": 19050,
    "Ġringleader": 26214,
    "Ġlieuten": 13330,
    "Ġcommons": 22675,
    "speed": 19412,
    "Ġpolitical": 19226,
    "Ġgraves": 11712,
    "Ġattack": 5478,
    "Ġlip": 6534,
    "spent": 12947,
    "Ġghostliness": 24652,
    "ifferent": 4260,
    "Ġminimize": 7052,
    "iar": 2376,
    "Ġdecorated": 22444,
    "Ġfem": 6136,
    "Ġhers": 7889,
    "rr": 17652,
    "Ġoun": 13866,
    "Ġofficers": 4427,
    "Ġtand": 21163,
    "Ġshops": 22005,
    "Ġlawn": 7379,
    "Ġpeculiarities": 12075,
    "Ġtub": 7147,
    "inburgh": 15493,
    "Ġjollity": 25567,
    "Ġforbe": 8459,
    "rope": 3190,
    "Ġunfold": 8022,
    "Ġdances": 10814,
    "fug": 17545,
    "mind": 4627,
    "Ġtables": 9881,
    "Ġanatomical": 15080,
    "Ġsickle": 24248,
    "Ġcursory": 18859,
    "Ġattended": 5391,
    "Ġties": 12533,
    "Ġplat": 8523,
    "fancy": 7337,
    "Ġ52": 24317,
    "Ġreproachfully": 25252,
    "Ġextraction": 11253,
    "Ġredu": 1354,
    "Ġdetermine": 3247,
    "ift": 1605,
    "Ġrap": 14310,
    "Ġrails": 22657,
    "cupboards": 25402,
    "cheon": 23806,
    "Ġimplement": 2947,
    "Ġtophet": 23575,
    "william": 4563,
    "Ġstow": 21737,
    "bows": 10084,
    "Ġrecommend": 7104,
    "Ġlover": 7193,
    "Ġmournful": 12340,
    "Ġfine": 1318,
    "Ġsong": 5904,
    "Ġlikes": 9411,
    "properly": 24919,
    "Ġascending": 14857,
    "latitude": 25260,
    "possession": 12226,
    "Ġn": 300,
    "Ġvenetian": 14850,
    "Ġensu": 7875,
    "quake": 11682,
    "Ġhorizontally": 17014,
    "Ġvill": 3874,
    "Ġhappen": 5571,
    "ternatural": 12721,
    "Ġacquiescence": 20333,
    "thyself": 19300,
    "Ġunass": 14117,
    "Ġperception": 9753,
    "Ġbreakers": 12059,
    "Ġ111": 24436,
    "Ġdraught": 9847,
    "Ġspout": 3283,
    "Ġpowerful": 1486,
    "Ġverte": 9444,
    "Ġtacit": 21177,
    "Ġwidower": 24238,
    "Ġgazed": 6479,
    "Ġcheered": 16372,
    "Ġunheard": 22027,
    "mun": 20964,
    "Ġomin": 11580,
    "bation": 9106,
    "ignominious": 26589,
    "bald": 16446,
    "Ġexperiment": 11922,
    "approve": 19940,
    "Ġvul": 10250,
    "Ġreveren": 13200,
    "Ġpatiently": 19920,
    "umbs": 14692,
    "Ġaerial": 21201,
    "sion": 8094,
    "outre": 18322,
    "nets": 9135,
    "Ġsimplest": 16337,
    "Ġmist": 2876,
    "Ġsucceeding": 16763,
    "Ġarter": 22181,
    "Ġbelted": 22953,
    "Ġrows": 10563,
    "Ġthrills": 24542,
    "Ġlandless": 23382,
    "Ġlament": 7857,
    "Ġfloor": 4379,
    "save": 13788,
    "Ġpequod": 2321,
    "orand": 21400,
    "dy": 4073,
    "Ġcritic": 19123,
    "Ġmicha": 17813,
    "embraced": 25807,
    "Ġscratches": 22290,
    "Ġmany": 1101,
    "soc": 5175,
    "inu": 1116,
    "Ġemb": 1214,
    "Ġmant": 9650,
    "Ġte": 1136,
    "Ġopal": 23627,
    "share": 14237,
    "contrad": 19294,
    "Ġcrooked": 11283,
    "Ġparties": 7040,
    "collar": 19330,
    "Ġmedic": 11258,
    "remembered": 17354,
    "Ġalph": 9698,
    "lie": 12487,
    "Ġpremature": 3725,
    "Ġbery": 13901,
    "Ġgrimes": 11036,
    "Ġmanipulated": 25179,
    "Ġglimpses": 13435,
    "Ġfaintness": 24571,
    "tree": 11536,
    "ć": 200,
    "anation": 5804,
    "Ġresuming": 12899,
    "Ġlandsmen": 11353,
    "Ġimmediately": 3365,
    "Ġdelirium": 10407,
    "purp": 8091,
    "Ġcourt": 4166,
    "icil": 17974,
    "royal": 11395,
    "indian": 11782,
    "Ġwives": 12560,
    "Ġbehaved": 13257,
    "isms": 12586,
    "Ġsewing": 21965,
    "Ġpaus": 4298,
    "constable": 24606,
    "aw": 1450,
    "Ġcontented": 9759,
    "pping": 1423,
    "bohem": 19002,
    "Ġsolitudes": 22891,
    "sounded": 12271,
    "obstructed": 15230,
    "building": 17312,
    "Ġboarding": 12091,
    "other": 1316,
    "Ġlighten": 23262,
    "Ġmoulton": 17438,
    "Ġexistence": 4708,
    "frame": 17117,
    "otent": 8836,
    "Ġlest": 6396,
    "thed": 8831,
    "Ġperman": 10966,
    "grant": 10429,
    "Ġopens": 23628,
    "Ġfleet": 9435,
    "Ġtrusted": 10520,
    "Ġearth": 2846,
    "¼": 125,
    "Ġpurchasing": 19877,
    "Ġconstitutional": 25128,
    "oved": 5215,
    "Ġstranded": 9778,
    "Ġindestruct": 22963,
    "Ġconversations": 9428,
    "Ġwardrobe": 17228,
    "Ġuser": 15920,
    "Ġcontrary": 5261,
    "consent": 18504,
    "Ġcrop": 10165,
    "Ġretreated": 13436,
    "Ġ2": 2929,
    "accessory": 25500,
    "guard": 12133,
    "Ġfoot": 3167,
    "wrath": 23759,
    "grandfather": 25012,
    "poises": 11895,
    "heading": 5487,
    "Ġtallow": 14782,
    "Ġtracks": 18892,
    "odes": 18119,
    "esteem": 26009,
    "alluring": 18353,
    "Ġmam": 8406,
    "Ġexclamations": 11363,
    "Ġconcrete": 20639,
    "Ġane": 9184,
    "Ġroof": 6566,
    "Ġconvers": 2906,
    "endless": 22230,
    "Ġwield": 21293,
    "borean": 25744,
    "Ġpattern": 1306,
    "opol": 12877,
    "Ġequatorial": 13511,
    "Ġforb": 11666,
    "conviction": 19968,
    "avings": 12027,
    "Ġunchanging": 22047,
    "Ġsword": 6734,
    "Ġnavigation": 9996,
    "atch": 671,
    "importance": 9992,
    "luxur": 25823,
    "atmosphere": 21267,
    "Ġbrill": 8551,
    "iction": 4266,
    "strongly": 24685,
    "Ġimperilled": 19581,
    "bell": 7332,
    "Ġplausible": 26555,
    "Ġmuscle": 14691,
    "Ġvaulted": 25171,
    "original": 9088,
    "Ġvii": 13112,
    "guilty": 19486,
    "Ġseats": 14092,
    "Ġfiftieth": 24702,
    "Ġheadsmen": 14735,
    "Ġeighty": 19479,
    "Ġroaring": 10970,
    "smiles": 14695,
    "Ġcirculation": 16419,
    "Ġdaintiest": 25954,
    "Ġmorning": 1745,
    "Ġdummy": 25450,
    "Ġaust": 4872,
    "ulus": 21868,
    "Ġraven": 16118,
    "Ġsilence": 3269,
    "Ġmusket": 12300,
    "Ġconsult": 6058,
    "ek": 1906,
    "ĠĠĠĠĠĠĠĠĠĠĠĠĠĠĠĠĠĠĠĠĠĠĠĠĠĠĠĠĠĠĠĠĠĠĠĠĠĠĠĠ": 4517,
    "Ġpaws": 13924,
    "Ġdaybreak": 18726,
    "Ġvariety": 8533,
    "Ġ1836": 25721,
    "iii": 14779,
    "Ġmab": 12565,
    "Ġuncl": 22018,
    "Ġembodied": 25847,
    "ocris": 23707,
    "Ġentreating": 24210,
    "scarcely": 12390,
    "nourished": 26400,
    "Ġportly": 14680,
    "Ġinjunction": 19620,
    "Ġbrixton": 13667,
    "Ġangel": 4854,
    "Ġflower": 16235,
    "Ġver": 3392,
    "Ġmarshal": 20222,
    "Ġdet": 509,
    "respective": 19848,
    "liv": 9610,
    "ass": 537,
    "distinction": 19574,
    "exped": 16526,
    "Ġhowling": 8512,
    "Ġserves": 4669,
    "overfitting": 13104,
    "affect": 13215,
    "Ġmeadows": 11424,
    "alarms": 21508,
    "Ġmrs": 1468,
    "emorial": 10244,
    "remem": 13071,
    "augment": 18832,
    "Ġcloset": 19594,
    "serv": 7451,
    "Ġcompose": 12908,
    "harpoon": 9494,
    "Ġdipping": 15596,
    "match": 15394,
    "Ġawe": 7148,
    "Ġsucceeded": 6107,
    "Ġfashioned": 13324,
    "Ġabsor": 8507,
    "Ġangles": 23590,
    "riage": 2124,
    "mast": 3602,
    "their": 2539,
    "Ġattain": 12755,
    "Ġactually": 5389,
    "idity": 8835,
    "indulged": 22382,
    "ascar": 8436,
    "Ġzone": 14364,
    "Ġpince": 21473,
    "Ġcargo": 16293,
    "Ġscarcely": 4006,
    "=": 33,
    "Ġguilt": 6181,
    "Ġbordeaux": 24565,
    "Ġquiet": 3262,
    "eding": 7166,
    "rough": 589,
    "agos": 21908,
    "calculating": 25690,
    "Ġhedgehogs": 25395,
    "Ġimpending": 22390,
    "pp": 384,
    "Ġcurse": 7669,
    "apside": 22965,
    "Ġwood": 2290,
    "Ġexpand": 9310,
    "Ġfairly": 6327,
    "Ġhogarth": 25781,
    "trifling": 19417,
    "Ġallude": 12777,
    "âĢľâĢĻ": 10224,
    "Ġvigour": 24462,
    "Ġurgent": 16871,
    "ashed": 3783,
    "Ġhere": 1088,
    "Ġproble": 1107,
    "fright": 9598,
    "ided": 2782,
    "kl": 4866,
    "hug": 17565,
    "careful": 14869,
    "Ġwriggling": 15261,
    "Ġblackest": 19100,
    "acquainted": 7313,
    "somehow": 12016,
    "Ġyouthful": 16725,
    "Ġacknowledges": 24689,
    "Ġunfortunately": 10911,
    "Ġsailor": 3536,
    "melancholy": 12357,
    "Ġrippling": 17280,
    "hap": 17561,
    "Ġemployment": 8632,
    "Ġenvelope": 7319,
    "exagger": 22432,
    "vour": 17701,
    "bus": 5355,
    "Ġaslant": 21905,
    "tern": 4221,
    "leagues": 21376,
    "Ġletters": 3791,
    "Ġassum": 4063,
    "Ġuncont": 14119,
    "iverer": 11720,
    "anct": 21361,
    "Ġfurther": 1057,
    "Ġjoyously": 19350,
    "Ġdusk": 12331,
    "geon": 6272,
    "Ġmayhew": 12955,
    "eches": 8078,
    "atory": 6127,
    "Ġdinn": 23984,
    "Ġforenoon": 19127,
    "ikes": 8087,
    "Ġmankind": 6700,
    "Ġsow": 17751,
    "Ġpreserve": 7530,
    "not": 910,
    "ices": 2138,
    "Ġendeavored": 19305,
    "Ġaccur": 3527,
    "Ġpublicly": 13326,
    "although": 8810,
    "Ġpendulous": 25956,
    "rifled": 21050,
    "Ġstrasburgh": 18618,
    "Ġcombine": 4417,
    "Ġeul": 21621,
    "Ġreef": 10851,
    "Ġplun": 6283,
    "Ġwiser": 14733,
    "Ġcorrid": 9827,
    "dispute": 23501,
    "Ġaffair": 4464,
    "eps": 12797,
    "Ġnecessitated": 23932,
    "Ġsprout": 24092,
    "Ġwaiter": 16363,
    "Ġevery": 926,
    "Ġjoes": 19233,
    "Ġmadness": 6603,
    "Ġnaturally": 2465,
    "plenty": 14091,
    "particip": 23618,
    "birds": 15148,
    "Ġswelling": 11929,
    "Ġhappening": 14386,
    "Ġsane": 21224,
    "Ġcontemptuously": 19836,
    "Ġfished": 21413,
    "Ġdefault": 3043,
    "Ġwarmed": 12028,
    "Ġneglected": 10380,
    "Ġhealthy": 10853,
    "Ġcluster": 13574,
    "Ġindignation": 8347,
    "tasted": 17689,
    "Ġturbul": 23614,
    "pur": 7806,
    "_.)": 7278,
    "Ġbrightest": 13229,
    "conjecture": 15126,
    "forty": 9377,
    "Ġoperated": 14548,
    "fearing": 18533,
    "Ġhind": 9191,
    "Ġclouded": 13294,
    "dÃ¦mon": 17529,
    "Ġisa": 14028,
    "Ġanimated": 7702,
    "Ġsplash": 16551,
    "ividual": 5463,
    "Ġflourishing": 25188,
    "Ġprisoner": 8676,
    "extracts": 22767,
    "ial": 411,
    "heidelburgh": 21214,
    "Ġauger": 21206,
    "kick": 20938,
    "darkness": 9515,
    "particulars": 11317,
    "confl": 22475,
    "Ġdrove": 4984,
    "urs": 6990,
    "fth": 20858,
    "rebell": 17765,
    "Ġmiscellaneous": 17465,
    "Ġmonogra": 22980,
    "sol": 1790,
    "Ġfluctuations": 5516,
    "Ġcredited": 25157,
    "Ġvillains": 14752,
    "grass": 23415,
    "confidential": 25877,
    "Ġsatur": 1929,
    "vered": 4831,
    "raise": 18014,
    "Ġhot": 4255,
    "Ġvisits": 8223,
    "Ġjig": 15955,
    "Ġstables": 23656,
    "Ġcrews": 8993,
    "awful": 23120,
    "Ġtusk": 25426,
    "Ġmurky": 19204,
    "convinced": 10625,
    "Ġmarried": 3407,
    "Ġharbor": 10030,
    "Ġgouldings": 26189,
    "Ġlaughs": 24118,
    "window": 7743,
    "awn": 3832,
    "Ġopening": 5045,
    "Ġweeks": 4566,
    "Ġreminisc": 18725,
    "Ġprinces": 23224,
    "inating": 9156,
    "Ġclusters": 25233,
    "Ġgreeted": 23212,
    "moderate": 22851,
    "Ġplow": 21461,
    "Ġgoring": 21607,
    "Ġsays": 3561,
    "ieving": 7033,
    "Ġbarn": 11590,
    "Ġocean": 3303,
    "Ġstructured": 2975,
    "_)âĢĶ": 20147,
    "Ġunallied": 22034,
    "hated": 17563,
    "otence": 14026,
    "affrail": 11207,
    "o": 83,
    "advantage": 8662,
    "Ġdedicated": 19195,
    "conceivable": 17133,
    "esty": 4305,
    "parts": 14603,
    "Ġstoried": 18078,
    "serious": 14451,
    "Ġdus": 8424,
    "Ġperu": 14225,
    "art": 574,
    "fred": 20857,
    "labour": 23918,
    "als": 2043,
    "Ġconfeder": 25708,
    "Ġconquest": 15752,
    "ged": 1513,
    "Ġtal": 7565,
    "Ġhowled": 12860,
    "Ġmonogram": 26576,
    "Ġserving": 14488,
    "Ġgoverness": 8605,
    "Ġshattered": 7884,
    "conjectured": 25182,
    "glorious": 19370,
    "Ġannoy": 17201,
    "Ġclanging": 18423,
    "Ġtaller": 16689,
    "Ġannesley": 19580,
    "Ġcommercial": 22677,
    "Ġobstacles": 19838,
    "fatal": 17089,
    "ample": 1363,
    "make": 5793,
    "duck": 22416,
    "curiosity": 8627,
    "van": 7814,
    "suspect": 9543,
    "Ġmanxman": 9568,
    "Ġnecessity": 7296,
    "rously": 17656,
    "Ġinconveniences": 24942,
    "eck": 20846,
    "Ġcucumber": 21359,
    "rim": 7139,
    "Ġabuse": 18393,
    "imp": 3038,
    "Ġspur": 18306,
    "accompan": 11454,
    "erland": 9643,
    "Ġnash": 5820,
    "Ġhim": 476,
    "followed": 8339,
    "halfway": 24313,
    "Ġdew": 14048,
    "Ġprof": 2459,
    "ers": 405,
    "remains": 10401,
    "comple": 7441,
    "measured": 19993,
    "](": 11468,
    "grave": 16096,
    "Ġburton": 23654,
    "Ġvirginia": 13502,
    "Ġignoble": 19402,
    "Ġlabourers": 23333,
    "backs": 9394,
    "Ġcrowned": 16843,
    "Ġsunset": 8965,
    "Ġcaliforn": 14434,
    "Ġleaned": 7606,
    "Ġenchantment": 24870,
    "tables": 19760,
    "baked": 20781,
    "Ġdevout": 14329,
    "Ġinspection": 14545,
    "Ġland": 1998,
    "Ġbathed": 17867,
    "howling": 18991,
    "Ġglided": 7447,
    "changing": 10856,
    "Ġstating": 15729,
    "terms": 15755,
    "Ġacquiesce": 20332,
    "Ġexcuse": 5863,
    "Ġboy": 3027,
    "Ġspatial": 2727,
    "Ġtransformer": 2632,
    "Ġmagnific": 16321,
    "Ġremembering": 14612,
    "Ġsqueezing": 25009,
    "Ġwindward": 6885,
    "ve": 322,
    "Ġbut": 424,
    "21": 10075,
    "Ġclutched": 13521,
    "Ġguard": 6180,
    "Ġkitty": 3905,
    "Ġsickening": 19607,
    "otam": 21802,
    "Ġrelated": 3715,
    "Ġtrowsers": 9630,
    "Ġmatrices": 4969,
    "Ġsay": 931,
    "Ġglassy": 19563,
    "Ġgleam": 12312,
    "osy": 11762,
    "goes": 10428,
    "Ġpartiality": 9401,
    "Ġelsewhere": 7713,
    "anger": 2173,
    "Ġgrosvenor": 17421,
    "'t": 3147,
    "Ġendure": 5957,
    "Ġstronger": 8582,
    "Ġcurly": 18855,
    "expressing": 16803,
    "Ġindefinitely": 25222,
    "pause": 12505,
    "94": 4804,
    "Ġabsorbed": 12335,
    "stonecraft": 24356,
    "punct": 20195,
    "Ġrepining": 23363,
    "Ġcoincid": 20320,
    "longer": 8616,
    "port": 10721,
    "Ġwild": 2599,
    "saying": 8644,
    "Ġqualified": 14953,
    "Ġdoubtful": 19143,
    "toes": 22568,
    "Ġrepeated": 3829,
    "Ġprophetic": 20023,
    "uzzle": 19586,
    "wouldn": 23536,
    "Ġcrusad": 23705,
    "Ġvibrated": 25048,
    "Ġquarto": 17299,
    "Ġdit": 21423,
    "landsmen": 25062,
    "either": 6792,
    "Ġshaded": 14108,
    "Ġsim": 733,
    "Ġunhe": 22012,
    "Ġhumph": 22886,
    "Ġdaint": 15597,
    "Ġclaps": 22350,
    "Ġcyp": 21348,
    "swept": 19789,
    "Ġobstin": 14956,
    "dashing": 20838,
    "Ġearthy": 23714,
    "dham": 20832,
    "Ġsupremacy": 20263,
    "Ġpinioned": 21485,
    "Ġworshipped": 25692,
    "ains": 5094,
    "cousins": 20121,
    "linked": 17595,
    "Ġproperties": 3121,
    "Ġtiles": 17728,
    "Ġdon": 1609,
    "Ġsink": 4339,
    "hib": 15371,
    "vult": 21116,
    "Ġcap": 2360,
    "act": 785,
    "Ġdescent": 999,
    "Ġhove": 17925,
    "Ġdistension": 22506,
    "scales": 22992,
    "six": 7143,
    "story": 9215,
    "idence": 4301,
    "pretty": 10624,
    "Ġspence": 22140,
    "Ġupwards": 7635,
    "Ġgenerates": 3663,
    "nine": 13764,
    "Ġjuggling": 20442,
    "throne": 25658,
    "Ġautom": 3694,
    "luded": 4225,
    "compasses": 19461,
    "Ġepistle": 24905,
    "ful": 662,
    "Ġstare": 10866,
    "height": 21208,
    "disciple": 16780,
    "Ġpantheistic": 26337,
    "Ġluff": 15657,
    "ole": 9616,
    "Ġweep": 7621,
    "sixty": 24853,
    "Ġexclaimed": 4683,
    "Ġtolland": 24991,
    "dun": 17518,
    "ienced": 5685,
    "months": 9074,
    "matical": 13132,
    "Ġexhib": 6351,
    "orough": 5700,
    "races": 21633,
    "argue": 21447,
    "Ġhosea": 17334,
    "Ġexpected": 3697,
    "Ġhealthful": 24061,
    "Ġflash": 8230,
    "Ġbore": 5079,
    "Ġstumbling": 21749,
    "Ġmurdering": 14813,
    "Ġbranch": 8332,
    "Ġandromeda": 21511,
    "Ġtube": 15005,
    "irene": 15919,
    "Ġoversampling": 20519,
    "holloa": 19467,
    "urre": 10858,
    "distressed": 24202,
    "inal": 15483,
    "Ġloves": 10917,
    "Ġprimitive": 25064,
    "Ġimpertinent": 9080,
    "Ġinvol": 1056,
    "Ġshown": 5159,
    "Ġcomment": 9235,
    "Ġcontroverted": 23254,
    "Ġmanner": 2196,
    "ceptible": 10963,
    "Ġignorance": 6621,
    "Ġsympath": 4862,
    "tery": 14040,
    "Ġlongitude": 11013,
    "Ġantics": 24180,
    "Ġtime": 691,
    "binnacle": 20789,
    "Ġsnoring": 23742,
    "Ġarrange": 3123,
    "Ġavoid": 5199,
    "Ġfixed": 2682,
    "Ġwhel": 15870,
    "Ġbeef": 6830,
    "thouse": 21986,
    "holes": 12058,
    "800": 17479,
    "increas": 10456,
    "Ġashamed": 6404,
    "influ": 9544,
    "Ġfaculties": 14961,
    "Ġwarm": 2424,
    "paint": 21020,
    "mel": 9130,
    "Ġglared": 13018,
    "iors": 9128,
    "Ġperform": 1037,
    "Ġlicensing": 20096,
    "Ġblame": 6447,
    "Ġcountenance": 3969,
    "spr": 7435,
    "Ġnarrating": 24351,
    "endeav": 7151,
    "gno": 13730,
    "waves": 10744,
    "eks": 4729,
    "etah": 12667,
    "Ġfeelingly": 22995,
    "cork": 20798,
    "ece": 17533,
    "cils": 20816,
    "Ġcountenances": 11969,
    "Ġpurring": 23477,
    "itory": 12572,
    "Ġornam": 15868,
    "Ġfur": 993,
    "Ġcove": 22583,
    "ption": 7398,
    "boiling": 19001,
    "smeer": 26148,
    "Ġhunsford": 6303,
    "âĢĶâĢĻ": 8188,
    "Ġcigaret": 16978,
    "Ġquestionable": 19268,
    "Ġports": 10820,
    "bb": 2797,
    "thereby": 14450,
    "jabez": 20935,
    "Ġunited": 6840,
    "Ġfirst": 937,
    "Ġitem": 12707,
    "eternal": 17985,
    "Ġhigh": 930,
    "Ġexclusiveness": 23931,
    "desolation": 20462,
    "Ġocc": 886,
    "Ġrestoration": 19029,
    "Ġwhichever": 14003,
    "Ġsovere": 9259,
    "cooee": 12422,
    "Ġfulfilled": 11364,
    "Ġweeds": 21928,
    "Ó": 148,
    "Ġfinger": 5274,
    "Ġwork": 1305,
    "Ġcommendation": 13613,
    "Ġdigest": 24648,
    "Ġhesitate": 16948,
    "accompanied": 12426,
    "Ġstains": 21748,
    "Ġpaddle": 20062,
    "waste": 21137,
    "Ġswish": 23056,
    "clearer": 24072,
    "partly": 14604,
    "strike": 14952,
    "Ġbushy": 16404,
    "Ġrepresentations": 1875,
    "Ġsoapstone": 20514,
    "supplement": 14799,
    "Ġcop": 7581,
    "Ġbeliefs": 24583,
    "Ġfatigue": 8701,
    "Ġplays": 12041,
    "absurd": 21799,
    "Ġgamming": 25543,
    "waving": 21134,
    "Ġutility": 23515,
    "Ġheadlong": 11892,
    "ribut": 814,
    "Ġobstinacy": 17424,
    "dance": 17521,
    "Ġ61": 24364,
    "ounced": 4954,
    "Ġdate": 7841,
    "Ġsc": 531,
    "Ġwoof": 14724,
    "during": 6788,
    "Ġglimp": 6067,
    "Ġfeathers": 15123,
    "Ġpie": 13918,
    "Ġmocking": 24006,
    "Ġcompliment": 5673,
    "ws": 7355,
    "Ġyour": 635,
    "agement": 4185,
    "Ġresisted": 22545,
    "Ġmanif": 8874,
    "Ġxl": 11994,
    "Ġgroup": 2038,
    "Ġbolted": 12249,
    "Ġpeev": 22696,
    "sorting": 17006,
    "Ġdemeanour": 17340,
    "icate": 9204,
    "Ġsaws": 23052,
    "natured": 7112,
    "Ġheel": 9687,
    "Ġslavery": 16310,
    "nearest": 16029,
    "Ġhack": 12762,
    "indignation": 18439,
    "fab": 13719,
    "ppers": 7619,
    "Ġassist": 3564,
    "illar": 5101,
    "Ġinherited": 25354,
    "bergs": 18694,
    "Ġforeseeing": 23451,
    "Ġadro": 15871,
    "Ġrobbed": 23018,
    "Ġpossibilities": 18977,
    "in": 262,
    "Ġpaints": 23525,
    "inois": 17740,
    "Ġstormy": 16730,
    "Ġirrad": 19095,
    "Ġopposite": 5120,
    "rimshander": 20659,
    "Ġfooting": 14485,
    "Ġstaves": 21747,
    "explain": 1482,
    "ortations": 22262,
    "Ġ0": 1902,
    "Ġoutlandish": 12844,
    "square": 15062,
    "lashed": 20956,
    "Ġview": 2759,
    "roses": 17959,
    "ĠĠĠĠĠĠĠĠĠĠĠĠĠĠĠĠĠ": 22954,
    "**": 4687,
    "cement": 2695,
    "uttermost": 24943,
    "Ġcareless": 11120,
    "Ġrevers": 21667,
    "Ġcorrupt": 11927,
    "mem": 10711,
    "overed": 2850,
    "duct": 3505,
    "apprehension": 26115,
    "Ġdem": 11677,
    "Ġears": 4491,
    "Ġexped": 7652,
    "Ġhessian": 3548,
    "leather": 13893,
    "Ġminutely": 14563,
    "roof": 17956,
    "refuge": 24733,
    "Ġforeboding": 20387,
    "Ġreplaced": 13075,
    "Ġsmallest": 6431,
    "Ġconcer": 23323,
    "ry": 806,
    "mont": 19171,
    "Ġages": 7029,
    "moral": 14804,
    "Ġguards": 16271,
    "Ġerie": 20057,
    "_,âĢĻ": 12437,
    "Ġveter": 15815,
    "Ġcitations": 25438,
    "Ġtranquill": 6633,
    "exe": 11793,
    "umbling": 6613,
    "Ġthink": 986,
    "Ġderick": 9367,
    "tland": 21076,
    "flutter": 23974,
    "Ġstiff": 6993,
    "Ġp": 288,
    "Ġenumer": 12751,
    "archbishop": 22889,
    "Ġhel": 3785,
    "Ġevangelists": 20342,
    "Ġgunwale": 7325,
    "Ġcoupled": 16853,
    "Ġthoroughly": 8348,
    "Ġvers": 7564,
    "urches": 12691,
    "Ġcommanders": 23871,
    "perv": 1612,
    "Ġexert": 5722,
    "Ġnarrations": 24352,
    "Ġperceived": 4715,
    "Ġsagacity": 16976,
    "Ġinfle": 16366,
    "wide": 10140,
    "Ġgenerator": 3381,
    "usion": 3300,
    "Ġsilvery": 13098,
    "Ġpoliceman": 15262,
    "Ġturing": 7567,
    "Ġfl": 1279,
    "Ġunequal": 14845,
    "Ġanother": 1736,
    "Ġrouse": 15825,
    "Ġtrap": 7673,
    "Ġneatness": 19935,
    "Ġapp": 497,
    "Ġcontrivance": 17186,
    "cial": 2645,
    "Ġelias": 18635,
    "Ġsentiments": 7961,
    "Ġforbearance": 12332,
    "mccarthy": 15398,
    "Ġsupper": 4666,
    "Ġsaid": 578,
    "homely": 25618,
    "sent": 760,
    "Ġinclosed": 19541,
    "Ò": 147,
    "Ġspectacles": 12102,
    "Ġbask": 8117,
    "Ġlashings": 25100,
    "Ġmagical": 23102,
    "Ġlethargy": 26484,
    "Ġdejection": 15200,
    "aulets": 18621,
    "efficient": 2869,
    "trop": 15439,
    "osed": 1959,
    "Ġaf": 782,
    "Ġseize": 8166,
    "Ġhampshire": 15246,
    "Ġarchangel": 8545,
    "Ġ182": 13240,
    "Ġconvince": 14644,
    "visible": 10536,
    "Ġparent": 14647,
    "Ġcame": 1301,
    "Ġsentinel": 26066,
    "Ġsins": 13840,
    "Ġwarmth": 6905,
    "ement": 1502,
    "conject": 8884,
    "Ġstationary": 19697,
    "lower": 8883,
    "springing": 24890,
    "Ġarrang": 2467,
    "Ġanat": 8124,
    "Ġequilib": 4133,
    "Ġbounding": 19403,
    "ained": 3069,
    "Ġmaria": 7126,
    "Ġretire": 10384,
    "rees": 5436,
    "Ġaltering": 18105,
    "Ġmess": 7831,
    "Ġteaching": 10367,
    "Ġpassage": 3881,
    "Ġwrit": 8242,
    "pression": 10409,
    "Ġgraph": 10904,
    "Ġrealistic": 5862,
    "Ġeternal": 5977,
    "ureau": 10229,
    "brary": 5755,
    "pagans": 25526,
    "illity": 18297,
    "Ġfidget": 15193,
    "Ġprincely": 24150,
    "Ġdepicted": 14287,
    "Ġig": 3500,
    "was": 1420,
    "Ġdefray": 22944,
    "Ġmenacing": 23111,
    "Ġcr": 2151,
    "greek": 25405,
    "vius": 23544,
    "ĠâĢĶâĢĶ": 25758,
    "Ġcordial": 16837,
    "Ġmournfully": 20120,
    "uge": 4016,
    "Ġdelivery": 18975,
    "rices": 4560,
    "Ġberths": 20118,
    "Ġceased": 6469,
    "Ġvessel": 3797,
    "Ġpalmy": 19502,
    "Ġefforts": 11809,
    "Ġgodson": 23361,
    "proper": 7472,
    "Ġbandages": 24427,
    "gigantic": 15363,
    "lim": 9609,
    "Ġdistinguish": 2724,
    "Ġhemp": 9218,
    "Ġstooped": 14467,
    "remorse": 14470,
    "Ġhasn": 12931,
    "Ġandrew": 21510,
    "Ġlearnable": 3993,
    "icism": 13959,
    "Ġwrists": 11114,
    "Ġpieces": 7369,
    "Ġsaw": 1351,
    "resemblance": 25934,
    "Ġsecured": 6747,
    "abomin": 15746,
    "Ġunthinkingly": 26222,
    "Ġrobbery": 11920,
    "Ġgoble": 14232,
    "Ġinex": 6529,
    "sicilian": 21066,
    "absent": 21794,
    "forbidding": 25838,
    "japan": 15378,
    "Ġliterary": 25166,
    "Ġpulverize": 23396,
    "Ġstagger": 10594,
    "ask": 857,
    "Ġerect": 6145,
    "Ġvisibly": 22872,
    "Ġtransc": 12872,
    "Ġoutskirts": 17460,
    "ica": 10201,
    "rics": 13042,
    "Ġconcocted": 26300,
    "Ġapprehended": 26091,
    "Ġgasping": 17039,
    "Ġinscriptions": 20012,
    "untarily": 6314,
    "perceived": 8862,
    "Ġblock": 2573,
    "Ġpiazza": 26452,
    "third": 8168,
    "hat": 6956,
    "Ġobstinate": 11338,
    "zes": 11551,
    "Ġcomprising": 16072,
    "unwho": 21881,
    "ipelagoes": 13675,
    "Ġhopes": 4232,
    "born": 7544,
    "Ġencouraging": 2260,
    "lob": 22510,
    "Ġsombre": 18861,
    "took": 6166,
    "Ġfinish": 7949,
    "Ġsherry": 19454,
    "adventure": 17236,
    "proceeding": 20144,
    "Ġpropriety": 10013,
    "Ġmabel": 17327,
    "eries": 6809,
    "Ġsuddenness": 23385,
    "Ġestimates": 3747,
    "frau": 15093,
    "close": 9989,
    "Ġprogen": 14042,
    "necess": 4897,
    "ickering": 22673,
    "composed": 14743,
    "U": 57,
    "Ġlunging": 24992,
    "Ġadvisable": 11444,
    "Ġconnexion": 11456,
    "Ġcaut": 6522,
    "Ġenticing": 22745,
    "asserted": 22313,
    "bal": 2157,
    "regularly": 13211,
    "Ġunsophisticated": 25993,
    "Ġloaded": 8493,
    "26": 10076,
    "Ġblade": 11897,
    "Ġtorment": 8677,
    "Ġfry": 17881,
    "Ġsit": 4213,
    "Ġshan": 9252,
    "ography": 13366,
    "Ġbreeds": 23351,
    "Ġsneering": 24696,
    "Ġamend": 16039,
    "Ġthief": 11613,
    "ulous": 4451,
    "Ġgems": 9211,
    "Ġincreas": 1690,
    "Ġlookest": 22718,
    "eye": 6226,
    "ston": 15686,
    "Ġappears": 5402,
    "Ġunusually": 15850,
    "Ġupdate": 2462,
    "Ġsurv": 6082,
    "sorts": 21063,
    "used": 3261,
    "Ġhave": 445,
    "Ġinfidel": 13092,
    "Ġmonstrous": 7790,
    "god": 4864,
    "worthy": 7733,
    "Ġfug": 12601,
    "Ġad": 441,
    "Ġjoist": 19234,
    "confid": 14870,
    "Ġmoderation": 12824,
    "gainst": 25144,
    "Ġdecency": 18482,
    "Ġdistracted": 11806,
    "Ġdarkly": 19116,
    "wishes": 13810,
    "Ġagency": 11810,
    "Ġtwitch": 22679,
    "ties": 2756,
    "Ġprogrammed": 11060,
    "living": 7135,
    "Ġlull": 15655,
    "Ġunduly": 25995,
    "Ġunfinished": 19512,
    "Ġheated": 21685,
    "Ġunnecessary": 8855,
    "fra": 8375,
    "yourself": 6744,
    "enborough": 21288,
    "Ġreb": 15695,
    "successively": 24778,
    "Ġtheatre": 21281,
    "appalling": 22846,
    "Ġjeopard": 9946,
    "Ġolive": 12570,
    "Ġwand": 4340,
    "Ġrudeness": 17127,
    "Ġvoy": 2616,
    "Ġsolicit": 22892,
    "Ġperfection": 19221,
    "Ġextinguish": 14342,
    "Ġoutermost": 22323,
    "Ġhumiliating": 22887,
    "service": 15039,
    "an": 278,
    "Ġspies": 22142,
    "Ġstealing": 18895,
    "Ġbalmoral": 16211,
    "Ġexcellence": 11453,
    "Ġcavity": 20491,
    "Ġnetworks": 594,
    "Ġreadily": 5254,
    "Ġthoughtful": 16195,
    "hereditary": 26421,
    "isp": 5528,
    "Ġsurve": 9877,
    "Ġmingled": 12381,
    "Ġcorpora": 26582,
    "algorithm": 3925,
    "treatment": 20415,
    "Ġexhaustion": 14964,
    ",âĢĶ": 3175,
    "Ġcongregated": 20100,
    "Ġalice": 1484,
    "Ġdup": 21430,
    "Ġsurvivors": 25732,
    "congenial": 25400,
    "Ġrounded": 14441,
    "Ġlegitimate": 20644,
    "experience": 17161,
    "Ġvote": 21951,
    "Ġparameters": 995,
    "Č": 205,
    "Ġilliter": 23470,
    "Ġprofanely": 23572,
    "ustomed": 6100,
    "etent": 10202,
    "onel": 3094,
    "Ġconfed": 13101,
    "declaration": 25176,
    "icking": 8914,
    "Ġkrusen": 20716,
    "ism": 4875,
    "Ġpursuing": 9441,
    "reduc": 5459,
    "Ġwatchman": 23667,
    "ext": 917,
    "owners": 16090,
    "Ġelevate": 24502,
    "Ġprinted": 11953,
    "Ġsubterr": 10351,
    "sleeve": 26109,
    "Ġheron": 22077,
    "Ġignited": 25072,
    "Ġfaults": 12217,
    "ature": 522,
    "Ã": 132,
    "ology": 1528,
    "Ġbefell": 14013,
    "Ġaccents": 14211,
    "Ġsolemnisation": 24115,
    "gris": 8260,
    "commander": 16989,
    "Ġabrupt": 9739,
    ";âĢĿâĢĶ": 20762,
    "Ġportcullis": 26605,
    "Ġcatastrop": 3347,
    "ilet": 12835,
    "od": 350,
    "Ġwaif": 9378,
    "pered": 4194,
    "Ġunconnected": 18243,
    "Ġbeads": 18086,
    "Ġpriority": 19765,
    "Ġdeer": 12726,
    "Ġdiving": 12607,
    "Ġgans": 5822,
    "Ġunparalleled": 15857,
    "Ġjust": 1240,
    "tap": 17678,
    "Ġfuller": 11158,
    "Ġhysterics": 26094,
    "vy": 21110,
    "loom": 18536,
    "è": 169,
    "vint": 21117,
    "studied": 17152,
    "village": 25423,
    "Ġkramm": 26235,
    "intend": 16227,
    "Ġmountain": 3371,
    "tumbled": 21093,
    "Ġbrides": 22866,
    "replied": 11568,
    "Ġsmelling": 16070,
    "others": 7671,
    "dangerous": 20243,
    "Ġgriefs": 16773,
    "Ġwolfish": 25936,
    "Ġevil": 3804,
    "whal": 10942,
    "Ġgeomet": 3196,
    "Ġrelig": 8553,
    "mises": 20980,
    "Ġhier": 1894,
    "Ġmason": 10160,
    "Ġtransform": 747,
    "Ġ184": 16609,
    "vings": 9754,
    "Ġdisappointed": 7099,
    "Ġadapted": 11040,
    "tured": 13798,
    "Ġstud": 1641,
    "Ġdelightfully": 13161,
    "Ġcontent": 5034,
    "etence": 21580,
    "indef": 17737,
    "reserved": 13846,
    "Ġem": 1922,
    "Ġbroiled": 18910,
    "Ġparasol": 22125,
    "horr": 14601,
    "Ġsin": 1514,
    "calcul": 12993,
    "Ġubiqu": 18049,
    "thole": 21990,
    "Ġeclipsed": 26378,
    "Ġrefuse": 5739,
    "Ġreject": 7386,
    "Ġhuge": 4701,
    "Ġneglig": 18879,
    "Ġrace": 5848,
    "Ġpetty": 19598,
    "Ġdam": 2214,
    "Ġdisagree": 22536,
    "etics": 21584,
    "eluded": 21578,
    "old": 798,
    "uish": 5431,
    "Ġcoffin": 4430,
    "north": 14617,
    "luckily": 19755,
    "Ġaloysius": 15742,
    "inev": 21983,
    "Ġaged": 10324,
    "Ġstammered": 26201,
    "cook": 8270,
    "engagements": 25855,
    "ite": 712,
    "atus": 21263,
    "Ġinvariably": 8064,
    "shown": 22448,
    "fleet": 15016,
    "Ġroyalty": 19739,
    "Ġnegro": 6448,
    "scissors": 20729,
    "Ġtransparency": 10679,
    "moreover": 12974,
    "Ġand": 295,
    "Ġpads": 21476,
    "ushion": 14723,
    "stir": 12678,
    "Ġnovelty": 13466,
    "Ġobeyed": 12221,
    "masts": 19428,
    "Ġevidently": 6760,
    "Ġbackwater": 18652,
    "och": 21003,
    "vedale": 22713,
    "Ġrejecting": 17052,
    "Ġbrown": 6300,
    "sequence": 2852,
    "rocket": 13947,
    "Ġmultiplication": 2870,
    "Ġprivileges": 25135,
    "connect": 1293,
    "Ġlit": 6248,
    "Ġtwelvemonth": 12182,
    "Ġclothing": 18424,
    "Ġbloodthirsty": 26603,
    "======": 9836,
    "Ġcurb": 16247,
    "omp": 2471,
    "atoes": 17777,
    "persecut": 22193,
    "Ġ17": 5740,
    "~": 98,
    "Ġmccarthy": 5145,
    "pleasanter": 24050,
    "Ġsells": 21226,
    "Ġwooing": 19437,
    "Ġlines": 4534,
    "laborers": 23919,
    "tranquil": 25871,
    "coarse": 16489,
    "Ġcrouching": 23443,
    "lantern": 17431,
    "stool": 23823,
    "Ġmundane": 26431,
    "Ġrural": 21971,
    "still": 4216,
    "Ġcanada": 22158,
    "avo": 8520,
    "Ġbeheading": 21758,
    "diligence": 26111,
    "Ġunlabeled": 3798,
    "Ġkl": 2733,
    "Ġchapter": 2958,
    "Ġskylarking": 19490,
    "Ġexploring": 4304,
    "Ġtechnically": 12370,
    "begone": 12884,
    "irous": 8843,
    "caves": 20818,
    "rant": 11519,
    "yielded": 25757,
    "Ġharrow": 17928,
    "Ġaccident": 5380,
    "Ġdependent": 14301,
    "Ġsolution": 9808,
    "Ġsk": 960,
    "Ġacquaintance": 4130,
    "Ġsir": 1567,
    "Ġvexations": 24610,
    "Ġsta": 18068,
    "Ġtropic": 17066,
    "Ġimplicated": 24876,
    "drugg": 20840,
    "Ġisolation": 17153,
    "rain": 461,
    "Ġsuspending": 19246,
    "Ġgips": 10843,
    "Ġcotton": 17382,
    "Ġspeaker": 19150,
    "Ġsullenly": 17175,
    "wra": 11544,
    "Ġpresto": 22234,
    "answer": 11739,
    "doc": 23379,
    "march": 13758,
    "Ġswear": 6462,
    "Ġretains": 20033,
    "Ġpacifics": 24373,
    "Ġmemory": 2272,
    "hotel": 20053,
    "Ġ42": 16680,
    "Ġinstinctively": 13462,
    "Ġdarling": 12610,
    "Ġstra": 2995,
    "Ġgrenadier": 21619,
    "Ġmending": 17806,
    "capting": 24042,
    "Ġbasics": 13451,
    "scept": 21056,
    "_,âĢĻâĢĿ": 20404,
    "Ġsimilarity": 3172,
    "Ġchag": 15935,
    "Ġlevel": 5020,
    "Ġsweatings": 25709,
    "ator": 1921,
    "Ġhug": 6980,
    "Ġruff": 14352,
    "Ġspect": 3552,
    "ratulations": 20129,
    "lot": 3211,
    "Ġmarshy": 20221,
    "Ö": 151,
    "Ġoverjoy": 15972,
    "coff": 9112,
    "Ġunhappily": 18263,
    "Ġsubur": 12962,
    "ha": 3979,
    "ustom": 3788,
    "Ġbaggy": 24538,
    "island": 10796,
    "ach": 435,
    "Ġclipping": 2438,
    "tle": 2409,
    "Ġexecute": 7506,
    "Ġdrooping": 9423,
    "impregnable": 26483,
    "quod": 2166,
    "iments": 4945,
    "agers": 5633,
    "Ġavert": 14428,
    "Ġsubdiv": 16162,
    "Ġbreeze": 5681,
    "libr": 22926,
    "Ġstudents": 23243,
    "arson": 22753,
    "Ġstirred": 12222,
    "Ġ47": 14774,
    "Ġfreighted": 16327,
    "Ġcreases": 22724,
    "Ġtroublesome": 24005,
    "Ġsmitten": 12905,
    "Ġconvenience": 11333,
    "Ġsenate": 25215,
    "Ġmarks": 6748,
    "Ġneighbourhood": 5126,
    "====": 1483,
    "Ġinvolve": 11045,
    "Ġgri": 17990,
    "Ġrefill": 18701,
    "Ġpill": 7846,
    "Ġwhispered": 5338,
    "Ġsupports": 3054,
    "Ġshapes": 14112,
    "Ġgently": 7172,
    "Ġhis": 381,
    "endering": 21287,
    "Ġcompre": 4450,
    "Ġvideos": 13609,
    "Ġconstruct": 23344,
    "nels": 12500,
    "chard": 21690,
    "Ġwhilst": 9221,
    "ist": 450,
    "Ġamours": 22485,
    "vess": 7354,
    "Ġrefusing": 11030,
    "Ġprayers": 12128,
    "Ġmaled": 21317,
    "Ġadventure": 5982,
    "sum": 2088,
    "Ġadvancement": 24475,
    "Ġabusing": 18394,
    "interview": 19301,
    "Ġpassages": 12975,
    "recursion": 13332,
    "pay": 10720,
    "whereby": 23420,
    "comfort": 5647,
    "Ġwaterward": 23370,
    "p": 84,
    "Ġlocations": 12417,
    "Ġscarlet": 13227,
    "Ġplayed": 9419,
    "itaries": 21339,
    "_âĢĶâĢĻ": 13686,
    "Ġoat": 21326,
    "Ġblot": 9815,
    "Ġchiswick": 25561,
    "Ġtears": 4229,
    "Ġaverages": 2399,
    "er": 269,
    "Ġvillages": 14751,
    "wretch": 17710,
    "Ġfable": 15581,
    "Ġceler": 15555,
    "dient": 443,
    "Ġrendering": 16660,
    "world": 5058,
    "Ġgrievous": 13264,
    "paddington": 20481,
    "Ġpublished": 11243,
    "enter": 7858,
    "levelled": 23645,
    "tha": 15827,
    "ech": 4391,
    "arbuck": 2025,
    "Ġundone": 24119,
    "Ġglens": 18850,
    "Ġallowed": 4057,
    "Ġexclamation": 8702,
    "Ġportable": 19373,
    "Ġwrithed": 17107,
    "inished": 17736,
    "Ġthumb": 6982,
    "Ġmapple": 11152,
    "Ġalien": 14021,
    "Ġ130": 24780,
    "Ġmaj": 3922,
    "Ġinherent": 4592,
    "Ġescape": 2643,
    "accomplishments": 25327,
    "Ġsoldiers": 8690,
    "Ġgracious": 8851,
    "ivered": 7007,
    "Ġflail": 23010,
    "powers": 25411,
    "Ġimputed": 12814,
    "dia": 2135,
    "Ġjune": 10291,
    "Ġinvolves": 1108,
    "Ġri": 3393,
    "esu": 17921,
    "always": 5708,
    "Ġceremony": 8361,
    "Ġcautiously": 16979,
    "Ġvillanous": 24057,
    "Ġdownstream": 3773,
    "Ġshortly": 6198,
    "Ġundertaking": 8577,
    "Ġtowering": 16741,
    "Ġknowingly": 18481,
    "Ġwherever": 8526,
    "Ġdeliberation": 19972,
    "Ġoften": 1954,
    "condesc": 18506,
    "Ġvigorous": 10569,
    "causes": 20346,
    "Ġprows": 19891,
    "Ġpondered": 15170,
    "Ġconveniently": 20082,
    "Ġindicate": 23725,
    "Ġundoing": 22037,
    "Ġduodecimo": 16769,
    "Ġgreek": 10634,
    "Ġspeaks": 11161,
    "Ġundivided": 24122,
    "Ġconvulsive": 19309,
    "freighted": 14895,
    "rade": 9682,
    "Ġamazed": 14892,
    "Ġrefres": 14346,
    "Ġphantoms": 13489,
    "Ġcordage": 19681,
    "Ġtoll": 7852,
    "nevertheless": 8286,
    "Ġjoking": 12843,
    "Ġapr": 12537,
    "Ġcat": 2122,
    "cripp": 20821,
    "caroline": 24151,
    "Ġarranging": 11176,
    "Ġsubaltern": 22792,
    "Ġsepar": 3997,
    "Ġsteepest": 3091,
    "Ġcheetah": 14505,
    "Ġflow": 1239,
    "Ġundue": 25994,
    "Ġsinging": 7724,
    "Ġconcept": 676,
    "Ġstilly": 25975,
    "Ġcaptain": 1601,
    "Ġbilliard": 16690,
    "Ġsund": 8249,
    "Ġpainter": 19170,
    "Ġlargest": 6284,
    "dig": 4930,
    "reader": 23850,
    "supplemental": 25875,
    "Ġhypothesis": 14786,
    "searching": 25106,
    "hall": 8085,
    "acquaintance": 6938,
    "wed": 5796,
    "Ġdid": 834,
    "Ġallen": 5160,
    "Ġcorroborated": 26054,
    "Ġbashful": 20423,
    "Ġinsens": 8277,
    "least": 8789,
    "Ġrefer": 18700,
    "morrow": 4573,
    "honour": 13470,
    "Ġdiffer": 18680,
    "Ġplentiful": 12917,
    "Ġsallies": 21232,
    "pread": 7419,
    "kindly": 14747,
    "Ġentic": 16150,
    "dire": 15339,
    "merc": 19282,
    "Ġhud": 10824,
    "Ġfastidious": 14494,
    "Ġpity": 4941,
    "readers": 23851,
    "Ġtyp": 1132,
    "Ġcoiled": 11824,
    "Ġupbraiding": 26228,
    "ill": 447,
    "ician": 21568,
    "Ġfree": 3374,
    "pitch": 13302,
    "Ġinstructive": 19287,
    "Ġexpress": 2195,
    "ricane": 16282,
    "Ġcalhoun": 23048,
    "Ġaspire": 21904,
    "its": 1150,
    "kn": 5791,
    "listen": 13516,
    "Ġobjections": 8568,
    "Ġunheeded": 18262,
    "urements": 18126,
    "think": 3609,
    "Ġcollectively": 19971,
    "anelles": 26436,
    "Ġjavelins": 26106,
    "Ġbundles": 26176,
    "wer": 8396,
    "oso": 12837,
    "Ġhail": 7400,
    "Ġwee": 21923,
    "Ġslu": 13839,
    "Ġhardly": 2431,
    "Ġpugn": 21482,
    "storied": 18024,
    "Ġcompression": 18150,
    "den": 938,
    "Ġeag": 2970,
    "Ġbeen": 626,
    "intosh": 22943,
    "Ġheadlands": 22902,
    "Ġafloat": 9311,
    "dz": 4740,
    "Ġbodies": 8032,
    "Ġ44": 16681,
    "Ġtrunk": 7205,
    "clump": 23159,
    "ources": 2786,
    "Ġappetite": 12388,
    "Ġcringing": 25942,
    "Ġguest": 7249,
    "Ġunwe": 15842,
    "althy": 8433,
    "Ġbison": 21391,
    "Ġrepulsive": 14532,
    "ditch": 17530,
    "interchange": 23741,
    "Ġorgans": 15869,
    "Ġstanzas": 21751,
    "Ġdeferred": 18828,
    "rat": 8759,
    "Ġoblique": 20172,
    "ù": 186,
    "Ġjon": 15952,
    "temper": 10007,
    "larking": 17596,
    "glass": 9912,
    "Ġoverdone": 22363,
    "Ġpassions": 7930,
    "Ġcongealed": 25982,
    "izings": 14047,
    "Ġbeside": 5192,
    "exposure": 19259,
    "Ġmonsieur": 12425,
    "writes": 4988,
    "Ġpalm": 10516,
    "Ġcontinue": 5398,
    "gon": 17554,
    "Ġpre": 508,
    "Ġshock": 6083,
    "Ġmr": 661,
    "âĢĿ": 354,
    "Ġforests": 13595,
    "Ġblacksmiths": 19875,
    "fugitive": 26132,
    "Ġtrample": 20330,
    "Ġwasting": 12734,
    "Ġconvul": 13206,
    "fatig": 17090,
    "Ġsob": 12794,
    "Ġnation": 12653,
    "legra": 10791,
    "Ġpicking": 11261,
    "voice": 7816,
    "dirty": 20836,
    "Ġcocoanuts": 26364,
    "Ġfunny": 7639,
    "Ġ\"": 6121,
    "Ġboot": 11843,
    "umed": 6556,
    "Ġascertaining": 17206,
    "plans": 21956,
    "igns": 8449,
    "roqu": 21537,
    "land": 1530,
    "memory": 13620,
    "Ĥ": 229,
    "Ġquite": 1739,
    "Ġtouches": 20573,
    "ints": 3415,
    "Ġegotistical": 26193,
    "amous": 15765,
    "uck": 1234,
    "Ġbread": 5404,
    "arks": 2841,
    "Ġstunsail": 25544,
    "pointed": 9813,
    "Ġsensibility": 14517,
    "Ġlengthen": 15658,
    "depart": 12270,
    "Ġliberally": 16832,
    "Ġdiscriminative": 4326,
    "Ġvillainous": 25134,
    "Ġshifted": 14110,
    "said": 4102,
    "Ġacquaintances": 17353,
    "Ġinjection": 3463,
    "fixed": 7549,
    "Ġfurnishes": 19444,
    "Ġinvesting": 19644,
    "Ġstraw": 9432,
    "papers": 12506,
    "farintosh": 24553,
    "Ġbridle": 24682,
    "pher": 11514,
    "Ġmagnetic": 17243,
    "Ġperfect": 2554,
    "oled": 17621,
    "Ġbordering": 17231,
    "Ġfavoring": 2342,
    "Ġappertain": 22221,
    "Ġhoofs": 14529,
    "house": 4075,
    "Ġfumes": 21421,
    "Ġchancery": 20718,
    "heed": 15501,
    "inced": 3336,
    "unction": 10237,
    "Ġsou": 1888,
    "Ġemptied": 24347,
    "illa": 12799,
    "admit": 18093,
    "Ġe": 311,
    "Ġcharcoal": 19008,
    "three": 5239,
    "Ġpreliminaries": 25177,
    "Ġhast": 3153,
    "ok": 573,
    "Ġcapsized": 20093,
    "Ġsacr": 7194,
    "Ġpublisher": 24068,
    "pile": 17631,
    "Ġbidden": 24647,
    "Ġ116": 24440,
    "hab": 1078,
    "Ġoverbearing": 12849,
    "Ġdependence": 18629,
    "Ġhowl": 12859,
    "rons": 21042,
    "Ġaffording": 14824,
    "Ġinterven": 10999,
    "Ġsoutherly": 23336,
    "Ġboast": 7036,
    "Ġ500": 24324,
    "clergyman": 20731,
    "Ġfavourite": 5271,
    "Ġlying": 4827,
    "activation": 3234,
    "Ġsleepers": 13152,
    "Ġfrench": 4939,
    "Ġnoticed": 5549,
    "Ġchildhood": 13141,
    "fits": 13721,
    "compose": 24035,
    "Ġken": 22196,
    "shout": 22446,
    "Ġexile": 12723,
    "rugg": 15902,
    "Ġ15": 9327,
    "Ġthousand": 2779,
    "Ġwerter": 15243,
    "locks": 14459,
    "Ġforefinger": 16443,
    "Ġanecdote": 26356,
    "Ġoxford": 11373,
    "zek": 16275,
    "drive": 8686,
    "Ġaloft": 4302,
    "ulsive": 10236,
    "Ġcrows": 24034,
    "Ġdelineations": 26059,
    "miraculous": 26398,
    "i": 77,
    "Ġcatches": 23429,
    "Ġhorsey": 24252,
    "Ġdaresay": 14707,
    "Ġlad": 2362,
    "Ġprivileged": 20116,
    "Ġchink": 15936,
    "shaken": 16026,
    "Ġcups": 16884,
    "Ġwater": 1947,
    "Ġhole": 6080,
    "Ġsubmit": 11874,
    "Ġwilful": 10537,
    "'re": 12432,
    "itten": 3438,
    "smote": 23913,
    "Ġcoun": 4175,
    "vering": 15720,
    "Ġsil": 1797,
    "Ġacceler": 1607,
    "Ġdescrying": 18620,
    "Ġminiatures": 20324,
    "Ġunspeakable": 10059,
    "Ġinsights": 13182,
    "reds": 12756,
    "Ġbeaks": 21759,
    "Ġanonymous": 26179,
    "Ġexperienced": 6583,
    "Ġentr": 14338,
    "display": 19158,
    "agings": 18168,
    "Ġjurymen": 16849,
    "lid": 20947,
    "°": 113,
    "Ġuncertain": 4066,
    "Ġthousands": 6750,
    "Ġcontentment": 14873,
    "Ġcraggy": 23530,
    "allow": 5104,
    "Ġrattler": 24998,
    "Ġtrouble": 3690,
    "ĠĠĠĠĠĠĠĠĠĠĠĠĠĠĠĠĠĠĠĠĠĠĠ": 18835,
    "Ġschoolmasters": 19723,
    "Ġprair": 7747,
    "Ġleast": 2065,
    "Ġathe": 17743,
    "Ġliked": 5265,
    "Ġhidden": 1376,
    "antarctic": 22103,
    "Ġtep": 21164,
    "Ġmansfield": 25939,
    "Ġmug": 21315,
    "rin": 10124,
    "Ġimprecations": 25821,
    "tube": 20414,
    "Ġbrothers": 13178,
    "yn": 7819,
    "Ġeagerly": 4990,
    "Ġpersistence": 2804,
    "unsuitable": 21897,
    "ifies": 6688,
    "Ġaimed": 20253,
    "Ġloved": 4600,
    "Ġindifferent": 6176,
    "Ġknee": 7095,
    "elevating": 20409,
    "Ġfunction": 595,
    "rels": 6667,
    "reclining": 20577,
    "Ġyellow": 5302,
    "Ġfin": 1460,
    "pling": 8477,
    "Ġbespe": 19244,
    "Ġmastiff": 23727,
    "Ġthews": 21280,
    "Ġbarb": 4531,
    "awned": 19463,
    "Ġfootmen": 23800,
    "Ġlearning": 387,
    "secondly": 16986,
    "Ġseemed": 1277,
    "Ġobligation": 13247,
    "Ġdisorder": 16055,
    "Ġsatirical": 26281,
    "Ġro": 598,
    "Ġnothing": 1359,
    "absolute": 17125,
    "Ġherbage": 25997,
    "listened": 15046,
    "entions": 17977,
    "Ġbillow": 14783,
    "uary": 11540,
    "Ġagreement": 18543,
    "disappearing": 23504,
    "gments": 12474,
    "Ġprank": 23220,
    "beds": 16624,
    "ald": 15629,
    "oss": 10118,
    "tled": 3454,
    "yset": 21148,
    "Ġency": 21937,
    "Ġsqualidness": 25844,
    "emed": 3379,
    "Ġinstances": 5568,
    "computer": 1969,
    "Ġchiefly": 5766,
    "Ġresent": 6050,
    "Ġgetting": 4064,
    "Ġbegins": 7244,
    "called": 6294,
    "oun": 483,
    "Ġvertebra": 20184,
    "flood": 19809,
    "Ġslender": 11944,
    "Ġmagnified": 23206,
    "entrance": 12663,
    "ailing": 7023,
    "Ġgracechurch": 12203,
    "Ġaffectionately": 13171,
    "Ġdrily": 23542,
    "Ġexchanging": 18134,
    "entiful": 10838,
    "Ġquestions": 3971,
    "Ġfrightened": 5342,
    "wantonly": 25153,
    "Ġremembr": 24172,
    "kish": 20936,
    "bil": 20773,
    "Ġsupre": 10271,
    "umerable": 11729,
    "Ġstepfather": 7221,
    "desol": 13221,
    "Ġxxx": 7767,
    "Ġattitudes": 16103,
    "Ġvexed": 9997,
    "Ġfee": 7199,
    "relatively": 24017,
    "Ġdriver": 16475,
    "Ġsuburban": 17349,
    "Ġwaterloo": 11985,
    "Ġunjustifiable": 25112,
    "Ġ1820": 25718,
    "gratification": 24348,
    "harm": 13738,
    "latin": 25259,
    "quit": 15766,
    "Ġpadd": 9672,
    "justine": 7684,
    "Ġtrees": 4199,
    "Ġcrying": 10788,
    "wolf": 26411,
    "Ġfring": 11129,
    "Ġunch": 18240,
    "Ġsyllables": 25299,
    "semic": 21824,
    "Ġpresumption": 10548,
    "Ġcurling": 9350,
    "Ġroarings": 25303,
    "Ġterritories": 23849,
    "arab": 21444,
    "eddling": 11901,
    "Ġafore": 10760,
    "Ġpoising": 22594,
    "pequod": 7054,
    "kind": 3860,
    "ullied": 23108,
    "command": 6578,
    "Ġawaiting": 11392,
    "mph": 20974,
    "Ġblossom": 26313,
    "ictions": 14229,
    "animal": 16980,
    "Ġtopic": 9409,
    "Ġstarve": 24626,
    "onsense": 6432,
    "Ġfaintest": 24570,
    "volume": 18597,
    "Ġreturn": 1710,
    "Ġrepute": 18037,
    "enhall": 13853,
    "southern": 20412,
    "Ġimpious": 15990,
    "Ġfailure": 13318,
    "Ġapologize": 15132,
    "often": 6167,
    "ugnance": 12371,
    "Ġunderstood": 5655,
    "urmountable": 15283,
    "Ġdrow": 21429,
    "Ġneat": 7000,
    "Ġessays": 19747,
    "Ġfirm": 3867,
    "Ġshipmates": 6722,
    "Ġconfinement": 19040,
    "Ġthey": 577,
    "heat": 15500,
    "Ġtimbers": 14842,
    "Ġmorass": 22974,
    "Ġtrifled": 24675,
    "Ġfright": 3795,
    "Ġoce": 3035,
    "nowadays": 22342,
    "Ġpersuaded": 5769,
    "nns": 1893,
    "Ġmistaken": 4986,
    "Ġenslaved": 26315,
    "Ġemaciated": 20641,
    "ror": 7351,
    "friendship": 24051,
    "Ġappearances": 10453,
    "Ġat": 396,
    "perseus": 26006,
    "gish": 20875,
    "considerable": 10551,
    "tossing": 18581,
    "Ġvict": 3761,
    "lanter": 15391,
    "rative": 17654,
    "comparison": 25842,
    "Ġfainted": 8796,
    "resent": 10771,
    "surv": 24216,
    "Ġacqu": 1416,
    "Ġfrequ": 3327,
    "iscuit": 10601,
    "Ġdischarge": 18557,
    "thrasher": 25659,
    "Ġvit": 10248,
    "Ġpropos": 7064,
    "address": 14884,
    "sales": 17669,
    "Ġcocoan": 20319,
    "aces": 2069,
    "Ġbelief": 5857,
    "Ġcritics": 23444,
    "Ġmun": 12567,
    "ased": 1265,
    "Ġkettle": 26234,
    "Ġconversed": 13189,
    "irations": 18173,
    "berg": 11868,
    "Ġstiffest": 24827,
    "Ġfinite": 2323,
    "iam": 2507,
    "Ġanalog": 12618,
    "inserted": 18889,
    "Ġacquaint": 13049,
    "shark": 14239,
    "Ġringbolts": 24199,
    "Ġunchanged": 22033,
    "Ġ87": 19713,
    "Ġmortal": 4682,
    "whispered": 20037,
    "Ġblubber": 5666,
    "Ġke": 1156,
    "moid": 2449,
    "Ġcurbstone": 26047,
    "Ġrent": 11642,
    "alogies": 25162,
    "stumps": 21656,
    "Ġskin": 5038,
    "gu": 3955,
    "arance": 4699,
    "Ġsince": 1796,
    "Ġdeeds": 15763,
    "Ġruddy": 17128,
    "bourgh": 19105,
    "manners": 16188,
    "ves": 697,
    "Ġbengal": 18785,
    "Ġrelu": 1046,
    "Ġcasc": 15560,
    "Ġsounded": 8594,
    "Ġvac": 5025,
    "Ġfleecy": 17025,
    "Ġsharpened": 17368,
    "Ġmainland": 22653,
    "Ġalterations": 19873,
    "Ġunrestingly": 20364,
    "Ġroared": 7025,
    "vis": 4578,
    "Ġpaintings": 15058,
    "Ġrear": 6537,
    "bran": 23576,
    "Ġphotography": 24684,
    "throwing": 11707,
    "Ġsung": 23275,
    "apologizing": 26546,
    "Ġprojecting": 9988,
    "operations": 19978,
    "Ġ13": 6720,
    "Ġreports": 19086,
    "Ġpartaking": 22702,
    "ignified": 14492,
    "ribe": 1225,
    "Ġjumbled": 22301,
    "Ġtutored": 20131,
    "Ġslide": 10396,
    "Ġtahiti": 13622,
    "Ġshavings": 14113,
    "isive": 10795,
    "imitably": 21714,
    "Ġnoon": 6561,
    "phere": 21021,
    "neglect": 25668,
    "©": 107,
    "princip": 17139,
    "Ġarticles": 7110,
    "Ġleaning": 5228,
    "Ġcomfortably": 16617,
    "Ġaffront": 18789,
    "Ġboundless": 10498,
    "Ġrespecting": 14486,
    "Ġprincipal": 6497,
    "journey": 8748,
    "antique": 18289,
    "Ġmonosy": 18847,
    "hammered": 19005,
    "owing": 7603,
    "Ġnimble": 21531,
    "Ġsoothing": 8173,
    "Ġburnwell": 13271,
    "ans": 459,
    "Ġdiverged": 23596,
    "Ġ177": 13415,
    "urer": 18124,
    "ledge": 1330,
    "Ġalgorith": 563,
    "upper": 11541,
    "long": 2911,
    "Ġceremonies": 24837,
    "tstone": 21087,
    "Ġmeasured": 9807,
    "vib": 21118,
    "Ġcongeal": 25981,
    "Ġpresume": 8038,
    "Ġchiselled": 25560,
    "Ġpoetry": 15084,
    "Ġholder": 6726,
    "Ġpri": 5814,
    "killing": 20944,
    "jewell": 25524,
    "scattered": 22993,
    "exam": 10978,
    "Ġvast": 3296,
    "traced": 19648,
    "Ġimpreg": 15991,
    "hand": 2755,
    "Ġmatlock": 18804,
    "Ġlikely": 3598,
    "Ġelements": 2664,
    "Ġreasoned": 23090,
    "Ġconsec": 21809,
    "Ě": 219,
    "Ġcrowding": 13283,
    "Ġreverence": 12063,
    "itch": 10163,
    "Ġet": 3580,
    "Ġbrahma": 26321,
    "Ġhearken": 21688,
    "irty": 4048,
    "shuff": 18487,
    "Ġinsight": 16531,
    "Ġinquiry": 6485,
    "ounders": 22398,
    "fier": 9596,
    "Ġlexicon": 25974,
    "erred": 6377,
    "Ġreceptacle": 23195,
    "Ġlady": 1582,
    "observing": 25495,
    "riet": 18186,
    "lips": 13753,
    "Ġfant": 9176,
    "Ġfellow": 2774,
    "Ġbrook": 13052,
    "Ġimpud": 18446,
    "parm": 21016,
    "ught": 2748,
    "amped": 12037,
    "Ġaccused": 8510,
    "anged": 3588,
    "Ġ221": 25071,
    "rather": 5430,
    "ercely": 12555,
    "Ġxii": 11995,
    "Ġattentions": 5879,
    "adru": 15735,
    "Ġpore": 21460,
    "Ġgossip": 18470,
    "Ġpewter": 17188,
    "Ġenjoyment": 7300,
    "Ġduly": 13354,
    "ify": 1463,
    "Ġaft": 5737,
    "rians": 21934,
    "gins": 12473,
    "Ġmentioned": 4328,
    "Ġgentlemen": 3642,
    "Ġrepelled": 19087,
    "human": 7090,
    "Ġshiny": 14109,
    "vast": 10738,
    "Ġor": 436,
    "Ġdoran": 9182,
    "Ġbuoyed": 20044,
    "Ġweltering": 19588,
    "Ġgermans": 25785,
    "Ġmissionary": 25697,
    "Ġknitting": 24221,
    "umb": 3401,
    "Ġscarcity": 23830,
    "exercise": 17462,
    "repressed": 21246,
    "Ġcutting": 4983,
    "Ġoverwhel": 8196,
    "tem": 6370,
    "iastic": 12484,
    "middle": 11312,
    "Ġdeny": 7489,
    "Ġspecksnyder": 17406,
    "Ġprehensile": 26536,
    "prises": 23817,
    "Ġsord": 21222,
    "Ġsingle": 1689,
    "Ġoutdone": 22322,
    "Ġhastily": 5763,
    "lyph": 10854,
    "binary": 20786,
    "Ġcau": 13884,
    "Ġsnorting": 23743,
    "Ġlug": 15656,
    "Ġpeep": 6870,
    "ithing": 11652,
    "Ġwretched": 4079,
    "Ġobtained": 7432,
    "Ġwhitney": 11375,
    "Ġrev": 6989,
    "Ġ92": 24591,
    "Ġgravesend": 15220,
    "Ġassociations": 14966,
    "asant": 17961,
    "iquet": 17577,
    "car": 4208,
    "Ġbeer": 10222,
    "algorithms": 8295,
    "oters": 21803,
    "Ġcattle": 12578,
    "des": 3177,
    "mselves": 2860,
    "Ġgoodly": 22826,
    "Ġsubstantial": 14812,
    "Ġjoints": 12039,
    "Ġboards": 14303,
    "pers": 4335,
    "Ġfriendless": 23029,
    "brÃ¦": 11177,
    "Ġhours": 2816,
    "Ġinquirer": 24964,
    "problem": 25245,
    "actions": 8910,
    "surely": 10572,
    "caut": 20814,
    "lemagne": 26438,
    "Ġhappily": 9334,
    "Ġboughs": 20492,
    "Ġicy": 10749,
    "ĠĠĠĠĠĠĠĠĠĠĠĠĠĠĠĠĠĠĠĠĠĠĠĠĠĠĠĠĠĠĠĠĠĠĠĠĠĠĠĠĠĠĠĠ": 12158,
    "Ġdrop": 4343,
    "Ġdiverted": 14594,
    "Ġnocturn": 18376,
    "Ġray": 18643,
    "Ġendured": 6074,
    "Ġgives": 5018,
    "Ġsurely": 6309,
    "useless": 14596,
    "Ġconfederate": 17356,
    "Ġmultiplied": 23689,
    "Ġgnawed": 25168,
    "scores": 22990,
    "sailors": 9925,
    "mology": 12496,
    "Ġseldom": 4630,
    "Ġspind": 18310,
    "Ġwilds": 16511,
    "erce": 6128,
    "Ġfi": 933,
    "onious": 15521,
    "Ġcards": 7582,
    "poverty": 22912,
    "Ġirresolution": 24916,
    "gabriel": 15364,
    "Ġidler": 16407,
    "Ġmarket": 7709,
    "tolerably": 21098,
    "solution": 14688,
    "Ġseek": 4509,
    "Ġshaking": 6553,
    "Ġleaped": 8829,
    "Ġwildness": 14605,
    "Ġpipes": 9852,
    "Ġcastaways": 19431,
    "excuse": 13384,
    "cake": 20806,
    "itching": 21338,
    "pans": 13773,
    "ope": 4122,
    "irms": 18171,
    "Ġforgery": 25978,
    "Ġdesolated": 24809,
    "Ġploughed": 22608,
    "mighty": 9469,
    "Ġpa": 2993,
    "Ġadjust": 2156,
    "assist": 11771,
    "oration": 2208,
    "consequential": 26251,
    "Ġyaw": 18097,
    "cock": 12030,
    "Ġbehind": 2805,
    "Ġdictionaries": 12344,
    "hither": 11495,
    "Ġcleat": 18949,
    "Ġbrazen": 23843,
    "Ġcatastrophic": 3542,
    "Ġlubber": 17447,
    "Ġdad": 12606,
    "Ġdoxology": 22248,
    "Ġaquiline": 26160,
    "Ġaugmented": 15109,
    "Ġduplicity": 25332,
    "Ġlaughing": 5339,
    "Ġsoph": 1776,
    "Ġprecipitous": 24836,
    "Ġcommonplace": 11098,
    "ĩ": 234,
    "vand": 21111,
    "Ġsharing": 3473,
    "Ġdrunk": 9427,
    "Ġu": 324,
    "Ġyawn": 7611,
    "Ġkilling": 13336,
    "Ġsystematically": 3944,
    "Ġdemanded": 8327,
    "following": 10575,
    "Ġmarvellous": 7539,
    "cleanliness": 25872,
    "Ġlangsdorff": 15280,
    "Ġparameter": 880,
    "Ġballarat": 14722,
    "Ġelapsed": 7654,
    "bewil": 22502,
    "lesome": 12970,
    "intments": 18823,
    "Ġonly": 787,
    "turbable": 24531,
    "dawson": 26129,
    "aff": 3105,
    "Ġsocietal": 11438,
    "Ġpork": 21459,
    "believe": 8304,
    "representation": 20199,
    "second": 6545,
    "Ġomitted": 12569,
    "Ġseveral": 2670,
    "Ġsutherland": 10151,
    "anish": 2613,
    "super": 5945,
    "Ġreposing": 23364,
    "Ġthoughtfulness": 18775,
    "Ġplunged": 8696,
    "Ġresolute": 19247,
    "ċ": 204,
    "Ġdischar": 11812,
    "Ġvarious": 3508,
    "bedded": 12447,
    "Ġscornful": 24999,
    "Ġwearisome": 19798,
    "powder": 17647,
    "Ġsymbols": 2793,
    "Ġadventures": 7748,
    "ontory": 10461,
    "mightily": 24105,
    "Ġmbpp": 21325,
    "igms": 3050,
    "Ġante": 17898,
    "surd": 6934,
    "Ġdanced": 7842,
    "Ġabsent": 7016,
    "ga": 17552,
    "Ġapology": 8328,
    "Ġshape": 5639,
    "Ġheidelburgh": 11646,
    "Ġwo": 3650,
    "ã": 164,
    "Ġdistrust": 8203,
    "Ġcrocod": 19631,
    "Ġcheery": 16371,
    "Ġoverpowered": 15292,
    "aston": 7408,
    "Ġassociate": 13453,
    "Ġforegoing": 23450,
    "Ġmoving": 1676,
    "Ġplying": 17914,
    "rem": 1521,
    "Ġlibrary": 6424,
    "nearer": 22463,
    "clair": 18935,
    "wretchedness": 17255,
    "Ġseizure": 21968,
    "Ġintroducing": 11980,
    "Ġflea": 23776,
    "gyric": 19111,
    "Ġmaddened": 17246,
    "spoutings": 25004,
    "iamond": 14592,
    "orph": 21402,
    "surface": 10533,
    "sterns": 23371,
    "Ġglories": 16242,
    "Ġarithmetic": 18339,
    "Ġnets": 21527,
    "arking": 16129,
    "Ġbroad": 3639,
    "erness": 6435,
    "itute": 9654,
    "Ġbacks": 8531,
    "orses": 6053,
    "Ġunex": 11717,
    "Ġsitting": 3605,
    "rised": 10126,
    "Ġalteration": 9549,
    "Ġpil": 5014,
    "Ġdeposed": 16091,
    "Ġreview": 18033,
    "Ġexposing": 11837,
    "vessels": 10628,
    "direction": 17526,
    "thrown": 8483,
    "Ġgaol": 19570,
    "Ġiteratively": 3062,
    "Ġmermaids": 26171,
    "assembled": 21548,
    "ocity": 8278,
    "Ġsuper": 2155,
    "Ġcrossed": 6070,
    "Ġcaress": 16343,
    "Ġfascinated": 25636,
    "mechanical": 25579,
    "remediable": 26296,
    "osing": 3689,
    "Ġexposure": 16100,
    "Ġpeter": 10538,
    "ried": 925,
    "Ġdespised": 14669,
    "Į": 239,
    "Ġconnecting": 18631,
    "pushed": 21025,
    "Ġhusband": 3620,
    "onged": 18411,
    "bowl": 14894,
    "ipping": 2206,
    "Ġbaw": 15573,
    "Ġburned": 8634,
    "Ġparac": 12801,
    "penetrate": 20327,
    "zetts": 17716,
    "Ġuttering": 16463,
    "tered": 2228,
    "Ġaccomplishment": 19668,
    "Ġcongrat": 5828,
    "fin": 5209,
    "nial": 20986,
    "Ġstood": 2549,
    "ories": 4754,
    "Ġenglish": 3614,
    "Ġhatred": 8612,
    "riv": 3112,
    "Ġchivalrous": 20518,
    "Ġun": 422,
    "Ġass": 1504,
    "Ġstands": 5259,
    "kward": 6958,
    "ucy": 15447,
    "Ġacutely": 14317,
    "Ġeasiness": 23537,
    "Ġcupboard": 16885,
    "Ġgriev": 16637,
    "whew": 22869,
    "Ġdismember": 20218,
    "Ġlack": 17966,
    "nosed": 20994,
    "Ġfreed": 7267,
    "Ġseeth": 21964,
    "line": 1442,
    "Ġrepublic": 14533,
    "angry": 18295,
    "windward": 24162,
    "Ġsaves": 18325,
    "Ġbristles": 25845,
    "Ġfins": 9666,
    "Ġworking": 5574,
    "Ġaffl": 14389,
    "ned": 3491,
    "Ġhurling": 19112,
    "ondency": 15273,
    "Ġidentical": 10436,
    "Ġcongen": 10875,
    "race": 11634,
    "Ġtwinkling": 12328,
    "Ġgoverned": 23573,
    "Ġvigorously": 11301,
    "Ġheap": 12684,
    "Ġsuspended": 5665,
    "Ġdrawling": 19440,
    "Ġ40": 14771,
    "Ġsufferable": 16261,
    "orious": 6009,
    "Ġeuroclydon": 15300,
    "utherland": 9581,
    "Ġoblivion": 26032,
    "Ġkeels": 11063,
    "Ġprofundities": 20456,
    "inction": 6663,
    "code": 15332,
    "Ġable": 3084,
    "Ġemble": 13974,
    "ins": 1378,
    "Ġexactly": 2765,
    "Ġugly": 8719,
    "umpled": 15880,
    "Ġjustified": 11909,
    "Ġunaffected": 14125,
    "sledge": 21060,
    "Ġweb": 9243,
    "Ġgrown": 5628,
    "Ġattempted": 8001,
    "Ġbrist": 14381,
    "hon": 6794,
    "alty": 17941,
    "private": 13585,
    "Ġinexorable": 12260,
    "Ġrejoiced": 8687,
    "Ġoverpowering": 15253,
    "Ġcontextual": 3742,
    "Ġoper": 2121,
    "Ġnoises": 18375,
    "queen": 12733,
    "Ġarsacides": 17297,
    "moments": 19415,
    "ensing": 12902,
    "Ġantarctic": 19555,
    "Ġwarped": 25038,
    "collected": 13216,
    "Ġhuddled": 20302,
    "Ġpunctures": 25136,
    "drop": 15340,
    "Ġtwinkle": 12327,
    "iteness": 4394,
    "dening": 22780,
    "sudden": 5316,
    "Ġhatchet": 16530,
    "ralian": 19603,
    "stood": 4114,
    "Ġdine": 7366,
    "dragged": 16610,
    "Ġslung": 23172,
    "Ġshowers": 16607,
    "Ġdone": 1816,
    "saturday": 14861,
    "reat": 620,
    "Ġquery": 2478,
    "Ġrecom": 4555,
    "riors": 18189,
    "Ġtro": 7356,
    "Ġhiding": 9826,
    "account": 5330,
    "Ġsome": 656,
    "arter": 17895,
    "Ġsteal": 16287,
    "Ġdeath": 2044,
    "Ġbeliever": 25850,
    "Ġmasonry": 13602,
    "ds": 4689,
    "palms": 25263,
    "ries": 3353,
    "Ġbaboon": 19696,
    "Ġsporting": 17001,
    "oted": 4598,
    "fulfilment": 26026,
    "impat": 11204,
    "Ġunerringly": 18266,
    "Ġalbatross": 10873,
    "infallibly": 26419,
    "ernation": 8212,
    "furnish": 25339,
    "Ġdetaining": 25819,
    "ruit": 22185,
    "mut": 17597,
    "Ġcandour": 14675,
    "Ġkilled": 4955,
    "Ġexcurs": 23316,
    "elt": 4113,
    "alleging": 23028,
    "isa": 17847,
    "atisf": 21266,
    "Ġanno": 9670,
    "Ġduring": 873,
    "Ġdisguise": 10049,
    "Ġshout": 4262,
    "lleg": 20953,
    "Ġshrink": 14806,
    "Ġsnuffing": 25015,
    "itors": 2913,
    ".]": 15302,
    "Ġlee": 4219,
    "bolts": 11422,
    "br": 2477,
    "Ġforgetting": 3432,
    "Ġmat": 1148,
    "Ġbrightness": 16579,
    "Ġsly": 9635,
    "insufficient": 15492,
    "Ġconvert": 11847,
    "Ġstrategy": 2736,
    "edded": 8557,
    "Ġparsonage": 7125,
    "Ġalleg": 14020,
    "Ġexerted": 15759,
    "uth": 3022,
    "Ġshocks": 16459,
    "Ġconsecrated": 26490,
    "jud": 4482,
    "Ġgrass": 5177,
    "Ġflows": 13014,
    "Ġprotect": 6339,
    "ineffectual": 26509,
    "sister": 5139,
    "clim": 18932,
    "Ġexotic": 21835,
    "Ģ": 227,
    "Ġexasperate": 20101,
    "civility": 17515,
    "Ġmer": 2930,
    "Ġendeavours": 8621,
    "Ġ": 225,
    "umbent": 12094,
    "kins": 7345,
    "Ġhawaiian": 25367,
    "Ġaverse": 11083,
    "regard": 7974,
    "ifer": 11687,
    "blame": 14796,
    "unfortunate": 15781,
    "Ġtwentieth": 18660,
    "playing": 19660,
    "Ġenh": 2934,
    "athom": 12945,
    "ind": 568,
    "Ġplead": 14458,
    "resembled": 21249,
    "Ġproof": 6155,
    "Ġvisible": 4778,
    "Ġgeorgiana": 8629,
    "unwholesome": 26499,
    "Ġhval": 21491,
    "remain": 9841,
    "morland": 24155,
    "professional": 20278,
    "Ġmiraculous": 13550,
    "Ġoctober": 17229,
    "brace": 16944,
    "Ġl": 303,
    "Ġorganization": 7984,
    "Ġcarav": 18903,
    "Ġpole": 6434,
    "Ġfragment": 14501,
    "rically": 15420,
    "Ġgrizz": 10354,
    "Ġcovered": 5171,
    "Ġhurt": 7701,
    "Ġsofas": 26226,
    "Ġsentry": 19028,
    "Ġgarn": 13966,
    "Ġwhenever": 5166,
    "Ġstrife": 18617,
    "Ġnor": 1550,
    "Ġsuperflu": 14556,
    "Ġsurviv": 13438,
    "Ġenriched": 26501,
    "mas": 5212,
    "ntax": 932,
    "Ġoutlines": 15961,
    "Ġcig": 6521,
    "Ġunansw": 22060,
    "Ġglut": 18849,
    "unbe": 21876,
    "Ġofficer": 6755,
    "Ġbil": 15569,
    "mist": 5686,
    "Ġgentlemanly": 19318,
    "Ġindoors": 18839,
    "Ġpostmark": 16727,
    "Ġsupplication": 25492,
    "rance": 5995,
    "Ġdimly": 9491,
    "Ġdiet": 13913,
    "Ġarise": 7896,
    "Ġbroken": 3445,
    "eryton": 4092,
    "Ġpapa": 10659,
    "Ġflu": 3278,
    "Ġsample": 3183,
    "Ġaffections": 10387,
    "Ġintu": 12769,
    "Ġjealous": 9471,
    "favourite": 15147,
    "Ġinsurgents": 26602,
    "Ġrazors": 22661,
    "Ġeyel": 17097,
    "model": 4228,
    "ert": 2628,
    "Ġpuffed": 14980,
    "Ġgrate": 12969,
    "Ġsamples": 2965,
    "Ġfert": 15586,
    "inav": 15486,
    "Ġbambooz": 26120,
    "Ġtumult": 7116,
    "Ġimagenet": 19248,
    "Ġdiscomposure": 20382,
    "fields": 14655,
    "flakes": 23971,
    "Ġphase": 14474,
    "Ġlays": 15993,
    "weary": 22689,
    "leo": 21367,
    "à": 161,
    "Ġuniverse": 14127,
    "Ġliber": 5168,
    "Ġcostly": 23586,
    "Ġcaravan": 26292,
    "Ġsensational": 16395,
    "bree": 15318,
    "Ġlane": 5627,
    "Ġdisconsolate": 20721,
    "impatiently": 20474,
    "Ġsauce": 15894,
    "nailed": 20998,
    "strangely": 17279,
    "oding": 1462,
    "Ġroyal": 5602,
    "Ġburns": 16524,
    "Ġostr": 21328,
    "pest": 6965,
    "Ġneatly": 17018,
    "Ġhighway": 14349,
    "Ġcracking": 14575,
    "Ġreligious": 25124,
    "Ġpoultry": 17444,
    "Ġwhole": 1660,
    "Ġgirdle": 19160,
    "Ġbeware": 8832,
    "Ġhooded": 12410,
    "Ġpsych": 10179,
    "Ġhorrify": 23822,
    "Ġprecious": 5760,
    "Ġcollapsed": 15085,
    "ys": 3958,
    "Ġhonorable": 16878,
    "Ġsetting": 7048,
    "somewhat": 11162,
    "Ġadequ": 10915,
    "Ġslighter": 18942,
    "Ġbrad": 8791,
    "befriend": 22496,
    "Ġgraces": 18226,
    "Ġmachinations": 25768,
    "raham": 18016,
    "ron": 5216,
    "tting": 17682,
    "Ġ84": 19712,
    "Ġhilarity": 20300,
    "zag": 17715,
    "orted": 4604,
    "Ġbible": 9322,
    "gy": 2097,
    "olerable": 7183,
    "Ġsend": 4105,
    "Ġprices": 15616,
    "presented": 12997,
    "Ġlawy": 9458,
    "Ġdestroyed": 5272,
    "Ġdiamond": 15603,
    "Ġbelonging": 8308,
    "oused": 6558,
    "ounded": 9751,
    "Ļ": 252,
    "bat": 8072,
    "Ġtriumph": 5143,
    "become": 14249,
    "Ġanimating": 23426,
    "sk": 5521,
    "Ġmiles": 3802,
    "warmth": 20056,
    "success": 6712,
    "ease": 12462,
    "Ġpeak": 16130,
    "Ġscolding": 15204,
    "Ġwithdraw": 16966,
    "ny": 4015,
    "odhead": 18120,
    "Ġboats": 2634,
    "ugging": 23293,
    "Ġemig": 14526,
    "Ġmirror": 12382,
    "_.": 2211,
    "into": 3680,
    "kicked": 20945,
    "Ġproprietors": 20189,
    "cket": 3687,
    "Ġprospect": 4707,
    "Ġdenote": 19335,
    "Ġunconquerable": 22065,
    "Ġinformation": 1047,
    "remaining": 20223,
    "mbl": 5947,
    "Ġ113": 19699,
    "Ġsending": 8779,
    "autions": 20769,
    "Ġseen": 1369,
    "Ġfishers": 19357,
    "find": 6954,
    "ĵ": 246,
    "Ġdelay": 5748,
    "Ġaw": 2508,
    "Ġshroud": 6484,
    "Ġcraft": 4377,
    "Ġflurry": 18862,
    "Ġdol": 9667,
    "Ġquaint": 18466,
    "oda": 15753,
    "Ġpractice": 2949,
    "gazed": 15365,
    "Ġmales": 17807,
    "Ġcoils": 9306,
    "directed": 20408,
    "necessity": 13371,
    "Ġabundance": 17158,
    "Ġdauntless": 26338,
    "ke": 429,
    "Ġinvoked": 19146,
    "Ġprofessional": 7299,
    "Ġunfolding": 17087,
    "el": 306,
    "lads": 20957,
    "Ġgeor": 3386,
    "Ġroot": 2647,
    "Ġcompletion": 12152,
    "monsters": 19173,
    "Ġhellaswag": 24343,
    "Ġcounsel": 13618,
    "wherefore": 19110,
    "Ġdangers": 12358,
    "ivery": 17574,
    "tiness": 21074,
    "Ġreservoir": 20653,
    "Ġcontour": 18475,
    "Ġwished": 3729,
    "examined": 17269,
    "Ġadjacent": 20713,
    "wherein": 19109,
    "Ġpoets": 11825,
    "dragging": 16611,
    "disc": 4730,
    "zors": 21150,
    "Ġbetokened": 18800,
    "Ġpierce": 17037,
    "Ġknees": 6928,
    "promontory": 24727,
    "Ġunfrequently": 20741,
    "í": 174,
    "ider": 21769,
    "Ġdiscussion": 17197,
    "writer": 14650,
    "Ġgenius": 8046,
    "Ġcorpor": 23044,
    "Ġstupid": 7608,
    "Ġwalton": 14975,
    "lighter": 20961,
    "angs": 5835,
    "west": 10741,
    "Ġglo": 1714,
    "Ġaug": 6236,
    "mrs": 3744,
    "Ġconst": 1909,
    "Ġequ": 1733,
    "Ġraising": 8913,
    "Ġbrute": 8930,
    "Ġbirth": 6525,
    "Ġdivined": 19446,
    "Ġbreathes": 13249,
    "balance": 12011,
    "zy": 2667,
    "Ġliving": 3067,
    "tains": 10964,
    "Ġalleged": 17293,
    "ured": 1653,
    "Ġdrugg": 17122,
    "usoid": 4768,
    "Ġins": 2778,
    "mate": 5359,
    "comes": 5394,
    "Ġattempts": 10493,
    "clock": 3930,
    "Ġwhalebone": 10979,
    "ped": 6964,
    "Ġgrace": 5374,
    "Ġpersian": 11088,
    "Ġcertainly": 2495,
    "cherries": 19759,
    "behold": 12883,
    "Ġpurse": 12015,
    "Ġthomson": 26456,
    "infliction": 25925,
    "Ġyoked": 15739,
    "unct": 18157,
    "rann": 21047,
    "maybe": 23994,
    "Ġtraveller": 8049,
    "ula": 2822,
    "apprec": 22845,
    "Ġnearer": 5303,
    "Ġbubb": 12590,
    "construction": 19781,
    "Ġtantalizing": 20417,
    "Ġinspect": 5965,
    "Ġtiara": 26417,
    "Ġmoved": 4841,
    "Ġwere": 558,
    "denial": 18716,
    "iftings": 23227,
    "Ġdoubloons": 13437,
    "blast": 9590,
    "Ġactual": 3737,
    "Ġforty": 5719,
    "Ġbundle": 13429,
    "crop": 20800,
    "andes": 18154,
    "Ġhoneymoon": 25646,
    "Ġselection": 18205,
    "row": 1067,
    "Ġhonest": 7287,
    "lue": 8511,
    "Ġargu": 10936,
    "croquet": 25748,
    "Ġhur": 2100,
    "Ġintricate": 15141,
    "Ġanyways": 22524,
    "Ġgentlemanlike": 12071,
    "actory": 8911,
    "vac": 15453,
    "whole": 6086,
    "Ġtestament": 23219,
    "Ġgaping": 13972,
    "true": 2583,
    "axed": 8892,
    "ient": 394,
    "Ġhighland": 18711,
    "pract": 10122,
    "deli": 15348,
    "Ġlanded": 7469,
    "Ġmore": 673,
    "Ġstories": 10867,
    "Ġdedu": 5583,
    "conducted": 25573,
    "Ġgaiters": 20464,
    "Ġhorsham": 10408,
    "Ġtrifles": 16953,
    "rell": 11566,
    "Ġextending": 11029,
    "aky": 18412,
    "Ġasked": 2274,
    "desponding": 26343,
    "Ġstream": 5186,
    "om": 316,
    "Ġunrival": 22049,
    "Ġcuff": 17831,
    "Ġsubstances": 24167,
    "wander": 17711,
    "Ġresid": 22542,
    "Ġaffidavit": 20726,
    "Ġwavering": 23282,
    "alogue": 25163,
    "Ġtempt": 5565,
    "Ġpattering": 18650,
    "inferiors": 25347,
    "honey": 20907,
    "Ġgrope": 17997,
    "Ġoceans": 7996,
    "Ġdistant": 5387,
    "goose": 19103,
    "isticated": 1768,
    "Ġlie": 4408,
    "home": 7341,
    "ures": 836,
    "Ġmysteries": 11324,
    "Ġcomp": 724,
    "Ġneskyeuna": 26461,
    "Ġbabel": 24426,
    "encounter": 20395,
    "Ġassigned": 16314,
    "itions": 4145,
    "national": 21000,
    "Ġpitched": 9447,
    "Ġdefined": 11903,
    "murmured": 24455,
    "Ġbat": 10797,
    "Ġinhab": 5083,
    "af": 2374,
    "Ġstring": 11833,
    "Ġtwig": 11854,
    "Ġover": 555,
    "involved": 25627,
    "Ġalive": 4400,
    "Ġplenty": 6710,
    "orphans": 26442,
    "stubb": 6019,
    "Ġdepends": 1118,
    "Ġcottagers": 6762,
    "sper": 4436,
    "Ġgreeting": 18963,
    "Ġeyebrows": 23517,
    "Ġsuperlatively": 26076,
    "Ġeconomically": 25289,
    "Ġfriendly": 9823,
    "ims": 7177,
    "Ġshirr": 18232,
    "Ġtruce": 24117,
    "dissatisf": 26130,
    "sa": 8760,
    "Ġflo": 2585,
    "countryman": 24640,
    "cloud": 11107,
    "Ġwhiteness": 5920,
    "Ġnorthern": 7265,
    "greater": 13254,
    "driven": 19774,
    "Ġtunnels": 24621,
    "Ġbrave": 6331,
    "Ġmasterless": 23998,
    "ax": 694,
    "Ġcomputer": 1202,
    "Ġpaper": 4281,
    "Ġfourth": 7707,
    "Ġnecks": 18182,
    "condem": 16347,
    "Ġsu": 431,
    "Ġhurrying": 11999,
    "Ġsauntering": 18328,
    "Ġgamesome": 17292,
    "Ġbugs": 13651,
    "Ġinnovative": 1636,
    "Ġlearnt": 7615,
    "forced": 11032,
    "Ġfight": 5366,
    "would": 2349,
    "fired": 20862,
    "Ġsave": 4050,
    "Ġupp": 13995,
    "Ġwheel": 9721,
    "Ġsupplied": 8946,
    "Ġrecur": 1618,
    "Ġcared": 8787,
    "explained": 23148,
    "Ġexisting": 12724,
    "Ġtwin": 12934,
    "bless": 22316,
    "Ġoverflowing": 17240,
    "iage": 17575,
    "nowhere": 18419,
    "Ġhappier": 10362,
    "Ġwa": 1750,
    "africa": 26309,
    "nostr": 22737,
    "Ġlunatic": 24993,
    "che": 3176,
    "Ġdandy": 17894,
    "auley": 22625,
    "Ġadvantages": 9811,
    "simp": 17667,
    "tish": 17679,
    "Ġsynd": 22211,
    "Ġwithdra": 6399,
    "Ġmates": 4873,
    "Ġamelia": 26253,
    "corpse": 24486,
    "chat": 21689,
    "Ġvales": 21950,
    "Ġmathematics": 12078,
    "une": 2783,
    "Ġharshly": 25250,
    "Ġcelebrated": 13597,
    "Ġcreated": 2705,
    "á": 162,
    "request": 21244,
    "Ġlively": 5449,
    "agery": 21911,
    "web": 18665,
    "reme": 2423,
    "Ġordinarily": 20651,
    "Ġseclusion": 18209,
    "accounted": 16503,
    "Ġreverie": 13460,
    "Ġenlist": 21940,
    "Ġcircumspect": 15088,
    "Ġtranquil": 7310,
    "q": 85,
    "Ġfired": 16156,
    "Ġadvance": 5484,
    "warnings": 20354,
    "Ġabomination": 22282,
    "Ġthereby": 7645,
    "Ġwrite": 3819,
    "Ġdispel": 16598,
    "Ġchilian": 25564,
    "Ġvicious": 24403,
    "Ġklux": 22200,
    "glances": 23856,
    "Ġdoll": 10815,
    "hark": 15369,
    "Ġflask": 3044,
    "summoned": 26593,
    "bulkington": 19927,
    "orated": 12597,
    "Ġsurmises": 17057,
    "Ġpresentiment": 18990,
    "eer": 15351,
    "itled": 7579,
    "Ġswift": 3668,
    "experienced": 15125,
    "Ġsnatched": 10473,
    "Ġalabama": 14022,
    "idel": 5301,
    "Ġusefulness": 19411,
    "bale": 20776,
    "ament": 2437,
    "Ġnegatived": 23051,
    "Ġelegance": 11334,
    "Ġtresses": 21178,
    "Ġ[\"": 19933,
    "Ġdiligent": 25078,
    "breast": 11247,
    "ca": 20795,
    "Ġargemone": 24277,
    "Ġwondered": 11127,
    "}": 97,
    "Ġxliv": 23411,
    "Ġtrough": 15978,
    "Ġstrolled": 16772,
    "Ġbrewed": 23349,
    "Ġwinking": 17795,
    "Ġhelps": 9371,
    "iple": 4807,
    "Ġequalled": 13316,
    "Ġburden": 8611,
    "Ġspine": 7407,
    "eled": 2355,
    "conclusive": 25674,
    "Ġmessages": 24984,
    "Ġrestrictions": 20638,
    "Ġpreluding": 18369,
    "Ġcompare": 9305,
    "Ġmary": 3841,
    "Ġpand": 21457,
    "culiarity": 11143,
    "button": 10968,
    "ü": 189,
    "Ġagree": 7648,
    "Ġbarmaid": 19337,
    "Ġsquall": 7045,
    "gl": 3290,
    "Ġstaggering": 20276,
    "Ġbefriend": 18084,
    "Ġdashed": 6011,
    "Ġglimmered": 20174,
    "dearest": 11734,
    "Ġdens": 21427,
    "Ġadvers": 4888,
    "Ġpent": 17903,
    "Ġtells": 9364,
    "Ġpick": 4254,
    "sheets": 14444,
    "Ġsurp": 9637,
    "Ġnest": 10191,
    "read": 3276,
    "avish": 22597,
    "Ġastir": 14642,
    "Ġpup": 12625,
    "extreme": 11031,
    "swim": 16781,
    "Ġwires": 21298,
    "arrange": 23769,
    "confidence": 16810,
    "Ġclattered": 22353,
    "ancholy": 5070,
    "Ġremonstrate": 22795,
    "those": 4496,
    "ne": 645,
    "Ġdomains": 6617,
    "Ġsmith": 16068,
    "erpillar": 5798,
    "hog": 8380,
    "Ġslipping": 13364,
    "return": 5489,
    "Ġ96": 24593,
    "etime": 12665,
    "Ġfeigned": 22214,
    "sea": 4764,
    "Ġcircumstance": 4987,
    "Ġunerring": 15851,
    "Ġanchor": 7368,
    "Ġrossum": 3017,
    "agra": 14069,
    "Ġfishing": 9665,
    "Ġarmitage": 23583,
    "Ġcool": 5734,
    "attery": 18498,
    "hem": 6666,
    "Ġsheer": 14154,
    "Ġsteals": 23087,
    "perils": 22191,
    "Ġevinced": 7102,
    "Ġvineyarder": 25607,
    "Ġchurchyard": 16779,
    "Ġoverseeing": 22364,
    "Ġheadache": 22903,
    "Ġportent": 12086,
    "Ġjove": 9271,
    "Ġsnuffed": 15076,
    "Ġstumped": 24945,
    "Ġchains": 8251,
    "Ġlife": 1353,
    "Ġimper": 4502,
    "Ġrecre": 22738,
    "Ġsabbee": 17258,
    "ce": 313,
    "Ġthirty": 4944,
    "Ġmeditating": 20046,
    "owards": 4595,
    "unavoid": 14065,
    "Ġthorough": 6247,
    "shame": 16025,
    "Ġresulting": 24201,
    "Ġmild": 4144,
    "ipotent": 10960,
    "pole": 9336,
    "Ġounce": 15276,
    "Ġdisposed": 7085,
    "residence": 19265,
    "Ġenvironment": 4011,
    "entimes": 12662,
    "Ġmau": 21313,
    "Ġret": 1381,
    "Ġmessage": 13525,
    "Ġposted": 16726,
    "ah": 1832,
    "Ġreeled": 13989,
    "heart": 4526,
    "completed": 19997,
    "Ġbough": 13897,
    "eral": 9162,
    "½": 126,
    "admiration": 11389,
    "Ġunimag": 12781,
    "Ġrefresh": 10348,
    "Ġstrange": 2271,
    "Ġimmutable": 17361,
    "Ġspr": 4024,
    "ility": 624,
    "Ġlust": 9200,
    "magnificent": 20277,
    "Ġbingley": 1674,
    "fireside": 24693,
    "Ġwounding": 19589,
    "Ġconj": 8462,
    "Ġtren": 17723,
    "achable": 14140,
    "arpo": 1753,
    "ella": 12753,
    "ostentatious": 20654,
    ":âĢĶâĢĺ": 24196,
    "board": 3565,
    "Ġdrought": 19280,
    "aciousness": 18607,
    "Ġwoodcock": 19165,
    "gardiner": 12295,
    "Ġcondem": 6340,
    "Ġconfirmed": 11141,
    "england": 18931,
    "rified": 15422,
    "Ġmiser": 18704,
    "Ġadler": 8174,
    "Ġquadru": 16008,
    "mag": 6509,
    "tipt": 25086,
    "Ġairy": 23320,
    "Ġvilla": 14750,
    "might": 4076,
    "urmount": 13999,
    "Ġornament": 11723,
    "Ġpetticoat": 15299,
    "Ġsilly": 7687,
    "Ġjud": 3357,
    "Ġdemig": 20359,
    "Ġswims": 12124,
    "vens": 21115,
    "itioned": 22473,
    "Ġcapst": 8599,
    "Ġxavier": 2851,
    "Ġinstructing": 3125,
    "Ġdenied": 9003,
    "ougher": 18276,
    "proposal": 18762,
    "Ġresistance": 13532,
    "Ġdescends": 14290,
    "iliary": 21730,
    "Ġpredef": 18527,
    "accomplished": 17214,
    "Ġhills": 6528,
    "Ġpuzzle": 11307,
    "Ġinferiority": 17116,
    "Ġ/*": 10142,
    "arranging": 19320,
    "Ġkeepers": 23539,
    "orate": 10802,
    "Ġoccasionally": 5590,
    "corners": 17371,
    "Ġseriously": 7063,
    "eers": 20845,
    "forgot": 11034,
    "Ġwail": 21289,
    "Ġtrailing": 23082,
    "Ġhart": 17924,
    "Ġdisp": 3358,
    "Ġcombing": 22873,
    "Ġseconds": 16397,
    "Ġhandsom": 11126,
    "frequent": 15357,
    "Ġmechanisms": 1573,
    "Ġfret": 10808,
    "Ġsent": 1774,
    "Ġcou": 5288,
    "Ġstrength": 4257,
    "elaborate": 21579,
    "Ġlanc": 19767,
    "wait": 11322,
    "Ġheaviest": 23327,
    "Ġsliding": 9366,
    "Ġyawned": 15054,
    "aborate": 14025,
    "cheerful": 13578,
    "Ġpract": 1907,
    "Ġincrease": 9373,
    "ĠdÃ¦mon": 7844,
    "Ġcompunction": 18586,
    "izens": 18138,
    "Ġnightmare": 18921,
    "Ġpeasants": 12336,
    "tese": 21086,
    "Ġexhibited": 9547,
    "Ġdevils": 7230,
    "Ġbennets": 9809,
    "swells": 26149,
    "strikes": 24671,
    "Ġlifts": 25359,
    "Ġsettle": 6295,
    "fate": 17541,
    "intment": 4721,
    "mention": 7214,
    "Ġmonarchs": 25851,
    "Ġapologized": 25199,
    "Ġhissed": 15793,
    "Ġboneless": 19608,
    "raction": 8138,
    "Ġmuster": 16126,
    "Ġtiresome": 26157,
    "Ġsch": 13838,
    "ellative": 21947,
    "robotics": 11308,
    "Ġmagnet": 10393,
    "teringly": 21827,
    "ggling": 19098,
    "Ġgrease": 26191,
    "Ġsubmerged": 11876,
    "hospit": 25904,
    "dataset": 23251,
    "Ġfer": 5529,
    "Ġsurmisings": 26595,
    "Ġtroops": 24899,
    "Ġcopper": 7425,
    "Ġaggregated": 25679,
    "Ġextremities": 19198,
    "Ġproject": 5546,
    "Ġwedding": 4817,
    "Ġowing": 6006,
    "Ġdiscoverers": 26037,
    "Ġrecall": 3853,
    "Ġcheating": 16370,
    "metals": 24765,
    "Ġsweetness": 9449,
    "iss": 2177,
    "Ġpawnbroker": 13661,
    "athered": 6973,
    "Ġmeasuring": 22885,
    "Ġwait": 4908,
    "Ġhesitation": 13444,
    "Ġharsh": 9524,
    "arpaul": 14538,
    "Ġbargain": 23795,
    "Ġcedar": 15192,
    "ways": 1443,
    "Ġhung": 4561,
    "Ġawhile": 13833,
    "Ġcheerily": 13311,
    "Ġdiscern": 7925,
    "Ġexcl": 3471,
    "riving": 21935,
    "Ġswash": 23058,
    "idirection": 2411,
    "Ġequilibrium": 4137,
    "Ġack": 5622,
    "appearance": 5334,
    "counters": 25398,
    "give": 4690,
    "midnight": 14905,
    "assuming": 22314,
    "gered": 9279,
    "Ġentail": 9796,
    "Ġboisterous": 20446,
    "verty": 8454,
    "Ġconceal": 5975,
    "Ġtist": 21165,
    "Ġcust": 11585,
    "Ġpours": 17912,
    "Ġmanly": 22328,
    "Ġpursuers": 13230,
    "Ġclaims": 13376,
    "Ġappertaining": 26535,
    "apers": 3478,
    "garden": 15028,
    "://": 11467,
    "hil": 8379,
    "Ġstudy": 1822,
    "flames": 14715,
    "ryder": 18640,
    "Ġhandspikes": 12944,
    ",âĢĶâĢĺ": 23805,
    "ĠĠĠĠĠĠĠĠĠĠĠĠĠĠĠĠĠĠĠĠĠĠĠĠĠĠĠĠĠĠĠĠĠĠĠĠĠĠĠĠĠĠĠĠĠĠĠ": 16757,
    "Ġornamented": 20365,
    "Ġscraping": 13419,
    "supers": 22644,
    "Ġunlock": 18244,
    "Ġguide": 3219,
    "Ġundaunted": 24121,
    "!âĢĻâĢĿ": 16594,
    "Ġapiece": 16815,
    "squ": 7809,
    "Ġkindled": 19031,
    "ceived": 1965,
    "introduce": 25187,
    "Ġfaire": 13368,
    "Ġslaughtered": 26586,
    "sciss": 18853,
    "Ġbend": 9173,
    "Ġbottom": 3674,
    "Ġpredict": 684,
    "image": 9689,
    "Ġshrouded": 14972,
    "orte": 14187,
    "Ġmonica": 22983,
    "asp": 3340,
    "icked": 10335,
    "Ġcharacteristically": 23690,
    "children": 9058,
    "older": 15760,
    "Ġs": 265,
    "anders": 18155,
    "iot": 9603,
    "Ġsupernatural": 9876,
    "Ġcannibals": 10590,
    "acute": 22598,
    "attoo": 6808,
    "every": 2808,
    "und": 4085,
    "Ġtalents": 15047,
    "Ġknight": 9731,
    "È": 137,
    "igating": 21703,
    "belled": 24039,
    "Ġvisit": 2581,
    "Ġtidings": 11399,
    "Ġsilver": 7463,
    "nical": 20993,
    "Ġfailed": 6674,
    "Ġdefend": 9343,
    "Ġerection": 24004,
    "Ġinexhaustible": 16983,
    "Ġtimid": 6347,
    "Ġlingered": 13507,
    "Ġstark": 7390,
    "onsensical": 18576,
    "hoist": 23715,
    "resnet": 4068,
    "Ġunf": 4088,
    "estab": 14173,
    "execution": 20475,
    "meant": 7921,
    "Ġfishe": 15590,
    "Ġottoman": 17381,
    "visitors": 13352,
    "Ġoblivious": 26033,
    "achment": 5464,
    "Ġdetestable": 15102,
    "month": 6464,
    "Ġromish": 19587,
    "Ġwake": 4750,
    "Ġswarming": 16277,
    "Ġclimes": 12846,
    "Ġanimals": 8981,
    "Ġatmosphere": 10899,
    "Ġhalyards": 21497,
    "Ġspear": 9315,
    "Ġlatitude": 8329,
    "Ġchil": 11755,
    "Ġcalamities": 25700,
    "Ġencountered": 8322,
    "²": 115,
    "Ġalternate": 19989,
    "Ġenrolled": 21941,
    "magn": 10613,
    "windows": 19537,
    "action": 3726,
    "abling": 1079,
    "bedstead": 23935,
    "Ġthese": 818,
    "Ġfoundations": 11075,
    "Ġ181": 23899,
    "treated": 21097,
    "circuit": 24191,
    "sorrows": 17323,
    "Ġtornado": 24622,
    "Ġinclud": 1512,
    "Ġpictured": 16625,
    "pro": 2051,
    "'d": 12431,
    "spe": 3560,
    "Ġsuitable": 18280,
    "injury": 25214,
    "Ġreleased": 2982,
    "Ġproperty": 6451,
    "Ġ123": 24468,
    "Ġreminiscences": 26270,
    "Ġnodes": 1968,
    "Ġflush": 14427,
    "Ġpeas": 8536,
    "became": 10517,
    "Ġvaguely": 17369,
    "_.âĢĻâĢĿ": 17482,
    "Ġchatbots": 11351,
    "eler": 1569,
    "Ġwax": 10778,
    "create": 24161,
    "Ġaccumulating": 2720,
    "icken": 6713,
    "Ġlowest": 11124,
    "Ġdecipher": 22445,
    "Ġluxurious": 17314,
    "Ġentropy": 2031,
    "onents": 8781,
    "Ġpleased": 4062,
    "name": 6796,
    "Ġdispatched": 23884,
    "Ġcub": 8415,
    "iary": 15374,
    "clifford": 23161,
    "Ġpruning": 18970,
    "Ġsp": 458,
    "Ġ275": 20114,
    "Ġrainbows": 19651,
    "ishop": 9745,
    "aly": 1122,
    "Ġjulia": 22306,
    "Ġserenity": 10031,
    "Ġunclasp": 26513,
    "revol": 12545,
    "Ġramadans": 25122,
    "Ġpossession": 5589,
    "Ġcharmingly": 24224,
    "Ġsinusoidal": 4802,
    "frequently": 9982,
    "Ġchoose": 5983,
    "velling": 14765,
    "devoted": 20020,
    "Ġacquired": 13048,
    "bber": 4569,
    "Ġinvention": 19956,
    "eked": 16405,
    "Ġidly": 16406,
    "Ġjuicy": 25371,
    "emic": 18183,
    "rop": 541,
    "consideration": 14958,
    "Ġperpendicularly": 11376,
    "Ġjoky": 18407,
    "Ġexpectantly": 23526,
    "Ġbenefits": 4285,
    "Ġwidely": 8033,
    "gang": 17555,
    "Ġbelly": 10372,
    "oughed": 22079,
    "Ġexploit": 19164,
    "Ġagricultural": 26552,
    "Ġholding": 4979,
    "Ġaccursed": 9453,
    "wheeler": 16191,
    "Ġhazarded": 25655,
    "Ġpride": 3821,
    "Ġaffords": 16736,
    "consider": 6350,
    "ody": 1480,
    "Ġwasn": 6998,
    "Ġcolony": 18768,
    "Ġfidelity": 15245,
    "Ġspoke": 2745,
    "acet": 5476,
    "shining": 18488,
    "Ġobey": 9522,
    "oury": 22308,
    "Ġtokens": 1771,
    "iet": 1773,
    "serpent": 16295,
    "prospect": 23399,
    "mal": 6795,
    "Ġtranslates": 12055,
    "Ġ34": 16679,
    "Ġhalloa": 13320,
    "O": 51,
    "Ġmediocrity": 26610,
    "rasing": 21048,
    "Ġvessels": 6757,
    "sence": 3306,
    "taken": 7561,
    "Ġswain": 18883,
    "rals": 21045,
    "amidst": 25653,
    "Ġmoby": 3664,
    "Ġfiled": 15584,
    "Ġhour": 1811,
    "Ġpropont": 16353,
    "Ġmishap": 20579,
    "class": 4094,
    "mutually": 26137,
    "Ġvideo": 25366,
    "vanished": 15063,
    "iant": 5427,
    "enses": 10996,
    "objections": 19918,
    "thodox": 21992,
    "Ġaction": 5797,
    "sat": 4811,
    "Ġunrest": 11718,
    "Ġfrequent": 3287,
    "Ġforces": 12708,
    "fortunes": 6334,
    "linearity": 1650,
    "ram": 13975,
    "repeat": 25155,
    "Ġstifle": 18079,
    "ª": 108,
    "prehens": 9292,
    "splinter": 25211,
    "table": 5795,
    "boil": 19000,
    "willingness": 24754,
    "Ġdissol": 18552,
    "Ġrid": 4353,
    "cri": 17508,
    "Ġrede": 13987,
    "Ġoriginate": 24123,
    "ton": 1726,
    "Ġcoer": 22582,
    "stamp": 21651,
    "ublic": 11229,
    "Ġ----": 7146,
    "Ġprotecting": 24687,
    "Ġtorments": 13397,
    "y": 93,
    "beyond": 8886,
    "osely": 9268,
    "Ġvisitor": 5331,
    "Ġestates": 16461,
    "published": 26143,
    "Ġcombination": 22874,
    "Ġdesist": 16240,
    "Ġfeelings": 2452,
    "Ġexpl": 488,
    "considered": 9583,
    "acetti": 13399,
    "Ġbeeches": 9229,
    "patched": 17645,
    "Ġ1869": 19387,
    "boats": 6206,
    "iable": 3334,
    "igin": 3655,
    "black": 6769,
    "Ġuniversity": 13126,
    "Ġhair": 3313,
    "hook": 12057,
    "Ġlists": 11168,
    "court": 7512,
    "ieved": 3233,
    "grey": 14915,
    "nable": 13765,
    "Ġantiqu": 12149,
    "mish": 17600,
    "untering": 15780,
    "Ġgazes": 24098,
    "Ġawkwardness": 13490,
    "arboard": 7266,
    "Ġhamp": 12636,
    "Ġtopsails": 19196,
    "Ġlearnedly": 23389,
    "Ġsoft": 1459,
    "Ġhereditary": 10667,
    "Ġseventh": 18207,
    "Ġtahitian": 25428,
    "Ġunst": 18239,
    "Ġimprudently": 22392,
    "Ġcopse": 17069,
    "based": 2963,
    "determine": 19947,
    "crowd": 25255,
    "Ġlaunched": 14929,
    "Ġtongs": 9964,
    "concent": 19483,
    "Ġwonders": 7501,
    "circumamb": 26088,
    "Ġsecrets": 9057,
    "Ġblacksmith": 6597,
    "syntax": 5868,
    "bennet": 5353,
    "Ġsponge": 26004,
    "Ġmalice": 7153,
    "adm": 7610,
    "ourney": 3553,
    "Ġann": 4490,
    "Ġprynne": 25541,
    "õ": 182,
    "Ġpelt": 15614,
    "wins": 21132,
    "atherley": 7220,
    "Ġcurvature": 3573,
    "Ġradiance": 13374,
    "rannical": 26403,
    "ilst": 8144,
    "Ġhagger": 21494,
    "iocr": 20925,
    "Ġjar": 15954,
    "Ġopposing": 12044,
    "Ġtrain": 514,
    "gledy": 25404,
    "Ġattached": 5392,
    "Ġcurves": 18856,
    "Ġscales": 4851,
    "Ġoriginated": 24124,
    "existence": 16018,
    "m": 81,
    "ippi": 20247,
    "Ġthundering": 24293,
    "Ġstript": 23693,
    "anations": 12582,
    "Ġqueen": 3216,
    "sen": 21052,
    "Ġarrow": 10933,
    "Ġassured": 4373,
    "Ġconcise": 23325,
    "Ġdefiance": 11070,
    "ising": 2252,
    "Ġprofessed": 14727,
    "rifle": 21049,
    "rowing": 7931,
    "byshire": 6174,
    "Ġexact": 2541,
    "simple": 13455,
    "ments": 1399,
    "Ġamusing": 11804,
    "Ġspeak": 2227,
    "Ġsalutations": 25383,
    "Ġnumerous": 6920,
    "Ġcott": 3709,
    "Ġeffusion": 22516,
    "mblings": 19783,
    "Ġreflections": 5948,
    "Ġinfinitely": 8966,
    "Ġloafer": 18300,
    "Ġnecess": 3472,
    "Ġquieted": 23846,
    "Ġimputable": 22177,
    "Ġburnished": 24001,
    "azing": 7705,
    "Ġdaylight": 10353,
    "Ġlimit": 10445,
    "Ġdeuteronomy": 15764,
    "Ġdived": 9180,
    "orting": 9738,
    "ivided": 22085,
    "Ġdictate": 20154,
    "Ġwarehouses": 20421,
    "Ġvillain": 8639,
    "Ġuntoward": 19167,
    "Ġslope": 14464,
    "Ġhorizont": 6937,
    "Ġclang": 15966,
    "Ġcet": 6672,
    "meeting": 11021,
    "Ġpremises": 10490,
    "Ġplaymate": 23639,
    "Ġlads": 8600,
    "cks": 3083,
    "Ġproposals": 10616,
    "Ġevils": 9023,
    "Ġpled": 17907,
    "Ġnumberless": 16418,
    "Ġadmiring": 16482,
    "raged": 9214,
    "aint": 2540,
    "ot": 346,
    "Ġloaf": 15876,
    "eed": 20843,
    "Ġagonies": 14254,
    "recover": 24623,
    "period": 15906,
    "Ġstoper": 14466,
    "Ġloosed": 22116,
    "Ġrecl": 16144,
    "Ġmusic": 5269,
    "sympathy": 20545,
    "ply": 6367,
    "Ġprovinc": 16744,
    "Ġperpendicular": 7209,
    "Ġcomplicated": 14738,
    "gain": 8740,
    "utely": 8132,
    "friends": 8306,
    "Ġuncivil": 11157,
    "Ġcorresponds": 19824,
    "Ġhangs": 11609,
    "Ġelephants": 9867,
    "Ġshutter": 16673,
    "Ġmonoman": 7939,
    "broke": 14781,
    "Ġnarrative": 6217,
    "presumption": 20445,
    "Ġbehaviour": 4386,
    "final": 19679,
    "Ġbeds": 14554,
    "Ġcrucifix": 26080,
    "roc": 9677,
    "Ġignorantly": 19498,
    "Ġintens": 7004,
    "reluct": 26164,
    "unteered": 26497,
    "Ġunimpeachable": 26524,
    "\"": 6,
    "Ġfeeding": 7973,
    "Ġsne": 6373,
    "sius": 13791,
    "º": 123,
    "Ġsublime": 8066,
    "ourage": 2450,
    "Ġweighing": 20019,
    "mur": 5428,
    "withstand": 23030,
    "concerted": 16674,
    "Ġreigned": 13990,
    "dan": 17517,
    "Ġcharley": 19007,
    "Ġreign": 13988,
    "australian": 20564,
    "uteronomy": 15668,
    "Ġbradstreet": 9579,
    "descending": 16288,
    "Ġwraps": 19779,
    "bing": 7792,
    "Ġhat": 2770,
    "Ġsideways": 6184,
    "Ġnecessitates": 23933,
    "Ġsinful": 18951,
    "Ġherein": 16194,
    "Ġhookah": 16972,
    "olera": 21837,
    "Ġwhitewashed": 14472,
    "troubled": 17113,
    "Ġgenerate": 1511,
    "footsteps": 25200,
    "gypt": 8261,
    "high": 6652,
    "Ġfact": 1727,
    "Ġstate": 1810,
    "put": 415,
    "quimaux": 21857,
    "Ġpeterson": 9486,
    "berwell": 22749,
    "Ġbelow": 4060,
    "Ġlighter": 12659,
    "Ġterrific": 6756,
    "Ġsobs": 14137,
    "Ħ": 231,
    "ositories": 22267,
    "Ġmisunderstood": 18706,
    "thumb": 18219,
    "Ġmirth": 15549,
    "knowing": 10439,
    "Ġbehoo": 19035,
    "Ġdeplored": 20508,
    "Ġblemish": 19682,
    "Ġeveryone": 8921,
    "Ġguinea": 8950,
    "Ġskills": 1838,
    "visited": 13351,
    "recl": 15513,
    "Ġappropriated": 23486,
    "Ġcorners": 18876,
    "Ġrobe": 18458,
    "Ġere": 3685,
    "ishment": 3504,
    "tribute": 21091,
    "Ġger": 21594,
    "Ġunforeseen": 22055,
    "Ġugliness": 20430,
    "Ġinquirers": 24965,
    "Ġpe": 850,
    "Ġnotable": 18223,
    "Ġcomplet": 4424,
    "Ġbuttoning": 17238,
    "Ġwrenched": 12563,
    "Ġcounteracted": 19864,
    "Ġeffectual": 18731,
    "Ġdiscernment": 15072,
    "que": 1115,
    "gaining": 20127,
    "Ġremained": 3144,
    "Ġavalanche": 17436,
    "Ġnations": 8814,
    "Ġcovering": 13259,
    "Ġconfused": 7965,
    "bern": 20777,
    "Ġoffence": 12949,
    "Ġmature": 17801,
    "eprints": 12798,
    "Ġdiscoverer": 26036,
    "Ġdisposal": 19379,
    "eter": 11624,
    "great": 3515,
    "marrying": 19550,
    "Ġmethod": 1439,
    "Ġshining": 8172,
    "disaster": 23495,
    "remental": 21250,
    "Ġtoes": 10831,
    "tomb": 21096,
    "Ġjapan": 7641,
    "contempt": 13193,
    "Ġdearer": 14054,
    "sweet": 8689,
    "enorm": 17783,
    "aded": 3549,
    "Ġpasture": 14544,
    "Ġtouched": 6002,
    "succeed": 10331,
    "ivity": 1700,
    "Ġcaves": 15558,
    "il": 329,
    "Ġrespite": 13157,
    "Ġeastern": 11632,
    "Ġdiana": 21439,
    "punctual": 26357,
    "Ġdefici": 22946,
    "Ġ1000": 3120,
    "Ġallies": 18235,
    "Ġcushion": 17835,
    "angled": 6844,
    "Ġtreating": 4282,
    "enthus": 17980,
    "Ġpecks": 18670,
    "Ġproximity": 3222,
    "shall": 4550,
    "Ġtalks": 23373,
    "Ġhimself": 1352,
    "Ġstumble": 26485,
    "Ġnour": 10832,
    "Ġdeserts": 10510,
    "Ġbreathe": 9015,
    "Ġexplanation": 6694,
    "Ġsteam": 9356,
    "Ġlamp": 4112,
    "offensive": 16401,
    "earn": 10698,
    "Ġacquitted": 18900,
    "engine": 18929,
    "tre": 8764,
    "stolen": 13980,
    "Ġtit": 8400,
    "Ġfort": 2576,
    "Ġpast": 2099,
    "eaten": 20347,
    "methodically": 20666,
    "Ġembatt": 18831,
    "hilar": 25084,
    "Ġuneasily": 24233,
    "Ġfactory": 23279,
    "resembling": 25933,
    "Ġequally": 5258,
    "octavo": 11387,
    "Ġcoolly": 9775,
    "joy": 3335,
    "Ġdemi": 25549,
    "Ġtossing": 8126,
    "Ġapart": 4747,
    "copper": 19190,
    "Ġprofessions": 11233,
    "Ġsuavely": 26525,
    "Ġpl": 742,
    "Ġperson": 2366,
    "Ġjib": 14196,
    "Ġinvari": 6530,
    "Ġsupple": 23002,
    "Ġwhale": 627,
    "stupid": 12681,
    "Ġevening": 2649,
    "Ġded": 2469,
    "Ġconsoled": 18118,
    "Ġearl": 7677,
    "somebody": 14567,
    "Ġramble": 9317,
    "Ġneedle": 8275,
    "appropri": 22844,
    "Ġgiving": 4083,
    "voyages": 24856,
    "inno": 10758,
    "Ġ1950": 11361,
    "Ġaims": 15499,
    "Ġpreach": 14175,
    "Ġtickled": 20060,
    "alf": 4639,
    "moor": 22707,
    "tailed": 17687,
    "Ġimparts": 18447,
    "alvan": 21507,
    "Ġlicence": 25099,
    "Ġcontrad": 9758,
    "Ġrumors": 11323,
    "Ġparlor": 13542,
    "Ġbye": 12744,
    "Ġjava": 12316,
    "oul": 4700,
    "ority": 8419,
    "Ġpurporting": 19184,
    "Ġspeed": 2447,
    "Ġpatched": 16384,
    "ourselves": 9014,
    "Ġapprised": 18362,
    "Ġclout": 22347,
    "ħ": 232,
    "onings": 21255,
    "Ġunembarrassed": 22073,
    "Ġvind": 10252,
    "Ġdolph": 12384,
    "Ġmeditative": 25017,
    "Ġyea": 8919,
    "Ġslightest": 6093,
    "comprehens": 16175,
    "gment": 4392,
    "Ġmeas": 1095,
    "lig": 3178,
    "king": 3064,
    "astern": 8585,
    "street": 6496,
    "aiian": 23594,
    "Ġrus": 14095,
    "Ġhig": 755,
    "take": 4577,
    "torn": 17684,
    "Ġangular": 19210,
    "changed": 7176,
    "rey": 12543,
    "Ġjobs": 24833,
    "if": 375,
    "Ġangle": 8606,
    "Ġsacrilege": 26230,
    "Ġair": 1835,
    "Ġswings": 11089,
    "Ġvain": 3629,
    "Ġ135": 24784,
    "oped": 6048,
    "Ġbene": 2032,
    "Ġphilistines": 26083,
    "Ġhieroglyphics": 17306,
    "savor": 25027,
    "Ġblending": 14403,
    "adem": 21761,
    "Ġfame": 21409,
    "Ġsad": 3864,
    "Ġclustered": 25234,
    "Ġstated": 9692,
    "Ġinjustice": 9193,
    "Ġopinions": 9418,
    "worth": 8630,
    "Ġentailed": 11028,
    "Ġbrother": 2746,
    "secret": 12241,
    "Ġbold": 5293,
    "Ġcasts": 19429,
    "apt": 720,
    "Ġstray": 18075,
    "passed": 8026,
    "Ġnoses": 18374,
    "lest": 5290,
    "Ġthe": 270,
    "Ġexagger": 12725,
    "Ġruss": 18718,
    "Ġpointing": 5661,
    "Ġwrapping": 19778,
    "Ġdipped": 15599,
    "force": 12961,
    "Ġabomin": 8189,
    "Ġblurred": 22934,
    "umnal": 18301,
    "Ġarri": 2551,
    "Ġlovel": 10274,
    "Ġdeposit": 17271,
    "Ġdetection": 3160,
    "Ġassistant": 7298,
    "ivable": 10912,
    "mature": 20969,
    "revolver": 25628,
    "icy": 6142,
    "Ġventilator": 8717,
    "ampton": 18147,
    "Ġdisadvantages": 18559,
    "Ġremotest": 10055,
    "Ġexecut": 4245,
    "Ġadmeasurements": 26227,
    "reposed": 24492,
    "join": 12118,
    "atter": 647,
    "Ġcorpusants": 13681,
    "circumstantial": 24444,
    "Ġdisplayed": 10611,
    "Ġcaul": 10789,
    "Ġpurest": 14942,
    "ffy": 18318,
    "Ġstubborn": 10416,
    "Ġrespectful": 16349,
    "design": 19343,
    "dishonourable": 26367,
    "owder": 8450,
    "orrowed": 19291,
    "Ġadie": 8491,
    "died": 11482,
    "acters": 9312,
    "Ġstatements": 7517,
    "Ġunintellig": 22028,
    "ple": 455,
    "Ġhomeward": 9395,
    "Ġunimpe": 22074,
    "Ġprosecuted": 25294,
    "leagued": 26437,
    "oves": 15406,
    "carp": 9113,
    "Ġbowls": 23773,
    "Ġeng": 1162,
    "Ġharmless": 9968,
    "Ġrested": 9382,
    "Ġpath": 2115,
    "characteristic": 24686,
    "greatest": 10496,
    "Ġinnermost": 12165,
    "gloves": 25146,
    "hatchway": 25905,
    "Ġdistrusted": 13544,
    "teness": 23207,
    "Ġheroines": 19754,
    "Ġprophe": 13082,
    "Ġglobular": 19012,
    "Ġcomputing": 2218,
    "Ġwre": 5077,
    "Ġlux": 8818,
    "Ġobsole": 22703,
    "Ġepaulets": 24906,
    "Ġmoderate": 10940,
    "use": 2534,
    "Ġduty": 4069,
    "Ġtottenham": 24144,
    "rier": 9245,
    "learnt": 23565,
    "Ġnarratives": 24353,
    "Ġgre": 1579,
    "Ġscrewing": 20211,
    "Ġsauc": 15892,
    "Ġbutchers": 18273,
    "urpr": 2285,
    "finer": 17548,
    "ject": 875,
    "Ġdevice": 1927,
    "incess": 15485,
    "Ġdecks": 6900,
    "Ġevid": 3499,
    "Ġhussey": 7725,
    "words": 7983,
    "Ġlik": 2522,
    "Ġirregularity": 25325,
    "Ġlazily": 11382,
    "factories": 19846,
    "feeder": 12365,
    "watson": 12248,
    "Ġcircumspection": 25885,
    "Ġmantel": 11441,
    "Ġdescended": 7428,
    "touch": 8392,
    "cous": 8725,
    "Ġcounted": 12144,
    "Ġrolling": 5976,
    "Ġadvert": 10574,
    "thes": 7391,
    "contrivance": 26317,
    "Ġwaters": 3596,
    "once": 5905,
    "Ġperformer": 18756,
    "Ġintegral": 25011,
    "bride": 19202,
    "ighb": 10425,
    "ht": 376,
    "Ġinsince": 23678,
    "Ġspeeches": 22654,
    "Ġtenderness": 12220,
    "Ġsubsisted": 19119,
    "Ġunlucky": 10053,
    "Ġespe": 21158,
    "Ġrepine": 16413,
    "âĢĿ)": 21818,
    "fem": 17539,
    "Ġcare": 1638,
    "Ġhitherto": 5881,
    "Ġfinancier": 26585,
    "Ġexciting": 23314,
    "Ġ19": 6721,
    "----âĢĻ": 24101,
    "achalot": 15867,
    "etite": 21582,
    "Ġheiress": 20700,
    "oniously": 21260,
    "Ġmoran": 9344,
    "Ġleaks": 16447,
    "ells": 5305,
    "nam": 2873,
    "Ġkno": 5242,
    "Ġcrowds": 14742,
    "Ġrestrict": 16377,
    "Ġoust": 21327,
    "work": 1712,
    "perpet": 14164,
    "Ġgaining": 9495,
    "Ġconsidering": 4616,
    "uiperai": 10666,
    "Ġstarbuck": 2194,
    "hind": 20896,
    "Ġimproves": 22736,
    "Ġnibbling": 17388,
    "Ġsevent": 18203,
    "Ġvolley": 24147,
    "maul": 11896,
    "Ġrachel": 11851,
    "Ġmors": 17803,
    "Ġexult": 10232,
    "Ġvivacity": 14944,
    "pha": 22805,
    "Ġfrightens": 24033,
    "Ġstaircase": 20099,
    "Ġshuttle": 12131,
    "Ġbridal": 14957,
    "Ġreadiness": 13054,
    "12": 20751,
    "seriously": 18906,
    "Ġcustody": 13650,
    "endeavouring": 15018,
    "Ġfruit": 12330,
    "advancing": 14839,
    "Ġmove": 5107,
    "Ġishmael": 7395,
    "facts": 19845,
    "Ġsherlock": 3889,
    "Ġvagabond": 20206,
    "Ġimproving": 1212,
    "Ġrest": 1781,
    "Ġmeddle": 20580,
    "Ġpan": 5082,
    "Ġdece": 6997,
    "Ġstripping": 23695,
    "Ġabsence": 4895,
    "Ġagony": 5388,
    "Ġnorms": 3665,
    "Ġconstit": 8587,
    "Ġpersuasions": 16634,
    "Ġmoonshine": 19600,
    "side": 2300,
    "Ġstructural": 2795,
    "lement": 10169,
    "onts": 15522,
    "joice": 9605,
    "ras": 21039,
    "Ġaccosted": 13676,
    "Ġenl": 18190,
    "glim": 19368,
    "preserver": 20216,
    "Ġtransparen": 10544,
    "bones": 8372,
    "apprehens": 17409,
    "hunted": 16834,
    "coal": 12029,
    "Ġhumour": 7932,
    "hering": 12820,
    "bre": 3977,
    "Ġdiminished": 16668,
    "Ġyell": 21781,
    "ouement": 21451,
    "Ġdrugged": 12608,
    "sentimental": 25682,
    "derstand": 652,
    "Ġstripped": 10466,
    "antages": 7192,
    "Ġbecoming": 4399,
    "Ġfarther": 5956,
    "iscient": 17853,
    "delirious": 19508,
    "Ġsignification": 19205,
    "reward": 15512,
    "Ġlikewise": 5386,
    "blot": 20785,
    "ro": 301,
    "Ġminiature": 11042,
    "Ġwarn": 5695,
    "Ġfog": 9664,
    "Ġvinc": 14088,
    "Ġchanging": 11757,
    "Ġsail": 1671,
    "Ġdetained": 18371,
    "Ġpitiable": 9917,
    "susp": 10599,
    "sho": 6426,
    "Ġdyspeps": 16510,
    "ash": 1993,
    "began": 6427,
    "Ġimmersed": 19488,
    "probability": 17024,
    "Ġdevouring": 11862,
    "Ġleviathans": 8282,
    "Ġstake": 14007,
    "buttons": 22405,
    "arial": 5532,
    "Ġrim": 21969,
    "Ġsake": 4090,
    "thither": 21987,
    "Ġsacrifice": 9558,
    "Ġbless": 4341,
    "Ġcandidates": 4332,
    "pre": 650,
    "just": 1698,
    "itive": 6671,
    "Ġfurnaces": 24008,
    "Ġnooks": 26012,
    "Ġfeed": 2128,
    "Ġtons": 11552,
    "Ġhall": 4181,
    "Ġspurned": 12806,
    "w": 91,
    "ojo": 7349,
    "Ġspectators": 19410,
    "opinion": 10986,
    "daw": 17524,
    "pede": 19932,
    "ingly": 2136,
    "Ġattribute": 16104,
    "ertion": 12043,
    "Ġsleek": 23387,
    "fights": 20867,
    "Ġfris": 23258,
    "cart": 10692,
    "ignorant": 13566,
    "Ġagatha": 6866,
    "avers": 17483,
    "Ġpagoda": 19791,
    "Ġbar": 3150,
    "Ġpunctil": 20117,
    "Ġjamming": 17267,
    "umps": 6319,
    "orter": 4253,
    "'m": 9585,
    "Ġimpulse": 10027,
    "Ġoblong": 14324,
    "alous": 7372,
    "Ġreplen": 11116,
    "Ġsockets": 22092,
    "Ġtoad": 21513,
    "Ġcurve": 22996,
    "ounding": 22397,
    "look": 2258,
    "boone": 23256,
    "Ġcomprise": 18584,
    "Ġgroaned": 11268,
    "Ġquadruped": 20618,
    "belt": 24038,
    "Ġwindows": 4971,
    "iffs": 9025,
    "Î": 143,
    "preference": 22471,
    "Ġtongues": 14866,
    "Ġconc": 1841,
    "chariot": 26481,
    "Ġsaxon": 25469,
    "ctor": 13963,
    "Ġsensibly": 14518,
    "Ġintelligible": 15944,
    "Ġtowed": 11267,
    "Ġlooked": 1802,
    "Ġappalled": 22223,
    "sleep": 6512,
    "Ġpea": 14320,
    "misrepresented": 24214,
    "xi": 17712,
    "Ġming": 9648,
    "Ġdum": 10813,
    "lance": 12486,
    "vi": 2372,
    "happiest": 19334,
    "Ġtrick": 7022,
    "chant": 4256,
    "diversity": 25898,
    "Ġplane": 11827,
    "Ġextended": 7924,
    "wish": 8100,
    "Ġwishes": 4796,
    "precaution": 23826,
    "quest": 4538,
    "Ġinte": 2066,
    "beards": 22495,
    "given": 8377,
    "engthen": 14460,
    "consult": 24171,
    "Ġoh": 2176,
    "Ġweather": 3994,
    "aken": 1869,
    "Ġmarine": 23038,
    "shroud": 20313,
    "Ġdisaster": 12893,
    "Ġfevers": 22213,
    "Ġmoods": 14954,
    "heav": 5694,
    "ourable": 4967,
    "ĠĠĠĠĠĠĠĠĠĠĠĠĠĠĠĠĠĠĠĠĠĠĠĠĠĠĠĠĠĠĠĠĠĠĠĠĠĠĠĠĠĠĠĠĠĠĠĠĠĠĠĠĠ": 20043,
    "Ġrapturously": 24889,
    "Ġengraving": 17081,
    "Ġunmolested": 15249,
    "Ġseem": 913,
    "Ġnewspapers": 17189,
    "Ġasserted": 16951,
    "grateful": 10430,
    "Ġcomforters": 25801,
    "Ġnewly": 9341,
    "Ġflapped": 23014,
    "thoroughly": 26510,
    "Ġzigzag": 26274,
    "Ġsimon": 5172,
    "ild": 1155,
    "Ġshorter": 4499,
    "Ġtop": 2470,
    "Ġvalid": 1701,
    "Ġnormalizing": 1820,
    "amp": 2603,
    "ap": 546,
    "Ġwonder": 2118,
    "suited": 22643,
    "Ġont": 18121,
    "minded": 9040,
    "beheld": 11805,
    "Ġscent": 10287,
    "Ġhemis": 21687,
    "Ġextend": 18696,
    "İ": 241,
    ",--": 2476,
    "humour": 7499,
    "Ġpupils": 20424,
    "Ġsouls": 6310,
    "skull": 24488,
    "Ġtangle": 25761,
    "Ġalighted": 18106,
    "Ġinf": 1754,
    "Ġboon": 22640,
    "Ġchill": 11756,
    "medical": 23346,
    "ele": 9117,
    "Ġcoral": 11926,
    "Ġslyness": 25267,
    "ilated": 18060,
    "._)": 10483,
    "foreign": 18544,
    "Ġprompted": 23820,
    "Ġsant": 21217,
    "ĥ": 230,
    "0": 20,
    "nin": 17610,
    "ouder": 17902,
    "Ġaffability": 14390,
    "Ġfict": 21408,
    "Ġcran": 12005,
    "Ġreddening": 25971,
    "Ġthrusting": 10555,
    "conve": 14246,
    "Ġcomrades": 9236,
    "ann": 5803,
    "provoke": 26072,
    "Ġnineveh": 13392,
    "Ġsaintsbury": 26374,
    "Ġwel": 4527,
    "Ġpanther": 16821,
    "Ġhistorically": 19381,
    "<EOS>": 2,
    "Ġlascar": 9202,
    "eration": 10774,
    "mechanically": 17303,
    "ez": 5683,
    "Ġaccompl": 5167,
    "Ġsepul": 14093,
    "Ġirresistible": 13116,
    "restoration": 23238,
    "Ġallows": 3236,
    "Ġextracts": 9368,
    "Ġswelled": 11090,
    "gd": 3127,
    "Ġlegal": 10441,
    "Ġcrazy": 8596,
    "forgive": 18721,
    "Ġamput": 16038,
[...]
