{
  "metadata": {
    "vocab_size": 26616,
    "algorithm": "BPE",
    "created_at": "2026-06-16 07:25:28",
    "special_tokens": [
      "<PAD>",
      "<SOS>",
      "<EOS>",
      "<UNK>",
      "<MASK>"
    ]
  },
  "vocab": {
    "unc": 15773,
    "address": 14884,
    "entions": 17977,
    "alog": 8809,
    "knowledge": 7479,
    "Ġgem": 21597,
    "Ġleaps": 14011,
    "Ġwatery": 6298,
    "iable": 3333,
    "Ġconsummation": 17428,
    "attempts": 17193,
    "Ġrestored": 7068,
    "trembling": 17145,
    "Ġadvancement": 24475,
    "alogies": 25162,
    "Ã": 132,
    "uttered": 8442,
    "âĢľâĢĶ": 10873,
    "Ġselfishness": 12293,
    "Ġchil": 11755,
    "Ġsomnambul": 26578,
    "Ġsuperl": 16445,
    "aby": 18109,
    "Ġhired": 10180,
    "Ġspectacle": 10499,
    "Ġhumour": 7932,
    "sur": 4523,
    "onial": 11568,
    "Ġmorbidness": 20631,
    "string": 15689,
    "Ġhawaiian": 25367,
    "Ġcarriage": 3951,
    "Ġestab": 6317,
    "lovely": 16050,
    "Ġinfirm": 19020,
    "ĸ": 249,
    "Ġimprecations": 25821,
    "shirt": 22464,
    "Ġinvisible": 7327,
    "Ġgunwale": 7325,
    "Ġreadily": 5254,
    "Ġpyramids": 15118,
    "Ġasyl": 12739,
    "Ġargemone": 24277,
    "ira": 3958,
    "Ġparacels": 13671,
    "likelihood": 4991,
    "appointment": 24065,
    "Ġlistened": 4470,
    "exciting": 19671,
    "Ġdisturbed": 8675,
    "Ġknife": 7309,
    "ume": 4835,
    "Ġlingo": 24904,
    "augmented": 26288,
    "ravity": 21638,
    "anxious": 15113,
    "Ġcrimin": 6901,
    "Ġtainted": 21173,
    "Ġmississippi": 20727,
    "talk": 6659,
    "squ": 7809,
    "education": 20304,
    "Ġeffectual": 18733,
    "stories": 18023,
    "Ġmince": 22833,
    "Ġdepending": 14294,
    "Ġsecond": 1883,
    "Ġdumbly": 24988,
    "Ġapply": 1778,
    "Ġlascar": 9202,
    "ies": 582,
    "shine": 9292,
    "lads": 20957,
    "Ġseries": 7061,
    "iquet": 17577,
    "Ġhatred": 8612,
    "assumed": 22312,
    "Ġconjured": 25102,
    "Ġincapable": 7423,
    "Ġincreases": 3797,
    "deformity": 22150,
    "gerine": 22892,
    "Ġoh": 2176,
    "Ġhelp": 1640,
    "Ġcarpent": 4466,
    "Ġgrapnels": 25552,
    "Ġfeel": 1262,
    "ctive": 11625,
    "Ġxx": 5492,
    "Ġburial": 16523,
    "henry": 16628,
    "w": 91,
    "Ġcommence": 6169,
    "Ġthought": 1097,
    "Ġanx": 3181,
    "Ġbrawny": 13617,
    "flukes": 25206,
    "Ġintensified": 17020,
    "Ġwake": 4748,
    "Ġwallowed": 24047,
    "Ġremoving": 12121,
    "injured": 15136,
    "Ġsinking": 7307,
    "knot": 13748,
    "Ġdiffers": 23784,
    "peril": 18338,
    "artificial": 989,
    "Ġcount": 1815,
    "Ġthreatened": 8330,
    "Ġgrenadier": 21619,
    "ences": 1265,
    "Ġbrandy": 11050,
    "gies": 13729,
    "Ġlucerne": 23867,
    "Ġcuts": 14610,
    "Ġturtle": 4202,
    "Ġtrouble": 3691,
    "clump": 23158,
    "Ġpredef": 18516,
    "Ġobedience": 11414,
    "Ġnavy": 14919,
    "Ġduplicate": 17218,
    "Ġdrawers": 12110,
    "Ġinstability": 3815,
    "Ġbandages": 24427,
    "Ġarr": 1798,
    "mn": 3575,
    "Ġfearless": 9878,
    "Ġengaged": 3430,
    "appalling": 22852,
    "ledge": 1331,
    "Ġhorizon": 6635,
    "pondicherry": 26402,
    "invol": 12535,
    "augment": 18831,
    "Ġdoxology": 22248,
    "sper": 4436,
    "kward": 6958,
    "Ġfolios": 23023,
    "Ġbroom": 18908,
    "ispiece": 19728,
    "Ġeve": 13973,
    "Ġchamber": 6215,
    "Ġcivil": 4678,
    "earn": 10698,
    "Ġlot": 6680,
    "Ġembarrassed": 11385,
    "Ġindebted": 8711,
    "Ġpersuas": 23950,
    "Ġdeduction": 14904,
    "Ġlibrary": 6424,
    "Ġdireful": 11018,
    "acters": 9312,
    "stem": 570,
    "Ġsigmoid": 2462,
    "build": 12192,
    "moor": 22705,
    "Ġmouse": 4693,
    "ference": 1884,
    "Ġdishes": 16053,
    "Ġwhir": 6394,
    "89": 20761,
    "Ġhastily": 5763,
    "Ġheroic": 14911,
    "Ġhousekeeping": 18946,
    "Ġbedfellows": 23447,
    "jump": 10106,
    "ribute": 7225,
    "handed": 7483,
    "Ġpot": 2987,
    "cous": 8725,
    "Ġconveyed": 8335,
    "ignor": 8964,
    "Ġlieutenant": 15265,
    "Ġdorm": 4821,
    "Ġadditionally": 1176,
    "Ġretained": 7174,
    "Ġbegan": 2021,
    "Ġwoody": 23521,
    "Ġnon": 1626,
    "Ġhurrah": 9872,
    "Ġwithheld": 18117,
    "Ġlime": 13951,
    "Ġexpected": 3698,
    "Ġpresent": 1641,
    "Ġjudging": 16597,
    "Ġcholera": 22257,
    "telling": 14442,
    "Ġtobacc": 7853,
    "Ġacquired": 13049,
    "Ġmalady": 24392,
    "unwholesome": 26499,
    "Ġcrimson": 16439,
    "Ġlitter": 19832,
    "Ġaddition": 1148,
    "Ġsnatching": 10474,
    "bedstead": 23935,
    "Ġboston": 22642,
    "meat": 18679,
    "Ġintervening": 17270,
    "Ġtrembled": 8705,
    "trade": 19647,
    "Ġpresenting": 18989,
    "epilogue": 22107,
    "Ġpatched": 16356,
    "collar": 19330,
    "cerem": 15682,
    "makes": 10713,
    "69": 17477,
    "willing": 6594,
    "Ġfore": 2152,
    "Ġsaloon": 24068,
    "Ġsurrounded": 5880,
    "false": 15358,
    "forever": 22523,
    "Ġfl": 1280,
    "conviction": 19968,
    "Ġinf": 1756,
    "Ġcommander": 8628,
    "Ġconvulsively": 25716,
    "rence": 5555,
    "Ġarrows": 18342,
    "Ġchimer": 24603,
    "Ġsteadfastly": 10654,
    "Ġscud": 14193,
    "oct": 7555,
    "Ġdividing": 12116,
    "Ġpron": 6452,
    "indispensable": 14212,
    "plan": 15822,
    "Ġenormousness": 24515,
    "hearse": 17750,
    "Ġassertions": 19950,
    "oysius": 14369,
    "Ġstrokes": 16771,
    "Ġmice": 13862,
    "put": 414,
    "Ġvices": 14086,
    "Ġundeviating": 15221,
    "Ġstopped": 5958,
    "Ġtermination": 16463,
    "Ġwriters": 13546,
    "Ġnoted": 15834,
    "Ġhonorable": 16878,
    "anoke": 21364,
    "broke": 14782,
    "strongly": 24685,
    "Ġinclud": 1509,
    "shazz": 14245,
    "Ġdexterously": 25296,
    "Ġimpat": 4457,
    "happ": 3103,
    "ined": 1261,
    "scorched": 25698,
    "ment": 694,
    "mews": 22717,
    "Ġcooper": 16081,
    "darkness": 9515,
    "Ġopinion": 3142,
    "elling": 5831,
    "Ġincomplete": 17211,
    "murmured": 24455,
    "Ġplaid": 22603,
    "flies": 19427,
    "gorith": 555,
    "vedale": 22713,
    "Ġrefreshed": 15294,
    "Ġsaviour": 20715,
    "Ġripe": 13239,
    "Ġhelplessly": 20081,
    "Ġdrought": 19280,
    "Ġcane": 10928,
    "division": 20052,
    "Ġfaire": 13369,
    "Ġcherry": 16937,
    "Ġshovel": 23494,
    "Ġraised": 4660,
    "hear": 10149,
    "cturn": 17989,
    "nur": 11507,
    "isco": 12586,
    "Ġkicking": 16903,
    "Ġaskance": 23153,
    "oyed": 14368,
    "Ġsloping": 11943,
    "ifle": 10892,
    "Ġoverpower": 12846,
    "Ġsufferer": 16264,
    "Ġfoster": 18992,
    "verdict": 21733,
    "cut": 3123,
    "Ġranks": 21979,
    "Ġpane": 21462,
    "Ġpadded": 25039,
    "msgate": 18416,
    "Ġvilest": 20104,
    "fic": 20854,
    "hemat": 3128,
    "comfort": 5647,
    "Ġbegone": 11921,
    "spouter": 22735,
    "Ġindulged": 13421,
    "Ġpout": 17905,
    "Ġgovernor": 16492,
    "Ġack": 5622,
    "Ġbast": 21382,
    "Ġboundless": 10498,
    ")": 13,
    "Ġhawk": 15177,
    "Ġdatasets": 2389,
    "umblings": 23897,
    "idea": 9304,
    "Ġbloodthirsty": 26603,
    "Ġcomprise": 18584,
    "Ġthomas": 17950,
    "Ġrender": 8305,
    "taking": 5689,
    "ĠĠĠĠĠĠĠĠĠĠĠĠĠĠĠĠĠĠĠĠĠĠĠĠĠĠĠĠĠĠĠĠĠĠĠĠĠĠĠĠĠĠĠ": 12159,
    "Ġinitialization": 1255,
    "Ġetc": 7086,
    "Ġwidows": 24239,
    "Ġlust": 9200,
    "cery": 20810,
    "Ġsordid": 26424,
    "Ġnails": 12653,
    "Ġdespair": 4008,
    "ture": 7559,
    "Ġacquitted": 18900,
    "Ġwhatever": 3474,
    "Ġhaz": 12760,
    "found": 4212,
    "enges": 13059,
    "Ġengine": 1921,
    "better": 7121,
    "Ġsystematic": 5245,
    "Ġswift": 3669,
    "securing": 19816,
    "kn": 5791,
    "orative": 21401,
    "Ġcontingency": 26246,
    "Ġwhisper": 6207,
    "Ġunappe": 22020,
    "oring": 1862,
    "Ġlif": 10198,
    "glancing": 11215,
    "cooper": 19191,
    "brimmed": 14590,
    "Ġharness": 17930,
    "Ġclassical": 22638,
    "Ġquadrille": 13544,
    "Ġunconcern": 14120,
    "Ġarticle": 9505,
    "Ġapr": 12537,
    "Ġslope": 14463,
    "Ġirresolution": 24916,
    "weave": 22688,
    "Ô": 149,
    "exact": 7910,
    "letters": 13178,
    "ru": 481,
    "became": 10517,
    "Ġforemast": 12010,
    "member": 20977,
    "Ġgloom": 4200,
    "Ġsuppress": 13029,
    "car": 4210,
    "Ġcovered": 5171,
    "Ġdisconcerted": 18563,
    "confl": 22475,
    "Ġsignal": 5946,
    "Ġgarnery": 17390,
    "Ġkn": 4546,
    "Ġalthough": 4149,
    "Ġinherent": 4591,
    "ferred": 16394,
    "engthen": 14460,
    "Ġimperfect": 13344,
    "riers": 18185,
    "Ġvisiting": 10359,
    "Ġexisting": 12723,
    "Ġincreasingly": 9374,
    "Ġdeference": 10882,
    "Ġgrec": 18963,
    "Ġcurving": 16240,
    "Ġglowing": 12287,
    "consid": 4924,
    "ĠĠĠĠĠĠĠĠĠĠĠĠĠ": 22566,
    "sford": 5999,
    "Ġtro": 7356,
    "Ġfrantic": 7957,
    "rowing": 7931,
    "ites": 3899,
    "Ġther": 17780,
    "Ġremarkably": 7703,
    "Ġlamented": 24994,
    "edding": 4370,
    "Ġpast": 2097,
    "Ġplanet": 14754,
    "Ġmuff": 8114,
    "fatal": 17089,
    "Ġbark": 10800,
    "Ġecon": 9680,
    "Ġkeenest": 12166,
    "Ġstrangest": 14799,
    "Ġactions": 6280,
    "Ġreference": 2568,
    "Ġdisappeared": 5645,
    "Ġirish": 14536,
    "Ġmay": 924,
    "Ġheld": 3584,
    "ortal": 6267,
    "Ġla": 5914,
    "Ġ[": 6968,
    "ni": 1575,
    "Ġdesigns": 13021,
    "Ġofficially": 24839,
    "Ġbosom": 6939,
    "Ġinsupportable": 13935,
    "Ġwhispering": 14948,
    "Ġshops": 22005,
    "Ġdeuteronomy": 15764,
    "Ġeu": 6391,
    "Ġforest": 9874,
    "Ġmedical": 9473,
    "Ġz": 999,
    "Ġargu": 10935,
    "usiveness": 22297,
    "Ġcomb": 1038,
    "Ġstains": 21745,
    "Ġstudying": 9852,
    "Ġledgers": 23941,
    "wing": 2521,
    "Ġbirch": 26175,
    "request": 21244,
    "Ġpist": 12620,
    "mmar": 951,
    "Ġmichigan": 26428,
    "Ġdrunken": 12054,
    "Ġmanage": 7642,
    "Ġcrane": 23439,
    "Ġaugmented": 15109,
    "Ġnameless": 7700,
    "Ġticklish": 25037,
    "Ġconsummate": 25311,
    "insensibility": 23072,
    "Ġadvanced": 1522,
    "possible": 5743,
    "ignomin": 23270,
    "Ġdiscernment": 15072,
    "terns": 21826,
    "parad": 16408,
    "Ġequilibrium": 4139,
    "Ġxlvi": 25591,
    "Ġaunts": 21203,
    "Ġnick": 21526,
    "Ġresource": 10994,
    "Ġnay": 5711,
    "ignific": 11960,
    "Ġhistorically": 19381,
    "scotland": 20532,
    "Ġmanor": 14199,
    "pires": 13778,
    "Ġendeavors": 16548,
    "laws": 19810,
    "hess": 4746,
    "Ġsurv": 6082,
    "nose": 17612,
    "neither": 9760,
    "Ġsummoning": 23877,
    "iber": 6507,
    "Ġshame": 6411,
    "myster": 16267,
    "elfth": 22373,
    "remembered": 17354,
    "position": 15416,
    "Ġpill": 7846,
    "sea": 4762,
    "Ġadjusting": 3414,
    "Ġnoisier": 4624,
    "Ġlists": 11167,
    "possesses": 24617,
    "Ġpitchpoling": 14914,
    "semicirc": 26493,
    "piled": 21017,
    "anced": 1322,
    "arers": 12134,
    "Ġmurderous": 8316,
    "boast": 23255,
    "atha": 6574,
    "ish": 550,
    "Ġframework": 2033,
    "Ġbarbara": 24815,
    "rench": 3967,
    "anging": 3550,
    "pips": 21022,
    "whis": 7898,
    "Ġdiscourse": 9801,
    "Ġhorrify": 23822,
    "charge": 9451,
    "Ġglances": 10375,
    "luckily": 19755,
    "Ġstre": 2107,
    "ay": 355,
    "horrors": 20545,
    "Ġcalculate": 13268,
    "Ġdictate": 20154,
    "chorus": 19814,
    "Ġneeds": 6607,
    "Ġbunch": 11327,
    "elius": 13292,
    "othe": 2615,
    "boom": 18999,
    "Ġinfat": 14502,
    "rrh": 26145,
    "Ġunembarrassed": 22073,
    "Ġconvul": 13207,
    "Ġunfulfilled": 26511,
    "Ġciv": 3308,
    "rob": 5534,
    "aching": 5832,
    "Ġlic": 8437,
    "Ġleadenhall": 16631,
    "Ġchron": 19441,
    "Ġkrus": 18350,
    "ulous": 4451,
    "imming": 9690,
    "gun": 10099,
    "Ġvillas": 24059,
    "inisc": 15491,
    "Ġbelshazzar": 16228,
    "Ġspurned": 12802,
    "Ġmarvellous": 7539,
    "ic": 304,
    "arpening": 21446,
    "Ġoil": 3374,
    "Ġbuoyant": 13535,
    "Ġinfamy": 14504,
    "ithmetic": 18064,
    "Ġfragmentary": 25859,
    "Ġriveted": 13622,
    "ls": 1289,
    "scy": 21058,
    "Ġlogical": 14489,
    "----": 4057,
    "Ġxlix": 25861,
    "Ġlike": 671,
    "Ġchristians": 13313,
    "cient": 4569,
    "Ġoperations": 2300,
    "Ġexhaled": 19685,
    "Ġlurch": 21558,
    "Ġrav": 14309,
    "Ġarc": 14163,
    "Ġbroker": 23105,
    "Ġtwist": 11855,
    "Ġestate": 6318,
    "Ġouter": 6859,
    "floated": 24644,
    "ze": 1297,
    "Ġhall": 4183,
    "encies": 4080,
    "Ġig": 3501,
    "Ġ1": 1014,
    "zening": 21151,
    "Ġhero": 5715,
    "Ġimputation": 22176,
    "Ġemperor": 15162,
    "lipped": 16220,
    "Ġarrow": 10932,
    "Ġspasmodically": 17317,
    "Ġwow": 15532,
    "Ġbehold": 5049,
    "Ġmount": 7362,
    "Ġhospitable": 17061,
    "ples": 6845,
    "Ġtemperature": 1005,
    "Ġshake": 6035,
    "box": 5749,
    "L": 48,
    "Ġresponsible": 9890,
    "Ġwoeful": 19622,
    "Ġmale": 9651,
    "communication": 25881,
    "Ġdecidedly": 9512,
    "illa": 12798,
    "Ġradney": 6776,
    "trees": 10733,
    "Ġcannibal": 7774,
    "Ġpersist": 16286,
    "Ġpatch": 4180,
    "Ġintuitions": 17344,
    "Ġle": 333,
    "inions": 8403,
    "Ġsaints": 20677,
    "Ġext": 883,
    "Ġsulkily": 25882,
    "Ġeluded": 12927,
    "stocks": 23824,
    "Ġbier": 22764,
    "orable": 8120,
    "venant": 22628,
    "Ġpregnant": 26537,
    "Ġbolivia": 24668,
    "troubled": 17113,
    "Ġoccasioned": 13232,
    "Ġsmut": 22560,
    "conditional": 9081,
    "Ġoriginated": 24125,
    "orn": 2247,
    "Ġdiffusion": 23785,
    "endured": 22229,
    "Ġsupervised": 3281,
    "Ġbeneficial": 23934,
    "Ġraft": 16121,
    "Ġattended": 5391,
    "there": 1424,
    "scene": 14423,
    "ĠĠĠĠĠĠĠĠĠĠĠĠĠĠĠĠĠĠĠĠĠĠĠĠĠĠĠĠĠĠĠĠĠĠĠĠĠĠĠĠ": 4517,
    "Ġwet": 6519,
    "strate": 12678,
    "Ġpagan": 7119,
    "Ġleviathan": 3289,
    "Ġcollect": 7237,
    "ower": 1031,
    "rane": 17655,
    "opement": 10314,
    "sign": 8388,
    "combination": 25487,
    "wid": 10137,
    "Ġsubordinate": 18721,
    "Ġmur": 2489,
    "Ġexponentially": 1443,
    "Ġmisunderstand": 18705,
    "Ġwish": 2096,
    "Ġlooking": 2474,
    "Ġfight": 5366,
    "Ġcetace": 14991,
    "unless": 9238,
    "Ġsounded": 8595,
    "hailed": 17567,
    "prof": 7471,
    "beaten": 20318,
    "Ġtidings": 11398,
    "[": 63,
    "Ġconsternation": 9862,
    "leaning": 10792,
    "odiac": 14032,
    "Ġsummits": 14685,
    "Ġdup": 21430,
    "enjoyments": 25434,
    "according": 12032,
    "Ġtrapped": 23079,
    "Ġwrapping": 19778,
    "Ġmaggie": 26293,
    "Ġfirst": 936,
    "Ġstabbing": 20306,
    "regulated": 23469,
    "Ġfolds": 12211,
    "ince": 4340,
    "Ġaveraging": 2419,
    "anyth": 5438,
    "tar": 8098,
    "Ġconfounded": 16388,
    "andy": 8158,
    "cig": 17506,
    "Ġvehem": 22894,
    "Ġidentify": 12018,
    "Ġseeth": 21957,
    "wind": 4252,
    "ogy": 22710,
    "Ġsprang": 5064,
    "ark": 847,
    "telesc": 22821,
    "Ġgrimes": 11036,
    "Ġdistinctions": 18533,
    "Ġbristling": 20530,
    "Ġsaved": 6692,
    "Ġdeadly": 5405,
    "Ġcontrast": 2120,
    "Ġshade": 6552,
    "Ġmodeling": 2094,
    "gle": 20871,
    "io": 3804,
    "Ġdodging": 19889,
    "Ġparson": 6689,
    "Ġsuck": 15863,
    "Ġaffecting": 2325,
    "Ġawait": 17074,
    "iss": 2177,
    "Ġcardboard": 19982,
    "rossed": 11013,
    "happiness": 6470,
    "Ġovercame": 9746,
    "Ġreadiness": 13055,
    "shapes": 22468,
    "Ġascertain": 9709,
    "Ġirreproachable": 24918,
    "stays": 15692,
    "Ġfootfalls": 25867,
    "Ġwheel": 9721,
    "moil": 22706,
    "shoe": 14970,
    "Ġbleeding": 14883,
    "Ġincessant": 15101,
    "salis": 25150,
    "Ġavail": 11227,
    "Ġsoftmax": 1686,
    "uming": 8494,
    "pray": 5429,
    "Ġuncl": 22018,
    "homely": 25618,
    "Ġsuper": 2154,
    "ethics": 8881,
    "į": 240,
    "Ġass": 1501,
    "ink": 755,
    "amp": 2606,
    "Ġmight": 963,
    "Ġsauntering": 18328,
    "forgotten": 12419,
    "Ġtwelve": 4962,
    "po": 1142,
    "prepared": 13594,
    "reas": 990,
    "Ġfine": 1317,
    "Ġcharacteristic": 12052,
    "Ġcanaller": 25468,
    "Ġsuspend": 14611,
    "Ġlanes": 19768,
    "urre": 10857,
    "Ġsecretly": 13276,
    ")(": 2978,
    "Ġrolled": 4431,
    "Ġcontour": 18475,
    "mured": 6960,
    "Ġseek": 4509,
    "Ġbanker": 8670,
    "Ġlearned": 2023,
    "Ġmerit": 9430,
    "Ġriding": 14098,
    "Ġdistinctly": 7311,
    "Ġschool": 5512,
    "conjecture": 15126,
    "gloves": 25146,
    "leag": 21369,
    "Ġutility": 23516,
    "Ġfortnight": 6202,
    "feet": 6570,
    "ifling": 15787,
    "Ġhappiest": 11886,
    "Ġintrepidity": 25551,
    "Ġintrepid": 11709,
    "aces": 2068,
    "nowadays": 22341,
    "exception": 9979,
    "mushroom": 26397,
    "Ġcountryside": 23598,
    "Ġdraughts": 20224,
    "Ġexceptionable": 25504,
    "Ġdying": 2137,
    "Ġhel": 3787,
    "his": 1411,
    "Ġstyle": 6946,
    "Ġtil": 12529,
    "Ġhearty": 9851,
    "mere": 11859,
    "Ġdemean": 12728,
    "prepar": 22457,
    "_.âĢĻâĢĿ": 17482,
    "Ġascending": 14857,
    "Ġboast": 7036,
    "these": 3241,
    "actor": 11841,
    "inary": 3273,
    "Ġcarriages": 11099,
    "capable": 13705,
    "suspended": 15181,
    "Ġmachinations": 25768,
    "vessel": 11378,
    "rees": 5436,
    "'re": 12432,
    "ont": 2622,
    "Ġterr": 3272,
    "Ġdrily": 23543,
    "isson": 23463,
    "Ġnames": 4533,
    "Ġparents": 6754,
    "ediction": 17947,
    "solitary": 14507,
    "Ġide": 2124,
    "ivity": 1694,
    "Ġthirdly": 24146,
    "Ġlasting": 18796,
    "henomenon": 13618,
    "cab": 7333,
    "Ġperform": 1037,
    "Ġexile": 12722,
    "pudding": 17649,
    "Ġpatted": 16355,
    "Ġcrony": 23440,
    "danish": 20835,
    "Ġdescrib": 2718,
    "Ġnecessary": 4474,
    "rr": 17652,
    "Ġdemand": 4946,
    "Ġinequal": 21500,
    "asional": 17962,
    "Ġread": 1446,
    "Ġflame": 7448,
    "Ġtrucks": 19515,
    "Ġjup": 15956,
    "Ġexh": 5232,
    "Ġinqu": 2962,
    "Ġfurious": 10357,
    "Ġpoultry": 17444,
    "eer": 15351,
    "Ġox": 7154,
    "Ġcruel": 5121,
    "Ġstrangely": 5677,
    "Ġgenius": 8046,
    "Ġsepulchral": 25893,
    "Ġoperation": 12003,
    "Ġreal": 1634,
    "comp": 3818,
    "Ġsaint": 15510,
    "Ġrespectfully": 18995,
    "Ġaffected": 5577,
    "Ġorganize": 8994,
    "Ġchord": 22249,
    "Ġmidst": 7986,
    "Ġjoke": 8872,
    "iards": 17576,
    "Ġplatform": 17134,
    "Ġreserve": 9974,
    "condescended": 26250,
    "Ġcrab": 13148,
    "Ġtendinous": 16933,
    "Ġinquirer": 24964,
    "fly": 13717,
    "taining": 7206,
    "Ġnoah": 10943,
    "Ġexamination": 8005,
    "Ġcritic": 19123,
    "Ġthinks": 6171,
    "Ġso": 434,
    "uncontrollable": 20599,
    "Ġate": 8844,
    "aste": 4601,
    "meadow": 18680,
    "Ġcapst": 8600,
    "confused": 19642,
    "shock": 19857,
    "breeze": 20565,
    "prob": 7071,
    "Ġtrousers": 12418,
    "fortunes": 6334,
    "Ġimped": 18443,
    "hro": 20893,
    "Ġintermix": 25827,
    "Ġforget": 2634,
    "gest": 5426,
    "Ġextravagant": 17281,
    "Ġdown": 831,
    "Ġsympath": 4861,
    "Ġcards": 7582,
    "Ġpreferment": 19855,
    "Ġabroad": 8869,
    "vere": 4883,
    "Ġuntimely": 16469,
    "shining": 18496,
    "Ġmournfully": 20120,
    "crier": 20822,
    "Ġheads": 3741,
    "isted": 3298,
    "Ġcore": 13881,
    "pres": 16028,
    "Ġpetty": 19598,
    "Ġemblaz": 16233,
    "Ġcomprehension": 15090,
    "secured": 16940,
    "Ġmostly": 7665,
    "Ġjib": 14196,
    "started": 10846,
    "Ġembarrassment": 10629,
    "Ġiterate": 13205,
    "Ġintegrated": 13534,
    "Ġrichest": 26213,
    "bright": 8992,
    "Ġcommanders": 23871,
    "Ġthread": 14541,
    "Ġlucky": 7759,
    "lifted": 15390,
    "plague": 21963,
    "Ġfocused": 16344,
    "Ġclouds": 5775,
    "itten": 3441,
    "Ġancest": 12619,
    "iag": 20918,
    "frequently": 9982,
    "Ġmassive": 9935,
    "Ġharmony": 16816,
    "ource": 5244,
    "entieth": 17981,
    "Ġhertfordshire": 5377,
    "Ġimbecile": 17395,
    "Ġpract": 1818,
    "Ġtarts": 10755,
    "cooks": 25070,
    "Ġpower": 1241,
    "Ġfilters": 3928,
    "Ġleast": 2063,
    "Ġdon": 1615,
    "Ġpausing": 8656,
    "Ġdella": 21442,
    "Ġunst": 18239,
    "univers": 15776,
    "Ġunceasing": 20361,
    "Ġsecured": 6747,
    "ees": 13714,
    "isher": 2876,
    "Ġrising": 4356,
    "Ġgrateful": 7662,
    "ulty": 22571,
    "Ġpassages": 12975,
    "Ġmonosy": 18853,
    "Ġxl": 11994,
    "blow": 9107,
    "irect": 5553,
    "Ġopenly": 8576,
    "Ġboil": 16108,
    "Ġleader": 14705,
    "Ġintact": 21993,
    "ood": 962,
    "Ġsymmetry": 20369,
    "Ġorbs": 22096,
    "Ġsweet": 3466,
    "Ġarticulated": 24433,
    "Ġsqualidness": 25844,
    "susceptible": 24662,
    "Ġolder": 9330,
    "ego": 4035,
    "purse": 20028,
    "atum": 21262,
    "Ġ119": 24441,
    "Ġimpulse": 10027,
    "Ġcalmly": 7734,
    "Ġlomb": 21562,
    "thee": 9693,
    "gover": 10704,
    "Ġtore": 6532,
    "Ġimprudently": 22390,
    "Ġtilted": 20416,
    "Ġhorsey": 24252,
    "Ġarguments": 8037,
    "Ġpitch": 5767,
    "Ġperth": 7024,
    "Ġrobust": 1306,
    "clothed": 19741,
    "Ġtoes": 10831,
    "Ġdistension": 22508,
    "Ġrival": 10488,
    "Ġmainland": 22653,
    "Ġoakshott": 12234,
    "uble": 21105,
    "Ġpretended": 19316,
    "Ġvexation": 10589,
    "Ġseverely": 14936,
    "Ġgeomet": 3192,
    "warrior": 24797,
    "assuming": 22314,
    "estations": 22232,
    "ation": 320,
    "iteous": 14263,
    "ishment": 3505,
    "Ġsires": 21229,
    "Ġseeming": 8543,
    "Ġboy": 3019,
    "dances": 17523,
    "Ġengagements": 9981,
    "fth": 20858,
    "unwho": 21881,
    "Ġsl": 1495,
    "Ġpall": 7584,
    "impatient": 13644,
    "pots": 11515,
    "Ġinsensibly": 20079,
    "Ġwing": 6668,
    "Ġbraw": 23838,
    "Ġobstacles": 19838,
    "Ġcoinc": 11002,
    "actually": 14300,
    "fall": 5135,
    "Ġcreep": 22722,
    "Ġheadlong": 11894,
    "Ġoffered": 5817,
    "Ġresolve": 13174,
    "Ġopine": 19230,
    "great": 3516,
    "Ġsharing": 3477,
    "sized": 15431,
    "Ġmemorand": 23461,
    "Ġender": 11694,
    "Ö": 151,
    "Ġbeginning": 4241,
    "Ġlikeness": 11180,
    "ouement": 21485,
    "Ġsincerely": 7963,
    "Ġlaug": 3628,
    "gale": 13727,
    "Ġtrough": 15967,
    "Ġdeficiencies": 26572,
    "Ġlinear": 3433,
    "Ġpitiable": 9917,
    "âĢľâĢĺ": 1483,
    "+": 15,
    "Ġsmoking": 6430,
    "Ġideal": 13125,
    "enterprise": 24995,
    "Ġquickly": 4239,
    "Ġovers": 14204,
    "lounged": 26134,
    "Ġinsulted": 14995,
    "Ġsiam": 13841,
    "ken": 2798,
    "Ġtwig": 11854,
    "medium": 23640,
    "Ġburnwell": 13272,
    "Ġchains": 8251,
    "posture": 16929,
    "itics": 13875,
    "Ġcongregational": 25105,
    "Ġdistressing": 12223,
    "Ġcottage": 4733,
    "Ġwanted": 4967,
    "Ġheathen": 10568,
    "cruise": 24842,
    "Ġmeas": 1102,
    "says": 13304,
    "igen": 4830,
    "Ġspouting": 9442,
    "sitting": 8387,
    "Ġinclemency": 22559,
    "Ġfrom": 433,
    "trouble": 8295,
    "Ġincommunicable": 26613,
    "rush": 7012,
    "Ġeuroclydon": 15300,
    "Ġbitterness": 8024,
    "summit": 23419,
    "https": 11687,
    "eous": 13715,
    "Ġadventurous": 16735,
    "tout": 21068,
    "Ġwickedness": 9529,
    "Ġimproving": 1209,
    "ustomed": 6100,
    "Ġfaculties": 14961,
    "Ġfreighted": 16326,
    "ouncement": 11749,
    "enstein": 5800,
    "Ġprayers": 12128,
    "Ġexamining": 8006,
    "blue": 13697,
    "chess": 16576,
    "Ġshow": 3403,
    "hum": 3779,
    "Ġpreceding": 7529,
    "n": 82,
    "Ġscho": 4437,
    "Ġcobweb": 22589,
    "Ġunchanging": 22047,
    "Ġaltered": 7393,
    "one": 616,
    "aps": 1229,
    "phantoms": 24680,
    "left": 6976,
    "Ġsatur": 1933,
    "Ġpaling": 21461,
    "Ġaustralia": 15236,
    "Ġadro": 15871,
    "ext": 925,
    "capitals": 25083,
    "Ġpassionate": 11274,
    "Ġsurprised": 3832,
    "Ġdames": 23476,
    "Ġqualifications": 24676,
    "Ġtrod": 15029,
    "helm": 12176,
    "Ġacqu": 1417,
    "Ġtwit": 12934,
    "Ġfrancisco": 26065,
    "Ġobed": 8538,
    "iers": 5992,
    "Ġtiny": 11554,
    "itatingly": 25278,
    "arat": 9183,
    "cries": 17513,
    "Ġflo": 2590,
    "Ġforb": 11666,
    "Ġannum": 24206,
    "Ġpiratical": 24798,
    "Ġdiscipline": 26563,
    "Ġcivilly": 19606,
    "Ġmonster": 3795,
    "Ġpiling": 17910,
    "Ġpardon": 5727,
    "Ġtossings": 25357,
    "Ġparcel": 15203,
    "Ġrequirements": 9791,
    "Ġresolutely": 14612,
    "uous": 4143,
    "biscuit": 17503,
    "esley": 17922,
    "surprised": 9534,
    "Ġade": 22104,
    "Ġcruelty": 9972,
    "wam": 10138,
    "Ġtortured": 14927,
    "Ġneighbour": 3810,
    "inders": 15985,
    "sing": 5138,
    "Ġdiscreet": 16484,
    "Ġpads": 21473,
    "Ġancles": 21449,
    "Ġview": 2760,
    "Ġportcull": 23866,
    "Ġtherefore": 2241,
    "Ġabilities": 8870,
    "Ġexquis": 9702,
    "Ġmonsieur": 12424,
    "Ġreco": 9794,
    "bree": 15318,
    "insist": 23067,
    "syntax": 5868,
    "Ġphenomena": 21483,
    "Ġenergies": 25460,
    "lessly": 4556,
    "apparently": 15208,
    "Ġmermaids": 26171,
    "ney": 2494,
    "Ġtin": 15466,
    "Ġpretty": 3862,
    "Ġraptures": 13500,
    "Ġintercourse": 10999,
    "Ġcrammed": 16473,
    "spanish": 14337,
    "Ġsolving": 2483,
    "Ġrelationship": 2317,
    "belais": 24043,
    "»": 124,
    "Ġcontinue": 5398,
    "reed": 6374,
    "eches": 8078,
    "phology": 3006,
    "boilers": 26298,
    "Ġlucy": 17972,
    "Ġseamen": 5063,
    "uation": 17696,
    "Ġtrop": 7566,
    "Ġfurrow": 22818,
    "Ġmutilated": 23962,
    "pitching": 24080,
    "Ġart": 748,
    "Ġdemocracy": 25459,
    "tot": 10730,
    "conjecturing": 20137,
    "ially": 9250,
    "Ġimmemorial": 10513,
    "Ġuntoward": 19167,
    "kov": 17588,
    "pulous": 15419,
    "Ġentrances": 25836,
    "Ġreefed": 20305,
    "Ġken": 22195,
    "Ġexagger": 12724,
    "blo": 6355,
    "Ġbrow": 3987,
    "Ġattack": 5478,
    "Ġchas": 18380,
    "Ġseemed": 1279,
    "Ġpolite": 9886,
    "Ġindustry": 18839,
    "Ġtour": 9150,
    "sixty": 24853,
    "Ġeasterly": 25963,
    "roused": 16655,
    "plied": 10258,
    "nephew": 26399,
    "Ġpun": 4587,
    "short": 6568,
    "Ġforbidding": 17080,
    "inno": 10758,
    "Ġconsumm": 15158,
    "Ġthan": 735,
    "unwilling": 14064,
    "Ġdimension": 3240,
    "Ġprophes": 16352,
    "model": 4366,
    "Ġabomin": 8189,
    "Ġspreading": 13382,
    "oboam": 9361,
    "painful": 13505,
    "ocity": 8278,
    "nest": 10116,
    "Ġlined": 15654,
    "recover": 24623,
    "expanded": 23664,
    "blu": 12444,
    "pher": 11513,
    "Ġskil": 14355,
    "overcome": 19056,
    "axen": 22525,
    "zers": 21149,
    "nical": 20993,
    "Ġessentially": 24925,
    "Ġfem": 6136,
    "night": 2169,
    "Ġexpensive": 12922,
    "Ġsacr": 7194,
    "queen": 12732,
    "Ġtempestuous": 20074,
    "kovoko": 20672,
    "erringly": 16215,
    "Ġcrop": 10165,
    "Ġcrying": 10788,
    "Ġbeau": 9227,
    "brit": 19200,
    "obscure": 23101,
    "Ġwronged": 24250,
    "Ġclum": 8876,
    "Ġconcealed": 7496,
    "resc": 21241,
    "emed": 3381,
    "flood": 19809,
    "Ġallev": 18103,
    "Ġvoracity": 25987,
    "Ġball": 3623,
    "30": 20756,
    "Ġformerly": 7494,
    "Ġrecently": 11865,
    "programming": 10066,
    "itute": 9654,
    "reputable": 15520,
    "ingale": 21302,
    "pale": 13775,
    "Ġconveys": 16857,
    "@": 36,
    "dam": 7798,
    "Ġfibres": 12956,
    "Ġhug": 6980,
    "richard": 17289,
    "Ġgoug": 17993,
    "Ġbu": 3683,
    "Ġdoesn": 7438,
    "Ġlazily": 11381,
    "Ġfriesland": 26444,
    "Ġanytime": 12890,
    "Ġalike": 8147,
    "Ġbeautifully": 13271,
    "Ġwidth": 16774,
    "inav": 15486,
    "Ġincorrupt": 19237,
    "inal": 15483,
    "Ġcoincidences": 26365,
    "scores": 22997,
    "add": 5229,
    "Ġbranch": 8332,
    "Ġconsuming": 22792,
    "conversation": 7124,
    "Ġpercept": 14227,
    "inging": 5908,
    "delay": 16697,
    "nourished": 26400,
    "const": 5940,
    "nt": 922,
    "enter": 7858,
    "diss": 17525,
    "Ġdoings": 18377,
    "Ġtrance": 12844,
    "superstitiousness": 25509,
    "Ġlifting": 10199,
    "Ġbutler": 18271,
    "Ġvia": 2382,
    "recklessly": 25270,
    "pardonable": 17220,
    "Ġspermacetti": 19055,
    "Ġante": 17898,
    "Ġlethargy": 26485,
    "Ġtransl": 2826,
    ".}": 20747,
    "fortunate": 4791,
    "Ġcries": 7155,
    "cing": 1013,
    "bots": 10085,
    "ery": 1269,
    "Ġquadr": 8200,
    "Ġaromatic": 25926,
    "izure": 21845,
    "Ġimmut": 13302,
    "Ġambition": 11433,
    "Ġadmin": 23556,
    "Ġvariants": 1791,
    "Ġinterchange": 16075,
    "Ġflickering": 23019,
    "Ġforeign": 9875,
    "Ġcause": 2411,
    "Ġapprove": 12878,
    "pth": 2381,
    "Ġturk": 6605,
    "Ġsee": 805,
    "himself": 3971,
    "Ġrambling": 18647,
    "Ġparameter": 874,
    "curiosity": 8627,
    "ailed": 3247,
    "Ġjar": 15954,
    "Ġescaping": 13138,
    "Ġprolong": 6832,
    "aders": 21762,
    "tornadoes": 26154,
    "Ġtrinity": 22349,
    "Ġmoulded": 16977,
    "evidently": 20348,
    "Ġstamped": 13530,
    "Ġbeech": 18085,
    "cles": 8729,
    "Ġexcuse": 5863,
    "ad": 337,
    "Ġclustered": 25234,
    "Ġlichen": 20095,
    "ray": 2437,
    "Ġinsinuating": 19273,
    "Ġrooted": 13173,
    "Ġaffection": 2639,
    "Ġc": 277,
    "Ġsc": 530,
    "Ġomens": 21331,
    "Ġequally": 5258,
    "whom": 8185,
    "Ġsit": 4214,
    "Ġfloor": 4380,
    "poverty": 22913,
    "ĵ": 246,
    "mantel": 26396,
    "adam": 15734,
    "Ġraise": 6168,
    "Ġequivalent": 4801,
    "Ġeverything": 3154,
    "Ġchaps": 14182,
    "entials": 22667,
    "Ġneural": 618,
    "leo": 21367,
    "class": 4096,
    "Ġlaugh": 4113,
    "mit": 4933,
    "Ġstruct": 2781,
    "Ġbuild": 6475,
    "Ġcontrari": 23352,
    "Ġhoarse": 14528,
    "plans": 21962,
    "Ġdesirous": 8945,
    "swing": 15432,
    "ushed": 2968,
    "Ġwoe": 4792,
    "perpet": 14161,
    "Ġvap": 6837,
    "ole": 9616,
    "bit": 3933,
    "oda": 15753,
    "Ġproportions": 16470,
    "enched": 10157,
    "extinguished": 16154,
    "fill": 15354,
    "Ġlucases": 9013,
    "Ġwouldst": 18502,
    "Ġexpress": 2195,
    "alescing": 23869,
    "Ġcounterbalance": 24721,
    "Ġbump": 9662,
    "Ġapparel": 20439,
    "Ġtooks": 23330,
    "Ġinstant": 2704,
    "Ġadorn": 12795,
    "Ġcrash": 12006,
    "Ġjealousy": 13580,
    "Ġfinger": 5274,
    "ogra": 4573,
    "uncle": 8159,
    "Ġflorida": 20661,
    "interred": 23739,
    "much": 3707,
    "Ġmournful": 12340,
    "Ġshook": 4469,
    "Ġaffinity": 18789,
    "Ġnegative": 1463,
    "Ġworthless": 19568,
    "desponding": 26343,
    "Ġadmission": 23558,
    "strangers": 20339,
    "heum": 17749,
    "ping": 9618,
    "Ġpeevish": 26559,
    "Ġro": 594,
    "Ġmaintain": 854,
    "Ġride": 12763,
    "val": 1167,
    "Ġbroken": 3448,
    "Ġceases": 19315,
    "sc": 1260,
    "Ġexplaining": 15964,
    "Ġcontract": 18476,
    "Ġdelight": 2549,
    "noticed": 14346,
    "Ġmercifully": 20181,
    "Ġfellow": 2774,
    "house": 4077,
    "Ġin": 291,
    "Ġwitt": 17785,
    "Ġpickle": 16724,
    "Ġcake": 12575,
    "Ä": 133,
    "maid": 8556,
    "iriously": 18174,
    "eties": 10839,
    "unexpected": 15782,
    "Ġrestlessness": 23295,
    "Ġcaptioning": 23025,
    "Ġparamore": 22126,
    "handkerchief": 14620,
    "Ġvul": 10250,
    "mystical": 25318,
    "recursion": 13333,
    "Ġclamped": 18433,
    "Ġmoderate": 10939,
    "Ġhardened": 14453,
    "pleas": 3853,
    "Ġflies": 13030,
    "Ġlevelled": 11285,
    "ignant": 11130,
    "extensive": 18710,
    "Ġparaph": 22124,
    "Ġmiles": 3806,
    "bbles": 13695,
    "Ġfooting": 14485,
    "Ġpitching": 16613,
    "alth": 3255,
    "Ġporch": 19683,
    "my": 1316,
    "Ġtying": 15476,
    "nue": 15400,
    "worn": 13809,
    "Ġtransp": 4769,
    "largely": 19577,
    "iloqu": 11651,
    "Ġscare": 18397,
    "opp": 6963,
    "Ġconnecting": 18631,
    "Ġuniformity": 23486,
    "hated": 17563,
    "close": 9989,
    "Ġnoise": 1070,
    "Ġscar": 3211,
    "rasing": 21048,
    "Ġ18": 3408,
    "Ġcompat": 2936,
    "6": 26,
    "satisfy": 16894,
    "Ġderivative": 2996,
    "Ġspies": 22133,
    "ohog": 9849,
    "resp": 13842,
    "hew": 5286,
    "rant": 11518,
    "ö": 183,
    "Ġgratefully": 20448,
    "etimes": 1988,
    "pour": 17632,
    "Ġalas": 5923,
    "Ġmargaret": 10379,
    "Ġvindict": 13609,
    "impenet": 18056,
    "Ġbreast": 8971,
    "Ġsad": 3869,
    "Ġhay": 11607,
    "Ġneighbouring": 12123,
    "Ġlow": 1646,
    "breakfast": 8691,
    "Ġescaped": 6460,
    "Ġassociate": 13454,
    "Ġeyford": 10644,
    "explained": 23146,
    "tempered": 13450,
    "akeman": 6269,
    "Ġhabitual": 24789,
    "Ġbranches": 6777,
    "bted": 7794,
    "Ġforth": 3462,
    "Ġgarn": 13966,
    "Ġevian": 24294,
    "Ġactual": 3738,
    "Ġsex": 8846,
    "formality": 22220,
    "Ġweather": 3995,
    "countenances": 24154,
    "flu": 9120,
    "less": 928,
    "Ġprom": 1525,
    "Ġthunders": 15642,
    "walls": 25346,
    "Ġegyptians": 25290,
    "Ġmiracle": 15097,
    "Ġroyalty": 19739,
    "Ġdocuments": 10026,
    "Ġinde": 7371,
    "Ġsupremacy": 20263,
    "pressed": 6589,
    "Ġsymmet": 11751,
    "Ġcomposition": 1685,
    "Ġimprove": 1830,
    "header": 11937,
    "Ġconfident": 11140,
    "Ġabundantly": 17159,
    "Ġsensations": 5260,
    "Ġspurred": 22143,
    "Ġvaliantly": 22793,
    "ige": 12685,
    "Ġawkward": 7075,
    "Ġgratify": 19506,
    "Ġident": 2244,
    "clearer": 24074,
    "Ġgradually": 3402,
    "Ġjonah": 3480,
    "nelson": 25621,
    "Ġred": 3002,
    "accomplishment": 20226,
    "Ġmedit": 8025,
    "Ġsoles": 22089,
    "Ġmelancholy": 5606,
    "dition": 15342,
    "Ġwalk": 1826,
    "Ġvest": 8163,
    "Ġsurpassed": 25268,
    "uteness": 17988,
    "brace": 16944,
    "Ġwrong": 4723,
    "Ġbodies": 8032,
    "Ġsteady": 4847,
    "Ġindoors": 18838,
    "gainst": 25144,
    "Ġmotion": 4566,
    "Ġshave": 22000,
    "intense": 22939,
    "Ġimposing": 11785,
    "Ġclub": 8877,
    "Ġwhitney": 11374,
    "Ġinquest": 16549,
    "Ġexplicit": 3587,
    "pier": 17637,
    "Ġrings": 11704,
    "listener": 24931,
    "Ġgeneva": 5450,
    "Ġsadder": 24057,
    "Ġsquall": 7045,
    "Ġcontroverted": 23254,
    "Ġindifferent": 6176,
    "Ġfelicity": 7260,
    "beam": 16043,
    "Ġhid": 1321,
    "ront": 15421,
    "tarpaulins": 26407,
    "reement": 15514,
    "Ġencode": 4365,
    "Ġpigeon": 9519,
    "Ġmachines": 1777,
    "Ġperilous": 7769,
    "Ġendwise": 23138,
    "reduc": 5459,
    "Ġblushed": 13007,
    "front": 12175,
    "Ġsoftly": 7948,
    "Ġlog": 1674,
    "Ġgills": 17995,
    "speps": 14339,
    "works": 6590,
    "Ġsleepless": 14584,
    "Ġsubterraneous": 20268,
    "Ġproduces": 2092,
    "Ġballasted": 23983,
    "Ġaust": 4871,
    "Ġmutable": 23958,
    "Ġcanallers": 13631,
    "kee": 18274,
    "Ġmeridian": 25713,
    "athered": 6973,
    "send": 15426,
    "sen": 21052,
    "Ġreef": 10850,
    "âĢĿ]": 21819,
    "moving": 11017,
    "feel": 3814,
    "Ġstren": 15724,
    "Ġexcellence": 11452,
    "Ġdungeon": 16998,
    "Ġtener": 21166,
    "Ġtypically": 1532,
    "cstasy": 11446,
    "game": 11492,
    "Ġtreating": 4283,
    "lorn": 12492,
    "whether": 5320,
    "Ġencoun": 4512,
    "Ġpalms": 8647,
    "Ġunguarded": 15854,
    "oarsman": 25262,
    "Ġdreams": 7497,
    "extinguish": 22770,
    "Ġsolicit": 22891,
    "Ġ*": 1273,
    "Ġhyena": 24519,
    "Ġstowed": 21740,
    "attendants": 25496,
    "ians": 2360,
    "Ġpit": 3421,
    "Ġyawning": 12304,
    "characteristic": 24686,
    "Ġsleet": 8978,
    "Ġbaronial": 23796,
    "Ġaccompanying": 11305,
    "igned": 5656,
    "Ġmeans": 699,
    "yesterday": 10356,
    "hav": 20899,
    "Ġwhirlwinds": 20468,
    "design": 19343,
    "Ġviolence": 5964,
    "Ġrevisit": 21673,
    "Ġmax": 2006,
    "ampl": 21846,
    "ortment": 22261,
    "Ġranges": 2881,
    "Ġmodified": 14169,
    "asp": 3339,
    "iving": 1724,
    "Ġplague": 11828,
    "raised": 15683,
    "Ġadoption": 24951,
    "Ġcornelius": 13577,
    "Ġdies": 11595,
    "collins": 6916,
    "odd": 21813,
    "Ġacc": 572,
    "Ġnois": 4267,
    "fairly": 17222,
    "Ġsuccess": 3610,
    "Ġtalked": 4422,
    "Ġdot": 4820,
    "Ġdy": 2567,
    "Ġchann": 15939,
    "lege": 17843,
    "Ġchild": 2263,
    "aciousness": 18607,
    "Ġcould": 703,
    "shuff": 18495,
    "Ġminute": 4278,
    "countryman": 24640,
    "Ġvehemence": 26568,
    "hatchet": 24819,
    "Ġpressure": 13426,
    "Ġinfirmity": 26299,
    "speaks": 19722,
    "uring": 820,
    "else": 6535,
    "Ġmantel": 11440,
    "Ġvac": 5024,
    "Ġbeheading": 21758,
    "dw": 3332,
    "Ġsmooth": 2776,
    "Ġroutine": 13511,
    "Ġdur": 11594,
    ")âĢĶâĢľ": 20745,
    "Ġsingular": 4425,
    "Ġearly": 2077,
    "complain": 14359,
    "Ġadmeasure": 18294,
    "suspect": 9543,
    "Ġ1825": 25719,
    "Ġvalues": 2650,
    "mr": 1902,
    "swim": 16781,
    "merely": 16138,
    "Ġr": 405,
    "Ġglist": 9348,
    "turbable": 24531,
    "Ġthirteen": 15278,
    "Ġtrad": 9831,
    "scand": 18857,
    "Ġmonth": 2846,
    "disappearing": 23505,
    "actory": 8911,
    "aking": 974,
    "aled": 3945,
    "Ġsandwiched": 26612,
    "Ġpassed": 2010,
    "Ġinh": 10826,
    "ī": 236,
    "socket": 22730,
    "uch": 878,
    "Ġscoresby": 10463,
    "Ġstrike": 4855,
    "les": 1015,
    "avating": 18606,
    "Ġstronger": 8582,
    "utored": 15667,
    "Ġcuring": 21347,
    "Ġpa": 2986,
    "Ġsax": 10930,
    "grat": 5052,
    "Ġcraven": 16472,
    "Ġvesuvius": 26503,
    "Ġfold": 5531,
    "Ġcrossing": 7252,
    "Ġregression": 4411,
    "Ġmission": 13011,
    "politeness": 16908,
    "Ġty": 6660,
    "Ġripple": 25505,
    "ized": 1526,
    "Ġunperceived": 22039,
    "Ġerrand": 11086,
    "Ġfacil": 16964,
    "lement": 10169,
    "Ġwhole": 1659,
    "Ġplausible": 26555,
    "Ġep": 7384,
    "port": 10721,
    "knell": 24555,
    "Ġhatter": 4112,
    "Ġneur": 814,
    "Ġcommunications": 16361,
    "mering": 12495,
    "Ġnoon": 6561,
    "Ġjuggler": 26368,
    "Ġretrogress": 23076,
    "Ġwretched": 4081,
    "Ġopposition": 16522,
    "Ġowns": 22827,
    "Ġdiary": 24738,
    "star": 12676,
    "Ġaccused": 8510,
    "concerning": 9070,
    "Ġimplement": 3245,
    "Ġcompatibility": 2956,
    "Ġdebts": 8036,
    "readers": 23851,
    "Ġcomputes": 4767,
    "Ġbreaks": 13189,
    "hush": 20908,
    "purpose": 10047,
    "alescence": 15928,
    "Ġmadness": 6603,
    "Ġmove": 5107,
    "octavo": 11386,
    "Ġterms": 2563,
    "ulus": 21868,
    "aco": 12911,
    "Ġtalent": 12301,
    "Ġlighting": 13087,
    "nel": 11506,
    "Ġmor": 1252,
    "Ġinspiring": 19114,
    "Ġric": 18210,
    "Ġrests": 13097,
    "Ġheard": 1398,
    "bowl": 14894,
    "Ġdecreed": 18485,
    "tree": 11535,
    "Ġinst": 913,
    "Ġundecided": 22050,
    "Ġbig": 5806,
    "woe": 21138,
    "bes": 6644,
    "Ġaffectionate": 5585,
    "dles": 11482,
    "Ġgrimesby": 11458,
    "simultaneously": 19866,
    "ush": 3633,
    "Ġburg": 23653,
    "know": 2320,
    "Ġfactor": 19015,
    "Ġseizure": 21961,
    "vinegar": 25421,
    "Ġstaple": 26200,
    "dogs": 25403,
    "compose": 24037,
    "Ġpleated": 16300,
    "Ġapprehended": 26091,
    "Ġthankful": 14742,
    "Ġlandlord": 5581,
    "wife": 8101,
    "Ġrasc": 21981,
    "Ġadoration": 18291,
    "Ġfundamental": 3011,
    "Ġtempor": 2367,
    "Ġshabby": 14114,
    "asingly": 17963,
    "life": 4932,
    "Ġpockets": 8899,
    "Ġfunere": 22263,
    "poke": 18803,
    "Ġunpitying": 25661,
    "cor": 5520,
    "Ġglories": 16245,
    "running": 6798,
    "acted": 11011,
    "Ġdream": 3537,
    "Ġchristianity": 19863,
    "france": 24284,
    "mighty": 9469,
    "Ġflashing": 13033,
    "burning": 25081,
    "emptied": 23637,
    "unts": 12736,
    "Ġlightning": 5750,
    "Ġfootman": 8288,
    "globe": 25145,
    "Ġmister": 22758,
    "cheeked": 19342,
    "Ġstepmother": 16093,
    "Ġliveliness": 13647,
    "pate": 21012,
    "rain": 461,
    "Ġapo": 9633,
    "Ġic": 9628,
    "spir": 5738,
    "Ġimpediments": 26242,
    "Ġdist": 680,
    "Ġperseus": 10606,
    "landsmen": 25062,
    "lest": 5290,
    "ĠĠĠĠ": 459,
    "Ġaltern": 7394,
    "Ġfow": 6135,
    "Ġdowry": 20688,
    "ivers": 1984,
    "Ġtheore": 1831,
    "ohn": 4561,
    "Ġschemes": 11132,
    "abs": 11670,
    "Ġspeaking": 4025,
    "Ġinhabitant": 19758,
    "Ġcolder": 22859,
    "Ġoccurred": 4463,
    "partner": 19224,
    "Ġmemb": 14033,
    "Ġpremature": 3726,
    "vacancies": 25920,
    "Ġgums": 21614,
    "uctive": 17698,
    "upp": 10133,
    "Ġexpectation": 6904,
    "blame": 14797,
    "ĠĠĠĠĠĠĠĠĠĠĠĠĠĠĠĠĠĠĠĠĠĠĠĠĠĠĠĠĠĠ": 24443,
    "Ġhunsford": 6303,
    "Ġremo": 3786,
    "Ġardent": 9973,
    "Ġdefinite": 11070,
    "Ġpreach": 14175,
    "Ġcarn": 17823,
    "Ġdomes": 23709,
    "cream": 15334,
    "tube": 20414,
    "Ġaccuracy": 1094,
    "ina": 21182,
    "ited": 1750,
    "Ġexpans": 18621,
    "umber": 5241,
    "dining": 13709,
    "Ġgallant": 8658,
    "oug": 430,
    "15": 12434,
    "Ġguard": 6180,
    "Ġsplice": 19311,
    "Ġnarrower": 24354,
    "ved": 868,
    "Ġgaped": 13970,
    "Ġtrif": 6270,
    "Ġlocking": 18299,
    "its": 1151,
    "Ġclergy": 7644,
    "Ġmultitudinous": 26275,
    "Ġintertw": 18587,
    "ady": 996,
    "Ġgradient": 449,
    "Ġtickled": 20060,
    "may": 3680,
    "persecut": 22184,
    "Ġgunw": 6214,
    "wrath": 23759,
    "umphed": 23519,
    "Ġfrenchman": 11284,
    "vell": 3959,
    "overhearing": 19058,
    "Ġforbade": 15218,
    "Ġbran": 5252,
    "Ġreceive": 4703,
    "Ġimpropriety": 17398,
    "flo": 6116,
    "Ġencomp": 12968,
    "Ġstupendous": 20504,
    "Ġcomprehended": 11295,
    "Ġcomforters": 25801,
    "sufficient": 6638,
    "Ġroundabout": 23064,
    "Ġincantation": 26259,
    "Ġinseparable": 20691,
    "Ġxxxii": 24973,
    "yours": 7696,
    "answered": 10276,
    "Ġawaiting": 11391,
    "Ġdoublo": 6079,
    "Ġlongitudes": 22637,
    "Ġrussia": 26268,
    "Ġbedford": 7476,
    "Ġheidelburgh": 11646,
    "Ġembod": 14414,
    "Ġprofanely": 23572,
    "performed": 18340,
    "Ġdiver": 2531,
    "Ġdoran": 9182,
    "Ġdiscernible": 15073,
    "Ġ46": 19494,
    "quimaux": 21857,
    "Ġtechnical": 17194,
    "Ġunrecord": 16623,
    "ock": 15405,
    "Ġlimped": 19183,
    "Ġcelest": 9904,
    "Ġmacey": 12568,
    "begins": 18526,
    "Ġpreaching": 15930,
    "Ġunwelcome": 12785,
    "Ġfuss": 13908,
    "Ġlongbourn": 3508,
    "ante": 11725,
    "Ġmix": 7578,
    "reason": 4416,
    "chel": 11208,
    "Ġprogra": 1147,
    "determ": 7107,
    "Ġafresh": 18626,
    "Ġnineveh": 13393,
    "rarely": 21637,
    "apparent": 11042,
    "Ġhitting": 21490,
    "recl": 15513,
    "Ġcomplaisance": 19452,
    "Ġafore": 10760,
    "Ġgeneralize": 3100,
    "Ġshadows": 8013,
    "erval": 4018,
    "Ġwicked": 5962,
    "Ġmade": 1049,
    "instruct": 19545,
    "march": 13758,
    "acknowledge": 18469,
    "Ġgathering": 14981,
    "Ġsockets": 22092,
    "rushed": 10587,
    "Ġexempl": 21834,
    "sus": 6230,
    "Ġvisits": 8223,
    "arctic": 12615,
    "Ġpens": 21459,
    "Ġimag": 2674,
    "Ġvane": 22877,
    "Ġtick": 8109,
    "Ġflukes": 5267,
    "Ġjamming": 17267,
    "nnight": 20995,
    "Ġscrib": 22287,
    "mankind": 14377,
    "gments": 12474,
    "Ġassuming": 16694,
    "âĢĶ": 517,
    "Ġjustice": 5111,
    "daring": 20831,
    "direct": 12461,
    "hem": 6666,
    "eagerly": 17319,
    "jar": 17579,
    "eminence": 20102,
    "^": 66,
    "Ġfrig": 13085,
    "Ġiron": 3235,
    "ivered": 7007,
    "Ġpenny": 16317,
    "Ġjun": 8508,
    "grave": 16098,
    "Ġpreposter": 12827,
    "ateral": 19380,
    "Ġach": 2621,
    "expressed": 9044,
    "Ġirretrie": 23377,
    "Ġinhuman": 13932,
    "Ġmisfortune": 5569,
    "54": 15303,
    "Ġvectors": 1772,
    "Ġbower": 15571,
    "import": 5668,
    "Ġboxed": 24360,
    "Ġcost": 2508,
    "classification": 4389,
    "Ġcommend": 10337,
    "Ġingenuity": 17166,
    "Ġserved": 8246,
    "Ġmomentarily": 22816,
    "Ġbashee": 19851,
    "Ġlo": 453,
    "Ġpeas": 8536,
    "tack": 12517,
    "volume": 18601,
    "Ġclean": 5652,
    "bres": 11472,
    "Ġhimmalehs": 26232,
    "Ġernest": 8720,
    "keenest": 25662,
    "brow": 15319,
    "Ġtortoise": 16910,
    "Ġben": 1113,
    "Ġtomahawk": 7540,
    "Ġmightier": 18731,
    "Ġbulkington": 14679,
    "parsee": 14524,
    "Ġunexampled": 20363,
    "wond": 8772,
    "ony": 3028,
    "_,âĢĿ": 6220,
    "Ġsympathy": 6348,
    "atered": 22076,
    "illuminated": 17456,
    "Ġreturning": 5326,
    "Ġunacquainted": 12781,
    "Ġverte": 9444,
    "Ġhandfuls": 17212,
    "spell": 22733,
    "withstanding": 8948,
    "Ġthoughtfulness": 18775,
    "Ġoptimizers": 18632,
    "Ġcha": 6853,
    "ters": 1569,
    "Ġedge": 5189,
    "Ġadmiration": 5329,
    "Ġvineyarder": 25607,
    "Ġghast": 9212,
    "Ġdepicted": 14287,
    "genteel": 19952,
    "Ġunh": 9256,
    "elopement": 23195,
    "Ġdimensions": 16574,
    "Ġnotwithstanding": 9717,
    "Ġtasselled": 25922,
    "Ġbreath": 4790,
    "Ġseas": 3078,
    "Ġkilled": 4954,
    "Ġcontrasting": 11155,
    "Ġacknowledgment": 16959,
    "Ġhats": 14621,
    "quality": 10235,
    "swift": 14855,
    "ipped": 5790,
    "Ġbeaver": 18088,
    "Ġfurlongs": 20725,
    "apering": 8041,
    "Ġgash": 15675,
    "Ġcomrades": 9236,
    "saying": 8644,
    "Ġun": 422,
    "Ġchaise": 9079,
    "Ġrib": 4935,
    "Ġconstraints": 2739,
    "Ġembellished": 25850,
    "'d": 12431,
    "77": 15304,
    "Ġconducted": 10505,
    "Ġspec": 1263,
    "Ġdep": 744,
    "Ġmalice": 7153,
    "athed": 7828,
    "Ġbuck": 7158,
    "Ġmakes": 3652,
    "ĠĠĠĠĠĠĠĠĠĠ": 18577,
    "musket": 25342,
    "Ġconsequ": 6256,
    "Ġopposing": 12045,
    "iverer": 11720,
    "Ġgateway": 24799,
    "Ġprofuse": 23568,
    "Ġstranger": 3485,
    "carte": 25401,
    "Ġlake": 5227,
    "Ġmasking": 2420,
    "Ġencounter": 6630,
    "Ġunexplored": 26520,
    "overed": 2852,
    "Ġhudson": 15195,
    "repeating": 20132,
    "spoutings": 25004,
    "manifested": 20529,
    "towing": 17691,
    "Ġ181": 23899,
    "Ġfairy": 14629,
    "Ġsor": 4144,
    "Ġfurther": 1057,
    "Ġoccupies": 24011,
    "Ġoverseeing": 22357,
    "incredible": 16500,
    "Ġtuileries": 24824,
    "circumamb": 26088,
    "Ġthis": 382,
    "Ġwriggling": 15261,
    "disp": 7976,
    "utmost": 21591,
    "share": 14240,
    "Ġrepresent": 1210,
    "Ġintroduced": 7692,
    "Ġbring": 3323,
    "Ġsighs": 22712,
    "Ġswim": 3822,
    "Ġbouton": 17870,
    "dissatisfied": 26614,
    "Ġcreates": 2009,
    "Ġfor": 340,
    "Ġmeaning": 1416,
    "oice": 1382,
    "Ġpewter": 17188,
    "ribut": 816,
    "Ġscheme": 7066,
    "Ġdaring": 8121,
    "ipelag": 12845,
    "Ġrepresents": 4902,
    "Ġinterest": 2252,
    "Ġabated": 18391,
    "Ġbind": 12587,
    "Ġended": 7950,
    "vid": 916,
    "Ġfallen": 5969,
    "Ġfam": 1583,
    "adamite": 20596,
    "Ġeasiness": 23540,
    "phere": 21021,
    "nament": 11508,
    "Ġanyone": 4460,
    "lucky": 24545,
    "Ġprogressive": 5023,
    "aches": 6572,
    "orns": 12597,
    "Ġconfirm": 9859,
    "Ġburke": 19253,
    "Ġsupp": 1266,
    "shaped": 10312,
    "Ġeloped": 22649,
    "Ġ51": 24316,
    "Ġbrain": 2087,
    "rael": 21632,
    "grass": 23415,
    "rud": 4189,
    "Ġcares": 9370,
    "mown": 20972,
    "Ġmasses": 10506,
    "Ġpikes": 21477,
    "tuesday": 17692,
    "Ġhung": 4560,
    "drovand": 24759,
    "Ġwashes": 21865,
    "Ġportents": 14681,
    "Ġunsatisfied": 22046,
    "Ġbl": 1190,
    "Ġpeep": 6870,
    "Ġplata": 25120,
    "Ġshaved": 22006,
    "Ġallusion": 7627,
    "uously": 7353,
    "stubb": 6019,
    "Ġtumb": 21172,
    "Ġexpectations": 13147,
    "Ġdecided": 5471,
    "Ġmccarthy": 5145,
    "consequence": 9766,
    "ights": 8478,
    "slee": 17171,
    "otograph": 5827,
    "Ġshares": 23248,
    "Ġkneel": 14810,
    "Ġletting": 10366,
    "hours": 9127,
    "Ġfashions": 17887,
    "Ġstabilizing": 3657,
    "boo": 16354,
    "Ġsuspending": 19246,
    "inn": 5364,
    "acet": 5476,
    "coun": 10690,
    "Ġblackstone": 23392,
    "Ġramadans": 25122,
    "Ġdeline": 16335,
    "Ġgre": 1581,
    "Ġscowl": 22289,
    "shroud": 20315,
    "Ġthroes": 24575,
    "Ġvancouver": 26567,
    "Ġ115": 24439,
    "Ġhardest": 18914,
    "Ġcorrespond": 6211,
    "Ġsincerity": 13682,
    "%": 9,
    "Ġdestroyed": 5272,
    "Ġreaching": 7303,
    "aware": 16298,
    "soled": 14336,
    "Ġfancies": 10426,
    "Ġdock": 15934,
    "Ġcontrived": 10306,
    "Ġfloundering": 16255,
    "Ġsickened": 16777,
    "Ġrequires": 998,
    "Ġgrapes": 15219,
    "ras": 21039,
    "latitudes": 17199,
    "bation": 9106,
    "igations": 18046,
    "icilian": 20694,
    "Ġintru": 15831,
    "Ġresponsiveness": 2895,
    "ellent": 3761,
    "Ġurged": 6782,
    "`": 68,
    "myst": 9825,
    "Ġcargo": 16293,
    "horse": 8609,
    "Ġimpatiently": 8338,
    "Ġmysteriously": 24602,
    "Ġargue": 16785,
    "Ġannouncing": 16756,
    "Ġhearse": 10422,
    "Ġafter": 869,
    "justine": 7684,
    "Ġpay": 3963,
    "entered": 8819,
    "Ġlatterly": 24087,
    "Ġneighb": 14077,
    "Ġmediocr": 24142,
    "stepfather": 19193,
    "Ġempires": 19077,
    "Ġweltering": 19588,
    "Ġapparently": 6779,
    "Ġnar": 7375,
    "hetically": 21211,
    "Ġpals": 13921,
    "Ġhue": 8430,
    "kept": 11721,
    "merry": 16537,
    "charitable": 23936,
    "Ġblasphemer": 26117,
    "Ġfit": 3685,
    "constantinople": 25508,
    "upright": 23021,
    "impart": 21712,
    "Ġresources": 2935,
    "likeness": 19481,
    "Ġqualified": 14953,
    "Ġscrewed": 15124,
    "Ġezekiel": 26194,
    "Ġstim": 18066,
    "Ġtrack": 7450,
    "emotion": 21934,
    "Ġgin": 13964,
    "Ġindomitableness": 26573,
    "Ġforegoing": 23450,
    "repid": 11566,
    "Ġissued": 10602,
    "boscombe": 26122,
    "Ġgreatly": 5851,
    "Ġassurances": 10003,
    "Ġdemanded": 8327,
    "Ġalle": 11669,
    "Ġcongealed": 25982,
    "Ġimbalanced": 18334,
    "consent": 18504,
    "itiousness": 21337,
    "Ġmistake": 6205,
    "incidentally": 20542,
    "ssible": 2989,
    "Ġexplained": 5937,
    "Ġquakers": 22420,
    "Ġvitality": 15176,
    "Ġforemost": 12009,
    "Ġnormalizes": 1864,
    "Ġtake": 1577,
    "Ġaroused": 15902,
    "Ġstilly": 25974,
    "acks": 11792,
    "bethink": 25745,
    "Ġlouis": 8357,
    "Ġcurls": 22977,
    "Ġshilling": 18229,
    "anct": 21361,
    "Ġclust": 9277,
    "Ġphyset": 23203,
    "tled": 3457,
    "Ġextremest": 19197,
    "Ġpuzz": 5533,
    "obviously": 25243,
    "Ġnasty": 17446,
    "ĠĠĠĠĠĠĠĠĠĠĠĠĠĠĠĠĠĠĠĠĠĠĠĠĠĠĠĠĠĠĠĠĠĠĠĠĠ": 14617,
    "fates": 20860,
    "Ġinn": 4590,
    "idirectional": 2421,
    "Ġkeen": 4613,
    "Ġbinding": 20422,
    "Ġloose": 4648,
    "century": 20050,
    "Ġdism": 9770,
    "Ġowned": 11880,
    "Ġyear": 3285,
    "Ġclings": 15976,
    "out": 467,
    "Ġprivacy": 19527,
    "conditionally": 24835,
    "Ġservant": 5764,
    "Ġmien": 17810,
    "forget": 11033,
    "Ġbattering": 13904,
    "Ġadvances": 12998,
    "Ġteach": 8555,
    "nonsense": 17617,
    "Ġdivin": 13278,
    "heric": 15915,
    "Ġline": 1852,
    "Ġassuredly": 14825,
    "Ġcherub": 23290,
    "lect": 1222,
    "Ġstat": 1489,
    "achus": 18284,
    "strip": 19833,
    "cils": 20816,
    "Ġdelivered": 11117,
    "Ġextra": 4055,
    "Ġdr": 2820,
    "opening": 10315,
    "irregular": 21915,
    "Ġvind": 10252,
    "hearing": 8404,
    "Ġwindows": 4970,
    "Ġenchanting": 17040,
    "rential": 22922,
    "Ġsill": 10767,
    "Ġmorocco": 26575,
    "tete": 10734,
    "Ġcustom": 5078,
    "Ġdoorway": 14500,
    "erm": 785,
    "Ġfootmarks": 19339,
    "urches": 12688,
    "Ġmoodily": 19837,
    "unfortunate": 15781,
    "Ġcaptured": 7245,
    "Ġcrawled": 17045,
    "bless": 22316,
    "lock": 1469,
    "Ġlowering": 7987,
    "Ġpattern": 1318,
    "Ġpoland": 23619,
    "Ġviewing": 19266,
    "Ġindulging": 16906,
    "acetty": 24464,
    "corpse": 24486,
    "Ġdisagree": 22536,
    "plings": 11701,
    "Ġquiet": 3260,
    "attentions": 13578,
    "Ġbildad": 3782,
    "impression": 15715,
    "Ġamount": 8514,
    "ancing": 1759,
    "Ġintruder": 25992,
    "conducted": 25573,
    "Ġlany": 21557,
    "damn": 20027,
    "Ġfalsely": 20585,
    "Ġwar": 5526,
    "is": 280,
    "Ġdestined": 7974,
    "Ġcoffee": 6761,
    "na": 13763,
    "footman": 17165,
    "Ġcharcoal": 19010,
    "Ġmowers": 17814,
    "Ġbohemia": 10652,
    "Ġlowermost": 23245,
    "Ġdisturbance": 15015,
    "happily": 14659,
    "Ġcame": 1300,
    "Ġreservo": 16833,
    "Ġsec": 2074,
    "Ġprocess": 560,
    "singing": 24363,
    "Ġpresto": 22234,
    "Ġchrysalis": 26540,
    "ired": 1444,
    "hideous": 25408,
    "Ġphren": 8575,
    "Ġunequal": 14845,
    "Ġappointment": 10649,
    "Ġpainter": 19170,
    "tri": 11531,
    "Ġcataract": 23430,
    "Ġharris": 13930,
    "dreadful": 11422,
    "Ġjust": 1242,
    "Ġdecreases": 3411,
    "time": 3146,
    "Ġceaseless": 13492,
    "Ġwhosoever": 21722,
    "fail": 17542,
    "aried": 10988,
    "many": 5251,
    "Ġwreath": 25937,
    "Ġsatisfy": 6911,
    "Ġunhappiness": 14121,
    "Ġdiscompose": 25580,
    "Ġsummary": 19406,
    "Ġunsavory": 20709,
    "Ġself": 1779,
    "Ġunabated": 15856,
    "Ġpatiently": 19920,
    "Ġult": 9077,
    "Ġspit": 22129,
    "Ġcountenances": 11969,
    "Ġsturgeon": 20595,
    "Ġends": 8238,
    "seas": 14036,
    "Ġfreshe": 13074,
    "Ġstaggering": 20276,
    "steak": 14711,
    "land": 1528,
    "Ġsake": 4092,
    "seemed": 4304,
    "Ġwides": 17790,
    "Ġintellig": 526,
    "onents": 8781,
    "://": 11466,
    "Ġcombing": 22840,
    "russian": 22193,
    "Ġalternative": 19990,
    "attacks": 23125,
    "lascar": 20962,
    "Ġtransitory": 16022,
    "yellow": 9627,
    "Ġenlarged": 25986,
    "Ġantichronical": 26611,
    "Ġhelps": 9371,
    "Ġprovoke": 14829,
    "pute": 8849,
    "Ġmccauley": 26429,
    "Ġbegrim": 23020,
    "Ġplucked": 15117,
    "creat": 20802,
    "iastic": 12484,
    "ampling": 12731,
    "Ġdistorted": 14252,
    "hil": 8379,
    "succeed": 10331,
    "Ġsnar": 13204,
    "distance": 12157,
    "Ġconscientious": 16729,
    "Ġbestow": 6456,
    "Ġconceal": 5975,
    "Ġquitting": 7647,
    "valley": 16218,
    "increas": 10456,
    "!_": 7329,
    "wor": 3417,
    "pire": 9138,
    "Ġlegisl": 23538,
    "Ġegypt": 9681,
    "Ġmerryweather": 9525,
    "Ġwrite": 3823,
    "accents": 19214,
    "Ġproprietors": 20189,
    "Ġsecrecy": 7316,
    "U": 57,
    "Ġcreases": 22723,
    "Ġtwelfth": 22681,
    "bling": 10685,
    "Ġclear": 1952,
    "Ġtwopence": 18661,
    "respective": 19848,
    "Ġvainly": 9927,
    "falsehood": 25902,
    "Ġwarmup": 3922,
    "yd": 21145,
    "Ġsport": 6690,
    "Ġbridle": 24682,
    "Ġalley": 15740,
    "au": 776,
    "Ġsurrounding": 12167,
    "Ġpotent": 12068,
    "neglected": 25670,
    "Ġdiligently": 11406,
    "Ġbag": 5699,
    "Ġtransom": 22442,
    "using": 5468,
    "Ġgoing": 2065,
    "Ġpensive": 21474,
    "Ġtorrent": 17093,
    "remain": 9841,
    "Ġastonishment": 4793,
    "rage": 10844,
    "Ġexhaust": 6400,
    "orily": 15577,
    "ittered": 18440,
    "meas": 7434,
    "Ġind": 1221,
    "Ġbewitching": 25977,
    "Ġvisibly": 22865,
    "irene": 15918,
    "Ġnorris": 23204,
    "rippling": 24713,
    "prejud": 11798,
    "gration": 9124,
    "lestrade": 9659,
    "Ġcracks": 12024,
    "Ġthigh": 10189,
    "particulars": 11316,
    "Ġisle": 8837,
    "Ġphilosophical": 26336,
    "Ġmeals": 12716,
    "Ġthumb": 6982,
    "emone": 21931,
    "Ġashes": 7618,
    "Ġsacrific": 15020,
    "izing": 1068,
    "Ġpsychology": 11449,
    "Ġpovels": 22595,
    "Ġhare": 5157,
    "Ġinform": 997,
    "Ġtacit": 21177,
    "Ġ235": 25712,
    "apologizing": 26546,
    "Ġwhist": 6023,
    "Ġrearing": 12682,
    "Ġii": 7385,
    "Ġdeploy": 3004,
    "prospect": 23399,
    "Ġsaluted": 14762,
    "Ġdiadem": 24740,
    "Ġmeagre": 21817,
    "Ġadmires": 19688,
    "Ġtunnel": 14933,
    "Ġinsens": 8277,
    "gloom": 17142,
    "Ġneedless": 19232,
    "lished": 8383,
    "Ġquicker": 16510,
    "Ġinsurance": 23681,
    "Ġprobably": 4314,
    "²": 115,
    "Ġsembl": 19063,
    "Ġtransparency": 10679,
    "liking": 22927,
    "kitchen": 17587,
    "Ġauthority": 7749,
    "flitted": 23972,
    "Ġbambooz": 26120,
    "incl": 8110,
    "plish": 18209,
    "Ġlabyrinth": 13683,
    "Ġprudent": 9187,
    "pieces": 8758,
    "x": 92,
    "ienced": 5685,
    "Ġministers": 22835,
    "iasm": 8061,
    "Ġkindness": 4097,
    "Ġsting": 10862,
    "Ġreligion": 11416,
    "Ġsuccour": 20438,
    "Ġflutter": 16252,
    "aneously": 4059,
    "neurons": 3134,
    "bingley": 4927,
    "Ġmechanisms": 1574,
    "Ġunconsciously": 10008,
    "lording": 24056,
    "Ġestablish": 9546,
    "Į": 239,
    "training": 2519,
    "Ġbarbarians": 19590,
    "letons": 14615,
    "Ġclapham": 17268,
    "Ġhammers": 13245,
    "Ġexceed": 1345,
    "Ġappertain": 22222,
    "Ġsnake": 12065,
    "Ġgradu": 15836,
    "Ġshaft": 18230,
    "ounts": 4651,
    "Ġroylott": 7305,
    "Ġlik": 2524,
    "allers": 22201,
    "âĢĻ-": 18169,
    "sne": 10127,
    "Ġfitly": 24002,
    "Ġpractice": 2683,
    "ffy": 18318,
    "Ġguardsmen": 20633,
    "Ġted": 13815,
    "Ġhowled": 12861,
    "Ġremembr": 24173,
    "Ġpr": 1597,
    "Ġbedroom": 7277,
    "Ġmiserably": 12953,
    "Ġrelates": 12986,
    "important": 7114,
    "Ġheavens": 5050,
    "Ġcabaco": 13171,
    "ual": 945,
    "rivial": 9437,
    "Ġoccasionally": 5590,
    "trop": 15439,
    "Ġmethod": 1488,
    "shoulders": 16587,
    "Ġsw": 1355,
    "Ġpagoda": 19791,
    "Ġresnet": 5473,
    "ulged": 12735,
    "twig": 23698,
    "Ġslopes": 18943,
    "ply": 6367,
    "Ġgroan": 13329,
    "supper": 12925,
    "Ġoffensive": 18693,
    "Ġascribed": 14858,
    "measure": 10034,
    "fifty": 12356,
    "Ġdeclines": 23966,
    "Ġordinarily": 20651,
    "Ġbedside": 19125,
    "plicable": 10259,
    "break": 6103,
    "zeal": 16262,
    "abular": 4761,
    "Ġgrowl": 16540,
    "Ġoverflowed": 20265,
    "inv": 8402,
    "Ġapex": 24342,
    "Ġgarments": 15197,
    "Ġdrop": 4345,
    "interested": 9509,
    "rine": 21040,
    "Ġuninterrupted": 22048,
    "Ġkin": 15908,
    "Ġharem": 9712,
    "Ġstruck": 3391,
    "Ġsweat": 13144,
    "ifying": 5235,
    "Ġdeft": 21840,
    "leton": 5148,
    "Ġconception": 10316,
    "Ġbab": 5291,
    "olently": 15761,
    "Ġnorm": 764,
    "discovery": 12021,
    "degrees": 22154,
    "ullied": 23108,
    "dog": 10696,
    "Ġhandle": 3136,
    "Ġselection": 18203,
    "Ġhardware": 4904,
    "Ġluckily": 16800,
    "Ġleghorn": 13150,
    "imens": 1747,
    "wretchedness": 17255,
    "Ġincites": 22555,
    "Ġswell": 8952,
    "Ġsneer": 13451,
    "abez": 10225,
    "Ġdrugged": 12607,
    "Ġjoker": 22302,
    "Ġdubious": 17386,
    "Ġberm": 21386,
    "Ġdreamed": 16632,
    "Ġmotioned": 19595,
    "Ġplease": 4722,
    "Ġdenoted": 16568,
    "generosity": 23789,
    "Ġstrugg": 3216,
    "Ġmisunderstood": 18706,
    "Ġspurn": 18310,
    "Ġhobbling": 25645,
    "Ġruss": 18718,
    "harpooneers": 8693,
    "ments": 1399,
    "Ġenvironments": 24035,
    "ald": 15629,
    "Ġechoed": 20427,
    "Ġanchor": 7368,
    "Ġunsolved": 22035,
    "domestic": 19828,
    "lengths": 24847,
    "Ġantarctic": 19555,
    "Ġg": 310,
    "Ġbust": 10170,
    "uction": 15446,
    "!_âĢĶ": 19976,
    "anter": 9169,
    "Ġcomposedly": 25184,
    "Ġsweetly": 23922,
    "Ġabutted": 22279,
    "Ġsimilarity": 3166,
    "Ġprized": 23221,
    "Ġtranqu": 4604,
    "Ġamerica": 6764,
    "Ġnorthern": 7265,
    "drew": 7334,
    "Ġmariner": 7247,
    "Ġslily": 23167,
    "Ġepsom": 19986,
    "Ġthoughtful": 16195,
    "mou": 10710,
    "Ġwretchedness": 9029,
    "shut": 10982,
    "Ġdimin": 3873,
    "while": 2933,
    "Ġrattle": 10900,
    "tfordshire": 4810,
    "live": 7551,
    "Ġshaking": 6553,
    "threat": 10901,
    "Ġtechnique": 2189,
    "Ġwanting": 6723,
    "Ġdebated": 9043,
    "Ġextraction": 11252,
    "Ġceremony": 8361,
    "Ġliving": 3062,
    "at": 268,
    "Ġpeace": 3693,
    "Ġelectric": 15198,
    "Ġfullest": 14817,
    "atically": 3029,
    "Ġbubble": 13538,
    "Ġlabeled": 3719,
    "nd": 11505,
    "err": 1144,
    "talking": 10010,
    "collect": 16566,
    "ges": 2872,
    "Ġregain": 22582,
    "soles": 18687,
    "Ġmethodically": 23151,
    "Ġfurnishes": 19444,
    "Ġneat": 7000,
    "storied": 18024,
    "Ġlaughs": 24119,
    "ĠcÃ¦": 15559,
    "Ġhospit": 7515,
    "erest": 10699,
    "Ġrequire": 887,
    "behaved": 24463,
    "Ġoun": 13866,
    "favourable": 12268,
    "Ġadored": 18292,
    "Ġforgery": 25978,
    "estinated": 15927,
    "Ġesteemed": 10591,
    "Ġslewed": 23388,
    "Ġappointed": 20106,
    "threatened": 25463,
    "Ġsignals": 10588,
    "Ġboats": 2637,
    "noo": 9792,
    "inserted": 18888,
    "mountains": 15184,
    "Ġinference": 9674,
    "Ġoverladen": 22359,
    "Ġconcealing": 23906,
    "Ġstatements": 7517,
    "eleg": 20851,
    "Ġhorr": 3191,
    "Ġfashionable": 19547,
    "consist": 14819,
    "power": 7138,
    "Ġcaptiv": 16260,
    "Ġkrusenstern": 26379,
    "Ġseason": 5238,
    "thesize": 24907,
    "Ġsacri": 18329,
    "dart": 20828,
    "Ġworker": 23051,
    "lengthwise": 19953,
    "finding": 17015,
    "Ġfrightened": 5342,
    "Ġdeity": 18137,
    "Ġcoverage": 4288,
    "droppers": 24758,
    "Ġcounter": 6482,
    "Ġair": 1837,
    "mastod": 23977,
    "Ġgrowled": 19286,
    "Ġcharacteristics": 8613,
    "Ġheinous": 18041,
    "seem": 10230,
    "Ġwilt": 9646,
    "Ġrestless": 10415,
    "concent": 19483,
    "Ġapparelled": 20440,
    "Ġpitied": 14694,
    "Ġthyself": 6604,
    "Ġprovince": 24192,
    "hur": 6651,
    "Ġinvest": 4977,
    "Ġinvitation": 5188,
    "Ġtraits": 23078,
    "infidel": 24664,
    "solved": 7686,
    "Ġtraversed": 18893,
    "Ġsimilitude": 19213,
    "Ġexpiration": 22626,
    "Ġsubstantial": 14813,
    "Ġgaining": 9495,
    "ounding": 22396,
    "Ġjub": 22299,
    "Ġbreach": 11978,
    "Ġsweetest": 13251,
    "perpendicular": 14162,
    "Ġdeeply": 4716,
    "Ġdiligence": 17115,
    "Ġtrans": 635,
    "nature": 5360,
    "cheerful": 13579,
    "Ġmorphology": 3008,
    "Ġantiquities": 25599,
    "thereby": 14450,
    "red": 395,
    "Ġvalue": 2084,
    "Ġ23": 13196,
    "Ġhappening": 14386,
    "Ġfritters": 23260,
    "Ġinstantaneous": 14614,
    "Ġwhistled": 24624,
    "shunned": 22471,
    "races": 21633,
    "Ġgreeting": 18965,
    "Ġgrosvenor": 17421,
    "ease": 12462,
    "Ġsuccessfully": 19432,
    "Ġadjust": 2155,
    "Ġwired": 17788,
    "Ġclosing": 11778,
    "Ġjam": 10952,
    "Ġgovern": 10452,
    "humanity": 24840,
    "Ġbun": 6008,
    "Ġsense": 3250,
    "discoloured": 23501,
    "Ġcollateral": 20075,
    "twain": 23699,
    "Ġsatisfactory": 11193,
    "insult": 16282,
    "owed": 2272,
    "inordinate": 21197,
    "Ġmuster": 16126,
    "Ġdeposit": 17271,
    "Ġencaps": 12967,
    "ip": 553,
    "features": 14741,
    "irements": 22216,
    "Ġlirra": 21563,
    "wis": 12523,
    "Ġtowing": 9196,
    "bald": 16446,
    "Ġpetersburgh": 24231,
    "Ġemerge": 14931,
    "ite": 711,
    "Ġknow": 632,
    "--âĢĺ": 22855,
    "Ġparadigms": 3056,
    "Ġfowler": 16939,
    "Ġchewed": 16376,
    "Ġimpetuously": 20375,
    "Ġtraced": 10386,
    "Ġpipes": 9847,
    "making": 2575,
    "specul": 23946,
    "Ġunjustifiable": 25112,
    "end": 500,
    "neighbourhood": 10028,
    "Ġmasoned": 20254,
    "Ġstumbling": 21746,
    "Ġcalifornia": 20533,
    "stre": 5451,
    "object": 6884,
    "Ġindist": 14412,
    "Ġostentatiously": 20472,
    "atigable": 15274,
    "Ġvales": 21950,
    "Ġchoose": 5983,
    "ity": 417,
    "Ġpanel": 13376,
    "Ġrattled": 15070,
    "Ġnoteworthy": 24165,
    "wild": 8771,
    "Ġrank": 6260,
    "Ġanyways": 22524,
    "Ġbulls": 23861,
    "Ġsavagely": 26325,
    "Ġabraham": 18396,
    "Ġilluminate": 17195,
    "sto": 3199,
    "Ġauthentic": 20538,
    "Ġbound": 3518,
    "Ġstrasburgh": 18615,
    "Ġwarm": 2425,
    "Ġsquaring": 22847,
    "fit": 6648,
    "Ġadopt": 10635,
    "arrangement": 17418,
    "altern": 17944,
    "Ġtam": 7821,
    "Ġlexic": 15728,
    "Ġobjecting": 18897,
    "fes": 20853,
    "Ġ117": 19700,
    "Ġextend": 18682,
    "Ġgrotes": 19566,
    "narrated": 25622,
    "Ġplayers": 12042,
    "Ġwires": 21298,
    "Ġreflections": 5948,
    "vicinity": 20483,
    "Ġdeceased": 15008,
    "int": 1197,
    "Ġtragic": 15259,
    "composure": 24039,
    "Ġtexture": 19162,
    "Ġgaze": 6932,
    "Ġconqueror": 25797,
    "Ġrhyme": 21985,
    "Ġven": 4647,
    "Ġwindigate": 18912,
    "rus": 5931,
    "Ġanointing": 25540,
    "Ġhorrid": 7999,
    "Ġfired": 16156,
    "Ġunmindful": 22068,
    "gro": 10097,
    "ively": 1307,
    "Ġdumb": 7843,
    "Ġsleek": 23387,
    "Ġmothers": 14542,
    "Ġaccelerate": 23228,
    "sust": 15425,
    "Ġstrolled": 16772,
    "Ġmouthful": 16577,
    "move": 11858,
    "Ġemma": 20697,
    "mistak": 16880,
    "results": 20390,
    "Ġannot": 15606,
    "exceed": 7911,
    "mystic": 25317,
    "Ġrides": 21978,
    "Ġunseason": 22054,
    "Ġwager": 17794,
    "Ġyouthful": 16725,
    "Ġentertainment": 12227,
    "Ġjuggl": 20441,
    "Ġnind": 17952,
    "rocious": 21542,
    "Ġstun": 11653,
    "Ġresides": 22544,
    "ascar": 8436,
    "prise": 7727,
    "21": 10075,
    "Ġsuffer": 4721,
    "Ġbeams": 14633,
    "Ġmouths": 7492,
    "Ġtet": 21160,
    "Ġexposing": 11836,
    "Ġasked": 2280,
    "Ġcentury": 8291,
    "Ø": 153,
    "sych": 9885,
    "Ġimposs": 16618,
    "Ġgive": 1712,
    "bask": 20778,
    "tern": 4222,
    "quar": 7617,
    "Ġecstasy": 11633,
    "Ġthou": 1810,
    "Ġdardanelles": 26445,
    "Ġgrizzled": 11451,
    "reshold": 21242,
    "miss": 3174,
    "Ġlustrous": 20159,
    "rennial": 22345,
    "epend": 3314,
    "Ġaged": 10324,
    "Ġstrategies": 1841,
    "Ġsweatings": 25709,
    "Ġniagara": 26460,
    "Ġgazette": 19504,
    "thou": 4708,
    "Ġsubterr": 10351,
    "Ġstones": 9224,
    "Ġsaves": 18325,
    "Ġnooks": 26012,
    "invite": 25091,
    "Ġenvy": 13187,
    "Ġhumanity": 6733,
    "ĠĠĠĠĠĠĠĠĠĠĠĠĠĠĠĠĠ": 22952,
    "gaze": 17559,
    "Ġpictures": 5503,
    "Ġhorseman": 19610,
    "Ġrefine": 2970,
    "Ġplainly": 4383,
    "inspector": 13650,
    "headsman": 16699,
    "Ġscrews": 25178,
    "Ġbradstreet": 9579,
    "Ġmaxim": 3085,
    "enance": 3372,
    "Ġtorments": 13398,
    "Ġfree": 3376,
    "Ġconcil": 23326,
    "Ġ1890": 23900,
    "Ġbirth": 6525,
    "Ġenabling": 1080,
    "Ġphant": 7057,
    "Ġgallows": 12150,
    "Ġmajesty": 5201,
    "vap": 13806,
    "leep": 4634,
    "Ġpretence": 13211,
    "Ġmishap": 20579,
    "ologies": 18776,
    "ishing": 1146,
    "spike": 16143,
    "Ġdevoid": 18685,
    "Ġomin": 11579,
    "intentions": 22942,
    "Ġcredited": 25157,
    "Ġbringing": 5871,
    "!âĢĿ": 845,
    "Ġharpoons": 5659,
    "Ġwasted": 9707,
    "Ġsurveying": 25326,
    "aur": 15312,
    "Ġcrescentic": 20624,
    "Ġ113": 19699,
    "berg": 11868,
    "Ġcart": 11585,
    "archbishop": 22905,
    "Ġsparing": 22134,
    "Ġblunder": 18820,
    "repugnance": 16866,
    "Ġconcer": 23325,
    "Ġluxurious": 17314,
    "div": 8076,
    "itic": 11580,
    "Ġascended": 8669,
    "Ġgrin": 5482,
    "shark": 14242,
    "Ġfoolscap": 24161,
    "lucas": 15155,
    "Ġfingertips": 24020,
    "shop": 14241,
    "Ġpoorly": 9858,
    "Ġmirror": 12382,
    "absence": 12713,
    "Ġquarters": 8623,
    "Ġsavi": 18326,
    "Ġdial": 10812,
    "Ġprayer": 16669,
    "Ġscuttle": 7414,
    "entreaties": 26187,
    "Ġconcernment": 23646,
    "Ġency": 21937,
    "Ġmagnanimous": 17414,
    "Ġhair": 3313,
    "una": 21873,
    "Ġchorus": 10947,
    "Ġtre": 2537,
    "Ġnewspaper": 12368,
    "fleece": 19951,
    "Ġcarcase": 14447,
    "/": 19,
    "Ġconcept": 664,
    "Ġbits": 11590,
    "Ġpass": 1041,
    "Ġpovelson": 26554,
    "hered": 5623,
    "Ġchilly": 25563,
    "Ġfairer": 20465,
    "ram": 13975,
    "Ġcease": 7078,
    "Ġspecially": 12002,
    "ibility": 2391,
    "Ġsuffocated": 20730,
    "Ġmeditate": 16709,
    "Ġresp": 2495,
    "Ġsympathetic": 17362,
    "Ġrouted": 24908,
    "Ġanimation": 11153,
    "Ġprair": 7747,
    "Ġdesolation": 12273,
    "Ġey": 8135,
    "Ġpam": 21453,
    "Ġpictured": 16625,
    "Ġessence": 13409,
    "paper": 9139,
    "Ġdefects": 12337,
    "unlike": 18159,
    "Ġbree": 5011,
    "Ġadapts": 3819,
    "bony": 15323,
    "isms": 12585,
    "Ġsensitivity": 3068,
    "Ġab": 529,
    "Ġgermans": 25785,
    "Ġstony": 21743,
    "Ġwhales": 1828,
    "Ġstall": 12701,
    "Ġexeget": 24088,
    "Ġencodings": 4775,
    "Ġfoiled": 23247,
    "Ġdispose": 23882,
    "Ġgestures": 13539,
    "Ġspont": 22136,
    "Ġbluff": 16519,
    "Ġballs": 9018,
    "pulling": 25149,
    "ational": 5716,
    "mediate": 16516,
    "Ġobserved": 3540,
    "iteness": 4394,
    "Ġcompens": 14266,
    "Ġsobs": 14137,
    "Ġbitterest": 12406,
    "clusion": 16309,
    "anchor": 13892,
    "Ġelix": 22648,
    "Ġcovent": 16078,
    "Ġwildest": 16512,
    "Ġanswering": 7478,
    "Ġquebec": 24135,
    "shaken": 16030,
    "?âĢĻâĢĿ": 23644,
    "Ġtwilight": 16125,
    "hib": 15371,
    "Ġaz": 9632,
    "Ġfleet": 9435,
    "orted": 4603,
    "maltese": 24794,
    "Ġmild": 4145,
    "rights": 23674,
    "Ġviolet": 19092,
    "Ġcheating": 16373,
    "Ġsoaked": 15866,
    "during": 6788,
    "Ġgallantry": 15107,
    "ause": 1314,
    "Ġmood": 6278,
    "vely": 3868,
    "unhesitatingly": 26498,
    "Ġunch": 18240,
    "ĠĠĠĠĠĠĠĠĠĠĠĠĠĠĠĠĠĠĠĠĠĠĠĠ": 5322,
    "Ġelevate": 24502,
    "gates": 20874,
    "Ġreside": 22543,
    "Ġsail": 1669,
    "Ġnarrow": 5086,
    "Ġ116": 24440,
    "Ġyour": 634,
    "Ġtouching": 4680,
    "Ġcomforts": 14696,
    "onds": 13001,
    "Ġfle": 3091,
    "Ġwaters": 3596,
    "Ġrept": 13986,
    "Ġschedu": 1824,
    "Ġfondness": 16782,
    "Ġvillages": 14752,
    "oves": 15406,
    "Ġmon": 1254,
    "Ġultimately": 17167,
    "Ġwives": 12560,
    "Ġtapping": 10754,
    "Ġrecorded": 11294,
    "Ġascendency": 20235,
    "mast": 3602,
    "imag": 6991,
    "vices": 21119,
    "Ġcrav": 19175,
    "Ġbackstays": 22657,
    "ignantly": 23269,
    "Ġreconciled": 13591,
    "Ġvital": 9246,
    "Ġelevating": 19732,
    "apping": 5853,
    "Ġexploit": 19164,
    "necessarily": 19634,
    "_âĢĶ": 11468,
    "Ġcommunicating": 16891,
    "Ġprevents": 2558,
    "Ġspire": 18307,
    "Ġcopy": 10166,
    "Ġswarming": 16276,
    "Ġge": 1979,
    "Ġdiction": 8799,
    "Ġhams": 16614,
    "verb": 10219,
    "Ġcabal": 23643,
    "ryphon": 4161,
    "Ġgreenland": 5761,
    "punishment": 15149,
    "Ġembraces": 19874,
    "Ġcomparatively": 9493,
    "Ġajar": 21205,
    "Ġgale": 5823,
    "Ġdavis": 25953,
    "Ġjug": 12840,
    "boat": 3362,
    "Ġinfrequent": 3826,
    "Ġdecayed": 22828,
    "rendering": 22344,
    "xim": 1096,
    "ĠâĢľ": 516,
    "Ġfestival": 25446,
    "omen": 4086,
    "Ġquaff": 22418,
    "Ġprevail": 13446,
    "Ġoutdone": 22322,
    "Ġsculpt": 15950,
    "Ġamusement": 8056,
    "Ġirrevoc": 15041,
    "ickering": 22673,
    "jet": 13745,
    "ĩ": 234,
    "Ġyonder": 7392,
    "Ġstunsail": 25544,
    "irth": 5634,
    "Ġrestraint": 15131,
    "irmed": 9242,
    "Ġstriding": 16097,
    "Ġwaifing": 25244,
    "Ġ53": 19638,
    "Ġunhappy": 5640,
    "walking": 9985,
    "Ġfluttered": 16253,
    "particip": 23618,
    "Ġdragg": 23217,
    "thouse": 21986,
    "Ġvortex": 26210,
    "quakes": 21854,
    "lesson": 22773,
    "Ġgouldings": 26189,
    "Ġheartily": 6890,
    "cherries": 19759,
    "Ġexpecting": 10438,
    "Ġheated": 21685,
    "advise": 24220,
    "Ġjour": 11768,
    "Ġpooh": 18604,
    "bu": 5132,
    "Ġcomprises": 22576,
    "ushion": 14723,
    "eries": 6809,
    "Ġevening": 2652,
    "Ġasse": 8160,
    "Ġgoblet": 25824,
    "Ġdef": 1199,
    "Ġstraw": 9432,
    "ire": 492,
    "Ġaxe": 15064,
    "Ġpeak": 16130,
    "Ġmaximizing": 3169,
    "Ġconven": 6153,
    "Ġquaker": 10972,
    "reliable": 21243,
    "Ġporpoise": 7108,
    "Ġtypewriter": 19099,
    "Ġsuffered": 5649,
    "Ġwhitting": 18058,
    "Ġlamentations": 17077,
    "Ġimplicated": 24876,
    "Ġbaffled": 12407,
    "Ġchamois": 16802,
    "iality": 8848,
    "achines": 1721,
    "Ġsorts": 6887,
    "Ġapplying": 13096,
    "arling": 10816,
    "rop": 539,
    "meditated": 19074,
    "oko": 18441,
    "Ġexception": 11217,
    "Ġgirdle": 19160,
    "amb": 5723,
    "Ġjetted": 24431,
    "keeping": 8638,
    "Ġcrabs": 19176,
    "asiness": 8129,
    "Ġangrily": 9410,
    "affording": 23780,
    "Ġhighly": 4844,
    "Ġkeel": 6445,
    "Ġpal": 4041,
    "Ġlevers": 18080,
    "antically": 22100,
    "Ġleakage": 23460,
    "Ġvagabond": 20206,
    "disguise": 26307,
    "Ġexpatiate": 18624,
    "Ġcopying": 17070,
    "Ġsensitive": 13203,
    "gaz": 20880,
    "Ġdevoting": 22727,
    "Ġcoefficient": 2882,
    "Ġbatt": 13902,
    "general": 7490,
    "Ġfile": 13906,
    "Ġlavenza": 17973,
    "Ġmariners": 6069,
    "Ġcolleague": 17162,
    "Ġconcerning": 4068,
    "astrous": 15890,
    "twelve": 14624,
    "apan": 6860,
    "Ġwarn": 5695,
    "tain": 558,
    "Ġarmchair": 8271,
    "Ġrepublic": 14533,
    "Ġbowsprit": 16562,
    "Ġdisclosed": 15157,
    "?_": 8070,
    "ishe": 13894,
    "Ġappal": 18358,
    "anch": 15564,
    "headed": 4318,
    "eline": 2225,
    "Ġshoals": 13137,
    "Ġeleven": 9393,
    "Ġflowing": 14416,
    "Ġloves": 10916,
    "Ġ150": 22829,
    "august": 11072,
    "Ġquiver": 16006,
    "Ġbask": 8117,
    "bastian": 10676,
    "Ġcommod": 10336,
    "Ġexcess": 3342,
    "Ġthundering": 24293,
    "Ġjen": 9270,
    "sincere": 16909,
    "Ġrevolution": 3304,
    "voices": 21120,
    "cup": 10694,
    "Ġus": 497,
    "Ġworks": 5860,
    "Ġcomplaint": 24775,
    "ulatory": 15772,
    "Ġoblivion": 26032,
    "Ġmiscellaneous": 17465,
    "Ġexpressions": 7706,
    "myself": 5113,
    "activity": 22634,
    "]": 65,
    "showing": 22467,
    "Ġwash": 9706,
    "Ġeyed": 12672,
    "Ġearlier": 9090,
    "Ġannihilated": 20255,
    "ashed": 3785,
    "cold": 9592,
    "health": 13836,
    "Ġunlikely": 10909,
    "influences": 25251,
    "Ġdey": 11678,
    "Ġinsulated": 23679,
    "Ġnortheast": 23205,
    "Ġproprietor": 12377,
    "ust": 493,
    "Ġseem": 915,
    "Ġcalmer": 23045,
    "Ġimpressions": 9556,
    "Ġbride": 6293,
    "chester": 23809,
    "Ġallures": 22010,
    "Ġgradients": 612,
    "ino": 15482,
    "Ġkept": 3346,
    "Ġgrow": 2858,
    "Ġliable": 14231,
    "Ġunsophisticated": 25993,
    "Ġscheduling": 2350,
    "Ġhearers": 15707,
    "Ġmorality": 22983,
    "Ġfrantically": 23262,
    "departure": 15238,
    "Ġimpulses": 19965,
    "Ġhier": 1896,
    "ption": 7398,
    "Ġinsatiable": 19274,
    "pure": 17628,
    "Ġyarn": 10869,
    "Ġtribes": 20484,
    "Ġgrievances": 20650,
    "Ġglue": 15678,
    "Ġsavory": 23879,
    "Ġcautiously": 16979,
    "cork": 20798,
    "Ġ24": 13197,
    "atory": 6127,
    "Ġsolemnisation": 24116,
    "Ġfob": 21412,
    "mus": 10113,
    "hog": 8380,
    "etical": 13961,
    "james": 15376,
    "Ġwomen": 4749,
    "Ġsuperior": 2751,
    "Ġresid": 22542,
    "orated": 12596,
    "Ġutmost": 5496,
    "Ġwight": 12558,
    "Ġreflect": 6576,
    "greeting": 24554,
    "Ġinequalities": 26455,
    "rival": 12748,
    "Ġentic": 16150,
    "Ġkidnapping": 26358,
    "seaman": 25458,
    "Ġmaintains": 2144,
    "Ġshaded": 14108,
    "Ġbeast": 7180,
    "Ġveritable": 19384,
    "Ġincorpor": 13169,
    "trust": 21081,
    "Ġhampshire": 15246,
    "responsible": 25764,
    "distinct": 13340,
    "context": 3406,
    "frozen": 25142,
    "ana": 15563,
    "Ġhoky": 17929,
    "Ġrattler": 24998,
    "Ġallude": 12776,
    "atiable": 17776,
    "Ġanalog": 12617,
    "eur": 7546,
    "Ġsen": 9159,
    "Ġvillains": 14753,
    "onomy": 12552,
    "Ġexasper": 8469,
    "alarms": 21508,
    "Ġgoring": 21607,
    "Ġsanity": 24982,
    "Ġfaintest": 24570,
    "Ġcooking": 16649,
    "dred": 2528,
    "perseus": 26006,
    "traced": 19648,
    "Ġintim": 6838,
    "pig": 8756,
    "Ġexempt": 21832,
    "Ġpotential": 3619,
    "Ġhopelessly": 16382,
    "flesh": 13494,
    "Ġfloating": 6606,
    "stained": 21652,
    "Ġentra": 18694,
    "ding": 3025,
    "wandering": 20287,
    "Ġconsent": 5372,
    "nep": 20988,
    "Åĵ": 10746,
    "Ġcocoa": 25483,
    "Ġnegatived": 23049,
    "warning": 25532,
    "fri": 20856,
    "Ġdemoniacal": 20559,
    "Ġfading": 15588,
    "Ġstairs": 5541,
    "Ġnear": 1716,
    "ique": 8746,
    "Ġprodigy": 19795,
    "Ġblasphemy": 26116,
    "Ġhostile": 19943,
    "Ġstirred": 12222,
    "Ġgentlemanlike": 12071,
    "milk": 20480,
    "grown": 10102,
    "solic": 16383,
    "precedented": 15178,
    "hitherto": 17286,
    "Ġestimates": 3748,
    "Ġfervently": 25878,
    "Ġgpus": 3733,
    "problem": 25245,
    "Ġaccuse": 14214,
    "Ġaccumul": 1410,
    "Ġaccomplice": 24376,
    "Ġregimentals": 19860,
    "totally": 25418,
    "Ġrob": 1248,
    "known": 3567,
    "Ġfloats": 9416,
    "Ġemig": 14526,
    "fred": 20857,
    "unk": 4539,
    "ridden": 24362,
    "Ġtherein": 11780,
    "Ġecho": 12671,
    "Ġsluggish": 25891,
    "asol": 21543,
    "colonel": 8285,
    "perth": 22180,
    "Ġscold": 10951,
    "Ġholmes": 1309,
    "isting": 5551,
    "ler": 3491,
    "Ġapplications": 4783,
    "Ġattention": 1186,
    "eed": 20843,
    "increase": 20271,
    "Ġdeep": 804,
    "gging": 7698,
    "pless": 6262,
    "ordinate": 12881,
    "Ġtrifling": 10605,
    "Ġransacked": 26507,
    "Ġwounds": 17792,
    "Ġthreaten": 24374,
    "hump": 12482,
    "Ġturban": 23615,
    "Ġdevoutly": 25834,
    "Ġheaviest": 23329,
    "ily": 1033,
    "Ġmizzen": 20292,
    "Ġrifts": 21982,
    "Ġprocedural": 12035,
    "Ġremarked": 3697,
    "uesday": 8590,
    "Ġshrew": 22004,
    "Ġfamine": 16330,
    "speech": 10669,
    "Ġsnaky": 23744,
    "otam": 21802,
    "absolutely": 10648,
    "sensible": 20055,
    "Ġusefulness": 19411,
    "Ġbruited": 25774,
    "husband": 8042,
    "Ġparameters": 994,
    "Ġpermanently": 25474,
    "Ġdisposed": 7085,
    "nihil": 9848,
    "Ġarcher": 22189,
    "reme": 2424,
    "Ġprofoundest": 16862,
    "Ġdiscount": 22782,
    "Ġtobacco": 8367,
    "addition": 13388,
    "Ġexult": 10232,
    "osy": 11762,
    "Ġimpelled": 11786,
    "Ġpow": 4636,
    "Ġscandal": 9084,
    "arent": 4247,
    "Ġunwe": 15842,
    "Ġtimidity": 24688,
    "ref": 6516,
    "Ġgild": 15673,
    "Ġhorizontally": 17014,
    "avor": 14279,
    "nantucketer": 24975,
    "Ġiceberg": 14719,
    "Ġmulti": 1045,
    "Ġapplication": 2119,
    "Ġoaths": 13527,
    "Ġchronicle": 20231,
    "ius": 5789,
    "rough": 590,
    "reproach": 15190,
    "Ġinvesting": 19644,
    "splash": 25210,
    "best": 6113,
    "Ġportentous": 15233,
    "Ġrashly": 20308,
    "gh": 3803,
    "Ġregrets": 18593,
    "Ġrecollections": 10515,
    "Ġpharaoh": 26587,
    "Ġmatrim": 11061,
    "Ġpresence": 5030,
    "resembling": 25933,
    "Ġontario": 26206,
    "tossed": 10997,
    "philosop": 9570,
    "inished": 17736,
    "Ġtempted": 9059,
    "older": 15760,
    "Ġdus": 8424,
    "Ġbur": 2698,
    "Ġsquaw": 22846,
    "Ġordinary": 6098,
    "Ġfilled": 4396,
    "wide": 10140,
    "Ġori": 8410,
    "Ġwaterloo": 11985,
    "Ġdesires": 9460,
    "Ġwithin": 2163,
    "Ġinheriting": 25355,
    "chooses": 23673,
    "head": 1436,
    "mered": 8218,
    "Ġknocked": 9503,
    "iences": 6957,
    "prison": 14665,
    "hide": 10705,
    "matlock": 23471,
    "Ġidly": 16405,
    "Ġreasoned": 23088,
    "Ġslaves": 23172,
    "Ġtrail": 16285,
    "Ġupbraided": 26530,
    "isation": 13896,
    "green": 7117,
    "Ġexchanged": 10879,
    "anx": 8788,
    "vigorous": 25918,
    "study": 15121,
    "Ġoccurs": 1859,
    "Ġperiods": 13308,
    "Ġoutstretched": 14198,
    "Ġregained": 18591,
    "Ġsteepest": 3088,
    "Ġseparated": 9467,
    "Ġgrammar": 1062,
    "Ġfowl": 11331,
    "Ġtur": 2566,
    "Ġheire": 18039,
    "Ġbefall": 8833,
    "sensations": 20054,
    "Ġmassachusetts": 24025,
    "Ġspices": 22135,
    "unteered": 26497,
    "resemblance": 25934,
    "Ġbehind": 2804,
    "Ġlash": 8440,
    "Ġautumnal": 19048,
    "Ġclair": 6271,
    "ittingly": 18808,
    "Ġemploying": 23981,
    "Ġicelandic": 25887,
    "explanations": 25235,
    "Ġdisplay": 6429,
    "Ġtraces": 7946,
    "Ġprotectors": 9073,
    "Ġarg": 4765,
    "Ġcomparing": 14267,
    "Ġslippery": 12171,
    "Ġgun": 4701,
    "Ġafghan": 22630,
    "Ġguns": 16778,
    "Ġproviding": 1360,
    "Ġdefend": 9343,
    "Ġworked": 6585,
    "dug": 18463,
    "Ġconstitution": 20112,
    "Ġurging": 24505,
    "Ġencamped": 22805,
    "intolerable": 22941,
    "Ġgreen": 3052,
    "Ġfrank": 4421,
    "Ġtheories": 13852,
    "forgot": 11034,
    "este": 15925,
    "Ġreeds": 15700,
    "Ġsending": 8779,
    "Ġxli": 14543,
    "icuous": 10837,
    "ivility": 12792,
    "tit": 11529,
    "Ġever": 1180,
    "Ġscepticism": 25928,
    "Ġbigot": 24566,
    "tend": 17676,
    "Ġunstructure": 2991,
    "Ġworship": 10369,
    "ored": 3896,
    "Ġbert": 4582,
    "Ġbarrowful": 25596,
    "relu": 17761,
    "Ġkneeling": 12147,
    "roylott": 20030,
    "dum": 17520,
    "aits": 20768,
    "Ġperiodical": 14776,
    "Ġlingu": 11616,
    "Ġimaginative": 19249,
    "honey": 20907,
    "Ġ129": 24474,
    "ival": 4225,
    "igh": 2028,
    "Ġshun": 11713,
    "Ġglove": 14494,
    "adventure": 17236,
    "Ġmoods": 14954,
    "Ġindistinctly": 26118,
    "precipitance": 25868,
    "Ġfict": 21408,
    "Ġcoburg": 18598,
    "noted": 22754,
    "Ġsubsiding": 23436,
    "grampus": 18619,
    "Ġtart": 12533,
    "Ġvivid": 8058,
    "Ġoarsman": 8641,
    "warnings": 20354,
    "Ġopulence": 23629,
    "jointed": 24013,
    "ł": 259,
    "ernsey": 8905,
    "Ġstrait": 23752,
    "retched": 3067,
    "umps": 6319,
    "inguished": 6600,
    "gences": 20879,
    "rooms": 10434,
    "olet": 13769,
    "Ġhollow": 5648,
    "itud": 2928,
    "means": 9789,
    "j": 78,
    "Ġfear": 2279,
    "Ġsufferable": 16263,
    "gno": 13730,
    "Ġshoal": 12020,
    "Ġcondense": 21812,
    "perceive": 12814,
    "Ġauxiliary": 26420,
    "osen": 6855,
    "neighb": 16027,
    "Ġclosely": 6489,
    "user": 5105,
    "arying": 9804,
    "Ġlamb": 8817,
    "cast": 2925,
    "prow": 15414,
    "ught": 2749,
    "Ġrucastles": 18720,
    "Ġaffirm": 11891,
    "Ġsustenance": 19937,
    "Ġbelrive": 18833,
    "Ġwilled": 21294,
    "beware": 16044,
    "supplied": 10522,
    "honorable": 19903,
    "Ġforwards": 12708,
    "Ġpret": 3035,
    "Ġresolute": 19247,
    "ieving": 7033,
    "Ġvillage": 5774,
    "Ġbarely": 16938,
    "father": 3777,
    "Ġwooing": 19437,
    "Ġspring": 4120,
    "Ġchival": 14185,
    "Ġseizing": 7877,
    "Ġform": 1023,
    "Ġcheetah": 14505,
    "urg": 8142,
    "Ġmaketh": 15191,
    "lonely": 20959,
    "anatory": 21366,
    "Ġspine": 7407,
    "Ġclosest": 16765,
    "warks": 5003,
    "Ġlysander": 13142,
    "Ġgod": 1938,
    "destined": 24117,
    "dest": 4103,
    "Ġpleased": 4063,
    "structure": 2226,
    "obli": 23098,
    "shake": 22461,
    "prince": 23818,
    "Ġfinancial": 23131,
    "wondering": 19847,
    "mouthed": 12404,
    "Ġforcibly": 10064,
    "ensing": 12901,
    "Ġslung": 23171,
    "Ġintelligences": 12836,
    "arily": 4125,
    "Ġsuffers": 2971,
    "Ġstole": 7953,
    "continuing": 24479,
    "Ġvig": 5460,
    "Ġeag": 2964,
    "icit": 3379,
    "Ġdisposal": 19379,
    "emorial": 10246,
    "mblings": 19783,
    "throt": 25660,
    "ishments": 9276,
    "deepest": 22837,
    "Ġmanx": 7905,
    "Ġfrosts": 19805,
    "had": 1953,
    "impatience": 25501,
    "Ġrefrain": 12952,
    "Ġcurv": 3511,
    "Ġmisanthrop": 22762,
    "Ġclo": 6046,
    "Ġveteran": 17453,
    "anning": 10167,
    "civilities": 24974,
    "Ġrecall": 3857,
    "beg": 22491,
    "Ġunqualified": 22063,
    "Ġflows": 13015,
    "Ġturner": 7051,
    "Ġdeclare": 6616,
    "Ġelemental": 19921,
    "Ġu": 324,
    "Ġcommodore": 12399,
    "Ġger": 21594,
    "Ġgunwales": 12245,
    "ulls": 8842,
    "Ġdwelling": 7322,
    "Ġlunacy": 20031,
    "Ġbrutality": 26278,
    "bond": 17492,
    "Ġwa": 1753,
    "Ġwidest": 24237,
    "Ġwooden": 4729,
    "Ġislets": 21805,
    "Ġsoar": 18283,
    "piling": 15418,
    "killed": 15380,
    "block": 11471,
    "Ġmund": 21320,
    "Ġcompassionate": 24722,
    "inced": 3335,
    "Ġhis": 380,
    "Ġumbrella": 15269,
    "Ġinhab": 5083,
    "Ġtashtego": 4487,
    "grounds": 11152,
    "gg": 1996,
    "uff": 2730,
    "Ġtheirs": 7026,
    "Ġforge": 8458,
    "exercise": 17462,
    "/`)": 13664,
    "lesc": 11040,
    "sombre": 23857,
    "four": 6115,
    "Ġcarry": 4778,
    "Ġinteraction": 7424,
    "Ġdesist": 16243,
    "Ġburtons": 19255,
    "Ġilliter": 23470,
    "Ġjumping": 13346,
    "Ġson": 2980,
    "sets": 17662,
    "âĢĶâĢĻâĢĿ": 20067,
    "Ġcoppers": 22588,
    "Ġresumed": 11816,
    "Ġ75": 19615,
    "Ġprocuring": 16872,
    "Ġunluckily": 20105,
    "Ġalternating": 15033,
    "Ġpuzzle": 11306,
    "Ġredeemed": 25790,
    "Ġbeds": 14553,
    "unctions": 18158,
    "Ġtedious": 15271,
    "alleled": 14432,
    "unavoidable": 17393,
    "silver": 19693,
    "Ġsufficiently": 8976,
    "influ": 9544,
    "Ġblight": 18819,
    "restoration": 23240,
    "Ġyawn": 7611,
    "aution": 9391,
    "Ġconsists": 11982,
    "olerable": 7183,
    "Ġminutely": 14562,
    "Ġmagistrate": 8234,
    "correspond": 13402,
    "Ġmanifold": 13564,
    "fell": 6953,
    "Ġwhirling": 12253,
    "Ġcastors": 23979,
    "batim": 25019,
    "Ġdismissed": 12897,
    "Ġlinn": 13956,
    "instances": 13324,
    "Ġembraced": 10009,
    "Ġdeserved": 7737,
    "Ġnailed": 10192,
    "urday": 13997,
    "utional": 17986,
    "itions": 4146,
    "Ġ275": 20114,
    "ccarthy": 4888,
    "Ġbraced": 16582,
    "see": 3047,
    "utting": 17987,
    "Ġdiv": 3732,
    "Ġfacts": 2290,
    "Ġseparately": 13307,
    "Ġamendment": 26025,
    "Ġcountess": 11968,
    "tram": 19646,
    "Ġsheeted": 19834,
    "Ġmuffled": 10643,
    "philosophy": 13584,
    "Ġfasten": 11133,
    "companions": 15026,
    "carefully": 13373,
    "savagery": 25028,
    ":--âĢľ": 24550,
    "execut": 13659,
    "suffer": 24329,
    "Ġsuperiors": 23456,
    "Ġelementary": 24811,
    "Ġdescent": 968,
    "continuance": 19721,
    "Ġlasted": 11055,
    "Ġsubsets": 2346,
    "Ġcascade": 20584,
    ".": 18,
    "Ġapothecary": 13663,
    "beloved": 19464,
    "âĢĶâĢĻ": 8188,
    "Ġhearses": 20063,
    "desired": 9008,
    "quickness": 19853,
    "tur": 5688,
    "Ġarchly": 22779,
    "appears": 12064,
    "Ġstability": 1362,
    "girdling": 26391,
    "Ġclaimed": 14208,
    "Ġconfusing": 23311,
    "iard": 9604,
    "Ġrelative": 11887,
    "simple": 13456,
    "Ġmainz": 22651,
    "Ġcocks": 18596,
    "allowed": 5728,
    "Ġaw": 2512,
    "devouring": 24953,
    "Ġausten": 5882,
    "Ġmisery": 3816,
    "Ġadaptive": 1319,
    "ô": 181,
    "Ġarmy": 11745,
    "Ġoccupy": 14734,
    "Ġdisent": 22527,
    "Ġtire": 17722,
    "Ġseveral": 2672,
    "cons": 4309,
    "verse": 9691,
    "Ġexpanded": 14292,
    "Ġconcre": 16391,
    "Ġadieu": 10054,
    "Ġdisputes": 25826,
    "ulled": 14059,
    "Ñ": 146,
    "neying": 22453,
    "Ġfar": 1449,
    "courage": 17512,
    "Ġpublisher": 24071,
    "conversations": 24748,
    "derest": 18315,
    "Ġfrosty": 14938,
    "larger": 24205,
    "adequately": 20322,
    "Ġtertiary": 15298,
    "ger": 1109,
    "Ġdeacon": 18143,
    "gris": 8260,
    "Ġbizarre": 17873,
    "Ġconvers": 2904,
    "Ġprovoking": 16745,
    "âĢĶâĢĿ": 3299,
    "Ġobliterated": 17408,
    "Ġseedy": 21959,
    "Ġdexter": 9704,
    "Ġlightnings": 16359,
    "Ġoperate": 19117,
    "Ġh": 290,
    "est": 502,
    "any": 3337,
    "alterable": 13628,
    "ĠâĢľ_": 6698,
    "crazy": 24692,
    "Ġexceeded": 14436,
    "arms": 10176,
    "Ġjonas": 20612,
    "Ġfigure": 4205,
    "rer": 3622,
    "Ġmerged": 19299,
    "Ġoct": 10161,
    "âĢĿ--": 21820,
    "ff": 462,
    "Ġdong": 17889,
    "Ġflowery": 16236,
    "Ġdisconsolate": 20721,
    "Ġ35": 24081,
    "Ġprow": 6686,
    "Ġfevers": 22211,
    "--": 1043,
    "rigible": 24932,
    "alogue": 25163,
    "Ġjunk": 15957,
    "Ġevangelists": 20342,
    "breadth": 20279,
    "Ġstacks": 18077,
    "aloud": 17943,
    "eag": 20844,
    "Ġprogram": 12997,
    "ittle": 812,
    "Ġherein": 16194,
    "Ġlighted": 7065,
    "yourselves": 24959,
    "Đ": 209,
    "thrill": 25657,
    "Ġruggedness": 26269,
    "nals": 16401,
    "emy": 14078,
    "Ġhoard": 23355,
    "Ġrays": 10333,
    "Ġunfl": 22022,
    "Ġnote": 4263,
    "can": 1233,
    "Ġhalloa": 13321,
    "Ġtalker": 23374,
    "Ġhammer": 6095,
    "Ġdogs": 7742,
    "Ġdanger": 3519,
    "iscuits": 24667,
    "),": 1347,
    "Ġcorps": 13038,
    "Ġjoky": 18407,
    "Ġsunda": 13547,
    "Ġaccidental": 16850,
    "Ġlin": 10835,
    "Ġfurled": 22817,
    ";âĢĶ": 3750,
    "Ġdash": 8122,
    "Ġwits": 15535,
    "Ġclamorous": 24910,
    "dilig": 17285,
    "Ġreply": 4515,
    "vard": 21113,
    "_.": 2213,
    "Ġ550": 19639,
    "obedience": 17413,
    "Ġsam": 7570,
    "Ġbodings": 21394,
    "Ġsmiles": 6708,
    "Ġmounts": 17808,
    "Ġstrongly": 5657,
    "Ġresent": 6050,
    "Ġintently": 8169,
    "Ġponies": 21475,
    "sw": 4740,
    "Ġcontinental": 19708,
    "connect": 1292,
    "Ġeleg": 6194,
    "Ġsmack": 9303,
    "Ġdeclares": 16994,
    "Ġbulge": 23860,
    "Ġbern": 17860,
    "Ġsoftened": 11103,
    "representing": 25272,
    "Ġbrazier": 26322,
    "iating": 3206,
    "aren": 10077,
    "Ġrisk": 8039,
    "Ġprophecy": 25706,
    "Ġloading": 15878,
    "Ġencapsulate": 13678,
    "murderers": 25728,
    "ert": 2632,
    "Ġgrass": 5177,
    "Ġrocks": 6863,
    "iles": 2860,
    "Ġunlike": 7006,
    "Ġgravely": 7883,
    "Ġbanish": 15574,
    "ds": 4687,
    "Ġendeavours": 8621,
    "supervised": 1949,
    "Ġmental": 21322,
    "Ġunusually": 15850,
    "relative": 24016,
    "Ġshrieking": 24757,
    "doubted": 17528,
    "Ġundivided": 24123,
    "Ġupdating": 2691,
    "Ġillustration": 19137,
    "antingly": 22102,
    "Ġcompany": 3722,
    "Ġarter": 22187,
    "min": 4571,
    "gi": 17553,
    "ĠĠĠĠĠĠĠĠĠĠĠĠĠĠĠĠĠĠĠĠĠĠĠĠĠĠĠĠĠĠĠĠĠĠĠĠĠĠĠĠĠĠ": 24212,
    "Ġfragrant": 13099,
    "Ġadequ": 10914,
    "Ġslack": 8958,
    "generations": 23788,
    "Ġbaboon": 19696,
    "ernal": 4312,
    "Ġnaval": 16901,
    "evening": 7091,
    "Ġcorrupt": 11927,
    "Ġcondem": 6340,
    "izard": 10884,
    "Ġquarrel": 7292,
    "astes": 11743,
    "Ġundoubtedly": 8313,
    "Ġpepper": 9784,
    ",âĢĿâĢĶ": 14223,
    "lynes": 15708,
    "collected": 13217,
    "construction": 19781,
    "Ġderision": 16313,
    "umst": 2506,
    "Ġreynolds": 10212,
    "Ġdivine": 6921,
    "bular": 15317,
    "transform": 8050,
    "tedious": 22635,
    "sculptured": 26047,
    "snowy": 20286,
    "Ġnarrating": 24351,
    "Ġlump": 21555,
    "ounded": 9751,
    "Ġstubborn": 10416,
    "Ġbanners": 24859,
    "Ġhousings": 21496,
    "Ġpulled": 5660,
    "longer": 8616,
    "despond": 19803,
    "Ġcynical": 25771,
    "Ġomniscient": 20089,
    "Ġmortally": 23920,
    "Ġaudio": 24771,
    "Ġclung": 10962,
    "ushing": 5731,
    "cabin": 8363,
    "Ġroots": 11186,
    "Ġmenacing": 23111,
    "Ġcorridor": 10674,
    "specimen": 26607,
    "furn": 10094,
    "Ġreb": 15695,
    "Ġbeckoned": 25794,
    "'": 11,
    "edmund": 17948,
    "Ġbullion": 24986,
    "Ġcivilized": 8668,
    "Ġexpanding": 25239,
    "ases": 1519,
    "Ġappeal": 16318,
    "Ġgambler": 26192,
    "ither": 1543,
    "berries": 22750,
    "itarian": 21340,
    "Ġflip": 11917,
    "Ġplun": 6283,
    "Ġmetaphys": 16386,
    "grees": 20888,
    "Ġsentry": 19027,
    "Ġbrig": 11048,
    "Ġbreathed": 11221,
    "Ġunlimited": 26224,
    "Ġlifeless": 8951,
    "Ġflatt": 16251,
    "Ġgardens": 16454,
    "Ġpropose": 9856,
    "Ġwatson": 3597,
    "empl": 5724,
    "Ġfeet": 2261,
    "Ġample": 11802,
    "Ġsepulch": 15288,
    "Ġjourneys": 19478,
    "Ġconcert": 11971,
    "Ġaband": 6563,
    "mur": 5428,
    "Ġrejecting": 17052,
    "Ġkilling": 13337,
    "Ġmend": 8407,
    "anc": 6380,
    "Ġbegg": 16257,
    "maged": 15397,
    "zors": 21150,
    "Ġphilist": 16603,
    "art": 586,
    "chastic": 2335,
    "constantly": 24607,
    "Ġprick": 14479,
    "Ġsleeve": 20143,
    "Ġengaging": 9339,
    "Ġmasonry": 13603,
    "itect": 981,
    "Ġopens": 23628,
    "Ġwhisker": 23938,
    "Ġdisgraceful": 15022,
    "Ġnecks": 18182,
    "Ġdrown": 6816,
    "Ġtimber": 13354,
    "feature": 3792,
    "Ġunw": 7005,
    "Ġintolerable": 8484,
    "Ġlay": 583,
    "Ġproof": 6155,
    "Ġidle": 8253,
    "fer": 1877,
    "Ġtiller": 8968,
    "Ġgaz": 4043,
    "Ġdev": 891,
    "causes": 20346,
    "Ġpark": 5465,
    "Ġpained": 19169,
    "Ġcalculated": 4476,
    "Ġhebrew": 13991,
    "acked": 10974,
    "Ġconstant": 6311,
    "usages": 22294,
    "choose": 23672,
    "Ġpianoforte": 15277,
    "Ġconfl": 11139,
    "Ġpython": 1069,
    "Ġfaintness": 24571,
    "Ġvelvet": 12402,
    "metallic": 19882,
    "ult": 722,
    "coloured": 7291,
    "ascertaining": 26462,
    "earth": 6503,
    "\"": 6,
    "Ġhome": 2027,
    "fel": 8737,
    "icha": 11742,
    "Ġopened": 3512,
    "Ġcalling": 5662,
    "Ġ26": 10472,
    "Ġaverted": 16258,
    "Ġseclusion": 18207,
    "Ġpalmy": 19502,
    "Ġcollins": 2181,
    "zor": 15461,
    "Ġgreece": 17071,
    "Ġscared": 14192,
    "Ġcorroded": 18878,
    "web": 18665,
    "bone": 5612,
    "Ġlean": 7607,
    "trampled": 26335,
    "Ġcan": 469,
    "Ġprinc": 4198,
    "blocks": 25518,
    "Ġboldness": 24428,
    "hen": 3517,
    "Ġpaces": 13922,
    "emberley": 4170,
    "algorithms": 8299,
    "Ġsuburban": 17349,
    "Ġunbending": 25465,
    "formal": 14170,
    "Ġacknowledged": 7535,
    "prevailed": 17348,
    "Ġpiled": 8426,
    "embraces": 25806,
    "news": 23135,
    "Ġchart": 10946,
    "Ġdavy": 25952,
    "Ġshutting": 14763,
    "parable": 16409,
    "Ġbishop": 13905,
    "Â·": 21152,
    "moonlight": 25376,
    "adventurous": 25362,
    "medical": 23346,
    "gl": 3290,
    "Ġfatally": 19397,
    "tan": 4741,
    "progress": 11992,
    "Ġbrace": 11212,
    "arrang": 14654,
    "idy": 21768,
    "Ġclerks": 17298,
    "Ġponder": 6819,
    "Ġclient": 5556,
    "Ġmem": 2164,
    "assistant": 25568,
    "crated": 16685,
    "danced": 20830,
    "Ġcigar": 9548,
    "Ġanvil": 11599,
    "Ġnoisy": 13323,
    "Ġhadn": 9722,
    "caroline": 24152,
    "Ġpatroness": 13512,
    "ility": 624,
    "elled": 3991,
    "ium": 4864,
    "historian": 25735,
    "Ġsuggest": 5417,
    "rible": 3226,
    "Ġagreeable": 4552,
    "Ġcommands": 16591,
    "standers": 18478,
    "gallantry": 15061,
    "iv": 432,
    "uding": 16152,
    "Ġmarking": 16471,
    "be": 672,
    "lizzy": 6654,
    "ately": 1698,
    "Ġsmart": 11819,
    "Ġampl": 22484,
    "Ġventing": 19496,
    "Ĩ": 233,
    "Ġirene": 8445,
    "Ġproduct": 3533,
    "Ġdisposing": 19378,
    "Ġ2": 2926,
    "Ġinvented": 17038,
    "zza": 24170,
    "Ġconcentrate": 25066,
    "inside": 23068,
    "Ġeventually": 8620,
    "Ġargument": 7100,
    "appetite": 22854,
    "mbling": 3345,
    "rebellum": 26166,
    "Ġless": 1940,
    "Ġbaggy": 24538,
    "command": 6578,
    "Ġprosperity": 20260,
    "Ġsomething": 1794,
    "Ġimmeas": 18331,
    "Ġpersuaded": 5769,
    "Ġalways": 1695,
    "stirring": 20429,
    "vol": 731,
    "groom": 8743,
    "Ġxvi": 19106,
    "Ġtargets": 4203,
    "guest": 19485,
    "Ġunderstood": 5655,
    "Ġmorocc": 22984,
    "Ï": 144,
    "Ġunusual": 6555,
    "Ġcalves": 13040,
    "ppery": 10893,
    "igantic": 5539,
    "Ġtogether": 1880,
    "Ġpalpable": 15209,
    "Ġflatter": 9351,
    "copyright": 5278,
    "Ġdesolate": 10016,
    "Ġsundry": 20077,
    "Ġhav": 12759,
    "È": 137,
    "Ġwatchful": 16528,
    "Ġgaff": 17996,
    "marvell": 24175,
    "Ġcharity": 8866,
    "Ġassures": 14468,
    "interests": 19711,
    "cracy": 24691,
    "Ġmissed": 8559,
    "Ġtwisted": 7228,
    "idol": 21770,
    "Ġsummons": 13236,
    "Ġpurch": 6601,
    "Ġprop": 1679,
    "accompl": 9883,
    "iters": 21332,
    "Ġcetology": 10012,
    "Ġmaelstrom": 19359,
    "whip": 22241,
    "edged": 15635,
    "Ġvastly": 23863,
    "dled": 9114,
    "agged": 9240,
    "ificant": 22210,
    "consideration": 14958,
    "ocr": 10469,
    "remarkable": 13501,
    "hab": 1078,
    "low": 657,
    "asleep": 21547,
    "Ġestablished": 9072,
    "linen": 25258,
    "Ġpassions": 7930,
    "elt": 4115,
    "Ġdashing": 8800,
    "glimmer": 26323,
    "._": 3219,
    "Ġdesperado": 19822,
    "Ġ}": 21156,
    "Ġimperson": 14221,
    "idually": 21773,
    "Ġlounged": 19957,
    "Ġtracks": 18891,
    "Ġhinges": 15216,
    "Ġperpet": 7646,
    "Ġdistinguished": 8273,
    "Ġcongreg": 8464,
    "Ġsentences": 2682,
    "inclined": 10642,
    "Ġdazzling": 15215,
    "Ġhighness": 22774,
    "&": 10,
    "Ġminima": 3464,
    "Ġidentical": 10436,
    "Ġplaymate": 23639,
    "cus": 3979,
    "Ġflap": 14425,
    "Ġwafted": 14501,
    "meditation": 19073,
    "Ġabsent": 7016,
    "Ġstam": 18068,
    "fam": 5990,
    "usion": 3300,
    "Ġexamples": 2605,
    "Ġincarnation": 25574,
    "Ġproduce": 4368,
    "Ġhails": 21954,
    "Ġenormity": 19698,
    "Ġgro": 4398,
    "Ġpeaceful": 9459,
    "Ġrapt": 7227,
    "Ġreligions": 20111,
    "Ġtransport": 11279,
    "Ġmartyr": 26362,
    "Ġcoherent": 3262,
    "Ġladies": 3194,
    "affections": 17359,
    "ifference": 5632,
    "Ġsuperhuman": 23454,
    "wish": 8100,
    "sit": 13783,
    "rudently": 16712,
    "Ġunobserved": 18250,
    "Ġlids": 12280,
    "Ġimages": 1599,
    "reg": 2184,
    "Ġunsuccessful": 18258,
    "p": 84,
    "Ġinvoluntary": 18765,
    "Ġjumbled": 22301,
    "Ġgreater": 3037,
    "Ġsatisfying": 23696,
    "å": 166,
    "Ġhusbands": 16645,
    "ribly": 8255,
    "Ġhugh": 15006,
    "R": 54,
    "Ġrecommendation": 17027,
    "Ġguidance": 9420,
    "Ġprovinces": 24193,
    "Ġvenerable": 9097,
    "Ġarsacides": 17297,
    "Ġcryst": 9920,
    "Ġplumage": 17301,
    "Ġconsulted": 13434,
    "Ġlengths": 19209,
    "ubbub": 23246,
    "desc": 1393,
    "Ġdisapprobation": 16061,
    "ested": 3479,
    "Ġprisoner": 8676,
    "laid": 10112,
    "jure": 20926,
    "ensity": 11817,
    "Ġmidway": 14607,
    "Ġscra": 5841,
    "offices": 19065,
    "prit": 19345,
    "browed": 25895,
    "es": 289,
    "ind": 568,
    "Ġdiamond": 15603,
    "Ġbrill": 8552,
    "shed": 8095,
    "geons": 15983,
    "Ġstudy": 1763,
    "Ġcover": 3556,
    "Ġunwearied": 20605,
    "hap": 17561,
    "hies": 17562,
    "Ġjerked": 19835,
    "Ġhedgehog": 10647,
    "Ġlet": 1115,
    "Ġpersonages": 23544,
    "Ġanswer": 2599,
    "illes": 12699,
    "Ġerud": 20058,
    "giving": 8742,
    "cl": 1492,
    "Ġrevolutions": 23845,
    "Ġblew": 9048,
    "Ġvect": 1224,
    "Ġenh": 2931,
    "Ġspeaker": 19150,
    "Ġtalking": 3859,
    "Ġcombinations": 22843,
    "surprise": 9533,
    "istrate": 7406,
    "Ġdeactivates": 20706,
    "Ġmiller": 19885,
    "sham": 9764,
    "Ġhurricane": 16434,
    "Ġcolour": 4462,
    "Ġwrapt": 24596,
    "grant": 10429,
    "none": 6962,
    "Ġsatisfied": 4171,
    "ribs": 23368,
    "Ġbalance": 2020,
    "Ġcauses": 2562,
    "Ġdoors": 6419,
    "vings": 9756,
    "Ġpenalizing": 13095,
    "Ġboots": 5944,
    "sort": 6799,
    "Ġragged": 11850,
    "harpoone": 6109,
    "Ġturning": 3326,
    "Ġhumiliating": 22888,
    "Ġmenaces": 23110,
    "shipped": 18497,
    "Ġsog": 22088,
    "conside": 9293,
    "Ġworldly": 16333,
    "ectual": 21919,
    "Ġrecalled": 8540,
    "Ġpriests": 15043,
    "Ġthen": 669,
    "rices": 4559,
    "Ġhammock": 5768,
    "Ġexquisitely": 20205,
    "altering": 12645,
    "Ġpredomin": 16040,
    "dling": 15343,
    "ooping": 21009,
    "cuniary": 26381,
    "¿": 128,
    "Ġreported": 11984,
    "the": 334,
    "Ġunfaltering": 24115,
    "kered": 18275,
    "Ġvessel": 3801,
    "uc": 1878,
    "unusually": 15784,
    "Ġfaster": 3198,
    "Ġamiable": 4269,
    "Ġcommis": 22674,
    "Ġretarded": 23075,
    "Ġtransactions": 18483,
    "Ġdisadvantage": 12895,
    "solute": 16600,
    "olog": 1100,
    "Ġflourished": 15129,
    "Ġawed": 23587,
    "Ġdepartment": 24244,
    "nns": 1895,
    "Ġsteals": 23087,
    "Ġhopeful": 19032,
    "Ġnone": 3222,
    "disappeared": 14571,
    "Ġt": 261,
    "Ġdivision": 19447,
    "wondrous": 12342,
    "Ġunallied": 22034,
    "Ġtransition": 14236,
    "embedding": 20360,
    "Ġ184": 16609,
    "australian": 20564,
    "mean": 6439,
    "Ġpouring": 12629,
    "oil": 7805,
    "og": 866,
    "Ġoverwhelming": 17103,
    "ruck": 6848,
    "Ġjacket": 6490,
    "Ġpulse": 13119,
    "Ġshel": 6847,
    "pendicular": 6500,
    "Ġcreat": 1435,
    "mount": 9132,
    ".âĢĶ": 4246,
    "Ġproverb": 12721,
    "Ġ114": 24438,
    "helpless": 16792,
    "Ġcurled": 8226,
    "conception": 22478,
    "bitious": 16672,
    "Ġbooks": 4675,
    "Ġstayed": 7998,
    "Ġmeddle": 20580,
    "Ġsibbald": 21233,
    "Ġprodigious": 8057,
    "Ġ73": 24263,
    "rib": 1948,
    "Ġdad": 12605,
    "Ġendure": 5957,
    "Ġwilling": 7421,
    "Ġaspired": 25985,
    "stupid": 12680,
    "Ġcensus": 15100,
    "Ġenveloping": 19737,
    "mpus": 13760,
    "sunlight": 24852,
    "edd": 1218,
    "Ġoutputs": 2884,
    "relig": 15515,
    "Ġunwinding": 22062,
    "iliar": 15718,
    "Ġfunction": 591,
    ")âĢĶ": 20744,
    "enge": 21283,
    "keep": 3852,
    "Ġdilatory": 24704,
    "Ġarrang": 2468,
    "Ġunmo": 12778,
    "Ġsheer": 14153,
    "Ġcongenial": 12414,
    "Ġdrooping": 9423,
    "vert": 15719,
    "Ġcloudless": 16671,
    "Ġencoura": 1366,
    "Ġhereafter": 9333,
    "oak": 21005,
    "Ġinspire": 12000,
    "Ġmute": 19419,
    "Ġflask": 3039,
    "Ġrabbit": 4289,
    "Ġwhalers": 8048,
    "Ġshrink": 14807,
    "Ġsnatched": 10473,
    "ĠarchÃ¦": 22780,
    "Ġinsc": 7587,
    "Ġexamined": 6336,
    "Ġpatentee": 25587,
    "=": 33,
    "empty": 23636,
    "Ġnightgown": 23134,
    "pra": 15410,
    "Ġgra": 415,
    "conqu": 14247,
    "Ġdiscrimin": 2546,
    "Ġpossessing": 16578,
    "aries": 6246,
    "Ġce": 3031,
    "asions": 12656,
    "ometer": 19328,
    "unhes": 21879,
    "rugged": 6849,
    "ill": 447,
    "mense": 4779,
    "Ġchiswick": 25561,
    "onday": 6065,
    "Ġbathe": 25444,
    "Ġabrupt": 9739,
    "Ġbutts": 15859,
    "Ġejaculation": 20257,
    "Ġword": 1052,
    "Ġ180": 16608,
    "Ġparm": 15881,
    "Ġincognita": 26553,
    "Ġcastor": 19430,
    "dream": 8731,
    "Ġjet": 5309,
    "Ġentail": 9796,
    "Ġunconquerable": 22065,
    "whispering": 26104,
    "Ġleisure": 6541,
    "Ġantagonist": 26330,
    "ential": 826,
    "convers": 6569,
    "impressed": 12696,
    "inferences": 17741,
    "Ġeyelids": 26108,
    "far": 5787,
    "Ġcursed": 6728,
    "Ġprank": 23219,
    "Ġwaterward": 23370,
    "ralian": 19603,
    "miserably": 24213,
    "Ġphysi": 9991,
    "Ġhookah": 16972,
    "Ġcoals": 16079,
    "Ġbaptized": 25775,
    "Ġdisciple": 22784,
    "Ġcollecting": 12290,
    "Ġuns": 15840,
    "Ġamerican": 5061,
    "wanted": 10745,
    "Ġpant": 10819,
    "nne": 20991,
    "Ġ1869": 19387,
    "unable": 14062,
    "Ġcomposed": 8895,
    "Ġor": 437,
    "ittarius": 22381,
    "ague": 3907,
    "Ġelevates": 24503,
    "Ġcheese": 9380,
    "vocabulary": 25088,
    "Ġprocedure": 2806,
    "Ġcomplex": 750,
    "proper": 7472,
    "Ġbolts": 16945,
    "Ġimage": 3405,
    "Ġprovocation": 24194,
    "aphs": 22339,
    "nailed": 20998,
    "I": 45,
    "foundation": 16716,
    "Ġdeposed": 16090,
    "Ġwhel": 15870,
    "Ġaccursed": 9456,
    "allions": 22202,
    "ricade": 13043,
    "oters": 21803,
    "Ġforehead": 5262,
    "inu": 1119,
    "Ġdeclining": 23967,
    "Ġblubber": 5666,
    "Ġwaiting": 4323,
    "Ġfielding": 16250,
    "fooled": 24419,
    "Ġwearer": 21927,
    "mutually": 26137,
    "Ġrights": 10399,
    "Ġtracing": 18890,
    "Ġgrasp": 4663,
    "ulations": 6030,
    "Ġtenderest": 23553,
    "archical": 1929,
    "Ġturn": 1298,
    "Ġmarvell": 7248,
    "Ġfrequencies": 4788,
    "Ġdollar": 25284,
    "Ġdebility": 24275,
    "verize": 21732,
    "Ġconsc": 4274,
    "suited": 22644,
    "Ġmuch": 923,
    "gryphon": 15362,
    "disaster": 23496,
    "Ġturbul": 23614,
    "Ġinnocent": 4921,
    "Ġsuspicion": 6213,
    "iocr": 20925,
    "Ġmoby": 3665,
    "Ġfangs": 12602,
    "Ġrobes": 16237,
    "Ġplain": 2813,
    "wretch": 17710,
    "Ġimpious": 15990,
    "Ġomn": 8411,
    "Ġdesmarest": 22986,
    "Ġhesitating": 16949,
    "Ġbarriers": 23797,
    "agreeable": 5830,
    "Ġhaunt": 18198,
    "enged": 23148,
    "Ġobliter": 14325,
    "poise": 6173,
    "educated": 17262,
    "Ġcompacted": 23511,
    "Ġdismember": 20218,
    "ladies": 9532,
    "Ġluxury": 20135,
    "oss": 10118,
    "Ġfatality": 12100,
    "Ġcarav": 18903,
    "Ġceremonies": 24837,
    "ferent": 4193,
    "Ġmungo": 25632,
    "Ġchilian": 25564,
    "Ġseated": 4541,
    "Ġguar": 23047,
    "Ġbroods": 23106,
    "Ġcomprehen": 5350,
    "quee": 4129,
    "Ġapples": 22221,
    "Ġrally": 21975,
    "Ġlunch": 13529,
    "Ġleaky": 2347,
    "Ġsimilarly": 24310,
    "Ġsoda": 25535,
    "Ġgulf": 10638,
    "isen": 10794,
    "Ġjurymen": 16849,
    "Ġundeserving": 18269,
    "Ġcounterpane": 11344,
    "hampshire": 23268,
    "phren": 22802,
    "Ġlongest": 18630,
    "Ġac": 844,
    "erie": 21273,
    "Ġstrong": 1787,
    "Ġsammy": 24933,
    "bones": 8372,
    "Ġcreaking": 14332,
    "Ġbubb": 12589,
    "Ġuntamed": 19166,
    "Ġhateful": 19716,
    "igner": 21705,
    "Ġsetbacks": 11064,
    "Ġmolasses": 25629,
    "Ġell": 17717,
    "ifies": 6688,
    "generous": 16571,
    "presum": 12873,
    "A": 37,
    "Ġautomation": 13273,
    "Ġcoupled": 16853,
    "Ġand": 295,
    "blast": 9590,
    "soldiers": 25912,
    "orse": 5807,
    "wise": 2577,
    "imental": 16534,
    "Ġequinox": 25857,
    "Ġbewitched": 25976,
    "Ġstrung": 22621,
    "illustration": 2285,
    "Ġequalled": 13317,
    "worked": 19021,
    "owal": 13999,
    "Ġscant": 22284,
    "Ġmanip": 8875,
    "ixed": 4851,
    "ĠĠĠĠĠĠĠĠĠĠĠĠ": 12905,
    "somewhere": 12017,
    "give": 4688,
    "tolerable": 17690,
    "Ġacted": 7422,
    "Ġostentatious": 25737,
    "Ġupbraid": 18319,
    "Ġadded": 2716,
    "announced": 19762,
    "Ġcompanion": 3644,
    "contrast": 25595,
    "Ã¦": 4338,
    "Ġint": 410,
    "Ġbabel": 24426,
    "Ġpupella": 20425,
    "society": 9975,
    "Ġblowing": 10487,
    "isf": 2434,
    "Ġstake": 14006,
    "Ġwisest": 11233,
    "super": 5945,
    "Ġsolutions": 1950,
    "venerable": 26410,
    "Ġwherever": 8526,
    "Ġeagle": 13206,
    "umed": 6556,
    "Ġrhine": 12360,
    "pshire": 21026,
    "xter": 9149,
    "Ġclutches": 20021,
    "cies": 1814,
    "disinterested": 23504,
    "Ġreigns": 21674,
    "triumph": 15443,
    "Ġmanipulation": 10661,
    "utted": 15665,
    "van": 7814,
    "Ġsmith": 16068,
    "Ġhaught": 10255,
    "Ġloved": 4599,
    "Ġdistant": 5387,
    "Ġtravelling": 11308,
    "decor": 23783,
    "overing": 6308,
    "Ġoppression": 23652,
    "Ġsangu": 15507,
    "Ġpap": 8802,
    "õ": 182,
    "pane": 10123,
    "Ġsun": 1718,
    "Ġdisdain": 8360,
    "gr": 2085,
    "Ġinvari": 6530,
    "decl": 8860,
    "Ġrobbed": 22974,
    "Ġmillar": 13864,
    "Ġharvard": 24574,
    "ached": 2323,
    "Ġamours": 22485,
    "allen": 22200,
    "Ġassert": 7122,
    "receive": 12547,
    "Ġsheets": 9725,
    "nlp": 8754,
    "jammed": 25907,
    "azine": 19132,
    "{": 95,
    "onted": 11569,
    "chers": 11318,
    "Ġpanthe": 19656,
    "officers": 10630,
    "Ġginger": 9213,
    "Ġhollowly": 24526,
    "enari": 21284,
    "Ġpunctures": 25136,
    "Ġquit": 5247,
    "Ġmerely": 3771,
    "Ġsurm": 7477,
    "Ġendangered": 16307,
    "rious": 11692,
    "Ġwilds": 16511,
    "umbria": 23898,
    "Ġthrown": 4639,
    "tashtego": 9625,
    "ĠĠĠĠĠĠĠĠĠĠĠĠĠĠĠĠĠĠĠĠĠĠĠĠĠĠĠĠĠĠĠĠĠĠĠĠĠĠĠĠĠ": 19585,
    "superiority": 20188,
    "swaying": 25911,
    "ith": 330,
    "Ġsmitten": 12904,
    "Ġbland": 11065,
    "Ġtok": 1246,
    "nights": 16450,
    "subjects": 19878,
    "Ġtechn": 9369,
    "choice": 21694,
    "reclining": 20577,
    "Ġscreams": 24604,
    "Ġenough": 1762,
    "agitation": 14071,
    "ese": 4445,
    "accompanied": 12425,
    "Ġabuse": 18393,
    "cruising": 12284,
    "Ġaccommodate": 20520,
    "Ġdevoted": 6575,
    "Ġlimb": 9405,
    "preservation": 25306,
    "boy": 4737,
    "stuff": 15691,
    "dripping": 16907,
    "Ġconsiderably": 7715,
    "Ġwrapped": 8342,
    "Ġash": 4832,
    "exp": 2736,
    "Ġnib": 13943,
    "oc": 2831,
    "Ġundue": 25994,
    "Ġunjust": 8486,
    "Ġtash": 13823,
    "Ġcler": 11776,
    "claimed": 9839,
    "widely": 25344,
    "Ġsoon": 1228,
    "cess": 536,
    "Ġshoving": 23492,
    "Ġparl": 8178,
    "Ġcur": 1250,
    "Ġnavel": 24577,
    "Ġinfallibly": 10044,
    "yielded": 25757,
    "surd": 6934,
    "legra": 10791,
    "Ġmeanwhile": 5736,
    "Ġripp": 11220,
    "Ġenlarge": 21939,
    "opes": 10313,
    "Ġreferred": 8920,
    "Ġcells": 13888,
    "Ġgestic": 21611,
    "Ġdispleased": 18556,
    "Ġundeniable": 26512,
    "weaving": 18667,
    "Ġunfrequent": 24112,
    "Ġsharply": 9406,
    "onom": 9161,
    "condite": 23249,
    "Ġpond": 13919,
    "xible": 13811,
    "Ġmuse": 13863,
    "Ġcharted": 22254,
    "ection": 4947,
    "eler": 1568,
    "elaborate": 21579,
    "Ġcolt": 11045,
    "imately": 12693,
    "grasping": 20642,
    "uncomfortable": 18163,
    "Ġdomain": 3674,
    "Ġsho": 2249,
    "Ġcommon": 1412,
    "Ġstings": 21738,
    "sell": 13784,
    "mot": 17598,
    "extrem": 18709,
    "Ġlack": 17966,
    "Ġanno": 9670,
    "Ġuneasiness": 9487,
    "behaviour": 11302,
    "Ġnorton": 12654,
    "Ġhoops": 9392,
    "Ġgroaned": 11267,
    "ugal": 19023,
    "wic": 21123,
    "Ġhimmale": 18335,
    "tis": 4105,
    "Ġpuffing": 12259,
    "Ġtrials": 16791,
    "Ġquar": 3112,
    "encountered": 20396,
    "Ġscrutiny": 26016,
    "character": 6333,
    "Ġshould": 862,
    "Ġsan": 7824,
    "urning": 12921,
    "Ġtrains": 10948,
    "Ġvii": 13113,
    "cont": 2918,
    "Ġapproved": 16039,
    "Ġwherefore": 8527,
    "sheep": 23090,
    "Ġmidnight": 5266,
    "hounds": 20909,
    "etuous": 21586,
    "Ġheav": 1853,
    "irt": 3077,
    "ering": 1267,
    "Ġlikened": 16501,
    "tribute": 21091,
    "pression": 10409,
    "Ġparty": 3510,
    "distinguished": 10529,
    "Ġstockings": 20000,
    "wrapped": 15213,
    "Ġlengthwise": 10454,
    "Ġcrows": 24036,
    "flung": 16641,
    "Ġchips": 14184,
    "Ġwearisome": 19798,
    "cheon": 23806,
    "istan": 22112,
    "Ġmonument": 16244,
    "Ġstudies": 7956,
    "nment": 20992,
    "measureless": 20238,
    "Ġgroans": 14827,
    "izens": 18146,
    "assured": 10954,
    "conclusive": 25674,
    "Ġtranslation": 3087,
    "Ġchaplain": 19914,
    "walton": 20252,
    "prom": 6510,
    "sight": 5996,
    "baked": 20781,
    "adequate": 15207,
    "Ġassistance": 6335,
    "Ġ>": 21154,
    "Ġevils": 9023,
    "Ġoverall": 4359,
    "relatively": 24017,
    "homage": 25617,
    "Ġpuzzling": 14901,
    "painted": 17641,
    "aked": 2015,
    "fore": 686,
    "deliver": 19507,
    "endure": 22227,
    "among": 6258,
    "Ġobliging": 13247,
    "imagination": 13484,
    "Ġindef": 9192,
    "exasper": 22433,
    "Ġprinciples": 10014,
    "Ġmelt": 21321,
    "ipper": 13743,
    "Ġasph": 21902,
    "Ġfashioned": 13325,
    "lour": 15384,
    "Ġlargest": 6284,
    "Ġfinish": 7949,
    "nered": 18489,
    "Ġheedful": 19743,
    "§": 105,
    "ĠĠĠĠĠĠĠĠĠĠĠĠĠĠĠĠĠĠĠĠĠĠĠĠĠĠĠĠĠĠĠĠ": 2737,
    "ich": 470,
    "Ġdz": 4755,
    "Ġtutored": 20131,
    "Ġpor": 5225,
    "Ġexam": 3712,
    "breaking": 14768,
    "Ġrear": 6537,
    "Ġsong": 5904,
    "Ġstubbs": 23298,
    "Ġsnows": 14729,
    "Ġcapacious": 19178,
    "recurrent": 4993,
    "maul": 11896,
    "Ġwitty": 21295,
    "Ġbart": 17859,
    "itely": 5365,
    "three": 5239,
    "Ġlaying": 7908,
    "ha": 3980,
    "Ġsinusoidal": 4800,
    "ideas": 18582,
    "Ġfulf": 6773,
    "englishman": 23676,
    "Ġgolden": 5337,
    "Ġdare": 3544,
    "Ġstrings": 11833,
    "Ġrickety": 26508,
    "studied": 17152,
    "wished": 13808,
    "lacings": 26135,
    "metic": 14987,
    "Ġinjection": 3467,
    "Ġthy": 2515,
    "Ġelasticity": 19561,
    "senses": 25025,
    "Ġcarried": 3694,
    "ĠcÃ¦sar": 20583,
    "ĠĠĠĠĠĠĠĠĠĠĠĠĠĠĠĠĠĠĠĠĠĠĠĠĠĠĠĠĠĠĠĠĠĠĠ": 19260,
    "Ġvaulted": 25171,
    "isure": 6242,
    "Ġmeasure": 3594,
    "facts": 19845,
    "madam": 24421,
    "Ġshipwreck": 20449,
    "Ġshows": 8485,
    "Ġchairs": 12831,
    "âĢĻ": 378,
    "stolidity": 21660,
    "Ġemac": 16411,
    "Ġflanks": 11919,
    "Ġencoder": 3636,
    "Ġspar": 10923,
    "chemical": 23811,
    "hard": 4689,
    "Ġprecision": 13193,
    "iring": 1706,
    "atively": 2696,
    "Ġenabled": 9299,
    "Ġfurthest": 22819,
    "doubtful": 24790,
    "Ġtoller": 9094,
    "ained": 3064,
    "Ġcumbrous": 26434,
    "Ġdeployment": 11202,
    "Ġmimic": 3143,
    "ked": 5616,
    "Ġpoint": 2055,
    "st": 315,
    "oing": 15404,
    "Ġadm": 2402,
    "attered": 4017,
    "Ġpots": 9431,
    "Ġblooming": 17215,
    "Ġholds": 7975,
    "concluded": 11243,
    "Ġ112": 24437,
    "Ġcomparative": 10545,
    "Ġattempt": 3486,
    "swiss": 24258,
    "Ġseriously": 7062,
    "level": 2653,
    "esy": 9188,
    "cra": 6356,
    "blind": 16704,
    "Ġplump": 14285,
    "nyder": 16687,
    "Ġglades": 19375,
    "âĢľ_": 5720,
    "Ġwinchester": 10069,
    "ool": 17620,
    "Ġextant": 18681,
    "Ġplants": 22601,
    "Ġearning": 23944,
    "Ġvineyard": 12334,
    "Ġharmless": 9968,
    "aspect": 10196,
    "eter": 11623,
    "peare": 18913,
    "fier": 9596,
    "Ġglobe": 6077,
    "Ġwelded": 9574,
    "Ġentreaties": 9038,
    "Ġgnarled": 25169,
    "inting": 9817,
    "Ġmoderately": 22218,
    "Ġfretfully": 25448,
    "Ġbarbarously": 24816,
    "Ġwedded": 15539,
    "untering": 15780,
    "imaux": 21715,
    "Ġadmitting": 19185,
    "Ġbuckskin": 19955,
    "Ġpiqu": 21476,
    "Ġspir": 2428,
    "Ġalmanac": 26487,
    "season": 14037,
    "Ġcrystall": 20229,
    "Ġorgan": 2505,
    "disreputable": 23506,
    "Ġbathing": 20202,
    "rels": 6667,
    "abroad": 18111,
    "itage": 17818,
    "Ġmouthfuls": 20648,
    "Ġced": 10786,
    "Ġeste": 6085,
    "Ġintrusted": 21996,
    "Ġrustling": 24714,
    "usually": 10288,
    "Ġworking": 5575,
    "Ġcheerful": 6624,
    "Ġneurons": 977,
    "surround": 16760,
    "eastward": 15133,
    "oped": 6048,
    "rap": 21631,
    "Ġdoub": 1838,
    "bale": 20776,
    "Ġproductions": 22949,
    "Ġrelieved": 7667,
    "Ġtheory": 5799,
    "Ġoblige": 10491,
    "Ġknave": 11273,
    "Ġsample": 3178,
    "astonished": 15035,
    "Ġwithdrawing": 11341,
    "Ġspiracle": 14152,
    "pedest": 24823,
    "tremendous": 20676,
    "bear": 10318,
    "Ġhieroglyphics": 17306,
    "Ġnlp": 3061,
    "Ġswing": 13041,
    "Ġsprawling": 22144,
    "Ġda": 5150,
    "Ġhas": 825,
    "rah": 8137,
    "Ġslu": 13839,
    "Ġmacro": 25940,
    "lean": 21368,
    "crowded": 20193,
    "Ġstreets": 5865,
    "Ġsternly": 16717,
    "Ġomnipotent": 13552,
    "organic": 25947,
    "Ġhop": 1460,
    "Ġdrows": 21438,
    "Ġannual": 14835,
    "Ġbackgammon": 22658,
    "Ġthine": 7374,
    "Ġoverspread": 14205,
    "Ġneuron": 1808,
    "Ġwink": 11571,
    "ductive": 23939,
    "heaving": 21210,
    "conv": 7213,
    "Ġevidence": 5270,
    "whiteness": 18371,
    "?âĢĿâĢĶ": 12900,
    "regularization": 3514,
    "Ġspeed": 2448,
    "Ġenjoyment": 7300,
    "assistance": 20374,
    "Ġpeaked": 2297,
    "omnipotent": 25967,
    "iance": 5280,
    "Ġperempt": 13677,
    "Ġrider": 24188,
    "fe": 675,
    "urn": 775,
    "Ġtriumphantly": 11288,
    "Ġsure": 1866,
    "Ġled": 3521,
    "Ġbouquet": 20686,
    "Ġdiscomp": 11870,
    "Ġexceedingly": 4614,
    "functions": 11258,
    "Ġflirt": 14426,
    "Ġverily": 16605,
    "indebted": 26159,
    "unbidden": 21898,
    "terrors": 25044,
    "Ġanticipatingly": 26103,
    "strike": 14952,
    "Ġbarbary": 24219,
    "alo": 7589,
    "Ġcaress": 16342,
    "Ġground": 2844,
    "friendship": 24054,
    "Ġcrest": 12947,
    "Ġgayer": 24501,
    "Ġsubstance": 5510,
    "Ġriv": 10748,
    "Ġreplace": 14478,
    "Ġtorrents": 20059,
    "des": 3172,
    "Ġwhit": 7178,
    "Ġhospitality": 13516,
    "yder": 10141,
    "Ġseam": 3909,
    "Ġardu": 22188,
    "Ġpermitting": 22404,
    "Ġtranslates": 12055,
    "Ġways": 5396,
    "Ġbon": 8790,
    "Ġlig": 21551,
    "meanwhile": 10612,
    "Ġdig": 6137,
    "Ġdemands": 19641,
    "Ġplough": 18609,
    "Ġimmediately": 3367,
    "discovering": 24254,
    "Ġchatting": 24746,
    "Ġdepths": 4326,
    "zas": 17714,
    "Ġbeseeching": 26312,
    "bitterly": 20340,
    "Ġowing": 6006,
    "Ġdelusion": 18976,
    "ention": 860,
    "plutarch": 21967,
    "up": 1283,
    "Ġcheap": 13093,
    "Ġvult": 12757,
    "resent": 10771,
    "Ġpursu": 3239,
    "Ġsimil": 2532,
    "affrail": 11206,
    "sius": 13791,
    "haired": 14770,
    "Ġremark": 2145,
    "Ġminimize": 7052,
    "Ġheadway": 18797,
    "Ġlies": 5297,
    "fortune": 4974,
    "instinctively": 26329,
    "Ġgravesend": 15220,
    "ssip": 14083,
    "hug": 17565,
    "Ġnamed": 6141,
    "Ġingen": 9052,
    "Ġhearken": 21688,
    "inguish": 9400,
    "Ġhabitation": 14806,
    "Ġpicking": 11260,
    "Ġchilled": 18383,
    "regards": 23468,
    "Ġhandsomer": 20336,
    "Ġpolice": 4674,
    "Ġelucidated": 26030,
    "value": 18811,
    "Ġshin": 18228,
    "Ġpew": 9318,
    "quished": 21852,
    "Ġact": 689,
    "rubbery": 17345,
    "Ġrelev": 1714,
    "oth": 1184,
    "appe": 2942,
    "Ġeigen": 4881,
    "Ġimprecate": 20521,
    "adel": 15733,
    "henomen": 10497,
    "Ġappals": 22223,
    "Ġguilt": 6181,
    "une": 2783,
    "gether": 1592,
    "asion": 5714,
    "Ġconcuss": 19052,
    "Ġ105": 24413,
    "Ġdared": 5440,
    "Ġbitter": 4172,
    "rollable": 13948,
    "Ġamput": 16037,
    "Ġrubber": 22787,
    "imp": 3033,
    "Ġflaming": 8567,
    "Ġaltogether": 4831,
    "Ġgaol": 19570,
    "irium": 8162,
    "ense": 2051,
    "castle": 3349,
    "thousands": 16874,
    "akes": 2219,
    "Ġsult": 10769,
    "barb": 10083,
    "Ġhogshead": 26369,
    "Ġtarred": 23611,
    "Ġbestowed": 6595,
    "cim": 8723,
    "hement": 13835,
    "Ġevangel": 11281,
    "Ġlands": 6596,
    "Ġship": 1095,
    "mysteries": 26052,
    "etent": 10202,
    "Ġpierce": 17037,
    "Ġjudgment": 5765,
    "alid": 13938,
    "intu": 22936,
    "Ġreverie": 13461,
    "lived": 12491,
    "Ġhumiliation": 16202,
    "Ġcostly": 23586,
    "Ġremain": 1874,
    "Ġneskyeuna": 26461,
    "Ġrot": 10967,
    "irted": 14075,
    "ipping": 2208,
    "Ġ{": 21155,
    "ced": 697,
    "Ġmotionless": 8324,
    "Ġdishonoured": 20394,
    "Ġlaboratory": 13616,
    "Ġscot": 5643,
    "Ġconcern": 2656,
    "coming": 3561,
    "ske": 13785,
    "falgar": 26131,
    "Ġcetus": 19887,
    "Ġchat": 6562,
    "Ġlately": 6388,
    "Ġdimly": 9491,
    "prov": 16426,
    "gir": 8083,
    "Ġroad": 3882,
    "aught": 2680,
    "fears": 18529,
    "Ġmim": 3105,
    "benevolent": 15237,
    "nowhere": 18419,
    "cart": 10692,
    "Ġdistillation": 16049,
    "!âĢĻâĢĿ": 16594,
    "beautiful": 10651,
    "Ġrude": 7234,
    "Ġuncertain": 4067,
    "Ġreplenished": 13640,
    "throw": 14101,
    "Ġrud": 8480,
    "Ġscript": 18399,
    "Ġpreliminary": 10060,
    "remarks": 23191,
    "Ġmanhood": 22330,
    "ound": 585,
    "Ġrevel": 9217,
    "Ġfinal": 5400,
    "bons": 17489,
    "Ġpathetic": 19004,
    "ux": 7813,
    "carried": 16713,
    "Ġlie": 4408,
    "Ġdramat": 23218,
    "rene": 5379,
    "Ġreduces": 2344,
    "Ġmitigating": 1619,
    "Ġharpoon": 3616,
    "agement": 4187,
    "Ġcemeteries": 26377,
    "Ġconsecut": 18114,
    "Ġturks": 14601,
    "Ġguernsey": 9354,
    "Ġeffusions": 18540,
    "Ġarticles": 7110,
    "Ġalbertus": 25649,
    "Ġtormenting": 15108,
    "Ġhoot": 19078,
    "gia": 20878,
    "tallied": 21092,
    "Ġpreposterous": 13673,
    "Ġepicures": 25880,
    "Ġflights": 24752,
    "Ġjupiter": 17459,
    "Ġlastly": 16209,
    "Ġimper": 4502,
    "Ġlevels": 12703,
    "bb": 2797,
    "presents": 18802,
    "Ġsolitary": 5856,
    "abomin": 15746,
    "Ġpy": 21450,
    "iveness": 2467,
    "assment": 9743,
    "Ġincrust": 22554,
    "Ġcontemporary": 16016,
    "cried": 8728,
    "Ġlinked": 15081,
    "Ġrace": 5848,
    "labours": 16619,
    "Ġjoin": 4853,
    "Ġremnants": 22794,
    "Ġsix": 3044,
    "Ġseverity": 15821,
    "Ġbroad": 3640,
    "icacy": 15662,
    "Ġmatrix": 1607,
    "inkle": 22617,
    "Ġconfession": 11236,
    "Ġradiating": 24331,
    "Ġcompromising": 22577,
    "wheeling": 22874,
    "aviour": 11005,
    "activation": 3230,
    "edy": 2857,
    "Ġke": 1156,
    "Ġnimble": 21531,
    "Ġneither": 3687,
    "rannical": 26403,
    "Ġflooring": 23625,
    "Ġgans": 5822,
    "germans": 20568,
    "onent": 21251,
    "considerably": 13449,
    "transom": 19738,
    "frau": 15093,
    "Ġcoars": 14274,
    "appropri": 22850,
    "Ġwinking": 17795,
    "Ġkirwin": 8499,
    "Ġconjoined": 21810,
    "Ġderick": 9368,
    "factories": 19846,
    "Ġgilded": 17448,
    "Ġsouth": 4911,
    "Ġindividuals": 24546,
    "inkling": 16094,
    "Ġhelped": 7459,
    "Ġenchantment": 24870,
    "ugn": 9381,
    "Ġ": 225,
    "Ġobsc": 7041,
    "Ġ61": 24364,
    "Ġherbage": 25997,
    "Ġperceive": 6701,
    "Ġnow": 691,
    "Ġwrote": 5010,
    "Ġrafters": 22664,
    "Ġinvestment": 24332,
    "arb": 1561,
    "ĭ": 238,
    "Ġnarrowed": 24355,
    "Ġhelmet": 19690,
    "pall": 17630,
    "Ġoverpowered": 15292,
    "Ġawake": 8272,
    "very": 498,
    "Ġsolomon": 11053,
    "pass": 4291,
    "Ġalready": 2712,
    "taken": 7561,
    "Ġfurthermore": 1169,
    "magnetic": 20555,
    "sequent": 6831,
    "Ġmoccas": 22440,
    "Ġphrenolog": 12338,
    "Ġopp": 2697,
    "trad": 21078,
    "idav": 18095,
    "wat": 6233,
    "ulia": 18151,
    "Ġconsecrate": 26491,
    "blown": 25202,
    "Ġscriptures": 26237,
    "behold": 12883,
    "rail": 10207,
    "alous": 7372,
    "Ġrevolved": 9987,
    "Ġcister": 13885,
    "esu": 17921,
    "Ġmention": 2983,
    "Ġwan": 15531,
    "ckles": 22093,
    "Ġrenegades": 26478,
    "unknown": 10891,
    "Ġtranquo": 14846,
    "Ġdisappo": 4506,
    "derstand": 639,
    "Ġcondemned": 7779,
    "lection": 3653,
    "Ġdefe": 21839,
    "Ġaided": 17747,
    "histor": 13495,
    "Ġadvise": 7936,
    "needle": 20313,
    "Ġscratching": 20372,
    "Ġawe": 7148,
    "eat": 11484,
    "wives": 15458,
    "Ġdefect": 8557,
    "ensities": 22550,
    "ah": 1834,
    "Ġdo": 512,
    "Ġdifficulty": 5770,
    "cy": 642,
    "Ġprows": 19891,
    "ohnson": 16328,
    "Ġpossessed": 5195,
    "Ġabruptly": 15154,
    "isticated": 1722,
    "mont": 19171,
    "Ġsoothingly": 25050,
    "Ġrivals": 20274,
    "Ġhart": 17924,
    "ù": 186,
    "Ġangel": 4852,
    "ceiling": 21630,
    "sustained": 20571,
    "Ġchanging": 11757,
    "darkened": 24517,
    "rin": 10124,
    "hoped": 20912,
    "Ġexerc": 6833,
    "Ġsecondly": 14518,
    "Ġsituation": 4071,
    "Ġsled": 21221,
    "Ġresounds": 22546,
    "Ġoxford": 11372,
    "back": 2016,
    "Ġgrain": 15835,
    "Ġprynne": 25541,
    "Ġaslant": 21905,
    "fedallah": 25523,
    "Ġpropagating": 20636,
    "Ġclimes": 12849,
    "Ġstupid": 7605,
    "sence": 3306,
    "Ġsavoury": 23880,
    "elves": 2158,
    "pest": 6965,
    "vest": 6232,
    "Ġtechniques": 2866,
    "waited": 24586,
    "Ġelaborate": 18638,
    "Ġfollows": 7674,
    "dee": 11737,
    "Ġrenewing": 19813,
    "O": 51,
    "Ġte": 1126,
    "eyes": 5684,
    "hero": 21207,
    "ć": 200,
    "Ġinterpreted": 1711,
    "Ġassumptions": 5517,
    "Ġ60": 14878,
    "Ġenthusiasm": 8065,
    "Ġcry": 3496,
    "Ġyawned": 15054,
    "Ġclatter": 22361,
    "Ġugl": 12687,
    "Ġraises": 11849,
    "uend": 21104,
    "tiness": 21074,
    "Ġdetermines": 2368,
    "Ġfrequently": 4679,
    "Ġprophets": 20453,
    "Ġwhistles": 24625,
    "Ġsagacity": 16976,
    "Ġascertaining": 17206,
    "Ġbounty": 26439,
    "Ġstepping": 9357,
    "Ġreeled": 13989,
    "Ġpupp": 10822,
    "Ġharpo": 1945,
    "dispute": 23502,
    "Ġmealy": 18123,
    "skill": 24487,
    "Ġpallid": 12303,
    "Ġsuccessive": 10503,
    "Ġruins": 16160,
    "Ġaccomp": 4712,
    "Ġjavelins": 26106,
    "msprop": 2625,
    "etime": 12664,
    "Ġbattered": 17864,
    "Ġbrew": 23347,
    "Ġmogul": 12867,
    "oured": 2671,
    "Ġsimply": 7218,
    "Ġjolly": 6858,
    "Ġsend": 4107,
    "Ġvenetian": 14850,
    "Ġhumped": 19772,
    "Ġgour": 21601,
    "nothing": 3153,
    "Ġshouldn": 14328,
    "Ġsir": 1565,
    "solemn": 19820,
    "Ġwise": 6812,
    "attempt": 9363,
    "Ġcomplying": 18585,
    "Ġthre": 2058,
    "Ġempty": 5354,
    "Ġseasonable": 24406,
    "Ġexpl": 487,
    "form": 495,
    "ship": 1391,
    "phr": 18729,
    "Ġiii": 7861,
    "hole": 5587,
    "Ġoriginally": 7304,
    "aulding": 11340,
    "lers": 10109,
    "Ġsons": 10768,
    "Ġfulfilment": 20190,
    "Ġsketches": 26271,
    "Ġexacted": 23605,
    "Ġshrill": 12146,
    "Ġsultan": 15188,
    "Ġall": 421,
    "mass": 12494,
    "Ġbenevol": 5963,
    "Ġsuffoc": 18872,
    "ientific": 6549,
    "qualities": 25046,
    "Ġpallet": 21480,
    "Ġprocesses": 3634,
    "Ġwindings": 18911,
    "practised": 20250,
    "ises": 3654,
    "elzebub": 26466,
    "Ġglistened": 20175,
    "Ġwhiskers": 10495,
    "anth": 13890,
    "Ġfonder": 17882,
    "Ġrejoiced": 8687,
    "Ġhugest": 17017,
    "da": 17516,
    "abhor": 12712,
    "uit": 8393,
    "private": 13586,
    "Ġgravel": 14105,
    "Ġchristmas": 6924,
    "pen": 1202,
    "oled": 17621,
    "greek": 25405,
    "key": 5462,
    "former": 11752,
    "Ġmes": 17798,
    "Ġprocured": 8680,
    "childhood": 16870,
    "Ġbricks": 13566,
    "wishes": 13810,
    "Ġready": 3399,
    "Ġmazes": 25941,
    "weep": 22687,
    "Ġspouts": 7730,
    "Ġnecessity": 7296,
    "Ġrule": 1531,
    "gradually": 12920,
    "Ġinvite": 14564,
    "veral": 2355,
    "Ġpertur": 12856,
    "glue": 17558,
    "Ġglobu": 23275,
    "Ġwalker": 23314,
    "Ġconse": 21808,
    "arts": 6565,
    "ounted": 5029,
    "impressions": 20701,
    "Ġbrewed": 23349,
    "Ġclank": 15977,
    "Ġwhip": 8453,
    "Ġannals": 17900,
    "Ġgazing": 5877,
    "Ġfac": 6382,
    "Ġepis": 19985,
    "Ġsusp": 2663,
    "Ġlips": 3990,
    "Ġju": 10289,
    "itioned": 22473,
    "Ġvictims": 19807,
    "Ġpecks": 18670,
    "Ġprocure": 9513,
    "Ġpleasant": 4169,
    "cad": 17507,
    "gress": 2214,
    "Ġdistributions": 1050,
    "Ġbelieves": 14411,
    "didn": 9010,
    "tery": 14040,
    "Ġ29": 23732,
    "sphere": 22734,
    "Ġsuperstitious": 13523,
    "heav": 5694,
    "westward": 25425,
    "Ġrucastle": 5176,
    "Ġbr": 1073,
    "Ġstep": 752,
    "Ġpeter": 10538,
    "itying": 21998,
    "Ġthus": 2036,
    "Ġplow": 21458,
    "avoiding": 25237,
    "Ġthinking": 4029,
    "affect": 13216,
    "acific": 4959,
    "Ġpent": 17902,
    "Ġsummoned": 9914,
    "ops": 5248,
    "generative": 4330,
    "Ġremedy": 18723,
    "Ġtiles": 17728,
    "Ġitself": 2523,
    "Ġdangerous": 6615,
    "cific": 10088,
    "ĠĠĠĠĠĠĠĠĠĠĠĠĠĠĠĠĠĠĠĠĠĠĠĠĠĠĠĠĠĠĠĠĠĠĠĠ": 23665,
    "orter": 4255,
    "fellow": 6793,
    "Ġlectures": 17181,
    "Ġlearns": 2642,
    "Ġreeling": 18035,
    "spears": 23945,
    "Ġcorrob": 16269,
    "eding": 7166,
    "sheltered": 25586,
    "town": 7144,
    "resol": 17762,
    "Ġshrinking": 14808,
    "Ġlonely": 6823,
    "Ġcelebrated": 13598,
    "confess": 12180,
    "Ġtests": 8960,
    "Ġblast": 7445,
    "Ġtars": 21167,
    "Ġopera": 23428,
    "Ġpointed": 4772,
    "Ġsimplicity": 2921,
    "baby": 25516,
    "Ġlonged": 6437,
    "Ġtechnically": 12370,
    "Ġgreenhorn": 23771,
    "Ġsneering": 24696,
    "Ġpersonally": 8603,
    "did": 3196,
    "determination": 19948,
    "Ġdeal": 3608,
    "Ġamounts": 6706,
    "resentment": 15189,
    "Ġvirginia": 13503,
    "presence": 18491,
    "ress": 930,
    "guinea": 16675,
    "ippi": 20247,
    "scent": 13026,
    "Ġindignation": 8347,
    "beneath": 9538,
    "ĉ": 202,
    "ook": 21006,
    "inder": 9155,
    "Ġcott": 3710,
    "zwilliam": 5074,
    "Ġpro": 360,
    "Ġcalifornian": 25853,
    "Ġtell": 1467,
    "Ġshouted": 5348,
    "Ġchildish": 13140,
    "guarded": 13299,
    "Ġsubmitted": 11875,
    "Ġentropy": 2030,
    "Ġblue": 3454,
    "Ġfant": 9176,
    "Ġpeg": 22692,
    "anxiously": 15114,
    "illed": 2624,
    "anything": 5518,
    "Ġ85": 24460,
    "Ġthrice": 10578,
    "Ġaway": 1245,
    "Ġbent": 5149,
    "writes": 4987,
    "marks": 7346,
    "Ġtemporarily": 11168,
    "ri": 390,
    "delight": 5345,
    "Ġdeepest": 8213,
    "dead": 8180,
    "Ġeasily": 3892,
    "baboon": 25517,
    "Ġdug": 21433,
    "Ġdau": 21428,
    "resolution": 17768,
    "feather": 16047,
    "Ġopportunities": 19251,
    "Ġneglig": 18880,
    "Ġglasses": 9478,
    "Ġfeels": 6882,
    "howling": 18991,
    "Ġthroughout": 8880,
    "separately": 25228,
    "dra": 3415,
    "Ġstray": 18072,
    "Ġsteersman": 13047,
    "?âĢĶ": 3468,
    "Ġglad": 3325,
    "Ġcompare": 9305,
    "opÃ¦": 12877,
    "tranquil": 25871,
    "Ġgrave": 5100,
    "Ġmorals": 22982,
    "Ġsettles": 22923,
    "pigs": 17143,
    "Ġacre": 22684,
    "Ġasia": 11686,
    "Ġeye": 2283,
    "putable": 10902,
    "ieties": 19026,
    "Ġsaturn": 22907,
    "Ġexalted": 12415,
    "ize": 773,
    "networks": 2406,
    "spermaceti": 12198,
    "Ġmilitia": 13322,
    "Ġcath": 17828,
    "Ġscr": 11764,
    "Ġsigma": 1538,
    "Ġwhimsical": 20431,
    "Ġdepos": 11008,
    "Ġsolic": 7933,
    "Ġflapped": 23016,
    "cannibal": 15228,
    "impl": 21710,
    "Ġresemblance": 7977,
    "vanity": 24977,
    "sway": 15427,
    "icest": 21567,
    "earthquakes": 24724,
    "Ġcyn": 13889,
    "Ġhearsed": 25042,
    "firm": 10700,
    "Ġswash": 23058,
    "ables": 7890,
    "erate": 7150,
    "strange": 6087,
    "Ġfounded": 8561,
    "complete": 15037,
    "Ġhelmeted": 19691,
    "given": 8377,
    "un": 373,
    "Ġmonotonically": 3835,
    "Ġishmael": 7395,
    "Ġobscured": 15013,
    "dan": 17517,
    "sion": 8094,
    "score": 18858,
    "luxur": 25823,
    "Ġchoicest": 24223,
    "commodore": 20628,
    "victim": 25531,
    "preading": 18492,
    "Ġblessing": 11264,
    "allowance": 16826,
    "Ġpublicly": 13327,
    "Ġcrate": 19121,
    "Ġple": 1468,
    "cong": 10691,
    "hercules": 22208,
    "Ġfortune": 4238,
    "Ġmarshy": 20221,
    "fin": 5209,
    "crossed": 16635,
    "Ġachieves": 4381,
    "Ġbohem": 8529,
    "Ġaugment": 8695,
    "Ġdiffidence": 14661,
    "Ġseaward": 22950,
    "Ġconsistence": 23359,
    "electricity": 26387,
    "ropout": 1323,
    "Ġperished": 11788,
    "pronounce": 25193,
    "iously": 2676,
    "Ġfat": 3461,
    "terms": 15755,
    "Ġfloundered": 18863,
    "Ġup": 463,
    "Ġknight": 9730,
    "Ġdrops": 9035,
    "Ġsofas": 26226,
    "Ġinevitable": 15171,
    "cred": 9111,
    "ix": 1799,
    "Ġdescribes": 3121,
    "Ġfrankenstein": 7097,
    "vity": 7815,
    "around": 12613,
    "scratch": 26045,
    "Ġduchess": 4798,
    "Ġdiligent": 25078,
    "ouraged": 22864,
    "Ġdivided": 8635,
    "aguy": 21914,
    "devoted": 20020,
    "along": 6014,
    "week": 12936,
    "luent": 16002,
    "Ġtops": 14588,
    "ffic": 22155,
    "ise": 707,
    "Ġuse": 827,
    "Ġwalked": 3140,
    "Ġcommonplaces": 16292,
    "Ġtranspointed": 22444,
    "quest": 4538,
    "Ġvertically": 19383,
    "Ġme": 352,
    "Ġchal": 18379,
    "Ġminority": 18754,
    "Ġignorant": 5344,
    "Ġproceed": 3242,
    "Ġirksome": 13116,
    "Ġadmeasurements": 26227,
    "Ġinfatuation": 25858,
    "pair": 21014,
    "Ć": 199,
    "Ġoccurrences": 11051,
    "Ġamuse": 5941,
    "Ġprudential": 17919,
    "Ġpreventing": 884,
    "Ġren": 3847,
    "Ġimpul": 7208,
    "conf": 4956,
    "urements": 18126,
    "Ġ(`": 12858,
    "Ġbandaged": 16844,
    "Ġcomprehend": 6495,
    "Ġunicorn": 22059,
    "Ġcunning": 6240,
    "Ġcubic": 20091,
    "Ġprophesy": 26062,
    "era": 13850,
    "Ġpainfully": 13146,
    "superstitious": 17283,
    "Ġcloud": 3912,
    "Ġigniting": 25073,
    "Ġwhichever": 14003,
    "Ġjavan": 25000,
    "Ġmaintainable": 12940,
    "Ġyoungster": 23182,
    "flinging": 20870,
    "Ġpromise": 4197,
    "Ġattested": 22632,
    "Ġrambled": 20171,
    "Ġprudence": 13923,
    "boys": 13364,
    "Ġnobleman": 19395,
    "tawny": 26406,
    "Ġconsecutive": 20705,
    "Ġthackeray": 26457,
    "Ã¦us": 14820,
    "Ġharbor": 10030,
    "Ġoat": 21326,
    "Ġadvent": 4357,
    "Ġmari": 6814,
    "Ġmarket": 7709,
    "ynolds": 10039,
    "ullen": 8235,
    "85": 13685,
    "Ġheroines": 19754,
    "Ġspot": 4153,
    "hoisted": 19285,
    "Ġadvertise": 25389,
    "Ġexterm": 21833,
    "Ġpractical": 3163,
    "times": 8099,
    "Ġunctuousness": 17237,
    "Ġveneration": 25047,
    "Ġsar": 21216,
    "rets": 12546,
    "Ġlayer": 1011,
    "Ġnights": 7258,
    "Ġoffences": 18692,
    "smoke": 17225,
    "springing": 24890,
    "Ġsymmetrical": 20370,
    "Ġrequested": 14302,
    "Ġpeddler": 26181,
    "Ġcarpet": 9359,
    "onsense": 6432,
    "serv": 7451,
    "wilful": 25152,
    "Ġapolog": 9046,
    "Ġmappings": 2147,
    "Ġslaugh": 18940,
    "pinn": 21028,
    "Ġfrog": 23925,
    "ibly": 2992,
    "Ġappellation": 22225,
    "Ġconcussion": 26301,
    "ability": 715,
    "Ġbeach": 6543,
    "======": 9836,
    "Ġecl": 18008,
    "Ġfidelity": 15245,
    "Ġhoping": 11104,
    "Ġ1950": 11360,
    "reporting": 24494,
    "Ġrheumatic": 20707,
    "Ġ65": 24368,
    "ubines": 22962,
    "Ġflash": 8230,
    "Ġcorporeally": 25729,
    "Ġensemble": 1609,
    "Ġconsciousness": 9951,
    "Ġeggs": 12346,
    "³": 116,
    "Ġped": 7845,
    "fast": 3070,
    "sure": 5522,
    "ills": 1629,
    "Ġblades": 11899,
    "door": 6195,
    "ief": 2045,
    "Ġfly": 3871,
    "cial": 2647,
    "ifice": 7198,
    "Ġlabrador": 23334,
    "Ġclassification": 1084,
    "united": 14063,
    "rig": 7557,
    "engines": 18930,
    "geneva": 13733,
    "ie": 728,
    "Ġtones": 8401,
    "Ġunsav": 18252,
    "Ġsmelt": 16069,
    "Ġspan": 11733,
    "Ġfath": 7364,
    "consciously": 19628,
    "ivance": 22082,
    "Ġsupercil": 23455,
    "bestowed": 12230,
    "Ġincarn": 11818,
    "ĠĠĠ": 2115,
    "Ġchaff": 18384,
    "Ġthird": 4186,
    "bid": 5611,
    "lord": 3866,
    "feeder": 12365,
    "Ġwithdrew": 9699,
    "Ġdistinction": 8889,
    "iz": 365,
    "Ġharder": 14452,
    "stout": 21642,
    "pread": 7418,
    "Ġrecommence": 16814,
    "least": 8789,
    "lee": 11587,
    "Ġwalks": 8969,
    "dataset": 23229,
    "indian": 11782,
    "Ġstoutest": 24629,
    "canoes": 16234,
    "Ġromish": 19587,
    "gunwale": 20665,
    "eps": 12796,
    "mccarthy": 15398,
    "rucastle": 22192,
    "Ġmind": 1622,
    "omuch": 21663,
    "Ġling": 7377,
    "Ġthickly": 12120,
    "Ġdisdained": 15012,
    "rages": 15685,
    "Ġhideousness": 16917,
    "inces": 13831,
    "Ġflounders": 23018,
    "'m": 9585,
    "Ġchemical": 10412,
    "Ġkins": 22198,
    "lady": 4434,
    "Ġridiculous": 10632,
    "indul": 22374,
    "unusual": 21883,
    "Ġmalacca": 24393,
    "ank": 1365,
    "ainted": 3659,
    "Ġlawy": 9458,
    "Ġahab": 1214,
    "atious": 10154,
    "Ġblinds": 8007,
    "shortly": 12263,
    "Ġany": 687,
    "result": 12048,
    "Ġins": 2778,
    "Ġproblems": 2845,
    "nav": 17613,
    "Ġcharlotte": 3891,
    "Ġdiscomposed": 25581,
    "Ġfact": 1728,
    "ntax": 933,
    "speed": 19412,
    "Ġweight": 656,
    "advantage": 8662,
    "Ġstow": 21734,
    "Ġruddy": 17128,
    "ada": 14014,
    "wherefore": 19110,
    "mun": 20964,
    "Ġfumbled": 17883,
    "coarse": 16489,
    "borrowed": 20794,
    "Ġhypothe": 4074,
    "Ġlaurel": 20656,
    "rederick": 14081,
    "isle": 13895,
    "jumped": 20249,
    "Ġstroll": 13357,
    "oky": 8198,
    "Ġunappalled": 22067,
    "lie": 12487,
    "pil": 15411,
    "hind": 20896,
    "column": 19331,
    "poss": 4777,
    "Ġcanaan": 22170,
    "Ġtroublesome": 24005,
    "heavily": 24534,
    "ios": 2236,
    "Ġlinguistic": 12428,
    "erman": 5108,
    "Ġat": 396,
    "vag": 8768,
    "regular": 3041,
    "Ġpricking": 23222,
    "seeking": 17155,
    "Ġrecent": 7436,
    "destroyed": 15264,
    "Ġgrasshopper": 24380,
    "Ġcem": 17825,
    "Ġconsiderations": 9413,
    "urns": 10216,
    "Ġadvice": 4901,
    "lp": 900,
    "mechan": 11861,
    "acca": 23599,
    "Ġdejection": 15200,
    "Ġlatent": 19658,
    "introduced": 15128,
    "Ġrelinqu": 12988,
    "begone": 12884,
    "Ġhost": 7070,
    "Ġcos": 2209,
    "clings": 23155,
    "Ġthinkings": 22815,
    "Ġpalsied": 25780,
    "Ġadvisable": 11443,
    "furthest": 19844,
    "Ġjungfrau": 15252,
    "honour": 13471,
    "Ġapplied": 6188,
    "volut": 1557,
    "û": 188,
    "particular": 5757,
    "plex": 712,
    "supposed": 13320,
    "Ġcopse": 17069,
    "control": 16545,
    "Ġcontinual": 6778,
    "Ġmonomania": 17086,
    "Ġpersisting": 18894,
    "Ġmann": 18417,
    "Ġjoist": 19234,
    "Ġtoilette": 20496,
    "Ġadvoc": 12999,
    "gently": 13732,
    "Ġaudible": 19883,
    "Ġchicha": 15940,
    "dozen": 23381,
    "Ġflog": 23624,
    "mopol": 15399,
    "onic": 7827,
    "Ġidiotic": 25589,
    "Ġagrippa": 11811,
    "Ġallegor": 25546,
    "âĢľ": 344,
    "Ġobtru": 18673,
    "Ġmales": 17807,
    "ributed": 8215,
    "Ġmystic": 7504,
    "Ġbiscuit": 12594,
    "Ġdepresses": 25798,
    "Ġabruptness": 25300,
    "Ġmeet": 2801,
    "george": 26020,
    "Ġclapped": 9749,
    "Ġprecipices": 12282,
    "alarmed": 21506,
    "Ġfortun": 4981,
    "Ġtigers": 25759,
    "Ġrelated": 3716,
    "Ġretiring": 16283,
    "Ġblan": 18818,
    "Ġunprotected": 22069,
    "Ġdrugg": 17122,
    "Ġthroat": 7771,
    "weigh": 18666,
    "Ġclever": 7056,
    "Ġdu": 4584,
    "Ġobsequious": 17407,
    "paid": 15417,
    "acting": 22633,
    "Ġimmortal": 8018,
    "ist": 450,
    "Ġwhistle": 9068,
    "Ġbruised": 25773,
    "Ġheat": 5453,
    "Ġinterlacing": 22580,
    "Ġlordly": 23746,
    "kye": 20940,
    "arus": 13915,
    "iter": 4393,
    "Ġremoved": 5275,
    "Ġincorruption": 26310,
    "Ġwere": 557,
    "Ġrenders": 13288,
    "immortal": 21713,
    "Ġteneriffe": 26416,
    "Ġparish": 8858,
    "Ġartistic": 18613,
    "Ġdiffused": 12073,
    "Ġeverlasting": 9340,
    "Ġbrixton": 13667,
    "Ġwest": 5219,
    "Ġsus": 18277,
    "Ġrecords": 12200,
    "expectation": 14859,
    "Ġstem": 15723,
    "Ġdanes": 25160,
    "Ġreverse": 16984,
    "Ġassembly": 10645,
    "Ì": 141,
    "Ġordin": 16653,
    "Ġcategor": 4138,
    "Ġtyros": 26102,
    "Ġmult": 1022,
    "Ġjost": 23632,
    "Ġstiffly": 15007,
    "Ġcaged": 21355,
    "Ġparted": 5930,
    "Ġunder": 1635,
    "Ġdragon": 14947,
    "sterdam": 19091,
    "twist": 23700,
    "Ġallen": 5160,
    "Ġspell": 8859,
    "december": 25559,
    "Ġenlivened": 26209,
    "Ġmatches": 14399,
    "Ġspecksnyder": 17406,
    "Ġ123": 24468,
    "dutch": 17221,
    "Ġclumsy": 9582,
    "Ġbeh": 1800,
    "Ġprocessing": 879,
    "buffalo": 20566,
    ",âĢĿ": 579,
    "Ġassistant": 7298,
    "nowledge": 10292,
    "Ġdevotees": 25377,
    "Ġfads": 21419,
    "Ġfewer": 16229,
    "Ġstudded": 18975,
    "Ġallows": 3232,
    "Ġabundant": 17157,
    "Ġintegr": 7969,
    "Ġpendulous": 25956,
    "Ġperformance": 1308,
    "Ġprodigies": 19796,
    "gentlemen": 9507,
    "influence": 13582,
    "icket": 22671,
    "university": 25984,
    "Ġliv": 6681,
    "ordinary": 4409,
    "Ġshock": 6083,
    "Ġegot": 18010,
    "conjectured": 25182,
    "itime": 15552,
    "Ġowest": 25094,
    "sat": 4809,
    "reference": 13843,
    "goldsmith": 20150,
    "ript": 4151,
    "Ġslee": 8977,
    "Ġhypothesis": 14787,
    "oker": 10964,
    "Ġunintelligible": 26516,
    "bies": 15316,
    "Ġsongs": 13424,
    "dinah": 20084,
    "Ġdim": 4756,
    "Ġreaction": 15699,
    "Ġwondrously": 24070,
    "Ġknees": 6928,
    "tre": 8764,
    "jewel": 20349,
    "unwillingly": 21888,
    "rabb": 15684,
    "Ġhurled": 10431,
    "acute": 22598,
    "fat": 8079,
    "Ġfunctional": 3048,
    "Ġterm": 2269,
    "Ġswelled": 11088,
    "danger": 10092,
    "Ġdetermination": 9822,
    "Ġchronic": 9932,
    "================================================================": 9993,
    "Ġwaned": 17793,
    "Ġshunned": 17296,
    "rat": 8759,
    "Ġown": 1007,
    "Ġharry": 24572,
    "Ġdeftly": 26495,
    "unvarying": 21891,
    "Ġspilling": 22142,
    "Ġthink": 986,
    "ispens": 8336,
    "Ġcourt": 4168,
    "screw": 9350,
    "sembled": 7263,
    "persu": 8028,
    "proachable": 23401,
    "Ġmatrimony": 13639,
    "Ġcustomary": 8673,
    "c": 71,
    "Ġdoom": 6418,
    "secret": 12241,
    "Ġbaltic": 18800,
    "Ġconcluding": 9860,
    "Ġskylarking": 19490,
    "Ġsooty": 25816,
    "worship": 19390,
    "Ġmeasures": 1205,
    "surrounded": 26089,
    "Ġfut": 15579,
    "Ġacceler": 1610,
    "Ġrumbling": 18212,
    "Ġjog": 18405,
    "kill": 13747,
    "mathematics": 26305,
    "uzzle": 19586,
    "Ġbordering": 17231,
    "Ġintend": 12769,
    "caused": 25520,
    "althily": 19362,
    "go": 2062,
    "steering": 16638,
    "Ġgenerally": 4156,
    "Ġruinous": 24634,
    "Ġpilgr": 12185,
    "Ġpomp": 12627,
    "Ġupheld": 22156,
    "Ġfluctuations": 5516,
    "Ġalabama": 14022,
    "Ġprevailing": 24674,
    "Ġcum": 21345,
    "Ġtunes": 24620,
    "Ġinner": 9673,
    "escaped": 14232,
    "Ġauto": 23321,
    "umn": 5836,
    "finer": 17548,
    "Ġscorched": 17102,
    "Ġdraught": 9850,
    "_)âĢĶ": 20147,
    "Ġthereby": 7645,
    "Ġmist": 2875,
    "s": 87,
    "heads": 4095,
    "Ġdismally": 20217,
    "Ġmutually": 23960,
    "Ġwickham": 2207,
    "Ġvibration": 17100,
    "Ġproudly": 19745,
    "pay": 10720,
    "Ġparliament": 18303,
    "Ġbeats": 21756,
    "fact": 6360,
    "Ġesc": 2256,
    "Ġclaims": 13377,
    "erson": 7003,
    "Ġblinded": 13275,
    "Ġ1839": 20463,
    "Ġrevolut": 3257,
    "Ġcharitable": 23273,
    "Ġanother": 1739,
    "Ġmonomaniac": 9571,
    "mis": 4521,
    "Ġsticks": 14934,
    "Ġalleviated": 26205,
    "anke": 15565,
    "Ġgossiping": 26245,
    "lemagne": 26438,
    "secur": 18129,
    "Ġshowed": 4497,
    "Ġpike": 12628,
    "pervised": 1595,
    "infer": 10147,
    "Ġbrazen": 23843,
    "Ġxv": 23409,
    "Ġon": 350,
    "Ġfrightful": 7736,
    "Ġpurposed": 23555,
    "sleeves": 26110,
    "âĢĺ": 939,
    "lu": 598,
    "Ġpore": 21457,
    "Ġmeanly": 12914,
    "Ġswitzerland": 10382,
    "Ġfreed": 7267,
    "Ġscolded": 25473,
    "stun": 18018,
    "Ġappertaining": 26535,
    "cousins": 20121,
    "Ġfavourites": 16647,
    "Ġpau": 17907,
    "arrested": 15605,
    "Ġchest": 5185,
    "iline": 21724,
    "prevented": 20377,
    "Ġtransports": 24280,
    "Ġflamingo": 15104,
    "rol": 5713,
    "Ġswart": 14437,
    "ighter": 7968,
    "fi": 12466,
    "Ġwalrus": 14976,
    "Ġfins": 9666,
    "revolver": 25628,
    "becomes": 22500,
    "good": 2897,
    "Ġfinite": 2326,
    "Ġdab": 15592,
    "protest": 24812,
    "Ġpoll": 12034,
    "Ġcontention": 22430,
    "iciency": 9577,
    "Ġcounteracted": 19864,
    "irement": 18356,
    "Ġtree": 5285,
    "Ġdestructive": 23489,
    "Ġconvent": 11671,
    "mas": 5212,
    "Ġcalls": 6746,
    "Ġpersever": 10006,
    "Ġsanctioned": 26352,
    "Ġdiscern": 7925,
    "Ġdirection": 1792,
    "Ġvoices": 7876,
    "sigma": 2999,
    "Ġtelegram": 15227,
    "avo": 8520,
    "Ġsuspects": 16892,
    "Ġmysterious": 7528,
    "Ġconstruction": 9389,
    "ì": 173,
    "etite": 21582,
    "oar": 12502,
    "Ġparticulars": 5754,
    "professor": 17252,
    "Ġineffect": 13933,
    "Ġpolitely": 8996,
    "Ġshameful": 19854,
    "Ġhorizontal": 7783,
    "_.,": 14563,
    "serpent": 16295,
    "Ġsands": 14951,
    "Ġallow": 1132,
    "ours": 3428,
    "Ġgot": 2282,
    "Ġrusty": 14967,
    "Ġjail": 22298,
    "Ġreluct": 14375,
    "Ġguide": 3215,
    "Ġinher": 10182,
    "elijah": 19476,
    "vig": 15449,
    "Ġmontan": 22988,
    "Ġvib": 8165,
    "Ġbachel": 7159,
    "active": 16107,
    "Ġhaggard": 17333,
    "Ġbitt": 10798,
    "Ġsignific": 3830,
    "Ġconsoled": 18115,
    "Ġlabour": 7274,
    "deal": 12804,
    "Ġagain": 815,
    "Ġsickle": 24248,
    "timidity": 25754,
    "sad": 11522,
    "Ġseeing": 2883,
    "Ġ126": 24471,
    "ĠmanÅĵuv": 18418,
    "Ġconducting": 16652,
    "Ġstrang": 4159,
    "opolising": 25677,
    "penn": 18828,
    "Ġtormented": 8678,
    "mael": 6725,
    "Ġmodel": 509,
    "Ġbelongs": 8015,
    "pushed": 21025,
    "xi": 17712,
    "Ġsqueezed": 20039,
    "Ġtraditions": 11444,
    "ermaid": 14301,
    "handle": 11191,
    "ateur": 22075,
    "Ġply": 21452,
    "rifled": 21050,
    "Ġintent": 6410,
    "Ġshout": 4264,
    "ĠĠĠĠĠĠĠĠĠĠĠĠĠĠĠĠĠĠĠĠĠĠĠĠĠĠĠĠĠĠĠĠĠĠĠĠĠĠĠ": 19261,
    "Ġfork": 15736,
    "Ġplate": 8902,
    "Ġcircumspect": 15088,
    "Ġcoins": 11823,
    "Ġunfavourable": 17420,
    "confusion": 13374,
    "Ġsmiled": 5942,
    "disposition": 10045,
    "Ġunderstanding": 1804,
    "libr": 22926,
    "information": 12397,
    "Ġtheir": 645,
    "Ġcommissionaire": 17002,
    "Ġrespond": 11177,
    "eryton": 4094,
    "Ġmomentum": 1602,
    "Ġeffemin": 18541,
    "bable": 8722,
    "Ġembarkation": 25125,
    "atig": 13848,
    "Ġfiery": 6871,
    "cheered": 23808,
    "Ĳ": 243,
    "stache": 15693,
    "plexy": 18578,
    "Ġsurprising": 14599,
    "Ġsubmerged": 11876,
    "Ġprob": 970,
    "Ġgen": 5298,
    "Ġkitchen": 8498,
    "Ġdauntless": 26338,
    "othing": 6996,
    "Ġfell": 1978,
    "Ġleyden": 21751,
    "Ġvague": 6407,
    "Ġdick": 3497,
    "Ġillust": 8263,
    "laborers": 23919,
    "Ġnoticed": 5549,
    "Ġrefreshment": 17242,
    "eyeing": 14949,
    "Ġnorth": 4319,
    "Ġtrample": 20330,
    "chanced": 18812,
    "Ġcoach": 6867,
    "winter": 10742,
    "Ġmal": 5221,
    "Ġfade": 21410,
    "Ġupon": 717,
    "Ġpersonality": 16479,
    "penetrating": 25491,
    "Ġcharm": 4548,
    "Ġmccarthys": 19665,
    "Ġpattered": 19003,
    "Ġpace": 9185,
    "Ġreproof": 24891,
    "Ġsoil": 9258,
    "susp": 10599,
    "Ġplied": 22600,
    "Ġcompunction": 18586,
    "wered": 2690,
    "Ġaimed": 20253,
    "qu": 368,
    "Ġwakeful": 24269,
    "Ġfearfully": 23514,
    "Ġcase": 1943,
    "Ġcasc": 15560,
    "Ġedd": 8398,
    "expound": 23662,
    "Ġcalamity": 17352,
    "Ġsn": 2947,
    "gypt": 8261,
    "Ġfolio": 11922,
    "Ġeven": 1026,
    "Ġconstruct": 23344,
    "consult": 24172,
    "unaccountable": 15783,
    "cott": 8074,
    "Ġhate": 5445,
    "determined": 9082,
    "Ġsecre": 5493,
    "Ġdays": 2076,
    "paralleled": 14525,
    "Ġhoars": 19079,
    "appro": 7046,
    "Ġmaintained": 12939,
    "Ġtoll": 7852,
    "Ġheading": 8938,
    "Ġgirl": 3086,
    "Ġvigour": 24462,
    "Ġheedless": 14906,
    "Ġbale": 7838,
    "rods": 21541,
    "wearing": 22690,
    "Ġpositional": 2598,
    "Ġeddying": 17119,
    "ounce": 6559,
    "Ġhonestly": 19975,
    "haustible": 16893,
    "Ġtackles": 8051,
    "Ġdivergence": 2727,
    "Ġpitiful": 13243,
    "billiard": 25335,
    "consuming": 25675,
    "grandfather": 25012,
    "Ġcaps": 8416,
    "Ġinstrument": 7120,
    "haust": 5777,
    "Ġbare": 6134,
    "Ġindel": 13009,
    "Ġminuteness": 19140,
    "Ġbarrel": 23794,
    "enchanted": 26426,
    "getting": 12972,
    "Ġcas": 8412,
    "Ġscience": 1537,
    "perceived": 8862,
    "Ġobsequ": 14323,
    "clever": 20815,
    "====": 1481,
    "Ġkey": 2100,
    "Ġsettee": 22924,
    "Ġobser": 2069,
    "Ġsurely": 6309,
    "Ġanalyzing": 18788,
    "Ġwarmth": 6905,
    "Ġsatiated": 22908,
    "Ġhussey": 7725,
    "pillar": 5619,
    "Ġcoco": 11001,
    "urged": 18050,
    "mare": 17601,
    "merit": 19284,
    "Ġoffended": 7042,
    "itters": 10783,
    "ü": 189,
    "Ġour": 1009,
    "Ġearthy": 23715,
    "Ġ20": 8617,
    "._)": 10483,
    "Ġdirectly": 2104,
    "ioneer": 15636,
    "Ġportent": 12086,
    "Ġgpt": 4351,
    "oblig": 16294,
    "steady": 14712,
    "irons": 10241,
    "Ġattachment": 6051,
    "Ġcountless": 16387,
    "Ġmanufactured": 22334,
    "appl": 9329,
    "Ġrekindled": 21680,
    "naturedly": 24841,
    "enough": 6810,
    "Ġmy": 412,
    "Ġulster": 14999,
    "Ġtreacherously": 25132,
    "Ġdeparture": 6491,
    "Ġmargin": 11925,
    "Ġgardiners": 11158,
    "Ġcompletely": 4860,
    "oglyph": 11019,
    "Ġcentrally": 23835,
    "rown": 2192,
    "corrupt": 14898,
    "tempest": 16961,
    "Ġhalting": 16277,
    "volutional": 1937,
    "reach": 17759,
    "Ġsnoring": 23742,
    "rested": 13079,
    "cept": 552,
    "derick": 22166,
    "Ġtottenham": 24145,
    "ban": 9587,
    "flatter": 23970,
    "Ġcompanions": 5867,
    "Ġrevelry": 15140,
    "Ġvibrating": 13541,
    "Ġbespe": 19244,
    "slow": 7810,
    "gazing": 12476,
    "Ġlegendary": 20540,
    "Ġdiscerned": 25006,
    "Ġupbraiding": 26228,
    "Ġinestim": 15628,
    "gang": 17555,
    "Ġket": 18348,
    "Ġmira": 8408,
    "Ġav": 3580,
    "Ġreader": 11938,
    "Ġrem": 954,
    "Ġmoral": 6581,
    "Ġval": 953,
    "Ġinstinctively": 13463,
    "aloons": 20014,
    "Ġforster": 5230,
    "Ġtig": 13816,
    "Ġrecom": 4555,
    "Ġejaculated": 15173,
    "ute": 4642,
    "Ġreciproc": 20625,
    "Ġforever": 14554,
    "rue": 1133,
    "Ġintentionally": 24523,
    "Ġcook": 3713,
    "Ġenticements": 26035,
    "Ġevil": 3808,
    "hairs": 20906,
    "Ġfamily": 1968,
    "window": 7743,
    "Ġreliance": 14388,
    "Ġmarling": 23037,
    "Ġcoming": 2618,
    "declaration": 25176,
    "Ġconversing": 14635,
    "morland": 24156,
    "Ġrelics": 16199,
    "Ġlegend": 14576,
    "Ġaccidents": 10298,
    "Ġst": 332,
    "ails": 6162,
    "force": 12964,
    "Ġbat": 10797,
    "Ġcommonest": 23093,
    "daggoo": 13710,
    "pherd": 13648,
    "Ġhor": 1658,
    "Ġscuffle": 20611,
    "rubbed": 22194,
    "ocean": 12405,
    "attery": 18501,
    "Ġork": 18285,
    "occurrences": 26333,
    "Ġlivery": 16003,
    "ĠĠĠĠĠĠĠ": 7633,
    "amy": 8470,
    "outh": 2688,
    "Ġslouched": 13064,
    "Ġnatives": 17953,
    "!": 5,
    "churning": 21700,
    "Ġoriental": 9100,
    "Ġjan": 11766,
    "attering": 7419,
    "Ġlocations": 12416,
    "iding": 3848,
    "Ġemper": 9864,
    "Ġcapric": 14578,
    "Ġgam": 11626,
    "li": 1188,
    "Ġreproachfully": 25252,
    "Ġinitials": 11015,
    "Ġaugmentation": 20119,
    "ighbour": 3390,
    "Ġcaut": 6522,
    "Ġimpo": 3442,
    "velled": 9879,
    "Ġguess": 4903,
    "wander": 17711,
    "sullenly": 26150,
    "Ġdiffer": 18678,
    "ounix": 14166,
    "Ġoccupations": 9461,
    "Ġsneeze": 24698,
    "Ġspoutings": 14678,
    "Ġcaprice": 14579,
    "ve": 322,
    "consc": 4840,
    "Ġfamiliarity": 16731,
    "Ġsegmentation": 17343,
    "cheap": 23807,
    "Ġtravellers": 11309,
    "drawers": 19389,
    "Ġbrag": 23837,
    "Ġspeech": 4610,
    "oors": 17622,
    "Ġnupt": 13946,
    "Ġtowns": 11174,
    "Ġtension": 13827,
    "Ġemir": 23353,
    "Ġunimaginable": 15250,
    "safety": 20352,
    "Ġimagine": 3924,
    "Ġwealthy": 18181,
    "Ġcloset": 19594,
    "Ġbohemian": 17136,
    "azed": 9402,
    "Ġarrested": 9563,
    "Ġplight": 14284,
    "Ġleathern": 15053,
    "fort": 1749,
    "Ġothers": 2585,
    "Ġrenew": 6147,
    "Ġeavesdroppers": 25964,
    "Ġisrael": 21807,
    "Ġheaths": 25973,
    "successfully": 14994,
    "ran": 11517,
    "scale": 3534,
    "Ġdolphins": 20399,
    "aved": 5475,
    "social": 11024,
    "Ġforgetting": 3435,
    "Ġoptimization": 1420,
    "avery": 13687,
    "Ġwave": 7577,
    "spect": 3231,
    "Ġaccounts": 7207,
    "pictures": 15094,
    "Ġmatted": 22916,
    "Ġpeev": 22696,
    "Ġeffected": 14358,
    "Ġstowing": 18074,
    "Ġengrossed": 13002,
    "Ġindul": 5858,
    "Ġreced": 15696,
    "Ġpubl": 3941,
    "worthy": 7733,
    "inferior": 12398,
    "Ġretreats": 16930,
    "Ġcarving": 14446,
    "kles": 17586,
    "Ġconst": 1910,
    "âĢĶâĢľ_": 13208,
    "Ġrobberies": 22975,
    "Ġtransmit": 10307,
    "Ġmodern": 3227,
    "Ġedward": 19153,
    "Ġteacher": 22900,
    "conquerable": 17402,
    "Ġoce": 3030,
    "Ġnarrative": 6217,
    "Ġabandonment": 25604,
    "thro": 12766,
    "ctic": 8443,
    "Ġrosy": 18457,
    "Ġ58": 24322,
    "Ġquivers": 22417,
    "Ġcompletion": 12152,
    "Ġnibbling": 17388,
    "Ġindestructible": 26574,
    "Ġprophetic": 20023,
    "leaves": 12583,
    "Ġfemin": 13440,
    "Ġgourmand": 26468,
    "amples": 1823,
    "wishing": 21131,
    "}": 97,
    "Ġresembled": 18036,
    "Ġcapacity": 10442,
    "Ġharbors": 24902,
    "little": 3351,
    "Ġpledged": 20690,
    "disapprobation": 19159,
    "unks": 15779,
    "Ġinvolves": 1111,
    "Ġadvised": 16216,
    "Ġsoothed": 10032,
    "Ġscale": 1546,
    "Ġ54": 24318,
    "Ġrenow": 18030,
    "Ġspoon": 22139,
    "confirmation": 26090,
    "soever": 11863,
    "rendered": 22343,
    "pequod": 7054,
    "Ġpri": 5814,
    "abeth": 909,
    "Ġprofessed": 14727,
    "Ġtraps": 23083,
    "Ġgenteel": 19984,
    "critical": 19499,
    "Ġconvey": 9984,
    "Ġcollinses": 19131,
    "angel": 5726,
    "gee": 15981,
    "Ġlesson": 7276,
    "Ġsche": 1704,
    "Ġare": 527,
    "displayed": 20738,
    "Ġameric": 3855,
    "Ġapprehen": 16831,
    "Ġraging": 14310,
    "Ġarthur": 7196,
    "eld": 976,
    "ruff": 15905,
    "muring": 17603,
    "Ġcontr": 1916,
    "Ġnicely": 8712,
    "Ġsacrifice": 9558,
    "till": 6966,
    "Ġacquies": 11098,
    "ifix": 21907,
    "rodu": 1819,
    "af": 2376,
    "orney": 17875,
    "Ġbones": 4583,
    "agonies": 21913,
    "ierce": 14395,
    "Ġbegun": 7243,
    "Ġpossibility": 7458,
    "umbled": 8495,
    "Ġstash": 18070,
    "Ġhorn": 6187,
    "ks": 3145,
    "Ġdears": 18139,
    "hval": 20900,
    "Ġvines": 12756,
    "Ġrepugn": 23366,
    "vi": 2375,
    "Ġfruit": 12330,
    "Ġsm": 704,
    "Ġtinge": 25090,
    "Ġfuel": 13907,
    "accusations": 23601,
    "Ġliterary": 25166,
    "Ġcontrad": 9758,
    "Ó": 148,
    "Ġexe": 3993,
    "Ġcrad": 21352,
    "Ġhesitated": 10005,
    "veil": 18045,
    "icism": 13959,
    "Ġfathers": 16299,
    "reds": 12752,
    "Ġrending": 19470,
    "wedding": 12526,
    "note": 14345,
    "orph": 21402,
    "oused": 6558,
    "Ġtim": 4578,
    "Ġtorment": 8677,
    ").": 1272,
    "ambition": 13415,
    "ď": 208,
    "Ġmeditations": 25016,
    "Ġobliged": 4286,
    "Ġbewit": 15732,
    "lacing": 17592,
    "Ġ132": 19898,
    "Ġdeem": 18136,
    "Ġdevils": 7230,
    "morning": 4858,
    "Ġwaistcoat": 12275,
    "magnificent": 20277,
    "made": 4807,
    "Ġclenched": 14210,
    "Ġdarkly": 19116,
    "conve": 14246,
    "kin": 7133,
    "listen": 13517,
    "fatig": 17090,
    "ipagos": 22353,
    "Ġdetection": 3385,
    "asily": 13949,
    "urch": 3992,
    "come": 2377,
    "Ġswiss": 18883,
    "ton": 1727,
    "fuller": 22490,
    "Ġbelow": 4061,
    "Ġflush": 14427,
    "stationed": 25454,
    "sailing": 14717,
    "Ġunnatural": 7190,
    "axed": 8892,
    "itement": 7835,
    "cru": 7128,
    "Ġcow": 13879,
    "Ġroar": 9754,
    "Ġpoor": 1708,
    "allingly": 22203,
    "Ġjoined": 4564,
    "ret": 1475,
    "Ġfeebly": 24878,
    "innocence": 15187,
    "phenomenon": 17650,
    "Ġnearly": 3363,
    "Ġ]": 15462,
    "finds": 19929,
    "necessary": 5883,
    "Ġissue": 2313,
    "Ġcommonplace": 11097,
    "Ġflew": 5588,
    "Ù": 154,
    "Ġindu": 5295,
    "Ġcombines": 1139,
    "Ġbrown": 6300,
    "get": 1021,
    "Ġproportionate": 17044,
    "Ġstag": 6150,
    "800": 17479,
    "Ġrules": 1920,
    "Ġrooms": 5180,
    "Ġhandsome": 4906,
    "assemblies": 25957,
    "foot": 9049,
    "poles": 16213,
    "requent": 3650,
    "Ġbreeze": 5681,
    "spirit": 11314,
    "Ġdict": 9178,
    "physiogn": 26272,
    "Ġfleecy": 17025,
    "Ġmassa": 19457,
    "pidation": 18898,
    "hearts": 13349,
    "Ġshoes": 7073,
    "Ġdun": 6676,
    "until": 6598,
    "Ġorganisation": 23585,
    "bra": 6221,
    "Ġchili": 25562,
    "Ġexpert": 18869,
    "peasant": 23114,
    "Ġenergy": 2553,
    "uting": 15664,
    "Ġrepressed": 21671,
    "Ġdisaster": 12892,
    "jane": 4483,
    "magistrate": 19865,
    "crack": 19843,
    "together": 3555,
    "Ġslink": 23166,
    "even": 3839,
    "philips": 20038,
    "Ġqueen": 3212,
    "Ġstanding": 2995,
    "Ġleaned": 7609,
    "Ġmot": 2982,
    "Ġdandy": 17894,
    "B": 38,
    "Ġmortals": 9919,
    "Ġviv": 6158,
    "Ġconventional": 25548,
    "top": 4486,
    "Ġs": 265,
    "Ġgroping": 13669,
    "Ġspas": 10924,
    "Ġbrides": 22869,
    "Ġvain": 3630,
    "crow": 9593,
    "Ġluck": 4880,
    "Ġfrance": 7683,
    "ought": 830,
    "Ġrecre": 22738,
    "Ġenthusiastic": 19969,
    "ut": 308,
    "prejudice": 25572,
    "drowned": 17372,
    "duing": 22415,
    "Ġexploitation": 2348,
    "ming": 3601,
    "endering": 21287,
    "Ġeveryday": 22772,
    "resistible": 10646,
    "Ġtears": 4229,
    "Ġhour": 1812,
    "Ġspending": 10925,
    "Ġlav": 13953,
    "Ġassoc": 6403,
    "inted": 2648,
    "Ġinns": 17932,
    "Ġsighing": 18677,
    "Ġbottled": 23798,
    "Ġcrooked": 11282,
    "Ġcontrary": 5261,
    "Ġevaporate": 26334,
    "scoured": 22998,
    "Ġavast": 9923,
    "Ġpistols": 17332,
    "Ġsaddest": 16665,
    "rate": 2422,
    "story": 9215,
    "represent": 9640,
    "Ġeveryone": 8921,
    "Ġeccentric": 13653,
    "ķ": 248,
    "Ġringleader": 26214,
    "Ġdutch": 6329,
    "Ġskirt": 18728,
    "deserts": 25382,
    "Ġadventures": 7748,
    "lant": 20949,
    "Ġassailants": 20452,
    "Ġjump": 4504,
    "Ġclasping": 20212,
    "Ġhaggerston": 26454,
    "Ġfootfall": 14663,
    "Ġfel": 1515,
    "Ġintention": 5638,
    "blacksmith": 17003,
    "Ġimmeasurable": 26231,
    "teenth": 11878,
    "Ġgrounded": 23714,
    "jee": 17581,
    "Ġusage": 9734,
    "dÃ¦mon": 17529,
    "tailed": 17687,
    "mile": 17599,
    "ariously": 18528,
    "Ġdomestic": 6913,
    "duty": 20242,
    "Ġoperated": 14548,
    "viating": 14581,
    "him": 1942,
    "Ġslipping": 13365,
    "Ġrus": 14096,
    "Ġfiver": 22781,
    "Ġextent": 7657,
    "Ġebony": 18011,
    "Ġmilk": 6486,
    "Ġemergency": 25731,
    "enced": 4296,
    "overlooked": 23328,
    "Ġrecognised": 8998,
    "Ġsuffusing": 23034,
    "Ġvile": 8475,
    "Ġreceipt": 20358,
    "dying": 15344,
    "Ġsteelkilt": 5675,
    "Ġvibrated": 25048,
    "Ġresting": 7962,
    "Ġpronouncing": 16971,
    "luding": 6702,
    "Ġastonished": 7089,
    "Ġwarriors": 19726,
    "Ġopenness": 18958,
    "ural": 499,
    "comed": 8547,
    "Ġindividuality": 14912,
    "Ġbarmaid": 19337,
    "pardon": 10068,
    "Ġvoice": 2191,
    "broker": 13309,
    "94": 4802,
    "Ġmedicine": 15210,
    "Ġshell": 11740,
    "continue": 16863,
    "dragging": 16611,
    "darker": 24516,
    "ength": 2315,
    "Ġpermit": 9752,
    "Ġdigging": 14941,
    "seldom": 13790,
    "Ġkindly": 6078,
    "Ġreap": 18029,
    "Ġoverdone": 22356,
    "Ġneedles": 11185,
    "Ġspark": 6691,
    "Ġsisters": 3641,
    "Ġweapon": 7776,
    "attoo": 6808,
    "nurse": 15212,
    "Ġthursday": 12649,
    "Ġknee": 7095,
    "ressing": 8922,
    "Ġcrystal": 17217,
    "Ġdarted": 4757,
    "Ġobjects": 5578,
    "trap": 24334,
    "bec": 4052,
    "ĠdÃ¦mon": 7844,
    "pine": 13772,
    "opy": 4459,
    "returns": 23141,
    "Ġsenior": 17174,
    "Ġconfid": 7688,
    "Ġinnermost": 12165,
    "[_": 5131,
    "happened": 9436,
    "Ġtremendous": 8353,
    "assisted": 22311,
    "county": 25397,
    "ruction": 4358,
    "Ġlift": 8815,
    "Ġcategorization": 12141,
    "Ġstrangled": 24136,
    "Ġstrikes": 13185,
    "rusion": 11324,
    "Ġjack": 4652,
    "ured": 1652,
    "Ġleatherhead": 20017,
    "Ā": 193,
    "Ġbul": 3293,
    "Ġunconscious": 9550,
    "Ġreconsidered": 21676,
    "watches": 14950,
    "Ġtowering": 16741,
    "bottom": 11427,
    "itaries": 21339,
    "Ġscand": 7203,
    "european": 26373,
    "somebody": 14566,
    "surprising": 16921,
    "Ġfagged": 17884,
    "Ġundoubted": 19517,
    "18": 20753,
    "Ġbull": 7839,
    "Ġthoughtfully": 12985,
    "holding": 7739,
    "Ġcomp": 723,
    "Ġklux": 22199,
    "due": 22414,
    "icy": 6142,
    "rows": 6443,
    "Ġpouch": 21468,
    "Ġding": 12604,
    "mild": 15395,
    "Ġsink": 4341,
    "Ġmoran": 9345,
    "Ġtenderness": 12220,
    "Ġroute": 11382,
    "ribed": 7694,
    "Ġexultation": 15175,
    "Ġxiv": 23410,
    "Ġwide": 4108,
    "legs": 13186,
    "two": 3861,
    "signed": 21064,
    "Ġeulogy": 26472,
    "ht": 375,
    "Ġubiqu": 18049,
    "Ġtimorous": 24228,
    "Ġtu": 6969,
    "Ġpursued": 6330,
    "Ġinconveniences": 24942,
    "Ġdiscretion": 10350,
    "Ġmarry": 4419,
    "Ġfreckled": 18960,
    "collinses": 19925,
    "ogr": 18674,
    "Ġriverside": 25248,
    "rapid": 12675,
    "Ġminutes": 2997,
    "roof": 17956,
    "Ġwhims": 12697,
    "Ġalbert": 12711,
    "Ġpreprocess": 22237,
    "Ġerrors": 2597,
    "Ġmonica": 22990,
    "Ġsmothe": 18574,
    "teous": 16177,
    "Ġ92": 24591,
    "avish": 22597,
    "Ġglimmered": 20174,
    "Ġris": 4886,
    "Ġsneezing": 12252,
    "leaned": 21372,
    "Ġbob": 22640,
    "book": 4669,
    "Ġproceedings": 9910,
    "Ġregulations": 18592,
    "ications": 4446,
    "ways": 1441,
    "ides": 2161,
    "Ġap": 5007,
    "ursday": 12281,
    "Ġblood": 3167,
    "Ġquote": 18467,
    "Ġimagenet": 19248,
    "neg": 12870,
    "Ġpathways": 11154,
    "Ġattentively": 9953,
    "Ġfeatureless": 22613,
    "ede": 21509,
    "Ġsleeper": 8604,
    "church": 8140,
    "Ġwilson": 6632,
    "Ġcord": 5222,
    "Ġmerrily": 23734,
    "anean": 7443,
    "stars": 18019,
    "Ġdaintiest": 25954,
    "Ġancestry": 25642,
    "etian": 13962,
    "Ġprairie": 8716,
    "instrument": 15242,
    "Ġidea": 2487,
    "Ġimaginations": 16518,
    "Ġglimp": 6067,
    "Ġnosegay": 24195,
    "Ġsharp": 2415,
    "Ġpurchase": 12264,
    "rest": 1632,
    "Ġgross": 11627,
    "Ġintensity": 10019,
    "Ġmoderation": 12823,
    "Ġcleaned": 23185,
    "blasted": 20192,
    "ev": 6952,
    "Ġclutching": 24954,
    "Ġlogits": 3450,
    "Ġmet": 1809,
    "spikes": 10344,
    "Ġleaking": 21749,
    "Ġintroduce": 3205,
    "ified": 3225,
    "ckets": 6843,
    "Ġuntouched": 16468,
    "rally": 17653,
    "ab": 345,
    "tied": 21073,
    "whence": 23216,
    "able": 452,
    "return": 5489,
    "Ġdevice": 1931,
    "deceptive": 22153,
    "ceptive": 15969,
    "Ġdemonstrate": 24997,
    "Ġvanished": 6874,
    "Ġpest": 13916,
    "Ġrapid": 1448,
    "ineering": 21971,
    "Ġdetailed": 12829,
    "ez": 5683,
    "perfect": 7636,
    "Ġclifford": 22370,
    "Ġunimpe": 22074,
    "Ġinboard": 17935,
    "Ġdepose": 22609,
    "Ġqueens": 16705,
    "gods": 13371,
    "fastened": 19327,
    "Ġembedding": 2102,
    "Ġtufted": 17016,
    "Ġsiamese": 20486,
    "Ġmuscles": 12093,
    "Ġrounded": 14441,
    "inkles": 7426,
    "chie": 21693,
    "Ġoblique": 20172,
    "ible": 1117,
    "Ġdiabolical": 20345,
    "trivial": 21095,
    "Ġpairs": 4181,
    "Ġyell": 21781,
    "representation": 20199,
    "underneath": 23791,
    "Ġdeer": 12725,
    "display": 19158,
    "Ġiter": 2950,
    "Ġribbed": 16806,
    "princip": 17139,
    "Ġinstantly": 3591,
    "rodden": 21538,
    "Ġaccumulating": 2722,
    "Ġunwillingness": 20035,
    "evid": 11486,
    "Ġhast": 3150,
    "wreck": 21139,
    "Ġmedium": 16708,
    "Ġinvention": 19956,
    "Ġinsert": 19907,
    "Ġprofessors": 14728,
    "accounted": 16503,
    "Ġbone": 4694,
    "Ġpriority": 19765,
    "con": 654,
    "Ġalms": 21784,
    "Ġdistricts": 20266,
    "Ġjoyously": 19350,
    "Ġgrinned": 16859,
    "assin": 22309,
    "Ġdistur": 5313,
    "belongs": 25597,
    "objections": 19918,
    "æ": 167,
    "Ġstooping": 13067,
    "injustice": 17739,
    "Ġdaw": 21432,
    "protruding": 24813,
    "Ġvictory": 16656,
    "giana": 7801,
    "Ġsplinter": 23749,
    "Ġpartially": 13127,
    "Ġreceptacle": 23194,
    "Ġferocious": 17422,
    "Ġwednesday": 9087,
    "Ġdupl": 9957,
    "Ġadvis": 9813,
    "Ġinfinite": 8580,
    "Ġshrugged": 12774,
    "Ġendeav": 2952,
    "anse": 12580,
    "Ġdivined": 19446,
    "Ġgesture": 11400,
    "acceptable": 25185,
    "Ġvulgarity": 25364,
    "Ġenvironmental": 24053,
    "Ġconsist": 1936,
    "Ġpin": 7162,
    "Ġenlist": 21940,
    "Ġanom": 12616,
    "pointed": 9811,
    "bloom": 24690,
    "vint": 21117,
    "ect": 381,
    "exactly": 10639,
    "ignorantly": 25190,
    "Ġexhilar": 19686,
    "anxiety": 25159,
    "Ġcity": 4530,
    "Ġpacked": 9983,
    "Ġapproximation": 2342,
    "Ġintroducing": 11980,
    "Ġefficient": 1056,
    "Ġpassers": 18759,
    "Ġfiss": 21415,
    "witted": 17709,
    "denial": 18714,
    "sec": 6154,
    "indignation": 18439,
    "pressing": 19016,
    "Ġprender": 22239,
    "Ġnat": 12650,
    "Ġpreser": 6042,
    "Ġselect": 3997,
    "iced": 3901,
    "Ġshutter": 16673,
    "Ġarrangement": 2657,
    "Ġbarred": 9005,
    "Ġglaring": 11913,
    "Ġdawned": 14997,
    "Ġsuperlative": 26075,
    "Ġwhitish": 24867,
    "Ġstately": 9837,
    "ander": 6402,
    "Ġhieroglyphic": 25588,
    "Ġstuck": 9223,
    "Ġspeculations": 23003,
    "lose": 12887,
    "Ġslyness": 25267,
    "Ġinfluences": 14868,
    "mouth": 9133,
    "Ġwreat": 15534,
    "otions": 7181,
    "Ġtenement": 23551,
    "Ġscept": 15506,
    "Ġalien": 14021,
    "Ġround": 1369,
    "datasets": 11954,
    "Ġtester": 21175,
    "avers": 17483,
    "Ġlighten": 23263,
    "recovered": 19790,
    "Ġfro": 3472,
    "Ġquohog": 10973,
    "Ġenv": 2823,
    "Ġoblong": 14324,
    "Ġstooped": 14466,
    "Ġrobbery": 11910,
    "swear": 16920,
    "Ġspanish": 2824,
    "Ġsuspicious": 9483,
    "Ġperishing": 22402,
    "gam": 10098,
    "Ġanon": 9669,
    "Ġindomit": 22958,
    "Ġfires": 16474,
    "Ġgrope": 17997,
    "admiration": 11388,
    "rust": 2583,
    "Ġuninter": 18247,
    "Ġivory": 4477,
    "Ġsteep": 2887,
    "Ġaccent": 10296,
    "atiate": 12553,
    "Ġboiling": 8528,
    "idelburgh": 10564,
    "eled": 2359,
    "Ġdetested": 14177,
    "ultural": 22572,
    "ades": 5631,
    "bow": 5424,
    "alizing": 17942,
    "Ġdiscovered": 4414,
    "stream": 15690,
    "Ġcitations": 25438,
    "inger": 6813,
    "Ġingratitude": 17471,
    "Ġportraits": 20145,
    "returned": 7766,
    "rimin": 2423,
    "sorrow": 12513,
    "cannib": 11907,
    "Ġventil": 8019,
    "momentum": 4990,
    "Ġdisengaged": 12894,
    "Ġsphere": 15887,
    "Ġreiter": 21669,
    "Ġfail": 4147,
    "state": 13977,
    "roar": 17955,
    "ellect": 7381,
    "tempestuous": 26098,
    "Ġreinforcement": 3341,
    "Ġsagaciously": 24730,
    "Ġadmit": 7711,
    "are": 638,
    "mped": 16650,
    "anish": 2617,
    "dressed": 10697,
    "swept": 19789,
    "tut": 15437,
    "cavity": 26127,
    "laugh": 10111,
    "appearing": 14639,
    "meal": 22716,
    "Ġproved": 4884,
    "Ġlaws": 8003,
    "Ġjapanese": 10636,
    "cob": 10089,
    "subtle": 24246,
    "Ġcaul": 10789,
    "Ġblotting": 25314,
    "Ġplaything": 19240,
    "slipping": 25529,
    "thank": 4949,
    "Ġmarried": 3410,
    "berwell": 22749,
    "arious": 10320,
    "Ġterrors": 6918,
    "Ġberyl": 20493,
    "Ġcrucifix": 26080,
    "Ġeffective": 1251,
    "all": 485,
    "_âĢĶâĢĻâĢĿ": 25742,
    "Ġbus": 1905,
    "Ġyielded": 14875,
    "ft": 912,
    "Ġdances": 10814,
    "Ġmarlingspike": 26581,
    "Ġensl": 19276,
    "Ġswandam": 11089,
    "Ġdampening": 2893,
    "Ġgained": 4535,
    "Ġplans": 7918,
    "Ġinitial": 823,
    "Ġbusier": 23341,
    "Ġsensibly": 14516,
    "ross": 809,
    "Ġdiscoveries": 13363,
    "Ġcle": 1508,
    "Ġendurance": 23139,
    "Ġranged": 10260,
    "dragged": 16610,
    "opius": 18509,
    "Ġcrater": 16438,
    "Ġmalicious": 10560,
    "Ġthoughtlessness": 16197,
    "Ġdint": 15595,
    "sherlock": 5422,
    "Ġ90": 24589,
    "Ġbehaviors": 13258,
    "abern": 21793,
    "evil": 11487,
    "consternation": 16914,
    "it": 276,
    "Ġblasts": 19999,
    "Ġ118": 19701,
    "Ġhangs": 11608,
    "Ġlodging": 24098,
    "Ġasiatics": 20434,
    "Ġmoreover": 6165,
    "Ġ41": 24084,
    "ived": 1530,
    "towards": 5002,
    "Ġwrit": 8242,
    "Ġmusty": 22683,
    "tolerably": 21098,
    "hurriedly": 25511,
    "Ġincreasing": 8247,
    "Ġxxxix": 24971,
    "thankful": 16808,
    "Ġwarp": 8113,
    "Ġdormouse": 4925,
    "Ġventured": 7502,
    "events": 12321,
    "Ġprocopius": 19734,
    "Ġstreaked": 19115,
    "ę": 218,
    "son": 2330,
    "Ġindex": 17050,
    "glings": 23854,
    "Ġfurnaces": 24008,
    "Ġdeg": 3280,
    "lod": 15382,
    "shore": 10309,
    "ave": 979,
    "Ġcolumn": 9331,
    "aned": 5147,
    "Ġblandly": 20326,
    "Ġperf": 12855,
    "Ġshifting": 12773,
    "playful": 24357,
    "Ġcharts": 12832,
    "Ġreplied": 2267,
    "Ġsimpl": 1578,
    "Ġmainten": 16117,
    "outside": 12809,
    "Ġzone": 14365,
    "Ġconsecrated": 26490,
    "Ġ93": 24592,
    "hun": 5210,
    "Ġfrenzy": 13626,
    "squall": 13525,
    "elson": 16377,
    "Ġoftener": 13569,
    "Ġmouth": 3180,
    "elephant": 12355,
    "Ġholy": 6593,
    "caps": 20809,
    "painter": 24897,
    "els": 1765,
    "whalers": 17266,
    "Ġterminating": 23513,
    "mind": 4626,
    "Ġsnugly": 17112,
    "Ġdramatic": 4850,
    "ingley": 1541,
    "circ": 4390,
    "Ġentertain": 6055,
    "Ġregent": 18590,
    "Ġmost": 1020,
    "Ġwade": 17786,
    "Ġuniversal": 2235,
    "Ġenclosure": 20627,
    "prejudiced": 17300,
    "Ġhud": 10824,
    "widows": 25345,
    "Ġconviction": 6328,
    "vapor": 25756,
    "em": 391,
    "Ġjinglers": 26019,
    "Ġphys": 5653,
    "Ġ57": 24321,
    "Ġshavings": 14113,
    "Ġ13": 6720,
    "elev": 12463,
    "Ġyielding": 12191,
    "charming": 15710,
    "Ġtheatre": 21281,
    "hatches": 19930,
    "Ġearned": 19408,
    "irations": 18173,
    "Ġworms": 25217,
    "Ġrue": 11871,
    "appre": 14374,
    "Ġenvirons": 13188,
    "Ġca": 21342,
    "Ġcoroner": 7511,
    "whe": 1074,
    "Ġpagans": 16924,
    "Ġregularly": 7659,
    "ustom": 3790,
    "Ġrelate": 6875,
    "Ġhardly": 2432,
    "kshire": 13749,
    "Ġlevel": 5019,
    "driven": 19774,
    "Ġpaunch": 23751,
    "quis": 7870,
    "Ġimprovements": 14511,
    "Ġsolace": 16203,
    "deployment": 26529,
    "Ġcol": 1060,
    "Ġforeshad": 23453,
    "Ġstart": 3258,
    "Ġdefray": 22944,
    "Ġsympathise": 16796,
    "Ġol": 17816,
    "ep": 443,
    "no": 892,
    "queequeg": 4334,
    "affa": 23779,
    "Ġsizes": 1517,
    "learn": 2200,
    "ingolstadt": 21306,
    "frankly": 20025,
    "Ġmathematical": 3350,
    "ogany": 18676,
    "courageous": 26128,
    "ices": 2138,
    "Ġcorpus": 13037,
    "sn": 7140,
    "Ġ166": 25007,
    "Ġstrongest": 11136,
    "Ġdonkey": 23230,
    "Ġdiscerning": 25005,
    "Ġsleeves": 10663,
    "amous": 15765,
    "ath": 859,
    "eminent": 25107,
    "Ġscientific": 6857,
    "Ġplacid": 11830,
    "punct": 20195,
    "Ġfacetious": 20587,
    "ulating": 10888,
    "Ġbands": 14887,
    "vic": 13805,
    "Ġpuzzled": 7317,
    "riptions": 14798,
    "Ġsurmis": 23465,
    "ean": 20842,
    "Ġburnished": 24001,
    "Ġyoungest": 7954,
    "Ġimpet": 11783,
    "Ġmand": 21307,
    "Ġominous": 12427,
    "Ġjudiciously": 23881,
    "Ġsparkled": 13466,
    "Ġreject": 7386,
    "Ġdevotedly": 24749,
    "books": 8667,
    "Ġxxv": 19720,
    "Ġmethinks": 10394,
    "Ġremarks": 7474,
    "Ġcadiz": 17328,
    "Ġrevered": 23736,
    "Ġunprepared": 22052,
    "wherein": 19109,
    "Ġlikelihood": 16502,
    "Ġintegration": 9871,
    "Ġcrystals": 20230,
    "Ġbest": 1976,
    "lung": 17593,
    "ubb": 1648,
    "Ġsharpen": 13573,
    "Ġstr": 757,
    "uncommonly": 25550,
    "Ġmud": 11575,
    "Ġmitig": 1337,
    "Ġfavourite": 5271,
    "shipping": 10311,
    "Ġocc": 888,
    "Ġbaleful": 24985,
    "necessities": 24308,
    "Ġpossessor": 23827,
    "resses": 16155,
    "Ġsaf": 4000,
    "ribbed": 16416,
    "Ġvirt": 3908,
    "Ġfretfulness": 25449,
    "Ġpublished": 11242,
    "Ġshaster": 22002,
    "balanced": 14556,
    "hast": 5358,
    "Ġ=": 1075,
    "Ġonce": 1490,
    "untarily": 6314,
    "Ġempt": 5051,
    "Ġexclaiming": 13645,
    "Ġsalvation": 14761,
    "Ġdevelopments": 23251,
    "Ġpurporting": 19184,
    "Ġcin": 13878,
    "Ġacutely": 14317,
    "Ġcreditors": 20133,
    "Ġspinning": 15055,
    "mits": 13759,
    "fishermen": 17063,
    "severe": 21823,
    "Ġsealed": 15819,
    "Ġultimate": 12353,
    "feed": 9296,
    "Ġdiscoursing": 26267,
    "Ġpaws": 13924,
    "pet": 4867,
    "Ġxavier": 2853,
    "isive": 10795,
    "Ġthinker": 22814,
    "Ġhandful": 9785,
    "fashion": 8081,
    "draught": 12095,
    "Ġfearing": 12820,
    "_).": 5888,
    "Ġbreakfast": 3975,
    "libra": 22928,
    "Ġsmoked": 10325,
    "ident": 3380,
    "Ġquantization": 19856,
    "nails": 17616,
    "ructure": 763,
    "Ġloud": 4700,
    "accur": 14595,
    "peace": 13054,
    "cil": 8724,
    "Ġnew": 1195,
    "yt": 17713,
    "Ġscorn": 7901,
    "Ġinadequate": 17939,
    "Ġmending": 17806,
    "inks": 6869,
    "Ġ&": 6514,
    "let": 2732,
    "Ġsoul": 2725,
    "Ġshorter": 4499,
    "Ġpen": 1529,
    "Ġcosmopol": 16456,
    "Ġcorrection": 5062,
    "Ġinterpretation": 19719,
    "shish": 11799,
    "Ġoutfits": 22325,
    "Ġhovered": 12636,
    "Ġinno": 1414,
    "itheat": 21341,
    "office": 16398,
    "Ġsepar": 3998,
    "perch": 18337,
    "umbrance": 22122,
    "anim": 6523,
    "hed": 673,
    "Ġagonized": 25373,
    "prophet": 16183,
    "Ġcongregated": 20100,
    "Ġsinks": 19552,
    "Ġmechan": 1183,
    "rock": 15645,
    "Ġlogger": 11958,
    "illating": 22111,
    "Ġdelicately": 24128,
    "barbaric": 26360,
    "Ġpell": 21455,
    "Ġmug": 21315,
    "jaws": 20934,
    "Ġrenounce": 19471,
    "Ġinstructions": 11196,
    "gentle": 5357,
    "Ġlink": 8130,
    "Ġrate": 1063,
    "Ġswamp": 14439,
    "Ġjoy": 3184,
    "sockets": 22731,
    "engagement": 14461,
    "Ġhempen": 13554,
    "Ġintrig": 21994,
    "Ġalarm": 4047,
    "admit": 18093,
    "Ġmarvels": 11085,
    "Ġfug": 12600,
    "Ġbush": 23340,
    "Ġoutput": 929,
    "Ġperpendicular": 7209,
    "although": 8810,
    "Ġwond": 3940,
    "ack": 611,
    "springs": 24912,
    "astic": 1869,
    "Ġcomplexity": 1692,
    "Ġmain": 810,
    "Ġprovides": 1932,
    "Ġflow": 1240,
    "certainly": 5340,
    "inglass": 21305,
    "Ġchristian": 6480,
    "atement": 17775,
    "natured": 7112,
    "ward": 705,
    "Ġdecomposes": 5506,
    "organ": 15578,
    "kicked": 20945,
    "acc": 2534,
    "serve": 13052,
    "Ġsports": 18311,
    "Ġware": 12559,
    "olen": 9703,
    "Ġhark": 8429,
    "Ġsnapped": 9900,
    "Ġbeasts": 10620,
    "Ġcredit": 4818,
    "Ġspeckled": 14312,
    "vess": 7354,
    "beards": 22495,
    "Ġegyptian": 13590,
    "Ġjustly": 11908,
    "Ġlewis": 15729,
    "Ġgener": 597,
    "Ġoffence": 12950,
    "Ġwithal": 18116,
    "artic": 14224,
    "trucks": 25420,
    "Ġdebt": 12172,
    "Ġenjoying": 11235,
    "Ġrum": 5925,
    "Ġsweetheart": 19398,
    "Ġmid": 2616,
    "Ġproble": 1114,
    "Ġdiscovering": 13362,
    "Ġbee": 21753,
    "Ġdescribed": 6608,
    "irra": 15789,
    "Ġmediocrity": 26610,
    "windward": 24163,
    "Ġprophet": 7682,
    "Ġmace": 21312,
    "Ġquill": 12862,
    "Ġextremely": 2668,
    "Ġshrouded": 14972,
    "Ġmaybe": 12954,
    "cool": 19189,
    "Ġburning": 5978,
    "another": 5439,
    "Ġpuff": 6527,
    "quarried": 24948,
    "Ġbeside": 5192,
    "ior": 2039,
    "ifting": 6547,
    "Ġuncouth": 14550,
    "Ġbefallen": 12347,
    "Ġnamely": 20692,
    "Ġpratt": 23220,
    "Ġpaddock": 25040,
    "Ġ1000": 3116,
    "Ġpunctual": 17140,
    "Ġdiscove": 16157,
    "Ġrepl": 1590,
    "coat": 5407,
    "Ġmiguel": 25767,
    "Ġsounds": 5190,
    "Ġwindward": 6885,
    "Ġhuff": 21493,
    "eck": 20846,
    "Ġattics": 22631,
    "Ġsquared": 1381,
    "Ġslumbers": 18944,
    "Ġputting": 5327,
    "Ġod": 4440,
    "Ġcast": 3606,
    "Ġfrederick": 15591,
    "Ġunfailing": 24114,
    "pocket": 9812,
    "Ġpassage": 3886,
    "Ġfatig": 6758,
    "Ġbeing": 1164,
    "believe": 8304,
    "examined": 17269,
    "Ġcheerily": 13312,
    "subject": 6634,
    "toss": 22570,
    "Ġoffer": 4843,
    "Ġforenoon": 19127,
    "Ġrejoice": 10211,
    "liament": 16221,
    "Ġdreary": 10410,
    "Ġsympathising": 24299,
    "attached": 11939,
    "links": 20960,
    "Ġrocking": 10969,
    "insula": 23069,
    "tracks": 19649,
    "Ġstained": 11655,
    "ements": 11109,
    "Ġunconditional": 15848,
    "Ġcabinets": 23865,
    "Ġpangs": 15619,
    "removing": 17766,
    "Ġwithhold": 18118,
    "angling": 14143,
    "scotch": 25852,
    "Ġwintry": 17437,
    "Ġdiscol": 12958,
    "ificent": 8184,
    "Ġcircular": 13115,
    "Ġdisabled": 18562,
    "Ġgritted": 22810,
    "attributed": 23123,
    "Ġanim": 2113,
    "Ġblossom": 26313,
    "Ġspake": 18309,
    "Ġanchors": 12618,
    "Ġshouts": 19540,
    "Ġcowardice": 17033,
    "Ġinevitably": 17233,
    "meryton": 10114,
    "ette": 15663,
    "ssian": 3401,
    "inition": 11558,
    "Ġ270": 25133,
    "shoulder": 16586,
    "Ġwilfully": 16768,
    "gave": 7800,
    "ner": 1371,
    "abulary": 4799,
    "Ġdazed": 15600,
    "Ġafforded": 8029,
    "broken": 8020,
    "Ġunaccountably": 26517,
    "occasionally": 13524,
    "Ġwalls": 6763,
    "Ġcalmed": 16271,
    "outre": 18321,
    "Ġsust": 7008,
    "morrow": 4572,
    "Ġpropos": 7064,
    "contempl": 13195,
    "Ġskies": 8924,
    "Ġoutrageous": 20613,
    "armon": 23062,
    "console": 22477,
    "Ġunquestion": 18249,
    "obliged": 20634,
    "learned": 8594,
    "icorn": 15661,
    "Ġcapture": 3386,
    "Ġrover": 18454,
    "guard": 12133,
    "Ġnod": 1891,
    "Ġplug": 17150,
    "Ġjudge": 5502,
    "itself": 7834,
    "Ġenormous": 5609,
    "quit": 15766,
    "Ġdiabolically": 25514,
    "Ġunaffected": 14125,
    "Ġtemples": 18639,
    "linearity": 1649,
    "Ġprimal": 17108,
    "conject": 8883,
    "Ġkiller": 19571,
    "Ġyouth": 4261,
    "arned": 21821,
    "Ġflitting": 13031,
    "Ġrelinquish": 17350,
    "ï": 176,
    "partly": 14605,
    "ums": 10275,
    "Ġvirgin": 7328,
    "Ġprivately": 19526,
    "Ġfe": 490,
    "Ġfocus": 4234,
    "whatsoever": 18488,
    "inf": 6234,
    "Ġbulldog": 23862,
    "Ġmons": 10159,
    "Ġmillions": 11355,
    "Ġfollowing": 4062,
    "ato": 17771,
    "enth": 6682,
    "unciation": 25983,
    "sam": 21054,
    "Ġapprehending": 26092,
    "Ġhypocr": 19475,
    "Ġpertaining": 18451,
    "du": 603,
    "menced": 23147,
    "Ġwes": 8783,
    "Ġpittance": 15621,
    "Ġgift": 10842,
    "Ġscent": 10287,
    "Ġcommenced": 8534,
    "Ġakin": 15498,
    "bold": 17490,
    "perv": 1571,
    "Ġrealising": 18984,
    "Ġpatient": 6892,
    "Ġunwell": 22019,
    "thirds": 25049,
    "readiness": 19366,
    "ream": 2709,
    "oke": 1861,
    "Ġbed": 2151,
    "vis": 4577,
    "Ġcontributes": 15254,
    "lucifer": 25303,
    "Ġsoliloqu": 11889,
    "Ġjames": 6420,
    "mon": 2311,
    "Ġmont": 8562,
    "high": 6652,
    "Ġtarshish": 12033,
    "Ġsiber": 17757,
    "Ġhistory": 4006,
    "Ġloomings": 24952,
    "Ġsherry": 19454,
    "Ġapparatus": 24909,
    "Ġdarker": 13124,
    "Ġspecific": 2002,
    "Ġshank": 22001,
    "stoke": 18022,
    "Ġcheapside": 23291,
    "Ġfreely": 7058,
    "ott": 1873,
    "Ġoath": 7833,
    "Ġanxious": 4518,
    "Ġcontributed": 16013,
    "Ġabove": 2934,
    "Ġelement": 6898,
    "Ġladen": 19179,
    "Ġtandem": 26413,
    "Ġmanufact": 22332,
    "Ġdipping": 15596,
    "cannot": 5745,
    "Ġslippers": 19618,
    "about": 3585,
    "Ġprotect": 6339,
    "Ġslightest": 6093,
    "Ġdancing": 5703,
    "waiter": 24587,
    "ologist": 22882,
    "dance": 17521,
    "Ġcanv": 7011,
    "imodal": 17450,
    "Ġinsists": 23677,
    "Ġindignantly": 16941,
    "Ġhip": 17923,
    "Ġambitious": 18514,
    "Ġswallowed": 7944,
    "Ġsle": 2013,
    "Ġbloody": 9892,
    "Ġarm": 2493,
    "Ġsorrow": 4628,
    "Ġschooner": 16749,
    "ething": 1601,
    "Ġb": 281,
    "bee": 16042,
    "Ġwoollen": 12108,
    "leaving": 10793,
    "bordered": 17501,
    "ources": 2786,
    "Ġflit": 23011,
    "ĠâĢĶâĢĶ": 25758,
    "lifeless": 24314,
    "elihood": 4622,
    "Ġmalays": 19680,
    "Ġcrime": 4616,
    "phil": 7926,
    "Ġgibberish": 25787,
    "Ġtwinkle": 12327,
    "Ġ1671": 25008,
    "Ġoccas": 2703,
    "Ġsavor": 23878,
    "Ġpossess": 3204,
    "flaming": 23973,
    "upper": 11540,
    "ryder": 18640,
    "oning": 7573,
    "despicable": 24638,
    "Ġplunge": 13447,
    "Ġavowed": 16636,
    ".âĢĻ": 1717,
    "Ġapproxim": 1217,
    "proportions": 22838,
    "Ġvolume": 6770,
    "Ġpedest": 15067,
    "Ġgold": 3277,
    "therly": 18347,
    "Ġsmoothed": 23658,
    "find": 6954,
    "Ġdeserve": 8309,
    "Ġconjecture": 9535,
    "Ġdisguises": 25058,
    "ousings": 18336,
    "resist": 8276,
    "alously": 15633,
    "Ġshooting": 11163,
    "ry": 808,
    "Ġprev": 6266,
    "Ġinjunctions": 24272,
    "chor": 6148,
    "ulate": 5233,
    "Ġcrevice": 22725,
    "bellies": 19977,
    "likewise": 13110,
    "Ġcurious": 3360,
    "Ġtawn": 13826,
    "Ě": 219,
    "duchess": 18464,
    "pon": 17627,
    "Ġwhich": 505,
    "suitable": 18634,
    "ĠĠĠĠĠĠĠĠĠĠĠĠĠĠĠĠĠĠĠĠĠĠĠĠĠĠĠĠĠĠĠĠĠĠĠĠĠĠĠĠĠĠĠĠĠĠĠĠĠĠĠĠĠĠĠĠĠĠĠĠ": 19262,
    "Ġkings": 7197,
    "Ġcircle": 4976,
    "Ġinterruptions": 24189,
    "Æ": 135,
    "Ġtestimony": 14481,
    "Ġcoff": 3507,
    "ule": 6801,
    "Ġcust": 11584,
    "okingly": 22385,
    "âĢĿ;": 11673,
    "ilies": 18059,
    "Ġdol": 9667,
    "mansion": 20985,
    "Ġheiress": 20700,
    "Ġexploration": 2337,
    "Ġgree": 7596,
    "Ġindia": 10373,
    "ley": 1816,
    "Ġmother": 2066,
    "Ġexec": 19495,
    "compared": 24038,
    "Ġteasing": 11892,
    "olence": 10233,
    "Ġbabes": 24425,
    "atra": 17773,
    "caterpillar": 26385,
    "Ġliberally": 16832,
    "Ġplaintiffs": 13613,
    "Ġreminds": 13435,
    "Ġseaman": 8642,
    "ccas": 15889,
    "scuttle": 11915,
    "hatred": 24818,
    "Ġfrankness": 16748,
    "ded": 2755,
    "Ġthieves": 15640,
    "Ġthickening": 24027,
    "Ġdetestable": 15102,
    "¸": 121,
    "Ġwinds": 5746,
    "Ġcloak": 9537,
    "bel": 3837,
    "Ġgratitude": 5599,
    "Ġattain": 12753,
    "iluvian": 18063,
    "Ġdisinclination": 22540,
    "mortals": 25410,
    "Ġesquimaux": 25154,
    "Ġtaken": 2529,
    "Ġenriched": 26501,
    "Ġforesight": 13131,
    "Ġoutright": 18413,
    "Ġphr": 2681,
    "Ġequatorial": 13513,
    "Ġtemptation": 8681,
    "osures": 22265,
    "why": 2825,
    "Ġverbal": 19382,
    "Ġmerits": 13200,
    "eze": 20849,
    "ineas": 15825,
    "urring": 21708,
    "Ġsubdued": 11031,
    "Ġwollstonecraft": 26427,
    "endeavoured": 12285,
    "Ġvulgar": 13608,
    "Ġbaleen": 10040,
    "Ġ16": 7927,
    "Ġdetest": 8503,
    "Ġbison": 21391,
    "halloa": 17091,
    "daylight": 19059,
    "Ġscalding": 16331,
    "Ġprize": 11952,
    "Ġcape": 5146,
    "Ġgenealogies": 25962,
    "°": 113,
    "Ġsubtlety": 24779,
    "Ġdeliverance": 15161,
    "minutes": 7513,
    "Ġclanging": 18430,
    "Ġpalmed": 24095,
    "Ġpiping": 23212,
    "avings": 12027,
    "eness": 2292,
    "Ġclinched": 17397,
    "inct": 3292,
    "Ġstil": 15722,
    "tie": 21071,
    "Ġbars": 13900,
    "Ġsnorting": 23743,
    "Ġwisely": 13277,
    "folding": 24928,
    "Ġspoils": 24805,
    "Ġloos": 15875,
    "Ġdistantly": 18532,
    "composed": 14744,
    "Ġclothe": 4711,
    "female": 20669,
    "Ġlance": 4879,
    "Ġsincere": 11137,
    "depend": 9115,
    "icient": 788,
    "gracious": 11835,
    "Ġconsequent": 18113,
    "Ġtestified": 16336,
    "ĠĠĠĠĠĠĠĠĠĠĠĠĠĠĠĠĠĠĠĠĠĠĠĠĠĠĠĠĠĠĠ": 19703,
    "Ġbour": 4876,
    "Ġflogged": 23626,
    "Ġprojecting": 9988,
    "might": 4078,
    "Ġabstained": 25232,
    "Ġclearly": 6897,
    "historical": 20469,
    "Ġweeds": 21928,
    "Ġpulling": 5864,
    "itudes": 3012,
    "medi": 2629,
    "Ġunmethodically": 22072,
    "Ġdescrying": 18617,
    "th": 408,
    "Ġwitnesses": 9489,
    "Ġvinegar": 20103,
    "ree": 873,
    "Ġenthus": 7232,
    "Ġfortunate": 6216,
    "quaker": 15767,
    "Ġtrampled": 20331,
    "mod": 1055,
    "Ġaut": 1836,
    "Ġdeduce": 8337,
    "eration": 10774,
    "Ġmuskets": 17058,
    "Ġvolition": 14801,
    "promised": 12256,
    "ician": 21568,
    "Ġtwentieth": 18660,
    "Ġspence": 22131,
    "Ġearth": 2847,
    "inter": 2946,
    "Ġrope": 4339,
    "Ġmarrying": 6179,
    "experience": 17161,
    "anous": 21362,
    "Ġextras": 22720,
    "Ġeliminating": 20623,
    "eping": 5834,
    "them": 3016,
    "draughts": 20391,
    "Ġports": 10820,
    "Ġcampaign": 20663,
    "drifting": 19827,
    "famous": 16918,
    "oin": 17619,
    "Ġbestir": 13114,
    "iew": 2447,
    "turning": 8317,
    "Ġearnestly": 5980,
    "Ġloafer": 18300,
    "rians": 21929,
    "Ġrestrict": 16380,
    "Ġreg": 729,
    "Ġcontrol": 13084,
    "Ġdate": 7841,
    "Ġinsufficient": 9675,
    "Ġbeadle": 26486,
    "requiem": 24857,
    "Ġbecoming": 4399,
    "Ġexord": 21831,
    "to": 714,
    "Ġinterests": 14570,
    "forbearance": 22796,
    "Ġnotice": 4543,
    "Ġe": 311,
    "Ġmode": 8500,
    "Ġnic": 7376,
    "calmly": 20142,
    "Ġautonom": 10418,
    "Ġrepublican": 17415,
    "Ġtid": 8107,
    "Ġclubbed": 26549,
    "Ġcertain": 1554,
    "abases": 3003,
    "Ġinternal": 2250,
    "Ġsecluded": 11997,
    "Ġnational": 13945,
    "contents": 12062,
    "Ġtrophy": 20010,
    "Ġfeatures": 1432,
    "Ġproclaim": 18133,
    "Ġdepartments": 24245,
    "ibbald": 18844,
    "Ġaggregate": 25678,
    "Ġrural": 21974,
    "especially": 3571,
    "Ġdie": 3962,
    "successful": 11359,
    "Ġpromethe": 14471,
    "Ġlords": 14643,
    "Ġregion": 2274,
    "smug": 23911,
    "Ġsurvivor": 17366,
    "Ġgrows": 4984,
    "incident": 14593,
    "conjectures": 25181,
    "mystery": 15159,
    "mate": 5359,
    "delightful": 12201,
    "voyages": 24856,
    "hour": 7340,
    "history": 15017,
    "Ġnoses": 18374,
    "Ġpian": 13920,
    "Ġprophesied": 26063,
    "merc": 19283,
    "Ġwheels": 10913,
    "Ġmightiest": 12966,
    "Ġmanoir": 22335,
    "lined": 12488,
    "Ġgamy": 18001,
    "Ġaloud": 6254,
    "watching": 16932,
    "Ġcl": 556,
    "Ġhappened": 3714,
    "dropping": 14985,
    "Ġdelivery": 18977,
    "Ġendured": 6074,
    "Ġshuttle": 12131,
    "moral": 14805,
    "oh": 1576,
    "transp": 24512,
    "Ġdisappoint": 24208,
    "Ġseer": 21956,
    "weight": 2938,
    "ape": 1906,
    "fulfil": 16041,
    "Ġasking": 5651,
    "attracted": 13056,
    "contrivance": 26317,
    "Ġteacup": 16208,
    "Ġdropout": 1555,
    "particularly": 8340,
    "Ġexotic": 21835,
    "Ġconceive": 8463,
    "Ġaccomplished": 7106,
    "Ġanonym": 17899,
    "turbaned": 24532,
    "Ġmarriage": 3189,
    "Ġxiii": 25592,
    "Ġnerves": 2627,
    "braid": 17497,
    "Ġsufferings": 7514,
    "Ġbustle": 17230,
    "heading": 5487,
    "featured": 24031,
    "Ġcurrent": 13016,
    "Ġwis": 3729,
    "Ġ177": 13416,
    "judgment": 16755,
    "N": 50,
    "Ġrejoicing": 13425,
    "Ġpollard": 20389,
    "iii": 14780,
    "Ġdeemed": 7614,
    "Ġpartly": 6715,
    "Ġfixedly": 19250,
    "Ġtrivial": 10145,
    "taller": 26151,
    "Ġj": 533,
    "Ġbore": 5079,
    "infliction": 25925,
    "Ġadmirer": 16840,
    "Ġhonoured": 9884,
    "sl": 5794,
    "produce": 20285,
    "Ġfood": 5080,
    "gunpowder": 25340,
    "Ġcongen": 10874,
    "circuit": 24191,
    "seemingly": 25363,
    "Ġdrab": 13075,
    "Ġmorbid": 16241,
    "_;": 6643,
    "tumultuous": 20402,
    "Ġmock": 3692,
    "Ġshed": 8181,
    "Ġmah": 15545,
    "Ġprompt": 3190,
    "valued": 2851,
    "Ġphysiognomy": 25611,
    "rich": 11519,
    "mblance": 7323,
    "ercial": 21277,
    "ancies": 11586,
    "Ġanimated": 7702,
    "loveliness": 26551,
    "Ġdarkness": 4277,
    "Ġchaos": 17011,
    "Ġsqu": 1039,
    "Ġupwards": 7635,
    "Ġcrocodile": 20742,
    "wet": 15455,
    "gre": 5788,
    "dinner": 11407,
    "Ġpilgrim": 25600,
    "Ġthoroughly": 8348,
    "Ġsubtle": 6718,
    "Ġdraw": 3671,
    "Ġcoronation": 13338,
    "Ġunimportant": 22032,
    "Ġvoyage": 3054,
    "tumult": 12426,
    "Ġflag": 7242,
    "thence": 23403,
    "league": 17846,
    "Ġdependency": 3487,
    "Ġsynd": 22214,
    "Ġforty": 5719,
    "Ġselected": 9713,
    "task": 13796,
    "Ġemergencies": 17365,
    "Ġtriangular": 14862,
    "Ġkeeping": 7283,
    "gladness": 25195,
    "instance": 24171,
    "Ġarduous": 26533,
    "teeth": 10358,
    "Ġblasted": 7938,
    "Ġpivot": 13926,
    "Ġsaw": 1350,
    "Ġdependencies": 2316,
    "Ġvary": 15811,
    "Ġsincer": 13071,
    "Ġboards": 14304,
    "Ġrevelations": 25224,
    "Ġsuspic": 4471,
    "Ġbowed": 6244,
    "Ġkills": 15910,
    "Ġprosecuted": 25294,
    "irable": 5776,
    "recol": 10153,
    "Ġicebergs": 23978,
    "Ġelev": 5536,
    "Ġtwo": 1044,
    "gangway": 20670,
    "Ġintercepted": 25828,
    "Ġstamp": 7864,
    "awakened": 14456,
    "icult": 3340,
    "Ġdisagreeable": 9301,
    "mpt": 6656,
    "Ġsublimity": 26348,
    "Ġmanhat": 22331,
    "Ġoccurring": 2789,
    "Ġrain": 5004,
    "Ġnumberless": 16419,
    "withdrawn": 23031,
    "ogene": 18675,
    "Ġbelf": 21384,
    "Ġwhitened": 24868,
    "kinson": 10029,
    "seems": 10876,
    "ieved": 3229,
    "consequ": 18507,
    "Ġbough": 13897,
    "custom": 15336,
    "money": 8753,
    "Ġcorroboration": 26054,
    "igan": 21702,
    "Ġdines": 21426,
    "Ġperfidious": 25667,
    "Ġsurgeons": 23466,
    "racing": 21634,
    "Ġmanaging": 22329,
    "likes": 18816,
    "ß": 160,
    "Ġgets": 10841,
    "etics": 21584,
    "marry": 13328,
    "ia": 1259,
    "spr": 7435,
    "Ġamaze": 22487,
    "Ġhabitations": 24788,
    "prolong": 23398,
    "Ġamb": 9295,
    "Ġunlocked": 14123,
    "Ġjacobians": 2891,
    "Ġmirth": 15549,
    "Ġunkindness": 22044,
    "exper": 8882,
    "Ġevaluate": 3168,
    "Ġdiab": 10614,
    "Ġcentaurs": 23836,
    "Ġtransient": 18482,
    "brandy": 19203,
    "Ġbroiled": 18910,
    "Ġsouls": 6310,
    "Ġkeener": 22918,
    "affold": 16565,
    "pitch": 13303,
    "sentiment": 12919,
    "ituted": 13876,
    "Ġaccident": 5380,
    "Ġkiss": 8183,
    "apothecary": 26547,
    "Ġavalanche": 17436,
    "Ġgalvan": 21620,
    "Ġthem": 641,
    "method": 17287,
    "seven": 8466,
    "Ġrespected": 11957,
    "allowing": 24358,
    "Ġinducements": 24968,
    "Ġbenediction": 18786,
    "Ġcolossal": 11460,
    "Ġlivelihood": 24773,
    "Ġexcluded": 16389,
    "Ġcausing": 16364,
    "ols": 2413,
    "Ġexhibit": 14959,
    "Ġpeterson": 9486,
    "Ġtickets": 17095,
    "Ġhereditary": 10667,
    "Ġbeings": 2490,
    "Ġsettling": 11063,
    "Ġtrying": 4838,
    "Ġnavigators": 19766,
    "Ġsprung": 11248,
    "Ġtoilings": 24741,
    "analy": 17840,
    "kempt": 20943,
    "anks": 3917,
    "betrayed": 24641,
    "Ġsab": 10764,
    "examine": 25478,
    "Ġselecting": 16683,
    "Ġabsolut": 3911,
    "nial": 20986,
    "pitchpoling": 25725,
    "Ġmoose": 22437,
    "Ġshocked": 9404,
    "Ġfierce": 7437,
    "Ġmediterranean": 12319,
    "Ġwoodcock": 19165,
    "barrel": 17062,
    "deck": 4501,
    "Ġparch": 11730,
    "cible": 20808,
    "ilar": 10218,
    "Ġdives": 17892,
    "Ġstrove": 9960,
    "tuning": 1580,
    "Ġreason": 1389,
    "disappointment": 11426,
    "if": 376,
    "Ġclams": 19992,
    "Ġsometimes": 2168,
    "Ġmixture": 9565,
    "Ġdaggoo": 5441,
    "whalebone": 19120,
    "harpooneer": 8692,
    "Ġexpenses": 11837,
    "refuge": 24733,
    "Ġdoubly": 16390,
    "dist": 4481,
    "companion": 9560,
    "Ġriotous": 20547,
    "icant": 21565,
    "Ġparadise": 11195,
    "naturalist": 23526,
    "Ġhurry": 4913,
    "Ġantiquity": 15234,
    "Ġreproofs": 24893,
    "Ġequality": 16365,
    "Ġmisanthropic": 26562,
    "Ġrosings": 4607,
    "swe": 5997,
    "Ġcarpenters": 16754,
    "noise": 14335,
    "Ġreconciliation": 25293,
    "search": 8467,
    "necessity": 13372,
    "fluttering": 23976,
    "Ġpredictions": 1454,
    "ues": 2078,
    "speeches": 25240,
    "Ġmultiplied": 23689,
    "hammered": 19007,
    "tons": 7560,
    "Ġunite": 9257,
    "vain": 15450,
    "Ġsupposed": 4558,
    "Ġpipe": 4320,
    "Ġ109": 24416,
    "stood": 4116,
    "Ġagonies": 14254,
    "sprang": 19994,
    "Ġque": 4157,
    "ginger": 13167,
    "Ġglitter": 25126,
    "Ġprep": 4190,
    "pile": 17631,
    "newsp": 23136,
    "Ġconvert": 11847,
    "lasting": 8011,
    "Ġheath": 15706,
    "Ġcountenance": 3970,
    "Ġideas": 5494,
    "ten": 1553,
    "Ġhushed": 13928,
    "Ġrid": 4355,
    "Ġgiants": 25961,
    "mock": 5174,
    "aded": 3548,
    "Ġhandsomely": 25498,
    "ksome": 10107,
    "Ġlaud": 17970,
    "orte": 14187,
    "Ġrascally": 26509,
    "collecting": 26082,
    "untary": 9870,
    "orrow": 2913,
    "Ġgowns": 25360,
    "Ġcommunicated": 9064,
    "Ġzigzag": 26274,
    "Ġma": 3252,
    "Ġemerging": 24613,
    "published": 26143,
    "Ġmaps": 2960,
    "Ġimpetuous": 25571,
    "Ġerroneous": 17412,
    "preserving": 25305,
    "oir": 21004,
    "Ġpugn": 21479,
    "such": 3083,
    "iminished": 19025,
    "judged": 14834,
    "Ġassaulted": 25321,
    "cap": 8373,
    "Ġinland": 11610,
    "reception": 15517,
    "Ġextreme": 2517,
    "Ġalluding": 18237,
    "Ġtest": 1621,
    "Ġchip": 12830,
    "foolish": 12351,
    "Ġiv": 4044,
    "enesis": 24388,
    "Ġdefendants": 15144,
    "spite": 16142,
    "Ġportcullis": 26605,
    "Ġmoney": 3419,
    "clifford": 23160,
    "Ġsplend": 9901,
    "Ġtease": 18793,
    "angu": 566,
    "foundered": 20869,
    "Ġpenalties": 10414,
    "Ġconciliating": 19053,
    "Ġcommissioned": 19897,
    "Ġvort": 18194,
    "uing": 17695,
    "teness": 23207,
    "Ġlobsters": 13520,
    "Y": 61,
    "pul": 8757,
    "Ġfervour": 19729,
    "andish": 18156,
    "Ġdoes": 942,
    "civilized": 17076,
    "have": 2057,
    "yes": 985,
    "Ġdecoyed": 18487,
    "Ġcontinu": 1166,
    "caus": 11477,
    "Ġmeanness": 22599,
    "oned": 4630,
    "Ġxxxvi": 24972,
    "Ġsought": 5009,
    "Ġrevolving": 9986,
    "Ġxxxi": 24969,
    "Ġnovel": 6697,
    "suspected": 12376,
    "ientiously": 21945,
    "Ġlight": 1699,
    "Ġhackney": 20436,
    "Ġcompress": 21860,
    "mortal": 10115,
    "Ġbroadened": 23988,
    "Ġpiteous": 17917,
    "icide": 11620,
    "Ġwhal": 5454,
    "ca": 20795,
    "Ġninetieth": 25358,
    "Ġrudeness": 17127,
    "bringing": 17169,
    "narrative": 17322,
    "Ġreusable": 13561,
    "Ġsober": 10912,
    "Ġfarewell": 9523,
    "Ġtreacle": 14597,
    "brows": 17499,
    "Ġting": 8399,
    "afterwards": 7485,
    "istle": 15874,
    "jud": 4482,
    "Ġlion": 9678,
    "Ġyourselves": 9031,
    "Ġdesire": 3718,
    "herfield": 3631,
    "Ġpaintings": 15058,
    "Ġgoat": 16011,
    "Ġprints": 16334,
    "resides": 23671,
    "Ġga": 4447,
    "Ġjuly": 17239,
    "gely": 10702,
    "symp": 14600,
    "Ġviolent": 5117,
    "Ġhazarded": 25655,
    "Ġimperial": 9484,
    "Ġwint": 15536,
    "Ġlancaster": 26342,
    "Ġexamine": 7735,
    "ortion": 11761,
    "significant": 25085,
    "Ġmischie": 22763,
    "Ġsignificantly": 4519,
    "interchange": 23741,
    "Ġupbra": 22158,
    "Ġsaville": 15893,
    "Ġfancying": 12117,
    "Ġperpetual": 12307,
    "Ġcarve": 23096,
    "Ġworrying": 22930,
    "astern": 8585,
    "Ġsearch": 2592,
    "remind": 23190,
    "Ġswimming": 5507,
    "Ġresentful": 24632,
    "Ġribs": 7103,
    "reated": 10305,
    "disposed": 25013,
    "Ġevalu": 3075,
    "uarded": 21108,
    "agos": 21908,
    "our": 534,
    "Ġfo": 1650,
    "Ġdinner": 4242,
    "kish": 20936,
    "sullen": 17671,
    "±": 114,
    "apers": 3481,
    "Ġburly": 19252,
    "Ġclang": 15975,
    "Ġpersuasions": 16634,
    "Ġassumpt": 5415,
    "ringle": 21043,
    "Ġlatitudes": 9499,
    "impregn": 21717,
    "Ġrisks": 9967,
    "examination": 25479,
    "Ġfitzwilliam": 5771,
    "Ġbre": 1915,
    "Ġbenevolence": 9530,
    "Ġiroquois": 26474,
    "someone": 14565,
    "Ġscaled": 2105,
    "machines": 8385,
    "Ġexplo": 2287,
    "Ġtrumpet": 9576,
    "nosed": 20994,
    "Ġstriking": 6089,
    "masts": 19428,
    "Ġtrous": 10957,
    "Ġbernard": 20687,
    "Ġoutstanding": 22320,
    "Ġpupils": 20424,
    "Ġinches": 5846,
    "ensed": 10996,
    "pulled": 25148,
    "Ġserm": 9636,
    "devils": 20036,
    "ict": 588,
    "numbers": 17618,
    "Ġantilles": 24182,
    "Ġfishers": 19357,
    "Ġneed": 2608,
    "Ġunbounded": 18260,
    "Ġepic": 15032,
    "Ġtalents": 15047,
    "Ġcondescending": 24869,
    "Ġsequence": 1977,
    "Ġsteeply": 23726,
    "Ġa": 263,
    "ruded": 15907,
    "Ġcontinued": 2920,
    "Ġpressed": 6043,
    "pounds": 21027,
    "explain": 1480,
    "Ġunattended": 15847,
    "Ġconsol": 3817,
    "oid": 3126,
    "Ġtuples": 13481,
    "heaved": 21213,
    "Ġ111": 24436,
    "hopes": 15373,
    "Ġspoil": 17009,
    "Ġwont": 9855,
    "Ġdashed": 6011,
    "Ġnaut": 13944,
    "Ġfumbling": 21420,
    "ĠâĢľâĢĺ": 8506,
    "Ġhazard": 20435,
    "ĠĠĠĠĠĠĠĠĠĠĠĠĠĠĠĠĠĠĠĠĠĠĠĠĠĠĠĠ": 9978,
    "Ġoppressively": 25711,
    "Ġeternity": 12283,
    "Ġdecide": 9289,
    "forks": 26389,
    "difference": 13711,
    "Ġaffronted": 22897,
    "ensions": 14261,
    "belief": 13286,
    "Ġsavann": 14686,
    "Ġmum": 13861,
    "Ġreduce": 7943,
    "Ġrelig": 8553,
    "Ġstaff": 14009,
    "þ": 191,
    "snap": 24849,
    "Ġcar": 1419,
    "Ġinsights": 13183,
    "Ġinterrupted": 6345,
    "agrad": 2745,
    "lied": 6508,
    "redible": 15805,
    "Ġscarlet": 13228,
    "adier": 18092,
    "Ġdemi": 25549,
    "Ġsanctified": 25883,
    "Ġshiver": 12772,
    "Ġgilder": 21616,
    "Ġicicles": 25265,
    "Ġenquired": 21944,
    "beth": 13692,
    "ounced": 4953,
    "Ġthirty": 4943,
    "uts": 8820,
    "Ġirritation": 20269,
    "rab": 7598,
    "pretend": 24883,
    "Ġleak": 2160,
    "Ġprobable": 5570,
    "fiercely": 25257,
    "Ġbread": 5404,
    "anum": 17837,
    "onies": 6807,
    "Ġancestors": 25643,
    "Ġrelapses": 26280,
    "Ġleaves": 5020,
    "wicked": 24449,
    "Ġgret": 21604,
    "cr": 4011,
    "gment": 4392,
    "ooped": 17625,
    "Ġsurviv": 13439,
    "hued": 20913,
    "adow": 18090,
    "Ġcalms": 23044,
    "Ġchests": 19674,
    "cav": 17510,
    "Ġconvalescence": 23748,
    "Ġhoof": 23356,
    "Ġthousands": 6750,
    "Ġplanted": 9777,
    "remembrance": 25703,
    "ĕ": 214,
    "then": 2052,
    "antage": 3880,
    "Ġcruc": 16535,
    "Ġmustard": 12935,
    "Ġinarticulate": 21503,
    "Ġantique": 19554,
    "Ġandrew": 21510,
    "nostr": 22729,
    "frequented": 25901,
    "cou": 13699,
    "Ġrueful": 25582,
    "lin": 9606,
    "Ġattend": 5035,
    "scap": 22995,
    "Ġusages": 15922,
    "laying": 19775,
    "Ġglimpses": 13436,
    "Ġconcluded": 5658,
    "Ġstung": 21742,
    "Ġtide": 6661,
    "Ġdense": 8123,
    "Ġdetermining": 14424,
    "grained": 20885,
    "Ġestimate": 19376,
    "Ġfr": 1693,
    "bergen": 14342,
    "Ġtri": 4812,
    "Ġentire": 2560,
    "Ġmonogram": 26576,
    "Ġgomorrah": 21618,
    "Ġsymbol": 7717,
    "Ġpondered": 15170,
    "Ġadv": 1149,
    "button": 10966,
    "mysterious": 26053,
    "feared": 11806,
    "keeper": 5597,
    "Ġinstruments": 12228,
    "ordered": 8794,
    "h": 76,
    "ently": 1617,
    "ju": 13744,
    "malicious": 19904,
    "fanning": 20868,
    "Ġannihilation": 15169,
    "Ġsharper": 17182,
    "Ġminds": 6305,
    "Ġspinal": 12306,
    "Ġfaint": 5812,
    "Ġreaped": 18032,
    "Ġthrowing": 6337,
    "Ġproving": 15756,
    "Ġfoot": 3161,
    "Ġdwelt": 12610,
    "same": 5362,
    "Ġpallidness": 25605,
    "ost": 5361,
    "estate": 12826,
    "attentive": 17192,
    "oftentimes": 19424,
    "bent": 15315,
    "Ġoverlooked": 15972,
    "Ġengineering": 3023,
    "aul": 6354,
    "Ġbethink": 12383,
    "shall": 4550,
    "Ġjud": 3357,
    "Ġintentions": 10610,
    "Ġspread": 5161,
    "itching": 21338,
    "Ġoffend": 16148,
    "Ġimbu": 15895,
    "Ġsheath": 14154,
    "Ġgrasping": 12170,
    "Ġappl": 1737,
    "Ġmorcar": 13020,
    "whilst": 18372,
    "Ġobjectionable": 16993,
    "Ġcleaving": 23184,
    "Ġoars": 3898,
    "Ġtyph": 10011,
    "advent": 10223,
    "Ġhellish": 10553,
    "Ġdetect": 1211,
    "Ġwashing": 9708,
    "Ġgifts": 21615,
    "Ġmarchant": 14789,
    "iliation": 10861,
    "greenland": 10024,
    "Ġrio": 23894,
    "Ġdisasters": 16057,
    "ves": 696,
    "Ġlodgings": 8312,
    "Ġsupplies": 20329,
    "Ġrich": 2990,
    "Ġartfully": 22615,
    "Ġchall": 10945,
    "Ġextort": 22719,
    "stone": 5089,
    "Ġinfl": 6894,
    "steep": 19422,
    "Ġdagger": 21440,
    "Ġcomprehending": 24445,
    "Ġsanguinary": 25930,
    "Ġattractions": 12923,
    "Ġhysterical": 26093,
    "Ġmiser": 18704,
    "bbs": 23691,
    "hertfordshire": 10937,
    "Ġjeopardized": 20233,
    "Ġrapidity": 11101,
    "Ġjenkinson": 11432,
    "Ġinflexibly": 26372,
    "Ġbelted": 22951,
    "Ġcentre": 5122,
    "fro": 8736,
    "Ġsoap": 14135,
    "Ġhatchway": 13528,
    "Ġinj": 4759,
    "Ġcontextual": 3743,
    "Ġpict": 3498,
    "Ġsperm": 1845,
    "reposed": 24492,
    "eprints": 12797,
    "Ġfaltering": 17886,
    "Ġemboldened": 22965,
    "Ġorchard": 22098,
    "hosmer": 25903,
    "Ġnews": 3821,
    "Ġcousins": 9918,
    "fluke": 25205,
    "Ġpursuit": 4732,
    "chief": 4644,
    "8": 28,
    "Ġbuy": 8300,
    "Ġnobody": 6160,
    "Ġelizabeth": 1134,
    "Ġfidget": 15193,
    "magnet": 14973,
    "Ġ80": 24456,
    "Ġgrammars": 11403,
    "Ġvivacious": 19818,
    "Ġglimmering": 25241,
    "Ġtopic": 9409,
    "Ġ1836": 25721,
    "supportable": 12374,
    "Ġstum": 21735,
    "mentioning": 24886,
    "Ġgord": 21603,
    "gener": 3125,
    "condem": 16346,
    "Ġwrest": 11573,
    "omics": 21666,
    "Ġtort": 5903,
    "Ġinsure": 13182,
    "Ġinteresting": 4325,
    "proud": 9907,
    "ċ": 204,
    "frock": 20124,
[...]
