{
  "metadata": {
    "vocab_size": 26616,
    "algorithm": "BPE",
    "created_at": "2026-06-11 06:47:55",
    "special_tokens": [
      "<PAD>",
      "<SOS>",
      "<EOS>",
      "<UNK>",
      "<MASK>"
    ]
  },
  "vocab": {
    "Ġlab": 1870,
    "Ġgroan": 13329,
    "oses": 3947,
    "Ġdamn": 11160,
    "Ġfrance": 7682,
    "Ġthoughtful": 16195,
    "Ġindefatigable": 17180,
    "int": 1200,
    "Ġtiara": 26417,
    "Ġclasp": 9748,
    "tical": 10131,
    "atical": 10773,
    "Ġcomrade": 11682,
    "Ġinexperienced": 26101,
    "Ġagatha": 6865,
    "Ġlock": 5928,
    "Ġperfections": 23610,
    "itive": 6670,
    "Ġperceiving": 8879,
    "Ġhang": 9190,
    "Ġcautious": 12258,
    "Ġengineer": 11979,
    "Ġmanage": 7641,
    "Ġcaptive": 14430,
    "Ġjet": 5309,
    "Ġimpenetrable": 17401,
    "enemy": 15530,
    "itud": 2931,
    "Ġchristianity": 19863,
    "engine": 18929,
    "ologically": 22882,
    "Ġrenowned": 26195,
    "Ġindicated": 10471,
    "Ġforeseen": 16443,
    "sherlock": 5422,
    "Ġconquest": 15752,
    "customary": 25896,
    "Ġdischarge": 18557,
    "Ġlingo": 24904,
    "yp": 1044,
    "Ġremain": 1873,
    "riminately": 16485,
    "unfortunate": 15781,
    "Ġobserve": 4670,
    "jury": 15377,
    "Ġmerely": 3773,
    "Ġcolonial": 22861,
    "Ġpeels": 22694,
    "sche": 13020,
    "Ġefficient": 1058,
    "Ġstupidity": 15052,
    "Ġmirth": 15549,
    "position": 15416,
    "þ": 191,
    "Ġhandsome": 4907,
    "trees": 10733,
    "Ġsingularly": 12153,
    "gether": 1595,
    "Ġcreamy": 14331,
    "Ġmanned": 9274,
    "Ġtelescope": 17351,
    "affa": 23778,
    "awn": 3836,
    "Ġhem": 8447,
    "Ġrats": 21977,
    "Ġconfinement": 19038,
    "Ġbang": 17856,
    "whereby": 23421,
    "Ġspare": 5102,
    "unks": 15779,
    "Ġcanada": 22169,
    "Ġbaggy": 24538,
    "Ġsentiments": 7961,
    "Ġmeasure": 3597,
    "Ġperils": 6273,
    "altern": 17944,
    "mayhew": 23996,
    "Ġmicrosc": 20679,
    "Ġcashier": 20201,
    "meantime": 9095,
    "umbrance": 22122,
    "¯": 112,
    "Ġhusbands": 16645,
    "Ġkno": 5242,
    "Ġroylott": 7304,
    "Ġhouses": 6139,
    "speptic": 23949,
    "Ġeddystone": 25736,
    "Ġbruised": 25773,
    "Ġsinking": 7306,
    "Ġhandful": 9785,
    "Ġradiating": 24331,
    "Ġtransom": 22442,
    "yourselves": 24959,
    "Ġmatrimonial": 25490,
    "Ġwarring": 16867,
    "Ġsteepest": 3090,
    "thouse": 21986,
    "Ġclubbed": 26549,
    "Ġseparately": 13307,
    "allied": 7409,
    "Ġrecovered": 5481,
    "Ġblackness": 9395,
    "appetite": 22850,
    "Ġblossom": 26313,
    "Ġmaled": 21317,
    "Ġdoub": 1834,
    "Ġmockery": 12112,
    "eenth": 12465,
    "Ġdraught": 9848,
    "Ġlavenza": 17973,
    "th": 407,
    "Ġbrightly": 13229,
    "shame": 16023,
    "Ġforbidding": 17080,
    "Ġwhile": 607,
    "Ġplus": 3883,
    "Ġfrantically": 23260,
    "Ġunderground": 18985,
    "rie": 2790,
    "yset": 21148,
    "Ġdank": 21431,
    "Ġcandid": 4100,
    "bular": 15317,
    "ean": 20842,
    "Ġnash": 5820,
    "itaries": 21339,
    "whalers": 17266,
    "Ġbulge": 23860,
    "Ġugl": 12687,
    "wicked": 24449,
    "Ġexcluded": 16387,
    "Ġentangled": 10346,
    "Ġheaths": 25973,
    "Ġquick": 2585,
    "Ġbehaves": 23301,
    "Ġboards": 14304,
    "ain": 343,
    "events": 12321,
    "Ġunexpectedly": 19911,
    "Ġsleeper": 8603,
    "Ġcatholic": 20684,
    "Ġsag": 6514,
    "heading": 5487,
    "Ġshocked": 9404,
    "Ġimpossible": 3546,
    "Ġvolition": 14801,
    "Ġmystical": 12137,
    "Ġsphere": 15887,
    "obst": 11936,
    "Ġhumped": 19772,
    "Ġtraverse": 18893,
    "Ġmutable": 23958,
    "ulity": 10888,
    "Ġface": 1723,
    "ĠĠĠĠĠĠĠĠĠĠĠĠĠĠĠĠĠĠĠĠĠĠĠĠĠĠĠĠĠ": 19702,
    "orter": 4258,
    "Ġoutlines": 15961,
    "Ġcommis": 22674,
    "Ġstandard": 14498,
    "plan": 15822,
    "Ġcanoe": 9726,
    "closing": 23159,
    "Ġsprinkled": 19500,
    "ales": 3316,
    "employ": 10897,
    "Ġvestibule": 13540,
    "Ġdiverse": 19212,
    "Ġga": 4447,
    "igantic": 5539,
    "Ġaudio": 24771,
    "Ġpicturesqueness": 24480,
    "Ġstable": 2701,
    "F": 42,
    "Ġbrings": 11884,
    "Ġdesp": 3217,
    "sided": 17666,
    "Ġallegor": 25546,
    "âĢĶ(": 15942,
    "Ġwishes": 4794,
    "Ġbrad": 8791,
    "Ġensu": 7875,
    "Ġcaravan": 26292,
    "Ġreckoning": 14982,
    "harbors": 20151,
    "Ġforth": 3464,
    "Ġfelix": 4849,
    "rapid": 12675,
    "ely": 619,
    "Ġamput": 16037,
    "smitten": 23912,
    "rations": 10725,
    "alcul": 15632,
    "Ġshad": 3851,
    "Ġending": 18924,
    "Ġforgery": 25978,
    "Ġcur": 1266,
    "Ġinvoking": 19147,
    "Ġfunction": 586,
    "Ġinfernal": 11965,
    "Ġimprecations": 25821,
    "Ġhelper": 24031,
    "esley": 17922,
    "Ġreception": 9842,
    "Ġwasted": 9707,
    "Ġexceedingly": 4614,
    "Ġzigzag": 26274,
    "Ġgiver": 21608,
    "Ġbanker": 8670,
    "Ġfrigid": 17355,
    "Ġblindly": 12114,
    "¾": 127,
    "Ġcongenial": 12415,
    "Ġgrap": 11711,
    "Ġmatches": 14398,
    "Ġgrapp": 14104,
    "Ġsuperfluous": 17417,
    "agne": 21909,
    "urry": 13997,
    "recur": 4438,
    "Ġswallows": 18884,
    "Ġprophe": 13083,
    "Ġecon": 9680,
    "Ġcolds": 23760,
    "uzz": 4524,
    "âĢĶâĢľ_": 13208,
    "Ġexhausting": 24709,
    "Ġassigned": 16314,
    "ancies": 11587,
    "Ġne": 391,
    "Ġepo": 21622,
    "Ġexponentially": 1442,
    "<SOS>": 1,
    "freighted": 14895,
    "Ġdivide": 12115,
    "bod": 12441,
    "apology": 22338,
    "odhead": 18123,
    "Ġcaucus": 17383,
    "Ġrepulsive": 14531,
    "shall": 4550,
    "Ġchain": 1841,
    "prevented": 20377,
    "concluding": 19484,
    "Ġphrensy": 25127,
    "Ġ1950": 11361,
    "Ġdidst": 11853,
    "Ġmarsh": 9824,
    "rolled": 9062,
    "Ġcovariate": 2349,
    "attent": 9362,
    "omon": 10209,
    "found": 4217,
    "Ġpushing": 10821,
    "Ġliv": 6680,
    "Ġens": 2791,
    "concerns": 24073,
    "Ġquivers": 22417,
    "[": 63,
    "Ġpriests": 15043,
    "ĠĠĠĠĠĠĠĠĠĠĠĠĠĠĠĠĠĠĠĠĠĠĠĠĠĠĠ": 14889,
    "Ġlordly": 23746,
    "Ġapparition": 8067,
    "Ġprairies": 20024,
    "reas": 988,
    "Ġtantalizing": 20417,
    "awakened": 14456,
    "disappearing": 23506,
    "nnight": 20995,
    "Ġtugged": 17291,
    "Ġmystery": 5509,
    "Ġdeaf": 12726,
    "Ġfringed": 17275,
    "Ġbreeze": 5681,
    "Ġunprofitable": 18268,
    "Ġhandy": 12941,
    "À": 129,
    "oubtedly": 6942,
    "Ġfront": 3453,
    "room": 2177,
    "Ġmetallic": 19080,
    "kindness": 10508,
    "Ġlovel": 10274,
    "Ġpistols": 17332,
    "Ġsigh": 10339,
    "Ġimposing": 11785,
    "Ġpicturesque": 14897,
    "Ġpret": 3038,
    "wing": 2519,
    "onings": 21255,
    "user": 5105,
    "agitation": 14071,
    "Ġrob": 1247,
    "Ġtranquill": 6632,
    "Ġcheck": 7270,
    "brill": 16493,
    "Ġapple": 14173,
    "Ġideal": 13125,
    "velope": 17703,
    "Ġeffeminacy": 20720,
    "independent": 26022,
    "Ġobserving": 6080,
    "!_": 7328,
    "Ġpleases": 16301,
    "Ġloomings": 24952,
    "Ġtainted": 21173,
    "Ġwriter": 11949,
    "Ġuns": 15840,
    "Ġsurmisings": 26595,
    "impregnable": 26483,
    "laugh": 10111,
    "card": 11477,
    "Ġthro": 5818,
    "cup": 10694,
    "Ġbrittle": 22868,
    "Ġreason": 1382,
    "Ġmemories": 14543,
    "ums": 10275,
    "Ġpassages": 12975,
    "Ġaudience": 24768,
    "Ġacknowled": 6351,
    "Ġdef": 1202,
    "investigations": 25534,
    "Ġmen": 1434,
    "exertion": 16020,
    "ouse": 1195,
    "ica": 10201,
    "striving": 24670,
    "Ġdaint": 15597,
    "izabeth": 909,
    "Ġpropos": 7062,
    "Ġchopping": 24222,
    "roses": 17959,
    "hmael": 7341,
    "Ġchat": 6561,
    "priv": 9622,
    "Ġporthole": 24399,
    "Ġmax": 2005,
    "Ġaxis": 12311,
    "Ġtremor": 24767,
    "Ġcru": 2826,
    "larking": 17596,
    "alization": 732,
    "Ġrear": 6536,
    "Ġpublicly": 13327,
    "Ġincline": 18573,
    "Ġmorphology": 3010,
    "Ġextinct": 14338,
    "Ġwildness": 14605,
    "Ġstare": 10866,
    "comfort": 5647,
    "Ġfoundation": 4235,
    "perquis": 22189,
    "Ġdisagree": 22536,
    "Ġindistinctly": 26118,
    "alike": 17945,
    "iqu": 7802,
    "Ġdespairing": 14777,
    "Ġsnows": 14729,
    "Ġunlucky": 10053,
    "Ġcourtiers": 24139,
    "cousins": 20121,
    "female": 20669,
    "pilot": 25909,
    "Ġord": 3739,
    "Ġquebec": 24135,
    "Ġregimentals": 19860,
    "Ġdisappo": 4506,
    "Ġdaunt": 19667,
    "Ġswords": 19899,
    "dut": 10090,
    "are": 638,
    "Ġeagle": 13206,
    "Ġpin": 7161,
    "Ġheel": 9687,
    "Ġmournfully": 20120,
    "Ġgryphon": 4302,
    "_.âĢĻâĢĿ": 17482,
    "Ġleaning": 5228,
    "Ġapoplexy": 25266,
    "Ġcocksure": 26260,
    "Ġtable": 2499,
    "become": 14249,
    "W": 59,
    "Ġang": 2511,
    "attery": 18501,
    "Ġfears": 5729,
    "Ġfifteen": 6946,
    "Ġcovent": 16079,
    "Ġers": 15463,
    "Ġenv": 2763,
    "Ġbackbone": 22661,
    "Ġidiotic": 25589,
    "originally": 24940,
    "wil": 8769,
    "holloa": 19467,
    "Ġblew": 9048,
    "rove": 21536,
    "Ğ": 223,
    "Ġpoetical": 25060,
    "Ġdescription": 7428,
    "Ġsund": 8249,
    "imaux": 21715,
    "Ġtwee": 22678,
    "Ġbodies": 8032,
    "arboard": 7265,
    "Ġinexhaustible": 16983,
    "Ġpanelled": 19657,
    "Ġresignation": 18567,
    "Ġremaining": 6189,
    "belong": 12127,
    "imagination": 13484,
    "Ġunconnected": 18243,
    "Ġcy": 13877,
    "Ġflash": 8230,
    "Ġsave": 4053,
    "said": 4105,
    "Ġmonogram": 26576,
    "Ġnights": 7257,
    "Ġpoliceman": 15262,
    "Ġreside": 22543,
    "vere": 4883,
    "itect": 965,
    "Ġlongitudes": 22637,
    "alyards": 18771,
    "Ġmodified": 14170,
    "Ġsmothe": 18577,
    "achusetts": 20712,
    "ib": 1233,
    "Ġheiress": 20700,
    "Ġsteadfast": 8682,
    "afterwards": 7484,
    "Ġghostly": 24651,
    "Ġacts": 2294,
    "bearer": 18521,
    "ops": 5248,
    "Ġacknowledged": 7534,
    "opol": 12876,
    "abriel": 6949,
    "Ġminuteness": 19140,
    "Ġmutual": 8297,
    "##": 2316,
    "pents": 11515,
    "ĠĠĠĠĠĠĠĠĠĠĠĠĠĠ": 22569,
    "Ġpriority": 19765,
    "etween": 774,
    "lay": 5891,
    "muring": 17603,
    "thick": 10263,
    ",âĢĻ": 2327,
    "mediterranean": 16407,
    "did": 3197,
    "Ġretreated": 13437,
    "Ġgentlemanlike": 12071,
    "Ġlowers": 23242,
    "Ġprofundities": 20456,
    "Ġcelerity": 17439,
    "Ġbrotherhood": 23669,
    "Ġdepends": 1065,
    "Ġunbounded": 18260,
    "Ġbargain": 23795,
    "anyth": 5438,
    "Ġanyone": 4460,
    "Ġspecimens": 18854,
    "haven": 20914,
    "owing": 7602,
    "diversity": 25898,
    "somebody": 14567,
    "Ġcaution": 11348,
    "reve": 12544,
    "impress": 18054,
    "ceased": 21629,
    "Ġmalay": 24391,
    "Ġremoving": 12121,
    "arson": 22752,
    "Ġpraised": 19556,
    "library": 13004,
    "Ġrambles": 17187,
    "Ġflattening": 26049,
    "Ġfireboard": 23535,
    "wered": 2691,
    "Ġleast": 2064,
    "verdict": 21733,
    "eag": 20844,
    "Ġpugn": 21482,
    "solely": 19819,
    "uttering": 12667,
    "Ġpaddled": 20204,
    "Ġcarn": 17823,
    "aders": 21762,
    "Ġinscrut": 10037,
    "pute": 8849,
    "considerably": 13449,
    "phr": 18713,
    "Ġemerge": 14931,
    "re": 266,
    "greeting": 24554,
    "Ġglared": 13019,
    "Ġbells": 19604,
    "Ġmarlingspike": 26581,
    "Ġlearned": 2022,
    "Ġbanished": 10619,
    "perceived": 8862,
    "order": 1957,
    "iffe": 21906,
    "Ġsavoury": 23880,
    "Ġli": 602,
    "Ġadaptive": 1347,
    "Ġmasters": 11578,
    "Ġmug": 21315,
    "Ġjewels": 12373,
    "Ġblaming": 22933,
    "cra": 6355,
    "unken": 10239,
    "Ġwaggish": 25435,
    "Ġoust": 21327,
    "suit": 18637,
    "prior": 21035,
    "Ġbreathes": 13251,
    "Ġvillages": 14751,
    "Ġsto": 1496,
    "iless": 10284,
    "Ġannals": 17900,
    "Ġpromethe": 14470,
    "forks": 26389,
    "ridge": 9500,
    "cial": 2649,
    "Ġverify": 12092,
    "Ġrecommending": 24333,
    "Ġexchanged": 10880,
    "past": 8090,
    "Ġharp": 17926,
    "Ġpolitical": 19226,
    "Ġbelieving": 8225,
    "cks": 3082,
    "mechanically": 17303,
    "Ġreprehensible": 15703,
    "Ġrecomm": 4996,
    "Ġowl": 20087,
    "dissatisfied": 26614,
    "Ġenvironmental": 24011,
    "Ġransacked": 26506,
    "arrang": 14654,
    "Ġsharpened": 17368,
    "slack": 16896,
    "Ġsuperl": 16446,
    "skeleton": 17379,
    "boxes": 16890,
    "Ġhorrid": 7999,
    "shelf": 20384,
    "desc": 1395,
    "Ġconnexion": 11456,
    "hawks": 24695,
    "Ġsurplus": 26304,
    "Ġhapp": 1091,
    "Ġincrease": 9372,
    "jets": 20930,
    "Ġwhereon": 16105,
    "tempest": 16961,
    "Ġcombines": 1157,
    "Ġwhich": 503,
    "Ġclubb": 22365,
    "fears": 18529,
    "cabin": 8363,
    "Ġideas": 5494,
    "Ġsimil": 2531,
    "Ġmediterranean": 12319,
    "arted": 2200,
    "sides": 12512,
    "Ġtotal": 4993,
    "Ġreverie": 13461,
    "Ġinvariably": 8064,
    "Ġlonger": 3360,
    "tender": 14476,
    "Ġcloud": 3912,
    "itating": 9653,
    "imately": 12693,
    "oment": 920,
    "delivered": 24103,
    "lect": 1222,
    "Ġadieu": 10054,
    "Ġreserved": 7515,
    "Ġstag": 6149,
    "Ġentropy": 2029,
    "Ġforetold": 23453,
    "Ġah": 5075,
    "isely": 4489,
    "Ġgouge": 26190,
    "Ġxxxix": 24971,
    "Ġpiratical": 24798,
    "Ġsquat": 14371,
    "Ġvariety": 8532,
    "Ġspeak": 2227,
    "Ġbroadened": 23988,
    "Ġcontinue": 5398,
    "ding": 3029,
    "Ġchin": 4891,
    "Ġmood": 6277,
    "Ġjoke": 8872,
    "eray": 21269,
    "Ġintricacies": 15142,
    "ache": 8519,
    "swaying": 25911,
    "Ġcoquet": 22587,
    "Ġmonotonically": 3835,
    "Ġchronicler": 20232,
    "beaten": 20318,
    "Ġprovincial": 20652,
    "adm": 7609,
    "Ġ92": 24591,
    "happening": 16567,
    "Ġgratefully": 20448,
    "mount": 9132,
    "Ġmerryweather": 9525,
    "rap": 21631,
    "Ġsulphur": 24934,
    "Ġcourtship": 24138,
    "Ġmister": 22758,
    "ipped": 5790,
    "och": 21003,
    "Ġiroqu": 21627,
    "arious": 10319,
    "Ġlocations": 12417,
    "idled": 21772,
    "whatever": 6695,
    "cet": 15328,
    "vap": 13806,
    "Ġlingu": 11617,
    "Ġspaniards": 25556,
    "Ġoak": 6129,
    "Ġimpartial": 15223,
    "icated": 7591,
    "Ġruined": 12959,
    "Ġweek": 2829,
    "Ġcommentaries": 20163,
    "extent": 22767,
    "Ġpe": 850,
    "inferences": 17741,
    "foundered": 20869,
    "postp": 24635,
    "acey": 7650,
    "Ġbeads": 18086,
    "any": 3337,
    "Ġexcess": 3341,
    "Ġwarmed": 12028,
    "crawling": 16960,
    "Ġstabbed": 25457,
    "ather": 740,
    "Ġsmooth": 2782,
    "Ġlonely": 6822,
    "Ġpoland": 23619,
    "icide": 11621,
    "Ġrick": 21974,
    "Ġown": 1007,
    "attended": 8955,
    "Ġcount": 1813,
    "mighty": 9469,
    "Ġsummar": 3527,
    "Ġsuccor": 25663,
    "Ġinstances": 5568,
    "Ġsalisbury": 24069,
    "ilent": 21723,
    "cd": 15326,
    "pretty": 10624,
    "Ġwarrant": 17796,
    "cloth": 11941,
    "encing": 21285,
    "Ġcorpulence": 24509,
    "nial": 20986,
    "desolate": 25717,
    "Ġnature": 2538,
    "Ġbased": 3338,
    "Ġsting": 10863,
    "Ġdiscomp": 11870,
    "Ġoffices": 14341,
    "quired": 21859,
    "tackles": 25625,
    "Ġranks": 21976,
    "Ġresponsiveness": 2899,
    "Ġtested": 23220,
    "addressing": 24401,
    "married": 9952,
    "Ġdevelopment": 7065,
    "prairies": 20569,
    "Ġ6": 5141,
    "Ġrans": 21970,
    "ad": 337,
    "cou": 13699,
    "points": 14396,
    "Ġevermore": 18813,
    "Ġexceeded": 14436,
    "Ġshrunk": 16720,
    "Ġdouble": 4940,
    "Ġmail": 17802,
    "Ġcongratulated": 19769,
    "Ġpursuing": 9441,
    "Ġow": 8409,
    "Ġescaped": 6459,
    "Ġmeasuring": 22885,
    "Ġsuspic": 4471,
    "Ġlieuten": 13331,
    "Ġaromatic": 25926,
    "Ġcabinet": 23864,
    "Ġborder": 10172,
    "gentleman": 7518,
    "Ġcoffin": 4430,
    "Ġaudacity": 19884,
    "Ġlord": 2967,
    "carpenter": 11429,
    "Ġapprovingly": 26255,
    "Ġreserve": 9974,
    "Ġstands": 5259,
    "Ġaud": 6663,
    "ene": 2168,
    "Ġfusion": 21417,
    "ison": 3076,
    "Ģ": 227,
    "Ġcensured": 25097,
    "lev": 1234,
    "Ġscotland": 6641,
    "travel": 24337,
    "Ġbashee": 19851,
    "Ġemploys": 19434,
    "Ġshowed": 4497,
    "cupboards": 25402,
    "irement": 18356,
    "Ġwhatsoever": 18461,
    "tot": 10730,
    "elius": 13292,
    "Ġwhirled": 14963,
    "hampshire": 23266,
    "Ġcommunion": 19009,
    "Ġrelationships": 2926,
    "anite": 17839,
    "falling": 24361,
    "ids": 21767,
    "Ġneville": 7398,
    "Ġpell": 21458,
    "coach": 23561,
    "Ġmorrow": 9345,
    "factories": 19846,
    "Ġclattered": 22366,
    "Ġinfallibly": 10044,
    "Ġpositional": 2600,
    "eches": 8078,
    "ons": 709,
    "Ġmerry": 5869,
    "ieties": 19023,
    "Ġshakes": 10906,
    "Ġstepped": 7052,
    "lim": 9609,
    "Ġtragedies": 25242,
    "draughts": 20391,
    "âĢĿ": 353,
    "Ġclub": 8877,
    "dwelt": 23874,
    "using": 5468,
    "Ġducks": 25161,
    "Ġstum": 21735,
    "nest": 10116,
    "Ġecc": 11631,
    "Ġtrailing": 23083,
    "Ġref": 916,
    "Ġbackgammon": 22665,
    "Ġsell": 7825,
    "Ġdegrees": 7293,
    "Ġphilosophy": 7104,
    "Ġdated": 10940,
    "Ġremains": 4909,
    "supposed": 13320,
    "Ġcling": 11777,
    "off": 1886,
    "na": 13763,
    "heard": 5009,
    "Ġbass": 17857,
    "Ġnorthumbria": 24174,
    "oled": 17621,
    "Ġlawless": 19438,
    "Ġusual": 3944,
    "blown": 25202,
    "Ġenquired": 21944,
    "irting": 11689,
    "minutes": 7512,
    "Ġhereafter": 9333,
    "Ġsciences": 15948,
    "Ġexplicit": 3592,
    "Ġrol": 3559,
    "itably": 10784,
    "Ġsolace": 16203,
    "tent": 21067,
    "argue": 21447,
    "Ġirregularity": 25325,
    "verest": 13994,
    "apple": 22845,
    "Ġdare": 3548,
    "Ġpreceding": 7528,
    "inery": 17735,
    "risonment": 17378,
    "Ġ177": 13416,
    "Ġinflamed": 13477,
    "Ġexploitation": 2346,
    "Ġboscombe": 8326,
    "derer": 4600,
    "Ġcongregation": 12333,
    "head": 1435,
    "Ġgrew": 5182,
    "Ġpeasants": 12336,
    "Ġrefused": 6716,
    "Ġuncomfortable": 8487,
    "Ġgrowl": 16541,
    "Ġflaming": 8566,
    "rons": 21042,
    "Ġsword": 6733,
    "draught": 12095,
    "entimes": 12661,
    "Ġshouted": 5348,
    "accordingly": 19216,
    "Ġcaptains": 7456,
    "fulfil": 16044,
    "Ġcrockery": 24303,
    "mission": 5970,
    "Ġsheeted": 19834,
    "edd": 1221,
    "Ġlatin": 16823,
    "erting": 17779,
    "Ġpott": 21470,
    "ckled": 9260,
    "rusted": 16509,
    "op": 661,
    "Ġblacksmiths": 19875,
    "Ġbeggar": 9352,
    "Ġsweetest": 13252,
    "Ġeats": 15681,
    "sil": 5283,
    "atoes": 17777,
    "draw": 23903,
    "Ġspasmodic": 20401,
    "yard": 5900,
    "halloa": 17091,
    "py": 17626,
    "urged": 18051,
    "centred": 25020,
    "Ġcoil": 11822,
    "renewed": 19707,
    "Ġtrusting": 24108,
    "tw": 2815,
    "Ġstrongly": 5657,
    "Ġprophetic": 20023,
    "solemn": 19820,
    "Ġplunging": 14955,
    "ret": 1474,
    "Ġcust": 11585,
    "bu": 5132,
    "intentions": 22942,
    "leviathan": 7784,
    "Ġrestrictions": 20638,
    "Ġopinions": 9418,
    "Ġmarking": 16471,
    "barrel": 17062,
    "Ġtheoretically": 3570,
    "loaded": 22516,
    "Ġcomplet": 4424,
    "Ġparents": 6753,
    "Ġalow": 18102,
    "Ġvinegar": 20103,
    "constellation": 24608,
    "Ġsent": 1774,
    "mming": 1172,
    "Ġmediocrity": 26610,
    "Ġtechnical": 17194,
    "Ġlakeman": 6986,
    "isons": 17851,
    "purp": 8091,
    "Ġunprepared": 22054,
    "Ġpenetration": 19919,
    "Ġreflecting": 24750,
    "Ġunappe": 22022,
    "Ġburying": 19254,
    "Ġunallied": 22036,
    "Ġ117": 19700,
    "Ġconcent": 8250,
    "Ġtackles": 8051,
    "pleasant": 5875,
    "Ġexcellence": 11453,
    "Ġunsettled": 14126,
    "cc": 474,
    "Ġunrestrained": 25555,
    "soon": 4030,
    "Ġent": 904,
    "Ġscalding": 16322,
    "assemblies": 25957,
    "Ġaccident": 5380,
    "Ġtones": 8401,
    "Ġglitter": 25126,
    "Ġbrilliantly": 25123,
    "Ġaperture": 26161,
    "Ġboxes": 13378,
    "ell": 398,
    "characteristic": 24686,
    "Ġplease": 4722,
    "genteel": 19952,
    "_.)": 7277,
    "snatched": 24851,
    "Ġsurprise": 3831,
    "Ġfog": 9664,
    "gloomy": 25147,
    "Ġplight": 14285,
    "ordered": 8794,
    "Ġhog": 13927,
    "Ġredundant": 16554,
    "Ġflint": 23014,
    "Ġunavailing": 26217,
    "Ġtattooings": 24901,
    "gallant": 7780,
    "Ġlaz": 7377,
    "Ġsaintsbury": 26374,
    "Ġyellow": 5302,
    "ecess": 17534,
    "Ġgliding": 8563,
    "Ġqualifications": 24676,
    "Ġregret": 5562,
    "Ġcorporeal": 17363,
    "Ġunmindful": 22070,
    "Ġsuperlative": 26075,
    "hing": 981,
    "handle": 11192,
    "cav": 17510,
    "Ġdecrease": 4201,
    "Ġawa": 7713,
    "ley": 1814,
    "Ġcarry": 4778,
    "early": 20122,
    "urg": 8142,
    "repe": 8780,
    "Ġwarn": 5695,
    "B": 38,
    "short": 6567,
    "ricane": 16282,
    "Ġcook": 3715,
    "Ġtemporary": 7981,
    "Ġrepresentations": 1875,
    "Ġauxiliary": 26420,
    "Ġeyed": 12672,
    "Ġundertone": 23241,
    "Ġviv": 6157,
    "silence": 8045,
    "Ġunusually": 15850,
    "Ġbehavioral": 11398,
    "pump": 21019,
    "Ġcommanding": 16592,
    "Ġyawn": 7610,
    "Ġveins": 8935,
    "haired": 14770,
    "Ġder": 1495,
    "Ġinhale": 20303,
    "mon": 2308,
    "Ġborn": 5224,
    "Ġmainland": 22653,
    "prevailed": 17348,
    "Ġresiding": 16065,
    "Ġtint": 13820,
    "Ġbub": 8118,
    "inement": 11560,
    "Ġneurons": 977,
    "Ġdisembow": 22541,
    "quadr": 15768,
    "Ġrestoration": 19025,
    "Ġcas": 8412,
    "Ġdownright": 16122,
    "Ġoccupation": 9934,
    "Ġroad": 3881,
    "regarded": 12012,
    "Ġbony": 12592,
    "animation": 16981,
    "Ġdeadliest": 14558,
    "Ġbended": 21388,
    "yingly": 23063,
    "vision": 5620,
    "Ġbravery": 23840,
    "Ġtist": 21165,
    "Ġhellaswag": 24343,
    "infernal": 24663,
    "scans": 22989,
    "Ġbending": 12590,
    "Ġgem": 21597,
    "Ġshin": 18228,
    "Ġyale": 21783,
    "Ġpetticoat": 15299,
    "Ġfibres": 12956,
    "thanking": 24326,
    "Ġclicked": 22369,
    "Ġexploded": 15913,
    "distinction": 19574,
    "Ġoutrages": 18416,
    "ground": 4671,
    "scot": 14420,
    "Ġhome": 2026,
    "ried": 925,
    "enesis": 24388,
    "Ġdisregarded": 22534,
    "Ġchestnuts": 24381,
    "Ġabed": 22269,
    "Ġlivers": 18462,
    "Ġtoiling": 15639,
    "Ġoutward": 7904,
    "ashtego": 4103,
    "Ġrekindled": 21680,
    "Ġrusty": 14967,
    "terrors": 25044,
    "Ġpatron": 7463,
    "studies": 25170,
    "Ġexcused": 23314,
    "Ġlone": 11616,
    "Ġastir": 14642,
    "Ġfriendship": 7245,
    "Ġanswer": 2601,
    "garnished": 26390,
    "lovely": 16050,
    "Ġgrease": 26191,
    "numbers": 17618,
    "browed": 25895,
    "charming": 15710,
    "Ġlace": 13953,
    "Ġgrey": 4513,
    "rederick": 14082,
    "Ġflip": 11917,
    "iability": 20922,
    "Ġsails": 5257,
    "pike": 11517,
    "Ġofficially": 24839,
    "Ġflesh": 5969,
    "Ġpreferred": 14969,
    "Ġcoopers": 20525,
    "Ġvitality": 15176,
    "ities": 1824,
    "Ġomnipotent": 13552,
    "Ġbegged": 8231,
    "Ġmechanically": 14400,
    "ira": 3960,
    "professor": 17252,
    "Ġmeans": 698,
    "Ġradiant": 16811,
    "Ġmaster": 3684,
    "Ġbow": 3062,
    "Ġdeliverer": 11954,
    "asant": 17961,
    "Ġdecl": 3593,
    "Ġshaping": 22007,
    "Ġret": 1383,
    "Ġalan": 10871,
    "Ġpained": 19169,
    "reason": 4416,
    "Ġowes": 20088,
    "des": 3174,
    "Ġvacancies": 24345,
    "Ġhugh": 15006,
    "Ġeliza": 6437,
    "window": 7742,
    "Ġchalk": 15937,
    "Ġcordially": 16838,
    "Ġsucking": 12791,
    "Ġdispatched": 23884,
    "Ġderanged": 23177,
    "mmar": 952,
    ";âĢĿ": 7790,
    "Ġuser": 15920,
    "Ġhospitality": 13516,
    "Ġbrill": 8550,
    "Ġstrait": 23751,
    "Ġreplete": 15702,
    "was": 1422,
    "Ġamusing": 11804,
    "Ġmarshalled": 25316,
    "Ġrefer": 18700,
    "ascertaining": 26462,
    "tomb": 21096,
    "Ġsympat": 13345,
    "list": 7551,
    "tremendous": 20676,
    "Ġvilla": 14750,
    "Ġcircular": 13115,
    "ittingly": 18807,
    "Ġglasses": 9478,
    "Ġstrung": 22619,
    "Ġrevenue": 26196,
    "trust": 21081,
    "Ġwaiter": 16430,
    "surprise": 9533,
    "Ġslang": 23162,
    "Ġheinous": 18041,
    "Ġrig": 4228,
    "Ġboone": 11843,
    "cocks": 23562,
    "itious": 8784,
    "Ġjustine": 4970,
    "moved": 9787,
    "Ġbob": 22639,
    "Ġmappings": 2147,
    "Ġtelescopes": 25691,
    "Ġintrig": 21994,
    "Ġscenery": 11458,
    "breat": 10081,
    "mand": 3894,
    "Ġcaul": 10789,
    "Ġrover": 18455,
    "Ġvoids": 25808,
    "raise": 18014,
    "uncontrollable": 20599,
    "Ġsombre": 18861,
    "emptied": 23637,
    "eping": 5834,
    "Ġrichness": 19313,
    "je": 11498,
    "Ġsherlock": 3893,
    "Ġscreening": 25301,
    "Ġsignificantly": 4519,
    "onsense": 6431,
    "butter": 11789,
    "icism": 13959,
    "war": 6802,
    "braid": 17497,
    "Ġrecur": 1624,
    "Ġgaped": 13970,
    "Ġtrooped": 24900,
    "Ġpicture": 4857,
    "Ġoh": 2174,
    "ifiable": 18166,
    "Ġceasing": 23759,
    "Ġmemorable": 16431,
    "raising": 21635,
    "Ġalice": 1482,
    "subsided": 25832,
    "Ġoce": 3033,
    "aited": 12439,
    "Ġchorus": 10948,
    "Ġauthor": 4377,
    "edmund": 17948,
    "Ġscaled": 2105,
    "antly": 1988,
    "Ġswan": 23054,
    "Ġflowers": 8943,
    "Ġinser": 6819,
    "Ġinject": 2713,
    "lion": 20946,
    "Ġgomorrah": 21618,
    "urious": 21706,
    "ission": 6457,
    "glad": 9011,
    "Ġmarble": 7669,
    "Ġpupella": 20425,
    "Ġpieces": 7368,
    "Ġtrifle": 10604,
    "Ġtropics": 17068,
    "Ġ21": 11200,
    "Ġtransfer": 2245,
    "jerked": 25619,
    "Ġvillainous": 25134,
    "Ġsurely": 6308,
    "Ġsibbald": 21233,
    "Ġinter": 727,
    "Ġhadn": 9722,
    "Ġloaded": 8492,
    "hammock": 16356,
    "Ġwhilst": 9221,
    "ferences": 10329,
    "Ġscru": 8191,
    "Ġund": 4119,
    "Ġnight": 1464,
    "sheep": 23090,
    "Ġmim": 3108,
    "Ġunderneath": 16341,
    "otence": 14026,
    "Ġunc": 2126,
    "Ġgoat": 16011,
    "Ġdestro": 3725,
    "achalot": 15867,
    "cour": 4480,
    "wandered": 20288,
    "oniously": 21260,
    "Ġresponsible": 9889,
    "convenient": 12242,
    "ounts": 4651,
    "Ġimpunity": 14221,
    "Ġenthusiasm": 8065,
    "V": 58,
    "Ġanimate": 23426,
    "Ġclapped": 9749,
    "Ġled": 3524,
    "Ġfurious": 10356,
    "duct": 3508,
    "Ġchristians": 13313,
    "older": 15760,
    "Ġunceasingly": 20362,
    "Ġpleasures": 11144,
    "Ġscandalous": 24880,
    "Ġdiscount": 22785,
    "licted": 20958,
    "Ġcavity": 20491,
    "Ġfiercely": 12957,
    "Ġobsolete": 26560,
    "returned": 7765,
    "crazy": 24692,
    "Ġinconceivable": 17940,
    "Ġthine": 7373,
    "Ġcollege": 11426,
    "perquisites": 26533,
    "angled": 6843,
    "egypt": 15353,
    "ques": 2844,
    "Ġmaledictions": 26430,
    "enes": 5218,
    "urements": 18126,
    "Ġph": 1544,
    "dogs": 25403,
    "flour": 23969,
    "truck": 15444,
    "Ġactive": 7915,
    "Ġcurls": 23004,
    "Ġjoys": 13225,
    "âĢľâĢĶ": 10874,
    "_âĢĶ": 11469,
    "cles": 8729,
    "ois": 9137,
    "Ġstarboard": 7605,
    "Ġbecame": 2693,
    "incom": 21184,
    "python": 4691,
    "Ġfobbing": 26443,
    "Ġsurf": 19133,
    "Ġcomm": 837,
    "Ġseclusion": 18207,
    "Ġnervousness": 23558,
    "Ġwithhold": 18118,
    "page": 13774,
    "Ġskilful": 25838,
    "iding": 3848,
    "stout": 21648,
    "witness": 10038,
    "voices": 21120,
    "Ġinsomuch": 23685,
    "jeroboam": 25620,
    "discovery": 12021,
    "Ġpermitting": 22404,
    "Ġgerman": 6142,
    "Ġanteced": 26178,
    "design": 19343,
    "ury": 3311,
    "Ġhearers": 15707,
    "Ġbeliefs": 24583,
    "Ġgratify": 19506,
    "Ġtyph": 10011,
    "Ġgibberish": 25787,
    "Ġdisc": 944,
    "Ġunimag": 12780,
    "ikes": 8087,
    "Ġtrample": 20330,
    "Ġfollies": 16261,
    "dining": 13709,
    "Ġindel": 13009,
    "Ġpleasure": 2696,
    "reeable": 3615,
    "ugues": 19021,
    "Ġmoulton": 17438,
    "Ġlabors": 23330,
    "invisible": 17742,
    "cy": 652,
    "Ġrival": 10488,
    "Ġsigning": 22711,
    "Ġnarr": 5085,
    "Ġskulls": 12964,
    "Ġsensationalism": 26067,
    "Ġmontan": 22983,
    "Ġreneg": 21678,
    "poles": 16213,
    "Ġgrie": 3587,
    "Ġoxen": 19954,
    "Ġaffability": 14390,
    "Ġalpine": 18108,
    "king": 3061,
    "pool": 16212,
    "Ġrejoice": 10211,
    "Ġsluggishly": 25892,
    "Ġhorribly": 16345,
    "Ġemploying": 23981,
    "gates": 20874,
    "Ġhabitations": 24788,
    "Ġimages": 1602,
    "cceed": 4142,
    "Ġroanoke": 22411,
    "worship": 19390,
    "Ġcomprehensive": 15091,
    "hed": 671,
    "10": 17475,
    "Ġklan": 23661,
    "Ġunidirectional": 3428,
    "gon": 17554,
    "Ġindia": 10373,
    "acknowledging": 25477,
    "Ġunnatural": 7189,
    "Ġarriving": 19220,
    "Ġ87": 19713,
    "Ġloggerhead": 13661,
    "ro": 301,
    "Ġpurple": 10435,
    "tically": 3393,
    "examination": 25479,
    "Ġstoutly": 16926,
    "Ġtexel": 25924,
    "Ġarrested": 9563,
    "Ġmistress": 8615,
    "Ġtrading": 23082,
    "Ġappellation": 22232,
    "Ġwick": 2004,
    "Ġsisters": 3643,
    "Ġrepresent": 1212,
    "Ġ{": 21155,
    "queer": 10366,
    "along": 6013,
    "Ġcoefficient": 2885,
    "Ġnewly": 9341,
    "laug": 10709,
    "scuttle": 11915,
    "Ġmealy": 18121,
    "Ġadro": 15871,
    "Ġdearest": 5457,
    "Ġhing": 11607,
    "Ġgravesend": 15220,
    "Ġamendment": 26025,
    "acetty": 24464,
    "wh": 508,
    "Ġclo": 6045,
    "inity": 5693,
    "lour": 15384,
    "Ġamazing": 9980,
    "Ġperil": 5557,
    "urities": 18052,
    "lungs": 26136,
    "Ġdebt": 12172,
    "Ġstructures": 2722,
    "Ġcoaxing": 18598,
    "woof": 21142,
    "Ġbart": 17858,
    "Ġpri": 5814,
    "Ġbuzz": 24001,
    "icing": 9203,
    "Ġultimate": 12353,
    "Ġreliance": 14388,
    "Ġpausing": 8656,
    "neville": 22469,
    "vag": 8768,
    "Ġleviathans": 8282,
    "Ġdistricts": 20266,
    "Ġpecks": 18670,
    "ruded": 15907,
    "iew": 2443,
    "Ġluxuries": 25167,
    "Ġtwelve": 4963,
    "Ġasiatics": 20434,
    "Ġreasoned": 23073,
    "mering": 12495,
    "Ġswing": 13041,
    "Ġintensity": 10019,
    "Ġsnugly": 17112,
    "Ġrepairs": 19085,
    "fierce": 25256,
    "encyclopÃ¦dia": 16666,
    "cri": 17508,
    "Ġsinks": 19552,
    "unity": 4152,
    "Ġdismantled": 20219,
    "Ġmeanwhile": 5736,
    "searching": 25106,
    "sm": 3438,
    "Ġafraid": 3532,
    "Ġjoll": 11769,
    "Ġpole": 6433,
    "Ġdenomin": 12072,
    "Ġobjections": 8567,
    "Ġ52": 24317,
    "Ġneglig": 18880,
    "Ġatlantic": 7000,
    "Ġseren": 7400,
    "embraced": 25805,
    "generative": 4332,
    "accomplishments": 25327,
    "ushing": 5731,
    "chet": 13221,
    "Ġseparate": 5778,
    "himself": 3973,
    "Ġunhe": 22014,
    "adventure": 17236,
    "Ġsuggests": 12205,
    "Ġcannon": 14156,
    "Å": 134,
    "gown": 9599,
    "Ġunimpeachable": 26524,
    "Ġincarnation": 25574,
    "proof": 16426,
    "Ġfinding": 3266,
    "Ġmishap": 20579,
    "Ġshrimp": 24160,
    "Ġreader": 11938,
    "Ġregularizer": 2338,
    "Ġeconomical": 25288,
    "Ġcoco": 11004,
    "mo": 862,
    "Ġreduce": 7943,
    "rough": 591,
    "mme": 22506,
    "evid": 11487,
    "dozen": 23379,
    "allows": 15911,
    "magnificent": 20277,
    "Ġcollecting": 12290,
    "Ġconstitutional": 25128,
    "apologizing": 26546,
    "Ĕ": 213,
    "compliments": 24807,
    "Ġ49": 24086,
    "Ġseem": 914,
    "Ġdents": 13914,
    "Ġrelent": 18777,
    "Ġcurve": 23003,
    "Ġinconsistency": 26184,
    "weekly": 25685,
    "Ġtass": 15473,
    "Ġansw": 2204,
    "ampling": 12731,
    "Ġvillanous": 24059,
    "mock": 5174,
    "beards": 22494,
    "Ġcalculated": 4476,
    "shoulder": 16586,
    "Ġlaug": 3630,
    "Ġutter": 3976,
    "Ġfathers": 16299,
    "instantly": 7506,
    "Ġcircumference": 13548,
    "Ġdangerously": 23940,
    "propriety": 14370,
    "Ġapprehended": 26091,
    "Ġdelic": 4134,
    "collar": 19330,
    "Ġcalmed": 16271,
    "Ġjung": 12841,
    "Ġits": 706,
    "w": 91,
    "Ġderick": 9367,
    "Ġtestified": 16334,
    "isco": 12586,
    "iv": 429,
    "Ġmixing": 24937,
    "Ġcouple": 5423,
    "stood": 4117,
    "aged": 2609,
    "anum": 17837,
    "tained": 4407,
    "Ġfriends": 2655,
    "Ġfelony": 18954,
    "Ġrebounds": 25968,
    "acon": 10684,
    "Ġher": 427,
    "Ġepicures": 25880,
    "nels": 12500,
    "Ġpertaining": 18451,
    "mediate": 16516,
    "Ġdames": 23475,
    "ine": 406,
    "Ġgibraltar": 25788,
    "gen": 6503,
    "iously": 2678,
    "Ġnarrative": 6216,
    "Ġdegenerated": 20509,
    "Ġoppressed": 11191,
    "Ġfossiliferous": 25610,
    "Ġdeployment": 11206,
    "Ġ183": 13242,
    "stone": 5089,
    "insupportable": 21196,
    "Ġhemis": 21687,
    "Ġallusions": 10908,
    "pass": 4293,
    "bee": 16040,
    "who": 2442,
    "Ġaddress": 2271,
    "Ġimple": 1756,
    "va": 4742,
    "squeezing": 25914,
    "nearest": 16030,
    "Ġforeshad": 23454,
    "Ġlent": 21550,
    "Ġbarrow": 12074,
    "izzy": 3097,
    "adow": 18090,
    "ack": 614,
    "win": 6801,
    "Ġreaped": 18032,
    "Ġwedding": 4816,
    "Ġnearest": 8472,
    "opence": 18516,
    "Ġknives": 14840,
    "Ġresp": 2494,
    "Ġcrozetts": 19632,
    "Ġthat": 335,
    "Ġhumorous": 10363,
    "Ġinsc": 7586,
    "repeated": 12343,
    "ensation": 22551,
    "Ġchurning": 15941,
    "ume": 4836,
    "riety": 12748,
    "damp": 15347,
    "belief": 13286,
    "Ġtemporarily": 11169,
    "Ġduring": 872,
    "Ġkneeling": 12147,
    "Ġentertainment": 12227,
    "esy": 9188,
    "Ġsnaky": 23744,
    "Ġscream": 5935,
    "Ġmig": 13859,
    "Ġsharpen": 13573,
    "Ġreward": 6145,
    "Ġlondon": 2842,
    "ushed": 2972,
    "obey": 11512,
    "Ġrobe": 18457,
    "unavoid": 14065,
    "Ġgemini": 26471,
    "anch": 15564,
    "Ġgro": 4398,
    "Ġdreaming": 11225,
    "Ġforces": 12707,
    "Ġphysiognomy": 25611,
    "Ġspilled": 10927,
    "outon": 12808,
    "Ġcandour": 14675,
    "Ġnought": 21525,
    "Ġwin": 9644,
    "bering": 18681,
    "uture": 1059,
    "Ġ13": 6719,
    "Ġshyness": 20309,
    "Ġlobster": 11391,
    "Ġ35": 24081,
    "Ġwel": 4527,
    "hering": 12819,
    "already": 6980,
    "Ġprocessions": 18434,
    "Ġxxxii": 24973,
    "Ġlifted": 6985,
    "Ġminutely": 14562,
    "Ġtrespass": 23602,
    "darted": 20834,
    "Ġhole": 6079,
    "dÃ¦mon": 17529,
    "Ġmizzen": 20292,
    "tiger": 13800,
    "Ġmitt": 21310,
    "Ġmaterial": 5178,
    "Ġbene": 2030,
    "blending": 24131,
    "Ġintroducing": 11980,
    "Ġinvestigations": 17249,
    "anity": 9657,
    "dat": 1659,
    "decided": 13219,
    "Ġfetch": 7769,
    "akers": 9742,
    "Ġsilk": 11966,
    "Ġpennies": 17273,
    "Ġsepul": 14092,
    "consist": 14819,
    "Ġpay": 3965,
    "agon": 7871,
    "plish": 18209,
    "adieu": 26202,
    "advanced": 19591,
    "Ġchap": 5934,
    "response": 25763,
    "baby": 25516,
    "Ġpropri": 6739,
    "Ġdome": 15593,
    "Ġchinks": 22255,
    "infl": 15490,
    "hammered": 19005,
    "baden": 25616,
    "Ġsunda": 13547,
    "kerchief": 7525,
    "12": 20751,
    "kind": 3864,
    "Ġpurchased": 12265,
    "labour": 23918,
    "proper": 7471,
    "Ġgratitude": 5599,
    "committed": 18741,
    "Ġalfred": 21790,
    "urer": 18124,
    "Ġtribe": 10753,
    "Ġby": 383,
    "uting": 15664,
    "firmly": 20283,
    "movable": 14327,
    "Ġoxford": 11373,
    "ower": 1046,
    "Ġsafety": 6340,
    "Ġnarrowed": 24355,
    "ap": 547,
    "Ġteaches": 18811,
    "Ġomitted": 12569,
    "puted": 8850,
    "Ġdatasets": 2387,
    "Ġroutine": 13511,
    "Ġlat": 5087,
    "Ġvoluntarily": 12145,
    "worshipping": 16612,
    "Ġsenses": 8252,
    "Ġineffectual": 17387,
    "scr": 16245,
    "Ġpondicherry": 20494,
    "Ġexamined": 6335,
    "Ġvenetian": 14850,
    "Ġproceedings": 9910,
    "Ġflush": 14427,
    "Ġtwig": 11854,
    "reputation": 15518,
    "Ġreceives": 20357,
    "Ġiceberg": 14719,
    "som": 3291,
    "Ġangles": 23590,
    "Ġheathenish": 13620,
    "Ġmidway": 14606,
    "Ġrome": 12160,
    "tt": 13793,
    "Ġmates": 4872,
    "Ġtoward": 17949,
    "yesterday": 10355,
    "Ġmanoir": 22335,
    "related": 24017,
    "Ġsuppressed": 11916,
    "Ġhardy": 8568,
    "whims": 22243,
    "Ġtaught": 6803,
    "Ġblanket": 8343,
    "humiliation": 24026,
    "vard": 21113,
    "berish": 22719,
    "Ġstay": 3096,
    "definition": 23121,
    "like": 1885,
    "ribut": 814,
    "move": 11858,
    "get": 1021,
    "Ġlustrous": 20159,
    "Ġbarrels": 9439,
    "Ġdeserted": 8640,
    "Ġtortures": 14926,
    "mistake": 24529,
    "christmas": 20258,
    "Ġmum": 13861,
    "Ġcome": 1239,
    "ature": 520,
    "powder": 17647,
    "Ġgoney": 14547,
    "conclusion": 25672,
    "Ġsecondly": 14519,
    "Ġchip": 12830,
    "mole": 22704,
    "erted": 7360,
    "crossing": 19414,
    "Ġvirtues": 9939,
    "Ġconsecrated": 26490,
    "pine": 13772,
    "ificant": 22210,
    "Ġcharms": 11132,
    "Ġoaks": 16935,
    "affair": 14657,
    "Ġeagerly": 4990,
    "Ġwidespread": 20678,
    "Ġevol": 2818,
    "small": 6472,
    "icuous": 10837,
    "enterprise": 24995,
    "Ġvastly": 23863,
    "Ġdodging": 19889,
    "Ġsuperst": 7703,
    "Ġprompted": 23820,
    "jaw": 13746,
    "remes": 21240,
    "noticed": 14344,
    "mat": 2198,
    "Ġsinister": 8571,
    "Ġmil": 4257,
    "Ġequal": 4135,
    "floating": 12232,
    "Ġaspired": 25985,
    "continual": 20646,
    "eminence": 20102,
    "returns": 23141,
    "Ġcompliments": 8636,
    "Ġcoal": 18593,
    "pointed": 9811,
    "Ġcurious": 3361,
    "Ġutterance": 14767,
    "ashions": 16420,
    "Ġfritters": 23258,
    "Ġvit": 10248,
    "ulls": 8842,
    "lose": 12887,
    "Ġroman": 8323,
    "bethink": 25745,
    "Ġpreservative": 24630,
    "Ġlowly": 11123,
    "had": 1948,
    "stra": 4047,
    "discrimin": 19611,
    "reader": 23850,
    "fell": 6952,
    "bride": 19201,
    "Ġcomplied": 14737,
    "engagement": 14461,
    "Ġknowledge": 1444,
    "Ġstrives": 23698,
    "Ġdizzy": 21435,
    "Ġframe": 1959,
    "Ġunholy": 26220,
    "Ġliberally": 16832,
    "Ġglimmered": 20174,
    "Ġchanc": 18385,
    "Ġhier": 1893,
    "savagery": 25026,
    "Ġhop": 1459,
    "rmsprop": 4522,
    "Ġprofited": 19193,
    "Ġproduced": 2448,
    "ctu": 5088,
    "hated": 17563,
    "Ġmaxim": 3087,
    "Ġsilently": 6892,
    "Ġcognitive": 13638,
    "ory": 1080,
    "shroud": 20313,
    "Ġpyramid": 8806,
    "impressed": 12696,
    "Ġsom": 1277,
    "Ġbunch": 11328,
    "Ġaudits": 24769,
    "untarily": 6313,
    "Ġtempered": 12928,
    "emporary": 15801,
    "Ġcynicism": 25772,
    "ish": 551,
    "Ġmany": 1107,
    "buttons": 22406,
    "Ġtink": 9151,
    "created": 12455,
    "Ġdusky": 13553,
    "Ġremark": 2145,
    "Ġpaus": 4301,
    "Ġmerciless": 25247,
    "Ġenslaved": 26315,
    "Ġfurlongs": 20725,
    "grim": 19108,
    "Ġdolphin": 17315,
    "Ġcrav": 19175,
    "Ġarabian": 9093,
    "french": 9122,
    "Ġnumber": 1981,
    "Ġtolland": 24991,
    "Ġmounts": 17808,
    "Ġsparkling": 11358,
    "sometimes": 5972,
    "ino": 15482,
    "venth": 9298,
    "Ġincorpor": 13169,
    "violets": 23546,
    "Ġfeed": 2129,
    "Ġlassitude": 20590,
    "Ġrand": 1583,
    "Ġsymph": 22215,
    "dog": 10696,
    "Ġdevil": 3616,
    "base": 20779,
    "Ġfing": 3760,
    "roylott": 20030,
    "Ġabst": 9269,
    "torm": 11533,
    "fourths": 25510,
    "Ġasks": 5115,
    "ispensable": 9099,
    "Ġuntutored": 19168,
    "Ġuncommonly": 7759,
    "event": 8077,
    "Ġaustral": 12177,
    "Ġreplenished": 13640,
    "Ġcolonnades": 26277,
    "Ġaffliction": 25846,
    "Ġdarted": 4757,
    "Ġsqualid": 14372,
    "gul": 12470,
    "Ġlandowner": 23382,
    "Ġfitting": 21411,
    "Ġdignity": 5704,
    "Ġdipped": 15599,
    "Ġlard": 13950,
    "Ġspool": 24803,
    "Â£": 4812,
    "lins": 2024,
    "Ġnicely": 8712,
    "Ġdownward": 10334,
    "Ġtimely": 19597,
    "Ġreport": 6192,
    "Ġrequested": 14302,
    "securing": 19816,
    "edily": 17946,
    "Ġmercy": 9001,
    "Ġjealousy": 13580,
    "Ġfat": 3463,
    "Ġshortly": 6197,
    "forgetting": 25486,
    "Ġconvince": 14644,
    "Ġsuperseded": 26225,
    "Ġcogent": 14280,
    "rior": 12746,
    "Ġwindsor": 16889,
    "Ġprocesses": 3636,
    "ton": 1728,
    "perplex": 18342,
    "importance": 9992,
    "arily": 4126,
    "footed": 19692,
    "Ġburke": 19253,
    "Ġdisgust": 6706,
    "tri": 11532,
    "beside": 19879,
    "Ġhardware": 4904,
    "Ġcircumnavigation": 20403,
    "addition": 13388,
    "fif": 9119,
    "Ġdisplays": 19859,
    "Ġconvers": 2908,
    "Ġcharges": 23270,
    "oriental": 23723,
    "shock": 19857,
    "Ġspir": 2426,
    "Ġslappin": 18945,
    "advice": 12162,
    "Ġwatchful": 16529,
    "ssing": 3811,
    "ieving": 7033,
    "Ġcalamity": 17352,
    "Ġanalogy": 25640,
    "Ġstanding": 2997,
    "interference": 23740,
    "Ġfluctu": 5268,
    "Ġeast": 5370,
    "Ġensemble": 1609,
    "Ġunfathomably": 25874,
    "idious": 11665,
    "Ġofficio": 23819,
    "spoke": 11025,
    "ntax": 934,
    "Ġacceptance": 14830,
    "Ġunfold": 8022,
    "uncont": 15778,
    "Ġquestionable": 19269,
    "Ġhorizontally": 17014,
    "Ġrefreshed": 15294,
    "Ġmagnitudes": 3824,
    "Ġfactory": 23279,
    "Ġgambler": 26192,
    "since": 5895,
    "beauty": 20107,
    "Ġwitnesses": 9489,
    "Ġspecksnyder": 17406,
    "Ġdep": 739,
    "hope": 5990,
    "safety": 20352,
    "pumps": 21029,
    "sac": 7141,
    "pard": 9621,
    "Ġunfrequ": 19511,
    "Ġproves": 14041,
    "Ġ47": 14775,
    "sticking": 21663,
    "some": 2233,
    "mysteries": 26052,
    "Ġvisitor": 5331,
    "prospect": 23397,
    "Ġwar": 5526,
    "ences": 1264,
    "ugging": 23290,
    "Ġassembl": 20064,
    "Ġ14": 9326,
    "Ġ1778": 25730,
    "Ġlake": 5227,
    "sequent": 6830,
    "stove": 21655,
    "mor": 4218,
    "Ġfemale": 8345,
    "Ġchace": 14181,
    "Ġdiscredit": 22786,
    "Ġdared": 5440,
    "ighbour": 3389,
    "Ġfolks": 14429,
    "ably": 1844,
    "Ġthick": 3785,
    "Ġmeanly": 12914,
    "Ġguarded": 9829,
    "professional": 20278,
    "Ġsaint": 15510,
    "Ġtesting": 23219,
    "Ġjur": 12839,
    "Ġstiggs": 25793,
    "ators": 7829,
    "Ġcondesc": 7181,
    "istic": 998,
    "Ġsepar": 4000,
    "Ġconstrained": 19242,
    "merely": 16138,
    "Ġunhappy": 5640,
    "yea": 23091,
    "Ġdesol": 6880,
    "Ġdeliberately": 10627,
    "iance": 5280,
    "Ġreject": 7385,
    "waistcoat": 17364,
    "Ġendued": 14080,
    "Ġoptimal": 1854,
    "Ġdireful": 11019,
    "enjoyments": 25434,
    "Ġslaughter": 20732,
    "acted": 11012,
    "singular": 12193,
    "Ġsaddest": 16665,
    "unwholesome": 26499,
    "Ġdeserving": 14756,
    "Ġderives": 16311,
    "Ġcounting": 13099,
    "Ġsax": 10931,
    "'t": 3147,
    "composure": 24039,
    "corner": 13401,
    "Ġbet": 1136,
    "ilder": 15717,
    "malice": 17605,
    "fatig": 17090,
    "Ġentered": 2848,
    "covenant": 23563,
    "limping": 26395,
    "Ġstaggers": 24654,
    "Ġ1894": 5196,
    "Ġwrithing": 11950,
    "Ġdine": 7365,
    "Ġattend": 5035,
    "soever": 11863,
    "prosperity": 20737,
    "shaken": 16024,
    "Ġloathing": 15071,
    "Ġcousins": 9918,
    "interesting": 12206,
    "inj": 9154,
    "Ġunsuccessful": 18258,
    "aceti": 7112,
    "Ġtouching": 4680,
    "itt": 571,
    "Ġparting": 9786,
    "Ġheed": 5630,
    "Ġgasping": 17039,
    "Ġbecoming": 4399,
    "ordinate": 12879,
    "Ġbashful": 20423,
    "Ġchapters": 10475,
    "Ġhandling": 8916,
    "spite": 16141,
    "ks": 3148,
    "Ġnegative": 1463,
    "thern": 4953,
    "Ġachieves": 4381,
    "Ġ1836": 25721,
    "telescope": 26564,
    "Ġcontin": 5382,
    "Ġmeditation": 16707,
    "shirt": 22452,
    "Ġsupply": 6067,
    "ead": 2602,
    "Ġimbalanced": 18334,
    "Ġrode": 16000,
    "Ġmist": 2878,
    "Ġweld": 8112,
    "Ġitem": 12706,
    "Ġgallows": 12150,
    "rot": 21535,
    "Ġvoyage": 3056,
    "Ġriding": 14097,
    "excitement": 19672,
    "Ġstrengthen": 20703,
    "Ġsixth": 16562,
    "Ġwriggling": 15261,
    "Ġeff": 680,
    "Ġhappens": 2186,
    "Ġpenal": 1772,
    "soft": 12514,
    "Ġconsulted": 13434,
    "doesn": 19823,
    "Ġinsurance": 23684,
    "daggoo": 13710,
    "Ġ1890": 23900,
    "Ġchili": 25562,
    "ĠĠĠĠĠĠĠĠĠĠ": 18581,
    "Ġfootman": 8288,
    "anche": 10790,
    "Ġrepairing": 25590,
    "Ġsaleve": 17394,
    "haut": 20904,
    "eed": 20843,
    "meanwhile": 10612,
    "uzza": 11272,
    "barb": 10083,
    "keep": 3852,
    "Ġliar": 22412,
    "Ġcrescentic": 20624,
    "shorn": 22451,
    "Ġboundary": 11224,
    "ĠĠĠĠĠĠĠĠĠĠĠĠĠĠĠĠĠĠĠĠĠĠĠĠĠĠĠĠĠĠĠĠĠĠĠĠĠĠĠĠĠĠĠĠĠĠĠĠĠĠĠ": 20042,
    "Ġsanely": 24983,
    "Ġranged": 10261,
    "Ġsacrificial": 24872,
    "dil": 11480,
    "teak": 22820,
    "Ġeas": 2352,
    "Ġsage": 17754,
    "Ġwaiting": 4326,
    "Ġsuccessful": 9926,
    "Ġstockings": 20000,
    "Ġsaf": 4002,
    "Ġpacifics": 24373,
    "itan": 10162,
    "Ġtash": 13823,
    "iltrated": 19308,
    "cannon": 22965,
    "part": 2577,
    "Ġdaughters": 4423,
    "Ġdrowsiness": 26447,
    "Ġindeed": 1679,
    "Ġcrad": 21352,
    "Ġfled": 6672,
    "Ġexpressing": 12013,
    "Ġstoried": 18075,
    "boiling": 19001,
    "bran": 23576,
    "intern": 23738,
    "Ġcontributes": 15254,
    "Ġ1671": 25008,
    "ounding": 22397,
    "Ġnovels": 15933,
    "young": 7320,
    "Ġoffers": 12951,
    "Ġintelligently": 4905,
    "execution": 20475,
    "thole": 21990,
    "erial": 4631,
    "separately": 25228,
    "oce": 10716,
    "Ġphilist": 16603,
    "Ġimproved": 7657,
    "Ġrange": 9715,
    "Ġavert": 14428,
    "Ġgarments": 15197,
    "clair": 18935,
    "Ġshout": 4267,
    "oftentimes": 19424,
    "Ġfails": 13318,
    "Ġmethodically": 23148,
    "Ġbodiless": 24229,
    "Ġconverts": 2809,
    "Ġappear": 2485,
    "oh": 1577,
    "Ġlashings": 25100,
    "ĠĠĠĠĠĠĠĠĠĠĠĠ": 12908,
    "adie": 18091,
    "Ġornamented": 20365,
    "necessities": 24308,
    "Ġcaps": 8416,
    "Ġiteratively": 3059,
    "Ġarch": 926,
    "Ġinarticulate": 21503,
    "Ġlapse": 17123,
    "rudence": 7093,
    "Ġprecisely": 6466,
    "Ġgait": 13335,
    "Ġmo": 629,
    "Ġpout": 17906,
    "Ġstrength": 4262,
    "Ġstaggered": 9542,
    "Ġslavish": 23176,
    "Ġjeopardized": 20233,
    "pr": 3177,
    "treacle": 25151,
    "umps": 6318,
    "Ġtandem": 26413,
    "inridge": 11563,
    "Ġlandsmen": 11353,
    "oring": 1859,
    "Ġmaggie": 26293,
    "Ġembarrassment": 10629,
    "enances": 10156,
    "Ġholiest": 18814,
    "Ġensures": 3057,
    "unworthy": 18164,
    "turbaned": 24532,
    "Ġtossed": 5816,
    "sleeves": 26110,
    "vapor": 25756,
    "Ġalco": 21786,
    "ide": 721,
    "way": 763,
    "Ġpolitic": 23620,
    "Ġsatirical": 26281,
    "Ġdistended": 16048,
    "opolising": 25677,
    "Ġbro": 1430,
    "portent": 25413,
    "Ġtwins": 16124,
    "Ġabode": 7900,
    "habit": 16193,
    "favour": 9552,
    "Ġfake": 5811,
    "Ġforwarded": 19045,
    "Ġrelates": 12986,
    "Ġchowder": 10283,
    "Ġopenly": 8575,
    "Ġbeasts": 10620,
    "Ġdem": 11677,
    "penny": 22948,
    "conclusions": 25673,
    "Ġprofessional": 7298,
    "io": 3804,
    "ories": 4752,
    "chronicle": 26482,
    "Ġturnkeys": 23033,
    "unconquerable": 21895,
    "brimmed": 14590,
    "Ġriots": 23895,
    "Ġleague": 6539,
    "Ġtailed": 21171,
    "Ġadopt": 10635,
    "ises": 3656,
    "Ġtrustees": 24110,
    "Ġevangelists": 20342,
    "fish": 3518,
    "skill": 24487,
    "Ġask": 1490,
    "Ġtired": 9152,
    "Ġimpetuously": 20375,
    "fight": 17540,
    "Ġsadness": 13291,
    "Ġcloudless": 16671,
    "Ġasleep": 6835,
    "Ġ82": 24458,
    "iments": 4945,
    "Ġmending": 17806,
    "_âĢĶâĢĻâĢĿ": 25742,
    "Ġruggedness": 26270,
    "Ġannihilation": 15169,
    "expressive": 24307,
    "odious": 21819,
    "Ġdepths": 4328,
    "Ġamid": 4959,
    "q": 85,
    "Ġathirst": 20601,
    "opinion": 10986,
    "Ġplays": 12041,
    "Ġplata": 25120,
    "Ġneedless": 19232,
    "poor": 6061,
    "useness": 22296,
    "Ġplunder": 22609,
    "Ġhanged": 17927,
    "fluke": 25205,
    "Ġmuttering": 10502,
    "pin": 13770,
    "tallied": 21092,
    "falsehood": 25902,
    "define": 1521,
    "Ġdiscovery": 5412,
    "Ġunprovided": 18261,
    "domestic": 19828,
    "Ġmerged": 19299,
    "ÿ": 192,
    "emic": 18186,
    "Ġcreator": 7250,
    "gument": 20887,
    "Ġcumbrous": 26434,
    "Ġdarts": 16770,
    "iot": 9603,
    "loat": 8890,
    "Ġlogits": 3452,
    "abs": 11670,
    "ouching": 13183,
    "Ġpot": 2989,
    "Ġmassacre": 20550,
    "astron": 22173,
    "assure": 9273,
    "nights": 16449,
    "alogue": 25163,
    "Ġjaws": 5593,
    "ft": 911,
    "Ġpeleg": 3742,
    "ivility": 12787,
    "Ġpractised": 23325,
    "Ġcruises": 23708,
    "Ġsuspend": 14610,
    "Ġdoted": 21436,
    "Ġakin": 15498,
    "Ġroughly": 17041,
    "so": 890,
    "Ġseriously": 7061,
    "Ġgrapes": 15219,
    "Ġadvers": 4887,
    "Ġalive": 4400,
    "disguise": 26307,
    "Ġdrawback": 23993,
    "elizabeth": 1986,
    "Ġmodel": 515,
    "vex": 21701,
    "Ġinterview": 9773,
    "Ġapt": 9158,
    "Ġdifficult": 3575,
    "Ġauger": 21206,
    "Ġunconditional": 15848,
    "circled": 24190,
    "Ġinside": 5448,
    "nson": 16092,
    "ix": 1800,
    "Ġeye": 2280,
    "Ġsuddenness": 23383,
    "resnet": 4071,
    "Ġgarden": 3827,
    "Ġsuddenly": 2647,
    "string": 15690,
    "Ġmiser": 18704,
    "ġ": 226,
    "Ġprophets": 20453,
    "Ġlighten": 23261,
    "numer": 15402,
    "approach": 24834,
    "wear": 22686,
    "Ġlarge": 1064,
    "uber": 15448,
    "Ġadduced": 26526,
    "Ġcapacious": 19178,
    "icles": 17975,
    "Ġaccommodate": 20520,
    "Ġembark": 8559,
    "Ġsheer": 14153,
    "Ġapparatus": 24909,
    "irst": 878,
    "Ġsnap": 11202,
    "Ġdest": 2235,
    "Ġleech": 24158,
    "jac": 8382,
    "Ġmir": 9649,
    "hever": 13834,
    "Ġsocks": 14136,
    "Ġinnocence": 6477,
    "Ġchoosing": 19593,
    "precious": 12077,
    "de": 461,
    "Ġclapping": 14209,
    "Ġpleaded": 16302,
    "Ġshocking": 10437,
    "night": 2167,
    "capting": 24044,
    "sufficient": 6637,
    "want": 8770,
    "Ġdegrad": 2592,
    "ties": 2760,
    "Ġdampening": 2897,
    "itement": 7835,
    "Ġconduct": 3737,
    "Ġgrace": 5374,
    "declaration": 25176,
    "usions": 6160,
    "Ġbul": 3293,
    "inative": 15487,
    "Ġornaments": 17455,
    "Ġ122": 24467,
    "Ġalders": 21788,
    "formality": 22218,
    "Ġterrific": 6755,
    "tem": 6369,
    "Ġbubble": 13538,
    "):": 11463,
    "Ġgarn": 13966,
    "Ġdictate": 20154,
    "Ġsultry": 20291,
    "Ġwatches": 11084,
    "Ġconcuss": 19048,
    "handkerchief": 14620,
    "Ġblacks": 23389,
    "Ġshaped": 15838,
    "Ġsemicircle": 26068,
    "readers": 23851,
    "Ġfigured": 16646,
    "Ġcobbling": 20526,
    "Ġmodes": 22224,
    "Ġvertically": 19383,
    "pus": 3417,
    "Ġbidden": 24647,
    "Ġandes": 12646,
    "Ġrequ": 790,
    "Ġcreditors": 20133,
    "Ġsumatra": 15290,
    "gloves": 25146,
    "has": 4015,
    "04": 10682,
    "Ġbernard": 20687,
    "Ġiter": 2954,
    "Ġvalidate": 3025,
    "Ġlizzy": 3550,
    "mun": 20964,
    "Ġoarsman": 8641,
    "alone": 10186,
    "Ġfine": 1317,
    "Ġhardened": 14453,
    "Ġwhereby": 11840,
    "Ġpain": 2302,
    "Ġsnar": 13204,
    "Ġvelocity": 10623,
    "see": 3049,
    "turkish": 24533,
    "gives": 15361,
    "Ġendeavor": 16548,
    "Ġstructured": 2973,
    "canst": 22964,
    "Ġincompatible": 25681,
    "Ġrephr": 21682,
    "Ġsevere": 6032,
    "arab": 21444,
    "Ġreef": 10851,
    "stave": 21652,
    "Ġmostly": 7664,
    "atious": 10154,
    "Ġ5": 4935,
    "Ġconfirmation": 17213,
    "ĠĠĠĠĠĠĠĠĠĠĠĠĠ": 22568,
    "Ġconvey": 9984,
    "ahit": 9384,
    "Ġreconsidered": 21676,
    "Ġspl": 2984,
    "ibility": 2388,
    "<EOS>": 2,
    "origin": 7582,
    "Ġcakes": 13887,
    "Ġguar": 23047,
    "Ġforever": 14555,
    "Ġins": 2784,
    "Ġfar": 1448,
    "atically": 2552,
    "edged": 15635,
    "eter": 11624,
    "precisely": 6916,
    "Ġoath": 7833,
    "Ġrem": 954,
    "Ġbrightened": 23832,
    "ateg": 1346,
    "Ġfattened": 25950,
    "Ġfurn": 3713,
    "ofs": 11834,
    "ete": 9206,
    "idelburgh": 10564,
    "getic": 12971,
    "ient": 394,
    "Ġunequal": 14845,
    "gunwale": 20665,
    "Ġpoultry": 17444,
    "Ġreplaced": 13076,
    "apt": 724,
    "separation": 25227,
    "ium": 4864,
    "Ġshooting": 11164,
    "Ġaisle": 21204,
    "Ġpaul": 12067,
    "Ġclair": 6270,
    "onist": 21253,
    "Ġcaptured": 7244,
    "commanders": 16991,
    "hunting": 24385,
    "tur": 5688,
    "latitude": 25260,
    "articulate": 17398,
    "am": 367,
    "Ġaltar": 9231,
    "Ġproperly": 7945,
    "Ġconcealing": 23906,
    "--------": 14786,
    "storied": 18027,
    "ĠmanÅĵuv": 18418,
    "Ġcollected": 2613,
    "Ġanomalously": 25639,
    "Ġproficiency": 19194,
    "Ġcomplicated": 14738,
    "Ġdegener": 14051,
    "Ġthereupon": 18435,
    "Ġrash": 10900,
    "grateful": 10430,
    "oman": 2016,
    "Ġspiracle": 14152,
    "Ġfretfully": 25448,
    "Ġrustic": 14968,
    "earthly": 24723,
    "Ġdispel": 16598,
    "league": 17846,
    "Ġaddison": 14236,
    "Ġdeft": 21840,
    "tfordshire": 4811,
    "banish": 20784,
    "omeness": 18018,
    "Ġrefuse": 5739,
    "greatest": 10496,
    "kl": 4865,
    "act": 785,
    "supplemental": 25875,
    "Ġunivers": 2127,
    "ere": 6789,
    "Ġtried": 3650,
    "olic": 14045,
    "Ġcuvier": 9168,
    "Ġtorch": 25033,
    "Ġisinglass": 21806,
    "Ġassum": 4066,
    "Ġrecre": 22737,
    "mort": 10712,
    "Ġplaces": 5390,
    "Ġstatistical": 11106,
    "utility": 21590,
    "consciousness": 13370,
    "iters": 21332,
    "uary": 11540,
    "Ġdiameter": 19869,
    "Ġhemisphere": 26480,
    "Ġsult": 10769,
    "Ġconven": 6152,
    "superst": 11327,
    "prejudiced": 17300,
    "Ġath": 15805,
    "scarcely": 12390,
    "prisoner": 20546,
    "Ġoppression": 23652,
    "feren": 766,
    "bench": 16805,
    "Ġinsolent": 13604,
    "rating": 7808,
    "atiously": 15525,
    "footsteps": 25200,
    "pro": 2048,
    "Ġtons": 11552,
    "confined": 24328,
    "Ġstrangely": 5677,
    "sleepers": 24729,
    "ousings": 18336,
    "mus": 10113,
    "Ġbelt": 13008,
    "Á": 130,
    "Ġslop": 23165,
    "Ġentrance": 7232,
    "_.": 2211,
    "Ġtalking": 3859,
    "youngest": 19746,
    "roded": 17958,
    "Ġdisturbance": 15015,
    "î": 175,
    "Ġscar": 3214,
    "Ġberyl": 20493,
    "t": 88,
    "character": 6332,
    "Ġrevers": 21667,
    "Ġrecol": 4031,
    "suggested": 17302,
    "Ġhans": 12631,
    "Ġcombining": 22855,
    "verd": 21731,
    "Ġcontinu": 1167,
    "flu": 9120,
    "ortal": 6266,
    "catch": 17509,
    "abominable": 20597,
    "Ġprospect": 4705,
    "arch": 1126,
    "contin": 16545,
    "Ġinducements": 24968,
    "Ġrest": 1780,
    "Ġexh": 5232,
    "excited": 13384,
    "Ġours": 4612,
    "quietude": 24656,
    "igns": 8449,
    "ancing": 1758,
    "Ġentit": 22747,
    "Ġsurtout": 23467,
    "Ġfins": 9666,
    "thought": 3850,
    "phology": 3008,
    "Ġsemicirc": 16395,
    "Ġgayer": 24501,
    "Ġeffects": 7235,
    "Ġincessantly": 11413,
    "Ġmasses": 10506,
    "Ġdefect": 8556,
    "Ġworthless": 19568,
    "fulfilment": 26026,
    "Ġcorrection": 5062,
    "bones": 8372,
    "carte": 25401,
    "Ġspears": 12931,
    "forget": 11034,
    "Ġimpenitent": 26550,
    "antique": 18288,
    "Ġfeasible": 22213,
    "during": 6787,
    "plentiful": 21966,
    "Ġnotorious": 18224,
    "Ġbigger": 19764,
    "Ġbewitching": 25977,
    "5": 25,
    "behind": 6779,
    "Ġsarat": 21230,
    "brary": 5755,
    "Ġsem": 1877,
    "arus": 13915,
    "Ġappar": 7411,
    "Ġphyseter": 26588,
    "Ġhab": 4221,
    "Ġsagaciously": 24730,
    "Ġsmoke": 4715,
    "Ġunanswerable": 26523,
    "Ġcheshire": 13094,
    "considered": 9583,
    "Ġinvested": 7278,
    "Ġdigest": 24648,
    "Ġmining": 22832,
    "avail": 18569,
    "Ġdish": 6137,
    "Ġtattooed": 11380,
    "Ġmuslin": 19386,
    "can": 1230,
    "velled": 9879,
    "Ġamaze": 22483,
    "Ġcircumvent": 25067,
    "Ġhear": 1963,
    "because": 4924,
    "warmth": 20056,
    "beneath": 9538,
    "Ġderiv": 1737,
    "Ġcred": 8785,
    "enter": 7858,
    "Ġstout": 6025,
    "Ġroots": 11187,
    "Ġjo": 2611,
    "Ġpeace": 3695,
    "prise": 7726,
    "Ġarched": 10934,
    "ization": 486,
    "pull": 6796,
    "Ġfleets": 23776,
    "Ġtechni": 1745,
    "Ġtallow": 14783,
    "Ġgrip": 11630,
    "Ġfreshness": 23991,
    "timidity": 25754,
    "Ġhoofs": 14528,
    "daw": 17524,
    "Ġbash": 12591,
    "Ġultimately": 17167,
    "lingering": 18603,
    "icy": 6141,
    "Ġthigh": 10189,
    "Ġbaboon": 19696,
    "Ġcheerfully": 12139,
    "Ġgentlemen": 3645,
    "Ġfretfulness": 25449,
    "Ġdevouring": 11867,
    "Ġsatin": 12993,
    "Ġmes": 17798,
    "Ġpiazza": 26452,
    "Ġol": 17816,
    "Ġoutweigh": 22326,
    "rench": 3969,
    "Ġformation": 2945,
    "Ġstamping": 20034,
    "smoking": 23914,
    "Ġb": 281,
    "Ġsemantics": 2896,
    "painful": 13505,
    "aven": 8208,
    "oko": 18441,
    "Ġoriginate": 24124,
    "Ġunwonted": 15010,
    "Ġtrampled": 20331,
    "meas": 7433,
    "spring": 7229,
    "Ġstrang": 4161,
    "Ġtale": 5142,
    "ourable": 4967,
    "het": 5435,
    "Ġlizard": 12659,
    "Ġfeasts": 25370,
    "vedale": 22713,
    "authority": 13595,
    "Ġspecially": 12002,
    "nine": 13764,
    "Ġimpossibility": 20649,
    "shells": 26057,
    "Ġthrills": 24542,
    "Ġanoint": 25538,
    "Ġconceit": 7294,
    "Ġlieutenant": 15265,
    "Ġshocks": 16459,
    "Ġflock": 21414,
    "Ġpeasant": 13555,
    "Ġhangs": 11609,
    "Ġgallery": 10527,
    "Ġcharley": 19007,
    "bath": 13693,
    "Ġpeeping": 16131,
    "Ġhonourable": 10458,
    "Ġobliterated": 17408,
    "msgate": 18413,
    "reigned": 21245,
    "Ġbreat": 3462,
    "served": 5043,
    "Ġconveys": 16857,
    "Ġvehicle": 20141,
    "dev": 7633,
    "Ġsincere": 11138,
    "Ġthack": 21520,
    "Ġsurvived": 14937,
    "soo": 18685,
    "vius": 23544,
    "Ġinsip": 19270,
    "inkling": 16096,
    "Ġpend": 15610,
    "unities": 15775,
    "Ġaware": 5756,
    "Ġdocks": 14178,
    "Ġdeer": 12725,
    "wife": 8101,
    "scrape": 25699,
    "Ġbuild": 6474,
    "colnett": 19332,
    "Ġnorris": 23205,
    "Ġhesitate": 16948,
    "Ġrafters": 22659,
    "Ġnathan": 21529,
    "Ġmarvell": 7247,
    "Ġfate": 4753,
    "Ġsingle": 1690,
    "Ġclapham": 17268,
    "Ġpaper": 4285,
    "Ġgin": 13964,
    "Ġmodesty": 12823,
    "Ġpatter": 828,
    "Ġfrom": 434,
    "stamp": 21657,
    "Ġdetest": 8502,
    "Ġbelonging": 8308,
    "Ġbough": 13897,
    "Ġoffic": 3189,
    "Ġuniformity": 23485,
    "Ġpressing": 9264,
    "mem": 10711,
    "pause": 12505,
    "Ġgrec": 18963,
    "Ġties": 12533,
    "Ġpeaceable": 14726,
    "Ġpet": 4586,
    "Ġviolent": 5117,
    "Ġfanatic": 23393,
    "throwing": 11707,
    "children": 9058,
    "contact": 23730,
    "lac": 17591,
    "repro": 10772,
    "compassion": 12372,
    "Ġcomplain": 6686,
    "Ġchewing": 23285,
    "Ġhob": 12634,
    "Ġshining": 8172,
    "Ġswiftly": 5670,
    "boat": 3362,
    "beaut": 8514,
    "Ġbeef": 6829,
    "Ġbetokened": 18799,
    "Ġmorass": 22976,
    "Ġdaugh": 2291,
    "corrob": 24485,
    "generous": 16571,
    "Ġdespond": 14670,
    "Ġembell": 14414,
    "Ġbenjamin": 26569,
    "gin": 4931,
    "Ġequinox": 25856,
    "than": 4090,
    "hood": 2661,
    "Ġassaults": 15160,
    "Ġshipmate": 8932,
    "tables": 19760,
    "between": 5071,
    "Ġharbors": 24902,
    "ster": 1950,
    "arabian": 26448,
    "Ġpallor": 13519,
    "Ġpatronage": 17054,
    "Ġfaithfully": 14890,
    "bohem": 19002,
    "ior": 2037,
    "ĝ": 222,
    "ella": 12754,
    "Ġbehavior": 8002,
    "Ġounce": 15276,
    "Ġleyden": 21751,
    "andam": 10890,
    "Ġticking": 25036,
    "ugal": 19020,
    "Ġliterary": 25166,
    "Ġclatter": 22361,
    "guess": 14765,
    "large": 6627,
    "grown": 10102,
    "Ġcau": 13884,
    "grave": 16098,
    "mmet": 10991,
    "Ġsecrecy": 7315,
    "Ġcircling": 19094,
    "Ġsolemnity": 9944,
    "isp": 5528,
    "cab": 7332,
    "dead": 8180,
    "Ġlanguid": 14216,
    "Ġrequiring": 2922,
    "Ġspectator": 19409,
    "Ġuninterrupted": 22050,
    "Ġeh": 6987,
    "ify": 1534,
    "Ġimpatience": 7509,
    "Ġadmon": 15872,
    "ister": 1296,
    "Ġlanc": 19767,
    "Ġspeedily": 7711,
    "Ġwrong": 4723,
    "Ġshroud": 6483,
    "appear": 13202,
    "handed": 7482,
    "Ġprevent": 757,
    "Ġjen": 9270,
    "fedallah": 25523,
    "Ġstability": 1365,
    "ols": 2409,
    "Ġdisputing": 25825,
    "Ġdrink": 4786,
    "Ġadmin": 23555,
    "Ġprofund": 13157,
    "aisance": 15078,
    "Ġw": 272,
    "fatal": 17089,
    "Ġgreeks": 20016,
    "Ġheathen": 10568,
    "brink": 23578,
    "Ġany": 688,
    "Ġtyro": 16996,
    "Ġrel": 1097,
    "summoned": 26593,
    "Ġsons": 10768,
    "Ġbuy": 8300,
    "Ġchecked": 9378,
    "Ġwritten": 4168,
    "rates": 21041,
    "ħ": 232,
    "Ġoutbreak": 22321,
    "Ġbroadway": 23987,
    "Ġtuck": 10143,
    "preced": 10312,
    "Ġpurpose": 2710,
    "Ġcemeteries": 26377,
    "Ġmat": 1149,
    "alt": 12643,
    "Ġsunset": 8965,
    "Ġincrust": 22556,
    "anesc": 21363,
    "Ġpalsied": 25780,
    "Ġpupp": 10822,
    "Ġvelv": 10622,
    "anxiety": 25159,
    "Ġorder": 1684,
    "Ġsurface": 5119,
    "Ġhoary": 23355,
    "strongly": 24685,
    "Ġgamb": 18000,
    "rog": 15644,
    "relatively": 24019,
    "Ġst": 332,
    "erne": 21272,
    "Ġfragments": 19042,
    "Ġdoing": 3663,
    "Ġdeposed": 16087,
    "Ġfirmly": 8014,
    "Ġrazor": 22658,
    "Ġimm": 3967,
    "caus": 11478,
    "Ġcoat": 4554,
    "Ġwounds": 17792,
    "Ġplatform": 17134,
    "Ġwooden": 4729,
    "Ġhereditary": 10667,
    "Ġprofundity": 20455,
    "indifference": 15986,
    "_âĢĶâĢĻ": 13686,
    "oub": 1636,
    "Ġplans": 7918,
    "Ġunaccountably": 26517,
    "Ġvent": 3998,
    "Ġminim": 1324,
    "source": 11528,
    "Ġmagnetic": 17243,
    "Ġconversed": 13192,
    "offers": 16397,
    "Ġcontest": 18474,
    "description": 11096,
    "Ġaboriginal": 14191,
    "favourable": 12268,
    "erred": 6376,
    "Ġmajesty": 5201,
    "K": 47,
    "outward": 22164,
    "Ġsuperstitious": 13523,
    "Ġmomentary": 11037,
    "erman": 5108,
    "Ġdistension": 22509,
    "Ġexcepting": 14682,
    "Ġtemperate": 16167,
    "Ġsepulch": 15288,
    "Ġlifetime": 13606,
    "Ġsculpture": 26017,
    "izers": 18145,
    "fier": 9596,
    "uvier": 9071,
    "Ġcapable": 5054,
    "tooth": 18583,
    "Ġinstinct": 6575,
    "Ġgowns": 25360,
    "Ġorthodox": 22099,
    "Ġeuroclydon": 15300,
    "Ġasia": 11686,
    "Ġmoran": 9344,
    "Ġcalculate": 13269,
    "elijah": 19476,
    "Ġstrip": 9424,
    "on": 267,
    "Ġtusk": 25426,
    "bermaid": 20792,
    "Ġtrop": 7565,
    "Ġwharf": 9562,
    "classification": 4389,
    "Ġinherent": 4591,
    "Ġsystem": 575,
    "Ġabsurdly": 19963,
    "anted": 5027,
    "social": 11024,
    "calculation": 25689,
    "result": 12048,
    "Ġdemoniacal": 20559,
    "Ġfounded": 8560,
    "Ġbreaks": 13189,
    "grandfather": 25012,
    "Ġextort": 22744,
    "Ġungodly": 26515,
    "scream": 11079,
    "Ġuniform": 2224,
    "promote": 24726,
    "notches": 22754,
    "Ġjourneys": 19478,
    "wait": 11322,
    "Ġoverseeing": 22357,
    "Ġindulge": 10585,
    "fatality": 25022,
    "Ġhousings": 21496,
    "aths": 22702,
    "Ġthank": 3794,
    "months": 9074,
    "Ġse": 401,
    "Ġlegitimate": 20644,
    "Ġmonsie": 11449,
    "Ġperiodical": 14776,
    "jep": 20928,
    "tarpaulins": 26407,
    "Ġabove": 2937,
    "Ġtimor": 24227,
    "Ġbewitched": 25976,
    "Ġinclination": 6625,
    "wick": 5363,
    "Ġincident": 6281,
    "derbyshire": 18322,
    "Ġtransf": 22441,
    "ologist": 22881,
    "horrors": 20544,
    "Ġreflection": 6440,
    "Ġnin": 10190,
    "Ġdenote": 19335,
    "expected": 5780,
    "Ġgazing": 5876,
    "icting": 12854,
    "Ġstirred": 12222,
    "Ġreveries": 11349,
    "intimate": 22940,
    "Ġvaliantly": 22803,
    "Ġincidents": 9303,
    "Ġscepticism": 25928,
    "Ġpractises": 23326,
    "ivery": 17574,
    "Ġpurse": 12015,
    "Ġallow": 1129,
    "oarsman": 25262,
    "Ġcusack": 26435,
    "jour": 20929,
    "Ġlookest": 22718,
    "wed": 5796,
    "Ġpersecut": 16954,
    "Ġattracted": 8908,
    "Ġlimber": 16481,
    "Ġexceeding": 1580,
    "Ġbehaviour": 4386,
    "Ġcomely": 21852,
    "idge": 14017,
    "Ġcaught": 3734,
    "Ġendowed": 18925,
    "Ġsket": 18729,
    "Ġhurling": 19112,
    "uses": 11765,
    "Ġtranquillity": 7536,
    "400": 20757,
    "_,âĢĿ": 6219,
    "Ġtyrant": 24766,
    "Ġtanning": 17731,
    "hither": 11495,
    "Ġsubstitute": 16728,
    "Ġwinds": 5746,
    "Ġdisappointed": 7098,
    "bearings": 25372,
    "Ġprophes": 16351,
    "Ġloading": 15878,
    "arse": 7160,
    "angible": 22109,
    "Ġtip": 15474,
    "Ġvoy": 2621,
    "Ġclenched": 14210,
    "ff": 462,
    "Ġparadise": 11196,
    "Ġweedy": 15797,
    "Ġglo": 1714,
    "Ġreco": 9794,
    "Ġwakeful": 24269,
    "unch": 14061,
    "Ġ73": 24263,
    "Ġdism": 9770,
    "ious": 770,
    "Ġlimited": 23547,
    "instinctively": 26329,
    "Ġslippery": 12171,
    "Ġpilot": 5985,
    "largely": 19577,
    "Ġxv": 23410,
    "iliation": 10862,
    "Ġmexic": 14034,
    "Ġconveniently": 20082,
    "Ġ64": 24367,
    "Ġmouth": 3182,
    "leading": 15566,
    "Ġsunrise": 9376,
    "Ġproceeds": 12082,
    "Ġpiny": 21472,
    "chosen": 21698,
    "cousin": 10655,
    "Ġindividuals": 24546,
    "Ġappears": 5402,
    "Ġsuburban": 17349,
    "Ġteneriffe": 26416,
    "eternal": 17985,
    "Ġsacrificed": 17425,
    "Ġapiece": 16815,
    "Ġmasterly": 23998,
    "Ġungod": 22028,
    "par": 1846,
    "diss": 17525,
    "bl": 4141,
    "omb": 10208,
    "Ġancient": 5443,
    "Ġgorgeous": 20470,
    "Ġforg": 3790,
    "vity": 7815,
    "narwhale": 17321,
    "Ġsulky": 13518,
    "prosper": 19102,
    "Ġbraced": 16582,
    "extraordinary": 9098,
    "Ġunfortunate": 5376,
    "Ġleaking": 21749,
    "Ġacute": 16127,
    "fiery": 13585,
    "Ġsymp": 4503,
    "fabulous": 20477,
    "frightened": 17198,
    "recurrent": 4994,
    "Ġintu": 12768,
    "Ġhearth": 11986,
    "barbar": 20241,
    "occup": 7752,
    "Ġdelay": 5748,
    "Ġwest": 5219,
    "Ġberry": 19749,
    "aret": 7416,
    "Ġsitu": 3496,
    "Ġconsid": 1811,
    "Ġherring": 14129,
    ".--": 20748,
    "Ġpractically": 13106,
    "admon": 21764,
    "Ġdramat": 23218,
    "twill": 21077,
    "Ġplun": 6282,
    "vous": 2252,
    "play": 5099,
    "Ġcast": 3609,
    "Ġcontortions": 18477,
    "prove": 11149,
    "Ġbeds": 14554,
    "airing": 16180,
    "Ġsuffer": 4721,
    "heric": 15915,
    "rem": 1517,
    "it": 276,
    "clothed": 19741,
    "iem": 20919,
    "aguy": 21914,
    "ight": 403,
    "Ã¦": 4339,
    "Ġlog": 1676,
    "Ġtransplanted": 22445,
    "Ġdressed": 5081,
    "Ġrot": 10969,
    "total": 17253,
    "Ġbeloved": 5572,
    "Ġanticipatingly": 26103,
    "Ġticklish": 25037,
    "exclaimed": 11794,
    "somehow": 12016,
    "ivance": 22079,
    "fire": 6358,
    "Ġdelayed": 9521,
    "Ġtumbled": 13410,
    "Ġhousemaid": 14467,
    "Ġinvol": 1086,
    "grinder": 23418,
    "Ġha": 400,
    "Ġdishon": 12235,
    "Ġarabic": 24981,
    "abound": 15744,
    "âĢĶâĢĿ": 3299,
    "Ġoffence": 12950,
    "ork": 417,
    "Ġhedgehogs": 25395,
    "Ġdepend": 776,
    "lonely": 20959,
    "lier": 20951,
    "Ġmemoirs": 26207,
    "voyage": 7785,
    "Ġfrown": 10809,
    "helmsman": 24289,
    "Ġhypocritical": 20740,
    "et": 307,
    "Ġjago": 22303,
    "meditated": 19072,
    ".âĢĻâĢĿ": 6740,
    "deliver": 19507,
    "Ġgid": 13965,
    "Ġlimits": 3455,
    "Ġcoasts": 12168,
    "Ġepit": 18009,
    "algorith": 3549,
    "Ġsteed": 13046,
    "Ġconnection": 5479,
    "exasper": 22431,
    "Ġinterrupted": 6344,
    "59": 17476,
    "Ġostrich": 26432,
    "iciously": 17976,
    "trans": 5594,
    "single": 10129,
    "Ġinquirer": 24964,
    "necessary": 5882,
    "Ġphilosop": 5057,
    "Ġvill": 3878,
    "intim": 22937,
    "Ġmacey": 12568,
    "Ġgained": 4535,
    "Ġchival": 14185,
    "Ġvirtual": 11241,
    "Ġnursed": 16887,
    "Ġmorbid": 16239,
    "pursuit": 20343,
    "Ġlubber": 17447,
    "rubbery": 17345,
    "reast": 17760,
    "Ġeternities": 19946,
    "Ġlim": 2378,
    "constit": 24605,
    "anzas": 17842,
    "umbria": 23898,
    "Ġthoughtless": 16196,
    "Ġreliably": 22883,
    "Ġreaction": 15699,
    "Ġnumbers": 2889,
    "immediate": 20097,
    "...": 24549,
    "Ġmarvelled": 18876,
    "Ġharbor": 10030,
    "Ġwisdom": 11235,
    "footman": 17165,
    "Ġjust": 1238,
    "Ġcheever": 23284,
    "Ġtro": 7355,
    "Ġneither": 3689,
    "Ġrecollect": 8310,
    "Ġling": 7376,
    "arth": 4444,
    "disappointment": 11427,
    "trunk": 23951,
    "Ġleaned": 7608,
    "Ġgenerously": 22405,
    "Ġcetace": 14991,
    "gradu": 18618,
    "Ġfashion": 4300,
    "tol": 17674,
    "elled": 4024,
    "Ġantilles": 24182,
    "ckery": 22094,
    "zing": 7820,
    "Ġpromotion": 23196,
    "Ġtop": 2470,
    "Ġblueprints": 13175,
    "Ġfeeling": 3086,
    "Ġsovereign": 10065,
    "Ġcanopy": 18323,
    "Ġneskye": 21534,
    "farm": 15355,
    "drink": 10598,
    "Ġnever": 1019,
    "Ġwinchester": 10069,
    "Ġdrawers": 12110,
    "Ġboys": 5194,
    "roofed": 26185,
    "Ġbigot": 24566,
    "Ġwildest": 16512,
    "ield": 2405,
    "Ġmagnanim": 14475,
    "Ġidentify": 12018,
    "Ġmales": 17807,
    "Ġoperate": 19117,
    "Ġlovers": 9723,
    "Ġperpendicularly": 11376,
    "poled": 22910,
    "allions": 22202,
    "Ġconcealment": 16916,
    "Ġtroop": 24898,
    "Ġintellig": 525,
    "Ġships": 3717,
    "Ġvineyard": 12334,
    "ificial": 606,
    "Ġmanhood": 22330,
    "Ġundulates": 24121,
    "Ġsuggest": 5417,
    "iscreet": 20685,
    "Ġencourage": 10383,
    "Ġoccasionally": 5590,
    "Ġgreedy": 3055,
    "caut": 20814,
    "Ġinhab": 5083,
    "Ġeag": 2968,
    "Ġbott": 3151,
    "Ġbespeaking": 26311,
    "°": 113,
    "Ġherein": 16194,
    "Ġretort": 23074,
    "Ġsine": 10765,
    "ople": 2319,
    "queequeg": 4336,
    "residence": 19265,
    "Ġgrass": 5177,
    "Ġreclining": 26034,
    "Ġadvise": 7937,
    "humoured": 11238,
    "nib": 5214,
    "interview": 19301,
    "Ġharder": 14452,
    "Ġaxe": 15064,
    "Ġillust": 8263,
    "Ġundec": 22023,
    "Ġvint": 18195,
    "Ġhollow": 5648,
    "Ġengraving": 17081,
    "unerative": 21900,
    "kers": 7133,
    "Ġadventurous": 16735,
    "bitts": 26123,
    "Ġgoes": 3854,
    "jet": 13745,
    "Ġdozing": 22247,
    "Ġexpiring": 16102,
    "Ġalt": 18101,
    "Ġplates": 11009,
    "Ġstealing": 18895,
    "bbings": 19279,
    "Ġanyhow": 14257,
    "Ġscotch": 12214,
    "Ġlodged": 11252,
    "Ġdragon": 14947,
    "Ġclamped": 18433,
    "Ġchance": 3317,
    "star": 12677,
    "Ġreckon": 19872,
    "Ġmischief": 8543,
    "Ġunexpl": 22043,
    "Ġdisco": 3431,
    "ran": 11518,
    "Ġsublime": 8066,
    "Ġsar": 21216,
    "Ġministers": 22835,
    "Ġdazed": 15600,
    "Ġcomplex": 747,
    "jammed": 25907,
    "Ġclout": 22360,
    "ets": 1161,
    "Ġchick": 22251,
    "Ġtowards": 1730,
    "Ġsundial": 15086,
    "Ġceaseless": 13492,
    "commanding": 24751,
    "Ġcollar": 11883,
    "Ġappertain": 22229,
    "Ġferocity": 16868,
    "bank": 10082,
    "Ġwanderings": 20146,
    "lesson": 22775,
    "Ġdivineness": 25724,
    "Ġmalays": 19680,
    "Ġcurled": 8227,
    "Ġlain": 17964,
    "Ġcellars": 24666,
    "Ġweap": 6156,
    "itying": 21998,
    "tinted": 17685,
    "Ġsnuffing": 25015,
    "summer": 11998,
    "chains": 9688,
    "Ġstra": 2990,
    "Ġgossip": 18472,
    "Ġmisty": 16543,
    "done": 6500,
    "vessel": 11379,
    "causes": 20346,
    "virtue": 20572,
    "Ĩ": 233,
    "Ġsimplest": 16337,
    "Ġstood": 2553,
    "Ġcounted": 12144,
    "Ġundergone": 18986,
    "Ġescorted": 23510,
    "Ġstation": 5299,
    "tale": 10130,
    "Ġaffectionate": 5585,
    "hurt": 19880,
    "Ġeasily": 3891,
    "torn": 17684,
    "Ġretrogression": 26583,
    "solitary": 14505,
    "irty": 4051,
    "Ġmarshal": 20222,
    "Ġvowed": 14087,
    "Ġvalidation": 2356,
    "conviction": 19968,
    "Ġeaglet": 19307,
    "aching": 5832,
    "Ġshall": 1144,
    "Ġlightnings": 16355,
    "Ġate": 8844,
    "Ġbur": 2700,
    "Ġprosperity": 20260,
    "crossed": 16635,
    "Ġconsp": 10227,
    "fin": 5209,
    "discoloured": 23502,
    "Ġtransactions": 18482,
    "obedience": 17413,
    "vation": 4743,
    "methodically": 20666,
    "okes": 9280,
    "Ġmadden": 10449,
    "ibank": 6879,
    "bestowed": 12230,
    "Ġconsider": 2572,
    "Ġplank": 7034,
    "stationed": 25454,
    "Ġwester": 25156,
    "achel": 7032,
    "Ġdisgu": 8206,
    "Ġjustly": 11908,
    "marching": 25753,
    "Ġfro": 3473,
    "ulged": 12735,
    "su": 803,
    "Ġuncontrollable": 25815,
    "Ġhydraulic": 10067,
    "Ġabominably": 20069,
    "Ġ114": 24438,
    "Ġhired": 10180,
    "Ġclothes": 4997,
    "uzzle": 19586,
    "Ġceleb": 20228,
    "Ġcastor": 19430,
    "Ġrevolution": 3304,
    "Ġsuspected": 9065,
    "Ġhorizontal": 7782,
    "sighted": 19788,
    "Ġknot": 7012,
    "Ġpipes": 9851,
    "dressing": 11484,
    "spersed": 22735,
    "Ġobstin": 14956,
    "absurd": 21799,
    "Ġserenity": 10031,
    "Ġfeat": 10939,
    "nearly": 8684,
    "phys": 18714,
    "itiousness": 21337,
    "reached": 13844,
    "Ġste": 1391,
    "ens": 701,
    "Ġrestlessness": 23292,
    "Ġnets": 21527,
    "Ġsystemat": 18443,
    "Ġremoval": 12122,
    "historian": 25735,
    "Ġwatched": 6298,
    "Ġincessant": 15101,
    "Ġprodig": 6028,
    "Ġlistless": 16478,
    "Ġcum": 21345,
    "Ġfol": 1289,
    "Ġamend": 16038,
    "Ġgall": 4353,
    "scythes": 26404,
    "years": 6882,
    "Ġdict": 9178,
    "Ġunsocial": 18257,
    "Ġstrange": 2273,
    "screaming": 20328,
    "deprived": 19900,
    "uth": 3018,
    "Ġtrem": 6661,
    "Ġwoof": 14724,
    "daring": 20831,
    "Ġforbearance": 12332,
    "Ġheat": 5453,
    "iverer": 11720,
    "Ġcomical": 11681,
    "âĢĶâĢĶâĢĿ": 15943,
    "Ġleap": 5825,
    "extrem": 18709,
    "Ġdesmarest": 22981,
    "gathered": 13735,
    "sincere": 16909,
    "Ġchry": 22250,
    "ourse": 8873,
    "tribute": 21091,
    "Ġspring": 4121,
    "Ġposter": 14282,
    "Ġebony": 18011,
    "Ġadviser": 25313,
    "alid": 13938,
    "overcome": 19052,
    "vering": 15720,
    "nament": 11509,
    "difference": 13711,
    "philips": 20038,
    "pling": 8476,
    "Ġdisplayed": 10611,
    "peril": 18341,
    "ush": 3635,
    "Ġofficer": 6754,
    "Ġdecorated": 22463,
    "morn": 20978,
    "purse": 20028,
    "ilities": 6991,
    "Ġnursery": 19753,
    "Ġfagged": 17884,
    "gazed": 15365,
    "developed": 15268,
    "Ġmisunderstand": 18705,
    "fit": 6647,
    "lessness": 5318,
    "robe": 15646,
    "hammer": 14491,
    "sample": 12511,
    "bowl": 14894,
    "watson": 12248,
    "Ġwork": 1331,
    "iced": 3901,
    "Ġmile": 7151,
    "Ġ181": 23899,
    "Ġoverwhelm": 25053,
    "tail": 8765,
    "eks": 4727,
    "Ġlurid": 19684,
    "injured": 15136,
    "Ġfavourable": 7959,
    "brevi": 24078,
    "Ġthirteen": 15278,
    "Ġpronounce": 16970,
    "spears": 23945,
    "Ġcuts": 14609,
    "rated": 6228,
    "Ġexordium": 26494,
    "Ġprayer": 16669,
    "Ġcountless": 16385,
    "Ġinsignificant": 20459,
    "Ġsurprised": 3832,
    "food": 12468,
    "Ġunmingled": 18264,
    "51": 12435,
    "Ġamiss": 18510,
    "circumstance": 7763,
    "Ġjiff": 22300,
    "unpardonable": 21894,
    "Ġprogramming": 1186,
    "Ġyarman": 12710,
    "objection": 19917,
    "wind": 4255,
    "Ġlines": 4534,
    "Ġwrap": 24595,
    "Ġestimate": 19376,
    "axen": 22525,
    "Ġlists": 11168,
    "Ġtreble": 16506,
    "Ġincred": 5646,
    "^{": 15308,
    "Ġenforced": 21942,
    "Ġaids": 12233,
    "seated": 11675,
    "Ġawake": 8272,
    "Ġmons": 10159,
    "Ġexerting": 21836,
    "Ġdiscern": 7926,
    "Ġczar": 12579,
    "cket": 3690,
    "algorithm": 3955,
    "Ġsubsisting": 23438,
    "Ġ81": 24457,
    "7": 27,
    "Ġinstruct": 2866,
    "Ġsqueezing": 25009,
    "Ġmince": 22833,
    "Ġsettlement": 19839,
    "Ġmumbling": 11577,
    "Ġnuts": 17954,
    "Ġsubmission": 22793,
    "Ġanimated": 7701,
    "Ġimpul": 7207,
    "bub": 15320,
    "Ġneighbors": 25807,
    "Ġgiants": 25961,
    "ricity": 23066,
    "Ġtrials": 16791,
    "quimaux": 21863,
    "stirred": 20428,
    "surv": 24216,
    "Ġdenial": 13218,
    "Ġtrust": 4080,
    "tling": 9145,
    "Ġconflag": 20338,
    "Ġindispensable": 11904,
    "Ġnobler": 14176,
    "Ġagents": 9769,
    "linearity": 1651,
    "life": 4933,
    "destruction": 11256,
    "Ġpattered": 19032,
    "Ġgravity": 9251,
    "Ġcompression": 18148,
    "Ġomens": 21331,
    "Ġstyled": 24672,
    "Ġperfect": 2558,
    "Ġsituated": 9450,
    "Ġexpectations": 13147,
    "owe": 15712,
    "Ġpetersburgh": 24231,
    "Ġbridal": 14957,
    "Ġroy": 4231,
    "outre": 18321,
    "insufferable": 21195,
    "Ġgreenhorn": 23770,
    "Ġdeactivates": 20706,
    "hatches": 19930,
    "Ġsafely": 9028,
    "retch": 4373,
    "anqu": 4111,
    "propagation": 1244,
    "Ġrapture": 13499,
    "quickly": 14965,
    "Ġlive": 2736,
    "erve": 12554,
    "scruple": 26045,
    "rawling": 21639,
    "Ġtemper": 956,
    "Ġassuming": 16694,
    "Ġimitated": 18330,
    "Ġrumbling": 18214,
    "Ġisle": 8837,
    "Ġblunder": 18820,
    "Ġtaking": 3251,
    "Ġexperiment": 11923,
    "Ġponderous": 8355,
    "acid": 10996,
    "pertaining": 22187,
    "sink": 11524,
    "Ġfig": 3627,
    "Ġix": 12673,
    "again": 3399,
    "orified": 21405,
    "Ġrascally": 26508,
    "Ġrue": 11871,
    "Ġherd": 7888,
    "Ġdiggings": 24650,
    "mp": 3731,
    "Ġsparks": 22137,
    "Ġsolicited": 20040,
    "neath": 12871,
    "tolerably": 21098,
    "Ġrucastle": 5176,
    "remarks": 23191,
    "Ġaugust": 10600,
    "Ġtorment": 8677,
    "Ġrenow": 18030,
    "Ġreiter": 21669,
    "Ġtargets": 4206,
    "Ġnapkins": 25165,
    "cr": 4014,
    "Ġunconscious": 9550,
    "Ġtoo": 1166,
    "Ġunrolled": 22042,
    "Ġharriet": 24573,
    "Ġrobust": 1307,
    "Ġtwist": 11855,
    "ifling": 15787,
    "Ġequ": 1735,
    "Ġsecond": 1881,
    "entering": 17979,
    "Ġincapable": 7422,
    "Ġproof": 6154,
    "cano": 18840,
    "Ġhurled": 10431,
    "leaves": 12583,
    "Ġgame": 3631,
    "Ġmagn": 1555,
    "Ġagrees": 22520,
    "Ġhighlands": 22777,
    "Ġsimulation": 2753,
    "Ġshaken": 10267,
    "Ġlob": 7628,
    "inging": 5907,
    "Ġeel": 18004,
    "Ġpillow": 10041,
    "Ġsoft": 1457,
    "produced": 25415,
    "Ġdistinctly": 7310,
    "oice": 1386,
    "Ġxavier": 2857,
    "iel": 11496,
    "Ġvessel": 3801,
    "sens": 8097,
    "bingleys": 19637,
    "Ġmaterially": 12196,
    "miseries": 16759,
    "collected": 13217,
    "Ġconfid": 7687,
    "nuee": 17433,
    "Ġpatches": 4240,
    "Ġterm": 2266,
    "Ġsuff": 1304,
    "girl": 12322,
    "carb": 20812,
    "Ġalluded": 7885,
    "Ġfreshe": 13074,
    "Ġparagraph": 17457,
    "ontory": 10461,
    "ampl": 21846,
    "ctors": 21593,
    "teeth": 10357,
    "Ġembarkation": 25125,
    "Ġprem": 3429,
    "Ġthoroughly": 8348,
    "Ġcrocodile": 20742,
    "Ġwand": 4343,
    "Ġmemory": 2275,
    "Ġbricks": 13566,
    "conclusive": 25674,
    "oro": 21398,
    "younger": 11314,
    "Ġclust": 9277,
    "chants": 21695,
    "Ġacquirement": 19257,
    "Ġvia": 2380,
    "Ġfrontispiece": 23917,
    "Ġwires": 21298,
    "Ġepic": 15032,
    "conf": 4957,
    "Ġinexorable": 12260,
    "Ġcontrivance": 17186,
    "ute": 4642,
    "Ġphilistines": 26083,
    "nur": 11508,
    "raltar": 24236,
    "Ġwarm": 2423,
    "Ġappet": 9734,
    "irations": 18171,
    "Ġlasted": 11055,
    "Ġprot": 3849,
    "Ġascribe": 16784,
    "Ġcharge": 5325,
    "Ġagreement": 18543,
    "rice": 13780,
    "Ġplainly": 4383,
    "Ġcents": 17830,
    "rising": 7557,
    "Ġbefallen": 12347,
    "Ġcontract": 18476,
    "Ġstrolled": 16772,
    "pair": 21014,
    "oker": 10965,
    "Ġproject": 5546,
    "Ġbandages": 24427,
    "Ġclinging": 10295,
    "Ġliberality": 24377,
    "interrupt": 8619,
    "ots": 3294,
    "Ġwickham": 2205,
    "Ġgossiping": 26245,
    "Ġwhispered": 5338,
    "Ġshowing": 7731,
    "Ġinfluence": 5515,
    "Ġpasture": 14545,
    "Ġavenue": 13625,
    "hemat": 3131,
    "Ġoverflow": 10294,
    "Ġarrant": 23299,
    "byshire": 6173,
    "Ġwad": 13854,
    "harpooneers": 8693,
    "Ġfervently": 25878,
    "Ġinnocent": 4922,
    "chief": 4644,
    "ulating": 10889,
    "Ġseeing": 2886,
    "Ġgoose": 5938,
    "Ġdimmed": 24270,
    "chariot": 26481,
    "Ġunfitted": 24111,
    "Ġfollows": 7673,
    "Ġstudents": 23204,
    "oth": 1187,
    "Ġfavourite": 5271,
    "rodu": 1816,
    "Ġquantity": 6947,
    "Ġcommunity": 19010,
    "irregular": 21915,
    "waste": 21137,
    "Ġthe": 270,
    "miraculous": 26398,
    "tiness": 21074,
    "Ġbrief": 6976,
    "Ġdespise": 14668,
    "Ġhogarth": 25781,
    "rogress": 21539,
    "Ġsponge": 26005,
    "Ġfolios": 23023,
    "Ġgladstone": 23872,
    "reasoning": 9479,
    "gyric": 19111,
    "sli": 11525,
    "Ġtrout": 22343,
    "Ġhandkerchief": 8917,
    "Ġprobable": 5570,
    "Ġcommercial": 22677,
    "Ġmeditations": 25016,
    "Ġunwelcome": 12785,
    "Ġmustard": 12935,
    "Ġunfathomable": 20551,
    "ped": 6963,
    "x": 92,
    "Ġfundamental": 3014,
    "Ġstaring": 8829,
    "Ġnarrating": 24351,
    "othe": 2616,
    "Ġdefend": 9343,
    "respective": 19848,
    "Ġinexplicable": 12261,
    "Ġadvocate": 13680,
    "Ġexacted": 23605,
    "ren": 550,
    "equ": 6790,
    "Ġloop": 14149,
    "porary": 14553,
    "hic": 3250,
    "alty": 17941,
    "isher": 2879,
    "maj": 18805,
    "Ġriddles": 16734,
    "Ġbeauty": 3772,
    "xic": 9148,
    "henomena": 20275,
    "Ġdesperately": 24657,
    "Ġspeaker": 19150,
    "ouch": 2783,
    "Ġpictured": 16625,
    "ww": 10739,
    "Ġoverpow": 14206,
    "eight": 9594,
    "hounds": 20909,
    "Ġmicroscopic": 26375,
    "Ġimmediate": 6089,
    "both": 5785,
    "Ġwithdrawn": 10609,
    "Ġpattering": 18652,
    "Ġtrade": 2548,
    "Ġcocoan": 20319,
    "Ġupdates": 1300,
    "ô": 181,
    "alog": 8809,
    "ractions": 11636,
    "ushes": 22295,
    "Ġstole": 7953,
    "Ġcrowding": 13284,
    "pens": 17634,
    "!âĢĿâĢĶ": 8534,
    "breathing": 25336,
    "Ġrepresenting": 4062,
    "rival": 12747,
    "Ġacres": 14316,
    "Ġnast": 15643,
    "uneasiness": 23689,
    "Ġamerica": 6763,
    "Ġxiii": 25592,
    "secut": 7867,
    "Ġcompany": 3724,
    "inno": 10758,
    "Ġdoor": 1740,
    "Ġrequisite": 18630,
    "Ġinf": 1755,
    "Ġorganizations": 12318,
    "Ġpy": 21453,
    "Ġhomage": 12359,
    "Ġneur": 812,
    "Ġgovernments": 20270,
    "right": 2771,
    "Ġcomply": 8896,
    "Ġdeeds": 15763,
    "ificent": 8184,
    "Ġclasping": 20212,
    "looked": 6083,
    "thrill": 25657,
    "Ġvillas": 24058,
    "plendent": 21968,
    "Ġartic": 5315,
    "Ġhydraul": 9517,
    "surprising": 16921,
    "asses": 7017,
    "Ġdirectly": 2104,
    "Ġproviding": 1362,
    "Ġletter": 2196,
    "corn": 13703,
    "Ġsundering": 23277,
    "reserved": 13846,
    "bil": 20773,
    "perils": 22186,
    "Ġblows": 5973,
    "Ġunseen": 3526,
    "somerset": 26324,
    "Ġtranque": 14202,
    "elter": 21574,
    "published": 26143,
    "Ġmurderer": 4980,
    "cas": 20796,
    "Ġsinusoid": 4780,
    "indispensable": 14212,
    "Ġpillar": 21475,
    "Ġeyelids": 26108,
    "Ġthing": 1641,
    "Ġyounge": 16291,
    "Ġdesisted": 22980,
    "Ġdangers": 12358,
    "Ġinform": 996,
    "Ġhissing": 15794,
    "function": 4796,
    "Ġpint": 17909,
    "Ġfob": 21412,
    "Ġgrimesby": 11459,
    "Ġinjunction": 19620,
    "Ġspeedy": 11174,
    "Ġ134": 24783,
    "icable": 6388,
    "camp": 15333,
    "Ġshutters": 9940,
    "Ġscrape": 14921,
    "arat": 9183,
    "Ġfolds": 12211,
    "Ġfoundling": 22973,
    "jure": 20926,
    "Ġfrowning": 13627,
    "unts": 12736,
    "Ġark": 10278,
    "joining": 19449,
    "ppered": 15795,
    "shrouded": 26363,
    "Ġsensibility": 14515,
    "Ġprimitive": 25064,
    "Ġdoubted": 7965,
    "Ġreconciliation": 25293,
    "Ġswe": 2288,
    "Ġalgorith": 561,
    "Ġstrewed": 23425,
    "Ġprehens": 22235,
    "Ġmand": 21307,
    "glimmer": 26323,
    "ante": 11725,
    "amy": 8469,
    "Ġassert": 7121,
    "sin": 21051,
    "explain": 1479,
    "Ġsuffers": 2974,
    "Ġslightly": 7292,
    "plague": 21963,
    "nothing": 3156,
    "Ġsays": 3565,
    "cturn": 17989,
    "keel": 14131,
    "etus": 21581,
    "Ġstories": 10867,
    "Ġsixty": 7722,
    "Ġilliter": 23470,
    "Ġrelieved": 7666,
    "icher": 9205,
    "Ġmamma": 10051,
    "Ġadmiral": 17308,
    "Ġimagined": 8610,
    "Ġparad": 2845,
    "narrowly": 20350,
    "Ġhiding": 9826,
    "body": 2307,
    "congratulations": 20282,
    "ulence": 15770,
    "Ġprincely": 24151,
    "Ġblushed": 13007,
    "Ġcronies": 23443,
    "reliable": 21243,
    "enched": 10157,
    "Ġble": 5223,
    "Ġpips": 9850,
    "Ġoverjoy": 15970,
    "Ġbil": 15569,
    "Ġtreasure": 9561,
    "Ġjudged": 12088,
    "Ġvis": 1060,
    "wes": 17705,
    "liberal": 26283,
    "Ġentreaty": 10532,
    "germ": 15360,
    "Ġindignity": 18834,
    "Ġult": 9077,
    "Ġpelt": 15614,
    "Ġnovember": 11753,
    "Ġphilosophical": 26336,
    "Ġbristles": 25845,
    "Ġinterrupting": 19560,
    "Ġmaintenance": 17464,
    "bill": 10079,
    "liness": 8750,
    "Ġmonosyllable": 20728,
    "Ġturns": 4981,
    "Ġfancies": 10426,
    "Ġshears": 18320,
    "Ġdrugg": 17122,
    "Ġaven": 10761,
    "ns": 751,
    "Ġdestroyed": 5272,
    "vocation": 25087,
    "Ġmatrices": 4969,
    "office": 16398,
    "Ġfreshet": 25704,
    "swear": 16920,
    "Ġexposes": 22627,
    "Ġadmirable": 8269,
    "acious": 5561,
    "Ġparlour": 12325,
    "Ġoutfits": 22325,
    "highest": 20411,
    "Ġwol": 15533,
    "Ġmerits": 13200,
    "Ġmenacing": 23111,
    "Ġbe": 336,
    "merit": 19284,
    "Ġalarming": 14785,
    "Ġrokovoko": 22410,
    "times": 8099,
    "Ġrnns": 2392,
    "ked": 5616,
    "Ġmasks": 23329,
    "Ġsm": 704,
    "thirds": 25049,
    "Ġinsufficient": 9675,
    "likely": 9026,
    "ver": 331,
    "kin": 7132,
    "urches": 12690,
    "Ġdisappearance": 9300,
    "comp": 3818,
    "moving": 11018,
    "Ġribbed": 16806,
    "Ġtashtego": 4487,
    "oat": 13767,
    "Ġpowder": 11277,
    "allowed": 5728,
    "Ġcircumnavigating": 25615,
    "inously": 21189,
    "depths": 25664,
    "Ġocean": 3303,
    "treatment": 20415,
    "Ġinqu": 2966,
    "Ġcotton": 17382,
    "Ġunwritten": 22038,
    "receiving": 12548,
    "Ġpasses": 2681,
    "unnecessary": 21884,
    "Ġpod": 15608,
    "Ġth": 299,
    "ters": 1572,
    "heum": 17749,
    "thesize": 24907,
    "Ġcomprehended": 11296,
    "cst": 10087,
    "Ġgilded": 17448,
    "Ġcapric": 14578,
    "Ġcruelty": 9972,
    "Ġvacancy": 9047,
    "abama": 12714,
    "Ġenticing": 22749,
    "Ġdisturbed": 8675,
    "Ġandrew": 21510,
    "Ġrendering": 16660,
    "istence": 2385,
    "Ġwat": 1288,
    "he": 264,
    "Ġseeth": 21957,
    "Ġadjust": 2155,
    "encies": 4081,
    "Ġconsole": 8151,
    "Ġcompliance": 12119,
    "Ġforbidden": 17079,
    "Ġmovable": 22439,
    "Ġpatagonia": 25858,
    "Ġavocation": 23956,
    "Ġplate": 8902,
    "Ġveritable": 19384,
    "Ġfantastic": 10062,
    "elag": 12663,
    "urous": 10215,
    "ispens": 8336,
    "Ġcraven": 16472,
    "Ġjune": 10291,
    "Ġthin": 4349,
    "Ġstark": 7389,
    "Ġgouldings": 26189,
    "rab": 7597,
    "apprehension": 26115,
    "charm": 13993,
    "Ġfraud": 19040,
    "Ġnic": 7375,
    "Ġhe": 318,
    "Ġsoc": 3528,
    "afford": 14656,
    "leave": 7837,
    "capable": 13705,
    "extric": 22768,
    "perai": 10279,
    "ipher": 18423,
    "Ġfeeds": 16437,
    "reme": 2422,
    "Ġcomprehens": 8320,
    "manned": 18763,
    "Ġoaken": 13868,
    "Ġremotest": 10055,
    "Ġheidelburgh": 11646,
    "Ġindividual": 5744,
    "Ġobtain": 8918,
    "Ġsenior": 17174,
    "theirs": 23604,
    "etence": 21580,
    "Ġceiling": 7997,
    "virt": 15454,
    "Ġchronicled": 25329,
    "Ġpeter": 10538,
    "Ġdire": 864,
    "least": 8789,
    "Ġupd": 947,
    "Ġexact": 2542,
    "Ġcannibals": 10590,
    "gress": 2212,
    "Ġgratification": 24101,
    "Ġrespectable": 6737,
    "Ġexcursion": 26591,
    "Ġeternity": 12283,
    "erpillar": 5798,
    "Ġgipsies": 12412,
    "Ġmarchant": 14789,
    "thrasher": 25659,
    "Ġwapping": 21297,
    "walk": 5523,
    "Ġglowing": 12287,
    "Ġfourteen": 12014,
    "ø": 185,
    "enborough": 21288,
    "happy": 4426,
    "arial": 5532,
    "Ġmisanthrop": 22762,
    "Ġblast": 7444,
    "Ġblanc": 11067,
    "Ġfrenchman": 11285,
    "appl": 9329,
    "Ġtawn": 13826,
    "isions": 6131,
    "Ġsaved": 6691,
    "Ġswash": 23058,
    "murderers": 25728,
    "horse": 8609,
    "mas": 5212,
    "Ġkiss": 8183,
    "bott": 9109,
    "Ġsin": 1509,
    "cask": 12451,
    "onah": 3336,
    "Ġfainter": 14917,
    "Ġcig": 6520,
    "rible": 3229,
    "Ġscraped": 16905,
    "Ġhunting": 7258,
    "means": 9789,
    "unted": 6998,
    "Ġdun": 6675,
    "Ġwond": 3940,
    "Ġride": 12763,
    "raised": 15683,
    "gammon": 20246,
    "enari": 21284,
    "Ġunspeak": 8854,
    "resh": 8405,
    "Ġbubb": 12589,
    "imes": 1302,
    "ufact": 10735,
    "Ġporch": 19683,
    "Ġadjusts": 8983,
    "west": 10741,
    "assumed": 22312,
    "âĢĶâĢĺ": 7014,
    "Ġreduced": 11928,
    "Ġxerxes": 23414,
    "Ġdislike": 6048,
    "Ġinstituted": 18698,
    "Ġrio": 23894,
    "oration": 2208,
    "usations": 15951,
    "Ġgoverned": 23573,
    "Ġsab": 10764,
    "Ġarising": 10935,
    "Ġmisery": 3816,
    "_": 67,
    "Ġsiberia": 26162,
    "Ġmans": 15540,
    "bringing": 17169,
    "conjecturing": 20137,
    "Ġsledge": 8111,
    "Ġevolved": 9895,
    "precaution": 23826,
    "such": 3085,
    "Ġzodiac": 16178,
    "Ġqueerest": 16417,
    "etency": 21585,
    "Ġlargest": 6283,
    "bergs": 18682,
    "mason": 17604,
    "Ġassembly": 10645,
    "Ġrelapses": 26280,
    "Ġestimable": 23875,
    "incl": 8110,
    "Ġ34": 16679,
    "Ġoverboard": 6044,
    "Ġber": 5698,
    "Ġgenuine": 14888,
    "lamps": 25261,
    "ouder": 17902,
    "ipt": 12483,
    "Åĵuv": 15186,
    "ñ": 178,
    "Ġdistinguished": 8273,
    "Ġnormal": 1204,
    "Ġbidirectional": 3758,
    "substance": 15235,
    "Ġcrashes": 13129,
    "onstr": 12551,
    "Ġshavings": 14113,
    "Ġdestination": 19151,
    "mod": 1062,
    "stuff": 15692,
    "legged": 10468,
    "Ġindolence": 16232,
    "Ġvague": 6406,
    "Ġunlock": 18244,
    "Ġrides": 21975,
    "constable": 24606,
    "idav": 18095,
    "leman": 21371,
    "Ġthreshold": 2812,
    "Ġranges": 2884,
    "Ġglobu": 23273,
    "Ġconvict": 23747,
    "Ġseparated": 9467,
    "Ġplayers": 12042,
    "Ġduodecimo": 16769,
    "Ġice": 3607,
    "Ġsplend": 9901,
    "Ġsteals": 23088,
    "Ġinnumerable": 13356,
    "Ġ110": 24435,
    "Ġinch": 7850,
    "ault": 2306,
    "Ġlifts": 25359,
    "complaisance": 24808,
    "ivided": 22082,
    "Ġbowsprit": 16563,
    "Ġnot": 413,
    "Ġunlike": 7005,
    "Ġdesist": 16241,
    "Ġlift": 8815,
    "Ġoccurrence": 14385,
    "rows": 6442,
    "Ġonly": 787,
    "atmosphere": 21267,
    "Ġindistinct": 17411,
    "unbe": 21876,
    "fare": 7798,
    "Ġhides": 16268,
    "Ġforward": 1835,
    "Ġduration": 20356,
    "Ġdraughts": 20224,
    "opening": 10315,
    "Ġaval": 15496,
    "Ġpolic": 13165,
    "steam": 23963,
    "Ġearthquake": 14630,
    "welcomed": 24645,
    "z": 94,
    "Ġmoisture": 12363,
    "eers": 20845,
    "Ġpitched": 9447,
    "Ġhomeward": 9394,
    "Ġfathom": 17049,
    "ays": 6684,
    "lucases": 20213,
    "oters": 21803,
    "squee": 15433,
    "Ġbequest": 21757,
    "Ġgiddy": 20500,
    "Ġdiverted": 14594,
    "mend": 20968,
    "Ġic": 9628,
    "Ġsatiated": 22906,
    "Ġswaths": 23061,
    "Ġcoburg": 18597,
    "sixteen": 24854,
    "proved": 11991,
    "natural": 2232,
    "influ": 9544,
    "earliest": 20123,
    "Ġbuckler": 24860,
    "Ġcrawling": 17046,
    "Ġbrougham": 17872,
    "Ġopal": 23627,
    "istical": 8491,
    "cor": 5520,
    "Ġvel": 7185,
    "Ġhowl": 12860,
    "Ġinferiority": 17116,
    "Ġunheeded": 18262,
    "Ġsupers": 18279,
    "Ġthinner": 24185,
    "ansion": 10923,
    "Ġ20": 8617,
    "Ġunrel": 14698,
    "Ġmomentarily": 22814,
    "Ġshed": 8181,
    "Ġdistrusted": 13545,
    "Ġpalmed": 24095,
    "Ġnotion": 7882,
    "ospel": 17012,
    "jewel": 20349,
    "Ġjoes": 19233,
    "Ġcomfor": 14057,
    "roc": 9677,
    "consum": 12875,
    "Ġbutchers": 18273,
    "sim": 6510,
    "Ġplanet": 14753,
    "Ġanswering": 7477,
    "Ġab": 528,
    "at": 268,
    "sciss": 18853,
    "Ġpromoting": 3163,
    "Ġconsum": 9802,
    "bye": 5950,
    "brance": 7283,
    "iny": 4296,
    "lestrade": 9659,
    "Ġnearer": 5303,
    "Ġcarelessness": 13080,
    "Ġexpectation": 6903,
    "Ġexercising": 19909,
    "Ġthirdly": 24146,
    "Ġfoolscap": 24161,
    "eg": 17531,
    "Ġreligious": 25124,
    "Ġimpertinence": 11368,
    "Ġwor": 1192,
    "Ġlitter": 19832,
    "Ġreynolds": 10212,
    "Ł": 258,
    "Ġpercept": 14227,
    "Ġprofessors": 14728,
    "guessed": 25873,
    "Ġburnished": 24002,
    "Ġtoils": 10188,
    "africa": 26309,
    "Ġcontributed": 16013,
    "outside": 12809,
    "Ġpurch": 6600,
    "Ġfidgeted": 25890,
    "Ġgleam": 12312,
    "ating": 664,
    "insanity": 23071,
    "Ġrelease": 19293,
    "Ġbinding": 20422,
    "accomplishment": 20226,
    "opposition": 24820,
    "offensive": 16400,
    "strade": 5065,
    "Ġarrive": 6906,
    "Ġaristocratic": 20515,
    "ciousness": 20819,
    "Ġwoes": 23989,
    "Ġwoll": 21296,
    "Ġdecanting": 22461,
    "Ġhappen": 5571,
    "Ġdivined": 19446,
    "Ġgoble": 14233,
    "alf": 4638,
    "ker": 5792,
    "agers": 5633,
    "mblance": 7322,
    "ernation": 8212,
    "ripp": 6404,
    "apparatus": 26565,
    "Ġfogs": 25283,
    "osing": 3692,
    "al": 292,
    "taking": 5689,
    "Ġclamorous": 24910,
    "Ġkill": 4455,
    "pe": 1436,
    "paralleled": 14514,
    "figure": 13559,
    "Ġtooks": 23328,
    "fortnight": 13091,
    "Ġcasked": 24497,
    "Ġgirth": 13139,
    "oup": 2013,
    "ally": 530,
    "agony": 14072,
    "Ġoil": 3373,
    "receive": 12547,
    "Ġscrewed": 15124,
    "Ġquietly": 4567,
    "Ġfant": 9176,
    "Ġducking": 17149,
    "Ġdauntless": 26338,
    "Ġbrute": 8928,
    "Ġedition": 16457,
    "Ġunceasing": 20361,
    "Ġignited": 25072,
    "emph": 21932,
    "encounter": 20395,
    "Ġprofanely": 23572,
    "ives": 1410,
    "Ġconfused": 7964,
    ",--": 2476,
    "Ġillustrative": 25069,
    "Ġclams": 19992,
    "Ġodorous": 19569,
    "ase": 1160,
    "leviathans": 19941,
    "Ġdorm": 4822,
    "Ġvoyagings": 19238,
    "Ġproved": 4884,
    "Ġstrategies": 1837,
    "Ġjerking": 12250,
    "zas": 17714,
    "Ġsimilarly": 24310,
    "Ġratt": 7881,
    "Ġfills": 12599,
    "Ġmedium": 16708,
    "horr": 14601,
    "spin": 22731,
    "scotch": 25852,
    "Ġpowers": 5419,
    "ition": 653,
    "crucible": 24843,
    "Ġrichest": 26213,
    "Ġpredict": 663,
    "Ġtack": 5621,
    "Ġdedication": 3027,
    "Ġtastes": 15480,
    "Ġnoises": 18374,
    "Ġgrizz": 10354,
    "Ġethere": 23954,
    "Ġslaugh": 18940,
    "chorus": 19814,
    "cures": 20807,
    "Ġseems": 2481,
    "Ġcompanions": 5866,
    "Ġcem": 17825,
    "Ġtet": 21160,
    "explained": 23146,
    "0": 20,
    ":--âĢľ": 24550,
    "hypothe": 25906,
    "rospect": 11615,
    "Ġezek": 18012,
    "dering": 5307,
    "Ġsuit": 5725,
    "Ġfastening": 16360,
    "Ġincluding": 2853,
    "Ġquar": 3115,
    "emy": 14076,
    "Ġinstructed": 19287,
    "Ġcomputations": 16003,
    "everlasting": 18772,
    "Ġmorality": 22978,
    "Ġante": 17898,
    "Ġcrotch": 9966,
    "Ġtold": 2183,
    "etite": 21582,
    "Ġbegat": 18864,
    "Ġacquiescence": 20333,
    "Ġ&": 6513,
    "cock": 12030,
    "Ġadored": 18292,
    "pered": 4198,
    "Ġsmacking": 20168,
    "use": 2535,
    "Ġcetology": 10012,
    "ins": 1379,
    "Ġasyl": 12739,
    "lemagne": 26438,
    "tall": 17675,
    "princip": 17139,
    "Ġlanterns": 24578,
    "Ġmazes": 25941,
    "guest": 19485,
    "Ġbehav": 3542,
    "Ġharness": 17930,
    "\"": 6,
    "Ġmansfield": 25939,
    "cabinet": 25080,
    "Ġmaking": 1778,
    "Ġboard": 3383,
    "Ġimp": 582,
    "Ġrenewing": 19813,
    "scho": 8763,
    "Ġmerid": 13199,
    "inent": 9631,
    "Ġidentical": 10436,
    "Ġimmortality": 26327,
    "mency": 18928,
    "liked": 10511,
    "ith": 330,
    "ulations": 6029,
    "elfare": 11781,
    "Ġpanegyric": 26451,
    "Ġencamp": 22804,
    "Ġwhimsical": 20431,
    "Ġembarks": 22968,
    "Ġbath": 9661,
    "oney": 3051,
    "Ġunheard": 22029,
    "confidence": 16810,
    "gs": 7337,
    "erate": 7149,
    "aurs": 20771,
    "Ġmanaging": 22329,
    "unctions": 18158,
    "mured": 6959,
    "child": 5538,
    "Ġevenness": 22836,
    "islanders": 25443,
    "anges": 1674,
    "Ġsource": 6805,
    "Ġattention": 1174,
    "aphys": 15205,
    "Ġmalignity": 10559,
    "Ġlatter": 3991,
    "Ġperformed": 8548,
    "Ġpers": 1363,
    "Ġinstantaneously": 23659,
    "yond": 2329,
    "stolen": 13985,
    "blister": 24130,
    "Ġunnecessary": 8855,
    "application": 12367,
    "Ġapology": 8328,
    "own": 746,
    "irection": 2386,
    "pract": 10122,
    "Ġtransparent": 9492,
    "Ġcountries": 13100,
    "ĠâĢľâĢĻ": 22258,
    "Ġboats": 2638,
    "Ġbeheading": 21758,
    "sufferable": 12181,
    "Ġhomely": 25220,
    "flagged": 23975,
    "power": 7137,
    "Ġchange": 1993,
    "Ġod": 4440,
    "depart": 12270,
    "roman": 22008,
    ":âĢĶ": 4433,
    "Ġstreaked": 19115,
    "Ġburned": 8634,
    "hamlet": 23264,
    "Ġtea": 5041,
    "Ġdin": 3628,
    "Ġaccepted": 7750,
    "Ġfinished": 5044,
    "Ġnumberless": 16418,
    "Ġportion": 7492,
    "Ġprestige": 22240,
    "Ġmoderately": 22225,
    "pie": 21013,
    "inordinate": 21197,
    "Ġdepart": 4656,
    "felicity": 25143,
    "Ġmou": 13858,
    "manif": 14376,
    "Ġchaos": 17011,
    "la": 10707,
    "Ġavoided": 13264,
    "unct": 18157,
    "pid": 1405,
    "opes": 10313,
    "utted": 15665,
    "Ġrecognise": 12044,
    "lovel": 22515,
    "Ġele": 1961,
    "ven": 780,
    "grin": 19107,
    "Ġplaid": 22607,
    "Ġattractive": 25576,
    "Ġrud": 8479,
    "representativeness": 25273,
    "Ġdexterous": 15152,
    "threat": 10902,
    "Ġdrags": 16943,
    "splash": 25210,
    "Ġevening": 2653,
    "establishment": 26114,
    "Ġindiam": 22956,
    "Ġdormouse": 4926,
    "hyena": 24255,
    "return": 5489,
    "Ġmizen": 17261,
    "Ġaccustomed": 6860,
    "Ġlawyer": 10671,
    "nearer": 22468,
    "money": 8753,
    "Û": 156,
    "Ġtraversed": 18894,
    "Ġinsists": 23680,
    "Ġpeep": 6869,
    "Ġundesired": 12784,
    "eryton": 4095,
    "should": 3263,
    "Ġmiserable": 3637,
    "Ġmonarch": 14418,
    "Ġimposed": 14219,
    "Ġundulations": 19518,
    "Ġrelaxed": 12989,
    "advise": 24220,
    "Ġmainmast": 9782,
    "Ġcomposed": 8897,
    "tting": 17682,
    "gained": 20883,
    "hat": 6955,
    "Ġbrimstone": 25687,
    "Ġexpectantly": 23528,
    "lesc": 11041,
    "Ġrepaired": 13112,
    "spiracle": 22736,
    "Ġpeople": 2545,
    "Ġattractions": 12922,
    "Ġcontemptible": 16955,
    "Ġburial": 16524,
    "Ġeul": 21621,
    "olog": 1090,
    "Ġsim": 733,
    "inces": 13831,
    "Ġsandwich": 19831,
    "ructure": 768,
    "Ġencapsulate": 13678,
    "Ġfeminine": 15267,
    "Ġmoustache": 20487,
    "acles": 8520,
    "Ġtruthful": 23870,
    "Ġindignation": 8347,
    "Ġwoven": 9929,
    "pursue": 24976,
    "Ġgurglings": 26467,
    "Ġverse": 16604,
    "hunt": 20905,
    "Ġportcullis": 26605,
    "Ġinput": 608,
    "received": 9641,
    "Ġbir": 17855,
    "Ġpatients": 24810,
    "Ġmodular": 12822,
    "ilight": 12698,
    "quar": 7616,
    "appropri": 22846,
    "Ġnotes": 7188,
    "expense": 22433,
    "Ġwired": 17788,
    "fifty": 12356,
    "----âĢĻ": 24102,
    "rights": 23674,
    "Ġmallet": 17812,
    "Ġsuperstition": 15057,
    "Ġinterruption": 9476,
    "Ġplump": 14286,
    "Ġbalmy": 22908,
    "Ġnecessitated": 23932,
    "mistaken": 12215,
    "ihood": 20924,
    "Ġintercourse": 11002,
    "ividual": 5462,
    "precedented": 15178,
    "mel": 9130,
    "Ġloosened": 26003,
    "plenty": 14094,
    "Ġsobbed": 14139,
    "Ġepisode": 26349,
    "vul": 15451,
    "Ġsuppressing": 23001,
    "floated": 24644,
    "Ġchim": 5933,
    "bun": 12442,
    "Ġcluster": 13575,
    "Ġrepresented": 8941,
    "Ġtormenting": 15108,
    "Ġfrolic": 23928,
    "Ġanyways": 22524,
    "twice": 14623,
    "iag": 20918,
    "elephant": 12355,
    "Ġexcell": 10419,
    "Ġnoted": 15834,
    "Ġshy": 10905,
    "aned": 5147,
    "Ġwind": 1433,
    "Ġfergus": 16869,
    "Ġviol": 2072,
    "Ġunjustly": 17129,
    "Ġhieroglyphic": 25588,
    "Ġcuriously": 13027,
    "Ġprosecuted": 25294,
    "Ġhunter": 5401,
    "Ġinexpress": 12640,
    "Ġthough": 991,
    "Ġdeacon": 18143,
    "Ġresponses": 23650,
    "Ġupstairs": 5837,
    "Ġhoars": 19077,
    "Ġkitchen": 8497,
    "Ġchilly": 25563,
    "Ġgradient": 449,
    "Ġphysiogn": 12392,
    "downstairs": 23923,
    "O": 51,
    "Ġhistor": 3391,
    "Ġgloss": 11961,
    "isson": 23463,
    "calculating": 25690,
    "Ġharpooneers": 4731,
    "Ġconvulsively": 25716,
    "bbing": 6324,
    "Ġmag": 1429,
    "uncommon": 11685,
    "Ġmanufactured": 22334,
    "Ġholder": 6725,
    "Ġexerc": 6832,
    "Ġdevout": 14337,
    "Ġcivil": 4678,
    "Ġcut": 2642,
    "advancing": 14839,
    "rear": 21235,
    "Ġeconomically": 25289,
    "Ġpossess": 3207,
    "colour": 9906,
    "Ġwanting": 6722,
    "rifled": 21050,
    "Ġreeled": 13989,
    "cats": 17514,
    "Ġbud": 10171,
    "Ġwinged": 16997,
    "study": 15121,
    "Ġbeneficial": 23934,
    "Ġspiral": 14586,
    "ousand": 2427,
    "clu": 20801,
    "Ġgaol": 19570,
    "visitors": 13353,
    "Ġjets": 10290,
    "sensations": 20054,
    "nay": 7136,
    "Ġabreast": 18395,
    "Ġslay": 16309,
    "Ġhaving": 1880,
    "Ġtalker": 23372,
    "Ġvortex": 26210,
    "Ġcause": 2407,
    "Ġtokens": 1771,
    "supplement": 14800,
    "Ġhurt": 7700,
    "wag": 21126,
    "und": 4088,
    "Ġfaint": 5812,
    "Ġinvesting": 19644,
    "Ġviciously": 24404,
    "Ġarise": 7896,
    "indust": 18436,
    "umbled": 8494,
    "plings": 11701,
    "Ġ(": 596,
    "baron": 24926,
    "pocket": 9812,
    "privilege": 25264,
    "digger": 24312,
    "calmly": 20142,
    "concern": 6100,
    "avast": 8894,
    "Ġcin": 13878,
    "foreign": 18544,
    "Ġbreeds": 23349,
    "Ġbalanced": 12994,
    "sebastian": 21824,
    "fo": 5279,
    "Ġspikes": 22141,
    "Ġencouragement": 13048,
    "Ġprying": 15613,
    "era": 13850,
    "Ġlambton": 10660,
    "Ġmembrane": 20507,
    "Ġapply": 1776,
    "Ġtalk": 1967,
    "Ġimmeasurable": 26231,
    "Ġpossessing": 16578,
    "Ġspoke": 2749,
    "Ġchemistry": 11462,
    "Ġlithe": 24669,
    "thither": 21987,
    "spl": 9142,
    "brous": 19200,
    "Ġtore": 6531,
    "Ġsill": 10767,
    "Ġ95": 19776,
    "Ġmagnitude": 1942,
    "Ġinclusive": 24166,
    "Ġrecurred": 18978,
    "Ġsple": 21218,
    "Ġrays": 10333,
    "Ġdies": 11596,
    "ĉ": 202,
    "Ġcruisers": 25864,
    "Ġep": 7383,
    "situ": 9624,
    "athered": 6972,
    "Ġargemone": 24277,
    "skirted": 24489,
    "Ġmoments": 4846,
    "twelve": 14624,
    "Ġdenominated": 15232,
    "robber": 21540,
    "Ġafter": 869,
    "Ġinde": 7370,
    "verb": 10219,
    "Ē": 211,
    "Ġcomplaint": 24775,
    "Ġlandlady": 10424,
    "Ġrecl": 16143,
    "Ġrehearsed": 25972,
    "Ġinstability": 3815,
    "inct": 3292,
    "Ġdestabilizing": 5053,
    "says": 13304,
    "ection": 4948,
    "rage": 10845,
    "Ġgroup": 2035,
    "Ġbelf": 21384,
    "Ġpronounced": 8351,
    "incidentally": 20542,
    "Ġopera": 23429,
    "bucket": 17496,
    "introduce": 25187,
    "Ġcabs": 23642,
    "irited": 15791,
    "oran": 8793,
    "Ġpuzzling": 14901,
    "Ġduties": 6610,
    "Ġflaw": 23015,
    "Ġcontrast": 2120,
    "Ġexpeditions": 24957,
    "Ġdinn": 23984,
    "Ġimperfect": 13344,
    "love": 9297,
    "Ġperse": 6272,
    "Ġeat": 4643,
    "mouth": 9133,
    "nineteenth": 26139,
    "Ġaccused": 8509,
    "Ġplutarch": 22610,
    "Ġhundred": 2695,
    "Ġaper": 17745,
    "Ġbridge": 8349,
    "endent": 15922,
    "ging": 2603,
    "Ġcomfits": 21856,
    "Ġaye": 3352,
    "Ġinviting": 19145,
    "Ġcleared": 6075,
    "Ġmicha": 17813,
    "revol": 12545,
    "Ġkindly": 6077,
    "Ġtrembling": 7481,
    "Ġdeference": 10883,
    "Ġglobules": 26590,
    "unquiet": 21885,
    "Ġslaves": 23169,
    "Ġremarkable": 4916,
    "Ġlessons": 7692,
    "ignorant": 13567,
    "Ġnugent": 26459,
    "Ġkept": 3345,
    "Ġfalsely": 20585,
    "ench": 21282,
    "Ġlately": 6387,
    "Ġmistaken": 4986,
    "Ġcongen": 10875,
    "Ġbarnacled": 25537,
    "Ġcou": 5288,
    "Ġadvice": 4901,
    "canoes": 16233,
    "orum": 12595,
    "ator": 1919,
    "Ġeasier": 11167,
    "vessels": 10628,
    "independ": 15985,
    "Ġlamentations": 17077,
    "Ġrounding": 16279,
    "Ġobservation": 6598,
    "hist": 7131,
    "Ġche": 1762,
    "imens": 1747,
    "gences": 20879,
    "shazz": 14243,
    "Ġprotesting": 14744,
    "Ġ----": 7145,
    "Ġhinge": 25542,
    "Ġexisting": 12723,
    "Ġstricken": 9779,
    "Ġignoble": 19402,
    "Ġdreary": 10410,
    "Ġunconcerned": 20513,
    "Ġmethods": 3162,
    "Ġflatt": 16251,
    "vers": 1327,
    "Ġunfrequently": 20741,
    "Ġchief": 3381,
    "Ġelect": 10844,
    "Ġimpact": 10299,
    "erest": 10699,
    "Ġmore": 678,
    "dwelling": 20567,
    "Ġfurrow": 22816,
    "Ġliber": 5168,
    "ardy": 22160,
    "Ġsubterr": 10351,
    "Ġbead": 21754,
    "ignorantly": 25190,
    "Ġclutching": 24954,
    "Ġthinks": 6170,
    "Ġappeared": 2778,
    "Ġcontention": 22430,
    "honest": 17005,
    "learned": 8604,
    "awing": 18917,
    "Ġfloats": 9416,
    "Ġmaintain": 856,
    "Ġproposals": 10616,
    "Ġdescending": 8905,
    "toss": 22572,
    "ara": 12611,
    "Ġpremeditated": 22238,
    "Ġbids": 24646,
    "Ġvul": 10250,
    "hide": 10705,
    "Ġaustralia": 15236,
    "Ġbaronial": 23796,
    "Ġprogno": 14043,
    "rown": 2190,
    "Ġresembles": 25970,
    "Ġearl": 7676,
    "Ġprof": 2459,
    "Ġassu": 21901,
    "Ġcommentators": 25230,
    "mai": 22917,
    "Ġeternal": 5976,
    "Ġabsence": 4894,
    "ogene": 18675,
    "Ġgrief": 4620,
    "poverty": 22911,
    "Ġcommon": 1414,
    "Ġwinding": 8236,
    "Ġtransformations": 3485,
    "recover": 24623,
    "Ġadmeasure": 18294,
    "Ġallev": 18103,
    "Ġabused": 22273,
    "Ġjoints": 12039,
    "Ġcontracting": 16015,
    "Ġmagnus": 18960,
    "Ġtranquil": 7309,
    "Ġmature": 17801,
    "Ġgroaned": 11268,
    "igned": 5656,
    "Ġreports": 19086,
    "neat": 22466,
    "tenderly": 20534,
    "Ġread": 1445,
    "Ġmouldings": 24736,
    "================================": 5671,
    "Ġneighbourhood": 5126,
    "Ġdromedary": 17442,
    "vengeance": 13361,
    "Ġlanguor": 12852,
    "mbl": 5946,
    "Ġstabbing": 20306,
    "Ġmut": 3586,
    "Ġlounging": 10025,
    "gir": 8083,
    "dling": 15343,
    "shattered": 22453,
    "Ġsol": 1105,
    "aet": 15311,
    "Ġunob": 22019,
    "bodily": 17318,
    "Ġemac": 16408,
    "Ġped": 7845,
    "Ġstair": 8457,
    "Ġfresh": 3672,
    "ropy": 1104,
    "clad": 14462,
    "Ġsuav": 22085,
    "varying": 13807,
    "game": 11493,
    "Ġtrains": 10949,
    "probable": 17023,
    "Ġtwice": 4661,
    "Ġshiver": 12772,
    "Ġthy": 2513,
    "Ġdz": 4755,
    "Ġflannel": 26579,
    "Ġtingling": 15096,
    "bless": 22316,
    "rade": 9682,
    "È": 137,
    "Ġviews": 7289,
    "infidel": 24664,
    "Ġdoubting": 13104,
    "Ġreminded": 10002,
    "Ġclink": 22362,
    "oar": 12502,
    "vac": 15453,
    "offered": 14520,
    "wreck": 21139,
    "riot": 18183,
    "Ġadm": 2400,
    "Ġfetched": 24568,
    "Ġcostly": 23586,
    "Ġnovelist": 24776,
    "Ġgib": 13968,
    "Ġhumiliation": 16202,
    "Ġvisibly": 22863,
    "Ġahead": 6664,
    "weed": 14318,
    "Ġobstacle": 16957,
    "Ġoutdone": 22322,
    "resolved": 9642,
    "Ġartist": 12917,
    "Ġwinc": 9645,
    "ore": 418,
    "Ġunfulfilled": 26511,
    "Ġconcoct": 19047,
    "Ġcloudy": 19480,
    "parsee": 14513,
    "oysius": 14369,
    "Ġsupplied": 8946,
    "nonsense": 17617,
    "Ġsordid": 26424,
    "Ġgeorge": 3752,
    "Ġfulfilment": 20190,
    "Ġsigmoid": 2461,
    "Ġpurest": 14942,
    "ague": 3907,
    "Ġrealised": 18981,
    "won": 8395,
    "correct": 24483,
    "three": 5239,
    "Ġmannish": 26239,
    "Ġsteersman": 13047,
    "Ġcliffs": 15980,
    "dri": 5888,
    "herent": 2528,
    "Ġdivulged": 16651,
    "probability": 17024,
    "ception": 6563,
    "drugg": 20840,
    "tackle": 17324,
    "tenham": 16325,
    "access": 11182,
    "nephew": 26399,
    "Ġdisengaged": 12894,
    "Ġingenious": 12352,
    "Ġdod": 6674,
    "Ġtrouble": 3693,
    "relations": 14736,
    "Ġends": 8238,
    "vain": 15450,
    "Ġfiles": 21416,
    "Ġshoal": 12020,
    "Ġwhom": 1829,
    "Ġvalued": 12187,
    "ego": 4037,
    "Ġcoer": 22584,
    "Ġneg": 1333,
    "det": 5207,
    "Ġblotches": 25315,
    "rigging": 20009,
    "Ġplenty": 6709,
    "aggo": 5097,
    "suspected": 12376,
    "Ġlaborers": 19059,
    "seeking": 17155,
    "Ġaccompan": 5513,
    "cules": 12395,
    "accuracy": 9882,
    "osures": 22265,
    "elfth": 22373,
    "rew": 3651,
    "Ġdet": 511,
    "Ġirreduc": 5491,
    "Ġhighest": 3531,
    "commodore": 20628,
    "Ġwhisky": 23937,
    "Ġflat": 8228,
    "sadly": 25527,
    "shipping": 10310,
    "warrior": 24797,
    "batim": 25019,
    "oquence": 11388,
    "Ġadequately": 15202,
    "ification": 1016,
    "Ġmystic": 7503,
    "Ġwrites": 23200,
    "gy": 2096,
    "Ġrever": 6537,
    "Ġshiny": 14109,
    "ividually": 22084,
    "Ġdifficulties": 11227,
    "Ġdirected": 5579,
    "Ġcontaining": 2229,
    "Ġcertainly": 2497,
    "castles": 14638,
    "Ġremember": 2680,
    "Ġperches": 18449,
    "Ġnecessitates": 23933,
    "Ġobliv": 16137,
    "rosings": 15648,
    "Ġsubdiv": 16163,
    "Ġapprehensiveness": 16879,
    "Ġ1883": 23901,
    "İ": 241,
    "oke": 1857,
    "cruet": 17028,
    "Ġpromised": 5181,
    "Ġoverpowered": 15292,
    "Ġerection": 24005,
    "bene": 6113,
    "Ġhorr": 3192,
    "Ġsignifies": 19206,
    "Ġcage": 17827,
    "herfield": 3633,
    "Ġnovelties": 24777,
    "itively": 21334,
    "Ġavail": 11228,
    "Ġtho": 21517,
    "Ġhumility": 12990,
    "desired": 9008,
    "Ġoutrage": 15962,
    "Ġat": 395,
    "linging": 16085,
    "Ġpropontis": 17468,
    "Ġthereby": 7644,
    "Ġblanche": 18821,
    "Ġstar": 6023,
    "Ġmagistrate": 8234,
    "Ġstowing": 18074,
    "Ġhonor": 5664,
    "Ġparallel": 1415,
    "learn": 2453,
    "Ġjuicy": 25371,
    "8": 28,
    "Ġcrumbs": 19124,
    "Ġcells": 13888,
    "Ġelud": 22645,
    "Ġcharles": 11960,
    "flowing": 14573,
    "Ġing": 5284,
    "plain": 1360,
    "Ġborrow": 10173,
    "Ġmethodic": 23147,
    "clear": 9027,
    "Ġwaning": 15537,
    "Ġcombined": 8549,
    "Ġcope": 17832,
    "Ġkindliness": 23294,
    "Ġfalling": 6914,
    "Ġcasc": 15560,
    "securer": 25603,
    "scor": 13021,
    "Ġmarlings": 23039,
    "Ġdescribes": 3123,
    "Ġbenches": 18783,
    "image": 9689,
    "Ġscheming": 23272,
    "Ġexpedition": 10637,
    "Ġbehalf": 14509,
    "Ġbid": 6132,
    "Ġsending": 8779,
    "tha": 15827,
    "Ġundoing": 22039,
    "Ġpaste": 23422,
    "Ġpassionately": 16766,
    "transformers": 8718,
    "fitting": 1505,
    "Ġsenseless": 12083,
    "obvious": 9360,
    "Ġboarding": 12091,
    "Ġinsights": 13185,
    "Ġskul": 22798,
    "Ġconfines": 23305,
    "Ġdearer": 14052,
    "ined": 1260,
    "Ġfall": 2987,
    "Ġidentifies": 12019,
    "Ġnewspaper": 12368,
    "Ġpostscript": 14811,
    "pockets": 16214,
    "Ġdeclaration": 16639,
    "Ġparalle": 1411,
    "Ġnavigation": 9996,
    "Ġbudge": 15168,
    "Ġperuvian": 18453,
    "Ġfasten": 11134,
    "programming": 10066,
    "Ġgenerate": 1536,
    "Ġcoleridge": 18766,
    "Ġmajestic": 8643,
    "Ġmagical": 23102,
    "ilst": 8144,
    "Ġdividing": 12116,
    "Ġspout": 3283,
    "widows": 25345,
    "Ġangelic": 19630,
    "Ġshock": 6082,
    "Ġrheum": 18217,
    "Ġdelirium": 10407,
    "ensed": 10999,
    "Ġdesigned": 7740,
    "Ġremainder": 9861,
    "d": 72,
    "Ġunexpected": 6840,
    "Ġpassed": 2009,
    "Ġsunday": 7269,
    "Ġdrinking": 12173,
    "Ġseeks": 14305,
    "Ġbond": 21387,
    "Ġori": 8410,
    "Ġdeadly": 5405,
    "Ġeuropean": 20049,
    "Ġarose": 7359,
    "Ġsensible": 4976,
    "agreeable": 5830,
    "Ġtul": 21162,
    "oblig": 16294,
    "Ġtreatise": 19348,
    "Ġhappening": 14386,
    "Ġwhistles": 24625,
    "Ġquenched": 22421,
    "Ġprocuring": 16872,
    "Ġdus": 8424,
    "Ġalcoves": 26488,
    "Ġlocks": 11728,
    "Ġscenes": 5730,
    "Ġregained": 18600,
    "âĢ": 294,
    "Ġeastward": 13394,
    "Ġclin": 14207,
    "activity": 22634,
    "Ġheart": 1594,
    "đ": 210,
    "destiny": 16701,
    "Ġauthentic": 20537,
    "Ġbonnet": 10658,
    "Ġsustaining": 25334,
    "fishers": 24929,
    "Ġimmediately": 3366,
    "training": 2517,
    "Ġvon": 14084,
    "rumours": 23924,
    "canallers": 22967,
    "Ġtalents": 15047,
    "Ġital": 10868,
    "Ġsaluted": 14762,
    "angling": 14143,
    "Ġcot": 13880,
    "Ġromish": 19587,
    "Ġconsequences": 11337,
    "Ġaerial": 21201,
    "aking": 976,
    "Ġsocietal": 11438,
    "Ġinvitation": 5188,
    "Ġphren": 8574,
    "Ġlizzie": 26464,
    "Ġhover": 15624,
    "Ġfancying": 12117,
    "Ġstript": 23697,
    "dles": 11483,
    "usoid": 4766,
    "Ġgrapnels": 25552,
    "Ġlashes": 17969,
    "Ġfossils": 20225,
    "Ġcolleg": 22858,
    "Ġimpressions": 9556,
    "Ġexile": 12722,
    "boilers": 26298,
    "Ġfut": 15579,
    "Ġreigning": 15705,
    "Ġauthoritative": 19564,
    "Ġlogic": 13082,
    "Ġsuffoc": 18872,
    "pul": 8757,
    "asse": 15649,
    "Ġgas": 8133,
    "Ġannoyed": 17202,
    "Ġheroine": 24543,
    "Ġcorrob": 16269,
    "Ġconsume": 12963,
    "Ġshank": 22001,
    "circuit": 24191,
    "Ġjar": 15954,
    "Ġmerchantmen": 19862,
    "Ġinflict": 15003,
    "sex": 12718,
    "Ġpresent": 1643,
    "Ġkra": 18349,
    "adr": 6994,
    "ote": 4596,
    "Ġ119": 24441,
    "Ġfingertips": 24022,
    "ceiling": 21630,
    "Ġswarming": 16276,
    "Ġspinning": 15055,
    "Ġanswered": 2855,
    "Ġsplashing": 16553,
    "Ġloo": 22114,
    "penn": 18828,
    "grate": 23415,
    "Ġneglected": 10380,
    "Ġdiscrete": 2475,
    "Ġstarting": 7728,
    "fill": 15354,
    "¶": 119,
    "thou": 4708,
    "Ġdisdain": 8360,
    "Ġimpose": 22388,
    "Ġfunny": 7638,
    "longer": 8616,
    "Ġobliquely": 12366,
    "Ġmoss": 9287,
    "Ġbigness": 19763,
    "Ġwert": 12561,
    "Ġclosing": 11778,
    "Ġmyself": 1452,
    "atched": 6375,
    "mosphere": 10046,
    "Ġtheories": 13852,
    "Ġ109": 24416,
    "rift": 11522,
    "Ġdiscuss": 9477,
    "hopper": 23717,
    "fl": 3603,
    "Ġgrind": 18736,
    "metallic": 19882,
    "Ġfamiliarity": 16731,
    "Ġringing": 13336,
    "Ġhardest": 18914,
    "Ġcastles": 16642,
    "nerable": 16280,
    "pans": 13773,
    "Ġnois": 4270,
    "announcement": 24563,
    "Ġreliability": 22884,
    "Ġrelaps": 18778,
    "requiem": 24857,
    "feelings": 5674,
    "Ġdestruction": 6601,
    "Ġqueens": 16705,
    "fates": 20860,
    "Ġhad": 442,
    "moby": 8538,
    "featured": 24064,
    "awake": 14455,
    "Ġprotect": 6338,
    "dipped": 20839,
    "estone": 18362,
    "<MASK>": 4,
    "Ġperu": 14226,
    "obstructed": 15230,
    "!_âĢĶ": 19976,
    "suitable": 18638,
    "Ġai": 3130,
    "Ġminus": 18751,
    "skylight": 25624,
    "Ġwhose": 2007,
    "Ġsquint": 22841,
    "Ġcrisis": 13130,
    "abetical": 15747,
    "lled": 10110,
    "Ġgoodly": 22825,
    "inside": 23068,
    "Ġblack": 2031,
    "real": 10152,
    "Ġcat": 2123,
    "Ġegot": 18010,
    "Ġdinnertime": 16721,
    "Ġupbraided": 26530,
    "Ġalleys": 25979,
    "gone": 6504,
    "Ġsilly": 7686,
    "Ġfa": 4820,
    "mind": 4626,
    "Ġsurpr": 2551,
    "ample": 1366,
    "elope": 14477,
    "mention": 7213,
    "ched": 1542,
    "law": 6116,
    "with": 1298,
    "Ġbewildered": 15217,
    "Ġkeepers": 23541,
    "hes": 1399,
    "Ġprolong": 6831,
    "Ġjoists": 19235,
    "Ġme": 351,
    "Ġparticip": 16135,
    "Ġmysteriously": 24602,
    "shadow": 20315,
    "Ġsized": 11565,
    "Ġundeviating": 15221,
    "Ġmovements": 24359,
    "Ġprevented": 5942,
    "Ġsemantic": 1956,
    "Ġevap": 19626,
    "comes": 5394,
    "Ġphil": 3386,
    "stonecraft": 24356,
    "forming": 15919,
    "Ġcove": 22585,
    "Ġintact": 21993,
    "onical": 21256,
    "oblivious": 26584,
    "ittle": 811,
    "Ġcurds": 23006,
    "Ġfac": 6381,
    "Ġoccasioned": 13232,
    "Ġloves": 10917,
    "Ġexceptional": 19374,
    "Ġpremises": 10490,
    "author": 9863,
    "Ġbrist": 14381,
    "Ġrally": 21972,
    "xi": 17712,
    "rut": 8092,
    "most": 1257,
    "Ġquarrel": 7291,
    "watches": 14950,
    "Ġbapt": 13899,
    "Ġsomehow": 4842,
    "cons": 4311,
    "Ġgidd": 25784,
    "Ġdestined": 7974,
    "reflections": 24734,
    "Ġsurpassing": 20471,
    "Ġvindict": 13609,
    "Ġoperated": 14549,
    "abiding": 21797,
    "latter": 15386,
    "Ġimputation": 22176,
    "Ġunhappiness": 14121,
    "Ġsteelkilt": 5675,
    "Ġexciting": 23313,
    "Ġgames": 11629,
    "Ġapo": 9633,
    "chapter": 1403,
    "danish": 20835,
    "Ġbrains": 2631,
    "irs": 14073,
    "sun": 7140,
    "Ġdisplaying": 16968,
    "tuning": 1581,
    "Ġimpropri": 14220,
    "rians": 21929,
    "Ġsentin": 16374,
    "cen": 17505,
    "Ġexception": 11218,
    "Ġjura": 14195,
    "gans": 11492,
    "Ġextracted": 16320,
    "Ġcurving": 16250,
    "Ġaffording": 14824,
    "Ġfoolish": 5980,
    "atible": 17774,
    "Ġramadan": 9578,
    "ignant": 11131,
    "Ġemotions": 8972,
    "instr": 12536,
    "Ġperished": 11788,
    "Ġsong": 5903,
    "Ġgiant": 13971,
    "Ġweather": 3997,
    "Ġlikeness": 11181,
    "idean": 14269,
    "Ġtierce": 15481,
    "muttered": 13762,
    "Ġbund": 17865,
    "Ġsalutation": 12401,
    "Ġbraces": 14672,
    "Ġconject": 6027,
    "Ġgross": 11628,
    "Ġfriendly": 9823,
    "staring": 18023,
    "born": 7543,
    "Ġrestraint": 15131,
    "orrow": 2916,
    "Ġungovernable": 20711,
    "Ġmont": 8561,
    "Ġdeliciousness": 24129,
    "Ġdanes": 25160,
    "Ġfearing": 12820,
    "Ġproclaim": 18133,
    "Ġpink": 12623,
    "Ġorange": 8488,
    "Ġpalace": 16691,
    "stranger": 9886,
    "perhaps": 4122,
    "Ġstill": 1156,
    "Ġwe": 388,
    "Ġhalloa": 13321,
    "Ġdream": 3540,
    "Ġshadow": 5596,
    "Ġlearn": 365,
    "Ġdictating": 20155,
    "typewritten": 26039,
    "conversations": 24748,
    "Ġinvari": 6529,
    "ri": 389,
    "ange": 1018,
    "otograph": 5827,
    "Ġliberty": 7761,
    "into": 3683,
    "ittleness": 22380,
    "Ġwolves": 25935,
    "Ġsmall": 892,
    "Ġunquestion": 18249,
    "Ġspr": 4027,
    "ryphon": 4163,
    "blog": 19842,
    "Ġdataset": 12821,
    "Ġbring": 3323,
    "convalescence": 24885,
    "Ġyard": 5921,
    "Ġprofusion": 23570,
    "Ġadhes": 22107,
    "voy": 7144,
    "Ġconver": 806,
    "Ġhints": 8431,
    "Ġgloomy": 7504,
    "etrics": 21588,
    "Ġstyle": 6945,
    "Ġsucked": 14133,
    "Ġkidn": 20208,
    "Ġspaces": 3113,
    "Ġexeget": 24088,
    "Ġannoyance": 20664,
    "Ġtapping": 10754,
    "Ġtakings": 20575,
    "Ġsister": 1473,
    "Ġbreaths": 14860,
    "Ġperadventure": 22403,
    "next": 5892,
    "Ġcourtesy": 9948,
    "kov": 17588,
    "94": 4803,
    "Ġobservant": 20113,
    "Ġfisherman": 12080,
    "perpendicular": 14165,
    "Ġwatching": 4855,
    "µ": 118,
    "were": 2560,
    "Ġhumbled": 16200,
    "Ġcomprehend": 6494,
    "Ġcommod": 10336,
    "prepared": 13594,
    "opp": 6962,
    "Ġsurpass": 13587,
    "Ġhanded": 8217,
    "Ġbureau": 11593,
    "Ġprovide": 7749,
    "Ġforfeit": 21779,
    "Ġburied": 7718,
    "deploy": 22146,
    "Ġjabez": 11770,
    "Ġdarling": 12609,
    "Ġag": 684,
    "Ġdejected": 20307,
    "Ġpresided": 20210,
    "Ġunconsciously": 10008,
    "Ġhamper": 19392,
    "scornful": 26577,
    "Ġbeque": 18083,
    "Ġreproached": 24892,
    "cro": 13700,
    "Ġcourage": 4633,
    "istically": 14146,
    "Ġmargaret": 10379,
    "Ġresource": 10995,
    "indul": 22374,
    "mere": 11859,
    "Ġinaccessible": 13937,
    "Ġcommander": 8628,
    "inate": 6234,
    "Ġautumnal": 19031,
    "Ġreturns": 11930,
    "Ġobli": 9319,
    "Ġhorrify": 23822,
    "journey": 8748,
    "acle": 4714,
    "Ġrace": 5848,
    "Ġdemand": 4947,
    "eler": 1571,
    "Ġgratified": 8021,
    "Ġobjection": 6586,
    "rever": 21238,
    "ternatural": 12720,
    "enthusiastic": 20695,
    "Ġparch": 11730,
    "Ġgrows": 4985,
    "spass": 18687,
    "collins": 6915,
    "chase": 11648,
    "Ġtrough": 15967,
    "reading": 12084,
    "Ġmiscell": 16153,
    "Ġliked": 5265,
    "deceit": 25557,
    "Ġcornelius": 13577,
    "aw": 1446,
    "Ġpaying": 9941,
    "Ġbagging": 24539,
    "disposition": 10045,
    "afforded": 25866,
    "hump": 12482,
    "ever": 1076,
    "vit": 13804,
    "Ġaspect": 3098,
    "iloqu": 11651,
    "Ġnarrated": 14874,
    "oft": 3594,
    "fields": 14655,
    "Ġprophecy": 25706,
    "Ġfallen": 5968,
    "sax": 21059,
    "Ġcomplaisance": 19452,
    "flying": 13724,
    "lers": 10109,
    "Ġspeeding": 23565,
    "Ġhogshead": 26369,
    "cords": 25139,
    "Ġendured": 6073,
    "Ġhieroglyphics": 17306,
    "Ġ16": 7927,
    "Ġplum": 11826,
    "Ġriotous": 20547,
    "Ġbaby": 6638,
    "Ġsuns": 23276,
    "Ġpikes": 21480,
    "Ġhow": 598,
    "Ġalien": 14021,
    "streets": 13399,
    "Ġtorture": 9067,
    "boots": 11128,
    "Ġlif": 10198,
    "Ġneighbours": 8303,
    "parlour": 16393,
    "Ġbowed": 6243,
    "ittance": 12850,
    "Ġbefitting": 15730,
    "Ġflattened": 26048,
    "ufactured": 15185,
    "Ġslammed": 20451,
    "ainted": 3661,
    "viating": 14581,
    "historical": 20469,
    "Ġclue": 7021,
    "uch": 876,
    "looks": 12022,
    "Ġhor": 1661,
    "bed": 3491,
    "erm": 786,
    "Ġaccordance": 19501,
    "Ġelder": 7223,
    "cnns": 3624,
    "Ġum": 10214,
    "Ġtranslation": 3089,
    "asked": 8915,
    "Ġkne": 4269,
    "Ġpettiness": 24232,
    "Ġlangsdorff": 15280,
    "ime": 625,
    "Ġzoology": 22824,
    "promise": 12255,
    "elly": 17982,
    "Ĵ": 245,
    "Ġlamb": 8817,
    "Ġembraced": 10009,
    "Ġgrud": 17998,
    "Ġgiven": 1630,
    "Ġbird": 3759,
    "Ġroast": 18456,
    "Ġluxuriant": 20398,
    "lamp": 9611,
    "Ġcelestial": 10070,
    "Ġhood": 10825,
    "Ġtriangular": 14862,
    "boo": 16353,
    "Ġwhip": 8453,
    "Ġanalyzing": 18787,
    "main": 8088,
    "Ġcart": 11586,
    "Ġpry": 11602,
    "Ġislets": 21805,
    "melancholy": 12357,
    "Ġeach": 891,
    "Ġ75": 19615,
    "icted": 5937,
    "Ġilluminating": 25246,
    "umerable": 11729,
    "Ġdescrib": 2720,
    "Ġinestimable": 17445,
    "incing": 15488,
    "Ġlanguage": 647,
    "Ġgurg": 15677,
    "dishon": 20407,
    "moon": 10338,
    "school": 10058,
    "Ġsparkled": 13466,
    "gar": 5615,
    "Ġhare": 5157,
    "Ġrefres": 14346,
    "harpoons": 24287,
    "haw": 6362,
    "Ġfollow": 1397,
    "anish": 2618,
    "Ġ7": 4744,
    "Ġscandinav": 19964,
    "print": 23815,
    "Ġpred": 660,
    "Ġtru": 4107,
    "ards": 2504,
    "tes": 11531,
    "iration": 4540,
    "Ġ127": 24472,
    "Ġcopy": 10166,
    "terr": 8154,
    "Ġsynthe": 26008,
    "Ġfaulty": 14910,
    "Ġvertu": 23893,
    "Ġanything": 2184,
    "Ġembellish": 25849,
    "grass": 23416,
    "Ġassure": 4420,
    "Ġarticulate": 24432,
    "Ġdrawer": 13271,
    "177": 20754,
    "tural": 21069,
    "Ġaddresses": 3771,
    "lik": 3918,
    "Ġcorrespondence": 10597,
    "covering": 15337,
    "Ġcheerless": 16695,
    "Ġ99": 10747,
    "Ġmonstr": 7667,
    "carriage": 9949,
    "Ġafterwards": 3533,
    "Ġisolation": 17153,
    "execut": 13659,
    "Ġpr": 1600,
    "Ġlooks": 4166,
    "Ġvic": 5237,
    "often": 6166,
    "Ġguilty": 7249,
    "Ġshrew": 22004,
    "beryls": 25310,
    "utting": 17987,
    "Ġpitied": 14694,
    "Ġsales": 12812,
    "ription": 5676,
    "Ġconj": 8462,
    "Ġcomfort": 3441,
    "Ġsnug": 8280,
    "Ġstings": 21738,
    "presence": 18497,
    "hundred": 8331,
    "Ġgretna": 26470,
    "Ġfullest": 14817,
    "reement": 15514,
    "Ġmasking": 2417,
    "Ġdiff": 3117,
    "thinness": 25811,
    "enorm": 17783,
    "âĢĶâĢľ": 2971,
    "bred": 11471,
    "hereafter": 19219,
    "Ġretain": 7863,
    "Ġlazily": 11382,
    "ius": 5789,
    "ß": 160,
    "Ġintruder": 25992,
    "ause": 1314,
    "Ġsulkily": 25882,
    "rue": 1130,
    "Ġmaintainable": 12940,
    "smug": 23911,
    "Ġcondescension": 10621,
    "Ġsnoo": 21231,
    "Ġroof": 6565,
    "Ġconstru": 19069,
    "Ġcop": 7580,
    "yed": 3273,
    "Ġtaffrail": 15479,
    "Ġ31": 12135,
    "Ġirregular": 9868,
    "idity": 8835,
    "symp": 14618,
    "voc": 8394,
    "Ġprep": 4192,
    "eat": 11485,
    "Ġlose": 5028,
    "Ġabundant": 17157,
    "Ġdiana": 21439,
    "Ġsuited": 12790,
    "fore": 686,
    "Ġtobacc": 7853,
    "Ġdanced": 7842,
    "Ġfellow": 2780,
    "Ġsurpl": 19134,
    "Ġevian": 24294,
    "provoke": 26072,
    "Ġreturning": 5326,
    "peculiarities": 13475,
    "Ġhumbug": 18782,
    "Ġbeer": 10222,
    "Ġgrieve": 14710,
    "rep": 5525,
    "J": 46,
    "Ŀ": 256,
    "against": 5871,
    "Ġapprobation": 10988,
    "Ġbelie": 14409,
    "wers": 12524,
    "Ġhval": 21490,
    "orns": 12597,
    "Ġwater": 1946,
    "Ġfull": 2176,
    "vour": 17701,
    "Ġchooses": 13351,
    "results": 20390,
    "Ġrepeatedly": 9024,
    "snap": 24849,
    "Ġpa": 3004,
    "Ġspitzbergen": 15291,
    "comput": 1974,
    "Ġembalmed": 13660,
    "Ġsubjected": 23574,
    "clump": 23158,
    "leness": 4690,
    "clock": 3934,
    "mouthed": 12404,
    "Ġdines": 21426,
    "ashes": 6016,
    "Ġseats": 14091,
    "behaviour": 11303,
    "excellent": 8044,
    "ipotence": 22351,
    "Ġfru": 8421,
    "ĠĠĠĠĠĠĠĠĠĠĠĠĠĠĠĠĠĠĠĠĠĠĠĠĠĠĠĠĠĠĠĠĠĠĠĠĠĠĠĠĠĠĠ": 12159,
    "overcoat": 19053,
    "pencil": 18829,
    "Ġskeleton": 5514,
    "Ġelevation": 14902,
    "Ġonset": 12715,
    "Ġgreas": 17994,
    "usiveness": 22297,
    "hush": 20908,
    "send": 15426,
    "Ġanim": 2113,
    "Ò": 147,
    "Ġorganize": 8994,
    "Ġcounterbalance": 24721,
    "terdam": 18132,
    "Ġendeavoured": 4919,
    "Ġretribution": 16285,
    "orrah": 17877,
    "Ġseconds": 16396,
    "ville": 6087,
    "prodigious": 17469,
    "Ġplayfulness": 23638,
    "Ġproperties": 3120,
    "weave": 22688,
    "salesman": 20674,
    "ights": 8477,
    "Ġdam": 2214,
    "Ġundertake": 14482,
    "custom": 15336,
    "Ġcow": 13879,
    "Ġearnest": 3931,
    "shrugged": 22454,
    "unforeseen": 21892,
    "Ġfalse": 4345,
    "ying": 1369,
    "Ġcl": 557,
    "ordinary": 4409,
    "upper": 11541,
    "Ġdrought": 19281,
    "Ġfirmness": 11239,
    "!âĢĻ": 3331,
    "Ġfiltering": 23930,
    "Ġgloves": 8577,
    "Ġmeant": 3554,
    "icates": 11620,
    "thorough": 21989,
    "Ġincreas": 1692,
    "Ġdraws": 19439,
    "Ġbottom": 3677,
    "Ġabstained": 25232,
    "Ġbengal": 18785,
    "Ġrepugnant": 26592,
    "Ġfield": 1252,
    "calabash": 22897,
    "Ġcapt": 1293,
    "Ġsuperstitions": 17073,
    "ascal": 10195,
    "shriek": 20523,
    "Ġhappiness": 2947,
    "Ġmutilated": 23962,
    "delighted": 10565,
    "Ġverdant": 15004,
    "Ġcorruption": 15229,
    "Ġselected": 9713,
    "Ġmuse": 13863,
    "portuguese": 25414,
    "sorts": 21063,
    "tottenham": 25419,
    "drawers": 19389,
    "ivia": 22080,
    "ieces": 4771,
    "wam": 10138,
    "Ġfilthy": 13253,
    "Ġyield": 5093,
    "Ġproble": 1112,
    "]]": 5205,
    "Ġlibraries": 20617,
    "Ġmain": 809,
    "Ġrepressed": 21671,
    "Ġced": 10786,
    "Ġundeceive": 25553,
    "Ġwickedness": 9529,
    "Ġcash": 9655,
    "Ġdesire": 3720,
    "Ġchilled": 18383,
    "Ġuplifted": 11650,
    "fem": 17539,
    "oo": 7553,
    "Ġpuzzled": 7316,
    "Ġrector": 21679,
    "Ġnodes": 1965,
    "Ġcenturies": 8626,
    "Ġcathed": 14550,
    "Ġkind": 1784,
    "Ġactivation": 918,
    "sne": 10127,
    "Ġinvented": 17038,
    "lydon": 13992,
    "Ġimpelled": 11786,
    "Ġcountess": 11968,
    "Ġsticking": 13431,
    "istan": 22112,
    "Ġtraitors": 23081,
    "tra": 5002,
    "akes": 2217,
    "Ġam": 658,
    "Ġpitch": 5767,
    "Ġseam": 3909,
    "Ġsorts": 6886,
    "uther": 8821,
    "Ġsanity": 24982,
    "uarded": 21108,
    "e": 73,
    "Ġrefers": 1566,
    "Ġhelen": 16658,
    "Ġimminent": 11246,
    "Ġpopular": 6217,
    "insulting": 26056,
    "olence": 10233,
    "Ġneeds": 6606,
    "acet": 5474,
    "Ġinfle": 16365,
    "chari": 21692,
    "Ġsweat": 13144,
    "enge": 21283,
    "Ġcoron": 4465,
    "Ġarom": 15495,
    "Ġmichigan": 26428,
    "devils": 20036,
    "hundreds": 25076,
    "Ġl": 303,
    "Ġvicinity": 7314,
    "fall": 5135,
    "Ç": 136,
    "singing": 24363,
    "Ġband": 5292,
    "attendants": 25496,
    "iality": 8848,
    "Ġbrilliancy": 20110,
    "Ġfid": 10805,
    "kindly": 14747,
    "Ġhun": 1493,
    "Ġsmart": 11819,
    "missionary": 24616,
    "Ġroundabout": 23064,
    "residual": 19264,
    "Ġdost": 7637,
    "here": 2550,
    "Ġagonizing": 17241,
    "Ġsafie": 6619,
    "romised": 14115,
    "passenger": 24169,
    "Ġcreeping": 18684,
    "Ġvolat": 24147,
    "Ġsuffusing": 23034,
    "oder": 2458,
    "Ġscrupulous": 20072,
    "entrance": 12662,
    "wa": 5897,
    "Ġnormalizes": 1861,
    "sych": 9892,
    "enc": 7574,
    "negro": 18496,
    "Ġbritain": 16958,
    "instruct": 19545,
    "dancing": 12459,
    "Ġelab": 22644,
    "quee": 4130,
    "Ġdav": 15594,
    "Ġsoaring": 22090,
    "achment": 5464,
    "wic": 21123,
    "Ġcracks": 12024,
    "Ġhumane": 11888,
    "sphere": 22733,
    "à": 161,
    "Ġcongreg": 8464,
    "bottle": 20148,
    "Ġalabama": 14022,
    "quickness": 19853,
    "Ġbumps": 21395,
    "sold": 15429,
    "Ġswashing": 23059,
    "animate": 12582,
    "Ġgreat": 895,
    "Ġstruggles": 16581,
    "dom": 6223,
    "Ġsplice": 19311,
    "eddling": 11905,
    "Ġreap": 18029,
    "Ġniagara": 26460,
    "Ġwal": 6517,
    "iard": 9604,
    "_âĢĶâĢĿ": 20765,
    "Ġstammered": 26201,
    "Ġparty": 3512,
    "Ġcrucial": 9896,
    "Ġhourly": 23302,
    "Ġdoubt": 2221,
    "Ġjav": 7902,
    "Ġrequisition": 22636,
    "Ġrevolve": 19733,
    "sculptured": 26046,
    "Ġcomforted": 19394,
    "Ġuncomp": 15845,
    "Ġlakes": 8131,
    "dham": 20832,
    "bishop": 13698,
    "Ġthence": 8885,
    "join": 12118,
    "Ġalchemists": 26489,
    "databases": 3024,
    "Ġpersonages": 23543,
    "Ġwade": 17786,
    "Ġdirt": 15598,
    "Ġshillings": 15839,
    "Ġmounted": 7832,
    "ĠĠĠĠĠĠĠĠĠĠĠĠĠĠĠĠĠĠĠĠĠĠĠĠĠĠ": 13392,
    "bib": 17494,
    "Ġpresuming": 16795,
    "Ġmorning": 1748,
    "Ġmissionary": 25697,
    "below": 12126,
    "mes": 1199,
    "stee": 21654,
    "Ġlittle": 865,
    "Ġshapeless": 24524,
    "setting": 13290,
    "Ġengraved": 17082,
    "estic": 4956,
    "innacle": 7519,
    "Ġprevious": 2089,
    "performed": 18343,
    "surface": 10533,
    "Ġmanifested": 17160,
    "Ġfleet": 9435,
    "ropri": 2178,
    "Ġapplication": 2106,
    "Ġmidst": 7986,
    "Ġnearly": 3363,
    "breeding": 16677,
    "Ġquadru": 16008,
    "Ġnarration": 13507,
    "Ġiroquois": 26474,
    "'(": 2979,
    "Ġvariation": 22668,
    "aulding": 11341,
    "Ġowe": 8115,
    "mosp": 8089,
    "mist": 5686,
    "waters": 11335,
    "Ġrejoicing": 13425,
    "Ġpaced": 7584,
    "ria": 15799,
    "Ġharpoon": 3619,
    "Ġways": 5396,
    "Ġvoluntary": 14802,
    "Ġreluctant": 20528,
    "Ġeditions": 19154,
    "men": 1484,
    "ambition": 13415,
    "pening": 2834,
    "club": 26382,
    "Ġscramble": 24579,
    "Ġfasting": 16359,
    "ssible": 2991,
    "Ġmighty": 4233,
    "Ø": 153,
    "isms": 12585,
    "Ġpartaking": 22700,
    "Ġeluded": 12926,
    "Ġmason": 10160,
    "Ġsurviving": 24637,
    "Ġparade": 18302,
    "Ġgrat": 4058,
    "Ġimbecile": 17395,
    "Ġproofs": 19817,
    "Ġprince": 18973,
    "Ġhastily": 5763,
    "Ġanxious": 4518,
    "arers": 12134,
    "Ġconstable": 19068,
    "Ġwithout": 1122,
    "_,âĢĻâĢĿ": 20404,
    "Ġhist": 2441,
    "ude": 7562,
    "Ġcareless": 11121,
    "Ġimpreg": 15991,
    "enderby": 25216,
    "output": 4403,
    "Ġassurance": 7774,
    "speeches": 25240,
    "Ġrecommendation": 17027,
    "vitality": 20482,
    "Ġshame": 6410,
    "spermaceti": 12198,
    "Ġacquiring": 2769,
    "Ġspiritual": 9933,
    "killer": 20479,
    "gardiner": 12295,
    "Ġinsignificance": 20460,
    "Ġcharming": 6630,
    "impart": 21712,
    "Ġnonce": 23236,
    "Ġpermanent": 13635,
    "gunw": 17223,
    "Ġinvolves": 1141,
    "visited": 13352,
    "vint": 21117,
    "Ġsummoned": 9914,
    "Ġeaster": 15679,
    "Ġay": 15494,
    "blu": 12444,
    "Ġjacobian": 2894,
    "Ġstronger": 8580,
    "danger": 10092,
    "Ġodd": 6626,
    "Ġexhilar": 19686,
    "erity": 21270,
    "Ġnar": 7374,
    "Ġtension": 13827,
    "Ġglut": 18849,
    "Ġsymbol": 7716,
    "Ġdiscoverer": 26036,
    "fr": 4804,
    "Ġadmission": 23557,
    "Ġfugitive": 17330,
    "Ġcumberland": 21358,
    "Ġtraveller": 8049,
    "Ġgrasp": 4663,
    "Ġjeopardy": 13600,
    "Ġweaken": 21926,
    "Ġdiscover": 4717,
    "Ġmouldy": 14977,
    "flight": 15356,
    "henry": 16628,
    "intellig": 5321,
    "Ġlength": 2500,
    "overfitting": 13105,
    "build": 12192,
    "¿": 128,
    "ď": 208,
    "Ġauthent": 14507,
    "Ġinstrum": 6055,
    "Ġswung": 6449,
    "Ġstreaming": 19676,
    "ĠâĢľ_": 6697,
    "bad": 12440,
    "Ġpleadings": 25854,
    "baked": 20781,
    "Ġshops": 22005,
    "delirium": 14788,
    "Ġfires": 16474,
    "Ġtennes": 23551,
    "slightest": 25417,
    "relapse": 24021,
    "Ġjost": 23632,
    "Ġaboard": 6698,
    "message": 17375,
    "Ġscores": 2716,
    "eties": 10839,
    "ta": 13792,
    "Ġcandles": 9911,
    "Ġopens": 23628,
    "Ġwrung": 14472,
    "Ġcontemplate": 19894,
    "Ġexplored": 23521,
    "Ġlionel": 25287,
    "Ġdusk": 12331,
    "rec": 6004,
    "Ġgazed": 6478,
    "Ġnational": 13945,
    "troubled": 17113,
    "Ġbuffaloes": 25218,
    "Ġgracechurch": 12203,
    "Ġobserver": 11993,
    "Ġringle": 18213,
    "Ġavoid": 5199,
    "Ġvoice": 2188,
    "Ġlovely": 4709,
    "accustomed": 13161,
    "dw": 3332,
    "astic": 1866,
    "Ġfeels": 6881,
    "rodden": 21538,
    "Ġmock": 3694,
    "iteness": 4394,
    "Ġheedfully": 24521,
    "fere": 10990,
    "ian": 1236,
    "smote": 23913,
    "Ġbanish": 15574,
    "Ġdrag": 6185,
    "Ġbru": 13898,
    "neighbours": 24882,
    "sentiment": 12919,
    "Ġvisit": 2587,
    "onent": 21251,
    "Ġmap": 2389,
    "pop": 17633,
    "hand": 2759,
    "Ġintelligence": 558,
    "Ġlap": 8438,
    "Ġgrave": 5100,
    "Ġassistants": 9455,
    "Ġbosoms": 16797,
    "Ġniag": 21533,
    "Ġcreativity": 2571,
    "isure": 6241,
    "Ġrefusing": 11030,
    "Ġinfants": 16366,
    "Ġabound": 8867,
    "endous": 6849,
    "Ġloses": 15877,
    "Ġsooty": 25816,
    "Ġbowels": 9433,
    "Ġrasc": 21978,
    "Ġfumbled": 17883,
    "Ġassume": 10518,
    "Ġfacts": 2287,
    "Ġcopied": 20011,
    "Ġpugnacious": 26453,
    "nowledge": 10292,
    "Ġmuseum": 15275,
    "sit": 13783,
    "urmount": 13999,
    "dragging": 16611,
    "Ġstops": 3168,
    "alloyed": 22205,
    "Ġtemple": 7654,
    "departure": 15238,
    "Ġbrushed": 15575,
    "governed": 25406,
    "unbounded": 21889,
    "model": 3917,
    "Ġchoicest": 24223,
    "Ġunwe": 15842,
    "Ġmechanical": 7936,
    "Ġkindred": 16377,
    "Ġarmy": 11745,
    "Ġretained": 7173,
    "companion": 9560,
    "Ġagencies": 18542,
    "Ġinns": 17932,
    "misrepresented": 24214,
    "Ġrummaged": 16912,
    "Ġhath": 12633,
    "Ġwoke": 21292,
    "Ġthews": 21280,
    "Ġtelegram": 15227,
    "Ġsignificant": 8637,
    "Ġinco": 14266,
    "Ġsu": 431,
    "Ġexercise": 8359,
    "words": 7983,
    "clergy": 18936,
    "drawing": 10489,
    "Ġspurned": 12802,
    "Ġwayward": 22875,
    "omas": 12676,
    "Ġarist": 14162,
    "Ġhastened": 9007,
    "police": 10586,
    "Ġform": 1023,
    "ineering": 21985,
    "Ġpetulance": 24230,
    "Ġmanners": 3793,
    "ien": 10104,
    "opÃ¦": 12877,
    "Ġpebbles": 16133,
    "Ġdepressed": 10884,
    "ĠĠĠĠĠ": 3529,
    "Ġslam": 13063,
    "Ġtents": 13821,
    "Ġboiling": 8527,
    "Ġdeficient": 18826,
    "Ġsubs": 2131,
    "Ġadvis": 9813,
    "Ġvalleys": 14922,
    "cott": 8074,
    "Ġwoeful": 19622,
    "Ġelastic": 4363,
    "Ġattends": 19653,
    "parts": 14603,
    "Ġrestricted": 19026,
    "Ġvort": 18194,
    "Ġnick": 21526,
    "Ġmedicine": 15210,
    "f": 74,
    "Ġmoot": 22436,
    "omin": 4702,
    "Ġheaps": 11645,
    "Ġdistressed": 8516,
    "pretending": 17042,
    "rers": 14721,
    "affection": 7487,
    "Ġtickled": 20060,
    "ror": 7350,
    "Ġassur": 6074,
    "hued": 20913,
    "Ġ133": 24782,
    "Ġfinite": 2324,
    "Ġpettic": 14844,
    "frost": 15110,
    "Ġinfer": 7684,
    "Ġbount": 15572,
    "Ġundeserving": 18269,
    "Ġschedules": 3387,
    "Ġtrial": 6636,
    "Ġcontemplated": 13468,
    "riers": 18184,
    "hailed": 17567,
    "Ġupdate": 2462,
    "Ġpat": 1797,
    "als": 2039,
    "Ġencirc": 18733,
    "xter": 9149,
    "_).âĢĶ": 8685,
    "Ġintru": 15831,
    "Ġacquisition": 18901,
    "ubl": 3598,
    "Ġcould": 703,
    "Ġmajest": 24066,
    "Ġtoller": 9094,
    "cheerfulness": 20183,
    "mble": 1408,
    "Ġmortifying": 13250,
    "Ġoccupations": 9461,
    "Ġcomputation": 967,
    "kshire": 13749,
    "ogne": 12945,
    "record": 16923,
    "ext": 924,
    "Ġportent": 12086,
    "hidden": 17374,
    "Ġbesee": 19245,
    "Ġcursed": 6730,
    "Ġassemblage": 26354,
    "Ġanimation": 11154,
    "humour": 7498,
    "Ġfrederick": 15591,
    "Ġprofuse": 23568,
    "ingale": 21302,
    "ę": 218,
    "Ġstaves": 21742,
    "commer": 22818,
    "Ġem": 1920,
    "Ġpiteous": 17918,
    "Ġwire": 13855,
    "Ġegyptians": 25290,
    "consumed": 25676,
    "woes": 21136,
    "appe": 2946,
    "Ġconsolation": 6209,
    "Ġwings": 9166,
    "Ġcollect": 7236,
    "Ġexhausted": 8697,
    "need": 10985,
    "blooded": 20026,
    "Ġabsorbed": 12335,
    "Ġcontinues": 18812,
    "Ġcele": 9903,
    "Ġcrevice": 22727,
    "ught": 2752,
    "Ġdirest": 22708,
    "Ľ": 254,
    "Ġwail": 21289,
    "Ġmarked": 4619,
    "Ġgoin": 18471,
    "Ġpumping": 25644,
    "oard": 4809,
    "reserve": 17767,
    "Ġintensified": 17020,
    "filled": 9597,
    "Ġfav": 1753,
    "Ġtake": 1578,
    "ruit": 22191,
    "Ġhaste": 9006,
    "Ġexempt": 21832,
    "Ġausten": 5881,
    "naturally": 14565,
    "Ġamelia": 26252,
    "ferent": 4195,
    "mast": 3605,
    "Ġmermaids": 26171,
    "Ġpresents": 8246,
    "Ġdebility": 24275,
    "hors": 9601,
    "Ġharry": 24572,
    "Ġalmost": 1656,
    "Ġclimes": 12849,
    "Ġ**": 4720,
    "Ġchests": 19674,
    "Ġtides": 13824,
    "converse": 22479,
    "knowledge": 7478,
    "Ġgeorgia": 23889,
    "Ġburnt": 9931,
    "Ġlumber": 13955,
    "Ġsickle": 24248,
    "peaceful": 20450,
    "Ġapologies": 25197,
    "nav": 17612,
    "Ġcleaned": 23185,
    "gled": 10701,
    "Ġpaddles": 15151,
    "Ġnomine": 26458,
    "Ġhoarsely": 26303,
    "tastes": 21099,
    "ady": 995,
    "Ġinvisibly": 24814,
    "Ġnich": 21523,
    "Ġseventy": 7878,
    "Ġunreason": 15846,
    "Ġrestrict": 16376,
    "Ġtow": 4397,
    "Ġcan": 469,
    "Ġalms": 21784,
    "Ġreversed": 15701,
    "aze": 10078,
    "Ġuninjured": 22060,
    "Ġpunish": 12164,
    "Ġallude": 12776,
    "Ġcoach": 6867,
    "fab": 13719,
    "lacings": 26135,
    "Ġinconvenient": 20013,
    "ed": 293,
    "Ġbirch": 26175,
    "Ġpal": 4043,
    "Ġscalable": 1588,
    "Ġtunes": 24620,
    "Ġomin": 11580,
    "Ġbarbaric": 10017,
    "Ġleadenhall": 16631,
    "Ġominous": 12428,
    "attachment": 13057,
    "Ġcomforts": 14696,
    "Ġhelplessly": 20081,
    "discharging": 26306,
    "frequent": 15357,
    "lu": 597,
    "Ġthumb": 6981,
    "iest": 4038,
    "Ġsensitivity": 3071,
    "Ġloungers": 24863,
    "Ġretired": 6071,
    "nical": 20993,
    "Ġthimble": 15641,
    "Ġlacepede": 20499,
    "iving": 1726,
    "iliar": 15718,
    "shaw": 6863,
    "Ġartistic": 18613,
    "Ġmoderate": 10941,
    "ribute": 7224,
    "zy": 2671,
    "super": 5944,
    "arance": 4697,
    "iant": 5427,
    "Ġheavens": 5050,
    "Ġpeaked": 2295,
    "Ġgovernesses": 25130,
    "Ġdismissed": 12897,
    "savor": 25025,
    "pedest": 24823,
    "screw": 9349,
    "Ġanalyze": 1525,
    "Ġproceed": 3245,
    "Ġbecomes": 6396,
    "Ġerrand": 11087,
    "Ġorigin": 4120,
    "Ġthreaten": 24374,
    "Ġvib": 8165,
    "Ġperch": 10301,
    "Ġcoincidences": 26365,
    "Ġcaw": 13886,
    "Ġseal": 10257,
    "Ġinstincts": 16988,
    "Ġcountenance": 3972,
    "weight": 2942,
    "Ġchiswick": 25561,
    "ites": 3899,
    "inclination": 20061,
    "Ġdistinguish": 2728,
    "Ġdiscrimin": 2547,
    "presbyter": 20621,
    "Ġabout": 634,
    "Ġtub": 7146,
    "fac": 17543,
    "Ġyon": 9696,
    "ications": 4446,
    "Ġberths": 20118,
    "squ": 7809,
    "skull": 24488,
    "Ġportentous": 15233,
    "Ġthenceforth": 25183,
    "Ġawaited": 17075,
    "Ġboarded": 13238,
    "Ġannouncing": 16756,
    "spirited": 19756,
    "Ġgreeting": 18965,
    "too": 4508,
    "Ġpursuit": 4732,
    "Ġdiscoveries": 13363,
    "Ġempty": 5354,
    "Ġran": 3342,
    "Ġresolution": 5500,
    "Ġcedar": 15192,
    "ex": 622,
    "Ġsteamer": 17191,
    "Ġenh": 3067,
    "._": 3222,
    "Ġomit": 17817,
    "Ġbreakfast": 3977,
    "Ġconfidential": 9091,
    "pun": 9620,
    "Ġexpressive": 8985,
    "prick": 19346,
    "Ġcommunications": 16357,
    "Ġrecklessness": 24744,
    "Ġslain": 8956,
    "compared": 24038,
    "Ġ97": 19777,
    "clay": 18933,
    "Ġimpotent": 18448,
    "Ġferule": 24499,
    "Ġbridle": 24682,
    "Ġwhiteness": 5919,
    "Ġsable": 15503,
    "Ġbeneath": 3239,
    "Ġlash": 8440,
    "Ġremove": 7499,
    "utral": 12668,
    "Ġhorn": 6186,
    "bel": 3837,
    "Ġsakes": 18327,
    "Ġfold": 5531,
    "ilty": 6394,
    "Ġdisturbing": 19949,
    "Ġlunatic": 24993,
    "tide": 11535,
    "Ġguidance": 9420,
    "monsters": 19173,
    "ohnson": 16329,
    "Ġinsurgents": 26602,
    "pleased": 8857,
    "Ġweakened": 16825,
    "Ġutterly": 6101,
    "Ġcauldron": 25442,
    "erative": 21275,
    "Ġindelicacy": 25696,
    "box": 5749,
    "Ġdespised": 14669,
    "Ġecho": 12671,
    "Ġindisp": 18835,
    "Ġtax": 13819,
    "Ġdestroy": 5772,
    "Ġexpense": 7652,
    "Ġspans": 18305,
    "abash": 18110,
    "astern": 8583,
    "several": 5544,
    "Ġleather": 7607,
    "thereby": 14450,
    "Ġcedars": 20295,
    "Ġ43": 14773,
    "Ġwarmup": 3923,
    "Ġedward": 19153,
    "Ġsymbols": 2799,
    "Ġobscure": 9557,
    "client": 18934,
    "din": 8374,
    "deli": 15348,
    "Ġfoam": 6890,
    "Ġpunchbowl": 20234,
    "Ġindicate": 23725,
    "iscre": 17852,
    "ateful": 5927,
    "Ġgodson": 23359,
    "Ġjingling": 26018,
    "Ġrejected": 12298,
    "Ġunrelieved": 20548,
    "Ġresort": 18564,
    "Ġminiature": 11042,
    "Ġinsanity": 12051,
    "Ġimpulse": 10027,
    "Ġlanded": 7468,
    "tru": 10731,
    "Ġbearing": 5300,
    "Ġwretchedness": 9029,
    "Ġbrawn": 10484,
    "oms": 4593,
    "Ġtwisting": 18659,
    "Ġambitious": 18512,
    "ounted": 5030,
    "uts": 8820,
    "fins": 13722,
    "Ġmoving": 1677,
    "Ġoccupies": 24013,
    "creatures": 7517,
    "Ġsmoothe": 23657,
    "Ġpres": 9735,
    "accepted": 20139,
    "ors": 853,
    "Ġsharp": 2411,
    "upon": 2723,
    "iature": 8745,
    "Ġenjoying": 11236,
    "Ġswings": 11088,
    "Ġpower": 1263,
    "direful": 25897,
    "Ġtex": 15475,
    "Ġunde": 11716,
    "Ġrecumbent": 22740,
    "educ": 10830,
    "Ġshift": 2281,
    "Ġtroub": 22344,
    "umbent": 12094,
    "Ġfierceness": 26267,
    "recurring": 24197,
    "Ġunexampled": 20363,
    "make": 5793,
    "indebted": 26159,
    "Ġprogressive": 5024,
    "ullo": 12734,
    "commotion": 24914,
    "Ġstilly": 25974,
    "icha": 11742,
    "gration": 9124,
    "Ġamusement": 8056,
    "Ġeleven": 9392,
    "tle": 2406,
    "Ġug": 8141,
    "Ġty": 6659,
    "bolt": 25138,
    "shutters": 20314,
    "Ġpuppy": 12409,
    "disapprobation": 19159,
    "counter": 20281,
    "Ġhyster": 16875,
    "Ġmisgiv": 14348,
    "Ġexhaust": 6399,
    "Ġjam": 10953,
    "Ġdifferen": 936,
    "Ġferocious": 17422,
    "Ġadv": 1168,
    "Ġturn": 1299,
    "Ġinvoluntary": 18774,
    "serpent": 16295,
    "ope": 4125,
    "Ġwhit": 7177,
    "Ġappalled": 22231,
    "antic": 1606,
    "Ġscare": 18397,
    "Ġfits": 8795,
    "Ġreservo": 16833,
    "Ġcachalot": 17836,
    "Ï": 144,
    "hatchet": 24819,
    "Ġguid": 2639,
    "itz": 6006,
    "Ġdecision": 2677,
    "Ġ38": 24083,
    "Ġwhite": 1532,
    "Ġscarlet": 13228,
    "Ġsupports": 3052,
    "innocent": 20289,
    "Ġfrenz": 25447,
    "tch": 9144,
    "Ġprofessions": 11233,
    "etting": 21583,
    "Ġinjure": 16783,
    "Ġaccounts": 7206,
    "Ġindec": 13931,
    "Ġpantaloons": 20299,
    "thed": 8831,
    "<PAD>": 0,
    "Ġafternoon": 6053,
    "fing": 13716,
    "Ġglorious": 11078,
    "Ġcharacteristics": 8613,
    "Ġagrippa": 11811,
    "oundering": 11750,
    "Ġmarbles": 18875,
    "dirty": 20836,
    "Ġslide": 10396,
    "Ġhesitation": 13445,
    "Ġbefall": 8833,
    "Ġsincer": 13071,
    "ored": 3895,
    "es": 289,
    "Ĭ": 237,
    "Ġposture": 24167,
    "Ġadagrad": 2905,
    "Ġcivilly": 19606,
    "Ġbroker": 23105,
    "impatient": 13644,
    "Ġeddies": 25089,
    "four": 6114,
    "dependence": 17170,
    "Ġplan": 3882,
    "riages": 10245,
    "Ġlivelihood": 24773,
    "ominy": 13981,
    "Ġmodels": 771,
    "Ġtut": 8774,
    "Ġrealise": 16340,
    "palms": 25263,
    "Ġsubordinate": 18723,
    "Ġlouisiana": 25079,
    "Ġterra": 13121,
    "Ġadding": 2401,
    "Ġconceivable": 16615,
    "Ġneedles": 11186,
    "Ġsan": 7824,
    "gest": 5426,
    "Ġlion": 9678,
    "Ġsnuffed": 15076,
    "chair": 5917,
    "Ġspades": 12801,
    "Ġcheating": 16369,
    "Ġassailed": 23180,
    "ige": 12685,
    "conversation": 7123,
    "Ġinn": 4590,
    "geese": 22371,
    "smoke": 17225,
    "po": 1139,
    "eked": 16404,
    "Ġrecital": 16145,
    "Ġchimneys": 16974,
    "number": 10117,
    "Ġinjustice": 9193,
    "Ġsafe": 5103,
    "fitted": 17546,
    "Ġweighted": 2090,
    "eon": 8733,
    "succeeded": 15179,
    "circle": 16738,
    "Ġpracticable": 19056,
    "Ġwasting": 12733,
    "increas": 10456,
    "Ġcontinuous": 1561,
    "Ġmurmur": 14591,
    "Ġvaluable": 5608,
    "Ġbreathed": 11222,
    "Ġbetake": 22909,
    "Ġdeliber": 7267,
    "Ġbehaved": 13259,
    "higher": 20410,
    "Ġunfolding": 17087,
    "Ġdepicted": 14283,
    "leaving": 10793,
    "mmed": 7914,
    "Ġenjoyment": 7299,
    "Ġresigned": 9771,
    "atic": 4019,
    "Ġposterity": 17405,
    "Ġdelusion": 18975,
    "Ġdismally": 20217,
    "Ġprodigiously": 14935,
    "icult": 3340,
    "Ġpostponed": 20393,
    "Ġindist": 14411,
    "Ġcorroboration": 26054,
    "Ġdandy": 17894,
    "dripping": 16907,
    "Ġwerter": 15243,
    "belated": 24042,
    "Ġain": 6969,
    "rabbit": 20594,
    "Ġsocieties": 20185,
    "Ġsharkish": 24506,
    "Ġcalves": 13040,
    "enges": 13059,
    "dart": 20828,
    "moreover": 12974,
    "Ġim": 475,
    "Ġ27": 8618,
    "Ġbab": 5291,
    "Ġenglish": 3617,
    "Ġactionable": 24560,
    "Ġcand": 3277,
    "Ġhave": 443,
    "Ġspasmodically": 17317,
    "iousness": 4899,
    "ld": 385,
    "Ġunh": 9256,
    "nui": 21002,
    "Ġsuperb": 16445,
    "herds": 22207,
    "Ġstowed": 21740,
    "Ġindign": 6174,
    "Ġdeserved": 7736,
    "Ġscreamed": 9527,
    "Ġcreditor": 24292,
    "Ġrobustness": 18873,
    "Ġpark": 5465,
    "Ġconvent": 11671,
    "polar": 24584,
    "Ġmace": 21312,
    "yellow": 9627,
    "Ġhard": 1441,
    "always": 5708,
    "Ġdrugged": 12607,
    "creation": 14809,
    "Ġopen": 1549,
    "Ġfired": 16158,
    "Ġquoin": 22422,
    "absolutely": 10648,
    "Ġturkish": 12266,
    "ern": 764,
    "Ġinherited": 25354,
    "Ġliable": 14231,
    "Ġthickest": 16657,
    "Ġpensive": 21477,
    "do": 1994,
    "cig": 17506,
    "Ġbeeches": 9229,
    "Ġdoubloons": 13438,
    "Ġhills": 6527,
    "Ġimitation": 22175,
    "shone": 22447,
    "Ġtrain": 513,
    "Ġ[": 6967,
    "Ġwondrously": 24070,
    "encoun": 12302,
    "enary": 12556,
    "consciously": 19628,
    "Ġseat": 4949,
    "Ġcoding": 8116,
    "Ġaverted": 16260,
    "cart": 10692,
    "Ġsemi": 11973,
    "Ġdeferred": 18827,
    "Ġspectators": 19410,
    "gay": 11491,
    "mblies": 24609,
    "ne": 646,
    "Ġhats": 14621,
    "onic": 7827,
    "Ġglare": 13018,
    "Ġbeale": 12704,
    "Ġindependent": 9019,
    "royal": 11395,
    "Ġoozy": 21330,
    "Ġmomentous": 16173,
    "avier": 2833,
    "Ġanom": 12616,
    "mightily": 24106,
    "glanced": 19369,
    "ernal": 4314,
    "ountain": 2919,
    "Ġsulk": 15048,
    "Ġsubstit": 19543,
    "Ġduncan": 13465,
    "Ġthis": 382,
    "Ġpretension": 23766,
    "Ġinquiry": 6484,
    "pleas": 3853,
    "Ġpawn": 12068,
    "Ġhimmalehs": 26232,
    "Ġ1839": 20463,
    "Ġthousandth": 23686,
    "Ġfrighten": 13283,
    "neighbouring": 19967,
    "uries": 6148,
    "Ġcretan": 22726,
    "Ġpawnbroker": 13662,
    "reated": 10304,
    "Ġsought": 5010,
    "haps": 1671,
    "Ġbarbary": 24219,
    "Ġknife": 7308,
    "Ġinterior": 8900,
    "Ġdistance": 3484,
    "Ġcetacean": 25879,
    "individual": 18437,
    "trial": 20353,
    "horizon": 23617,
    "Ġconvert": 11847,
    "Ġthre": 2058,
    "Ġdelicate": 6480,
    "Ġscreen": 17208,
    "Ġequality": 16362,
    "Ġfive": 2839,
    "tailed": 17687,
    "Ġcommun": 1705,
    "maybe": 23995,
    "Ġmusky": 19385,
    "cottagers": 20051,
    "Ġvain": 3632,
    "âĢĶ": 517,
    "Ġtwinkle": 12327,
    "Ġsociable": 19407,
    "Ġgreeted": 23214,
    "acknowled": 10976,
    "Ġforcing": 3226,
    "adam": 15734,
    "Ġshrieking": 24757,
    "Ġpile": 8425,
    "Ġkeeping": 7282,
    "Ġrows": 10563,
    "Ġplaint": 10328,
    "Ġcharing": 14183,
    "secure": 12240,
    "Ġepistle": 24905,
    "Ġmaintains": 2144,
    "Ġheartfelt": 18969,
    "Ġmould": 6519,
    "rud": 4191,
    "Ġtexas": 25923,
    "Ġprinc": 4200,
    "Ġfrightful": 7735,
    "slept": 17172,
    "Ġswimmer": 19462,
    "Ġwidely": 8033,
    "supposing": 24137,
    "Ġner": 1647,
    "Ġseven": 4542,
    "charlotte": 6473,
    "cottage": 9572,
    "Ġpapa": 10659,
    "Ġac": 843,
    "Ġconcerns": 11972,
    "Ġslabs": 13066,
    "whar": 15931,
    "Ġlatent": 19658,
    "idered": 4553,
    "properly": 24919,
    "Ġclinch": 18432,
    "Ġdetection": 3384,
    "Ġrestore": 9382,
    "oura": 1057,
    "consolation": 15156,
    "Ġmatter": 1734,
    "returning": 12210,
    "sea": 4762,
    "ourably": 14380,
    "Ġlinear": 3435,
    "animated": 14978,
    "Ġmeasureless": 14713,
    "ament": 2436,
    "Ġsympt": 7013,
    "linked": 17595,
    "Ġrecognised": 8998,
    "s": 87,
    "Ġowning": 18746,
    "Ġvehemence": 26568,
    "Ġnow": 691,
    "Ġunbroken": 18251,
    "pet": 4867,
    "Ġbrother": 2750,
    "lee": 11588,
    "Ġsavannah": 17419,
    "Ġuninter": 18247,
    "Ġdemocracy": 25459,
    "Ġinvent": 7164,
    "Ġwilfully": 16768,
    "shuff": 18485,
    "remained": 8572,
    "Ġprop": 1680,
    "Ġnine": 5369,
    "Ġemotion": 7690,
    "complacency": 19916,
    "Ġspurn": 18310,
    "showed": 16026,
    "Ġupp": 13995,
    "heartily": 24218,
    "Ġenormous": 5609,
    "resides": 23671,
    "Ġbrahma": 26321,
    "Ġvindictiveness": 25739,
    "Ġpalsy": 25779,
    "prec": 3204,
    "hollow": 24045,
    "Ġjetted": 24431,
    "ading": 5091,
    "Ġmortified": 14697,
    "Ġdescended": 7427,
    "Ġvalley": 5851,
    "Ġinternal": 2246,
    "Ġscattered": 6855,
    "Ġconfusion": 7272,
    "isa": 17847,
    "ada": 14014,
    "tacit": 21101,
    "Ġolive": 12570,
    "Ġjudgment": 5765,
    "Ġchasing": 11758,
    "Ġoutput": 929,
    "ager": 6547,
    "Ġinnocently": 24033,
    "Ġlastly": 16208,
    "pets": 17638,
    "Ġdependency": 3488,
    "itting": 1152,
    "Ġreaders": 18916,
    "Ġassented": 17341,
    "Ġkelson": 18351,
    "ources": 2792,
    "ributed": 8215,
    "ham": 1701,
    "quarters": 24949,
    "Ġthrobbing": 16900,
    "chamber": 13629,
    "Ġappend": 18364,
    "ercial": 21277,
    "signed": 21064,
    "Ġtong": 4870,
    "endeavoured": 12285,
    "Ġwestmorland": 24390,
    "Ġcatastrop": 3346,
    "Ġhed": 7386,
    "each": 7334,
    "baggage": 24927,
    "otes": 15748,
    "Ġcommission": 6713,
    "Ġthought": 1095,
    "Ġforest": 9874,
    "incible": 16499,
    "Ġknitted": 19592,
    "Ġtire": 17722,
    "Ġthroughout": 8880,
    "whaler": 20312,
    "Ġwedge": 24935,
    "theories": 18081,
    "itch": 10163,
    "letters": 13178,
    "ied": 942,
    "country": 6104,
    "Ġethics": 15465,
    "multiple": 15111,
    "orate": 10802,
    "Ġfort": 2582,
    "Ġwearily": 18180,
    "Ġbolted": 12249,
    "posted": 24636,
    "Ġspake": 18309,
    "Ġswallowed": 7944,
    "Ġforget": 2635,
    "Ġabroad": 8869,
    "Ġxxii": 24478,
    "Ġwes": 8783,
    "Ġthoroughfare": 16946,
    "Ġconversation": 3329,
    "Ġcares": 9369,
    "Ġfainted": 8796,
    "achus": 18284,
    "tis": 4106,
    "Ġgregarious": 18966,
    "Ġmusket": 12300,
    "line": 1439,
    "Ġprotection": 9465,
    "Ġchildhood": 13141,
    "Ġvagabond": 20206,
    "Ġdeem": 18136,
    "Ġbarn": 11590,
    "Ġsociety": 3980,
    "drowned": 17372,
    "ura": 1085,
    "tered": 2228,
    "Ġconcussion": 26301,
    "glances": 23856,
    "Ġearly": 2079,
    "Ġclearer": 16315,
    "come": 2375,
    "Ġpaws": 13924,
    "Ġcrescent": 16139,
    "Ġpredestinated": 18514,
    "acceler": 23600,
    "Ġbore": 5079,
    "Ġsens": 1851,
    "Ġzone": 14364,
    "Ġcucumber": 21359,
    "nants": 17615,
    "lung": 17593,
    "Ġmice": 13862,
    "Ġascribed": 14858,
    "Ġscaling": 3634,
    "Ġknotted": 17021,
    "row": 1067,
    "Ġmoulded": 16977,
    "imin": 1768,
    "gage": 13726,
    "Ġshar": 9253,
    "Ġdevilish": 11230,
    "Ġcontextually": 11962,
    "Ġdiab": 10614,
    "Ġshepherd": 14155,
    "Ġadoration": 18291,
    "Ġcows": 15557,
    "Ġwestward": 24389,
    "Ġcalamities": 25700,
    "Ġverily": 16605,
    "same": 5362,
    "Ġdash": 8122,
    "rosc": 17957,
    "topic": 10530,
    "Ġtoma": 7372,
    "Ġfoes": 11955,
    "barbs": 20240,
    "Ġshamefully": 24715,
    "Ġriot": 14690,
    "Ġtraps": 23084,
    "churning": 21700,
    "mot": 17598,
    "Ġgiving": 4086,
    "Ġclang": 15975,
    "Ġcontrols": 1733,
    "Ġrudeness": 17127,
    "companions": 15026,
    "medium": 23640,
    "Ġsidel": 9638,
    "Ġthreatens": 24375,
    "Ġgum": 21598,
    "Ġ19": 6720,
    "thro": 12766,
    "Ġexultation": 15175,
    "kine": 15379,
    "Ġschooner": 16749,
    "ladies": 9532,
    "Ġfocus": 4239,
    "Ġunicorn": 22061,
    "Ġmor": 1249,
    "Ġmapple": 11152,
    "Ġdl": 3376,
    "Ġostentatiously": 20472,
    "itancy": 21336,
    "Ī": 235,
    "Ġdetaining": 25819,
    "Ġdawned": 14997,
    "warks": 5004,
    "Ġuniversal": 2231,
    "Ġmaids": 19694,
    "Ġhelpless": 8302,
    "sembled": 7262,
    "Ġstead": 5650,
    "physiogn": 26266,
    "Ġinheriting": 25355,
    "Ġidly": 16405,
    "Ġredu": 1356,
    "contained": 22476,
    "Ġfatal": 5872,
    "Ġdance": 4443,
    "Ġjanuary": 13657,
    "Ġunreasoning": 15849,
    "bted": 7793,
    "Ġgoblet": 25824,
    "Ġclassification": 1103,
    "Ġslice": 23163,
    "Ġpanthe": 19656,
    "Ġreinforcement": 3424,
    "ushion": 14723,
    "ifying": 5235,
    "discredit": 24253,
    "Ġbiggest": 24567,
    "income": 15489,
    "sively": 13789,
    ";âĢĻ": 15306,
    "ghost": 20889,
    "Ġswandam": 11090,
    "say": 3986,
    "itude": 1418,
    "attered": 4020,
    "Ġcolt": 11045,
    "rank": 21044,
    "Ġaband": 6562,
    "exposure": 19259,
    "Ġemail": 19074,
    "I": 45,
    "Ġhyperborean": 26341,
    "thousands": 16874,
    "cannib": 11906,
    "Ġdog": 4193,
    "Ġfairly": 6326,
    "Ġsuspicion": 6212,
    "Ġnet": 3629,
    "lun": 20948,
    "Ġbri": 21381,
    "!âĢĶ": 2452,
    "nowhere": 18419,
    "Ġapprehensions": 13408,
    "borrowed": 20794,
    "entle": 1739,
    "Ġslugg": 15272,
    "Ġquit": 5247,
    "planted": 11702,
    "Ġcorps": 13038,
    "Ġwashing": 9708,
    "cil": 8724,
    "ctions": 951,
    "Ġlegend": 14577,
    "Ġbelrive": 18832,
    "Ġlurch": 21558,
    "Ġdaw": 21432,
    "Ġerroneous": 17412,
    "Ġheroic": 14911,
    "feed": 9296,
    "buckets": 26124,
    "rush": 7011,
    "Ġlexicon": 25975,
    "Ġquant": 6424,
    "Ġhospital": 15042,
    "willing": 6593,
    "Ġinfall": 7960,
    "Ġquaker": 10973,
    "stud": 8824,
    "Ġexpired": 18625,
    "Ġpaved": 17913,
    "Ġinjury": 10543,
    "arius": 14251,
    "sharpening": 22458,
    "perceive": 12816,
    "Ġbarrowful": 25596,
    "Ġegress": 21624,
    "Ġspot": 4155,
    "paused": 17377,
    "igh": 2027,
    "Ġplacid": 11830,
    "rest": 1635,
    "Ġsupplement": 23002,
    "Ġdinners": 23985,
    "Ġpl": 743,
    "ness": 851,
    "sav": 8096,
    "hung": 8381,
    "ssed": 3738,
    "Ġinhabitants": 7524,
    "Ġprom": 1522,
    "Ġconvinced": 4207,
    "Ġbecalmed": 18089,
    "Ġstillness": 12997,
    "Ġoverl": 18424,
    "pierced": 26142,
    "face": 3680,
    "Ġregion": 2272,
    "Ġquadrille": 13544,
    "almost": 4943,
    "Ġdreamed": 16632,
    "Ġsorrow": 4628,
    "ately": 1691,
    "omical": 9683,
    "Ġmassive": 9935,
    "tempted": 26405,
    ").âĢĿ": 20743,
    "vely": 3867,
    "ames": 2955,
    "Ġtradesman": 20076,
    "atered": 22011,
    "concealed": 25118,
    "Ġxx": 5492,
    "roused": 16655,
    "Ġbeast": 7179,
    "Ġgangway": 20161,
    "Ġdeclined": 9924,
    "Ġprofit": 14587,
    "roqu": 21537,
    "occupied": 12308,
    "Ġreceiving": 4882,
    "aloud": 17943,
    "Ġsmaller": 1883,
    "Ġpanting": 11605,
    "Ġperpet": 7645,
    "Ġbrutality": 26278,
    "Ġimpenet": 14224,
    "Ġalexander": 17427,
    "whalemen": 10433,
    "Ġhailed": 6407,
    "Ġsignificance": 13285,
    "Ġresides": 22544,
    "Ġaudible": 19883,
    "Ġcomment": 9235,
    "Ġaccompanying": 11306,
    "«": 109,
    "Ġpledge": 11603,
    "Ġawaken": 23588,
    "delights": 19704,
    "Ġcran": 12005,
    "Ġfr": 1695,
    "vess": 7353,
    "Ġfulf": 6772,
    "vine": 10736,
    "Ġpreceded": 13432,
    "susp": 10599,
    "Ġchatting": 24746,
    "Ġexecution": 6926,
    "ody": 1477,
    "clam": 13060,
    "sharks": 14241,
    "itors": 2915,
    "warn": 11545,
    "Ġshipping": 14107,
    "immed": 9220,
    "Ġwaterproof": 19090,
    "macy": 18806,
    "broad": 8646,
    "Ġrenewed": 9541,
    "traversed": 19650,
    "itation": 1779,
    "Ġlobes": 22119,
    "Ġlearnt": 7615,
    "ampled": 18886,
    "idly": 12705,
    "previous": 9764,
    "Ġvexatious": 19784,
    "lanter": 15391,
    "Ġextending": 11026,
    "Ġsenate": 25215,
    "Ġfreely": 7057,
    "she": 1398,
    "Ġaims": 15499,
    "Ġawhile": 13833,
    "Ġspiteful": 19525,
    "Ġworn": 6445,
    "Ġcolouring": 16753,
    "Ġpassenger": 14373,
    "Ġworldly": 16333,
    "Ġpoll": 12034,
    "Ġdiddled": 22670,
    "Ġnarrow": 5086,
    "Ġantelope": 24183,
    "Ġselling": 21227,
    "Ġtaste": 5524,
    "Ġav": 3585,
    "lanterns": 17432,
    "Ġhundreds": 4330,
    "Ġcharmingly": 24224,
    "Ġphara": 23201,
    "Ġdoors": 6418,
    "batt": 20780,
    "aky": 18412,
    "bouton": 17504,
    "elop": 1564,
    "Ġincarn": 11818,
    "Ġyarn": 10870,
    "Ġprofits": 16491,
    "Ġphilosopher": 12188,
    "Ġslack": 8958,
    "Ġsil": 1796,
    "m": 81,
    "Ġbusily": 9386,
    "ippi": 20247,
    "dressed": 10697,
    "Ġbathing": 20202,
    "Ġembodiment": 20531,
    "Ġaffection": 2640,
    "Ġdesperado": 19822,
    "Ġpreserving": 19799,
    "tube": 20414,
    "Ġcheers": 16368,
    "imate": 4224,
    "pre": 649,
    "Ġdoubloon": 6944,
    "Ġpharaoh": 26587,
    "urried": 21707,
    "Ġappo": 8500,
    "Ġflour": 8947,
    "ructed": 7030,
    "Ġhoneymoon": 25646,
    "Ġbountiful": 25945,
    "Ġhoard": 23353,
    "represented": 20198,
    "Ġstoke": 10398,
    "Ġessex": 20130,
    "bounded": 13443,
    "getting": 12972,
    "Ġpore": 21460,
    "Ġunobstructed": 18265,
    "ackinaw": 22425,
    "adel": 15733,
    "Ġhabit": 6771,
    "Ġvintage": 26211,
    "Ġindustry": 18838,
    "indirect": 22376,
    "Ġinquire": 7719,
    "mentioned": 10626,
    "Ġmatrimony": 13639,
    "Ġactually": 5389,
    "Ġfest": 10806,
    "Ġseaman": 8642,
    "Ġendeavours": 8621,
    "caused": 25520,
    "Ġentertaining": 16928,
    "Ġdeser": 3887,
    "Ġnantucket": 2841,
    "Ġcompan": 2172,
    "Ġpeculiarity": 12938,
    "Ġstripping": 23699,
    "inople": 13832,
    "Ġtiles": 17728,
    "Ġthoughtfully": 12985,
    "Ġlong": 794,
    "Ġsc": 531,
    "aples": 20770,
    "daylight": 19057,
    "baboon": 25517,
    "fellows": 12278,
    "Ġhose": 12632,
    "Ġtiny": 11555,
    "slackened": 26095,
    "Ġsucc": 12789,
    "Ġsomewhat": 4897,
    "Ġdoes": 943,
    "Ġhessian": 3552,
    "through": 4026,
    "steps": 9408,
    "plied": 10258,
    "trucks": 25420,
    "giving": 8742,
    "Ġderive": 10397,
    "sford": 5998,
    "Ġescaping": 13138,
    "transformer": 25018,
    "ints": 3419,
    "barn": 17485,
    "Ġmuscles": 12093,
    "Ġresearch": 3348,
    "carries": 19530,
    "Ġcooped": 22586,
    "Ġwhirling": 12253,
    "Ġtufted": 17016,
    "Ġdumbly": 24988,
    "Ġensue": 18191,
    "Ġseething": 18202,
    "oot": 13768,
    "Ġunful": 22015,
    "ppings": 18179,
    "Ġpenalty": 1838,
    "Ġharpooneer": 3774,
    "Ġassembled": 9239,
    "ascended": 24705,
    "Ġlegisl": 23537,
    "Ġcircus": 19093,
    "childhood": 16870,
    "Ġadvances": 13001,
    "wins": 21132,
    "Ġheire": 18039,
    "fe": 676,
    "Ġoakshott": 12234,
    "rane": 17655,
    "lane": 10708,
    "Ġmelbourne": 24291,
    "Ġfright": 3799,
    "Ġgeorgiana": 8629,
    "Ġprovoking": 16745,
    "Ġcheek": 8579,
    "Ġintended": 5548,
    "Ġoftentimes": 20158,
    "Ġchambers": 16801,
    "Ġgleams": 17313,
    "Ä": 133,
    "Ġabsor": 8506,
    "Ġremembrance": 8318,
    "Ġsheaves": 22162,
    "Ġbrush": 17866,
    "70": 17478,
    "politeness": 16908,
    "determined": 9082,
    "Ġsqueaking": 26276,
    "Ġgothic": 18002,
    "Ġsallied": 12542,
    "otam": 21802,
    "chers": 11319,
    "ered": 1682,
    "Ġbullion": 24986,
    "determination": 19948,
    "leg": 2817,
    "Ġother": 758,
    "astonishment": 10033,
    "Ġhealthcare": 8016,
    "Ġbitterly": 8315,
    "keeper": 5597,
    "omy": 6249,
    "Ġshrinking": 14808,
    "Ġflowery": 16236,
    "Ġrelentless": 26279,
    "Ġenergy": 2554,
    "Ġcattle": 12577,
    "okingly": 22382,
    "halfway": 24313,
    "orn": 2242,
    "Ġwaste": 9237,
    "Ġeldest": 6572,
    "Ġdupl": 9957,
    "Ġfolk": 10378,
    "ue": 1179,
    "Ġsauc": 15891,
    "Ġthom": 21519,
    "Ġattacks": 12209,
    "Ġcherry": 16937,
    "Ġmakes": 3654,
    "Ġatom": 18193,
    "Ġjohnson": 18410,
    "concerning": 9070,
    "when": 1591,
    "Ġwell": 902,
    "Ġardently": 9501,
    "think": 3612,
    "Ġdeline": 16336,
    "Ġscaramouch": 23831,
    "battle": 12446,
    "ileries": 18061,
    "Ġloathsome": 13531,
    "Ġneighb": 14079,
    "blot": 20785,
    "Ġvices": 14086,
    "Ġlane": 5627,
    "Ġguineas": 16274,
    "Ġpeeled": 14321,
    "scores": 22992,
    "Ġgoodge": 22826,
    "Ġbristol": 14383,
    "quer": 11683,
    "Ġcoronet": 6345,
    "haz": 17566,
    "eted": 7592,
    "Ġtaurus": 21181,
    "Ġcharity": 8866,
    "lives": 12490,
    "Ġbeautiful": 3674,
    "whenever": 11885,
    "Ġpref": 14174,
    "hack": 20898,
    "hairs": 20906,
    "Ġnod": 1888,
    "ouched": 4636,
    "Ġlarboard": 11011,
    "protection": 19922,
    "Ġapplies": 11963,
    "Ġperceived": 4713,
    "tanh": 5204,
    "iter": 4393,
    "lant": 20949,
    "Ġsymptom": 13487,
    "Ġlawy": 9458,
    "holmes": 4432,
    "Ġsepulchre": 20562,
    "irons": 10241,
    "Ġinto": 648,
    "Ġfranc": 16354,
    "connected": 1310,
    "Ġundoubtedly": 8313,
    "luded": 4232,
    "Ġwinking": 17795,
    "Ġassistant": 7297,
    "!âĢĻâĢĿ": 16594,
    "Ġtriumphantly": 11289,
    "ration": 2003,
    "Ġinscribed": 24941,
    "rail": 10207,
    "Ġsettles": 22923,
    "besides": 8699,
    "Ġbabel": 24426,
    "does": 6195,
    "Ġefforts": 11807,
    "Ġcopper": 7424,
    "Ġflattered": 10377,
    "Ġfurnish": 9022,
    "Ġdecisions": 6703,
    "Ġfresher": 23212,
    "....": 11318,
    "Ġinj": 4759,
    "imony": 12695,
    "Ġmal": 5221,
    "dick": 11481,
    "Ġtumbling": 13828,
    "Ġpiece": 5367,
    "Ġwreck": 7313,
    "Ġbacks": 8530,
    "Ġchatbots": 11351,
    "tic": 8391,
    "Ġstraightway": 9020,
    "vishnoo": 21122,
    "ensing": 12904,
    "lit": 9608,
    "Ġscarcely": 4010,
    "arctic": 12615,
    "waiter": 24587,
    "ilet": 12834,
    "!âĢĶâĢĻ": 23566,
    "Ġfascinated": 25636,
    "an": 278,
    "Ġtear": 6724,
    "Ġstaying": 8284,
    "ting": 1334,
    "Ġderision": 16312,
    "Ġerudite": 26353,
    "superstitious": 17283,
    "zz": 4295,
    "Ġexperiments": 23024,
    "combined": 20323,
    "Ġred": 3005,
    "Ġquitting": 7646,
    "Ġoptim": 782,
    "a": 69,
    "Ġobstructed": 24678,
    "hosmer": 25903,
    "Ġpropose": 9856,
    "Ġbohem": 8528,
    "Ġunlikely": 10910,
    "Ġcompanionship": 14923,
    "Ġfleece": 10617,
    "Ġcries": 7154,
    "Č": 205,
    "Ġlate": 3377,
    "ergy": 2360,
    "be": 668,
    "favouring": 24761,
    "isive": 10795,
    "Ġgreatly": 5850,
    "vic": 13805,
    "Ġbison": 21391,
    "straw": 24100,
    "Ġpubl": 3941,
    "Ġware": 12559,
    "Ġbrooded": 23107,
    "Ġappearances": 10453,
    "Ġlandscape": 12421,
    "Ġlatitude": 8329,
    "Ġlamps": 14795,
    "Ġcable": 11583,
    "Ġaft": 5737,
    "Ġcommunicative": 24548,
    "Ġvital": 9246,
    "Ġyesterday": 5333,
    "Ġeaten": 14848,
    "admitted": 18094,
    "mercenary": 26316,
    "Ġdisgrace": 7214,
    "fanc": 20866,
    "holding": 7738,
    "Ġpoignant": 22599,
    "mentioning": 24886,
    "Ġdundee": 16999,
    "Ġleads": 12101,
    "Ġtransitory": 16022,
    "Ġblankets": 24612,
    "istle": 15874,
    "removing": 17766,
    "Ġroom": 1462,
    "Ġlid": 6983,
    "Ġdiscussing": 5202,
    "volume": 18607,
    "anelles": 26436,
    "Ġstress": 18069,
    "Ġtimidly": 11340,
    "avenza": 17104,
    "evening": 7090,
    "Ġbeech": 18085,
    "Ġarsac": 11746,
    "Ġdefinition": 14407,
    "Ġimpl": 7194,
    "Ġsubsets": 2344,
    "Ġmeas": 1098,
    "b": 70,
    "expression": 10550,
    "Ġsuffocated": 20730,
    "o": 83,
    "Ġsplendid": 17216,
    "Ġspeed": 2444,
    "Ġcaring": 23095,
    "oug": 432,
    "web": 18665,
    "binary": 20786,
    "Ġgentleness": 8713,
    "u": 89,
    "Ġoperation": 12003,
    "boy": 4737,
    "Ġchaldee": 26236,
    "Ġdrow": 21429,
    "for": 964,
    "unciation": 25983,
    "Ġprofane": 13156,
    "ipper": 13743,
    "arising": 17897,
    "Ġpredicting": 2412,
    "prevent": 11799,
    "Ġdivergence": 2729,
    "Ġdil": 6383,
    "------": 12138,
    "july": 20478,
    "Ġstunsail": 25544,
    "hem": 6665,
    "Ġtin": 15466,
    "Ġchild": 2260,
    "uous": 4145,
    "windibank": 24164,
    "heed": 15501,
    "respectively": 24699,
    "Ġhoarse": 14527,
    "dreadful": 11423,
    "Ġgroans": 14827,
    "tie": 21071,
    "Ġupright": 8495,
    "ved": 868,
    "Ġtune": 17727,
    "class": 4097,
    "ingolstadt": 21306,
    "Ġrefuge": 8542,
    "system": 4205,
    "Ġpeg": 22692,
    "84": 15305,
    "Ġtremendous": 8353,
    "ffy": 18318,
    "Ġbelieve": 2146,
    "height": 21208,
    "Ġtying": 15476,
    "Ġpredictions": 1453,
    "Ġtolerably": 8068,
    "zetts": 17716,
    "Ġbeaches": 18087,
    "uttermost": 24943,
    "Ġinvestigated": 25387,
    "Ġinfirm": 19018,
    "Ġflapped": 23016,
    "Ġloite": 22115,
    "gabriel": 15364,
    "Ġman": 544,
    "Ġ108": 19687,
    "Ġeducation": 5128,
    "Ġbaw": 15573,
    "Ġdoxology": 22248,
    "overing": 6307,
    "Ġconfirms": 23309,
    "scept": 21056,
    "Ġperf": 12855,
    "stopping": 19353,
    "Ġallen": 5160,
    "Ġconfirm": 9859,
    "ette": 15663,
    "Ġunhinged": 26218,
    "Ġtreating": 4286,
    "Ġcompass": 4410,
    "mult": 8751,
    "hearse": 17750,
    "Ġbloodshot": 23802,
    "Ġconsternation": 9862,
    "anybody": 12087,
    "Ġleak": 2160,
    "Ġlav": 13952,
    "Ġfamine": 16331,
    "Ġexhib": 6350,
    "people": 7677,
    "Ġle": 333,
    "wond": 8772,
    "rise": 6227,
    "coronet": 16865,
    "Ġstil": 15722,
    "Ġacutely": 14317,
    "promised": 12256,
    "Ġpleasanter": 19067,
    "Ġbeck": 14012,
    "Ġpassage": 3885,
    "Ġhypotheses": 4388,
    "Ġswim": 3822,
    "agues": 8161,
    "Ġrecommended": 8671,
    "darkness": 9515,
    "Ġbrotherly": 16530,
    "Ġapplications": 4782,
    "necessity": 13372,
    "Ġloosed": 22116,
    "Ġperv": 15994,
    "Ġissuing": 16950,
    "rect": 1599,
    "houses": 9602,
    "from": 1990,
    "Ġsurgeon": 8984,
    "Ġexempl": 21834,
    "influence": 13582,
    "Ġumb": 11649,
    "Ġmeadow": 17154,
    "utmost": 21591,
    "accompan": 11454,
    "Ġagreed": 7029,
    "ough": 471,
    "Ġalleghan": 25796,
    "Ġcre": 888,
    "entiating": 3440,
    "Ġcottage": 4733,
    "Ġcontemptuously": 19836,
    "Ġsurviv": 13439,
    "Ġinquest": 16550,
    "Ġplunged": 8696,
    "Ġmess": 7831,
    "Ġill": 2191,
    "Ġdisenc": 22530,
    "Ġeternally": 11371,
    "jaws": 20934,
    "Ġgnashed": 20136,
    "Ġencountering": 11271,
    "Ġbegun": 7242,
    "Ġshoulders": 5566,
    "Ġunrecord": 16623,
    "Ġbery": 13901,
    "Ġsimilarity": 3169,
    "idy": 21768,
    "Ġside": 1389,
    "Ġfore": 2152,
    "Ġaverage": 3141,
    "Ġge": 1978,
    "ele": 9117,
    "Ġtart": 12532,
    "Ġslit": 13062,
    "Ġfurled": 22815,
    "commod": 16174,
    "urmountable": 15283,
    "Ġhasten": 10480,
    "abst": 21792,
    "Ġsentimental": 24753,
    "Ġimproves": 22757,
    "slo": 17658,
    "Ġvengeance": 5885,
    "pat": 10119,
    "ĠĠĠĠĠĠĠĠĠĠĠĠĠĠĠĠĠĠĠĠĠĠĠĠĠ": 24442,
    "Ġpresenting": 18988,
    "Ġlot": 6679,
    "Ġagreeing": 20022,
    "ture": 7558,
    "knows": 19174,
    "Ġparac": 12800,
    "Ġlac": 17967,
    "Ġperiodically": 19497,
    "brimming": 23579,
    "engineer": 23151,
    "Ġrepresentation": 14408,
    "pagan": 17288,
    "stars": 18022,
    "Ġanchor": 7367,
    "withdrawn": 23031,
    "elze": 21576,
    "create": 24162,
    "Ġconsists": 11982,
    "Ġsog": 22088,
    "gus": 13728,
    "Ġmonomaniac": 9571,
    "networks": 2403,
    "Ġdecember": 15009,
    "aling": 1032,
    "Ġlowering": 7987,
    "Ġpyramids": 15118,
    "sweetly": 25137,
    "err": 1142,
    "Ġglobe": 6076,
    "Ġacqu": 1417,
    "Ġchambermaid": 24306,
    "Ġsgd": 3132,
    "dropout": 3198,
    "thodox": 21992,
    "Ġguided": 10462,
    "Ġlead": 3525,
    "hot": 8084,
    "unguarded": 23668,
    "sullen": 17671,
    "speps": 14336,
    "Ġstubborn": 10416,
    "Ġfitness": 24004,
    "despatched": 19804,
    "Ġmonument": 16242,
    "Ġconfining": 23306,
    "Ġtag": 15471,
    "Ġdeeply": 4716,
    "sword": 10728,
    "paradise": 20640,
    "Ġsings": 15508,
    "Ġ116": 24440,
    "Ġeverybody": 4511,
    "iline": 21724,
    "relate": 24016,
    "aff": 3103,
    "shipped": 18487,
    "ellest": 21577,
    "neighbourhood": 10028,
    "gunpowder": 25340,
    "equal": 14996,
    "compass": 9463,
    "Ġinterpretation": 19719,
    "oin": 17619,
    "strike": 14952,
    "fail": 17542,
    "Ġlevelled": 11286,
    "Ġinfirmity": 26299,
    "Ġfishermen": 5971,
    "Ġconsc": 4277,
    "Ġelias": 18634,
    "cater": 20818,
    "end": 497,
    "Ġaffair": 4464,
    "Ġscornful": 24999,
    "ositions": 10286,
    "Ġhearties": 18968,
    "cloudless": 20335,
    "Ġmainly": 22652,
    "cain": 15329,
    "profound": 16428,
    "inferior": 12398,
    "Ġnecessity": 7295,
    "learning": 2658,
    "combe": 7662,
    "Ġprayers": 12128,
    "knight": 20942,
    "Ġg": 310,
    "Ġaffright": 9335,
    "Ġgod": 1935,
    "elab": 21573,
    "ip": 553,
    "give": 4688,
    "ateral": 19380,
    "Ġsucceeded": 6106,
    "landsmen": 25062,
    "Ġwrig": 13073,
    "Ġgrate": 12969,
    "Ġrights": 10399,
    "Ġdescend": 7426,
    "distrust": 19573,
    "isol": 17848,
    "Ġdiscovering": 13362,
    "ind": 567,
    "deformity": 22150,
    "Ġscorched": 17102,
    "Ġenter": 4032,
    "Ġagreeably": 24955,
    "Ġbelieves": 14410,
    "Ġvulgarity": 25364,
    "Ġinspire": 12000,
    "Ġostens": 25276,
    "Ġpersevering": 20236,
    "Ġtinkling": 25213,
    "ated": 729,
    "tedious": 22635,
    "Ġbestowed": 6594,
    "better": 7120,
    "Ġdiagon": 24739,
    "Ġfields": 2143,
    "theast": 21752,
    "Ġ9": 5901,
    "Ġtransform": 734,
    "comfortableness": 24525,
    "Ġemerged": 8688,
    "Ġax": 7822,
    "Ġaccommod": 14215,
    "Ġfow": 6134,
    "Ġgot": 2279,
    "Ġswish": 23056,
    "ifix": 21907,
    "hue": 20901,
    "Ġforming": 7043,
    "sn": 7139,
    "positive": 20570,
    "Ġproced": 2583,
    "Ġmanifold": 13564,
    "Ġdeduced": 12212,
    "Ġ120": 16860,
    "Ġuncivil": 11157,
    "band": 3060,
    "Ġdrives": 14580,
    "Ġcrowned": 16843,
    "superiority": 20188,
    "Ġcyp": 21348,
    "Ġpear": 11856,
    "proposal": 18757,
    "admit": 18093,
    "ĠâĢľ": 516,
    "saving": 21062,
    "Ġpreyed": 18367,
    "tstone": 21087,
    "oting": 2746,
    "Ġshades": 9466,
    "Ġobstinate": 11338,
    "Ġfaces": 6009,
    "chain": 18042,
    "Ġgri": 17990,
    "stat": 21647,
    "Ġstrenuously": 17451,
    "Ġgrazed": 15837,
    "\",": 10681,
    "Ġinspirited": 23424,
    "Ġarrogance": 26233,
    "sies": 21057,
    "Ġrests": 13097,
    "Ġspent": 3966,
    "Ġtusked": 25427,
    "Ġpitching": 16613,
    "Ġcorrect": 2429,
    "Ġ24": 13197,
    "flutterings": 26608,
    "Ġresounds": 22546,
    "Ġglories": 16244,
    "Ġblameless": 19861,
    "Ġinquir": 4245,
    "Ġseethings": 26505,
    "Ġbleak": 10561,
    "Ġbear": 3660,
    "Ġwore": 6377,
    "¬": 110,
    "intention": 10370,
    "Ġacquire": 2725,
    "urday": 13998,
    "Ġarr": 1799,
    "ington": 21304,
    "Ġ53": 19638,
    "Ġgorge": 13570,
    "Ġeasiest": 23540,
    "Ġquaff": 22418,
    "Ġhas": 825,
    "Ġcoincidence": 25484,
    "blows": 17168,
    "Ġmeagre": 21814,
    "zes": 11551,
    "Ġopening": 5045,
    "Ġmental": 21322,
    "harbor": 13568,
    "Ġfrank": 4421,
    "inhab": 10759,
    "Ġrooted": 13173,
    "yder": 10141,
    "Ġjonah": 3481,
    "orough": 5700,
    "Ġembedding": 2103,
    "aborate": 14025,
    "ount": 1114,
    "Ġstrictly": 12289,
    "tering": 3809,
    "slee": 17171,
    "hatred": 24818,
    "Ġevery": 927,
    "Ġmic": 17799,
    "olstadt": 7788,
    "Ġlove": 2052,
    "iary": 15374,
    "Ġrelevance": 5184,
    "Ġcasualty": 20344,
    ";--": 8069,
    "inkle": 22620,
    "hearts": 13349,
    "..": 5783,
    "Ġcurrents": 13029,
    "Ġmention": 2986,
    "Ġpersonal": 7479,
    "opy": 4459,
    "stige": 21664,
    "Ġhoping": 11105,
    "Ġsuperhuman": 23455,
    "Ġobjective": 3768,
    "Ġloveliest": 20264,
    "resolution": 17768,
    "Ġroar": 9754,
    "onse": 21252,
    "Ġschool": 5512,
    "Ġshoots": 14570,
    "Ġaway": 1242,
    "promontory": 24727,
    "Ġsobbing": 14138,
    "Ġjollies": 20373,
    "Ġdestitute": 14568,
    "Ġguiding": 19243,
    "penetrating": 25491,
    "ĠĠĠĠĠĠĠĠĠĠĠĠĠĠĠĠĠĠĠĠĠĠĠĠĠĠĠĠĠĠĠĠĠĠĠĠĠĠĠĠ": 4517,
    "tr": 3583,
    "pulous": 15419,
    "stories": 18026,
    "Ġmccauley": 26429,
    "Ġpossibly": 4514,
    "Ġappeal": 16317,
    "dled": 9114,
    "lines": 6958,
    "Ġnurse": 9520,
    "Ġdevotedly": 24749,
    "ston": 15687,
    "Ġbulb": 23858,
    "Ġbulls": 23861,
    "contented": 14636,
    "Ġgpus": 3736,
    "Ġstre": 2108,
    "Ġkent": 6692,
    "imodal": 17450,
    "Ġphantom": 8710,
    "iracle": 11245,
    "screwed": 17190,
    "Ġmenaces": 23110,
    "Ġapproached": 5844,
    "Ķ": 247,
    "Ġincarnate": 20378,
    "Ġstray": 18072,
    "nut": 12499,
    "Ġtren": 17723,
    "not": 910,
    "ath": 861,
    "Ġwhitish": 24867,
    "Ġchast": 18381,
    "Ġdeaths": 14538,
    "Ġdisposition": 5409,
    "marest": 20982,
    "dawson": 26129,
    "pale": 13775,
    "Ġesteem": 7531,
    "emin": 8471,
    "Ġphiladelphia": 26606,
    "Ġdictator": 20156,
    "Ġpoker": 13925,
    "âĢĿ)": 21815,
    "Ġdecide": 9290,
    "isis": 12584,
    "Ġjoyously": 19350,
    "Ġwindward": 6884,
    "metic": 14987,
    "ples": 6844,
    "coun": 10690,
    "seek": 8841,
    "Ġenlivened": 26209,
    "Ġinexper": 16982,
    "Ġan": 286,
    "darcy": 5208,
    "Ġedinburgh": 16458,
    "log": 18538,
    "summit": 23420,
    "impul": 16559,
    "Ġuncertain": 4069,
    "Ġ55": 24319,
    "Ġimpulses": 19965,
    "Ġoars": 3898,
    "Ġcongrat": 5828,
    "str": 2581,
    "Ġunusual": 6554,
    "Ġexcl": 3476,
    "apparat": 22849,
    "Ġrespect": 1669,
    "Ġnecess": 3477,
    "Ġcomple": 2843,
    "Ġalert": 18104,
    "ssian": 3400,
    "Ġabstra": 22275,
    "Ġchuckled": 10650,
    "inkled": 5477,
    "missing": 13224,
    "Ġrecollections": 10515,
    "Ġ45": 14774,
    "inclined": 10642,
    "Ġdeplored": 20508,
    "Ġcapacity": 10442,
    "Ġsodden": 25536,
    "Ġrachel": 11851,
    "Ġsabbath": 17257,
    "Ġproudly": 19745,
    "aways": 15314,
    "namely": 23695,
    "accessory": 25500,
    "Ġaforethought": 25429,
    "unhappy": 10240,
    "duchess": 18464,
    "victim": 25531,
    "red": 396,
    "comprehens": 16175,
    "Ġwil": 4580,
    "jee": 17581,
    "Ġprudent": 9187,
    "Ġadmirer": 16840,
    "flung": 16641,
    "Ġmorose": 18845,
    "Ġardu": 22182,
    "hroom": 12481,
    "Ġsplendidly": 25328,
    "Ġhell": 5019,
    "que": 1143,
    "Ġlivelong": 25512,
    "Ġbottle": 7490,
    "gale": 13727,
    "Ġlethargy": 26485,
    "quished": 21858,
    "discover": 10542,
    "Ġsmitten": 12907,
    "Ġcolumb": 22859,
    "Ġanonym": 17899,
    "Ġtorrents": 20059,
    "utter": 7594,
    "Ġhorsey": 24252,
    "Ġsincerely": 7963,
    "adding": 21765,
    "iated": 5890,
    "Ġabsolutely": 4858,
    "Ġmuster": 16126,
    "Ġliterature": 17151,
    "Ġallegro": 25795,
    "Ġconcern": 2657,
    "Ġcircle": 4977,
    "Ġrecounted": 22738,
    "Ġmud": 11576,
    "Ġundeniable": 26512,
    "Ġdebts": 8036,
    "warm": 8102,
    "Ġholy": 6592,
    "Ġidle": 8253,
    "Ġforgo": 21777,
    "Ġvineyards": 25109,
    "sutherland": 21065,
    "Ġlayer": 1012,
    "thread": 15830,
    "Ġdetails": 6566,
    "Ġmove": 5107,
    "Ġsoil": 9258,
    "Ġmarriage": 3190,
    "prodig": 16429,
    "izes": 883,
    "angel": 5726,
    "gins": 12473,
    "Ġcapsized": 20093,
    "Ġmarling": 23037,
    "Ġmotion": 4566,
    "indirectly": 18438,
    "Ġwhiting": 10861,
    "sequ": 2399,
    "Ġwhitney": 11375,
    "simon": 16975,
    "Ġtemptations": 24508,
    "Ġcured": 21350,
    "Ġcassock": 20490,
    "Ġelapsed": 7653,
    "contrasted": 17309,
    "Ġprojects": 9514,
    "Ġjoyous": 14666,
    "rip": 9244,
    "retrie": 18926,
    "Ġincognita": 26553,
    "Ġdiscove": 16159,
    "visitor": 15060,
    "ustom": 3792,
    "encoura": 15051,
    "ring": 1752,
    "itations": 17819,
    "repent": 15516,
    "wand": 10740,
    "Ġbrace": 11213,
    "whilst": 18372,
    "Ġabounding": 12348,
    "Ġcraft": 4378,
    "Ġberyls": 25776,
    "Ġmild": 4147,
    "Ġvigil": 9510,
    "ol": 362,
    "frequently": 9982,
    "Ġextinction": 14339,
    "Ġresources": 2939,
    "Ġhimmale": 18335,
    "Ġhighway": 14351,
    "cious": 6645,
    "Ġripp": 11221,
    "Ġpict": 3499,
    "Ġtimidity": 24688,
    "Ġpresumption": 10548,
    "aciousness": 18568,
    "tornadoes": 26154,
    "Ġunparalleled": 15857,
    "ping": 9618,
    "Ġencourag": 1394,
    "relics": 24020,
    "arthy": 4823,
    "Ġholes": 16410,
    "oil": 7805,
    "stately": 18024,
    "Ġvideo": 25366,
    "Ġpeninsula": 23198,
    "Ġcharacteristically": 23693,
    "Ġpaltry": 16693,
    "settled": 10509,
    "Ġmisfortunes": 7042,
    "Ġregions": 10327,
    "Ġbundle": 13430,
    "begged": 18520,
    "lashed": 20956,
    "Ġwidth": 16774,
    "Ġremembering": 14612,
    "Ġrocked": 12858,
    "Ġsquad": 22840,
    "paint": 21020,
    "Ġwall": 3844,
    "Ġmortal": 4681,
    "Ġswept": 7978,
    "interests": 19711,
    "Ġglistening": 12369,
    "Ġbegrimed": 26580,
    "Ġpurposes": 11170,
    "Ġlagged": 21561,
    "Ġdarcy": 1343,
    "Ġwip": 13856,
    "Ġaccelerating": 1620,
    "Ġ=": 1074,
    "Ġserious": 4324,
    "windward": 24163,
    "Ġmagnanimous": 17414,
    "Ġtepid": 26414,
    "sher": 5217,
    "Ġpresence": 5031,
    "Ġcame": 1301,
    "ep": 441,
    "Ġbeh": 1801,
    "whispering": 26104,
    "tend": 17676,
    "Ġwheelbarrow": 17207,
    "pher": 11514,
    "aphs": 22340,
    "asional": 17962,
    "Ġdropped": 4472,
    "tied": 21073,
    "Ġflu": 3278,
    "shavings": 22457,
    "Ġactions": 6279,
    "displeasure": 23499,
    "Ġtam": 7821,
    "Ġassured": 4374,
    "Ġshel": 6846,
    "Ġalluding": 18237,
    "encouragement": 17426,
    "Ġbracelets": 25503,
    "Ġpewter": 17188,
    "Ġforegoing": 23451,
    "uneasy": 23688,
    "Ġunearthly": 9039,
    "arrested": 15605,
    "elements": 25204,
    "Ġprocopius": 19734,
    "Ġinwards": 15625,
    "E": 41,
    "4": 24,
    "Ġadam": 2128,
    "Ġguilt": 6180,
    "Ġimmersed": 19488,
    "Ġpaunch": 23753,
    "Ġporus": 24398,
    "Ġmeek": 21813,
    "turning": 8317,
    "Ġpauses": 14818,
    "bottom": 11428,
    "Ġsimilar": 4918,
    "Ġreckoned": 24743,
    "Ġtempest": 8214,
    "Ġnervous": 2402,
    "Ġdiscomposure": 20382,
    "Ġotherwise": 4657,
    "Ġtim": 4578,
    "eh": 13713,
    "principle": 10653,
    "Ġfriesland": 26444,
    "Ġpresentation": 14483,
    "comed": 8546,
    "Ġfatt": 15583,
    "č": 206,
    "Ġinjuring": 24271,
    "Ġmiz": 10779,
    "aying": 15753,
    "Ġfamily": 1964,
    "âĢľ_": 5720,
    "Ġgermany": 25786,
    "antee": 22101,
    "mathemat": 19139,
    "mary": 8752,
    "Ġfret": 10808,
    "Ġdied": 4112,
    "seldom": 13790,
    "ult": 722,
    "Ġoverwhel": 8196,
    "sustained": 20571,
    "doubt": 6782,
    "pleasures": 24051,
    "circumspect": 26087,
    "attracted": 13056,
    "Ġrespectful": 16348,
    "Ġattribute": 16101,
    "kily": 20939,
    "unwittingly": 25802,
    "Ġtrick": 7019,
    "Ġwelcome": 5604,
    "shaven": 18488,
    "Ġcertainty": 6735,
    "Ġuttered": 7279,
    "Ġindiscreet": 22959,
    "Ġfowler": 16939,
    "safe": 10057,
    "Ġbox": 5109,
    "Ġspoon": 22139,
    "gallantry": 15061,
    "Ġreplace": 14479,
    "Ġeighteen": 11240,
    "Ġdiffidence": 14661,
    "bedded": 12447,
    "Ġunreserved": 19400,
    "unhes": 21879,
    "ak": 537,
    "romeda": 17265,
    "bon": 13688,
    "Ġhelter": 24030,
    "olently": 15761,
    "tails": 21089,
    "traces": 24336,
    "Ġcens": 8414,
    "bloom": 24690,
    "ek": 1905,
    "Ġgoblets": 20522,
    "gaining": 20127,
    "pent": 3494,
    "Ġtossings": 25357,
    "oriously": 17876,
    "accepting": 20138,
    "Ġmeddling": 21323,
    "Ġoriginated": 24125,
    "unimportant": 18162,
    "feit": 16046,
    "Ġwhales": 1825,
    "Ġhero": 5715,
    "ö": 183,
    "hook": 12057,
    "Ġpenetrate": 12274,
    "ipagos": 22352,
    "Ġcongratulations": 10583,
    "omitted": 18019,
    "Ġmaria": 7125,
    "anced": 1359,
    "flakes": 23971,
    "Ġlucy": 17972,
    "host": 5868,
    "Ġautonom": 10417,
    "Ġforenoon": 19127,
    "Ġbus": 1902,
    "someone": 14566,
    "Ġvery": 637,
    "Ġpertin": 18450,
    "oken": 4309,
    "L": 48,
    "âĢĿâĢĶ": 5721,
    "Ġstocks": 23179,
    "Ġdomains": 6615,
    "Ġundaunted": 24122,
    "Ġfluctuations": 5516,
    "Ġcredit": 4819,
    "Ġobsequious": 17407,
    "Ġrequest": 6051,
    "Ġgain": 4828,
    "Ġjac": 1896,
    "Ġchristendom": 16696,
    "Ġmasked": 3698,
    "Ġresolves": 23649,
    "Ġvalid": 1709,
    "Ġsouthwards": 19636,
    "Ġdraw": 3673,
    "neurons": 3137,
    "Ġstore": 8455,
    "revival": 26163,
    "Ġbust": 10170,
    "Ġdescribe": 2768,
    "osite": 4893,
    "Ġhairs": 13235,
    "harpoon": 9494,
    "officers": 10630,
    "nel": 11507,
    "Ġsash": 17756,
    "Ġoverpower": 12846,
    "vanity": 24977,
    "useless": 14596,
    "Ġwhelmed": 26000,
    "Ġvow": 10249,
    "cim": 8723,
    "tree": 11536,
    "Ġknock": 9976,
    "Ġdeceit": 13485,
    "Ġfly": 3870,
    "Ġlover": 7192,
    "Ġinjuries": 11279,
    "Ġsaxon": 25469,
    "mountains": 15184,
    "Ġcruellest": 19661,
    "l": 80,
    "iven": 1235,
    "Ġswamp": 14439,
    "Ġpair": 5706,
    "bellies": 19977,
    "Ġprairie": 8716,
    "wished": 13808,
    "Ġscolded": 25473,
    "Ġbitten": 21393,
    "wandering": 20287,
    "Ġprint": 18971,
    "explanations": 25235,
    "Ġalleviated": 26205,
    "man": 1051,
    "plumed": 21965,
    "announced": 19762,
    "Ġeffective": 1248,
    "Ġunaccount": 22031,
    "Ġshrubbery": 18233,
    "[_": 5131,
    "Ġstraw": 9432,
    "float": 19808,
    "Ġdreadfully": 7725,
    "Ġbeak": 18082,
    "Ġpond": 13919,
    "Ġengland": 3858,
    "Ġdisobedience": 22539,
    "Ġsour": 21219,
    "mess": 13756,
    "bag": 7542,
    "Ġencourages": 2060,
    "Ġvehement": 16205,
    "Ġportra": 9012,
    "absolute": 17125,
    "Ġcounsell": 25385,
    "harmony": 25751,
    "Ġmonarchs": 25851,
    "ond": 1162,
    "Ġcontains": 2796,
    "Ġcontracted": 12865,
    "Ġdevoutly": 25834,
    "Ġencaps": 12967,
    "Ġhelmet": 19690,
    "Ġcaliforn": 14434,
    "utions": 1889,
    "borough": 20787,
    "operation": 13504,
    "judgment": 16755,
    "Ġess": 5691,
    "grees": 20888,
    "Ġattic": 16099,
    "there": 1424,
    "Ġliveliest": 24774,
    "Ġnew": 1198,
    "goose": 19103,
    "Ġmaketh": 15191,
    "Ġmutually": 23960,
    "Ġcarried": 3697,
    "Ġtone": 4041,
    "Ġacted": 7421,
    "Ġregain": 22591,
    "Ġservice": 6471,
    "×": 152,
    "Ġpick": 4259,
    "Ġloved": 4599,
    "Ġtrunk": 7204,
    "ij": 7801,
    "train": 2032,
    "Ġsurmount": 20004,
    "Ġreflections": 5947,
    "sorting": 17006,
    "Ġsea": 1209,
    "kitty": 10108,
    "car": 4214,
    "Ġgrunt": 18737,
    "burnt": 20083,
    "Ġsimplicity": 2924,
    "Ġmarty": 20293,
    "Ġsoutherly": 23336,
    "Ġpots": 9431,
    "erringly": 16215,
    "Ġelijah": 9103,
    "probably": 10023,
    "allowing": 24358,
    "ull": 1431,
    "Ġcomput": 601,
    "Ġpersisting": 18885,
    "Ġgang": 9210,
    "Ġpopularly": 12246,
    "Ġsquared": 1385,
    "crowning": 25749,
    "istol": 6260,
    "Ġglove": 14493,
    "Ġgirl": 3088,
    "quit": 15766,
    "thoroughly": 26510,
    "Ü": 157,
    "_,âĢĻ": 12437,
    "Ġneedn": 19231,
    "ineer": 11706,
    "udg": 22751,
    "Ġkicked": 10584,
    "obtain": 23097,
    "puzzling": 26144,
    "Ġstumbling": 21746,
    "Ġbrink": 18770,
    ".)": 6783,
    "cun": 20797,
    "Ġmonitors": 3159,
    "Ġarrayed": 25665,
    "Ġsignals": 10588,
    "Ġendurance": 23139,
    "Ġalthough": 4151,
    "Ġchoking": 15938,
    "Ġnib": 13943,
    "levi": 7048,
    "tea": 18743,
    "Ġpump": 12626,
    "Ġfilling": 13412,
    "Ġhawsers": 26504,
    "Ġunrecorded": 17470,
    "Ġbefore": 810,
    "aware": 16298,
    "Ġdetested": 14180,
    "Ġcompact": 2262,
    "justine": 7683,
    "extremely": 26265,
    "find": 6953,
    "flood": 19809,
    "Ġintrospect": 15832,
    "Ġpointing": 5661,
    "ensical": 18571,
    "ines": 674,
    "Ġdy": 2529,
    "ede": 21509,
    "Ġfortunes": 12183,
    "Ġheeds": 24520,
    "ositories": 22268,
    "Ġcoronation": 13338,
    "Ġabridged": 26542,
    "Ġpartiality": 9401,
    "Ġminimizes": 2044,
    "Ġclay": 7020,
    "abases": 3006,
    "Ġyourself": 2596,
    "Ġdirect": 1470,
    "Ġhaven": 8475,
    "Ġsetbacks": 11065,
    "Ġsolemnly": 8023,
    "vellers": 16676,
    "Ġpromote": 23195,
    "Ġuntidy": 23526,
    "revealed": 20419,
    "Ġguns": 16778,
    "Ġmarket": 7708,
    "rocket": 13947,
    "Ġlater": 6017,
    "Ġsoon": 1227,
    "Ġstuck": 9223,
    "problems": 11436,
    "original": 9088,
    "swe": 5996,
    "Ġdeclining": 23967,
    "pardonable": 17220,
    "seemed": 4306,
    "Ġvir": 7001,
    "Ġbank": 4877,
    "Ġcitadel": 25439,
    "Ġclaws": 15979,
    "Ġantique": 19554,
    "Ġfixedly": 19250,
    "Ġxlvi": 25591,
    "Ĥ": 229,
    "Ġexpanse": 14296,
    "supers": 22650,
    "Ġbaffled": 12407,
    "Ġinevitably": 17233,
    "Ġcruelly": 13379,
    "Ġpowdered": 24240,
    "ple": 455,
    "Ġmeals": 12716,
    "Ġchiselled": 25560,
    "aces": 2069,
    "Ġgreater": 3040,
    "inform": 10146,
    "Ġdemanding": 16807,
    "Ġprison": 5403,
    "Ġclient": 5556,
    "Ġbeliever": 25847,
    "Ġcompares": 20169,
    "Ġcunning": 6239,
    "ane": 1178,
    "upset": 23022,
    "dorff": 15241,
    "Ġagain": 813,
    "valuable": 8245,
    "Ġram": 11015,
    "remaining": 20223,
    "ove": 1743,
    "Ġpalmy": 19502,
    "Ġpencils": 23197,
    "parm": 21016,
    "acrity": 14263,
    "Ġnewcomers": 26042,
    "architect": 22902,
    "Ġyouthful": 16725,
    "Ġhosmer": 6774,
    "Ġoutriders": 26545,
    "ize": 773,
    "Ġbewil": 11660,
    "Ġhorizont": 6936,
    "Ġdiligently": 11407,
    "'": 11,
    "write": 14649,
    "Ġpulpit": 7469,
    "Ġbranded": 14382,
    "hello": 13368,
    "Ġlays": 15993,
    "Ġdifference": 1487,
    "thinks": 16644,
    "ieve": 1658,
    "Ġcatastrophic": 3545,
    "wer": 8396,
    "Ġassociated": 12254,
    "russian": 22193,
    "@": 36,
    "pression": 10409,
    "Ġbought": 8417,
    "partner": 19224,
    "prob": 7070,
    "Ġseek": 4509,
    "Ġimportant": 1093,
    "Ġinclined": 6624,
    "Ġunfit": 14791,
    "Ġpraying": 19557,
    "owards": 4594,
    "Ġsplinters": 15106,
    "disgrace": 16461,
    "Ġabandoned": 8352,
    "Ġacknowledges": 24689,
    "Ġgay": 5535,
    "Ġbol": 6242,
    "Ġopulent": 23630,
    "Ġsumm": 3356,
    "Ġbody": 2433,
    "sixty": 24853,
    "Ġdeact": 18138,
    "Ġdiverged": 23596,
    "much": 3709,
    "drop": 15340,
    "Ġauto": 23297,
    "Ġprivately": 19526,
    "vid": 915,
    "interruption": 20115,
    "Ġsettle": 6294,
    "oy": 1029,
    "Ġexpression": 4516,
    "Ġadopted": 15182,
    "unned": 21882,
    "Ġbec": 1352,
    "Ġnourishment": 15196,
    "Ġtechniques": 2869,
    "Ġunited": 6839,
    "Ġliveliness": 13647,
    "Ġvane": 22877,
    "Ġrender": 8305,
    "Ġtravellers": 11310,
    "iceland": 21569,
    "piling": 15418,
    "Ġbag": 5699,
    "Ġrationally": 18216,
    "Ġmagician": 25061,
    "Ġgreatest": 4094,
    "Ġmyst": 4052,
    "Ġpatchwork": 24144,
    "Ġconjectures": 16927,
    "Ġjot": 11767,
    "gentleness": 24845,
    "abhor": 12712,
    "Ġgettest": 23235,
    "ipl": 20920,
    "Ġ59": 24323,
    "fil": 12467,
    "trained": 4242,
    "endom": 15923,
    "Ġsomnambul": 26578,
    "Ġeastern": 11632,
    "Ġofficers": 4427,
    "paid": 15417,
    "Ġproducts": 5198,
    "Ġswitching": 23060,
    "beh": 5472,
    "Ġspong": 15886,
    "Ġreappeared": 21668,
    "Ġtreated": 7081,
    "Ġscruples": 15082,
    "Ġwarehouses": 20421,
    "quely": 10234,
    "Ġschools": 9480,
    "Ġessentially": 24925,
    "Ġmortally": 23920,
    "Ġprefer": 6416,
    "Ġidolator": 20001,
    "midnight": 14905,
    "Ġob": 860,
    "held": 3842,
    "Ġbounds": 9921,
    "Ġdisordered": 16059,
    "Ġentirely": 3436,
    "Ġnigh": 4878,
    "folly": 20864,
    "Ġafrican": 20140,
    "Ġexaggerate": 25650,
    "Ġsolicit": 22890,
    "Ġweeds": 21928,
    "unfearing": 21896,
    "Ġcreated": 2709,
    "Ġwalls": 6762,
    "Ġdecomp": 3813,
    "simple": 13456,
    "endure": 22220,
    "Ġinvariable": 13460,
    "coil": 23560,
    "mpus": 13760,
    "Ġuseless": 7038,
    "Ġsubaltern": 22794,
    "Ġprecautions": 23729,
    "Ġgi": 15670,
    "Ġsatur": 1928,
    "Ġstalked": 20432,
    "Ġspecies": 5112,
    "inc": 2520,
    "Ġoriginally": 7303,
    "Ġprecip": 7075,
    "Ġgl": 1255,
    "gall": 6360,
    "Ġsuffered": 5649,
    "Ġvaults": 17156,
    "hol": 3840,
    "Ġtoken": 2036,
    "Ġarsacides": 17297,
    "Ġspilling": 22142,
    "gloom": 17142,
    "Ġmeanest": 12915,
    "Ġtruth": 3319,
    "Ġdarkened": 16436,
    "Ġfettered": 24569,
    "Ġaggreg": 12889,
    "meal": 22716,
    "exagger": 22432,
    "Ġcripple": 11442,
    "Ġsaid": 578,
    "Ġfascinating": 17331,
    "plete": 10921,
    "Ġban": 7156,
    "Ġstreets": 5864,
    "suited": 22649,
    "Ġexploit": 19164,
    "Ġottoman": 17381,
    "lands": 8241,
    "Ġassociations": 14966,
    "Ġado": 7627,
    "iage": 17575,
    "ments": 1401,
    "ann": 5803,
    "Ġnovelty": 13467,
    "Ġintentionally": 24523,
    "Ġmott": 17805,
    "Ġnarwhales": 24903,
    "Ġspinal": 12306,
    "Ġimpulsively": 24881,
    "Ġrainy": 24341,
    "james": 15376,
    "Ġunperceived": 22041,
    "Ġpleased": 4065,
    "dwell": 15345,
    "understanding": 1120,
    "Ġproud": 5654,
    "Ġbast": 21382,
    "script": 11080,
    "Ġantip": 24180,
    "phenomenon": 17650,
    "ousness": 10277,
    "Ġpocket": 4898,
    "Ġly": 2268,
    "Ġprocure": 9513,
    "||": 4869,
    "Ġattitudes": 16100,
    "announce": 24561,
    "oso": 12836,
    "ti": 8390,
    "Ġbrand": 16190,
    "Ġas": 374,
    "size": 15428,
    "umes": 10919,
    "_,": 2802,
    "Ġhail": 7399,
    "Ġmanner": 2194,
    "Ġmemo": 18120,
    "bout": 20775,
    "Ġdre": 1744,
    "Ġcus": 21346,
    "Ġaged": 10324,
    "Ġdifficulty": 5770,
    "forbid": 14357,
    "erness": 6434,
    "embers": 21933,
    "Ġskill": 6871,
    "Ġimputed": 12813,
    "Ġlinks": 13958,
    "whosoever": 22244,
    "Ġcaulk": 25441,
    "Ġargued": 13633,
    "eous": 13715,
    "Ġchemist": 11136,
    "Ġunsupplied": 22047,
    "ogra": 4573,
    "?âĢĿ": 699,
    "gies": 13729,
    "Ġhoky": 17929,
    "Ġgur": 21595,
    "Ġsummons": 13236,
    "Ġ17": 5740,
    "Ġassiduous": 26294,
    "inquiries": 13581,
    "described": 18896,
    "Ġxi": 16433,
    "Ġsmelling": 16073,
    "ucy": 15447,
    "Ġpad": 8125,
    "Ġamiable": 4272,
    "ahab": 4292,
    "itudes": 3015,
    "Ġtrying": 4839,
    "nameless": 19905,
    "heavens": 19748,
    "Ġbingleys": 18996,
    "Ġgraph": 10904,
    "Ġnewspapers": 17189,
    "Ġjaw": 3318,
    "got": 6954,
    "Ġoctober": 17229,
    "Ġtipt": 21176,
    "nour": 20990,
    "rivial": 9437,
    "Ġremo": 3788,
    "Ġelev": 5536,
    "care": 4929,
    "Ġivory": 4477,
    "Ġendeared": 26500,
    "Ġmusic": 5269,
    "norm": 20987,
    "Ġtarshish": 12033,
    "neg": 12870,
    "Ġstates": 1850,
    "narr": 12501,
    "Ġsqu": 1037,
    "Ġlucas": 3834,
    "retaining": 21248,
    "Ġdenying": 14660,
    "odecim": 9835,
    "Ġawait": 17074,
    "gracious": 11835,
    "lesome": 12970,
    "together": 3560,
    "point": 6063,
    "Ġanoints": 25539,
    "Ġhousekeeping": 18946,
    "Ġacre": 22684,
    "Ġtransport": 11280,
    "Ġ25": 13198,
    "ages": 827,
    "Ġglass": 4371,
    "Ġdair": 17891,
    "humor": 19455,
    "cape": 13701,
    "Ġconfirmed": 11141,
    "Ġinv": 2222,
    "Ġwalked": 3142,
    "Ġxli": 14544,
    "drab": 23902,
    "Ġkey": 2101,
    "Ġheaving": 7601,
    "Ġmrs": 1466,
    "Ġwilliam": 3483,
    "Ġcrosses": 23065,
    "Ġalong": 1979,
    "errand": 22912,
    "prepar": 22470,
    "Ġacid": 22685,
    "nesday": 8706,
    "glings": 23854,
    "agrad": 2748,
    "Ġrejoined": 14930,
    "Ġspaulding": 11736,
    "spir": 5738,
    "Ġperplexity": 2756,
    "Ġprognostics": 20561,
    "Ġsignification": 19205,
    "Ġangle": 8606,
    "Ġupwards": 7634,
    "Ġprivate": 5346,
    "Ġlament": 7857,
    "Ġledger": 19405,
    "Ġevince": 24295,
    "itheat": 21341,
    "reat": 610,
    "suppose": 8648,
    "Ġbod": 4581,
    "Ġpeterson": 9486,
    "Ġpropont": 16352,
    "Ġoverflowed": 20265,
    "Ġyelling": 18099,
    "Ġplayful": 19239,
    "yn": 7819,
    "Ġgrain": 15835,
    "Ġcondensed": 24057,
    "Ġcastaways": 19431,
    "Ġtribute": 15478,
    "sius": 13791,
    "Ġlimbs": 5966,
    "Ġpane": 21465,
    "Ġwarnings": 16883,
    "archangel": 18795,
    "Ġcustoms": 19655,
    "Ġappearing": 9844,
    "utional": 17986,
    "ĳ": 244,
    "Ġlabour": 7273,
    "pres": 16032,
    "Ġundivided": 24123,
    "Ġoutlined": 22324,
    "Ġpads": 21476,
    "byter": 16216,
    "Ġbrisk": 9806,
    "robotics": 11308,
    "exercise": 17462,
    "Ġgathered": 8444,
    "Ġextrem": 2474,
    "person": 7745,
    "vig": 15449,
    "Ġjoking": 12842,
    "val": 1135,
    "Ġserpents": 13081,
    "Ġsetting": 7047,
    "deceptive": 22153,
    "north": 14617,
    "Ġmonogra": 22982,
    "gered": 9279,
    "res": 2761,
    "Ġulster": 14999,
    "Ġkindness": 4098,
    "Ġsinew": 25432,
    "Ġgardiners": 11159,
    "Ġsubtle": 6717,
    "ursday": 12281,
    "Ġartfully": 22615,
    "Ġheroism": 24544,
    "Ġq": 1083,
    "bable": 8722,
    "continue": 16863,
    "ilogue": 21728,
    "Ġbusier": 23339,
    "idence": 4304,
    "Ġpractice": 2779,
    "Ġdrowning": 19906,
    "Ġglaring": 11913,
    "Ġwitty": 21295,
    "verty": 8454,
    "Ġeaves": 15680,
    "Ġcarve": 23096,
    "Ġnumerical": 4248,
    "Ġlet": 1113,
    "inished": 17736,
    "ained": 3066,
    "Ġenigmatical": 20600,
    "tum": 11534,
    "advent": 10223,
    "Ġnews": 3821,
    "cring": 20813,
    "wound": 21129,
    "Ġrosings": 4607,
    "Ġcontained": 7679,
    "isle": 13895,
    "Ġstays": 16564,
    "Ġgoug": 17993,
    "Ġrepenting": 25323,
    "Ġyears": 1891,
    "hands": 5967,
    "sort": 6798,
    "Ġdisplay": 6428,
    "Ġcared": 8787,
    "Ġcurling": 9350,
    "Ġexecut": 4250,
    "Ġarbit": 4650,
    "Ġpolitics": 19227,
    "pronounced": 12350,
    "Ġvice": 6549,
    "marry": 13328,
    "aft": 9586,
    "letter": 6202,
    "Ġflight": 6581,
    "Ġconjugal": 25104,
    "Ġcrimson": 16440,
    "striking": 13444,
    "Ġlightened": 23263,
    "Ġperpetual": 12307,
    "orous": 5294,
    "ylon": 24978,
    "Ġdepl": 14047,
    "Ġcanst": 8861,
    "bearded": 18522,
    "Ġsits": 10770,
    "tossed": 11000,
    "conceal": 25117,
    "Ġfiend": 4413,
    "Ġsighs": 22712,
    "wreat": 21130,
    "Ġfrankness": 16748,
    "Ġvisions": 12981,
    "distressed": 24202,
    "Ġoffice": 4965,
    "Ġtwopence": 18661,
    "dearest": 11739,
    "aits": 20768,
    "Ġpossessions": 23828,
    "Ġsubmit": 11874,
    "Ġhabitual": 24789,
    "trem": 17683,
    "Ġfelicity": 7259,
    "Ġprev": 6265,
    "Ġsuspicious": 9483,
    "est": 500,
    "Ġexpands": 25238,
    "inders": 15984,
    "Ġputs": 19034,
    "title": 17290,
    "Ġdesires": 9460,
    "Ġlichen": 20095,
    "emotion": 21934,
    "Ġstables": 23656,
    "Ġlulled": 17971,
    "gaze": 17559,
    "gi": 17553,
    "feel": 3814,
    "eration": 10774,
    "Ġriverside": 25248,
    "sad": 11523,
    "Ġtrip": 16790,
    "Ġwhiff": 21721,
    "content": 11199,
    "Ġswitzerland": 10382,
    "Ġoffer": 4844,
    "parted": 21018,
    "Ġwidows": 24239,
    "ario": 14250,
    "Ġwearied": 15798,
    "Ġproduct": 3536,
    "Ġbedroom": 7276,
    "difficult": 10061,
    "Ġdegree": 3707,
    "Ġabhor": 5467,
    "Ġ72": 19614,
    "Ġtreas": 7357,
    "good": 2901,
    "Ġcandelab": 23852,
    "Ġfamil": 4322,
    "Ġhawaiian": 25367,
    "uel": 6966,
    "natured": 7111,
    "Ġdispirited": 23885,
    "sence": 3306,
    "Ġpallidness": 25605,
    "conv": 7212,
    "Ġborders": 15576,
    "scap": 22990,
    "Ġbreathless": 12174,
    "Ġfates": 15582,
    "wearing": 22690,
    "Ġspanish": 2830,
    "Ġwriters": 13546,
    "Ġoffended": 7041,
    "Ġostr": 21328,
    "Ġheap": 12683,
    "Ġhandwriting": 14322,
    "actually": 14300,
    "Ġcalculus": 23986,
    "Ġdesponding": 25869,
    "Ġlessened": 19089,
    "leep": 4634,
    "distraction": 24203,
    "Ġswell": 8952,
    "Ġdr": 2827,
    "considerable": 10551,
    "Ġprejud": 6850,
    "critical": 19499,
    "satisfaction": 9995,
    "¤": 102,
    "Ġchink": 15936,
    "Ġcreditable": 19625,
    "pless": 6261,
    "Ġsummoning": 23877,
    "Ġstat": 1488,
    "Ġsubstituting": 26328,
    "Ġprobabilities": 4966,
    "knell": 24555,
    "Ġenticements": 26035,
    "Ġjonas": 20612,
    "Ġsurrey": 14560,
    "oping": 5559,
    "Ġspark": 6690,
    "Ġcelebrate": 26359,
    "aving": 2404,
    "eldom": 4415,
    "Ġentrances": 25835,
    "Ġdaintiest": 25954,
    "Ġ125": 24470,
    "ud": 906,
    "Ġgun": 4701,
    "leisure": 21374,
    "Ġplanets": 24061,
    "Ġdub": 13912,
    "Ġmin": 1025,
    "Ġarisen": 11747,
    "Ġcetus": 19887,
    "Ġnearing": 15802,
    "Ġconspicuous": 13607,
    "ct": 309,
    "Ġwollstonecraft": 26427,
    "Ġscreams": 24604,
    "Ġminutes": 3000,
    "Ġrecover": 9795,
    "chess": 16576,
    "cle": 3958,
    "aved": 5475,
    "dashed": 12460,
    "broker": 13309,
    "Ġsam": 7569,
    "Ġsyn": 15917,
    "uc": 1876,
    "Ġbitter": 4173,
    "Ġentic": 16150,
    "ios": 2350,
    "Ġesq": 15112,
    "memory": 13621,
    "Ġstately": 9837,
    "Ġfishing": 9665,
    "alescing": 23869,
    "mistak": 16880,
    "Ġforeman": 23449,
    "Ġworshipper": 25693,
    "ober": 15409,
    "retched": 3070,
    "ropol": 10954,
    "athy": 14326,
    "Ġscuttle": 7413,
    "Ġmetropolis": 17277,
    "Ġyawned": 15054,
    "Ġbecome": 3160,
    "bushes": 24447,
    "tolerable": 17690,
    "Ġrules": 1915,
    "contempt": 13194,
    "alleled": 14432,
    "Ġcatching": 9481,
    "piled": 21017,
    "Ġinclemency": 22561,
    "Ġjacob": 1897,
    "thing": 1478,
    "Ġtangle": 25761,
    "Ġ$": 21153,
    "Ġwalk": 1823,
    "Ġsake": 4093,
    "Ġdiscomposed": 25581,
    "floor": 14939,
    "Ġeighteenth": 14757,
    "Ġlosing": 10918,
    "Ġexecute": 7505,
    "orders": 12878,
    "jabez": 20935,
    "moored": 22707,
    "Ġwarning": 9061,
    "Ġsubterraneous": 20268,
    "Ġdolph": 12384,
    "Ġindignant": 12244,
    "Ġfacetious": 20587,
    "Ġwoollen": 12108,
    "app": 1040,
    "triumph": 15443,
    "alarmed": 21506,
    "sculpt": 16248,
    "Ġhenceforth": 19645,
    "grammar": 6435,
    "Ġaffirm": 11891,
    "birth": 15325,
    "Ġhabitation": 14806,
    "Ġstreng": 18073,
    "wishing": 21131,
    "alongside": 19792,
    "Ġbutton": 10270,
    "yden": 21146,
    "Ġsur": 2181,
    "mur": 5428,
    "Ġscuff": 15946,
    "Ġconv": 2970,
    "Ġbawling": 25946,
    "Ġdissatisfied": 14259,
    "eu": 17532,
    "iation": 7342,
    "Ġpathways": 11155,
    "Ġconve": 5455,
    "Ġprovoke": 14829,
    "ignorance": 17164,
    "Ġidol": 7466,
    "Ġprocedure": 2813,
    "Ġninetieth": 25358,
    "magnitude": 17251,
    "Ġprovision": 14828,
    "stop": 11638,
    "Ġpenalizing": 13095,
    "Ġdere": 21838,
    "Ġemer": 5959,
    "Ġduc": 4696,
    "Ġdistrusting": 25056,
    "Ġreceived": 2953,
    "Ġgenerous": 6274,
    "Ġbulkhead": 24511,
[...]
