{
  "metadata": {
    "vocab_size": 26616,
    "algorithm": "BPE",
    "created_at": "2026-04-29 05:25:50",
    "special_tokens": [
      "<PAD>",
      "<SOS>",
      "<EOS>",
      "<UNK>",
      "<MASK>"
    ]
  },
  "vocab": {
    "umpled": 15881,
    "Ġcul": 17824,
    "Ġaboard": 6699,
    "fifth": 20149,
    "Ġneatly": 17018,
    "Ġfleecy": 17025,
    "native": 17613,
    "emporary": 15803,
    "presum": 12873,
    "sided": 17666,
    "founded": 16715,
    "sets": 17662,
    "employed": 17264,
    "Ġcabinets": 23865,
    "Ġmam": 8406,
    "Ġneurons": 976,
    "Ġpattered": 19032,
    "Ġbreat": 3464,
    "Ġlubber": 17447,
    "enorm": 17783,
    "claims": 25320,
    "Ġpeaking": 22693,
    "unforeseen": 21892,
    "Ġadvoc": 13002,
    "enhall": 13853,
    "Ġconfronted": 23310,
    "Ġpots": 9431,
    "Ġreluctant": 20528,
    "Ġimprobable": 9798,
    "Ġexhib": 6351,
    "Ġbroom": 18908,
    "Ġwest": 5219,
    "Ġhappily": 9334,
    "astonished": 15035,
    ",âĢĶâĢľ": 10073,
    "Ġagony": 5388,
    "ptic": 21922,
    "whisper": 17084,
    "scuttle": 11914,
    "Ġplat": 8523,
    "inous": 8776,
    "Ġrever": 6538,
    "Ġdestroyer": 13417,
    "anx": 8788,
    "alongside": 19792,
    "tahit": 17694,
    "Ġsteersman": 13047,
    "dare": 12458,
    "entrance": 12662,
    "Ġnathan": 21529,
    "¶": 119,
    "Ġopens": 23628,
    "Ġemboldened": 22958,
    "Ġcrammed": 16474,
    "Ġrag": 18642,
    "isure": 6242,
    "qual": 8157,
    "Ġlig": 21551,
    "fri": 20856,
    "Ġdocuments": 10026,
    "Ġpondered": 15170,
    "conception": 22476,
    "Ġdick": 3500,
    "Ġengagements": 9981,
    "Ġgentlemen": 3645,
    "Ġmeadow": 17154,
    "Ġcommand": 3324,
    "Ġstable": 2695,
    "impat": 11204,
    "done": 6501,
    "ank": 1365,
    "Ġexig": 21830,
    "Ġforlorn": 14018,
    ").âĢĿ": 20743,
    "Ġmonth": 2848,
    "Ġcommander": 8628,
    "tin": 6118,
    "lover": 18538,
    "Ġmeth": 1486,
    "Ġtyphoons": 20237,
    "Ġhost": 7070,
    "Ġstopped": 5958,
    "quar": 7616,
    "Ġsending": 8779,
    "isen": 10794,
    "Ġchief": 3383,
    "Ġdispleased": 18556,
    "Ġwool": 19436,
    "shoals": 24716,
    "furnish": 25339,
    "whales": 5187,
    "Ġhappy": 2463,
    "Ġwre": 5077,
    "put": 414,
    "ite": 713,
    "lic": 17589,
    "abomin": 15747,
    "Ġshy": 10905,
    "Ġleisurely": 24745,
    "Ġgraces": 18226,
    "Ġlatent": 19658,
    "É": 138,
    "Ġvict": 3766,
    "yourselves": 24959,
    "iate": 6506,
    "Ġreplacing": 3452,
    "Ġbethink": 12383,
    "Ġloomings": 24952,
    "swiss": 24258,
    "Ġcause": 2407,
    "Ġterribly": 10427,
    "Ġinterpret": 5490,
    "Ġ2026": 12339,
    "Ġpersu": 3566,
    "discharging": 26306,
    "nest": 10116,
    "Ġreceives": 20357,
    "cost": 19188,
    "Ġlegs": 4917,
    "dling": 15343,
    "dman": 10091,
    "Ġklux": 22199,
    "isted": 3300,
    "interrupted": 11419,
    "degrees": 22153,
    "Ġmotions": 8281,
    "Ġherbage": 25997,
    "Ġpursuing": 9441,
    "Ġbusiness": 2234,
    "Ġdo": 510,
    "Ġtingling": 15096,
    "Ġanybody": 5314,
    "Ġhill": 5626,
    "aving": 2404,
    "Ġaim": 10148,
    "Ġeighty": 19479,
    "old": 799,
    "icted": 5938,
    "Ġsupreme": 13611,
    "Ġhorses": 6386,
    "Ġrampart": 20321,
    "Ġrim": 21972,
    "Ġsixty": 7723,
    "Ġarrow": 10933,
    "howling": 18990,
    "cob": 10089,
    "Ġpresc": 15930,
    "Ġmaria": 7126,
    "Ġheed": 5630,
    "Ġlikely": 3601,
    "Ġimpud": 18443,
    "Ġuniform": 2227,
    "smiled": 16616,
    "Ġeloped": 22648,
    "abb": 15744,
    "Ġquitted": 5312,
    "inordinate": 21197,
    "Ġthrees": 23404,
    "Ġdisobey": 18560,
    "Ġarms": 3969,
    "inking": 6711,
    "Ġclanging": 18423,
    "cheeks": 23810,
    "mates": 5073,
    "mingled": 14716,
    "awned": 19463,
    "Ġpaste": 23421,
    "Ġhorizont": 6937,
    "itively": 21334,
    "Ġtam": 7821,
    "Ġenticing": 22745,
    "Ġmyth": 18221,
    "advent": 10223,
    "Ġtrick": 7022,
    "twist": 23701,
    "utored": 15668,
    "Ġjaws": 5593,
    "quired": 21859,
    "Ġinvulnerable": 19148,
    "incidentally": 20542,
    "Ġsurging": 19135,
    "Ġswarming": 16276,
    "Ġrequisition": 22650,
    "Ġwhirlwinds": 20468,
    "cellar": 20280,
    "ensibility": 22552,
    "Ġrhone": 25231,
    "Ġrepresents": 4903,
    "Ġtransformed": 22611,
    "canst": 22971,
    "wretchedness": 17255,
    "aces": 2069,
    "Ġhoof": 23356,
    "Ġby": 383,
    "Ġinterested": 6459,
    "anch": 15565,
    "Ġstarboard": 7605,
    "Ġchaps": 14182,
    "Ġvapors": 19910,
    "Ġamusement": 8056,
    "Ġdwelling": 7322,
    "Ġfinal": 5400,
    "speptic": 23949,
    "beth": 13692,
    "agues": 8161,
    "supplemental": 25875,
    "anite": 17839,
    "Ġdeepest": 8214,
    "Ġlapse": 17123,
    "covery": 11173,
    "lively": 12489,
    "Ġrestlessness": 23294,
    "Ġgarden": 3830,
    "express": 4896,
    "Ġ63": 24366,
    "Ġdemands": 19641,
    "ishness": 22347,
    "Ġinfat": 14501,
    "Ġcard": 7363,
    "deceiving": 22147,
    "uth": 3017,
    "Ġlance": 4880,
    "Ġrecollected": 8311,
    "acency": 12902,
    "Ġpays": 13301,
    "Ġblubber": 5666,
    "Ġliquid": 22413,
    "Ġtalent": 12301,
    "Ġlinked": 15081,
    "Ġcanv": 7011,
    "plutarch": 21967,
    "increasing": 20272,
    "stirring": 20429,
    "Ġvineyarder": 25607,
    "Ġlinn": 13956,
    "Ġoverflow": 10295,
    "Ġsmiles": 6708,
    "Ġillustration": 19137,
    "Ġmiller": 19885,
    "Ġhumped": 19772,
    "Ġassuredly": 14825,
    "Ġactively": 18655,
    "uzza": 11272,
    "Ġdecorum": 16026,
    "Ġmushroom": 13241,
    "sullen": 17671,
    "Ġbreaths": 14860,
    "Ġdang": 9177,
    "Ġjaw": 3321,
    "Ġspeeches": 22666,
    "Ġdevotedly": 24749,
    "Ġhorns": 11125,
    "sa": 8760,
    "Ġbattering": 13904,
    "Ġinstrum": 6056,
    "Ġformal": 2941,
    "Ġretrogression": 26583,
    "Ġcircumnav": 12430,
    "Ġcalcul": 3640,
    "Ġwhipping": 21719,
    "Ġ46": 19494,
    "swaying": 25911,
    "Ġbulge": 23860,
    "hundreds": 25076,
    "aunted": 20772,
    "Ġelevates": 24503,
    "Ġattentive": 9036,
    "Ġhelplessly": 20081,
    "Ġinscrutable": 10675,
    "Ġexposed": 8525,
    "Ġelimin": 16112,
    "piteous": 21036,
    "Ġtricks": 13488,
    "ĕ": 214,
    "Ġjacobians": 2893,
    "Ġreef": 10851,
    "Ġsubdivisions": 26038,
    "allowed": 5728,
    "Ġdaugh": 2293,
    "jep": 20928,
    "ly": 319,
    "Ġmightiest": 12966,
    "Ġchiefly": 5766,
    "Ġmechanisms": 1574,
    "Ġimbued": 17458,
    "negro": 18492,
    "Ġunintellig": 22030,
    "lake": 13752,
    "Ġ49": 24086,
    "Ġexerted": 15760,
    "Ġclearness": 23185,
    "Ġcategor": 4140,
    "sorts": 21063,
    "valued": 2852,
    "necessities": 24308,
    "Ġmagnificence": 20635,
    "À": 129,
    "Ġloses": 15878,
    "bag": 7542,
    "teen": 6371,
    "maid": 8555,
    "Ġflag": 7242,
    "Ġtrace": 6183,
    "Ġcasualty": 20344,
    "Ġwondrously": 24070,
    "Ġconvolutions": 21811,
    "Ġprim": 8244,
    "metallic": 19882,
    "ian": 1238,
    "sn": 7140,
    "Ġunexpected": 6841,
    "partner": 19223,
    "Ġopulence": 23629,
    "swed": 24256,
    "Ġrestore": 9383,
    "Ġengland": 3862,
    "Ġbreakers": 12059,
    "Ġmic": 17799,
    "rib": 1946,
    "Ġgathered": 8444,
    "Ġgale": 5823,
    "rist": 10125,
    "Ġresults": 7308,
    "Ġconvulsively": 25716,
    "Ġlifts": 25359,
    "Ġforeb": 12008,
    "Ġbelongs": 8015,
    "Ġweap": 6157,
    "Ġtremor": 24767,
    "Ġendeavoured": 4919,
    "forster": 16168,
    "gryphon": 15362,
    "secure": 12240,
    "Ġstoven": 23177,
    "vice": 15453,
    "Ġdue": 3850,
    "ressed": 3022,
    "Ġcirculation": 16421,
    "stars": 18022,
    "Ġlifelessly": 23052,
    "ana": 15564,
    "Ġcalves": 13040,
    "Ġconverted": 16116,
    "Ġlogic": 13082,
    "trop": 15440,
    "Ġbounty": 26439,
    "Ġmalays": 19680,
    "Ġexpost": 18624,
    "Ġinstigated": 18703,
    "Ġindolent": 13014,
    "Ġpromise": 4199,
    "seventy": 10878,
    "Î": 143,
    "Ġsurmise": 12299,
    "Ġindividual": 5744,
    "Ġprofundity": 20455,
    "topp": 22570,
    "Ġprom": 1530,
    "ignified": 14492,
    "disgu": 19157,
    "rates": 21041,
    "Ġduties": 6611,
    "Ġearning": 23944,
    "Ġadvisable": 11444,
    "Ġsally": 15506,
    "Ġinvoking": 19147,
    "atural": 928,
    "Ġlifeless": 8951,
    "wicked": 24449,
    "Ġspeaker": 19150,
    "oblig": 16295,
    "Ġwithdrawn": 10609,
    "Ġxxiv": 24477,
    "Ġaff": 1114,
    "Ġplace": 1649,
    "Ġfrequently": 4679,
    "Ġworks": 5860,
    "ensical": 18569,
    "Ġline": 1849,
    "Ġbroiled": 18910,
    "Ġcr": 2150,
    "share": 14239,
    "Ġtravelled": 7772,
    "comput": 1976,
    "whaler": 20312,
    "Ġmanipulation": 10661,
    "Ġwhitt": 18057,
    "marrying": 19550,
    "limbs": 20194,
    "ounced": 4954,
    "Ġcaroline": 7254,
    "Ġinflamed": 13477,
    "Ġsouls": 6310,
    "Ġattendant": 11287,
    "plied": 10258,
    "Ġlikelihood": 16503,
    "unch": 14061,
    "Ġintimate": 6551,
    "Ġrucastles": 18720,
    "Ġevil": 3811,
    "Â·": 21152,
    "Ġundulates": 24121,
    "Ġtelesc": 13000,
    "aker": 3665,
    "Ġfearless": 9878,
    "Ġimbedded": 18333,
    "Ġbutton": 10270,
    "Ġbeneath": 3238,
    "Ġimaginations": 16518,
    "penetrate": 20327,
    "Ġesq": 15112,
    "Ġvideo": 25366,
    "Ġproducing": 11903,
    "tooth": 18581,
    "Ġchry": 22250,
    "Ġinterruptions": 24189,
    "Ġheroines": 19754,
    "Ġunctuous": 10269,
    "Ġnoiseless": 10359,
    "Ġdexterously": 25296,
    "âĢľ_": 5720,
    "pretending": 17042,
    "Ġstubbs": 23298,
    "Ġfacility": 19852,
    "Ġshiver": 12772,
    "osc": 18388,
    "Ġjeopard": 9946,
    "hes": 1400,
    "Ġopenshaw": 7955,
    "Ġresuming": 12898,
    "Ġachieves": 4381,
    "Ġimplac": 24875,
    "deception": 22148,
    "Ġreturning": 5326,
    "Ġalready": 2709,
    "Ġwashes": 21865,
    "Ġinvests": 14871,
    "german": 11494,
    "Ç": 136,
    "appalled": 18762,
    "Ġprevents": 2554,
    "Ġsuburban": 17349,
    "Ġdiet": 13913,
    "Ġdepression": 21845,
    "Ġexam": 3714,
    "Ġexterior": 19991,
    "Ġexerc": 6833,
    "Ġrocky": 13391,
    "awk": 23117,
    "Ġforming": 7044,
    "hall": 8085,
    "Ġeverything": 3156,
    "Ġkuiperai": 10937,
    "Ġlux": 8818,
    "Ġtim": 4578,
    "Ġvishnoo": 12758,
    "Ġunspeakably": 25173,
    "Ġugly": 8719,
    "nect": 664,
    "Ġberyl": 20493,
    "lin": 9606,
    "Ġmacey": 12568,
    "Ġprocured": 8680,
    "impropriety": 21716,
    "Ġincredulous": 9990,
    "Ġdiscl": 9800,
    "Ġtrains": 10950,
    "Ġmanagement": 8193,
    "coil": 23561,
    "Ġstealing": 18895,
    "Ġgoring": 21607,
    "aract": 17896,
    "Ġchim": 5934,
    "Ġopt": 776,
    "Ġignorant": 5344,
    "Ġcusack": 26435,
    "Ġdaybreak": 18728,
    "Ġdisinterested": 16062,
    "Ġlapl": 19780,
    "icing": 9203,
    "Ġgamb": 18000,
    "entered": 8819,
    "sip": 10727,
    "Ġpresents": 8245,
    "murder": 10567,
    "Ġagency": 11809,
    "Ġtherein": 11780,
    "onged": 18411,
    "Ġinclemency": 22560,
    "Ġperiodical": 14776,
    "ch": 321,
    "Ġshared": 10266,
    "quadr": 15769,
    "cstasy": 11447,
    "otam": 21802,
    "prejud": 11800,
    "Ġpunct": 8664,
    "fate": 17541,
    "Ġassum": 4067,
    "Ġnorth": 4321,
    "Ġregained": 18589,
    "Ġjumped": 7098,
    "Ġfolios": 23024,
    "rimsh": 17029,
    "propagation": 1250,
    "Ġfelt": 1744,
    "Ġcuts": 14609,
    "Ġpaul": 12066,
    "Ġrepugnant": 26592,
    "Ġneighbour": 3813,
    "ally": 531,
    "emin": 8473,
    "gish": 20875,
    "Ġcomfortless": 23916,
    "Ġanchors": 12618,
    "skill": 24487,
    "Ġstare": 10866,
    "conditionally": 24835,
    "requirements": 24858,
    "Ġhaven": 8476,
    "Ġbott": 3150,
    "Ġmaimed": 21319,
    "Ġfugitive": 17330,
    "Ġensl": 19276,
    "Ġmodel": 515,
    "Ġchildhood": 13142,
    "Ġtyro": 16996,
    "Ġobserver": 11993,
    "Ġscenery": 11458,
    "Ġinsignific": 13184,
    "depths": 25664,
    "Ġfainting": 16899,
    "Ġlightnings": 16357,
    "Ġpapered": 20134,
    "Ġcream": 22725,
    "oqu": 7555,
    "y": 93,
    "Ġknow": 632,
    ",*": 17474,
    "Ġroarings": 25303,
    "Ġhandful": 9785,
    "approached": 13489,
    "Ġcalm": 3450,
    "Ġtwine": 14314,
    "Ġforgery": 25978,
    "eck": 20846,
    "circum": 16739,
    "steel": 8299,
    "Ġdeficient": 18826,
    "Ġsighed": 10340,
    "indulged": 22379,
    "elder": 21575,
    "meet": 11860,
    "Ġhighlands": 22776,
    "Ġblooming": 17215,
    "Ġpaws": 13924,
    "Ġestimated": 16596,
    "unfortunate": 15782,
    "world": 5058,
    "Ġcasts": 19429,
    "Ġgeological": 14535,
    "lux": 14229,
    "Ġunrivalled": 26521,
    "Ġresembles": 25970,
    "Ġmislead": 22760,
    "Ġintertw": 18592,
    "sher": 5217,
    "inch": 10757,
    "vult": 21116,
    "Ġhearts": 4972,
    "Ġberry": 19749,
    "Ġsufficiently": 8976,
    "Ġtwice": 4661,
    "ornamented": 26597,
    "Ġabrid": 22276,
    "Ġgestic": 21611,
    "Ġpaddock": 25040,
    "Ġstruck": 3392,
    "consc": 4841,
    "son": 2328,
    "Ġblinds": 8007,
    "Ġruled": 22786,
    "antarctic": 22098,
    "baked": 20781,
    "solute": 16600,
    "Ġschool": 5512,
    "Ġabove": 2935,
    "Ġviews": 7290,
    "imp": 3033,
    "Ġluxuries": 25167,
    "ullo": 12734,
    "Ġ90": 24589,
    "Ġteneriffe": 26416,
    "Ġstrasburgh": 18615,
    "imes": 1300,
    "Ġendeavours": 8621,
    "Ġcannibals": 10590,
    "Ġchopping": 24222,
    "isp": 5528,
    "Ġderive": 10397,
    "Ġsignific": 3833,
    "ell": 398,
    "icate": 9204,
    "Ġuniformly": 19149,
    "ital": 4818,
    "expanded": 23664,
    "Ġpulley": 2975,
    "Ġrats": 21980,
    "Ġobservable": 25129,
    "Ġclasped": 17209,
    "Ġreigning": 15706,
    "cher": 5786,
    "Ġdifficulty": 5770,
    "Ġash": 4833,
    "Ġbespe": 19243,
    "glorious": 19370,
    "Ġdu": 4584,
    "Ġcruel": 5121,
    "happiness": 6470,
    "enjoyment": 17260,
    "grand": 7970,
    "first": 3937,
    "Ġgrate": 12969,
    "Ġblasted": 7938,
    "Ġseethings": 26505,
    "enet": 10155,
    "Ġsqualid": 14372,
    "Ġdid": 835,
    "shazzar": 15293,
    "ante": 11724,
    "Ġfol": 1288,
    "mend": 20968,
    "rising": 7557,
    "Ġthw": 21518,
    "han": 12477,
    "Ġlargely": 14288,
    "Ġremarking": 13128,
    "Ġyanke": 18100,
    "adequate": 15207,
    "Ġmyst": 4053,
    "annica": 24562,
    "itation": 1779,
    "et": 307,
    "Ġtyph": 10011,
    "deformity": 22149,
    "aug": 1214,
    "Ġshipw": 12983,
    "Ġabsence": 4895,
    "Ġlatter": 3992,
    "bishop": 13698,
    "vously": 23508,
    "Ġgoverned": 23573,
    "Ġstronger": 8582,
    "Ġhood": 10825,
    "hamed": 6307,
    "Ġsurviv": 13439,
    "inex": 14095,
    "Ġlac": 17967,
    "Ġoutfits": 22325,
    "Ġangelic": 19630,
    "Ġcontroverted": 23253,
    "Ġinterrupting": 19560,
    "Ġinquire": 7720,
    "°": 113,
    "ene": 2169,
    "Ġpall": 7583,
    "Ġcareer": 11120,
    "Ġadaptation": 3157,
    "represented": 20198,
    ";âĢĻ": 15306,
    "former": 11752,
    "muttered": 13762,
    "Ġdeclaration": 16639,
    "Ġeag": 2966,
    "Ġdialogue": 12408,
    "ple": 455,
    "/`)": 13664,
    "Ġtribute": 15479,
    "hoisted": 19285,
    "Ġbeheading": 21758,
    "Ġdetection": 3205,
    "Ġsparks": 22136,
    "Ġtortured": 14927,
    "noticed": 14344,
    "Ġunheard": 22029,
    "Ġfolds": 12211,
    "hever": 13834,
    "Ġordinary": 6098,
    "seamen": 13630,
    "gods": 13371,
    "Ġunreason": 15847,
    "squ": 7809,
    "felicity": 25143,
    "umnal": 18301,
    "Ġspecks": 14311,
    "Ġghastly": 10063,
    "Ġchanged": 5243,
    "Ġoutput": 929,
    "Ġpia": 21467,
    "church": 8140,
    "Ġperilously": 24507,
    "Ġturnpike": 23032,
    "Ġslu": 13839,
    "lucases": 20213,
    "Ġresolved": 3802,
    "Ġ64": 24367,
    "Ġass": 1504,
    "Ġneuron": 1807,
    "Ġreflected": 2909,
    "Ġbang": 17856,
    "set": 3870,
    "Ġhappiest": 11886,
    "Ġprovision": 14828,
    "Ġminister": 18753,
    "arctic": 12615,
    "Ġsupplying": 19801,
    "belong": 12127,
    "Ġneskye": 21534,
    "concerned": 24639,
    "Ġache": 18664,
    "Ġmilliner": 19886,
    "Ġperadventure": 22402,
    "Ġwes": 8783,
    "sings": 4253,
    "taken": 7560,
    "Ġtears": 4232,
    "Ġlaug": 3630,
    "rel": 3758,
    "Ġproceeded": 5336,
    "Ġchin": 4892,
    "sticking": 21663,
    "Ġallusions": 10908,
    "<SOS>": 1,
    "Ġsplin": 8622,
    "alk": 1152,
    "lesson": 22768,
    "pard": 9621,
    "Ġtongues": 14866,
    "Ġease": 5629,
    "Ġloc": 10916,
    "rifled": 21050,
    "Ġestimate": 19376,
    "pattern": 3981,
    "spite": 16143,
    "Ġlunging": 24992,
    "Ġtimor": 24227,
    "Ġincarn": 11818,
    "Ġbehaviour": 4386,
    "restoration": 23238,
    "Ġalbatross": 10873,
    "Ġsandwiched": 26612,
    "dread": 8732,
    "tu": 12516,
    "Ġswiftness": 9930,
    "pires": 13778,
    "?--": 15307,
    "Ġthrowing": 6337,
    "ri": 390,
    "Ġill": 2193,
    "ounding": 22397,
    "Ġcontracting": 16016,
    "Ġstaying": 8284,
    "kindness": 10508,
    "Ġswitching": 23059,
    "Ġeastern": 11632,
    "Ġcalculated": 4476,
    "Ġlegal": 10441,
    "usoid": 4767,
    "batross": 9096,
    "Ġaccustomed": 6861,
    "Ġfeminine": 15267,
    "Ġgr": 977,
    "Ġontario": 26207,
    "Ġmasks": 23331,
    "Ġbosom": 6939,
    "patched": 17645,
    "Ġmessages": 24984,
    "unning": 4494,
    "ectual": 21919,
    "Ġbreathed": 11222,
    "learnt": 23534,
    "Ġintrude": 25991,
    "alive": 10829,
    "Ġfiddle": 25445,
    "Ġadmire": 5264,
    "Ġwon": 1662,
    "Ġwhoever": 10975,
    "Ġnapole": 15119,
    "incl": 8110,
    "Ġapply": 1776,
    "umer": 9261,
    "Ġsheep": 10928,
    "urer": 18124,
    "Ġpride": 3828,
    "blo": 6355,
    "Ġbouquet": 20686,
    "Ġcakes": 13887,
    "nlp": 8754,
    "Ġcorpse": 6641,
    "Ġdais": 24372,
    "Ġthinner": 24185,
    "ourney": 3556,
    "swim": 16781,
    "ogra": 4573,
    "Ġquant": 6425,
    "soup": 21061,
    "rud": 4190,
    "Ġfound": 1248,
    "doing": 8588,
    "gammon": 20246,
    "Ġprotested": 9937,
    "Ġspirits": 3701,
    "offensive": 16403,
    "declined": 25175,
    "Ġvilest": 20104,
    "Ġren": 3851,
    "Ġfeebly": 24878,
    "lev": 1235,
    "requent": 3652,
    "Ġblunder": 18820,
    "collar": 19330,
    "Ġbeds": 14553,
    "Ġsensibly": 14516,
    "Ġsuggestion": 19710,
    "Ġsupplies": 20329,
    "Ġabruptly": 15154,
    "Ġsurpassing": 20471,
    "Ġinvaluable": 10185,
    "after": 2896,
    "Ġfootman": 8288,
    "prehens": 9292,
    "Ġcomparable": 24281,
    "uzzle": 19586,
    "Ġclose": 3036,
    "Ġinstructed": 19287,
    "Ġreproachfully": 25252,
    "obviously": 25243,
    "Ġplow": 21462,
    "heedful": 20576,
    "Ġbrilliantly": 25123,
    "Ġappear": 2482,
    "Ġpoverty": 9307,
    "somewhat": 11162,
    "Ġvehicles": 10662,
    "whew": 22871,
    "Ġcampa": 17176,
    "unvarying": 21891,
    "itute": 9654,
    "wedged": 24559,
    "Ġringbolts": 24199,
    "est": 500,
    "Ġcalling": 5662,
    "Ġdispositions": 13237,
    "Ġspecimen": 13028,
    "Ġleviathanic": 12085,
    "Ġimprudently": 22389,
    "liest": 6296,
    "Ġsubjected": 23574,
    "Ġsplintered": 11420,
    "Ġgoble": 14232,
    "msgate": 18413,
    "Ġembedding": 2103,
    "uncommonly": 25550,
    "swam": 24257,
    "Ġawake": 8272,
    "arrant": 10476,
    "Ġpatchwork": 24144,
    "Ġalgorithms": 866,
    "Ġenhance": 2777,
    "league": 17846,
    "Ġfloat": 12036,
    "Ġcapstan": 9102,
    "Ġenlightened": 12751,
    "Ġgenerous": 6273,
    "Ġgranted": 22810,
    "ordingly": 18519,
    "Ġsc": 528,
    "Ġafford": 4367,
    "Ġincomp": 12905,
    "olic": 14045,
    "abil": 2008,
    "Ġcampaign": 20663,
    "Ġmovable": 22437,
    "Ġespecial": 26412,
    "Ġsquatted": 25843,
    "Ġconcealment": 16916,
    "itions": 4148,
    "Ġenergy": 2549,
    "alot": 15631,
    "se": 358,
    "ow": 326,
    "ineas": 15826,
    "Ġjour": 11768,
    "ually": 2768,
    "Õ": 150,
    "Ġimpatient": 5603,
    "Ġplough": 18609,
    "Ġarrange": 3123,
    "Ġillum": 9403,
    "xes": 21143,
    "Ġvegetables": 15225,
    "Ġservice": 6472,
    "Ġwed": 7575,
    "Ġjud": 3359,
    "Ġdistinction": 8889,
    "Ġpir": 6818,
    "ĠĠĠ": 2117,
    "calm": 8937,
    "Ġcrawford": 24894,
    "Ġcoupled": 16853,
    "Ġeligible": 10673,
    "pat": 10119,
    "Ġcompelled": 14271,
    "Ġswerve": 14441,
    "Ġscuttle": 7414,
    "previously": 17210,
    "Ġanat": 8124,
    "Ġacquitted": 18900,
    "Ġblacksmiths": 19875,
    "dire": 15339,
    "Ġfreshet": 25704,
    "Ġdrew": 3540,
    "Ġmarch": 4084,
    "nament": 11509,
    "Ġconsiderably": 7715,
    "Ġlvi": 21556,
    "Ġunsafe": 22045,
    "subs": 14300,
    "Ġhailed": 6408,
    "Ġthereby": 7644,
    "Ġsupport": 6730,
    "Ġboston": 22643,
    "attacks": 23125,
    "Ġsilken": 16383,
    "Ġreasoned": 23050,
    "Ġharpooneers": 4732,
    "Ġmalady": 24392,
    "Ġunwearied": 20605,
    "amouch": 21855,
    "Ġpatronage": 17054,
    "Ġmortal": 4681,
    "Ġoutrageous": 20613,
    "Ġmur": 2486,
    "Ġbuck": 7158,
    "Ġexpress": 2195,
    "matical": 13132,
    "attering": 7418,
    "Ġpor": 5225,
    "Ġbachelors": 24861,
    "Ġhired": 10180,
    "ittered": 18440,
    "opportunity": 12279,
    "Ġtree": 5285,
    "stein": 5505,
    "Ġdoubled": 19640,
    "Ġhail": 7400,
    "Ġagitated": 7648,
    "Ġsimul": 1806,
    "Ġlionel": 25287,
    "Ġcircumvent": 25067,
    "remain": 9841,
    "Ġconnected": 5393,
    "Ġmenacing": 23111,
    "opius": 18509,
    "conced": 22472,
    "quakes": 21860,
    "Ġgracechurch": 12203,
    "true": 2582,
    "feeders": 25236,
    "tal": 17672,
    "Ġroof": 6566,
    "showed": 16032,
    "pitch": 13303,
    "important": 7114,
    "msprop": 2621,
    "ating": 667,
    "rendered": 22344,
    "Ġcomfortably": 16617,
    "Ġb": 281,
    "Ġconstruct": 23344,
    "Ġ-": 1945,
    "Ġflames": 7940,
    "Ġtrappings": 23086,
    "Ġimproved": 7657,
    "icult": 3343,
    "Ġobtained": 7432,
    "Ġfinancial": 23131,
    "Ġeul": 21621,
    "melted": 25207,
    "iply": 22368,
    "imental": 16535,
    "Ġsituated": 9451,
    "marest": 20982,
    "Ġallows": 3234,
    "uniform": 18160,
    "Ġcoleridge": 18768,
    "Ġpoising": 22595,
    "Ġbewit": 15733,
    "acting": 22631,
    "Ġunwillingly": 15853,
    "Ġhammered": 13246,
    "Ġgroan": 13329,
    "dozen": 23381,
    "deacon": 22150,
    "Ġagric": 22518,
    "Ġpatagonia": 25858,
    "devil": 7895,
    "mod": 1058,
    "Ġ37": 24082,
    "Ġtol": 6677,
    "Ġworshipping": 22931,
    "ü": 189,
    "Ġpie": 13918,
    "Ġ117": 19700,
    "Ġdoubloons": 13438,
    "Ġimprisonment": 22390,
    "Ġt": 261,
    "Ġdiscomposed": 25581,
    "mpus": 13760,
    "[": 63,
    "lodged": 25908,
    "Ġimperfectly": 25727,
    "umst": 2500,
    "composure": 24040,
    "Ġbrand": 16191,
    "Ġnarrowly": 16822,
    "ifle": 10893,
    "Ġajar": 21205,
    "Ġxvi": 19106,
    "Ġstraightened": 12113,
    "Ġreverence": 12063,
    "fered": 5560,
    "market": 16841,
    "Ġbenjam": 22893,
    "Ġh": 290,
    "displeasure": 23497,
    "Ġgin": 13964,
    "Ġspake": 18309,
    "oriental": 23723,
    "Ġexempl": 21834,
    "Ġproductions": 22949,
    "Ġlurk": 13387,
    "Ġdisk": 22526,
    "Ġtwee": 22678,
    "Ġexisting": 12723,
    "Ġunanswerable": 26523,
    "Ġaccomplish": 14879,
    "wing": 2515,
    "isles": 15569,
    "Ġhack": 12761,
    "considerable": 10551,
    "exhibited": 18478,
    "Ġanyhow": 14257,
    "doors": 19096,
    "Ġfalling": 6915,
    "Ġbreathes": 13252,
    "ha": 3984,
    "Ġpunctually": 17141,
    "Ġtwain": 16124,
    "Ġchurches": 12833,
    "problems": 11436,
    "Ġtransl": 2829,
    "Ġpianoforte": 15277,
    "Ġheathenish": 13620,
    "penny": 22948,
    "_.)": 7278,
    "Ġgaze": 6932,
    "Ġdiscoverers": 26037,
    "Ġtomb": 8812,
    "saturday": 14861,
    "âĢĶâĢĻ": 8188,
    "Ġanalog": 12617,
    "Ġcertainty": 6736,
    "combined": 20323,
    "Ġpistols": 17332,
    "Ġfamine": 16331,
    "Ġdoran": 9182,
    "dangerous": 20243,
    "Ġraises": 11849,
    "Ġhurried": 4035,
    "Ġhinting": 19652,
    "Ġobedient": 20108,
    "atiate": 12553,
    "Ġusurpation": 18362,
    "abashed": 21796,
    "otograph": 5827,
    "Ġinglorious": 24424,
    "Ġrespectability": 14487,
    "oriented": 2946,
    "Ġdisregarded": 22534,
    "remember": 7262,
    "fth": 20858,
    "Ġirreducible": 5519,
    "Ġflowers": 8943,
    "Ġdisabled": 18562,
    "short": 6568,
    "daughters": 13470,
    "owal": 13999,
    "Ġ131": 24781,
    "Ġexecuted": 9475,
    "Ġdesp": 3216,
    "Ġadler": 8174,
    "Ġunpleasing": 22059,
    "Ġtusks": 17256,
    "beside": 19879,
    "exasper": 22431,
    "Ġasiatic": 20433,
    "Ġchristmas": 6924,
    "Ġcontinually": 5041,
    "chronicle": 26482,
    "dressing": 11484,
    "Ġunderstood": 5655,
    "Ġsubstitute": 16728,
    "provided": 13641,
    "Ġencaps": 12967,
    "Ġfascinated": 25636,
    "Ġcoach": 6868,
    "Ġhatred": 8612,
    "aimed": 3956,
    "unknown": 10892,
    "Ġinjuring": 24271,
    "Ġstalked": 20432,
    "recovered": 19790,
    "leather": 13893,
    "Ġvaulted": 25171,
    "increas": 10456,
    "Ġspecimens": 18860,
    "Ġentertainment": 12227,
    "aration": 12612,
    "âĢĶ.": 11761,
    "pushed": 21025,
    "Ġspouted": 14677,
    "_.âĢĿ": 5887,
    "Ġdevious": 22719,
    "Ġemotion": 7690,
    "Ġinvesting": 19644,
    "Ġsnodhead": 19304,
    "ucy": 15448,
    "Ġseriously": 7063,
    "Ġrays": 10333,
    "Ġcompanion": 3646,
    "Ġadds": 1805,
    "Ġris": 4887,
    "flight": 15356,
    "touch": 8392,
    "somers": 19371,
    "Ġowns": 22828,
    "erson": 7003,
    "cannot": 5745,
    "Ġsoftness": 18919,
    "Ġpitied": 14694,
    "Ġpale": 4532,
    "paralleled": 14514,
    "Ġproving": 15757,
    "tempestuous": 26098,
    "Ġagricultural": 26552,
    "neath": 12871,
    "Ġrephr": 21682,
    "purp": 8091,
    "duck": 22416,
    "Ġduration": 20356,
    "snow": 10726,
    "meas": 7434,
    "ception": 6564,
    "Ġunusually": 15851,
    "Ġrepeated": 3836,
    "rol": 5713,
    "Ġsolitary": 5856,
    "Ġbaltic": 18796,
    "Ġscare": 18397,
    "Ġsulky": 13518,
    "uer": 21103,
    "canallers": 22974,
    "Ġtedious": 15271,
    "Ġdynamic": 5124,
    "Ġmarlingspike": 26581,
    "Ġelev": 5536,
    "Ġshaken": 10267,
    "germ": 15360,
    "Ġgambler": 26192,
    "asserted": 22313,
    "Ġspo": 6846,
    "Ġetext": 23953,
    "Ġsprings": 16688,
    "Ġmah": 15546,
    "future": 13720,
    "Ġforever": 14554,
    "Ġpurposely": 10446,
    "reserved": 13846,
    "Ġundiscernible": 22072,
    "Ġspectators": 19410,
    "Ġvancou": 22877,
    "Ġdemi": 25549,
    "strom": 15689,
    "Ġnarratives": 24353,
    "springing": 24890,
    "Ġprolonged": 8358,
    "urities": 18051,
    "eye": 6226,
    "Ġascribe": 16784,
    "Ġquitting": 7646,
    "Ġvalues": 2646,
    "athered": 6973,
    "Ġpoliceman": 15262,
    "ific": 489,
    "Ġaisle": 21204,
    "aye": 3662,
    "Ġpines": 12622,
    "emotion": 21934,
    "deeply": 16174,
    "resolved": 9642,
    "slee": 17171,
    "ĠĠĠĠĠĠĠĠĠĠĠĠĠ": 22567,
    "Ġhellaswag": 24343,
    "Ġtrous": 10961,
    "igen": 4831,
    "Ġmove": 5107,
    "ause": 1312,
    "deck": 4501,
    "Ġsaith": 14158,
    "Ġtunes": 24620,
    "Ġescaping": 13139,
    "Ġfloundering": 16254,
    "ctive": 11626,
    "Ġpaling": 21465,
    "Ġgazing": 5877,
    "Ġseated": 4541,
    "ĠĠĠĠĠĠĠĠĠĠĠĠĠĠĠĠĠĠĠĠĠĠĠĠĠĠĠĠĠĠĠĠĠĠĠĠĠĠ": 16528,
    "Ġlets": 18079,
    "Ġstring": 11831,
    "Ġdarts": 16770,
    "Ġvesuvius": 26503,
    "Ġperemptory": 25741,
    "prit": 19345,
    "Ġcassock": 20490,
    "thern": 4953,
    "Ġregular": 930,
    "Ġassociations": 14966,
    "trust": 21081,
    "likely": 9026,
    "Ġdespaired": 14671,
    "ĠâĢĶâĢľ_": 17720,
    "Ġdishon": 12235,
    "Ġconfirmation": 17213,
    "Ġsociable": 19407,
    "Ġoriginal": 6104,
    "Ġresolutely": 14611,
    "hope": 5991,
    "Ġwedged": 24936,
    "stun": 18021,
    "igation": 5919,
    "Ġsabbath": 17257,
    "hew": 5286,
    "Ġsquint": 22845,
    "want": 8770,
    "probability": 17024,
    "Ġscheme": 7066,
    "Ġgreas": 17994,
    "Ġausten": 5882,
    "brous": 19200,
    "ß": 160,
    "Ġpreservation": 24631,
    "Ġgene": 15677,
    "Ġfairy": 14629,
    "conf": 4957,
    "Ġretirement": 25379,
    "Ġbec": 1347,
    "Ġisles": 8461,
    "Ġfolly": 7941,
    "_âĢĶ": 11469,
    "bitious": 16672,
    "overhearing": 19053,
    "umbria": 23898,
    "ppo": 18178,
    "mical": 9131,
    "Ġpair": 5706,
    "Ġcomes": 3427,
    "Ġtraces": 7946,
    "Ġexord": 21831,
    "ricity": 23065,
    "Ġdesist": 16243,
    "Ġmournfully": 20120,
    "Ġdigging": 14941,
    "conc": 3951,
    "Ġinsult": 6749,
    "Ġexpecting": 10438,
    "rop": 540,
    "control": 16545,
    "gunwale": 20665,
    "iable": 3336,
    "Ġleadenhall": 16631,
    "Ġveget": 11890,
    "ab": 345,
    "Ġjoll": 11769,
    "Ġbriefly": 11369,
    "Ġdesires": 9460,
    "Ġdependen": 1826,
    "goin": 23406,
    "Ġdl": 3378,
    "Ġoversampling": 20519,
    "Ġcomp": 723,
    "sight": 5996,
    "Ġcorporeally": 25729,
    "Ġtobacc": 7853,
    "Ġheading": 8938,
    "obedience": 17413,
    "Ġmatrimonial": 25490,
    "ensing": 12904,
    "Ġadmits": 23557,
    "Ġsensitive": 13203,
    "Ġhears": 8139,
    "Ġshrew": 22004,
    "Ġpoland": 23619,
    "Ġdisregard": 22532,
    "Ġaffront": 18789,
    "waist": 13422,
    "Ġvener": 8164,
    "Ġdiffused": 12073,
    "taste": 10132,
    "cription": 20820,
    "prison": 14665,
    "circ": 4390,
    "Ġlike": 671,
    "Ġwindward": 6885,
    "train": 2034,
    "distinguished": 10529,
    "ork": 417,
    "Ġcarn": 17823,
    "Ġslates": 11109,
    "ethe": 9679,
    "pain": 7350,
    "spark": 18689,
    "Ġwrote": 5011,
    "wouldn": 23539,
    "Ġsignificance": 13285,
    "Ġroused": 7624,
    "absence": 12713,
    "Ġtal": 7564,
    "Ġramad": 8530,
    "asleep": 21547,
    "terrible": 8468,
    "Ġtimid": 6347,
    "Ġ156": 20173,
    "Ġdreaminess": 23943,
    "Ġmanual": 14200,
    ",--": 2474,
    "rees": 5436,
    "olerable": 7183,
    "Ġmaz": 15547,
    "amiable": 14057,
    "Ġsparsity": 4209,
    "Ġcemeteries": 26377,
    "Ġomen": 11579,
    "Ġtops": 14587,
    "leads": 21373,
    "Ġlegend": 14576,
    "testing": 12521,
    "accomplishment": 20226,
    "Ġcaptiv": 16261,
    "Ġsea": 1209,
    "Ġprair": 7747,
    "kine": 15379,
    "biting": 20783,
    "Ġincline": 18571,
    "«": 109,
    "excited": 13384,
    "Ġimplies": 24874,
    "Ġconfide": 13102,
    "Ġtout": 17721,
    "breakfast": 8691,
    "Ġprojected": 16873,
    "Ġliving": 3062,
    "look": 2262,
    "size": 15429,
    "Ġla": 5914,
    "Ġcents": 17830,
    "Ġloosed": 22116,
    "Ġalley": 15741,
    "Ġpurposed": 23555,
    "Ġprimal": 17108,
    "Ġcontradictory": 20400,
    "effort": 19216,
    "alarm": 15632,
    ">": 34,
    "Ġexcited": 5580,
    "Ġ(_": 3740,
    "Ġfurn": 3713,
    "¥": 103,
    "Ġbake": 21385,
    "Ġfrowning": 13627,
    "hs": 8378,
    "Ġdow": 17888,
    "ruded": 15902,
    "Ġ200": 19298,
    "hyena": 24255,
    "wick": 5363,
    "Ġdependent": 14304,
    "Ġconc": 1840,
    "Ġsinned": 18954,
    "langu": 4807,
    "altogether": 12644,
    "Ġcauses": 2558,
    "ample": 1364,
    "Ġsentry": 19024,
    "Ġhatty": 19267,
    "Ġshrugged": 12774,
    "resnet": 4072,
    "ological": 1885,
    "Ġtech": 1717,
    "gaffman": 26392,
    "ush": 3635,
    "Ġsmut": 22561,
    "Ġrecumbent": 22741,
    "Ġart": 746,
    "Ġgetting": 4068,
    "Ġsurv": 6082,
    "Ġpin": 7162,
    "Ġlap": 8438,
    "ortations": 22260,
    "Ġcastor": 19430,
    "entiating": 3441,
    "Ġmeditative": 25017,
    "nay": 7137,
    "Ġascertained": 25297,
    "Ġsp": 457,
    "Ġeats": 15682,
    ";âĢĿâĢĶ": 20762,
    "pped": 1999,
    "glad": 9011,
    "Ġsooty": 25816,
    "Ġprick": 14479,
    "Ġdispelling": 23883,
    "gered": 9279,
    "Ġoccasion": 3247,
    "children": 9058,
    "Ġunav": 18241,
    "Ġyielded": 14875,
    "Ġofficer": 6755,
    "Ġboister": 12925,
    "Ġsolution": 9808,
    "lid": 20947,
    "extent": 22769,
    "Ġsomebody": 7912,
    "Ġsunlight": 13089,
    "Ġconsistence": 23359,
    "somehow": 12016,
    "opement": 10315,
    "Ġviolently": 6457,
    "lightning": 16555,
    "Ġscr": 11764,
    "gree": 10703,
    "outward": 22164,
    "isely": 4489,
    "Ġanalytical": 22911,
    "inkling": 16095,
    "Ġhawsers": 26504,
    "who": 2443,
    "Ġpresum": 4838,
    "Ġinterlacing": 22583,
    "licted": 20958,
    "higher": 20410,
    "enemy": 15531,
    "inct": 3294,
    "dissatisfied": 26614,
    "Ġchristians": 13313,
    "Ġdeadliest": 14558,
    "Ġexcluded": 16389,
    "Ġhunting": 7259,
    "Ġfewer": 16231,
    "hel": 4814,
    "Ġstranger": 3488,
    "ribe": 1224,
    "Ġpulled": 5660,
    "Ë": 140,
    "Ġstiffly": 15007,
    "Ġbetween": 792,
    "Ġamateur": 22489,
    "Ġsenseless": 12083,
    "urpation": 16305,
    "Ġdocumentation": 20557,
    "tumultuously": 25614,
    "Ġhowl": 12859,
    "arking": 16130,
    "Ġhousekeeper": 7456,
    "Ġloungers": 24863,
    "etition": 7382,
    "harpoone": 6109,
    "Ġlothario": 26186,
    "anche": 10790,
    "ħ": 232,
    "Ġalternately": 15034,
    "Ġblacks": 23391,
    "accompl": 9883,
    "Ġlongest": 18631,
    "from": 1991,
    "Ġfir": 17879,
    "slack": 16896,
    "Ġsuddenly": 2641,
    "etwork": 440,
    "ilet": 12834,
    "Ġcarried": 3697,
    "tro": 15437,
    "Ġgoblets": 20522,
    "sul": 15425,
    "idol": 21770,
    "Ġbery": 13901,
    "Ġdrifted": 14627,
    "Ġhoisted": 5961,
    "Ġobjective": 3769,
    "lop": 20950,
    "Ġforms": 6398,
    "Ġsafie": 6620,
    "lost": 8891,
    "Ġcharming": 6631,
    "tured": 13798,
    "Ġsly": 9635,
    "boy": 4738,
    "Ġriddle": 14823,
    "Ġirish": 14536,
    "indeed": 4488,
    "itch": 10163,
    "Ġfastidious": 14494,
    "!)": 10072,
    "flitted": 23972,
    "Ġintercepted": 25828,
    "Ġstudying": 9849,
    "cottage": 9572,
    "har": 20892,
    "Ġconversing": 14635,
    "readiness": 19366,
    "obtained": 23099,
    "bask": 20778,
    "Ġflail": 23011,
    "hor": 2568,
    "Ġrecklessly": 16985,
    "Ġtrowsers": 9630,
    "Ġlibrary": 6424,
    "companion": 9560,
    "Ġobsequ": 14323,
    "Ġhandsomer": 20336,
    "Ġdazzling": 15215,
    "interchange": 23741,
    "Ġborrowed": 17232,
    "Ġapartment": 6636,
    "Ġrevers": 21667,
    "onical": 21256,
    "Ġquarters": 8623,
    "Ġintroduces": 3270,
    "Ġreco": 9793,
    "Ġcarving": 14446,
    "Ġformula": 2865,
    "Ġcordially": 16838,
    "Ġphenomena": 21487,
    "Ġgor": 9209,
    "ultaneous": 18584,
    "rigging": 20009,
    "drink": 10598,
    "gang": 17555,
    "tashtego": 9625,
    "Ġspont": 22135,
    "suspected": 12376,
    "Ġpushing": 10821,
    "Ġsy": 491,
    "Ġworrying": 22930,
    "Ġhob": 12634,
    "curious": 10485,
    "Ġcitadel": 25439,
    "Ġsuddenness": 23385,
    "Ġge": 1978,
    "Ġstopping": 2747,
    "lied": 6508,
    "travel": 24337,
    "refusal": 24735,
    "Ġhim": 476,
    "Ġdeceive": 12727,
    "inary": 3276,
    "attention": 2111,
    "eded": 9676,
    "Ġmonogram": 26576,
    "Ġmerchants": 23735,
    "idirectional": 2419,
    "Ġhushed": 13928,
    "Ġniece": 5712,
    "Ġtilted": 20416,
    "Ġsav": 3358,
    "Ġaston": 3705,
    "asingly": 17963,
    "Ġattorney": 18628,
    "ud": 915,
    "Ġnav": 5819,
    "weigh": 18666,
    "Ġvon": 14084,
    "Ġdetermining": 14424,
    "Ġscarlet": 13228,
    "Ġapothe": 12379,
    "Ġspices": 22134,
    "Ġeigenvalues": 4998,
    "handle": 11192,
    "Ġbelonging": 8308,
    "âĢĶ": 518,
    "Ġchemistry": 11462,
    "acknowledge": 18469,
    "izar": 14046,
    "Ġburgled": 23655,
    "awakened": 14456,
    "Ġluxur": 12345,
    "Ġremove": 7499,
    "lur": 13750,
    "estic": 4956,
    "Ġchace": 14181,
    "mortar": 25409,
    "Ġ75": 19615,
    "Ġsunda": 13547,
    "Ġfragmentary": 25859,
    "Ġhurtling": 24960,
    "Ġkneeling": 12147,
    "Ġcompiled": 22575,
    "Ġarmed": 9263,
    "Ġnur": 5710,
    "mockery": 24378,
    "Ġpenetrate": 12274,
    "Ġundeceive": 25553,
    "Ġfamed": 16330,
    "eks": 4728,
    "Ġrelaxed": 12988,
    "lording": 24056,
    "Ġmichaelmas": 26376,
    "Ġcerem": 7079,
    "urious": 21706,
    "Ġclaw": 22352,
    "grant": 10429,
    "trial": 20353,
    "Ġdictating": 20155,
    "Ġprobable": 5570,
    "Ġinsensible": 12329,
    "expose": 23663,
    "Ġmocking": 24006,
    "riages": 10245,
    "growing": 13736,
    "Ġgaped": 13970,
    "Ġwaldman": 11347,
    "interest": 5421,
    "Ġcalam": 13039,
    "Ġincl": 4272,
    "sensations": 20054,
    "Ġradiating": 24331,
    "vity": 7815,
    "Ġsenior": 17174,
    "Ġmagazine": 23103,
    "Ġdeformed": 14052,
    "Ġsave": 4054,
    "extric": 22770,
    "Ġvindication": 25365,
    "Ġanalyzing": 18801,
    "prehend": 14245,
    "Ġwides": 17790,
    "Ġtaking": 3250,
    "loveliness": 26551,
    "Ġcrushed": 9426,
    "itud": 2930,
    "Ġharrow": 17928,
    "Ġtrib": 13822,
    "Ġrome": 12160,
    "da": 17516,
    "Ġvoyagings": 19237,
    "Ġirr": 10423,
    "Ġengravings": 15069,
    "Ġapproached": 5844,
    "Ġmelbourne": 24291,
    "Ġerection": 24004,
    "incing": 15489,
    "ceiving": 3906,
    "Ġocc": 889,
    "Ġrede": 13987,
    "Ġostent": 13588,
    "wow": 21124,
    "Ġowned": 11880,
    "Ġdeser": 3891,
    "Ġincurable": 22557,
    "caroline": 24152,
    "Ġdirty": 9181,
    "snowy": 20286,
    "Ġboats": 2633,
    "Ġvocabulary": 4995,
    "Ġconge": 15751,
    "Ġman": 544,
    "Ġsolomon": 11054,
    "Ġspiteful": 19525,
    "Ġsystemat": 18449,
    "Ġcrest": 12947,
    "Ġplanks": 5563,
    "Ġeternity": 12283,
    "Ġslipping": 13365,
    "Ġcabal": 23643,
    "gor": 547,
    "Ġpriv": 4183,
    "Ġcrate": 19121,
    "Ġcontrivances": 12361,
    "otions": 7181,
    "Ġfoster": 18991,
    "guilty": 19486,
    "Ġservants": 6612,
    "Ġinstinctively": 13463,
    "sounding": 24795,
    "inguished": 6600,
    "Ġreasonably": 11088,
    "Ġlobes": 22119,
    "Ġalman": 21785,
    "Ġcrosses": 23064,
    "rise": 6228,
    "motives": 26138,
    "Ġremains": 4911,
    "historian": 25735,
    "Ġexpanse": 14293,
    "Ġsoil": 9258,
    "passed": 8026,
    "Ġstraw": 9432,
    "Ġinterference": 8898,
    "Ġassure": 4420,
    ":âĢĶâĢĺ": 24196,
    "Ġsight": 2113,
    "Ġawait": 17074,
    "Ġcastaways": 19431,
    "exciting": 19671,
    "Ġfocuses": 8653,
    "Ġdelivery": 18976,
    "Ġconsisted": 10421,
    "att": 1454,
    "Ġseptember": 18206,
    "Ġupbraided": 26530,
    "Ġsuggested": 8321,
    "Ġspars": 3815,
    "Ġbriskly": 25312,
    "vib": 21118,
    "Ġposterity": 17405,
    "Ġretire": 10384,
    "dy": 4077,
    "Ġcontemplative": 19895,
    "Ġdiabol": 11455,
    "Ġsharper": 17182,
    "wling": 11547,
    "Ġwow": 15533,
    "ball": 7793,
    "Ġlass": 15653,
    "Ġaccomplished": 7106,
    "Ġdrown": 6816,
    "Ġdub": 13912,
    "Ġsigned": 11179,
    "Ġunceasingly": 20362,
    "Ġgrind": 18734,
    "bears": 22494,
    "gate": 12471,
    "Ġbeacon": 21760,
    "aco": 12900,
    "Ġstammered": 26201,
    "adler": 21766,
    "Ġcommunic": 5751,
    "Ġfoul": 7160,
    "fav": 6649,
    "Ġfabric": 25948,
    "riptions": 14798,
    "embarr": 17295,
    "Ġrevolved": 9987,
    "Ġshall": 1142,
    "imony": 12695,
    "persu": 8028,
    "Ġreceptive": 1562,
    "Ġspinal": 12306,
    "Ġdiscount": 22782,
    "fow": 20855,
    "Ġgibraltar": 25788,
    "Ġcro": 4874,
    "erranean": 9337,
    "violets": 23547,
    "ody": 1479,
    "anyone": 16595,
    "Ġhunsford": 6303,
    "ulia": 18151,
    "Ġpalmed": 24095,
    "Ġvictoria": 14876,
    "Ġflora": 11418,
    "dataset": 23247,
    "Ġsquaring": 22847,
    "glit": 23853,
    "Ġranging": 8481,
    "Ġcrows": 24037,
    "vul": 15452,
    "alleging": 23028,
    "Ġrapidity": 11102,
    "orm": 425,
    "surpr": 5998,
    "letters": 13178,
    "distance": 12157,
    "darker": 24516,
    "Ġmermaids": 26171,
    "ah": 1831,
    "Ġcommunicated": 9064,
    "Ġlimped": 19183,
    "Ġburg": 23653,
    "turner": 19544,
    "Ġmes": 17798,
    "Ġvales": 21950,
    "Ġmillions": 11356,
    "knell": 24555,
    "retirement": 23143,
    "Ġlie": 4408,
    "Ġarchitects": 18738,
    "Ġvit": 10248,
    "Ġgermans": 25785,
    "events": 12321,
    "rength": 4102,
    "Ġventured": 7501,
    "Ġberth": 8683,
    "Ġbritish": 11339,
    "column": 19331,
    "Ġintensity": 10019,
    "Ġridges": 16733,
    "Ġscandal": 9084,
    "knives": 14916,
    "ditch": 17530,
    "treat": 12518,
    "Ġeffort": 8205,
    "Ġmig": 13859,
    "ory": 1081,
    "Ġreports": 19086,
    "alarms": 21508,
    "Ġcruising": 6912,
    "usions": 6161,
    "Ġgazette": 19504,
    "zed": 8104,
    "Ġdiscerning": 25005,
    "Ġcopies": 24938,
    "cary": 10693,
    "Ġmathemat": 3204,
    "afric": 19181,
    "Ġworm": 9165,
    "Ġprizes": 13078,
    "Ġsuffer": 4721,
    "vital": 17702,
    "cho": 2759,
    "Ġdistribution": 2019,
    "Ġvow": 10249,
    "Ġtug": 11553,
    "Ġnarrower": 24354,
    "Ġhearses": 20063,
    "Ġbinding": 20422,
    "Ġbelt": 13012,
    "proper": 7471,
    "pane": 10123,
    "Ġbills": 17862,
    "Ġinsipid": 26314,
    "Ġroughs": 19960,
    "Ġburial": 16524,
    "Ġprevented": 5943,
    "tut": 15438,
    "Ġpensive": 21478,
    "impregn": 21717,
    "Ġspacious": 18313,
    "Ġcontrol": 13084,
    "Ġlegit": 16476,
    "Ġgrego": 18963,
    "spiracle": 22737,
    "Ġmis": 917,
    "Ġthoughtful": 16196,
    "Ġpulling": 5864,
    "Ġmustering": 18663,
    "Ġspoils": 24805,
    "Ġannihilated": 20255,
    "Ġprynne": 25541,
    "bert": 4662,
    "Ġconcre": 16394,
    "Ġripe": 13240,
    "Ġdawn": 6817,
    "irium": 8162,
    "Ġoverlooked": 15979,
    "silent": 9977,
    "Ġage": 3900,
    "wickham": 5885,
    "gans": 11492,
    "Ġmeddling": 21323,
    "Ġcomplaints": 12269,
    "j": 78,
    "Ġlays": 15994,
    "77": 15304,
    "icherry": 15139,
    "Ġrigging": 5601,
    "function": 4208,
    "herald": 22209,
    "Ġmaddened": 17246,
    "hun": 5210,
    "ğ": 224,
    "oft": 3594,
    "Ġ181": 23899,
    "surprising": 16921,
    "king": 3059,
    "Ġtrust": 4081,
    "approaching": 15014,
    "Ġsurve": 9877,
    "franch": 24286,
    "Ġunhe": 22014,
    "Ġconve": 5455,
    "Ġflowed": 10374,
    "bows": 10084,
    "hooked": 23718,
    "omit": 13977,
    "Ġbegg": 16256,
    "holloa": 19467,
    "Ġingolstadt": 8333,
    "theirs": 23604,
    "Ġowen": 15098,
    "Ġengraved": 17082,
    "Ġwonderful": 4563,
    "constit": 24605,
    "conviction": 19968,
    "Ġspurred": 22142,
    "published": 26143,
    "roots": 15648,
    "Ġmedit": 8025,
    "Ġoffences": 18692,
    "down": 3472,
    "Ġaccess": 9750,
    "Ġcompliments": 8636,
    "sank": 17664,
    "lour": 15384,
    "Ġconcent": 8250,
    "brain": 13691,
    "Ġfundamentals": 14637,
    "allest": 5485,
    "Ġincivility": 18574,
    "obliv": 23100,
    "Ġcontain": 1552,
    "cement": 2815,
    "Ġdespise": 14668,
    "Ġrespectable": 6738,
    "Ġrationally": 18214,
    "Ġcoldly": 14652,
    "ional": 1083,
    "Ġshift": 2283,
    "Ġostens": 25276,
    "Ġincensed": 18573,
    "Ġamong": 1664,
    "Ġlists": 11168,
    "Ġhandspike": 22699,
    "Ġstreet": 2957,
    "glasses": 11217,
    "vicinity": 20483,
    "\"],": 26121,
    "tim": 13794,
    "term": 3762,
    "Ġsteward": 6586,
    "Ġpe": 850,
    "Ġmain": 809,
    "Ġhonorable": 16878,
    "libr": 22926,
    "Ġpitiless": 19391,
    "ideas": 18583,
    "tarpaulins": 26407,
    "Ġassertions": 19950,
    "Ġpursuits": 12081,
    "Ġmakes": 3654,
    "Ġlaughter": 9030,
    "Ġfashion": 4300,
    "acon": 10684,
    "Ġmock": 3694,
    "Ġmonomaniac": 9571,
    "Ġmate": 3711,
    "Ġerskine": 17435,
    "Ġmainmast": 9782,
    "Ġbeamed": 23724,
    "cially": 3492,
    "Ġdel": 1611,
    "cloud": 11108,
    "Ġmechanical": 7936,
    "Ġdiscovers": 4429,
    "âĢĶâĢľ_": 13208,
    "Ġtak": 15473,
    "Ġcomposed": 8896,
    "Ġbuttons": 12786,
    "Ġerr": 1320,
    "Ġport": 3312,
    "Ġdistributes": 4196,
    "drawers": 19389,
    "solic": 16381,
    "Ġpervading": 20616,
    "Ġsettee": 22924,
    "Ġkindness": 4098,
    "Ġairth": 23322,
    "proved": 11991,
    "clay": 18933,
    "Ġbakers": 17868,
    "ĠĠĠĠĠĠĠĠĠĠĠĠ": 12908,
    "Ġstrongly": 5657,
    "values": 4973,
    "Ġbackpropagation": 1259,
    "Ġmorose": 18851,
    "Ġadmiral": 17308,
    "emph": 21932,
    "tips": 13799,
    "Ġthrow": 3788,
    "anting": 6413,
    "Ġmult": 1021,
    "hors": 9601,
    "Ġexeget": 24088,
    "Ġimage": 3407,
    "beaut": 8515,
    "Ġkrus": 18350,
    "Ġbert": 4582,
    "Ġdance": 4443,
    "sperm": 5203,
    "hark": 15369,
    "Ġinsensibility": 17111,
    "Ġgets": 10841,
    "Ġpres": 9735,
    "Ġrefined": 18700,
    "Ġtr": 554,
    "Ġplainer": 23704,
    "Ġsim": 734,
    "Ġdeserving": 14757,
    "beating": 22493,
    "aulding": 11341,
    "apple": 22849,
    "Ġdear": 1540,
    "Ġisolation": 17153,
    "Ġchill": 11756,
    "Ġreverber": 19871,
    "tempt": 21082,
    "Ġrover": 18456,
    "Ġpredictions": 1453,
    "Ġcaliforn": 14434,
    "Ġunfair": 19510,
    "Ġvagu": 13593,
    "earliest": 20123,
    "waves": 10744,
    "iles": 2861,
    "Ġcomplexion": 8210,
    "Ġpondering": 17007,
    "Ġcruise": 12053,
    "Ġinvincible": 23481,
    "itancy": 21336,
    "Ġentit": 22743,
    "Ġdisown": 22528,
    "Ġthirty": 4944,
    "Ġforbearance": 12332,
    "Ġscholars": 26113,
    "Ġmy": 410,
    "touched": 15443,
    "Ġwhaleman": 4654,
    "exactly": 10639,
    "bud": 10686,
    "Ġlongbourn": 3511,
    "Ġalabama": 14022,
    "satisfactory": 16895,
    "Ġlayer": 1010,
    "Ġexc": 1830,
    "Ġconfid": 7687,
    "pumps": 21029,
    "Ġtroublesome": 24005,
    "Ġnets": 21527,
    "ival": 4228,
    "soc": 5175,
    "Ġdiffered": 22712,
    "jub": 20931,
    "Ġmax": 2007,
    "Ġlizard": 12659,
    "Ġinvestig": 10552,
    "icism": 13959,
    "sympathy": 20545,
    "rod": 10833,
    "Ġwindow": 2997,
    "Ġdomineer": 23710,
    "Ġdestro": 3725,
    "Ġsodden": 25536,
    "injury": 25214,
    "el": 306,
    "Ġloftiest": 16876,
    "windows": 19537,
    "degree": 12806,
    "ocations": 23707,
    "Ġprogress": 5023,
    "Ġdocks": 14178,
    "brad": 20782,
    "porpoise": 16438,
    "177": 20754,
    "Ġdun": 6676,
    "endeavour": 17032,
    "Ġclothe": 4711,
    "Ġprior": 11320,
    "abated": 14023,
    "Ġvolcano": 24150,
    "Ġofficial": 7083,
    "happy": 4426,
    "buncle": 13696,
    "Ġplu": 8803,
    "Ġiteratively": 3056,
    "intellect": 18823,
    "armon": 23061,
    "Ġaxe": 15064,
    "Ġconsidering": 4615,
    "Ġblew": 9048,
    "Ġtokens": 1769,
    "wives": 15459,
    "Ġupbra": 22158,
    "ester": 11601,
    "Ġinitials": 11016,
    "Ġdisgracing": 26257,
    "Ġrefuge": 8542,
    "tar": 8098,
    "Ġmaybe": 12954,
    "Ġenv": 2787,
    "family": 7324,
    "aws": 8237,
    "Ġachieve": 3675,
    "Ġchorus": 10948,
    "Ġrnns": 2393,
    "Ġcure": 21343,
    "sac": 7142,
    "Ġoperations": 2300,
    "Ġtide": 6661,
    "Ġdropt": 23675,
    "reached": 13844,
    "Ġbeneficial": 23934,
    "proportion": 16186,
    "Ġtransparent": 9492,
    "Ġrod": 9283,
    "Ġconsideration": 5191,
    "Ġwaylaid": 22875,
    "Ġrepairing": 25590,
    "withdrawn": 23031,
    "Ġinflex": 20637,
    "dwell": 15345,
    "Ġguards": 16271,
    "duty": 20242,
    "immedi": 8452,
    "ist": 450,
    "Ġrapt": 7227,
    "Ġdum": 10813,
    "ippers": 17578,
    "Ġbumpkin": 20203,
    "Ġhy": 5625,
    "denial": 18716,
    "use": 2533,
    "Ġwhiteness": 5920,
    "Ġ6": 5141,
    "Ġcologne": 12980,
    "Ġxlix": 25861,
    "Ġbecame": 2687,
    "barrow": 15324,
    "reed": 6374,
    "Ġunsc": 22018,
    "places": 7879,
    "Ġprofound": 5497,
    "hogs": 20085,
    "Ġmaking": 1778,
    "Ġunite": 9257,
    "called": 6294,
    "carbuncle": 26384,
    "Ġexcurs": 23318,
    "Ġcandid": 4100,
    "Ġbloodshot": 23802,
    "Ġopportunity": 4786,
    "Ġeaglet": 19307,
    "Ġpointing": 5661,
    "astern": 8585,
    "Ġ110": 24435,
    "spr": 7435,
    "required": 17031,
    "Ġresp": 2491,
    "onze": 21258,
    "Ġsorrowful": 10539,
    "idea": 9304,
    "butt": 15999,
    "Ġillness": 8593,
    "Ġspin": 7630,
    "Ġconvers": 2907,
    "Ġcomb": 1038,
    "Ġfre": 1569,
    "Ġsalutations": 25383,
    "Ġbrute": 8930,
    "Ġbulkhead": 24511,
    "Ġjoist": 19233,
    "Ġworlds": 11951,
    "Ġninetieth": 25358,
    "Ġmorbidness": 20631,
    "Ġaddressing": 11166,
    "remembrance": 25703,
    "Ġ128": 24473,
    "usable": 22293,
    "_âĢĶâĢĻ": 13686,
    "Ġvillas": 24059,
    "Ġdefect": 8557,
    "Ġlucerne": 23867,
    "Ġunworthy": 11719,
    "Ġstrengthen": 20703,
    "Ġliar": 22412,
    "aking": 974,
    "drovand": 24759,
    "night": 2168,
    "Ġtreas": 7358,
    "moon": 10338,
    "Ġembattled": 26290,
    "iveness": 2465,
    "Ġconventional": 25548,
    "Ġrefres": 14345,
    "dropping": 14985,
    "Ġfrank": 4421,
    "iling": 3095,
    "Ġheroine": 24543,
    "Ġcrowded": 8012,
    "Ġdisc": 943,
    "Ġvillage": 5774,
    "Ġsuck": 15864,
    "burning": 25081,
    "Ġgloom": 4202,
    "umbling": 6613,
    "Ġnaval": 16901,
    "Ġaffections": 10387,
    "Ġscal": 1591,
    "Ġcounted": 12144,
    "Ġincumbent": 16070,
    "restored": 18979,
    "Ġmincer": 14369,
    "Ġbeaut": 2392,
    "Ġhammer": 6095,
    "Ġmisgivings": 15295,
    "Ġprodigies": 19796,
    "Ġtidy": 17094,
    "haut": 20904,
    "Ġyarn": 10870,
    "Ġoutweigh": 22326,
    "Ġsir": 1568,
    "Ġcoding": 8116,
    "Ġlevels": 12703,
    "stache": 15695,
    "yden": 21146,
    "Ġeither": 2600,
    "Ġmastery": 23996,
    "ara": 12611,
    "mysterious": 26052,
    "Ġmonsters": 11076,
    "kitchen": 17587,
    "Ġtuck": 10143,
    "Ġcrumpled": 16441,
    "Ġapparently": 6779,
    "foam": 24418,
    "Ġspilling": 22141,
    "Ġdrawling": 19440,
    "Ġinscriptions": 20012,
    "Ġcobbling": 20526,
    "palms": 25263,
    "Ġtand": 21163,
    "gradually": 12920,
    "oundering": 11750,
    "atement": 17775,
    "Ġstudious": 23226,
    "Ġleisure": 6541,
    "Ġbourgh": 5069,
    "Ġ78": 19616,
    "Ġdoll": 10815,
    "ular": 709,
    "Ġfleeting": 19329,
    "Ġconcrete": 20640,
    "Ġconceal": 5975,
    "robust": 19731,
    "Ġnobody": 6160,
    "nowled": 5470,
    "longer": 8616,
    "Ġforest": 9874,
    "linked": 17595,
    "jac": 8382,
    "Ġprep": 4191,
    "Ġtrampled": 20331,
    "ę": 218,
    "Ġplanisphere": 26609,
    "Ġgloried": 22990,
    "grew": 17557,
    "Ġbone": 4694,
    "loving": 18539,
    "pair": 21014,
    "Ġtremulous": 14989,
    "coff": 9112,
    "clearly": 25196,
    "Ġgradual": 20604,
    "authority": 13595,
    "Ġexternal": 8365,
    "athies": 22703,
    "Ġaffidav": 18790,
    "circumstances": 8047,
    "Ġsnoring": 23742,
    "Ġryder": 10261,
    "Ġidentify": 12018,
    "Ġunconsciously": 10008,
    "blog": 19842,
    "Ġgravel": 14105,
    "ceiling": 21630,
    "Ġunquestion": 18249,
    "objections": 19918,
    "Ġconcentric": 20078,
    "Ġspoil": 17009,
    "ê": 171,
    "majesty": 26282,
    "Ġwane": 21291,
    "false": 15358,
    "Ġfootsteps": 16575,
    "em": 391,
    "Ġlistener": 16478,
    "Ġdimly": 9491,
    "Ġmonths": 3458,
    "Ġwild": 2598,
    "Ġaccountability": 10440,
    "bellies": 19977,
    "Ġprettier": 23767,
    "Ġpay": 3966,
    "Ġliberally": 16832,
    "gigantic": 15363,
    "Ġpurse": 12015,
    "Ġpartiality": 9401,
    "isation": 13896,
    "Ġsolemnity": 9944,
    "Ġmol": 12566,
    "Ġheartily": 6890,
    "cat": 15327,
    "hers": 7636,
    "sho": 6426,
    "Ġinvent": 7165,
    "izarre": 17392,
    "Ġcorrespondent": 19825,
    "Ġdandy": 17894,
    "apprehens": 17409,
    "atics": 15527,
    "apparent": 11043,
    "Ġjuggling": 20442,
    "Ġhebrew": 13991,
    "impress": 18054,
    "inery": 17735,
    "Ġendured": 6074,
    "Ġsubmit": 11874,
    "Ġdiminished": 16668,
    "murmured": 24455,
    "desper": 13223,
    "Ġtrunk": 7205,
    "stays": 15694,
    "Ġroman": 8323,
    "Ġearned": 19408,
    "once": 5905,
    "hro": 20893,
    "Ġcastle": 14720,
    "rot": 21535,
    "Ġhosts": 19942,
    "Ġassembled": 9239,
    "Ġdivinely": 25723,
    "calculating": 25690,
    "uel": 6967,
    "brevi": 24078,
    "Ġgraves": 11712,
    "Ġregularly": 7658,
    "Ġunpardonable": 22066,
    "Ġstandards": 19017,
    "uture": 1119,
    "desired": 9008,
    "weaknesses": 26031,
    "Ġstraighten": 24008,
    "asons": 6016,
    "Ġconcisely": 19045,
    "Ġunlike": 7006,
    "Ġmeanings": 18608,
    "Ġcommands": 16591,
    "Ġrainbows": 19651,
    "Ġweaver": 11691,
    "Ġmills": 21314,
    "hatchet": 24819,
    "Ġpew": 9318,
    "Ġwreat": 15535,
    "soon": 4031,
    "Ġfrogs": 23927,
    "Ġprodigious": 8057,
    "oga": 22713,
    "Ġbias": 1190,
    "Ġfaith": 5351,
    "Ġliter": 8816,
    "measured": 19993,
    "stream": 15692,
    "ounce": 6559,
    "Ġshrouds": 11346,
    "Ġstains": 21745,
    "Ġimpatiently": 8338,
    "Ġcable": 11583,
    "Ġmeaning": 1416,
    "address": 14884,
    "Ġadversarial": 5607,
    "Ġpantheistic": 26337,
    "Ġgreedily": 18966,
    "Ġclatter": 22349,
    "Ġbal": 1132,
    "talking": 10010,
    "Ġabhorred": 9511,
    "Ġdifferently": 10391,
    "Ġdelay": 5748,
    "considered": 9583,
    "drop": 15340,
    "zag": 17715,
    "Ġgaff": 17996,
    "Ġreverie": 13461,
    "Ġpearl": 20380,
    "Ġtropics": 17067,
    "Ġdiver": 2527,
    "Ě": 219,
    "september": 14039,
    "20": 20755,
    "itarian": 21340,
    "sails": 7497,
    "ivory": 10272,
    "regarding": 15075,
    "Ġrighteous": 18948,
    "Ġrenow": 18030,
    "Ġlaugh": 4114,
    "Ġbrightest": 13230,
    "retrospect": 23142,
    "Ġsupre": 10271,
    "impenetrable": 26198,
    "zar": 11550,
    "insult": 16282,
    "Ġsway": 7571,
    "Ġwildest": 16512,
    "ford": 2822,
    "Ġsubsequent": 7659,
    "Ġlargest": 6284,
    "Ġheadache": 22902,
    "Ġmoody": 8201,
    "excepting": 19709,
    "Ġseal": 10257,
    "Ġdecently": 22446,
    "isite": 15568,
    "strils": 10460,
    "Ġshelter": 17010,
    "Ġargosy": 24276,
    "Ġsavage": 4014,
    "Ġquiescent": 26244,
    "Ġconclusion": 5987,
    "Ġfirm": 3875,
    "utting": 17987,
    "Ġpreserved": 9265,
    "Ġbennet": 1573,
    "Ġclimb": 15083,
    "Ġ17": 5740,
    "virt": 15455,
    "Ġweak": 5098,
    "Ġcredit": 4819,
    "residence": 19265,
    "Ġpreprocess": 22237,
    "©": 107,
    "Ġheave": 7600,
    "Ġrewards": 10850,
    "Ġrepulses": 26071,
    "rad": 2153,
    "Ġknew": 2054,
    "Ġunwe": 15843,
    "shri": 14238,
    "Ġtailed": 21171,
    "Ġgrud": 17998,
    "ogr": 18676,
    "Ġsubstituting": 26328,
    "lashed": 20956,
    "bank": 10082,
    "Ġbelshazzar": 16232,
    "tle": 2406,
    "Ġlaudanum": 20693,
    "sweet": 8689,
    "Ġshiny": 14109,
    "Ġpicturesqueness": 24480,
    "Ġineffable": 17335,
    "Ġvexation": 10589,
    "Ġfuriously": 9805,
    "consum": 12875,
    "Ġparch": 11730,
    "Ġsecurity": 8980,
    "surprise": 9533,
    "creatures": 7517,
    "Ġimmersed": 19488,
    "Ġmaintained": 12939,
    "Ġmusk": 7494,
    "Ġcarries": 7674,
    "Ġbern": 17860,
    "attest": 23122,
    "Ġunc": 2126,
    "asp": 3342,
    "Ġund": 4120,
    "Ġescaped": 6460,
    "Ġsins": 13840,
    "cles": 8729,
    "istle": 15875,
    "Ġdented": 17893,
    "iew": 2444,
    "Ġcharm": 4548,
    "Ġwheeled": 14141,
    "Ġcommitting": 22676,
    "eric": 3474,
    "Ġdard": 21425,
    "Ġcommenting": 25229,
    "Ġdeft": 21841,
    "Ġcorpus": 13037,
    "Ġbohemian": 17136,
    "dense": 18715,
    "Ġdegener": 14053,
    "ermaid": 14298,
    "Ġgreenhorn": 23770,
    "Ġlye": 21554,
    "eon": 8733,
    "idav": 18095,
    "Ġunlocked": 14123,
    "Ġdiddled": 22670,
    "Ġsubordinate": 18723,
    "Ġfactory": 23279,
    "quis": 7870,
    "Ġoceans": 7996,
    "Ġstagnant": 24655,
    "iner": 2666,
    "Ġanomalously": 25639,
    "ilburn": 18062,
    "Ġexcavating": 23319,
    "Ġinside": 5448,
    "cle": 3959,
    "ruined": 18338,
    "Ġissue": 2311,
    "ruction": 4359,
    "Ġindia": 10373,
    "dat": 1652,
    "Ġmethodology": 2593,
    "Ġhooded": 12410,
    "Ġunce": 11715,
    "Ġmanaging": 22329,
    "Ġdeferred": 18827,
    "ĠâĢľâĢĻ": 22258,
    "Ġcanallers": 13631,
    "Ġtags": 20574,
    "Ġmoccas": 22438,
    "Ġpresenting": 18988,
    "Ġcattle": 12577,
    "Ġimbib": 22179,
    "Ġscience": 1522,
    "Ġpossesses": 19355,
    "Ġcolonies": 14378,
    "Ġlanyard": 26463,
    "streamed": 25967,
    "Ġsavoury": 23880,
    "invol": 12535,
    "Ġinvestigated": 25387,
    "Ġsorrow": 4628,
    "Ġharvard": 24574,
    "eler": 1570,
    "rain": 465,
    "uncont": 15779,
    "Ġcapabilities": 4379,
    "Ġnephew": 6405,
    "Ġmany": 1103,
    "Ġcurvature": 3577,
    "oir": 21004,
    "Ġfrontispiece": 23917,
    "west": 10741,
    "Ġsweatings": 25709,
    "Ġmultitud": 18748,
    "Ġinfinity": 23284,
    "Ġdiscontented": 16064,
    "Ġnetherfield": 3934,
    "Ġgun": 4701,
    "led": 580,
    "Ġjust": 1240,
    "hetic": 12208,
    "Ġsage": 17754,
    "Ġaugment": 8695,
    "Ġtrip": 16790,
    "quently": 9705,
    "rison": 13782,
    "Ġsituations": 10494,
    "Ġhopes": 4235,
    "Ġtimes": 2303,
    "remembered": 17354,
    "hetically": 21211,
    "Ġconvul": 13207,
    "Ġperempt": 13677,
    "narr": 12501,
    "Ġresearches": 13135,
    "persuade": 13536,
    "Ġexchange": 15759,
    "africa": 26309,
    "Ġsubsisting": 23437,
    "Ġtrees": 4203,
    "Ġthose": 1173,
    "loa": 18535,
    "ression": 3410,
    "struck": 7862,
    "Ġexperience": 1355,
    "Ġfollies": 16260,
    "remed": 18956,
    "Ġassent": 12738,
    "iliary": 21730,
    "Ġinfall": 7960,
    "Ġtelescopes": 25691,
    "Ġapex": 24342,
    "narrowly": 20350,
    "Ġbristles": 25845,
    "F": 42,
    "Ġsaxe": 13632,
    "Ġspind": 18308,
    "ributed": 8215,
    "rights": 23674,
    "Ġje": 4124,
    "burg": 16775,
    "rate": 2420,
    "Ġhollow": 5648,
    "Ġresent": 6050,
    "Ġtoiled": 12647,
    "Ġinterven": 11000,
    "collect": 16566,
    "pedest": 24823,
    "Ġbene": 2032,
    "tackle": 17324,
    "evil": 11488,
    "ffic": 22155,
    "Ġsyllables": 25299,
    "Ġfaced": 10810,
    "ounder": 11748,
    "health": 13836,
    "Ġphyseter": 26588,
    "Ġdivineness": 25724,
    "Ġcheek": 8581,
    "Ġtrap": 7672,
    "stript": 21660,
    "Ġannoyed": 17202,
    "Ġanatomy": 12324,
    "âĢĶâĢĺ_": 24832,
    "Ġsubjects": 7074,
    "Ġbraved": 23841,
    "Ġfondness": 16782,
    "Ġcorrespond": 6211,
    "Ġstoper": 14466,
    "pictures": 15094,
    "(": 12,
    "ic": 304,
    "Ġaskance": 23152,
    "Ġdinah": 9457,
    "Ġtales": 10144,
    "whose": 6852,
    "Ġhealthful": 24064,
    "Ġfee": 7199,
    "eryton": 4095,
    "Ġavenues": 25430,
    "Ġswiss": 18883,
    "Ġcylinders": 25944,
    "usage": 12838,
    "Č": 205,
    "Ġunstructured": 3003,
    "web": 18665,
    "ancient": 9658,
    "Ġauger": 21206,
    "originally": 24940,
    "Ġparticularly": 5056,
    "Ġconstitutional": 25128,
    "example": 16018,
    "Ġbes": 2655,
    "iz": 364,
    "Ġunex": 11717,
    "Ġneat": 7000,
    "ilent": 21723,
    "Ġplucked": 15117,
    "Ġportion": 7492,
    "Ġsacr": 7194,
    "Ġcous": 3440,
    "Ġstowed": 21740,
    "J": 46,
    "rived": 5373,
    "Ġexploded": 15914,
    "positive": 20570,
    "Ġplacid": 11830,
    "Ġcontracted": 12865,
    "Ġdeline": 16337,
    "Ġale": 9157,
    "searching": 25106,
    "Ġinattention": 17934,
    "Ġmasked": 3698,
    "equally": 19901,
    "Ġsen": 9159,
    "utility": 21590,
    "Ġrestless": 10415,
    "Ġexpeditions": 24957,
    "Ġforthwith": 16620,
    "Ġmoisture": 12363,
    "Ġcant": 17826,
    "Ġslain": 8956,
    "Ġgenus": 24429,
    "Ġflower": 16238,
    "favouring": 24761,
    "Ġsigning": 22709,
    "objection": 19917,
    "wr": 3028,
    "calcul": 12992,
    "uzz": 4524,
    "Ġmarvelled": 18875,
    "um": 454,
    "Ġwarn": 5695,
    "made": 4808,
    "Ġtransaction": 22443,
    "Ġinflu": 4910,
    "ichever": 13960,
    "Ġwoollen": 12108,
    "s": 87,
    "Ġlo": 453,
    "awing": 18917,
    "turbable": 24531,
    "Ġordained": 19448,
    "Ġgree": 7595,
    "hunted": 16834,
    "Ġwhitting": 18058,
    "peril": 18340,
    "Ġrealised": 18981,
    "liament": 16222,
    "Ġinter": 728,
    "Ġelements": 2662,
    "Ġmagg": 18907,
    "shaven": 18497,
    "tranqu": 14709,
    "Ġjoint": 12038,
    "Ġdif": 870,
    "Ġalteration": 9549,
    "thoroughly": 26510,
    "poling": 12224,
    "Ġdoom": 6418,
    "Ġports": 10820,
    "yond": 2329,
    "eman": 5636,
    "Ġmunro": 25631,
    "Ġtid": 8107,
    "Ġ9": 5902,
    "Ġrespect": 1665,
    "Ġexal": 10879,
    "Ġoverpower": 12847,
    "homely": 25618,
    "Ġfailure": 13319,
    "Ġremember": 2673,
    "Ġunder": 1634,
    "Ġclergy": 7643,
    "Ġreject": 7386,
    "Ġindelicacy": 25696,
    "omy": 6250,
    "Ġinexpressible": 17336,
    "erie": 21273,
    "Ġindefinite": 17179,
    "Ġlydia": 2373,
    "Ġbutcher": 18272,
    "ants": 1393,
    "Ġdaw": 21432,
    "christmas": 20258,
    "Ġfading": 15589,
    "rowsers": 8698,
    "Ġunmolested": 15249,
    "Ġunderground": 18985,
    "Ġsubst": 4275,
    "mate": 5359,
    "Ġindefinitely": 25222,
    "nantucketer": 24975,
    "Ġchristianity": 19863,
    "Ġflamingo": 15104,
    "Ġfashioned": 13325,
    "Ã¦": 4339,
    "Ġnought": 21525,
    "ibility": 2389,
    "liable": 3823,
    "actually": 14297,
    "Ġkeen": 4613,
    "Ġfilial": 16622,
    "Ġmutineer": 19421,
    "ated": 733,
    "),": 1344,
    "fowl": 17551,
    "Ġ1950": 11361,
    "Ġsomewhat": 4898,
    "Ġsole": 3299,
    "induce": 22378,
    "Ġunperceived": 22041,
    "ien": 10104,
    "Ġdegenerating": 25800,
    "Ġmorrow": 9346,
    "Ġberyls": 25776,
    "Ġfurled": 22816,
    "Ġobsolete": 26560,
    "Ġli": 602,
    "Ġcalculus": 23986,
    "Ġpausing": 8656,
    "Ġgave": 2219,
    "Ġreminded": 10002,
    "Ġrooted": 13173,
    "Ġlicensing": 20096,
    "Ġphr": 2676,
    "Ġaristocratic": 20516,
    "complain": 14361,
    "Ġyards": 5371,
    "venerable": 26410,
    "Ġinhabitant": 19758,
    "Ġsearch": 2586,
    "zors": 21150,
    "Ġbushy": 16406,
    "les": 1014,
    "Ġjealously": 24127,
    "ushes": 22295,
    "gy": 2096,
    "Ġclapham": 17268,
    "Ġcler": 11774,
    "jol": 20927,
    "Ġconnections": 972,
    "Ġnoblest": 13248,
    "Ġsketch": 16170,
    "paradise": 20639,
    "Ġdro": 2769,
    "separated": 20162,
    "Ġgibberish": 25787,
    "Ġamph": 18512,
    "Ġexcessively": 9443,
    "Ġvary": 15812,
    "\":": 9584,
    "Ġforeshadowing": 26594,
    "craft": 12251,
    "need": 10981,
    "goose": 19103,
    "used": 3260,
    "Ġboil": 16109,
    "Ġkrusenstern": 26379,
    "Ġcult": 8786,
    "sen": 21052,
    "aging": 2239,
    "Ġconce": 3426,
    "darted": 20834,
    "should": 3262,
    "tom": 15439,
    "Ġundertaking": 8577,
    "wretched": 10743,
    "Ġbehooves": 20735,
    "Ġsporty": 19892,
    "acqu": 4843,
    "ď": 208,
    "ithmetic": 18064,
    "encyclopÃ¦dia": 16666,
    "Ġretains": 20033,
    "personal": 24966,
    "Ġstarry": 16925,
    "Ġcreativity": 3085,
    "secre": 18130,
    "Ġaccosted": 13676,
    "Ġshame": 6411,
    "Ġavoided": 13264,
    "comfortableness": 24525,
    "Ġfreedom": 9085,
    "xt": 2081,
    "Ġrestraint": 15131,
    "Ġsuppl": 11080,
    "civilities": 24974,
    "Ġbarrel": 23794,
    "painter": 24897,
    "ache": 8520,
    "Ġarched": 10934,
    "attend": 11103,
    "Ġer": 8105,
    "Ġod": 4440,
    "Ġbod": 4581,
    "Ġimpenitent": 26550,
    "Ġunrecorded": 17470,
    "Ġhearing": 4761,
    "aguy": 21914,
    "fs": 17537,
    "latitude": 25260,
    "irresistible": 18174,
    "prevented": 20377,
    "Ġbrass": 11050,
    "Ġgothic": 18002,
    "whaling": 7899,
    "Ġvault": 8845,
    "Ġapproving": 18510,
    "Ġstoke": 10398,
    "Ġdidn": 4364,
    "Ġcorroded": 18877,
    "Ġbeheld": 4493,
    "ssible": 2992,
    "endous": 6850,
    "Ġbead": 21754,
    "Ġenglish": 3617,
    "engine": 18929,
    "Ġhue": 8430,
    "Ġsalted": 14760,
    "Ġprofusion": 23570,
    "Ġhazarded": 25655,
    "Ġoverhead": 11777,
    "topic": 10530,
    "inted": 2644,
    "Ġchronicler": 20232,
    "ench": 21282,
    "it": 276,
    "onder": 3784,
    "Ġseldom": 4629,
    "pall": 17630,
    "macy": 18804,
    "Ġrejoiced": 8687,
    "Ġremot": 8546,
    "Ġwoll": 21296,
    "Ġbodies": 8032,
    "mechanically": 17303,
    "superst": 11327,
    "Ġwhoa": 22424,
    "aire": 10683,
    "Ġsevent": 18201,
    "Ġarm": 2489,
    "othic": 16220,
    "killer": 20479,
    "Ġfrancis": 26064,
    "anim": 6523,
    "cries": 17513,
    "Ġforgiven": 24033,
    "flies": 19427,
    "Ġcorrect": 2429,
    "lean": 21368,
    "Ġ1778": 25730,
    "Ġresounds": 22546,
    "Ġwhosoever": 21722,
    "Ġmisunderstood": 18706,
    "cu": 10086,
    "Ġcrescent": 16142,
    "Ġsmart": 11819,
    "ĠcÃ¦sar": 20583,
    "jephro": 26394,
    "Ġdone": 1815,
    "Ġskeleton": 5514,
    "vil": 2728,
    "sugg": 11843,
    "Ġchecked": 9379,
    "ĠĠĠĠ": 460,
    "bab": 11470,
    "Ġimpotent": 18445,
    "Ġhumble": 8554,
    "commanders": 16991,
    "descend": 23089,
    "disposition": 10045,
    "Ġwanting": 6723,
    "Ġskull": 6290,
    "yielded": 25757,
    "Ġnick": 21526,
    "Ġfrequent": 3289,
    "hab": 1078,
    "Ġinn": 4590,
    "Ġdish": 6138,
    "Ġunsur": 22026,
    "Ġhull": 5446,
    "Ġpleadings": 25854,
    "Ġgoethe": 22428,
    "Ġsolemnisation": 24116,
    "Ġthimble": 15642,
    "anean": 7443,
    "turkish": 24533,
    "contented": 14636,
    "Ġprovince": 24192,
    "europe": 20668,
    "Ġste": 1390,
    "hist": 7132,
    "wn": 720,
    "Ġcrowds": 14743,
    "hens": 3941,
    "Ġespecially": 3940,
    "promontory": 24727,
    "Ġgleams": 17313,
    "trowsers": 17693,
    "Ġgritted": 22808,
    "Ġtoler": 7589,
    "omach": 11637,
    "Ġenters": 11027,
    "Ġfab": 15581,
    "circled": 24190,
    "Ġintentionally": 24523,
    "Ġgips": 10843,
    "autumn": 23345,
    "Ġhardly": 2430,
    "Ġfries": 21418,
    "Ġveracity": 23892,
    "Ġoffence": 12950,
    "ladder": 19787,
    "Ġmagn": 1554,
    "rug": 18337,
    "Ġcheerfulness": 10519,
    "Ġpeculiarities": 12075,
    "Ġresidual": 1675,
    "crated": 16685,
    "Ġcombination": 22839,
    "gument": 20887,
    "adier": 18092,
    "Ġmockery": 12112,
    "Ġcounter": 6482,
    "Ġlighter": 12658,
    "Ġvestige": 20066,
    "vapor": 25756,
    "atches": 13849,
    "Ġduodecimo": 16769,
    "Ġsuperstitious": 13523,
    "Ġagainst": 1699,
    "Ġgemin": 21613,
    "Ġfleets": 23777,
    "sound": 6800,
    "Ġpagoda": 19791,
    "Ġzigzag": 26274,
    "Ġtexture": 19162,
    "Ġerected": 12238,
    "inform": 10146,
    "hence": 16627,
    "Ġqualifications": 24676,
    "Ġexpansion": 22627,
    "thousands": 16874,
    "Ġrinal": 21984,
    "Ġhunks": 18938,
    "Ġaquiline": 26160,
    "lead": 10168,
    "Ġamerica": 6764,
    "Ġworkflow": 2688,
    "Ġsociet": 9453,
    "Ġbarbara": 24815,
    "metal": 24764,
    "nor": 2738,
    "Ġproportionate": 17044,
    "Ġtherefore": 2240,
    "Ġdeprec": 15763,
    "dislike": 23496,
    "Ġverify": 12092,
    "Ġaccurate": 13242,
    "com": 996,
    "Ġseals": 11699,
    "mber": 5850,
    "Ġdeadly": 5405,
    "his": 1413,
    "Ġunintermitted": 26221,
    "colour": 9906,
    "Ġshaft": 18230,
    "Ġleader": 14705,
    "acey": 7650,
    "Ġexasper": 8469,
    "iful": 2882,
    "Ġsweep": 8266,
    "Ġconcoct": 19046,
    "broad": 8646,
    "Ġcontinental": 19708,
    "greeting": 24554,
    "oop": 10717,
    "Ġtransparen": 10544,
    "Ġbressed": 21390,
    "discrimin": 19611,
    "Ġserviceable": 24717,
    "Ġost": 9652,
    "cripp": 20821,
    "Ġshirt": 8853,
    "Ġmoderate": 10941,
    "system": 4243,
    "Ġinterpretation": 19719,
    "rodden": 21538,
    "Ġsolutions": 1947,
    "operation": 13504,
    "mud": 20973,
    "Ġrib": 4936,
    "Ġmarble": 7669,
    "Ġcostly": 23586,
    "Ġkid": 9728,
    "Ġemotions": 8972,
    "hon": 6794,
    "owe": 15714,
    "ĠcÃ¦": 15560,
    "Ġlord": 2965,
    "weight": 2939,
    "Ġselects": 4387,
    "Ġocean": 3306,
    "Ġunst": 18239,
    "Ġfaintly": 14918,
    "Ġ26": 10472,
    "Ġreserve": 9974,
    "sleepers": 24729,
    "warks": 5004,
    "behind": 6780,
    "acup": 14262,
    "Ġthieves": 15641,
    "renadier": 18420,
    "Ġpadd": 9672,
    "Ġactions": 6280,
    "vacancies": 25920,
    "weeks": 14319,
    "Ġconverse": 11848,
    "Ġshadowed": 24051,
    "either": 6792,
    "Ġprotecting": 24687,
    "Ġchronic": 9932,
    "spouting": 25003,
    "lowering": 16040,
    "Ġlevi": 3034,
    "influence": 13582,
    "inate": 6235,
    "Ġpurest": 14942,
    "Ġnewcom": 16226,
    "Ġrepro": 7275,
    "readily": 19365,
    "arle": 21443,
    "Ġbreckinridge": 14525,
    "Ġwilfully": 16768,
    "itigated": 23048,
    "Ġwilds": 16511,
    "Ġpersisting": 18890,
    "ental": 7169,
    "Ġrisk": 8039,
    "Ġresting": 7962,
    "Ġnaut": 13944,
    "Ġimmensely": 13599,
    "Ġshops": 22005,
    "paus": 13776,
    "Ġnum": 1345,
    "Ġhipp": 21495,
    "Ġcordiality": 24395,
    "Ġagrees": 22519,
    "Ġcreases": 22727,
    "cess": 539,
    "Ġcaus": 1723,
    ",âĢĶ": 3171,
    "ushion": 14723,
    "Ġagile": 22516,
    "Ġrucastle": 5176,
    "Ġplaint": 10328,
    "dripping": 16907,
    "mark": 5282,
    "Ġlonged": 6437,
    "Ġsmiting": 12906,
    "Ġfairest": 20466,
    "amore": 21853,
    "code": 15332,
    "Ġretention": 23075,
    "ster": 1952,
    "Ġdrop": 4346,
    "Ġmyself": 1452,
    "import": 5668,
    "5": 25,
    "ences": 1265,
    "ighbour": 3391,
    "Ġselecting": 16683,
    "ak": 537,
    "Ġbenjamin": 26569,
    "Ġcup": 5697,
    "plifted": 9714,
    "Ġvalu": 5038,
    "lord": 3869,
    "Ġeels": 21623,
    "Ġpeeling": 22695,
    "duing": 22415,
    "Ġrelapses": 26280,
    "unks": 15780,
    "umns": 14150,
    "upon": 2718,
    "Ġlanded": 7469,
    "Ġmont": 8562,
    "Ġtrumpet": 9576,
    "accept": 8893,
    "Ġinvitation": 5188,
    "Ġjug": 12840,
    "gar": 5615,
    "three": 5239,
    "Ġobsole": 22701,
    "avish": 22598,
    "travelling": 24338,
    "âĢĿ]": 21816,
    "Ġarsac": 11746,
    "ylon": 24978,
    "uction": 15447,
    "cture": 15670,
    "Ġhulls": 13929,
    "Ġreservoir": 20653,
    "Ġdad": 12605,
    "Ġaveraging": 2417,
    "Ġern": 8397,
    "courage": 17512,
    "Ġsociety": 3980,
    "Ġpushed": 5911,
    "Ġsuited": 12789,
    "av": 739,
    "Ġclients": 19735,
    "ently": 1612,
    "gentlemanlike": 20005,
    "wrinkles": 16558,
    "sing": 5138,
    "Ġsacrificial": 24872,
    "ivery": 17574,
    "ā": 194,
    "saddest": 25528,
    "track": 24335,
    "Ġtor": 8106,
    "Ġrapidly": 3363,
    "america": 17098,
    "Ġmuteness": 19420,
    "Ġthistle": 21920,
    "Ġundiscovered": 18253,
    "cutting": 23787,
    "narwhale": 17321,
    "Ġconsoling": 19460,
    "Ġendeared": 26500,
    "Ġpassive": 22848,
    "Ġembodiment": 20531,
    "Ġphara": 23202,
    "Ġfurrow": 22817,
    "witness": 10038,
    "clusion": 16310,
    "bulk": 19926,
    "v": 90,
    "Ġmilk": 6486,
    "Ġplainpalais": 20739,
    "Ġxlvi": 25591,
    "Ġformation": 2942,
    "prospect": 23399,
    "Ġenchanting": 17040,
    "apping": 5853,
    "Ġporch": 19683,
    "passing": 14815,
    "emberley": 4171,
    "Ġmadman": 13155,
    "quer": 11683,
    "Ġrel": 1094,
    "Ġsoar": 18284,
    "Ġobscure": 9557,
    "Ġhats": 14621,
    "Ġfreshness": 23991,
    "magistrate": 19865,
    "Ġvehicle": 20141,
    "Ġthither": 6821,
    "Ġlearns": 2638,
    "Ġsnows": 14730,
    "Ġuseless": 7039,
    "Ġquito": 24408,
    "Ġsincere": 11138,
    "Ġprestige": 22240,
    "Ġpersons": 6182,
    "Ġital": 10868,
    "Ġpoured": 8805,
    "Ġoce": 3030,
    "start": 7599,
    "concerning": 9070,
    "Ġfixed": 2680,
    "Ġcas": 8412,
    "Ġvisitors": 7985,
    "Ġvide": 10253,
    "Ġfolk": 10378,
    "Ġpur": 2218,
    "erness": 6435,
    "Ġparties": 7040,
    "Ġsupports": 3049,
    "insist": 23066,
    "Ġpretend": 7722,
    "Ġstated": 9692,
    "Ġrecur": 1619,
    "fre": 5425,
    "pacing": 21023,
    "oubted": 5861,
    "Ġnocturnal": 20717,
    "Ġanimate": 23425,
    "Ġsunrise": 9376,
    "Ġwithdra": 6399,
    "Ġconverts": 2805,
    "Ġproposition": 23251,
    "gs": 7338,
    "Ġresources": 2936,
    "Ġwhimsical": 20431,
    "Ġindign": 6175,
    "guarded": 13299,
    "Ġtyp": 1130,
    "Ġboys": 5194,
    "cheered": 23808,
    "Ġdreaded": 8289,
    "Ġmissed": 8560,
    "Ġcomprehensive": 15091,
    "Ġpresentiment": 18989,
    "Ġremarked": 3699,
    "Ġuniversal": 2235,
    "Ġunobserved": 18250,
    "Ġdecayed": 22829,
    "zza": 24170,
    "Ġchewing": 23287,
    "amb": 5723,
    "Ġframed": 19056,
    "ŀ": 257,
    "Ġpredecessor": 26255,
    "Ġapparel": 20439,
    "irations": 18171,
    "Ġrussian": 14353,
    "dilig": 17285,
    "Ġdiscovered": 4414,
    "Ġevidence": 5270,
    "Ġcostume": 16498,
    "spears": 23945,
    "explain": 1481,
    "Ġmed": 4177,
    "Ġouter": 6859,
    "à": 161,
    "Ġcrozetts": 19632,
    "Ġparading": 23713,
    "Ġchilian": 25564,
    "Ġcontained": 7679,
    "icacy": 15663,
    "introduction": 15127,
    "Ġinjuries": 11279,
    "Ġimpose": 22385,
    "lined": 12488,
    "Ġjew": 9470,
    "Ġresort": 18564,
    "Ġtime": 689,
    "Z": 62,
    "Ġ132": 19898,
    "wreck": 21139,
    "Ġimpress": 6862,
    "Ġtorch": 25033,
    "Ġtaffrail": 15480,
    "Ġflat": 8228,
    "Ġancestry": 25642,
    "Ġprivately": 19526,
    "Ġshud": 5461,
    "Ġotherwise": 4657,
    "Ġfangs": 12602,
    "entirely": 7782,
    "apsed": 6297,
    "ames": 2881,
    "Ġ91": 24590,
    "agitation": 14071,
    "Ġvel": 7186,
    "ravelled": 18017,
    "Ġbulls": 23861,
    "Ġsoothingly": 25050,
    "Ġantiqu": 12149,
    "/*": 10074,
    "Ġcus": 21346,
    "aths": 22702,
    "Ġgretna": 26470,
    "Ġlxi": 21564,
    "culiar": 2820,
    "ceptible": 10957,
    "Ġmixed": 6975,
    "Ġsentimental": 24753,
    "Ġindul": 5858,
    "Ġboxes": 13378,
    "oy": 1026,
    "respectable": 19849,
    "Ġsteel": 3893,
    "Ġclaim": 5106,
    "Ġinvolving": 18763,
    "erval": 4023,
    "icles": 17975,
    "Ġrule": 1536,
    "Ġvirtues": 9939,
    "ingale": 21302,
    "Ġload": 14148,
    "iv": 432,
    "Ġowing": 6006,
    "Ġreason": 1346,
    "unk": 4539,
    "Ġfluttered": 16252,
    "Ġwet": 6519,
    "Ġwater": 1948,
    "Ġterrors": 6918,
    "private": 13586,
    "placidity": 25989,
    "_).âĢĶ": 8685,
    "Ġwhereon": 16103,
    "Ġannoy": 17201,
    "Ġconveying": 19717,
    "oppressed": 24821,
    "gd": 3127,
    "Ġtruck": 19514,
    "perfectly": 9089,
    "splash": 25210,
    "op": 657,
    "Ġdangers": 12358,
    "Ġphantoms": 13490,
    "Ġwar": 5526,
    "ent": 305,
    "Ġneur": 813,
    "Ġsplendid": 17216,
    "Ġdedicated": 19245,
    "Ġnoise": 1072,
    "derer": 4600,
    "chariot": 26481,
    "Ġinterposed": 20622,
    "ocr": 10469,
    "fatig": 17090,
    "Ġregarding": 13214,
    "Ġinspired": 2514,
    "Ġgirl": 3087,
    "Ġfrivolous": 26177,
    "apply": 18761,
    "×": 152,
    "Ī": 235,
    "Ġcoherent": 3263,
    "Ġbambooz": 26120,
    "Ġtheirs": 7026,
    "skinned": 25388,
    "lace": 13751,
    "Ġsequence": 1975,
    "matlock": 23471,
    "bantering": 25254,
    "Ġrejected": 12298,
    "imagine": 19934,
    "kn": 5791,
    "Ġupdates": 1298,
    "ice": 585,
    "Ġfrankness": 16748,
    "Ġtrustworthy": 24109,
    "Ġpanting": 11606,
    "Ġeighteen": 11241,
    "Ġrare": 7038,
    "constellation": 24608,
    "bold": 17490,
    "era": 13850,
    "Ġnerves": 2623,
    "Ġtwist": 11855,
    "Ġwith": 349,
    "itying": 21998,
    "oun": 483,
    "Ġ34": 16679,
    "Ġuntrodden": 23525,
    "asse": 15650,
    "Ġconstraint": 16515,
    "Ġdevices": 2940,
    "Ġgossip": 18471,
    "Ġdynamically": 4858,
    "Ġclim": 8195,
    "Ġconvincing": 19310,
    "Ġparadigms": 3055,
    "abhor": 12712,
    "request": 21244,
    "instant": 8655,
    "Ġbloodless": 19341,
    "forty": 9377,
    "Ġrotterdam": 25476,
    "Ġslip": 8957,
    "sailor": 14718,
    "Ġcrouched": 23441,
    "Ġsuperlative": 26075,
    "Ġsaint": 15511,
    "worth": 8630,
    "Ġeager": 3573,
    "consequence": 9766,
    "nel": 11507,
    "Ġprison": 5403,
    "usive": 8192,
    "Ġscotch": 12214,
    "Ġquill": 12862,
    "Ġprosecuted": 25294,
    "Ġpra": 4348,
    "Ġfa": 4820,
    "Ġimpass": 15989,
    "istan": 22112,
    "Ġbony": 12592,
    "Ġencode": 4366,
    "encouragement": 17426,
    "Ġthread": 14541,
    "atever": 3077,
    "folding": 24928,
    "irted": 14074,
    "Ġagon": 10323,
    "hercules": 22208,
    "Ġtapering": 8775,
    "Ġboast": 7036,
    "clo": 5613,
    "Ġexcess": 3344,
    "Ġenabling": 1080,
    "offered": 14520,
    "Ġmouse": 4693,
    "Ġdeact": 18141,
    "uneasy": 23686,
    "Ġdiscovering": 13362,
    "gratification": 24348,
    "Ġaromatic": 25926,
    "Ġdaughter": 2869,
    "port": 10721,
    "oo": 7553,
    "Ġharry": 24572,
    "Ġshocked": 9404,
    "Ġfinished": 5044,
    "Ġrabbit": 4291,
    "Ġclair": 6270,
    "Ġfatally": 19397,
    "icious": 7380,
    "Ġincomplete": 17211,
    "Ġdescribing": 19256,
    "Ġperish": 8878,
    "Ġskewer": 19623,
    "ulance": 15772,
    "Ġnotorious": 18224,
    "Ġtowards": 1728,
    "finger": 10096,
    "scra": 13027,
    "Ġconceits": 19393,
    "Ġbond": 21387,
    "Ġdial": 10812,
    "justine": 7683,
    "lines": 6959,
    "Ġstraining": 11329,
    "Ġeagle": 13206,
    "Ġpeeled": 14321,
    "pile": 17631,
    "Ġrouse": 15827,
    "Ġsuav": 22079,
    "ivable": 10912,
    "killing": 20944,
    "Ġaway": 1244,
    "Ġblades": 11899,
    "Ġturbid": 23613,
    "Ġhospital": 15042,
    "lighter": 20961,
    "Ġhush": 13215,
    "Ġrecital": 16147,
    "Ġpoison": 7219,
    "efficient": 2870,
    "Ġparmacetti": 20607,
    "ĝ": 222,
    "sinking": 17670,
    "Ġalchemists": 26489,
    "projecting": 26074,
    "Ġflourished": 15129,
    "hair": 9125,
    "admon": 21764,
    "Ġhis": 380,
    "ys": 3963,
    "which": 1708,
    "Ġtorment": 8677,
    "Ġpours": 17914,
    "Ġmund": 21321,
    "69": 17477,
    "mured": 6960,
    "Ġpermitted": 9281,
    "Ġdecl": 3593,
    "lat": 9607,
    "mmet": 10991,
    "Ġsolitude": 6876,
    "Ġcoolly": 9775,
    "disputed": 23502,
    "Ġalms": 21784,
    "Ġcontains": 2793,
    "glanced": 19369,
    "Ġunique": 12783,
    "jer": 12485,
    "feit": 16047,
    "Ġsignals": 10588,
    "Ġmorass": 22979,
    "Ġ86": 24461,
    "Ġslipper": 24268,
    "Ġsharks": 4498,
    "Ġscrolled": 22288,
    "declared": 15122,
    "Ġpupils": 20424,
    "Ġthroughout": 8880,
    "fif": 9119,
    "caps": 20809,
    "hear": 10149,
    "Ġscold": 10952,
    "Ġfainted": 8796,
    "Ġruns": 8599,
    "Ġpersistence": 3121,
    "Ġegyptian": 13590,
    "Ġcaved": 21356,
    "Ġpestilent": 25778,
    "30": 20756,
    "Ġcocoa": 25483,
    ")âĢĶâĢľ": 20745,
    "Ġunaffected": 14125,
    "Ġflattening": 26049,
    "Ġbells": 19604,
    "Ġduncan": 13465,
    "Ġthreading": 23405,
    "Ġfidel": 12601,
    "Ö": 151,
    "john": 11500,
    "Ġshyness": 20309,
    "Ġelapsed": 7653,
    "Ġsagacity": 16976,
    "Ġsublim": 19970,
    "Ġimproper": 22755,
    ",âĢĿâĢĶ": 14223,
    "Ġpewter": 17188,
    "ology": 1622,
    "Ġunimag": 12780,
    "10": 17475,
    "Ġgenteel": 19984,
    "Ġelderly": 13498,
    "Ġcontrary": 5261,
    "Ġdominic": 25381,
    "Ġconvalescence": 23748,
    "unteered": 26497,
    "00": 1608,
    "odes": 18122,
    "Ġvarying": 15815,
    "Ġostentatiously": 20472,
    "Ġyet": 1029,
    "uttering": 12667,
    "Ġwayward": 22874,
    "Ġhanded": 8217,
    "inese": 12879,
    "spouter": 22735,
    "rative": 17654,
    "Ġtiller": 8968,
    "Ġfurs": 18739,
    "Ġarmies": 16495,
    "thes": 7391,
    "Ġassisted": 11113,
    "Ġdrawers": 12110,
    "hip": 8744,
    "haired": 14770,
    "prof": 7699,
    "Ġeludes": 26556,
    "aren": 10077,
    "Ġprogeny": 17391,
    "anded": 5924,
    "laug": 10709,
    "Ġvigilant": 20187,
    "Ġscept": 15507,
    "apers": 3484,
    "Ġfancying": 12117,
    "Ġfrightened": 5342,
    "Ġepidemic": 20698,
    "Ġsurface": 5119,
    "compl": 6873,
    "Ġlong": 796,
    "Ġprejudice": 9078,
    "thee": 9693,
    "Ġsemblance": 20736,
    "Ġvul": 10250,
    "ically": 854,
    "Ġtorrents": 20059,
    "--âĢľ": 12977,
    "urring": 21708,
    "Ġshamefully": 24715,
    "Ġindefatigable": 17180,
    "Ġfreezing": 23886,
    "ox": 9136,
    "¸": 121,
    "Ġrelationship": 2315,
    "protection": 19922,
    "Ġrolls": 8334,
    "Ġexert": 5722,
    "chop": 21691,
    "Ġmasts": 6466,
    "Ġsummary": 19406,
    "Ġsoda": 25535,
    "Ġbeard": 11658,
    "Ġfunctional": 3047,
    "Ġ102": 24410,
    "Ġducking": 17149,
    "merc": 19283,
    "glings": 23854,
    "nue": 15400,
    "Ġtheorem": 2325,
    "Ġcrabs": 19176,
    "Ġrepair": 11983,
    "Ġiv": 4047,
    "Ġshudder": 9053,
    "Ġlength": 2497,
    "Ġtren": 17723,
    "anations": 12581,
    "Ġpapers": 4025,
    "level": 2648,
    "onet": 12550,
    "Ġploughing": 26261,
    "Ġreservo": 16833,
    "Ġhideous": 5984,
    "Ġinsists": 23678,
    "Ġfurnishes": 19444,
    "Ġcautious": 12258,
    "Ġgam": 11627,
    "Ġhut": 15624,
    "Ġmason": 10160,
    "Ġanalysis": 1917,
    "Ġsix": 3043,
    "Ġmelt": 21320,
    "Ġ73": 24263,
    "dance": 17521,
    "Ġdrives": 14579,
    "Ġsecluded": 11997,
    "Ġarticulate": 24432,
    "Ġcontemporary": 16017,
    "attentive": 17192,
    "Ġasp": 15786,
    "ather": 741,
    "Ġrecent": 7436,
    "Ġtigris": 25760,
    "Ġcocain": 18600,
    "Ġrig": 4226,
    "Ġconjunction": 25103,
    "character": 6333,
    "Ġcreator": 7255,
    "Ġdevouring": 11862,
    "Ġmotion": 4566,
    "dogs": 25403,
    "itiousness": 21337,
    "education": 20304,
    "mechan": 11861,
    "Ġinspect": 5965,
    "Ġbildad": 3786,
    "Ġplug": 17150,
    "Ġuniverse": 14127,
    "Ġdug": 21433,
    "Ġsullenly": 17175,
    "Ġhoe": 23354,
    "Ġthanks": 6709,
    "surround": 16760,
    "Ġveteran": 17453,
    "Ġpropriety": 10013,
    "Ġtelescope": 17351,
    "Ġrambles": 17187,
    "Ġaltogether": 4832,
    "Ġcronies": 23442,
    "andes": 18154,
    "Ġcollins": 2181,
    "Ġjon": 15953,
    "Ġresemblance": 7974,
    "Ġactor": 16053,
    "mysteries": 26051,
    "Ġbashaw": 25634,
    "console": 22475,
    "Ġentreating": 24210,
    "Ġthoughtfulness": 18773,
    "leap": 21370,
    "Ġcounties": 23305,
    "Ġlatitude": 8329,
    "Ġ166": 25007,
    "Ġnovelty": 13467,
    "Ġvers": 7563,
    "malicious": 19904,
    "orte": 14187,
    "servants": 15040,
    "Ġdiscredit": 22783,
    "ateg": 1349,
    "aint": 2539,
    "Åĵuvre": 25888,
    "Ġregarded": 5762,
    "Ġsqualls": 17022,
    "oregressive": 3428,
    "canonical": 22973,
    "hopper": 23717,
    "swinging": 25913,
    "wel": 6119,
    "Ġjog": 18405,
    "Ġmartyr": 26362,
    "Ġabstract": 17184,
    "men": 1485,
    "om": 315,
    "Ġheron": 22077,
    "Ġgaily": 16750,
    "masters": 16836,
    "Ġabst": 9269,
    "armed": 7252,
    "Ġmand": 21307,
    "Ġroods": 22408,
    "Ġadoration": 18293,
    "Ġfiver": 22778,
    "Ġunb": 10909,
    "fired": 20862,
    "Ġgradients": 610,
    "Ġbecalmed": 18089,
    "Ġsill": 10767,
    "Ġconfines": 23307,
    "Ġharmony": 16816,
    "Ġcondem": 6340,
    "Ġbureau": 11593,
    "ias": 6364,
    "Ġsag": 6515,
    "poor": 6062,
    "Ġexponentiating": 3449,
    "Ġdefe": 21840,
    "Ġboiling": 8528,
    "Ġaint": 17746,
    "race": 11634,
    "Ġinfluenced": 19635,
    "crimes": 16686,
    "Ġhertfordshire": 5377,
    "ortment": 22259,
    "Ġcurbstone": 26043,
    "Ġroanoke": 22411,
    "Ġmeetings": 16534,
    "ogany": 18678,
    "Ġrecoil": 18691,
    "iciously": 17976,
    "anum": 17837,
    "sed": 4176,
    "Ġwhirlpool": 20657,
    "rivial": 9437,
    "Ġprovincial": 20652,
    "Ġbiases": 2396,
    "Ġreusability": 13562,
    "versed": 9828,
    "Ġremembr": 24173,
    "Ġpirates": 9076,
    "rayed": 23565,
    "Ġvol": 4189,
    "perai": 10278,
    "Ġtur": 2561,
    "Ġcluster": 13575,
    "Ġsaratoga": 26425,
    "Ġwidower": 24238,
    "Ġskil": 14355,
    "Ġyankees": 26203,
    "successively": 24778,
    "george": 26020,
    "l": 80,
    "Ġresistance": 13533,
    "Ġhearty": 9848,
    "bourn": 3304,
    "heads": 4096,
    "irms": 18169,
    "scence": 14422,
    "Ġsaved": 6692,
    "atters": 18484,
    "Ġparc": 10922,
    "Ġvult": 12757,
    "Ġtackles": 8051,
    "aved": 5476,
    "omeness": 18018,
    "Ġbrave": 6331,
    "Ġstaggered": 9542,
    "itering": 17820,
    "Ġstoutest": 24629,
    "Ġsilently": 6894,
    "Ġsofa": 10273,
    "Ġ118": 19701,
    "Ġveiled": 16205,
    "received": 9641,
    "mun": 20964,
    "Ġ97": 19777,
    "Ġmalice": 7153,
    "hatch": 15368,
    "Ġdrawback": 23993,
    "Ġpainfully": 13146,
    "zers": 21149,
    "Ġgiven": 1626,
    "Ġmississ": 18846,
    "iana": 7050,
    "Ġcrept": 11024,
    "Ġcrown": 5289,
    "Ġmounttop": 19981,
    "divers": 15346,
    "Ġebony": 18011,
    "Ġrans": 21973,
    "Ġprivate": 5346,
    "Ġtraits": 23079,
    "Ġexasperate": 20101,
    "parlour": 16393,
    "ica": 10201,
    "int": 1197,
    "ulating": 10889,
    "Ġsick": 4692,
    "Ġthoughtfully": 12984,
    "force": 12964,
    "cket": 3690,
    "corn": 13703,
    "Ġwounds": 17792,
    "Ġtumbled": 13410,
    "imen": 12691,
    "Ġforests": 13596,
    "cull": 20811,
    "anchor": 13892,
    "ushing": 5731,
    "Ġnonsensical": 21532,
    "sorrow": 12513,
    "Ġantip": 24180,
    "icating": 15660,
    "ep": 441,
    "Ġdisplay": 6429,
    "Ġshows": 8485,
    "Ġmere": 2710,
    "brimmed": 14589,
    "invite": 25091,
    "Ġ82": 24458,
    "Ġtap": 12531,
    "Ġpart": 858,
    "Ġjolly": 6858,
    "bourgh": 19105,
    "pun": 9620,
    "Ġmagnetic": 17243,
    "byshire": 6174,
    "Ġdampening": 2895,
    "town": 7144,
    "quod": 2165,
    "rush": 7012,
    "Ô": 149,
    "Ġcolds": 23760,
    "Ġpresto": 22234,
    "Ġnarr": 5085,
    "ging": 2597,
    "Ġ36": 14771,
    "Ġmoul": 15549,
    "Ġtoward": 17949,
    "aphys": 15205,
    "Ġaustral": 12177,
    "minutes": 7512,
    "Ġrelig": 8553,
    "Ġsh": 419,
    "Ġinsip": 19269,
    "Ġeclips": 20699,
    "Ġacres": 14316,
    "Ġspoken": 4837,
    "Ġdeliberation": 19972,
    "na": 13763,
    "Ġobed": 8538,
    "Ġalt": 18101,
    "Ġgroom": 13969,
    "ires": 6039,
    "Ġforty": 5719,
    "ivities": 22084,
    "Ġfourth": 7707,
    "Ġloaded": 8493,
    "Ġdet": 512,
    "Ġlistening": 6320,
    "mons": 17602,
    "Ġethere": 23954,
    "iforn": 14067,
    "een": 725,
    "Ġsitting": 3608,
    "othing": 6996,
    "Ġfierc": 18712,
    "Ġtissu": 25921,
    "Ġwasn": 6998,
    "print": 23815,
    "Ġmagnitude": 1944,
    "Ġgovernment": 15180,
    "Ġdoubtfully": 23479,
    "Ġpeaks": 16133,
    "Ġskip": 1843,
    "Ġprudent": 9188,
    "Ġxxxii": 24973,
    "Ġprofited": 19193,
    "Ġwondering": 7971,
    "Ġpugnacious": 26453,
    "Ġhissing": 15795,
    "ong": 536,
    "Ġmim": 3108,
    "disinterested": 23503,
    "belonged": 25598,
    "ohog": 9846,
    "Ġimpending": 22387,
    "Ġsammy": 24933,
    "confirm": 16809,
    "Ġclout": 22348,
    "Ġstirred": 12222,
    "Ġcomputation": 964,
    "rah": 8137,
    "Ġnoisy": 13323,
    "vens": 21115,
    "Ġdeafened": 25652,
    "oug": 431,
    "Ġdecanter": 22448,
    "Ġrespectively": 23250,
    "Ġcousins": 9918,
    "Ġenrolled": 21941,
    "length": 7136,
    "eral": 9162,
    "Ġforwards": 12708,
    "equ": 6791,
    "resistible": 10646,
    "Ġbackground": 18650,
    "Ġbrack": 23839,
    "Ġhave": 445,
    "natured": 7112,
    "Ġislanders": 19505,
    "Ġchild": 2261,
    "Ġpeels": 22694,
    "erringly": 16215,
    "confidential": 25877,
    "Ġ180": 16608,
    "Ġsewing": 21958,
    "Ġpasseng": 12976,
    "Ġseap": 15819,
    "Ġbefall": 8833,
    "civilized": 17076,
    "Ġstrikes": 13187,
    "death": 6263,
    "Ġstress": 18069,
    "Ġindependent": 9019,
    "Ġvindict": 13609,
    "Ġinsepar": 17936,
    "Ġinwards": 15626,
    "Ġonly": 789,
    "Ġtemptation": 8681,
    "Ġslept": 8259,
    "Ġbam": 15571,
    "Ġgoing": 2066,
    "Ġentrapped": 26264,
    "Ġbusks": 23342,
    "cloudless": 20335,
    "accompanied": 12426,
    "Ġamiss": 18513,
    "lucas": 15155,
    "Ġorlop": 22101,
    "Ġcouldn": 7649,
    "Ġrent": 11642,
    "sir": 5001,
    "Ġineff": 12639,
    "Ġhundredth": 16521,
    "Ġhorizontally": 17014,
    "Ġeducation": 5128,
    "atch": 676,
    "consolation": 15156,
    "Ġnurse": 9520,
    "Ġcorrectly": 9407,
    "Ġtophet": 23575,
    "Ġmornings": 16242,
    "Ġoccas": 2699,
    "garden": 15028,
    "Ġshow": 3405,
    "Ġcaptioning": 23026,
    "Ġmarling": 23037,
    "Ġbreast": 8971,
    "overfitting": 13105,
    "Ġade": 22108,
    "eous": 13715,
    "Ġinterp": 16079,
    "ĠĠĠĠĠĠĠĠĠĠĠĠĠĠĠĠĠĠĠĠĠĠĠĠĠĠĠĠĠĠĠĠĠĠĠĠĠĠĠĠĠĠĠ": 12159,
    "Ġformations": 18750,
    "shott": 11798,
    "Ġhumanity": 6733,
    "Ġmem": 2164,
    "tenham": 16325,
    "unbe": 21876,
    "oices": 7348,
    "zwilliam": 5074,
    "cond": 1660,
    "icial": 12660,
    "Ġwrapping": 19778,
    "that": 849,
    "Ġaid": 6124,
    "riety": 12749,
    "neg": 12870,
    "ption": 7398,
    "pp": 384,
    "crowded": 20193,
    "databases": 3023,
    "Ġagonizing": 17241,
    "prejudice": 25572,
    "Ġtruest": 16702,
    "Ġpeterson": 9486,
    "Ġgiver": 21608,
    "Ġsits": 10770,
    "governed": 25406,
    "ure": 356,
    "Ġfemin": 13440,
    "good": 2899,
    "Ġrehearsed": 25972,
    "ĠĠĠĠĠĠĠĠĠĠĠĠĠĠĠĠĠĠĠĠĠĠĠĠĠĠĠĠĠĠĠĠĠĠĠĠĠĠĠĠĠĠĠĠĠĠĠĠ": 7989,
    "Ġswiftly": 5670,
    "Ġcaprice": 14578,
    "Ġpour": 13917,
    "apering": 8041,
    "drifting": 19827,
    "stochastic": 3777,
    "feels": 22504,
    "Ġhouses": 6140,
    "Ġcate": 4110,
    "blazing": 24134,
    "Ġferrule": 24500,
    "Ġrefill": 18699,
    "abroad": 18111,
    "Ġsensationalism": 26067,
    "Ġtemporarily": 11169,
    "eskye": 21453,
    "must": 3581,
    "Ġerrand": 11087,
    "gust": 6362,
    "Ġshoots": 14569,
    "ppings": 18179,
    "Ġimputation": 22176,
    "Ġeasiest": 23541,
    "Ġdust": 5910,
    "Ġaltar": 9231,
    "Ġseveral": 2668,
    "Ġfordham": 21780,
    "harbors": 20151,
    "Ġcreditors": 20133,
    "Ġlogical": 14489,
    "Ġhaunted": 10256,
    "Ġtroop": 24898,
    "Ġexploitation": 2347,
    "Ġglory": 6066,
    "Ġmagical": 23102,
    "departure": 15238,
    "understanding": 1147,
    "400": 20757,
    "Ġscenarios": 26544,
    "Ġseason": 5238,
    "recked": 17764,
    "steering": 16638,
    "aware": 16299,
    "Ġsermon": 12380,
    "Ġcaused": 5048,
    "Ġ62": 24365,
    "Ġguernsey": 9354,
    "Ġhands": 1661,
    "Ġcircumstance": 4987,
    "Ġdoesn": 7438,
    "Ġchal": 18379,
    "manners": 16189,
    "Ġleaky": 2346,
    "Ġcensure": 15099,
    "ives": 1410,
    "Ġadmiration": 5329,
    "Ġpurposes": 11170,
    "Ġconceited": 12096,
    "Ġrestrict": 16378,
    "victim": 25531,
    "Ġgloomily": 14804,
    "Ġpine": 8801,
    "Ġslavish": 23175,
    "retch": 4373,
    "Ġgrammars": 11404,
    "shine": 9291,
    "Ġconversation": 3332,
    "Ġfortresses": 23623,
    "iam": 2505,
    "Ġdebar": 24274,
    "nades": 20999,
    "medical": 23346,
    "silly": 24422,
    "Ġliking": 23593,
    "turtle": 12216,
    "oldened": 22644,
    "anation": 5804,
    "anging": 3554,
    "asmuch": 10197,
    "Ġmuchness": 18707,
    "Ġisn": 7866,
    "Ġdisappearance": 9300,
    "Ġconfluent": 19039,
    "Ġverse": 16604,
    "Ġoutstanding": 22320,
    "Ġsteelkilt": 5675,
    "tolerable": 17690,
    "hob": 20902,
    "ersman": 11706,
    "Ġquery": 2477,
    "ement": 1501,
    "bbles": 13695,
    "Ġsummit": 7731,
    "burn": 8371,
    "cooee": 12422,
    "police": 10586,
    "Ġinstruction": 14347,
    "ribution": 14307,
    "inching": 21192,
    "Ġmightier": 18731,
    "Ġsafe": 5103,
    "lege": 17843,
    "Ġeconomically": 25289,
    "Ġattractive": 25577,
    "voyages": 24856,
    "Ġtreatment": 12076,
    "ade": 880,
    "ribly": 8255,
    "or": 282,
    "Ġweb": 9243,
    "Ġbeams": 14633,
    "alled": 5912,
    "Ġloos": 15876,
    "Ġlabeled": 3721,
    "grass": 23415,
    "tru": 10731,
    "Ġungod": 22028,
    "Ġfountains": 13506,
    "continued": 8679,
    "Ġwhirlp": 16965,
    "ground": 4671,
    "acks": 11792,
    "Ġexter": 7397,
    "Ġfisheries": 17441,
    "Ġapothecary": 13663,
    "Ġpod": 15609,
    "fly": 13717,
    "Ġpreposterous": 13673,
    "inferences": 17741,
    "Ġspir": 2426,
    "Ġire": 12674,
    "Ġward": 10158,
    "Ġblack": 2033,
    "Ġconse": 21808,
    "Ġchat": 6562,
    "apped": 5395,
    "Ġoverlapping": 26240,
    "dro": 6647,
    "bol": 8721,
    "Ġsqueaking": 26276,
    "Ġtranquilly": 12294,
    "opinion": 10986,
    "Ï": 144,
    "Ġinflict": 15003,
    "leful": 17844,
    "hampshire": 23267,
    "Ġmoth": 17804,
    "Ġprovinc": 16744,
    "Ġdisastrous": 16065,
    "Ġlodging": 24098,
    "Ġspared": 7893,
    "ness": 851,
    "nels": 12500,
    "Ġwrinkles": 8574,
    "Ġmissing": 6177,
    "onings": 21255,
    "fashion": 8081,
    "Ġbewitched": 25976,
    "Ġicelandic": 25887,
    "precision": 4333,
    "Ġsuffocated": 20730,
    "Ġassist": 3567,
    "beards": 22495,
    "Ġkindred": 16379,
    "Ġcho": 4547,
    "mentioning": 24886,
    "Ġverses": 17064,
    "spout": 7924,
    "keel": 14131,
    "oss": 10118,
    "quite": 4646,
    "Ġscor": 8190,
    "Ġdistinctions": 18534,
    "ond": 1161,
    "romeda": 17265,
    "Ġveneration": 25047,
    "Ġprecaution": 11198,
    "Ġtroops": 24899,
    "Ġprayers": 12128,
    "charlotte": 6474,
    "Ġexerting": 21836,
    "Ġintermediate": 18594,
    "lim": 9609,
    "Ġdrive": 5055,
    "derstand": 651,
    "receive": 12547,
    "Ġtarts": 10755,
    "abby": 14024,
    "re": 266,
    "Ġsteed": 13046,
    "Ġgriff": 22809,
    "compasses": 19461,
    "answering": 26005,
    "halfway": 24313,
    "Ġsweat": 13144,
    "mph": 20974,
    "Ġirretrie": 23377,
    "Ġobeyed": 12221,
    "Ġbagging": 24539,
    "Ġarg": 4766,
    "ö": 183,
    "Ġdispleasure": 16057,
    "Ġoperate": 19117,
    "Ġmod": 498,
    "Ġkill": 4455,
    "Ġreinforcement": 3283,
    "flask": 12104,
    "Ġforeseen": 16443,
    "Ġmott": 17805,
    "twig": 23699,
    "Ġcrav": 19175,
    "ula": 2825,
    "humor": 19455,
    "Ġimpact": 10299,
    "Ġcomprehension": 15090,
    "Ġjoyfully": 19349,
    "Ġexordium": 26494,
    "Ġindian": 4132,
    "Ġprocure": 9513,
    "Ġnecessitated": 23932,
    "Ġunlo": 22016,
    "westward": 25425,
    "body": 2308,
    "unusual": 21883,
    "Ġbroke": 5323,
    "Ġshowers": 16607,
    "Ġshattered": 7884,
    "Ġxxv": 19720,
    "quin": 21857,
    "rously": 17656,
    "those": 4496,
    "Ġrevive": 13483,
    "exc": 5169,
    "Ġbrut": 18769,
    "Ġconsulted": 13434,
    "Ġterrified": 14674,
    "Ġfingertips": 24022,
    "Ġresist": 7916,
    "carries": 19530,
    "asing": 5913,
    "Ġunh": 9256,
    "Ġferule": 24499,
    "quick": 6401,
    "near": 5843,
    "Ġcatastrop": 3349,
    "Ġhigh": 932,
    "story": 9215,
    "irectly": 6940,
    "Ġmurmuring": 23581,
    "Ġgracious": 8851,
    "Ġjost": 23632,
    "N": 50,
    "Ġthunder": 4824,
    "Ġreversed": 15702,
    "Ġcaval": 25770,
    "Ġpurchases": 24755,
    "ĠâĢľâĢĺ_": 25114,
    "Ġskiff": 16169,
    "sombre": 23857,
    "minded": 9040,
    "Ġpulpit": 7470,
    "Ġdragged": 6889,
    "embedding": 20360,
    "Ġglaring": 11912,
    "Ġpockets": 8900,
    "poled": 22909,
    "agony": 14072,
    "overcome": 19051,
    "Ġ92": 24591,
    "Ġargument": 7100,
    "Ġsympathies": 14864,
    "Ġbandages": 24427,
    "horrible": 14602,
    "Ġquartered": 20376,
    "shelf": 20384,
    "Ġg": 310,
    "âĢĶâĢľ": 2970,
    "Ġoat": 21326,
    "Ġbrix": 12588,
    "provoke": 26072,
    "creator": 26383,
    "Ġacknowledge": 13406,
    "insensibility": 23071,
    "Ġclutches": 20021,
    "jected": 22715,
    "unwillingness": 25803,
    "Ġcamel": 25350,
    "Ġentreaty": 10532,
    "Ġun": 423,
    "Ġmending": 17806,
    "Ġveins": 8935,
    "mouthed": 12404,
    "Ġincalcul": 16071,
    "Ġemblazonings": 26044,
    "Ġclerical": 25569,
    "Ġply": 21456,
    ":--": 5784,
    "Ġdit": 21423,
    "Ġcrumbs": 19124,
    "free": 8739,
    "Ġmud": 11576,
    "Ġlime": 13951,
    "Ġexpatiate": 18625,
    "sailed": 17668,
    "ourers": 21452,
    "eaten": 20347,
    "solitary": 14508,
    "imod": 15715,
    "Ġcorrupt": 11927,
    "Ġtho": 21517,
    "Ġbarrels": 9439,
    "Ġhurry": 4914,
    "ery": 1269,
    "Ġeluded": 12927,
    "Ġmurderer": 4980,
    "adequ": 11022,
    "Ġpaint": 7708,
    "Ġrain": 5005,
    "bulkington": 19927,
    "Ġdeed": 7868,
    "Ġjackal": 24242,
    "fall": 5135,
    "imet": 21709,
    "Ġquivered": 18468,
    "Ġquaker": 10973,
    "Ġtender": 5753,
    "Ġmiscellaneous": 17465,
    "ighter": 7968,
    "Ġvelvets": 25394,
    "Ġillinois": 19138,
    "Ġsubs": 2131,
    "Ġespe": 21158,
    "colonel": 8285,
    "Ġmighty": 4231,
    "Ġwaned": 17793,
    "spell": 22733,
    "Ġedged": 23489,
    "august": 11073,
    "ensity": 11817,
    "ifice": 7198,
    "Ġless": 1938,
    "Ġhelm": 5276,
    "Ġdazed": 15601,
    "Ġreading": 5114,
    "separately": 25228,
    "vess": 7354,
    "Ġcav": 13883,
    "##": 2316,
    "inqu": 6123,
    "henry": 16628,
    "Ġagreed": 7031,
    "Ġdispersed": 16599,
    "member": 20977,
    "chest": 11210,
    "neighboring": 20620,
    "Ġserving": 14488,
    "Ġplease": 4722,
    "Ġsolve": 4197,
    "side": 2302,
    "scotch": 25852,
    "etian": 13962,
    "Ġanimation": 11154,
    "veh": 12684,
    "Ġsucked": 14133,
    "clopÃ¦dia": 15260,
    "wishing": 21131,
    "Ġtons": 11552,
    "Ġtraps": 23084,
    "irous": 8843,
    "Ġvisit": 2580,
    "ities": 1824,
    "toss": 22571,
    "Ġconductor": 24012,
    "fra": 8375,
    "Ġpreface": 18368,
    "rippling": 24713,
    "Ġdarting": 7757,
    "beef": 18524,
    "apprec": 22851,
    "cousin": 10655,
    "scept": 21056,
    "ð": 177,
    "appalling": 22852,
    "astrous": 15891,
    "Ġprosperity": 20260,
    "Ġped": 7845,
    ";--": 8069,
    "Ġluxury": 20135,
    "Ġwreak": 16819,
    "damn": 20027,
    "vert": 15720,
    "Ġconfessor": 24024,
    "Ġfundament": 2926,
    "Ġpath": 2116,
    "Ġlayers": 816,
    "Ġmutters": 23959,
    "Ġconfiding": 19037,
    "leagues": 21376,
    "âĢĿ)": 21815,
    "trees": 10733,
    "earthly": 24723,
    "Ġneedlessly": 23631,
    "angel": 5726,
    "Ġladder": 8602,
    "Ġarchitecture": 1120,
    "Ġtus": 10751,
    "magnet": 14973,
    "Ġrounding": 16278,
    "Ġeluc": 16113,
    "Ġsheets": 9725,
    "Ġ72": 19614,
    "spirits": 8055,
    "rubber": 12814,
    "Ġalpine": 18108,
    "azing": 7705,
    "Ġprecipitous": 24836,
    "oso": 12835,
    "Ġmanoir": 22335,
    "Ġcosmopol": 16456,
    "Ġsettlement": 19839,
    "Ġthence": 8885,
    "omet": 3074,
    "ee": 1657,
    "Ġspec": 1264,
    "Ġjuncture": 17132,
    "Ġcomparative": 10545,
    "Ġclaims": 13377,
    "Ġresearch": 3240,
    "Ġrowing": 10303,
    "Ġinstantaneously": 23659,
    "Ġcomplete": 4384,
    "Ġhungry": 10535,
    "Ġdeparted": 5564,
    "Ġepicurean": 20558,
    "Ġstarted": 4150,
    "Ġclank": 15970,
    "Ġassures": 14469,
    "Ġfloating": 6606,
    "super": 5944,
    "swe": 5997,
    "Ġinsc": 7586,
    "Ġsignificant": 8637,
    "Ġtwenty": 3953,
    "hunt": 20905,
    "Ġhonest": 7287,
    "Ġaddu": 22109,
    "churning": 21700,
    "winding": 16722,
    "simple": 13456,
    "asily": 13949,
    "reproof": 25433,
    "ke": 429,
    "consid": 4925,
    "Ġgrecian": 26297,
    "cruising": 12284,
    "bitter": 11243,
    "sheep": 23090,
    "Ġundu": 15842,
    "marks": 7346,
    "Ġwatson": 3600,
    "cordiality": 25140,
    "Ġwore": 6378,
    "eling": 6683,
    "nose": 17612,
    "accessible": 13643,
    "dick": 11481,
    "Ġwants": 5742,
    "roc": 9677,
    "gee": 15982,
    "Ġprayer": 16669,
    "Ġproudly": 19745,
    "cable": 20799,
    "som": 3293,
    "Ġunderstand": 839,
    "july": 20478,
    "Ġinterrupt": 4361,
    "Ġpleasurable": 23343,
    "Ġapproach": 852,
    "Ġdrug": 11412,
    "Ġarch": 937,
    "Ġmethods": 3161,
    "sailing": 14717,
    "uary": 11540,
    "sad": 11523,
    "fug": 17545,
    "ateful": 5928,
    "Ġmerged": 19299,
    "Ġactivity": 7920,
    "Ġorgan": 2499,
    "derick": 22166,
    "Ġfiercely": 12957,
    "Ġlecture": 13571,
    "honor": 19902,
    "Ġlegendary": 20540,
    "Ġdesolation": 12273,
    "Ġstolen": 14010,
    "unable": 14062,
    "Ġsoothing": 8173,
    "Ġrender": 8305,
    "Ġmercy": 9001,
    "whether": 5320,
    "Ġextreme": 2511,
    "Ġwilderness": 14843,
    "ios": 2065,
    "Ġcords": 14882,
    "ahead": 12438,
    "Ġoptim": 777,
    "Ġoriginally": 7304,
    "Ġtamer": 24979,
    "iftings": 23228,
    "isis": 12584,
    "Ġreplace": 14478,
    "Ġthings": 1961,
    "ensive": 6281,
    "2": 22,
    "mered": 8218,
    "Ġpress": 5933,
    "95": 17480,
    "Ġcommended": 18657,
    "Ġrelaps": 18775,
    "invisible": 17742,
    "Ġjoky": 18407,
    "india": 22375,
    "Ġnuptials": 20497,
    "Ġborrow": 10173,
    "Ġneedle": 8275,
    "beings": 12882,
    "plague": 21963,
    "Ł": 258,
    "Ġfang": 21406,
    "Ġconcl": 5095,
    "Ġwashed": 15770,
    "Ġhorrid": 7999,
    "odox": 21820,
    "Ġguineas": 16273,
    "quietly": 10595,
    "ians": 2359,
    "tered": 2231,
    "bless": 22316,
    "Ġstony": 21743,
    "Ġbaffled": 12407,
    "herfield": 3633,
    "w": 91,
    "ccas": 15890,
    "Ġchoose": 5983,
    "Ġlordly": 23746,
    "Ġweeping": 11690,
    "Ġdisguises": 25058,
    "vere": 4884,
    "relapse": 24021,
    "event": 8077,
    "Ġcomputations": 16009,
    "Ġgrey": 4513,
    "zas": 17714,
    "angible": 22106,
    "illation": 14144,
    "Ġgrandfather": 19425,
    "Ġepaulets": 24906,
    "Ġprophesy": 26062,
    "empt": 2615,
    "fanning": 20868,
    "Ġsimpleton": 16339,
    "Ġcomforter": 20510,
    "access": 11182,
    "extinguished": 16155,
    "forecastle": 10992,
    "Ġkick": 5838,
    "Ġregent": 18588,
    "Ġforesee": 19126,
    "assin": 22309,
    "Ġune": 4598,
    "astrop": 3318,
    "Ġinfluence": 5515,
    "Ġcounsell": 25385,
    "Ġseventeen": 26212,
    "lifted": 15390,
    "tipt": 25086,
    "judged": 14834,
    "Ġinexperience": 26100,
    "almost": 4943,
    "Ġcoron": 4465,
    "danish": 20835,
    "alse": 4185,
    "Ġshouting": 10525,
    "let": 2729,
    "Ġcabman": 14607,
    "mosp": 8089,
    "Ġno": 509,
    "Ġstand": 1734,
    ");": 7330,
    "Ġattribute": 16108,
    "Ġexquisitely": 20205,
    "Ġgardeners": 12125,
    "Ġstray": 18072,
    "careful": 14869,
    "ications": 4446,
    "Ġloop": 14149,
    "Ġhear": 1964,
    "altern": 17944,
    "Ġconv": 2968,
    "Ġday": 957,
    "Ġaids": 12233,
    "Ġaffability": 14390,
    "Ġpitching": 16613,
    "Ġfoolish": 5981,
    "Ġsheet": 6264,
    "Ġunseasonable": 26522,
    "Ġepis": 19985,
    "Ġincrust": 22555,
    "estinated": 15926,
    "âĢĻâĢĶ": 12742,
    "Ġhorrors": 10482,
    "Ġisinglass": 21806,
    "march": 13758,
    "Ġegyptians": 25290,
    "Ġmales": 17807,
    "mr": 1901,
    "Ġinserted": 8356,
    "Ġwhales": 1825,
    "ibles": 18787,
    "royal": 11395,
    "Ġassembly": 10645,
    "Ġneighbourhood": 5126,
    "uments": 5552,
    "Ġnoteworthy": 24165,
    "Ġislets": 21805,
    "quake": 11684,
    "Ġmix": 7577,
    "cloth": 11941,
    "Ġplaces": 5390,
    "comparison": 25842,
    "shook": 19858,
    "Ġfreshets": 25705,
    "airing": 16182,
    "itating": 9653,
    "Ġsli": 4748,
    "Ġengraving": 17081,
    "Ġpredestinated": 18517,
    "Ġminor": 12973,
    "fortnight": 13091,
    "Ġfin": 1457,
    "Ġflannel": 26579,
    "Ġroyalty": 19739,
    "astic": 1868,
    "wish": 8100,
    "â": 163,
    "rope": 3187,
    "Ġsuperhuman": 23454,
    "note": 14343,
    "dead": 8180,
    "estruct": 22227,
    "Ġtunnels": 24621,
    "ager": 6548,
    "wolf": 26411,
    "rolling": 9063,
    "hosmer": 25903,
    "Ġgilded": 17448,
    "large": 6628,
    "Ġgrenadier": 21619,
    "Ġsimilarly": 24310,
    "treas": 17681,
    "remaining": 20223,
    "Ġvulture": 17342,
    "Ġleft": 1758,
    "Ġsanity": 24982,
    "frightened": 17198,
    "Ġbashful": 20423,
    "Ġthunders": 15643,
    "Ġconfident": 11140,
    "Ġdimin": 3876,
    "Ġantagonist": 26330,
    "alty": 17941,
    "Ġprocesses": 3636,
    "ief": 2045,
    "Ġmiddle": 4139,
    "figured": 20126,
    "Ġsurrounds": 24234,
    "strength": 13983,
    "Ġlouisa": 13549,
    "thirst": 15830,
    "Ġimpudence": 26243,
    "Ġattempt": 3489,
    "Ġrokovoko": 22410,
    "Ġmachinery": 20488,
    "Ġcher": 6131,
    "Ġundoing": 22039,
    "reel": 21236,
    "chron": 21697,
    "threw": 21988,
    "Ġscorching": 20071,
    "towns": 24855,
    "Ġshot": 4544,
    "flesh": 13494,
    "Ġrejoice": 10211,
    "instinctively": 26329,
    "Ġhil": 10823,
    "Ġthreats": 13381,
    "fear": 8516,
    "Ġpierced": 12286,
    "unerative": 21900,
    "Ġcling": 11775,
    "Ġapplied": 6188,
    "sford": 5999,
    "Ġconcise": 23326,
    "machine": 970,
    "Ġawaken": 23588,
    "pole": 9336,
    "Ġaffronted": 22895,
    "Ġpurp": 2391,
    "landsmen": 25062,
    "Ġslugg": 15272,
    "Ġtrouble": 3693,
    "Ġeffective": 1251,
    "Ġrat": 4355,
    "Ġcaged": 21355,
    "rinted": 21046,
    "Ġjar": 15955,
    "disp": 7977,
    "supp": 4162,
    "eze": 20849,
    "gent": 7131,
    "marching": 25753,
    "dignity": 15349,
    "agonies": 21913,
    "standing": 5558,
    "Ġashen": 21903,
    "Ġnobler": 14176,
    "Ġincorpor": 13169,
    "Ġsatiated": 22905,
    "pede": 19932,
    "Ġleaps": 14011,
    "Ġadver": 5641,
    "vint": 21117,
    "bel": 3841,
    "sect": 8153,
    "epend": 3317,
    "Ġpalace": 16691,
    "iding": 3852,
    "Ġwhelm": 25999,
    "Ġfavour": 3644,
    "Ġmisled": 22759,
    "earth": 6503,
    "Ġincluding": 2850,
    "Ġconsistent": 14530,
    "Ġwarmer": 19187,
    "mistakable": 20655,
    "Ġengage": 9338,
    "Ġthreaten": 24374,
    "Ġlines": 4534,
    "olstadt": 7789,
    "Ġairy": 23321,
    "lamp": 9611,
    "Ġfirmly": 8014,
    "Ġinvade": 19144,
    "Ġcitations": 25438,
    "Ġpince": 21474,
    "Ġcontour": 18475,
    "Ġdut": 2987,
    "peculiarity": 23113,
    "Ġtotal": 4993,
    "deemed": 18316,
    "Ġpartners": 11857,
    "Ġwooded": 23523,
    "baron": 24926,
    "ourage": 2448,
    "shavings": 22467,
    "Ġoutlines": 15962,
    "Ġhealthy": 10853,
    "Ġcups": 16884,
    "Ġbarbaric": 10017,
    "fain": 13718,
    "agre": 18167,
    "bunger": 20405,
    "Ġheaved": 9386,
    "Ġglossy": 15231,
    "scheme": 15258,
    "laugh": 10111,
    "ĠĠĠĠĠĠĠĠĠĠĠĠĠĠĠĠĠĠĠĠĠĠĠĠĠĠĠĠĠĠĠĠĠĠĠĠĠĠĠĠĠĠĠĠĠ": 9955,
    "Ġlangsdorff": 15280,
    "veil": 18045,
    "Ġfavourable": 7959,
    "please": 8177,
    "§": 105,
    "Ġability": 2762,
    "naturalists": 23507,
    "Ġthreshold": 2808,
    "Ġacquirement": 19257,
    "Ġtrump": 8196,
    "breathing": 25336,
    "ifling": 15788,
    "):": 11463,
    "ver": 331,
    "Ġtri": 4813,
    "Ġfollowing": 4065,
    "Ġproprietor": 12377,
    "Ġsent": 1774,
    "Ġte": 1168,
    "Ġrevenge": 5452,
    "Ġtwinkle": 12327,
    "Ġobliterated": 17408,
    "enesis": 24388,
    "actor": 11839,
    "atoes": 17777,
    "ns": 751,
    "commencement": 26350,
    "Ġstepping": 9357,
    "Ġestablished": 9072,
    "edy": 2859,
    "der": 468,
    "completely": 12424,
    "Ġtemples": 18639,
    "ilies": 18059,
    "threatened": 25463,
    "presently": 9810,
    "Ġhurled": 10431,
    "Ġspaulding": 11735,
    "ledyard": 22395,
    "Ġjinglers": 26019,
    "Ġsoftly": 7948,
    "Ġbrit": 6291,
    "ves": 695,
    "Ġsurviving": 24637,
    "wer": 8396,
    "Ġtallow": 14783,
    "swiftly": 20554,
    "fingers": 17373,
    "Ġtrembled": 8705,
    "Ġovertook": 18429,
    "Ġpolitic": 23620,
    "Ġmanhood": 22330,
    "erred": 6377,
    "Ġbund": 17865,
    "Ġlondon": 2839,
    "benevolent": 15237,
    "Ġbeside": 5192,
    "âĢĺ": 940,
    "Ġfe": 490,
    "Ġrumours": 24599,
    "Ġentirely": 3437,
    "aul": 6354,
    "Ġatlantic": 7001,
    "Ġgeese": 7694,
    "Ġtinkling": 25213,
    "Ġdyspeps": 16520,
    "Ġpainful": 6463,
    "Ġdowry": 20688,
    "ĠĊ": 12528,
    "Ġtennes": 23552,
    "Ġsearching": 13166,
    "carte": 25401,
    "Ġoptimize": 1586,
    "Ġmadam": 5663,
    "Ġnewfoundland": 26571,
    "Ġsusp": 2659,
    "vulgar": 25919,
    "Ġlassitude": 20590,
    "hearse": 17750,
    "ake": 748,
    "ivered": 7007,
    "laden": 14932,
    "±": 114,
    "Ġmidday": 23634,
    "ĠĠĠĠĠĠĠĠĠĠĠĠĠĠĠĠĠĠĠĠĠĠĠĠĠĠĠĠĠĠĠĠĠĠĠĠĠĠĠĠĠĠ": 24212,
    "surv": 24216,
    "Ġforemost": 12009,
    "Ġlodges": 19503,
    "venth": 9298,
    "Ġgoug": 17993,
    "/(": 2981,
    "Ġtwopence": 18661,
    "encing": 21285,
    "alterable": 13628,
    "properly": 24919,
    "bun": 12442,
    "lying": 7175,
    "bear": 10318,
    "stretch": 13984,
    "Ġchrist": 4075,
    "Ġunceasing": 20361,
    "Ġincredible": 9518,
    "Ġloggerhead": 13661,
    "Ġcrying": 10788,
    "Ġfinger": 5274,
    "ł": 259,
    "nt": 921,
    "Ġinsisted": 12050,
    "Ġdreadfully": 7726,
    "Ġcorroborated": 26054,
    "Ġcalled": 1972,
    "Û": 156,
    "Ġstomach": 11656,
    "consternation": 16914,
    "Ġlastly": 16209,
    "accomplished": 17214,
    "Ġlimping": 23549,
    "```": 25894,
    "Ġprivile": 8649,
    "vel": 2383,
    "Ġev": 4829,
    "staking": 21651,
    "Ġhaving": 1881,
    "Ġfavourites": 16647,
    "ivance": 22082,
    "amous": 15766,
    "unwilling": 14064,
    "Ġpillows": 24989,
    "Ġpersonified": 19180,
    "ativeness": 15525,
    "Ġcupboard": 16885,
    "ials": 11708,
    "Ġjavel": 17085,
    "Ġoppose": 16522,
    "Ġinfrequent": 3829,
    "mes": 1196,
    "\\": 64,
    "Ġbravest": 23844,
    "mbles": 23092,
    "irement": 18356,
    "Ġtorture": 9067,
    "Ġdiscoveries": 13363,
    "whom": 8185,
    "Ġbegging": 11081,
    "Ġrudder": 25110,
    "Ġindiscriminately": 20630,
    "âĢĶ.âĢĿ": 22261,
    "Ġpencils": 23198,
    "Ġsurpr": 2547,
    "sometimes": 5973,
    "Ġarsacidean": 20368,
    "Ġvoices": 7876,
    "Ġcharges": 23271,
    "Ġunmindful": 22070,
    "Ġpreach": 14175,
    "pemberley": 9623,
    "Ġcocked": 12912,
    "ishe": 13894,
    "abama": 12714,
    "!âĢĶâĢĻ": 23567,
    "dar": 20826,
    "avers": 17483,
    "then": 2052,
    "pie": 21013,
    "aneously": 4062,
    "Ġarr": 1797,
    "ette": 15664,
    "acled": 16068,
    "yra": 8103,
    "falgar": 26131,
    "necess": 4897,
    "cannibal": 15228,
    "Ġexpanded": 14292,
    "Ġsaturn": 22904,
    "ginger": 13167,
    "Ġarabic": 24981,
    "Ġvaried": 11852,
    "Ġhereditarily": 25225,
    "becomes": 22500,
    "Ġclimbing": 20073,
    "transp": 24512,
    "Ġyours": 4125,
    "Ġwilful": 10537,
    "raved": 18015,
    "ĭ": 238,
    "oky": 8199,
    "Ġstaple": 26200,
    "seam": 10876,
    "Ġemptied": 24347,
    "eprints": 12796,
    "Ġwatchful": 16529,
    "Ġblot": 9815,
    "Ġpalm": 10516,
    "Ø": 153,
    "scythes": 26404,
    "drove": 16995,
    "Ġdine": 7366,
    "nable": 13765,
    "phology": 3008,
    "wherever": 13123,
    "greatest": 10496,
    "Ġvicious": 24403,
    "declaration": 25176,
    "Ġdiff": 3117,
    "Ġhoriz": 4726,
    "sake": 13786,
    "Ġcurved": 18833,
    "Ġadieu": 10054,
    "Ġbite": 10799,
    "Ġleghorn": 13150,
    "Ġcrucifix": 26080,
    "Ġhatherley": 7849,
    "Ġtrifle": 10604,
    "igan": 21702,
    "Ġintellect": 8170,
    "``": 15310,
    "upp": 10133,
    "itories": 15554,
    "antically": 22095,
    "Ġfleetness": 20182,
    "Ġsacrificed": 17425,
    "found": 4215,
    "meant": 7921,
    "impossible": 8828,
    "accident": 11183,
    "Ġcloud": 3915,
    "Ġhealed": 21686,
    "Ġrespects": 7269,
    "Ġcounsel": 13619,
    "Ġhazard": 20435,
    "Ġgourmand": 26468,
    "Ġimpunity": 14218,
    "Ġanother": 1736,
    "instantly": 7506,
    "Ġmagistrate": 8234,
    "ato": 17771,
    "cc": 469,
    "Ġposter": 14281,
    "Ġbengal": 18784,
    "Ġfastened": 7067,
    "Ġneeded": 7718,
    "Ġcranial": 25593,
    "ipped": 5790,
    "Ġsnatches": 16546,
    "alously": 15634,
    "ront": 15422,
    "ext": 927,
    "Ġair": 1833,
    "Ġall": 422,
    "inces": 13831,
    "Ġfl": 1280,
    "Ġensued": 11396,
    "Ġsmoothed": 23658,
    "strugg": 21665,
    "functions": 11239,
    "Ġunreasonable": 12782,
    "Ġfunctions": 1338,
    "Ġappet": 9733,
    "Ġrecom": 4555,
    "iture": 5696,
    "saf": 11527,
    "Ġidentifies": 12019,
    "Ġmeditations": 25016,
    "Ġfailing": 12142,
    "Ġsearched": 15821,
    "nevertheless": 8286,
    "Ġacceptance": 14830,
    "Ġtowns": 11175,
    "bone": 5612,
    "Ġobstinate": 11338,
    "Ġassemblage": 26354,
    "Ġtep": 21164,
    "idly": 12705,
    "pass": 4293,
    "Ġhatch": 7848,
    "Ġcamberwell": 25351,
    "Ġoverbearing": 12848,
    "Ġaudits": 24769,
    "&": 10,
    "Ġoverflowing": 17240,
    "incom": 21184,
    "izing": 1070,
    "pooh": 18800,
    "Ġcliffs": 15973,
    "Ġimpertinent": 9080,
    "Ġain": 6970,
    "uation": 17696,
    "Ġbraced": 16582,
    "onents": 8781,
    "akness": 14197,
    "Ġthyself": 6604,
    "itiously": 13874,
    "Ġgrie": 3587,
    "Ġvultures": 25654,
    "proves": 23397,
    "child": 5538,
    "Ġwearing": 12744,
    "Ġvineyard": 12334,
    "Ġgroaned": 11268,
    "reas": 989,
    "tic": 8391,
    "Ġobtruded": 20724,
    "loo": 10322,
    "Ġprogen": 14042,
    "Ġstaves": 21744,
    "Ġkilburn": 18352,
    "sam": 21054,
    "vine": 10736,
    "oid": 3129,
    "ification": 1016,
    "Ġsplendidly": 25328,
    "Ġconstrained": 19241,
    "Ġenlar": 15805,
    "itioned": 22479,
    "omics": 21646,
    "cour": 4480,
    "Ġgravely": 7883,
    "Ġfigures": 8633,
    "Ġunp": 12777,
    "Ġwo": 3653,
    "Ġbaby": 6639,
    "Ġmexico": 15284,
    "Ġdarted": 4758,
    "examine": 25478,
    "easy": 9595,
    "ipp": 10105,
    "Ġmowers": 17814,
    "âĢľâĢĺ": 1484,
    "hump": 12482,
    "Ġind": 1222,
    "committed": 18742,
    "congenial": 25400,
    "Ġhard": 1441,
    "Ġdiction": 8799,
    "summit": 23419,
    "always": 5708,
    "Ġrecurred": 18978,
    "Ġpropont": 16354,
    "iliation": 10862,
    "floor": 14939,
    "Ġrepose": 6743,
    "Ġtist": 21165,
    "Ġpilgr": 12185,
    "Ġlombardy": 26465,
    "Ġcurving": 16230,
    "Ġthoughtless": 16197,
    "acceptable": 25184,
    "Ġliveliness": 13647,
    "Ġlanes": 19768,
    "Ġgrieved": 8298,
    "Ġcontextual": 3747,
    "ais": 8071,
    "Ġconcentrate": 25066,
    "Ġ116": 24440,
    "pretty": 10624,
    "Ġproperties": 3120,
    "Ġexplanation": 6694,
    "Ġcopying": 17069,
    "Ġnoted": 15832,
    "Ġhay": 11608,
    "Ġglobules": 26590,
    "Ġclap": 10959,
    "Ġstig": 14005,
    "accepting": 20138,
    "pents": 11515,
    "Ġeach": 893,
    "Ġquestioning": 10465,
    "Ġintensified": 17020,
    "venor": 16102,
    "Ġbast": 21382,
    "eronomy": 15529,
    "formed": 2551,
    "Ġcott": 3712,
    "Ġunwilling": 7886,
    "Ġnarrative": 6217,
    "warm": 8102,
    "Ġwhip": 8453,
    "Ġdimmed": 24270,
    "Ġstraps": 19312,
    "Ġhardware": 4905,
    "questions": 16762,
    "sort": 6799,
    "Ġpicture": 4857,
    "Ġcavity": 20491,
    "stood": 4117,
    "anks": 3920,
    "Ġhatchet": 16531,
    "Ġbowlines": 19324,
    "Ġforefinger": 16444,
    "Ġdangling": 17177,
    "sheets": 14445,
    "Ġlanguages": 1566,
    "Ġcaul": 10789,
    "Ġcubic": 20091,
    "Ġhairy": 23868,
    "Ġarrest": 7409,
    "Ġpermission": 9282,
    "Ġhermits": 22078,
    "retrie": 18926,
    "Ġextremely": 2664,
    "Ġinvited": 6903,
    "Ġevils": 9023,
    "Ġtranspointed": 22444,
    "Ġpipeline": 2431,
    "Ġunembarrassed": 22075,
    "Ġpomp": 12627,
    "Ġdeposed": 16092,
    "Ġproportionably": 19974,
    "Ġrifle": 18213,
    "Ġslender": 11944,
    "Ġsprout": 24093,
    "ely": 621,
    "Ġbower": 15572,
    "inting": 9817,
    "Ġdry": 5624,
    "ips": 2588,
    "things": 6034,
    "unimportant": 18162,
    "scoured": 22996,
    "impenet": 18056,
    "Ġeasiness": 23540,
    "Ġmortified": 14697,
    "Ġheartless": 13077,
    "Ġmuch": 922,
    "razor": 21640,
    "lanterns": 17432,
    "Ġguinea": 8950,
    "Ġemerge": 14931,
    "Ġshark": 5550,
    "bon": 13688,
    "cross": 3579,
    "Ġencirc": 18732,
    "Ġpatterns": 1215,
    "Ġpraying": 19557,
    "Ġsatir": 18795,
    "Ġshan": 9252,
    "Ġarchitectures": 2910,
    "terrific": 25043,
    "Ġunappe": 22022,
    "arrange": 23768,
    "conjectures": 25181,
    "Ġgently": 7172,
    "Ġwomen": 4750,
    "Ġflirt": 14426,
    "Ġtuples": 13481,
    "club": 26382,
    "Ġadvert": 10574,
    "Ġexplored": 23521,
    "Ġheavenly": 12089,
    "Ġtrue": 1337,
    "Ġwrung": 14473,
    "arrangement": 17418,
    "Ġ27": 8618,
    "Ġtune": 17727,
    "Ġgrowled": 19286,
    "Ġrabb": 4164,
    "notwithstanding": 22754,
    "prodigious": 17469,
    "works": 6591,
    "Ġwat": 1287,
    "Ġshorter": 4499,
    "Ġspite": 4156,
    "oct": 7554,
    "ĠĠĠĠĠĠĠĠĠĠĠĠĠĠĠĠĠĠĠĠĠĠĠĠĠĠĠĠĠĠĠĠĠĠĠĠĠĠĠĠĠĠĠĠĠĠĠ": 16757,
    "Ġguns": 16778,
    "Ġlaure": 16911,
    "Ġinfirmity": 26299,
    "Ġinseparable": 20691,
    "Ġnetworks": 594,
    "Ġacceler": 1607,
    "Ġhails": 21954,
    "Ġapolog": 9046,
    "accurately": 25862,
    "Ġwatches": 11084,
    "Ġstyle": 6946,
    "Ġhandspikes": 12943,
    "here": 2546,
    "comprehend": 14363,
    "Ġinhuman": 13932,
    "believed": 9936,
    "corrupt": 14898,
    "doubt": 6783,
    "Ġnorms": 3668,
    "Ġtestified": 16336,
    "Ġhardest": 18914,
    "Ġmutual": 8297,
    "grin": 19107,
    "Ġsurvived": 14937,
    "Ġequivalent": 4802,
    "Ġlaunched": 14929,
    "pale": 13775,
    "Ġinfle": 16367,
    "vitiated": 25755,
    "Ġsinister": 8572,
    "word": 2485,
    "Ġweights": 897,
    "Ġlegitimate": 20644,
    "Ġwhere": 784,
    "onstr": 12551,
    "reshold": 21242,
    "Ġroy": 4230,
    "ret": 1476,
    "Ġpreliminary": 10060,
    "suffer": 24329,
    "Ġspouting": 9442,
    "ress": 931,
    "Ġtop": 2468,
    "result": 12048,
    "Ġtastes": 15481,
    "added": 11662,
    "Ġexhausting": 24709,
    "Ġdescending": 8906,
    "Ġbeaks": 21759,
    "Ġdescribes": 3124,
    "Ġdearer": 14054,
    "Ġunsupervised": 2386,
    "Ġcoasts": 12168,
    "Ġreclining": 26034,
    "Ġfade": 21410,
    "Ġcaw": 13886,
    "etw": 407,
    "Ġpopulous": 16828,
    "Ġtriumph": 5143,
    "itia": 11582,
    "Ġcritical": 7474,
    "riers": 18185,
    "Ġregimentals": 19860,
    "thankful": 16808,
    "Ġhad": 443,
    "Ġhaz": 12760,
    "Ġmeditating": 20046,
    "spee": 9320,
    "Ġvacancies": 24345,
    "Ġgreatness": 12949,
    "ust": 494,
    "Ġslapped": 23173,
    "Ġbutterfly": 19912,
    "Ġnoah": 10944,
    "Ġrichest": 26213,
    "Ġinstead": 2789,
    "dient": 442,
    "Ġdeaths": 14539,
    "Ġpuppy": 12409,
    "Ġbugs": 13652,
    "Ġmallet": 17812,
    "ernity": 18616,
    "._": 3221,
    "Ġsatan": 14393,
    "Ġfirmament": 19474,
    "Ġwritten": 4168,
    "Ġattent": 4362,
    "Ġlodgings": 8312,
    "Ġeagerly": 4990,
    "Ġvelocity": 10623,
    "Ġworried": 22929,
    "Ġdense": 8123,
    "Ġclever": 7056,
    "reposed": 24492,
    "Ġelect": 10844,
    "Ġspent": 3967,
    "Ġworaciousness": 22932,
    "lestrade": 9659,
    "Ġpos": 1009,
    "Ġinferences": 17937,
    "valuable": 8247,
    "invari": 21187,
    "Ġrecompense": 14841,
    "Ġparacelsus": 15270,
    "Ġfacetious": 20587,
    "Ġsouthampton": 24309,
    "Ġapplies": 11962,
    "conclusive": 25674,
    "edmund": 17948,
    "Ġlabelled": 23333,
    "persons": 24177,
    "scap": 22993,
    "iries": 18170,
    "Ġscan": 22283,
    "Ġperishing": 22401,
    "nearest": 16027,
    "othed": 16513,
    "him": 1940,
    "week": 12936,
    "Ġcarpets": 18904,
    "cup": 10694,
    "Ġbound": 3522,
    "Ġcommod": 10336,
    "Ġtransformer": 2632,
    "constantinople": 25508,
    "iring": 1707,
    "Ġincarnate": 20378,
    "diver": 20833,
    "Ġdetermine": 3246,
    "Ġbride": 6293,
    "Ġbutter": 6842,
    "transform": 8050,
    "Ġnegatived": 23049,
    "Ġburied": 7719,
    "Ġsomething": 1793,
    "renewed": 19707,
    "Ġcivilly": 19606,
    "reception": 15518,
    "destroyed": 15264,
    "Ġpriority": 19765,
    "Ġvestibule": 13540,
    "Ġnoiselessly": 22866,
    "Ġelixir": 26557,
    "succeeded": 15179,
    "Ġquick": 2578,
    "Ġappointed": 20106,
    "Ġdisappoint": 24208,
    "stalk": 21653,
    "iors": 9128,
    "Ġtows": 19565,
    "Ġxerxes": 23413,
    "Ġslanting": 23174,
    "mem": 10711,
    "Ġservox": 23873,
    "Ġdesmarest": 22984,
    "iocr": 20925,
    "Ġbelfry": 26440,
    "tolerably": 21098,
    "Ġcoff": 3510,
    "Ġarrowy": 25470,
    "hug": 17565,
    "Ġpaternal": 16386,
    "ex": 624,
    "Ġinquiring": 9002,
    "Ġfretfully": 25448,
    "Ġendeavors": 16548,
    "immed": 9220,
    "fol": 4863,
    "ober": 15410,
    "Ġvoluntary": 14802,
    "Ġrepeat": 8000,
    "Ġthorough": 6247,
    "rosings": 15649,
    "Ġenthr": 22746,
    "Ġmoist": 9288,
    "Ġsuggests": 12205,
    "Ġinstructions": 11197,
    "Ġvivacity": 14944,
    "Ġ550": 19639,
    "Ġheated": 21685,
    "Ġfrequencies": 4789,
    "anish": 2613,
    "ective": 18177,
    "Ġgrows": 4985,
    "Ġqualities": 7533,
    "Ġreplete": 15703,
    "Ġstockings": 20000,
    "Ġcond": 3879,
    "Ġrunning": 3955,
    "Ġguidance": 9420,
    "Ġbabes": 24425,
    "Ġdella": 21442,
    "beds": 16624,
    "Ġend": 1472,
    "Ġbeau": 9227,
    "Ġsignature": 16496,
    "Ġtre": 2534,
    "Ġcredited": 25157,
    "Ġhelpless": 8302,
    "Ġlaughs": 24119,
    "wild": 8771,
    "Ġrigged": 16719,
    "matters": 14877,
    "Ġpoultry": 17444,
    "Ġends": 8238,
    "Ġcities": 17829,
    "Ġgrieve": 14710,
    "Ġinclement": 22558,
    "circumstantial": 24444,
    "Ġcommenced": 8534,
    "Ġsenor": 20153,
    "Ġsluggish": 25891,
    "human": 7090,
    "Ġblameless": 19861,
    "Ġretreated": 13437,
    "Ġreturns": 11930,
    "rrh": 26145,
    "Ġce": 3031,
    "Ġfaint": 5812,
    "ire": 493,
    "ope": 4126,
    "delight": 5345,
    "Ġpredicting": 2413,
    "remarked": 12292,
    "company": 9464,
    "Ġdescends": 14290,
    "Ġpromised": 5181,
    "fetch": 12469,
    "ram": 13975,
    "omen": 4088,
    "ool": 17620,
    "Ġmantelpiece": 15211,
    "civility": 17515,
    "unity": 4152,
    "Ġdangerous": 6615,
    "Ġberm": 21386,
    "Ġobeisance": 19761,
    "Ġramble": 9316,
    "Ġknighthood": 25298,
    "Ġboat": 1278,
    "Ġlater": 6018,
    "Ġ61": 24364,
    "Ġbloss": 19258,
    "Ġcomforted": 19394,
    "ide": 721,
    "based": 2959,
    "impe": 21711,
    "material": 13133,
    "Ġprovided": 6579,
    "ick": 836,
    "green": 7117,
    "Ġbatch": 891,
    "Ġtour": 9150,
    "bbed": 6910,
    "ellation": 12755,
    "gems": 20886,
    "Ġpeople": 2541,
    "Ġbankers": 24304,
    "Ġrural": 21974,
    "Ġtoast": 21515,
    "recogn": 13429,
    "Ġunimpe": 22076,
    "andering": 21871,
    "withstand": 23030,
    "aping": 8194,
    "Ġhovel": 8254,
    "adamite": 20596,
    "Ġhonourable": 10458,
    "mblings": 19783,
    "eldom": 4415,
    "Ġquadruped": 20618,
    "Ġawful": 6201,
    "Ġpretension": 23766,
    "tremble": 17144,
    "Ġtall": 4041,
    "Ġambitious": 18515,
    "Ġshipwreck": 20449,
    "Ġwords": 1323,
    "Ġimpelling": 22388,
    "habit": 16194,
    "ogn": 2529,
    "Ġspecial": 2102,
    "Ġspreading": 13382,
    "cas": 20796,
    "ama": 11682,
    "trip": 21094,
    "Ġseamen": 5063,
    "ulls": 8842,
    "Ġgrasping": 12170,
    "Ġreconsidered": 21676,
    "Ġlivery": 16004,
    "indust": 18436,
    "Ġavenue": 13625,
    "Ġperil": 5557,
    "Ġfund": 2843,
    "commander": 16989,
    "satisfaction": 9995,
    "Ġne": 389,
    "Ġfocus": 4237,
    "prolong": 23398,
    "Ġwillow": 18531,
    "Ġglades": 19375,
    "Ġexpand": 9310,
    "Ġrumbling": 18212,
    "ills": 1627,
    "Ġpaints": 23527,
    "age": 504,
    "ascertaining": 26462,
    "Ġeveryday": 22767,
    "rear": 21235,
    "aven": 8209,
    "Ġcyp": 21348,
    "gratitude": 16818,
    "rmsprop": 4522,
    "isol": 17848,
    "fourth": 11330,
    "chose": 18043,
    "Ġimpediments": 26242,
    "crews": 15045,
    "otted": 14027,
    "bern": 20777,
    "Ġbour": 4877,
    "upwards": 18866,
    "Ġconsented": 11297,
    "Ġdiverted": 14594,
    "Ġsustain": 10020,
    "Ġtormenting": 15108,
    "Ġvag": 9711,
    "Ġpassionately": 16766,
    "boo": 16355,
    "Ġvex": 5950,
    "storied": 18027,
    "ium": 4865,
    "Ġscandinav": 19964,
    "octavo": 11387,
    "Ġardu": 22193,
    "Ġsixth": 16562,
    "vember": 10857,
    "Ġtattooed": 11380,
    "Ġnortheast": 23205,
    "dissemble": 23494,
    "mercenary": 26316,
    "fates": 20860,
    "Ġcommit": 18656,
    "Ġmerest": 14032,
    "Ġwaning": 15538,
    "Ġfigure": 4207,
    "Ġpitchpoling": 14914,
    "Ġremonstrate": 22797,
    "attached": 11939,
    "Ġpitiful": 13245,
    "endless": 22230,
    "ogne": 12945,
    "Ġhall": 4184,
    "Ġcripp": 9656,
    "Ġmaj": 3930,
    "Ġconcern": 2651,
    "Ġlooked": 1801,
    "Ġimpetus": 25570,
    "Ġanon": 9669,
    "Ġhes": 6252,
    "idually": 21773,
    "Ġcrazy": 8596,
    "Ġquadrant": 11406,
    "ells": 5305,
    "Ġrudimental": 25111,
    "rosc": 17957,
    "Ġsuckling": 25998,
    "pense": 10371,
    "Ġfetch": 7770,
    "Ġaccepted": 7751,
    "Ġgrapes": 15219,
    "Ġincorruption": 26310,
    "creature": 5347,
    "Ġcorpore": 13405,
    "iza": 6257,
    "Ġcosmetic": 23473,
    "frequently": 9982,
    "Ġsunshine": 14496,
    "Ġobjectionable": 16993,
    "arranged": 19321,
    "Ġinnocent": 4922,
    "Ġoutwardly": 25001,
    "Ġkilling": 13337,
    "Ġlandlady": 10424,
    "ellow": 3881,
    "Ġopp": 2693,
    "Ġodds": 13334,
    "Ġclattered": 22354,
    "influ": 9544,
    "acrity": 14263,
    "Ġcriminals": 19924,
    "Ġwarped": 25038,
    "Ġlandsman": 11352,
    "kers": 7134,
    "Ġdreamy": 14706,
    "Ġentrance": 7233,
    "Ġchances": 9266,
    "Ġthomas": 17950,
    "ales": 3319,
    "delirious": 19508,
    "ifications": 9731,
    "Ġgeneralize": 3102,
    "Ġautumnal": 19029,
    "Ġimperfect": 13344,
    "Ġrocks": 6863,
    "Ġpatches": 4238,
    "Ġcontriv": 9285,
    "aid": 1923,
    "Ġknight": 9730,
    "usations": 15952,
    "abash": 18110,
    "Ġmachines": 1775,
    "devoted": 20020,
    "Ġtin": 15467,
    "½": 126,
    "Ġtrusting": 24108,
    "abounding": 25980,
    "mole": 22704,
    "archical": 1927,
    "Ġcognitive": 13638,
    "Ġserv": 3331,
    "Ġsanct": 15065,
    "anter": 9169,
    "scure": 22991,
    "Ġpurely": 12236,
    "Ġsoftware": 18920,
    "Ġben": 1106,
    "Ġmorning": 1746,
    "Ġglitter": 25126,
    "Ġcompanionship": 14923,
    "grees": 20888,
    "Ġcivilities": 14851,
    "Ġdriving": 3620,
    "vellers": 16676,
    "Ġbosoms": 16797,
    "encounter": 20395,
    "ids": 21767,
    "Ġintense": 6159,
    "hurry": 24762,
    "elag": 12663,
    "Ġlichen": 20095,
    "Ġacqu": 1417,
    "ange": 1015,
    "Ġallures": 22012,
    "Ġendangered": 16307,
    "Ġrelate": 6875,
    "Ġblight": 18819,
    "Ġattacks": 12209,
    "Ġpirate": 14998,
    "03": 20750,
    "Ġrout": 7402,
    "Ġyour": 634,
    "Ġoverjoyed": 17461,
    "Ġpowder": 11277,
    "prot": 6899,
    "ython": 1032,
    "Ġdin": 3628,
    "Ġperfection": 19220,
    "Ġfath": 7364,
    "ù": 186,
    "Ġconcluding": 9860,
    "Ġtoy": 15639,
    "aud": 8524,
    "Ġ81": 24457,
    "Ġadaptive": 1352,
    "Ġdrugg": 17122,
    "reputable": 15521,
    "dry": 13707,
    "Ġfoundering": 21422,
    "Ġfinish": 7949,
    "ict": 589,
    "Ġaddressed": 5263,
    "Ġmary": 3849,
    "road": 6679,
    "image": 9689,
    "Ġruddy": 17128,
    "Ġintact": 21993,
    "Ġwriters": 13546,
    "visit": 7755,
    "Ġtruthful": 23870,
    "jour": 20929,
    "Ġperches": 18450,
    "Ġindispensable": 11906,
    "Ġtoo": 1164,
    "Ġscreamed": 9527,
    "ezes": 9994,
    "Ġladyship": 5046,
    "affording": 23780,
    "Ġantichron": 24184,
    "Ġthoughtlessness": 16198,
    "Ġgreen": 3051,
    "farmer": 25900,
    "newsp": 23136,
    "beh": 5472,
    "Ġrooms": 5180,
    "impotence": 23763,
    "Ġentertaining": 16928,
    "L": 48,
    "Ġincreases": 3800,
    "arch": 1116,
    "Ġprocessions": 18434,
    "Ġclassify": 1598,
    "settled": 10509,
    "Ġelias": 18635,
    "discoloured": 23500,
    "Ġdissol": 18552,
    "Ġchanc": 18385,
    "kicked": 20945,
    "Ġcaulk": 25441,
    "Ġphilipses": 24452,
    "steaks": 23964,
    "shattered": 22463,
    "included": 19209,
    "ines": 666,
    "Ġfalsehood": 10526,
    "Ġunfulfilled": 26511,
    "Ġwick": 2006,
    "Ġfetching": 16898,
    "fluttering": 23976,
    "cab": 7333,
    "Ġc": 277,
    "Ġradney": 6776,
    "Ġdebt": 12172,
    "grad": 2564,
    "Ġscientific": 6857,
    "lamps": 25261,
    "imperturbable": 25791,
    "Ġpropose": 9855,
    "prosperity": 20737,
    "mir": 20965,
    "Ġvicissitudes": 12423,
    "sue": 2077,
    "Ġserpents": 13081,
    "Ġglac": 9349,
    "Ġunrecord": 16623,
    "Ġhumane": 11888,
    "Ġdownstairs": 11226,
    "Ġcomplaisance": 19452,
    "discovering": 24254,
    "Ġinstruct": 2864,
    "Ġpump": 12626,
    "Ġamelia": 26253,
    "Ġpersuasions": 16634,
    "Ġherds": 9719,
    "Ġkeep": 2355,
    "Ġantics": 24181,
    "myster": 16266,
    "hailed": 17567,
    "etite": 21582,
    "Ġshetland": 22163,
    "ht": 375,
    "Ġpersuade": 5874,
    "Ġorgans": 15870,
    "Ġstrife": 18614,
    "Ġwarmly": 8990,
    "Ġsubl": 7235,
    "Ġchart": 10947,
    "Ġwash": 9706,
    "Ġassoc": 6403,
    "arian": 10319,
    "Ġalive": 4400,
    "la": 10707,
    "Ġrifled": 21983,
    "Ġdreading": 23801,
    "avings": 12027,
    "Ġhatches": 12049,
    "isle": 13895,
    "abbering": 21800,
    "Ġpregn": 22236,
    "ments": 1402,
    "indian": 11782,
    "Ġbanish": 15575,
    "cabinet": 25080,
    "Ġtouched": 6002,
    "Ġspikes": 22140,
    "Ġtort": 5903,
    "Ġhansom": 13668,
    "ientific": 6549,
    "bony": 15323,
    "Ġbind": 12587,
    "Ġconfl": 11139,
    "Ġdiscipline": 26563,
    "oning": 7572,
    "Ġalders": 21788,
    "humour": 7498,
    "Ġburton": 23654,
    "Ġgang": 9210,
    "Ġkne": 4268,
    "Ġowner": 8925,
    "rugged": 6849,
    "Ġadmired": 7982,
    "Ġancest": 12619,
    "Ġapparent": 5466,
    "Ġcompassion": 6488,
    "Ġdiscussing": 5202,
    "wretch": 17710,
    "Ġunavailing": 26217,
    "Ġseethe": 21960,
    "Ġclamped": 18426,
    "Ġpresuming": 16795,
    "Ġslope": 14464,
    "etymology": 14704,
    "ang": 444,
    "Ġreputation": 11643,
    "teenth": 11878,
    "Ġcandidates": 4335,
    "Ġafternoon": 6054,
    "iday": 8834,
    "oura": 1064,
    "Ġbrutality": 26278,
    "Ġcircumstances": 3929,
    "Ġinspecting": 24614,
    "Ġscandinavian": 26347,
    "Ġkept": 3348,
    "Ġ65": 24368,
    "content": 11199,
    "Ġcommissionaire": 17002,
    "ees": 13714,
    "Ġpreserving": 19799,
    "Ġsi": 21215,
    "Ġexpl": 487,
    "Ġdiffer": 18675,
    "ohn": 4561,
    "advice": 12162,
    "Ġtennessee": 26598,
    "Ġcommencement": 12243,
    "Ġcelest": 9903,
    "Ġatone": 15809,
    "conjectured": 25182,
    "Ġsecondly": 14519,
    "cul": 1900,
    "ura": 1036,
    "Ġtiar": 21170,
    "Ġrusty": 14967,
    "Ġdejection": 15200,
    "Ġlend": 17965,
    "obed": 14449,
    "Ġgrateful": 7660,
    "Ġcharacteristics": 8613,
    "relics": 24020,
    "Ġdimensions": 16574,
    "appeared": 4284,
    "ą": 198,
    "Ġsticking": 13431,
    "Ġengine": 1921,
    "across": 10325,
    "Ġdrab": 13075,
    "bring": 9108,
    "Ġma": 3253,
    "apparat": 22853,
    "groom": 8743,
    "Ġhowever": 1304,
    "Ġsog": 22088,
    "doub": 6225,
    "Ġunimportant": 22034,
    "lady": 4434,
    "Ġwrenched": 12563,
    "idity": 8835,
    "Ġstreamed": 14547,
    "yours": 7695,
    "ethics": 8881,
    "Ġdef": 1199,
    "Ġannounced": 9037,
    "Ġallies": 18235,
    "Ġfierceness": 26266,
    "iny": 4296,
    "Ġdisputing": 25825,
    "Ġrehears": 15705,
    "Ġgore": 17991,
    "Ġimposing": 11785,
    "Ġtipt": 21176,
    "Ġunprofitable": 18268,
    "Ġchoked": 9267,
    "acceler": 23600,
    "Ġmalignity": 10559,
    "Ġcanoes": 12810,
    "Ġagitates": 22520,
    "Ġdecency": 18486,
    "lance": 12486,
    "Ġindignantly": 16941,
    "Ġbrisk": 9806,
    "Ġhoofs": 14529,
    "Ġtable": 2496,
    "Ġslate": 11942,
    "Ġpreference": 9736,
    "Ġsounded": 8594,
    "Ġindisp": 18842,
    "Ġpronounce": 16970,
    "Ġuniformity": 23485,
    "tur": 5688,
    "hol": 3844,
    "Ġaffecting": 2323,
    "Ġsilence": 3268,
    "informed": 17738,
    "Ġpoky": 21482,
    "loops": 12888,
    "Ġglide": 22989,
    "rapt": 13976,
    "Ġ_": 840,
    "mosphere": 10046,
    "Ġdisaster": 12892,
    "Ġdair": 17891,
    "Ġmarks": 6748,
    "Ġrear": 6537,
    "Ġsprung": 11250,
    "Ġandes": 12646,
    "away": 4625,
    "sister": 5139,
    "Ġenc": 965,
    "coal": 12029,
    "Ġleak": 2160,
    "Ġdesc": 773,
    "Ġstately": 9837,
    "Ġinjunction": 19620,
    "ans": 459,
    "Ġmiseries": 10349,
    "urs": 6990,
    "sies": 21057,
    "bation": 9106,
    "Ġicebergs": 23978,
    "û": 188,
    "till": 6966,
    "upid": 6584,
    "gracechurch": 24582,
    "impressions": 20701,
    "created": 12455,
    "Ġextra": 4058,
    "ognit": 19212,
    "rell": 11566,
    "trifling": 19417,
    "scratch": 26045,
    "Ġdarcy": 1340,
    "Ġbirds": 5875,
    "jointed": 24015,
    "Ġdetective": 14417,
    "Ġprofoundest": 16862,
    "æ": 167,
    "verd": 21731,
    "discern": 14854,
    "Ġconsequ": 6256,
    "Ġunpitying": 25661,
    "chan": 1155,
    "Ġconclude": 8584,
    "Ġitself": 2517,
    "power": 7138,
    "backpropagation": 11990,
    "Ġinterchange": 16081,
    "iously": 2672,
    "teeth": 10358,
    "Ġcooking": 16649,
    "Ġshores": 8852,
    "boards": 23256,
    "Ġdrops": 9035,
    "lect": 1223,
    "hood": 2654,
    "Ġsays": 3564,
    "fancy": 7337,
    "practised": 20250,
    "Ġassailants": 20452,
    "Ġappeal": 16319,
    "Ġpiping": 23239,
    "Ġreeds": 15701,
    "sutherland": 21065,
    "dra": 3418,
    "Ġtoll": 7852,
    "ribes": 23369,
    "ax": 693,
    "Ġunluckily": 20105,
    "burst": 10540,
    "Ġsink": 4342,
    "Ġproject": 5546,
    "Ġbreeds": 23351,
    "Ġfaults": 12217,
    "buckets": 26124,
    "Ġinexhaustible": 16983,
    "unt": 2043,
    "Ġhag": 12630,
    "grained": 20885,
    "ugal": 19020,
    "Ġremarkable": 4916,
    "Ġsaves": 18325,
    "Ġniagara": 26460,
    "inian": 21185,
    "occasion": 7754,
    "Ġeternally": 11371,
    "ones": 2739,
    "same": 5362,
    "Ġoverpow": 14210,
    "Ġcharcoal": 19008,
    "Ġeng": 1162,
    "osa": 22263,
    "Ġrose": 3446,
    "Ġdeliverer": 11954,
    "Ġundertake": 14482,
    "emb": 11693,
    "Ġerecting": 24653,
    "skirted": 24489,
    "Ġmanufactured": 22334,
    "Ġtwilight": 16126,
    "Ġcame": 1299,
    "pless": 6262,
    "elaborate": 21579,
    "Ġsoothed": 10032,
    "ositions": 10285,
    "Ġ40": 14772,
    "Ġburke": 19253,
    "diss": 17525,
    "Ġascending": 14857,
    "charles": 14702,
    "eminent": 25107,
    "life": 4933,
    "begged": 18521,
    "traces": 24336,
    "Ġmab": 12565,
    "Ġpretty": 3866,
    "Ġlaid": 3945,
    "Ġtoiling": 15640,
    "Ġindepend": 3670,
    "Ġspectre": 16633,
    "speaking": 12103,
    "times": 8099,
    "Ġreigned": 13990,
    "Ġcomple": 2840,
    "ĠĠĠĠĠĠĠĠĠĠĠĠĠĠĠĠĠĠĠĠĠĠĠĠĠĠĠĠĠĠĠĠĠĠĠĠ": 23665,
    "Ġcombinations": 22841,
    "Ġcloth": 9746,
    "Ġtit": 8400,
    "rolled": 9062,
    "Ġbowls": 23772,
    "Ġboone": 11845,
    "Ġpail": 15612,
    "ject": 874,
    "stick": 15690,
    "Ġunconcern": 14120,
    "Ġsumatra": 15290,
    "Ġunman": 12779,
    "Ġreasons": 6021,
    "Ġstandard": 14498,
    "Ġfetched": 24568,
    "Ġwickham": 2206,
    "Ġmemorable": 16449,
    "toller": 20675,
    "Ġbel": 1217,
    "Ġlick": 21553,
    "ques": 2841,
    "Ġsideways": 6184,
    "obliged": 20634,
    "Ġintelligent": 1473,
    "Ġorder": 1684,
    "ified": 3227,
    "oked": 4310,
    "Ġcharity": 8866,
    "Ġshag": 9254,
    "ipotence": 22369,
    "\"]": 17473,
    "Ġphiladelphia": 26606,
    "just": 1700,
    "Ġlast": 1121,
    "Ġbalances": 2340,
    "Ġenveloping": 19737,
    "Ġeconomical": 25288,
    "fleet": 15016,
    "jerked": 25619,
    "ortion": 11760,
    "aet": 15311,
    "destined": 24117,
    "doublo": 24661,
    "Ġxli": 14543,
    "Ġfoundation": 4233,
    "Ġbull": 7839,
    "formation": 22222,
    "supposing": 24137,
    "Ġwarden": 17227,
    "andromeda": 21872,
    "Ġafraid": 3533,
    "Ġcin": 13878,
    "spir": 5738,
    "Ġwriter": 11949,
    "enty": 2916,
    "Ġdistorted": 14252,
    "give": 4688,
    "Ġqueens": 16705,
    "woman": 5900,
    "Ġstung": 21742,
    "Ġcalmly": 7734,
    "Ġworker": 23072,
    "Ġflu": 3279,
    "Ġartfully": 22610,
    "Ġsufferings": 7513,
    "low": 662,
    "Ġcru": 2823,
    "olet": 13769,
    "Ġchosen": 7201,
    "Ġlimited": 23548,
    "match": 15394,
    "Ġgrazed": 15838,
    "insupportable": 21196,
    "Ġfactor": 19014,
    "Ġvirgin": 7328,
    "poky": 17646,
    "Ġwhatever": 3477,
    "Ġefficient": 1052,
    "Ġmultiplicity": 19278,
    "Ġviciss": 11294,
    "aft": 9586,
    "rowing": 7931,
    "vered": 4830,
    "Ġexactness": 23606,
    "https": 11687,
    "surd": 6934,
    "kinson": 10029,
    "Ġlandowner": 23384,
    "Ġmasking": 2418,
    "Ġwheeling": 18289,
    "Ġmatrimony": 13639,
    "Ġwalk": 1823,
    "aring": 1477,
    "unted": 6999,
    "swimming": 24261,
    "accur": 14595,
    "acca": 23599,
    "myst": 9825,
    "Ġprovoke": 14829,
    "Ġwards": 17791,
    "tanh": 5204,
    "Ġpatagonian": 20538,
    "dom": 6224,
    "Ġbiting": 17863,
    "agery": 21911,
    "Ġimpenetrable": 17400,
    "Ġworshippers": 25694,
    "Ġcongreg": 8464,
    "Ġspending": 10925,
    "front": 12175,
    "society": 9975,
    "Ġproportions": 16471,
    "Ġankles": 17901,
    "Ġroasted": 18460,
    "Ġincorrupt": 19236,
    "sit": 13783,
    "Ġhurricane": 16435,
    "Ġsupremacy": 20263,
    "Ġglared": 13023,
    "Ġencamp": 22804,
    "osures": 22264,
    "slackened": 26095,
    "onde": 21254,
    "Ġupwards": 7634,
    "Ġsaluted": 14762,
    "Ġac": 845,
    "escape": 16012,
    "desponding": 26343,
    "Ġbeget": 9228,
    "Ġwrapt": 24596,
    "berish": 22747,
    "Ġharb": 7370,
    "Ġroaring": 10970,
    "Ġintermix": 25827,
    "Ġdark": 2114,
    "rians": 21929,
    "Ġeasily": 3895,
    "hurst": 19881,
    "Ġinteraction": 7424,
    "Ġcabinet": 23864,
    "Ġchatbots": 11351,
    "Ġdirected": 5579,
    "Ġcautiousness": 19868,
    "Ġlodge": 5779,
    "Ġschemes": 11133,
    "Ġlandless": 23382,
    "ctions": 951,
    "Ġshipmate": 8932,
    "Ġapprehens": 5682,
    "Ġjoints": 12039,
    "Ġconfining": 23308,
    "Ġbattalions": 25777,
    "Ġstormy": 16730,
    "Ġnearing": 15800,
    "Ġconfirmed": 11141,
    "Ġru": 947,
    "Ġemergency": 25731,
    "Ġpan": 5082,
    "Ġhyp": 3877,
    "bar": 7541,
    "Ġservices": 11219,
    "street": 6496,
    "Ġmoss": 9287,
    "Ġliber": 5168,
    "Ġthem": 640,
    "Ġbrood": 23104,
    "oded": 11673,
    "Ġimprovement": 7966,
    "Ġsgd": 3132,
    "Ġthinkings": 22813,
    "Ġshipmates": 6722,
    "Ġsuspected": 9065,
    "conqu": 14247,
    "Ġdedication": 3271,
    "Ġbehave": 23302,
    "Ġimproving": 1211,
    "Ġisa": 14028,
    "Ġpoignant": 22597,
    "Ġascertain": 9709,
    "niece": 20997,
    "Ġdeprived": 8211,
    "Ġrattle": 10901,
    "the": 335,
    "ech": 4391,
    "grown": 10102,
    "Ġlavater": 20499,
    "Ġpip": 1632,
    "Ġdeploy": 2969,
    "Ġcontention": 22430,
    "Ġdisputes": 25826,
    "Ġswing": 13041,
    "Ġrides": 21978,
    "msman": 9273,
    "ny": 4019,
    "Ġfruits": 17121,
    "Ġancient": 5443,
    "Ġinterrupted": 6345,
    "Ġsnatched": 10473,
    "bouton": 17504,
    "brink": 23578,
    "Ġfeature": 759,
    "expense": 22433,
    "rifle": 21049,
    "Ġpoetic": 17104,
    "Ġweather": 3999,
    "iating": 3208,
    "Ġcass": 13882,
    "Ġfearfully": 23515,
    "Ġfreely": 7058,
    "Ġfishing": 9665,
    "ruding": 9727,
    "commodore": 20628,
    "Ġbanners": 24859,
    "antee": 22096,
    "Ġmonogra": 22985,
    "isc": 6241,
    "Ġinclined": 6625,
    "resembling": 25933,
    "Ġtraitors": 23081,
    "ape": 1905,
    "Ġunmo": 12778,
    "Ġcooped": 22587,
    "Ġspl": 2983,
    "Ġcharging": 23270,
    "mospheric": 17092,
    "Ġunfav": 14791,
    "reach": 17759,
    "relig": 15516,
    "Ġparalle": 1411,
    "Ġinstituted": 18702,
    "dimens": 2317,
    "Ġfatigue": 8701,
    "threshold": 21991,
    "describe": 1517,
    "Ġsigns": 2440,
    "Ġtread": 9412,
    "ynolds": 10039,
    "outs": 7010,
    "owders": 18053,
    "crop": 20800,
    "inclined": 10642,
    "Ġjapanese": 10635,
    "Ġsm": 704,
    "Ġsympathised": 14865,
    "mine": 5618,
    "relations": 14737,
    "Ġconcil": 23325,
    "Ġfolding": 19730,
    "Ġstock": 7455,
    "Ġmoves": 14234,
    "Ġraise": 6168,
    "Ġapprised": 18360,
    "Ġprospect": 4705,
    "movable": 14327,
    "Ġdazz": 11597,
    "Ġessentially": 24925,
    "Ġgurg": 15678,
    "Ġfur": 991,
    "above": 8148,
    "ooped": 17625,
    "Ġungracious": 18259,
    "Ġinvisible": 7327,
    "ĠĠĠĠĠĠĠĠĠĠĠĠĠĠĠĠĠ": 22959,
    "Ġoath": 7833,
    "Ġimparted": 15992,
    "Ġincul": 22554,
    "indirect": 22376,
    "blooded": 20026,
    "marked": 9051,
    "Ġpalpitated": 26086,
    "Ġenumer": 12750,
    "Ġnavel": 24577,
    "Ġtempered": 12928,
    "trap": 24334,
    "tout": 21068,
    "Ġwaistcoat": 12275,
    "Ġuttering": 16465,
    "dle": 3308,
    "entimes": 12661,
    "elijah": 19476,
    "Ġdamn": 11160,
    "Ġwoes": 23989,
    "nder": 20989,
    "despatched": 19804,
    "Ġsmooth": 2776,
    "chor": 6148,
    "Ġconsidered": 4611,
    "Ġhiss": 15793,
    "cig": 17506,
    "Ġperu": 14224,
    "umbled": 8495,
    "adam": 15735,
    "Ġjustified": 11909,
    "allers": 22201,
    "gul": 12470,
    "Ġcovari": 2338,
    "Ġbales": 21392,
    "Ġknowledge": 1444,
    "ersampling": 18217,
    "french": 9122,
    "sive": 4144,
    "compliments": 24807,
    "Ġswallows": 18884,
    "aged": 2603,
    "Ġdiscours": 18717,
    "soo": 18686,
    "Ġeight": 3905,
    "'": 11,
    "hundred": 8331,
    "sex": 12718,
    "ellations": 21948,
    "endeavouring": 15018,
    "nals": 16404,
    "possible": 5743,
    "Ġalert": 18104,
    "lydia": 6826,
    "preference": 22471,
    "Ġhappens": 2188,
    "clam": 13060,
    "unched": 10238,
    "mblance": 7323,
    "Ġunreserved": 19400,
    "Ġexplained": 5937,
    "Ġhunt": 6185,
    "powder": 17647,
    "ede": 21509,
    "Ġexec": 19495,
    "Ġbites": 23745,
    "lu": 597,
    "Ġpresent": 1639,
    "Ġubiquitous": 26197,
    "Ġdecoyed": 18489,
    "Ġunrival": 22051,
    "Ġcountrymen": 23597,
    "Ġminiature": 11042,
    "doubted": 17528,
    "Ġexaggerate": 25650,
    "Ġyawned": 15054,
    "rous": 3756,
    "itled": 7578,
    "Ġtheoretically": 3569,
    "Ġpanegyric": 26451,
    "Ġmaintains": 2144,
    "coward": 13704,
    "tained": 4407,
    "Ġtuesday": 9629,
    "Ġspires": 11734,
    "Ġmatter": 1732,
    "Ġpurporting": 19184,
    "longbourn": 9898,
    "ringle": 21043,
    "Ġpoker": 13925,
    "pardonable": 17220,
    "assured": 10954,
    "ividually": 22087,
    "Ġpositive": 2298,
    "Q": 53,
    "execution": 20475,
    "alyards": 18786,
    "Ġsymptoms": 8708,
    "urning": 12921,
    "pth": 2380,
    "Ġperseus": 10606,
    "Ġwhale": 627,
    "Ġsporting": 17001,
    "Ġenvirons": 13186,
    "Ġthrice": 10578,
    "Ġmariner": 7247,
    "Ġplaster": 16088,
    "latitudes": 17199,
    "urried": 21707,
    "lantic": 6365,
    "Ġchag": 15936,
    "tack": 12517,
    "sofa": 26147,
    "Ġreverse": 16984,
    "Ġsupply": 6068,
    "oring": 1860,
    "Ġsmoke": 4715,
    "Ġspeckled": 14312,
    "icking": 8914,
    "Ġcousin": 3708,
    "Ġgroping": 13669,
    "Ġendure": 5957,
    "Ġbuoyed": 20044,
    "Ġerad": 25031,
    "Ġoar": 6238,
    "](": 11468,
    "Ġmethodically": 23187,
    "pistol": 17644,
    "Ġparameter": 888,
    "Ġrenders": 13288,
    "osop": 4406,
    "ĠĠĠĠĠĠĠĠĠĠĠĠĠĠĠĠĠĠĠĠĠĠĠĠĠĠĠĠĠĠĠĠĠĠĠĠĠ": 14616,
    "Ġimpetuously": 20375,
    "Ġcomely": 21847,
    "Ġfish": 2707,
    "gen": 6504,
    "Ġnecessary": 4474,
    "Ġreconciled": 13591,
    "Ġrestored": 7068,
    "Ġacquaint": 13050,
    "Ġharmless": 9968,
    "inisc": 15492,
    "Ġlingu": 11617,
    "vii": 13152,
    "draught": 12095,
    "phew": 6369,
    "thick": 10263,
    "Ġsauntering": 18328,
    "Ġdeliberately": 10627,
    "Ġdelightful": 6322,
    "orous": 5294,
    "claps": 23155,
    "Ġcrockery": 24303,
    "ub": 1227,
    "ustomed": 6100,
    "catch": 17509,
    "Ġsickness": 10541,
    "words": 7983,
    "Ġnar": 7375,
    "augh": 1781,
    "Ġpeleg": 3742,
    "Ġactivations": 2717,
    "Ġtossed": 5816,
    "Ġroad": 3885,
    "heaven": 8053,
    "Ġcrocodile": 20742,
    "Ġstriving": 8999,
    "Ġmeeting": 5193,
    "leagued": 26437,
    "Ġquohog": 10974,
    "ultural": 22573,
    "swells": 26149,
    "spl": 9142,
    "Ġcorrespondence": 10597,
    "Ġfowler": 16939,
    "Ġscolding": 15204,
    "onts": 15523,
    "Ġbadly": 12136,
    "pulled": 25148,
    "Ġterrible": 5328,
    "Ġpent": 17905,
    "Ġirrevocably": 15301,
    "Ġmons": 10159,
    "Ġinquisitive": 26318,
    "Ġmonoman": 7939,
    "Ġderives": 16313,
    "aps": 1230,
    "Ġcrosswise": 18887,
    "Ġcemet": 20683,
    "Ġpreferred": 14969,
    "Ġwent": 1538,
    "Ġaware": 5756,
    "Ġtolerably": 8068,
    "Ġbranches": 6777,
    "Ġdemon": 7869,
    "bit": 3935,
    "atre": 17772,
    "Ġobserv": 8589,
    "Ġded": 2656,
    "Ġwelfare": 12564,
    "ainty": 21791,
    "Ġrelevant": 1864,
    "olds": 9314,
    "Ġhaggard": 17333,
    "separation": 25227,
    "Ġbent": 5149,
    "Ġlat": 5087,
    "Ġtelegra": 11896,
    "Ġaffinity": 18788,
    "Ġhurst": 5582,
    "Ġspectacle": 10499,
    "eping": 5834,
    "Ġcombing": 22838,
    "Ġproduce": 4368,
    "Ġdeclares": 16994,
    "Ġlessons": 7692,
    "Ġdock": 15935,
    "Ġinquest": 16549,
    "Ġcolossal": 11461,
    "Ġtiny": 11555,
    "Ġplumber": 16089,
    "Ġsenate": 25215,
    "Ġabode": 7900,
    "listened": 15046,
    "Ġamusing": 11804,
    "Ġwhose": 2009,
    "Ġrece": 11641,
    "doubtless": 17004,
    "ulnerable": 18153,
    "oftentimes": 19424,
    "Ġmetrics": 19063,
    "jets": 20930,
    "haust": 5777,
    "lp": 898,
    "straight": 9943,
    "Ġfoaming": 18992,
    "uce": 11538,
    "tern": 4225,
    "Ġtickets": 17095,
    "iron": 3402,
    "Ġequality": 16363,
    "Ġcurls": 22951,
    "Ġtreacherously": 25132,
    "elsewhere": 19870,
    "cence": 9591,
    "Ġtimorous": 24228,
    "Ġprometheus": 15296,
    "Ġlawyers": 25249,
    "Ġ33": 16678,
    "Ġrust": 6409,
    "Ġmince": 22834,
    "arial": 5532,
    "Ġspurned": 12802,
    "¾": 127,
    "Ġspecially": 12002,
    "acter": 2503,
    "Ġthigh": 10189,
    "Ġstructural": 2798,
    "ending": 1990,
    "Ġjing": 15954,
    "ici": 8441,
    "arming": 8954,
    "Ġavalanche": 17436,
    "gradient": 2275,
    "Ġviol": 2072,
    "Ġbutt": 14128,
    "Ġorganize": 8994,
    "Ġadventurous": 16735,
    "Ġhimmalehs": 26232,
    "late": 11501,
    "Ġlobster": 11391,
    "lounged": 26134,
    "dressed": 10697,
    "Ġinspirited": 23423,
    "mort": 10712,
    "cursed": 23847,
    "Ġconnexion": 11456,
    "Ġmulti": 1047,
    "Ġofficio": 23819,
    "Ġnlp": 3061,
    "Ġwaifing": 25244,
    "asht": 4086,
    "Ġmysteriously": 24602,
    "Ġegress": 21624,
    "rogress": 21539,
    "Ġrepeating": 11215,
    "Ġfervently": 25878,
    "Ġallowed": 4061,
    "icity": 2537,
    "ature": 522,
    "nailed": 20998,
    "Ġwrongfully": 24251,
    "Ġreal": 1633,
    "Ġbulkington": 14679,
    "ĺ": 251,
    "Ġplanted": 9777,
    "Ġmaterials": 11290,
    "untary": 9870,
    "Ġechoed": 20427,
    "Ġnorris": 23204,
    "orrow": 2915,
    "cushion": 20823,
    "brary": 5755,
    "tre": 8764,
    "placed": 7880,
    "Ġvintage": 26211,
    "smile": 23909,
    "Ġnour": 10832,
    "Ġfathoms": 9086,
    "Ġrepast": 16415,
    "Ġrather": 1495,
    "entions": 17977,
    "Ġjudgment": 5765,
    "Ġcompletion": 12152,
    "Ġstone": 4645,
    "islanders": 25443,
    "Ġbe": 336,
    "Ġtending": 17726,
    "bene": 6114,
    "hastily": 19705,
    "Ġhelmeted": 19691,
    "atig": 13848,
    "Ġunspeakable": 10059,
    "attered": 4022,
    "float": 19808,
    "ouching": 13181,
    "Ġskrimshander": 22803,
    "Ġcivilized": 8668,
    "Ġwester": 25156,
    "Ġif": 697,
    "Ġsalary": 13298,
    "sli": 11525,
    "barrels": 15044,
    "Ġholds": 7976,
    "Ġconveyed": 8335,
    "Ġgreenwich": 19323,
    "Ġdisturb": 7109,
    "Ġunimaginable": 15250,
    "Ġchilled": 18383,
    "camp": 15333,
    "Ġunrestrained": 25555,
    "Ġadam": 2128,
    "Ġfootpath": 19340,
    "Ġsleek": 23387,
    "Ġbay": 9171,
    "Ġpyramids": 15118,
    "Ġpun": 4587,
    "Ġunheeded": 18262,
    "Ġcoburg": 18601,
    "Ġconveys": 16857,
    "Ġnaturalist": 22894,
    "itu": 1228,
    "brew": 11475,
    "rift": 11522,
    "Æ": 135,
    "Ġpallet": 21484,
    "Ġmccarthys": 19665,
    "Ġbewildered": 15217,
    "Ġcondescension": 10621,
    "ipelag": 12849,
    "Ġproved": 4885,
    "pagans": 25526,
    "interesting": 12206,
    "Ġmasterless": 23998,
    "jure": 20926,
    "ical": 754,
    "iece": 3230,
    "Ġenduring": 16306,
    "Ġgrounds": 6751,
    "Ġpreviously": 3923,
    "Ġinputs": 843,
    "Ġembarkation": 25125,
    "Ġplaned": 24061,
    "Ġhum": 1096,
    "illed": 2620,
    "Ġspect": 3555,
    "Ġ66": 24369,
    "mon": 2309,
    "wait": 11322,
    "famous": 16918,
    "ribed": 7693,
    "Ġincidents": 9302,
    "Ġprofounder": 23571,
    "Ġbeaver": 18088,
    "Ġvalid": 1697,
    "Ġtransf": 22441,
    "ising": 2256,
    "thest": 11657,
    "Ġpropag": 16352,
    "Ġreadiness": 13055,
    "Ġsized": 11565,
    "Ġinmates": 15628,
    "uvian": 12247,
    "follow": 5680,
    "wood": 5899,
    "tum": 11534,
    "Ġduplicate": 17218,
    "Ġfow": 6135,
    "Ġinfinitely": 8966,
    "Ġsamples": 2961,
    "Ġdeliriously": 23231,
    "Ġcoco": 11003,
    "alley": 23027,
    "Ġfiends": 14831,
    "Ġconveniences": 19815,
    "soldiers": 25912,
    "forks": 26389,
    "Ġrevolt": 24504,
    "urre": 10858,
    "Ġwhaling": 2781,
    "Ġjoke": 8872,
    "effectually": 25131,
    "oice": 1384,
    "Ġenig": 15804,
    "Ġsymbol": 7717,
    "Ġinnermost": 12165,
    "Ġlain": 17964,
    "Ġ1890": 23900,
    "Ġrashly": 20308,
    "Ġportcull": 23866,
    "fits": 13721,
    "Ġfit": 3687,
    "ship": 1394,
    "Ġimmemorial": 10513,
    "ciousness": 20819,
    "hint": 12480,
    "aways": 15314,
    "Ġdisagreeable": 9301,
    "Ġnorthumbria": 24174,
    "Ġtenderly": 11316,
    "Ġfarewell": 9523,
    "tick": 17680,
    "welt": 12525,
    "Ġwhether": 2001,
    "Ġ108": 19687,
    "bos": 17486,
    "inations": 7567,
    "whel": 7665,
    "oped": 6048,
    "quarters": 24949,
    "Ġimmediate": 6090,
    "Ġdint": 15596,
    "Ġadd": 630,
    "Ġlances": 6985,
    "oned": 4630,
    "sor": 7352,
    "darkened": 24517,
    "ources": 2788,
    "vious": 1782,
    "Ġmerryweather": 9525,
    "Ġeverybody": 4511,
    "desirable": 23813,
    "Ġbelted": 22956,
    "ú": 187,
    "Ġushered": 18361,
    "Ġshining": 8172,
    "Ġprof": 2457,
    "Ġshipping": 14107,
    "Ġassumptions": 5517,
    "composed": 14744,
    "Ġcondescending": 24869,
    "Ġtheory": 5799,
    "Ġpoltro": 23621,
    "Ġoutbreak": 22321,
    "Ġmodes": 22225,
    "Ġgenealogies": 25962,
    "m": 81,
    "Ġdistances": 22507,
    "and": 372,
    "Ġstrove": 9960,
    "Ġmumbling": 11577,
    "Ġpierce": 17037,
    "Ġlibraries": 20617,
    "dining": 13709,
    "Ġsentin": 16376,
    "Ġtorm": 5434,
    "safe": 10057,
    "Ġproceeds": 12082,
    "prudently": 21037,
    "sterns": 23371,
    "onial": 11569,
    "Ġprevious": 2089,
    "Ġindicate": 23725,
    "Ġlakes": 8131,
    "Ġpersever": 10006,
    "Ġredeemed": 25790,
    "Ġjoker": 22302,
    "Ġbedfellow": 16442,
    "Ġslightest": 6093,
    "ĠĠĠĠĠĠĠ": 7633,
    "Ġantichronical": 26611,
    "ittingly": 18805,
    "Ġwholesome": 16010,
    "ractions": 11636,
    "Ġtomorrow": 21516,
    "eneva": 5118,
    "Ġcrescentic": 20624,
    "Ġconfirm": 9859,
    "served": 5043,
    "hed": 674,
    "Ġgl": 1257,
    "didn": 9010,
    "Ġchannel": 26013,
    "Ġspat": 2660,
    "adieu": 26202,
    "twain": 23700,
    "Ġ184": 16609,
    "thou": 4708,
    "bidden": 19740,
    "Ġshaping": 22007,
    "repairing": 24495,
    "anning": 10167,
    "Ġloudly": 7312,
    "proble": 9397,
    "brace": 16944,
    "Ġbooks": 4675,
    "burned": 25082,
    "Ġmacro": 25940,
    "ro": 301,
    "idled": 21772,
    "Ġoverspread": 14209,
    "Ġbears": 6829,
    "moil": 22706,
    "pursued": 17284,
    "eldest": 22806,
    "Ġsimilar": 4918,
    "Ġsuccessful": 9926,
    "Ġour": 1008,
    "osing": 3692,
    "Ġtables": 9881,
    "terms": 15756,
    "Ġgenerating": 12854,
    "Ġnamely": 20692,
    "Ġassumed": 9468,
    "Ġplantation": 11425,
    "bourne": 19104,
    "Ġ23": 13196,
    "Ġbee": 21753,
    "verest": 13994,
    "Ġaffright": 9335,
    "Ġrugged": 18719,
    "Ġfrost": 6097,
    "Ġimpressions": 9556,
    "Ġpersian": 11093,
    "Ġflights": 24752,
    "Ġtrop": 7565,
    "consideration": 14958,
    "Ġadmission": 23558,
    "restraint": 18980,
    "Ġmurder": 4283,
    "Ġdoes": 942,
    "µ": 118,
    "Ġwalks": 8969,
    "Ġquart": 11791,
    "bing": 7792,
    "politeness": 16908,
    "Ġcloudless": 16671,
    "linearity": 1647,
    "Ġheadlands": 22901,
    "diversity": 25898,
    "waiter": 24587,
    "Ġprotection": 9465,
    "Ġtreats": 19347,
    "Ġfilled": 4396,
    "gates": 20874,
    "Ġzone": 14365,
    "Ġfixing": 13160,
    "Ġperchance": 15996,
    "Ġmaintain": 855,
    "Ġmonomania": 17086,
    "Ġhearken": 21688,
    "cil": 8724,
    "Ġunsophisticated": 25993,
    "Ġanvil": 11600,
    "Ġcould": 703,
    "Ġcirclings": 26433,
    "Ġdrink": 4787,
    "cous": 8725,
    "Ġpick": 4258,
    "Ġmagnifying": 16324,
    "Ġepic": 15032,
    "Ġshudderings": 25201,
    "Ġlowerings": 23648,
    "animated": 14978,
    "Ġdashes": 21437,
    "Ġpork": 21460,
    "title": 17290,
    "Ġasks": 5115,
    "Ġaroused": 15908,
    "dron": 17527,
    "Ġbubblingly": 25633,
    "lung": 17593,
    "fa": 7336,
    "Ġgentleman": 3040,
    "Ġraising": 8913,
    "Ġsweating": 16466,
    "when": 1587,
    "è": 169,
    "Ġswart": 14438,
    "Ġthrill": 24541,
    "Ġvillages": 14752,
    "Ġfarther": 5956,
    "acquainted": 7313,
    "bolt": 25138,
    "Ġdevout": 14329,
    "Ġstrugg": 3218,
    "icken": 6713,
    "ades": 5631,
    "Ġadmirals": 20388,
    "ssip": 14083,
    "Ġplates": 11008,
    "balance": 12011,
    "unusually": 15785,
    "eked": 16407,
    "hur": 6651,
    "Ġsaintly": 25932,
    "imag": 6991,
    "Ġimmovable": 15897,
    "hole": 5587,
    "Ġvindictiveness": 25739,
    "Ġuncontrollable": 25815,
    "Ġswallow": 8953,
    "likes": 18816,
    "Ġanatomical": 15080,
    "Ġslumbering": 25702,
    "dismay": 19156,
    "recurring": 24197,
    "Ġimportance": 4901,
    "lie": 12487,
    "Ġtests": 8960,
    "Ġpant": 10819,
    "Ġpresided": 20210,
    "Ġ99": 10747,
    "Ġautom": 3388,
    "Ġreporting": 24658,
    "Ġset": 1177,
    "Ġpromotion": 23197,
    "Ġdeaden": 23462,
    "Ġdismissed": 12897,
    "science": 11913,
    "ower": 1030,
    "lemency": 21377,
    "uger": 21106,
    "Ġregretted": 13404,
    "Ġclang": 15968,
    "Ġratio": 5066,
    "Ġmagnet": 10392,
    "leness": 4690,
    "ains": 5094,
    "Ġdecrease": 4201,
    "Ġdecipher": 22450,
    "Ġcurios": 18834,
    "Ġexpiration": 22626,
    "Ġlongitude": 11013,
    "Ġpauses": 14818,
    "Ġsa": 474,
    "Ġjoined": 4564,
    "remote": 23193,
    "Ġreads": 23116,
    "Ġinward": 11610,
    "Ġshed": 8181,
    "ote": 4596,
    "Ġfresh": 3672,
    "Ġdisreputable": 22538,
    "skull": 24488,
    "Ġtravell": 5576,
    "Ġoverboard": 6046,
    "Ġunassuming": 20512,
    "Ġglistened": 20175,
    "Ġcringed": 25943,
    "Ġlying": 4826,
    "Ġshavings": 14113,
    "Ġindications": 14634,
    "Ġdischarged": 15224,
    "Ġenem": 4707,
    "ready": 2360,
    "otic": 15750,
    "Ġbands": 14887,
    "Ġrem": 954,
    "owder": 8451,
    "ĳ": 244,
    "wander": 17711,
    "Ġtatters": 21180,
    "iline": 21724,
    "Ġobservations": 13557,
    "Ġhammers": 13247,
    "ication": 999,
    "Ġcravat": 26308,
    "acknowled": 10977,
    "Ġdemonstrate": 24997,
    "Ġrequesting": 24633,
    "sub": 4659,
    "velling": 14766,
    "Ġrounds": 18886,
    "Ġmaxim": 3086,
    "Ġshriek": 6640,
    "nez": 22451,
    "alter": 10828,
    "Ġshoving": 23491,
    "Ġprofanely": 23572,
    "Ġlif": 10198,
    "Ġhath": 12633,
    "Ġretired": 6072,
    "analysis": 26174,
    "Ġbenevolent": 7773,
    "ruck": 6848,
    "Ġlookest": 22716,
    "gh": 3806,
    "Ġbiscuit": 12594,
    "billows": 20239,
    "possibly": 10546,
    "Ġraging": 14310,
    "sembled": 7263,
    "akers": 9742,
    "Ġteacup": 16218,
    "occurrences": 26333,
    "mouthful": 25209,
    "enial": 17782,
    "Ġartist": 12917,
    "Ġspade": 9262,
    "Ġrelev": 1714,
    "Ġfortunately": 12184,
    "Ġexhaust": 6400,
    "Ġglist": 9348,
    "Ġwax": 10778,
    "irty": 4052,
    "Ġlowest": 11124,
    "Ġstove": 6735,
    "omon": 10209,
    "Ġsprawling": 22143,
    "Ġpequod": 2322,
    "Ġjokes": 18409,
    "reds": 12752,
    "swell": 17665,
    "¢": 100,
    "Ġaverages": 2397,
    "Ġblasp": 14404,
    "view": 5897,
    "Ġtechni": 1772,
    "Ġseverely": 14936,
    "represent": 9640,
    "studies": 25170,
    "Ġblundering": 26285,
    "Ġhelps": 9370,
    "severe": 21823,
    "Ġanticipation": 17058,
    "Ġdignity": 5704,
    "Ġabusive": 22277,
    "insisted": 23069,
    "Ġagonies": 14254,
    "Ġreiter": 21669,
    "Ġunostentatious": 22073,
    "Ġsullen": 9160,
    "Ġformerly": 7493,
    "ado": 11661,
    "Ġcooper": 16085,
    "interruption": 20115,
    "Ġsled": 21221,
    "Ġneutral": 12746,
    ",âĢĶâĢĺ": 23805,
    "trick": 19416,
    "Ġingenious": 12352,
    "Ġteaching": 10367,
    "intended": 11068,
    "ĠĠĠĠĠĠĠĠĠĠĠĠĠĠĠĠĠĠĠĠĠĠĠĠĠĠĠĠĠĠ": 24443,
    "privilege": 25264,
    "Ġphren": 8575,
    "Ġundone": 24120,
    "Ġdeeper": 2084,
    "Ġharbour": 19983,
    "Ġphysiognomy": 25611,
    "Ġmembrane": 20507,
    "every": 2810,
    "Ġgeneration": 2211,
    "Ġomit": 17817,
    "nervous": 16280,
    "Ġearthy": 23715,
    "Ġpreluding": 18369,
    "Ġmusty": 22683,
    "Ġclassifies": 11842,
    "Ġarisen": 11747,
    "Ġunchanged": 22035,
    "Ġdominion": 16539,
    "Ġye": 899,
    "Ġvehic": 8936,
    "occasionally": 13524,
    "Ġcharted": 22254,
    "hit": 20891,
    "Ġmates": 4873,
    "Ġclenched": 14206,
    "keepers": 16662,
    "Ġlady": 1583,
    "univers": 15777,
    "syntax": 5868,
    "daggoo": 13710,
    "Ġcele": 9902,
    "ignorant": 13567,
    "Ġcontaining": 2232,
    "ancy": 4395,
    "ipelagoes": 13675,
    "Ġcholera": 22257,
    "corrid": 24484,
    "miniature": 16767,
    "thrusting": 20262,
    "Ġpermit": 9752,
    "Ġforger": 15738,
    "Ġexcite": 11970,
    "overcoat": 19052,
    "Ġwarp": 8113,
    "frock": 20124,
    "twilight": 23702,
    "Ġnovelist": 24776,
    "Ġpedro": 15066,
    "Ġmuscles": 12093,
    "Ġmariners": 6069,
    "Ġhour": 1810,
    "ľ": 255,
    "scarcely": 12390,
    "Ġjutting": 22305,
    "Ġgur": 21595,
    "Ġ5": 4935,
    "condescended": 26250,
    "thodox": 21992,
    "div": 8076,
    "Ġpleasantly": 14522,
    "Ġconsists": 11982,
    "Ġcolonial": 22863,
    "Ġundo": 15845,
    "Ġfrenchman": 11285,
    "Ġclient": 5556,
    "Ġcompletely": 4861,
    "sprit": 11384,
    "Ġvisitor": 5331,
    "fortune": 4975,
    "opposing": 24822,
    "Ġschedule": 2371,
    "puzz": 17642,
    "noo": 9791,
    "Ġflows": 13019,
    "ison": 3073,
    "bad": 12440,
    "Ġindoors": 18844,
    "Ġchiswick": 25561,
    "Ġwidely": 8033,
    "Ġwitnessed": 14847,
    "intment": 4719,
    "deliver": 19507,
    "Ġate": 8844,
    "Ġ111": 24436,
    "Ġrepetition": 8975,
    "Ġhudson": 15195,
    "best": 6113,
    "rably": 21636,
    "Ġutility": 23517,
    "Ġunbounded": 18260,
    "Ġont": 18121,
    "Ġstrangely": 5677,
    "berg": 11868,
    "lies": 15385,
    "happening": 16567,
    "Ġvenge": 5420,
    "Ġchamp": 18382,
    "Ġtorrent": 17093,
    "Ġcracks": 12024,
    "strongly": 24685,
    "Ġchink": 15937,
    "rospect": 11615,
    "Ġimmeasurable": 26231,
    "Ġtandem": 26413,
    "are": 638,
    "Ġeyebrows": 23519,
    "reserve": 17767,
    "Ġbehavior": 8002,
    "Ġrecollecting": 17114,
    "Ġinquiry": 6485,
    "ither": 1547,
    "Ġrecalled": 8540,
    "arnel": 18127,
    "Ġabased": 22272,
    "ustom": 3794,
    "Ġeucl": 24708,
    "rebellum": 26166,
    "Ġdressing": 7092,
    "Ġjewell": 19523,
    "Ġembell": 14413,
    "Ġwherein": 14295,
    "Â": 131,
    "flag": 14714,
    "Ġexcellent": 4239,
    "Ġfrighted": 24035,
    "Ġwithhold": 18118,
    "Ġarts": 11009,
    "Ġnumbers": 2888,
    "Ġintens": 7004,
    "Ġfeast": 10280,
    "charitable": 23936,
    "outside": 12809,
    "allows": 15912,
    "Ġvindictive": 20473,
    "Ġevents": 4473,
    "isbury": 21380,
    "pull": 6797,
    "Ġfasten": 11134,
    "slanting": 24558,
    "Ġassaulted": 25321,
    "Ġcommonplace": 11098,
    "aying": 15754,
    "gpt": 5356,
    "cking": 4267,
    "imaux": 21715,
    "Ġquakers": 22420,
    "Ġforgive": 8010,
    "Ġaperture": 26161,
    "grasping": 20642,
    "Ġgeneral": 1862,
    "Ġentra": 18694,
    "Ġcentre": 5122,
    "_,": 2799,
    "delighted": 10565,
    "aunt": 8370,
    "Ġfacil": 16964,
    "sle": 9141,
    "owards": 4594,
    "rushed": 10587,
    "Ġfac": 6382,
    "Ġsulk": 15048,
    "Ġtattoo": 7359,
    "treated": 21097,
    "Ġperennial": 22697,
    "conce": 8513,
    "Ġwallowed": 24048,
    "miraculous": 26398,
    "ino": 15483,
    "early": 20122,
    "Ġbenefit": 8294,
    "Ġprints": 16335,
    "Ġeffusions": 18543,
    "Ġhieroglyph": 11975,
    "esy": 9185,
    "Ġpoltroon": 26600,
    "flo": 6116,
    "Ġeffectual": 18737,
    "Ġ235": 25712,
    "Ġmomentarily": 22815,
    "Ġattempting": 14699,
    "Ġsakes": 18327,
    "asked": 8915,
    "however": 4375,
    "Ġas": 374,
    "Ġchanging": 11757,
    "Ġmaids": 19694,
    "Ġluxuriant": 20398,
    "Ġbid": 6133,
    "Ġremoval": 12122,
    "Ġwing": 6668,
    "Ġcigar": 9548,
    "Ġpuffing": 12259,
    "Ġexhaustion": 14964,
    "Ġrenewing": 19813,
    "Ġ11": 5319,
    "Ġabominably": 20069,
    "Ġsurprising": 14599,
    "Ġrevealed": 6753,
    "Ġcomponents": 8897,
    "Ġmanhat": 22331,
    "Ġletter": 2197,
    "Ġafore": 10760,
    "Ġanticipating": 17059,
    "Ġfreighted": 16327,
    "Ġimbecile": 17395,
    "Ġbrighter": 16192,
    "blister": 24130,
    "Ġduplicity": 25332,
    "Ġendowed": 18925,
    "ĠĠĠĠĠĠĠĠĠĠĠĠĠĠĠĠĠĠĠĠĠĠĠĠĠĠĠĠĠĠĠĠĠĠĠĠĠĠĠĠĠĠĠĠĠĠ": 9956,
    "Ġrelating": 2701,
    "Ġacceded": 22380,
    "Ġtire": 17722,
    "andy": 8158,
    "bastian": 10676,
    "Ġweaken": 21926,
    "Ġrelent": 18774,
    "Ġhermit": 15862,
    "pate": 21012,
    "Ġclung": 10960,
    "Ġvacant": 9498,
    "unts": 12736,
    "Ġender": 11694,
    "abs": 11670,
    "oard": 4809,
    "assumed": 22312,
    "oise": 15408,
    "Ġvesu": 21953,
    "Ġcrystall": 20229,
    "Ġrisks": 9967,
    "Ġtechnique": 2519,
    "Ġrenewal": 12239,
    "Ġbenignity": 18783,
    "Ġspilled": 10926,
    "ois": 9137,
    "Ġgrat": 4059,
    "Ġunderneath": 16343,
    "elihood": 4622,
    "Ġforcibly": 10064,
    "Ġdetain": 14179,
    "Ġjewels": 12373,
    "exposure": 19259,
    "inger": 6813,
    "Ġvigorous": 10569,
    "Ġdusky": 13553,
    "onement": 21259,
    "Ġdecks": 6900,
    "Ġtet": 21160,
    "tone": 8766,
    "Ġjudged": 12088,
    "inions": 8403,
    "Ġfumes": 21421,
    "clearer": 24074,
    "bale": 20776,
    "bub": 15320,
    "Ġcham": 4893,
    "Ġdestiny": 8986,
    "Ġoccupies": 24013,
    "salis": 25150,
    "Ġfle": 3093,
    "eer": 15351,
    "Ġinferiority": 17116,
    "Ġheaven": 3367,
    "Ġilluminating": 25246,
    "Ġwel": 4527,
    "Ġpunishment": 9959,
    "Ġprominence": 18957,
    "Ġbrag": 23837,
    "Ġextort": 22722,
    "Ġmuhammad": 26170,
    "retaining": 21248,
    "ling": 735,
    "Ġfall": 2986,
    "Ġspoutings": 14678,
    "idge": 14017,
    "bestow": 16931,
    "Ġperceptible": 18453,
    "forbearance": 22798,
    "eteenth": 20160,
    "Ġunmanner": 22033,
    "Ġyounger": 5253,
    "Ġpilgrim": 25600,
    "Ġword": 1055,
    "recursion": 13333,
    "leave": 7837,
    "figure": 13559,
    "baned": 17498,
    "Ġparish": 8858,
    "T": 56,
    "erxes": 21278,
    "Ġcompl": 3763,
    "expound": 23662,
    "fect": 2301,
    "Ġbeach": 6543,
    "_.,": 14563,
    "athed": 7828,
    "Ġmedic": 11258,
    "Ġcircumspection": 25885,
    "ryphon": 4163,
    "solving": 3101,
    "Ġexplanatory": 22206,
    "ignant": 11131,
    "eches": 8078,
    "Ġvengeance": 5886,
    "Ġseventy": 7878,
    "impulse": 20647,
    "Ġany": 688,
    "Ġwrithed": 17107,
    "Ġscents": 22286,
    "likeness": 19481,
    "Ġclothing": 18424,
    "Ġcottages": 14731,
    "Ġadieus": 25113,
    "Ġskin": 5039,
    "Ġdur": 11595,
    "Ġyes": 2684,
    "Ġbos": 4876,
    "Ġrelinqu": 12987,
    "Ġprimary": 25063,
    "Ġwand": 4343,
    "Ġhovered": 12636,
    "Ġsubproblems": 12962,
    "Ġcompatibility": 2958,
    "disciple": 16780,
    "Ġjane": 1755,
    "Ġslaugh": 18940,
    "conveyed": 20524,
    "Ġtints": 17729,
    "Ġpiled": 8426,
    "Ġprosperous": 15174,
    "Ġjelly": 22304,
    "estim": 14172,
    "Ġhardship": 18915,
    "Ġcovered": 5171,
    "Ġgasfitters": 25041,
    "Ġequinoctial": 20535,
    "industrious": 26241,
    "!_": 7329,
    "arians": 18529,
    "prodig": 16431,
    "Ġstreng": 18073,
    "Ġdisquiet": 18553,
    "espe": 3501,
    "Ġabound": 8867,
    ":": 30,
    "uts": 8820,
    "Ġretrogress": 23077,
    "U": 57,
    "Ġbleeds": 24397,
    "Ġhandwriting": 14322,
    "rict": 8093,
    "useness": 22296,
    "Ġblaming": 22933,
    "Ġske": 4815,
    "hearth": 15503,
    "engagements": 25855,
    "Ġga": 4447,
    "umed": 6556,
    "Ġdoctrine": 24200,
    "Ġguido": 2976,
    "Ġbravely": 23842,
    "Ġtahiti": 13623,
    "Ġunable": 4951,
    "Ġconsisting": 8974,
    "discoveries": 25386,
    "structure": 2294,
    "fold": 7546,
    "Ġam": 660,
    "vings": 9754,
    "odious": 21819,
    "ised": 1063,
    "Ġshillings": 15840,
    "Ġglassy": 19563,
    "Ġwarehouses": 20421,
    "Ġembark": 8559,
    "Ġmachinations": 25768,
    "Ġcreamy": 14335,
    "Ġcandidate": 16700,
    "Ġbodily": 6108,
    "Ġtrespass": 23602,
    "Ġlottery": 19890,
    "sustained": 20571,
    "Ġsinew": 25432,
    "Ġseaward": 22955,
    "rie": 2785,
    "Ġspr": 4028,
    "Ġembarrassment": 10629,
    "ear": 8734,
    "ons": 710,
    "Ġtumbling": 13828,
    "cures": 20807,
    "Ġmost": 1019,
    "Ġabed": 22269,
    "ard": 464,
    "pondicherry": 26402,
    "iasm": 8061,
    "Ġages": 7030,
    "mell": 20966,
    "apothe": 22338,
    "frank": 7758,
    "Ġmoustache": 20487,
    "rep": 5525,
    "Ġgoney": 14546,
    "Ġtwin": 12933,
    "Ġpretence": 13211,
    "Ġhesitating": 16949,
    "orious": 6009,
    "Ġhumorous": 10362,
    "Ġrushing": 7403,
    "william": 4562,
    "admire": 24946,
    "Ġfigured": 16646,
    "scenes": 16248,
    "...": 24549,
    "Ġsinking": 7307,
    "agra": 14069,
    "Ġpout": 17908,
    "ove": 1742,
    "Ġmatters": 4974,
    "Ġplunder": 22605,
    "hours": 9127,
    "Ġworthy": 7241,
    "Ġnearly": 3365,
    "Ġpolynesian": 26027,
    "Ġtrain": 519,
    "Ġstarbuck": 2194,
    "considerably": 13449,
    "Ġturkish": 12266,
    "Ġauthority": 7749,
    "pid": 1404,
    "Ġgamy": 18001,
    "uv": 6231,
    "Ġringing": 13336,
    "Ġsal": 3942,
    "Ġflanks": 11919,
    "Ġ&": 6514,
    "Ġfist": 21407,
    "isters": 11924,
    "Ġmuff": 8114,
    "iment": 2816,
    "Ġpeaked": 2297,
    "Ġangle": 8606,
    "Ġcaptain": 1600,
    "Ġdepths": 4328,
    "Ġestate": 6318,
    "Ġfest": 10806,
    "hess": 4747,
    "strike": 14952,
    "Ġappe": 1541,
    "ues": 2080,
    "Ġsang": 12540,
    "Ġimprovements": 14521,
    "Ġlaboratory": 13616,
    "inated": 6805,
    "send": 15427,
    "pressed": 6589,
    "Ġencl": 16171,
    "Ġwhit": 7178,
    "Ġimpassable": 20615,
    "summoned": 26593,
    "landlord": 9843,
    "Ġpool": 5173,
    "Ġcoldness": 23761,
    "Ġgrip": 11630,
    "shout": 22456,
    "ph": 948,
    "bted": 7794,
    "ancho": 4938,
    "/": 19,
    "iastic": 12484,
    "Ġeliminating": 20623,
    "paint": 21020,
    "Ġcaulking": 20296,
    "Ġbelieving": 8226,
    "Ġcascade": 20584,
    "shown": 22458,
    "Ġquadr": 8200,
    "Ġjogged": 26238,
    "Ġsundial": 15086,
    "Ġessex": 20130,
    "Ġinserting": 19908,
    "Ġforbid": 7865,
    "gale": 13727,
    "Ġevident": 6614,
    "surf": 24215,
    "Ġyears": 1892,
    ",âĢĻâĢĶ": 23530,
    "befriend": 22496,
    "Ġsolicitude": 10043,
    "Ġalbert": 12711,
    "Ġcarved": 7947,
    "Ġstochastic": 3266,
    "compliment": 11366,
    "ĠĠĠĠĠĠĠĠĠĠĠĠĠĠĠĠĠĠĠĠĠĠĠĠĠĠĠĠĠĠĠĠĠĠĠĠĠĠĠĠĠĠĠĠĠĠĠĠĠ": 20041,
    "kin": 7133,
    "Ġponies": 21479,
    "Ġmeal": 9700,
    "Ġinferior": 8366,
    "Ġstrike": 4856,
    "Ġspeculations": 23001,
    "temper": 10007,
    "Ġtension": 13827,
    "Ġfebruary": 15917,
    "matter": 5136,
    "Ġpitched": 9448,
    "Ġthrilling": 19751,
    "Ġconstraints": 2737,
    "lion": 20946,
    "Ġsunny": 13090,
    "Ġpotent": 12068,
    "came": 4570,
    "yt": 17713,
    "accomp": 10457,
    "diligence": 26111,
    "Ġfamiliar": 5511,
    "circumamb": 26088,
    "Ġork": 18287,
    "impatience": 25501,
    "rades": 8592,
    "Ġfill": 5701,
    "Ġmisunderstand": 18705,
    "Ġclinch": 18425,
    "Ġ]": 15463,
    "Ġtwink": 8216,
    "Ġtint": 13820,
    "agings": 18168,
    "Ġesteem": 7531,
    "freely": 16856,
    "vocabulary": 25088,
    "Ġfaintest": 24570,
    "Ġspoiled": 11365,
    "Ġquoin": 22422,
    "Ġexcursion": 26591,
    "Ġaqu": 17744,
    "Ġsocket": 12794,
    "Ġfer": 5529,
    "Ġchoke": 22253,
    "bib": 17494,
    "Ġeyford": 10644,
    "windlass": 16723,
    "Ġmagnus": 18960,
    "Ġcomputes": 4768,
    "frankenstein": 11393,
    "peculiarities": 13475,
    "Ġpropensity": 18996,
    "gration": 9124,
    "antucket": 2639,
    "Ġwaiter": 16364,
    "Ġlessened": 19089,
    "Ġdemig": 20359,
    "concluded": 11245,
    "Ġezek": 18012,
    "Ġenforced": 21942,
    "persuaded": 15077,
    "abez": 10225,
    "itz": 6007,
    "rubbed": 22184,
    "Ġ14": 9326,
    "cious": 6646,
    "pine": 13772,
    "gi": 17553,
    "ps": 4574,
    "]": 65,
    "rested": 13079,
    "daugh": 6789,
    "Ġweigh": 10896,
    "Ġcommodores": 25375,
    "Ġbracelets": 25503,
    "Ġten": 2384,
    "Ġexpans": 18622,
    "Ġmutinous": 23961,
    "Ġprov": 4402,
    "Ġwildness": 14605,
    "speech": 10669,
    "hem": 6666,
    "Ġbingley": 1672,
    "Ġseparating": 16684,
    "Ġcompleted": 9000,
    "noise": 14333,
    "ø": 185,
    "childhood": 16870,
    "Ġbohemia": 10652,
    "Ġlacepede": 20498,
    "cy": 637,
    "Ġumb": 11649,
    "whalebone": 19120,
    "mish": 17600,
    "peasant": 23114,
    "shell": 16291,
    "Ġcausal": 3415,
    "Ġoverdone": 22364,
    "Ġjustice": 5111,
    "Ġrefuse": 5739,
    "Ġprinces": 23221,
    "ĠÂ£": 5006,
    "Ġlounging": 10025,
    "Ġyoked": 15740,
    "itar": 15552,
    "Ġboscombe": 8326,
    "Ġasked": 2279,
    "Ġpo": 737,
    "shire": 3020,
    "wa": 5898,
    "poured": 17639,
    "Ġspoke": 2744,
    "mention": 7214,
    "Ġpy": 21454,
    "Ġfire": 2333,
    "Ġtufted": 17016,
    "Ġparallelization": 3434,
    "admiration": 11389,
    "Ġstrip": 9424,
    "perpendicular": 14162,
    "algorithms": 8291,
    "greenland": 10024,
    "uing": 17695,
    "rants": 13781,
    "oundered": 14167,
    "Ġworldly": 16334,
    "probable": 17023,
    "bru": 12443,
    "Ġacknowledges": 24689,
    "Ġclusters": 25233,
    "ared": 772,
    "pagan": 17288,
    "Ġeastward": 13394,
    "Ġaffairs": 6877,
    "Ġindignation": 8347,
    "Ġsuccess": 3613,
    "Ġwhitney": 11375,
    "Ġeffected": 14359,
    "!âĢĶ": 2451,
    "Ġauthent": 14507,
    "Ġfoundling": 22978,
    "Ġapproxim": 1219,
    "Ġstood": 2548,
    "unct": 18157,
    "effect": 8607,
    "Ġfunere": 22268,
    "off": 1887,
    "chant": 4260,
    "Ġderanged": 23176,
    "Ġintrospective": 20603,
    "Ġsupper": 4665,
    "Ġbowing": 10477,
    "Ġloth": 17968,
    "Ġwickedness": 9529,
    "Ġcrowned": 16843,
    "unhappy": 10240,
    "Ġfeasts": 25370,
    "Ġcounting": 13099,
    "Ġaccurately": 3838,
    "Ġcherry": 16937,
    "Ġyear": 3288,
    "Ġpoles": 11006,
    "Ġkelson": 18351,
    "Ġhighland": 18711,
    "Ġlived": 3993,
    "Ġindulge": 10585,
    "ĠâĢľ": 516,
    "Ġendwise": 23138,
    "Ġfancy": 3750,
    "Ġsepulchral": 25893,
    "onday": 6065,
    "Ġruined": 12959,
    "Ġtash": 13823,
    "importance": 9992,
    "sec": 6154,
    "Ġcanvassed": 19938,
    "moran": 24155,
    "Ġezekiel": 26194,
    "Ġ76": 24265,
    "midnight": 14905,
    "ittle": 811,
    "Ġmanaged": 7906,
    "Ġfowl": 11332,
    "Ġcringing": 25942,
    "Ġbeam": 2879,
    "accounted": 16504,
    "Ġquestion": 2775,
    "Ġfaltering": 17886,
    "Ġblanched": 26284,
    "Ġvehemently": 26040,
    "Ġrepining": 23363,
    "Ġenergies": 25460,
    "Ġboughs": 20492,
    "Ġ39": 19493,
    "85": 13685,
    "Ġdecline": 9290,
    "Ġsealed": 15820,
    "Ġlofty": 6219,
    "Ġspitz": 14151,
    "Ġresembled": 18036,
    "fig": 8738,
    "Ġferocious": 17422,
    "imprudence": 16560,
    "Ġshifting": 12773,
    "Ġbeating": 8145,
    "Ġflog": 23624,
    "ertain": 1206,
    "Ġsteals": 23088,
    "oury": 22308,
    "Ġmusic": 5269,
    "Ġcatholic": 20684,
    "Ġspokes": 18314,
    "onted": 11570,
    "Ġavowal": 19418,
    "Ġblotted": 20220,
    "Ġpal": 4044,
    "menced": 23147,
    "Ġcatching": 9481,
    "half": 4932,
    "^{": 15308,
    "spade": 10343,
    "Ġsinusoidal": 4801,
    "Ġmerit": 9430,
    "Ġunion": 6839,
    "Ġspectator": 19409,
    "Ġdistinct": 4609,
    "Ġmessage": 13526,
    "urous": 10215,
    "humanity": 24840,
    "bowed": 10687,
    "Ġtrad": 9831,
    "Ġers": 15464,
    "Ġcovariate": 2350,
    "taining": 7206,
    "hyme": 19612,
    "pervised": 1529,
    "Ġsacrific": 15020,
    "Ġluc": 3313,
    "Ġdevilish": 11230,
    "Ġlantern": 7118,
    "Ġprofane": 13156,
    "Ġintrusted": 21996,
    "ufact": 10735,
    "Ġfriendly": 9823,
    "uiperai": 10666,
    "asol": 21543,
    "Ġblasphemy": 26116,
    "Ġgrotes": 19566,
    "Ġdivinest": 25722,
    "Ġentries": 22744,
    "Ġtoes": 10831,
    "Ġnantucket": 2838,
    "knowing": 10439,
    "decor": 23783,
    "Ġopposing": 12044,
    "ention": 863,
    "Ġbusier": 23341,
    "Ġcontemptible": 16955,
    "Ġdwelt": 12610,
    "Ġlanguor": 12853,
    "Ġveil": 7934,
    "Ġshell": 11740,
    "Ġpinch": 15019,
    "Ġcontemplate": 19894,
    "Ġorganisation": 23585,
    "Ġbanqu": 12593,
    "friendly": 13289,
    "folly": 20864,
    "Ġimpl": 7195,
    "Ġdimens": 3151,
    "support": 9472,
    "apt": 727,
    "Ġimportant": 1025,
    "Ġfrosted": 19806,
    "terror": 18131,
    "allies": 14168,
    "Ġimperial": 9484,
    "hitherto": 17286,
    "Ġcongealed": 25982,
    "peculiar": 6886,
    "ilities": 6992,
    "ties": 2757,
    "Ġrheumatic": 20707,
    "Ġhydraulic": 10067,
    "tranquil": 25871,
    "Ġsayest": 22777,
    "Ġascendency": 20235,
    "heeded": 13837,
    "Ġphrenologists": 25609,
    "Ġtolerable": 6949,
    "Ġdevoted": 6575,
    "bohem": 19001,
    "Ġtragedies": 25242,
    "Ġmustard": 12935,
    "Ġaltering": 18105,
    "Ġsentences": 2677,
    "Ġyelled": 9697,
    "Ġpostmark": 16727,
    "Ġcrazed": 19177,
    "Ġfeeding": 7972,
    "iceland": 21569,
    "Ġweapons": 10596,
    "Ġshadows": 8013,
    "heaved": 21213,
    "Ġphysical": 7522,
    "Ġremorseless": 13455,
    "stave": 21652,
    "fact": 6360,
    "Ġlonging": 14301,
    "Ġsublime": 8066,
    "Ġhoneymoon": 25646,
    "Ġrenowned": 26195,
    "Ġprejudices": 13473,
    "Ġhandsom": 11126,
    "Ġunappalled": 22069,
    "tier": 12519,
    "was": 1421,
    "Ġmout": 17800,
    "voice": 7816,
    "wl": 17704,
    "comb": 11039,
    "Ġperiods": 13308,
    "str": 2574,
    "Ġbuckle": 17034,
    "....": 11318,
    "Ġpouch": 21472,
    "ruff": 15900,
    "ator": 1924,
    "bonnet": 25743,
    "accustomed": 13161,
    "Ġrad": 4962,
    "goodbye": 12060,
    "Ġpredef": 18516,
    "Ġunfavourable": 17420,
    "Ġrecover": 9794,
    "Ġshuddering": 9054,
    "Ġottoman": 17381,
    "Ġadmitting": 19185,
    "Ġmassac": 14740,
    "Ġcloudy": 19480,
    "Ġcorpora": 26582,
    "Ġaccompaniments": 24482,
    "Ġfleet": 9435,
    "sm": 3439,
    "Ġexceeding": 1578,
    "Ġwhisper": 6207,
    "Ġhit": 7164,
    "tstone": 21087,
    "speaks": 19722,
    "Ġcrisp": 12007,
    "tornadoes": 26154,
    "Ġinconvenience": 9566,
    "hide": 10705,
    "Ġath": 15808,
    "Ġdungeon": 16998,
    "Ġsinks": 19552,
    "Ġdictate": 20154,
    "Ġbottle": 7490,
    "S": 55,
    "Ġunidirectional": 3429,
    "solution": 14688,
    "Ġclubb": 22353,
    "Ġconfess": 3770,
    "Ġdegenerated": 20509,
    "Ġwhipcord": 20098,
    "Ġmemb": 14031,
    "merry": 16538,
    "inctions": 17734,
    "arpening": 21446,
    "Ġtriumphal": 24371,
    "Ġdim": 4757,
    "quet": 6835,
    "anque": 13891,
    "to": 714,
    "Ġtopmost": 14588,
    "Ġclimates": 25053,
    "Ġbenediction": 18785,
    "Ġbarbarous": 13480,
    "attendants": 25496,
    "Ġchord": 22249,
    "xible": 13811,
    "Ġactually": 5389,
    "stige": 21664,
    "Ġsecrecy": 7316,
    "ce": 313,
    "Ġpathetic": 19033,
    "Ġresult": 4461,
    "Ġuninterrupted": 22050,
    "rusted": 16509,
    "Ġoblique": 20172,
    "ham": 1702,
    "Ġefforts": 11811,
    "attending": 18918,
    "gon": 17554,
    "local": 22513,
    "ometer": 19328,
    "Ġcultiv": 13560,
    "Ġstanding": 2998,
    "Ġinsect": 12641,
    "Ġtruth": 3322,
    "unciation": 25983,
    "Ġentire": 2556,
    "crawling": 16960,
    "Ġgem": 21597,
    "danced": 20830,
    "Ġunnaturally": 24871,
    "Ġdevoured": 16140,
    "Ġwasting": 12733,
    "ource": 5244,
    "Ġdeceiving": 21842,
    "Ġconcer": 23324,
    "liter": 11504,
    "out": 467,
    "Ġrefinement": 18701,
    "Ġstuffed": 13413,
    "Ġsoldiers": 8690,
    "aby": 18109,
    "ever": 1077,
    "shall": 4550,
    "pots": 11516,
    "Ġdiscrimin": 2543,
    "ratulations": 20129,
    "ople": 2319,
    "owl": 12689,
    "Ġnap": 8813,
    "ige": 12685,
    "Ġweeds": 21928,
    "Ġruskin": 25810,
    "Ġpaddle": 20062,
    "Ġpoet": 8208,
    "Ġconcernment": 23646,
    "Ġusual": 3947,
    "roar": 17955,
    "Ġprow": 6686,
    "Ġringle": 18211,
    "readers": 23851,
    "Ġattract": 11840,
    "Ġbegrim": 23019,
    "Ġhypothesis": 14787,
    "Ġinfatuated": 20536,
    "Ġalice": 1483,
    "Ġherb": 15861,
    "Ġirene": 8445,
    "Ġenticements": 26035,
    "only": 3310,
    "ete": 9206,
    "Ġground": 2846,
    "london": 9612,
    "particip": 23618,
    "ried": 924,
    "mering": 12495,
    "Ġdistrustful": 25057,
    "ize": 765,
    "Ġjamming": 17267,
    "Ġought": 3423,
    "Ġbier": 22764,
    "Ġrelics": 16200,
    "Ġlizzy": 3549,
    "Ġenchanted": 9083,
    "Ġcock": 11002,
    "Ġostrich": 26432,
    "Ġcommunicate": 10580,
    "Ġawe": 7148,
    "Ġseedy": 21959,
    "Ġblanket": 8343,
    "many": 5251,
    "message": 17375,
    "Ġnet": 3629,
    "uarded": 21108,
    "Ġswear": 6462,
    "Ġchall": 10946,
    "Ġadjust": 2155,
    "dream": 8731,
    "Ġsprinkled": 19500,
    "Ġstrides": 22619,
    "hoisting": 23719,
    "Ġbleak": 10561,
    "Ġsocieties": 20185,
    "Ġ107": 24415,
    "leaving": 10793,
    "Ġsemantics": 2894,
    "»": 124,
    "Ġovercome": 6045,
    "Ġbandaged": 16844,
    "pay": 10720,
    "lovely": 16051,
    "Ġquest": 2002,
    "Ġlucases": 9013,
    "sweep": 24618,
    "tempered": 13450,
    "hind": 20896,
    "Ġboneless": 19608,
    "Ġselection": 18203,
    "Ġchips": 14184,
    "joke": 20932,
    "Ġwherefore": 8527,
    "inities": 21188,
    "Ġeddy": 13550,
    "Ġroared": 7025,
    "gunw": 17223,
    "sust": 15426,
    "Ġcarted": 21353,
    "Ġeffaced": 18542,
    "sixteen": 24854,
    "Ġsynthe": 26008,
    "Ġprophecy": 25706,
    "Ġmexic": 14033,
    "Ġcircumference": 13548,
    "Ġshowed": 4497,
    "surely": 10572,
    "garnished": 26390,
    "estations": 22228,
    "partly": 14604,
    "Ġchanced": 8187,
    "Ġtell": 1467,
    "mechanical": 25579,
    "?âĢĻâĢĿ": 23644,
    "Ġnewspapers": 17189,
    "Ġfeels": 6882,
    "Ġstones": 9224,
    "estate": 12826,
    "Ġcannon": 14156,
    "gue": 12472,
    "ound": 584,
    "Ġmight": 963,
    "Ġbare": 6134,
    "Ġdismal": 11814,
    "Ġfoot": 3163,
    "Ġcastors": 23979,
    "Ġinherit": 25353,
    "Ġaud": 6664,
    "E": 41,
    "Ġbuoyant": 13535,
    "idual": 1559,
    "Ġdaggoo": 5441,
    "ompl": 4536,
    "Ġchimer": 24603,
    "ullen": 8235,
    "protest": 24812,
    "liv": 9610,
    "cake": 20806,
    "Ġgracefully": 13395,
    "Ġprecipices": 12282,
    "hued": 20913,
    "ore": 418,
    "Ġbernard": 20687,
    "rollable": 13948,
    "fastened": 19327,
    "ougher": 18280,
    "Ġtheir": 645,
    "Ġwood": 2292,
    "caves": 20818,
    "Ġinno": 1392,
    "mediate": 16516,
    "Ġsincerely": 7963,
    "bed": 3493,
    "lessness": 5318,
    "Ġpublic": 4334,
    "riv": 3111,
    "kingly": 20941,
    "Ġwakeful": 24269,
    "semble": 1527,
    "Ġnevertheless": 5040,
    "Ġcontrived": 10306,
    "Ġspeaks": 11161,
    "Ġmou": 13858,
    "Ġhelp": 1638,
    "Ġforth": 3466,
    "Ġmans": 15541,
    "Ġgrampus": 21997,
    "Ġado": 7627,
    "cru": 7128,
    "Ġstepdaughter": 22615,
    "Ġconjecture": 9535,
    "Ġgenerates": 3666,
    "haul": 14769,
    "Ġrapid": 1447,
    "aset": 10834,
    "Ġwarning": 9061,
    "modern": 1167,
    "ions": 448,
    "Ġtu": 6969,
    "Ġkent": 6693,
    "Ġdanced": 7842,
    "Ġcompromised": 22576,
    "Ù": 154,
    "bottle": 20148,
    "Ġalco": 21786,
    "Ġdome": 15594,
    "orum": 12595,
    "Ġviolin": 16432,
    "Ġplentiful": 12916,
    "Ġwedded": 15540,
    "explanation": 12362,
    "religion": 20578,
    "poss": 4778,
    "conclusion": 25672,
    "Ġmilan": 19538,
    "don": 3547,
    "promote": 24726,
    "Ġenlivened": 26209,
    "aciously": 12901,
    "rudence": 7094,
    "birds": 15148,
    "Ġbro": 1430,
    "Ġreduced": 11928,
    "ose": 717,
    "dev": 7632,
    "Ġkitty": 3913,
    "condesc": 18506,
    "Ġannihil": 10177,
    ".*": 7331,
    "Ġbranch": 8332,
    "Ġpity": 4941,
    "Ġexact": 2540,
    "Ġdominant": 12400,
    "Ġassizes": 11111,
    "st": 316,
    "Ġther": 17780,
    "ceased": 21629,
    "Ġjealous": 9471,
    "Ġkind": 1783,
    "housekeeping": 24105,
    "Ġiii": 7861,
    "Ġarrang": 2466,
    "Ġpurchased": 12265,
    "desk": 23812,
    "Ġsongs": 13424,
    "Ġfobbing": 26443,
    "Ġwhine": 21718,
    "Ġmember": 8465,
    "spin": 22732,
    "Ġpresume": 8038,
    "Ġtracks": 18892,
    "Ġmart": 10781,
    "Ġseizing": 7877,
    "fel": 8737,
    "relative": 24018,
    "Ġmarine": 23036,
    "Ġdataset": 12821,
    "Ġrobinson": 17466,
    "Ġwanted": 4968,
    "frequented": 25901,
    "reasonable": 7752,
    "Ġenclosure": 20627,
    "pour": 17632,
    "oved": 5215,
    "Ġdevoid": 18681,
    "Ġoccasionally": 5590,
    "Ġpossession": 5589,
    "unnecessary": 21884,
    "typewritten": 26039,
    "Ġimposs": 16618,
    "ographical": 16788,
    "ap": 546,
    "limin": 8384,
    "Ġdescribe": 2764,
    "sweeping": 24619,
    "Ġnone": 3224,
    "Ġthickest": 16657,
    "Ġfishermen": 5972,
    "Ġimbalance": 22178,
    "Ġresentful": 24632,
    "Ġlaughed": 5059,
    "Ġpatched": 16385,
    "Ġruffled": 25837,
    "ella": 12754,
    "Ġonset": 12716,
    "Ġlatin": 16823,
    "Ġaltern": 7394,
    "ternatural": 12720,
    "revealed": 20419,
    "Ġumbrella": 15269,
    "Ġfatality": 12100,
    "Ġclimax": 25054,
    "Ġgoal": 10304,
    "arity": 1301,
    "Ġgenial": 12199,
    "Ġlexicon": 25975,
    "halloa": 17091,
    "mat": 2199,
    "Ġclos": 4549,
    "Ġwhole": 1659,
    "especially": 3576,
    "Ġwestern": 10657,
    "Ĥ": 229,
    "norm": 20987,
    "Ġlaud": 17970,
    "Ġgiant": 13971,
    "Ġdegrees": 7294,
    "Ġcre": 890,
    "histicated": 20903,
    "Ġidler": 16409,
    "onom": 9161,
    "with": 1296,
    "Ġevaluate": 3057,
    "Ġ55": 24319,
    "Ġliberated": 19669,
    "Ġolive": 12570,
    "Ġnast": 15644,
    "Ġpropos": 7064,
    "Ġcarpet": 9359,
    "interval": 7991,
    "Ġquies": 18465,
    "scales": 22997,
    "Ġlun": 7856,
    "Ġeu": 6391,
    "relate": 24016,
    "Ġmagnanimous": 17414,
    "Ġadorn": 12797,
    "rises": 17657,
    "blocks": 25518,
    "Ġunreliable": 3932,
    "Ġplan": 3886,
    "pointing": 12229,
    "Ġidiotic": 25589,
    "Ġhuggins": 24826,
    "Ġstag": 6150,
    "Ġmouthful": 16577,
    "Ġcircumnavigating": 25615,
    "Ġbook": 2698,
    "Ġmoonlight": 9961,
    "Ġtanning": 17731,
    "Ġcommendation": 13614,
    "Ġfringe": 17274,
    "Ġepoch": 26473,
    "Ġleague": 6540,
    "Ġguitar": 16272,
    "Ġfragment": 14517,
    "Ġpaus": 4301,
    "Ġhur": 2099,
    "rodu": 1816,
    "Ġdropped": 4472,
    "unhesitatingly": 26498,
    "ensed": 10998,
    "third": 8168,
    "hounds": 20909,
    "Ġdistrusting": 25056,
    "urday": 13997,
    "Ġfilm": 23929,
    "isive": 10795,
    "igner": 21705,
    "Ġfog": 9664,
    "Ġgir": 2257,
    "Ġpowerful": 1502,
    "Ġbury": 12045,
    "Ġyoke": 18098,
    "lers": 10109,
    "Ġsurf": 19133,
    "repeating": 20132,
    "Ġmoon": 4608,
    "Ġenvelope": 7319,
    "Ġlowering": 7987,
    "harrow": 20910,
    "Ġidentity": 2520,
    "Ġinjustice": 9193,
    "uplifted": 17697,
    "Ġdrenched": 12608,
    "Ġcombines": 1134,
    "Ġtreated": 7082,
    "Ġpleasing": 6192,
    "Ġusages": 15922,
    "ming": 3604,
    "aciousness": 18568,
    "Ġseaman": 8642,
    "rench": 3970,
    "Ġlove": 2053,
    "ection": 4948,
    "Ġinvariable": 13460,
    "eers": 20845,
    "abominable": 20597,
    "Ġaffords": 16736,
    "otle": 21801,
    "Ġaugmented": 15109,
    "Ġcalculate": 13269,
    "Ġori": 8410,
    "Ġunprovided": 18261,
    "Ġplatform": 17134,
    "Ġdecide": 9289,
    "trying": 15442,
    "Ġunallied": 22036,
    "swallow": 24260,
    "elopement": 23150,
    "Ġfurnaces": 24009,
    "Ġdressed": 5081,
    "factories": 19846,
    "Ġkicks": 19771,
    "inserted": 18888,
    "ĠĠĠĠĠ": 3530,
    "Ġreplaced": 13076,
    "Ġintrepidity": 25551,
    "Ġcasually": 25096,
    "aus": 1500,
    "Ġreconcile": 25292,
    "Ġvectors": 1768,
    "Ġ270": 25133,
    "hecy": 21209,
    "henomena": 20275,
    "depart": 12270,
    "Ġpantry": 20298,
    "Ġmemories": 14557,
    "captains": 12132,
    "officers": 10630,
    "complacency": 19916,
    "chel": 11209,
    "ubb": 1646,
    "Ġquiver": 16007,
    "Ġbrowne": 13306,
    "Ġjerked": 19835,
    "ppered": 15796,
    "raction": 8138,
    "Ġmurmur": 14591,
    "Ġreliability": 22881,
    "ountain": 2918,
    "Ġabhorrent": 16858,
    "Ġpratt": 23218,
    "Ġmetropolis": 17277,
    "Ġsoup": 7069,
    "Ġthinks": 6171,
    "Ġlowered": 6737,
    "Ġragged": 11850,
    "Ġconfeder": 25708,
    "Ġamphitheat": 26254,
    "locked": 7678,
    "Ġacts": 2296,
    "bre": 3982,
    "roded": 17958,
    "Ġdespairing": 14777,
    "Ġtranslations": 12056,
    "Ġgreeks": 20016,
    "clock": 3936,
    "Ġamazed": 14892,
    "Ġbristol": 14383,
    "Ġdespite": 19356,
    "Ġweedy": 15798,
    "Ġmingling": 20200,
    ".âĢĻ": 1718,
    "Ġ24": 13197,
    "Ġworse": 4718,
    "Ġgrievances": 20650,
    "Ġardent": 9973,
    "Ġseries": 7062,
    "Ġchalk": 15938,
    "Ġgobern": 22429,
    "arken": 18668,
    "Ġsteeple": 19290,
    "remarks": 23192,
    "Ġsig": 867,
    "emone": 21931,
    "Ġmentioning": 9901,
    "teous": 16177,
    "seriously": 18906,
    "erect": 20850,
    "Ġconvey": 9984,
    "Ġprofuse": 23568,
    "alas": 8808,
    "warning": 25532,
    "Ġbold": 5293,
    "Ġvexatious": 19784,
    "Ġsummons": 13236,
    "Ġabstained": 25232,
    "fallen": 19662,
    "Ġreptile": 15281,
    "Ġstorms": 11264,
    "Ġindifferent": 6176,
    "Ġsneer": 13451,
    "Ġclad": 12844,
    "plan": 15823,
    "butter": 11789,
    "Ġvapory": 17008,
    "Ġbeasts": 10620,
    "Ġpsal": 15621,
    "cept": 549,
    "Ġsoles": 22089,
    "Ġrecess": 10849,
    "Ġformless": 22831,
    "Ġbathing": 20202,
    "orial": 8418,
    "Ġhopelessly": 16380,
    "Ġpositively": 13036,
    "riage": 2125,
    "Ġcod": 8413,
    "ded": 2754,
    "precip": 14667,
    "Ġnews": 3824,
    "didst": 19352,
    "benefact": 24642,
    "Ġclothes": 4997,
    "invested": 17120,
    "thunder": 10265,
    "orted": 4603,
    "Ġoverflowed": 20265,
    "engines": 18930,
    "Ġardently": 9501,
    "Ġrepresent": 1212,
    "Ġable": 3080,
    "sideways": 14573,
    "Ġtrifled": 24675,
    "Ġmizzen": 20292,
    "Ġindelible": 25695,
    "Ġwere": 557,
    "Ġspray": 7894,
    "aped": 3768,
    "dest": 4104,
    "red": 395,
    "scream": 11078,
    "Ġdotted": 16794,
    "Ġpedestrian": 25884,
    "Ġway": 1085,
    "Ġclasping": 20212,
    "90": 12436,
    "Ġstared": 8456,
    ".)": 6784,
    "none": 6962,
    "Ġambergris": 8709,
    "Ġvelvet": 12402,
    "?_": 8070,
    "Ġunche": 23431,
    "Ġwolves": 25935,
    "posterity": 25489,
    "88": 20760,
    "forced": 11033,
    "Ġconcert": 11971,
    "arpaul": 14538,
    "Ġsteady": 4848,
    "Ġemper": 9864,
    "arranging": 19320,
    "adem": 21761,
    "Ġdelicately": 24128,
    "Ġpricking": 23220,
    "ening": 3107,
    "flakes": 23971,
    "Ġlanguid": 14222,
    "Ġencountered": 8322,
    "Ġhomage": 12359,
    "allet": 11085,
    "Ġdeclare": 6616,
    "Ġseemingly": 9321,
    "Ġbeer": 10222,
    "ientious": 11695,
    "Ġbeings": 2487,
    "Ġtrappers": 23085,
    "Ġcreat": 1426,
    "Ġpeculiarly": 8287,
    "Ġfreckled": 18961,
    "countenances": 24154,
    "nerable": 16279,
    "Ġparis": 8179,
    "Ġprofile": 16491,
    "Ġphil": 3387,
    "ĠĠĠĠĠĠĠĠĠĠĠĠĠĠĠĠĠĠĠĠĠĠĠĠĠĠĠĠĠĠĠĠĠĠĠĠĠĠĠĠĠĠĠĠ": 12158,
    "Ġret": 1381,
    "barn": 17485,
    "Ġsam": 7569,
    "Ġpenalizing": 13095,
    "Ġknitting": 24221,
    "Ġfocused": 16346,
    "prevailed": 17348,
    "Ġcetacean": 25879,
    "Ġextend": 18683,
    "Ġillustrative": 25069,
    ".âĢĿ": 463,
    "Ġcrystal": 17217,
    "Ġunwound": 24829,
    "e": 73,
    "Ġcannib": 6037,
    "Ġlieu": 19567,
    "bruary": 15239,
    "Ġwhither": 10217,
    "Ġrifts": 21982,
    "Ġflo": 2584,
    "unned": 21882,
    "urements": 18126,
    "Ġcontract": 18476,
    "Ġdispute": 16061,
    "weakness": 16129,
    "Ġsto": 1499,
    "Ġembrace": 16992,
    "Ġamours": 22485,
    "glory": 23855,
    "county": 25397,
    "Ġdisent": 22527,
    "pet": 4868,
    "fast": 3069,
    "hastening": 24448,
    "Ġcirculating": 23376,
    "springs": 24912,
    "enthus": 17980,
    "Ġappointment": 10649,
    "rubbery": 17345,
    "Ġdoublo": 6079,
    "Ġdenny": 9004,
    "Ġensigns": 23689,
    "Ġirregular": 9868,
    "Ġminimum": 23043,
    "Ġabated": 18391,
    "Ġbanker": 8670,
    "Ġschedules": 3389,
    "Ġwinking": 17795,
    "ĠâĢĶ_": 3462,
    "Ġunmethodically": 22074,
    "Ġsubtlety": 24779,
    "Ġfidelity": 15245,
    "Ġrebounds": 25968,
    "breat": 10081,
    "Ġneighbors": 25805,
    "Ġbalm": 22906,
    "resemblance": 25934,
    "Ġslavery": 16312,
    "Ġhints": 8431,
    "Ġwhirled": 14963,
    "slo": 17658,
    "avoid": 9308,
    "Ġlandsmen": 11353,
    "Ġgratified": 8021,
    "Ġstro": 4595,
    "Ġcloser": 8663,
    "Ġslackened": 15130,
    "ents": 1897,
    "Ġpresented": 5183,
    "Ġinhaled": 25452,
    "isco": 12586,
    "rip": 9244,
    "Ġunfelt": 24113,
    "Ġattended": 5391,
    "boilers": 26298,
    "Ġfulfilled": 11364,
    "Ġrasc": 21981,
    "mm": 677,
    "ander": 6402,
    "Ġnay": 5711,
    "Ġfashionable": 19547,
    "Ġhorn": 6187,
    "Ġsciences": 15948,
    "Ġgardiner": 3239,
    "Ġmarried": 3413,
    "scor": 13025,
    "nep": 20988,
    "Ġcustoms": 19655,
    "Ġvisibly": 22888,
    "oda": 15755,
    "Ġprognost": 15285,
    "Ġmagic": 8233,
    "Ġpants": 21468,
    "Ġequalled": 13317,
    "Ġel": 802,
    "Ġimm": 3968,
    "oars": 9617,
    "Ġrightly": 13070,
    "Ġsemantic": 1958,
    "Ġrate": 1067,
    "Ġtimidly": 11340,
    "tender": 14476,
    "labour": 23918,
    "acit": 16067,
    "Ġstabilizing": 3659,
    "achment": 5464,
    "announce": 24561,
    "Ġvolat": 24147,
    "Ġgarb": 21606,
    "inclination": 20061,
    "Ġproceed": 3244,
    "Ġpains": 5966,
    "school": 10058,
    "squeezing": 25914,
    "Ġmarty": 20293,
    "tales": 17688,
    "Ġbottles": 16573,
    "convers": 6569,
    "ying": 1367,
    "Ġsubstance": 5510,
    "Ġheighten": 19532,
    "smitten": 23912,
    "Ġgentleness": 8713,
    "Ġvi": 1953,
    "Ġ1807": 26084,
    "custom": 15336,
    "Ġdestruction": 6602,
    "Ġ>": 21154,
    "eps": 12795,
    "Ġcoincidences": 26365,
    "Ġclouded": 13295,
    "Ġbrooding": 18909,
    "Ġegg": 8823,
    "convalescence": 24885,
    "profound": 16430,
    "Ġblasts": 19999,
    "Ġhap": 18196,
    "Ġmimic": 3145,
    "f": 74,
    "anxiously": 15114,
    "Ġmadden": 10449,
    "Ġstaid": 21739,
    "Ġcelestial": 10070,
    "Ġhandled": 12942,
    "Ġagreeing": 20022,
    "Ġemphasis": 20539,
    "Ġsheeted": 19834,
    "Ġpatients": 24810,
    "liber": 18815,
    "iage": 17575,
    "bular": 15317,
    "Ġdistrusted": 13545,
    "Ġtravellers": 11310,
    "Ġgul": 7860,
    "Ġordinarily": 20651,
    "Ġsuperiors": 23456,
    "Ġpecks": 18670,
    "prise": 7727,
    ")(": 2980,
    "Ġinsects": 25647,
    "Ġtyphoon": 12393,
    "Ġlawn": 7379,
    "tree": 11536,
    "Ġinheritance": 25356,
    "Ġsupercil": 23455,
    "phantoms": 24680,
    "presents": 18798,
    "Ġwandered": 6930,
    "Ġconcentrated": 15087,
    "Ġmythologies": 26215,
    "user": 5105,
    "âĢĿ--": 21817,
    "comfortable": 7320,
    "Ġselected": 9713,
    "Ġthousand": 2780,
    "rock": 15646,
    "lever": 2931,
    "reckoning": 25271,
    "bordered": 17501,
    "skin": 10571,
    "farm": 15355,
    "Ġfinding": 3265,
    "ipagos": 22370,
    "Ġadjusting": 3417,
    "Ġslung": 23170,
    "rit": 21038,
    "Ġjiff": 22300,
    "Ġgamming": 25543,
    "grammar": 6436,
    "Ġenric": 21938,
    "igh": 2029,
    "ulty": 22572,
    "Ġplays": 12041,
    ",)": 9104,
    "Ġoccupations": 9461,
    "Ġcongenial": 12415,
    "Ġphenomenon": 17919,
    "Ġferry": 24498,
    "Ġmoored": 11796,
    "Ġtechnically": 12370,
    "Ġgateway": 24799,
    "Ġsavesoul": 26229,
    "Ġadroit": 26001,
    "Ġspies": 22132,
    "Ġshock": 6083,
    "Ġplayful": 19238,
    "Ġprediction": 2191,
    "ppery": 10894,
    "Ġbuzz": 24000,
    "fi": 12466,
    "idays": 21774,
    ":--âĢľ": 24550,
    "hamlet": 23265,
    "Ġtro": 7356,
    "Ġinflexibly": 26372,
    "ation": 320,
    "Ġminds": 6305,
    "Ġcake": 12575,
    "Ġbeads": 18086,
    "Ġspoilt": 24804,
    "Ġuncommonly": 7760,
    "Ġdescended": 7428,
    "pression": 10409,
    "Ġintimacy": 8704,
    "Ġforbearing": 25101,
    "Ġblandly": 20326,
    "fro": 8736,
    "forgive": 18727,
    "uther": 8821,
    "supposed": 13320,
    "Ġparacels": 13671,
    "verity": 14004,
    "amy": 8470,
    "Ġshameful": 19854,
    "Ġcruisers": 25864,
    "Ġchasing": 11758,
    "verted": 10220,
    "Ġowest": 25094,
    "rabb": 15685,
    "Ġsorely": 17259,
    "Ġsovereign": 10065,
    "niest": 19002,
    "Ġahead": 6665,
    "akin": 11771,
    "Ġraiment": 22655,
    "Ġexpenses": 11837,
    "Ġtrampling": 25493,
    "awe": 20767,
    "Đ": 209,
    "puzzling": 26144,
    "Ġgi": 15671,
    "Ġmissionary": 25697,
    "Ġrevered": 23736,
    "lock": 1469,
    "antly": 1989,
    "din": 8374,
    "Ġstretch": 6994,
    "Ġdiscu": 4365,
    "Ġstifle": 18076,
    "Ġratt": 7881,
    "aches": 6571,
    "Ġadvice": 4902,
    "stove": 21655,
    "Ġcarter": 18902,
    "Ġbland": 11066,
    "fing": 13716,
    "irt": 3075,
    "tumbled": 21093,
    "Ġmeantime": 6208,
    "Ġdestroying": 14733,
    "Ġunlab": 3793,
    "Ġflapp": 23012,
    "Ġkneel": 14810,
    "Ġmass": 3785,
    "geneva": 13733,
    "Ġbedside": 19125,
    "cupboards": 25402,
    "expectations": 24279,
    "dashing": 20838,
    "Ġprovocation": 24194,
    "nurtured": 25525,
    "Ġdan": 8797,
    "Ġcensured": 25097,
    "ence": 393,
    "Ġaccidents": 10298,
    "bent": 15315,
    "Ġtore": 6532,
    "Ġreceptacle": 23195,
    "Ġmile": 7152,
    "Ġcharnel": 22256,
    "Ġtarquin": 23612,
    "falling": 24361,
    "Ġdistress": 5845,
    "Ġaries": 21200,
    "Ġcentury": 8292,
    "mother": 5480,
    "improve": 15717,
    "intim": 22937,
    "Ġusually": 6265,
    "Ġboarders": 16602,
    "Ġsmitten": 12907,
    "Ġshepherd": 14155,
    "Ġpry": 11603,
    "Ġyarman": 12710,
    "omas": 12676,
    "Ġtalked": 4422,
    "involuntarily": 20418,
    "Ġdefile": 18825,
    "Ġcongregation": 12333,
    "ruct": 680,
    "Ġemblem": 20501,
    "Ġimbu": 15896,
    "egyptians": 25899,
    "Ġcommunity": 19010,
    "Ġtransfer": 2272,
    "Ġsurpassed": 25268,
    "erate": 7150,
    "Ġpain": 2304,
    "wandering": 20287,
    "Ġconsid": 1811,
    "adm": 7609,
    "Ġcheever": 23286,
    "Ġjen": 9270,
    "Ġbriony": 9332,
    "hammer": 14491,
    "dut": 10090,
    "inte": 5144,
    "Ġdev": 882,
    "Ġpendulous": 25956,
    "Ġneedn": 19230,
    "Ġthroat": 7771,
    "Ġspinning": 15055,
    "Ġpap": 8802,
    "nursery": 26401,
    "Ġwhir": 6394,
    "Ò": 147,
    "Ġprofessional": 7299,
    "Ġpersisted": 13044,
    "Ġparamet": 609,
    "ublic": 11229,
    "Ġhook": 6454,
    "Ġcheered": 16373,
    "tem": 6370,
    "Ġseemed": 1279,
    "Ġimagined": 8610,
    "planted": 11702,
    "Ġweary": 5635,
    "tumultuous": 20402,
    "Ġapprovingly": 26252,
    "Ġpositions": 2056,
    "distrustful": 26332,
    "daylight": 19054,
    "Ġrecollections": 10515,
    "Ġslaughter": 20732,
    "Ġgrimesby": 11459,
    "Ġcorroboration": 26053,
    "Ġargued": 13633,
    "ĠĠĠĠĠĠĠĠĠĠĠĠĠĠĠĠĠĠĠĠĠĠĠĠĠĠĠĠĠĠĠĠĠĠĠ": 19260,
    "Ġlet": 1109,
    "Ġproble": 1108,
    "expression": 10550,
    "Ġsec": 2076,
    "Ġoffers": 12951,
    "Ġimmensity": 25330,
    "Ġvaluable": 5608,
    "Ġencouraging": 2264,
    "Ġannealing": 1553,
    "borrowed": 20794,
    "Ġunwarranted": 24831,
    "oker": 10965,
    "felix": 10656,
    "Ġappeased": 23200,
    "Ġasi": 12737,
    "ip": 556,
    "ley": 1814,
    "suppose": 8648,
    "Ġcane": 10929,
    "Ġslopes": 18943,
    "Ġprompted": 23820,
    "Ġdoorway": 14499,
    "zing": 7820,
    "Ġporus": 24398,
    "Ġships": 3717,
    "plexy": 18577,
    "answ": 15889,
    "plendent": 21968,
    "Ġbethinking": 25280,
    "nam": 3090,
    "Ġburn": 3686,
    "Ġreb": 15696,
    "Ġgrammatical": 13542,
    "Ġblush": 14405,
    "waistcoat": 17364,
    "Ġbrilliant": 11416,
    "foreseen": 14256,
    "Ġting": 8399,
    "Ġmin": 1027,
    "Ġpurple": 10435,
    "official": 24915,
    "Ġrazor": 22658,
    "semic": 21825,
    "Ġexpired": 18623,
    "contains": 16035,
    "Ġexamining": 8006,
    "pulling": 25149,
    "later": 20955,
    "Ġsque": 18758,
    "yield": 13812,
    "Ġenvironments": 24010,
    "Ġverge": 23890,
    "Ġmeasurement": 19426,
    "Ġtreacle": 14597,
    "Ġalso": 1341,
    "Ġcriminal": 7537,
    "K": 47,
    "Ġbasement": 24701,
    "Ġresponsible": 9889,
    "Ġdeigned": 18144,
    "Ġexpands": 25238,
    "rents": 5310,
    "Ġfruitless": 25606,
    "Ġvillain": 8639,
    "gener": 3128,
    "Ġpil": 5014,
    "Ġspectacles": 12102,
    "Ġspence": 22130,
    "Ġjet": 5309,
    "usion": 3302,
    "Ġrecklessness": 24744,
    "pos": 15414,
    "Ġsquared": 1383,
    "Ġconstant": 6311,
    "ms": 542,
    "chief": 4644,
    "Ġarrogance": 26233,
    "stud": 8824,
    "Ġconsole": 8151,
    "links": 20960,
    "Ġrecord": 5317,
    "Ġtwig": 11854,
    "erted": 7361,
    "brance": 7284,
    "Ġcompressed": 21849,
    "Ġmachine": 781,
    "ith": 330,
    "Ġglimp": 6067,
    "aning": 2255,
    "direful": 25897,
    "acetti": 13400,
    "Ġlarge": 1068,
    "sequ": 2399,
    "fight": 17540,
    "Ġsleeps": 10448,
    "te": 994,
    "Ġceiling": 7997,
    "D": 40,
    "elze": 21576,
    "clerval": 7951,
    "Ġextensive": 12946,
    "Ġassume": 10518,
    "stands": 22439,
    "sax": 21059,
    "state": 13982,
    "call": 8726,
    "Ġmeasureless": 14713,
    "Ġpeak": 16131,
    "Ġmostly": 7664,
    "ositories": 22267,
    "Ġnorthwards": 19549,
    "Ġhandles": 22698,
    "law": 6117,
    "ulgences": 21869,
    "ĠĠĠĠĠĠĠĠĠĠĠĠĠĠĠĠ": 1221,
    "preservation": 25306,
    "achines": 1722,
    "Ġvertebra": 20184,
    "willingness": 24754,
    "Ġalphabetical": 17204,
    "Ġavailed": 23955,
    "Ġcourt": 4169,
    "Ġfile": 13906,
    "activity": 22632,
    "Ġclean": 5652,
    "Ġescape": 2642,
    "Ġinnocence": 6478,
    "Ġsafely": 9028,
    "Ġwhispered": 5338,
    "Ġobser": 2071,
    "mped": 16650,
    "ĠâĢľ_": 6698,
    "mrs": 3749,
    "ommod": 13980,
    "mayhew": 23995,
    "Ġdiscol": 12958,
    "Ġwatery": 6298,
    "begging": 22501,
    "tis": 4106,
    "Ġappropri": 2228,
    "Ġdevelop": 1624,
    "Ġforesaw": 19128,
    "Ġwretchedly": 19509,
    "Ġduplicates": 17219,
    "replied": 11568,
    "ti": 8390,
    "ronted": 14880,
    "Ġicy": 10749,
    "Ġ48": 24085,
    "ulated": 6031,
    "Ġdears": 18142,
    "tawny": 26406,
    "Ġuseful": 3561,
    "Ġenl": 18190,
    "Ġvehem": 22892,
    "Ġjig": 15956,
    "Ġcruc": 16536,
    "Ġworms": 25217,
    "audible": 17135,
    "verb": 10219,
    "Ġapril": 13666,
    "Ġaffection": 2635,
    "Ġproceeding": 9909,
    "Ġindividually": 22967,
    "Ġcurled": 8225,
    "screaming": 20328,
    "Ġshrubbery": 18233,
    "Ġconceived": 8150,
    "win": 6802,
    "Ġtumb": 21172,
    "urpr": 2288,
    "Ġschoolboys": 24481,
    "remind": 23191,
    "Ġutter": 3977,
    "ful": 665,
    "Ġcoun": 4178,
    "Ġpettiness": 24232,
    "Ġconsummation": 17428,
    "georgiana": 26021,
    "Ġdeception": 18145,
    "Ġgash": 15676,
    "Ġinvite": 14564,
    "phon": 4128,
    "elope": 14462,
    "Ġsped": 22129,
    "maker": 12497,
    "Ġinterview": 9773,
    "dreaded": 25141,
    "Ġtrophy": 20010,
    "meadow": 18680,
    "clim": 18932,
    "Ġhowling": 8512,
    "Ġunhinged": 26218,
    "Ġxiii": 25592,
    "varieties": 23190,
    "Ġsickle": 24248,
    "ĸ": 249,
    "Ġpatient": 6895,
    "glancing": 11216,
    "Ġpatiently": 19920,
    "Ġcontinuing": 14399,
    "aper": 4999,
    "interference": 23740,
    "Ġinconsist": 17938,
    "Ġways": 5396,
    "Ġperceived": 4713,
    "Ġelegance": 11334,
    "Ġspasmod": 12418,
    "Ġfogs": 25283,
    "subject": 6634,
    "Ġeternities": 19946,
    "Ġangles": 23590,
    "vitality": 20482,
    "sought": 15431,
    "chambers": 25455,
    "Ġgather": 6536,
    "Ġjingling": 26018,
    "achalot": 15866,
    "Ġskies": 8924,
    "Ġattacking": 24465,
    "ni": 1695,
    "Ġsmack": 9303,
    "narrative": 17322,
    "Ġshelf": 12272,
    "Ġdoubt": 2224,
    "Ġmeekly": 26492,
    "olence": 10233,
    "nd": 11506,
    "Ġsashes": 21228,
    "Ġstores": 18071,
    "Ġinsulated": 23680,
    "Ġalien": 14021,
    "Ġseparate": 5778,
    "chancing": 22918,
    "faith": 15027,
    "stuff": 15693,
    "fair": 10095,
    "Ġcommotion": 9783,
    "ridge": 9500,
    "Ġacquiescence": 20333,
    "aken": 1869,
    "paying": 25412,
    "buttons": 22405,
    "Ġenorm": 5304,
    "Ġruth": 14097,
    "51": 12435,
    "Ġransacked": 26507,
    "Ġredness": 19314,
    "Ġobsc": 7041,
    "aulets": 18621,
    "rer": 3625,
    "Ġfresher": 23210,
    "Ġconsecut": 18114,
    "allingly": 22203,
    "Ġruins": 16161,
    "Ġincrease": 9372,
    "Ġmast": 2900,
    "Ġsilly": 7686,
    "harpoons": 24287,
    "fearing": 18528,
    "Ġgo": 614,
    "enormous": 26167,
    "eleg": 20851,
    "Ġwhelmed": 26000,
    "Ġelement": 6898,
    "ouched": 4636,
    "urean": 18125,
    "]]": 5205,
    ".âĢĻâĢĿ": 6741,
    "Ġcounty": 9033,
    "Ġecstasy": 11633,
    "detective": 24383,
    "Ġunbending": 25465,
    "Ġhusbands": 16645,
    "Ġbroods": 23106,
    "repro": 10772,
    "Ġsustaining": 25334,
    "Ġexclamations": 11363,
    "Ġjobs": 24833,
    "Ġsatur": 1931,
    "Ġdeceitfulness": 25734,
    "Ġlesson": 7276,
    "punctual": 26357,
    "Ġhills": 6528,
    "Ġcuvier": 9168,
    "Ġdew": 14048,
    "imately": 12693,
    "Ġundivided": 24123,
    "ou": 287,
    "rences": 9275,
    "sea": 4763,
    "year": 11097,
    "order": 1959,
    "Ġfare": 5810,
    "prises": 23817,
    "ings": 631,
    "Ġimp": 572,
    "Ġejaculated": 15173,
    "nett": 16225,
    "Ġtooks": 23329,
    "Ġpouring": 12629,
    "Ġnarrated": 14874,
    "Ġthrown": 4639,
    "Ġbullion": 24986,
    "eth": 622,
    "trivial": 21095,
    "hroom": 12481,
    "Ġreproofs": 24893,
[...]
