{
  "metadata": {
    "vocab_size": 26613,
    "algorithm": "BPE",
    "created_at": "2026-08-30 07:49:13",
    "special_tokens": [
      "<PAD>",
      "<SOS>",
      "<EOS>",
      "<UNK>",
      "<MASK>"
    ]
  },
  "vocab": {
    "Ġreigned": 13985,
    "Ġmarvell": 7248,
    "Ġhighness": 22774,
    "Ġunappalled": 22061,
    "Ġslim": 18936,
    "]": 65,
    "Ġhandle": 3135,
    "interview": 19298,
    "Ġwander": 9030,
    "Ġlombardy": 26462,
    "Ġclusters": 25232,
    "Ġruffled": 25835,
    "Ġconsolidation": 5060,
    "Ġbennets": 9804,
    "five": 6356,
    "Ġwhy": 1759,
    "anse": 12571,
    "Ġnewsp": 9337,
    "Ġlazy": 17049,
    "Ġeluded": 12918,
    "Ġrepeatedly": 9019,
    "Ġenquired": 21939,
    "Ġfeedback": 23431,
    "Ġunanswerable": 26520,
    "Ġenhancement": 23822,
    "Ġstig": 14000,
    "horr": 14598,
    "Ġabiding": 22268,
    "Ġrepulses": 26070,
    "Ġwhine": 21713,
    "Ġclaps": 22338,
    "Ġexpeditions": 24954,
    "kne": 20934,
    "Ġinsipid": 26313,
    "adoes": 11658,
    "Ġeliminating": 20618,
    "Ġcreat": 1388,
    "mens": 20968,
    "ginger": 13161,
    "Ġshelf": 12264,
    "Ġconqueror": 25796,
    "Ġunaccountably": 26514,
    "inno": 10755,
    "already": 6980,
    "rally": 17650,
    "Ġentrapped": 26262,
    "Ġaccidentally": 9503,
    "Ġgrinning": 9052,
    "Ġvagabond": 20202,
    "Ġcetacean": 25878,
    "indul": 22368,
    "oss": 10114,
    "somehow": 12008,
    "Ġregain": 22576,
    "Ġplaned": 24054,
    "tha": 15820,
    "Ġcharts": 12823,
    "Ġhero": 5715,
    "have": 2058,
    "assed": 6419,
    "Ġimplore": 24872,
    "ould": 428,
    "Ġconnex": 10664,
    "emotion": 21926,
    "onds": 12991,
    "Ġspite": 4157,
    "Ġembraced": 10004,
    "Ġhundred": 2693,
    "Ġaccumulating": 2722,
    "Ġskill": 6872,
    "encounter": 20390,
    "Ġunrestingly": 20359,
    "affection": 7487,
    "Ġfamiliarly": 11302,
    "Ġfeel": 1259,
    "Ġpast": 2099,
    "fashion": 8081,
    "Ġseasonable": 24405,
    "Ġcomposing": 16064,
    "comp": 3816,
    "volut": 1563,
    "irr": 12733,
    "Ġperpendicularly": 11373,
    "Ġangelic": 19626,
    "Ġfishy": 16521,
    "prints": 23809,
    "Ġdreaminess": 23937,
    "Ġadmin": 23549,
    "Ġinsight": 16527,
    "Ġgrammars": 11401,
    "Ġtablet": 19204,
    "good": 2897,
    "Ġseethings": 26502,
    "ubl": 3592,
    "lar": 4483,
    "ping": 9614,
    "Ġmahogany": 20576,
    "Ġoozy": 21325,
    "Ġaccomplished": 7104,
    "safie": 20347,
    "Ġrelieved": 7666,
    "```": 25893,
    "Ġglove": 14490,
    "Ġselves": 21221,
    "expression": 10546,
    "Ġberyl": 20488,
    "inople": 13827,
    "asc": 6386,
    "Ġquohog": 10971,
    "adem": 21755,
    "anced": 1280,
    "Ġindomitableness": 26570,
    "Ġmoodily": 19833,
    "mand": 3894,
    "bearded": 18519,
    "Ġlater": 6017,
    "ckled": 9255,
    "exceeded": 25001,
    "isons": 17849,
    "Ġunwonted": 14122,
    "come": 2379,
    "Ġcontaining": 2231,
    "Ġpaces": 13917,
    "Ġdoubtful": 19141,
    "chance": 6827,
    "regiment": 16450,
    "Ġinvestig": 10548,
    "smeer": 26147,
    "oner": 6124,
    "Ġanytime": 12881,
    "pip": 6654,
    "Ġernest": 8716,
    "Ġdisguise": 10044,
    "sleeping": 13452,
    "Ġsuffocated": 20727,
    "tired": 21071,
    "Ġtrustworthy": 24106,
    "oran": 8787,
    "ty": 1005,
    "Ġconse": 21802,
    "Ġcried": 1488,
    "velled": 9874,
    "esty": 4305,
    "ft": 908,
    "Ġdevious": 22714,
    "Ġinst": 913,
    "Ġyouth": 4261,
    "Ġpinched": 17034,
    "plexion": 14260,
    "Ġsooner": 5572,
    "Ġdrops": 9031,
    "Ġwester": 25152,
    "Ġrosings": 4606,
    "dismay": 19152,
    "Ġplanning": 14750,
    "Ġappear": 2485,
    "Ġdiabolism": 25514,
    "versed": 9823,
    "Ġraving": 16111,
    "Ġadds": 1805,
    "Ġwra": 5906,
    "ures": 838,
    "Ġtraveller": 8049,
    "Ġsouls": 6308,
    "Ġdeformity": 11674,
    "ption": 7398,
    "Ġsuffoc": 18870,
    "Ġpreparing": 8647,
    "Ġwhe": 438,
    "Ġagency": 11803,
    "Ġse": 402,
    "Ġmim": 3103,
    "itt": 570,
    "Ġpirates": 9072,
    "Ġlion": 9674,
    "Ġeffectively": 2844,
    "Ġtreacherously": 25129,
    "ccarthy": 4889,
    "dled": 9109,
    "Ġenergy": 2551,
    "heaved": 21209,
    "Ġfunction": 590,
    "adequ": 11019,
    "Ġabundant": 17153,
    "Ġhung": 4559,
    "Ġbabes": 24424,
    "Ġadmon": 15865,
    "piling": 15413,
    "Ġtradeoff": 2658,
    "syntax": 5867,
    "henomena": 20271,
    "Ġasks": 5115,
    "Ġdeliverer": 11947,
    "Ġarist": 14160,
    "leisure": 21369,
    "Ġlookest": 22713,
    "Ġupbraiding": 26226,
    "ography": 13360,
    "Ġarticulate": 24431,
    "excepting": 19705,
    "unhappy": 10236,
    "Ġsequ": 982,
    "Ġrelaps": 18775,
    "reat": 615,
    "Ġdecipher": 22444,
    "thin": 14095,
    "bloom": 24689,
    "ulate": 5233,
    "Ġparticulars": 5754,
    "est": 501,
    "wer": 8395,
    "interesting": 12198,
    "ispens": 8336,
    "spir": 5738,
    "ousand": 2430,
    "initely": 7568,
    "Ġmaintains": 2145,
    "retrospect": 23136,
    "icious": 7380,
    "đ": 210,
    "quickly": 14960,
    "Ġundu": 15834,
    "Ġnon": 1627,
    "Ġbowlines": 19321,
    "sought": 15425,
    "Ġshoals": 13131,
    "orse": 5806,
    "pent": 3490,
    "Ġwaterproof": 19088,
    "Ġtol": 6675,
    "Ġbed": 2144,
    "anxiety": 25155,
    "Ġink": 8801,
    "Ġtomorrow": 21511,
    "Ġburnt": 9926,
    "Ġrobots": 11083,
    "Ġthreaten": 24373,
    "fast": 3068,
    "Ġslit": 13053,
    "judged": 14829,
    "malice": 17603,
    "wood": 5898,
    "inisc": 15486,
    "ulated": 6030,
    "Ġfulfil": 9549,
    "Ġknitting": 24217,
    "aloes": 21500,
    "Ġtowers": 16737,
    "Ġsleet": 8974,
    "ga": 17549,
    "Ġswiss": 18880,
    "Ġglorious": 11074,
    "Ġchina": 8040,
    "twist": 23696,
    "Ġwatson": 3594,
    "Ġornaments": 17450,
    "goose": 19101,
    "omited": 21659,
    "madness": 14880,
    "Ġaboriginal": 14187,
    "Ġherself": 1569,
    "usual": 5841,
    "Ġanat": 8124,
    "Ġbubbles": 11397,
    "Ġprogram": 12989,
    "Ġgraceful": 11295,
    "Ġshoes": 7071,
    "Ġnoses": 18372,
    "ersed": 10258,
    "Ġinformation": 1048,
    "ricity": 23061,
    "Ġmississippi": 20724,
    "involuntarily": 20413,
    "Ġrespons": 2684,
    "Ġeconomical": 25287,
    "Ġharbors": 24901,
    "Ġimpertinent": 9076,
    "Ġramad": 8527,
    "Ġ40": 14767,
    "Ġbrings": 11877,
    "regular": 3039,
    "Ġbids": 24645,
    "Ġpott": 21467,
    "Ġsnorting": 23739,
    "delights": 19700,
    "Ġglimpses": 13430,
    "Ġmoved": 4839,
    "gratification": 24347,
    "ink": 756,
    "Ġscenarios": 26541,
    "Ġoccasion": 3243,
    "Ġset": 1178,
    "Ġostentatious": 25736,
    "aur": 15306,
    "Ġ24": 13191,
    "Ġtro": 7356,
    "icle": 10833,
    "permitted": 18340,
    "plete": 10918,
    "spot": 9786,
    "Ġvideo": 25365,
    "Ġvessel": 3797,
    "Ġdisgusting": 19893,
    "Ġrepairing": 25589,
    "ixed": 4851,
    "Ġblend": 14397,
    "Ġther": 17777,
    "Ġjury": 5378,
    "Ġparlour": 12318,
    "Ġmuslin": 19381,
    "Ġlittle": 867,
    "lion": 20943,
    "Ġsuperl": 16444,
    "Ġvan": 1090,
    "Ġnewcastle": 16220,
    "Ġworrying": 22925,
    "Ġresemble": 15689,
    "Ġleaders": 16626,
    "Ġgirl": 3083,
    "Ġcellars": 24665,
    "Ġhudson": 15189,
    "presence": 18496,
    "chants": 21690,
    "Ġsalut": 10508,
    "humorously": 24017,
    "Ġadversarial": 5606,
    "Ġkeenly": 9483,
    "Ġfails": 13311,
    "Ġfading": 15580,
    "izure": 21839,
    "Ġspeechless": 13351,
    "ape": 1905,
    "people": 7677,
    "icirc": 15652,
    "never": 3149,
    "istry": 22107,
    "vision": 5619,
    "Ġbarn": 11585,
    "performed": 18339,
    "Ġerrand": 11084,
    "Ġkneel": 14805,
    "Ġestimable": 23870,
    "Ġorgies": 18285,
    "ensities": 22544,
    "Ġhyster": 16872,
    "sleep": 6511,
    "salis": 25147,
    "floor": 14934,
    "Ġgr": 976,
    "Ġvenge": 5420,
    "sheep": 23084,
    "Ġreminiscences": 26269,
    "Ġtread": 9407,
    "fourths": 25509,
    "Ġasph": 21896,
    "Ġmccarthy": 5145,
    "holloa": 19462,
    "Ġhurricane": 16429,
    "urous": 10211,
    "Ġstrength": 4259,
    "Ġbulls": 23856,
    "Ġtoilette": 20491,
    "Ġpossible": 2583,
    "Ġmarshalled": 25315,
    "Ġresponded": 13636,
    "Ġrector": 21674,
    "Ġstream": 5186,
    "ulled": 14054,
    "Ġgentlemanlike": 12063,
    "hyena": 24251,
    "placidity": 25988,
    "4": 24,
    "Ġtight": 8108,
    "Ġsports": 18310,
    "Ġstacks": 18074,
    "Ġpasture": 14542,
    "Ġdomains": 6614,
    "Ġlikes": 9406,
    "destro": 13307,
    "Ġbarbar": 6935,
    "Ġrepul": 16406,
    "soldiers": 25911,
    "Ġdeclared": 5594,
    "Ġpeddling": 24799,
    "nest": 10112,
    "Ġtreacle": 14594,
    "Ġapartment": 6633,
    "Ġstarlight": 24627,
    "leave": 7838,
    "Ġgriff": 22804,
    "Ġbug": 11587,
    "irwin": 8468,
    "Ġlighter": 12649,
    "Ġcompress": 21847,
    "impul": 16554,
    "turner": 19540,
    "Ġpatterns": 1214,
    "shout": 22445,
    "Ġcreated": 2706,
    "Ġneville": 7399,
    "Ġsuspecting": 14908,
    "ave": 978,
    "buffalo": 20562,
    "marked": 9047,
    "calabash": 22891,
    "Ġreflected": 2906,
    "Ġunavailing": 26215,
    "Ġindeed": 1680,
    "rians": 21928,
    "lit": 9604,
    "pressed": 6587,
    "Ġelated": 18632,
    "Ġforc": 9226,
    "derick": 22160,
    "Ġpump": 12617,
    "befall": 22492,
    "dropped": 12259,
    "eff": 2534,
    "Ġbenignity": 18781,
    "merit": 19280,
    "99": 1895,
    "Ġabased": 22266,
    "Ġthan": 736,
    "Ġdeception": 18139,
    "ange": 1020,
    "<MASK>": 4,
    "Ġsalted": 14755,
    "Ġmajor": 13289,
    "Ġretort": 23068,
    "Ġglens": 18854,
    "trop": 15434,
    "beh": 5472,
    "Ġtit": 8399,
    "Ġdecomposition": 5342,
    "Ġinsure": 13176,
    "Ġwakeful": 24265,
    "Ġpraise": 6486,
    "Ġbackwater": 18654,
    "Ġnewton": 3531,
    "nearly": 8680,
    "sacred": 17027,
    "Ġbrittle": 22864,
    "comes": 5394,
    "Ġclout": 22335,
    "rack": 18010,
    "liter": 11500,
    "Ġeats": 15673,
    "Ġreclining": 26033,
    "Ġunconsciously": 10003,
    "Ġunaccount": 22023,
    "ashtego": 4104,
    "hanging": 10099,
    "desirable": 23205,
    "ivities": 22076,
    "freely": 16853,
    "Ġeighty": 19474,
    "Ġrains": 24339,
    "Ġmonths": 3451,
    "Ġubiqu": 18046,
    "Ġdames": 23472,
    "itar": 15543,
    "rum": 3412,
    "instant": 8651,
    "Ġdangerously": 23934,
    "Ġsimilarity": 3164,
    "Ġwager": 17792,
    "Ġmant": 9646,
    "Ġprecip": 7074,
    "nets": 9131,
    "bed": 3286,
    "Ġyaw": 18094,
    "Ġgorge": 13564,
    "enses": 10993,
    "Ġarctic": 12807,
    "Ġacid": 22680,
    "stream": 15682,
    "Ġsilence": 3265,
    "ertips": 23639,
    "Ġword": 1051,
    "Ġwalker": 23307,
    "mariners": 19547,
    "Ġseventeen": 26210,
    "Ġher": 427,
    "Ġperhaps": 1911,
    "Ġyounge": 16284,
    "Ġtweezers": 26555,
    "Ġcholera": 22251,
    "Ġinfant": 11958,
    "Ġanger": 5442,
    "ithing": 11647,
    "trees": 10730,
    "Ġlass": 15644,
    "grie": 12467,
    "Ġmovable": 22431,
    "Ġbursting": 8655,
    "Ġperformer": 18756,
    "Ġluxur": 12338,
    "ĠĠĠĠĠĠĠĠĠĠĠĠĠĠĠĠĠĠĠĠĠĠĠĠĠ": 24441,
    "Ġappropri": 2227,
    "Ġobligations": 12088,
    "Ġisolated": 13557,
    "Ġallowed": 4060,
    "Ġspectrum": 4473,
    "uger": 21102,
    "provoke": 26071,
    "Ġexample": 5096,
    "Ġcad": 12564,
    "Ġloafer": 18299,
    "Ġguardianship": 17418,
    "Ġtweed": 22675,
    "atiate": 12544,
    "ays": 6683,
    "Ġsolicit": 22885,
    "Ġconsistent": 14527,
    "Ġeul": 21616,
    "Ġunusual": 6553,
    "Ġpaddled": 20200,
    "still": 4220,
    "rd": 17648,
    "î": 175,
    "unforeseen": 21886,
    "dorff": 15235,
    "itan": 10158,
    "Ġsinking": 7307,
    "Ġlonging": 14298,
    "geese": 22365,
    "axen": 22519,
    "Ġanalyzing": 18800,
    "inian": 21181,
    "Ġsteak": 9827,
    "Ġsquatted": 25841,
    "bermaid": 20789,
    "Ġcheek": 8577,
    "stiff": 12670,
    "Ġintruding": 21989,
    "Ġuniversal": 2233,
    "Ġnurse": 9515,
    "Ġcocoan": 20315,
    "weave": 22683,
    "Ġroutine": 13506,
    "Ġglance": 4233,
    "*": 14,
    "Ġmoreover": 6163,
    "indulged": 22373,
    "Ġcorpusants": 13675,
    "go": 2063,
    "Ġtask": 1310,
    "Ġthus": 2037,
    "Ġmaxim": 3082,
    "Ġolder": 9325,
    "Ġorlop": 22089,
    "Ġdetermination": 9817,
    "period": 15892,
    "Ġcerem": 7077,
    "indifference": 15979,
    "invite": 25088,
    "Ġcarted": 21347,
    "circum": 16736,
    "distressed": 24198,
    "rity": 13774,
    "no": 894,
    "Ġsea": 1208,
    "Ġseaman": 8638,
    "Ġturbulence": 26596,
    "Ġfanc": 6743,
    "Ġquantity": 6948,
    "roqu": 21532,
    "ouement": 21447,
    "Ġbewil": 11655,
    "Ġintrude": 25990,
    "Ġupdating": 2690,
    "otion": 4946,
    "fro": 8732,
    "desp": 6076,
    "ending": 1991,
    "Ġtells": 9359,
    "Ġeternities": 19941,
    "Ġlaughing": 5338,
    "Ġcrushed": 9421,
    "Ġtwit": 12925,
    "Ġtransformations": 3481,
    "Ġprofessional": 7299,
    "Ġlomb": 21557,
    "hro": 20890,
    "round": 3366,
    "across": 10323,
    "Ġpedest": 14994,
    "scream": 11075,
    "Ġvelvet": 12395,
    "Ġfearfully": 23509,
    "compl": 6873,
    "Ġdepression": 21838,
    "iny": 4293,
    "Ġmortal": 4681,
    "usage": 12829,
    "Ġlaughter": 9026,
    "accuracy": 9877,
    "whether": 5319,
    "Ġantiquities": 25598,
    "civility": 17512,
    "Ġirreduc": 5491,
    "Ġfamily": 1967,
    "reserved": 13841,
    "died": 10692,
    "Ġlandsc": 11145,
    "Ġintersect": 22573,
    "Ġsubsc": 22787,
    "Ġgets": 10838,
    "Ġsob": 12780,
    "Ġhurtling": 24959,
    "modesty": 22815,
    "Ġdrinking": 12165,
    "gratitude": 16815,
    "Ġsqualidness": 25842,
    "Ġeffected": 14354,
    "Ġdiscoveries": 13356,
    "Ġdrawling": 19435,
    "boast": 23252,
    "fine": 10089,
    "isis": 12575,
    "Ġsupernatural": 9871,
    "answering": 26004,
    "Ġmax": 2007,
    "Ġobstinacy": 17419,
    "Ġpsal": 15612,
    "ĠĠĠĠĠĠĠĠĠĠĠĠĠĠĠĠĠĠĠĠĠĠĠĠĠĠĠĠĠĠĠĠĠĠĠĠĠĠĠĠĠĠĠĠĠĠĠĠĠ": 20036,
    "Ġknown": 1644,
    "Ġobscured": 15009,
    "Ġch": 512,
    "origin": 7581,
    "anke": 15557,
    "linked": 17592,
    "Ġenglishmen": 19428,
    "ortations": 22256,
    "Ġcostume": 16493,
    "Ġmyself": 1455,
    "Ġshaken": 10263,
    "Ġprofanely": 23567,
    "Ġnevertheless": 5040,
    "Ġdeportment": 22594,
    "Ġcapricious": 20537,
    "Ġregimentals": 19857,
    "Ġrounding": 16272,
    "Ġsheets": 9720,
    "Ġtenement": 23544,
    "official": 24914,
    "bucket": 17492,
    "winds": 10520,
    "Ġ109": 24415,
    "grees": 20885,
    "Ġdiminish": 14744,
    "Ġobeyed": 12213,
    "Ġnecks": 18183,
    "Ġproport": 2298,
    "Ġbecomes": 6396,
    "Ġaries": 21196,
    "Ġresulting": 24197,
    "Ġcurtains": 22975,
    "oga": 22693,
    "Ġerroneous": 17407,
    "Ġmeas": 1098,
    "Ġsluggishly": 25891,
    "operations": 19973,
    "Ġlogits": 3446,
    "tables": 19756,
    "Ġnarrowed": 24354,
    "Ġclouds": 5775,
    "Ġsite": 17752,
    "lovel": 22509,
    "flame": 16636,
    "Ġfixed": 2685,
    "hor": 2569,
    "Ġmistake": 6203,
    "pie": 21010,
    "Ġabrupt": 9734,
    "prot": 6899,
    "Ġbelshazzar": 16223,
    "Ġunnecessary": 8850,
    "Ġtons": 11548,
    "Ġsmothered": 20719,
    "Ġdetached": 10278,
    "jub": 20928,
    "ades": 5631,
    "Ġfervour": 19737,
    "interest": 5421,
    "Ġelasticity": 19557,
    "Ġevenings": 18755,
    "Ġimpelling": 22384,
    "lover": 18539,
    "Ġaltered": 7393,
    "Ġporch": 19679,
    "Ġrequesting": 24633,
    "Ġcapst": 8595,
    "Ġinspiring": 19112,
    "Ġmont": 8558,
    "works": 6589,
    "pense": 10367,
    "Ġchopping": 24218,
    "Ġboone": 11838,
    "Ġsqualls": 17019,
    "likelihood": 4992,
    "Ġcongealed": 25981,
    "Ġapprehensiveness": 16876,
    "collins": 6916,
    "Ġhandsome": 4906,
    "Ġwaste": 9232,
    "otted": 14022,
    "slide": 24555,
    "Ġyes": 2688,
    "Ġvelv": 10618,
    "Ġbroadened": 23982,
    "Ġbelongs": 8015,
    "Ġhip": 17920,
    "Ġpoetic": 17102,
    "Ġreceives": 20353,
    "Ġagonies": 14250,
    "Ġnap": 8807,
    "Ġenderby": 13649,
    "Ġdoctrine": 24196,
    "whaleman": 23434,
    "rect": 1600,
    "Ġconsisting": 8970,
    "Ġluxuriant": 20393,
    "Ġlieutenant": 15259,
    "Ġpaint": 7708,
    "maker": 12489,
    "Ġtrough": 15966,
    "Ġlac": 17964,
    "Ġfeedforward": 2328,
    "Ġpyramids": 15112,
    "Ġscruple": 25048,
    "attered": 4017,
    "evenings": 19461,
    "Ġprehensile": 26533,
    "fishermen": 17060,
    "Ġhearers": 15699,
    "Ġadding": 2404,
    "Ġlying": 4826,
    "capital": 15086,
    "Ġdistrustful": 25054,
    "Ġbriskly": 25311,
    "Ġprovoked": 13323,
    "Ġserves": 4668,
    "Ġtedious": 15265,
    "Ġbegrim": 23013,
    "Ġad": 440,
    "Ġfry": 17879,
    "Ġneedles": 11183,
    "Ġadopted": 15176,
    "Ġdread": 3160,
    "immortal": 21708,
    "Ġallures": 22069,
    "liament": 16215,
    "Ġpawn": 12060,
    "tains": 10961,
    "Ġrece": 11636,
    "Ġresolution": 5500,
    "71": 20755,
    "seat": 18124,
    "Ġnose": 4402,
    "Ġunass": 14111,
    "torn": 17681,
    ",--": 2478,
    "Ġhonorable": 16875,
    "Ã¦st": 24174,
    "Ġbitterly": 8315,
    "Ġcomforts": 14692,
    "Ġportents": 14678,
    "Ġstormy": 16727,
    "Ġsimil": 2531,
    "Ġlowers": 23240,
    "Ġinjunction": 19616,
    "Ġbeats": 21750,
    "Ġdisse": 18548,
    "Ġmorals": 22968,
    "limin": 8384,
    "//": 11462,
    "Ġconspicuous": 13601,
    "ople": 2321,
    "beer": 22485,
    "Ġmansfield": 25938,
    "sombre": 23852,
    "Ġimagenet": 19245,
    "Ġashes": 7616,
    "perpendicular": 14158,
    "Ġdescended": 7428,
    "companion": 9556,
    "Ġaccomplice": 24375,
    "Ġwinding": 8236,
    "Ġpendulous": 25955,
    "Ġcolour": 4460,
    "Ġestates": 16457,
    "alf": 4638,
    "Ġusages": 15914,
    "Ġconcl": 5095,
    "sentence": 2937,
    "Ġhotel": 8650,
    "Ġinvulnerable": 19146,
    "Ġspread": 5161,
    "Ġslipping": 13358,
    "Ġundertake": 14478,
    "Ġinclined": 6622,
    "ra": 314,
    "ichever": 13955,
    "Ġdivision": 19442,
    "alization": 733,
    "bask": 20775,
    "Ġbee": 21747,
    "poling": 12216,
    "land": 1532,
    "Ġgodson": 23357,
    "Ġruthless": 15283,
    "Ġrepugnance": 19086,
    "Ġtobacco": 8367,
    "anatory": 21361,
    "rous": 3752,
    "training": 2518,
    "wrote": 11545,
    "mong": 15387,
    "izabeth": 906,
    "1775": 26377,
    "Ġsmack": 9298,
    "Ġbarrel": 23789,
    "Ġgeor": 3385,
    "Ġarrest": 7409,
    "line": 1440,
    "Ġplague": 11821,
    "Ġgu": 1331,
    "Ġmention": 2982,
    "Ġentra": 18695,
    "Ġlimb": 9400,
    "Ġbearded": 15723,
    "Ġcir": 21339,
    "Ġhim": 475,
    "Ġleaping": 8341,
    ":--âĢľ": 24549,
    "Ġcounterbalance": 24722,
    "Ġentered": 2842,
    "Ġsingle": 1691,
    "Ġjeopard": 9941,
    "Ġelevating": 19727,
    "connected": 1309,
    "Ġsalutations": 25382,
    "pall": 17627,
    "quod": 2165,
    "rested": 13072,
    "Ġinsomuch": 23678,
    "alled": 5911,
    "Ġseemingly": 9316,
    "saving": 21058,
    "Ġgrim": 7439,
    "Ġsuspended": 5665,
    "Ġprematurely": 24003,
    "Ġmagnitude": 1944,
    "Ġ97": 19773,
    "drugg": 20837,
    "hab": 1080,
    "crimes": 16696,
    "Ġattempted": 8001,
    "Ġstre": 2108,
    "msprop": 2624,
    "Ġnewly": 9336,
    "Ġgowns": 25359,
    "was": 1419,
    "resting": 23235,
    "Ġinsects": 25646,
    "Ġsigma": 1542,
    "Ġunable": 4951,
    "«": 109,
    "brim": 23572,
    "peare": 18911,
    "Ġshrunk": 16717,
    "cabinet": 25077,
    "bod": 12434,
    "unusually": 15776,
    "Ġflow": 1238,
    "Ġmultiplied": 23685,
    "m": 81,
    "Ġsurrounding": 12159,
    "Ġbraces": 14668,
    "Ġfootmen": 23795,
    "Ġassertion": 13487,
    "sand": 21051,
    "cl": 1496,
    "Ġsingularly": 12145,
    "humour": 7498,
    "aws": 8237,
    "Ġalleged": 17289,
    "Ġporthole": 24398,
    "Ġtransp": 4769,
    "Ġdaniel": 15109,
    "Ġintending": 11701,
    "Ġblubber": 5666,
    "Ġdexterously": 25295,
    "Ġrubbed": 12951,
    "Ġjumping": 13339,
    "Ġvort": 18193,
    "Ġscorching": 20066,
    "Ġfeeling": 3081,
    "Ġreflecting": 24751,
    "Ġ60": 14873,
    "heaving": 21206,
    "withdrawn": 23024,
    "unwillingly": 21882,
    "ern": 746,
    "pregn": 18498,
    "Ġdeaf": 12717,
    "Ġvaulted": 25167,
    "Ġindefatigable": 17176,
    "Ġagreeably": 24952,
    "Ġmerciless": 25246,
    "Ġafrica": 12342,
    "condescended": 26248,
    "Ġmadam": 5663,
    "Ġprovision": 14823,
    "Ġdante": 21437,
    "Ġga": 4445,
    "Ġyarns": 15193,
    "Ġmoot": 22428,
    "era": 13845,
    "Ġbias": 1192,
    "racing": 21629,
    "Ġcarry": 4778,
    "Ġbelted": 22946,
    "<": 32,
    "Ġsusp": 2663,
    "batch": 1984,
    "helped": 18923,
    "inhab": 10756,
    "Ġlanyard": 26460,
    "Ġintolerably": 15826,
    "Ġsurvey": 13591,
    "Ġprovinces": 24189,
    "Ġwould": 651,
    "Ġpoliceman": 15256,
    "Ġnodes": 1969,
    "Ġspake": 18308,
    "ese": 4443,
    "Ġcarefully": 6304,
    "objections": 19915,
    "Ġsurrender": 16448,
    "Ġoriginate": 24121,
    "onday": 6064,
    "family": 7324,
    "ards": 2506,
    "Ġdarkness": 4277,
    "Ġwaters": 3593,
    "Ġendeav": 2952,
    "Ġcompute": 2903,
    "¹": 122,
    "Ġcem": 17823,
    "Ġscound": 12828,
    "Ġbust": 10166,
    "Ġothers": 2581,
    "passage": 11260,
    "Ġgovern": 10449,
    "Ġbritain": 16955,
    "armon": 23058,
    "Ġannals": 17898,
    "slanting": 24557,
    "Ġ9": 5901,
    "Ġharsh": 9519,
    "anxiously": 15108,
    "Ġstruggled": 9903,
    "hampshire": 23263,
    "int": 1198,
    "Ġreus": 8820,
    "Ġsheer": 14149,
    "lust": 15377,
    "ctive": 11621,
    "Ġclaws": 15963,
    "axing": 18547,
    "Ġtame": 17721,
    "commotion": 24913,
    "Ġdischarged": 15218,
    "unw": 14055,
    "Ġjoll": 11763,
    "blocks": 25517,
    "hurt": 19877,
    "Ġwis": 3728,
    "Ġsolomon": 11051,
    "boom": 18998,
    "irm": 3105,
    "Ġautomatically": 3953,
    "Ġunduly": 25994,
    "Ġbacking": 16115,
    "Ġloos": 15868,
    "orted": 4602,
    "Ġrucastles": 18721,
    "specim": 23941,
    "kind": 3864,
    "Ġsticks": 14929,
    "wins": 21128,
    "Ġpalms": 8643,
    "Ġhorror": 3772,
    "aying": 15746,
    "Ġdisgra": 18549,
    "Ġflea": 23771,
    "Ġantiquity": 15228,
    "Ġbrutality": 26276,
    "arch": 1136,
    "tfordshire": 4811,
    "Ġcustomary": 8669,
    "wond": 8767,
    "commander": 16986,
    "Ġcleaning": 23179,
    "Ġflukes": 5266,
    "Ġmaty": 22910,
    "hopper": 23712,
    "precisely": 6917,
    "inde": 17730,
    "discovery": 12013,
    "Ġprophet": 7681,
    "Ġpersonified": 19177,
    "Ġdominion": 16534,
    "Ġsunken": 14492,
    "Ġpredicting": 2416,
    "Ġentries": 22743,
    "Ġcontented": 9754,
    "justified": 19002,
    "Í": 142,
    "Ġbase": 5013,
    "links": 20957,
    "fully": 2203,
    "Ġliterary": 25162,
    "extraordinary": 9093,
    "hour": 7340,
    "Ġmuhammad": 26169,
    "Ġsprawling": 22137,
    "Ġhandspikes": 12935,
    "Ġmeditative": 25014,
    "Ġcavity": 20486,
    "histicated": 20900,
    "Ġsunbeam": 23274,
    "Ġvehement": 16199,
    "Ġtid": 8107,
    "consternation": 16911,
    "Ġdet": 511,
    "Ġhawk": 15171,
    "osed": 1960,
    "Ġbl": 1191,
    "Ġstepmother": 16087,
    "Ġgarden": 3826,
    "lac": 17588,
    "invincible": 25089,
    "ifications": 9727,
    "Ġsteals": 23082,
    "labour": 23912,
    "Ġaltering": 18102,
    "Ġstile": 21730,
    "akin": 11765,
    "Ù": 154,
    "Ġfortunate": 6214,
    "Ġinnermost": 12157,
    "Ġvain": 3626,
    "Ġcontinued": 2919,
    "Ġbrilliancy": 20105,
    "Ġobstacles": 19834,
    "Ġscotch": 12206,
    "Ġcruising": 6912,
    "Ġbishop": 13900,
    "oped": 6047,
    "Ġleading": 7297,
    "Ġcoron": 4463,
    "Ġenjoy": 3760,
    "icacy": 15654,
    "scrape": 25698,
    "rising": 7557,
    "Ġneglected": 10376,
    "Ġcastor": 19425,
    "Ġimputable": 22171,
    "ustry": 18361,
    "Ġmonster": 3792,
    "able": 451,
    "task": 13791,
    "person": 7746,
    "Ġkin": 15901,
    "Ġdictionaries": 12337,
    "aborate": 14020,
    "ensing": 12892,
    "Ġconsuming": 22790,
    "ineer": 11696,
    "Ġlivery": 15996,
    "Ġcontinuously": 23203,
    "iferous": 17290,
    "amusement": 15280,
    "Ġfluttered": 16245,
    "Ġqueequeg": 2013,
    "uplifted": 17694,
    "Ġnight": 1466,
    "pres": 16025,
    "Ġabsorbed": 12328,
    "Ġinn": 4589,
    "Ġclear": 1949,
    "Ġhumaneval": 25582,
    "Ġforbearing": 25098,
    "^{": 15302,
    "Ġmagnus": 18957,
    "Ġcorresponding": 13436,
    "beyond": 8881,
    "Ġdeductions": 19731,
    "Ġwarsaw": 26167,
    "Ġmanip": 8870,
    "Ġstaring": 8823,
    "Ġappar": 7411,
    "reduc": 5459,
    "Ġbagging": 24538,
    "Ġhemis": 21682,
    "Ġerecting": 24652,
    "laughed": 20280,
    "Ġlaudanum": 20689,
    "Ġgrapnels": 25551,
    "Ġand": 295,
    "Ġflattering": 13025,
    "yet": 3753,
    "Ġclues": 18418,
    "/`": 12426,
    "ifferent": 4262,
    "ethics": 8876,
    "Ġrebell": 21667,
    "Ġmeant": 3548,
    "Ġundue": 25993,
    "Ġwhisker": 23932,
    "Ġreserve": 9969,
    "Ġtransitory": 16015,
    "Ġgifted": 17996,
    "ineas": 15818,
    "Ġpau": 17908,
    "iasm": 8061,
    "talked": 14983,
    "Ġsupreme": 13605,
    "Ġengraved": 17080,
    "Ġbeale": 12695,
    "featured": 24029,
    "variety": 23184,
    "Ġunlocking": 20705,
    "Ġtroublesome": 23999,
    "Ġjollies": 20369,
    "Ġdictator": 20152,
    "Ġringle": 18210,
    "Ġshreds": 12766,
    "rospect": 11610,
    "circled": 24186,
    "Ġfiddle": 25444,
    "ouncement": 11742,
    "ceed": 1078,
    "Ġexhilarating": 26337,
    "woman": 5899,
    "Ġshows": 8482,
    "Ġdisturbed": 8671,
    "figures": 20120,
    "Ġresolutely": 14608,
    "Ġprevious": 2089,
    "Ġbeaut": 2395,
    "Ġfaculties": 14956,
    "Ġacceptance": 14825,
    "Ġtam": 7822,
    "Ġindiscriminately": 20626,
    "Ġ5": 4935,
    "Ġincreases": 3794,
    "Ġquivering": 12854,
    "Ġtelegra": 11889,
    "Ġterms": 2561,
    "Ġmerryweather": 9520,
    "iably": 13736,
    "Ġof": 298,
    "Ġadjust": 2156,
    "concent": 19478,
    "Ġshrieks": 12196,
    "Ġengagement": 5397,
    "Ġbri": 21376,
    "Ġapiece": 16812,
    "Ġsped": 22123,
    "vings": 9749,
    "Ġastronomy": 25926,
    "harpooneers": 8689,
    "Ġtreatment": 12068,
    "Ġcin": 13873,
    "feels": 22499,
    "Ġcontribut": 12855,
    "shows": 22449,
    "Ġbutcher": 18271,
    "covenant": 23558,
    "elter": 21569,
    "Ġlimit": 10442,
    "cused": 15330,
    "Ġgrazed": 15830,
    "Ġlandsmen": 11350,
    "Ġcomprehens": 8320,
    "Ġwasn": 6997,
    "Ġoverjoyed": 17456,
    "Ġcontained": 7679,
    "Ġcedars": 20291,
    "embedding": 20703,
    "Ġgrotesque": 26329,
    "Ġsunwards": 19011,
    "Ġexploit": 19161,
    "Ġhousekeeper": 7456,
    "oura": 1060,
    "Ġsignify": 16492,
    "Ġgrasshopper": 24379,
    "Ġpanthe": 19652,
    "Ġadvantage": 4315,
    "Ġcomplement": 23707,
    "Ġmother": 2067,
    "Ġarom": 15490,
    "Ġgrowl": 16536,
    "pin": 13765,
    "Ġcoal": 18595,
    "Ġneeded": 7718,
    "robust": 19726,
    "Ġenthusiasm": 8065,
    "ailing": 7021,
    "!âĢĻ": 3330,
    "ressing": 8917,
    "Ġembellish": 25847,
    "Ġanxiety": 5408,
    "Ġdiscoloured": 15250,
    "antically": 22094,
    "Ġhappens": 2189,
    "Ġissuing": 16947,
    "Ġprobably": 4313,
    "lower": 8878,
    "Ġspl": 2980,
    "Ġhappen": 5570,
    "================================================================": 9988,
    "Ġexcluded": 16382,
    "Ġswell": 8948,
    "pacific": 17640,
    "Ġscar": 3211,
    "Ġeuroc": 14957,
    "Ġstarting": 7729,
    "cruet": 17025,
    "Ġinspired": 2519,
    "Ġscrib": 22281,
    "pur": 7807,
    "Ġgardener": 19134,
    "clinging": 20821,
    "Ġtrooped": 24899,
    "noise": 14335,
    "Ġstoried": 18072,
    "cun": 20794,
    "accident": 11180,
    "orses": 6052,
    "Ġresearches": 13144,
    "Ġsagaciously": 24731,
    "freighted": 14890,
    "Ġcabinets": 23860,
    "gradient": 2274,
    "made": 4808,
    "Ġhypocr": 19470,
    "breat": 10076,
    "acency": 12904,
    "Ġmaimed": 21315,
    "Ġminuteness": 19138,
    "Ġtearing": 14395,
    "Ġoften": 1954,
    "sweep": 24618,
    "Ġworkflow": 2312,
    "Ġformula": 2864,
    "Ġsuavely": 26522,
    "Ġdollars": 11454,
    "Ġgovernor": 16488,
    "iors": 9124,
    "Ġwearer": 21920,
    "oud": 1942,
    "meryton": 10110,
    "into": 3679,
    "dislike": 23492,
    "aye": 3658,
    "Ġchival": 14181,
    "Ġassembly": 10641,
    "Ġstretch": 6993,
    "Ġacquirement": 19254,
    "Ġcouch": 12567,
    "Ġquenched": 22415,
    "Ġfab": 15572,
    "Ġclergy": 7642,
    "furniture": 20241,
    "contrad": 19291,
    "anned": 17839,
    "Ġsinews": 20286,
    "Ġoperated": 14546,
    "recovered": 19786,
    "onom": 9157,
    "wag": 21122,
    "Ġrats": 21974,
    "Ġterrors": 6918,
    "Ġsafie": 6617,
    "pure": 17625,
    "Ġundec": 22015,
    "repro": 10769,
    "Ġreasoned": 23045,
    "opes": 10309,
    "Ġinclosed": 19537,
    "Ġclaw": 22339,
    "happened": 9431,
    "sets": 17659,
    "ache": 8518,
    "cloth": 11934,
    "č": 206,
    "izar": 14048,
    "heavens": 19744,
    "fact": 6358,
    "Ġcontinue": 5398,
    "Ġglory": 6065,
    "Ġrecesses": 17259,
    "iony": 9190,
    "what": 642,
    "Ġgathered": 8443,
    "Ġposted": 16723,
    "ick": 837,
    "Ġhaw": 10250,
    "impregnable": 26480,
    "Ġretire": 10380,
    "Ġcaught": 3730,
    "...": 24548,
    "laughing": 15177,
    "Ġpulling": 5862,
    "Ġcorrid": 9822,
    "fool": 9046,
    "pronounce": 25192,
    "Ġsturgeon": 20590,
    "isc": 6239,
    "deemed": 18315,
    "inj": 9150,
    "Ġlot": 6678,
    "built": 16824,
    "ruined": 18345,
    "came": 4569,
    "Ġfebruary": 15910,
    "torture": 26151,
    "Ġcran": 11997,
    "derest": 18314,
    "Ġcircumnavigating": 25614,
    "Ġblo": 2733,
    "Ġpinioned": 21481,
    "embow": 21927,
    "ackinaw": 22424,
    "Ġarches": 14161,
    "Ġgripping": 26186,
    "Ġvor": 15803,
    "Ġblameless": 19858,
    "purposes": 25021,
    "ience": 798,
    "consol": 9760,
    "Ġcaptioning": 23019,
    "upset": 23015,
    "Ġpalsied": 25779,
    "can": 1231,
    "reen": 21230,
    "uctive": 17695,
    "Ġtambourine": 9563,
    "Ġtone": 4041,
    "Ġbite": 10796,
    "appeared": 4281,
    "Ġrevived": 11367,
    "Ġchronicled": 25328,
    "entropy": 1438,
    "ici": 8440,
    "overfitting": 13098,
    "Ġparsonage": 7123,
    "Ġbeliever": 25845,
    "tedious": 22631,
    "Ġdivergence": 2727,
    "unwittingly": 25801,
    "Ġezek": 18009,
    "complet": 11382,
    "Ġdod": 6672,
    "Ġchip": 12821,
    "Ġjur": 12830,
    "Ġwears": 10239,
    "azz": 8262,
    "Ġrules": 1917,
    "tra": 4934,
    "Ġcleanse": 24526,
    "Ġnatur": 17332,
    "bout": 20772,
    "Ġconscious": 7744,
    "Ġincommunicable": 26610,
    "Ġcomp": 726,
    "derness": 11734,
    "Ġentertaining": 16925,
    "Ġced": 10783,
    "Ġcastors": 23973,
    "osing": 3688,
    "enchanted": 26423,
    "Ġattentive": 9032,
    "Ġeighteen": 11237,
    "ignation": 11127,
    "Ġtester": 21171,
    "Ġblush": 14400,
    "Ġceremonious": 24837,
    "causes": 20342,
    "Ġembodiment": 20526,
    "pherd": 13642,
    "Ġpainted": 7978,
    "Ġoccas": 2702,
    "Ġobsc": 7039,
    "pumps": 21026,
    "Ġcomment": 9231,
    "Ġatom": 18192,
    "Ġfeatures": 1431,
    "Ġbring": 3322,
    "Ġbount": 15564,
    "Ġpest": 13911,
    "ither": 1547,
    "care": 4928,
    "Ġcrowded": 8012,
    "'m": 9581,
    "Ġpenalizing": 13088,
    "iastic": 12476,
    "encouragement": 17421,
    "Ġingratitude": 17467,
    "Ġfought": 12589,
    "swiss": 24254,
    "devils": 20031,
    "enary": 12547,
    "ellative": 21943,
    "mystic": 25316,
    "Ġ35": 24076,
    "Ġif": 698,
    "Ġvinc": 14083,
    "Ġsharpen": 13567,
    "felt": 5889,
    "Ġpredefined": 20717,
    "Ġmystery": 5509,
    "par": 1875,
    "careful": 14864,
    "Ġbrahma": 26319,
    "cating": 20801,
    "ompl": 4535,
    "Ġgratefully": 20443,
    "Ġexertion": 8054,
    "fears": 18525,
    "Ġchair": 3660,
    "turning": 8317,
    "Ġeaster": 15671,
    "Ġswan": 23050,
    "Ġtranque": 14203,
    "Ġcommunicated": 9060,
    "much": 3705,
    "lose": 12878,
    "elihood": 4621,
    "Ġbenchmarks": 15020,
    "ę": 218,
    "Ġcombines": 1170,
    "entle": 1738,
    "Ġdiscreet": 16480,
    "Ġitaly": 10866,
    "ġ": 226,
    "Ġtestimony": 14473,
    "Ġprofane": 13150,
    "sales": 17666,
    "ensed": 10994,
    "command": 6576,
    "mut": 17594,
    "Ġwhitish": 24866,
    "darkness": 9510,
    "Ġrooms": 5180,
    "Ġscript": 18398,
    "Ġjacob": 1898,
    "scans": 22987,
    "Ġspinal": 12299,
    "linearity": 1651,
    "Ġcemeteries": 26375,
    "Ġgall": 4351,
    "horrors": 20540,
    "Ġspasmodically": 17312,
    "charlotte": 6473,
    "Ġdaint": 15589,
    "Ġleaks": 16446,
    "acquired": 24295,
    "Ġafloat": 9306,
    "ived": 1534,
    "Ġcircumference": 13543,
    "luded": 4228,
    "Ġawful": 6199,
    "Ġgen": 5296,
    "Ġfarthing": 14452,
    "Ġem": 1923,
    "commence": 19990,
    "Ġpreservative": 24630,
    "Ġmelbourne": 24288,
    "does": 6194,
    "Ġbegun": 7243,
    "ouses": 5163,
    "ĠĠĠĠĠĠĠĠĠĠĠĠĠĠĠĠĠĠĠ": 22948,
    "streets": 13393,
    "gaff": 20881,
    "springs": 24911,
    "wick": 5362,
    "Ġquery": 2480,
    "Ġsuperlatively": 26075,
    "Ġfluctuations": 5516,
    "dening": 22779,
    "twilight": 23697,
    "Ġtantalizing": 20412,
    "Ġvapor": 8699,
    "confusion": 13367,
    "Ġcrow": 3803,
    "Ġcreative": 9828,
    "Ġaloof": 21783,
    "Ġvii": 13106,
    "Ġpride": 3823,
    "relieved": 13274,
    "Ġclo": 6043,
    "max": 1684,
    "Ġgenerating": 12847,
    "Ġexpand": 9305,
    "Ġremaining": 6188,
    "Ġunfathomably": 25873,
    "Ġcontraction": 16005,
    "Ġwarrant": 17794,
    "Ġlandsman": 11349,
    "iam": 2510,
    "Ġ3": 3985,
    "eh": 13708,
    "ression": 3402,
    "Ġalluding": 18269,
    "iffe": 21900,
    "Ġstables": 23653,
    "Ġuncovered": 23430,
    "aning": 2253,
    "Ġsufficiently": 8972,
    "Ġvanity": 7045,
    "Ġsun": 1720,
    "Ġbeamed": 23720,
    "Ġclouded": 13288,
    "marest": 20979,
    "Ġindications": 14630,
    "Ġvestibule": 13535,
    "moil": 22703,
    "Ġdrug": 11409,
    "Ġoversampling": 20514,
    "Ġwherever": 8523,
    "Ġrio": 23889,
    "ruit": 22185,
    "Ġdisorder": 16048,
    "Ġorgan": 2504,
    "Ġdef": 1201,
    "Ġfurnish": 9017,
    "Ġdesires": 9455,
    "treat": 12509,
    "Ġkind": 1785,
    "Ġshy": 10902,
    "Ġrouted": 24907,
    "eng": 1491,
    "Ġmorning": 1747,
    "ror": 7351,
    "Ġexcused": 23310,
    "tur": 5688,
    "Ġprecious": 5760,
    "Ġdarted": 4757,
    "Ġimpediments": 26240,
    "Ġdescription": 7429,
    "âĢĻ": 377,
    "Ġconcern": 2584,
    "Ġthickly": 12112,
    "Ġcrouching": 23442,
    "Ġclink": 22337,
    "nder": 20986,
    "mad": 5280,
    "Ġpremium": 23902,
    "learn": 2435,
    "Ġemma": 20693,
    "decease": 25557,
    "Ġknowing": 4456,
    "Ġnoise": 1073,
    "Ġdoubting": 13097,
    "Ġriotous": 20543,
    "Ġexcite": 11963,
    "Ġsquires": 16179,
    "Ġzeal": 9096,
    "Ġrem": 953,
    "Ġcrimes": 8588,
    "aging": 2237,
    "_âĢĶâĢĻ": 13680,
    "Ġtimbers": 14837,
    "irst": 879,
    "Ġransacked": 26504,
    "iel": 11492,
    "libra": 22923,
    "Ġado": 7626,
    "Ġoutright": 18413,
    "hens": 3937,
    "Ġwag": 10774,
    "taking": 5689,
    "ifled": 14061,
    "torm": 11529,
    "Ġage": 3896,
    "Ġtypewritten": 16419,
    "Ġpillow": 10036,
    "Ġautumn": 14510,
    "Ġefficiently": 3633,
    "mown": 20969,
    "Ġsorrows": 13352,
    "whatsoever": 18493,
    "leman": 21366,
    "aet": 15305,
    "Ġmarked": 4618,
    "Ġvouch": 15806,
    "Ġpanic": 11285,
    "Ġstoutly": 16923,
    "Ġinstigated": 18702,
    "sorrows": 17318,
    "Ġsparks": 22130,
    "Ġvisitors": 7985,
    "Ġtatters": 21176,
    "rigging": 20004,
    "ous": 477,
    "Ġshrubbery": 18232,
    "Ġviciss": 11291,
    "Ġassent": 12729,
    "Ġcrawled": 17043,
    "extremely": 26263,
    "wreat": 21126,
    "Ġflashed": 11910,
    "Ġsenses": 8252,
    "Ġdelivered": 11115,
    "Ġextraordinary": 5414,
    "Ġweap": 6155,
    "Ġupp": 13990,
    "Ġwooded": 23517,
    "Ġsqualid": 14366,
    "Ġungrateful": 14118,
    "Ġslip": 8953,
    "Ġreminisc": 18725,
    "punct": 20191,
    "Ġelijah": 9098,
    "Ġhoneymoon": 25645,
    "Ġmortification": 12090,
    "cious": 6643,
    "Ġeffort": 8204,
    "Ġclassify": 1486,
    "Ġpr": 1601,
    "Ġ134": 24784,
    "sub": 4659,
    "6": 26,
    "Ġrepast": 16408,
    "Ġcircumspect": 15082,
    "Ġturnpike": 23025,
    "Ġdecaying": 2247,
    "Ġsweat": 13137,
    "Ġghastly": 10058,
    "usoid": 4766,
    "Ġjourneys": 19473,
    "anoke": 21359,
    "pipe": 8696,
    "anct": 21356,
    "Ġbrow": 3989,
    "Ġtaller": 16687,
    "Ġdecks": 6900,
    "attracted": 13047,
    "plans": 21950,
    "Ġscrut": 15942,
    "Ġaccomp": 4712,
    "Ġstage": 7389,
    "engagements": 25853,
    "Ġrestored": 7066,
    "Ġwinged": 16994,
    "Ġremained": 3139,
    "Ġreach": 4048,
    "Ġalliance": 18268,
    "Ġdistance": 3480,
    "form": 495,
    "Ġfac": 6381,
    "ogn": 2463,
    "otently": 21798,
    "Ġnotes": 7189,
    "Ġcens": 8413,
    "Ġloud": 4700,
    "Ġmothers": 14539,
    "onsible": 22559,
    "Ġrapidity": 11099,
    "Ġlest": 6395,
    "Ġtrains": 10946,
    "from": 1992,
    "Ġcobbler": 25829,
    "Ġbushes": 16397,
    "Ġwand": 4341,
    "Ġcapital": 7980,
    "escaped": 14229,
    "Ġrushes": 20506,
    "Ġsentence": 6187,
    "continual": 20643,
    "glim": 19363,
    "Ġtract": 21164,
    "ordinary": 4407,
    "Ġconfidential": 9086,
    "Ġfron": 14486,
    "Ġadequ": 10912,
    "gish": 20872,
    "Ġcourtship": 24135,
    "Ġpoor": 1709,
    "educated": 17258,
    "berries": 22720,
    "Ġpittance": 15613,
    "will": 1971,
    "Ġcirclings": 26430,
    "Ġclerical": 25568,
    "aments": 12721,
    "accomplishments": 25326,
    "j": 78,
    "Ġpemberley": 4587,
    "thodox": 21986,
    "Ġsank": 5076,
    "ai": 2526,
    "Ġmaximizing": 3166,
    "Ġprognost": 15279,
    "oftener": 23962,
    "Ġchamp": 18381,
    "Ġcrushing": 20175,
    "Ġsailor": 3534,
    "Ġstingy": 25455,
    "Ġwell": 900,
    "Ġexpon": 967,
    "Ġlords": 14640,
    "Ġrising": 4355,
    "Ġ2026": 12332,
    "Ġcigars": 12249,
    "Ġloc": 10913,
    "ove": 1742,
    "il": 329,
    "Ġfinancial": 23128,
    "Ġawaiting": 11389,
    "Ġgar": 10837,
    "effectually": 25128,
    "Ġsuicide": 12785,
    "Ġvillainous": 25131,
    "Ġresistance": 13528,
    "Ġmaiden": 13384,
    "į": 240,
    "Ġmappings": 2149,
    "Ġhatchway": 13523,
    "vert": 15711,
    "spent": 12939,
    "Ġ$": 21149,
    "Ġrelates": 12977,
    "Ġempt": 5051,
    "Ġhos": 4942,
    "Ġcheshire": 13087,
    "spades": 14333,
    "alleging": 23021,
    "solving": 3097,
    "Ġexcess": 3340,
    "Ġcellar": 8059,
    "irectly": 6940,
    "Ġpupils": 20419,
    "Ġindicate": 23721,
    "Ġprivacy": 19523,
    "Ġinward": 11605,
    "nment": 20989,
    "conduct": 11794,
    "Ġwaxed": 21296,
    "Ġtongue": 6347,
    "Ġcalm": 3443,
    "verbally": 25360,
    "Ġmakes": 3649,
    "opius": 18509,
    "Ġneighbor": 25805,
    "Ġdigesting": 19808,
    "Ġforlorn": 14013,
    "Ġexotic": 21829,
    "shapes": 22455,
    "inting": 9812,
    "Ġprow": 6684,
    "winter": 10739,
    "hunted": 16831,
    "Ġbene": 2033,
    "Ġthrust": 5084,
    "Ġhieroglyph": 11967,
    "nurse": 15206,
    "ension": 6569,
    "Ġresignation": 18566,
    "Ġjames": 6420,
    "Ġmisunderstood": 18705,
    "row": 1069,
    "Ġoutlast": 22311,
    "Ġhoisting": 9860,
    "arled": 21441,
    "Ġstil": 15714,
    "nd": 11502,
    "Ġsincere": 11135,
    "enges": 13050,
    "derer": 4599,
    "Ġspeak": 2229,
    "Ġjesty": 18405,
    "Ġlovel": 10270,
    "cu": 10082,
    "Ġhaul": 11689,
    "Ġindiam": 22951,
    "ouraged": 22853,
    "Ġpreparations": 12307,
    "Ġformless": 22827,
    "ible": 1115,
    "omical": 9680,
    "Ġlargest": 6282,
    "Ġte": 1164,
    "Ġpropagating": 20632,
    "ivial": 15857,
    "swimming": 24257,
    "Ġcoun": 4178,
    "oric": 21394,
    "Ġsto": 1501,
    "pat": 10115,
    "allowed": 5728,
    "Ġfurlongs": 20722,
    "Ġcolours": 12970,
    "Ġdimensions": 16570,
    "Ġcharacteristics": 8609,
    "Ġtough": 13813,
    "Ġgurg": 15669,
    "Ġexceeding": 1583,
    "Ġmurderer": 4980,
    "Ġscandinav": 19959,
    "Ġclients": 19730,
    "Ġvishnoo": 12749,
    "mockery": 24377,
    "Ġroasted": 18460,
    "Ġtangles": 25761,
    "Ġspile": 22125,
    "Ġthoughtlessness": 16191,
    "Ġconvalescence": 23744,
    "sixteen": 24853,
    "Ġsucc": 12782,
    "Ġmrs": 1468,
    "Ġpikes": 21477,
    "Ġhorrid": 7999,
    "Ġatmosphere": 10896,
    "Ġcabal": 23641,
    "Ġdominant": 12393,
    "ried": 926,
    "Ġbloodless": 19338,
    "Ġfreed": 7267,
    "Ġejaculated": 15167,
    "Ġoceans": 7996,
    "oniously": 21256,
    "news": 23132,
    "Ġthroat": 7771,
    "Ġsummarization": 3644,
    "Ġpause": 5707,
    "Ġspear": 9312,
    "perse": 15890,
    "Ġriggers": 24155,
    "Ġweights": 897,
    "Ġcomprehensiveness": 25072,
    "painted": 17638,
    "john": 11496,
    "Ġfaintly": 14913,
    "Ġoft": 9193,
    "Ġinflamed": 13471,
    ",âĢĿ": 578,
    "Ġdeceive": 12718,
    "Ġinseparable": 20687,
    "Ġfraud": 19039,
    "Ġdiversity": 25284,
    "Ġmouthfuls": 20645,
    "seem": 10226,
    "Ġsharp": 2415,
    "Ġapo": 9629,
    "windlass": 16720,
    "Ġscarlet": 13220,
    "mistaken": 12207,
    "Ġdisgust": 6705,
    "throughout": 24086,
    "Ġhardihood": 23109,
    "Ġsponge": 26003,
    "privilege": 25263,
    "abounding": 25979,
    "Ġcontemptible": 16952,
    "Ġsine": 10762,
    "Ġsharing": 3473,
    "Ġreiter": 21664,
    "Ġpresence": 5031,
    "mission": 5970,
    "Ġmultitud": 18748,
    "Ġarmitage": 23580,
    "dered": 2474,
    "iard": 9600,
    "Ġbonds": 17869,
    "Ġbrisk": 9801,
    "Ġbrotherhood": 23666,
    "Ġlazily": 11379,
    "Ġsister": 1475,
    "contented": 14632,
    "Ġfiends": 14826,
    "ivers": 1985,
    "Ġenjoyments": 24015,
    "Ġshook": 4467,
    "Ġdeficiencies": 26569,
    "Ġcompares": 20165,
    "upid": 6581,
    "Ġwitt": 17783,
    "ents": 1896,
    "âĢĶâĢĻ": 8188,
    "tery": 14035,
    "Ġsuggest": 5417,
    "Ġflounders": 23011,
    "Ġalbertus": 25648,
    "Ġvicious": 24402,
    "Ġscolded": 25472,
    "Ġgrimes": 11033,
    "expense": 22427,
    "Ġbowsman": 11254,
    "Ġmales": 17805,
    "Ġpennies": 17269,
    "Ġcanted": 17831,
    "Ġ118": 19697,
    "Ġragged": 11843,
    "rove": 21531,
    "rical": 11517,
    "Ġfeatureless": 22609,
    "Ġcountries": 13093,
    "last": 3801,
    "allied": 7410,
    "according": 12024,
    "Ġexperiment": 11915,
    "Ġpolite": 9880,
    "deceiving": 22142,
    "Ġcachalot": 17834,
    "property": 19998,
    "Ġdiscl": 9795,
    "Ġsod": 11560,
    "address": 14879,
    "Ġcrumbs": 20639,
    "Ġtrying": 4838,
    "Ġeyford": 10640,
    "Ġelse": 2481,
    "Ġinstructive": 19285,
    "Ġtexture": 19159,
    "Ġperceive": 6699,
    "orate": 10799,
    "Ġglit": 8559,
    "ignant": 11128,
    "Ġfarewell": 9518,
    "umbent": 12092,
    "Ġnantucketer": 6914,
    "Ġregent": 18591,
    "Ġliable": 14227,
    "Ġwolves": 25934,
    "Ġdreaming": 11222,
    "Ġconductor": 24004,
    "ientiously": 21930,
    "flag": 14709,
    "Ġselects": 4384,
    "Ġdiscre": 2417,
    "retreat": 23134,
    "hunters": 16832,
    "ounder": 11741,
    "Ġasc": 4764,
    "Ġ33": 16675,
    "idean": 14261,
    "hailed": 17564,
    "Ġmorality": 22969,
    "Ġcanterbury": 22166,
    "Ġreasonable": 7251,
    "Ġsimultaneous": 22586,
    "Ġ1950": 11358,
    "greater": 13248,
    "Ġassembled": 9234,
    "Ġallies": 18267,
    "rigible": 24931,
    "Ġdownwards": 8528,
    "Ġ41": 24079,
    "Ġaddu": 22099,
    "ĠĠĠĠĠĠĠĠĠĠĠĠĠĠĠĠĠĠĠĠĠĠĠĠĠĠĠĠĠĠĠĠĠ": 12040,
    "objection": 19914,
    "Ġgeneralization": 983,
    "Ġconstraints": 2739,
    "concern": 5875,
    "examine": 25477,
    "Ġradiant": 16808,
    "Ġhaught": 10251,
    "Ġpolynes": 16076,
    "Ġgreek": 10629,
    "Ġpince": 21470,
    "Ġfluctu": 5267,
    "Ġemploy": 3612,
    "Ġdazzling": 15209,
    "clam": 13051,
    "Ġaccelerating": 1621,
    "ring": 1752,
    "Ġmatrices": 4969,
    "accordingly": 19212,
    "Ġblasted": 7938,
    "Ġlaure": 16908,
    "trunk": 23945,
    "bearings": 25371,
    "consolatory": 25306,
    "Ġalgorithm": 773,
    "Ġnorth": 4318,
    "ving": 594,
    "lish": 1951,
    "Ġhitherto": 5880,
    "Ġunintellig": 22022,
    "Ġwants": 5742,
    "Ġhorizontal": 7783,
    "Ġmut": 3580,
    "Ġperched": 10298,
    "Ġbackward": 7654,
    "anim": 6522,
    "convul": 24883,
    "venerable": 26407,
    "ilies": 18056,
    "based": 2957,
    "Ġsaturday": 6452,
    "gold": 9119,
    "Ġtendons": 19807,
    "itates": 13867,
    "Ġvisible": 4776,
    "Ġunwelcome": 12775,
    "Ġoysters": 20577,
    "abashed": 21790,
    "displayed": 20735,
    "extensive": 18707,
    "Ġleast": 2064,
    "Ġlinks": 13953,
    "Ġgame": 3625,
    "Ġtwain": 16116,
    "Ġunexpectedly": 19908,
    "requent": 3647,
    "priv": 9618,
    "igned": 5656,
    "Ġxxv": 19716,
    "Ġrevenue": 26194,
    "vocabulary": 25085,
    "Ġimmense": 4952,
    "Ġswashing": 23055,
    "Ġbrawny": 13611,
    "Ġlod": 4044,
    "Ġtrip": 16787,
    "Ġbad": 3988,
    "Ġpointed": 4772,
    "quality": 10231,
    "Ġcooked": 13266,
    "Ġplayfulness": 23636,
    "accounted": 16499,
    "Ġpaw": 12616,
    "Ġcastles": 16638,
    "adler": 21760,
    "saturday": 14856,
    "jumping": 20244,
    "ĠĠĠĠĠĠ": 6414,
    "greenland": 10019,
    "Ġjo": 2607,
    "Ġiceberg": 14714,
    "Ġdisappo": 4505,
    "ion": 296,
    "Ġquee": 1982,
    "Ġwashed": 15761,
    "Ġinnocent": 4921,
    "ceive": 3061,
    "Ġfi": 934,
    "bordered": 17497,
    "contrast": 25594,
    "Ġowing": 6005,
    "conquerable": 17397,
    "third": 8168,
    "Ġresiding": 16058,
    "Ġinsanity": 12044,
    "Ġbiscuit": 12585,
    "Ġharry": 24570,
    "Ġvisitor": 5330,
    "Ġunw": 8848,
    "Ġwayward": 22871,
    "Ġ31": 12127,
    "Ġmoth": 17802,
    "Ġfurn": 3709,
    "Ġdesponding": 25868,
    "charm": 13988,
    "Ġinverted": 12633,
    "parlour": 16389,
    "sailing": 14712,
    "walls": 25345,
    "Ġdisput": 14254,
    "Ġacting": 10990,
    "Ġperson": 2370,
    "Ġloveliest": 20260,
    "Ġinviting": 19143,
    "impotence": 23759,
    "Ġequinox": 25855,
    "Ġyea": 8914,
    "Ġblotting": 25313,
    "themselves": 6540,
    "ivility": 12779,
    "Ġunsettled": 14120,
    "Ġusually": 6263,
    "Ġsag": 6514,
    "vy": 21106,
    "colonel": 8285,
    "Ġacres": 14311,
    "Ġimportant": 1112,
    "Ġhalls": 19524,
    "Ġevangelist": 20337,
    "iliating": 12691,
    "health": 13831,
    "narr": 12493,
    "Ġcrawling": 17044,
    "Ġstricken": 9774,
    "harpoone": 6107,
    "study": 15115,
    "Ġprints": 16329,
    "Ġcomely": 21846,
    "gir": 8083,
    "Ġfobbing": 26440,
    "animal": 16977,
    "Ġshipmates": 6720,
    "Ġsignifies": 19203,
    "Ġhuddled": 20298,
    "Ġcells": 13883,
    "unaffected": 21881,
    "Ġaye": 3350,
    "Ġsurest": 19054,
    "Ġwhen": 516,
    "Ġwield": 21289,
    "an": 278,
    "archical": 1925,
    "Ġstirs": 14915,
    "scho": 8759,
    "lace": 13746,
    "Ġcashier": 20197,
    "´": 117,
    "Ġcelebrated": 13592,
    "onies": 6806,
    "handkerchief": 14616,
    "Ġveil": 7934,
    "Ġfond": 4754,
    "zar": 11546,
    "Ġwill": 678,
    "Ġprince": 18971,
    "Ġstash": 18067,
    "Ġmerid": 13193,
    "Ġstoutest": 24629,
    "sister": 5139,
    "Ġentreated": 9949,
    "Ġretirement": 25378,
    "Ġbroom": 18906,
    "oled": 17618,
    "Ġheadache": 22894,
    "banish": 20781,
    "Ġreplay": 5047,
    "collect": 16562,
    "pride": 11209,
    "Ġwarden": 17223,
    "Ġvoluntarily": 12137,
    "Ġunt": 2294,
    "Ġinvestigation": 9041,
    "Ġroman": 8323,
    "Ġsmile": 4271,
    "hypothe": 25905,
    "Ġsighed": 10336,
    "Ġjago": 22304,
    "Ġthrowing": 6335,
    "Ġmatrimonial": 25489,
    "Ġalone": 2565,
    "Ġroots": 11184,
    "atherine": 2594,
    "Ġsimply": 7218,
    "Ġvalidate": 3096,
    "dissatisf": 26129,
    "plun": 15812,
    ",âĢĶ": 3167,
    "Ġreferred": 8915,
    "persuasion": 20042,
    "Ġsecond": 1891,
    "ket": 17581,
    "Ġswart": 14433,
    "emporary": 15792,
    "unbe": 21870,
    "frozen": 25139,
    "Ġpersuade": 5872,
    "Ġcloak": 9532,
    "kilt": 4866,
    "lied": 6507,
    "Ġexamining": 8006,
    "Ġfeelingly": 22995,
    "Ġdrank": 16532,
    "Ġforbid": 7866,
    "Ġeavesdroppers": 25963,
    "whereby": 23416,
    "Ġdemoniac": 15064,
    "Ġgleaming": 24995,
    "whaler": 20308,
    "Ġalley": 15732,
    "Ġnephews": 24713,
    "inav": 15481,
    "Ġviewing": 19263,
    "cture": 15661,
    "appearing": 14636,
    "Ġtravel": 5953,
    "Ġthereby": 7643,
    "unhesitatingly": 26495,
    "Ġcruises": 23700,
    "Ġoffered": 5816,
    "reckoning": 25270,
    "ord": 665,
    "Ġwretched": 4084,
    "Ġwilds": 16507,
    "Ġlikened": 16497,
    "Ġam": 660,
    "flo": 6114,
    "Ġbear": 3656,
    "Ġallusions": 10908,
    "Ġsmite": 22555,
    "erness": 6434,
    "encoura": 15047,
    "Ġblame": 6446,
    "Ġhumorousness": 25377,
    "words": 7983,
    "Ġguess": 4903,
    "Ġtransparen": 10540,
    "aunted": 20769,
    "Ġcountenances": 11962,
    "Ġcumul": 4179,
    "plings": 11692,
    "Ġmemorand": 23403,
    "Ġcoincidence": 25483,
    "Ġepid": 18004,
    "Ġburned": 8630,
    "Ġparcels": 25465,
    "occurrences": 26331,
    "windows": 19533,
    "usive": 8192,
    "would": 2352,
    "itically": 21328,
    "Ġendeavoured": 4918,
    "Ġfelicity": 7260,
    "Ġcoburg": 18599,
    "blows": 17164,
    "antingly": 22096,
    "ells": 5303,
    "cats": 17511,
    "Ġconstraint": 16512,
    "Ġsymmetrical": 20365,
    "sche": 13015,
    "Ġspe": 822,
    "impropriety": 21711,
    "Ġjust": 1239,
    "asper": 7855,
    "gangway": 20666,
    "Ġmemory": 2276,
    "Ġmonsters": 11073,
    "Ġsmoothed": 23655,
    "Ġprem": 3423,
    "until": 6596,
    "bearing": 9763,
    "alarms": 21503,
    "arrange": 23764,
    "Ġfro": 3467,
    "secured": 16937,
    "Ġbeings": 2492,
    "hateful": 20908,
    "gressive": 2752,
    "Ġsweetheart": 19393,
    "misfortunes": 16755,
    "Ġjane": 1757,
    "Ġcomical": 11676,
    "Ġsubdiv": 16156,
    "Ġcriminals": 19921,
    "Ġsour": 21215,
    "Ġattend": 5035,
    "valued": 2850,
    "Ġeluc": 16105,
    "girdling": 26388,
    "Ġere": 3684,
    "monsters": 19170,
    "Ġgratification": 24095,
    "know": 2320,
    "Ġdrifted": 14623,
    "Ġward": 10154,
    "code": 15327,
    "lesome": 12961,
    "Ġengland": 3856,
    "Ġphilipses": 24451,
    "aced": 2408,
    "classification": 4386,
    "Ġrobberies": 23038,
    "opement": 10310,
    "Ġobject": 1395,
    "pulled": 25145,
    "Ġrhine": 12353,
    "rained": 5162,
    "Ġthat": 335,
    "anger": 2172,
    "Ġfetched": 24566,
    "Ġtreat": 3172,
    "Ġsupposed": 4557,
    "Ġsemantics": 2892,
    "Ġishmael": 7395,
    "place": 4155,
    "stalls": 26472,
    "âĢľ": 344,
    "Ġpassive": 22839,
    "Ġdined": 9175,
    "Ġuns": 15833,
    "Ġclue": 7019,
    "Ġhandsomer": 20332,
    "Ġinvaders": 23479,
    "Ġxii": 11987,
    "isters": 11916,
    "mises": 20977,
    "Ġarrogance": 26231,
    "Ġbetween": 791,
    "ě": 220,
    "Ġblessing": 11262,
    "Ġemployment": 8628,
    "elson": 16371,
    "nect": 662,
    "Ġwallow": 19464,
    "Ġprofess": 3698,
    "yond": 2331,
    "15": 12427,
    "Ġimmensity": 25329,
    "beholding": 16036,
    "tubes": 25211,
    "Ġgrip": 11625,
    "Ġapproxim": 1218,
    "Ġflowers": 8939,
    "Ġshriek": 6637,
    "ositions": 10282,
    "Ġfleets": 23772,
    "Ġfleeting": 19326,
    "Ġfable": 15573,
    "sail": 3600,
    "Ġefficient": 1021,
    "Ġneeds": 6605,
    "Ġbatch": 889,
    "Ġseverity": 15817,
    "arts": 6563,
    "Ġframework": 2068,
    "Ġmaterials": 11287,
    "Ġexpost": 18623,
    "Ġbusy": 6189,
    "enstern": 17781,
    "ive": 426,
    "Ġglowed": 24864,
    "Ġencompassed": 15251,
    "cstasy": 11444,
    "satisfy": 16891,
    "Ġexec": 19491,
    "Ġstructure": 846,
    "aped": 3764,
    "him": 1939,
    "Ġphantoms": 13484,
    "Ġrummaged": 16909,
    "Ġguiding": 19240,
    "Ġtig": 13811,
    "Ġcurb": 16233,
    "Ġrefer": 18697,
    "vember": 10854,
    "Ġmic": 17797,
    "Ġindignant": 12236,
    "arnel": 18127,
    "Ġcheery": 16368,
    "Ġrigger": 19529,
    "Ġnav": 5818,
    "Ġcompanies": 14557,
    "Ġsain": 17749,
    "scar": 9814,
    "Ġagreed": 7028,
    "Ġaccomplishment": 19664,
    "Ġtist": 21161,
    "bottom": 11425,
    "Ġresponsible": 9884,
    "Ġfrowning": 13621,
    "beautiful": 10647,
    "erity": 21266,
    "Ġemblaz": 16236,
    "Ġchace": 14177,
    "Ġhesitating": 16946,
    "Ġfranc": 16349,
    "Ġcounties": 23300,
    "Ġankles": 17899,
    "hatchet": 24822,
    "Ġcane": 10926,
    "Ġabstained": 25231,
    "greatly": 16622,
    "Ġgospel": 18000,
    "Ġcanoes": 12801,
    "Ġshade": 6550,
    "Ġangel": 4852,
    "Ġlxi": 21559,
    "Ġcandidate": 16700,
    "Ġserious": 4321,
    "acific": 4960,
    "Ġbounty": 26436,
    "Ġspikes": 22134,
    "Ġpin": 7161,
    "Ġcords": 14877,
    "Ġdeplored": 20503,
    "Ġungracious": 18255,
    "clergyman": 20728,
    "Ġsupers": 18282,
    "Ġassembl": 20059,
    "dÃ¦mon": 17526,
    "pious": 17632,
    "abode": 21789,
    "attempts": 17189,
    "Ġzone": 14360,
    "cap": 8373,
    "sympathy": 20541,
    "pressing": 19013,
    "living": 7133,
    "Ġhailed": 6407,
    "cob": 10085,
    "Ġhypothesis": 14780,
    "collecting": 26081,
    "raltar": 24232,
    "Ġtens": 17722,
    "Ġexamples": 2603,
    "Ġoverboard": 6045,
    "atlantic": 15521,
    "Ġsequence": 1978,
    "imag": 6990,
    "wherever": 13116,
    "shazz": 14239,
    "Ġhovered": 12627,
    "Ġsolemnly": 8024,
    "Ġgrooves": 16740,
    "Ġpostponed": 20388,
    "here": 2548,
    "Ġumbrell": 13648,
    "Ġintention": 5638,
    "endeavoured": 12277,
    "Ġexcepting": 14679,
    "greeting": 24553,
    "looking": 4035,
    "arius": 14247,
    "pitching": 24075,
    "Ġjourney": 3880,
    "animation": 16978,
    "Ġnailing": 21525,
    "Ġforests": 13590,
    "Ġprofit": 14583,
    "Ġwelcome": 5603,
    "opence": 18508,
    "Ġeffaced": 18527,
    "uded": 6286,
    "inent": 9627,
    "Ġparalle": 1409,
    "Ġ38": 24078,
    "Ġhowling": 8509,
    "Ġfriendly": 9818,
    "Ġburns": 16520,
    "Ġgreeting": 18963,
    "ĠĠĠĠĠĠĠĠĠĠĠĠĠĠĠĠĠĠĠĠĠĠ": 16224,
    "Ġinfiltrated": 23282,
    "Ġcracks": 12016,
    "Ġcharm": 4547,
    "hatches": 19927,
    "Ġvariants": 1792,
    "Ġmills": 21310,
    "forming": 15912,
    "clerval": 7951,
    "Ġdiscussing": 5202,
    "Ġsacrificed": 17420,
    "gences": 20876,
    "Ġhire": 21483,
    "draught": 12086,
    "Ġhey": 11639,
    "Ġshores": 8846,
    "Ġsaxe": 13626,
    "Ġpicture": 4856,
    "sford": 5998,
    "Ġprom": 1527,
    "Ġineff": 12630,
    "principal": 20659,
    "Ġrevers": 21662,
    "year": 11093,
    "erie": 21270,
    "sin": 21047,
    "Ġprotracted": 19467,
    "Ġchal": 18378,
    "lydia": 6826,
    "Ħ": 231,
    "prodigious": 17465,
    "housekeeper": 24101,
    "Ġunfortunately": 10907,
    "accompanied": 12419,
    "Ġdiligently": 11404,
    "measured": 19988,
    "Ġrheumatic": 20704,
    "rossed": 11011,
    "Ġspoiled": 11362,
    "Ġsherry": 19449,
    "hood": 2659,
    "Ġaccompany": 9485,
    "Ġpile": 8424,
    "ger": 1106,
    "Ġforeb": 12000,
    "Ġtugged": 17287,
    "acc": 2533,
    "Ġsyn": 15905,
    "Ġconsecrate": 26488,
    "Ġslate": 11935,
    "ues": 2080,
    "Ġdevote": 10337,
    "secondly": 16983,
    "Ġprisoner": 8672,
    "ield": 2409,
    "Ġorphan": 12380,
    "Ġvigil": 9505,
    "Ġgovernesses": 25127,
    "Ġfireboard": 23529,
    "stave": 21641,
    "ods": 8833,
    "Ġsymbolize": 24962,
    "intercourse": 14637,
    "matters": 14872,
    "ta": 13787,
    "Ġoverpower": 12839,
    "Ġfearlessness": 19160,
    "Ġaffairs": 6877,
    "Ġviciously": 24403,
    "Ġample": 11795,
    "pha": 22767,
    "Ġveracity": 23887,
    "Ġlists": 11165,
    "Ġfreshet": 25704,
    "Ġsigmoid": 2464,
    "Ġconceits": 19388,
    "Ġdepth": 2439,
    "Ġpull": 5152,
    "cousin": 10651,
    "Ġ78": 19612,
    "Ġpreser": 6041,
    "Ġappertain": 22212,
    "Ġneutral": 12737,
    "professor": 17248,
    "Ġidiot": 11968,
    "Ġavowed": 16632,
    "lifted": 15384,
    "port": 10718,
    "stocks": 23817,
    "Ġagitation": 6865,
    "Ġbreeds": 23347,
    "breeze": 20561,
    "mason": 17602,
    "Ġdoubloon": 6945,
    "Ġmeeting": 5193,
    "germans": 20564,
    "Ġpersu": 3561,
    "Ġlooking": 2475,
    "warrior": 24798,
    "gh": 3799,
    "Ġisolation": 17149,
    "icult": 3339,
    "Ġpostscript": 14806,
    "Ġmischie": 22758,
    "Ġpolicy": 10456,
    "Ġfly": 3870,
    "Ġolfactories": 26171,
    "Ġdistinguished": 8273,
    "Ġmeet": 2800,
    "Ġenjoined": 18191,
    "Ġcramped": 23527,
    "Ġdenny": 9000,
    "critical": 19502,
    "mpt": 6653,
    "eag": 20841,
    "Ġimprovements": 14507,
    "Ġdood": 22240,
    "Ġcabinet": 23859,
    "sh": 641,
    "sick": 13782,
    "decided": 13213,
    "Ġintimately": 24804,
    "Ġsundry": 20072,
    "Ġhysterics": 26093,
    "Ġcommons": 22670,
    "bottle": 20144,
    "Ġbradstreet": 9575,
    "Ġconversations": 9423,
    "Ġepistle": 24904,
    "Ġgrapes": 15213,
    "ĠĠĠĠĠĠĠĠĠĠĠĠĠĠĠĠĠĠĠĠĠĠĠĠĠĠĠĠĠĠĠĠĠĠĠĠĠĠĠ": 19258,
    "Ġfailing": 12134,
    "akened": 7415,
    "Ġ2": 2927,
    "Ġrepro": 7275,
    "Ġpatiently": 19917,
    "Ġcanaan": 22165,
    "Ġescort": 23503,
    "sacrifice": 13490,
    "uck": 1232,
    "keel": 14127,
    "list": 7551,
    "Ġrhyme": 21979,
    "Ġferguson": 17468,
    "Ġplight": 14280,
    "Ġaxe": 15062,
    "Ġdisplaying": 16965,
    "Ġcounteracted": 19861,
    "Ġcous": 3433,
    "Ġsurmise": 12292,
    "Ġsame": 1346,
    "afford": 14653,
    "Ġuntouched": 16463,
    "Ġjump": 4503,
    "Ġrode": 15995,
    "Ġlar": 765,
    "Ġfounded": 8556,
    "Ġsympathy": 6346,
    "Ġshrieking": 24758,
    "historical": 20464,
    "week": 12927,
    "Ġalexander": 17422,
    "Ġwaylaid": 22872,
    "Ġmonotonically": 3833,
    "Ġsinusoid": 4780,
    "Ġawkward": 7073,
    "Ġsibbald": 21229,
    "Ġinstincts": 16985,
    "reposed": 24491,
    "Ġhorrors": 10478,
    "considerable": 10547,
    "Ġhappy": 2467,
    "Ġself": 1778,
    "Ġprofundity": 20451,
    "amore": 21841,
    "Ġsport": 6688,
    "ors": 853,
    "Ġiii": 7861,
    "run": 10720,
    "Ġeither": 2602,
    "Ġlydia": 2375,
    "swells": 26148,
    "iscuit": 10597,
    "Ġaffirm": 11884,
    "Ġxvi": 19104,
    "iable": 3332,
    "spite": 16134,
    "retired": 11933,
    "Ġbottled": 23793,
    "Ġcalendar": 18876,
    "Ġoutlandish": 12834,
    "Ġtemple": 7653,
    "Ġmixed": 6974,
    "Ġcrammed": 16469,
    "Ġprocedures": 9410,
    "Ġtil": 12520,
    "acters": 9307,
    "intu": 22931,
    "Ġunearthly": 9035,
    "attending": 18916,
    "Ġcircumnavigation": 20398,
    "Ġacquitted": 18897,
    "meadow": 18679,
    "Ġcripple": 11439,
    "Ġevap": 19622,
    "Ġdelighted": 5499,
    "Ġcoer": 22579,
    "Ġpermit": 9747,
    "Ġillustrations": 17107,
    "abond": 15737,
    "madly": 24419,
    "Ġnew": 1196,
    "Ġhurled": 10428,
    "Ġmystical": 12129,
    "Ġnameless": 7700,
    "inferior": 12391,
    "ĠĠĠ": 2115,
    "Ġsickness": 10537,
    "Ġexchanging": 18131,
    "Ġrecorded": 11292,
    "lydon": 13987,
    "Ġallured": 14123,
    "Ġimpenitent": 26547,
    "Ġcarcase": 14442,
    "Ġremo": 3784,
    "Ġenveloped": 12205,
    "Ġimmortality": 26325,
    "Ġaroused": 15895,
    "Ġdivided": 8631,
    "firmly": 20279,
    "alescence": 15921,
    "Ġdeem": 18133,
    "proceed": 8975,
    "silly": 24421,
    "Ġwr": 1544,
    "furn": 10090,
    "Ġsaddest": 16661,
    "polar": 24584,
    "Ġglassy": 19559,
    "Ġglobu": 23270,
    "sticking": 21652,
    "rised": 10122,
    "Ġstratag": 26028,
    "Ġbaboon": 19692,
    "onial": 11565,
    "Ġwhile": 607,
    "Ġfoundation": 4232,
    "Ġloun": 7166,
    "iarity": 8743,
    "Ġorthodox": 22091,
    "sailed": 17665,
    "Ġmil": 4254,
    "Ġmansion": 17809,
    "Ġcorn": 9348,
    "Ġimmut": 13295,
    "Ġnightmare": 18919,
    "Ġkey": 2102,
    "Ġhoarse": 14525,
    "Ġpleasantly": 14519,
    "united": 14058,
    "Ġcongenial": 12408,
    "Ġscra": 5840,
    "Ġoffices": 14336,
    "chari": 21687,
    "worthy": 7733,
    "Ġnoisy": 13316,
    "Ġfishers": 19352,
    "Ġpulled": 5660,
    "Ġmole": 11788,
    "Ġknock": 9971,
    "Ġapparel": 20434,
    "footed": 19688,
    "irene": 15911,
    "erson": 7002,
    "ancholy": 5070,
    "decan": 22140,
    "Ġorange": 8486,
    "Ġsubsequent": 7659,
    "Ġcautiously": 16976,
    "Ġprogeny": 17386,
    "Ġhadn": 9717,
    "lacing": 17589,
    "appo": 3914,
    "terday": 4704,
    "Ġthumb": 6981,
    "Ġimpassable": 20611,
    "ermaid": 14296,
    "Ġdeeply": 4716,
    "ĝ": 222,
    "Ġbressed": 21385,
    "hook": 12050,
    "Ġsaving": 15883,
    "Ġlee": 4223,
    "trans": 5593,
    "Ġuser": 15913,
    "Ġcomplain": 6685,
    "Ġtints": 17726,
    "Ġwrit": 8242,
    "oup": 2015,
    "Ġjudges": 14684,
    "itical": 5801,
    "Ġtresses": 21174,
    "gage": 13722,
    "Ġpassion": 4556,
    "unting": 21872,
    "Ġjuicy": 25370,
    "Ġnearing": 15794,
    "Ġdissect": 16050,
    "hemat": 3126,
    "Ġdisposition": 5409,
    "vapor": 25755,
    "Ġstreat": 15717,
    "Ġentreat": 4509,
    "Ġpowers": 5419,
    "Ġcomputes": 4767,
    "Ġwip": 13851,
    "owal": 13991,
    "Ġtalked": 4420,
    "Ġconsort": 18723,
    "attentions": 13572,
    "Ġtreatise": 19343,
    "Ġbride": 6291,
    "Ġprair": 7747,
    "ory": 1084,
    "Ġbulge": 23855,
    "Ġiv": 4046,
    "adow": 18087,
    "ged": 1513,
    "insupportable": 21192,
    "Ġbeauties": 10444,
    "ced": 694,
    "Ġpouring": 12620,
    "ak": 538,
    "Ġgir": 2256,
    "thesize": 24906,
    "hereditary": 26418,
    "ipper": 13738,
    "Ġramadan": 9574,
    "Ġcommunicates": 24546,
    "Ġinstruments": 12220,
    "nikin": 23248,
    "Ġambitious": 18514,
    "diff": 9112,
    "avery": 13681,
    "Ġcrimson": 16439,
    "Ġshuttle": 12123,
    "Ġengra": 7875,
    "worn": 13804,
    "sleepy": 24729,
    "Ġbrandy": 11048,
    "Ġpulpit": 7470,
    "important": 7112,
    "Ġmutter": 23951,
    "Ġhaving": 1880,
    "Ī": 235,
    "Ġaccumul": 1410,
    "Ġpat": 1744,
    "Ġenraged": 10243,
    "Ġspouting": 9437,
    "Ġunsocial": 18253,
    "Ġtransom": 22436,
    "Ġperf": 12845,
    "Ġpraying": 19553,
    "ounced": 4954,
    "eight": 9590,
    "Ġsodden": 25535,
    "Ġsow": 17748,
    "Ġinstances": 5567,
    "Ġwrath": 16315,
    "pen": 1204,
    "ario": 14246,
    "Ġmysteriously": 24602,
    "uning": 1312,
    "persecutor": 26528,
    "Ġaut": 1841,
    "Ġmari": 6813,
    "Ġfanning": 23388,
    "bered": 4504,
    "quin": 21851,
    "Ġtin": 15461,
    "Ġfriendship": 7246,
    "Ġthinner": 24181,
    "arab": 21440,
    "Ġdiv": 3731,
    "Ġmomentous": 16169,
    "Ġfingertips": 24014,
    "blacksmith": 17000,
    "Ġcrime": 4615,
    "Ġforcibly": 10059,
    "Ġhatches": 12042,
    "Ġreckless": 13456,
    "Ġminority": 18754,
    "Ġromans": 16758,
    "elab": 21568,
    "Ġposit": 1306,
    "indisc": 22371,
    "Ġtrial": 6634,
    "Ġlbs": 11613,
    "Ġaz": 9628,
    "Ġwindsor": 16886,
    "Ġque": 4160,
    "Ġdiggings": 24649,
    "Ġempire": 11143,
    "attest": 23119,
    "Ġmorbid": 16231,
    "Ġbaked": 21384,
    "Ġspiral": 14582,
    "Ġassertions": 19945,
    "Ġdared": 5440,
    "Ġconn": 9228,
    "figured": 20121,
    "Ġtreas": 7358,
    "Ġlionel": 25286,
    "Ġabsorbing": 17127,
    "[": 63,
    "ĠĠĠĠĠĠĠĠĠĠĠĠĠĠĠĠĠĠĠĠĠĠĠĠĠĠĠĠĠĠĠĠĠĠĠĠĠĠĠĠĠĠĠĠ": 12150,
    "Ġattach": 14292,
    "Ġpaling": 21461,
    "Ġsyllables": 25298,
    "Ġguilty": 7250,
    "ships": 5486,
    "Ġlace": 13947,
    "Ġcrowd": 6336,
    "Ġjonah": 3477,
    "Ġearnestly": 5979,
    "Ġdomin": 10467,
    "Ġhat": 2769,
    "Ġpulverize": 23391,
    "Ġremarking": 13122,
    "iz": 365,
    "Ġassail": 13059,
    "Ġrepresenting": 4062,
    "Ġinattention": 17931,
    "Ġlurking": 11288,
    "ortment": 22255,
    "Ġhesitation": 13439,
    "Ġescorted": 23504,
    "Ġsettlement": 19835,
    "Ġunerring": 15844,
    "Ġalleviated": 26203,
    "gul": 12462,
    "Ġconsole": 8151,
    "ortion": 11754,
    "Ġvestige": 20061,
    "Ġattachment": 6050,
    "widows": 25344,
    "Ġpresto": 22228,
    "ientific": 6547,
    "inarticulate": 21194,
    "Ġannual": 14830,
    "rooms": 10431,
    "Ġsubjected": 23569,
    "Ġplaid": 22602,
    "Ġafford": 4365,
    "shown": 22447,
    "Ġunquestion": 18245,
    "Ġplunged": 8692,
    "thirst": 15822,
    "attle": 4465,
    "vellers": 16672,
    "chased": 18041,
    "zek": 16268,
    "Ġmicha": 17811,
    "Ġfant": 9172,
    "Ġ/*": 10138,
    "Ġtrepidation": 19214,
    "Ġhosea": 17329,
    "Ġbordeaux": 24563,
    "kn": 5791,
    "Ġtechnical": 17190,
    "Ġtypically": 1537,
    "increas": 10453,
    "impressed": 12687,
    "dying": 10693,
    "igators": 18045,
    "owards": 4593,
    "Ġjohnson": 18409,
    "Ġlament": 7857,
    "butt": 15991,
    "venge": 4658,
    "Ġecstasy": 11628,
    "ons": 708,
    "Ġspong": 15878,
    "hill": 15360,
    "Ġredden": 15690,
    "Ġappetites": 20205,
    "inc": 2521,
    "wered": 2689,
    "Ġprestige": 22234,
    "Ġdependency": 3485,
    "Ġemblematical": 25788,
    "Ġstupidity": 15048,
    "Ġhoney": 12628,
    "Ġ100": 14363,
    "jud": 4481,
    "À": 129,
    "amuse": 14050,
    "ular": 712,
    "puzz": 17639,
    "Ġexceptions": 13227,
    "Ġinsolence": 20252,
    "Ġskul": 22793,
    "bless": 22310,
    "Ġdoublo": 6079,
    "Ġunsupp": 22017,
    "gradually": 12911,
    "Ġbasement": 24702,
    "Ġbrixton": 13661,
    "Ġmermaids": 26170,
    "Ġbenefits": 4286,
    "turbable": 24530,
    "hurrying": 14981,
    "Ġlowering": 7987,
    "conditional": 9077,
    "Ġhorses": 6385,
    "promising": 24726,
    "mile": 17596,
    "Ġwound": 4527,
    "chose": 18040,
    "Ġsign": 2497,
    "Ġthroats": 24574,
    "Ġpoultry": 17439,
    "Ġindirect": 18834,
    "Ġhauling": 14085,
    "puff": 21021,
    "Ġletters": 3791,
    "Ġweek": 2823,
    "._)": 10479,
    "minds": 24231,
    "Ġcalls": 6744,
    "innocent": 20285,
    "Ġmuchness": 18708,
    "powerful": 24847,
    "Ġmounttop": 19976,
    "Ġimplac": 24874,
    "Ġhypotheses": 4385,
    "emic": 18179,
    "Ġsuperflu": 14554,
    "Ġtrampling": 25492,
    "true": 2585,
    "Ġexalted": 12409,
    "occupation": 15057,
    "Ġway": 1088,
    "Ġdetermined": 2222,
    "Ġdreadful": 4920,
    "wail": 21124,
    "Ġunf": 4092,
    "Ġlogger": 11951,
    "Ġrivals": 20270,
    "Ġcolleague": 17158,
    "Ġravine": 18647,
    "Ġdocumentation": 20553,
    "Ġstaggered": 9537,
    "Ġmeridian": 25714,
    "Ġanswering": 7477,
    "Ġloveliness": 13606,
    "Ġwoke": 21288,
    "Ġruled": 22784,
    "withstanding": 8944,
    "holding": 7739,
    "Ġimaginative": 19246,
    "Ġstaff": 14004,
    "Ġtendinous": 16930,
    "Ġreturn": 1710,
    "Ġguise": 14430,
    "Ġimpartial": 15217,
    "Ġwhisper": 6205,
    "verb": 10215,
    "fairly": 17218,
    "Ġvenom": 24237,
    "Ġaction": 5796,
    "nades": 20996,
    "shipping": 10306,
    "Ġhammock": 5768,
    "pump": 21016,
    "Ġthinks": 6169,
    "Ġcompetent": 11813,
    "Ġpartially": 13120,
    "Ġprepare": 8646,
    "Ġexcessively": 9438,
    "spout": 7924,
    "Ġfriend": 1292,
    "Ġcopestone": 24936,
    "Ġresults": 7308,
    "Ġchinese": 14182,
    "ker": 5792,
    "nostril": 26558,
    "Ġgreenland": 5761,
    "Ġapplicable": 19010,
    "Ġgoverning": 2791,
    "seemingly": 25362,
    "Ġbestowed": 6593,
    "ich": 469,
    "ĠâĢĶâĢľ_": 17717,
    "Ġdash": 8122,
    "Ġfort": 2577,
    "Ġimpulsive": 19961,
    "Ġflit": 23004,
    "Ġmor": 1247,
    "Ġantip": 24176,
    "Ġexterm": 21827,
    "treated": 21093,
    "Ġexpansion": 22623,
    "Ġstop": 2503,
    "Ġchicha": 15933,
    "recover": 24623,
    "Ġguard": 6178,
    "Ġflog": 23622,
    "Ġannounced": 9033,
    "Ġappetite": 12381,
    "had": 1950,
    "Ġpenetrated": 13470,
    "aution": 9385,
    "Ġwhar": 7388,
    "Ġreigns": 21669,
    "omeness": 18022,
    "Ġpickle": 16721,
    "Ġ_": 840,
    "contempl": 13189,
    "bit": 3932,
    "pivot": 21030,
    "force": 12959,
    "Ġphr": 2681,
    "reproach": 15184,
    "pun": 9616,
    "Ġeyelashes": 26106,
    "clouded": 20330,
    "lier": 20948,
    "Ġvoids": 25807,
    "Ġass": 1505,
    "Ġbone": 4694,
    "Ġmortified": 14693,
    "Ġaccomplish": 14874,
    "behaved": 24462,
    "Ġstony": 21737,
    "Ġdepose": 22592,
    "Ġtug": 11549,
    "Ġcries": 7154,
    "Ġroute": 11380,
    "Ġbye": 12734,
    "Ġsell": 7826,
    "Ġdes": 1249,
    "ational": 5716,
    "Ġflung": 8562,
    "Ġphrenolog": 12331,
    "Ġveteran": 17448,
    "Ġmod": 497,
    "invol": 12526,
    "izz": 7614,
    "Ġmerged": 19296,
    "Ġell": 17714,
    "cles": 8725,
    "Ġdefiance": 11067,
    "Ġvale": 14080,
    "Ġgrievances": 20647,
    "step": 2457,
    "Ġblooming": 17211,
    "Ġviolation": 23404,
    "deceptive": 22147,
    "Ġcheerless": 16693,
    "eness": 2291,
    "Ġadvancing": 6878,
    "ĠĠĠĠĠĠĠĠĠĠĠĠĠĠĠĠ": 1219,
    "Ġheav": 1850,
    "Ġjunks": 25113,
    "Ġperplexed": 23657,
    "Ġattested": 22628,
    "Ġwhiting": 10858,
    "frankenstein": 11390,
    "questions": 16759,
    "Ġlibr": 15997,
    "Ġgrizz": 10350,
    "executed": 25739,
    "Ġcarpet": 9354,
    "Ġgodfre": 14528,
    "perishing": 22175,
    "Ġtrousers": 12412,
    "Ġfish": 2710,
    "Ġprojecting": 9983,
    "Ġunprincipled": 20707,
    "Ġdragg": 23216,
    "ousings": 18335,
    "Ġamiss": 18512,
    "Ġlingered": 13503,
    "Ġdiscours": 18718,
    "ullo": 12725,
    "Ġpursued": 6328,
    "Ġnoticed": 5548,
    "Ġpreference": 9731,
    "bol": 8717,
    "librarian": 26567,
    "Ġconfidence": 6590,
    "Ġgettest": 23232,
    "Ġregiment": 6432,
    "Ġsupervised": 3312,
    "iated": 5890,
    "Ġmethodically": 23118,
    "ist": 450,
    "shine": 9286,
    "python": 4691,
    "claimed": 9834,
    "dle": 3245,
    "Ġsap": 18323,
    "Ġprefer": 6416,
    "Ġcringing": 25941,
    "ostent": 16845,
    "Ġprinciples": 10009,
    "Ġherring": 14125,
    "Ġmile": 7151,
    "rowing": 7931,
    "Ġfrightened": 5341,
    "Ġfeasible": 22209,
    "clopÃ¦dia": 15254,
    "Ġoftentimes": 20154,
    "coffin": 10661,
    "Ġestate": 6316,
    "re": 266,
    "es": 288,
    "whale": 2140,
    "Ġmidday": 23632,
    "Ġdiffers": 23779,
    "Ġobserve": 4670,
    "atter": 648,
    "ids": 21761,
    "Ġcoldly": 14649,
    "Ġcountess": 11961,
    "Ġup": 463,
    "Ġbare": 6132,
    "smoking": 23908,
    "Ġpresumption": 10544,
    "carrying": 16712,
    "Ġcongrat": 5827,
    "D": 40,
    "!âĢĶâĢĻ": 23562,
    "shooting": 16964,
    "Ġsayest": 22776,
    "Ġprivileged": 20111,
    "Ġend": 1485,
    "Ġliving": 3060,
    "secret": 12233,
    "Ġdevices": 2939,
    "sockets": 22729,
    "Ġfaithful": 9501,
    "Ġdav": 15586,
    "Ġmuzzle": 21319,
    "Ġencl": 16162,
    "Ġdestination": 19149,
    "umes": 10916,
    "Ġunfathomable": 20547,
    "rels": 6664,
    "Ġevenness": 22833,
    "Ġcomplaint": 24776,
    "Ġzones": 22819,
    "Ġmoored": 11789,
    "Ġleaped": 8824,
    "Ġpure": 6137,
    "rene": 5379,
    "Ġrewarded": 14938,
    "Ġrevel": 9213,
    "Ġshares": 23244,
    "Ġdem": 11672,
    "Ġforgiveness": 16655,
    "Ġpew": 9313,
    "Ġactiv": 832,
    "Ġunstructured": 3002,
    "Ġroyals": 19531,
    "Ġfe": 491,
    "Ġplaintiffs": 13607,
    "Ġtrack": 7450,
    "Ġsur": 2184,
    "olet": 13764,
    "total": 17249,
    "Ġhardly": 2433,
    "Ġauger": 21202,
    "illustration": 2284,
    "Ġbalmy": 22899,
    "conside": 9288,
    "masters": 16833,
    "shut": 10979,
    "outs": 7008,
    "inously": 21185,
    "Ġfring": 11126,
    "Ġseeks": 14300,
    "Ġthreatens": 24374,
    "none": 6962,
    "Ġcrowder": 19454,
    "subtle": 24242,
    "Ġbark": 10797,
    "alogue": 25159,
    "Ġpipeline": 2275,
    "Ġagainst": 1697,
    "Ġmusic": 5268,
    "shudder": 26245,
    "Ġwhereupon": 14294,
    "Ġcomplacency": 19446,
    "Ġdus": 8423,
    "Ġsetting": 7046,
    "Ġ156": 20169,
    "resnet": 4071,
    "Ġshadowed": 24043,
    "Ġcruis": 14622,
    "pot": 10116,
    "reds": 12746,
    "Ġsubmerged": 11869,
    "Ġfluke": 14672,
    "emper": 18180,
    "ulance": 15763,
    "](": 11465,
    "ede": 21504,
    "degra": 22139,
    "uendoes": 26406,
    "brÃ¦": 11174,
    "Ġproud": 5654,
    "ize": 775,
    "Ġintu": 12759,
    "Ġwhale": 627,
    "ivened": 22963,
    "Ġjoyously": 19345,
    "Ġcurt": 18844,
    "Ġfrenchman": 11282,
    "Ġlawy": 9452,
    "Ġestimated": 16593,
    "riage": 2123,
    "repeating": 20127,
    "este": 15918,
    "gentleman": 7518,
    "Ġleaving": 3904,
    "aces": 2069,
    "Ġeuroclydon": 15294,
    "Ġunsc": 22010,
    "Ġviii": 16410,
    "Ġfru": 8420,
    "Ġstump": 7602,
    "Ġtastes": 15475,
    "frantic": 24282,
    "Ġpathways": 11152,
    "Ġwhereas": 3854,
    "Ġide": 2122,
    "Ġknitted": 19588,
    "Ġunjust": 8483,
    "Ġnoisier": 4624,
    "Ġrequires": 1037,
    "fifty": 12349,
    "Ġdashes": 21433,
    "Ġridic": 7508,
    "rud": 4191,
    "Ġassid": 18944,
    "Ġsneeze": 24699,
    "Ġscheme": 7064,
    "Ġempty": 5353,
    "Ġcompassionate": 24723,
    "mother": 5480,
    "antediluvian": 24345,
    "Ġinfancy": 10408,
    "Ġmysteries": 11321,
    "flakes": 23965,
    "Ġ19": 6719,
    "fts": 18696,
    "variance": 2656,
    "Ġtipped": 17727,
    "Ġdetect": 1244,
    "intern": 23734,
    "Ġleather": 7606,
    "Ġportcull": 23861,
    "asional": 17959,
    "Ġsuch": 795,
    "Ġrefers": 1567,
    "Ġnarratives": 24352,
    "Ġflush": 14422,
    "Ġillinois": 19136,
    "interests": 19707,
    "ishes": 6523,
    "Ġshovel": 23489,
    "Ġcotton": 17377,
    "Ġchannel": 26012,
    "._]]": 5334,
    "Ġordin": 16649,
    "Ġperformance": 1307,
    "rative": 17651,
    "belated": 24035,
    "Ġfiled": 15576,
    "spell": 22731,
    "Ġwhalebone": 10976,
    "red": 398,
    "Ġrighteous": 18945,
    "Ġtechnically": 12363,
    "Ġre": 317,
    "ino": 15477,
    "Ġvers": 7563,
    "pulous": 15414,
    "stars": 18016,
    "Ġmutilated": 23956,
    "Ġastonished": 7087,
    "americans": 25042,
    "Ġcircumspection": 25884,
    "Ġsuit": 5725,
    "fastened": 19324,
    "Ġlascar": 9198,
    "profess": 10633,
    "just": 1698,
    "usion": 3297,
    "thought": 3848,
    "Ġdisk": 22520,
    "Ġcircumn": 11980,
    "Ġsanity": 24981,
    "fig": 8734,
    "Ġrounded": 14437,
    "Ġimpet": 11776,
    "Ġmists": 14628,
    "Ġperish": 8873,
    "Ġlodge": 5779,
    "Ġundressed": 19512,
    "friendly": 13282,
    "ief": 2046,
    "iter": 4391,
    "Ġguilt": 6179,
    "Ġdollar": 25283,
    "Ġpricking": 23221,
    "iline": 21719,
    "Ġyoke": 18095,
    "Ġplanisphere": 26606,
    "rucastle": 22186,
    "Ġpint": 17909,
    "Ġdismissed": 12888,
    "Ġfatigue": 8697,
    "Ġbeside": 5192,
    "precaution": 23819,
    "gaz": 20877,
    "Ġrope": 4338,
    "Ġlunch": 13524,
    "Ġquitting": 7645,
    "Ġutil": 4672,
    "Ġrevealing": 3924,
    "Ġhers": 7890,
    "mod": 997,
    "ppo": 18175,
    "Ġtranquil": 7310,
    "morn": 20975,
    "Ġdebt": 12164,
    "Ġsleeve": 20139,
    "hated": 17560,
    "amous": 15757,
    "Ġhover": 15616,
    "Ġbengal": 18782,
    "aciously": 12903,
    "irous": 8837,
    "Ġsoothingly": 25047,
    "Ġeddies": 23436,
    "pity": 17626,
    "vering": 15712,
    "erpillar": 5797,
    "Ġploughing": 26259,
    "norm": 20984,
    "Ġdragged": 6889,
    "Ġswinging": 7449,
    "Ġseat": 4949,
    "inate": 6233,
    "mies": 20967,
    "Ġab": 528,
    "Ġcolumb": 22850,
    "Ġmuskets": 17055,
    "Ġpausing": 8652,
    "unching": 18158,
    "seventy": 10875,
    "Ġecc": 11626,
    "Ġlaborers": 19055,
    "Ġcondition": 6764,
    "Ġlowly": 11120,
    "unguarded": 23665,
    "ead": 2598,
    "innocence": 15181,
    "uneasy": 23681,
    "Ġsatirical": 26279,
    "Ġactual": 3737,
    "Ġbarb": 4530,
    "Ġmethodic": 23117,
    "Ġsocial": 7006,
    "Ġlearnt": 7613,
    "Ġrevellers": 21676,
    "pleasures": 24044,
    "retirement": 23137,
    "like": 1885,
    "Ġshillings": 15832,
    "carbuncle": 26381,
    "Ġplead": 14453,
    "ators": 7830,
    "Ġforth": 3458,
    "Ġly": 2269,
    "Ġsensibility": 14512,
    "Ġwhittling": 20698,
    "Ġthe": 270,
    "mira": 20978,
    "Ġdreading": 23796,
    "Ġsoften": 23123,
    "Ġconv": 2966,
    "Ġbedroom": 7277,
    "Ġmitig": 1340,
    "ateral": 19375,
    "skirted": 24488,
    "Ġsebastian": 11695,
    "itude": 1416,
    "Ġdisreputable": 22532,
    "Ġblessed": 6931,
    "readily": 19360,
    "!âĢĿâĢĶ": 8532,
    "Ġrichness": 19310,
    "Ġtemporarily": 11166,
    "scale": 3533,
    "igh": 2030,
    "Ġcomb": 1061,
    "Ġproportions": 16465,
    "discoloured": 23496,
    "Ġavowal": 19413,
    "Ġchief": 3379,
    "Ġeffects": 7236,
    "mat": 2200,
    "Ġdangling": 17173,
    "Ġandrew": 21505,
    "Ġown": 1009,
    "Ġflann": 23010,
    "oices": 7348,
    "Ġloosened": 26002,
    "Ġdisaster": 12883,
    "ouble": 2661,
    ",*": 17470,
    "Ġcost": 2507,
    "Ġinitial": 823,
    "Ġcombat": 16181,
    "Ġstam": 18065,
    "ĸ": 249,
    "suitableness": 26260,
    "Ġenticing": 22744,
    "rec": 6004,
    "bingley": 4927,
    "Ġbreaks": 13183,
    "Ġgems": 9207,
    "Ġadapted": 11034,
    "Ġsympathising": 24296,
    "Ġsafe": 5103,
    "collected": 13211,
    "charming": 15702,
    "Ġlasting": 18790,
    "Ġchry": 22244,
    "Ġtag": 15466,
    "Ġlabor": 10417,
    "Ġadmitted": 8985,
    "Ġflogged": 23624,
    "Ġasp": 15777,
    "Ġceaseless": 13486,
    "Ġincommod": 25307,
    "grant": 10426,
    "Ġlives": 4825,
    "justine": 7683,
    "Ġuntimely": 16464,
    "Ġincul": 22547,
    "entire": 6824,
    "Ġpuppy": 12402,
    "Ġadaptation": 3153,
    "Ġfragmentary": 25858,
    "Ġconsid": 1812,
    "effort": 19213,
    "Ġineffectual": 17382,
    "i": 77,
    "Ġsauce": 15886,
    "Ġcharacteristically": 23686,
    "hoped": 20909,
    "Ġevince": 24292,
    "everything": 6324,
    "Ġvit": 10244,
    "Ġungovernable": 20708,
    "sust": 15420,
    "Ġreverse": 16981,
    "Ġsounding": 8265,
    "Ġbeginning": 4243,
    "Ġunluck": 8484,
    "roof": 17953,
    "screw": 9345,
    "Ġtreated": 7080,
    "Ġtalk": 1972,
    "Ġbast": 21377,
    "tures": 21068,
    "dreadful": 11420,
    "Ġha": 400,
    "Ġuncompromised": 20602,
    "s": 87,
    "Ġsyntax": 956,
    "anting": 6412,
    "Ġstun": 11648,
    "Ġthink": 985,
    "Ġsable": 15498,
    "Ġpeeping": 16124,
    "Ġframe": 1968,
    "ð": 177,
    "Ġappropriated": 23483,
    "Ġbadge": 16682,
    "Ġdevotion": 22716,
    "Ġjealousy": 13574,
    "cceed": 4144,
    "dig": 4929,
    "Ġgardiners": 11156,
    "tree": 11532,
    "suffered": 24333,
    "ook": 21003,
    "gypt": 8261,
    "Ġdozen": 8186,
    "Ġgib": 13963,
    "Ġsmote": 18574,
    "Ġstained": 11650,
    "birth": 15320,
    "Ġeigen": 4881,
    "northern": 23663,
    "high": 6649,
    "chorus": 19810,
    "yn": 7820,
    "Ġrelied": 16192,
    "Ġat": 395,
    "Ġtrance": 12837,
    "Ġmasterless": 23992,
    "Ġslow": 2381,
    "despond": 19799,
    "Ġrecurring": 23231,
    "okingly": 22376,
    "treas": 17678,
    "Ġheh": 21678,
    "sustained": 20567,
    "Ġweig": 7618,
    "ody": 1479,
    "Ġaffectionately": 13166,
    "Ġcondescended": 19954,
    "Ġthoroughfares": 26095,
    "Ġrephr": 21677,
    "Ġwash": 9701,
    "sher": 5217,
    "Ġsecuring": 11988,
    "sw": 4740,
    "Ġconfess": 3766,
    "**:": 4736,
    "Ġcollege": 11423,
    "material": 13127,
    "Ġmetaphys": 16404,
    "Ġcounsell": 25384,
    "speak": 5504,
    "Ġcunning": 6238,
    "Ġfundamentals": 14633,
    "Ġcausal": 3407,
    "Ġheaviest": 23323,
    "flies": 19422,
    "Ġagreeing": 20017,
    "Ġdifferent": 1427,
    "Ġlucases": 9008,
    "inery": 17732,
    "Ġhandled": 12934,
    "Ġpow": 4637,
    "Ġfurthermore": 1172,
    "fourth": 11327,
    "ky": 4519,
    "Ġgaieties": 24194,
    "Ġrelics": 16193,
    "Ġdelivery": 18975,
    "Ġskylight": 24072,
    "awed": 10390,
    "Ġeasiness": 23533,
    "black": 6768,
    "mews": 22712,
    "setting": 13283,
    "Ġinnoc": 3793,
    "Ġval": 969,
    "ĠĠĠĠĠĠĠĠĠĠĠĠĠĠĠĠĠĠĠĠĠĠĠĠĠĠĠĠĠĠĠĠĠĠĠĠĠĠĠĠĠĠĠĠĠĠĠ": 16754,
    "shaven": 18491,
    "Ġarchitectures": 2907,
    "âĢĶâĢľ_": 13202,
    "Ġtables": 9876,
    "Ġpupella": 20420,
    "rebellum": 26165,
    "Ġrule": 1536,
    "opp": 6963,
    "Ġapproving": 18507,
    "warrant": 21136,
    "Ġappro": 655,
    "idable": 8146,
    "ix": 1800,
    "eler": 1573,
    "Ġintricate": 15135,
    "Ġdecreasing": 2444,
    "Ġgroans": 14822,
    "congratulations": 20278,
    "Ġbrief": 6976,
    "Ġrichest": 26211,
    "Ġdozing": 22241,
    "dar": 20823,
    "Ġunfulfilled": 26508,
    "Ġardour": 8043,
    "Ġmethodology": 2377,
    "new": 1467,
    "ooped": 17622,
    "rugg": 15899,
    "hospit": 25903,
    "Ġcivilised": 24243,
    "Ğ": 223,
    "misrepresented": 24210,
    "Ġpaced": 7583,
    "gen": 6503,
    "Ġplaced": 3440,
    "extric": 22760,
    "presented": 12988,
    "arranted": 19319,
    "ock": 15400,
    "nue": 15395,
    "Ġshoved": 23488,
    "next": 5892,
    "Ġwars": 17785,
    "Ġjest": 18403,
    "Ġlawless": 19433,
    "again": 3396,
    "Ġsnoo": 21227,
    "Ġdisabled": 18561,
    "Ġhooped": 23354,
    "Ġutterly": 6100,
    "Ġlecture": 13565,
    "Ġreduces": 2344,
    "Ġhighway": 14346,
    "tting": 17679,
    "Ġlichen": 20090,
    "Ġeucl": 24709,
    "Ġbecause": 2211,
    "Ġfifth": 11256,
    "Ġdistressed": 8514,
    "antic": 1607,
    "Ġbennett": 16322,
    "Ġcups": 16881,
    "crack": 19839,
    "children": 9054,
    "Ġskil": 14349,
    "Ġwarring": 16864,
    "âĢľâĢĶ": 10871,
    "Ġeternity": 12275,
    "Ġcorps": 13029,
    "Ġfurlong": 18740,
    "thur": 7188,
    "Ġshift": 2283,
    "Ġimplicate": 24876,
    "Ġcoincid": 20316,
    "Ġhurling": 19110,
    "Ġdepos": 11003,
    "Ġflock": 21410,
    "igin": 3654,
    "Ġwallet": 21297,
    "Ġtierce": 15476,
    "Ġcommun": 1705,
    "Ġhereford": 22877,
    "Ġunden": 22009,
    "Ġwatches": 11080,
    "icorn": 15653,
    "ivery": 17571,
    "Ġbuilding": 8063,
    "heavily": 24533,
    "breathing": 25335,
    "awe": 20764,
    "Ġfavour": 3639,
    "Ġfullest": 14812,
    "unks": 15771,
    "shoals": 24717,
    "Ġsuffers": 2970,
    "Ġbegged": 8231,
    "ssing": 3807,
    "abil": 2008,
    "Ġgips": 10840,
    "Ġshank": 21995,
    "Ġmat": 1149,
    "Ġjurors": 17342,
    "Ġfaintest": 24568,
    ".": 18,
    "fulfil": 16037,
    "Ġcommotion": 9778,
    "Ġaltogether": 4831,
    "flaming": 23967,
    "Ġdisappointed": 7097,
    "Ġpunctually": 17137,
    "ercial": 21273,
    "Ġtenants": 23543,
    "Ġstartling": 14669,
    "Ġprogrammed": 11056,
    "Ġ200": 19295,
    "anguish": 15980,
    "Ġbub": 8118,
    "Ġinject": 2711,
    "entieth": 17978,
    "with": 1293,
    "failed": 20862,
    "declared": 15116,
    "agger": 7873,
    "Ġchink": 15929,
    "Ġmurderers": 16810,
    "Ġoccurrences": 11049,
    "Ġbarricade": 14659,
    "Ġaggregate": 25677,
    "Ġupbraided": 26527,
    "Ġminutely": 14560,
    "Ġwar": 5526,
    "Ġminiatures": 20320,
    "wn": 722,
    "Ġconsiderable": 4006,
    "xter": 9145,
    "Ġdiffer": 18677,
    "Ġearly": 2079,
    "ancient": 9654,
    "Ġgulf": 10634,
    "Ġimpulsively": 24880,
    "Ġurging": 24501,
    "Ġnatives": 17950,
    "ached": 2323,
    "volutional": 1935,
    "Ġhearth": 11978,
    "ivil": 6411,
    "Ġpursue": 6314,
    "Ġrecourse": 22739,
    "Ġton": 15462,
    "vell": 3959,
    "Ġkins": 22192,
    "ntax": 936,
    "Ġimprudent": 12844,
    "answer": 11729,
    "Ġarise": 7897,
    "Ġbeatrix": 24203,
    "Ġburning": 5977,
    "irt": 3074,
    "Ġbites": 23741,
    "/(": 2978,
    "Ġequal": 4137,
    "akes": 2219,
    "Ġhelmsman": 10503,
    "affections": 17355,
    "ather": 740,
    "Ġgrown": 5628,
    "Ġ179": 19753,
    "Ġnarrowly": 16819,
    "george": 26019,
    "Ġchiswick": 25560,
    "Ġbur": 2697,
    "advance": 12153,
    "Ġdo": 510,
    "¯": 112,
    "Ġscal": 1507,
    "Ġexpans": 18621,
    "Ġprotecting": 24686,
    "instances": 13317,
    "Ġpapers": 4020,
    "Ġkeeled": 18805,
    "Ġcreation": 6439,
    "Ġwooden": 4729,
    "etah": 12657,
    "Ġsanguinary": 25929,
    "audible": 17131,
    "Ġaval": 15491,
    "love": 9292,
    "Ġanticipated": 13509,
    "Ġarmada": 23579,
    "³": 116,
    "missed": 11208,
    "Ġwollstonecraft": 26424,
    "enge": 21279,
    "trampled": 26333,
    "Ġjustification": 22964,
    "Ġcongratulate": 9062,
    "Ġjournal": 15216,
    "Ġkeen": 4612,
    "Ġyoked": 15731,
    "Ġscore": 9736,
    "Ġlurch": 21553,
    "Ġbestowing": 16970,
    "Ġimmens": 9937,
    "cous": 8721,
    "Ġsavi": 18325,
    "Ġnational": 13940,
    "Ġperchance": 15988,
    "ribs": 23364,
    "Ġhugh": 15003,
    "Ġgreen": 3050,
    "Ġdaintiest": 25953,
    "Ġsuspicious": 9478,
    "noticed": 14339,
    "Ġnation": 12643,
    "mouse": 15390,
    "Ġpo": 737,
    "Ġslumber": 13056,
    "hess": 4746,
    "Ġlatitude": 8329,
    "Ġinvention": 19951,
    "Ġcreditor": 24289,
    "Ġliveliness": 13641,
    "Ġtesting": 23209,
    "horse": 8605,
    "barb": 10079,
    "Ġenriched": 26498,
    "Ġrevive": 13477,
    "neural": 3063,
    "otence": 14021,
    "story": 9211,
    "Ġglimpse": 6944,
    "othe": 2613,
    "icking": 8909,
    "Ġcrocod": 19627,
    "tenderly": 20529,
    "vag": 8764,
    "Ġspare": 5102,
    "simp": 17664,
    "Ġgout": 21594,
    "Ġwalked": 3138,
    "Ġspitz": 14147,
    "Ġblindly": 12106,
    "mine": 5617,
    "Ġrambling": 18644,
    "mediate": 16511,
    "Ġbloodthirsty": 26600,
    "achines": 1723,
    "Ġhast": 3148,
    "lizzy": 6651,
    "Ġlagged": 21556,
    "empl": 5724,
    "burg": 16772,
    "ollen": 11297,
    "Ġhearken": 21683,
    "Ġsecure": 4912,
    "cked": 2760,
    "Ġbuckskin": 19950,
    "Ġisle": 8831,
    "Ġnovels": 15926,
    "aloons": 20009,
    "Ġord": 3735,
    "unwholesome": 26496,
    "Ġwiser": 14728,
    "Ġpain": 2303,
    "Ġitems": 9690,
    "'d": 12424,
    "Ġtort": 5902,
    "Ġkings": 7197,
    "Ġinexorable": 12252,
    "Ġcheetah": 14502,
    "Ġprophesied": 26062,
    "shirt": 22451,
    "Ġshock": 6083,
    "Ġsystematically": 4025,
    "Ġplates": 11006,
    "eminently": 25105,
    "Ġbending": 12581,
    "Ġreproach": 9555,
    "Ġrestricted": 19026,
    "Ġdisquis": 22525,
    "Ġmich": 21304,
    "Ġadmire": 5263,
    "Ġpitiable": 9912,
    "Ġmilliner": 19883,
    "ations": 709,
    "Ġfowler": 16936,
    "Ġmo": 628,
    "Ġrecovered": 5481,
    "Ġmorcar": 13007,
    "Ġamateur": 22483,
    "Ġconducting": 16648,
    "Ġwhites": 21715,
    "attempted": 20173,
    "Ġstat": 1493,
    "Ġshall": 1143,
    "Ġroof": 6564,
    "lection": 3650,
    "mur": 5428,
    "ourney": 3551,
    "Ġsunshine": 14493,
    "Ġsnug": 8280,
    "Ġgood": 1004,
    "meas": 7434,
    "Ġlighting": 13080,
    "inct": 3289,
    "Ġcountenance": 3971,
    "squ": 7810,
    "Ġperturbation": 20439,
    "ude": 7562,
    "Ġjoke": 8867,
    "ropes": 7905,
    "Ġuppermost": 15276,
    "Ġrambled": 20167,
    "band": 3056,
    "Ġtawn": 13821,
    "Ġtoo": 1167,
    "Ġtender": 5753,
    "approb": 11042,
    "dozen": 23376,
    "Ġextravag": 11252,
    "Ġtenderest": 23546,
    "Ġlikelihood": 16498,
    "athans": 7433,
    "urious": 21701,
    "Ġcorrupt": 11920,
    "Ġcurtain": 14410,
    "me": 877,
    "idol": 21764,
    "rather": 5430,
    "ommod": 13979,
    "err": 1142,
    "itals": 17820,
    "Ġaccorded": 24088,
    "Ġtahit": 10753,
    "scythes": 26401,
    "ost": 5360,
    "Ġtrusty": 24104,
    "Ġstorm": 4300,
    "ubines": 22957,
    "Ġdragon": 14942,
    "Ġdireful": 11017,
    "Ġrelinquish": 17345,
    "))": 1516,
    "Ġswears": 16461,
    "Ġbackground": 18653,
    "Ġunexpl": 22035,
    "Ġinhuman": 13927,
    "Ġunc": 2124,
    "ĠĠĠĠĠĠĠĠĠĠĠĠĠĠĠĠĠĠĠĠĠĠĠĠĠĠĠĠĠĠĠĠĠĠĠĠĠ": 14613,
    "Ġchin": 4891,
    "Ġinstantly": 3589,
    "pr": 3171,
    "Ġagric": 22513,
    "Ġfire": 2334,
    "atherley": 7220,
    "canoes": 16227,
    "Ġitself": 2522,
    "Ġflaming": 8563,
    "resemblance": 25933,
    "prospect": 23394,
    "Ġheaps": 11640,
    "Ġcig": 6520,
    "Ġkettle": 26232,
    "rough": 588,
    "Ġunlabeled": 3798,
    "uting": 15656,
    "stud": 8818,
    "advanced": 19587,
    "Ġprinces": 23222,
    "stretching": 20497,
    "Ġdoth": 13906,
    "Ġleg": 2336,
    "Ġintervened": 25481,
    "Ġdong": 17887,
    "uling": 2258,
    "Ġcontrasting": 11153,
    "Ġdistillation": 16042,
    "Ġcowards": 12569,
    "phren": 22768,
    "Ġsenseless": 12075,
    "Ġteaching": 10363,
    "Ġnecessary": 4472,
    "burnt": 20078,
    "Ġcate": 4111,
    "Ġspence": 22124,
    "ipotent": 10958,
    "beheaded": 22490,
    "Ġintrig": 21988,
    "antique": 18288,
    "beards": 22488,
    "Ġminiature": 11040,
    "sir": 5001,
    "tol": 17671,
    "Ġadmit": 7711,
    "tr": 3577,
    "_:": 17477,
    "Ġmult": 1025,
    "ria": 15795,
    "feit": 16038,
    "Ġcorroded": 18875,
    "urable": 8925,
    "iew": 2447,
    "Ġclung": 10955,
    "Ġyoun": 1407,
    "Ġmaze": 23828,
    "hum": 3777,
    "Ġinconceivable": 17937,
    "Ġilluminating": 25245,
    "masculine": 24386,
    "Ġrept": 13981,
    "hush": 20905,
    "andy": 8158,
    "ounding": 22390,
    "halloa": 17089,
    "nav": 17610,
    "Ġstarvation": 19790,
    "Ġfinancier": 26582,
    "Ġemployed": 5200,
    "Ġvon": 14079,
    "neglect": 25668,
    "Ġdeclined": 9919,
    "Ġcustoms": 19651,
    "Ġindia": 10369,
    "Ġlocked": 6035,
    "monkey": 19169,
    "Ġspilling": 22135,
    "aurus": 20559,
    "heed": 15496,
    "Ġpent": 17903,
    "passenger": 24165,
    "ographical": 16785,
    "Ġbony": 12583,
    "Ġhierarchical": 1926,
    "Ġsubord": 22786,
    "escript": 18470,
    "Ġrelief": 6060,
    "isation": 13891,
    "ŀ": 257,
    "Ġethere": 23948,
    "Ġthursday": 12640,
    "Ġdiffered": 22709,
    "others": 7670,
    "Ġcasks": 7521,
    "Ġelder": 7223,
    "Ġarabic": 24980,
    "Ġpy": 21450,
    "ance": 478,
    "Ġindist": 14406,
    "Ġtechnique": 2486,
    "Ġnarrating": 24350,
    "Ġdears": 18136,
    "manned": 18762,
    "oon": 6364,
    "Ġwalks": 8965,
    "Ġnights": 7258,
    "Ġequin": 14494,
    "clouds": 25496,
    "Ġfestoon": 20293,
    "rote": 4591,
    "cheered": 23803,
    "ear": 8730,
    "singing": 24362,
    "Ġreced": 15688,
    "ge": 559,
    "latitude": 25259,
    "Ġlengths": 19205,
    "Ġhopes": 4234,
    "Ġshabby": 14109,
    "Ġrigging": 5600,
    "Ġequilib": 4138,
    "Ġpossessed": 5195,
    "Ġtwist": 11848,
    "Ġsleek": 23382,
    "jointed": 24007,
    "Ġinsufferable": 13929,
    "Ġgrego": 18962,
    "adru": 15727,
    "Ġhooks": 14966,
    "Ġexcuses": 19038,
    "Ġproclaim": 18130,
    "Ġdestro": 3722,
    "Ġdocuments": 10021,
    "dred": 2527,
    "Ġswift": 3667,
    "Ġwindigate": 18910,
    "Ġexpands": 25237,
    "Ġstudded": 18973,
    "temper": 10002,
    "japan": 15372,
    "Ġsympathies": 14859,
    "Ġblock": 2573,
    "Ġfergus": 16871,
    "5": 25,
    "housekeeping": 24102,
    "introdu": 8936,
    "Ġtempestuous": 20069,
    "Ġbritish": 11336,
    "blown": 25201,
    "Ġsurpassed": 25267,
    "Ġplanks": 5563,
    "Ġtumult": 7114,
    "Ġdripping": 13145,
    "gloom": 17138,
    "Ġrequirements": 9792,
    "Ġportrait": 10660,
    "Ġxxxvi": 24971,
    "Ġreprehensible": 15695,
    "Ġbecher": 18878,
    "Ġhumbug": 18779,
    "troubled": 17111,
    "Ġorphans": 20203,
    "Ġbalm": 22898,
    "Ġdivineness": 25724,
    "Ġcrosses": 23060,
    "clean": 14759,
    "consist": 14814,
    "Ġincognit": 22552,
    "Ġtrif": 6269,
    "Ġbreckinridge": 14522,
    "Ġcope": 17830,
    "Ġinspirited": 23419,
    "Ġ30": 10510,
    "Ġdistricts": 20262,
    "Ġpool": 5173,
    "Ġleisure": 6539,
    "Ġpurplish": 19140,
    "Ġindign": 6173,
    "Ġpinch": 15015,
    "Ġaddressed": 5262,
    "frightened": 17194,
    "Ġtremor": 24768,
    "Ġpartner": 6714,
    "animated": 14973,
    "Ġmurky": 19201,
    "Ġaspects": 4175,
    "verest": 13989,
    "Ġtall": 4040,
    "Ġindisp": 18833,
    "announcement": 24561,
    "uzz": 4523,
    ",âĢĿâĢĶ": 14212,
    "Ġsprung": 11247,
    "Ġsuperiors": 23454,
    "uv": 6229,
    "Ġdriven": 6198,
    "pper": 3208,
    "Ġbubbling": 17324,
    "iff": 3905,
    "inces": 13826,
    "amongst": 24672,
    "ppa": 10238,
    "Ġblackness": 9391,
    "Ġcumberland": 21353,
    "Ġresource": 10992,
    "Ġpatent": 11957,
    "Ġepidemic": 20694,
    "vicious": 21117,
    "âĢľ_": 5720,
    "Ġsteal": 16280,
    "Ġsurv": 6082,
    "Ġres": 697,
    "Ġruggedness": 26268,
    "Ġdeity": 18134,
    "Ġbab": 5289,
    "Ġstates": 1851,
    "dance": 17518,
    "sac": 7140,
    "miserably": 24209,
    "Ġwoodcock": 19162,
    "likeness": 19476,
    "Ġoutput": 930,
    "ly": 319,
    "umbers": 10917,
    "Ġreplace": 14475,
    "Ġcruel": 5121,
    "Ġcanallers": 13625,
    "Ġwithout": 1121,
    "rem": 1521,
    "Ġfl": 1276,
    "Ġstript": 23689,
    "Ġkneeling": 12139,
    "Ġcompiled": 22568,
    "Ġcorp": 5574,
    "Ġcontemptuous": 24676,
    "Ġberries": 13405,
    "oried": 10801,
    "Ġgoin": 18468,
    "Ġsevere": 6032,
    "Ġfabric": 25947,
    "Ġsociable": 19401,
    "Ġ122": 24466,
    "Ġfacet": 15581,
    "ap": 546,
    "Ġdeserts": 10506,
    "Ġnibbling": 17383,
    "ium": 4864,
    "Ġsy": 486,
    "hamed": 6305,
    "Ġappellation": 22215,
    "Ġnursed": 16884,
    "Ġlun": 7856,
    "Ġjets": 10286,
    "Ġlat": 5087,
    "Ġkeeping": 7283,
    "Ġwhir": 6393,
    "Ġpotency": 14645,
    "Ġobeisance": 19757,
    "Ġpartial": 2129,
    "Ġmelted": 19620,
    "Ġproducing": 11896,
    "Ġpreservation": 24631,
    "\":": 9580,
    "Ġsmoothe": 23654,
    "Ġdistension": 22503,
    "itheat": 21336,
    "iece": 3227,
    "Ġpasseng": 12967,
    "Ġferocity": 16870,
    "mastod": 23971,
    "Ġsingled": 23770,
    "Ġdrows": 21434,
    "romised": 14110,
    "reproof": 25432,
    "founded": 16713,
    "Ġactively": 18652,
    "shape": 10981,
    "inition": 11555,
    "gno": 13725,
    "Ġameric": 3853,
    "Ġdefect": 8554,
    "construction": 19777,
    "Ġmaterial": 5178,
    "Ġmind": 1622,
    "Ġcentaurs": 23830,
    "Ġsolace": 16197,
    "Ġdisregard": 22526,
    "Ġobeying": 13412,
    "Ġpairs": 4182,
    "inglass": 21301,
    "Ġcommentaries": 20159,
    "duty": 20238,
    "Ġfollowed": 1794,
    "Ġpeasant": 13549,
    "Ġadventurous": 16732,
    "Ġcommendation": 13608,
    "binnacle": 20786,
    "firm": 10697,
    "Ġconnection": 5479,
    "refusal": 24736,
    "Ġsimulates": 2738,
    "Ġabundance": 17154,
    "Ġcoleridge": 18765,
    "Ġshirt": 8847,
    "preced": 10308,
    "Ġweary": 5635,
    "Ġparts": 4166,
    "athed": 7829,
    "ulating": 10886,
    "Ġconfounded": 16381,
    "pire": 9134,
    "Ġepicures": 25880,
    "chan": 1140,
    "cher": 5786,
    "rab": 7596,
    "pertaining": 22177,
    "blubber": 15234,
    "embraces": 25803,
    "pudding": 17646,
    "Ġbiological": 1933,
    "Ġfang": 21401,
    "Ġpalpitated": 26085,
    "abeth": 905,
    "Ġimpressed": 8199,
    "Ġamel": 18510,
    "Ġaccurate": 13265,
    "Ġdrew": 3535,
    "Ġmans": 15533,
    "scales": 22992,
    "Ġwalk": 1825,
    "whilst": 18371,
    "blame": 14792,
    "Ġcourt": 4170,
    "irty": 4051,
    "Ġmarty": 20289,
    "cocks": 23557,
    "ominy": 13980,
    "Ġfilial": 16619,
    "Ġbenjam": 22888,
    "Ġwherefore": 8524,
    "Ġincorporate": 20453,
    "approve": 19935,
    "Ġsang": 12531,
    "Ġsupport": 6728,
    "Ġbreathing": 9443,
    "remembrance": 25702,
    "dances": 17520,
    "Ġmot": 2981,
    "Ġsagacity": 16973,
    "inked": 12909,
    "tained": 4405,
    "ersman": 11699,
    "nine": 13759,
    "Ġwhaler": 7520,
    "Ġcrisis": 13124,
    "direful": 25896,
    "Ġanecdote": 26354,
    "understood": 13214,
    "Ġenergies": 25459,
    "Ġtemperature": 1007,
    "Ġ28": 19294,
    "Ġdocument": 15017,
    "Ġreflections": 5946,
    "ther": 482,
    "Ġobservation": 6597,
    "Ġpermanently": 25473,
    "Ġfeebly": 24877,
    "Ġbaleful": 24984,
    "tenham": 16319,
    "gunwale": 20662,
    "bet": 6109,
    "Ġbluish": 23648,
    "Ġtraffic": 23081,
    "Ġspect": 3550,
    "Ġmask": 1865,
    "Ġuse": 794,
    "Ġexult": 10228,
    "Ġanxious": 4517,
    "Ġblasp": 14399,
    "Ġintrepidity": 25550,
    "wore": 21123,
    "Ġinvisibly": 24817,
    "Ġbargain": 23790,
    "Ġhorse": 4724,
    "50": 6784,
    "distant": 13332,
    "Ġelapsed": 7652,
    "Ġdist": 680,
    "Ġharpooning": 23976,
    "Ġsoo": 15858,
    "Ġhumorous": 10359,
    "Ġheaped": 18037,
    "Ġcapabilities": 4376,
    "cept": 557,
    "Ġwhistles": 24625,
    "Ġuncles": 23429,
    "spoken": 11858,
    "Ġcord": 5222,
    "Ġcosmopolitan": 20640,
    "vap": 13801,
    "sax": 21055,
    "Ġslumbering": 25701,
    "sort": 6798,
    "doc": 23374,
    "stupid": 12671,
    "rudential": 16709,
    "Ġbulkhead": 24507,
    "Ġdespondence": 25869,
    "success": 6710,
    "Ġdownstairs": 11223,
    "Ġancestors": 25642,
    "Ġgiant": 13966,
    "Ġshore": 4834,
    "name": 6795,
    "Ġchick": 22245,
    "Ġbrim": 12972,
    "hester": 9630,
    "Ġimproved": 7656,
    "Ġreceptacle": 23190,
    "untering": 15772,
    "Ġmildness": 9942,
    "Ġtraverse": 18889,
    "Ġterminated": 23507,
    "miraculous": 26395,
    "Ġgenerator": 3380,
    "Ġinflex": 20633,
    "Ġdemanding": 16804,
    "oir": 21001,
    "seized": 14033,
    "Ġapprovingly": 26250,
    "Ġinterview": 9768,
    "Ġgrandeur": 8627,
    "Ġcrust": 21349,
    "Ġriots": 23890,
    "Ġhints": 8430,
    "Ġroad": 3881,
    "Ġusual": 3943,
    "pol": 5893,
    "Ġrom": 4524,
    "Ġdirty": 9177,
    "Ġattached": 5392,
    "lascar": 20959,
    "Ġtwitching": 25683,
    "quake": 11678,
    "Ġportcullis": 26602,
    "Ġoars": 3897,
    "aneously": 4061,
    "Ġinvested": 7279,
    "entions": 17974,
    "Ġswerve": 14436,
    "Ġstreet": 2955,
    "Ġagatha": 6866,
    "Ġwildness": 14602,
    "owder": 8448,
    "Ġcontrivances": 12354,
    "grat": 5052,
    "avenue": 25057,
    "Ġdistress": 5844,
    "Ġyourself": 2592,
    "Ġetc": 7084,
    "Ġdir": 21420,
    "Ġdusty": 14923,
    "Ġpawnbroker": 13656,
    "lers": 10105,
    "Ġlamps": 14789,
    "darkened": 24513,
    "Ġbeam": 2878,
    "Ġgermans": 25784,
    "employed": 17260,
    "Ġelaborate": 18635,
    "Ġimpressions": 9551,
    "Ġshades": 9461,
    "Ġinhale": 20299,
    "Ġtransaction": 22437,
    "wreck": 21135,
    "lounged": 26133,
    "Ġtrembled": 8701,
    "Ġemper": 9859,
    "vanished": 15061,
    "countless": 24149,
    "Ġwest": 5219,
    "Ġasse": 8160,
    "æ": 167,
    "Ġcherry": 16934,
    "acon": 10680,
    "Ġceases": 19312,
    "propriety": 14375,
    "claim": 9833,
    "Ġribbed": 16803,
    "Ġtyp": 1130,
    "uge": 4015,
    "Ġottoman": 17376,
    "Ġmowers": 17812,
    "ina": 21178,
    "garity": 17553,
    "Ġrelinqu": 12979,
    "Ġlesson": 7276,
    "ellations": 21942,
    "fashioned": 9569,
    "Ġfre": 1572,
    "Ġproposed": 7460,
    "ened": 1386,
    "successfully": 14989,
    "Ġcarelessness": 13073,
    "Ġantagon": 19549,
    "Ġhelp": 1642,
    "Ġdolph": 12377,
    "exp": 2736,
    "Ġexposed": 8522,
    "Ġsig": 868,
    "swed": 24252,
    "Ġsigh": 10335,
    "pect": 1253,
    "Ġlethar": 21744,
    "riving": 21929,
    "n": 82,
    "suspicions": 25391,
    "Ġrecall": 3855,
    "string": 15681,
    "Ġphrensy": 25124,
    "Ġroundabout": 23059,
    "Ġcontro": 1686,
    "eed": 20840,
    "companies": 24894,
    "Ġcomputing": 2220,
    "joint": 24006,
    "Ġease": 5629,
    "Ġreckoning": 14977,
    "Ġopened": 3510,
    "Ġrenewal": 12231,
    "Ġhospitals": 24923,
    "Ġerection": 23998,
    "26": 10071,
    "ryphon": 4164,
    "Ġmerc": 9424,
    "Ġfathoms": 9082,
    "Ġdisappointment": 6626,
    "Ġ59": 24326,
    "Ġgri": 17987,
    "Ġriddles": 16731,
    "Ġlistened": 4468,
    "Ġreligion": 11414,
    "Ġmeasurement": 19421,
    "manners": 16180,
    "Ġroared": 7023,
    "Ġcave": 10784,
    "skeleton": 17374,
    "ctor": 13958,
    "Ġscale": 1549,
    "gentlemanlike": 20000,
    "frost": 15104,
    "totally": 25417,
    "Ġwilt": 9642,
    "Ġhunts": 23157,
    "Ġsore": 10763,
    "solely": 19815,
    "ufactured": 15179,
    "schoolmaster": 15159,
    "anations": 12572,
    "among": 6256,
    "icest": 21562,
    "Ġmusty": 22678,
    "Ġviol": 2072,
    "Ġjoys": 13217,
    "Ġconstruct": 23341,
    "pool": 16206,
    "Ġpos": 1013,
    "thoroughly": 26507,
    "ravity": 21633,
    "Ġgleamed": 17076,
    "ants": 1389,
    "Ġadagrad": 2901,
    "Ġquietly": 4566,
    "Ġapply": 1777,
    "Ġundersampling": 19517,
    "itud": 2929,
    "Ġsought": 5010,
    "armed": 7252,
    "Ġbranches": 6776,
    "clad": 14458,
    "Ġgratify": 19501,
    "path": 10117,
    "partiality": 13158,
    "Ġtusked": 25426,
    "endous": 6850,
    "desol": 13065,
    "Ġtoad": 21508,
    "Ġprogen": 14037,
    "Ġsalisbury": 24063,
    "Ġfrayed": 23314,
    "utch": 21584,
    "Ġdespairing": 14772,
    "Ġextraction": 11251,
    "Ġcharms": 11129,
    "Ġserpent": 6737,
    "imprisonment": 23760,
    "Ġcouples": 16851,
    "oky": 8198,
    "Ġwhal": 5454,
    "Ġgraze": 18226,
    "wrapped": 15207,
    "Ġeverywhere": 9794,
    "depart": 12262,
    "Ġwhitt": 18054,
    "confidential": 25876,
    "Ġpondered": 15164,
    "Ġkindness": 4099,
    "chemical": 23806,
    "--------": 14779,
    "slow": 7811,
    "Ġmanly": 22322,
    "revenge": 13840,
    "Ġflanks": 11911,
    "lies": 15379,
    "Ġsquaw": 22837,
    "ued": 7561,
    "Ġminimax": 5858,
    "owners": 16084,
    "95": 17476,
    "Ġvery": 637,
    "Ġimprudence": 10296,
    "benevolent": 15231,
    "Ġattained": 14076,
    "convolutional": 4958,
    "Ġapprehens": 5682,
    "Ġdefendants": 15138,
    "Ġdrooping": 9418,
    "uch": 876,
    "alizing": 17939,
    "provid": 11148,
    "Ġsheet": 6262,
    "Ġquite": 1740,
    "ource": 5243,
    "Ġdefend": 9338,
    "Ġknees": 6928,
    "Ġsuspicion": 6211,
    "should": 3259,
    "over": 1846,
    "remes": 21236,
    "sudden": 5315,
    "Ġelias": 18633,
    "õ": 182,
    "Ġcelestial": 10065,
    "Ġcompassion": 6487,
    "hear": 10145,
    "growing": 13731,
    "Ġsacr": 7194,
    "apidated": 22334,
    "Ġaudacity": 19881,
    "Ġpervers": 11780,
    "Ġstrata": 26027,
    "Ġwept": 7184,
    "Ġcapsized": 20088,
    "Ġjen": 9266,
    "Ġtrib": 13817,
    "Ġrmsprop": 3352,
    "Ġsimilarly": 24307,
    "Ġshowed": 4496,
    "Ġlustre": 15132,
    "calm": 8933,
    "Ġtrifled": 24674,
    "Ġimpetuously": 20370,
    "Ġtren": 17720,
    "Ġg": 310,
    "ashions": 16415,
    "lance": 12478,
    "ress": 931,
    "Ġlikely": 3595,
    "Ġf": 283,
    "Ġsupercil": 23453,
    "Ġapparently": 6778,
    "Ġcouns": 10519,
    "Ġanchors": 12609,
    "Ġalche": 21781,
    "article": 22392,
    "Ġlights": 8959,
    "Ġsperm": 1843,
    "Ġpul": 2041,
    "Ġconquered": 14024,
    "Ġmule": 13860,
    "Ġbreeding": 14521,
    "Ġantichron": 24180,
    "Ġpitched": 9442,
    "izer": 2031,
    "Ġdiversion": 17196,
    "gladness": 25194,
    "icating": 15651,
    "Ġluck": 4880,
    "Ġoffers": 12942,
    "Ġmeddling": 24082,
    "Ġtaffrail": 15474,
    "omen": 4089,
    "Ġmogul": 12858,
    "Ġund": 4121,
    "Ġbapt": 13894,
    "albatross": 15626,
    "rush": 7010,
    "Ġcrouched": 23440,
    "ena": 11566,
    "Ġjoining": 13162,
    "Ġinterpre": 1593,
    "85": 13679,
    "Ġimplement": 2997,
    "sip": 10724,
    "Ġswam": 6448,
    "Ġhipp": 21490,
    "emorial": 10240,
    "Ġshocked": 9399,
    "horses": 17566,
    "Ġquestionable": 19265,
    "dering": 5305,
    "itiously": 13869,
    "Ġdespondency": 16576,
    "Ġjapan": 7639,
    "Ġe": 311,
    "Ġire": 12665,
    "Ġoaths": 13522,
    "dec": 3109,
    "mix": 20973,
    "Ġceiling": 7997,
    "leaves": 12574,
    "company": 9459,
    "Ġphaeton": 17463,
    "Ġverdant": 15001,
    "Ġheroes": 10575,
    "grin": 19105,
    "wherefore": 19108,
    "Ġripple": 25504,
    "removed": 15514,
    "Ġphil": 3383,
    "discovering": 24250,
    "Ġglades": 19370,
    "Ġfrighted": 24026,
    "ifts": 12731,
    "app": 1041,
    "ispensable": 9094,
    "Ġjavelins": 26105,
    "Ġpleated": 16294,
    "Ġkrus": 18349,
    "Ġinserting": 19905,
    "Ġinco": 14258,
    "satisfied": 10577,
    "ellig": 522,
    "unctuous": 21880,
    "ardy": 22154,
    "Ġheed": 5630,
    "Ġintolerable": 8481,
    "Ġtossings": 25356,
    "til": 17670,
    "rably": 21631,
    "dipped": 20836,
    "Ġchase": 3945,
    "Ġawed": 23584,
    "Ġoversight": 22359,
    "Ġfiner": 13049,
    "Ġreiterating": 26473,
    "Ġyour": 633,
    "ileries": 18058,
    "gems": 20883,
    "influence": 13576,
    "Ġfejee": 18354,
    "Ġwails": 21295,
    "ban": 9583,
    "Ġcascade": 20579,
    "Ġhy": 5625,
    "disgraceful": 26076,
    "Ġtrustees": 24107,
    "Ġopen": 1552,
    "acter": 2508,
    "istence": 2664,
    "charles": 14697,
    "Ġbeing": 1165,
    "Ġstur": 15713,
    "Ġvow": 10245,
    "Ġsaleve": 17389,
    "rowsers": 8694,
    "earn": 10695,
    "Ġste": 1387,
    "Ġjudging": 16594,
    "baron": 24925,
    "peter": 24297,
    "covery": 11170,
    "Ġlonged": 6436,
    "Ġdefence": 11066,
    "both": 5785,
    "fierce": 25255,
    "Ġcent": 3251,
    "Ġparagraph": 17452,
    "Ġwonder": 2117,
    "Ġthorough": 6245,
    "acks": 11785,
    "Ġlapl": 19776,
    "Ġprudence": 13918,
    "Ġinterrupt": 4359,
    "Ġstupendous": 20499,
    "Ġfr": 1694,
    "Ġpropriet": 9548,
    "ill": 447,
    "neighbours": 24881,
    "Ġoriginal": 6102,
    "Ġsnugness": 20075,
    "Ġbrooks": 25700,
    "Ġwith": 349,
    "Ġdelicacy": 6340,
    "amet": 585,
    "Ġforbidden": 17077,
    "athered": 6972,
    "intervals": 10636,
    "Ġcoherent": 3260,
    "Ġassures": 14464,
    "Ġreser": 5170,
    "Ġresemblance": 7979,
    "Ġengagements": 9976,
    "Ġdevice": 1928,
    "Ġcowardice": 17031,
    "Ġcl": 547,
    "skin": 10567,
    "Ġscrupled": 25049,
    "Ġtill": 1824,
    "thole": 21984,
    "Ġsuperiority": 14615,
    "bable": 8718,
    "Ġkeys": 11993,
    "Ġtied": 7357,
    "Ġbolt": 11333,
    "dropping": 14980,
    "Ġpulley": 2972,
    "amount": 10883,
    "pacing": 21020,
    "Ġtrees": 4203,
    "ishment": 3503,
    "Ġbuilt": 8301,
    "chancing": 22906,
    "varieties": 23185,
    "positive": 20566,
    "Ġhaunted": 10252,
    "Ġcomfortless": 23910,
    "Ġmountain": 3370,
    "Ġkept": 3344,
    "cigar": 26124,
    "Ġpossessor": 23820,
    "ime": 625,
    "Ġdeliberation": 19967,
    "Ġmounts": 17806,
    "denial": 18717,
    "combination": 25486,
    "Ġxv": 23405,
    "Ġconveying": 19713,
    "valley": 16212,
    "Ġ45": 14769,
    "visits": 24222,
    "courageous": 26127,
    "Ġdismast": 12884,
    "ó": 180,
    "Ġarray": 12806,
    "terogene": 21823,
    "antage": 3879,
    "equally": 19898,
    "robe": 15638,
    "Ġoverwhel": 8197,
    "Ġvolcano": 24146,
    "Ġunfavourable": 17415,
    "Ġweaving": 12736,
    "Ġgenial": 12191,
    "Ġjogged": 26236,
    "Ġpoles": 11002,
    "Ġobjection": 6585,
    "gentle": 5356,
    "Ġexactly": 2765,
    "cheerful": 13573,
    "Ġconsummation": 17423,
    "langu": 4807,
    "¡": 99,
    "Ġsurpl": 19132,
    "Ġchristian": 6479,
    "Ġspaulding": 11728,
    "Ġshipmate": 8927,
    "esc": 614,
    "Ġembarks": 22978,
    "Ġreappeared": 21663,
    "omit": 13976,
    "Ġfreshly": 23984,
    "iday": 8828,
    "rimshander": 20656,
    "Ġtorrents": 20054,
    "Ġcrumpled": 16440,
    "Ġjudiciously": 23876,
    "Ġboomer": 20166,
    "Ġexagger": 12715,
    "Ġclass": 762,
    "mel": 9126,
    "Ġabsolut": 3910,
    "Ġpresum": 4837,
    "Ġelevation": 14895,
    "Ġpant": 10816,
    "Ġinstructed": 19284,
    "Ġwaving": 8575,
    "bub": 15314,
    "Ġforward": 1837,
    "excited": 13378,
    "onged": 18410,
    "tahit": 17691,
    "Ġtempor": 2368,
    "Ġunsophisticated": 25992,
    "human": 7088,
    "Ġhandspike": 22696,
    "ĠĠĠĠĠĠĠĠĠĠ": 18576,
    "Ġadduced": 26523,
    "Ġwhimsical": 20426,
    "Ġ1000": 3114,
    "aired": 8369,
    "thread": 15823,
    "Ġfreezing": 23881,
    "Ġkeepers": 23535,
    "inst": 4294,
    "Ġpitches": 23899,
    "towing": 17688,
    "Ġglow": 7170,
    "turned": 7306,
    "Ġdomestic": 6913,
    "Ġfeathers": 15117,
    "onym": 14648,
    "Ġshirr": 18231,
    "Ġencoder": 3632,
    "degree": 12797,
    "weigh": 18665,
    "laden": 14927,
    "Ġnupt": 13941,
    "Ġfurrow": 22813,
    "igate": 8821,
    "easy": 9591,
    "Ġthrew": 3974,
    "Ġenslaved": 26314,
    "Ġconvince": 14641,
    "train": 2035,
    "faces": 13718,
    "Ġfootpath": 19337,
    "Ġride": 12754,
    "mayhew": 23989,
    "Ġpattering": 18649,
    "Ġroofs": 16984,
    "Ġbrain": 2088,
    "ason": 1229,
    ";âĢĶ": 3749,
    "Ġdoubted": 7966,
    "Ġrucastle": 5176,
    "Ġfitted": 6243,
    "Ġ26": 10469,
    "character": 6331,
    "Ġbelieving": 8225,
    "Ġfar": 1450,
    "yrin": 12518,
    "attend": 11100,
    "estic": 4956,
    "Ġanchored": 17438,
    ".,": 5988,
    "Ġconcoct": 19045,
    "himself": 3972,
    "wr": 3025,
    "Ġresponsiveness": 2895,
    "Ġmadden": 10446,
    "unte": 21871,
    "ounix": 14162,
    "Ġweld": 8112,
    "Ġknowest": 12859,
    "relative": 24010,
    "Ġrestrict": 16374,
    "Ġenglish": 3611,
    "Ġexposes": 22621,
    "strang": 11182,
    "Ġwretch": 6378,
    "inated": 6804,
    "Ġlard": 13945,
    "Ġloads": 22112,
    "kye": 20937,
    "Ġgentleman": 3038,
    "above": 8148,
    "Ġrug": 16154,
    "lines": 6959,
    "Ġrecommend": 7102,
    "Ġbaleen": 10035,
    "Ġdiligence": 17113,
    "Ġbosoms": 16794,
    "|": 96,
    "take": 4575,
    "lass": 5993,
    "vi": 2376,
    "Ġvillagers": 19472,
    "Ġheaths": 25972,
    "remember": 7262,
    "Ġterra": 13114,
    "Ġindistinctly": 26117,
    "ergy": 2363,
    "cad": 17503,
    "Ġpeevish": 26556,
    "Ġperemptorily": 17365,
    "Ġinexperience": 26099,
    "rocket": 13942,
    "Ġdifference": 1492,
    "half": 4931,
    "Ġmethinks": 10389,
    "Ġloss": 824,
    "Ġaccounts": 7207,
    "Ġlinked": 15075,
    "Ġjewel": 9940,
    "Ġrecip": 16138,
    "Ġswimming": 5507,
    "Ġacceptable": 16743,
    "passed": 8026,
    "Ġsacrific": 15016,
    "ocity": 8278,
    "nett": 16218,
    "Ġoblivious": 26032,
    "rollable": 13943,
    "Ġalman": 21779,
    "assemblies": 25956,
    "Ġrecurred": 18977,
    "morland": 24152,
    "complain": 14356,
    "Ġrele": 2914,
    "Ġhurrah": 9867,
    "Ġcalam": 13030,
    "Ġascertaining": 17202,
    "Ġtrick": 7020,
    "understand": 1139,
    "Ġfatig": 6756,
    "Ġterrified": 14670,
    "Ġremembering": 14609,
    "itary": 4750,
    "Ġbrightly": 13221,
    "ruin": 22184,
    "Ġindulging": 16903,
    "----âĢĿ": 13304,
    "Ġprophecy": 25706,
    "expose": 23660,
    "Ġmister": 22753,
    "rushing": 10016,
    "Ġconceit": 7295,
    "Ġprofessed": 14722,
    "Ġneither": 3685,
    "Ġfoot": 3159,
    "Ġdiscove": 16152,
    "Ġeye": 2282,
    "d": 72,
    "distinguished": 10525,
    "Ġprotectors": 9069,
    "Ġwarn": 5695,
    "Ġclamorous": 24909,
    "âĢĶ_": 3198,
    "lue": 8508,
    "Ġwrenched": 12554,
    "Ġpleasanter": 19065,
    "awing": 18915,
    "Ġweariness": 19793,
    "aneous": 7240,
    "Ġfidgeted": 25889,
    "Ġaccost": 12842,
    "Ġcivilly": 19602,
    "Ġrokovoko": 22404,
    "abling": 1081,
    "stating": 21639,
    "daugh": 6788,
    "Ġsmallest": 6430,
    "Ġboundless": 10494,
    "fre": 5425,
    "Ġ85": 24459,
    "Ġcore": 13876,
    "Ġlengthen": 15650,
    "errand": 22907,
    "Ġinterested": 6458,
    "Ġsomehow": 4841,
    "Ġships": 3713,
    "holes": 12051,
    "gracious": 11829,
    "Ġtorn": 6000,
    "Ġassailants": 20447,
    "Ġearthy": 23710,
    "Ġdisconnected": 22523,
    "ours": 3424,
    "Ġwestmorland": 24389,
    "Ġundivided": 24120,
    "Ġthereupon": 18433,
    "rugged": 6849,
    "than": 4091,
    "Ġirreparable": 19997,
    "utarch": 15658,
    "lop": 20947,
    "atively": 2695,
    "Ġadorn": 12786,
    "Ġceased": 6468,
    "Ġevolve": 3000,
    "commun": 15032,
    "whalebone": 19118,
    "Ġbaw": 15565,
    "Ġvalidation": 2359,
    "Ġfall": 2983,
    "Ġintroduction": 8969,
    "Ġaccusations": 22378,
    "Ġfearful": 6197,
    "Ġplaything": 19237,
    "Ġprofuse": 23563,
    "savor": 25024,
    "Ġinfluence": 5515,
    "Ġfugitive": 17325,
    "icular": 2024,
    "studied": 17148,
    "journey": 8744,
    "iltrated": 19305,
    "tro": 15431,
    "sun": 7139,
    "soled": 14331,
    "Ġindefinite": 17175,
    "labours": 16616,
    "Ġreasoner": 14431,
    "Ġholidays": 22920,
    "hunt": 20902,
    "ishnoo": 10956,
    "Ġchowders": 18386,
    "Ġamb": 9290,
    "Ġblunt": 11891,
    "Ġridicule": 13510,
    "undoubtedly": 13309,
    "Ġpatchwork": 24140,
    "Ġconfused": 7964,
    "plenty": 14086,
    "jer": 12477,
    "Ġoutward": 7904,
    "Ġarg": 4765,
    "Ġmemo": 18119,
    "cer": 6642,
    "Ġcleansed": 26293,
    "Ġlawn": 7379,
    "Ġbead": 21748,
    "Ġdau": 21424,
    "Ġapproach": 834,
    "Ġdevoid": 18680,
    "Ġfathers": 16293,
    "Ġpurses": 23475,
    "Ġvineyarder": 25606,
    "Ġcomra": 7183,
    "Ġairs": 14509,
    "Ġengravings": 15065,
    "Ġsimpleton": 16332,
    "sullen": 17668,
    "purp": 8091,
    "iet": 1774,
    "Ġyawned": 15050,
    "Ġstuff": 5717,
    "Ġwreaths": 25937,
    "Ġexcel": 3565,
    "Ġconfusing": 23304,
    "itute": 9650,
    "Ġcomprehen": 5349,
    "ructure": 761,
    "Ġfarmhouse": 24986,
    "Ġquestioned": 14618,
    "Ġwight": 12549,
    "aphys": 15199,
    "Ġmartha": 16257,
    "Ġbam": 15562,
    "tremendous": 20672,
    "ċ": 204,
    "sheet": 16282,
    "neighbourhood": 10023,
    "race": 11629,
    "mmar": 951,
    "inous": 8771,
    "Ġoughts": 23898,
    "multiple": 15105,
    "Ġafore": 10757,
    "solic": 16377,
    "Ġamphitheat": 26252,
    "Ġabuse": 18392,
    "aract": 17894,
    "Ġleaned": 7607,
    "q": 85,
    "reed": 6373,
    "Ġcoaxing": 18600,
    "quaker": 15759,
    "Ġdetained": 18377,
    "Ġcrept": 11021,
    "Ġuncertain": 4069,
    "Ġhisself": 21912,
    "oul": 4698,
    "Ġfortun": 4982,
    "mospheric": 17090,
    "pet": 4867,
    "hardly": 6491,
    "Ġequival": 4783,
    "Ġsize": 1217,
    "Ġchambermaid": 24303,
    "Ã¦mon": 7094,
    "sutherland": 21061,
    "achusetts": 20709,
    "Ġcareless": 11118,
    "Ġ55": 24322,
    "Ġbarber": 23787,
    "Ě": 219,
    "Ġdiverted": 14591,
    "Ġbrightness": 16575,
    "Ġfrankenstein": 7095,
    "bug": 17491,
    "kily": 20936,
    "Ġslavery": 16305,
    "Ġtumbling": 13824,
    "Ġsins": 13835,
    "Ġdisadvantage": 12886,
    "lingly": 9771,
    "moran": 24151,
    "Ġharpoons": 5659,
    "philips": 20033,
    "plainly": 11089,
    "pl": 401,
    "Ġfa": 4819,
    "apside": 22958,
    "Ġimp": 581,
    "Ġnewcomer": 26040,
    "Ġtroops": 24898,
    "âĢĿ)": 21812,
    "uneasiness": 23682,
    "Ġcrescentic": 20619,
    "Ġharbor": 10025,
    "pagans": 25525,
    "iguous": 18044,
    "Ġintercourse": 10997,
    "Ġmortals": 9914,
    "Ġassured": 4371,
    "smile": 23903,
    "exceedingly": 9565,
    "childhood": 16865,
    "confidence": 16807,
    "asleep": 21542,
    "light": 3014,
    "Ġcontrast": 2118,
    "us": 532,
    "Ġoverthrow": 18432,
    "Ġmouthful": 16573,
    "¦": 104,
    "Ġeight": 3901,
    "shortly": 12255,
    "Ġlothario": 26184,
    "Ġinsepar": 17933,
    "Ġmaddening": 17242,
    "begone": 12874,
    "ense": 2052,
    "gives": 15355,
    "worth": 8626,
    "Ġwaterward": 23366,
    "seek": 8835,
    "Ġshort": 2225,
    "ander": 6401,
    "Ġmel": 4816,
    "droppers": 24759,
    "ushing": 5731,
    "extending": 22761,
    "Ġboneless": 19604,
    "Ġpleasant": 4171,
    "Ġchisel": 20366,
    "Ġsmo": 2700,
    "Ġevaluate": 3120,
    "Ġespecially": 3936,
    "Ġdoubtless": 6195,
    "Ġrad": 4962,
    "Ġpleases": 16295,
    "Ġspade": 9257,
    "alcul": 15624,
    "2": 22,
    "ature": 519,
    "Ġtwenty": 3949,
    "Ġcompliments": 8632,
    "necessities": 24305,
    "ibid": 18839,
    "Ġsolutions": 1947,
    "Ġexhilar": 19682,
    "agatha": 21908,
    "meditation": 19066,
    "everlasting": 18771,
    "follows": 24527,
    "Ġmercifully": 20177,
    "Ġdelineate": 26057,
    "huzza": 20912,
    "Ġforgery": 25977,
    "Ġopulence": 23627,
    "Ġ50": 24318,
    "Ġdivulged": 16647,
    "Ġwreath": 25936,
    "Ġburgled": 23652,
    "Ġprodigy": 19791,
    "Ġgrop": 12660,
    "Ġcringed": 25942,
    "fatality": 25019,
    "Ġgrudge": 20692,
    "Ġaquiline": 26159,
    "driven": 19770,
    "Ġjack": 4652,
    "base": 20776,
    "gle": 20868,
    "Ġwasting": 12724,
    "Ġsupremacy": 20259,
    "hawk": 7121,
    "that": 850,
    "Ġgourmand": 26465,
    "Ġsafety": 6339,
    "alions": 21499,
    "chard": 21685,
    "res": 2757,
    "Ġpsych": 10175,
    "Ġstoper": 14461,
    "Ġsh": 419,
    "Ġlicensing": 20091,
    "Ġjovial": 19232,
    "soles": 18688,
    "Ġdeliriously": 23229,
    "Ġchilled": 18382,
    "Ġcareful": 2610,
    "Ġcordial": 16834,
    "Ġslain": 8952,
    "Ġlanterns": 24576,
    "Ġdams": 16454,
    "Ġinfirm": 19018,
    "Ġhasty": 10476,
    "ğ": 224,
    "Ġignited": 25069,
    "ted": 790,
    "perch": 18336,
    "only": 3305,
    "Ġadvisable": 11441,
    "mindful": 19598,
    "ineffectual": 26503,
    "afternoon": 13185,
    "Ġoffending": 22741,
    "sized": 15426,
    "Ġrelations": 5852,
    "ģ": 228,
    "Ġdough": 8421,
    "building": 17307,
    "Ġredness": 19311,
    "mists": 17604,
    "Ġlambton": 10656,
    "treacle": 25148,
    "Ġcomprehend": 6494,
    "Ġreliable": 18776,
    "nursery": 26398,
    "Ġwrapped": 8342,
    "mar": 4335,
    "Ġcatches": 23425,
    "Ġutmost": 5496,
    "Ġcool": 5734,
    "steelkilt": 10045,
    "Ġnarration": 13502,
    "forks": 26386,
    "Ġcreature": 2386,
    "Ġrelish": 14382,
    "Ġstarboard": 7604,
    "oll": 5456,
    "Ġdespised": 14665,
    "Ġhill": 5626,
    "Ġshrouds": 11343,
    "400": 20754,
    "evinced": 19925,
    "edy": 2857,
    "Ġoat": 21321,
    "Ġimpious": 15983,
    "Ġrover": 18456,
    "Ġstructures": 2720,
    "Ġc": 277,
    "Ġautoregressive": 3428,
    "Ġmutiny": 13256,
    "Ġrenounce": 19466,
    "Ġforeheads": 23447,
    "Ġdisconsolate": 20718,
    "Ġwides": 17788,
    "harbor": 13562,
    "ractions": 11631,
    "ternatural": 12711,
    "Ġprejudice": 9074,
    "Ġag": 684,
    "repairing": 24494,
    "medium": 23638,
    "Ġwrinkled": 7264,
    "Ġtick": 8109,
    "poster": 11054,
    "commend": 19991,
    "Ġbecalmed": 18086,
    "Ġcategorization": 12133,
    "Ġscant": 22278,
    "Ġalthough": 4152,
    "Ġpugn": 21479,
    "handedness": 24920,
    "Ġinteresting": 4324,
    "Ġowes": 20083,
    "Ġoutstretched": 14194,
    "sof": 17656,
    "Ġtragic": 15253,
    "Ġtop": 2472,
    "viating": 14577,
    "Ġforgetting": 3431,
    "byshire": 6172,
    "precip": 14663,
    "Ġremonstr": 16158,
    "Ġmalacca": 24392,
    "rip": 9239,
    "vour": 17698,
    "thirds": 25046,
    "Ġsmoked": 10321,
    "Ġgnawed": 25164,
    "ê": 171,
    "Ġincreasing": 8247,
    "laugh": 10107,
    "roylott": 20025,
    "Ġanon": 9665,
    "Ġmidst": 7986,
    "Ġhermit": 15854,
    "ricane": 16275,
    "lorious": 17591,
    "ctu": 5088,
    "Ġimparted": 15985,
    "Ġgeometric": 3217,
    "devil": 7896,
    "Ġsupp": 1263,
    "Ġscalding": 16310,
    "Ġinfatuation": 25857,
    "datasets": 11950,
    "diver": 20830,
    "bring": 9103,
    "puted": 8844,
    "Ġdiscovers": 4427,
    "Ġaspect": 3093,
    "Ġsupported": 9816,
    "Ġ115": 24438,
    "Ġequinoctial": 20531,
    "Ġsyrian": 18353,
    "expressed": 9040,
    "Ġcruise": 12046,
    "Ġabstracted": 17181,
    "Ġmodesty": 12815,
    "Ġreaches": 18031,
    "Ġhairy": 23863,
    "legs": 13180,
    "Ġeach": 891,
    "Ġpuffs": 14974,
    "Ġwishing": 7831,
    "Ġconsoling": 19455,
    "Ġthreading": 23400,
    "Ġcalifornian": 25851,
    "Ġgrowth": 14627,
    "Ġtarget": 2818,
    "Ġbrightest": 13222,
    "Ġboats": 2636,
    "receive": 12538,
    "osen": 6855,
    "Ġpepper": 9779,
    "Ġgreatest": 4095,
    "help": 1478,
    "Ġrecede": 25968,
    "Ġdaughters": 4421,
    "Ġgeneric": 18453,
    "Ġfrig": 13078,
    "Ġquivers": 22411,
    "Ġfriday": 14487,
    "Ġhiding": 9821,
    "Ġoccurs": 1857,
    "Ġarve": 15894,
    "Ġelbows": 18634,
    "morrow": 4571,
    "ved": 869,
    "Ġslaughtered": 26583,
    "Ġsalvation": 14756,
    "Ġsugg": 4499,
    "settle": 16660,
    "Ġjollity": 25567,
    "angling": 14139,
    "Ġdorm": 4821,
    "Ġignominy": 15083,
    "Ġscenari": 22285,
    "Ġstretching": 10013,
    "Ġsprain": 18305,
    "laug": 10706,
    "Ġproprietors": 20185,
    "Ġarriving": 19216,
    "Ġai": 3125,
    "Ġrival": 10484,
    "ission": 6457,
    "Ġbulky": 13226,
    "www": 17250,
    "Ġsail": 1671,
    "Ġenterprise": 8641,
    "atching": 8203,
    "erxes": 21274,
    "Ġdiscernible": 15054,
    "leaned": 21367,
    "wearing": 22685,
    "Ġczar": 12570,
    "Ġsweeping": 8984,
    "Ġexclaiming": 13639,
    "Ġchis": 11747,
    "brain": 13685,
    "Ġmodest": 15915,
    "Ġexasperated": 11411,
    "Ġpolic": 13159,
    "Ġwelded": 9570,
    "Ġentreaty": 10528,
    "amaz": 21842,
    "Ġmutters": 23953,
    "extent": 22759,
    "imaux": 21710,
    "Ġfloating": 6604,
    "Ġrand": 1587,
    "Ġchronicle": 20227,
    "Ġasser": 6257,
    "presbyter": 20616,
    "Ġdut": 2984,
    "Ġshaped": 15831,
    "months": 9070,
    "surgeon": 24213,
    "Ġpoul": 15609,
    "Ġowned": 11873,
    "Ġstyle": 6946,
    "leton": 5148,
    "Ġhel": 3785,
    "Ġteaches": 18808,
    "Ġtides": 13819,
    "Ġyoung": 1508,
    "Ġlessen": 14531,
    "itives": 17819,
    "Ġnaturalist": 22900,
    "Ġstocks": 23175,
    "trifling": 19412,
    "Ġlik": 2523,
    "Ġmaids": 19690,
    "ctions": 950,
    "Ġcomparatively": 9488,
    "give": 4688,
    "mountain": 10712,
    "Ġgenerously": 22398,
    "Ġjeroboam": 10599,
    "knell": 24554,
    "aloud": 17940,
    "thankful": 16805,
    "ful": 668,
    "gammon": 20242,
    "Ġglimp": 6066,
    "onness": 21253,
    "Ġthimble": 15633,
    "Ġpadd": 9668,
    "solemn": 19816,
    "Ġenigmatical": 20596,
    "letters": 13172,
    "Ġimpression": 5732,
    "Ġblew": 9044,
    "ectual": 21913,
    "Ġspeckled": 14307,
    "detained": 24381,
    "lik": 3915,
    "abst": 21786,
    "Ġseizing": 7880,
    "prep": 9757,
    "Ġproximity": 3218,
    "Ġbled": 17856,
    "Ġfearing": 12811,
    "Ġdistributes": 4196,
    "Ġstaving": 21735,
    "Ġmem": 2070,
    "Ġdisasters": 16051,
    "olent": 8155,
    "ourers": 21448,
    "invariably": 26415,
    "self": 617,
    "Ġlestrade": 5825,
    "Ġuproar": 22153,
    "obtained": 23093,
    "Ġthrusting": 10551,
    "exe": 11786,
    "Ġlife": 1356,
    "hs": 8378,
    "fireside": 24692,
    "Ġdirt": 15590,
    "Ġschools": 9475,
    "Ġbeck": 14007,
    "ater": 3368,
    "Ġimages": 1603,
    "Ġoverlapping": 26238,
    "Ġlim": 2382,
    "Ġweight": 659,
    "imens": 1746,
    "well": 1690,
    "Ġregard": 3064,
    "Ġsubstitute": 16725,
    "vis": 4576,
    "Ġweeds": 21921,
    "anks": 3916,
    "derstand": 650,
    "Ġarea": 14185,
    "Ġrelu": 1046,
    "Ġbegan": 2023,
    "Ġcoat": 4553,
    "ated": 725,
    "foreseen": 14252,
    "Ġblack": 2034,
    "opotam": 22477,
    "Ġbuildings": 24720,
    "Ġweighed": 8710,
    "herent": 2529,
    "wol": 21121,
    "Ġpred": 677,
    "Ġmetal": 9386,
    "Ġerskine": 17430,
    "whar": 15924,
    "Ġcoral": 11919,
    "Ġdictating": 20151,
    "Ġincredible": 9513,
    "Ġbump": 9658,
    "particularly": 8340,
    "emptied": 23635,
    "Ġbowing": 10474,
    "Ġwilfully": 16765,
    "Ġexcell": 10414,
    "Ġcloset": 19590,
    "Ġinconstant": 21494,
    "Ġmeanly": 12905,
    "but": 593,
    "Ġmanhat": 22325,
    "illes": 12690,
    "Ġdefilements": 26284,
    "myster": 16260,
    "Ġsumm": 3353,
    "Ġadro": 15864,
    "oubted": 5859,
    "pretend": 24882,
    "Ġsqueaking": 26274,
    "Ġhalyards": 21492,
    "Ġbound": 3517,
    "Ġpedro": 14993,
    "obliv": 23094,
    "Ġthrob": 21516,
    "í": 174,
    "Ġrowing": 10299,
    "iards": 17573,
    "inferences": 17738,
    "cheon": 23801,
    "enter": 7858,
    "twas": 15435,
    "Ġreasoning": 1931,
    "culiar": 2817,
    "arn": 358,
    "unfortunate": 15773,
    "prom": 6509,
    "adequate": 15201,
    "supers": 22633,
    "enances": 10152,
    "Ġvicissitudes": 12416,
    "Ġcircus": 19091,
    "Ġgrowing": 6750,
    "directly": 13707,
    "Ġoverthrown": 18431,
    "icilian": 20690,
    "connection": 18868,
    "orough": 5700,
    "imprudence": 16555,
    "Ġhatty": 19264,
    "whose": 6852,
    "roc": 9673,
    "eral": 9158,
    "Ġrinal": 21978,
    "tub": 9142,
    "feed": 9291,
    "mill": 13752,
    "Ġcoloured": 11044,
    "Ġinsince": 23674,
    "isher": 2876,
    "Ġmottled": 20677,
    "Ġforemast": 12002,
    "Ġmum": 13856,
    "Ġasked": 2278,
    "Ġover": 555,
    "Ġheighten": 19528,
    "Ġjackson": 24239,
    "Ġaltar": 9227,
    "X": 60,
    "Ġmaternal": 11058,
    "Ġpond": 13914,
    "Ġpassionately": 16763,
    "Ġcollecting": 12283,
    "wise": 2572,
    "independ": 15978,
    "Ġhumming": 12982,
    "Ġfurniture": 6476,
    "jo": 3751,
    "Ġgift": 10839,
    "Ġtowns": 11172,
    "Ġboscombe": 8326,
    "Ġindispensable": 11897,
    "Ġcomplimented": 14902,
    "Ġswarm": 23053,
    "atigable": 15268,
    "Ġaugment": 8691,
    "Ġwriters": 13541,
    "Ġrendering": 16656,
    "Ġgrecian": 26296,
    "Ġimpertinence": 11365,
    "Ġdated": 10937,
    "Ġinoffensive": 21496,
    "Ġstiffness": 24830,
    "below": 12118,
    "Ġunmingled": 18260,
    "Ġchairs": 12822,
    "Ġoverseeing": 22361,
    "Ġwives": 12551,
    "Ġwhispering": 14943,
    "Ġrumors": 11320,
    "achment": 5463,
    "Ġhelmeted": 19687,
    "Ġchil": 11748,
    "Ġgives": 5018,
    "unworthy": 18161,
    "rist": 10121,
    "Ġinstinct": 6575,
    "Ġxxxix": 24970,
    "Ġost": 9648,
    "rints": 12499,
    "sailor": 14713,
    "Ġlift": 8809,
    "ishments": 9273,
    "Ġrepresentation": 14403,
    "ality": 2513,
    "zza": 24166,
    "Ġm": 274,
    "Ġjacobian": 2890,
    "Ġperturbed": 20438,
    "Ġstones": 9220,
    "ior": 2040,
    "Ġsouthern": 7689,
    "isive": 10792,
    "Ġraise": 6166,
    "Ġdeceived": 6544,
    "Ġtoken": 2039,
    "Ġjokes": 18408,
    "Ġblacks": 23386,
    "Ġsc": 530,
    "Ġ96": 24593,
    "Ġorgans": 15862,
    "Ġusing": 717,
    "wor": 3413,
    "Ġentailed": 11026,
    "ancho": 4938,
    "respectable": 19846,
    "Ġsuffer": 4721,
    "Ġfeigned": 22208,
    "islanders": 25442,
    "mult": 8747,
    "Ġbrothers": 13173,
    "advise": 24216,
    "Ġgrimly": 17051,
    "Ġ1846": 26084,
    "Ġpell": 21455,
    "Ġweedy": 15788,
    "Ġapprehending": 26090,
    "Ġaffected": 5576,
    "Ġscared": 14188,
    "usal": 7638,
    "Ġath": 15798,
    "Ġsupplication": 25491,
    "Ġspell": 8854,
    "Ġscornful": 24998,
    "aw": 1447,
    "zes": 11547,
    "ago": 14066,
    "Ġbitter": 4174,
    "Ġattempts": 10489,
    "Ġcitadel": 25438,
    "Ġbreach": 11970,
    "Ġstationary": 19693,
    "Ġcoachman": 14999,
    "Ġpronouncing": 16968,
    "Ġnug": 21523,
    "Ġconverse": 11841,
    "Ġperu": 14221,
    "Ġchristmas": 6924,
    "Ġcoils": 9301,
    "Ġimprisonment": 22386,
    "Ġviolently": 6456,
    "Ġspasmodic": 20396,
    "bourn": 3299,
    "Ġdoor": 1739,
    "Ġplainpalais": 20736,
    "refuge": 24734,
    "Ġpeter": 10534,
    "Ġfewer": 16222,
    "Ġlysander": 13136,
    "hued": 20910,
    "begin": 8882,
    "Ġinitialized": 3948,
    "Ġmacey": 12559,
    "Ġinterven": 10996,
    "Ġharriet": 24571,
    "ort": 523,
    "ugging": 23289,
    "hig": 12471,
    "Ġreduce": 7943,
    "buck": 17489,
    "Ġnut": 12642,
    "lan": 15375,
    "ler": 3488,
    "Ġhish": 21911,
    "Ġgases": 21600,
    "Ġrace": 5847,
    "iloqu": 11646,
    "Ġcoarsely": 25828,
    "Ġdevoured": 16132,
    "rail": 10203,
    "sloop": 26145,
    "Ġlucas": 3832,
    "branch": 23575,
    "Ġlav": 13948,
    "Ġboard": 3381,
    "Ġlivel": 11354,
    "Ġgryphon": 4299,
    "anchor": 13887,
    "Ġbreaching": 23346,
    "shad": 10980,
    "offices": 19059,
    "Ġsweetly": 23916,
    "nyder": 16685,
    "Ġconcernment": 23621,
    "Ġne": 390,
    "Ġbrack": 23833,
    "experienced": 15119,
    "Ġpleasurable": 23339,
    "Ġtigers": 25758,
    "object": 6884,
    "Ġpenetrating": 17010,
    "×": 152,
    "Ġworshippers": 25693,
    "Ġstraggling": 23749,
    "Ġperplexity": 2753,
    "Ġthousandth": 23679,
    "Ġinglorious": 24423,
    "specimen": 26604,
    "Ġsaid": 576,
    "Ġcarriage": 3950,
    "antly": 1990,
    "Ġgurglings": 26464,
    "Ġhighland": 18713,
    "sneezes": 11445,
    "Ġtenderness": 12212,
    "embers": 21925,
    "woods": 13417,
    "Ġrelig": 8550,
    "comparatively": 25839,
    "ouch": 2776,
    "coronet": 16862,
    "moreover": 12965,
    "avering": 24793,
    "Ġli": 601,
    "north": 14614,
    "Ġparadise": 11194,
    "Ġfingers": 5672,
    "Ġproportionate": 17042,
    "Ġhistorical": 3643,
    "Ġcoding": 8116,
    "iving": 1725,
    "Ġlouis": 8357,
    "ceptibly": 22364,
    "Ġhaste": 9002,
    "Ġconnectivity": 3665,
    "surv": 24212,
    "Ġhyperborean": 26339,
    "Ġfemales": 14935,
    "Ġgordon": 26466,
    "Ġfeasts": 25369,
    "Ġovercame": 9744,
    "Ġwick": 2006,
    "Ġattempt": 3483,
    "Ġcooped": 22581,
    "Ġdispelling": 23878,
    "Ġbounce": 21391,
    "you": 1008,
    "Ġcause": 2411,
    "Ġbra": 3252,
    "requ": 7148,
    "tempestuous": 26097,
    "Ġfabulous": 25948,
    "msman": 9268,
    "Ġhart": 17921,
    "brevi": 24073,
    "idled": 21766,
    "Ġpoising": 22589,
    "adventure": 17232,
    "try": 7813,
    "Ġsneezing": 12244,
    "Ġfurs": 18739,
    "Ġallow": 1127,
    "Ġbenefactor": 14696,
    "maritime": 24172,
    "Ġtolland": 24990,
    "Ġprepar": 7898,
    "settled": 10505,
    "Ġsubject": 2466,
    "(_": 7540,
    "inders": 15977,
    "osition": 1373,
    "opposition": 24823,
    "onel": 3087,
    "airing": 16175,
    "Ġmidnight": 5265,
    "vigorous": 25917,
    "Ġelev": 5535,
    "Ġgrizzled": 11449,
    "Ġstiggs": 25792,
    "chain": 18039,
    "ohn": 4560,
    "Ġmonkey": 8227,
    "Ġhastened": 9003,
    "urance": 10856,
    "Ġsilvery": 13091,
    "bureau": 20788,
    "Ġturns": 4981,
    "Ġcritically": 23444,
    "riers": 18186,
    "royal": 11392,
    "ches": 2150,
    "Ġpretended": 19313,
    "ast": 472,
    "probably": 10018,
    "ars": 904,
    "Ġfaults": 12209,
    "Ġsub": 949,
    "Ġfrantic": 7957,
    "aud": 8521,
    "cuniary": 26378,
    "Ġentrance": 7233,
    "istics": 1632,
    "deeply": 16177,
    "Ġconstantly": 11969,
    "Ġunparalleled": 15850,
    "Ġinjunctions": 24268,
    "Ġskin": 5038,
    "Ġdiscovery": 5412,
    "Ġsad": 3868,
    "Ġcarpent": 4464,
    "Ġhumane": 11881,
    "Ġendow": 23141,
    "Ġpreceded": 13426,
    "Ġunluckily": 20100,
    "Ġdilig": 8350,
    "Ġalready": 2712,
    "Ġeyed": 12663,
    "Ġreminds": 13429,
    "Ġcivil": 4678,
    "Ġrefreshment": 17238,
    "ĠâĢĻ": 3040,
    "goodbye": 12053,
    "Ġi": 312,
    "Ġthr": 5709,
    "urred": 8449,
    "Ġdeal": 3605,
    "Ġtrans": 634,
    "Ġholes": 16405,
    "Ġsle": 2014,
    "Ġexe": 3994,
    "draul": 9441,
    "Ġwarming": 23554,
    "Ġflooded": 24961,
    "inging": 5907,
    "forget": 11031,
    "Ġver": 3391,
    "squeezing": 25913,
    "Ġindisc": 16225,
    "Ġspring": 4123,
    "Ġthigh": 10185,
    "Ġobe": 5800,
    "Ġcheerful": 6621,
    "Ġspectacle": 10495,
    "Ġtranced": 18426,
    "Ġunsuccessful": 18254,
    "approached": 13483,
    "Ġcertainty": 6734,
    "Ġcheered": 16369,
    "requiem": 24856,
    "Ġask": 1495,
    "successively": 24779,
    "ils": 3179,
    "oker": 10962,
    "Ġvess": 3292,
    "Ġceremony": 8361,
    "Ġordained": 19443,
    "initions": 21186,
    "ware": 3935,
    "Ġadmired": 7982,
    "scr": 16239,
    "Ġmarbank": 23035,
    "Ġsche": 1704,
    "simply": 20669,
    "follow": 5680,
    "Ġvaried": 11845,
    "Ġfrosty": 14933,
    "coal": 12021,
    "Ġhis": 380,
    "mountains": 15178,
    "Ġfoundering": 21418,
    "Ġstrat": 16085,
    "Ġdisciple": 22782,
    "Ġstation": 5297,
    "Ġmeryton": 4437,
    "tar": 8098,
    "spirits": 8055,
    "didst": 19347,
    "Ġcanes": 22162,
    "Ġrecol": 4029,
    "elfth": 22367,
    "Ġpasses": 2679,
    "game": 11489,
    "Ġrust": 6408,
    "Ġunrel": 14694,
    "cost": 19185,
    "rinted": 21042,
    "toes": 22562,
    "bitter": 11239,
    "Ġcares": 9364,
    "Ġattractions": 12914,
    "Ġjub": 22300,
    "Ġjumped": 7096,
    "Ġstyled": 24671,
    "Ġsurviving": 24638,
    "pre": 647,
    "response": 25762,
    "Ġavail": 11225,
    "Ġitalian": 12407,
    "surrounded": 26088,
    "84": 15299,
    "Ġconsp": 10223,
    "Ġculprit": 26172,
    "rr": 17649,
    "Ġpursuits": 12073,
    "Ġlancaster": 26340,
    "Ġbread": 5404,
    "Ġremembr": 24169,
    "Ġfamiliar": 5511,
    "towards": 5002,
    "Ġmeaning": 1414,
    "ratulations": 20124,
    "sworn": 24255,
    "Ġponderous": 8355,
    "zening": 21147,
    "Ġdisposing": 19373,
    "Ġgriev": 16633,
    "Ġcaptivating": 26049,
    "murderer": 13391,
    "Ġchapter": 2953,
    "Ġwa": 1753,
    "Ġspires": 11727,
    "Ġarbit": 4650,
    "Ġfierce": 7437,
    "sho": 6425,
    "Ġdais": 24371,
    "Ġmorsel": 20676,
    "Ġsimpl": 1582,
    "Ġhard": 1442,
    "Ġenables": 727,
    "school": 10053,
    "waste": 21133,
    "Ġclut": 7641,
    "Ġsails": 5256,
    "Ġconcluded": 5658,
    "Ġunconcern": 14114,
    "Ġlies": 5295,
    "Ġaids": 12225,
    "andes": 18151,
    "Ġprobability": 1126,
    "Ġhands": 1662,
    "pping": 1423,
    "Ġblunder": 18818,
    "hamlet": 23261,
    "oc": 2830,
    "drown": 13702,
    "Ġacquiring": 2764,
    "omb": 10205,
    "Ġnote": 4263,
    "Ġattract": 11832,
    "Ġpronounce": 16967,
    "thirty": 12758,
    "Ġtener": 21162,
    "Ġrequiring": 2918,
    "Ġtrampled": 20327,
    "Ġleadenhall": 16627,
    "Ġdoleful": 18376,
    "Ġcollapsed": 15079,
    "Ġoarsmen": 7738,
    "Ġaston": 3701,
    "Ġharpo": 1943,
    "giv": 13720,
    "Ġcle": 1512,
    "ssible": 2989,
    "Ġenvied": 19283,
    "publ": 17637,
    "prison": 14661,
    "Ġpaused": 5416,
    "Ġhoard": 23351,
    "Ġjustify": 11071,
    "op": 658,
    "six": 7141,
    "Ġhelpless": 8302,
    "Ġbubblingly": 25632,
    "Ġexist": 9230,
    "Ġwafted": 14498,
    "Ġinboard": 17932,
    "ject": 874,
    "Ġtusk": 25425,
    "Ġdistrust": 8205,
    "Ġcards": 7580,
    "Ġvalue": 2085,
    "james": 15370,
    "reg": 2185,
    "Ġdism": 9765,
    "ured": 1654,
    "Ġsplendid": 17212,
    "Ġforster": 5230,
    "Ġones": 3017,
    "gerine": 22886,
    "Ġimpending": 22383,
    "Ġunnear": 22024,
    "crated": 16695,
    "Ġoakshott": 12226,
    "Ġwhistle": 9065,
    "Ġforeseen": 16441,
    "Ġuncommon": 5026,
    "Ġsituation": 4073,
    "Ġseren": 7401,
    "Ġkn": 4545,
    "Ġtransparent": 9487,
    "Ġannoy": 17197,
    "Ġgild": 15665,
    "ç": 168,
    "Ġallows": 3231,
    "Ġmanxman": 9564,
    "Ġblessings": 24175,
    "Ġmannish": 26237,
    "putation": 7624,
    "Ġinforming": 18742,
    "Ġdundee": 16996,
    "Ġdisinclined": 22527,
    "arrested": 15597,
    "Ġx": 2074,
    "Ġspind": 18307,
    "Ġbrood": 23098,
    "heart": 4525,
    "Ġcreases": 22725,
    "Ġellenborough": 26154,
    "footsteps": 25199,
    "shop": 14235,
    "ints": 3414,
    "os": 525,
    "zz": 4292,
    "borrowed": 20791,
    "Ġnic": 7376,
    "Ġtax": 13814,
    "Ġschedules": 3384,
    "Ġsomnambul": 26575,
    "Ġfrancisco": 26064,
    "wandering": 20283,
    "pless": 6260,
    "Ġponder": 6819,
    "Ġpeterson": 9481,
    "favourite": 15141,
    "nel": 11503,
    "Ġembarrassment": 10625,
    "Ġnowhere": 12882,
    "Ġcum": 21340,
    "Ġsnuffing": 25012,
    "Ġhalts": 3156,
    "Ġharrow": 17925,
    "Ġlad": 2366,
    "fitzwilliam": 11351,
    "Ĺ": 250,
    "Ġstepped": 7051,
    "Ġinhaled": 25451,
    "Ġcamp": 9163,
    "aching": 5831,
    "Ġdegrees": 7294,
    "Ġadaptively": 4032,
    "Ò": 147,
    "Ġtyros": 26101,
    "paddington": 20476,
    "Ġengaged": 3426,
    "Ġsinew": 25431,
    "wit": 7818,
    "gent": 7129,
    "Ġprompt": 3186,
    "Ġfolds": 12203,
    "eting": 7169,
    "Ġguido": 2973,
    "Ġretreats": 16927,
    "igen": 4830,
    "lung": 17590,
    "tarpaul": 21096,
    "display": 19154,
    "vocation": 25084,
    "Ġlangu": 580,
    "Ġsuspicions": 9477,
    "umphed": 23514,
    "Ġfrancis": 26063,
    "which": 1708,
    "Ġcrocodile": 20739,
    "gazing": 12468,
    "dually": 3280,
    "Ġcaved": 21351,
    "Ġwarning": 9057,
    "Ġregulations": 18593,
    "Ġordering": 18997,
    "Ġears": 4490,
    "Ġobtain": 8913,
    "Ġpor": 5225,
    "Ġsocially": 22083,
    "Ġpolynesian": 26026,
    "inement": 11556,
    "Ġslang": 23158,
    "Ġshrinking": 14803,
    "Ġinanimate": 13931,
    "mured": 6960,
    "Ġ4": 3986,
    "Ġjustice": 5111,
    "phon": 4129,
    "Ġdoors": 6418,
    "Ġirr": 10420,
    "front": 12167,
    "Ġirksome": 13109,
    "Ġfast": 1716,
    "Ġcostly": 23583,
    "Ġprofessors": 14723,
    "izers": 18142,
    "Ġstarry": 16922,
    "Ġfine": 1317,
    "Ġadvert": 10570,
    "disaster": 23491,
    "Ġclimax": 25051,
    "recklessly": 25269,
    "Ġdivinest": 25722,
    "enthus": 17977,
    "Ġleaf": 15719,
    "Ġmirror": 12375,
    "Ġrocks": 6863,
    "Ġsignification": 19202,
    "ela": 21567,
    "scept": 21052,
    "Ġrefusing": 11027,
    "Ġwore": 6377,
    "question": 5418,
    "direct": 12453,
    "Ġstunsail": 25543,
    "values": 4973,
    "Ġatt": 785,
    "conclude": 24066,
    "roy": 7854,
    "Ġanimated": 7702,
    "oned": 4630,
    "Ġsenior": 17170,
    "Ġundiscovered": 18249,
    "Ġt": 261,
    "Ġandromeda": 21506,
    "iple": 4806,
    "Ġphant": 7055,
    "Ġmapple": 11149,
    "acknowledge": 18476,
    "Ġblue": 3450,
    "Ġaid": 6122,
    "âĢĶâĢĿ": 3296,
    "pro": 2050,
    "Ġpeddler": 24800,
    "Ġpout": 17906,
    "Ġbachel": 7158,
    "Ġcandle": 8292,
    "Ġencirc": 18730,
    "Ġusher": 22218,
    "moved": 9783,
    "Ġexact": 2542,
    "deal": 12795,
    "Ġaloud": 6252,
    "Ġanswer": 2597,
    "Ġbut": 424,
    "Ġunreasonable": 12772,
    "pieces": 8754,
    "Ġsepulch": 15282,
    "Ġoccasions": 7988,
    "globe": 25142,
    "Ġvariation": 22658,
    "Û": 156,
    "Ġannihilated": 20251,
    "Â£": 4812,
    "stirred": 20423,
    "neither": 9756,
    "cask": 12443,
    "G": 43,
    "itering": 17818,
    "Ġmillion": 14985,
    "Ġverify": 12084,
    "de": 460,
    "Ġpages": 15604,
    "Ġdoom": 6417,
    "carry": 19525,
    "Ġknocked": 9498,
    "farmer": 25899,
    "Ġdisd": 7030,
    "Ġhasten": 10477,
    "Ġbrazen": 23837,
    "Ġhanding": 16127,
    "Ġsuggested": 8321,
    "Ġsincerely": 7963,
    "Ġoar": 6236,
    "Ġgave": 2218,
    "ve": 322,
    "fair": 10091,
    "Ġamazement": 7765,
    "Ġfame": 21404,
    "isticated": 1576,
    "Ġsed": 10760,
    "Ġextent": 7655,
    "sil": 5282,
    "osures": 22259,
    "ode": 1454,
    "ĠĠĠĠĠĠĠĠĠĠĠĠĠĠĠĠĠĠĠĠĠĠĠĠĠĠĠĠĠĠ": 24442,
    "Ġresult": 4459,
    "Ġhind": 9187,
    "Ġenergetic": 15195,
    "Ġnoblest": 13239,
    "easily": 17533,
    "mount": 9128,
    "bringing": 17165,
    "Ġconve": 5455,
    "Ġtext": 2268,
    "Ġclapping": 14200,
    "Ġheinous": 18038,
    "Ġbehold": 5049,
    "Ġproportion": 7281,
    "aven": 8210,
    "Ġpersian": 11098,
    "Ġ105": 24412,
    "ivory": 10267,
    "usable": 22287,
    "Ġ101": 24408,
    "Ġquies": 18464,
    "ser": 1424,
    "Ġpatroness": 13508,
    "Ġtipt": 21172,
    "exception": 9974,
    "Ġloo": 22108,
    "Ġspo": 6846,
    "diminished": 20838,
    "Ġconduct": 3733,
    "Ġafghan": 22626,
    "odd": 21807,
    "Ġdissu": 18550,
    "pents": 11511,
    "amp": 2604,
    "Ġimmutable": 17356,
    "Ġrates": 1404,
    "Ġsimplicity": 2920,
    "ston": 15678,
    "ď": 208,
    "methodically": 20663,
    "Ġmud": 11571,
    "Ġsuits": 22086,
    "Ġuncivilized": 25498,
    "Ġkeeps": 8267,
    "iates": 13735,
    "icing": 9199,
    "Ġchest": 5185,
    "ĠĠĠĠĠĠĠĠĠĠĠĠĠĠĠĠĠĠĠĠĠĠĠĠĠĠĠĠĠĠĠĠĠĠĠĠĠĠĠĠĠĠĠĠĠĠĠĠĠĠĠĠĠ": 20038,
    "Ġbully": 23854,
    "Ġincrust": 22548,
    "igger": 21699,
    "Ġtow": 4395,
    "Ġimpud": 18445,
    "appro": 7044,
    "Ġtexas": 25922,
    "Ġravings": 18646,
    "Ġestim": 3346,
    "Ġbarnacled": 25536,
    "beth": 13686,
    "Ġsavann": 14683,
    "»": 124,
    "flour": 23963,
    "Ġsnaky": 23740,
    "Ġinjuries": 11276,
    "determine": 19942,
    "Ġrange": 9710,
    "Ġplied": 22599,
    "Ġshaping": 22001,
    "soon": 4028,
    "_.": 2213,
    "corn": 13697,
    "Ġresides": 22538,
    "Ġswells": 9825,
    "bres": 11470,
    "Ġmaintained": 12930,
    "mosphere": 10041,
    "hundreds": 25073,
    "Ġblanket": 8343,
    "Ġpleas": 1906,
    "agation": 1296,
    "Ġfiercely": 12948,
    "Ġconcealing": 23900,
    "Ġgoodge": 22823,
    "Ġpaltry": 16691,
    "Ġpersecutor": 26096,
    "ĠcÃ¦sar": 20578,
    "meanwhile": 10608,
    "Ġsum": 2699,
    "mrs": 3744,
    "Ġowed": 10779,
    "Ġcanada": 22164,
    "vess": 7354,
    "Ġslight": 3116,
    "produ": 10719,
    "prof": 7699,
    "Ġwhitting": 18055,
    "Ġcalmed": 16264,
    "iting": 2158,
    "Ġflesh": 5969,
    "Ġshot": 4543,
    "thoughts": 9933,
    "onsensical": 18575,
    "Ġalco": 21780,
    "guarded": 13292,
    "Ġmonosy": 18851,
    "Ġthanks": 6707,
    "Ġxxxiv": 24969,
    "Ġversion": 10628,
    "ppery": 10891,
    "outside": 12800,
    "Ġchips": 14180,
    "icy": 6140,
    "Ġjamming": 17263,
    "bushes": 24446,
    "Ġbankrupt": 16795,
    "aned": 5147,
    "unvarying": 21885,
    "Ġimperson": 14218,
    "Ġcorpulence": 24505,
    "k": 79,
    "ian": 1237,
    "arrant": 10473,
    "Ġunho": 18242,
    "stript": 21649,
    "olog": 1074,
    "ug": 1767,
    "Ġcolt": 11043,
    "Ġyojo": 7610,
    "Ġcomposure": 7217,
    "Ġhorizont": 6937,
    "bank": 10078,
    "relapse": 24013,
    "Ġdebility": 24271,
    "Ġimpress": 6862,
    "ances": 1341,
    "Ġfour": 2215,
    "Ġpour": 13912,
    "screen": 22994,
    "expedition": 26078,
    "system": 4787,
    "unwho": 21875,
    "trying": 15436,
    "Ġex": 361,
    "Ġtemperate": 16159,
    "Ġmexico": 15278,
    "Ġexpressions": 7706,
    "Ġwrig": 13064,
    "Ġeast": 5370,
    "Ġklan": 23658,
    "Ġconceited": 12087,
    "Ġwhoever": 10972,
    "Ġreb": 15687,
    "Ġgambler": 26190,
    "Ġbravely": 23836,
    "some": 2234,
    "Ġalways": 1695,
    "romed": 10904,
    "conspicuous": 26247,
    "ateur": 22004,
    "Ġseven": 4541,
    "ribes": 23365,
    "Ġ1890": 23893,
    "ctuous": 9204,
    "Ġreco": 9788,
    "Ġcliffs": 15964,
    "Ġbatt": 13897,
    "Ġhit": 7163,
    "Ġpauses": 14813,
    "public": 17645,
    "Ġcompasses": 11266,
    "Ġturn": 1294,
    "consumed": 25675,
    "Ġsyllable": 9726,
    "Ġcharge": 5324,
    "Ġgladstone": 23867,
    "Ġflap": 14420,
    "Ġenthusiastic": 19964,
    "trained": 4239,
    "Ġspeedily": 7712,
    "asher": 15642,
    "erne": 21268,
    "Ġinsurgents": 26599,
    "Ġlessons": 7692,
    "Ġfiftieth": 24703,
    "Ġdishon": 12227,
    "neighbouring": 19962,
    "fearing": 18526,
    "Ġlinen": 12404,
    "Ġoblig": 3441,
    "spikes": 10340,
    "Ġbabel": 24425,
    "Ġarthur": 7196,
    "Ġunsounded": 15846,
    "pendicular": 6499,
    "Ġsumat": 14135,
    "Ġmalignity": 10555,
    "Ġconcealment": 16913,
    "Ġfortresses": 23620,
    "conditionally": 24834,
    "gia": 20875,
    "Ġtheology": 21275,
    "Ġguineas": 16267,
    "Ġinsolent": 13598,
    "Ġmisgivings": 15289,
    "sing": 5138,
    "Ġsynd": 22200,
    "Ġcontinual": 6777,
    "Ġenable": 685,
    "elastic": 17980,
    "Ġelectric": 15192,
    "Ġtang": 13812,
    "Ġdupl": 9952,
    "Ġtyphoon": 12386,
    "ster": 1959,
    "Ġlung": 7167,
    "woe": 21134,
    "resistible": 10642,
    "Ġrestraint": 15125,
    "Ġcables": 15554,
    "ishing": 1144,
    "Ġresources": 2935,
    "tering": 3805,
    "tiger": 13795,
    "Ġir": 1994,
    "Ġconvent": 11666,
    "Ġacceded": 22377,
    "province": 26072,
    "dl": 20822,
    "endeavouring": 15014,
    "telesc": 22818,
    "sartain": 25622,
    "Ġslavish": 23172,
    "Ġlengthwise": 10451,
    "Ġtalks": 23368,
    "Ġprotruding": 16657,
    "Ġsl": 1499,
    "user": 5105,
    "hav": 20896,
    "Ġpaul": 12059,
    "Ġplaying": 6909,
    "sculptured": 26046,
    "Ġwint": 15530,
    "insurance": 18886,
    "road": 6677,
    "\"],": 26120,
    "Ġentreaties": 9034,
    "Ġinconvenient": 20008,
    "Ġhardships": 14449,
    "Ġparallel": 1413,
    "Ġsharply": 9401,
    "ity": 417,
    "Ġjabbering": 22308,
    "Ġfirst": 938,
    "eridge": 15523,
    "Ġcomplaisance": 19447,
    "ww": 10736,
    "Ġbeer": 10218,
    "asp": 3338,
    "Ġsolving": 2483,
    "bos": 17482,
    "face": 3676,
    "Ġcomponents": 8891,
    "Ġsmooth": 2775,
    "Ġseparated": 9463,
    "Ġfettered": 24567,
    "Ġcampaign": 20660,
    "Ġchecking": 23285,
    "Ġpan": 5082,
    "older": 15752,
    "Ġtant": 12521,
    "waters": 11332,
    "conveyed": 20519,
    "Ġtruck": 19510,
    "extinguish": 22762,
    "Ġalex": 15131,
    "Ġ199": 3007,
    "fl": 3597,
    "dread": 8728,
    "ù": 186,
    "obliged": 20630,
    "Ġunimag": 12770,
    "Ġbrace": 11210,
    "philosophy": 13578,
    "Ġthenceforth": 25182,
    "properly": 24918,
    "Ġdistantly": 18534,
    "dwell": 15339,
    "Ġabsurdities": 24878,
    "Ġanonymous": 26178,
    "Ġparade": 18301,
    "Ġpolar": 9409,
    "Ġeludes": 26553,
    "Ġexpected": 3696,
    "weekly": 25684,
    "asable": 21539,
    "Ġskies": 8919,
    "Ġfloats": 9411,
    "Ġacknowledge": 13400,
    "ator": 1922,
    "Ġpiratical": 24801,
    "Ġconnect": 799,
    "Ġcarn": 17821,
    "Ġdirectors": 18921,
    "Ġcauses": 2560,
    "Ġspeaks": 11158,
    "Ġheeds": 24519,
    "Ġtoe": 13934,
    "Ġpoisonous": 24887,
    "Ġsurmised": 24919,
    "riages": 10242,
    "henry": 16624,
    "Ġepaulets": 24905,
    "Ġimitated": 18330,
    "inserted": 18885,
    "emotions": 15791,
    "awful": 23112,
    "Ġwriter": 11942,
    "eth": 619,
    "Ġsire": 15499,
    "Ġcollinses": 19129,
    "Ġjackal": 24238,
    "bonnet": 25742,
    "Ġdella": 21438,
    "bestow": 16928,
    "Ġowner": 8920,
    "Ġillustrious": 17108,
    "Ġtongues": 14861,
    "midnight": 14898,
    "K": 47,
    "isle": 13890,
    "Ġconversation": 3328,
    "Ġwail": 21285,
    "Ġsubtle": 6716,
    "Ġthy": 2514,
    "Ġruss": 18719,
    "Ġsolitude": 6876,
    "elope": 14455,
    "doing": 8584,
    "aled": 3944,
    "cannib": 11899,
    "cried": 8724,
    "pered": 4198,
    "Ġmuff": 8114,
    "Ġcant": 17824,
    "fire": 6357,
    "Ġcred": 8779,
    "eyes": 5684,
    "nant": 17608,
    "inished": 17733,
    "probable": 17020,
    "Ġgoodness": 6059,
    "stains": 11634,
    "..": 5783,
    "affa": 23774,
    "Ġderives": 16306,
    "odox": 21809,
    "Ġdevelopments": 23233,
    "Ġlapse": 17119,
    "Ġendwise": 23142,
    "Ġmechanism": 2147,
    "Ġdisdained": 15008,
    "Ġreject": 7386,
    "class": 4098,
    "Ġconstrain": 2628,
    "itia": 11577,
    "Ġpuff": 6526,
    "Ġegot": 18007,
    "Ġnarrative": 6215,
    "Ġfastidious": 14491,
    "Ġsides": 4578,
    "Ġfulfilled": 11361,
    "degrees": 22148,
    "Ġbaron": 19333,
    "Ġwitnesses": 9484,
    "Ġstops": 3163,
    "tempered": 13444,
    "Ġsch": 13833,
    "Ġcheever": 23283,
    "Ġtranspired": 16783,
    "felicity": 25140,
    "Ġblending": 14398,
    "distrustful": 26330,
    "augh": 1782,
    "metic": 14982,
    "Ġforgive": 8010,
    "Ġabraham": 18395,
    "Ġrasc": 21975,
    "Ġcoleman": 22585,
    "Ġstup": 14003,
    "Ę": 217,
    "Ġsul": 7570,
    "Ġbehavioral": 11395,
    "thick": 10259,
    "sixty": 24852,
    "Ġnetherfield": 3930,
    "fabulous": 20472,
    "Ġnast": 15635,
    "Ġinfer": 7684,
    "reject": 21235,
    "Ġtreats": 19342,
    "jected": 22710,
    "Ġunnaturally": 24870,
    "Ġhomely": 25219,
    "unwillingness": 25802,
    "Ġmarines": 16256,
    "beam": 16034,
    "Ġcursory": 18849,
    "Ġeducation": 5128,
    "Ġtangled": 13825,
    "ĠĠĠĠĠĠĠĠĠĠĠĠĠĠĠĠĠĠĠĠĠĠĠĠĠĠĠĠĠĠĠĠĠĠĠĠĠĠĠĠ": 4516,
    "olds": 9309,
    "Ġeaten": 14843,
    "Ġsaint": 15505,
    "Ġsprained": 15880,
    "Ġring": 4451,
    "Ġhelper": 24023,
    "Ġgreedy": 3051,
    "Ġallegro": 25794,
    "nameless": 19902,
    "Ġwhitewashed": 14467,
    "Ġdefine": 9813,
    "umbling": 6758,
    "Ġinvitation": 5189,
    "onely": 6516,
    "Ġ182": 13234,
    "Ġhing": 11602,
    "injustice": 17736,
    "iven": 1235,
    "Ġahead": 6662,
    "generosity": 23784,
    "Ġsensational": 16386,
    "hatch": 15362,
    "Ġancles": 21445,
    "Ġmisanthrop": 22757,
    "cooks": 25067,
    "Ġbeque": 18080,
    "Ġcultured": 25154,
    "Ġsouthwards": 19632,
    "solution": 14685,
    "Ġmarvels": 11082,
    "circumstances": 8047,
    "dress": 17519,
    "Ġequator": 7461,
    "Ġuprising": 12798,
    "Ġchecked": 9374,
    "Ġelevate": 24498,
    "Ġextravagant": 17277,
    "then": 2053,
    "Ġfunctional": 3046,
    "Ġsooty": 25815,
    "Ġpart": 859,
    "Ġgrenadier": 21614,
    "confused": 19643,
    "Ġperdition": 15989,
    "loo": 10318,
    "halfway": 24310,
    "Ġgamb": 17997,
    ",âĢĻ": 2329,
    "Ġspeaker": 19148,
    "com": 992,
    "paid": 15412,
    "Ġcomfortable": 6095,
    "ė": 216,
    "Ġcobbling": 20521,
    "dw": 3331,
    "astron": 22167,
    "iriously": 18169,
    "Ġbarrier": 16568,
    "impl": 21705,
    "Ġspend": 5304,
    "planted": 11693,
    "iocr": 20922,
    "kov": 17585,
    "cont": 2917,
    "Ġdearest": 5457,
    "feather": 16039,
    "weary": 22684,
    "willing": 6592,
    "Ġuncl": 22012,
    "Ġfedallah": 6108,
    "portent": 25412,
    "Ġchuck": 8501,
    "Ġalan": 10868,
    "Ġwarned": 16879,
    "ground": 4671,
    "Ġsciences": 15941,
    "Ġhan": 15614,
    "Ġsnar": 13198,
    "arson": 22748,
    "Ġano": 11594,
    "Ġcontrived": 10302,
    "Ġcanvas": 7784,
    "Ġjenkinson": 11430,
    "rent": 1173,
    "sively": 13784,
    "Ġcruisings": 25864,
    "Ġhungry": 10531,
    "superstitious": 17279,
    "breaking": 14763,
    "Ġannouncement": 14831,
    "inch": 10754,
    "Ġback": 835,
    "Ġadvent": 4356,
    "peaceful": 20445,
    "Ġengraving": 17079,
    "Ġjagged": 18407,
    "cord": 8723,
    "Ġsurprise": 3829,
    "ibbald": 18840,
    "therly": 18346,
    "berish": 22717,
    "creator": 26380,
    "Ġreputation": 11638,
    "Ġmultitudinous": 26273,
    "Ġmixing": 24934,
    "swe": 5996,
    "gravel": 22619,
    "who": 2446,
    "frock": 20119,
    "holder": 13280,
    "Ġbamboo": 17435,
    "rug": 18344,
    "pus": 3411,
    "Ġforbidding": 17078,
    "fordshire": 4676,
    "Ġstraightway": 9015,
    "Ġreusable": 13555,
    "Ġspine": 7407,
    "Ġvancouver": 26564,
    "Ġarrant": 23296,
    "preading": 18497,
    "conjecture": 15120,
    "Ġshadows": 8013,
    "Ġbirch": 26174,
    "Ġirrad": 19093,
    "Ġunique": 12773,
    "Ġsample": 3175,
    "Ġprofoundly": 16858,
    "Ġarchitect": 968,
    "Ġinsatiable": 19271,
    "Ġline": 1849,
    "Ġfairy": 14625,
    "pul": 8753,
    "Ġarchipelagoes": 14345,
    "Ġthackeray": 26454,
    "Ġhot": 4257,
    "Ġbury": 12039,
    "Ġsitting": 3602,
    "omy": 6249,
    "weaving": 18666,
    "Ġandes": 12637,
    "Ġreported": 11976,
    "forgotten": 12413,
    "ingly": 2135,
    "Ġmild": 4148,
    "union": 15766,
    "Ġpromised": 5181,
    "Ġ63": 24365,
    "liv": 9606,
    "Ġimbedded": 18333,
    "Ġboyhood": 23753,
    "Ġpositions": 2057,
    "berwell": 22719,
    "Ġlap": 8437,
    "Ġphiladel": 23883,
    "Ġdiminished": 16664,
    "Ġcollar": 11876,
    "Ġthirds": 16707,
    "solitude": 23295,
    "several": 5543,
    "12": 20748,
    "robustness": 26338,
    "Ġbolted": 12241,
    "Ġfigured": 16642,
    "prince": 23811,
    "hmael": 7342,
    "Ġplunging": 14950,
    "Ġaddresses": 3768,
    "Ġthro": 5817,
    "world": 5058,
    "Ġgn": 8816,
    "W": 59,
    "wound": 21125,
    "Ġregulate": 22577,
    "Ġchestnuts": 24380,
    "Ġextinct": 14326,
    "Ġspatial": 2729,
    "Ġremoter": 20104,
    "Ġcry": 3493,
    "Ġdust": 5909,
    "Ġproceeded": 5335,
    "twenty": 6607,
    "Ġvacant": 9493,
    "Ġimaginary": 11185,
    "Ġ95": 19772,
    "Ġtrous": 10957,
    "Ġforesight": 13125,
    "anque": 13886,
    "Ġgilded": 17443,
    "bouton": 17500,
    "loops": 12879,
    "past": 8090,
    "iv": 432,
    "Ġpass": 1040,
    "Ġcheerily": 13305,
    "fishers": 24928,
    "together": 3554,
    "oct": 7554,
    "Ġcelebrate": 26357,
    "Ġloosed": 22110,
    "Ġenlarged": 25985,
    "indeed": 4487,
    "Ġrecollecting": 17112,
    "dan": 17514,
    "Ġconverts": 2802,
    "Ġtotally": 9469,
    "slept": 17168,
    "Ġmaddened": 17243,
    "Ġbloodshed": 23798,
    "sn": 7138,
    "Ġcontext": 1696,
    "Ġspecimen": 13019,
    "beg": 22484,
    "Ġdinnertime": 16718,
    "Ġexpectantly": 23522,
    "Ġribbons": 24328,
    "Ġspecks": 14306,
    "Ġcocks": 18597,
    "Ġobliquely": 12359,
    "Ġkill": 4453,
    "Ġworsted": 19993,
    "please": 8177,
    "Ġmon": 1251,
    "terrible": 8465,
    "Ġdurst": 20351,
    "Ġgrunted": 16164,
    "Ġvillains": 14748,
    "Ġhide": 4588,
    "hy": 4739,
    "ofs": 11828,
    "usions": 6159,
    "Ġcaptured": 7245,
    "Ġburgl": 13171,
    "superst": 11324,
    "Ġexcl": 3471,
    "Ġplease": 4722,
    "Ġoccup": 3739,
    "Ġtails": 9900,
    "topic": 10526,
    "Ġalms": 21778,
    "Ġinsurance": 23677,
    "Ġacutely": 14312,
    "en": 271,
    "ienced": 5685,
    "illar": 5101,
    "Ġchapel": 9521,
    "battle": 12439,
    "dreams": 12334,
    "boards": 23254,
    "Ġscan": 22277,
    "Ġdubious": 17381,
    "ement": 1503,
    "Ġjuggling": 20437,
    "Ġcategor": 4141,
    "lin": 9602,
    "kl": 4865,
    "Ġpunctures": 25133,
    "Ġcompare": 9300,
    "leap": 21365,
    "Ġflatt": 16243,
    "Ġblinding": 14726,
    "Ġwarmest": 16482,
    "Ġreligions": 20106,
    "Ġvictim": 6098,
    "Ġadmitting": 19182,
    "itancy": 21331,
    "inioned": 19286,
    "igantic": 5538,
    "Ġfavourably": 16362,
    "mons": 17599,
    "cket": 3686,
    "Ġexerting": 21830,
    "Ġlonger": 3357,
    "Ġravines": 25831,
    "ishly": 14202,
    "bpp": 20771,
    "21": 10070,
    "Ġlivers": 18461,
    "Ġscrewing": 20207,
    "arrived": 12605,
    "Ġcurrents": 13011,
    "humoredly": 26324,
    "Ġmission": 13002,
    "missing": 13216,
    "Ġfatality": 12091,
    "Ġpicturesqueness": 24479,
    "acute": 22596,
    "Ġguards": 16265,
    "Ġpolitical": 19222,
    "Ġbuckets": 17033,
    "Ġalabama": 14017,
    "spouting": 25002,
    "Ġtrials": 16788,
    "Ġrespectfully": 18993,
    "Ġar": 480,
    "Ġhelps": 9365,
    "Ġwhereon": 16098,
    "confl": 22469,
    "Ġflurry": 18860,
    "oes": 4433,
    "ested": 3476,
    "Ġserenely": 13505,
    "suitable": 18629,
    "Ġjail": 22299,
    "Ġwithdrew": 9694,
    "ocratic": 17244,
    "Ġhuzza": 12629,
    "Ġindu": 5293,
    "Ġpoignant": 22591,
    "Ġinferior": 8366,
    "Ġhearty": 9845,
    "Ġreproached": 24891,
    "Ġart": 750,
    "Ġsubsets": 2346,
    "Ġspeeding": 23561,
    "Ġincredulous": 9985,
    "Ġvault": 8839,
    "Ġsavagely": 26323,
    "Ġpitching": 16610,
    "gan": 2199,
    "compar": 14357,
    "he": 264,
    "Ġprofoundest": 16859,
    "mes": 1197,
    "Ġenormous": 5608,
    "Ġdisco": 3425,
    "Ġpet": 4585,
    "opposite": 19928,
    "Ġtransl": 2826,
    "eties": 10836,
    "harpoons": 24284,
    "companions": 15022,
    "ially": 9245,
    "Ġimpatiently": 8338,
    "estations": 22226,
    "Ġwashes": 21859,
    "Ġpercept": 14222,
    "Ġaffrighted": 13570,
    "lad": 5992,
    "Ġgi": 15662,
    "Ġvolume": 6769,
    "pardon": 10063,
    "oke": 1859,
    "wonder": 6371,
    "vial": 17696,
    "fortunes": 6332,
    "Ġwandering": 8653,
    "Ġunwe": 15835,
    "_âĢĶ": 11466,
    "Ġmotions": 8281,
    "Ĩ": 233,
    "Ġgroping": 13663,
    "complacency": 19913,
    "Ġfather": 1451,
    "Ġfinding": 3262,
    "infor": 3173,
    "inf": 6232,
    "Ġquarters": 8619,
    "satisfaction": 9990,
    "Ġdepths": 4325,
    "interrupt": 8615,
    "irably": 13293,
    "ceived": 1965,
    "Ġsash": 17753,
    "yielded": 25756,
    "Ġinterpreter": 23214,
    "Ġmaritime": 23036,
    "Ġcompleted": 8996,
    "Ġveritable": 19379,
    "Ġconstructed": 9384,
    "Ġobstructed": 24677,
    "ensation": 22543,
    "conven": 6162,
    "Ġcan": 471,
    "Ġjulia": 22307,
    "Ġportentous": 15227,
    "Ġman": 544,
    "Ġascending": 14852,
    "Ġvillage": 5774,
    "Ġterm": 2267,
    "Ġentertain": 6054,
    "ootiful": 17371,
    "Ġsubterr": 10347,
    "Ġmustering": 18662,
    "Ġunreasonably": 17449,
    "hearth": 15497,
    "gely": 10699,
    "imate": 4222,
    "Ġhole": 6080,
    "Ġapples": 22211,
    "Ġtahitian": 25427,
    "Ġvainly": 9922,
    "Ġdre": 1743,
    "Ġbelieve": 2148,
    "Ġdefe": 21833,
    "Ġqualities": 7533,
    "Ġperpet": 7644,
    "Ġunprinciple": 18251,
    "stall": 21638,
    "Ġfury": 7662,
    "alty": 17938,
    "onde": 21250,
    "uber": 15443,
    "Ġunfortunate": 5376,
    "example": 16010,
    "Ġdial": 10809,
    "Ġultimately": 17163,
    "reck": 9635,
    "Ġfrightens": 24027,
    "Ġexpanded": 14289,
    "Ġunwell": 22013,
    "sense": 11522,
    "tisement": 6767,
    "Ġeconomically": 25288,
    "Ġwhaling": 2779,
    "known": 3566,
    "against": 5870,
    "intelligence": 5883,
    "ories": 4752,
    "Ġfitzwilliam": 5771,
    "Ġvolat": 24143,
    "Ġscreamed": 9522,
    "sion": 8094,
    "Ġdinn": 23978,
    "ss": 396,
    "Ġshocking": 10434,
    "Ġcomplexion": 8212,
    "odhead": 18117,
    "Ġeasy": 3448,
    "bedroom": 14675,
    "bowl": 14889,
    "Ġpompous": 20421,
    "Ġfoster": 18990,
    "Ġtranslation": 3084,
    "Ġtriangular": 14857,
    "Ġ1778": 25730,
    "Ġunbelief": 22045,
    "Ġperseverance": 13595,
    "Ġcircumstantial": 14642,
    "befriend": 22489,
    "Ġmust": 844,
    "Ġmagnanimous": 17409,
    "georgiana": 26020,
    "Ġdegener": 14046,
    "dreaded": 25138,
    "destroy": 19509,
    "Ġfrank": 4419,
    "tackle": 17319,
    "ĠĠĠĠĠĠĠĠĠĠĠĠĠĠĠĠĠĠĠĠĠĠĠĠĠĠĠĠĠ": 19698,
    "Ġinspire": 11992,
    "Ġmons": 10155,
    "Ġbasket": 9571,
    "feet": 6568,
    "Ġsaxon": 25468,
    "describe": 1515,
    "Ġshutting": 14758,
    "onical": 21252,
    "Ġbuzz": 23994,
    "Ġconvulsively": 25717,
    "Ġsound": 2242,
    "Ġgouge": 26188,
    "Ġdrunken": 12047,
    "Ġflooring": 23623,
    "Ġboun": 21378,
    "Ġisn": 7867,
    "iteous": 14259,
    "Ġpenalty": 1840,
    "Ġturbid": 23610,
    "Ġcho": 4546,
    "court": 7511,
    "dug": 18462,
    "Ġfreshets": 25705,
    "arb": 1566,
    "Ġstable": 2698,
    "eneva": 5118,
    "Ġfel": 1518,
    "ontory": 10458,
    "Ġmilan": 19534,
    "Ġpanegyric": 26448,
    "hinting": 17568,
    "Ġnightgown": 23131,
    "preserving": 25304,
    "Ġconvul": 13201,
    "del": 4078,
    "captain": 3954,
    "Ġwheeling": 18286,
    "heedful": 20572,
    "arness": 11670,
    "showing": 22454,
    "Ġsemantic": 1957,
    "Ġsauntering": 18327,
    "Ġserv": 3327,
    "appe": 2942,
    "imp": 3030,
    "dimens": 2319,
    "Ġaglow": 22512,
    "ĥ": 230,
    "exc": 5169,
    "Ġkeep": 2358,
    "mbly": 9793,
    "clearer": 24067,
    "business": 5609,
    "Ġmalay": 24390,
    "Ġharmless": 9963,
    "Ġoriginally": 7304,
    "Ġmig": 13854,
    "Ġmagnet": 10388,
    "breath": 15160,
    "Ġmisgiv": 14343,
    "Ġ18": 3403,
    "Ġtrample": 20326,
    "solute": 16597,
    "arms": 10172,
    "aid": 1921,
    "vice": 15447,
    "Ġsakes": 18326,
    "Ġ91": 24590,
    "Ġdad": 12596,
    "haust": 5777,
    "Ġloom": 7628,
    "Ġtyro": 16993,
    "poured": 17636,
    "Ġsurvivors": 25732,
    "Ġear": 1421,
    "Ġclanging": 18419,
    "Ġtertiary": 15292,
    "flukes": 25205,
    "Ġticklish": 25034,
    "Ġspot": 4156,
    "life": 4932,
    "Ġrampart": 20317,
    "Ġsuccess": 3607,
    "'(": 2975,
    "hos": 15361,
    "Ġarrog": 18342,
    "Ġunclad": 22050,
    "alse": 4185,
    "Ġcoars": 14269,
    "Ġfair": 2833,
    "mankind": 14371,
    "Ġcoopers": 20520,
    "Ġoaks": 16932,
    "Ġpermitting": 22397,
    "Ġskip": 1845,
    "Ġentering": 6285,
    "Ġdaunt": 19663,
    "Ġsaw": 1354,
    "god": 4863,
    "investigations": 25533,
    "correspond": 13396,
    "Ġdeliberate": 15021,
    "Ġhost": 7068,
    "Ġfetch": 7770,
    "Ġshocks": 16455,
    "Ġgeorgia": 23884,
    "Ġlaud": 17967,
    "explaining": 23139,
    "hon": 6793,
    "traced": 19636,
    "Ġinequalities": 26452,
    "Ġhollow": 5648,
    "station": 10843,
    "whal": 10939,
    "etence": 21575,
    "is": 280,
    "Ġbetrayed": 9560,
    "except": 5383,
    "Ġapologized": 25198,
    "newsp": 23133,
    "furnished": 20240,
    "rants": 13776,
    "Ġplan": 3882,
    "marrying": 19546,
    "worshipping": 16609,
    "Ġhertfordshire": 5377,
    "unaccountable": 15775,
    "Ġmissionary": 25696,
    "wolf": 26408,
    "Ġmixture": 9561,
    "enjoy": 10773,
    "Ġinputs": 843,
    "Ġeternally": 11368,
    "boo": 16348,
    "bare": 12438,
    "Ġtoes": 10828,
    "Ġtoma": 7373,
    "Ġinvest": 4978,
    "Ġluff": 15649,
    "Ġwished": 3729,
    "pushed": 21022,
    "ushes": 22289,
    "itting": 1152,
    "being": 3913,
    "Ġgre": 1586,
    "kingly": 20938,
    "kick": 20935,
    "pt": 388,
    "Ġknowingly": 18480,
    "Ġscraping": 13414,
    "another": 5439,
    "Ġhuff": 21488,
    "Ġprodu": 1205,
    "vo": 11538,
    "Ġretarded": 23070,
    "Ġscoresby": 10460,
    "parsee": 14515,
    "Ġzigzag": 26272,
    "osy": 11755,
    "mped": 16646,
    "Ġreaped": 18029,
    "Ġslices": 23164,
    "Ġliv": 6679,
    "arse": 7160,
    "Ġservox": 23868,
    "etuous": 21581,
    "hel": 4814,
    "Ġprevented": 5942,
    "gement": 13726,
    "Ġboughs": 20487,
    "Ġsavage": 4010,
    "Ġspermaceti": 8966,
    "Ġfireside": 23528,
    "Ġmonsieur": 12418,
    "appetite": 22845,
    "Ġgra": 415,
    "Ġflorid": 17134,
    "strikes": 24670,
    "Ġschoolmaster": 16861,
    "Ġmac": 15535,
    "entials": 22657,
    "Ġshiver": 12763,
    "nial": 20983,
    "Ġflourishing": 25187,
    "Ġamusement": 8056,
    "Ġcatch": 4440,
    "Ġeyebrows": 23513,
    "Ġramadans": 25119,
    "canonical": 22961,
    "Ġstigma": 25791,
    "Ġlou": 6822,
    "Ġconjured": 25099,
    "icha": 11735,
    "Ġwhether": 2001,
    "Ġenchanted": 9079,
    "Ġche": 1763,
    "Ġintellig": 526,
    "yarn": 15455,
    "Ġdaggoo": 5441,
    "Ġcommenced": 8531,
    "movement": 25577,
    "Ġforesee": 19125,
    "Ġneighb": 14074,
    "Ġescaped": 6459,
    "Ġemigrant": 25859,
    "Ġvalleys": 14917,
    "extreme": 11028,
    "Ġeaves": 15672,
    "Ġfries": 21414,
    "Ġsalary": 13291,
    "Ġestimates": 3747,
    "friendship": 24047,
    "Ġbarred": 9001,
    "Ġtent": 15465,
    "Ġhandkerchief": 8912,
    "Ġsavory": 23874,
    "overspreading": 26139,
    "Ġplun": 6281,
    "Ġpian": 13915,
    "Ġsparkling": 11355,
    "Ġnuptial": 25782,
    "Ġoperate": 19115,
    "Ġvarieties": 14308,
    "precedented": 15172,
    "Ġreaching": 7303,
    "ys": 3960,
    "load": 12877,
    "Ġafforded": 8029,
    "Ġremain": 1872,
    "Ġpress": 5932,
    "Ġyale": 21777,
    "Ġbathe": 25443,
    "Ġconditions": 8307,
    "iary": 15368,
    "eel": 11482,
    "Ġvexed": 9992,
    "Ġ80": 24455,
    "Ġsuppress": 13020,
    "eronomy": 15522,
    "endured": 22223,
    "Ġundo": 15837,
    "Ġemir": 23349,
    "Ġnailed": 10188,
    "w": 91,
    "olly": 3224,
    "darker": 24512,
    "lives": 12482,
    "Ġtiller": 8964,
    "ens": 701,
    "wheels": 14379,
    "Ġgravel": 14100,
    "arthur": 14828,
    "Ġmatter": 1733,
    "Ġ22": 8279,
    "opolising": 25676,
    "Ġmarching": 16698,
    "Ġmarsh": 9819,
    "ateg": 1325,
    "Ġhummed": 18777,
    "Ġmiserably": 12944,
    "Ġtarred": 23608,
    "Ġimitate": 14156,
    "Ġlieu": 19563,
    "Ġberkshire": 16883,
    "Ġprouder": 18972,
    "Ġdeline": 16330,
    "belt": 24033,
    "Ġwharves": 13504,
    "mansion": 20982,
    "peasant": 23108,
    "sounded": 12263,
    "51": 12428,
    "Ġenl": 18188,
    "Ġdrowsiness": 26444,
    "Ġ20": 8613,
    "Ġtomahawk": 7539,
    "Ġoffences": 18693,
    "Ġexcuse": 5861,
    "Ġtheoretic": 23308,
    "Ġmight": 961,
    "urmount": 13994,
    "Ġproper": 1378,
    "protest": 24815,
    "54": 15297,
    "Ġtass": 15467,
    "orney": 17873,
    "Ġisol": 8832,
    "dataset": 23247,
    "Ġstrokes": 16768,
    "Ġelements": 2667,
    "Ġprosper": 10227,
    "Ġawait": 17072,
    "Ġnavigation": 9991,
    "Ġfattened": 25949,
    "twain": 23695,
    "same": 5361,
    "orum": 12586,
    "Ġfight": 5366,
    "Ġcow": 13874,
    "Ġneskyeuna": 26458,
    "cooper": 19188,
    "Ġreceipt": 20354,
    "Ġpirate": 14995,
    "getting": 12963,
    "Ġspitzbergen": 15285,
    "Ġcharacters": 9369,
    "sequ": 2402,
    "Ġnom": 21517,
    "wide": 10136,
    "listen": 13512,
    "Ġspacious": 18312,
    "Ġsneering": 24697,
    "Ġemperor": 15156,
    "plac": 15813,
    "perth": 22174,
    "ned": 3489,
    "Ġsoftly": 7948,
    "Ġobedient": 20103,
    "İ": 241,
    "Ġfloat": 12029,
    "birds": 15142,
    "Ġabatement": 22274,
    "nobody": 16136,
    "alogies": 25158,
    "Ġwhispered": 5337,
    "cursed": 23841,
    "Ġheathenish": 13614,
    "insula": 23064,
    "Ġimpropriety": 17393,
    "prehens": 9287,
    "niece": 20994,
    "goodness": 19288,
    ")(": 2977,
    "Ġmaria": 7124,
    "belongs": 25596,
    "Ġrapt": 7227,
    "weight": 2938,
    "ou": 287,
    "Ġpractised": 23337,
    "Ġadvancement": 24474,
    "Ġlizzy": 3544,
    "Ġexclam": 6757,
    "Ġbulkington": 14676,
    "constantinople": 25507,
    "brow": 15313,
    "Ġagonising": 25373,
    "Ġdimmed": 24266,
    "visited": 13345,
    "Ġwantonly": 22890,
    "Ġinex": 6528,
    "Ġexpatiate": 18624,
    "Ġdecline": 9285,
    "witness": 10033,
    "Ġclump": 15962,
    "Ġunfathom": 14787,
    "Ġslacked": 25188,
    "Ġrailway": 15019,
    "Ġed": 2143,
    "tor": 15430,
    "Ġfancies": 10423,
    "Ġblot": 9810,
    "Ġtaught": 6803,
    "bag": 7542,
    "Ġthrobbing": 16897,
    "Ġtranqu": 4604,
    "Ġblasphemy": 26115,
    "Ġw": 272,
    "Ġreserved": 7515,
    "ipt": 12475,
    "Ġpike": 12619,
    "comb": 11035,
    "Ġwings": 9162,
    "30": 20753,
    "Ġbravery": 23834,
    "ĩ": 234,
    "Ġderision": 16307,
    "Ġjinglers": 26018,
    "Ġenig": 15796,
    "Ġket": 18347,
    "Ġsmall": 892,
    "gi": 17550,
    "clearly": 25195,
    "urrection": 12406,
    "aan": 20763,
    "idly": 12696,
    "Ġinnocence": 6477,
    "Ġdire": 866,
    "Ġnorris": 23199,
    "im": 327,
    "apprehens": 17404,
    "Ġdrives": 14576,
    "Ġmarvelled": 18873,
    "osop": 4404,
    "rength": 4103,
    "Ġinexperienced": 26100,
    "serious": 14446,
    "Ġappearance": 3699,
    "inative": 15482,
    "Ġmastery": 23990,
    "Ġexercised": 24803,
    "apply": 18760,
    "biqu": 17496,
    "Ġheadstrong": 14386,
    "Ġprovided": 6577,
    "Ġincorruption": 26309,
    "asol": 21538,
    "Ġequatorial": 13507,
    "Ġcoins": 11816,
    "Ġshutter": 16669,
    "Ġregret": 5560,
    "ribly": 8255,
    "set": 3866,
    "Ġtempted": 9055,
    "Ġcentre": 5122,
    "Ġphilosopher": 12180,
    "iteness": 4392,
    "Ġschedu": 1823,
    "Ġheightens": 24153,
    "ric": 1376,
    "Ġdeveloped": 16333,
    "Ġtiar": 21166,
    "Ġprovides": 1929,
    "Ġstruggle": 3674,
    "Ġsorts": 6887,
    "Ġmeta": 3461,
    "home": 7341,
    "started": 10844,
    "Ġsulkily": 25882,
    "disputed": 23498,
    "Ġincess": 8431,
    "ounts": 4651,
    "Ġlifted": 6985,
    "robber": 21535,
    "Ġresnet": 5473,
    "ag": 379,
    "begged": 18517,
    "Ġreceive": 4703,
    "Ġsir": 1571,
    "Ġdup": 21426,
    "Ġvoracity": 25986,
    "Ġgilder": 21611,
    "jol": 20924,
    "Ġfallen": 5968,
    "advantage": 8658,
    "tomahawk": 25915,
    "Ġsteersman": 13037,
    "Ġsurmis": 23462,
    "Ġto": 297,
    "Ġhabitations": 24789,
    "chery": 24550,
    "Ġty": 6657,
    "Ġconveyed": 8335,
    "Ġmeditate": 16681,
    "Ġtired": 9148,
    "Ġcritics": 23443,
    "Ä": 133,
    "Ġcrumb": 16438,
    "Ġsubl": 7235,
    "Ġrescue": 13340,
    "una": 21867,
    "Ġannoyance": 20661,
    "Ġstalk": 12693,
    "Ġbelie": 14404,
    "taught": 17683,
    "coiled": 16484,
    "Ġhelping": 3264,
    "bellies": 19972,
    "bal": 2157,
    "sign": 8388,
    "back": 2018,
    "Ġfrequ": 3326,
    "merry": 16533,
    "Ġfling": 9659,
    "Ġyounger": 5252,
    "Ġfool": 4235,
    "expanded": 23661,
    "Ġthee": 2622,
    "Ġoccurrence": 14380,
    "Ġhangs": 11604,
    "Ġassault": 9835,
    "Ġadversity": 24302,
    "conv": 7213,
    "Ġfid": 10802,
    "preference": 22465,
    "been": 3342,
    "classes": 12132,
    "Ġcanals": 22163,
    "Ġadieu": 10049,
    "ountain": 2915,
    "bus": 5354,
    "Ġlaboratory": 13610,
    "Ġpreparation": 13527,
    "erative": 21271,
    "yes": 984,
    "Ġflew": 5587,
    "Ġpigs": 19746,
    "falling": 24360,
    "Ġimmersed": 19483,
    "Ġwarmth": 6905,
    "Ġirritation": 20265,
    "Ġmisunderstand": 18704,
    "da": 17513,
    "Ġdistrusted": 13540,
    "clothed": 19736,
    "uer": 21099,
    "consent": 18503,
    "rabb": 15676,
    "immedi": 8450,
    "iform": 2201,
    "Ġsamuel": 10031,
    "Ġnice": 6676,
    "Ġwho": 612,
    "laws": 19806,
    "ifford": 15780,
    "Ġgrampus": 21991,
    "anders": 18152,
    "Ġott": 13864,
    "stripped": 16944,
    "Ġmurmuring": 23578,
    "wondering": 19844,
    "Ġtru": 4108,
    "Ġgallons": 14816,
    "Ġspeech": 4609,
    "Ġcontrive": 16007,
    "ondescript": 22914,
    "Ġcyl": 15553,
    "ins": 1377,
    "Ġvales": 21944,
    "throw": 14096,
    "mbl": 5947,
    "ying": 1449,
    "Ġreluct": 14369,
    "omas": 12672,
    "Ġreliability": 22879,
    "onsense": 6431,
    "Ġ7": 4744,
    "Ġardent": 9968,
    "grateful": 10427,
    "Ġfunere": 22257,
    "Ġwax": 10775,
    "sar": 12501,
    "Ġwilderness": 14838,
    "helmsman": 24286,
    "Ġmates": 4872,
    "uteness": 17985,
    "oding": 1463,
    "Ġconsoled": 18112,
    "proof": 16421,
    "pow": 10716,
    "Ġtinge": 25087,
    "Ġlocking": 18298,
    "tern": 4224,
    "Ġcurric": 22973,
    "Ġnightfall": 23130,
    "proportions": 22858,
    "Ġcongratulations": 10579,
    "Ġoutdone": 22316,
    "Ġagricultural": 26549,
    "Ġgouldings": 26187,
    "precipitance": 25867,
    "Ġeconomy": 17199,
    "intellect": 18821,
    "uine": 13797,
    "Ġbased": 3337,
    "lemency": 21372,
    "ogr": 18670,
    "Ġtyph": 10006,
    "Ġstroll": 13350,
    "Ġdeceitfulness": 25734,
    "paint": 21017,
    ".*": 7331,
    "knowing": 10436,
    "Ġferocious": 17417,
    "Ġprejudiced": 24809,
    "Ġplantation": 11422,
    "Ġtrades": 8232,
    "mediterranean": 16400,
    "spouter": 22733,
    "nnight": 20992,
    "lect": 1221,
    "kshire": 13744,
    "gy": 2097,
    "Ġstab": 10861,
    "Ġlouisa": 13544,
    "oors": 17619,
    "etian": 13957,
    "Ġdug": 21429,
    "ortunities": 15937,
    "striving": 24669,
    "Ġfeature": 748,
    "canallers": 22962,
    "Ġmentioning": 9897,
    "Ġdoes": 942,
    "Ġmarking": 16467,
    "arboard": 7266,
    "Ġgirth": 13133,
    "apart": 15958,
    "Ġconverted": 16108,
    "Ġalcoves": 26485,
    "Ġglories": 16238,
    "Ġfern": 21405,
    "Ġbreaches": 14520,
    "along": 6013,
    "bab": 11467,
    "Ġwearied": 15789,
    "eli": 3874,
    "Ġprone": 18968,
    "look": 2262,
    "ado": 11656,
    "occasion": 7754,
    "Ġhor": 1660,
    "Ġsupplies": 20325,
    "Ġincompetent": 25679,
    "held": 3840,
    "Ġalleg": 14015,
    "slight": 10726,
    "Ġdisdain": 8360,
    "rusted": 16505,
    "Ġexclusion": 19394,
    "leviathan": 7785,
    "Ġ16": 7927,
    "Ġarc": 14159,
    "Ġwarb": 17787,
    "knight": 20939,
    "Ġissue": 2310,
    "rudently": 16710,
    "Ġcapable": 5054,
    "Ġcarries": 7674,
    "reasonable": 7752,
    "Ġgasps": 24865,
    "Ġhun": 1498,
    "hest": 3367,
    "ficial": 17547,
    "centred": 25017,
    "alterable": 13622,
    "Ġsmiting": 12894,
    "Ġ1883": 23894,
    "Ġguarded": 9824,
    "rubbery": 17340,
    "semicirc": 26490,
    "Ġadmirable": 8269,
    "Ġbade": 9170,
    "Ġforeshadowing": 26591,
    "forbearance": 22800,
    "ce": 313,
    "Ġbond": 21382,
    "Ġirre": 7468,
    "ropri": 2179,
    "Ġhysterical": 26092,
    "thest": 11652,
    "Ġinit": 819,
    "france": 24281,
    "Ġdiamond": 15595,
    "glit": 23848,
    "Ġperilous": 7769,
    "Ġphrenologist": 25607,
    "repressed": 21242,
    "elius": 13285,
    "Ġclamped": 18422,
    "Ġimmortal": 8018,
    "Ġgates": 10199,
    "Ġshaster": 21996,
    "Ġare": 527,
    "intention": 10366,
    "lux": 14224,
    "Ġinterlacing": 22574,
    "around": 12604,
    "Ġcontrivance": 17182,
    "either": 6791,
    "mselves": 2861,
    "Ġtotal": 4993,
    "Ġevil": 3804,
    "Ġoverlooked": 15970,
    "Ġdevelopment": 7057,
    "Ġuntutored": 19165,
    "queness": 18147,
    "ridden": 24361,
    "anely": 17836,
    "Ġyields": 19655,
    "aut": 1912,
    "Ġdirector": 18920,
    "Ġgreas": 17991,
    "Ġprevailed": 7778,
    "perhaps": 4124,
    "Ġmemoirs": 26205,
    "Ġcet": 6669,
    "Ġsleeves": 10659,
    "Ġappearances": 10450,
    "Ġmunro": 25630,
    "Ġxx": 5492,
    "Ġskylarking": 19485,
    "Ġwretchedness": 9025,
    "urring": 21703,
    "Ġsacred": 10929,
    "_.âĢĻâĢĿ": 17478,
    "Ġendeavors": 16544,
    "unusual": 21877,
    "Ġmincing": 18752,
    "Ġbour": 4876,
    "fun": 4079,
    "stout": 21637,
    "qual": 8157,
    "¸": 121,
    "_.)": 7278,
    "wester": 21137,
    "Ġdescribes": 3118,
    "Ġconcuss": 19046,
    "mechanical": 25578,
    "Ġcoach": 6867,
    "pots": 11512,
    "astes": 11736,
    "Ġinscrutable": 10671,
    "Ġsuddenness": 23380,
    "aster": 1866,
    "Ġfrolic": 23921,
    "breast": 11244,
    "Ġdesperate": 7777,
    "Ġlobster": 11388,
    "Ġimagination": 5759,
    "Ġperempt": 13671,
    "influ": 9539,
    "Ġmould": 6519,
    "ougher": 18275,
    "Ġscorch": 20065,
    "Ġdeputation": 21837,
    "Ġrepentance": 15158,
    "ibank": 6880,
    "Ġheadland": 22892,
    "Ġburn": 3682,
    "ben": 4926,
    "Ġcop": 7579,
    "Ġmagnetic": 17239,
    "fatal": 17087,
    "Ġcriminal": 7537,
    "mild": 15389,
    "tumultuous": 20397,
    "Ġwood": 2292,
    "Ġcrown": 5287,
    "olidity": 18132,
    "Ġantics": 24177,
    "hies": 17559,
    "Ġuttered": 7280,
    "Ġclim": 8195,
    "arians": 18523,
    "sterdam": 19090,
    "tim": 13789,
    "Ġformer": 3321,
    "Ġju": 10285,
    "Ġsor": 4147,
    "intentions": 22937,
    "Ġenvironments": 24046,
    "Ġfurnishing": 16644,
    "acit": 16078,
    "repid": 11563,
    "shutters": 20310,
    "Ġconscientious": 16726,
    "Ġfloated": 7288,
    "Ġcrews": 8989,
    "Ġkrusenstern": 20713,
    "Ġuncontrollable": 25814,
    "Ġhabitual": 24790,
    "ittered": 18439,
    "lob": 22505,
    "Ġtechniques": 2866,
    "Ġrefined": 18699,
    "Ġpatentee": 25586,
    "Ġpol": 2575,
    "Ġwidest": 24233,
    "reflect": 19864,
    "Ġbehav": 3538,
    "Ġminimize": 7050,
    "Ġsoapstone": 20509,
    "Ġabusing": 18393,
    "Ġliber": 5168,
    "ets": 1161,
    "Ġreproofs": 24892,
    "Ġrods": 9752,
    "Ġstrike": 4855,
    "Ġnormalizes": 1862,
    "Ġminor": 12964,
    "Ġbeef": 6830,
    "Ġlight": 1699,
    "Ġgemini": 26468,
    "Ġsoftness": 18917,
    "Ġrepairs": 19083,
    "Ġaint": 17743,
    "Ġwhit": 7177,
    "danish": 20832,
    "Ġauthority": 7749,
    "Ġshared": 10262,
    "Ġdard": 21421,
    "Ġicy": 10746,
    "attoo": 6807,
    "sus": 6228,
    "Ġpurpose": 2707,
    "dining": 13703,
    "counter": 20277,
    "enged": 23146,
    "Ġdepressed": 10881,
    "Ġworks": 5857,
    "aspect": 10192,
    "Ġmaintenance": 17460,
    "Ġdeed": 7869,
    "dman": 10087,
    "cus": 3980,
    "penetrating": 25490,
    "Ġalacrity": 15733,
    "baden": 25615,
    "unquiet": 21879,
    "bene": 6112,
    "Ġturbul": 23611,
    "lorn": 12484,
    "kovoko": 20668,
    "Ġgobern": 22421,
    "Ġspecimens": 18858,
    "Ġshyness": 20305,
    "shire": 3019,
    "Ġdyspeps": 16504,
    "Ġdiscriminator": 3389,
    "Ġchaise": 9075,
    "umber": 5240,
    "Ġnoiseless": 10355,
    "Ġslopes": 18940,
    "Ġscreaming": 13421,
    "Ġfate": 4753,
    "Ġquarrel": 7292,
    "Ġattendant": 11284,
    "Ġpewter": 17184,
    "grown": 10098,
    "extracts": 22763,
    "achalot": 15856,
    "text": 1976,
    "Ġgreeks": 20011,
    "Ġcrests": 25685,
    "cerem": 15674,
    "hilar": 25081,
    "Ġnamed": 6139,
    "Ġstudied": 11114,
    "Ġdisguises": 25055,
    "rential": 22917,
    "Ġinvolving": 18746,
    "Ġwigwam": 11427,
    "Ġskrimshander": 22796,
    "T": 56,
    "Ġinclement": 22551,
    "Ġtroop": 24897,
    "Ġstrange": 2273,
    "Ġstreamed": 14545,
    "Ġtranquill": 6630,
    "Ġresolving": 9417,
    "ourable": 4967,
    "Ġblemish": 19678,
    "ivia": 22075,
    "Ġcatholic": 20680,
    "Ġunimaginable": 15244,
    "overed": 2851,
    "Ġformation": 2941,
    "Ġweighty": 16030,
    "clim": 18929,
    "theast": 21746,
    "Ġbon": 8784,
    "Ġbrist": 14376,
    "Ġcovers": 18596,
    "apparat": 22844,
    "Ġarchy": 14344,
    "Ġfailure": 13312,
    "justice": 7958,
    "Ġfrance": 7682,
    "Ġcursed": 6726,
    "Ġsembl": 19057,
    "lightened": 12062,
    "render": 10290,
    "Ġsubsiding": 23432,
    "lamp": 9607,
    "Ġstrictly": 12282,
    "Ġrefinement": 18700,
    "Ġalarming": 14778,
    "Ġdepartment": 24240,
    "Ġstriving": 8995,
    "Ġfidget": 15187,
    "'re": 12425,
    "ornament": 23486,
    "ere": 6789,
    "Ġchr": 3687,
    "Ġrevolving": 9981,
    "Ġlimping": 23542,
    "Ġrescales": 5068,
    "Ġmanhandle": 22327,
    "fortnight": 13084,
    "Ġutter": 3975,
    "Ġimbecile": 17390,
    "Ġwall": 3842,
    "create": 24158,
    "Ġassailed": 23176,
    "Ġassum": 4066,
    "fr": 4804,
    "Ġnuptials": 20492,
    "isite": 15559,
    "osis": 18389,
    "Ġraised": 4660,
    "idated": 11659,
    "Ġrending": 19465,
    "Ġ1807": 26083,
    "produce": 20281,
    "Ġsorry": 4211,
    "brance": 7284,
    "Ġsaturation": 2062,
    "Ġunembarrassed": 22065,
    "uity": 12514,
    "erland": 9639,
    "sitting": 8387,
    "Ġbulwarks": 5591,
    "readers": 23845,
    "Ġebb": 21620,
    "Ġvivacious": 19814,
    "brandy": 19200,
    "summon": 23414,
    "Ġarisen": 11740,
    "Ġdesigned": 7741,
    "Ġsex": 8840,
    "Ġhired": 10176,
    "Ġequals": 4726,
    "equ": 6790,
    "unts": 12727,
    "Ġrhone": 25230,
    "Ġvehem": 22887,
    "quee": 4132,
    "Ġbidding": 9535,
    "Ġalgorithms": 860,
    "Ġreeds": 15692,
    "aton": 21257,
    "comput": 1961,
    "Ġscene": 3094,
    "pred": 2798,
    "entimes": 12652,
    "Ġtheirs": 7024,
    "Ġmar": 1311,
    "Ġvices": 14081,
    "Ġproposals": 10612,
    "grand": 7970,
    "nowhere": 18423,
    "ittarius": 22375,
    "wal": 10132,
    "Ġstrengthen": 20699,
    "Ġhelmet": 19686,
    "Ġpeleg": 3738,
    "Ġforeman": 23446,
    "Ġhardship": 18913,
    "oro": 21393,
    "Ġtrap": 7672,
    "acknowledged": 15200,
    "Ġshapeless": 24523,
    "Ġthen": 664,
    "scot": 14416,
    "Ġindulgence": 11318,
    "Ġblu": 2686,
    "tal": 17669,
    "delay": 16697,
    "gledy": 25403,
    "Ġglare": 13013,
    "Ġstrives": 23690,
    "Ġliberal": 12187,
    "Ġbumping": 25280,
    "Ġsombre": 18859,
    "shrouded": 26361,
    "wretchedness": 17251,
    "erately": 21272,
    "ignific": 11953,
    "osc": 18387,
    "Ġbuoy": 8004,
    "crowded": 20189,
    "ondon": 2705,
    "igation": 5918,
    "llable": 6879,
    "Ġcontradict": 12382,
    "Ġsacri": 18328,
    "vously": 23502,
    "hend": 13249,
    "Ġposs": 1618,
    "Ġcurved": 18847,
    "Ġdecrease": 4201,
    "remembered": 17349,
    "Ġgaze": 6932,
    "Ġclosely": 6488,
    "Ġlanguor": 12843,
    "Ġquadruped": 17457,
    "mary": 8748,
    "Ġcordage": 19677,
    "Ġtrusted": 10516,
    "Ġmercenary": 17192,
    "Ġenthr": 22745,
    "Ġplayers": 12035,
    "Ġwan": 15525,
    "Ġregularly": 7657,
    "zy": 2670,
    "Ġyawn": 7609,
    "Ġworkman": 16255,
    "Ġconcerned": 5331,
    "Ġbusiness": 2232,
    "Ġconfession": 11234,
    "Ġunreserved": 19395,
    "Ġnind": 17949,
    "felix": 10652,
    "âĢĶâĢĶâĢĿ": 15936,
    "larger": 24201,
    "cupboards": 25401,
    "Ġsou": 1887,
    "Ġsavages": 9910,
    "dick": 11478,
    "wrinkled": 16552,
    "eminent": 25104,
    "Ġcompacted": 23506,
    "Ġreturned": 2889,
    "onomy": 12543,
    "Ġnewfound": 22930,
    "results": 20385,
    "Ġskirts": 14350,
    "Ġvague": 6406,
    "itory": 12563,
    "Ġtimidly": 11337,
    "Ġmeadow": 17150,
    "Ġheavier": 13099,
    "Ġaxis": 12304,
    "advice": 12154,
    "Ġmembrane": 20502,
    "rabbit": 20589,
    "Ġticking": 25033,
    "verd": 21725,
    "ers": 406,
    "hoisting": 23714,
    "contrary": 23727,
    "foreign": 18543,
    "Ġaccur": 3690,
    "Ĉ": 201,
    "cen": 17501,
    "Ġclad": 12835,
    "Ġpublished": 11240,
    "ilated": 18057,
    "Ġinsurg": 23676,
    "ferent": 4195,
    "Ã¦": 4337,
    "Ġsitt": 21216,
    "masts": 19423,
    "Ġdecanting": 22441,
    "Ġfeels": 6882,
    "arthy": 4822,
    "gentlemen": 9502,
    "Ġcast": 3603,
    "queen": 12723,
    "Ġinquisitive": 26317,
    "naturalist": 23576,
    "violent": 14578,
    "Ġflower": 16229,
    "Ġprobable": 5569,
    "Ġold": 1055,
    "Ġparent": 14644,
    "Ġtint": 13815,
    "Ġbreathlessly": 24279,
    "guard": 12125,
    "Ġpainting": 13138,
    "Ġseeming": 8540,
    "arched": 10814,
    "Ġpurposes": 11167,
    "Ġwildest": 16508,
    "Ġpom": 21451,
    "Ġende": 21931,
    "Ġcrystall": 20225,
    "Ġspool": 24806,
    "them": 3016,
    "Ġforenoon": 19126,
    "Ġwrecks": 16817,
    "Ġthief": 11608,
    "unable": 14057,
    "dost": 14534,
    "least": 8783,
    "onse": 21248,
    "uncont": 15770,
    "Ġundulations": 19514,
    "scy": 21054,
    "Ġbennet": 1577,
    "manner": 6170,
    "Ġtwisting": 18658,
    "Ġwrists": 11112,
    "antages": 7192,
    "Ó": 148,
    "Ġreign": 13983,
    "unlike": 18156,
    "willingly": 11979,
    "vig": 15444,
    "iquet": 17574,
    "Ġraising": 8908,
    "?âĢĻ": 2640,
    "Ġirrevoc": 15037,
    "greg": 6647,
    "Ġadjusts": 8979,
    "Ġpurple": 10432,
    "bee": 16033,
    "Ġheap": 12674,
    "sou": 12502,
    "Ġrejoiced": 8683,
    "tish": 17676,
    "Ġconfid": 7687,
    "Ġdespise": 14664,
    "Ġpains": 5965,
    "tend": 17673,
    "Ġplains": 14621,
    "Ġaug": 6234,
    "olstadt": 7789,
    "nature": 5359,
    "encies": 4083,
    "compliments": 24810,
    "Ġblocked": 19221,
    "omon": 10206,
    "Ġmanoir": 22329,
    "ezing": 10572,
    "Ġconfessed": 8009,
    "concealed": 25115,
    "Ġlabors": 23326,
    "Ġcode": 1721,
    "naturedly": 24840,
    "Ġ1836": 25721,
    "Ġtallow": 14776,
    "ighter": 7968,
    "lantic": 6363,
    "acled": 16079,
    "speed": 19407,
    "Ġbird": 3756,
    "Ġsleep": 2401,
    "Ġshallow": 14392,
    "Ġfuneral": 10281,
    "Ġreve": 2931,
    "Ġhammered": 13237,
    "¢": 100,
    "analysis": 26173,
    "oarsman": 25261,
    "Ġblurred": 22929,
    "strip": 19829,
    "Ġdiary": 24739,
    "lord": 3865,
    "Ġmoby": 3663,
    "Ġscott": 22279,
    "Ġaccosted": 13670,
    "Ġindolent": 13001,
    "Ġselling": 21223,
    "Ġtap": 12522,
    "iloquent": 21723,
    "Ġroyal": 5601,
    "Ġamaze": 22481,
    "Ġhackluyt": 25655,
    "Ġspoutings": 14674,
    "Ġinfat": 14499,
    "Ġinternal": 2246,
    "Ġaustralia": 15230,
    "grammar": 6435,
    "eted": 7591,
    "Ġsystematic": 5244,
    "Ġspoils": 24808,
    "Ġrandom": 1592,
    "tastes": 21095,
    "Ġvaluable": 5607,
    "Ġ15": 9322,
    "nevertheless": 8286,
    "Ġwithered": 19463,
    "Ġimprec": 14217,
    "usation": 18401,
    "Ġtrivial": 10141,
    "Ġblossom": 26312,
    "Ġwork": 1304,
    "Ġadmits": 23550,
    "Ġdefinition": 14402,
    "returns": 23135,
    "ed": 293,
    "Ġbland": 11063,
    "Ġbarque": 23788,
    "Ġreap": 18026,
    "action": 3726,
    "Ġlin": 10832,
    "Ė": 215,
    "Ġuntoward": 19164,
    "Ġyer": 15730,
    "idel": 5299,
    "Ġattentively": 9948,
    "Ġbackpropagation": 1318,
    "Ġcarter": 18899,
    "Ġgallows": 12142,
    "Ġshops": 21999,
    "Ġseizure": 21962,
    "Ġhoars": 19077,
    "under": 3129,
    "Ġfrock": 10488,
    "azed": 9397,
    "Ġnam": 17948,
    "Ġglim": 9342,
    "on": 267,
    "numer": 15397,
    "Ġbubble": 13533,
    "Ġsolitudes": 22884,
    "Ġbulldog": 23857,
    "during": 6787,
    "better": 7119,
    "Ġaspired": 25984,
    "Ġcollectively": 19966,
    "Ġconf": 1818,
    "blending": 24128,
    "education": 20300,
    "ounds": 4158,
    "erde": 21267,
    "anx": 8782,
    "Ġbaff": 10798,
    "however": 4372,
    "mantel": 26393,
    "about": 3584,
    "Ġcontempl": 6701,
    "ip": 553,
    "Ġbod": 4580,
    "individual": 18436,
    "Ġconflagration": 26364,
    "Ġgathering": 14976,
    "inkling": 16088,
    "Ġmean": 744,
    "irements": 22210,
    "Ġrose": 3439,
    "seas": 14031,
    "Ġemerge": 14926,
    "Ġassaults": 15154,
    "acey": 7649,
    "ices": 2137,
    "uncommonly": 25549,
    "Ġtufted": 17013,
    "Ġfifty": 4623,
    "symp": 14635,
    "rece": 21233,
    "Ġsoot": 14129,
    "Ġwilling": 7421,
    "insufferable": 21191,
    "Ġsurprised": 3830,
    "Ġpartaking": 22697,
    "utter": 7593,
    "pp": 384,
    "oce": 10713,
    "Ġcontr": 1914,
    "Ġleeward": 6210,
    "ke": 429,
    "Ġbrought": 2517,
    "very": 500,
    "Ġbestir": 13107,
    "Ġfrench": 4939,
    "Ġdrawers": 12102,
    "Ġmal": 5221,
    "Ġpierce": 17035,
    "Ġpoetical": 25056,
    "idually": 21767,
    "Ġnegro": 6447,
    "Ġregards": 16070,
    "gings": 7549,
    "whip": 22235,
    "Ġtangle": 25760,
    "Ġcrimin": 6901,
    "Ġnorthumbria": 24170,
    "Ġbears": 6829,
    "corrob": 24484,
    "Ġ]": 15457,
    "Ġgrammatical": 13537,
    "Ġrural": 21968,
    "used": 3257,
    "concluded": 11241,
    "may": 3678,
    "ify": 1295,
    "Ġpromethe": 14466,
    "backpropagation": 11982,
    "Ġwintry": 17432,
    "Ġdepresses": 25797,
    "Ġunnatural": 7190,
    "Ġdistrusting": 25053,
    "agery": 21907,
    "osa": 22258,
    "Ġentangled": 10342,
    "Ġwaking": 11568,
    "Ġlieuten": 13324,
    "Ġstrive": 23688,
    "pursue": 24975,
    "apering": 8041,
    "anzas": 17840,
    "smith": 5669,
    "Ġberths": 20113,
    "Ġvect": 1223,
    "Ġaddress": 2271,
    "Ġplacing": 8899,
    "Ġapprobation": 10983,
    "thrusting": 20258,
    "gl": 3287,
    "tumultuously": 25613,
    "urns": 10212,
    "ske": 13780,
    "formation": 22216,
    "Ġpiping": 23213,
    "Ġtreading": 16502,
    "Ġfif": 4218,
    "Ġrepresents": 4902,
    "ghan": 19453,
    "Ġmeasured": 9802,
    "Ġboon": 22637,
    "Ġeag": 2964,
    "Ġstole": 7953,
    "Ġenabled": 9294,
    "whalemen": 10430,
    "Ġtapped": 11552,
    "Ġcreating": 2993,
    "paradise": 20636,
    "published": 26142,
    "Ġpry": 11598,
    "Ġundeserving": 18265,
    "Ġenumerating": 15242,
    "every": 2807,
    "aim": 2754,
    "Ġprovoking": 16742,
    "Ġbless": 4342,
    "cc": 474,
    "Ġweighted": 2090,
    "Ġbanners": 24858,
    "Ġblown": 12082,
    "_,âĢĿ": 6218,
    "influences": 25250,
    "Ġclock": 9531,
    "imod": 15706,
    "Ġcousins": 9913,
    "atig": 13843,
    "garet": 9596,
    "Ġdisturb": 7107,
    "Ġlifelessly": 23049,
    "valuable": 8248,
    "retrie": 18922,
    "Ġmarry": 4417,
    "doms": 20834,
    "erring": 11055,
    "determ": 7105,
    "Ġpaddington": 17094,
    "Ġhemisphere": 26477,
    "Ġunsupervised": 2357,
    "Ġfoes": 11948,
    "Ġdiction": 8793,
    "wished": 13803,
    "Ġobsole": 22698,
    "alvan": 21502,
    "pled": 7893,
    "akeman": 6267,
    "Ġmisconduct": 22756,
    "Æ": 135,
    "Ġbridegroom": 10603,
    "couldn": 23716,
    "Ġcircles": 7967,
    "nable": 13760,
    "Ġglaring": 11905,
    "Ġwavering": 23279,
    "Ġsurface": 5119,
    "destiny": 16701,
    "Ġaccording": 5508,
    "Ġhandles": 22695,
    "Ġhumor": 11050,
    "Ġvacancy": 9043,
    "Ġ180": 16605,
    "Ġhearties": 18966,
    "utility": 21585,
    "Ġsome": 656,
    "pitch": 13296,
    "Ġeste": 6085,
    "Ġhospital": 15038,
    "knives": 14911,
    "buckets": 26123,
    "Ġmanaged": 7907,
    "penetrate": 20323,
    "Z": 62,
    "child": 5537,
    "Ġlungless": 24863,
    "strength": 13973,
    "Ġaccent": 10292,
    "Ġmoist": 9283,
    "Ġprudent": 9184,
    "ursday": 12273,
    "Ġcommonest": 23087,
    "Ġcalmer": 23042,
    "Ġunresting": 25553,
    "Ġexploitation": 2348,
    "playful": 24356,
    "elf": 564,
    "Ġmelting": 24287,
    "wed": 5003,
    "Ġsax": 10928,
    "ro": 301,
    "Ġmagical": 23096,
    "Ġnortheast": 23200,
    "sings": 4251,
    "pag": 11509,
    "Ġappalling": 8498,
    "Ġstagger": 10590,
    "etimes": 1989,
    "Ġcongregated": 20095,
    "swaying": 25910,
    "Ġsight": 2111,
    "Ġbasis": 16960,
    "Ġcomput": 606,
    "Ġstatistical": 11104,
    "Ġhigher": 1819,
    "thinness": 25810,
    "Ġcoals": 16072,
    "Ġrealistic": 5860,
    "iac": 6225,
    "Ġgradients": 611,
    "itively": 21329,
    "Ġdishonor": 25601,
    "lighted": 23752,
    "bewil": 22495,
    "Ġtophet": 23570,
    "ub": 1224,
    "urned": 9304,
    "Ġschoolboys": 24480,
    "Ġexaggerate": 25649,
    "Ġrelate": 6875,
    "Ġidentifies": 12011,
    "Ġhighest": 3527,
    "Ġtests": 8956,
    "reve": 12535,
    "Ġwave": 7575,
    "Ġ123": 24467,
    "ailed": 3244,
    "Ġmien": 17808,
    "Ġexistence": 4706,
    "Ġwrenching": 17321,
    "Ġpenn": 11111,
    "Ġwantest": 18789,
    "Ġclutched": 13517,
    "Ġcheap": 13086,
    "Ġodd": 6624,
    "Ġspar": 10920,
    "Ġclassical": 22618,
    "Ġmonotonous": 13259,
    "tubs": 15128,
    "value": 18809,
    "tossing": 18580,
    "Ġascent": 19617,
    "Ġmcc": 21305,
    "Ġpeculiarly": 8287,
    "Ġcovent": 16071,
    "Ġbarrels": 9434,
    "Ġsupplied": 8942,
    "rise": 6226,
    "Ġlose": 5028,
    "Ġmidway": 14603,
    "Ġcitations": 25437,
    "oked": 4307,
    "hecy": 21205,
    "decl": 8855,
    "accompan": 11451,
    "abern": 21787,
    "drifting": 19823,
    "inside": 23063,
    "Ġwhirlwinds": 20463,
    "oted": 4596,
    "rations": 10722,
    "byter": 16210,
    "Ġcooking": 16645,
    "Ġbushy": 16398,
    "Ġfishermen": 5971,
    "Ġaloysius": 15734,
    "Ġskirting": 22794,
    "sl": 5794,
    "Ġjer": 6266,
    "formality": 22217,
    "Ġdesired": 4664,
    "Ġwrench": 12553,
    "wander": 17708,
    "als": 2042,
    "Ġrevelry": 15134,
    "bird": 9584,
    "Ġrespectful": 16343,
    "Ġinquiry": 6484,
    "ingolstadt": 21302,
    "Ġcover": 3555,
    "wel": 6117,
    "Ġarticulated": 24432,
    "Ġupdate": 2465,
    "culiarity": 11140,
    "Ġreeling": 18032,
    "Ġhaggerston": 26451,
    "Ġswash": 23054,
    "Ġverses": 17062,
    "Ġchestnut": 19671,
    "impetuous": 23761,
    ")âĢĶ": 20741,
    "jets": 20927,
    "Ġduplicity": 25331,
    "as": 302,
    "Ġmentioned": 4328,
    "orrow": 2912,
    "Ġembellished": 25848,
    "impatience": 25500,
    "Ġ275": 20109,
    "Ġmaintainable": 12931,
    "allows": 15904,
    "Ġcultivation": 17144,
    "Ġbetake": 22901,
    "Ġreceived": 2949,
    "Ġbattery": 21392,
    "Ġflour": 8943,
    "Ġkingdom": 12015,
    "Ġhyper": 19738,
    "Ġgle": 7859,
    "Ġeleventh": 23367,
    "Ġryder": 10257,
    "Ġtopsails": 19193,
    "Ġinfamy": 14501,
    "fever": 22498,
    "ocations": 23702,
    "independent": 26021,
    "liked": 10507,
    "spike": 16135,
    "hauled": 20667,
    "Ġunrestrained": 25554,
    "Ġtoward": 17946,
    "Ġceti": 24773,
    "Ġ102": 24409,
    "Ġoctober": 17225,
    "Ġrabbit": 4288,
    "Ġfris": 23255,
    "Ġhavoc": 15810,
    "Ġtimely": 19593,
    "herfield": 3627,
    "Ġedges": 3825,
    "Ġgrief": 4619,
    "Ġbaptized": 25774,
    "Ġwalrus": 14971,
    "Ġsickly": 16773,
    "tube": 20409,
    "sculpt": 16242,
    "Ġsixteen": 8283,
    "abases": 3004,
    "dispositions": 25011,
    "Ġut": 2280,
    "Ġshould": 865,
    "Ġhitting": 21485,
    "Ġen": 393,
    "heard": 5009,
    "resembling": 25932,
    "Ġaffection": 2638,
    "haut": 20901,
    "phur": 16148,
    "Ġgpus": 3732,
    "Ġserve": 9366,
    "Ġintelligences": 12827,
    "Ġlofty": 6217,
    "Ġyielded": 14870,
    "Ġthrills": 24541,
    "Ġclay": 7018,
    "Ġwallowing": 24041,
    "Ġheron": 22071,
    "Ġ133": 24783,
    "Ġsw": 1358,
    "sect": 8153,
    "semble": 1524,
    "Ġvalid": 1726,
    "Ġsanction": 20024,
    "Ġkink": 22191,
    "Ġsult": 10766,
    "Ġpersonality": 16475,
    "Ġstuck": 9219,
    "Ġconvert": 11840,
    "till": 6965,
    "lined": 12480,
    "dient": 441,
    "Ġhandsomely": 25497,
    "erted": 7361,
    "Ġguidance": 9415,
    "Ġsummit": 7731,
    "Ġalterations": 19870,
    "Ġaudibly": 24771,
    "ascal": 10191,
    "Ġcreatures": 4139,
    "Ġapple": 14165,
    "Ġdrowning": 19903,
    "Ġnineveh": 13387,
    "Ġostr": 21323,
    "also": 7851,
    "Ġmisty": 16538,
    "acies": 14276,
    "Ġsque": 18757,
    "af": 2378,
    "evil": 11484,
    "Ġflail": 23005,
    "Ġpl": 745,
    "pursued": 17280,
    "Ġdriver": 16472,
    "Ġelegant": 7532,
    "Ġchancing": 22246,
    "Ġdesc": 772,
    "Ġthence": 8880,
    "Ġminded": 23230,
    "Ġhabits": 6926,
    "Ġwoody": 23516,
    "Ġstillness": 12990,
    "Ġabsolutely": 4857,
    "icial": 12651,
    "Ġprophes": 16346,
    "Ġseen": 1368,
    "lings": 8745,
    "Ġware": 12550,
    "Ġwitness": 4620,
    "Ġflight": 6580,
    "Ġvibrating": 13536,
    "yours": 7695,
    "returned": 7766,
    "Ġcharlotte": 3890,
    "accursed": 20539,
    "Ġnugent": 26456,
    "hump": 12474,
    "Ġbeneficial": 23929,
    "deser": 10401,
    "uneven": 23680,
    "orously": 8419,
    "Ġcubs": 20085,
    "ox": 9132,
    "ry": 805,
    "Ġscept": 15501,
    "ased": 1265,
    "P": 52,
    "Ġpreluding": 18368,
    "rosings": 15640,
    "orrowed": 19289,
    "Ġintervene": 25480,
    "Ġsoap": 14130,
    "imagine": 19930,
    "Ġannot": 15598,
    "pop": 17630,
    "Ġcompetition": 14265,
    "pips": 21019,
    "consid": 4924,
    "Ġrevolut": 3255,
    "Ġparasol": 22119,
    "Ġtul": 21158,
    "Ġcomputation": 963,
    "Ġswitching": 23056,
    "Ġtwine": 14309,
    "Ġspokes": 18313,
    "Ġpane": 21462,
    "diligence": 26110,
    "Ġfirm": 3871,
    "Ġferule": 24515,
    "Ġtransformer": 2635,
    "Ġchorus": 10945,
    "Ġcompromising": 22571,
    "precise": 19349,
    "Ġdisregarded": 22528,
    "ones": 2741,
    "Ġgladly": 14680,
    "Ġsunda": 13542,
    "impress": 18051,
    "Ġturk": 6603,
    "edged": 15627,
    "Ġrow": 5309,
    "Ġflatter": 9346,
    "Ġsociety": 3978,
    "disappointed": 25191,
    "ds": 4687,
    "Ġfurnace": 19438,
    "withstand": 23023,
    "vill": 10734,
    "perpet": 14157,
    "wondered": 17028,
    "Ġphrenologically": 20392,
    "answers": 22138,
    "itled": 7577,
    "remorse": 14465,
    "Ġepsom": 19981,
    "bury": 9105,
    "esu": 17901,
    "Ġded": 2616,
    "subst": 12161,
    "Ġbarbary": 24215,
    "Ġexpired": 18622,
    "Ġdenial": 13212,
    "Ġcoolly": 9770,
    "present": 1137,
    "Ġrobustness": 18892,
    "Ġimplicated": 24875,
    "buoy": 7761,
    "Ġeurope": 8062,
    "moving": 11016,
    "Ġdeb": 4763,
    "cess": 539,
    "Ġinadequate": 17936,
    "sided": 17663,
    "Ġautumnal": 19043,
    "neath": 12862,
    "Ġdiscourse": 9796,
    "Ġwink": 11567,
    "Ġsheltered": 19910,
    "Ġguest": 7249,
    "playing": 19656,
    "Ġunderstand": 833,
    "Ġorganizations": 12311,
    "Ġendeavouring": 8035,
    "nay": 7135,
    "Ġerred": 21155,
    "Ġmissed": 8555,
    "castles": 14634,
    "Ġgour": 21596,
    "Ġsphynx": 20711,
    "Ġjoined": 4563,
    "gument": 20884,
    "Ġlining": 13949,
    "Ġalpine": 18105,
    "oves": 15401,
    "Ġindependently": 4246,
    "Ġseek": 4508,
    "Ġpresents": 8245,
    "Ġtwo": 1043,
    "roman": 22002,
    "Ġmah": 15537,
    "meth": 11501,
    "Ġcousin": 3704,
    "Ġcapting": 23018,
    "Ġrepl": 1596,
    "Ġebony": 18008,
    "oing": 15399,
    "Ġbulk": 5590,
    "ivable": 10909,
    "Ġporter": 15607,
    "Ġsent": 1775,
    "Ġfeverish": 11347,
    "Ġpreach": 14171,
    "super": 5943,
    "evening": 7089,
    "Ġcongreg": 8462,
    "Ġcasual": 11408,
    "unched": 10234,
    "Ġcreditable": 19621,
    "Ġwraps": 19775,
    "closing": 23155,
    "mere": 11852,
    "illation": 14140,
    "soundest": 24797,
    "Ġvulgar": 13602,
    "ospel": 17009,
    "Ġbridle": 24681,
    "Ġillustrate": 25065,
    "incing": 15483,
    "Ġsighs": 22707,
    "occasionally": 13519,
    "nament": 11505,
    "shake": 22448,
    "Ġdeclare": 6613,
    "Ġlovers": 9718,
    "Ġhamper": 19387,
    "Ġgoney": 14544,
    "Ġabomination": 22276,
    "racting": 10352,
    "remediable": 26294,
    "actor": 11835,
    "Ġcomparing": 14263,
    "Ġstray": 18069,
    "Ġdreams": 7496,
    "Ġreveal": 11199,
    "ref": 6515,
    "Ġexal": 10876,
    "Ġlikeness": 11178,
    "hair": 9121,
    "Ġcomrade": 12280,
    "ylon": 24977,
    "sle": 9137,
    "Ġtake": 1580,
    "Ġzig": 18743,
    "Ġscaramouch": 23825,
    "tomb": 21092,
    "Ġfists": 15579,
    "Ġsavannah": 17414,
    "Ġhindrance": 25220,
    "ack": 621,
    "Ġthrone": 12210,
    "Ġchained": 16385,
    "reserve": 17764,
    "Ġensure": 23683,
    "Ġsources": 10146,
    "spending": 18691,
    "Ġceasing": 23755,
    "Ġrephrased": 26476,
    "icts": 22400,
    "solved": 7685,
    "scarcely": 12383,
    "Ġslappin": 18942,
    "tarpaulins": 26404,
    "Ġacquies": 11095,
    "Ġcravat": 26307,
    "oda": 15745,
    "Ġdemoniacal": 20555,
    "Ġgossiping": 26243,
    "Ġanticipatingly": 26102,
    "illating": 22105,
    "sent": 760,
    "Ġmoves": 14230,
    "Ġirreducible": 5519,
    "yset": 21144,
    "Ġwhither": 10213,
    "continu": 5501,
    "Ġpra": 4346,
    "Ġgamy": 17998,
    "Ġapparent": 5466,
    "kill": 13742,
    "Ġvengeful": 14888,
    "Ġinvolve": 11039,
    "erated": 21269,
    "Ġrecl": 16137,
    "Ġhaws": 21949,
    "ructive": 18544,
    "Ġgash": 15667,
    "Ġinducement": 16842,
    "Ġsmaller": 1883,
    "Ġfollow": 1396,
    "parable": 16388,
    "Ġincisive": 18570,
    "Ġpresenting": 18987,
    "Ġplush": 18610,
    "Ġcannib": 6036,
    "dogs": 25402,
    "welcome": 9999,
    "rib": 1946,
    "near": 5842,
    "Ġbundle": 13424,
    "Ġstudy": 1762,
    "Ġdistended": 16041,
    "Ġphilipp": 23882,
    "farewell": 12303,
    "Ġceleb": 20224,
    "Ġflinging": 13583,
    "Ġdeified": 18137,
    "Ġimport": 1052,
    "Ġangrily": 9405,
    "Ġmyster": 5926,
    "conda": 18992,
    "Ġtubs": 11369,
    "Ġfashioned": 13318,
    "Ġsit": 4217,
    "Ġpluck": 15610,
    "Ġspec": 1260,
    "Ġtrag": 13035,
    "Ġdoctors": 12148,
    "Ġfir": 17877,
    "etymology": 14699,
    "Ġagonizing": 17237,
    "erce": 6126,
    "Ġeddy": 13121,
    "fle": 7128,
    "chant": 4258,
    "ool": 17617,
    "acca": 23596,
    "Ġunhallowed": 17179,
    "Ġpsalmody": 20583,
    "Ġhigh": 932,
    "Ġ1828": 25720,
    "Ġeaglet": 19304,
    "quest": 4537,
    "might": 4081,
    "Ġgum": 21593,
    "Ġwhirl": 13447,
    "Ġconference": 15743,
    "Ġflannel": 26576,
    "itten": 3437,
    "Ġworshipping": 22926,
    "despairing": 25074,
    "Ġcataract": 23426,
    "Ġappointed": 20101,
    "wa": 5897,
    "Ġsunday": 7270,
    "noted": 22749,
    "jacket": 12289,
    "zas": 17711,
    "Ġflattened": 26047,
    "Ġhighly": 4844,
    "Ġalice": 1483,
    "Ġentrances": 25834,
    "abled": 12790,
    "deep": 1032,
    "Ġrugged": 18720,
    "Ġdur": 11590,
    "unc": 15765,
    "Ġimpotent": 18447,
    "Ġexhibited": 9542,
    "Ġhog": 13922,
    "hib": 15365,
    "Ġobjectionable": 16990,
    "Ġintegration": 9866,
    "nervous": 16274,
    "times": 8099,
    "castle": 3347,
    "Ġpleadings": 25852,
    "shazzar": 15287,
    "Ġdisobedience": 22533,
    "ertain": 1207,
    "threat": 10899,
    "Ġsympat": 13338,
    "blunder": 24129,
    "inating": 9152,
    "Ġloses": 15870,
    "Ġgirls": 4279,
    "Ġmasked": 3694,
    "Ġalleys": 25978,
    "Ġlunging": 24991,
    "Ġcal": 1328,
    "subs": 14297,
    "Ġinside": 5448,
    "whaling": 7900,
    "h": 76,
    "Ġpled": 17907,
    "Ġwhipping": 21714,
    "Ġgard": 2190,
    "och": 21000,
    "staff": 21648,
    "Ġtrim": 15965,
    "Ġprodigious": 8057,
    "mentioning": 24885,
    "view": 5896,
    "photograph": 16149,
    "measureless": 20234,
    "Ġbe": 336,
    "destroyed": 15258,
    "Ġhissed": 15785,
    "persuade": 13531,
    "Ġsublim": 19965,
    ".]": 15296,
    "Ġbidirectional": 3755,
    "Ġlast": 1124,
    "Ġstore": 8453,
    "Ġmodular": 12814,
    "Ġcharitable": 23268,
    "Ġconcer": 23319,
    "Ġcherished": 10589,
    "Ġexplanation": 6692,
    "Ġrapidly": 3359,
    "seems": 10874,
    "Ġgratifying": 13303,
    "Ġsnatches": 16542,
    "Ġneglect": 7942,
    "Ġuniversally": 11996,
    "sufficient": 6635,
    "Ġsovere": 9254,
    "Ġfad": 17876,
    "adequately": 20318,
    "atically": 2709,
    "humored": 19451,
    "Ġfeminine": 15261,
    "Ġade": 22098,
    "Ġenglishman": 11228,
    "Ġdent": 13904,
    "looked": 6084,
    "Ġfrigates": 25707,
    "Ġtennes": 23545,
    "watch": 6118,
    "pedest": 24695,
    "Ġfift": 6382,
    "Ġlanding": 11981,
    "Ġ127": 24471,
    "Ġhoops": 9387,
    "ingale": 21298,
    "Ġgoodly": 22822,
    "Ġinjurious": 24269,
    "Ġheated": 21680,
    "Ġinterval": 4055,
    "Ġpolished": 11181,
    "Ġsgd": 3127,
    "ming": 3598,
    "Ġpunct": 8660,
    "Ġstatue": 23148,
    "Ġinitials": 11013,
    "declined": 25174,
    "Ġpeeled": 14316,
    "Ġgeese": 7694,
    "Ġinsignific": 13178,
    "Ġprove": 5231,
    "riot": 18185,
    "define": 1526,
    "estinated": 15920,
    "bestowed": 12222,
    "Ġve": 1107,
    "Ġdot": 4820,
    "Ġgore": 17988,
    "Ġpen": 1533,
    "now": 548,
    "Ġplat": 8520,
    "Ġgayer": 24497,
    "Ġclothe": 4711,
    "oglyph": 11015,
    "bill": 10074,
    "Ġcocked": 12900,
    "Ġowe": 8115,
    "neying": 22461,
    "Ġlibrary": 6423,
    "acquainted": 7313,
    "Ġshipwreck": 20444,
    "Ġ62": 24364,
    "Ġsave": 4053,
    "90": 12429,
    "useful": 16500,
    "Ġamiable": 4269,
    "afer": 17480,
    "Ġrevolt": 24500,
    "Ġabusive": 22271,
    "aware": 16292,
    "Ġlarboard": 11008,
    "Ġlangs": 13952,
    "Ġrefine": 3035,
    "Ġcontinent": 14886,
    "ening": 3102,
    "icil": 17971,
    "promised": 12248,
    "anything": 5518,
    "Ġprocess": 567,
    "witted": 17706,
    "sav": 8097,
    "Ġperiods": 13301,
    "Ġtry": 3132,
    ";": 31,
    "sound": 6799,
    "shells": 26056,
    "Ġscener": 10948,
    "ister": 1291,
    "since": 5895,
    "Ġconsequently": 8060,
    "gration": 9120,
    "ates": 520,
    "Ġclenched": 14201,
    "Ġscaling": 3628,
    "Ġclang": 15959,
    "surf": 24211,
    "Ġprometheus": 15290,
    "Ġspaniards": 25555,
    "het": 5435,
    "Ġinfants": 16364,
    "Ġupwards": 7633,
    "Ġpassages": 12966,
    "Ġpup": 12615,
    "Ġtand": 21159,
    "Ġsurve": 9872,
    "Ġpot": 2986,
    "Ġadmirer": 16837,
    "Ġremoved": 5274,
    "Ġwashing": 9703,
    "Ġnorthward": 13319,
    "Ġfork": 15728,
    "iliation": 10859,
    "Ġmalignant": 14876,
    "Ġmiriam": 25273,
    "spiracle": 22735,
    "nantucketer": 24974,
    "Ġming": 9644,
    "Ġendued": 14075,
    "Ġfilthy": 13245,
    "pleased": 8852,
    "hauteur": 26390,
    "Ġmechanisms": 1578,
    "Ġheadsmen": 14730,
    "Ġintegrity": 12310,
    "Ġseals": 11694,
    "xes": 21139,
    "Ġcup": 5697,
    "connect": 1289,
    "Ġet": 3578,
    "Ġdit": 21419,
    "operation": 13499,
    "forever": 22517,
    "Ġgateway": 24802,
    "Ġauthorized": 16734,
    "Ġslaughter": 20729,
    "cat": 15322,
    "agonies": 21909,
    "Ġowning": 18744,
    "Ġintensity": 10014,
    "pshire": 21023,
    "Ġbinding": 20417,
    "ined": 1258,
    "uncle": 8159,
    "eling": 6681,
    "Ġfretfully": 25447,
    "Ġcombination": 22855,
    "belonged": 25597,
    "Ġcirc": 1987,
    "Ġsleeps": 10445,
    "Ġstaying": 8284,
    "Ġenveloping": 19732,
    "enborough": 21284,
    "urday": 13993,
    "Ġdelineations": 26058,
    "great": 3515,
    "Ġobvious": 4964,
    "Ġmira": 8407,
    "Ġspecies": 5112,
    "brew": 11472,
    "au": 779,
    "ibles": 18784,
    "Ġbought": 8416,
    "Ġoutskirts": 17455,
    "accompl": 9878,
    "Ġentranced": 25833,
    "bows": 10080,
    "eenth": 12457,
    "Ġblan": 18816,
    "Ġchron": 19436,
    "output": 4401,
    "iogn": 20920,
    "Ġconj": 8460,
    "Ġmistakes": 16539,
[...]
