{
  "metadata": {
    "vocab_size": 26616,
    "algorithm": "BPE",
    "created_at": "2026-04-30 05:30:24",
    "special_tokens": [
      "<PAD>",
      "<SOS>",
      "<EOS>",
      "<UNK>",
      "<MASK>"
    ]
  },
  "vocab": {
    "Ġhosmer": 6775,
    "Ġsunday": 7270,
    "Ġdimmed": 24270,
    "Ġjoyful": 13226,
    "Ġmonitors": 3158,
    "pequod": 7054,
    "thern": 4953,
    "waist": 13422,
    "Ġobjects": 5578,
    "Ġliked": 5265,
    "Ġproviding": 1361,
    "Ġrevers": 21667,
    "germ": 15360,
    "Ġreason": 1382,
    "Ġrational": 8482,
    "Ġpeev": 22696,
    "Ġwaggish": 25435,
    "Ġvast": 3295,
    "Ġblotches": 25315,
    "):": 11463,
    "Ġencaps": 12967,
    "Ġmisgiv": 14348,
    "atives": 2234,
    "lee": 11588,
    "Ġimbib": 22178,
    "imaux": 21715,
    "Ġlowerings": 23648,
    "Ġdegenerating": 25800,
    "Ġdais": 24372,
    "Ġcollateral": 20075,
    "Ġthroats": 24576,
    "rev": 17758,
    "perai": 10279,
    "Ġbloodshot": 23802,
    "Ġheathen": 10568,
    "Ġpalmy": 19502,
    "Ġwonderland": 23427,
    "Ġgestures": 13539,
    "Ġwarehouse": 20420,
    "ryphon": 4162,
    "Ġcachalot": 17836,
    "strugg": 21665,
    "Ġpuzzled": 7317,
    "Ġcurling": 9350,
    "Ġconcuss": 19048,
    "looking": 4032,
    "Ġthomson": 26456,
    "Ġwhom": 1833,
    "teous": 16177,
    "Ġvacancies": 24345,
    "Ġdecent": 10984,
    "Ġdeliver": 9849,
    "Ġseize": 8166,
    "Ġagitation": 6865,
    "Ġdiscernible": 15073,
    "haul": 14769,
    "Ġrequire": 899,
    "ordered": 8794,
    "Ġhawaiian": 25367,
    "saf": 11527,
    "pronounced": 12350,
    "icked": 10335,
    "grave": 16098,
    "religion": 20578,
    "assault": 22310,
    "uncle": 8159,
    "Ġvexation": 10589,
    "Ġalive": 4399,
    "Ġpossibility": 7458,
    "Ġspectacle": 10499,
    "Ġcor": 1321,
    "mut": 17597,
    "cient": 4570,
    "Ġchace": 14179,
    "Ġtaught": 6804,
    "Ġpresume": 8038,
    "ariously": 18525,
    "Ġmermaid": 17815,
    "Ġmap": 2389,
    "ruit": 22181,
    "odox": 21820,
    "Ġted": 13815,
    "Ġdegenerated": 20509,
    "Ġdistribution": 2019,
    "revival": 26163,
    "Ġrussian": 14353,
    "Ġbreathlessly": 24283,
    "james": 15376,
    "ars": 905,
    "Ġintim": 6838,
    "Ġrecogn": 2975,
    "Ġargued": 13633,
    "Ġbuzz": 24000,
    "Ġintently": 8169,
    "Ġsnatching": 10474,
    "kind": 3865,
    "Ġextant": 18689,
    "Ġalong": 1981,
    "returned": 7766,
    "Ġalice": 1483,
    "Ġleaf": 15721,
    "Ġservox": 23873,
    "ad": 337,
    "Ġclergy": 7643,
    "Ġejaculation": 20257,
    "Ġdictate": 20154,
    "yield": 13812,
    "gale": 13727,
    "Ġwhine": 21718,
    "eted": 7592,
    "cheeked": 19342,
    "Ġtortured": 14927,
    "opp": 6963,
    "Ġunsafe": 22045,
    "Ġreign": 13988,
    "Ġcultured": 25158,
    "bast": 10080,
    "specimen": 26607,
    "Ġhoofs": 14529,
    "Ġcomp": 723,
    "eu": 17532,
    "dually": 3283,
    "Ġrosy": 18460,
    "Ġparted": 5930,
    "Ġuncontrollable": 25815,
    "Ġjig": 15955,
    "Ġnarration": 13507,
    "opotam": 22481,
    "Ġvilla": 14750,
    "assistance": 20374,
    "young": 7321,
    "Ġcrescent": 16140,
    "perquis": 22194,
    "Ġsearching": 13166,
    "alf": 4640,
    "ucy": 15447,
    "bacc": 7795,
    "Ġstoke": 10398,
    "Ġshift": 2279,
    "Ġbecalmed": 18089,
    "era": 13850,
    "nursery": 26401,
    "ny": 4015,
    "Ġdeem": 18135,
    "keen": 12787,
    "Ġlegal": 10441,
    "Ġunwearied": 20605,
    "Ġembod": 14413,
    "Ġmorocco": 26575,
    "knew": 9129,
    "scor": 13021,
    "Ġdescribes": 3123,
    "dum": 17520,
    "Ġ**": 4722,
    "Ġwager": 17794,
    "ung": 2743,
    "Ġtransform": 754,
    "Ġpromote": 23196,
    "400": 20757,
    "Ġrestrict": 16377,
    "Ġcounter": 6482,
    "ading": 5091,
    "Ġdiabol": 11455,
    "Ġwad": 13854,
    "Ġearning": 23944,
    "Ġgroup": 2038,
    "Ġloungers": 24863,
    "Ġthank": 3792,
    "Ġpower": 1227,
    "Ġcod": 8413,
    "missing": 13224,
    "Ġlead": 3521,
    "Ġpanting": 11605,
    "star": 12677,
    "Ġstrokes": 16771,
    "fallen": 19662,
    "proceed": 8979,
    "Ġcovariate": 2349,
    "greater": 13255,
    "blooded": 20026,
    "ladder": 19787,
    "condemned": 26061,
    "olog": 1088,
    "Ġslabs": 13066,
    "Ġjingling": 26018,
    "Ġtattooed": 11380,
    "pet": 4868,
    "Ġaccursed": 9458,
    "Ġcinque": 20489,
    "endar": 18363,
    "Ġimitate": 14158,
    "Ġindispensable": 11905,
    "Ġabsolute": 6766,
    "Ġaimed": 20253,
    "Ġsuavely": 26525,
    "tossing": 18582,
    "towards": 5003,
    "testing": 12521,
    "ondency": 15273,
    "opposite": 19931,
    "inaw": 21186,
    "Ġease": 5629,
    "Ġsaucer": 20608,
    "Ġderbyshire": 6588,
    "Ġhasn": 12932,
    "aculate": 16068,
    "Ġcongratulatory": 19770,
    "Ġcultiv": 13560,
    "ire": 491,
    "Ġabased": 22272,
    "Ġassu": 21901,
    "won": 8395,
    "soc": 5175,
    "baboon": 25517,
    "bethink": 25745,
    "skirted": 24489,
    "Ġbelief": 5857,
    "binnacle": 20789,
    "Ġcondescend": 19958,
    "Ġcrow": 3805,
    "Ġconfess": 3767,
    "Ġhuzza": 12638,
    "Ġbeeches": 9229,
    "continually": 11304,
    "Ġdeline": 16337,
    "Ġpear": 11856,
    "grounds": 11153,
    "Ġrelevance": 5184,
    "eties": 10839,
    "strip": 19833,
    "Ġindiscriminately": 20630,
    "preading": 18500,
    "Ġfind": 1457,
    "Ġwidely": 8033,
    "Ġgenerator": 3380,
    "Ġdecapitated": 20619,
    "Ġblossom": 26313,
    "Ġdespaired": 14671,
    "Ġcringed": 25943,
    "Ġcottages": 14730,
    "ges": 2873,
    "ailing": 7023,
    "expectations": 24279,
    "Ġagreeable": 4553,
    "Ġadopt": 10634,
    "Ġ$": 21153,
    "K": 47,
    "Ġflowery": 16237,
    "Ġpuzz": 5533,
    "Ġmol": 12566,
    "interchange": 23741,
    "eteenth": 20160,
    "Ġswashing": 23059,
    "gorge": 22336,
    "Ġking": 2302,
    "Ġsavoury": 23880,
    "Ġpythag": 26450,
    "ieged": 22584,
    "awn": 3836,
    "Ġdy": 2519,
    "Ġunrest": 11718,
    "spect": 3233,
    "Ġgiants": 25961,
    "Ġhatty": 19267,
    "Ġship": 1091,
    "Ġupon": 719,
    "Ġpermanently": 25474,
    "ernsey": 8908,
    "Ġfinds": 6301,
    "taste": 10132,
    "Ġincor": 2608,
    "Ġoverfitting": 1543,
    "fen": 20852,
    "Ġsplend": 9901,
    "Ġwise": 6812,
    "Ġhorseback": 14853,
    "Ġtrain": 515,
    "Ġcampa": 17176,
    "ibule": 13012,
    "progress": 11992,
    "west": 10741,
    "inj": 9154,
    "ial": 410,
    "hand": 2756,
    "Ġoffend": 16144,
    "Ġillustration": 19137,
    "attered": 4018,
    "Ġtransl": 2831,
    "Ġpirates": 9076,
    "ubines": 22964,
    "face": 3676,
    "althy": 8433,
    "judging": 24204,
    "affair": 14657,
    "Ġalterations": 19873,
    "Ġmaintained": 12939,
    "Ġlabours": 8586,
    "Ġentity": 10347,
    "ek": 1909,
    "condem": 16347,
    "Ġbrah": 19360,
    "izer": 2031,
    "Ġparc": 10922,
    "Ġholes": 16411,
    "card": 11477,
    "Ġfoe": 7680,
    "Ġdisquiet": 18553,
    "Ġfar": 1450,
    "unting": 21878,
    "Ġneville": 7399,
    "Ġuproar": 22159,
    "mund": 13761,
    "Ġabatement": 22280,
    "Ġreaction": 15699,
    "Ġsuspected": 9065,
    "desirable": 23813,
    "str": 2576,
    "Ġpress": 5933,
    "stige": 21664,
    "Ġoff": 901,
    "Ġnupt": 13946,
    "Ġingrat": 16842,
    "Ġwatches": 11083,
    "Ġcontinually": 5042,
    "phys": 18715,
    "Ġgossip": 18471,
    "Ġnursed": 16887,
    "prick": 19346,
    "Ġhowl": 12858,
    "Ġemac": 16410,
    "Ġcannib": 6037,
    "stripped": 16947,
    "Ġglassy": 19563,
    "Ġsensitiveness": 23737,
    "Ġ25": 13196,
    "Ġmiz": 10779,
    "Ġwanted": 4968,
    "affa": 23779,
    "Ġfrog": 23925,
    "Ġopposition": 16522,
    "Ġrare": 7038,
    "itically": 21333,
    "Ĳ": 243,
    "atha": 6574,
    "_)": 9105,
    "Ġinterrupt": 4360,
    "Ġdank": 21431,
    "Ġcompanionship": 14923,
    "Ġtimor": 24227,
    "pursued": 17284,
    "replied": 11568,
    "Ġreinforcement": 3209,
    "armed": 7251,
    "unteered": 26497,
    "wheels": 14384,
    "est": 502,
    "Ġcalam": 13039,
    "regularization": 3513,
    "road": 6679,
    "savagery": 25028,
    "Ġmoods": 14954,
    "Ġexact": 2541,
    "Ġcrutch": 23446,
    "Ġwails": 21299,
    "entering": 17979,
    "Ġdependent": 14294,
    "Ġgraves": 11712,
    "Ġpunchbowl": 20234,
    "Ġpossibilities": 18975,
    "Ġevince": 24295,
    "Ġold": 1055,
    "Ġspent": 3963,
    "Ġaccordance": 19501,
    "Ġunavailing": 26217,
    "culine": 19065,
    "Ġtigris": 25760,
    "atus": 21263,
    "Ġrat": 4354,
    "ugl": 23291,
    "Ġluc": 3309,
    "Ġbuilded": 24718,
    "Ġcontradictory": 20400,
    "Ġlinn": 13956,
    "Ġwaited": 4909,
    "tackles": 25625,
    "ike": 5000,
    "attending": 18918,
    "Ġthr": 5709,
    "Ġchurch": 4712,
    "ssian": 3399,
    "Ġwitnessing": 19601,
    "enesis": 24388,
    "ĠâĢĶ": 13814,
    "Ġimperfect": 13344,
    "Ġbullion": 24986,
    "ideas": 18583,
    "Ġnature": 2537,
    "attributed": 23123,
    "myst": 9825,
    "Ġalpha": 13592,
    "Ġapproximation": 2340,
    "dared": 13706,
    "nailed": 20998,
    "numerous": 17434,
    "remember": 7262,
    "cription": 20820,
    "proportion": 16185,
    "Ġlisten": 4675,
    "Ġfert": 15586,
    "Ġtranced": 18432,
    "Ġdenny": 9004,
    "Ġrobe": 18459,
    "Ġsensitive": 13201,
    "Ġpreparing": 8651,
    "typewritten": 26039,
    "Ġobligation": 13248,
    "Ġdistance": 3481,
    "Ġassistants": 9454,
    "Ġpaunch": 23751,
    "Ġheaps": 11645,
    "moments": 19415,
    "Ġunseen": 3522,
    "Ġkeenly": 9488,
    "ignor": 8964,
    "Ġplaint": 10328,
    "Ġstrongly": 5657,
    "att": 1456,
    "herent": 2528,
    "www": 17254,
    "Ġdeepest": 8213,
    "ills": 1626,
    "rown": 2190,
    "Ġvishnoo": 12758,
    "look": 2259,
    "Ġimpression": 5732,
    "Ġstories": 10867,
    "Ġsupports": 3054,
    "Ġprair": 7747,
    "Ġsinew": 25432,
    "fail": 17542,
    "Ġreclining": 26035,
    "judged": 14834,
    "Ġtransf": 22460,
    "Ġcow": 13879,
    "Ġgrego": 18962,
    "Ġthenceforth": 25183,
    "Ġrising": 4356,
    "Ġcontention": 22430,
    "Ġwhen": 514,
    "ification": 1007,
    "pemberley": 9623,
    "Ġardently": 9501,
    "power": 7138,
    "Ġunfeeling": 14122,
    "Ġmodular": 12821,
    "Ġindignant": 12244,
    "mine": 5618,
    "Ġlashed": 9201,
    "dening": 22782,
    "coun": 10690,
    "iterranean": 15554,
    "Ġdetached": 10283,
    "Ġcoloss": 11046,
    "Ġwhar": 7388,
    "Ġlagged": 21561,
    "Ġinev": 10184,
    "Ġgallied": 19559,
    "surrounded": 26089,
    "Ġindians": 14412,
    "regarded": 12012,
    "Ġforebodings": 17307,
    "extracts": 22774,
    "Ġheightens": 24156,
    "Ġoutcast": 18415,
    "Ġexpeditions": 24957,
    "Ġbureau": 11593,
    "Ġaugust": 10600,
    "Ġintrepidity": 25551,
    "Ġboughs": 20492,
    "Ġfruits": 17121,
    "caus": 11478,
    "vari": 1516,
    "Ġholland": 10368,
    "gust": 6362,
    "Ġconfines": 23307,
    "Ġprone": 18968,
    "cork": 20798,
    "Ġasked": 2275,
    "ides": 2160,
    "Ġmightiest": 12966,
    "Ġpasture": 14544,
    "Ġplow": 21461,
    "Ġwaned": 17793,
    "Ġgenerous": 6275,
    "Ġxxxvi": 24972,
    "Ġinsight": 16532,
    "clusion": 16308,
    "level": 2649,
    "bright": 8992,
    "Ġgobern": 22429,
    "Ġeff": 681,
    "Ġscolded": 25473,
    "Ġrelative": 11887,
    "Ġnegatived": 23051,
    "painted": 17641,
    "ĠĠ": 352,
    "ulgent": 18152,
    "value": 18810,
    "Ġcalling": 5662,
    "held": 3842,
    "urance": 10859,
    "Ġsketches": 26272,
    "Ġlegisl": 23537,
    "Ġlittle": 866,
    "Ġshoulder": 5849,
    "Ġvari": 831,
    "Ġwears": 10243,
    "Ġbenediction": 18785,
    "goodbye": 12059,
    "Ġrelieve": 8224,
    "skeleton": 17379,
    "Ġthrows": 14740,
    "Ġcate": 4106,
    "helpless": 16792,
    "matical": 13132,
    "chronicle": 26482,
    "µ": 118,
    "Ġkn": 4547,
    "Ġjug": 12840,
    "Ġdaggoo": 5441,
    "Ġgrimesby": 11459,
    "inu": 1112,
    "presumption": 20445,
    "Ġcomplexion": 8211,
    "Ġlawless": 19438,
    "quietude": 24656,
    "Ġsleeve": 20143,
    "closed": 23158,
    "Ġcylinders": 25944,
    "._)": 10483,
    "Ġparts": 4163,
    "Ġlewis": 15723,
    "Ġchaldee": 26236,
    "september": 14039,
    "Ġplaything": 19239,
    "Ġcruelly": 13379,
    "Ġvoyager": 16514,
    "turns": 14909,
    "Ġcircum": 8258,
    "Ġgazes": 24097,
    "Ġmuttering": 10502,
    "Ġaccompanying": 11306,
    "does": 6196,
    "ster": 1952,
    "oysius": 14365,
    "Ġlegend": 14577,
    "nav": 17613,
    "Ġintended": 5548,
    "des": 3173,
    "_.âĢĶ": 23474,
    "Ġkeeled": 18809,
    "Ġneither": 3685,
    "Ġdecidedly": 9512,
    "aments": 12730,
    "Ġflaw": 23013,
    "pth": 2379,
    "Ġcalamities": 25700,
    "discharging": 26306,
    "itions": 4146,
    "waiter": 24587,
    "Ġdiffident": 23786,
    "belled": 24039,
    "Ġassented": 17341,
    "Ġunaffected": 14125,
    "three": 5238,
    "allows": 15911,
    "matters": 14877,
    "Ġdeny": 7488,
    "Ġsovere": 9259,
    "ħ": 232,
    "Ġinsurg": 23681,
    "Ġtossed": 5816,
    "Ġcavity": 20491,
    "Ġdrily": 23542,
    "Ġchagrin": 20610,
    "Ġdisconnected": 22529,
    "Ġlaug": 3627,
    "Ġchapter": 2957,
    "spass": 18686,
    "Ġrepresented": 8941,
    "Ġshovel": 23493,
    "Ġsmoked": 10326,
    "Ġdouble": 4940,
    "Ġleisure": 6541,
    "Ġtus": 10751,
    "Ġrebell": 21672,
    "Ġbulky": 13233,
    "party": 8995,
    "Ġbodily": 6108,
    "leads": 21373,
    "Ġvaried": 11852,
    "Ġrepel": 23362,
    "Ġvastly": 23863,
    "Ġsincere": 11138,
    "Ġdit": 21423,
    "Ġministers": 22835,
    "Ġplunged": 8696,
    "conviction": 19968,
    "appears": 12063,
    "d": 72,
    "swam": 24257,
    "ributed": 8215,
    "Ġprejudices": 13473,
    "Ġdeft": 21839,
    "Ġexhausting": 24709,
    "ckled": 9260,
    "Ġwearied": 15798,
    "Ġtiar": 21170,
    "ellative": 21947,
    "Ġmargin": 11925,
    "ratches": 20128,
    "ifying": 5252,
    "revenge": 13845,
    "Ġessence": 13409,
    "exactly": 10639,
    "Ġentra": 18697,
    "merc": 19282,
    "Ġimputable": 22176,
    "Ġglobu": 23274,
    "Ġtrample": 20330,
    "kes": 3677,
    "Ġtouched": 6002,
    "Ġladyship": 5046,
    "spread": 8389,
    "Ġsurmise": 12299,
    "Ġmaelstrom": 19359,
    "Ġcaroline": 7255,
    "etite": 21582,
    "rals": 21045,
    "tiness": 21074,
    "Ġsecondly": 14519,
    "attentions": 13578,
    "sentence": 2940,
    "Ġbod": 4582,
    "Ġdead": 2170,
    "Ġgenial": 12199,
    "Ġmes": 17798,
    "Ġstr": 751,
    "Ġbasket": 9575,
    "Ġestab": 6317,
    "Ġpenalizing": 13095,
    "merged": 11196,
    "Ġthorough": 6247,
    "Ġconstant": 6311,
    "Ġponies": 21478,
    "Ġbor": 5805,
    "Ġleast": 2065,
    "ittle": 812,
    "could": 2872,
    "Ġglances": 10375,
    "Ġfre": 1570,
    "under": 3133,
    "Ġsacrifice": 9558,
    "Ġtomb": 8812,
    "lour": 15384,
    "bee": 16041,
    "Ġgreek": 10633,
    "Ġconcrete": 20640,
    "Ġmaid": 5287,
    "onts": 15522,
    "nameless": 19905,
    "those": 4496,
    "Ġinsulated": 23680,
    "Ġhimmale": 18335,
    "prepar": 22470,
    "Ġattribute": 16101,
    "bbing": 6325,
    "drifting": 19827,
    "scho": 8763,
    "Ġmakest": 25436,
    "Ġfavourite": 5271,
    "increased": 20273,
    "Ġeyel": 17097,
    "Ġvigorous": 10569,
    "Ġrows": 10563,
    "eluded": 21578,
    "obtained": 23098,
    "Ġwoe": 4794,
    "nals": 16403,
    "Ġcrop": 10165,
    "either": 6792,
    "meditation": 19071,
    "inting": 9817,
    "Ġsummar": 3523,
    "achines": 1722,
    "Ġemotion": 7690,
    "Ġlays": 15993,
    "Ġjumped": 7098,
    "Ġstumble": 26485,
    "Ġnib": 13943,
    "Ġtasted": 12534,
    "dense": 18716,
    "Ġexcuse": 5863,
    "Ġsqu": 1036,
    "======": 9836,
    "ival": 4227,
    "recogn": 13429,
    "Ġbes": 2657,
    "rows": 6443,
    "dwelt": 23874,
    "fool": 9050,
    "adventurous": 25362,
    "ue": 1180,
    "ulation": 5458,
    "Ġloud": 4702,
    "Ġretrogression": 26583,
    "Ġrudder": 25110,
    "Ġsubsets": 2344,
    "Ġtreating": 4285,
    "stumps": 21662,
    "precedented": 15178,
    "Ġthey": 575,
    "Ġsomething": 1794,
    "Ġlakeman": 6987,
    "Ġsanction": 20029,
    "Ġembodiment": 20531,
    "Ġwre": 5077,
    "Ġgull": 15674,
    "Ġespecially": 3936,
    "Ġchast": 18380,
    "Ġinitialized": 3948,
    "abhorred": 17339,
    "Ġinclud": 1511,
    "Ġtoast": 21515,
    "Ġsor": 4144,
    "assumed": 22312,
    "Ġbridle": 24682,
    "Ġdissatisfied": 14259,
    "passenger": 24169,
    "Ġrecollecting": 17114,
    "walked": 10573,
    "itching": 21338,
    "Ġso": 433,
    "Ġinternal": 2244,
    "sub": 4661,
    "orers": 14106,
    "Ġcontrasting": 11156,
    "Ġscarce": 8625,
    "O": 51,
    "Ġane": 9184,
    "âĢľ": 344,
    "Ġrashness": 25461,
    "atching": 8202,
    "Ġguar": 23049,
    "Ġdrinks": 24282,
    "Ġsubjected": 23574,
    "loa": 18531,
    "Ġretrie": 10385,
    "ratulations": 20129,
    "mits": 13759,
    "Ġeste": 6085,
    "riend": 1185,
    "variance": 2651,
    "Ġlumps": 21559,
    "Ġtemptation": 8681,
    "Ġanx": 3182,
    "Ġopal": 23627,
    "Ġaverred": 18867,
    "ienced": 5685,
    "Ġcorners": 18876,
    "Ġnightfall": 23133,
    "deli": 15348,
    "Ġdiverse": 19211,
    "raint": 18317,
    "erc": 5906,
    "Ġinwards": 15625,
    "Ġthundering": 24293,
    "Ġlargely": 14288,
    "readers": 23851,
    "Ġuncounted": 19118,
    "thole": 21990,
    "atmospheric": 17778,
    "Ġmagnifying": 16324,
    "pistol": 17644,
    "erman": 5108,
    "copyright": 5278,
    "Ġjones": 7204,
    "Ġdiscovers": 4428,
    "etition": 7382,
    "Ġdeafened": 25652,
    "Ġinno": 1495,
    "Ğ": 223,
    "Ġcombined": 8550,
    "Ġwreak": 16819,
    "Ġquaff": 22418,
    "overcome": 19052,
    "halfway": 24313,
    "country": 6105,
    "Ġtranquilly": 12294,
    "Ġgreatness": 12948,
    "Ġtart": 12532,
    "Ġinheritance": 25356,
    "Ġ183": 13242,
    "Ġsanguinary": 25930,
    "Ġecl": 18008,
    "Ġindomitableness": 26573,
    "Ġtease": 18801,
    "Ġnecess": 3474,
    "Ġreckoning": 14982,
    "etymology": 14704,
    "Ġhind": 9191,
    "Ġfiendish": 13332,
    "mean": 6439,
    "shud": 18482,
    "Ġindist": 14411,
    "Ġforeheads": 23449,
    "Ġbathing": 20202,
    "thrill": 25657,
    "edy": 2859,
    "Ġconverted": 16119,
    "Ġexceptional": 19374,
    "'(": 2981,
    "night": 2167,
    "hee": 10762,
    "hur": 6651,
    "Ġbigot": 24566,
    "rely": 6125,
    "Ġexpired": 18625,
    "Ġequivalent": 4803,
    "Ġburg": 23653,
    "Ġoarsman": 8641,
    "sheet": 16289,
    "acknowled": 10977,
    "dead": 8180,
    "Ġsuppose": 2866,
    "pall": 17630,
    "true": 2584,
    "clerval": 7951,
    "Ġmaw": 15544,
    "Ġfinery": 23128,
    "Ġthread": 14541,
    "Ġap": 5008,
    "Ġdisposed": 7085,
    "Ġsulkily": 25882,
    "Ġshocked": 9404,
    "impression": 15715,
    "Ġdisclosed": 15157,
    "Ġvalleys": 14922,
    "corrob": 24485,
    "showing": 22450,
    "joining": 19449,
    "Ġsuddenness": 23385,
    "Ġscreamed": 9527,
    "Ġheedless": 14906,
    "frantic": 24285,
    "Ġoutlandish": 12843,
    "Ġ166": 25007,
    "Ġdimly": 9491,
    "Ġsavag": 19377,
    "Ġchips": 14182,
    "ners": 3271,
    "Ġdistrusting": 25056,
    "dog": 10696,
    "rossing": 18649,
    "countenances": 24153,
    "shazzar": 15293,
    "Ġsmote": 18576,
    "ard": 465,
    "Ġeastern": 11632,
    "Ġsank": 5076,
    "Ġcrunched": 19122,
    "Ġcondem": 6340,
    "Ġbrutality": 26278,
    "Ġcreditable": 19625,
    "work": 1751,
    "cherries": 19759,
    "Ġfluffy": 19367,
    "Ġclean": 5652,
    "Ġcongealed": 25982,
    "Ġtails": 9905,
    "Ġaffability": 14390,
    "Ġwerter": 15243,
    "Ġencodings": 4776,
    "Ġ29": 23732,
    "onym": 14651,
    "vineyard": 25422,
    "Ġused": 2061,
    "Ġinsignific": 13184,
    "ĉ": 202,
    "Ġbattery": 21397,
    "Ġbowsman": 11256,
    "thoughtfully": 24047,
    "Ġstruggled": 9908,
    "Ġahead": 6665,
    "Ġantiquities": 25599,
    "Ġminute": 4280,
    "Ġaug": 6236,
    "mond": 20976,
    "Ġdesponding": 25869,
    "Ġfattened": 25950,
    "Ġig": 3498,
    "Ġjudges": 14687,
    "alluring": 18353,
    "fi": 12466,
    "Ġgovern": 10452,
    "Ġsalutations": 25383,
    "Ġtamely": 24980,
    "Ġsimil": 2530,
    "retired": 11940,
    "Ġlig": 21551,
    "Åĵuv": 15186,
    "Ġbalances": 2339,
    "where": 2092,
    "Ġrepeating": 11215,
    "ti": 8390,
    "Ġmeadows": 11424,
    "Ġbengal": 18784,
    "Ġpowerful": 1492,
    "Ġslim": 18939,
    "Ġadversary": 12178,
    "enged": 23151,
    "Ġconstable": 19068,
    "Ġextravagant": 17281,
    "ā": 194,
    "Ġlaw": 3654,
    "lascar": 20962,
    "Ġfatt": 15583,
    "murderers": 25728,
    "Ġcrystal": 17217,
    "cracy": 24691,
    "Ġeigen": 4882,
    "Ġrepetition": 8975,
    "cleanliness": 25872,
    "ub": 1225,
    "Ġunnaturally": 24871,
    "Ġhorner": 8961,
    "lounged": 26134,
    "Ġstabbed": 25457,
    "Ġtoiled": 12647,
    "Ġviv": 6158,
    "Ġmedd": 15543,
    "Ġ112": 24437,
    "resentment": 15189,
    "Ġminimizing": 3463,
    "Ġdistrustful": 25057,
    "keepers": 16662,
    "rain": 461,
    "py": 17626,
    "commodore": 20628,
    "Ġexc": 1834,
    "lengthwise": 19953,
    "Ġsomewhere": 5384,
    "igin": 3655,
    "Ġforlorn": 14018,
    "black": 6769,
    "Ġamerica": 6764,
    "Ġmud": 11576,
    "Ġhatchet": 16530,
    "Ġcanaan": 22170,
    "axen": 22525,
    "Ġbeauties": 10447,
    "pest": 6965,
    "Ġinferiority": 17116,
    "Ġpil": 5014,
    "Ġrelied": 16197,
    "Ġvancouver": 26567,
    "Ġgomorrah": 21618,
    "Ġguardian": 14945,
    "Ġinjuries": 11279,
    "rior": 12746,
    "orney": 17875,
    "Ġpath": 2114,
    "Ġbash": 12591,
    "Ġcanv": 7011,
    "astrous": 15889,
    "Ġuser": 15919,
    "etime": 12664,
    "mud": 20973,
    "Ġjourneys": 19478,
    "Ġcountenance": 3971,
    "Ġbaron": 19336,
    "ishes": 6524,
    "Ġintrude": 25991,
    "à": 161,
    "haired": 14770,
    "Ġgangway": 20161,
    "Ġadvise": 7936,
    "abs": 11670,
    "advance": 12161,
    "eries": 6809,
    "enet": 10155,
    "Ġinsince": 23679,
    "bunger": 20405,
    "Ġhav": 12759,
    "knowledge": 7478,
    "reached": 13844,
    "blue": 13697,
    "Ġghastly": 10063,
    "ernation": 8212,
    "Ġlanguage": 638,
    "hearth": 15502,
    "bless": 22316,
    "eenth": 12465,
    "Ġcircumstances": 3926,
    "Ġgrowth": 14631,
    "Ġgrappling": 25813,
    "baron": 24926,
    "swe": 5997,
    "cheer": 9440,
    "ish": 552,
    "moving": 11018,
    "ece": 17533,
    "Ġforbade": 15218,
    "Ġcoleridge": 18767,
    "Ġhair": 3312,
    "Ġstirred": 12222,
    "desponding": 26343,
    "generally": 9438,
    "Ġwholly": 4448,
    "Ġsitt": 21220,
    "voy": 7145,
    "ric": 1377,
    "steering": 16638,
    "Ġanytime": 12890,
    "Ġscalable": 1566,
    "Ġunnatural": 7190,
    "Ġrealistic": 5862,
    "Ġshreds": 12775,
    "Ġcommit": 18656,
    "Ġsubstances": 24168,
    "Ġsingers": 23774,
    "Ġcase": 1941,
    "cess": 537,
    "Ġfootpath": 19340,
    "scans": 22987,
    "Ġproc": 5545,
    "ustration": 2257,
    "subject": 6634,
    "Ġsetting": 7048,
    "Ġpanic": 11288,
    "Ġmurmur": 14591,
    "Ġchamber": 6215,
    "Ġbenchmarks": 15024,
    "iction": 4270,
    "source": 11528,
    "Ġfel": 1517,
    "Ġmamma": 10051,
    "vered": 4832,
    "Ġgrizzled": 11452,
    "Ġpolitical": 19225,
    "ads": 5718,
    "Ġsta": 18068,
    "fering": 17544,
    "Û": 156,
    "itated": 4441,
    "mediterranean": 16409,
    "fitzwilliam": 11354,
    "Ġmethods": 3161,
    "Ġunfrequ": 19511,
    "Ġspoiled": 11365,
    "Ġreco": 9795,
    "Ġhab": 4218,
    "driver": 14924,
    "atement": 17775,
    "threat": 10902,
    "Ġpremium": 23908,
    "unw": 14060,
    "q": 85,
    "Ġpreservative": 24630,
    "sustained": 20571,
    "Ġfondness": 16782,
    "Ġdoctrine": 24200,
    "Ġtaller": 16689,
    "erns": 8782,
    "Ġwriters": 13546,
    "rodden": 21538,
    "ints": 3416,
    "cull": 20811,
    "Ġattic": 16099,
    "\"": 6,
    "Ġran": 3341,
    "Ġjesty": 18406,
    "Ġsick": 4694,
    "Ġlines": 4535,
    "Ġdeterminate": 23007,
    "coat": 5407,
    "exagger": 22432,
    "cture": 15669,
    "Ġobliged": 4287,
    "ivity": 1647,
    "Ġenraptured": 26502,
    "Ġhamper": 19392,
    "moderate": 22902,
    "Ġbeech": 18085,
    "Þ": 159,
    "velope": 17703,
    "veil": 18048,
    "Ġaboriginal": 14191,
    "Ġunintellig": 22030,
    "istically": 14146,
    "Ġref": 902,
    "eler": 1571,
    "Ġsolar": 22887,
    "aky": 18412,
    "Ġpositions": 2057,
    "aire": 10683,
    "Ġblankness": 24611,
    "dued": 7909,
    "vable": 10135,
    "Ġsteer": 10389,
    "anque": 13891,
    "hamlet": 23265,
    "impotence": 23764,
    "isis": 12584,
    "Ġexertion": 8054,
    "arned": 21821,
    "ach": 434,
    "Ġspl": 2986,
    "Ġimprec": 14216,
    "quely": 10234,
    "Ġalex": 15137,
    "vast": 10738,
    "kitty": 10108,
    "Ġunre": 3476,
    "Ġmabel": 17327,
    "Ġfertile": 20586,
    "Ġbat": 10797,
    "Ġrug": 16161,
    "amongst": 24673,
    "Ġnlp": 3065,
    "Ġadvancement": 24475,
    "Ġwhip": 8453,
    "tumultuously": 25614,
    "Ġevangelist": 20341,
    "Ġearnestness": 12130,
    "Ġfluctuations": 5516,
    "Ġrec": 910,
    "uble": 21105,
    "Ġwraps": 19779,
    "Ġscrutiny": 26016,
    "artic": 14223,
    "Ġglaring": 11912,
    "uing": 17695,
    "notice": 16147,
    "ampl": 21846,
    "chan": 1174,
    "Ġscre": 9740,
    "Ġmarling": 23037,
    "Ġremo": 3786,
    "interred": 23739,
    "Ġsnapped": 9900,
    "Ġsteering": 10390,
    "concerted": 16674,
    "ropol": 10955,
    "Ġleague": 6540,
    "Ġpains": 5966,
    "Ġodds": 13334,
    "Ġhood": 10825,
    "Ġvalu": 5039,
    "ceased": 21629,
    "Ġharpooneers": 4733,
    "Ġworldly": 16333,
    "asp": 3338,
    "inging": 5908,
    "Ġnaturally": 2464,
    "Ġtraining": 530,
    "Ġarguing": 25471,
    "elop": 1472,
    "Ġproxim": 3200,
    "Ġadmitted": 8989,
    "thrust": 10264,
    "Ġadapted": 11047,
    "Ġbattle": 5909,
    "Ġbelieving": 8225,
    "aking": 974,
    "Ġswords": 19899,
    "imp": 3037,
    "ĠÂ£": 5006,
    "in": 262,
    "Ġcommunity": 19010,
    "put": 414,
    "Ġmechanical": 7938,
    "Ġunit": 1849,
    "Ġisles": 8461,
    "Ġlibr": 16005,
    "Ġluxuries": 25167,
    "urged": 18051,
    "collected": 13217,
    "Ġbil": 15569,
    "Ģ": 227,
    "metallic": 19882,
    "Ġpriv": 4183,
    "Ġsample": 3179,
    "fal": 17538,
    "also": 7851,
    "Ġoblig": 3443,
    "interruption": 20115,
    "Ġmediterranean": 12319,
    "Ġpattern": 1293,
    "Ġframe": 1935,
    "Ġexplicit": 3587,
    "ices": 2136,
    "Ġsuffering": 8949,
    "spee": 9320,
    "Ġplacid": 11830,
    "isely": 4489,
    "Ġcommonplace": 11098,
    "Ġmetallic": 19080,
    "(_": 7540,
    "Ġmarshy": 20221,
    "Ġhurriedly": 11251,
    "determ": 7107,
    "reach": 17759,
    "Ġbackwoods": 22664,
    "Ġpeeping": 16131,
    "ojo": 7349,
    "Ġflock": 21414,
    "mess": 13756,
    "drowned": 17372,
    "Ġhearty": 9848,
    "Ġimmersed": 19488,
    "cas": 20796,
    "Ġcaged": 21355,
    "Ġlongbourn": 3506,
    "Ġdifferent": 1428,
    "Ġcrocodile": 20742,
    "Ġpist": 12620,
    "Ġoverhear": 15977,
    "Ġkeen": 4615,
    "ortion": 11760,
    "refusal": 24735,
    "Ġmorbid": 16238,
    "Ġpreser": 6042,
    "tural": 21069,
    "Ġpleasantness": 24139,
    "Ġrecital": 16150,
    "clouded": 20334,
    "Ġbadge": 16682,
    "Ġwoollen": 12108,
    "ories": 4754,
    "Ġparr": 22123,
    "Ġowe": 8115,
    "magnetic": 20555,
    "Ġdru": 8423,
    "pires": 13778,
    "Ġsuspicions": 9482,
    "Ġcards": 7581,
    "Ġcocain": 18598,
    "Ġhollow": 5648,
    "wel": 6119,
    "Ġgib": 13968,
    "Ġnantucketers": 9898,
    "Ġslighter": 18942,
    "Ġpeaked": 2294,
    "Ġbowels": 9433,
    "generosity": 23789,
    "extent": 22770,
    "Ġkindness": 4094,
    "intelligent": 16846,
    "benevolently": 25601,
    "Ġconfirmation": 17213,
    "crossing": 19414,
    "Ġbubbling": 17329,
    "follows": 24528,
    "original": 9088,
    "ake": 748,
    "hyena": 24255,
    "organic": 25947,
    "Ġpur": 2214,
    "Ġgown": 10204,
    "ifies": 6688,
    "Ġ35": 24079,
    "bil": 20773,
    "asses": 7018,
    "bringing": 17169,
    "Ġinterven": 11000,
    "duing": 22415,
    "Ġdat": 495,
    "bular": 15317,
    "Ġtrib": 13822,
    "propriety": 14374,
    "ony": 3033,
    "Ġsuppressing": 23004,
    "headed": 4319,
    "Ġmachinery": 20488,
    "Ġhope": 1787,
    "Ġcumul": 4179,
    "wester": 21141,
    "ures": 835,
    "ignant": 11131,
    "Ġpays": 13301,
    "Ġfull": 2176,
    "Ġwidow": 8666,
    "Ġpossessing": 16578,
    "ĠĠĠĠĠĠ": 6415,
    "grey": 14915,
    "Ġobtained": 7432,
    "partner": 19223,
    "Ġunappe": 22022,
    "ithing": 11652,
    "palms": 25263,
    "hundreds": 25076,
    "swallow": 24260,
    "Ġtailed": 21171,
    "curious": 10485,
    "Ġhymn": 24518,
    "oman": 2018,
    "Ġchild": 2258,
    "pract": 10122,
    "go": 2064,
    "Ġcolder": 22858,
    "consent": 18504,
    "axing": 18548,
    "iscreet": 20685,
    "ruff": 15899,
    "mblings": 19783,
    "Ġheeds": 24520,
    "Ġpope": 11604,
    "glance": 16589,
    "Ġpitied": 14694,
    "Ġdishon": 12235,
    "Ġfolding": 19730,
    "lands": 8241,
    "Ġfire": 2330,
    "Ġstorms": 11264,
    "Ġcultivation": 17148,
    "Ġmarred": 23035,
    "Ġscuff": 15946,
    "Ġtimorous": 24228,
    "insisted": 23069,
    "avering": 24792,
    "re": 266,
    "Ġpaying": 9941,
    "ronted": 14880,
    "Ġteaching": 10367,
    "Ġfool": 4236,
    "Ġcou": 5288,
    "Ġaims": 15499,
    "knows": 19174,
    "Ġbreckinridge": 14525,
    "Ġthumb": 6982,
    "ine": 404,
    "orse": 5807,
    "Ġhoarse": 14528,
    "Ġentailed": 11030,
    "antly": 1990,
    "ledyard": 22396,
    "Ġecstasy": 11633,
    "Ġpearl": 20380,
    "Ġanswer": 2596,
    "Ġcos": 2206,
    "Ġdante": 21441,
    "commanders": 16991,
    "Ġpurplish": 19142,
    "Ġreckless": 13462,
    "Ġskrimshander": 22803,
    "comfortably": 16877,
    "inev": 21969,
    "Ġordered": 5833,
    "hold": 3982,
    "Ġperfections": 23610,
    "Ġestimates": 3746,
    "snatched": 24851,
    "Ġprofessed": 14727,
    "pagans": 25526,
    "itchen": 7788,
    "hors": 9601,
    "Ġdeacon": 18142,
    "Ġmuttered": 7088,
    "consult": 24172,
    "Ġdevoted": 6575,
    "Ġpiercing": 13497,
    "seen": 2880,
    "Ġrejection": 19987,
    "Ġmission": 13011,
    "Ġlobes": 22119,
    "Ġorgies": 18288,
    "abetical": 15747,
    "Ġicicles": 25265,
    "brimming": 23579,
    "Ġabrid": 22276,
    "Ġunintelligible": 26516,
    "pudding": 17649,
    "Ġyale": 21777,
    "Ġpom": 21454,
    "Ġacknowledge": 13406,
    "hooked": 23718,
    "Ġdismal": 11814,
    "log": 18532,
    "Ġbount": 15572,
    "Ġgen": 5298,
    "Ġapparel": 20439,
    "affect": 13216,
    "Ó": 148,
    "hoisted": 19284,
    "eled": 2357,
    "ove": 1740,
    "Ġalteration": 9549,
    "comm": 7440,
    "Ġenduring": 16305,
    "intern": 23738,
    "bitter": 11243,
    "Ġfixing": 13160,
    "Ġcellar": 8059,
    "umb": 3402,
    "--âĢĺ": 22848,
    "critical": 19499,
    "Ġelect": 10844,
    "Ġpersever": 10006,
    "Ġvault": 8845,
    "Ġbravery": 23840,
    "Ġprotesting": 14744,
    "Ġvibrated": 25048,
    "whaleman": 23438,
    "Ġturks": 14600,
    "answers": 22144,
    "Ġinvested": 7279,
    "Ġinventing": 24862,
    "Ġsatire": 22903,
    "Ġburial": 16523,
    "Ġdrama": 16332,
    "Ġrigger": 19533,
    "Ġpang": 15609,
    "Ġhelmet": 19690,
    "hertfordshire": 10938,
    "senses": 25025,
    "Ġwig": 9164,
    "rifle": 21049,
    "Ġinert": 15626,
    "Ġalternately": 15034,
    "lier": 20951,
    "Ġearliest": 9834,
    "Ġpresent": 1640,
    "commander": 16989,
    "Ġwaiter": 16363,
    "twelve": 14624,
    "fol": 4863,
    "fore": 686,
    "Ġchron": 19441,
    "Ġcontradicted": 20214,
    "Ġveter": 15815,
    "ready": 2359,
    "cd": 15326,
    "Ġunhing": 18242,
    "from": 1992,
    "Ġovercame": 9749,
    "punctual": 26357,
    "Ġenglishman": 11231,
    "ivot": 11722,
    "Ġasleep": 6836,
    "Ġlog": 1676,
    "mai": 22917,
    "Ġunchanged": 22035,
    "ancho": 4938,
    "Ġcorrection": 5062,
    "Ġbraided": 16584,
    "Ġskul": 22800,
    "Ġbackwards": 12931,
    "Ġinc": 702,
    "Ġhappen": 5571,
    "Ġpostpone": 17310,
    "presence": 18499,
    "uary": 11540,
    "Ġcounters": 24142,
    "Ġautoregressive": 3430,
    "Ġhe": 318,
    "aug": 1213,
    "Ġaromatic": 25926,
    "Ġpeople": 2542,
    "decl": 8860,
    "Ġspy": 22127,
    "newsp": 23136,
    "ate": 422,
    "rodu": 1819,
    "Ġindefinitely": 25222,
    "Ġrepining": 23363,
    "Ġaffright": 9335,
    "Ġlik": 2522,
    "Ġbristles": 25845,
    "wrath": 23759,
    "Ġsang": 12540,
    "Ġlacey": 10200,
    "Ġ1671": 25008,
    "Ġfailed": 6674,
    "Ġconstitution": 20112,
    "Ġrobinson": 17466,
    "Ġskeleton": 5514,
    "Ġrapt": 7226,
    "speptic": 23949,
    "Ġpriority": 19765,
    "Ġswelled": 11090,
    "Ġoakum": 16936,
    "Ġtor": 8106,
    "gunpowder": 25340,
    "Ġcard": 7363,
    "Ġvolley": 24147,
    "eringly": 23006,
    "Ġexclaimed": 4684,
    ",--": 2476,
    "confidential": 25877,
    "eminence": 20102,
    "Ġgrows": 4985,
    "Ġthirty": 4944,
    "Ġadmeasurements": 26227,
    "Ġclassical": 22623,
    "Ġreiterating": 26476,
    "Ġqueen": 3213,
    "largely": 19577,
    "Ġwelded": 9574,
    "Ġassociated": 12254,
    "Ġnour": 10832,
    "Ġhog": 13927,
    "alice": 3208,
    "Ġcontrived": 10306,
    "proble": 9397,
    "crimin": 17511,
    "melted": 25207,
    "Ġtale": 5142,
    "Ġwillingly": 8888,
    "Ġfreer": 23209,
    "shri": 14236,
    "Ġaries": 21200,
    "Ġrhyme": 21985,
    "inced": 3334,
    "Ġcit": 10785,
    "Ġgroves": 16742,
    "Ġreddening": 25971,
    "itted": 2438,
    "Ġovertaken": 18429,
    "younger": 11314,
    "Ġsight": 2111,
    "Ġcandelabra": 26604,
    "harpoon": 9494,
    "Ġocc": 887,
    "Ġplump": 14286,
    "prejudiced": 17300,
    "effort": 19216,
    "Ġsmokes": 22564,
    "sp": 893,
    "Ġjolly": 6858,
    "Ġpaws": 13924,
    "Ġinvariably": 8064,
    "Ġtackle": 9516,
    "Ġdismally": 20217,
    "dered": 2471,
    "Ġbodings": 21394,
    "Ġwhisker": 23938,
    "Ġdeceive": 12727,
    "Ġsilence": 3268,
    "Ġdel": 1610,
    "Ġrope": 4339,
    "Ġfamous": 5256,
    "Ġwondered": 11127,
    "bottom": 11428,
    "Ġtrem": 6662,
    "clinging": 20824,
    "Ġupward": 9724,
    "way": 764,
    "icant": 21565,
    "Ġcreature": 2381,
    "Ġoccur": 1082,
    "uted": 7593,
    "mble": 1407,
    "Ġendeavored": 19304,
    "scorn": 22989,
    "Ġconscious": 7744,
    "Ġmounted": 7832,
    "shipped": 18485,
    "waste": 21137,
    "Ġprodigious": 8057,
    "Ġengra": 7874,
    "respective": 19848,
    "Ġnarrated": 14874,
    "âĢĶâĢľ_": 13206,
    "Ġdiscours": 18719,
    "Ġcalhoun": 23048,
    "hib": 15371,
    "itancy": 21336,
    "Ġcoars": 14277,
    "Ġstamping": 20034,
    "Ġensu": 7875,
    "staff": 21659,
    "Ġdiary": 24738,
    "bank": 10082,
    "Ġtears": 4232,
    "Ġfarm": 7840,
    "rumours": 23924,
    "Ġcomforted": 19394,
    "Ġuncork": 23432,
    "Ġtie": 10752,
    "Ġbegrimed": 26580,
    "Ġgeography": 23375,
    "¯": 112,
    "Ġcorporeally": 25729,
    "Ġimproving": 1210,
    "Ġirrespective": 23378,
    "Ġoverflowing": 17240,
    "umbled": 8495,
    "Ġslay": 16309,
    "Ġterminated": 23511,
    "Ġmonotonically": 3835,
    "ils": 3183,
    "falsehood": 25902,
    "union": 15774,
    "ger": 1104,
    "Ġcalled": 1975,
    "Ġplanted": 9777,
    "Ġoppress": 13176,
    "Ġcoefficient": 2883,
    "Ġparent": 14647,
    "Ġcynicism": 25772,
    "Ġforts": 21779,
    "inated": 6805,
    "Ġscuffle": 20611,
    "Ġroared": 7025,
    "Ġpredomin": 16050,
    "ception": 6564,
    "Ġcomprising": 16075,
    "Ġconstructed": 9389,
    "wouldn": 23538,
    "Ġexperiments": 23019,
    "Ġinner": 9673,
    "Ġfate": 4755,
    "Ġhues": 21492,
    "indul": 22374,
    "neys": 23584,
    "susceptible": 24662,
    "solemn": 19820,
    "ware": 3935,
    "Ġrifled": 21983,
    "Ġmissed": 8560,
    "plexy": 18577,
    "Ġvariations": 22669,
    "Ġfireside": 23534,
    "century": 20050,
    "cures": 20807,
    "rad": 2152,
    "Ġach": 2618,
    "Ġbeth": 9660,
    "ignorance": 17164,
    "estinated": 15927,
    "narrowly": 20350,
    "Ġexal": 10879,
    "Ġbutcher": 18272,
    "Ġassoc": 6403,
    "Ġexpanding": 25239,
    "pets": 17638,
    "scar": 9819,
    "Ġmystic": 7503,
    "¨": 106,
    "Ġsteersman": 13047,
    "Ġremove": 7499,
    "hid": 13737,
    "Ġbaltic": 18796,
    "Ġcourage": 4635,
    "blades": 24131,
    "Ġfidel": 12601,
    "enes": 5218,
    "Ġvouch": 15813,
    "Ġsmart": 11819,
    "Ġblock": 2574,
    "striving": 24670,
    "Ġexpect": 2303,
    "idents": 6152,
    "ever": 1077,
    "Ġcol": 1058,
    "Ġturkey": 19221,
    "Ġnods": 19064,
    "Ġassaulted": 25321,
    "maltese": 24794,
    "Ġstraightened": 12113,
    "Ġseason": 5237,
    "belais": 24041,
    "Ġhorror": 3773,
    "Ġremark": 2143,
    "Ġunlucky": 10053,
    "Ġconfirm": 9859,
    "Ġunerringly": 18266,
    "Ġfestival": 25446,
    "cries": 17513,
    "Ġblo": 2732,
    "Ġspecially": 12002,
    "Ġproof": 6155,
    "Ġnightmare": 18921,
    "Ġnegative": 1463,
    "Ġtune": 17727,
    "Ġclad": 12844,
    "Ġcreates": 2010,
    "Ġduc": 4698,
    "Ġrepairing": 25590,
    "Ġtoll": 7852,
    "ceptive": 15966,
    "hatred": 24818,
    "unavoidable": 17393,
    "Ġdifficulty": 5770,
    "Ġmerrily": 23734,
    "torture": 26152,
    "Ġforeman": 23448,
    "º": 123,
    "Ġwreath": 25937,
    "Ġblight": 18819,
    "Ġbarque": 23793,
    "Ġbreast": 8971,
    "Ġanomalous": 25638,
    "uth": 3021,
    "Ġnearing": 15800,
    "Ġbundle": 13430,
    "Ġlapse": 17123,
    "Ġshaft": 18230,
    "Ġdisappoint": 24208,
    "omed": 13978,
    "Ġwalled": 15538,
    "Ġportcullis": 26605,
    "Ġbustle": 17230,
    "Ġmiseries": 10349,
    "ĠâĢĺ_": 11119,
    "Ġlibraries": 20617,
    "Ġsoc": 3525,
    "goldsmith": 20150,
    "rack": 18013,
    "ul": 371,
    "Ġexhib": 6351,
    "lake": 13752,
    "ę": 218,
    "roll": 9199,
    "Ġfunere": 22263,
    "urn": 774,
    "calcul": 12992,
    ":âĢĶâĢĺ": 24196,
    "rol": 5713,
    "Ġmosses": 20166,
    "Ġhut": 15623,
    "forest": 22522,
    "resembling": 25933,
    "Ġpillar": 21475,
    "Ġlonging": 14302,
    "Ġtarquin": 23612,
    "Ġforms": 6398,
    "Ġslender": 11944,
    "Ġring": 4453,
    "Ġblameless": 19861,
    "Ġpieces": 7369,
    "az": 2181,
    "Ġlastly": 16207,
    "pra": 15410,
    "ufactured": 15185,
    "Ġencoding": 4775,
    "clair": 18935,
    "Ġsecondary": 23336,
    "sets": 17662,
    "ilder": 15717,
    "rooms": 10434,
    "Ġfrequ": 3326,
    "Ġunprecedented": 15858,
    "woe": 21138,
    "Ġcivilized": 8668,
    "Ġoutright": 18414,
    "henry": 16628,
    "mm": 673,
    "dashing": 20838,
    "Ġrecommendation": 17027,
    "Ġflies": 13030,
    "tumultuous": 20402,
    "Ġexpon": 968,
    "Ġweek": 2828,
    "Ġmany": 1102,
    "Ġpos": 1012,
    "Ġlye": 21554,
    "Ġwhatever": 3472,
    "ases": 1521,
    "Ġconsoled": 18115,
    "hopper": 23717,
    "Ġgreeks": 20016,
    "Ġparticularly": 5056,
    "astron": 22173,
    "asper": 7855,
    "Ġbehold": 5049,
    "Ġtube": 15005,
    "penn": 18828,
    "Ġwithhold": 18118,
    "Ġheels": 10852,
    "Ġbowed": 6244,
    "Ġresembles": 25970,
    "extensive": 18711,
    "Ġblocks": 6323,
    "Ġscrupulous": 20072,
    "Ġcommodores": 25375,
    "confirm": 16809,
    "Ġdep": 739,
    "Ġswimming": 5507,
    "Ġneg": 1330,
    "vious": 1781,
    "neither": 9761,
    "Ġgood": 1003,
    "Ġtrying": 4840,
    "Ġactivations": 2716,
    "algorithm": 3748,
    "Ġcloudless": 16671,
    "thouse": 21986,
    "Ġphantom": 8710,
    "Ġerroneous": 17412,
    "fit": 6648,
    "Ġdeeply": 4718,
    "drive": 8686,
    "Ġuntutored": 19168,
    "compar": 14361,
    "customary": 25896,
    "prom": 6510,
    "Ġdiffer": 18675,
    "accents": 19213,
    "Ġhanded": 8217,
    "Ġbrilliantly": 25123,
    "Ġcheeks": 5959,
    "Ġlandless": 23382,
    "Ġshar": 9253,
    "latitudes": 17199,
    "Ġchiswick": 25561,
    "acency": 12902,
    "Ġcomb": 1057,
    "paddington": 20481,
    "Ġobstacles": 19838,
    "Ġground": 2847,
    "Ġwheel": 9721,
    "Ġshould": 864,
    "naught": 20996,
    "conject": 8883,
    "goodness": 19290,
    "Ġadapt": 1062,
    "yes": 984,
    "Ġblasted": 7937,
    "bon": 13688,
    "Ġadvertised": 17250,
    "racting": 10358,
    "Ġsweep": 8266,
    "ofs": 11834,
    "Ġbakers": 17868,
    "Ġclipping": 2437,
    "omist": 21641,
    "rennial": 22346,
    "appalled": 18761,
    "Ġopulent": 23630,
    "Ġcalm": 3446,
    "ops": 5247,
    "Ġinjure": 16783,
    "pun": 9620,
    "Ġ56": 24320,
    "Ġbravest": 23844,
    "Ġremnants": 22798,
    "Ġgaped": 13970,
    "form": 499,
    "Ġwreck": 7314,
    "ror": 7351,
    "Ġorgans": 15869,
    "Ġhowling": 8512,
    "Ġdwelt": 12610,
    "Ġrequesting": 24633,
    "Ġfiercely": 12955,
    "thinness": 25811,
    "Ġmarrying": 6179,
    "Ġpit": 3419,
    "Ġhospit": 7514,
    "Ġlifts": 25359,
    "winding": 16722,
    "sized": 15431,
    "bed": 3488,
    "Ġanimate": 23425,
    "lashed": 20956,
    "Ġcounsel": 13619,
    "Ġcrime": 4618,
    "Ġclenched": 14206,
    "Ġwatson": 3595,
    "Ġplatform": 17134,
    "Ġ235": 25712,
    "Ġoutweigh": 22326,
    "nevertheless": 8286,
    "Ġscare": 18397,
    "ling": 734,
    "Ġspermaceti": 8970,
    "dec": 3114,
    "lar": 4484,
    "Ġillum": 9403,
    "voices": 21120,
    "Ġsquint": 22838,
    "sleeve": 26109,
    "she": 1398,
    "tied": 21073,
    "Ġmethodology": 2466,
    "rut": 8092,
    "adders": 24400,
    "Ġcosine": 2371,
    "caught": 8730,
    "ward": 705,
    "housekeeper": 24102,
    "berg": 11866,
    "Ġseldom": 4631,
    "Ġmort": 3458,
    "Ġdispatched": 23884,
    "Ġrecollections": 10515,
    "Ġhumph": 22884,
    "Ġarbitrary": 4737,
    "Ġinfatuated": 20536,
    "Ġdisgrace": 7215,
    "Ġripple": 25505,
    "expressive": 24307,
    "ache": 8520,
    "Ġpersuading": 19413,
    "Ġflashed": 11917,
    "hos": 15367,
    "Ġhideous": 5984,
    "strom": 15688,
    "Ġimprove": 1896,
    "Ġpile": 8425,
    "circumspect": 26087,
    "Ġrichness": 19312,
    "Ġsignificant": 8637,
    "drown": 13708,
    "dish": 12457,
    "Ġbloss": 19258,
    "Ġexamined": 6336,
    "Ġriverside": 25248,
    "Ġacquit": 18899,
    "ishop": 9745,
    "violence": 16480,
    "Ġjav": 7902,
    "Ġtornado": 24622,
    "able": 451,
    "there": 1424,
    "Ġhigh": 933,
    "Ġspasmod": 12418,
    "Ġstrenuously": 17451,
    "Ġdominic": 25381,
    "alloyed": 22205,
    "Ġpad": 8125,
    "oga": 22716,
    "Ġdisagreeable": 9301,
    "Ġblacksmiths": 19875,
    "Ġord": 3734,
    "Ġrepelled": 19087,
    "robustness": 26340,
    "ables": 7890,
    "Ġcabs": 23642,
    "jerked": 25619,
    "anatory": 21366,
    "Ġembracing": 14983,
    "constit": 24605,
    "eked": 16406,
    "ffic": 22155,
    "ims": 7177,
    "Ġmilk": 6486,
    "Ġgrenadier": 21619,
    "ermost": 7430,
    "attacks": 23125,
    "american": 11402,
    "bellies": 19977,
    "Ġprevailed": 7778,
    "Ġremarkable": 4916,
    "deploy": 22146,
    "Ġglimmering": 25241,
    "throughout": 24090,
    "Ġpermit": 9752,
    "Ġjuly": 17239,
    "Ġwoven": 9929,
    "tolerably": 21098,
    "Ġdepends": 1068,
    "rud": 4190,
    "fresh": 13396,
    "Ġbalanced": 12994,
    "Ġbetake": 22909,
    "holder": 13287,
    "Ġunalterable": 15855,
    "expectant": 24278,
    "indian": 11782,
    "Ġfluid": 11214,
    "Ġfanatic": 23395,
    "satisfy": 16894,
    "Ġfabulous": 25949,
    "Ġseaward": 22950,
    "daggoo": 13710,
    "edily": 17946,
    "Ġcleans": 18950,
    "×": 152,
    "mopol": 15399,
    "ĠĠĠĠĠĠĠĠĠĠĠĠĠĠĠĠĠĠĠĠĠĠĠĠĠĠĠĠĠĠĠĠ": 2736,
    "Ġslaugh": 18940,
    "Ġdoc": 7200,
    "Ġgenerative": 5644,
    "Ġforeshad": 23453,
    "Ġtesting": 23226,
    "Ġenlivened": 26209,
    "Ġmitigates": 3055,
    "Ġbestir": 13114,
    "volume": 18602,
    "rowed": 22864,
    "Ġclanking": 20614,
    "ribed": 7693,
    "Ġfetch": 7770,
    "chain": 18042,
    "exact": 7910,
    "sympathy": 20545,
    "ú": 187,
    "sin": 21051,
    "Ġresumed": 11816,
    "oud": 1942,
    "gryphon": 15362,
    "Ġenemy": 5605,
    "Ġ88": 19714,
    "Ġploughing": 26261,
    "Ġfilial": 16622,
    "Ġgoring": 21607,
    "Ġadds": 1808,
    "Ġjour": 11768,
    "Ġhowled": 12859,
    "Ġtech": 1659,
    "Ġtwo": 1042,
    "Ġpenalties": 10414,
    "sweeping": 24619,
    "feit": 16045,
    "Ġunbounded": 18260,
    "Ġinaccessible": 13937,
    "Ġhonorable": 16878,
    "contact": 23730,
    "Ġbreezes": 14872,
    "angles": 18291,
    "Ġut": 2276,
    "tempered": 13450,
    "gainst": 25144,
    "tps": 11537,
    "times": 8099,
    "Ġrequired": 7223,
    "fig": 8738,
    "Ġforce": 5093,
    "servant": 15038,
    "Ġcrooked": 11283,
    "Ġcigaret": 16978,
    "Ġbreakers": 12058,
    "earnest": 12403,
    "squall": 13525,
    "batch": 1984,
    "Ġthreatened": 8330,
    "uber": 15448,
    "asse": 15649,
    "Ġhart": 17924,
    "Ġactive": 7915,
    "Ġregression": 4410,
    "Ġlaughter": 9030,
    "Ġfaithfulness": 24446,
    "separately": 25228,
    "Ġtongue": 6349,
    "Ġwarming": 23559,
    "owner": 18612,
    "Ġpersist": 16274,
    "Ġboxes": 13378,
    "based": 2962,
    "uten": 11625,
    "Ġexhibited": 9547,
    "Ġpovelson": 26554,
    "Ġventil": 8019,
    "ildad": 3531,
    "traversed": 19650,
    "Ġinjustice": 9193,
    "nur": 11508,
    "Ġreasoned": 23076,
    "Ġorlop": 22101,
    "opatra": 22479,
    "agonies": 21913,
    "Ġmethod": 1482,
    "Ġperceptibly": 25822,
    "idious": 11665,
    "Ġ37": 24080,
    "Ġporthole": 24399,
    "erable": 1917,
    "otence": 14026,
    "whosoever": 22244,
    "include": 23591,
    "Ġallegro": 25795,
    "Ġpermanent": 13635,
    "Ġcrawled": 17045,
    "fashioned": 9573,
    "Ġbrittle": 22866,
    "equal": 14996,
    "oughed": 22079,
    "Ġinnocence": 6478,
    "Ġshiver": 12772,
    "Ġ120": 16860,
    "Ġthreatening": 16830,
    "Ġworried": 22929,
    "Ġlottery": 19890,
    "Ġactor": 16052,
    "iour": 4036,
    "idav": 18095,
    "wall": 10139,
    "sixty": 24853,
    "wards": 1276,
    "detained": 24382,
    "Ġcharacter": 2793,
    "Ġcurses": 13027,
    "carb": 20812,
    "Ġbumpkins": 25282,
    "abhor": 12712,
    "Ġbriefly": 11369,
    "impropriety": 21716,
    "en": 271,
    "Ġsnows": 14729,
    "olet": 13769,
    "zes": 11551,
    "convinced": 10625,
    "Ġgoat": 16010,
    "trees": 10733,
    "Ġworth": 4417,
    "page": 13774,
    "suggest": 20379,
    "Ġloggerhead": 13661,
    "Ġaffectation": 14444,
    "Ġhandspike": 22699,
    "Ġfoolish": 5981,
    "Ġvalid": 1785,
    "Ġbec": 1348,
    "Ġseethings": 26505,
    "accompan": 11454,
    "Ġat": 396,
    "totally": 25418,
    "Ġaristocratic": 20515,
    "velled": 9879,
    "Ġroylott": 7305,
    "Ġunobstructed": 18265,
    "inery": 17735,
    "requiem": 24857,
    "Ġsights": 7472,
    "Ġneedles": 11186,
    "pronouncing": 25194,
    "dear": 6557,
    "Ġperseverance": 13601,
    "Ġakin": 15498,
    "Ġaddition": 1145,
    "Ġ59": 24323,
    "partiality": 13164,
    "Ġrecommend": 7104,
    "counter": 20281,
    "cottage": 9572,
    "arse": 7161,
    "Ġpunctual": 17140,
    "Ġmun": 12567,
    "contrivance": 26317,
    "Ġugl": 12687,
    "Ġbegins": 7244,
    "Ġbuffaloes": 25218,
    "accident": 11183,
    "rosings": 15648,
    "weight": 2941,
    "bour": 2072,
    "aution": 9390,
    "depend": 9115,
    "Ġkept": 3344,
    "ried": 926,
    "Ġenjoy": 3761,
    "dreaded": 25141,
    "Ġslavish": 23177,
    "Ġfocuses": 8653,
    "Ġform": 1025,
    "alter": 10828,
    "Ġscattered": 6856,
    "Ġliber": 5168,
    "Ġmethodically": 23149,
    "so": 890,
    "Ġlasted": 11055,
    "Ġpod": 15608,
    "Ġquant": 6425,
    "gr": 2086,
    "tarpaulins": 26407,
    "Ġdesperately": 24657,
    "Ġrhine": 12360,
    "Ġmart": 10781,
    "pull": 6797,
    "Ġincurable": 22557,
    "Ġsunshine": 14496,
    "Ġrheumatic": 20707,
    "invol": 12535,
    "Ġshol": 21999,
    "ureau": 10229,
    "herself": 4891,
    "Ġanew": 11432,
    "Ġstare": 10866,
    "stepfather": 19192,
    "Ġnursing": 12219,
    "Ġnetwork": 452,
    "Ġshaped": 15838,
    "suited": 22644,
    "Ġdigging": 14941,
    "Ġunexampled": 20363,
    "Ġrot": 10969,
    "Ġliving": 3066,
    "Ġboot": 11843,
    "uts": 8820,
    "aim": 2754,
    "Ġbehavior": 8002,
    "Ġforb": 11667,
    "iding": 3848,
    "Ġbehaviour": 4385,
    "âĢĿ": 353,
    "Ġtranslation": 3090,
    "solving": 3102,
    "Ġvivacity": 14944,
    "Ġterminating": 23512,
    "Ġrotterdam": 25476,
    "Ġdivers": 9668,
    "Ġyielded": 14875,
    "nical": 20993,
    "cook": 8270,
    "aration": 12612,
    "Ġlurk": 13387,
    "Ġbounded": 16629,
    "Ġoften": 1955,
    "Ġlace": 13952,
    "Ġpractical": 3165,
    "Ġhiss": 15792,
    "onial": 11569,
    "Ġhospitable": 17060,
    "Ġbranches": 6777,
    "Ġ64": 24367,
    "Ġpanted": 21474,
    "Ġbands": 14887,
    "Ġwanting": 6723,
    "der": 468,
    "Ġinstantaneous": 14613,
    "Ġcabinets": 23865,
    "onted": 11570,
    "beginning": 13565,
    "deceiving": 22148,
    "Ġexcell": 10419,
    "Ġstrives": 23698,
    "agation": 1250,
    "Ġvincent": 15287,
    "Ġvillain": 8639,
    "ooped": 17625,
    "wheel": 22871,
    "representativeness": 25273,
    "Ġfolds": 12211,
    "Ġunhappy": 5640,
    "Ġadd": 630,
    "Ġrelics": 16198,
    "mock": 5174,
    "Ġseamen": 5063,
    "ade": 881,
    "Ġsecuring": 11996,
    "nowadays": 22342,
    "Ġirregularity": 25325,
    "Ġaf": 782,
    "Ġassail": 13068,
    "Ġboa": 22638,
    "Ġconsid": 1814,
    "itu": 1226,
    "Ġoutdone": 22322,
    "gor": 546,
    "Ġridiculous": 10631,
    "Ġhabits": 6926,
    "Ġmaz": 15546,
    "netherfield": 9816,
    "Ġescaping": 13139,
    "Ġfoliage": 18869,
    "acit": 16066,
    "Ġunctuous": 10269,
    "Ġtrifles": 16953,
    "Ġquill": 12862,
    "bestowed": 12230,
    "histor": 13495,
    "Ġbre": 1915,
    "Ġluck": 4881,
    "Ġfacilitate": 26099,
    "Ġmagician": 25061,
    "rip": 9244,
    "Ġhyena": 24519,
    "sk": 5521,
    "Ġslackened": 15130,
    "Ġobeisance": 19761,
    "eastward": 15133,
    "Ġreverse": 16984,
    "Ġsatisfactory": 11195,
    "13": 20752,
    "elab": 21573,
    "ĵ": 246,
    "Ġblasp": 14403,
    "Ġgrotes": 19566,
    "auley": 22626,
    "Ġliberally": 16832,
    "Ġmaddened": 17246,
    "Ġstay": 3097,
    "Ġsoliloqu": 11889,
    "Ġnurse": 9520,
    "Ġroast": 18458,
    "loose": 11808,
    "Ġcursed": 6729,
    "Ġexile": 12722,
    "secured": 16940,
    "Ġshy": 10905,
    "surprised": 9534,
    "displayed": 20738,
    "opard": 9294,
    "Ġheadway": 18794,
    "Ġbully": 23859,
    "Ġformidable": 8220,
    "Ġsatisfaction": 5667,
    "Ġcharacteristic": 12051,
    "Ġpeculiarity": 12938,
    "Ġune": 4599,
    "Ġoft": 9197,
    "Ġdetestation": 17130,
    "Ġscaled": 2105,
    "lydon": 13992,
    "Ġdilated": 24703,
    "yond": 2327,
    "rem": 1520,
    "leag": 21369,
    "istence": 2333,
    "pregn": 18501,
    "Ġpalmed": 24093,
    "Ġsunlight": 13089,
    "Ġdiabolical": 20345,
    "Ġmanly": 22328,
    "mole": 22704,
    "Ġma": 3253,
    "Ġsem": 1878,
    "Ġcongratulated": 19769,
    "Ġshake": 6035,
    "Ġobliv": 16137,
    "Ġswitching": 23060,
    "precip": 14667,
    "Ġfootfall": 14663,
    "Ġwired": 17788,
    "Ġyoun": 1408,
    "Ġplainpalais": 20739,
    "iverse": 13120,
    "deserts": 25382,
    "Ġsuppression": 23003,
    "Ġtrop": 7565,
    "Ġoccasioned": 13232,
    "dipped": 20839,
    "Ġhypothe": 4072,
    "Ġishmael": 7395,
    "Ġimposed": 14213,
    "perfect": 7635,
    "Ġreven": 18031,
    "Ġflatter": 9351,
    "Ġinstant": 2701,
    "Ġassist": 3563,
    "Ġanticipating": 17059,
    "Ġunrel": 14698,
    "Ġergo": 25032,
    "stranded": 19227,
    "Ġtorrent": 17093,
    "emotions": 15801,
    "protested": 13478,
    "Ġinterested": 6459,
    "Ġincompatible": 25681,
    "Ġbruited": 25774,
    "Ġ31": 12135,
    "accomplishment": 20226,
    "lod": 15382,
    "train": 2035,
    "buried": 14852,
    "Ġrains": 24340,
    "hateful": 20911,
    "Ġeagerly": 4990,
    "Ġgrim": 7439,
    "Ġenterprise": 8645,
    "shuff": 18483,
    "Ġprovides": 1929,
    "Ġgoal": 10304,
    "idate": 21771,
    "Ġvisited": 5949,
    "Ġbubbles": 11400,
    "Ġmad": 2424,
    "ondon": 2703,
    "Ġorganisation": 23585,
    "Ġintervening": 17270,
    "restored": 18980,
    "circumstance": 7764,
    "Ġlayer": 1013,
    "announce": 24561,
    "omach": 11637,
    "Ġdivide": 12115,
    "plutarch": 21961,
    "contain": 18503,
    "Ġsunwards": 19012,
    "Ġwitnesses": 9489,
    "electricity": 26387,
    "ithmetic": 18064,
    "Ġdigesting": 19812,
    "cake": 20806,
    "insurance": 18890,
    "Ġweeping": 11690,
    "Ġmainmast": 9782,
    "thick": 10263,
    "regarding": 15075,
    "Ġloc": 10916,
    "Ġconvul": 13205,
    "thou": 4710,
    "Ġworshipping": 22931,
    "Ġrivers": 9445,
    "Ġsignify": 16496,
    "Ġvolumes": 14803,
    "wood": 5899,
    "Ġilluminating": 25246,
    "impart": 21712,
    "Ġintermix": 25827,
    "trop": 15439,
    "Ġbarnacled": 25537,
    "Ġresentment": 7530,
    "Ġstuffed": 13413,
    "attent": 9362,
    "Ġgravel": 14105,
    "Ġdaw": 21432,
    "ep": 445,
    "model": 4231,
    "rib": 1946,
    "Ġcutting": 4983,
    "Ġcoronet": 6346,
    "horses": 17569,
    "isf": 2432,
    "grammar": 6435,
    "Ġoutwardly": 25001,
    "Ġlinked": 15081,
    "Ġadequately": 15202,
    "Ġinside": 5448,
    "white": 4603,
    "uc": 1877,
    "Ġlearns": 2639,
    "Ġtrees": 4202,
    "holes": 12057,
    "mosphere": 10046,
    "Ġxxxiv": 24970,
    "Ġgrammars": 11404,
    "Ġcarpet": 9359,
    "wing": 2517,
    "infor": 2930,
    "Ġegress": 21626,
    "retched": 3071,
    "agreeable": 5830,
    "Ġcalculate": 13268,
    "sue": 2076,
    "Ġgryphon": 4301,
    "Ġkills": 15910,
    "beryls": 25310,
    "wore": 21127,
    "ripp": 6405,
    "Ġezek": 18012,
    "Ġattention": 1173,
    "Ġveteran": 17453,
    "Ġstyled": 24672,
    "Ġgeometric": 3219,
    "enges": 13059,
    "ret": 1475,
    "Ġkidn": 20208,
    "Ġdebar": 24274,
    "plainly": 11092,
    "hearing": 8404,
    "cr": 4012,
    "ê": 171,
    "Ġreveal": 11202,
    "famous": 16918,
    "yesterday": 10355,
    "Ġsne": 6373,
    "gin": 4931,
    "Ġirons": 7696,
    "Ġstraining": 11329,
    "Ġseemingly": 9321,
    "niest": 18979,
    "Ġquestioned": 14622,
    "atherley": 7220,
    "investments": 25533,
    "morning": 4860,
    "loom": 18533,
    "Ġannihilated": 20255,
    "Ġinsincere": 26601,
    "Ġincommun": 25309,
    "rudence": 7094,
    "ink": 755,
    "Ġfaithfully": 14890,
    "Ġwheeled": 14141,
    "voyage": 7786,
    "converse": 22477,
    "earthquakes": 24724,
    "Ġgreenness": 23770,
    "dangerous": 20243,
    "ple": 455,
    "igantic": 5539,
    "Ġtenderest": 23552,
    "Ġicelandic": 25887,
    "Ġalphabetical": 17204,
    "Ġmoustache": 20487,
    "Ġbeaks": 21759,
    "oso": 12836,
    "whalers": 17266,
    "Ġboys": 5194,
    "Ġlens": 8439,
    "springing": 24890,
    "visited": 13352,
    "Ġparched": 11731,
    "served": 5043,
    "Ġapolog": 9046,
    "oubted": 5861,
    "Ġprudential": 17920,
    "Ġremotest": 10055,
    "arp": 2028,
    "Ġlithe": 24669,
    "Ġcurls": 22998,
    "her": 489,
    "Ġkneel": 14810,
    "Ġmutineer": 19421,
    "Ġrenewed": 9541,
    "izabeth": 907,
    "Ġcross": 1374,
    "Ġriotous": 20547,
    "verse": 9691,
    "ubbub": 23246,
    "analy": 17840,
    "couldn": 23720,
    "Ġhatches": 12048,
    "Ġreducing": 1958,
    "arnel": 18127,
    "Ġastr": 15497,
    "Ġglitter": 25126,
    "Ġarc": 14161,
    "Ġdeeps": 16115,
    "ricity": 23065,
    "Ġscholars": 26113,
    "save": 13788,
    "urns": 10216,
    "Ġmysteries": 11324,
    "Ġcontextually": 11962,
    "Ġeffeminacy": 20720,
    "Ġowner": 8925,
    "mod": 1130,
    "being": 3914,
    "orts": 2554,
    "ctive": 11626,
    "?âĢĻâĢĿ": 23644,
    "Ġluxurious": 17314,
    ".)": 6784,
    "Ġbanished": 10619,
    "disp": 7977,
    "Ġtraces": 7946,
    "Ġlabour": 7274,
    "Ġcosmetic": 23473,
    "onsible": 22566,
    "Ġjo": 2607,
    "Ġadequ": 10915,
    "Ġcruises": 23708,
    "pulling": 25149,
    "89": 20761,
    "gyric": 19111,
    "ender": 9163,
    "gird": 20881,
    "Ġrandomly": 1921,
    "mish": 17600,
    "brad": 20782,
    "Ġcall": 2074,
    "Ġhabit": 6772,
    "cottagers": 20051,
    "Ġamused": 11803,
    "risonment": 17378,
    "Ġid": 1910,
    "anned": 17841,
    "Ġ*/": 10376,
    "Ġscrupled": 25052,
    "Ġmerely": 3771,
    "Ġexpense": 7652,
    "Ġdubious": 17386,
    "Ġtouch": 3394,
    "Ġgreyish": 24211,
    "Ġspo": 6846,
    "Ġadver": 5641,
    "Ġconscience": 6929,
    "Ġexponentiating": 3444,
    "Ġincomp": 12905,
    "bearings": 25372,
    "Ġplumage": 17301,
    "tling": 9145,
    "Ġprincipally": 11311,
    "Ġpsal": 15620,
    "Ġyoung": 1505,
    "Ġshapes": 14112,
    "Ġungenerous": 18267,
    "ersampling": 18211,
    "around": 12613,
    "easily": 17536,
    "stirring": 20429,
    "harb": 9126,
    "Ġknighthood": 25298,
    "centred": 25020,
    "Ġfulfilment": 20190,
    "ena": 11571,
    "Ġwrithed": 17107,
    "ferent": 4194,
    "Ġidly": 16407,
    "Ġsleepers": 13153,
    "subsided": 25832,
    "Ġconstruction": 9388,
    "Ġhop": 1460,
    "buckets": 26124,
    "Ġeasiness": 23539,
    "Ġcontrivance": 17186,
    "Ġsixteen": 8283,
    "Ġ500": 24324,
    "Ġswept": 7978,
    "gentle": 5357,
    "unwillingly": 21888,
    "iv": 431,
    "Ġwil": 4581,
    "esu": 17921,
    "Ġginger": 9213,
    "Ġvillanous": 24057,
    "Ġ122": 24467,
    "guilty": 19486,
    "Ġmaimed": 21319,
    "Ġhighly": 4846,
    "Ġtrivial": 10145,
    "ientific": 6549,
    "Ġrenewing": 19813,
    "groom": 8743,
    "Ġli": 603,
    "Ġspasmodically": 17317,
    "Ġsoot": 14134,
    "Ġseventeen": 26212,
    "Ġleghorn": 13150,
    "Ġshipw": 12984,
    "Ġcorrob": 16268,
    "Ġaround": 3610,
    "Ã¦": 4338,
    "gener": 3127,
    "Ġtransport": 11280,
    "ghan": 19458,
    "Ġhasty": 10479,
    "Ġwarmed": 12028,
    "Ġsigma": 1542,
    "Ġpow": 4639,
    "Ġarsacidean": 20368,
    "Ġdreamed": 16632,
    "hidden": 17374,
    "Ġpavement": 9580,
    "left": 6976,
    "unbidden": 21898,
    "Ġvectors": 1769,
    "free": 8739,
    "writ": 16556,
    "cular": 15331,
    "Ġprudent": 9187,
    "Ġstair": 8457,
    "alled": 5912,
    "onement": 21259,
    "ol": 364,
    "Ġworld": 1594,
    "Ġspool": 24803,
    "midnight": 14905,
    "ind": 568,
    "acity": 5734,
    "merit": 19283,
    "posted": 24636,
    "Ġbitt": 10798,
    "creat": 20802,
    "Ġbambooz": 26120,
    "magistrate": 19865,
    "Ġfinished": 5044,
    "lightened": 12069,
    "ficial": 17550,
    "smiles": 14695,
    "Ġvelocity": 10623,
    "dread": 8732,
    "Ġclanging": 18423,
    "tears": 11039,
    "ieves": 4005,
    "Ġlandlord": 5581,
    "tem": 6370,
    "mur": 5428,
    "Ġscho": 4437,
    "sombre": 23857,
    "Ġsculpt": 15950,
    "stocks": 23824,
    "eers": 20845,
    "ale": 506,
    "Ġboomer": 20170,
    "Ġcrotch": 9966,
    "Ġgave": 2215,
    "Ġjon": 15952,
    "shavings": 22452,
    "Ġgroom": 13969,
    "Ġconsideration": 5191,
    "Ġheadsmen": 14735,
    "Ġscrape": 14921,
    "Ġsuccessful": 9926,
    "Ġalliance": 18236,
    "Ġinterruption": 9476,
    "Ġsyntax": 959,
    "ressing": 8922,
    "Ġosc": 2836,
    "ignation": 11130,
    "Ġoppressively": 25711,
    "covering": 15337,
    "Ġlookest": 22718,
    "merry": 16539,
    "Ġtopmost": 14589,
    "Ġbushy": 16405,
    "Ġmalady": 24392,
    "birds": 15148,
    "Ġaccommod": 14222,
    "oriented": 2948,
    "_,": 2799,
    "Ġtravel": 5954,
    "scy": 21058,
    "traced": 19648,
    "Ġtingling": 15096,
    "Ġtu": 6969,
    "Ġ76": 24265,
    "Ġbore": 5079,
    "inserted": 18889,
    "iel": 11496,
    "Ġweigh": 10896,
    "ann": 5803,
    "ò": 179,
    "ital": 4819,
    "twain": 23703,
    "Ġinflexibly": 26372,
    "charge": 9451,
    "Ġwintry": 17437,
    "._": 3221,
    "Ġlinen": 12411,
    "wa": 5898,
    "Ġholding": 4979,
    "Ġdipped": 15599,
    "univers": 15776,
    "comprehend": 14362,
    "Ġstole": 7953,
    "Ġuniversity": 13126,
    "Ġxx": 5492,
    "rints": 12507,
    "Ġdeduction": 14904,
    "iastic": 12484,
    "sitting": 8387,
    "Ġhump": 5855,
    "england": 18931,
    "Ġmeridians": 17358,
    "readiness": 19366,
    "Ġannals": 17900,
    "Ġliterature": 17151,
    "figures": 20125,
    "Ġvillage": 5774,
    "hever": 13834,
    "Ġinvesting": 19644,
    "se": 358,
    "Ġgord": 21603,
    "southern": 20412,
    "Ġmoments": 4847,
    "sych": 9890,
    "Ġshameful": 19854,
    "particulars": 11317,
    "sleet": 20152,
    "Ġgeor": 3386,
    "transformer": 25018,
    "pleasure": 5979,
    "chet": 13221,
    "Ġunconcern": 14120,
    "Ġunheeded": 18262,
    "misfortunes": 16758,
    "Ġpay": 3962,
    "Ġshown": 5159,
    "Ġrel": 1095,
    "Ġsense": 3251,
    "Ġattractive": 25576,
    "eds": 6531,
    "rons": 21042,
    "ribs": 23368,
    "flowing": 14561,
    "Ġsanctioned": 26352,
    "Ġaccepted": 7751,
    "Ġslightest": 6093,
    "Ġhowever": 1303,
    "_).": 5888,
    "Ġwond": 3939,
    "Ġawfulness": 23589,
    "awake": 14455,
    "coburg": 13602,
    "permitted": 18347,
    "Ġemployment": 8632,
    "pse": 21011,
    "Ġrelation": 2140,
    "Ġwherein": 14298,
    "Ġhil": 10823,
    "ells": 5305,
    "Ġcurrents": 13028,
    "if": 375,
    "Ġtransc": 12869,
    "Ġordinarily": 20651,
    "ittleness": 22380,
    "luyt": 18455,
    "Ġmouthful": 16577,
    "gold": 9123,
    "Ġ132": 19898,
    "Ġsold": 6004,
    "ibles": 18786,
    "Ġresponses": 23650,
    "Ġdoubloon": 6945,
    "Ġcasually": 25096,
    "Ġdiscoverer": 26036,
    "sleep": 6512,
    "Ġready": 3397,
    "Ġtoo": 1164,
    "etts": 12665,
    "Ġabilities": 8870,
    "opence": 18508,
    "Ġco": 730,
    "Ġconveys": 16857,
    "ourers": 21452,
    "tail": 8765,
    "Ġcoloured": 11045,
    "Ġa": 263,
    "Ġlazy": 17051,
    "Ġspouting": 9442,
    "Ġblueprints": 13175,
    "fanc": 20866,
    "derbyshire": 18322,
    "wished": 13808,
    "olerable": 7183,
    "Ġsoothed": 10032,
    "Ġmetaphysical": 26070,
    "fourth": 11330,
    "Ġpatentee": 25587,
    "Ġport": 3308,
    "Ġaccidents": 10300,
    "damn": 20027,
    "Ġinclemency": 22560,
    "Ġhempen": 13554,
    "âĢĶ.âĢĿ": 22261,
    "meditated": 19072,
    "Ġeavesdroppers": 25964,
    "infallibly": 26419,
    "Ġgreenland": 5761,
    "Ġdolphins": 20399,
    "Ġelapsed": 7653,
    "Ġcousins": 9918,
    "Ġjabez": 11770,
    "urry": 13997,
    "==": 945,
    "oriental": 23723,
    "Ġmiserable": 3634,
    "snapping": 24850,
    "Ġhumorously": 18780,
    "Ġtri": 4814,
    "Ġcomplaisance": 19452,
    "beings": 12881,
    "Ġmonuments": 22982,
    "Ġcorporeal": 17363,
    "Ġanoint": 25538,
    "Ġfirm": 3872,
    "Ġdesist": 16240,
    "Ġeloquence": 11846,
    "Ġsauce": 15895,
    "Ġgilt": 21609,
    "Ġplanks": 5564,
    "Ġpledged": 20690,
    "Ġ70": 11278,
    "tete": 10734,
    "Ġcustomary": 8673,
    "Ġopens": 23628,
    "parted": 21018,
    "lungs": 26136,
    "Ġcrabs": 19176,
    "holding": 7739,
    "Ġslack": 8958,
    "iousness": 4900,
    "ef": 5134,
    "Ġchrist": 4071,
    "Ġ135": 24784,
    "Ġverdant": 15004,
    "Ġfright": 3797,
    "frock": 20124,
    "Ġuncle": 3193,
    "Ġsobbing": 14138,
    "ouring": 6421,
    "Ġporch": 19683,
    "ons": 709,
    "adow": 18090,
    "Ġens": 2787,
    "sembled": 7263,
    "Ġentic": 16146,
    "stochastic": 3774,
    "Ġtep": 21164,
    "Ġnarrowed": 24355,
    "cked": 2762,
    "Ġoutlaws": 22327,
    "Ġseparating": 16684,
    "Ġfamiliar": 5511,
    "Ġminiature": 11041,
    "Ġoffers": 12951,
    "Ġacceded": 22392,
    "laden": 14932,
    "Ġjoys": 13225,
    "usiveness": 22297,
    "Ġimplement": 3028,
    "Ġruggedness": 26270,
    "hide": 10705,
    "Ġbran": 5251,
    "akness": 14197,
    "Ġpea": 14320,
    "Ġdisobey": 18560,
    "Ġfain": 5809,
    "Ġmonstr": 7667,
    "Ġcretan": 22725,
    "v": 90,
    "Ġrespectful": 16349,
    "Ġmanufactured": 22334,
    "Ġnewfound": 22935,
    "arian": 10319,
    "Ġrent": 11642,
    "animate": 12582,
    "Ġexciting": 23315,
    "Ġtiresome": 26157,
    "Ġjourney": 3881,
    "lengths": 24847,
    "Ġkink": 22197,
    "Ġislands": 6767,
    "order": 1960,
    "summoned": 26593,
    "Ġfarthest": 23119,
    "Ġsprang": 5064,
    "glings": 23854,
    "kempt": 20943,
    "misery": 13348,
    "beam": 16042,
    "Ġsubsequently": 16164,
    "Ġgasp": 7173,
    "Ġsplit": 7993,
    "Ġcomfortably": 16617,
    "cary": 10693,
    "retirement": 23144,
    "glo": 8741,
    "definition": 23121,
    "Ġtame": 17724,
    "Ġactivity": 7920,
    "ust": 496,
    "interference": 23740,
    "ntax": 935,
    "Ġappropriated": 23486,
    "ggy": 13118,
    "Ġsutherland": 10151,
    "eridge": 15529,
    "Ġlearned": 2024,
    "ear": 8734,
    "Ġlany": 21557,
    "ontory": 10461,
    "ubb": 1649,
    "Ġemma": 20697,
    "gris": 8260,
    "instinctively": 26329,
    "orters": 21404,
    "tremendous": 20676,
    "Ġindelicacy": 25696,
    "view": 5897,
    "Ġrubbed": 12960,
    "Ġoffences": 18691,
    "Ġsensitivity": 3072,
    "Ġexerted": 15759,
    "Ġweep": 7620,
    "moral": 14805,
    "Ġowest": 25094,
    "Ġhealthful": 24061,
    "osing": 3688,
    "Ġcin": 13878,
    "highest": 20411,
    "Ġrepugnance": 19088,
    "Ġunwinding": 22064,
    "fortunate": 4793,
    "nights": 16449,
    "Ġwaiting": 4324,
    "supportable": 12374,
    "Ġscor": 8190,
    "ĠĠĠĠĠĠĠĠĠĠĠĠĠĠĠĠĠĠĠĠĠĠĠ": 18833,
    "nt": 921,
    "necess": 4897,
    "azed": 9402,
    "umbria": 23898,
    "omination": 21645,
    "zwilliam": 5074,
    "msman": 9273,
    "Ġpracticable": 19057,
    "Ġbales": 21392,
    "udg": 22767,
    "ilib": 4114,
    "Ġarchitects": 18738,
    "Ġbaleen": 10040,
    "Ġcrowded": 8012,
    "Ġcivilised": 24247,
    "Ġmerits": 13198,
    "Ġmusical": 23896,
    "life": 4933,
    "Ġvaluable": 5608,
    "Ġmanual": 14200,
    "acid": 10996,
    "bohemia": 20733,
    "ğ": 224,
    "furthest": 19844,
    "placed": 7878,
    "difficult": 10061,
    "hall": 8085,
    "Ġattempted": 8001,
    "Ġmonoman": 7939,
    "Ġacceptance": 14830,
    "Ġreciprocating": 26371,
    "regulated": 23469,
    "laugh": 10111,
    "Ġverd": 6919,
    "Ġunrestrained": 25555,
    "falgar": 26131,
    "Ġarrives": 23609,
    "Ġbackstays": 22665,
    "2": 22,
    "Ġanne": 1529,
    "Ġgemin": 21613,
    "Ġgospel": 18003,
    "Ġsinned": 18953,
    "Ġstray": 18075,
    "Ġability": 2763,
    "Ġregion": 2269,
    "ilege": 22262,
    "Ġund": 4116,
    "pedest": 24823,
    "pivot": 21033,
    "husband": 8042,
    "Ġhelplessness": 25074,
    "Ġinmates": 15627,
    "along": 6014,
    "Ġperennial": 22697,
    "rence": 5555,
    "Ġfreshet": 25704,
    "Ġrudeness": 17127,
    "Ġprofounder": 23571,
    "Ġlungless": 24864,
    "Ġperiods": 13308,
    "Ġstory": 2901,
    "arr": 3049,
    "englishman": 23676,
    "Ġashes": 7617,
    "count": 4213,
    "Ġbell": 4637,
    "breathing": 25336,
    "innacle": 7519,
    "rity": 13779,
    "ll": 1139,
    "Ġplayers": 12042,
    "related": 24015,
    "anged": 3586,
    "Ġunaccountable": 7887,
    "Ġcustom": 5078,
    "yourself": 6744,
    "Ġtropical": 17066,
    "Ġgrip": 11630,
    "Ġtorch": 25033,
    "Ġcontracting": 16015,
    "Ġsalutation": 12401,
    "Ġchag": 15935,
    "Ġdoubling": 23322,
    "Ġsal": 3938,
    "ractions": 11636,
    "Ġhig": 753,
    "Ġreigns": 21674,
    "Ġeggs": 12346,
    "unusual": 21883,
    "gan": 2197,
    "much": 3705,
    "Ġtheme": 16022,
    "Ġinstinct": 6577,
    "Ġfrequent": 3286,
    "Ġwalks": 8969,
    "solely": 19819,
    "Ġoverdone": 22361,
    "Ġenjoyed": 8008,
    "Ġmalice": 7153,
    "fisher": 7547,
    "answ": 15888,
    "Ġomen": 11579,
    "ma": 1150,
    "jur": 17580,
    "Ġachieves": 4380,
    "Ġoak": 6130,
    "Ġfashion": 4299,
    "Ġ179": 19757,
    "Ġwalker": 23313,
    "Ġsaw": 1349,
    "tuesday": 17692,
    "Ġthree": 1372,
    "ishness": 22347,
    "Ġfacetious": 20587,
    "Ġscar": 3212,
    "fort": 1747,
    "Ġinevitable": 15171,
    "Ġdevoutly": 25834,
    "sick": 13787,
    "irregular": 21915,
    "Ġduties": 6611,
    "ising": 2253,
    "during": 6788,
    "Ġslope": 14464,
    "Ġthunders": 15642,
    "iece": 3230,
    "Ġcharm": 4549,
    "Ġimmovable": 15891,
    "miss": 3175,
    "wid": 10137,
    "discover": 10542,
    "Ġduck": 8798,
    "aching": 5832,
    "rated": 6229,
    "beef": 18521,
    "Ġturbulence": 26599,
    "Ġrepl": 1591,
    "Ġapprehen": 16831,
    "Ġdreamt": 23942,
    "chess": 16576,
    "pointing": 12229,
    "inable": 11558,
    "Ġspine": 7407,
    "datasets": 11956,
    "Ġdividing": 12116,
    "Ġassociation": 24710,
    "bitious": 16672,
    "porary": 14552,
    "Ġrequirements": 9792,
    "Ġunaccountably": 26517,
    "Ġexplanatory": 22206,
    "Ġb": 281,
    "oting": 2742,
    "ress": 930,
    "somehow": 12016,
    "Ġtelegraph": 25584,
    "Ġconvincing": 19309,
    "Ġpurp": 2390,
    "Ġfoss": 9854,
    "mortar": 25409,
    "ots": 3293,
    "Ġmetropolis": 17277,
    "heidelburgh": 21214,
    "Ġhelps": 9370,
    "ans": 458,
    "Ġsoutherly": 23338,
    "Ġoutrid": 22319,
    "Ġcrucifix": 26080,
    "Ġlin": 10835,
    "Ġstilly": 25975,
    "Ġwelcomed": 9485,
    "Ġperception": 9753,
    "Ġinns": 17932,
    "ez": 5683,
    "breckinridge": 24077,
    "ceiving": 3903,
    "Ġspreading": 13382,
    "Ġbulldog": 23862,
    "Ġlieuten": 13331,
    "whe": 1074,
    "lifted": 15390,
    "lock": 1469,
    "_âĢĶ": 11469,
    "Ġballarat": 14722,
    "Ġescapes": 23509,
    "Ġecho": 12673,
    "Ġintercourse": 11001,
    "unbounded": 21889,
    "Ġcrocod": 19631,
    "Ġassembl": 20064,
    "Ġtreble": 16506,
    "Ġminuteness": 19140,
    "Ġstrangers": 8314,
    "ked": 5616,
    "Ġinv": 2223,
    "Ġbegg": 16255,
    "Ġmonogra": 22980,
    "staking": 21651,
    "already": 6981,
    "magnet": 14973,
    "Ġsupre": 10272,
    "Ġident": 2238,
    "Ġcleaning": 23184,
    "Ġserenity": 10031,
    "Ġanecdote": 26356,
    "Ġmanhandle": 22333,
    "zealand": 26055,
    "oses": 3946,
    "acific": 4960,
    "Ġkick": 5838,
    "Ġday": 958,
    "Ġmarty": 20293,
    "Ġbishop": 13905,
    "Ġflourished": 15129,
    "itably": 10784,
    "mockery": 24378,
    "Ġboil": 16108,
    "ify": 1350,
    "backward": 2680,
    "Ġimpress": 6861,
    "Ġrecovering": 11868,
    "sorts": 21063,
    "suitableness": 26262,
    "Ġresponsiveness": 2897,
    "Ġloosened": 26003,
    "wled": 15457,
    "Ġaudience": 24768,
    "ostent": 16848,
    "ahawk": 23319,
    "oves": 15406,
    "Ġcrusad": 23709,
    "Ġemerge": 14931,
    "Ġwinchester": 10069,
    "Ġillustrious": 17110,
    "Ġoppressed": 11192,
    "Ġslappin": 18945,
    "Ġscent": 10287,
    "sc": 1258,
    "Ġdromed": 15601,
    "unwillingness": 25803,
    "concent": 19483,
    "Ġnoble": 3438,
    "Ġconversing": 14635,
    "Ġsymptoms": 8708,
    "Ġbeliefs": 24583,
    "Ġuncivil": 11157,
    "bolt": 25138,
    "Ġphysical": 7522,
    "combination": 25487,
    "elling": 5831,
    "Ġrings": 11705,
    "Ġpy": 21453,
    "recursion": 13333,
    "Ġunderneath": 16342,
    "kily": 20939,
    "Ġamend": 16038,
    "sax": 21059,
    "Ġpresence": 5031,
    "Ġsoldier": 16922,
    "Ġcracked": 8597,
    "unable": 14062,
    "ortal": 6267,
    "Ġforeseen": 16442,
    "Ġwatchman": 23667,
    "Ġletting": 10365,
    "attentive": 17192,
    "ł": 259,
    "Ġdodge": 19888,
    "Ġindignantly": 16941,
    "Ġbased": 3337,
    "Ġborn": 5224,
    "Ġimpatient": 5603,
    "Ġrobes": 16261,
    "rod": 10833,
    "Ġhorizontally": 17014,
    "Ġsounded": 8594,
    "Ġdefection": 22945,
    "curiosity": 8627,
    "orily": 15577,
    "sul": 15424,
    "darcy": 5208,
    "Ġspouted": 14677,
    "strength": 13983,
    "Ġimbu": 15890,
    "irt": 3080,
    "Ġcommunicative": 24548,
    "Ġble": 5223,
    "Ġscott": 22285,
    "tails": 21089,
    "vere": 4884,
    "Ġbuoyant": 13535,
    "Ġpetersburgh": 24231,
    "uit": 8393,
    "Ġoffered": 5817,
    "Ġhumble": 8554,
    "outer": 9671,
    "salesman": 20674,
    "Ġlaughed": 5059,
    "itous": 13870,
    "william": 4563,
    "pressing": 19014,
    "Ġapproved": 16040,
    "Ġworking": 5574,
    "Ġscreams": 24604,
    "Ġpeninsula": 23199,
    "Ġdelineations": 26059,
    "Ġrebellion": 26477,
    "Ġquieted": 23846,
    "Ġsells": 21226,
    "Ġfeeding": 7972,
    "cery": 20810,
    "threadbare": 25990,
    "Ġ118": 19701,
    "them": 3022,
    "Ġpuff": 6527,
    "asked": 8915,
    "rail": 10207,
    "comple": 7441,
    "Ġshirt": 8853,
    "Ġsins": 13840,
    "amet": 582,
    "Ġemail": 19074,
    "Ġjames": 6420,
    "Ġpioneer": 17919,
    "ober": 15409,
    "rec": 6005,
    "Ġfog": 9664,
    "Ġimpelling": 22385,
    "Ġfinishing": 23127,
    "successfully": 14994,
    "Ġflitting": 13031,
    "mental": 16053,
    "Ã¦st": 24178,
    "Ġobstinate": 11338,
    "Ġstepping": 9357,
    "Ġbedfellow": 16441,
    "Ġtwine": 14314,
    "Ġcircumspect": 15088,
    "laug": 10709,
    "benefact": 24642,
    "Ġinstigated": 18703,
    "Ġestimable": 23875,
    "Ġheaviest": 23327,
    "Ġplumber": 16089,
    "Ġasiatics": 20434,
    "pening": 2833,
    "Ġdive": 10175,
    "spite": 16141,
    "Ġrepublic": 14533,
    "Ġmutters": 23959,
    "Ġbeef": 6830,
    "neath": 12871,
    "nne": 20991,
    "frequented": 25901,
    "Ġsymmet": 11751,
    "Ġattached": 5392,
    "Ġduly": 13355,
    "Ġgothic": 18002,
    "Ġcorrid": 9827,
    "Ġjacket": 6490,
    "Ġbar": 3149,
    "Ġinjurious": 24273,
    "quee": 4127,
    "Ġleft": 1759,
    "main": 8088,
    "Ġu": 324,
    "Ġdictated": 25219,
    "Ġcomple": 2841,
    "Ġpassions": 7930,
    "Ġmaze": 23834,
    "eagerly": 17319,
    "Ġcharing": 14181,
    "Ġgained": 4536,
    "Ġcumulative": 4211,
    "ieve": 1658,
    "Ġslashing": 23174,
    "Ġpersisting": 18881,
    "ay": 354,
    "Ġfleetness": 20182,
    "remarked": 12292,
    "rength": 4098,
    "Ġobjection": 6587,
    "Ġus": 493,
    "Ľ": 254,
    "Ġwhitened": 24868,
    "Ġjanuary": 13657,
    "erie": 21273,
    "Ġbabes": 24425,
    "mantel": 26396,
    "Ġdictator": 20156,
    "understood": 13220,
    "Ġsobbed": 14139,
    "Ġdome": 15593,
    "Ġmule": 13865,
    "Ġpugnacious": 26453,
    "Ġwonder": 2117,
    "althily": 19362,
    "weakness": 16128,
    "franch": 24286,
    "Ġpalace": 16691,
    "Ġbehav": 3539,
    "Ġintens": 7004,
    "repairing": 24495,
    "Ġconcentric": 20078,
    "Ġrestore": 9383,
    "Ġmothers": 14542,
    "viv": 17700,
    "ding": 3030,
    "Ġloite": 22115,
    "tles": 10732,
    "Ġundisturbed": 19522,
    "dissemble": 23494,
    "princip": 17139,
    "Ġtattered": 21174,
    "Ġevangelists": 20342,
    "Ġdem": 11676,
    "Ġsalmon": 24064,
    "Ġmaiden": 13390,
    "Ġbefore": 811,
    "ĩ": 234,
    "whale": 2139,
    "inquiry": 15146,
    "Ġfrightens": 24033,
    "Ġfishing": 9665,
    "Ġaperture": 26161,
    "Ġnewly": 9341,
    "Ġincline": 18571,
    "Ġavenue": 13625,
    "Ġdiscoloured": 15256,
    "Ġpaddles": 15151,
    "Ġperempt": 13677,
    "Ġbronze": 22869,
    "Ġskylight": 24075,
    "Ġproper": 1379,
    "Ġtempted": 9059,
    "uiperai": 10666,
    "Ġvan": 1086,
    "belief": 13286,
    "Ġ\"": 6121,
    "thine": 15828,
    "ren": 551,
    "carry": 19529,
    "Ġineffect": 13933,
    "mast": 3601,
    "Ġnaught": 8128,
    "Ġwithdra": 6399,
    "contrast": 25595,
    "Ġlone": 11616,
    "Ġgable": 15671,
    "evade": 24817,
    "Ġreliance": 14388,
    "Ġomit": 17817,
    "Ġfolios": 23022,
    "ash": 1993,
    "luck": 5733,
    "Ġpup": 12624,
    "two": 3862,
    "iceland": 21569,
    "tish": 17679,
    "Ġaloysius": 15742,
    "love": 9297,
    "rippling": 24712,
    "Ġintolerably": 15833,
    "assment": 9742,
    "Ġchoice": 2165,
    "hel": 4815,
    "Ġrack": 9315,
    "Ġstingy": 25456,
    "Ġunite": 9257,
    "Ġmistaken": 4986,
    "deav": 2671,
    "irth": 5634,
    "Ġgettest": 23233,
    "Ġazores": 20196,
    "sal": 8761,
    "Ġprobability": 1126,
    "Ġaccents": 14220,
    "Ġhearers": 15707,
    "Ġegot": 18010,
    "Ġevery": 927,
    "Ġcoaxing": 18600,
    "Ġcrony": 23440,
    "Ġprayer": 16669,
    "fters": 20863,
    "Ġprinted": 11953,
    "Ġlightning": 5750,
    "sum": 2087,
    "ib": 1234,
    "Ġexhibition": 14960,
    "indifference": 15987,
    "Ġfinding": 3265,
    "sive": 4142,
    "Ġsagacity": 16976,
    "Ġdiffidence": 14661,
    "Ġprop": 1680,
    "Ġconcepts": 4552,
    "Ġdazz": 11597,
    "Ġsplinters": 15106,
    "Ġstig": 14006,
    "hetic": 12208,
    "Ġrushes": 20511,
    "Ġhung": 4561,
    "rough": 589,
    "Ġphotography": 24684,
    "Ġmarchant": 14789,
    "period": 15906,
    "captain": 3953,
    "irection": 2385,
    "Ġwidest": 24237,
    "Ġpictured": 16625,
    "accomplishments": 25327,
    "Ġlandsc": 11148,
    "whether": 5320,
    "cripp": 20821,
    "anced": 1362,
    "Ġwinking": 17795,
    "Ġcompleted": 8999,
    "women": 15459,
    "Ġfreshe": 13074,
    "Ġhessian": 3547,
    "Ġexordium": 26494,
    "Ġbride": 6293,
    "Ġunsocial": 18257,
    "described": 18897,
    "Ġaffected": 5577,
    "Ġpeeling": 22695,
    "Ġaccompl": 5167,
    "Ġreally": 2158,
    "Ġscene": 3100,
    "wrote": 11549,
    "Ġsimpl": 1578,
    "subst": 12169,
    "hard": 4691,
    "Ġdra": 1590,
    "Ġhunts": 23162,
    "Ġbump": 9662,
    "Ġeverlasting": 9340,
    "Ġass": 1503,
    "C": 39,
    "Ġincumbent": 16069,
    "Ġdelightful": 6322,
    "Ġspong": 15885,
    "Ġdownst": 3557,
    "Ġembell": 14414,
    "Ġhypocritical": 20740,
    "pagan": 17288,
    "Ġride": 12763,
    "Ġintuitions": 17344,
    "Ġseries": 7062,
    "thoughts": 9938,
    "Ġmock": 3691,
    "Ġsurviving": 24637,
    "Ġwouldn": 6047,
    "hereabouts": 23608,
    "Ġstrainings": 24628,
    "Ġj": 533,
    "Ġgall": 4352,
    "ection": 4948,
    "Ġhandfuls": 17212,
    "Ġverbal": 19382,
    "Ġbarrels": 9439,
    "chants": 21695,
    "accountable": 7111,
    "Ġawaken": 23588,
    "ident": 3377,
    "Ġimmensity": 25330,
    "Ġchose": 7413,
    "motives": 26138,
    "vacancies": 25920,
    "pe": 1436,
    "gue": 12472,
    "Ġturn": 1297,
    "Ġgallons": 14821,
    "everything": 6326,
    "alcul": 15632,
    "Ġsmall": 892,
    "analysis": 26174,
    "Ġstro": 4596,
    "tubs": 15134,
    "should": 3262,
    "represent": 9640,
    "vicinity": 20483,
    "Ġhonest": 7287,
    "Ġversion": 10632,
    "Ġhare": 5157,
    "Ġintolerable": 8484,
    "Ġoscillations": 2898,
    "Ġendeavour": 4679,
    "loss": 22511,
    "Ġmonomania": 17086,
    "bpp": 20774,
    "Ġfavourites": 16647,
    "Ġbows": 4081,
    "Ġbee": 21753,
    "Ġamel": 18510,
    "whis": 7898,
    "Ġappalling": 8502,
    "inger": 6813,
    "Ġmales": 17807,
    "Ġghast": 9212,
    "Ġthrowing": 6337,
    "Ġstraps": 19311,
    "Ġscimet": 22292,
    "dington": 12070,
    "yards": 9626,
    "Ġgeorgia": 23889,
    "Ġendow": 23138,
    "ross": 809,
    "piling": 15418,
    "term": 3758,
    "Ġneskyeuna": 26461,
    "Ġdun": 6676,
    "expedition": 26079,
    "joice": 9605,
    "Ġinterruptions": 24189,
    "obst": 11936,
    "hilar": 25084,
    "clothed": 19741,
    "heartedness": 24825,
    "Ġomniscient": 20089,
    "Ġreproached": 24892,
    "Ġgret": 21604,
    "Ġremonstr": 16166,
    "Ġdeceitfulness": 25734,
    "Ġconsequently": 8060,
    "Ġviii": 16417,
    "Ġaccent": 10298,
    "Ġjur": 12839,
    "Ġperfectly": 3700,
    "ean": 20842,
    "ional": 1083,
    "sank": 17664,
    "Ġinsurance": 23682,
    "Ġthoughtful": 16194,
    "Ġethiopian": 26615,
    "Ġarmed": 9263,
    "Ġsteeply": 23726,
    "Ġrises": 9716,
    "whims": 22243,
    "Ġtok": 1243,
    "cheap": 23807,
    "Ġgun": 4703,
    "Ġpillow": 10041,
    "aders": 21762,
    "icates": 11620,
    "Ġlivel": 11357,
    "Ġpattering": 18650,
    "ackinaw": 22426,
    "Ġinanimate": 13936,
    "salis": 25150,
    "Ġstrange": 2270,
    "Ġxlvi": 25591,
    "Ġattempting": 14699,
    "spr": 7435,
    "embers": 21933,
    "iew": 2443,
    "Ġflinging": 13589,
    "ition": 659,
    "Ġdiscoveries": 13363,
    "conven": 6164,
    "Ġrampart": 20321,
    "Ġsoftly": 7948,
    "Ġgradually": 3400,
    "yard": 5901,
    "Ġconvent": 11671,
    "Ġretort": 23072,
    "sinking": 17670,
    "Ġundesired": 12784,
    "buoy": 7761,
    "Ġeth": 17718,
    "Ġascent": 19621,
    "Ġgould": 17992,
    "Ġevaluation": 16553,
    "dirty": 20836,
    "secondly": 16986,
    "lads": 20957,
    "question": 5418,
    "Ġmeasure": 3592,
    "must": 3576,
    "ogra": 4574,
    "be": 669,
    "Ġcovent": 16081,
    "Ġtrotting": 19979,
    "sterdam": 19091,
    "Ġsworn": 14438,
    "awakened": 14456,
    "results": 20390,
    "Ġplans": 7918,
    "Ġone": 569,
    "Ġlion": 9678,
    "Ġhammock": 5768,
    "scales": 22992,
    "ashions": 16421,
    "Ġtaking": 3250,
    "Ġsweeter": 23921,
    "Ġoriginally": 7304,
    "Ġpopulation": 16829,
    "Ġmagg": 18907,
    "apped": 5395,
    "Ġmummy": 25769,
    "patter": 4435,
    "Ġbeards": 21755,
    "ira": 3957,
    "Ġ117": 19700,
    "augh": 1780,
    "lay": 5892,
    "Ġsands": 14951,
    "fri": 20856,
    "oc": 2835,
    "Ġirritated": 17244,
    "Ġimport": 971,
    "Ġwarmest": 16486,
    "Ġjustification": 22971,
    "started": 10847,
    "Ġcoherent": 3263,
    "iantly": 13742,
    "Ġsoftmax": 1687,
    "ledge": 1327,
    "Ġeclips": 20699,
    "Ġfavoring": 2343,
    "Ġstiffest": 24827,
    "ends": 6040,
    "Ġswaying": 15049,
    "atically": 2599,
    "Ġwretch": 6379,
    "Ġcivilly": 19606,
    "Ġadjusting": 3412,
    "Ġconcer": 23323,
    "Ġending": 18924,
    "Ġpe": 850,
    "Ġexhaust": 6400,
    "Ġdevice": 1928,
    "Ġgirth": 13140,
    "happening": 16567,
    "owders": 18050,
    "Ġsabbath": 17257,
    "ifers": 15786,
    "Ġundulating": 19520,
    "Ġbook": 2699,
    "Ġfinancier": 26585,
    "sens": 8096,
    "oles": 21007,
    "Ġshakes": 10906,
    "washed": 13051,
    "Ġancho": 15607,
    "Ġcomput": 600,
    "Ġwestmorland": 24390,
    "Ġeyed": 12674,
    "Ġplants": 22604,
    "Ġcheer": 4065,
    "anc": 6380,
    "Ġcampaign": 20663,
    "Ġgangs": 21612,
    "etence": 21580,
    "ĠâĢľâĢĻ": 22258,
    "stove": 21655,
    "Ġrespected": 11957,
    "Ġgrowled": 19285,
    "Ġchis": 11754,
    "obedience": 17413,
    "Ġbraved": 23841,
    "sis": 1831,
    "romang": 22009,
    "alization": 731,
    "Ġflying": 5413,
    "Ġparchment": 13656,
    "Ġseedy": 21966,
    "Ġjenkinson": 11433,
    "Ġpines": 12622,
    "Ġfiery": 6871,
    "Ġtapped": 11556,
    "Ġdeser": 3888,
    "Ġapprobation": 10987,
    "Ġacross": 1328,
    "Ġappetites": 20209,
    "uated": 10134,
    "Ġparamet": 609,
    "Ġadvert": 10574,
    "Ġappearances": 10453,
    "Ġblu": 2683,
    "con": 653,
    "cig": 17506,
    "immortal": 21713,
    "Ġnewcomer": 26041,
    "uplifted": 17697,
    "burst": 10540,
    "ure": 356,
    "Ġpartners": 11857,
    "harpoone": 6109,
    "Ġmallet": 17812,
    "iloqu": 11651,
    "Ġjagged": 18408,
    "overhearing": 19054,
    "insufficient": 15492,
    "Ġabruptness": 25300,
    "direct": 12461,
    "utes": 5915,
    "Ġbackgammon": 22666,
    "Ġinstruments": 12228,
    "ential": 826,
    "Ġpir": 6818,
    "eneva": 5118,
    "Ġintrusion": 12770,
    "Ġbuckskin": 19955,
    "Ġbats": 13903,
    "Ġfield": 1205,
    "Ġembark": 8559,
    "Ġfairest": 20466,
    "rr": 17652,
    "cious": 6646,
    "iers": 5992,
    "Ġslugg": 15272,
    "Ġpooh": 18605,
    "stave": 21652,
    "Ġsally": 15505,
    "osh": 18389,
    "Ġunusually": 15850,
    "pale": 13775,
    "pitching": 24078,
    "Ġmors": 17803,
    "covery": 11173,
    "conv": 7213,
    "occupation": 15059,
    "scythes": 26404,
    "occupied": 12308,
    "Ġunicorn": 22061,
    "Ġliveliness": 13647,
    "Ġtenement": 23550,
    "Ġost": 9652,
    "Ġblood": 3169,
    "Ġsubdiv": 16163,
    "Ġoath": 7833,
    "Ġneedn": 19230,
    "Ġaffords": 16736,
    "Ġirksome": 13116,
    "izar": 14053,
    "unavoid": 14065,
    "ourably": 14380,
    "Ġclaw": 22352,
    "Ġadorn": 12798,
    "Ġpoising": 22595,
    "embow": 21935,
    "doub": 6225,
    "Ġlists": 11168,
    "Ġlifetime": 13606,
    "Ġlethargy": 26484,
    "Ġhatchways": 24990,
    "Ġsurp": 9637,
    "named": 9893,
    "Ġset": 1177,
    "Ġgnarled": 25169,
    "hurst": 19881,
    "room": 2177,
    "Ġsing": 3077,
    "Ġconsolation": 6210,
    "Ġconcept": 657,
    "Ġblade": 11897,
    "becomes": 22500,
    "Ġsafie": 6620,
    "Ġmid": 2613,
    "================================": 5671,
    "Ġconstantinople": 19840,
    "Ġhelping": 3267,
    "Ġebony": 18011,
    "Ġunc": 2124,
    "Ġmaintain": 855,
    "Ġtoiling": 15639,
    "Ġflows": 13015,
    "consist": 14819,
    "Ġalleghan": 25796,
    "Ġfreezing": 23886,
    "Ġmere": 2710,
    "rubbed": 22184,
    "Ġdiscol": 12958,
    "felix": 10656,
    "ards": 2503,
    "Ġbespe": 19243,
    "utely": 8132,
    "Ġproduce": 4367,
    "requirements": 24858,
    "upp": 10133,
    "Ġslippers": 19618,
    "Ġexclamation": 8702,
    "Ġdollar": 25284,
    "wondrous": 12342,
    "Ġ101": 24409,
    "Ġattent": 4361,
    "hawk": 7123,
    "ov": 15403,
    "Ġdisordered": 16059,
    "Ġshipwrecked": 25688,
    "inois": 17740,
    "girdling": 26391,
    "Ġdives": 17892,
    "rian": 10244,
    "proves": 23397,
    "Ġdoubtful": 19143,
    "Ġenraged": 10247,
    "Ġmarbles": 18874,
    "Ġclutching": 24954,
    "Ġchapters": 10475,
    "ainted": 3658,
    "hun": 5210,
    "Ġsallow": 12541,
    "passing": 14815,
    "vengeance": 13361,
    "connections": 14431,
    "besides": 8699,
    "Ġderick": 9367,
    "Ġlux": 8818,
    "Ġdidst": 11853,
    "Ġpresumption": 10548,
    "Ġphyset": 23203,
    "addressed": 13389,
    "eskye": 21487,
    "police": 10586,
    "Ġimpertin": 6933,
    "crazy": 24692,
    "inisc": 15491,
    "oled": 17621,
    "Ġzigzag": 26274,
    "Ġpregnant": 26537,
    "Ġrapidity": 11102,
    "ationally": 15709,
    "fa": 7336,
    "Ġbrotherly": 16529,
    "illum": 15871,
    "ating": 665,
    "Ġfritters": 23259,
    "Ġinterrupting": 19560,
    "Ġcapering": 21357,
    "Ġproport": 2296,
    "enit": 17781,
    "tort": 17677,
    "Ġgracechurch": 12203,
    "thin": 14100,
    "we": 846,
    "towns": 24855,
    "Ġprotruded": 19473,
    "Ġprimitive": 25064,
    "Ġrespectively": 23251,
    "Ġencoun": 4512,
    "Ġdesirous": 8945,
    "Ġdames": 23475,
    "Ġobtaining": 16136,
    "Ġcongrat": 5828,
    "Ġbroiled": 18910,
    "apprehens": 17409,
    "having": 5211,
    "Ġmand": 21307,
    "Ġtoes": 10831,
    "Ġchristianity": 19863,
    "Ġtarred": 23611,
    "coffin": 10665,
    "Ġdrinking": 12173,
    "Ġlatent": 19658,
    "Ġtruck": 19514,
    "Ġsensit": 2947,
    "Ġhats": 14621,
    "Ġseen": 1369,
    "Ġsolemnisation": 24114,
    "Ġentered": 2846,
    "cannib": 11907,
    "Ġdescried": 7919,
    "Ġcommenced": 8534,
    "empt": 2616,
    "pron": 9009,
    "Ġfumbled": 17883,
    "Ġtrampled": 20331,
    "lorn": 12492,
    "hunt": 20905,
    "Ġfowler": 16939,
    "handkerchief": 14620,
    "Ġanalogy": 25640,
    "stool": 23823,
    "Ġgri": 17990,
    "Ġarrog": 18340,
    "reduced": 15809,
    "Ġkra": 18349,
    "disappointed": 25192,
    "imen": 12691,
    "seriously": 18906,
    "descending": 16288,
    "asible": 21545,
    "Ġlasting": 18793,
    "Ġsockets": 22092,
    "Ġinquis": 19305,
    "Ġfifth": 11259,
    "elephant": 12355,
    "Ġuniverse": 14127,
    "Ġwhiskers": 10495,
    "Ġsacred": 10932,
    "front": 12175,
    "Ġovertake": 15974,
    "Ġsurgeon": 8984,
    "holland": 24044,
    "further": 7535,
    "aset": 10834,
    "Ġinterposed": 20622,
    "Ġtyphoon": 12393,
    "Ġexecuted": 9475,
    "rep": 5525,
    "Ġ8": 5433,
    "shoe": 14970,
    "occup": 7753,
    "embra": 14079,
    "Ġobeyed": 12221,
    "ized": 1526,
    "Ġtru": 4103,
    "Ġcronies": 23442,
    "âĢĿ]": 21816,
    "Ġstartling": 14673,
    "earliest": 20123,
    "Ġhartshorn": 26182,
    "faint": 17547,
    "Ġlunacy": 20031,
    "inarticulate": 21198,
    "resses": 16155,
    "extremely": 26266,
    "Ġmantel": 11441,
    "Ġte": 1146,
    "data": 2246,
    "unciation": 25983,
    "Ġblades": 11899,
    "Ġuniformly": 19149,
    "attempts": 17193,
    "Ġcheerfully": 12139,
    "bol": 8721,
    "din": 8374,
    "Ġconjugal": 25104,
    "Ġinclu": 1098,
    "somewhere": 12017,
    "elizabeth": 1988,
    "Ġordained": 19448,
    "Ġspurned": 12802,
    "aur": 15312,
    "vial": 17699,
    "Ġadjac": 18296,
    "Ġawa": 7714,
    "achable": 14140,
    "Ġbenignity": 18783,
    "Ġtelesc": 12997,
    "Ġhumbug": 18781,
    "p": 84,
    "relieved": 13281,
    "yth": 980,
    "brown": 15321,
    "Ġhopeful": 19030,
    "Ġscientific": 6857,
    "Ġoper": 2120,
    "Ġess": 5691,
    "thesize": 24907,
    "historical": 20469,
    "Ġchilly": 25563,
    "furnished": 20244,
    "Ġbloodshed": 23803,
    "idy": 21768,
    "Ġthoroughly": 8348,
    "jet": 13745,
    "Ġopt": 787,
    "legged": 10468,
    "Ġincomplete": 17211,
    "Ġissued": 10602,
    "fl": 3599,
    "21": 10075,
    "Ġimm": 3964,
    "Ġclouds": 5775,
    "Ġfits": 8795,
    "iary": 15374,
    "Ġwanderings": 20146,
    "bows": 10084,
    "Ġdick": 3495,
    "Ġsane": 21224,
    "Ġsedentary": 25431,
    "Ġslumber": 13065,
    "Ġhos": 4942,
    "Ġmum": 13861,
    "rations": 10725,
    "Ġwhereupon": 14299,
    "Ġwhether": 2001,
    "utral": 12668,
    "inhabited": 13624,
    "ologist": 22879,
    "Ġignominy": 15089,
    "Ġbackward": 7655,
    "Ġwithdraw": 16966,
    "Ġtables": 9881,
    "?âĢĿâĢĶ": 12903,
    "Ġrecl": 16148,
    "kine": 15379,
    "Ġanno": 9670,
    "weeks": 14319,
    "Ġconcert": 11971,
    "Ġtrooped": 24900,
    "rasing": 21048,
    "Ġaust": 4872,
    "Ġinsurmountable": 16533,
    "atches": 13849,
    "Ġsyllable": 9732,
    "Ġfunny": 7638,
    "Ġcare": 1636,
    "beside": 19879,
    "âĢĺ": 941,
    "Ġpastures": 23422,
    "Ġsoup": 7069,
    "Ġhauled": 11698,
    "Ġgr": 976,
    "Ġtrappings": 23085,
    "Ġcaptain": 1600,
    "Ġingenious": 12352,
    "Ġspaulding": 11735,
    "orus": 10803,
    "ouching": 13181,
    "sters": 6392,
    "Ġ1869": 19387,
    "Ġplank": 7035,
    "Ġcompress": 21853,
    "wanted": 10745,
    "Ġtyrant": 24766,
    "respect": 6375,
    "Ġmartha": 16264,
    "c": 71,
    "sometimes": 5973,
    "Ġelig": 9781,
    "urously": 18053,
    "erxes": 21278,
    "Ġconveniently": 20082,
    "Ġgrazed": 15837,
    "dressing": 11484,
    "tick": 17680,
    ".]": 15302,
    "Ġiteratively": 3061,
    "Ġdependencies": 2311,
    "listened": 15046,
    "Ġvoids": 25808,
    "Ä": 133,
    "Ġwoll": 21296,
    "Ġpressed": 6043,
    "Ġsmelling": 16073,
    "accur": 14595,
    "Ġabrupt": 9739,
    "Ġbanish": 15574,
    "agery": 21911,
    "Ġviolin": 16431,
    "bad": 12440,
    "Ġwoke": 21292,
    "shall": 4551,
    "atmosphere": 21267,
    "cu": 10086,
    "orders": 12879,
    "Ġnight": 1464,
    "resnet": 4068,
    "ospel": 17012,
    "deadly": 17101,
    "Ġcapital": 7980,
    "Ġnormalization": 1241,
    "Ġresearch": 3246,
    "Ġanaly": 1147,
    "explained": 23147,
    "Ġdoted": 21436,
    "uerus": 26408,
    "Ġhanding": 16134,
    "Ġconsec": 21809,
    "Ġfacts": 2287,
    "tut": 15437,
    "Ġlance": 4880,
    "Ġclosest": 16765,
    "Ġcivil": 4680,
    "Ġrobert": 10972,
    "Ġnoblest": 13246,
    "Ġpitched": 9447,
    "Ġdances": 10814,
    "Ġvariants": 1790,
    "values": 4973,
    "Ġrecovered": 5481,
    "Ġvibration": 17100,
    "painting": 17047,
    "agger": 7872,
    "Ġpurposes": 11170,
    "Ġunfelt": 24111,
    "Ġbreach": 11978,
    "Ġcarpenters": 16754,
    "Ġpoured": 8805,
    "useful": 16505,
    "Ġregulations": 18590,
    "levi": 7049,
    "Ġsmoking": 6430,
    "birth": 15325,
    "out": 467,
    "Ġcomprehen": 5350,
    "ato": 17771,
    "Ġutility": 23517,
    "Ġberry": 19749,
    "health": 13836,
    "Ġcomplain": 6687,
    "Ġarabic": 24981,
    "kept": 11720,
    "Ġstump": 7606,
    "Ġvoyage": 3058,
    "fro": 8736,
    "taffrail": 15445,
    "Ġirresistible": 13117,
    "Ġwooing": 19437,
    "clopÃ¦": 13061,
    "kindly": 14747,
    "Ġcuba": 25098,
    "Ġlysander": 13143,
    "Ġsqualid": 14371,
    "Ġbloodthirst": 23804,
    "Ġguinea": 8950,
    "Ġobsolete": 26560,
    "Ġselects": 4386,
    "Ġleakage": 23460,
    "Ġquote": 18467,
    "Ġintention": 5638,
    "induce": 22378,
    "Ġrascal": 11706,
    "Ġnash": 5820,
    "urred": 8451,
    "use": 2534,
    "Ġencirc": 18732,
    "Ġclimbing": 20073,
    "Ġunfor": 15843,
    "telling": 14442,
    "raise": 18014,
    "Ġjem": 18403,
    "contr": 12060,
    "Ġoysters": 20582,
    "Ġruins": 16162,
    "Ġswain": 18882,
    "formation": 22225,
    "Ġbank": 4878,
    "sheep": 23089,
    "Ġcrawford": 24894,
    "hear": 10149,
    "Ġdrows": 21438,
    "Ġseal": 10259,
    "Ġinhabitant": 19758,
    "ales": 3315,
    "impressed": 12696,
    "Ġsinful": 18951,
    "Ġdent": 13909,
    "drawn": 9916,
    "ensical": 18569,
    "Ġbanquet": 15244,
    "Ġshaster": 22002,
    "Ġhag": 12630,
    "Ġparac": 12800,
    "Ġdrooping": 9423,
    "ble": 542,
    "glances": 23856,
    "Ġardour": 8043,
    "Ġexchanging": 18134,
    "wam": 10138,
    "Ġthunder": 4825,
    "Ġscaramouch": 23831,
    "Ġfills": 12599,
    "endless": 22228,
    "Ġusefulness": 19411,
    "Ġelated": 18635,
    "Ġoccasions": 7988,
    "Ġmince": 22833,
    "hent": 12539,
    "rmsprop": 4523,
    "Ġgardiners": 11159,
    "Ġeyford": 10644,
    "ete": 9206,
    "Ġtents": 13821,
    "you": 1008,
    "Ġdivin": 13278,
    "Ġrevenue": 26196,
    "Ġspectacles": 12102,
    "Ġchurned": 18385,
    "Ġslit": 13062,
    "Ġkeel": 6445,
    "Ġresid": 22542,
    "Ġharpooned": 13266,
    "Ġdavy": 25952,
    "slee": 17171,
    "stee": 21654,
    "Ġbroom": 18908,
    "attle": 4467,
    "Ġoversight": 22360,
    "enced": 4297,
    "remorse": 14470,
    "Ġmundane": 26431,
    "Ġberkshire": 16886,
    "Ġrecomm": 4996,
    "!âĢĿ": 845,
    "Ġfalsehood": 10526,
    "shell": 16290,
    "Ġcurvature": 3572,
    "Ġwarbling": 26169,
    "occasional": 19579,
    "Ġgets": 10841,
    "Ġunseason": 22056,
    "Ġfals": 15585,
    "Ġsurvived": 14937,
    "relatively": 24017,
    "dishon": 20407,
    "Ġclamped": 18426,
    "Ġroughly": 17041,
    "allen": 22200,
    "Ġtransparent": 9492,
    "Ġadaptively": 4614,
    "ructive": 18545,
    "ip": 557,
    "Ġsm": 704,
    "bond": 17492,
    "christian": 17235,
    "Ġfang": 21406,
    "Ġhastened": 9007,
    "irous": 8843,
    "Ġassent": 12738,
    "hurriedly": 25511,
    "Ġseething": 18204,
    "Ġcreases": 22724,
    "makers": 20984,
    "Ġevil": 3806,
    "pol": 5894,
    "stands": 22434,
    "Ġforefinger": 16443,
    "Ġapprovingly": 26254,
    "Ġirresolute": 24917,
    "Ġvig": 5460,
    "Ġploughed": 22611,
    "ull": 1431,
    "Ġtwitching": 25684,
    "fat": 8079,
    "achine": 602,
    "Ġperf": 12854,
    "favourable": 12268,
    "Ġgradient": 450,
    "Ġaffect": 1386,
    "Ġilliter": 23470,
    "Ġcastors": 23979,
    "conscientious": 19629,
    "Ġpetrified": 19599,
    "ospit": 22267,
    "thirst": 15829,
    "ellations": 21946,
    "histicated": 20903,
    "Ġparallelization": 3429,
    "Ġostr": 21328,
    "Ġcongreg": 8464,
    "Ġack": 5622,
    "wholly": 10943,
    "Ġabout": 633,
    "motion": 17608,
    "Ġpalm": 10516,
    "9": 29,
    "Ġtarn": 21161,
    "ste": 3583,
    "generations": 23788,
    "sings": 4253,
    "infl": 15490,
    "Ġsleep": 2397,
    "Ġcomrade": 11682,
    "intelligence": 5884,
    "Ġshuddering": 9054,
    "thirty": 12767,
    "Ġtraditions": 11445,
    "Ġwarb": 17789,
    "¤": 102,
    "Ġstreaming": 19676,
    "americans": 25045,
    "company": 9464,
    "Ġindulge": 10585,
    "Ġeleven": 9393,
    "umbent": 12094,
    "Ġobservant": 20113,
    "Ġtriumphant": 12194,
    "complaisance": 24808,
    "Ġdispel": 16598,
    "avoid": 9308,
    "fins": 13722,
    "Ġdesper": 6178,
    "colnett": 19332,
    "sacred": 17030,
    "Ġpretence": 13211,
    "Ġimprisonment": 22387,
    "Ġlordly": 23746,
    "dissatisfied": 26614,
    "Ġmultiplicity": 19277,
    "Ġcamberwell": 25351,
    "Ġflog": 23624,
    "arrant": 10476,
    "Ġexalted": 12416,
    "Ġporing": 21469,
    "Ġlocks": 11728,
    "idirection": 2409,
    "ugal": 19021,
    "Ġfootmarks": 19339,
    "Ġgushed": 21610,
    "eprints": 12796,
    "Ġgrounded": 23714,
    "securer": 25603,
    "Ġintu": 12768,
    "Ġanat": 8124,
    "Ġsolitude": 6876,
    "Ġbir": 17855,
    "Ġintellectual": 11403,
    "commendation": 26351,
    "Ġbull": 7839,
    "accompl": 9883,
    "Ġunpitying": 25661,
    "complained": 25840,
    "Ġconfirming": 25322,
    "Ġgovernments": 20270,
    "resistible": 10646,
    "Ġencouragement": 13048,
    "Ġword": 1051,
    "Ġaccumulating": 2720,
    "Ġinspect": 5965,
    "Ġunharmed": 15143,
    "Ġarg": 4767,
    "Ġsnow": 3706,
    "Ġaustral": 12177,
    "certain": 3675,
    "che": 3172,
    "Ġexerc": 6833,
    "Ġlucerne": 23867,
    "Ġcraven": 16472,
    "privilege": 25264,
    "Ġinterpret": 5490,
    "sunlight": 24852,
    "Ġwasn": 6998,
    "Ġcheerless": 16695,
    "composed": 14743,
    "Ġlively": 5449,
    "Ġsocieties": 20185,
    "Ġindiscreet": 22959,
    "Ġspots": 11733,
    "Ġmoulton": 17438,
    "opolising": 25677,
    "br": 2477,
    "gathered": 13735,
    "Ġdecided": 5471,
    "Ġvii": 13113,
    "Ġbringing": 5871,
    "Ġdiscrete": 2475,
    "acc": 2532,
    "Ġcorn": 9353,
    "Ġdisengaged": 12894,
    "Ġfrolic": 23928,
    "Ġdisappo": 4506,
    "tenham": 16325,
    "ura": 1073,
    "Ġfossils": 20225,
    "Ġtack": 5621,
    "Ġiron": 3236,
    "ance": 478,
    "daughter": 8354,
    "Ġsled": 21221,
    "native": 17614,
    "Ġpot": 2992,
    "Ġexist": 9234,
    "Ġjust": 1239,
    "Ġdowry": 20688,
    "Ġaltogether": 4833,
    "throne": 25658,
    "orn": 2241,
    "Ġarbit": 4652,
    "Ġresolutely": 14611,
    "disgraceful": 26077,
    "Ġafric": 8909,
    "Ġdiving": 12606,
    "Ġanimated": 7702,
    "Ġenergy": 2551,
    "Ġlate": 3375,
    "Ġdreaming": 11225,
    "Ġstormy": 16730,
    "resp": 13842,
    "Ġshud": 5461,
    "Ġcastles": 16642,
    "Ġour": 1011,
    "Ġladder": 8601,
    "Ġtranslations": 12055,
    "Ġexasperated": 11414,
    "showed": 16026,
    "Ġbreeds": 23351,
    "uther": 8821,
    "Ġcough": 11584,
    "Ġbase": 5013,
    "Ġsill": 10767,
    "Ġarticulated": 24433,
    "Ġeffectual": 18734,
    "Ġoccupant": 16654,
    "plings": 11699,
    "Ġadoration": 18294,
    "Ġwrench": 12562,
    "Ġpeering": 8537,
    "sto": 3199,
    "apers": 3479,
    "recked": 17764,
    "yellow": 9627,
    "errand": 22912,
    "Ġgrassy": 24379,
    "shapes": 22451,
    "eldest": 22789,
    "Ġmachinations": 25768,
    "Ġhelplessly": 20081,
    "Ġsaith": 14160,
    "Ġind": 1220,
    "initely": 7568,
    "Ġappertain": 22221,
    "gorith": 550,
    "dis": 2249,
    "mechanical": 25579,
    "might": 4076,
    "Ġelud": 22647,
    "Ġencountered": 8322,
    "marry": 13328,
    "coo": 11172,
    "Ġsurface": 5119,
    "Ġsize": 1217,
    "Ġhorsey": 24252,
    "Ġsarat": 21230,
    "oury": 22308,
    "Ġlower": 2659,
    "Ġah": 5075,
    "leep": 4636,
    "^": 66,
    "Ġquakers": 22420,
    "Ġdrawled": 23992,
    "ere": 6790,
    "Ġsepulch": 15288,
    "tooth": 18581,
    "Ġstrengthen": 20703,
    "ole": 9616,
    "Ġhoisted": 5961,
    "erest": 10699,
    "chery": 24551,
    "ille": 9222,
    "removing": 17766,
    "Ġenchanted": 9083,
    "Ġcart": 11586,
    "Ġderiv": 1734,
    "Ġcleat": 18949,
    "giana": 7801,
    "Ġchristian": 6480,
    "cod": 12448,
    "minutes": 7512,
    "Ġinfinitely": 8966,
    "mortals": 25410,
    "Ġelix": 22648,
    "Ġretained": 7174,
    "painter": 24897,
    "Ġs": 265,
    "sure": 5522,
    "Ġtoil": 6533,
    "Ġstatue": 23153,
    "Ġbabel": 24426,
    "Ġdressed": 5081,
    "Ġworker": 23042,
    "pile": 17631,
    "onah": 3335,
    "berries": 22745,
    "Ġcomply": 8895,
    "ool": 17620,
    "hereafter": 19218,
    "Ġdo": 511,
    "Ġpoints": 5248,
    "Ġsulphur": 24934,
    "Ġobliquely": 12366,
    "entiful": 10838,
    "aunted": 20772,
    "Ġoverboard": 6046,
    "Ġblessings": 24179,
    "thrusting": 20262,
    "ickering": 22673,
    "Ġmoonlight": 9961,
    "Ġtransplanted": 22464,
    "Ġtut": 8774,
    "Ġoccupies": 24011,
    "Ġhysterical": 26093,
    "length": 7136,
    "Ġsolutions": 1947,
    "wra": 11544,
    "eck": 20846,
    "Ġveritable": 19384,
    "ergy": 2360,
    "Ġsaturn": 22904,
    "gradually": 12920,
    "wered": 2686,
    "Ġmutilated": 23962,
    "Ġdusty": 14928,
    "eed": 20843,
    "Ġtopsails": 19195,
    "Ġtrailing": 23082,
    "Ġworn": 6446,
    "69": 17477,
    "Ġunfrequent": 24110,
    "Ġtrad": 9831,
    "Ġ40": 14772,
    "Ġdreams": 7496,
    "Ġtooks": 23328,
    "Ġrambles": 17187,
    "ishnoo": 10958,
    "runs": 25416,
    "Ġprince": 18971,
    "Ġendwise": 23139,
    "Ġfee": 7199,
    "Ġdiscretion": 10350,
    "dition": 15342,
    "wedding": 12526,
    "Ġones": 3023,
    "miserably": 24213,
    "Ġcoopman": 25829,
    "itzerland": 9998,
    "Ġcomfortable": 6096,
    "wis": 12523,
    "Ġunfolding": 17087,
    "estate": 12826,
    "plac": 15820,
    "Ġmists": 14632,
    "meet": 11860,
    "Ġleather": 7604,
    "opportunity": 12279,
    "effect": 8607,
    "ifts": 12740,
    "spears": 23945,
    "Ġoxen": 19954,
    "Ġphyseter": 26588,
    "wanderer": 25424,
    "Ġconfusion": 7273,
    "ady": 996,
    "Ġinfallibly": 10044,
    "Ġembarks": 22962,
    "atively": 2693,
    "asiness": 8129,
    "anting": 6413,
    "Ú": 155,
    "Ġgn": 8822,
    "Ġdriver": 16476,
    "ctuous": 9208,
    "Ġprosper": 10231,
    "Ġcannibal": 7774,
    "successively": 24778,
    "reated": 10305,
    "Ġbored": 16109,
    "Ġprotecting": 24687,
    "chancing": 22922,
    "Ġbargain": 23795,
    "nns": 1894,
    "Ġtheore": 1832,
    "Ġthanks": 6709,
    "Ġjerking": 12250,
    "Ġconvince": 14644,
    "Ġprompt": 3190,
    "Ġsituation": 4070,
    "Ġsuccessive": 10503,
    "Ġjackson": 24243,
    "storied": 18027,
    "Ġdart": 4586,
    "Ġventure": 7740,
    "Ġspeedily": 7712,
    "Ġkrus": 18350,
    "Ġdamning": 19141,
    "iors": 9128,
    "departed": 24793,
    "Ġbeing": 1162,
    "redit": 3878,
    "Ġposted": 16726,
    "deeply": 16186,
    "Ġmelancholy": 5606,
    "Ġbrightness": 16579,
    "rug": 18337,
    "Ġharris": 13930,
    "Ġinve": 17931,
    "Ġredeemed": 25790,
    "Ġriots": 23895,
    "stationed": 25454,
    "pon": 17627,
    "iscre": 17852,
    "Ġvehement": 16204,
    "Ġbutts": 15859,
    "Ġvomit": 21952,
    "verd": 21731,
    "Ġquiver": 16007,
    "Ġdanes": 25160,
    "ĠĠĠĠĠĠĠĠĠĠĠĠĠĠĠĠĠĠĠĠĠĠĠĠĠĠĠĠĠĠĠĠĠĠĠĠĠĠĠ": 19261,
    "Ġfasting": 16359,
    "ino": 15482,
    "70": 17478,
    "sleepers": 24729,
    "Ġfold": 5531,
    "Ġshowing": 7732,
    "Ġexhibiting": 19841,
    "Ġsquire": 16182,
    "irresistible": 18176,
    "lings": 8749,
    "Ġperhaps": 1912,
    "Ġmorsel": 20680,
    "Ġbaked": 21389,
    "niece": 20997,
    "Ġconvinced": 4205,
    "Ġextensive": 12949,
    "Ġdesperado": 19822,
    "Ġdisregard": 22532,
    "game": 11493,
    "Ġdairy": 20689,
    "useless": 14596,
    "case": 5206,
    "Ġearth": 2850,
    "Ġintruding": 21995,
    "spin": 22729,
    "soup": 21061,
    "charming": 15710,
    "Ġaglow": 22518,
    "Ġwitt": 17785,
    "Ġheaded": 11056,
    "Ġothers": 2581,
    "amplified": 26496,
    "Ġsimulation": 2750,
    "Ġserv": 3327,
    "Ġtotally": 9474,
    "speaks": 19722,
    "blows": 17168,
    "Ġshower": 11714,
    "87": 20759,
    "emy": 14078,
    "middle": 11312,
    "Ġbeyond": 2456,
    "Ġdejection": 15200,
    "Ġalarm": 4046,
    "appro": 7046,
    "Ġsolution": 9808,
    "ittered": 18440,
    "itatingly": 25278,
    "becoming": 18517,
    "Ġeagle": 13204,
    "coloured": 7291,
    "Ġnone": 3224,
    "Ġtalked": 4421,
    "Ġeloquent": 16114,
    "Ġacquaintances": 17353,
    "Ġburnwell": 13272,
    "Ġotherwise": 4659,
    "Ġtries": 9153,
    "Ġreaches": 18034,
    "Ġhes": 6252,
    "Ġunderstood": 5655,
    "ia": 1257,
    "rible": 3228,
    "Ġbegin": 3101,
    "Ġhalyards": 21497,
    "silly": 24422,
    "exp": 2735,
    "Ġborders": 15576,
    "vis": 4578,
    "Ġsullenly": 17175,
    "lestrade": 9659,
    "therly": 18342,
    "feelings": 5674,
    "Ġauthorities": 11266,
    "Ġfled": 6673,
    "doesn": 19823,
    "dire": 15339,
    "Ġsustenance": 19937,
    "urity": 8143,
    "Ġcas": 8412,
    "Ġsecre": 5493,
    "lamps": 25261,
    "asol": 21543,
    "minds": 24235,
    "reen": 21234,
    "nin": 17610,
    "wide": 10140,
    "Ġdeceased": 15008,
    "Ġheaving": 7601,
    "Ġabsorbing": 17131,
    "inished": 17736,
    "reflection": 13459,
    "Ġtremendous": 8353,
    "Ġlightly": 13088,
    "Ġindia": 10373,
    "Ġpenalty": 1842,
    "Ġer": 8105,
    "Ġun": 423,
    "Ġdented": 17893,
    "Ġwilliam": 3480,
    "Ġgreenwich": 19323,
    "Ġreplay": 5047,
    "Ġtriumphal": 24371,
    "Ġserm": 9636,
    "wick": 5363,
    "Ġramadans": 25122,
    "fow": 20855,
    "Ġchalk": 15937,
    "Ġdinnertime": 16721,
    "returns": 23142,
    "Ġing": 5284,
    "isted": 3297,
    "Ġmist": 2876,
    "Ġindistinct": 17411,
    "Ġsubdued": 11032,
    "affording": 23780,
    "Ġdelirium": 10407,
    "Ġfug": 12600,
    "Ġmourning": 13482,
    "Ġeulogy": 26473,
    "ority": 8419,
    "Ġcompares": 20169,
    "Ġdespite": 19356,
    "previous": 9764,
    ";âĢĿâĢĶ": 20762,
    "Ġding": 12604,
    "Ġjud": 3355,
    "assin": 22309,
    "invest": 11562,
    "Ġsul": 7570,
    "nothing": 3155,
    "thunder": 10265,
    "ets": 1158,
    "Ġfolio": 11922,
    "Ġindividuals": 24546,
    "Ġstrings": 11833,
    "inordinate": 21197,
    "spir": 5738,
    "Ġphysiogn": 12392,
    "constellation": 24608,
    "rab": 7597,
    "ane": 1178,
    "Ġanyhow": 14257,
    "Ġhoot": 19076,
    "attachment": 13057,
    "ckles": 22093,
    "/`)": 13664,
    "Ġexped": 7651,
    "thes": 7391,
    "prince": 23818,
    "Ġpettic": 14844,
    "Ġhome": 2029,
    "pot": 10120,
    "cur": 3270,
    "colour": 9906,
    "dy": 4073,
    "Ġhindoo": 17178,
    "Ġdrew": 3536,
    "ateness": 15523,
    "Ġexcept": 3311,
    "Ġtroubled": 6618,
    "Z": 62,
    "Ġwer": 12557,
    "Ġthemselves": 3252,
    "oric": 21399,
    "Ġpercept": 14226,
    "Ġsystematically": 3854,
    "Ġcontingency": 26246,
    "iters": 21332,
    "Ġtriumphantly": 11289,
    "script": 11079,
    "Ġsoles": 22089,
    "Ġlegible": 23536,
    "Ġgrievances": 20650,
    "Ġborrowed": 17232,
    "Ġprize": 11952,
    "Ġmortified": 14697,
    "Ġesteem": 7531,
    "Ġbatch": 889,
    "Ġyielding": 12191,
    "ilst": 8144,
    "appin": 18759,
    "stream": 15691,
    "Ġstroll": 13357,
    "Ġhers": 7889,
    "bye": 5951,
    "farmer": 25900,
    "conce": 8513,
    "Ġeccentric": 13653,
    "eyed": 11489,
    "Ġvalued": 12187,
    "uneasiness": 23687,
    "akers": 9743,
    "Ġmention": 2988,
    "Ġeffective": 1247,
    "Ġvanquished": 22877,
    "Ġai": 3129,
    "Ġfingertips": 24020,
    "Ġcoppers": 22589,
    "Ĝ": 221,
    "object": 6884,
    "Ġhoof": 23356,
    "Ġmontan": 22981,
    "Ġswims": 12124,
    "Ġlvi": 21556,
    "Ġboiling": 8528,
    "orously": 8420,
    "Ġhurricane": 16434,
    "Ġinterchange": 16080,
    "Ġseclusion": 18209,
    "vate": 21112,
    "Ġproprietor": 12377,
    "repe": 8780,
    "Ġcompassion": 6488,
    "Ġdwelling": 7322,
    "Ġpitches": 23905,
    "Ġwore": 6378,
    "twinkle": 23706,
    "herald": 22210,
    "Ġsubfield": 11873,
    "Ġpeeled": 14321,
    "Ġrevel": 9217,
    "Ġcontinuation": 22920,
    "commencement": 26350,
    "ahit": 9385,
    "Ġdeliverance": 15161,
    "Ġovercome": 6045,
    "thest": 11657,
    "warrior": 24797,
    "Ġalways": 1695,
    "Ġdoze": 14177,
    "«": 109,
    "Ġgoin": 18470,
    "Ġstaves": 21747,
    "Ġconfeder": 25708,
    "Ġdisappointment": 6629,
    "Ġfortunately": 12184,
    "Ġunnecessary": 8855,
    "Ġpend": 15610,
    "happ": 3106,
    "Ġdeterm": 1270,
    "Ġpossession": 5589,
    "atic": 4017,
    "Ġdetected": 18844,
    "sticking": 21663,
    "Ġmovement": 9971,
    "tit": 11530,
    "aming": 5829,
    "Ġexclamations": 11363,
    "Ġmetaphys": 16412,
    "?--": 15307,
    "americ": 8156,
    "same": 5362,
    "Ġeddystone": 25736,
    "Ġbare": 6134,
    "suspect": 9543,
    "iquet": 17577,
    "il": 329,
    "Ġmerid": 13197,
    "shad": 10982,
    "Ġmoritz": 11910,
    "apothecary": 26547,
    "Ġadmiral": 17308,
    "Ġstead": 5650,
    "Ġkindling": 19029,
    "gish": 20875,
    "Ġmightier": 18731,
    "Ġtumult": 7116,
    "Ġinherent": 4592,
    "Ġcolours": 12980,
    ";âĢĶ": 3749,
    "Ġunrestingly": 20364,
    "Ġuniversally": 12004,
    "Ġconstraint": 16515,
    "Ġprofundities": 20456,
    "¾": 127,
    "jer": 12485,
    "commence": 19995,
    "Ġretains": 20033,
    "Ġgorge": 13570,
    "Æ": 135,
    "Ġdesertion": 24786,
    "Ġflattering": 13034,
    "wretch": 17710,
    "simp": 17667,
    "abilizing": 2925,
    "Ġguessed": 11284,
    "Ġformless": 22830,
    "grie": 12475,
    "Ġgrieve": 14710,
    "gentleman": 7518,
    "lighter": 20961,
    "Ġcommanded": 6332,
    "hypothe": 25906,
    "Ġdisappearing": 22537,
    "Ġtangles": 25762,
    "Ġlocal": 1199,
    "Ġsigning": 22709,
    "Ġtusk": 25426,
    "grat": 5052,
    "Ġblown": 12090,
    "Ġgowns": 25360,
    "Ġpresumably": 19627,
    "Ġrele": 2917,
    "Ġowes": 20088,
    "dragging": 16611,
    "Ġbites": 23745,
    "Ġlightened": 23264,
    "ichron": 22172,
    "Ġdesirable": 8944,
    "evinced": 19928,
    "Ġafore": 10760,
    "Ġwaist": 6892,
    "ugnance": 12371,
    "less": 928,
    "Ġdodging": 19889,
    "Ġdestiny": 8986,
    "Ġsleek": 23387,
    "Ġgibe": 25960,
    ",)": 9104,
    "Ġtranspointed": 22463,
    "Ġg": 310,
    "Ġhelen": 16658,
    "Ġreproofs": 24893,
    "Ġidle": 8253,
    "Ġcontentment": 14873,
    "Ġsanctified": 25883,
    "Ġcongen": 10875,
    "zors": 21150,
    "Ġpurposed": 23554,
    "grand": 7970,
    "rowsers": 8698,
    "uesday": 8590,
    "Ġpage": 6979,
    "Ġdimens": 3151,
    "Ġincessant": 15101,
    "Ġwrites": 23201,
    "jar": 17579,
    "requent": 3649,
    "Ġswore": 10381,
    "rative": 17654,
    "nder": 20989,
    "zing": 7820,
    "gently": 13732,
    "Ġsurvivor": 17366,
    "Ġcomical": 11681,
    "slight": 10729,
    "axed": 8892,
    "eminently": 25108,
    "Ġcumberland": 21358,
    "Ġalexander": 17427,
    "Ġobliterated": 17408,
    "employed": 17264,
    "ulia": 18151,
    "Ġcoincidence": 25484,
    "alogies": 25162,
    "Ġkuiperai": 10937,
    "Ġbutler": 18271,
    "aye": 3659,
    "itory": 12572,
    "Ġinte": 2066,
    "Ġhitting": 21490,
    "Ġagents": 9769,
    "Ġinvincible": 23481,
    "Ġbidden": 24647,
    "Ġpoker": 13925,
    "omas": 12676,
    "Ġunerring": 15851,
    "Ġdistrust": 8204,
    "Ġlawyer": 10671,
    "Ġworse": 4720,
    "Ġhelmeted": 19691,
    "Ġapology": 8328,
    "Ġknowest": 12868,
    "Ġglobe": 6077,
    "Ġstocks": 23180,
    "Ġroll": 5381,
    "Ġbatt": 13902,
    "12": 20751,
    "recollection": 25349,
    "Ġframed": 19036,
    "Ġtars": 21167,
    "bath": 13693,
    "Ġconsum": 9802,
    "stall": 21649,
    "Ġinsomuch": 23683,
    "scru": 16244,
    "Ġprophets": 20453,
    "ipl": 20920,
    "Ġactively": 18655,
    "windows": 19537,
    "Ġregarded": 5762,
    "flitted": 23972,
    "ohog": 9846,
    "Ġtusks": 17256,
    "Ġnin": 10190,
    "Ġant": 4346,
    "Ġadvice": 4902,
    "Ġdesolation": 12273,
    "Ġprey": 6416,
    "Ġbuckler": 24860,
    "Ġlifelessly": 23053,
    "lust": 15383,
    "excited": 13384,
    "bearance": 22498,
    "gunw": 17223,
    "Ġhagger": 21494,
    "*": 14,
    "Ġox": 7154,
    "shire": 3024,
    "acrity": 14263,
    "day": 1858,
    "Ġfailing": 12142,
    "Ġcares": 9369,
    "meaning": 2907,
    "Ġconf": 1820,
    "Ġinvariable": 13460,
    "fields": 14655,
    "Ġedd": 8398,
    "oky": 8199,
    "Ġdiscrimin": 2544,
    "bore": 13690,
    "Ġjealousy": 13580,
    "Ġeverything": 3156,
    "ss": 397,
    "Ġmurderers": 16813,
    "arboard": 7266,
    "Ġexploring": 4306,
    "Ġlakes": 8131,
    "ophisticated": 22480,
    "Ġboasted": 16110,
    "Ġ0": 1905,
    "lady": 4433,
    "Ġother": 757,
    "Ġpine": 8801,
    "Ġxavier": 2855,
    "Ġgods": 6455,
    "Ġcoffee": 6761,
    "contempt": 13192,
    "Ġtrusted": 10520,
    "door": 6195,
    "icket": 22671,
    "lan": 15381,
    "Ġadventures": 7748,
    "Ġdread": 3164,
    "fly": 13717,
    "exclaimed": 11794,
    "mounting": 25208,
    "Ġample": 11802,
    "Ġsunken": 14495,
    "Ġsympath": 4862,
    "elements": 25204,
    "Ġbrad": 8791,
    "fell": 6953,
    "Ġdecomposition": 5343,
    "Ġinscrutable": 10675,
    "Ġtask": 1309,
    "ound": 585,
    "Ġsurvive": 9069,
    "Ġbracelets": 25503,
    "Ġeye": 2278,
    "ouri": 21450,
    "Ġwild": 2600,
    "Ġsmiling": 5475,
    "vand": 21111,
    "Ġtre": 2535,
    "Ġplacing": 8904,
    "ending": 1991,
    "sounding": 24795,
    "ķ": 248,
    "Ġviciously": 24404,
    "repeat": 25155,
    "Ġpl": 742,
    "nial": 20986,
    "Ġarrowy": 25470,
    "Ġy": 340,
    "memory": 13621,
    "Ġowl": 20087,
    "ensils": 22553,
    "Ġsway": 7571,
    "Ġplunder": 22608,
    "Ġalarming": 14785,
    "Ġcusack": 26435,
    "Ġoccas": 2700,
    "Ġpreprocess": 22237,
    "Ġcaptivating": 26050,
    "Ġdetective": 14416,
    "diligence": 26111,
    "shadows": 25480,
    "illustration": 2280,
    "Ġenveloping": 19737,
    "oard": 4810,
    "Ġjapanese": 10635,
    "Ġrenegades": 26478,
    "Ġmeditative": 25017,
    "Ġpract": 1861,
    "Ġstreaked": 19115,
    "phantoms": 24680,
    "Ġfurn": 3709,
    "Ġenvironment": 4249,
    "Ġpompous": 20426,
    "Ġrecom": 4556,
    "intentions": 22942,
    "Ġhinge": 25542,
    "Ġsignals": 10588,
    "forty": 9377,
    "ode": 1453,
    "Ġcoop": 14276,
    "Ġcarriage": 3950,
    "igators": 18047,
    "fav": 6649,
    "Ġbelshazzar": 16230,
    "tfordshire": 4812,
    "Ġincarn": 11818,
    "wh": 508,
    "Ġcondesc": 7182,
    "Ġparaphrasing": 26528,
    "ab": 345,
    "deliber": 17429,
    "Ġdiscovering": 13362,
    "Ġentangled": 10348,
    "Ġrepresent": 1211,
    "calmly": 20142,
    "dramatic": 19388,
    "urpation": 16304,
    "Ġdialogue": 12408,
    "Ġrequest": 6052,
    "Ġplayed": 9419,
    "Ġtoad": 21513,
    "Ġowed": 10782,
    "congreg": 25399,
    "Ġmisanthrop": 22761,
    "adagrad": 9694,
    "Ġsunny": 13090,
    "Ġwrithing": 11950,
    "Ġparis": 8179,
    "Ġstaying": 8284,
    "Ġbart": 17858,
    "petulance": 24301,
    "Ġunworthy": 11719,
    "mme": 22504,
    "ists": 4000,
    "Ġlanc": 19767,
    "Ġjura": 14195,
    "Ġgasping": 17039,
    "Ġobscure": 9557,
    "Ġread": 1445,
    "Ġ82": 24458,
    "Ġthrilling": 19751,
    "Ġwhe": 439,
    "Ġacknowledgment": 16959,
    "Ġtest": 1608,
    "Ġblast": 7445,
    "accompanied": 12426,
    "bation": 9106,
    "rades": 8592,
    "console": 22475,
    "Ġdare": 3544,
    "Ġfarthing": 14457,
    "quohog": 21862,
    "Ġcomplaint": 24775,
    "Ġreception": 9842,
    "ĠĠĠĠĠĠĠĠĠĠĠĠĠĠĠĠĠĠĠĠĠĠĠĠĠĠĠĠĠĠĠĠĠĠĠĠĠ": 14617,
    "Ġsplendidly": 25328,
    "Ġdiscernment": 15072,
    "Ġjupiter": 17459,
    "Ġepisode": 26349,
    "Ġpositive": 2295,
    "Ġtidy": 17094,
    "Ġsegmentation": 17343,
    "Ġeigenvalues": 4998,
    "address": 14884,
    "thee": 9693,
    "Ġconvert": 11850,
    "Ġazure": 12378,
    "Ġwatch": 2741,
    "rusted": 16509,
    "sideways": 14574,
    "Ġpunctually": 17141,
    "Ġamusing": 11804,
    "ought": 828,
    "Ġenable": 685,
    "andering": 21871,
    "lessness": 5318,
    "convul": 24884,
    "unfearing": 21896,
    "det": 5207,
    "Ġfervent": 14899,
    "Ġhedge": 8364,
    "Ġcommunicated": 9064,
    "Ġact": 690,
    "Ġsympathy": 6348,
    "mindful": 19602,
    "omuch": 21643,
    "ogany": 18680,
    "Ġpositives": 4318,
    "Ġheartless": 13077,
    "Ġtypewriter": 19099,
    "shows": 22445,
    "smiled": 16616,
    "Ġhearken": 21688,
    "Ġseptember": 18208,
    "Ġoverwhelmed": 11405,
    "idual": 1560,
    "Ġconsulting": 13433,
    "Ġvillainous": 25134,
    "affection": 7487,
    "Ġprem": 3425,
    "Ġnatures": 16508,
    "Ġnathan": 21529,
    "Ġenv": 3039,
    "le": 279,
    "lizzy": 6654,
    "Ġtrump": 8197,
    "hood": 2656,
    "poling": 12224,
    "Ġche": 1761,
    "Ġceasing": 23760,
    "Ġbenjamin": 26569,
    "Ġslide": 10396,
    "Ġtwice": 4663,
    "Ġfossiliferous": 25610,
    "Ġoffice": 4965,
    "Ġcondescension": 10621,
    "valley": 16217,
    "alarm": 15631,
    "Ġfill": 5701,
    "elsewhere": 19870,
    "mn": 3575,
    "spring": 7231,
    "Ġfishe": 15590,
    "Ġconfident": 11140,
    "Ġeaves": 15680,
    "Ġmainly": 22659,
    "deployment": 26529,
    "Ġvancou": 22876,
    "agged": 9240,
    "volous": 18601,
    "iline": 21724,
    "Ġvagu": 13593,
    "Ġimpartial": 15223,
    "pity": 17629,
    "filled": 9597,
    "Ġlecture": 13571,
    "involved": 25627,
    "ipotent": 10963,
    "Ġimpose": 22382,
    "Ġ]": 15462,
    "Ġgoodly": 22825,
    "Ġapprehending": 26092,
    "when": 1588,
    "omical": 9683,
    "called": 6294,
    "advantages": 11273,
    "Ġcheering": 11135,
    "bourn": 3300,
    "Ġleads": 12101,
    "Ġthrees": 23404,
    "Ġprognost": 15285,
    "superstitious": 17283,
    "Ġmanoir": 22335,
    "Ġpicturesque": 14897,
    "Ġsteered": 11095,
    "Ġconsented": 11297,
    "rious": 11692,
    "lonely": 20959,
    "tackle": 17324,
    "Ġjollies": 20373,
    "Ġdoings": 18376,
    "Ġreflections": 5948,
    "ast": 472,
    "Ġsummarization": 3646,
    "Ġannum": 24206,
    "Ġnaked": 8127,
    "ost": 5361,
    "Ġflooded": 24962,
    "consuming": 25675,
    "Ġabundantly": 17159,
    "Ġconcealment": 16916,
    "guess": 14764,
    "hing": 979,
    "Ġadded": 2713,
    "Ġtranslates": 12054,
    "Ġcolour": 4462,
    "Ġ1890": 23900,
    "Ġelias": 18636,
    "Ġperdition": 15996,
    "Ġlassitude": 20590,
    "similar": 13457,
    "Ġryder": 10262,
    "Ġguiltless": 16942,
    "building": 17312,
    "prophet": 16184,
    "Ġagent": 6279,
    "Ġrenow": 18030,
    "antage": 3880,
    "--------": 14786,
    "collect": 16566,
    "Ġouter": 6859,
    "cils": 20816,
    "eng": 1487,
    "Ġinscribed": 24941,
    "Ġmood": 6278,
    "Ġscandinav": 19964,
    "Ġdebility": 24275,
    "Ġzodiac": 16178,
    "Ġfortnight": 6202,
    "N": 50,
    "Ġpeels": 22694,
    "Ġstrang": 4159,
    "Ġm": 274,
    "Ġshaken": 10267,
    "Ġpostscript": 14811,
    "Ġlimited": 23547,
    "Ġsurely": 6309,
    "Ġcigar": 9548,
    "were": 2557,
    "Ġchann": 15939,
    "Ġunful": 22015,
    "clam": 13060,
    "throw": 14101,
    "Ġcomprehens": 8320,
    "Ġentr": 14342,
    "Ġrushed": 4085,
    "Ġneur": 813,
    "Ġblows": 5974,
    "cheered": 23808,
    "sailing": 14717,
    "buncle": 13696,
    "Ġspirit": 3723,
    "Ġomn": 8411,
    "Ġcomputers": 2641,
    "Ġceremonies": 24837,
    "Ġlikeness": 11181,
    "activation": 3232,
    "phology": 3010,
    "Ġloops": 8856,
    "Ġregretted": 13404,
    "Ġgard": 2188,
    "Ġmagistrate": 8234,
    "Ġtrunk": 7205,
    "Ġlowermost": 23245,
    "Ġtread": 9412,
    "ancy": 4394,
    "ogr": 18678,
    "Ġtex": 15475,
    "Ġresentful": 24632,
    "azz": 8262,
    "Ġmisconduct": 22760,
    "Ġbelie": 14409,
    "Ġbled": 17859,
    "phant": 6289,
    "relapse": 24019,
    "Ġwit": 3843,
    "keys": 15862,
    "majesty": 26282,
    "riet": 18182,
    "furniture": 20245,
    "awed": 10393,
    "sworn": 24259,
    "Ġperth": 7024,
    "Ġlogger": 11958,
    "allic": 12818,
    "Ġratio": 5066,
    "Ġsin": 1513,
    "Ġringleader": 26214,
    "Ġprev": 6266,
    "Ġpatched": 16383,
    "Ġcategor": 4138,
    "Ġmeditation": 16707,
    "Ġabund": 8868,
    "ute": 4644,
    "Ġunwonted": 15010,
    "'m": 9585,
    "Ġdef": 1200,
    "Ġfossil": 12391,
    "Ġsentences": 2679,
    "vation": 4745,
    "proved": 11991,
    "Ġimplicate": 24876,
    "Ġlounging": 10025,
    "league": 17846,
    "Ġcherub": 23289,
    "Ġresources": 2938,
    "Ġdoubled": 19640,
    "Ġneighbourhood": 5126,
    "usages": 22294,
    "itten": 3439,
    "ctor": 13963,
    "kish": 20936,
    "Ġgirdle": 19160,
    "======================================================================": 10071,
    "cence": 9591,
    "Ġabandonment": 25604,
    "Ġprinces": 23221,
    "ific": 488,
    "Ġdines": 21426,
    "Ġtenderly": 11316,
    "bers": 2569,
    "verize": 21732,
    "mag": 6509,
    "huzza": 20915,
    "Ġparm": 15881,
    "nment": 20992,
    "Ġnow": 692,
    "leaped": 17845,
    "Ġproving": 15756,
    "darker": 24516,
    "Ġexterm": 21833,
    "Ġharpoone": 2911,
    "Ġced": 10786,
    "Ġsweat": 13144,
    "token": 21085,
    "Ġfreshets": 25705,
    "Ġbade": 9174,
    "Ġbrood": 23103,
    "Ġimpregnable": 26024,
    "latter": 15386,
    "Ġcoarsely": 25830,
    "ats": 4255,
    "Ġavowal": 19418,
    "Ġcollar": 11883,
    "Ġinterp": 16078,
    "rix": 1573,
    "Ġvolume": 6770,
    "Ġsilken": 16385,
    "Ġminority": 18754,
    "Ġclams": 19992,
    "Ġslaught": 23171,
    "Ġattacked": 10570,
    "Ġuniversal": 2232,
    "Ġwishes": 4796,
    "Ġdepartment": 24244,
    "coil": 23560,
    "Ġcurse": 7668,
    "mody": 16208,
    "Ġdelusion": 18973,
    "belt": 24038,
    "tasted": 17689,
    "performed": 18346,
    "Ġbi": 919,
    "Ġbetokened": 18797,
    "Ġboun": 21383,
    "Ġpulverize": 23396,
    "explain": 1480,
    "Ġinsertion": 26345,
    "Ġliberal": 12195,
    "Ġp": 288,
    "Ġrealised": 18982,
    "Ġimperial": 9484,
    "Ġlighten": 23262,
    "Ġspeaking": 4026,
    "Ġdisd": 7032,
    "Ġrever": 6538,
    "Ġvanish": 8931,
    "Ġmarket": 7709,
    "yarn": 15460,
    "urrection": 12413,
    "Ġrowing": 10303,
    "skelter": 24490,
    "Ġspecific": 2003,
    "whaling": 7899,
    "rinted": 21046,
    "aneous": 7240,
    "Ġcapting": 23023,
    "Ġignited": 25072,
    "Ġimpetuous": 25571,
    "Ġbrisk": 9806,
    "beholding": 16044,
    "shrugged": 22449,
    "Ġsorting": 3235,
    "Ġcompelled": 14271,
    "Ġyoke": 18097,
    "Ġsiamese": 20486,
    "onings": 21255,
    "Ġsublim": 19970,
    "tstone": 21087,
    "Ġapothe": 12379,
    "Ġpr": 1596,
    "pict": 8386,
    "Ġfrontispiece": 23917,
    "÷": 184,
    "Ġsuck": 15864,
    "horizon": 23617,
    "publ": 17640,
    "Ġpromoting": 3162,
    "Ġcandle": 8292,
    "Ġtransportation": 13646,
    "Ġcave": 10787,
    "ect": 381,
    "receive": 12547,
    "Ġbunch": 11328,
    "Ġappl": 1745,
    "ostentatious": 20654,
    "Ġmonosyllable": 20728,
    "Ġcopy": 10166,
    "incom": 21184,
    "iling": 3096,
    "Ġgrievous": 13264,
    "struck": 7862,
    "Ġhampshire": 15246,
    "mountains": 15184,
    "Ġpicked": 6343,
    ":âĢĶ": 4432,
    "Ġtroub": 22366,
    "Ġrevellers": 21681,
    "ounts": 4653,
    "Ġworshippers": 25694,
    "irable": 5776,
    "gra": 769,
    "Ġbesides": 3512,
    "Ġtied": 7357,
    "umphed": 23520,
    "ory": 1081,
    "Ġpicking": 11261,
    "Ġadjusted": 23459,
    "Ġgaily": 16750,
    "Ġaddressed": 5263,
    "turn": 4293,
    "lleg": 20953,
    "ft": 909,
    "Ġamber": 7028,
    "Ġhospitals": 24924,
    "hester": 9634,
    "Ġtexture": 19162,
    "icity": 2538,
    "evid": 11487,
    "Ġhill": 5626,
    "move": 11858,
    "ually": 2769,
    "Ġschemes": 11133,
    "Ġsubproblems": 12962,
    "putable": 10903,
    "moreover": 12974,
    "fishery": 10035,
    "hunted": 16834,
    "Ġaroused": 15903,
    "Ġexecut": 4248,
    "Ġtow": 4396,
    "Ġoutside": 5554,
    "Ġbu": 3681,
    "Ġgoblets": 20522,
    "Ġobser": 2070,
    "Ġwipe": 25765,
    "Ġchowders": 18386,
    "Ġcomputations": 16001,
    "ŀ": 257,
    "Ġcommonly": 3264,
    "Ġmaking": 1777,
    "Ġcomprehend": 6495,
    "Ġdeception": 18141,
    "allingly": 22203,
    "Ġapproxim": 1218,
    "collar": 19330,
    "marest": 20982,
    "Ġcut": 2638,
    "chat": 21689,
    "Ġstillness": 12998,
    "Ġwhirled": 14963,
    "Ġcubic": 20091,
    "Ġpurely": 12236,
    "chor": 6148,
    "Ġbowls": 23773,
    "hercules": 22209,
    "Ġmus": 3395,
    "Ġidolator": 20001,
    "Ġjealously": 24125,
    "Ġver": 3392,
    "Ġancest": 12619,
    "Ġphysiognomy": 25611,
    "Ġjustified": 11909,
    "inating": 9156,
    "thur": 7188,
    "Ġverge": 23890,
    "accessible": 13643,
    "Ġwhims": 12697,
    "Ġaberde": 22281,
    "dun": 17518,
    "Ġphilosopher": 12188,
    "Ġcrazy": 8596,
    "gossip": 23407,
    "Ġoaths": 13527,
    "Ġsuited": 12790,
    "Ġsomehow": 4843,
    "Ġpropagating": 20636,
    "Ġspectre": 16633,
    "Ġcracks": 12024,
    "arch": 1118,
    "ipp": 10105,
    "Ġstun": 11653,
    "Ġgroans": 14827,
    "Ġencl": 16170,
    "Ġrescue": 13347,
    "Ġfab": 15580,
    "Ġshiny": 14109,
    "Ġshrieks": 12204,
    "result": 12047,
    "Ġbacks": 8531,
    "Ġkeepers": 23541,
    "Ġsnatch": 14641,
    "raham": 18016,
    "Ġmasterly": 23997,
    "Ġleeward": 6212,
    "Ġboard": 3381,
    "Ġincredulous": 9990,
    "Ġfeet": 2256,
    "Ġnations": 8814,
    "understanding": 1141,
    "Ĕ": 213,
    "Ġhusband": 3620,
    "gies": 13729,
    "idge": 14017,
    "table": 5795,
    "a": 69,
    "cabinet": 25080,
    "Ġchamois": 16802,
    "Ġpersu": 3562,
    "Ġhouses": 6140,
    "y": 93,
    "avail": 18606,
    "Ġbun": 6008,
    "pleasures": 24049,
    "Ġjoin": 4855,
    "Ġexclusion": 19399,
    "ě": 220,
    "ante": 11724,
    "Ġstrategy": 2285,
    "Ġgame": 3628,
    "Ġbrother": 2747,
    "Ġcopper": 7425,
    "otograph": 5827,
    "Ġcardboard": 19982,
    "Ġsave": 4050,
    "Ġlid": 6984,
    "rise": 6228,
    "Ġpressing": 9264,
    "Ġache": 18664,
    "Ġcanopy": 18323,
    "Ġgossiping": 26245,
    "Ġby": 383,
    "Ġexpenses": 11840,
    "Ġexceed": 1344,
    "finds": 19929,
    "Ġmizen": 17261,
    "oak": 21005,
    "Ġdisent": 22527,
    "Ġmomentary": 11038,
    "Ġcreeping": 18683,
    "appe": 2945,
    "Ġbeseeching": 26312,
    "dron": 17527,
    "Ġthin": 4348,
    "Ġhand": 857,
    "imagination": 13484,
    "etian": 13962,
    "Ġwrenched": 12563,
    "forever": 22523,
    "furthermore": 20007,
    "erve": 12554,
    "Ġchemist": 11136,
    "ains": 5094,
    "Ġunwelcome": 12785,
    "would": 2350,
    "Ġswear": 6462,
    "Ġwidows": 24239,
    "ester": 11606,
    "steaks": 23964,
    "Ġmotions": 8281,
    "iff": 3906,
    "Ġpersian": 11088,
    "Ġobliter": 14325,
    "still": 4219,
    "ounced": 4954,
    "Ġdiscovery": 5412,
    "inquir": 9539,
    "Ġagile": 22517,
    "Ġcontortions": 18477,
    "Ġtaken": 2527,
    "Ġstaving": 21744,
    "Ġleech": 24157,
    "Ġrelaxed": 12989,
    "ersburgh": 18210,
    "Ġfaintness": 24571,
    "Ġpiratical": 24798,
    "Ġheave": 7600,
    "Ġourselves": 5127,
    "Ġhandling": 8916,
    "Ġconsidered": 4612,
    "Ġabruptly": 15154,
    "Ġug": 8141,
    "Ġscorch": 20070,
    "^{": 15308,
    "spoke": 11025,
    "ressed": 3026,
    "Ġenlarged": 25986,
    "Ġcensured": 25097,
    "Ġchapel": 9526,
    "detective": 24383,
    "seek": 8841,
    "Ġislets": 21805,
    "gentleness": 24845,
    "eer": 15351,
    "Ġseas": 3081,
    "Ġurged": 6782,
    "Ġengrossed": 13000,
    "Ġbeque": 18083,
    "Ġvivacious": 19818,
    "Ġinfallible": 15074,
    "clay": 18933,
    "Ġperry": 22400,
    "mistress": 14908,
    "Ġdents": 13914,
    "Ġbrine": 18771,
    "Ġundiscovered": 18253,
    "fatig": 17090,
    "thank": 4950,
    "Ġnearer": 5303,
    "anelles": 26436,
    "fellows": 12278,
    "Ġbridegroom": 10607,
    "confidence": 16810,
    "Ġgentleness": 8713,
    "Ġgallantry": 15107,
    "bweb": 20793,
    "Ġswiftness": 9930,
    "heed": 15501,
    "Ġevermore": 18813,
    "Ġconfid": 7687,
    "sway": 15428,
    "ignorantly": 25190,
    "Ġembarkation": 25125,
    "xi": 17712,
    "Ġdevotedly": 24749,
    "Ġill": 2191,
    "Ġd": 284,
    "encies": 4078,
    "Ġfacil": 16964,
    "Ġambiguous": 20167,
    "Ġcrane": 23439,
    "Ġcircumference": 13548,
    "Ġstandard": 14498,
    "Ġdiminishing": 4209,
    "ivorous": 22084,
    "Ġforegoing": 23450,
    "Ġcontemptuously": 19836,
    "feared": 11806,
    "incident": 14593,
    "performances": 26007,
    "irting": 11689,
    "sw": 4742,
    "Ġwhist": 6023,
    "Ġsumatra": 15290,
    "Ġprofuse": 23568,
    "Ġintegration": 9871,
    "Ġfedallah": 6110,
    "rods": 21541,
    "Ġfashionable": 19547,
    "Ġadapts": 3817,
    "Ġrep": 1938,
    "Ġsulk": 15048,
    "Ġdece": 6997,
    "Ġcarry": 4780,
    "imes": 1300,
    "Ġlap": 8438,
    "Ġagreement": 18543,
    "Ġwhispering": 14948,
    "Ġechoed": 20427,
    "Ġdiverged": 23596,
    "Ġjer": 6268,
    "Ġtext": 2265,
    "baden": 25616,
    "Ġshifted": 14110,
    "Ġreliable": 18778,
    "Ġdelic": 4131,
    "ï": 176,
    "bert": 4664,
    "Ġlandau": 16423,
    "Ġconjure": 17126,
    "Ġcad": 12573,
    "concl": 12874,
    "anesc": 21363,
    "Ġmoisture": 12363,
    "ands": 21870,
    "scorched": 25698,
    "Ġwakes": 11575,
    "Ġlooks": 4164,
    "Ġrender": 8305,
    "Ġstup": 14009,
    "Ġtroublesome": 24005,
    "tone": 8766,
    "k": 79,
    "Ġspoil": 17009,
    "confl": 22473,
    "Ġexamination": 8005,
    "Ġreality": 7060,
    "Ġconcisely": 19046,
    "Ġchaps": 14180,
    "Ġboxed": 24360,
    "Ġblanched": 26284,
    "Ġrecre": 22750,
    "bitts": 26123,
    "Ġaspects": 4174,
    "Ġoutermost": 22323,
    "Ġignor": 4011,
    "jephro": 26394,
    "Ġklan": 23661,
    "Ġassure": 4419,
    "dem": 10695,
    "Ġmedicine": 15210,
    "Ġwithdrawn": 10609,
    "prob": 7071,
    "Ġchannel": 26013,
    "itiousness": 21337,
    "Ġphara": 23202,
    "weaving": 18667,
    "visual": 24225,
    "Ġcorridor": 10674,
    "Ġsnail": 19301,
    "Ġtyros": 26102,
    "icial": 12660,
    "kick": 20938,
    "Ġexploded": 15913,
    "Ġbraw": 23838,
    "instinct": 19546,
    "engagements": 25855,
    "Ġcomprise": 18585,
    "Ġadie": 8491,
    "Ġopposite": 5120,
    "conve": 14246,
    "anyth": 5438,
    "Ġagreeing": 20022,
    "humoured": 11239,
    "sky": 12515,
    "Ġtone": 4038,
    "Ġplainer": 23707,
    "punishment": 15149,
    "Ġhonour": 3923,
    "theories": 18081,
    "Ġmarriage": 3189,
    "Ġbeware": 8832,
    "innocence": 15187,
    "Ġcontemplative": 19895,
    "Ġisle": 8837,
    "Ġinverted": 12642,
    "Ġextreme": 2513,
    "Ġramsgate": 18646,
    "Ġvibrating": 13541,
    "alot": 15630,
    "Ġclerval": 4655,
    "van": 7814,
    "Ġ133": 24782,
    "forecastle": 10992,
    "Ġsmells": 8894,
    "dying": 15344,
    "Ġterritories": 23849,
    "leader": 25352,
    "ifling": 15787,
    "Ġcommentators": 25230,
    "ar": 285,
    "acter": 2505,
    "Ġcoopers": 20525,
    "Ġmore": 676,
    "Ġmedit": 8025,
    "Ġsummers": 23876,
    "Ġpasseng": 12976,
    "browed": 25895,
    "with": 1296,
    "bearing": 9768,
    "Ġgrind": 18735,
    "Ġintensity": 10019,
    "Ġinevitably": 17233,
    "Ġdaresay": 14707,
    "Ġflow": 1238,
    "plicable": 10258,
    "Ġqualified": 14953,
    "bergen": 14343,
    "inst": 4296,
    "Ġclassify": 1553,
    "chair": 5918,
    "Ġprecautions": 23729,
    "imming": 9690,
    "Ġtitle": 11410,
    "Ġprogno": 14043,
    "ictions": 14229,
    "Ġexcess": 3340,
    "Ġmurder": 4282,
    "Ġholidays": 22925,
    "Ġdarted": 4759,
    "appeared": 4283,
    "Ġrocks": 6863,
    "Ġrepute": 18037,
    "et": 307,
    "ships": 5486,
    "Ġbecher": 18880,
    "christmas": 20258,
    "Ġelbow": 12926,
    "herds": 22208,
    "Ġlxi": 21564,
    "Ġuntimely": 16469,
    "scattered": 22993,
    "Ġankles": 17901,
    "condesc": 18506,
    "Ġnortheast": 23205,
    "Ġhon": 2536,
    "Ġimpertinence": 11368,
    "Ġinterest": 2247,
    "need": 10985,
    "Ġhunger": 8570,
    "Ġhave": 444,
    "quake": 11684,
    "court": 7511,
    "dece": 11738,
    "Ġkrempe": 10672,
    "imental": 16536,
    "inations": 7567,
    "Ġop": 2601,
    "Ġtired": 9152,
    "fears": 18526,
    "Ġoutbreak": 22321,
    "scept": 21056,
    "Ġengraving": 17081,
    "Ġconsistence": 23359,
    "retch": 4372,
    "Ġallusion": 7626,
    "Ġbo": 796,
    "Ġcheck": 7271,
    "Ġparameter": 884,
    "Ġunheard": 22029,
    "Ġchemistry": 11462,
    "Ġdetermination": 9822,
    "Ġcompar": 4772,
    "Ġadagrad": 2903,
    "Ġopen": 1550,
    "Ġrequisite": 18632,
    "Ġelastic": 4362,
    "Ġleaving": 3905,
    "30": 20756,
    "Ġknight": 9730,
    "Ġshrugged": 12774,
    "print": 23815,
    "Ġdeserve": 8309,
    "mouthful": 25209,
    "quered": 11057,
    "agement": 4188,
    "akes": 2218,
    "pervised": 1638,
    "cloud": 11107,
    "´": 117,
    "Ġjane": 1756,
    "Ġbadly": 12136,
    "ocations": 23710,
    "Ġprivilege": 11421,
    "Ġnovels": 15933,
    "rock": 15645,
    "flames": 14715,
    "Ġshores": 8852,
    "Ġrunning": 3951,
    "Ġoars": 3898,
    "Ġinvite": 14565,
    "mitting": 20975,
    "arming": 8954,
    "Ġhydraul": 9517,
    "rougham": 15997,
    "Ġrights": 10399,
    "comp": 3816,
    "Ġdevious": 22719,
    "Ġseparately": 13307,
    "Ġadmirer": 16840,
    "Ġeasterly": 25963,
    "fork": 20859,
    "hump": 12482,
    "âĢĻ,": 14073,
    "Ġvult": 12757,
    "thirds": 25049,
    "bolts": 11422,
    "aloft": 8811,
    "Ġbeen": 625,
    "Ġoughts": 23904,
    "Ġwharf": 9562,
    "against": 5872,
    "Ġname": 2083,
    "Ġpecks": 18670,
    "hastened": 16847,
    "isol": 17848,
    "indisc": 22377,
    "Ġczar": 12579,
    "Ġqueens": 16705,
    "umbling": 6613,
    "Ġeh": 6988,
    "Ġunmo": 12778,
    "Ġoppose": 16521,
    "Ġbed": 2150,
    "Ġapproximates": 2416,
    "Ġsped": 22129,
    "Ġaggreg": 12889,
    "ptember": 10895,
    "Ġregained": 18589,
    "Ġreconc": 9686,
    "Ġwrecked": 9969,
    "Ġpout": 17906,
    "Ġhval": 21491,
    "bling": 10685,
    "Ġoceans": 7996,
    "wandered": 20288,
    "Ġontario": 26206,
    "cul": 1902,
    "Ġwollstonecraft": 26427,
    "_),": 7127,
    "Ġbaleful": 24985,
    "Ġ85": 24460,
    "gre": 5788,
    "dreadful": 11423,
    "Ġgratitude": 5599,
    "Ġcounteracted": 19864,
    "anted": 5027,
    "Ġvows": 15812,
    "Ġchord": 22249,
    "shake": 22444,
    "Ġagrees": 22520,
    "rossed": 11015,
    "Ġfrosted": 19806,
    "Ġdiscredit": 22786,
    "fitting": 1509,
    "Ġresiding": 16065,
    "Ġselect": 3998,
    "Ġmira": 8408,
    "gods": 13371,
    "matter": 5136,
    "ignomin": 23269,
    "Ġresemble": 15697,
    "Ġcoronation": 13338,
    "Ġont": 18119,
    "approve": 19940,
    "Ġexpl": 487,
    "county": 25397,
    "Ġgathered": 8444,
    "entrance": 12662,
    "brows": 17499,
    "Ġcared": 8787,
    "Ġcalamity": 17352,
    "Ġdeprived": 8210,
    "Ġbathed": 17867,
    "Ġindication": 22955,
    "osure": 5308,
    "ificent": 8184,
    "dz": 4740,
    "presbyterian": 26370,
    "Ġlearnable": 3995,
    "orrowed": 19291,
    "ai": 2525,
    "Ġpropont": 16353,
    "Ġswap": 23055,
    "entire": 6824,
    "Ġmurdered": 6465,
    "Ġsmothe": 18575,
    "lingly": 9776,
    "Ġconsole": 8151,
    "aggoo": 5130,
    "set": 3867,
    "Ġnetherfield": 3931,
    "ample": 1365,
    "Ġrats": 21980,
    "upper": 11541,
    "```": 25894,
    "Ġapart": 4747,
    "urer": 18124,
    "Ġrelinqu": 12988,
    "Ġjar": 15954,
    "Ġtowed": 11267,
    "Ġdeadliest": 14558,
    "Ġlocations": 12417,
    "persecut": 22193,
    "Ġbelf": 21384,
    "Ġcrests": 25686,
    "lemag": 21375,
    "Ġnominal": 15172,
    "phia": 22781,
    "Ġtwinkling": 12328,
    "Ġattendant": 11287,
    "hering": 12819,
    "Ġaccounts": 7208,
    "Ġundiscernible": 22072,
    "by": 1156,
    "Ġcontribute": 12866,
    "worse": 14693,
    "Ġhinges": 15216,
    "heavens": 19748,
    "Ġautonom": 10417,
    "Ġbuck": 7158,
    "giving": 8742,
    "Ġinsolence": 20256,
    "¶": 119,
    "Ġinestimable": 17445,
    "uzz": 4525,
    "Ġpin": 7162,
    "ashing": 4826,
    "prot": 6899,
    "Ġcommunion": 19009,
    "Ġstoper": 14466,
    "crippled": 26386,
    "overspreading": 26140,
    "Ġfear": 2274,
    "ectual": 21919,
    "Ġsympathised": 14865,
    "Ġsoda": 25535,
    "Ġbodiless": 24229,
    "Ġoccurring": 2791,
    "Ġcommunic": 5751,
    "offers": 16398,
    "Ġcurrent": 13025,
    "clouds": 25497,
    "Ġswandam": 11091,
    "istrate": 7406,
    "otted": 14027,
    "Ġbarmaid": 19337,
    "Ġsternly": 16717,
    "Ġrecollect": 8310,
    "Ġanyways": 22524,
    "Ġrendering": 16660,
    "gee": 15981,
    "Ġhurrying": 11999,
    "waited": 24586,
    "Ġtinted": 13825,
    "Ġfix": 2506,
    "Ġbowl": 11206,
    "umed": 6556,
    "given": 8377,
    "Ġnormal": 1202,
    "Ġpresently": 5116,
    "Ġrecorded": 11295,
    "Ġthom": 21519,
    "Ġtis": 15468,
    "heaven": 8053,
    "Ġinvention": 19956,
    "Ġsaville": 15894,
    "Ġneeded": 7718,
    "Ġthoroughfare": 16946,
    "Ġcapric": 14578,
    "Ġslipping": 13365,
    "Ġrust": 6409,
    "Ġcorroboration": 26053,
    "Ġsettled": 3740,
    "Ġlethar": 21735,
    "Ġpersonally": 8602,
    "bel": 3837,
    "meanwhile": 10612,
    "overcoat": 19053,
    "Ġcheek": 8581,
    "Ġtechniques": 2867,
    "Ġseem": 912,
    "Ġcam": 10164,
    "Ġenh": 2955,
    "Ġcracking": 14576,
    "Ġunceasing": 20361,
    "inal": 15483,
    "ap": 547,
    ",--âĢľ": 19198,
    "Ġenchanting": 17040,
    "Ġsheath": 14154,
    "Ġundeceive": 25553,
    "exam": 10978,
    "itz": 6007,
    "Ġcanoe": 9726,
    "men": 1485,
    "produce": 20285,
    "ivility": 12788,
    "teeth": 10357,
    "ippers": 17578,
    "prudently": 21037,
    "Ġlowers": 23244,
    "Ġman": 544,
    "surv": 24216,
    "foam": 24418,
    "Ġaccur": 3690,
    "Ġveins": 8935,
    "Ġflurry": 18862,
    "Ġimbec": 14157,
    "Ġemerging": 24613,
    "Ġseasoned": 24405,
    "Ġbring": 3322,
    "Ġfunctions": 1340,
    "Ġflapped": 23014,
    "iety": 2819,
    "Ġtunes": 24620,
    "unknown": 10892,
    "sperm": 5203,
    "speaking": 12103,
    "robe": 15646,
    "âĢĶâĢĶâĢĿ": 15944,
    "Ġsuspense": 9421,
    "Ġperfume": 25666,
    "Ġeffemin": 18541,
    "Ġsharper": 17182,
    "endurable": 22230,
    "Ġchiselled": 25560,
    "deformity": 22150,
    "Ġleviathans": 8282,
    "Ġbreaks": 13187,
    "bbings": 19278,
    "Ġbluff": 16519,
    "admon": 21764,
    "Ġowing": 6006,
    "Ġmanxman": 9568,
    "Ġperv": 15994,
    "again": 3398,
    "Ġbarriers": 23797,
    "compose": 24035,
    "Ġmark": 2328,
    "Ġbeer": 10222,
    "fully": 2201,
    "Ġstating": 15729,
    "Ġsol": 1101,
    "mediate": 16516,
    "Ġsees": 8847,
    "ck": 436,
    "Ġfulfilled": 11364,
    "Ġreeled": 13989,
    "Ġallev": 18103,
    "Ġruinous": 24634,
    "Ġincred": 5646,
    "Ġbench": 7238,
    "asting": 12811,
    "Ġsuperhuman": 23454,
    "Ġleading": 7297,
    "solved": 7685,
    ":--": 5784,
    "putting": 14103,
    "Ġson": 2985,
    "give": 4690,
    "Ġcomputation": 966,
    "asets": 2307,
    "Ġprairie": 8716,
    "Ġfeed": 2127,
    "Ġprovided": 6579,
    "sleeves": 26110,
    "vitiated": 25755,
    "Ġgait": 13335,
    "Ġhabitual": 24789,
    "vember": 10857,
    "Ġingratitude": 17471,
    "Ġrumpled": 24601,
    "sense": 11526,
    "ividual": 5463,
    "Ġpince": 21473,
    "iii": 14780,
    "Ġmac": 15542,
    "relate": 24014,
    "Ġbelike": 18831,
    "Ġhark": 8429,
    "displeasure": 23497,
    "Ġprec": 2919,
    "Ġlamentations": 17077,
    "Ġattendance": 12186,
    "Ġlabrador": 23334,
    "Ġgreeting": 18963,
    "rous": 3752,
    "tolerable": 17690,
    "soundest": 24796,
    "Ġassertions": 19950,
    "Ġreusable": 13561,
    "Ġregularity": 22775,
    "umps": 6319,
    "Ġweave": 21925,
    "Ġentitled": 8541,
    "edding": 4368,
    "Ġmarked": 4621,
    "Ġstuck": 9225,
    "Ġslumbers": 18944,
    "Ġar": 480,
    "Ġbenjam": 22892,
    "Ġcho": 4548,
    "unearthly": 19275,
    "cigar": 26125,
    "Ġdepths": 4327,
    "Ġvacuous": 24344,
    "burgh": 6774,
    "ension": 6572,
    "crimson": 24089,
    ".âĢĻâĢĿ": 6741,
    "Ġstature": 10865,
    "Ġirregular": 9868,
    "Ġcanal": 8182,
    "continuance": 19721,
    "rote": 4593,
    "invite": 25091,
    "Ġeag": 2969,
    "highly": 24763,
    "Ġdefici": 22946,
    "Ġreve": 2934,
    "hollow": 24043,
    "Ġwaits": 23281,
    "Ġjeopard": 9946,
    "Ġbeaufort": 13572,
    "hus": 5072,
    "bermaid": 20792,
    "Ġdynamically": 4136,
    "Ġescorted": 23508,
    "Ġvaulted": 25171,
    "tawn": 21083,
    "Ġinterpreter": 23213,
    "numer": 15402,
    "Ġslippery": 12171,
    "acting": 22634,
    "pents": 11515,
    "Ġseems": 2480,
    "Ġextras": 22736,
    "Ġhappily": 9334,
    "Ġtreading": 16507,
    "individual": 18437,
    "Ġunacquainted": 12781,
    "Ġhangs": 11609,
    "friend": 3864,
    "Ġoverlooked": 15975,
    "Ġconceited": 12096,
    "Ġornam": 15868,
    "Ġchance": 3316,
    "Ġwitness": 4623,
    "bill": 10079,
    "Ġmasking": 2418,
    "Ġrobbery": 11924,
    "Ġuntil": 2665,
    "Ġequator": 7461,
    "Ġphysiognomically": 25613,
    "shunned": 22454,
    "varieties": 23190,
    "Ġenvironmental": 24161,
    "Ġender": 11694,
    "Ġvanished": 6874,
    "Ġcostume": 16497,
    "Ġbut": 424,
    "Ġembraced": 10009,
    "Ġscience": 1527,
    "Ġmeth": 1449,
    "falling": 24361,
    "piteous": 21036,
    "ented": 4349,
    "Ġequals": 4728,
    "Ġflights": 24752,
    "Ġquitted": 5312,
    "âĢľ_": 5720,
    "Ġhist": 2441,
    "Ġlived": 3990,
    "Ġrehears": 15704,
    "balance": 12011,
    "Ġradiant": 16811,
    "isome": 17850,
    "Ġscrutin": 26015,
    "Ġignorance": 6621,
    "Ġadroop": 26002,
    "Ġjeroboam": 10603,
    "Ġcrust": 21354,
    "Ġgretna": 26470,
    "Ġconsistent": 14530,
    "Ġlanterns": 24578,
    "Ġcommunicates": 24547,
    "Ġspaniard": 20366,
    "Ġaim": 10148,
    "_.,": 14564,
    "Ġevident": 6614,
    "hunters": 16835,
    "neighbour": 7211,
    "Ġbeggar": 9352,
    "vital": 17702,
    "Ġretire": 10384,
    "Ġtuck": 10143,
    "Ġtresses": 21178,
    "Ġjudge": 5502,
    "Ġger": 21594,
    "Ġblank": 5952,
    "Ġrely": 8825,
    "Ġhesitated": 10005,
    "Ġbiases": 2395,
    "python": 4693,
    "Ġportion": 7492,
    "ays": 6685,
    "Ġacute": 16127,
    "Ġmelting": 24290,
    "Ġwest": 5219,
    "sake": 13786,
    "Ġimmediate": 6090,
    "Ġexper": 1282,
    "such": 3086,
    "longing": 23728,
    "dri": 5889,
    "ä": 165,
    "Ġarab": 7823,
    "Ġexclaiming": 13645,
    "alling": 6038,
    "Ġforeshadowing": 26594,
    "clim": 18932,
    "fine": 10093,
    "plendent": 21962,
    "Ġpipe": 4322,
    "utional": 17986,
    "Ġcaptioning": 23024,
    "----": 4056,
    "Ġcup": 5697,
    "Ġsplendid": 17216,
    "Ġ1846": 26085,
    "Ġdeceit": 13485,
    "Ġgidd": 25784,
    "Ġconjecture": 9535,
    "ĠĠĠĠĠĠĠĠĠĠĠĠĠĠĠĠĠĠĠĠĠĠĠĠĠĠĠĠĠĠĠĠĠĠ": 14616,
    "Ġsouls": 6310,
    "icing": 9203,
    "plain": 1359,
    "ver": 331,
    "Ġstooping": 13067,
    "Ġrods": 9757,
    "nowhere": 18419,
    "Ġcomprehensiveness": 25075,
    "Ġprincess": 23222,
    "ggling": 19098,
    "protection": 19922,
    "ographical": 16788,
    "Ġatonement": 21948,
    "cav": 17510,
    "lorious": 17594,
    "create": 24162,
    "Ġnarwhales": 24903,
    "Ġcoldness": 23762,
    "dÃ¦mon": 17529,
    "aches": 6571,
    "Ġpenetrate": 12274,
    "jolly": 20933,
    "Ġdiscussing": 5202,
    "Ġdissect": 16057,
    "Ġshall": 1142,
    "Ġadmits": 23556,
    "Ġvainly": 9927,
    "Ġtwelvemonth": 12182,
    "Ġrelish": 14387,
    "cher": 5786,
    "concluded": 11245,
    "Ġwithstand": 10228,
    "sit": 13783,
    "Ġcanes": 22167,
    "Ġprofession": 6209,
    "ĠĠĠĠĠĠĠĠĠĠĠĠĠĠĠĠĠĠĠĠĠĠĠĠĠĠĠĠĠĠ": 24443,
    "pleased": 8857,
    "Ġredness": 19313,
    "Ġter": 2051,
    "Ġsolitary": 5856,
    "Ġlonger": 3357,
    "Ġchances": 9266,
    "Ġhorribly": 16346,
    "Ġsord": 21222,
    "loved": 14253,
    "truth": 9922,
    "apside": 22965,
    "Ġmarry": 4418,
    "Ġprelimin": 8864,
    "spoutings": 25004,
    "Ġleader": 14705,
    "training": 2515,
    "Ġdeclining": 23967,
    "itement": 7835,
    "Ġcode": 1720,
    "oured": 2669,
    "Ġclasping": 20212,
    "Ġancient": 5443,
    "Ġgush": 10205,
    "Ġcritic": 19123,
    "liking": 22927,
    "Ġoutfits": 22325,
    "mbles": 23091,
    "Ġincreases": 3796,
    "Ġbloom": 9891,
    "ps": 4575,
    "90": 12436,
    "Ġxxii": 24478,
    "Ġadoption": 24951,
    "Ġmiser": 18704,
    "Ġbrimstone": 25687,
    "Ġinward": 11610,
    "bears": 22494,
    "Ġknowing": 4458,
    "teen": 6371,
    "seldom": 13790,
    "acknowledge": 18469,
    "Ġattics": 22624,
    "animation": 16981,
    "straight": 9943,
    "Ġrepe": 3280,
    "Ġauthors": 10418,
    "cab": 7333,
    "slowly": 9092,
    "choice": 21694,
    "other": 1313,
    "shaven": 18486,
    "Ġkrem": 9729,
    "Ġwhittingham": 26199,
    "Ġadm": 2399,
    "vinegar": 25421,
    "Ġshoot": 11163,
    "Ġpermission": 9282,
    "fiercely": 25257,
    "Ġjoist": 19233,
    "surely": 10572,
    "madly": 24420,
    "Ġdeclined": 9924,
    "Ġways": 5396,
    "unct": 18157,
    "Ġhappiest": 11886,
    "Ġrough": 7187,
    "sharpening": 22453,
    "Ġunden": 22017,
    "Ġhesitation": 13445,
    "Ġinjured": 9042,
    "marching": 25753,
    "Ġsaloon": 24065,
    "sprang": 19994,
    "Ġpromontory": 11945,
    "thr": 12765,
    "Ġcologne": 12981,
    "Ġadopted": 15182,
    "ensions": 14264,
    "Ġnoisier": 4626,
    "gunwale": 20665,
    "Ġconceivable": 16615,
    "Ġmisunderstood": 18706,
    "entirely": 7782,
    "Ġvideo": 25366,
    "Ġlabyrinth": 13683,
    "Ġgrasped": 8034,
    "Ġprocedure": 2811,
    "olic": 14052,
    "pread": 7419,
    "Ġyellowish": 24430,
    "asters": 8435,
    "soo": 18684,
    "Ġcrimin": 6901,
    "counters": 25398,
    "Ġsoothing": 8173,
    "Ġcondescended": 19959,
    "ootiful": 17376,
    "Ġindisp": 18835,
    "Ġslacked": 25189,
    "Ġcoin": 9774,
    "Ġoffic": 3188,
    "full": 7420,
    "Ġoarsmen": 7738,
    "Ġwhit": 7178,
    "Ġinvestig": 10552,
    "olidity": 18143,
    "idation": 5022,
    "tal": 17672,
    "Ġtiles": 17728,
    "Ġagony": 5388,
    "marked": 9051,
    "Ġramad": 8530,
    "specific": 10500,
    "may": 3678,
    "Ġmade": 1049,
    "Ġcatches": 23429,
    "Ġlunging": 24992,
    "Ġz": 1000,
    "Ġswallows": 18884,
    "arranted": 19322,
    "Ġcrosswise": 18888,
    "Ġthreshold": 2810,
    "soever": 11863,
    "Ġbrook": 13053,
    "incredible": 16500,
    "|": 96,
    "Ġpersuasion": 10501,
    "Ġaz": 9632,
    "Ġwet": 6519,
    "Ġbeget": 9228,
    "ashes": 6017,
    "Ġsaddest": 16665,
    "Ġspectrum": 4475,
    "violent": 14582,
    "Ġexchanged": 10880,
    "chel": 11209,
    "vigorous": 25918,
    "Ġheron": 22077,
    "Ġjewel": 9945,
    "Ġatom": 18193,
    "ilight": 12698,
    "Ġnonsensical": 21532,
    "Ġurgent": 16871,
    "Ġacceler": 1605,
    "Ġres": 695,
    "Ġseverely": 14936,
    "Ġpleases": 16301,
    "Ġsnapping": 19302,
    "Ġequilib": 4133,
    "pretend": 24883,
    "Ġmer": 2931,
    "burned": 25082,
    "bb": 2800,
    "Ġbreak": 2868,
    "atiously": 15525,
    "exercise": 17462,
    "Ġlingo": 24904,
    "steep": 19422,
    "Ġgoney": 14546,
    "Ġexcessive": 3893,
    "acetty": 24464,
    "Ġrumbling": 18214,
    "Ġrich": 2995,
    "Ġmexic": 14034,
    "Ġexec": 19495,
    "Ġrickety": 26508,
    "Ġstur": 15724,
    "leg": 2815,
    "Ġdived": 9180,
    "Ġinfer": 7684,
    "Ġbrought": 2514,
    "Ġlikely": 3596,
    "leave": 7837,
    "Ġunmanufactured": 20437,
    "Ġargument": 7100,
    "Ġresolved": 3798,
    "Ġdash": 8122,
    "ested": 3477,
    "Ġvision": 1531,
    "Ġaccountability": 10440,
    "Ġexotic": 21835,
    "Ġwept": 7184,
    "Ġshot": 4545,
    "Ġhow": 596,
    "Ġbarrow": 12074,
    "))": 1515,
    "Ġsearch": 2588,
    "possessed": 9531,
    "met": 6655,
    "wear": 22686,
    "Ġchuckled": 10650,
    "fact": 6360,
    "Ġlids": 12280,
    "Ġcontemplated": 13468,
    "Ġexplore": 15912,
    "transp": 24512,
    "Ġflag": 7242,
    "inian": 21185,
    "seeing": 7080,
    "Ġmen": 1434,
    "Ġburgl": 13177,
    "Ġparadigms": 3060,
    "aves": 3598,
    "royal": 11395,
    "°": 113,
    "Ġdrugged": 12607,
    "pennies": 26287,
    "Ġoutskirts": 17460,
    "Ġdevote": 10341,
    "Ġhaughty": 11451,
    "Ġmont": 8562,
    "Ġpoultry": 17444,
    "Ġcemeteries": 26377,
    "instant": 8655,
    "Ġrepulses": 26071,
    "Ġrescales": 5068,
    "Ġjavan": 25000,
    "landed": 18957,
    "Ġreasons": 6021,
    "jep": 20928,
    "Ġearn": 3546,
    "hest": 3367,
    "remediable": 26296,
    "Ġordin": 16653,
    "crucible": 24843,
    "Ġsword": 6734,
    "Ġmemory": 2272,
    "Ġneedless": 19231,
    "Ġdissip": 10994,
    "Ġunobserved": 18250,
    "Ġslop": 23166,
    "scale": 3534,
    "inquire": 16934,
    "Ġpork": 21459,
    "Ġpovels": 22596,
    "whalebone": 19120,
    "Ġener": 10898,
    "butter": 11789,
    "Ġge": 1980,
    "ation": 320,
    "Ġindign": 6175,
    "Ġsumm": 3353,
    "yp": 1044,
    "iant": 5427,
    "Ġsuperb": 16444,
    "Ġnoses": 18373,
    "oblig": 16294,
    "warp": 17708,
    "Ġconfusing": 23309,
    "Ġalongside": 6313,
    "Ġmend": 8407,
    "Ġinsists": 23678,
    "meal": 22714,
    "ca": 20795,
    "mere": 11859,
    "ease": 12462,
    "increase": 20271,
    "Ġresignation": 18567,
    "aud": 8524,
    "Ġsummoned": 9914,
    "Ġplaster": 16088,
    "brit": 19199,
    "Ġslopes": 18943,
    "Ġoldest": 12979,
    "Ġprivate": 5346,
    "Ġcoach": 6868,
    "Ġwarn": 5695,
    "Ġgrope": 17997,
    "Ġblocked": 19224,
    "Ġbarrens": 25502,
    "Ġunguarded": 15854,
    "Ġfrighted": 24032,
    "Ġthought": 1093,
    "Ġgirls": 4281,
    "pate": 21012,
    "Ġungracious": 18259,
    "liberal": 26283,
    "Ġdeliriously": 23230,
    "Ġgazing": 5877,
    "gall": 6361,
    "Ġenhance": 3018,
    "Ġste": 1390,
    "Ġspaniards": 25556,
    "Ġspears": 12929,
    "langu": 4808,
    "vity": 7815,
    "Ġcyn": 13889,
    "Ġsame": 1341,
    "rot": 21535,
    "why": 2830,
    "Ġwasting": 12733,
    "acled": 16067,
    "Ġfist": 21407,
    "actually": 14300,
    "ill": 446,
    "Ġribs": 7103,
    "50": 6785,
    "Ġferguson": 17472,
    "Ġmystical": 12137,
    "guessed": 25873,
    "Ġreferences": 21677,
    "Ġorganizations": 12318,
    "Ġcuff": 17831,
    "iz": 365,
    "strangers": 20339,
    "Ġprovidence": 18747,
    "Ġarsacides": 17297,
    "Ġsentiments": 7961,
    "Ġgradu": 15836,
    "Ġrepent": 9866,
    "Ġpowers": 5419,
    "superst": 11327,
    "astonished": 15035,
    "Ġluckily": 16800,
    "Ġnation": 12652,
    "Ġbur": 2695,
    "Ġconsisting": 8974,
    "Ġepistle": 24905,
    "jure": 20926,
    "epend": 3313,
    "Ġanimation": 11154,
    "Ġnourishment": 15196,
    "Ġneighb": 14077,
    "Ġconsummation": 17428,
    "venge": 4660,
    "Ġcage": 17827,
    "Ġsee": 804,
    "Ġpreliminaries": 25177,
    "hills": 13739,
    "Ġenvirons": 13210,
    "Ġphysi": 9991,
    "thrasher": 25659,
    "ateur": 22012,
    "Ġincommunicable": 26613,
    "oundering": 11750,
    "arking": 16129,
    "Ġstacks": 18080,
    "tart": 21070,
    "aloons": 20014,
    "Ġclap": 10959,
    "functions": 11236,
    "ppers": 7618,
    "Ġplat": 8523,
    "Ġsymbols": 2796,
    "ousand": 2427,
    "bohem": 19002,
    "Ġoccurrence": 14385,
    "Ġdelay": 5748,
    "Ġmagnificent": 9845,
    "Ġcentrally": 23835,
    "Ġexultation": 15175,
    "Ġtide": 6661,
    "pred": 2802,
    "Ġshelf": 12272,
    "ening": 3107,
    "Õ": 150,
    "Ġobstin": 14956,
    "Ġelusive": 22650,
    "Ġsecretly": 13276,
    "deduction": 23670,
    "extrem": 18710,
    "Ġnarrative": 6217,
    "Ġcasks": 7521,
    "Ġsimulates": 2737,
    "befall": 22499,
    "Ġdestro": 3721,
    "olerably": 11679,
    "gether": 1593,
    "ais": 8071,
    "ucumber": 19060,
    "Ġthem": 639,
    "Ġtrousers": 12419,
    "Ġimagination": 5759,
    "ben": 4927,
    "Ġcrown": 5289,
    "Ġborne": 6353,
    "Ġshrouds": 11346,
    "Ġhermit": 15861,
    "Ġdraughts": 20224,
    "humorously": 24023,
    "Ġbarbaric": 10017,
    "Ġapartment": 6636,
    "wreat": 21130,
    "onical": 21256,
    "Ġlangu": 573,
    "Ġarm": 2490,
    "Ġboldly": 9504,
    "Ġsepul": 14093,
    "Ġdiction": 8799,
    "Ġslates": 11108,
    "unders": 13315,
    "Ġmotioned": 19595,
    "Ġinfluence": 5515,
    "annica": 24562,
    "accepted": 20139,
    "Ġswung": 6450,
    "Ġrequiring": 2921,
    "Ġstruggling": 12079,
    "rudent": 6483,
    "cad": 17507,
    "Ġphiladelphia": 26606,
    "Ġstrait": 23752,
    "Ġfourth": 7707,
    "Ġuttermost": 19491,
    "lucky": 24545,
    "Ġbackbones": 22663,
    "Ġnasty": 17446,
    "iogn": 20924,
    "illuminated": 17456,
    "Ġbound": 3517,
    "Ġscornful": 24999,
    "Ġquarrelling": 13502,
    "Ġemergencies": 17365,
    "Ġcorpore": 13405,
    "bordered": 17501,
    "Ġadam": 2126,
    "irably": 13300,
    "ĠlinnÃ¦us": 15279,
    "Ġ32": 19492,
    "Ġmalacca": 24393,
    "Ġsix": 3048,
    "Ġretiring": 16284,
    "Ġcaulk": 25441,
    "Ġsil": 1796,
    "Ġounce": 15276,
    "Ġmonstrous": 7790,
    "actions": 8910,
    "Ġconsequence": 5542,
    "ump": 2281,
    "Ġwrote": 5011,
    "Ġstrugg": 3217,
    "Ġpeep": 6870,
    "Ġexhausted": 8697,
    "Ġstung": 21745,
    "Ġmachines": 1774,
    "Ġequinox": 25856,
    "tt": 13793,
    "Ġbloodthirsty": 26603,
    "Ġtell": 1467,
    "Ġthere": 564,
    "Ġwiping": 25766,
    "umbs": 14692,
    "Ġaunt": 3178,
    "Ġruss": 18720,
    "Ġprotect": 6339,
    "Ġlesson": 7276,
    "Ġwives": 12560,
    "Ġdisquis": 22531,
    "Ġsorrowful": 10539,
    "concluding": 19484,
    "mbl": 5947,
    "Ġconfine": 14512,
    "Ġbegone": 11920,
    "Ġhovers": 19078,
    "Ġharsh": 9524,
    "civilized": 17076,
    "Ġfallen": 5969,
    "affold": 16565,
    "Ġoutline": 15958,
    "description": 11096,
    "Ġoptim": 789,
    "Ġunduly": 25995,
    "Ġ177": 13416,
    "Ġhighlands": 22777,
    "story": 9215,
    "mont": 19171,
    "Ġfath": 7364,
    "Ġmott": 17805,
    "Ġilluminate": 17195,
    "Ġvagueness": 25738,
    "Ġcreative": 9833,
    "atre": 17772,
    "reporting": 24494,
    "Ġstationary": 19697,
    "Ġsolomon": 11054,
    "Ġmouth": 3181,
    "Ġ36": 14771,
    "nam": 2778,
    "kings": 17585,
    "noticed": 14345,
    "Ġforgetfulness": 14608,
    "Ġoffering": 3009,
    "Ġcul": 17824,
    "Ġfr": 1694,
    "Ġgoverness": 8605,
    "Ġrepair": 11983,
    "dr": 6223,
    "Ġtickets": 17095,
    "access": 11182,
    "mists": 17606,
    "Ġmind": 1615,
    "Ġabide": 14190,
    "Ġbrides": 22867,
    "tawny": 26406,
    "touched": 15442,
    "Ġteased": 18802,
    "Ġholder": 6726,
    "alse": 4185,
    "Ġyer": 15736,
    "turkish": 24533,
    "Ġforetold": 23452,
    "composure": 24037,
    "eronomy": 15528,
    "Ġreceptive": 1563,
    "rese": 15511,
    "Ġschooner": 16749,
    "Ġlistening": 6320,
    "fits": 13721,
    "Ġ98": 24594,
    "Ġacquirement": 19257,
    "Ġvictim": 6099,
    "ispens": 8336,
    "Ġweaving": 12745,
    "Ġhailing": 11697,
    "above": 8148,
    "Ġunscrew": 22044,
    "Ġlights": 8963,
    "Ġadieu": 10054,
    "Ġ18": 3406,
    "âĢĻ-": 18169,
    "Ġsuffice": 18871,
    "Ġcalms": 23046,
    "yielded": 25757,
    "Ġnerves": 2624,
    "beth": 13692,
    "Ġvacantly": 16817,
    "ifting": 6547,
    "Ġsharing": 3475,
    "erity": 21270,
    "perishing": 22190,
    "ividually": 22085,
    "Ġcrammed": 16473,
    "Ġsimpler": 2048,
    "Ġalleg": 14020,
    "Ġtaste": 5524,
    "etimes": 1989,
    "Ġmiracle": 15097,
    "heedful": 20576,
    "Ġshoe": 14569,
    "Ġmaterially": 12196,
    "Ġentreaty": 10532,
    "Ġgleamed": 17078,
    "Ġsketch": 16169,
    "Ġflaming": 8567,
    "Ġemployed": 5200,
    "Ġbequeathed": 20704,
    "addition": 13388,
    "Ġswerve": 14440,
    "arken": 18668,
    ".}": 20747,
    "doubted": 17528,
    "Ġconfused": 7964,
    "Ġdrawing": 3918,
    "expense": 22433,
    "leviathan": 7785,
    "Ġcakes": 13887,
    "reduc": 5459,
    "Ġleisurely": 24745,
    "Ġpatroness": 13513,
    "Ġvarieties": 14313,
    "addressing": 24401,
    "Ġharbors": 24902,
    "Ġpathetic": 19032,
    "sand": 21055,
    "Ġ12": 5483,
    "Ġforgo": 21780,
    "Ġdisputes": 25826,
    "off": 1887,
    "Ġmiserably": 12953,
    "claimed": 9839,
    "Ġcarelessly": 11122,
    "Ġsalted": 14759,
    "Ġpractises": 23330,
    "frame": 17117,
    "slipping": 25529,
    "acknowledged": 15206,
    "»": 124,
    "Ġvesuvius": 26503,
    "Ġstability": 1364,
    "Ġ73": 24263,
    "Ġfing": 3757,
    "Ġblunt": 11898,
    "Ġangle": 8606,
    "ollen": 11300,
    "upt": 13801,
    "Ġenhancement": 23756,
    "eaten": 20347,
    "endous": 6850,
    "Ġeffected": 14357,
    "significant": 25085,
    "Ġgrinning": 9056,
    "Ġroasted": 18461,
    "Ġdriving": 3617,
    "Ġvulgar": 13608,
    "Ġsenior": 17174,
    "Ġferrule": 24500,
    "Ġcomparative": 10545,
    "Ġuninjured": 22060,
    "Ġchristians": 13313,
    "Ġmajest": 24063,
    "icirc": 15660,
    "nlp": 8754,
    "fere": 10991,
    "iscuits": 24667,
    "Ġfresher": 23210,
    "Ġattended": 5391,
    "bask": 20778,
    "Ġspangled": 22139,
    "Ġprison": 5403,
    "Ġhalloa": 13321,
    "Ġbias": 1191,
    "blo": 6355,
    "oil": 7805,
    "Ġspleen": 26423,
    "solution": 14688,
    "Ġtexel": 25924,
    "Ġfad": 17878,
    "Ġrestrictions": 20638,
    "Ġdegener": 14050,
    "Ġpuffs": 14979,
    "ston": 15687,
    "Ġglowing": 12287,
    "Ġepidemic": 20698,
    "Ġbroods": 23105,
    "Ġmatch": 4530,
    "Ġglimpse": 6944,
    "avish": 22598,
    "Ġabsolut": 3911,
    "Ġdow": 17888,
    "enorm": 17783,
    "Ġivory": 4477,
    "Ġlandlessness": 23383,
    "Ġstrife": 18614,
    "_âĢĶâĢĻâĢĿ": 25742,
    "Ġloathed": 15879,
    "Ġforenoon": 19127,
    "Ġsurround": 4619,
    "Ġjing": 15953,
    "Ġolder": 9330,
    "isen": 10794,
    "Ġdeeper": 2084,
    "Ġruled": 22790,
    "admitted": 18094,
    "Ġglacier": 11435,
    "green": 7117,
    "vi": 2373,
    "remote": 23193,
    "matic": 4620,
    "Ġearthly": 7990,
    "Ġlengthwise": 10454,
    "Ġbaby": 6639,
    "Ġcounties": 23305,
    "Ġinglorious": 24424,
    "Ġcaves": 15558,
    "Ġtemporarily": 11169,
    "combe": 7661,
    "Ġbillows": 7502,
    "Ġcombing": 22854,
    "Ġbleeding": 14883,
    "Ġtracing": 18891,
    "Ġhither": 4760,
    "Ġedinburgh": 16459,
    "possess": 5985,
    "withstand": 23028,
    "Ġcreditor": 24292,
    "Ġbeckoned": 25794,
    "Ġcousin": 3704,
    "itia": 11582,
    "Ġparmacetti": 20607,
    "fic": 20854,
    "suspended": 15181,
    "@": 36,
    "Ġmarvellous": 7538,
    "Ġdeer": 12725,
    "subjects": 19878,
    "Ġrolls": 8334,
    "Ġstim": 18069,
    "Ġdocument": 15021,
    "Ġperpendicular": 7209,
    "Ġbra": 3255,
    "Ġdescribed": 6608,
    "eur": 7545,
    "Ġnorthern": 7265,
    "Ġsubtile": 20383,
    "maintained": 25023,
    "Ġancestors": 25643,
    "inridge": 11563,
    "animated": 14978,
    "Ġhanged": 17927,
    "Ġfiltering": 23930,
    "elson": 16374,
    "Ġtrifled": 24675,
    "ted": 791,
    "Ġperformance": 1306,
    "Ġconstitutional": 25128,
    "Ġtargets": 4204,
    "Ġyour": 634,
    "specim": 23947,
    "Ġhandle": 3138,
    "dorff": 15241,
    "will": 1971,
    "Ġflorida": 20661,
    "going": 6315,
    "Ġfordham": 21783,
    "Ġthousands": 6750,
    "Ġendeavor": 16547,
    "Ġ26": 10472,
    "ople": 2316,
    "Ġtreachery": 15105,
    "Ġfought": 12598,
    "portuguese": 25414,
    "tained": 4406,
    "Ġhed": 7387,
    "Ġseizure": 21968,
    "Ġpoul": 15617,
    "Ġbuoyed": 20044,
    "icted": 5938,
    "Ġiroquois": 26472,
    "shutters": 20314,
    "Ġretention": 23073,
    "tubes": 25212,
    "Ġcurtain": 14423,
    "alous": 7372,
    "Ġminim": 1322,
    "accounted": 16504,
    "rets": 12546,
    "erted": 7361,
    "Ġdocuments": 10026,
    "iet": 1772,
    "Ġcompensated": 17404,
    "Ġaristotle": 25818,
    "Ġbower": 15571,
    "Ġerected": 12238,
    "aways": 15314,
    "Ġimpenit": 22388,
    "ph": 937,
    "sus": 6230,
    "Ġremembered": 5277,
    "aphs": 22340,
    "future": 13720,
    "Ġresulting": 24201,
    "othed": 16513,
    "Ġcrockery": 24303,
    "gracious": 11835,
    "corrupt": 14898,
    "Ġfoster": 18992,
    "Ġhorr": 3191,
    "vitality": 20482,
    "Ġexquis": 9702,
    "Ġperiod": 4003,
    "Ġphiladel": 23888,
    "shot": 2109,
    "Ġcast": 3605,
    "Ġcontrary": 5261,
    "stript": 21660,
    "pent": 3491,
    "Ġtho": 21517,
    "Ġnobler": 14176,
    "Ġmoonshine": 19600,
    "canallers": 22969,
    "ion": 296,
    "Ġgallon": 24187,
    "Ġphysiology": 25333,
    "Ġsorrow": 4630,
    "somerset": 26324,
    "Ġdishes": 16054,
    "Ġcelebrate": 26359,
    "fee": 12885,
    "searching": 25106,
    "Ġfuriously": 9805,
    "Ġrotation": 25475,
    "Ġadhering": 14145,
    "fabulous": 20477,
    "Ġfatig": 6758,
    "Ġgrapple": 25812,
    "little": 3349,
    "surprising": 16921,
    "Ġrounding": 16279,
    "Ġtw": 839,
    "Ġfasten": 11134,
    "Ġoscill": 2857,
    "mand": 3895,
    "...": 24549,
    "pause": 12505,
    "Ġastonished": 7089,
    "reception": 15517,
    "Ġhack": 12761,
    "Ġecon": 9680,
    "cept": 549,
    "Ġpumps": 8428,
    "Ġcultivated": 17367,
    "Ġcarrying": 6073,
    "Ġpreposter": 12827,
    "Ġprecip": 7076,
    "Ġital": 10868,
    "Ġgrie": 3582,
    "etics": 21584,
    "Ġyes": 2685,
    "relations": 14736,
    "Ġfurs": 18741,
    "Ġdoubly": 16392,
    "Ġfixedly": 19249,
    "atigable": 15274,
    "Ġheavenly": 12089,
    "Ġmental": 21322,
    "Ġgunwale": 7325,
    "fted": 9121,
    "Ġswiss": 18883,
    "Ġcir": 21344,
    "Ġdogs": 7742,
    "Ġpond": 13919,
    "Ġbecoming": 4398,
    "Ġunche": 23431,
    "Ġslaughter": 20732,
    "responsible": 25764,
    "tains": 10964,
    "Ġcontinued": 2922,
    "decan": 22145,
    "Ġinterval": 4052,
    "Ġarrested": 9563,
    "Ġunseasonable": 26522,
    "cream": 15334,
    "Ï": 144,
    "Ġinflamed": 13477,
    "Ġinjunctions": 24272,
    "Ġprotested": 9937,
    "Ġplough": 18610,
    "Ġdegrees": 7294,
    "Ġwaylaid": 22874,
    "Ġclosely": 6489,
    "iop": 20921,
    "Ġasks": 5115,
    "Ġphilipses": 24452,
    "wart": 17707,
    "tedious": 22636,
    "laughed": 20284,
    "sneezes": 11448,
    "conside": 9293,
    "Ġheated": 21685,
    "Ġmortifying": 13249,
    "stad": 7598,
    "ilogue": 21728,
    "Ġbehaves": 23302,
    "Ġshops": 22005,
    "Ġanguish": 5584,
    "iners": 4937,
    "Ġju": 10289,
    "Ġabst": 9269,
    "recovered": 19790,
    "Ġamours": 22485,
    "tranquillity": 20549,
    "ace": 717,
    "Ġattorney": 18620,
    "urre": 10858,
    "Ġfl": 1279,
    "Ġacknowledges": 24689,
    "Ġconduct": 3732,
    "Ġlongitude": 11013,
    "Ġbillow": 14784,
    "coarse": 16489,
    "Ġpouring": 12629,
    "Ġhush": 13215,
    "revolver": 25628,
    "boscombe": 26122,
    "Ġevalu": 3006,
    "uning": 1311,
    "poled": 22910,
    "Ġreappeared": 21668,
    "Ġforthwith": 16620,
    "Ġwhirlp": 16965,
    "pointed": 9811,
    "stir": 12678,
    "ambition": 13415,
    "ct": 309,
    "gaff": 20884,
    "Ġardu": 22187,
    "Ġcrawl": 11377,
    "elopement": 23137,
    "Ġlimber": 16481,
    "Ġcastaways": 19431,
    "including": 23592,
    "ues": 2080,
    "Ġtablets": 13159,
    "belonged": 25598,
    "Ġserpentine": 11362,
    "widely": 25344,
    "Ġ94": 17719,
    "influ": 9544,
    "Ġassign": 11111,
    "Ġspaces": 3113,
    "homage": 25617,
    "Ġfortun": 4982,
    "Ġberths": 20118,
    "brary": 5755,
    "Ġreminding": 19800,
    "Ġagricultural": 26552,
    "Ġscra": 5841,
    "du": 605,
    "Ġwarsaw": 26168,
    "Ġgenuine": 14888,
    "Ġfrequently": 4681,
    "Ġrestricted": 19027,
    "Ġhousings": 21496,
    "Ġglobular": 19011,
    "Ġbooks": 4677,
    "Ġthyself": 6604,
    "rages": 15685,
    "Ġscowl": 22289,
    "Ġmother": 2068,
    "jets": 20930,
    "versed": 9828,
    "Ġpowder": 11277,
    "characteristic": 24686,
    "considerably": 13449,
    "Ġmastiff": 23727,
    "unfortunate": 15781,
    "Ġquestioning": 10465,
    "Ġdimension": 3241,
    "ezing": 10576,
    "Ġdoorway": 14499,
    "Ġsalary": 13298,
    "Ġmorrow": 9345,
    "inous": 8776,
    "appetite": 22847,
    "canst": 22966,
    "leeward": 15214,
    "sweet": 8689,
    "irene": 15917,
    "renew": 24450,
    "Ġcompany": 3720,
    "Ġlaudanum": 20693,
    "Ġdistinguished": 8273,
    "Ġpled": 17907,
    "Ġcompanies": 14559,
    "grow": 10101,
    "Ý": 158,
    "amp": 2604,
    "Ġgaze": 6932,
    "Ġdetained": 18387,
    "Ġorders": 5341,
    "Ġgoethe": 22428,
    "Ġmccarthy": 5145,
    "Ġharp": 17926,
    "Ġwords": 1323,
    "Ġexceptionable": 25504,
    "Ġtim": 4579,
    "Ġdey": 11677,
    "Ġconcocted": 26300,
    "Ġunfulfilled": 26511,
    "hatherley": 17570,
    "Ġfurious": 10356,
    "pronounce": 25193,
    "Ġdescend": 7427,
    "Ġbizarre": 17873,
    "are": 637,
    "Ġfashioned": 13325,
    "Ġ57": 24321,
    "rippa": 11343,
    "Ġtugged": 17291,
    "Ġemperors": 15163,
    "Ġwildest": 16512,
    "oot": 13768,
    "Ġ67": 19663,
    "Ġavowed": 16636,
    "entreat": 17978,
    "Ġsucceeded": 6107,
    "Ġfootmen": 23800,
    "Ġprodigiously": 14935,
    "cer": 6645,
    "Ġpawnbroker": 13662,
    "Ġ14": 9326,
    "Ġaccomplice": 24376,
    "Ġdepose": 22599,
    "rubbery": 17345,
    "bs": 3776,
    "ousness": 10277,
    "Ġtoilings": 24741,
    "Ġawait": 17074,
    "ilations": 21725,
    "Ġcarr": 23093,
    "Ġrover": 18457,
    "remained": 8573,
    "Ġsupers": 18280,
    "sil": 5283,
    "iftings": 23223,
    "Ġsnar": 13202,
    "Ġsituations": 10494,
    "Ġbenefactor": 14700,
    "jam": 15375,
    "isles": 15568,
    "asted": 4651,
    "Ġoffing": 16143,
    "Ġsmiles": 6708,
    "Ġsubordinate": 18723,
    "Ġpull": 5152,
    "terday": 4706,
    "gratitude": 16818,
    "ref": 6516,
    "cond": 1664,
    "Ġdevoid": 18681,
    "Ġduodecimo": 16769,
    "Ġadvancing": 6879,
    "Ġinstructive": 19287,
    "Ġpitchpoling": 14914,
    "lins": 2027,
    "Ġcontextual": 3741,
    "Ġsaved": 6692,
    "Ġwrapt": 24596,
    "Ġdams": 16457,
    "Ġduplicates": 17219,
    "Ġopium": 8997,
    "Ġalco": 21786,
    "merchant": 10469,
    "¥": 103,
    "Ġflames": 7940,
    "unction": 10237,
    "Ġsheeted": 19834,
    "ten": 1557,
    "Ġlearnt": 7613,
    "Ġvint": 18195,
    "rained": 5162,
    "Ġstrolled": 16772,
    "Ġdiscomp": 11870,
    "Ġlaws": 8003,
    "Ġshrieking": 24757,
    "ositions": 10286,
    "000": 2559,
    "Ġvineyarder": 25607,
    "Ġcaress": 16343,
    "Ġreserved": 7515,
    "Ġdisclose": 16160,
    "Ġwrath": 16321,
    "Ġsheaves": 22162,
    "Ġalleys": 25979,
    "Ġenvelope": 7319,
    "okers": 18447,
    "Ġaccused": 8510,
    "Ġrepugnant": 26592,
    "Ġdeprec": 15760,
    "Ġmercy": 9000,
    "Ġintroducing": 11980,
    "Ġrevelations": 25224,
    "Ġendeavors": 16548,
    "Ġsyllables": 25299,
    "Ġ1820": 25718,
    "lux": 14228,
    "Ġ[\"": 19933,
    "Ġfurled": 22817,
    "hairs": 20906,
    "eth": 619,
    "Ġunsub": 22027,
    "Ġscript": 18399,
    "mense": 4781,
    "Ġmitt": 21310,
    "Ġempires": 19075,
    "Ġembarrassment": 10629,
    "Ġtravelled": 7772,
    "Ġbestowing": 16973,
    "sham": 9760,
    "Ġlump": 21555,
    "sort": 6799,
    "Ġdefe": 21838,
    "host": 5869,
    "missed": 11211,
    "ravity": 21638,
    "Ġdong": 17889,
    "fixedly": 24930,
    "worm": 15456,
    "Ġbos": 4876,
    "Ġven": 4649,
    "Ġextraction": 11254,
    "impe": 21711,
    "Ġquery": 2478,
    "wretched": 10743,
    "reserve": 17767,
    "Ġspoutings": 14678,
    "Ġtenants": 23549,
    "Ġdummy": 25450,
    "start": 7599,
    "Ġpertaining": 18450,
    "Ġfearful": 6199,
    "Ġblanket": 8343,
    "Ġsepulchral": 25893,
    "ogne": 12945,
    "_--": 20764,
    "uous": 4143,
    "Ġbred": 9172,
    "erpillar": 5798,
    "Ġflattened": 26048,
    "Ġunder": 1634,
    "respond": 12549,
    "stun": 18021,
    "minded": 9040,
    "nets": 9135,
    "Ġporpoises": 13386,
    "Ġweight": 658,
    "Ġphase": 14474,
    "Ġbundles": 26176,
    "monkey": 19172,
    "Ġwines": 21290,
    "Ġcalculated": 4476,
    "ĠĠĠĠĠĠĠĠĠĠĠĠĠĠĠĠĠĠĠĠĠĠĠĠĠĠĠĠĠĠĠ": 19703,
    "Ġdaugh": 2291,
    "Ġboston": 22641,
    "Ġarchly": 22783,
    "ansion": 10927,
    "Ġmust": 842,
    "algorithms": 8293,
    "Ġbucket": 8792,
    "Ġasylum": 13670,
    "Ġmove": 5107,
    "collins": 6916,
    "Ġgiver": 21608,
    "Ġgamming": 25543,
    "rimin": 2421,
    "Ġart": 747,
    "abriel": 6950,
    "returning": 12210,
    "cherish": 24552,
    "Ġjungfrau": 15252,
    "Ġdiscompose": 25580,
    "Ġuse": 858,
    "atious": 10154,
    "Ġprinc": 4199,
    "Ġheal": 21684,
    "gling": 10100,
    "Ġclimes": 12845,
    "Ġplead": 14458,
    "oon": 6366,
    "Ġplucked": 15117,
    "deepest": 22851,
    "tried": 13797,
    "member": 20977,
    "ington": 21304,
    "irements": 22214,
    "Ġsmith": 16071,
    "Ġspiced": 22137,
    "Ġsermons": 20197,
    "Ġpropag": 16351,
    "Ġsteps": 2863,
    "ancholy": 5070,
    "Ġexpressions": 7706,
    "Ġcorpse": 6641,
    "Ġwine": 6811,
    "Ġnurtured": 19752,
    "aract": 17896,
    "four": 6115,
    "calabash": 22897,
    "commanding": 24751,
    "Ġconstrain": 2625,
    "Ġgour": 21601,
    "Ġunlikely": 10910,
    "waiting": 12225,
    "ulled": 14059,
    "Ġdevoured": 16139,
    "Ġdepartments": 24245,
    "Ġwrig": 13073,
    "Ġdecorum": 16028,
    "Ġlizz": 21560,
    "Ġjurors": 17347,
    "compassion": 12372,
    "Ġultimate": 12353,
    "Ġharder": 14452,
    "stump": 21656,
    "Ġscheming": 23273,
    "Ġstrata": 26028,
    "Ġlashings": 25100,
    "Ġletter": 2195,
    "kov": 17588,
    "Ġdistraction": 22509,
    "Ġmould": 6520,
    "urch": 3993,
    "indebted": 26159,
    "elves": 2157,
    "Ġadvances": 13001,
    "ctors": 21593,
    "Ġtension": 13827,
    "Ġpromising": 10402,
    "Ġdrifted": 14627,
    "Ġfielding": 16229,
    "aced": 2414,
    "Ġdecaying": 2245,
    "Ġdistricts": 20266,
    "Ġchoked": 9267,
    "sat": 4811,
    "fair": 10095,
    "Ġoce": 3034,
    "Ġspur": 18304,
    "Ġplanisp": 24060,
    "ipped": 5790,
    "malicious": 19904,
    "duck": 22416,
    "Ġteach": 8555,
    "Ġoccupation": 9934,
    "Ġpatriot": 23299,
    "Ġfeedback": 23435,
    "part": 2572,
    "Ġgases": 21605,
    "horrible": 14602,
    "Ġpaused": 5416,
    "Ġgulp": 20032,
    "Ġwithout": 1121,
    "Ġcreat": 1403,
    "Ġspermacetti": 19051,
    "Ġlaz": 7378,
    "Ġmarried": 3408,
    "Ġtimbers": 14842,
    "telesc": 22821,
    "Ġupwards": 7634,
    "Ġsupposition": 9820,
    "Ġaccurate": 13273,
    "Ġjewelled": 20186,
    "cement": 2759,
    "Ġmaled": 21317,
    "Ġpupils": 20424,
    "Ġ19": 6721,
    "Ġbiggest": 24567,
    "insist": 23066,
    "gu": 3956,
    "wondered": 17118,
    "Ġparasol": 22125,
    "Ġlords": 14643,
    "destruction": 11257,
    "usive": 8192,
    "Ġblue": 3453,
    "wn": 720,
    "ribbed": 16416,
    "Ġtheory": 5799,
    "Ġnodes": 1970,
    "Ġconvulsively": 25716,
    "Ġrespectable": 6738,
    "unned": 21882,
    "Ġrefine": 2885,
    "Ġaffronted": 22893,
    "Ġmug": 21315,
    "cons": 4310,
    "Ġscratching": 20372,
    "Ġprosecution": 12385,
    "resolved": 9642,
    "both": 5785,
    "rabbit": 20594,
    "Ġperu": 14225,
    "conc": 3947,
    "uits": 21107,
    "Ġrusty": 14967,
    "Ġdirest": 22708,
    "Ġbestirred": 20454,
    "Ġshape": 5639,
    "Ġburning": 5978,
    "fireside": 24693,
    "Ġunsav": 18252,
    "Ġinjunction": 19620,
    "ĠâĢľ_": 6698,
    "Ġscream": 5936,
    "Ġsociable": 19407,
    "Ġamphitheat": 26253,
    "adays": 14016,
    "Ġghosts": 12237,
    "wish": 8100,
    "Ġbeg": 1281,
    "Ġstaring": 8830,
    "nerable": 16280,
    "Ġqueer": 4479,
    "shaped": 10310,
    "conqu": 14247,
    "aved": 5476,
    "Ġsentiment": 6591,
    "Ġpersonified": 19180,
    "gang": 17555,
    "benevolent": 15237,
    "bbs": 23692,
    "Ġintrospective": 20603,
    "aloud": 17943,
    "Ġincorrupt": 19236,
    "prodig": 16430,
    "Ġfrankly": 16747,
    "Ġpleased": 4062,
    "Ġauthentic": 20538,
    "mp": 3726,
    "Ġuntamed": 19166,
    "Ġinoffensive": 21501,
    "yd": 21145,
    "Ġdisadvantages": 18559,
    "kers": 7134,
    "Ġcop": 7580,
    "clearly": 25196,
    "Ġwait": 4908,
    "Ġbubb": 12589,
    "Ġdeformed": 14049,
    "Ġwrecks": 16820,
    "Ġsw": 1357,
    "Ġjiff": 22300,
    "Ġland": 1998,
    "Ġpassed": 2011,
    "Ġfaults": 12217,
    "Ġband": 5292,
    "fulfil": 16039,
    "Ġsimilarly": 24310,
    "cob": 10089,
    "Ġhints": 8431,
    "Ġgarn": 13966,
    "Ġpassers": 18758,
    "Ġdismantled": 20219,
    "hint": 12480,
    "Ġgans": 5822,
    "Ġdecency": 18488,
    "trad": 21078,
    "Ġbrushed": 15575,
    "aring": 1476,
    "Ġhing": 11607,
    "mo": 863,
    "Ġboy": 3025,
    "Ġnoteworthy": 24165,
    "seems": 10877,
    "linging": 16085,
    "flukes": 25206,
    "naturalist": 23513,
    "Ġspit": 22128,
    "Ġsuperst": 7704,
    "Ġpicture": 4858,
    "til": 17673,
    "Ġcontains": 2792,
    "Ġsig": 867,
    "rawling": 21639,
    "Ġdiffers": 23784,
    "Ġwhim": 14002,
    "ounds": 4155,
    "uvier": 9071,
    "ittance": 12850,
    "Ġamput": 16037,
    "Ġclaps": 22351,
    "Ġentertain": 6055,
    "leagues": 21376,
    "Ġvisual": 5741,
    "Ġdecomp": 3811,
    "Ġinquir": 4243,
    "Ġhandsom": 11126,
    "prec": 3202,
    "Ġwrest": 11574,
    "Ġnautical": 17389,
    "float": 19808,
    "eddling": 11904,
    "ivation": 3112,
    "Ô": 149,
    "uming": 8494,
    "Ġmincer": 14369,
    "Ġnavigation": 9996,
    "Ġfriendly": 9823,
    "northern": 23666,
    "Ġprodigy": 19795,
    "Ġimagine": 3924,
    "Ġviolation": 23408,
    "Ġlard": 13950,
    "elve": 4643,
    "Ġflukes": 5267,
    "Y": 61,
    "lotts": 23829,
    "Ġconcre": 16393,
    "feeling": 6619,
    "Ġunde": 11716,
    "Ġproced": 2578,
    "Ġharpoon": 3616,
    "Ġhot": 4259,
    "Ġgeomet": 3192,
    "inked": 12918,
    "po": 1138,
    "onze": 21258,
    "Ġchorus": 10948,
    "Ġlimb": 9405,
    "isa": 17847,
    "Ġcaught": 3729,
    "comparatively": 25841,
    "Ġbow": 3064,
    "evil": 11488,
    "dry": 13707,
    "has": 4013,
    "whatever": 6696,
    "Ġincompetent": 25680,
    "Ġparticle": 18672,
    "Ġmorphology": 3012,
    "caterpillar": 26385,
    "Ġfet": 5808,
    "accordingly": 19215,
    "Ġcomprised": 14273,
    "urons": 3132,
    "Ġcarelessness": 13080,
    "Ġits": 706,
    "ductive": 23939,
    "Ġscept": 15506,
    "utmost": 21591,
    "Ġadventure": 5982,
    "orable": 8120,
    "play": 5099,
    "Ġknelt": 12163,
    "ack": 613,
    "Ġsurprising": 14599,
    "Ġirre": 7468,
    "Ġswells": 9830,
    "<MASK>": 4,
    "Ġprovinces": 24193,
    "Ġnewfoundland": 26571,
    "Ġdefinition": 14407,
    "Ġpossible": 2583,
    "Ġchildish": 13141,
    "oquent": 12504,
    "Ġthanking": 18604,
    "conveyed": 20524,
    "Ġjudging": 16597,
    "mercenary": 26316,
    "umnal": 18301,
    "Ġcoun": 4178,
    "Ġstrongest": 11137,
    "alo": 7588,
    "Ġchased": 8865,
    "Ġcalls": 6746,
    "mixed": 17607,
    "Ġmut": 3581,
    "properly": 24919,
    "Ġcasualty": 20344,
    "Ġextrem": 2473,
    "Ġsteady": 4849,
    "Ġsloping": 11943,
    "Ġabject": 18392,
    "Ġdisput": 14258,
    "streets": 13399,
    "Ġdeemed": 7612,
    "Ġstill": 1155,
    "Ġsequential": 2131,
    "Ġgovernesses": 25130,
    "Ġstupendous": 20504,
    "Ġbison": 21391,
    "Ġseek": 4509,
    "Ġsweetest": 13251,
    "Ġhoe": 23354,
    "Ġrefinement": 18696,
    "Ġdaunt": 19667,
    "irksome": 18175,
    "zar": 11550,
    "itoring": 21335,
    "Ġclapped": 9748,
    "mistake": 24529,
    "restoration": 23239,
    "illes": 12699,
    "ivial": 15863,
    "Ġusher": 22217,
    "Ġblushed": 13007,
    "Ġwilson": 6632,
    "Ġdisabled": 18562,
    "sn": 7140,
    "Ġlayers": 816,
    "ather": 738,
    "Ġforgive": 8010,
    "Ġram": 11014,
    "mind": 4628,
    "up": 1283,
    "Ġconsoling": 19460,
    "hoping": 17568,
    "ĠĠĠĠĠĠĠĠĠĠĠĠĠĠĠĠĠĠĠĠĠĠĠĠĠ": 24442,
    "och": 21003,
    "absence": 12713,
    "Ġscru": 8191,
    "listen": 13517,
    "Ġdominion": 16534,
    "Ġdil": 6384,
    "Ġpurch": 6601,
    "Ġinfernal": 11965,
    "Ġmaterials": 11290,
    "Ġconnexion": 11456,
    "Ġstagger": 10594,
    "Ġtahitian": 25428,
    "Ġmeridian": 25713,
    "Ġfreed": 7267,
    "Ġdelicate": 6481,
    "Ġsuggested": 8321,
    "phur": 16157,
    "rate": 2420,
    "Ġbalance": 2021,
    "mbling": 3343,
    "Ġcogent": 14279,
    "Ġreminisc": 18727,
    "very": 498,
    "Ġjustice": 5111,
    "pow": 10719,
    "Ġcomplet": 4423,
    "Ġdisgusted": 14993,
    "Ġdashing": 8800,
    "Ġdiscussed": 19562,
    "ron": 5216,
    "Ġdemoniacal": 20559,
    "Ġglided": 7447,
    "Ġfaithful": 9506,
    "cowardly": 25750,
    "splice": 17173,
    "sl": 5794,
    "teenth": 11878,
    "omit": 13977,
    "ertain": 1207,
    "ignity": 4375,
    "agrad": 2744,
    "hearted": 6971,
    "Ġorganize": 8994,
    "osc": 18388,
    "aton": 21261,
    "Ġmund": 21321,
    "Ġpaid": 5015,
    "Ġauto": 23312,
    "Ġmultitud": 18748,
    "Ġsafety": 6341,
    "Ġindicated": 10471,
    "ech": 4390,
    "mates": 5073,
    "bber": 4569,
    "Ġsafely": 9028,
    "Ġruefully": 17304,
    "Ġcomplexity": 1692,
    "sofa": 26147,
    "laz": 15389,
    "Ġiceberg": 14719,
    "Ġoperate": 19117,
    "inhab": 10759,
    "haven": 20914,
    "wishes": 13810,
    "Ġbarrier": 16572,
    "Ġappend": 18361,
    "Ġfrightful": 7736,
    "oftentimes": 19424,
    "papers": 12506,
    "Ġgritted": 22807,
    "Ġ107": 24415,
    "Ġdestroyer": 13417,
    "Ġage": 3897,
    "greatest": 10496,
    "arson": 22746,
    "ket": 17584,
    "Ġkidnapping": 26358,
    "Ġtrophy": 20010,
    "ied": 942,
    "plish": 18201,
    "tallied": 21092,
    "Ġlee": 4222,
    "Ġremain": 1873,
    "Ġprudence": 13923,
    "gave": 7800,
    "Ġproceed": 3243,
    "beauty": 20107,
    "practised": 20250,
    "ĠĠĠĠĠĠĠĠĠĠĠĠĠĠĠĠĠĠĠĠĠĠĠĠĠĠĠĠĠĠĠĠĠĠĠĠĠĠĠĠĠ": 19585,
    "Ġintroduces": 3269,
    "Ġunreasoning": 15849,
    "clergy": 18936,
    "ecess": 17534,
    "Ġup": 463,
    "Ġwide": 4105,
    "dev": 7633,
    "izens": 18146,
    "Ġhobbling": 25645,
    "Ġclearer": 16315,
    "Ġoblique": 20172,
    "Ġarticle": 9505,
    "ament": 2436,
    "farewell": 12310,
    "Ġphilipp": 23887,
    "ozy": 17624,
    "Ġimmensely": 13599,
    "Ġtwisting": 18659,
    "Ġdeaths": 14539,
    "several": 5544,
    "Ġ129": 24474,
    "geneva": 13733,
    "Ġhogarth": 25781,
    "Ġsalt": 8017,
    "division": 20052,
    "Ġmerited": 23733,
    "Ġsuburban": 17349,
    "Ġmighty": 4230,
    "message": 17375,
    "Ġcane": 10929,
    "Ġeternally": 11371,
    "frequent": 15357,
    "arers": 12134,
    "eight": 9594,
    "Ġspeaks": 11161,
    "Ġlifted": 6986,
    "Ġtropic": 17065,
    "Ġexhaustion": 14964,
    "Ġfinest": 10395,
    "chambers": 25455,
    "Ġwalls": 6763,
    "unched": 10238,
    "Ġcotton": 17382,
    "Ġlinguistic": 12429,
    "ular": 710,
    "wake": 11548,
    "fatal": 17089,
    "Ġinqu": 2967,
    "Ġdilatory": 24704,
    "Ġmetropolitan": 17278,
    "alth": 3256,
    "Ġtearless": 24785,
    "gentlemanlike": 20005,
    "Ġentertained": 10001,
    "Ġimpertinent": 9080,
    "Ġgrapes": 15219,
    "yt": 17713,
    "Ġsurrounds": 24234,
    "Ġ105": 24413,
    "Ġperseus": 10606,
    "Ġquarter": 3977,
    "Ġchick": 22251,
    "Ġpsychology": 11450,
    "Ġaver": 1285,
    "Ġpaling": 21464,
    "antediluvian": 24346,
    "rever": 21238,
    "Ġobe": 5801,
    "assure": 9272,
    "tide": 11535,
    "Ġtantalizing": 20417,
    "saddest": 25528,
    "Ġchairs": 12830,
    "edged": 15635,
    "Ġprepared": 5878,
    "Ġpillows": 24989,
    "regular": 3046,
    "Ġchar": 1701,
    "Ġblazing": 11900,
    "Ġscents": 22286,
    "Ġdeclare": 6616,
    "emed": 3378,
    "Ġwrung": 14473,
    "Ġbefall": 8833,
    "Ġraiment": 22652,
    "Ġrad": 4962,
    "rifice": 12508,
    "Ġoverpow": 14209,
    "swell": 17665,
    "learning": 2653,
    "Ġcombines": 1163,
    "size": 15427,
    "behaved": 24463,
    "Ġfrenz": 25447,
    "Ġexpedition": 10636,
    "esty": 4307,
    "enances": 10156,
    "Ġhalf": 1670,
    "tarpaul": 21100,
    "pad": 13771,
    "Ġleap": 5824,
    "Ġhell": 5019,
    "slept": 17172,
    "Ġscenery": 11458,
    "Ġmuffled": 10643,
    "Ġwilfully": 16768,
    "Ġrachel": 11849,
    "Ġremarkably": 7703,
    "Ġplunge": 13447,
    "Ġpledge": 11603,
    "begin": 8887,
    "whole": 6086,
    "doing": 8588,
    "Ġprices": 15616,
    "Ġcab": 2630,
    "Ġexpressly": 16455,
    "Ġaffinity": 18787,
    "Ġsoftware": 18920,
    "Ġepo": 21624,
    "Ġmetropol": 11147,
    ",âĢĻ": 2324,
    "bury": 9110,
    "stayed": 25291,
    "Ġclim": 8195,
    "Ġtink": 9151,
    "ives": 1409,
    "Ġdrunk": 9427,
    "Ġpiled": 8426,
    "Ġruddy": 17128,
    "Ġdata": 517,
    "Ġstructured": 2974,
    "Ġfoundering": 21422,
    "Ġnursery": 19753,
    "Ġunp": 12777,
    "Ġdaft": 19666,
    "Ġplaning": 22607,
    "lean": 21368,
    "Ġlima": 10444,
    "removed": 15519,
    "Ġincrust": 22555,
    "Ġfancying": 12117,
    "Ġdrugg": 17122,
    "Ġpleasant": 4168,
    "Ġsar": 21216,
    "grace": 5847,
    "claim": 9838,
    "Ġsayest": 22778,
    "Ġentranced": 25836,
    "ry": 808,
    "atiable": 17776,
    "Ġtorm": 5434,
    "Ġunwarranted": 24831,
    "Ġmankind": 6700,
    "hogs": 20085,
    "Ġsole": 3296,
    "Ġinforming": 18744,
    "Ġfeast": 10280,
    "Ġreynolds": 10212,
    "Ġqualifications": 24676,
    "ĠĠĠĠĠĠĠĠĠĠĠĠĠĠĠĠĠĠĠĠĠĠĠĠĠĠĠĠĠĠĠĠĠĠĠĠĠĠĠĠĠĠĠ": 12159,
    "Ġsemicircular": 26069,
    "Ġinvade": 19144,
    "ior": 2040,
    "impat": 11204,
    "jac": 8382,
    "cho": 2760,
    "Ġwear": 6032,
    "Ġplainly": 4382,
    "Ġpalms": 8647,
    "Ġunrival": 22051,
    "street": 6496,
    "Ġcolonnades": 26277,
    "aded": 3548,
    "Ġshun": 11713,
    "Ġharpooneer": 3772,
    "Ġsure": 1865,
    "Ġcasement": 25095,
    "Ġejaculated": 15173,
    "ĠĠĠĠ": 459,
    "Ġostrich": 26432,
    "scores": 22990,
    "flood": 19809,
    "ieties": 19024,
    "Ġdecorated": 22458,
    "Ġrokovoko": 22410,
    "prepared": 13594,
    "Ġdeeds": 15761,
    "regularly": 13212,
    "Ġlazily": 11382,
    "Ġencircling": 26273,
    "eag": 20844,
    "faith": 15027,
    "V": 58,
    "Ġthing": 1637,
    "Ġtunnel": 14933,
    "Ġchallenge": 25472,
    "Ġdestruction": 6602,
    "Ġsuper": 2153,
    "resol": 17762,
    "Ġreach": 4045,
    "aped": 3765,
    "Ġlad": 2363,
    "pay": 10720,
    "Ġcounty": 9033,
    "stolidity": 21666,
    "ondescript": 22919,
    "Ġfonder": 17882,
    "iteness": 4393,
    "woods": 13423,
    "nikin": 23237,
    "Ġ125": 24470,
    "grandfather": 25012,
    "Ġbrace": 11213,
    "Ġhammers": 13245,
    "aggra": 21910,
    "peculiarity": 23112,
    "Ġanomalously": 25639,
    "volutions": 16326,
    "Ġjobs": 24833,
    "Ġcanoes": 12810,
    "application": 12367,
    "Ġobviously": 16812,
    "som": 3290,
    "âĢĻâĢĶ": 12741,
    "Ġbids": 24646,
    "tumbled": 21093,
    "Ġresolve": 13174,
    "Ġbressed": 21390,
    "olstad": 7614,
    "Ġcauses": 2560,
    "Ġdoing": 3660,
    "Ġhooded": 12410,
    "Ġclerical": 25569,
    "Ġdet": 513,
    "Ġremoval": 12122,
    "Ġvirtue": 4923,
    "Ġforster": 5230,
    "uded": 6288,
    "Ġsixty": 7723,
    "hast": 5358,
    "modern": 1246,
    "urbed": 15713,
    "wise": 2573,
    "Ġsplashing": 16552,
    "Ġagitates": 22521,
    "tailed": 17687,
    "exped": 16526,
    "Ġgulf": 10638,
    "Ġpost": 4274,
    "Ġear": 1421,
    "Ġgunw": 6214,
    "Ġmyself": 1454,
    "Ġbomb": 17869,
    "Ġvicious": 24403,
    "Ġpreference": 9736,
    "hush": 20908,
    "Ġgladly": 14683,
    "ġ": 226,
    "disc": 4730,
    "prises": 23817,
    "Ġcasc": 15560,
    "uously": 7353,
    "Ġlabors": 23332,
    "Ġdecoyed": 18491,
    "offered": 14520,
    "Ġabsent": 7016,
    "Ġtarpaulin": 26158,
    "Ġallows": 3234,
    "Ġdoubloons": 13438,
    "casks": 20406,
    "Ġelaborate": 18638,
    "inv": 8402,
    "ateful": 5928,
    "Ġrequisition": 22643,
    "forward": 2186,
    "Ġ52": 24317,
    "pl": 401,
    "ordingly": 18516,
    "Ġdepend": 778,
    "Ġfe": 490,
    "izing": 1067,
    "Ġrelations": 5854,
    "friends": 8306,
    "Ġsecured": 6747,
    "cannon": 22967,
    "porpoise": 16437,
    "secur": 18129,
    "between": 5071,
    "speckled": 23948,
    "antic": 1601,
    "ick": 834,
    "dearest": 11739,
    "Ġpantaloons": 20299,
    "Ġentering": 6287,
    "erect": 20850,
    "Ġquit": 5246,
    "Ġpagoda": 19791,
    "Ġlouder": 13472,
    "Ġdictating": 20155,
    "ears": 20847,
    "rendering": 22345,
    "apes": 9744,
    "Ġlurks": 11292,
    "Ġadvised": 16218,
    "Ġimposs": 16618,
    "Ġinstruction": 14346,
    "exe": 11793,
    "m": 81,
    "Ġbelongs": 8015,
    "Ġmaritime": 23041,
    "Ġramble": 9316,
    "puff": 21024,
    "generous": 16571,
    "Ġgross": 11628,
    "anning": 10167,
    "Ġmalignity": 10559,
    "Ġsqueaking": 26276,
    "Ġphaet": 16322,
    "Ġpositively": 13036,
    "Ġmouldy": 14977,
    "Ġdishonoured": 20394,
    "Ġder": 1498,
    "Ġdeposit": 17271,
    "renched": 7907,
    "endeavour": 17032,
    "Ġtea": 5041,
    "estone": 18365,
    "Ġpredict": 684,
    "Ġdisadvantage": 12895,
    "lightning": 16555,
    "hours": 9127,
    "Ġrendered": 5773,
    "Ġcynical": 25771,
    "Ġroar": 9756,
    "Ġviolence": 5964,
    "Ġbanker": 8670,
    "desper": 13223,
    "taught": 17686,
    "owards": 4595,
    "prevailed": 17348,
    "Ġmagnet": 10392,
    "istic": 1002,
    "Ġblame": 6447,
    "embedding": 20360,
    "Ġcensus": 15100,
    "beh": 5472,
    "Ġprofessions": 11233,
    "Ġcrouching": 23443,
    "kerchief": 7525,
    "another": 5439,
    "Ġloft": 5642,
    "oub": 1632,
    "idays": 21774,
    "Ġlips": 3991,
    "balanced": 14556,
    "Ġcasts": 19429,
    "test": 13795,
    "Ġcolonel": 3407,
    "Ġenergetic": 15201,
    "Ġgallery": 10527,
    "Ġhole": 6080,
    "thodox": 21992,
    "tranquil": 25871,
    "worn": 13809,
    "sex": 12718,
    "Ġcarav": 18903,
    "Ġmelt": 21320,
    "Ġdoes": 943,
    "Ġinsights": 13183,
    "Ġ102": 24410,
    "Ġconjoined": 21810,
    "Ġgo": 614,
    "Ġvain": 3629,
    "Ġfixed": 2682,
    "Ġpeak": 16130,
    "indifferent": 14211,
    "Ġopine": 19229,
    "Ġpolitely": 8996,
    "Ġaper": 17745,
    "Ġjeopardy": 13600,
    "Ġnewton": 3532,
    "supplement": 14800,
    "owal": 13996,
    "awk": 23116,
    "Ġrepose": 6743,
    "Ġdears": 18138,
    "coff": 9112,
    "Ġshadows": 8013,
    "Ġawful": 6201,
    "parts": 14603,
    "Ġval": 986,
    "begone": 12883,
    "savor": 25027,
    "take": 4577,
    "Ġtapering": 8775,
    "Ġdrove": 4984,
    "fre": 5425,
    "Ġ60": 14878,
    "Ġangry": 5498,
    "sailors": 9925,
    "Ġalien": 14021,
    "Ġspan": 11732,
    "igns": 8449,
    "Ġsongs": 13424,
    "enemy": 15530,
    "forced": 11033,
    "shroud": 20313,
    "Ġvelv": 10622,
    "incidentally": 20542,
    "Ġinformed": 6719,
    "Ġflint": 23012,
    "Ġspite": 4154,
    "Ġobservation": 6599,
    "Ġwa": 1752,
    "Ġundertake": 14482,
    "Ġmantle": 25275,
    "Ġpistols": 17332,
    "gree": 10703,
    "brought": 7285,
    "Q": 53,
    "Ġmaster": 3680,
    "Ġlodging": 24096,
    "Ġbreeze": 5681,
    "terror": 18131,
    "Ġnorton": 12654,
    "mrs": 3743,
    "Ġbattalions": 25777,
    "Ġheedfulness": 24522,
    "queen": 12732,
    "sford": 5999,
    "Ġvalue": 2085,
    "ingham": 21303,
    "Ġmurdering": 14814,
    "Ġanger": 5442,
    "Ġstrong": 1784,
    "Ġ200": 19297,
    "Ġupper": 5090,
    "Ġtotal": 4993,
    "gradient": 2271,
    "Ġhumaneval": 25583,
    "ruct": 687,
    "Ġcushion": 17835,
    "Ġvenetian": 14850,
    "laborers": 23919,
    "Ġregular": 932,
    "Ġexponentially": 1442,
    "university": 25984,
    "Ġrect": 18028,
    "Ġguide": 3216,
    "Ġstable": 2696,
    "different": 6502,
    "Ġunprejudiced": 18270,
    "Ġsuspect": 5758,
    "Ġannoyance": 20664,
    "Ġeurope": 8062,
    "res": 2758,
    "Ġelsewhere": 7713,
    "apply": 18760,
    "pick": 17636,
    "alarmed": 21506,
    "Ġunwound": 24829,
    "Ġsyrian": 18356,
    "tahit": 17694,
    "Ġcrashes": 13129,
    "Ġ111": 24436,
    "Ġvi": 1953,
    "Ġcler": 11774,
    "Ġdew": 14045,
    "Ġterribly": 10427,
    "collecting": 26082,
    "Ġpenetrating": 17013,
    "causes": 20346,
    "Ġaverages": 2396,
    "pond": 21015,
    "iates": 13740,
    "Ġadequate": 20311,
    "Ġendured": 6074,
    "Ġinsure": 13182,
    "trem": 17683,
    "Ġtook": 1855,
    "Ġmbpp": 21325,
    "Ġbidirectional": 3755,
    "Ġsemicircle": 26068,
    "Ġmarlings": 23039,
    "imate": 4221,
    "Ġpulling": 5864,
    "ant": 437,
    "Ġminutely": 14563,
    "earnestly": 17316,
    "Ġsatan": 14393,
    "Ġlightness": 23263,
    "Ġcolonies": 14378,
    "Ġimaginations": 16518,
    "Ġdefinite": 11071,
    "whispered": 20037,
    "Ġcaptured": 7245,
    "Ġlimbs": 5967,
    "Ġpangs": 15619,
    "winter": 10742,
    "Ġteacup": 16215,
    "Ġmeas": 1096,
    "soles": 18685,
    "Ġext": 895,
    "zek": 16275,
    "turned": 7306,
    "Ġsundering": 23277,
    "Ġsignificance": 13285,
    "Ġmasks": 23331,
    "Ġinsens": 8277,
    "Ġcargo": 16293,
    "Ġoccurs": 1857,
    "Ġresc": 4507,
    "mid": 5617,
    "Ġguns": 16778,
    "aus": 1500,
    "ern": 779,
    "Ġtroop": 24898,
    "Ġineffable": 17335,
    "Ġdecember": 15009,
    "Ġapproaching": 6285,
    "aint": 2540,
    "Ġimperfectly": 25727,
    "usoid": 4768,
    "Ġ81": 24457,
    "Ġprofoundest": 16862,
    "Ġsatirical": 26281,
    "Ġlot": 6680,
    "Ġshears": 18320,
    "prosper": 19102,
    "Ġseemed": 1278,
    "inc": 2518,
    "angels": 22106,
    "trial": 20353,
    "underneath": 23791,
    "lled": 10110,
    "Ġinasmuch": 10827,
    "Ġshivering": 10268,
    "Ġshed": 8181,
    "Ġsacr": 7195,
    "solitary": 14506,
    "Ġstraight": 3702,
    "after": 2896,
    "Ġdirectors": 18923,
    "arrival": 15604,
    "ution": 4350,
    "Ġconfined": 7465,
    "mblance": 7323,
    "Ġinfall": 7960,
    "Ġaltitude": 26204,
    "opy": 4459,
    "Ġcheerfulness": 10519,
    "Ġvaults": 17156,
    "conquerable": 17402,
    "Ġpacific": 5153,
    "Ġwiser": 14733,
    "wants": 21133,
    "introdu": 8940,
    "Ġgifts": 21615,
    "Ġbaffled": 12407,
    "f": 74,
    "japan": 15378,
    "umul": 1288,
    "imson": 12694,
    "perv": 1619,
    "top": 4486,
    "Ġphilosophy": 7105,
    "Ġhumor": 11053,
    "evident": 25521,
    "orous": 5294,
    "Ġbottom": 3673,
    "Ġimpatience": 7509,
    "Ġcommerce": 11017,
    "Ġtusked": 25427,
    "Ġearlier": 9090,
    "Ġmeal": 9700,
    "rane": 17655,
    "iro": 20916,
    "ray": 2434,
    "remental": 21250,
    "Ġhorsham": 10408,
    "Ġinjection": 3465,
    "Ġsadder": 24054,
    "Ġturbul": 23614,
    "Ġpremature": 3724,
    "pardonable": 17220,
    "fr": 4805,
    "Ġboarding": 12091,
    "soon": 4027,
    "forster": 16165,
    "Ġhas": 825,
    "Ġvillages": 14751,
    "Ġsebastian": 11702,
    "Ġfriendship": 7246,
    "gaffman": 26392,
    "Ġupbraiding": 26228,
    "advantage": 8662,
    "Ġregent": 18588,
    "Ġsto": 1499,
    "speeches": 25240,
    "Ġembellish": 25849,
    "Ġbravely": 23842,
    "Ġextinct": 14336,
    "Ġdozing": 22247,
    "machines": 8385,
    "pus": 3414,
    "Ġknock": 9976,
    "Ġbreath": 4792,
    "occasion": 7754,
    "fer": 1893,
    "Ġlaughing": 5339,
    "Ġpopularly": 12246,
    "Ġbake": 21385,
    "Ġeleventh": 23372,
    "vessels": 10628,
    "Ġanticipated": 13514,
    "particularly": 8340,
    "Ġlunatic": 24993,
    "immense": 18055,
    "Ġscared": 14192,
    "ascending": 24706,
    "ientiously": 21945,
    "Ġsimilitude": 19212,
    "Ġwardrobe": 17228,
    "Ġungodly": 26515,
    "Ġheidelburgh": 11646,
    "willingly": 11987,
    "ource": 5243,
    "Ġrigging": 5601,
    "Ġrecognised": 9002,
    "avating": 18607,
    "lodged": 25908,
    "Ġlivelihood": 24773,
    "Ġcele": 9903,
    "Ġlong": 795,
    "business": 5610,
    "omen": 4084,
    "Ġdutch": 6329,
    "Ġobserved": 3540,
    "Ġexhale": 24402,
    "emic": 18187,
    "compliments": 24807,
    "fierce": 25256,
    "Ġviewing": 19266,
    "Ġcharmingly": 24224,
    "Ġsatiated": 22905,
    "Ġbending": 12590,
    "Ġallowance": 14392,
    "ocation": 14628,
    "musket": 25342,
    "Ġself": 1776,
    "atra": 17773,
    "Ġmel": 4818,
    "ologies": 18774,
    "Ġpaddle": 20062,
    "ixed": 4853,
    "ĠĠĠĠĠĠĠĠĠĠĠĠĠĠĠĠĠĠĠĠĠĠĠĠĠĠĠĠĠĠĠĠĠ": 12046,
    "nuee": 17433,
    "Ġunreason": 15846,
    "Ġlubber": 17447,
    "Ġclimax": 25054,
    "Ġvapors": 19910,
    "sticks": 25966,
    "Ġcoldly": 14652,
    "Ġvocabulary": 4995,
    "none": 6962,
    "games": 20882,
    "ights": 8478,
    "pacing": 21023,
    "ĠĠĠĠĠĠĠĠĠĠĠĠĠĠĠĠĠĠĠĠĠĠĠĠĠĠĠĠĠĠĠĠĠĠĠ": 19260,
    "Ġferry": 24498,
    "Ġweighed": 8714,
    "Ġsplashed": 23750,
    "ician": 21568,
    "Ġrattler": 24998,
    "Ġuneasiness": 9487,
    "Ġincrease": 9373,
    "Ġpalpit": 16692,
    "Ġimplies": 24873,
    "Ġbodies": 8032,
    "buttoned": 13636,
    "ortment": 22259,
    "Ġanxiously": 8290,
    "Ġmout": 17800,
    "Ġwoodlands": 23524,
    "Ġfishy": 16525,
    "Ġdomineering": 23695,
    "Ġlodge": 5779,
    "evidence": 25522,
    "therefore": 5955,
    "Ġriggers": 24158,
    "Ġerection": 24004,
    "Ġwont": 9855,
    "Ġcommitting": 22676,
    "Ġquito": 24408,
    "taken": 7560,
    "Ġknives": 14840,
    "Ġcrumpled": 16440,
    "Ġcham": 4893,
    "Ġsocks": 14136,
    "Ġcarve": 23095,
    "Ġpestilent": 25778,
    "doubt": 6783,
    "%": 9,
    "Ġtry": 3135,
    "Ġmingled": 12381,
    "Ġjogged": 26238,
    "Ġdeigned": 18140,
    "Ġcust": 11585,
    "Ġshocks": 16460,
    "Ġravine": 18645,
    "Ġvineyard": 12334,
    "Ġpinch": 15019,
    "Ġcustoms": 19655,
    "Ġpoetic": 17104,
    "Ġanchored": 17443,
    "hardly": 6492,
    "Ġprevious": 2089,
    "blasted": 20192,
    "ilty": 6395,
    "Ġdisinterested": 16061,
    "conducted": 25573,
    "ore": 418,
    "Ġimprovements": 14521,
    "Ġslip": 8957,
    "Ġjan": 11766,
    "Ġsa": 474,
    "antucket": 2640,
    "Ġrecollected": 8311,
    "Ġlistless": 16478,
    "Ġaudibly": 24770,
    "Ġspin": 7630,
    "murder": 10567,
    "Ġantip": 24180,
    "Ġunclasp": 26513,
    "pen": 1203,
    "shine": 9289,
    "Ġmixing": 24937,
    "isticated": 1622,
    "Ġbert": 4583,
    "icit": 3376,
    "Ġinconsist": 17938,
    "iform": 2199,
    "ļ": 253,
    "Ġpar": 456,
    "harmony": 25751,
    "ials": 11710,
    "Ġknave": 11274,
    "onom": 9161,
    "Ġlam": 21552,
    "escript": 18472,
    "remark": 7261,
    "abama": 12714,
    "Ġdisgraceful": 15022,
    "shabbily": 26248,
    "Ġmuff": 8114,
    "Ġfort": 2577,
    "Ġsecretary": 19445,
    "Ġpronounce": 16970,
    "aited": 12439,
    "Ġelder": 7224,
    "Ġpaced": 7584,
    "Ġhid": 1318,
    "rannical": 26403,
    "rador": 19129,
    "forbidding": 25838,
    "Ġbegun": 7243,
    "Ġmouths": 7491,
    "reluct": 26164,
    "Ġstarboard": 7608,
    "Ġassuredly": 14825,
    "Ġcumbrous": 26434,
    "height": 21208,
    "chapter": 1404,
    "fed": 11490,
    "Ġhappening": 14386,
    "Ġadvent": 4357,
    "Ġsake": 4089,
    "!âĢĿâĢĶ": 8535,
    "Ġtendency": 11331,
    "Ġpatch": 4181,
    "Ġofficial": 7083,
    "Ġwhales": 1829,
    "Ġcharged": 9857,
    "Ġsurmount": 20004,
    "Ġlic": 8437,
    "rather": 5430,
    "Ġstronger": 8582,
    "ĠĠĠĠĠĠĠĠĠĠĠĠĠĠĠĠĠĠĠĠĠĠĠĠĠĠĠĠĠĠĠĠĠĠĠĠ": 23665,
    "Ġprecipice": 19944,
    "usions": 6161,
    "ven": 781,
    "Ġpassion": 4558,
    "Ġprofile": 16490,
    "Ġenchantment": 24870,
    "Ġandes": 12646,
    "ums": 10275,
    "Ġcub": 8415,
    "Ġturing": 7566,
    "geese": 22371,
    "Ġwed": 7575,
    "Ġconceits": 19393,
    "terbury": 21828,
    "Ġable": 3084,
    "iance": 5280,
    "Ġne": 390,
    "rey": 12543,
    "Ġteasing": 11894,
    "our": 534,
    "Ġpluck": 15618,
    "Ġfainting": 16899,
    "Ġxvi": 19106,
    "money": 8753,
    "Ġpal": 4040,
    "mile": 17599,
    ");": 7330,
    "reclining": 20577,
    "intellig": 5321,
    "insulting": 26056,
    "Ġmab": 12565,
    "||": 4870,
    "Ġbrandy": 11051,
    "Ġlirra": 21563,
    "Ġperils": 6274,
    "Ġcordon": 24394,
    "Ġsuperflu": 14555,
    "purp": 8091,
    "pray": 5429,
    "humoredly": 26326,
    "superiority": 20188,
    "deserted": 19344,
    "Ġcharmed": 16764,
    "insensibility": 23071,
    "Ġjunk": 15957,
    "Ġprogeny": 17391,
    "distinguish": 19575,
    "Ġmorris": 18846,
    "Ġsevere": 6033,
    "tering": 3807,
    "Ġagonising": 25374,
    "Ġrealise": 16341,
    "shoes": 14241,
    "Ġlicensing": 20096,
    "Ġwherever": 8526,
    "Ġxiv": 23410,
    "Ġem": 1924,
    "blending": 24129,
    "Ġsmoky": 22563,
    "Ġharem": 9712,
    "Ġce": 3035,
    "Ġsummits": 14685,
    "Ġinsignificant": 20459,
    "Ġcocaine": 20723,
    "Ġreconciliation": 25293,
    "Ġbroken": 3447,
    "Ġinstituted": 18702,
    "Ġblankets": 24612,
    "gia": 20878,
    "Ġcivility": 4789,
    "Ġbrooded": 23106,
    "Ġtransaction": 22462,
    "inative": 15487,
    "Ġsplice": 19310,
    "unte": 21877,
    "Ġcontro": 1685,
    "Ġunspeak": 8854,
    "Ġwaved": 9647,
    "Ġdint": 15595,
    "Ġcouns": 10523,
    "eg": 17531,
    "Ġubiqu": 18049,
    "Ġindignity": 18834,
    "tu": 12516,
    "Ġfac": 6382,
    "Ġextremest": 19196,
    "Ġinhale": 20303,
    "Ġwhitewashed": 14472,
    "residual": 19264,
    "Ġsmoothed": 23658,
    "Ġkrusen": 20716,
    "vice": 15452,
    "Ġcroquet": 9965,
    "borrowed": 20794,
    "Ġmarvelled": 18875,
    "ter": 359,
    "Ġadult": 18293,
    "cushion": 20823,
    "venison": 22632,
    "Ġpartially": 13127,
    "Ġparallel": 1414,
    "Ġchains": 8251,
    "screw": 9349,
    "Ġlionel": 25287,
    "Ġgaol": 19570,
    "onies": 6807,
    "Ġlevels": 12701,
    "read": 3275,
    "hot": 8084,
    "olently": 15764,
    "Ġbelonged": 6922,
    "supplementary": 20552,
    "Ġvag": 9711,
    "Ġpaper": 4284,
    "Ġnap": 8813,
    "ury": 3310,
    "inea": 7623,
    "omics": 21646,
    "servants": 15040,
    "Ġvap": 6837,
    "draughts": 20391,
    "eling": 6683,
    "club": 26382,
    "Ġdismasted": 15255,
    "Ġoriginal": 6104,
    "opÃ¦": 12877,
    "Ġanxious": 4518,
    "Ġameric": 3856,
    "Ġequilibrium": 4139,
    "Ġreus": 8826,
    "Ġdreamy": 14706,
    "Ġbene": 2033,
    "Ġcountryside": 23598,
    "deprived": 19900,
    "Ġpebbles": 16133,
    "utarch": 15666,
    "desperate": 17360,
    "doc": 23379,
    "Ġhurst": 5582,
    "tisement": 6768,
    "Ġpaus": 4300,
    "Ġungod": 22028,
    "Ġtottenham": 24144,
    "jud": 4482,
    "Ġanecd": 20157,
    "glancing": 11216,
    "Ġskin": 5038,
    "superior": 9528,
    "Ġmeek": 21813,
    "Ġforemost": 12009,
    "ime": 624,
    "mus": 10113,
    "Ġkilburn": 18352,
    "Ġprofess": 3698,
    "only": 3306,
    "Ġbob": 22639,
    "ript": 4151,
    "ics": 3257,
    "historian": 25735,
    "Ġhardened": 14453,
    "Ġsavory": 23879,
    "Ġfished": 21413,
    "erval": 4019,
    "Ġdre": 1741,
    "Ġinsanity": 12050,
    "Ġcoals": 16082,
    "Ġmau": 21313,
    "rential": 22921,
    "geor": 15982,
    "Ġsplintered": 11420,
    "ir": 379,
    "degrees": 22154,
    "Ġrazors": 22657,
    "Ġspanish": 2829,
    "Ġadhes": 22111,
    "Ġcords": 14882,
    "small": 6473,
    "iron": 3760,
    "accepting": 20138,
    "Ġchili": 25562,
    "Ġcalifornian": 25853,
    "Ġgor": 9209,
    "oology": 21008,
    "Ġsupercil": 23455,
    "Ġegotistical": 26193,
    "Ġencoder": 3635,
    "idable": 8146,
    "Ġ275": 20114,
    "reflected": 24732,
    "Ġloo": 22114,
    "Ġaugment": 8695,
    "Ġdiverted": 14594,
    "granting": 23416,
    "Ġaffl": 14389,
    "nose": 17612,
    "convenient": 12242,
    "Ġlevelled": 11286,
    "overlooked": 23326,
    "Ġlamented": 24994,
    "Ġungovernable": 20711,
    "Ġrefuge": 8540,
    "Ġsuggestion": 19710,
    "Ġprovision": 14828,
    "Ġplata": 25120,
    "©": 107,
    "disgrace": 16461,
    "Ġkings": 7197,
    "known": 3567,
    "Ġstake": 14007,
    "Ġpa": 2991,
    "chief": 4646,
    "hatches": 19930,
    "Ġplates": 11009,
    "Ġpatterns": 1214,
    "mad": 5281,
    "Ġtherefore": 2237,
    "Ġinconvenient": 20013,
    "Ġconverts": 2806,
    "albatross": 15634,
    "Ġcryst": 9920,
    "apologizing": 26546,
    "Ġpalpitated": 26086,
    "Ġmainz": 22658,
    "clump": 23159,
    "Ġmaximizing": 3170,
    "Ġaffair": 4464,
    "Ġaustralia": 15236,
    "Ġsteadfastly": 10654,
    "latin": 25259,
    "advanced": 19591,
    "Ġadvocate": 13680,
    "Ġfearfulness": 23516,
    "Ġsubst": 4275,
    "shore": 10307,
    "Ġprojecting": 9988,
    "Ġtouching": 4682,
    "venant": 22631,
    "cies": 1815,
    "Ġattempts": 10493,
    "bold": 17490,
    "Ġspr": 4024,
    "Ġprints": 16334,
    "encoun": 12302,
    "ice": 588,
    "Ġtwinkle": 12327,
    "manif": 14376,
    "Ġgoodge": 22826,
    "leful": 17844,
    "lers": 10109,
    "spades": 14334,
    "Ġdespairing": 14777,
    "Ġmagnitude": 1944,
    "Ġtol": 6677,
    "dden": 1805,
    "Ġchain": 1845,
    "Ġaslant": 21905,
    "impress": 18054,
    "Ġphrenologists": 25609,
    "pursu": 11394,
    "Ġprevented": 5943,
    "Ġprofit": 14587,
    "Ġsperm": 1844,
    "Ġantichronical": 26611,
    "Ġ": 225,
    "_âĢĶâĢĿ": 20765,
    "macy": 18807,
    "yea": 23090,
    "Ġunexpectedly": 19911,
    "emper": 18188,
    "beloved": 19464,
    "Ġrecommended": 8671,
    "iluvian": 18063,
    "pots": 11516,
    "Ġjung": 12841,
    "Ġdaboll": 25951,
    "Ġadorned": 15251,
    "aby": 18109,
    "ters": 1572,
    "ris": 9140,
    "Ġpott": 21470,
    "Ġdefines": 1739,
    "Ġvigil": 9510,
    "osoever": 17346,
    "Ġthickening": 24027,
    "Ġsticking": 13431,
    "Ġnuts": 17954,
    "Ġsalut": 10512,
    "Ġlessons": 7692,
    "Ġtout": 17721,
    "completely": 12424,
    "Ġswears": 16466,
    "Ġenough": 1760,
    "Ġincludes": 2012,
    "ilies": 18059,
    "Ġcringing": 25942,
    "Ġunreserved": 19400,
    "lot": 3207,
    "mel": 9130,
    "Ġwaldman": 11347,
    "Ġmultiplied": 23690,
    "Ġdarkness": 4279,
    "Ġrested": 9382,
    "Ġmemoirs": 26207,
    "Ġsubsisting": 23437,
    "steak": 14711,
    "biting": 20783,
    "Ġboots": 5944,
    "bles": 7019,
    "Ġinputs": 841,
    "Ġpresentiment": 18990,
    "Ġobserver": 11993,
    "rine": 21040,
    "Ġassociations": 14966,
    "Ġcontribut": 12864,
    "Ġsaintsbury": 26374,
    "Ġcoincidences": 26365,
    "Ġalcoves": 26488,
    "Ġ115": 24439,
    "Ġexpans": 18624,
    "Ġreaders": 18916,
    "Ġmates": 4873,
    "Ġkins": 22198,
    "belongs": 25597,
    "Ġpermitted": 9281,
    ";âĢĻ": 15306,
    "Ġindistinctly": 26118,
    "vel": 2382,
    "Ġdownwards": 8532,
    "serv": 7451,
    "kin": 7133,
    "ent": 305,
    "Ġfaltering": 17886,
    "Ġingenuity": 17166,
    "inclined": 10642,
    "Ġfloundering": 16253,
    "Ġlengths": 19208,
    "Ġpemberley": 4589,
    "Ġrun": 2353,
    "henomenon": 13618,
    "slackened": 26095,
    "agre": 18167,
    "Ġumbrella": 15269,
    "Ġlifting": 10199,
    "abases": 3008,
    "Ġjacobians": 2893,
    "Ġoutsk": 15960,
    "formal": 14171,
    "agony": 14072,
    "Ġlock": 5929,
    "Ġsinews": 20290,
    "forgotten": 12420,
    "conversation": 7124,
    "Ġlatitudes": 9499,
    "Ġsealed": 15822,
    "Ġhumorous": 10363,
    "Ġquivering": 12863,
    "Ġpetulance": 24230,
    "Ġnorthward": 13326,
    "sell": 13784,
    "Ġdonkey": 23229,
    "borough": 20787,
    "terdam": 18132,
    "Ġdesol": 6881,
    "lifeless": 24314,
    "rating": 7808,
    "Ġexcessively": 9443,
    "Ġban": 7157,
    "Ġnoiselessly": 22865,
    "rusion": 11325,
    "themselves": 6542,
    "Ġlustrous": 20159,
    "Ġtrunks": 15980,
    "**:": 4738,
    "ateral": 19380,
    "Ġnat": 12650,
    "Ġchill": 11756,
    "ated": 729,
    "wolf": 26411,
    "apart": 15965,
    "og": 875,
    "oker": 10965,
    "Ġagreeably": 24955,
    "seas": 14036,
    "Ġjewels": 12373,
    "Ġguido": 2979,
    "Ġunreasonably": 17454,
    "Ġbusiness": 2231,
    "Ġegg": 8823,
    "Ġcranial": 25593,
    "Ġclump": 15970,
    "brave": 19826,
    "Ġtheir": 643,
    "ivities": 22082,
    "hro": 20893,
    "Ġreached": 4022,
    "crop": 20800,
    "Ē": 211,
    "Ġlurid": 19684,
    "despicable": 24638,
    "Ġembalmed": 13660,
    "Ġmarble": 7669,
    "lips": 13753,
    "Ġrelevant": 1864,
    "russian": 22183,
    "Ġissu": 6255,
    "Ġlay": 584,
    "Ġclub": 8877,
    "here": 2548,
    "igen": 4831,
    "directly": 13712,
    "Ġtapers": 11554,
    "Ġconstantly": 11977,
    "measureless": 20238,
    "aggo": 5097,
    "Ġcal": 1324,
    "Ġfelix": 4850,
    "Ġconscientious": 16729,
    "Ġdelicately": 24126,
    "Ġcompos": 22574,
    "Ġgifted": 17999,
    "Ġsucceed": 4546,
    "halloa": 17091,
    "Ġperforming": 7928,
    "Ġbast": 21382,
[...]
